{
  "version": "1.0",
  "truncation": null,
  "padding": null,
  "added_tokens": [
    {
      "id": 0,
      "content": "[UNK]",
      "single_word": false,
      "lstrip": false,
      "rstrip": false,
      "normalized": false,
      "special": true
    },
    {
      "id": 1,
      "content": "[PAD]",
      "single_word": false,
      "lstrip": false,
      "rstrip": false,
      "normalized": false,
      "special": true
    },
    {
      "id": 2,
      "content": "[CLS]",
      "single_word": false,
      "lstrip": false,
      "rstrip": false,
      "normalized": false,
      "special": true
    },
    {
      "id": 3,
      "content": "[SEP]",
      "single_word": false,
      "lstrip": false,
      "rstrip": false,
      "normalized": false,
      "special": true
    },
    {
      "id": 4,
      "content": "[MASK]",
      "single_word": false,
      "lstrip": false,
      "rstrip": false,
      "normalized": false,
      "special": true
    }
  ],
  "normalizer": {
    "type": "Sequence",
    "normalizers": [
      {
        "type": "NFD"
      },
      {
        "type": "Lowercase"
      },
      {
        "type": "StripAccents"
      }
    ]
  },
  "pre_tokenizer": {
    "type": "Sequence",
    "pretokenizers": [
      {
        "type": "Metaspace",
        "replacement": "▁",
        "prepend_scheme": "always",
        "split": true
      }
    ]
  },
  "post_processor": {
    "type": "TemplateProcessing",
    "single": [
      {
        "SpecialToken": {
          "id": "[CLS]",
          "type_id": 0
        }
      },
      {
        "Sequence": {
          "id": "A",
          "type_id": 0
        }
      },
      {
        "SpecialToken": {
          "id": "[SEP]",
          "type_id": 0
        }
      }
    ],
    "pair": [
      {
        "SpecialToken": {
          "id": "[CLS]",
          "type_id": 0
        }
      },
      {
        "Sequence": {
          "id": "A",
          "type_id": 0
        }
      },
      {
        "SpecialToken": {
          "id": "[SEP]",
          "type_id": 0
        }
      },
      {
        "Sequence": {
          "id": "B",
          "type_id": 1
        }
      },
      {
        "SpecialToken": {
          "id": "[SEP]",
          "type_id": 1
        }
      }
    ],
    "special_tokens": {
      "[CLS]": {
        "id": "[CLS]",
        "ids": [
          2
        ],
        "tokens": [
          "[CLS]"
        ]
      },
      "[SEP]": {
        "id": "[SEP]",
        "ids": [
          3
        ],
        "tokens": [
          "[SEP]"
        ]
      }
    }
  },
  "decoder": {
    "type": "Metaspace",
    "replacement": "▁",
    "prepend_scheme": "always",
    "split": true
  },
  "model": {
    "type": "WordPiece",
    "unk_token": "[UNK]",
    "continuing_subword_prefix": "##",
    "max_input_chars_per_word": 100,
    "vocab": {
      "[UNK]": 0,
      "[PAD]": 1,
      "[CLS]": 2,
      "[SEP]": 3,
      "[MASK]": 4,
      "!": 5,
      "\"": 6,
      "#": 7,
      "$": 8,
      "%": 9,
      "&": 10,
      "'": 11,
      "(": 12,
      ")": 13,
      "*": 14,
      "+": 15,
      ",": 16,
      "-": 17,
      ".": 18,
      "/": 19,
      "0": 20,
      "1": 21,
      "2": 22,
      "3": 23,
      "4": 24,
      "5": 25,
      "6": 26,
      "7": 27,
      "8": 28,
      "9": 29,
      ":": 30,
      ";": 31,
      "<": 32,
      "=": 33,
      "?": 34,
      "@": 35,
      "[": 36,
      "]": 37,
      "_": 38,
      "`": 39,
      "a": 40,
      "b": 41,
      "c": 42,
      "d": 43,
      "e": 44,
      "f": 45,
      "g": 46,
      "h": 47,
      "i": 48,
      "j": 49,
      "k": 50,
      "l": 51,
      "m": 52,
      "n": 53,
      "o": 54,
      "p": 55,
      "q": 56,
      "r": 57,
      "s": 58,
      "t": 59,
      "u": 60,
      "v": 61,
      "w": 62,
      "x": 63,
      "y": 64,
      "z": 65,
      "£": 66,
      "§": 67,
      "°": 68,
      "±": 69,
      "²": 70,
      "º": 71,
      "½": 72,
      "×": 73,
      "ß": 74,
      "æ": 75,
      "ø": 76,
      "ł": 77,
      "ɑ": 78,
      "ɔ": 79,
      "ə": 80,
      "ɛ": 81,
      "ʁ": 82,
      "ʃ": 83,
      "ʊ": 84,
      "ʒ": 85,
      "ˈ": 86,
      "β": 87,
      "ε": 88,
      "ι": 89,
      "μ": 90,
      "ν": 91,
      "ο": 92,
      "ρ": 93,
      "ς": 94,
      "σ": 95,
      "υ": 96,
      "φ": 97,
      "ω": 98,
      "ا": 99,
      "ح": 100,
      "د": 101,
      "ز": 102,
      "ص": 103,
      "ف": 104,
      "ن": 105,
      "ه": 106,
      "ي": 107,
      "–": 108,
      "—": 109,
      "‘": 110,
      "’": 111,
      "“": 112,
      "”": 113,
      "•": 114,
      "…": 115,
      "€": 116,
      "▁": 117,
      "☎": 118,
      "☏": 119,
      "✉": 120,
      "一": 121,
      "况": 122,
      "口": 123,
      "古": 124,
      "司": 125,
      "和": 126,
      "图": 127,
      "夏": 128,
      "奈": 129,
      "子": 130,
      "山": 131,
      "樋": 132,
      "津": 133,
      "清": 134,
      "澹": 135,
      "琴": 136,
      "空": 137,
      "葉": 138,
      "谿": 139,
      "远": 140,
      "静": 141,
      "##r": 142,
      "##e": 143,
      "##j": 144,
      "##c": 145,
      "##t": 146,
      "##1": 147,
      "##7": 148,
      "##0": 149,
      "##m": 150,
      "##o": 151,
      "##d": 152,
      "##i": 153,
      "##f": 154,
      "##3": 155,
      "##/": 156,
      "##4": 157,
      "##b": 158,
      "##u": 159,
      "##h": 160,
      "##s": 161,
      "##a": 162,
      "##n": 163,
      "##5": 164,
      "##p": 165,
      "##l": 166,
      "##g": 167,
      "##y": 168,
      "##v": 169,
      "##-": 170,
      "##ʒ": 171,
      "##k": 172,
      "##.": 173,
      "##z": 174,
      "##x": 175,
      "##w": 176,
      "##9": 177,
      "###": 178,
      "##6": 179,
      "##2": 180,
      "##,": 181,
      "##8": 182,
      "##'": 183,
      "##图": 184,
      "##q": 185,
      "##…": 186,
      "##ø": 187,
      "##谿": 188,
      "##山": 189,
      "##×": 190,
      "##:": 191,
      "##’": 192,
      "##ł": 193,
      "##?": 194,
      "##@": 195,
      "##(": 196,
      "##)": 197,
      "##[": 198,
      "##ɔ": 199,
      "##ʁ": 200,
      "##+": 201,
      "##]": 202,
      "##&": 203,
      "##☎": 204,
      "##✉": 205,
      "##–": 206,
      "##ʃ": 207,
      "##ɑ": 208,
      "##ح": 209,
      "##د": 210,
      "##ي": 211,
      "##静": 212,
      "##ə": 213,
      "##ˈ": 214,
      "##ʊ": 215,
      "##奈": 216,
      "##津": 217,
      "##ι": 218,
      "##ε": 219,
      "##ρ": 220,
      "##ω": 221,
      "##ν": 222,
      "##υ": 223,
      "##μ": 224,
      "##ο": 225,
      "##ς": 226,
      "##_": 227,
      "##æ": 228,
      "##£": 229,
      "##²": 230,
      "##*": 231,
      "##!": 232,
      "##夏": 233,
      "##子": 234,
      "##古": 235,
      "##—": 236,
      "##清": 237,
      "##一": 238,
      "##葉": 239,
      "##‘": 240,
      "##`": 241,
      "##=": 242,
      "##°": 243,
      "##±": 244,
      "##ɛ": 245,
      "##ß": 246,
      "##$": 247,
      "##½": 248,
      "##司": 249,
      "##空": 250,
      "##”": 251,
      "##º": 252,
      "##σ": 253,
      "##β": 254,
      "##和": 255,
      "##ا": 256,
      "##ص": 257,
      "##ف": 258,
      "##ه": 259,
      "##ن": 260,
      "##%": 261,
      "##☏": 262,
      "##€": 263,
      "##•": 264,
      "##ز": 265,
      "##\"": 266,
      "##§": 267,
      "##远": 268,
      "##“": 269,
      "##φ": 270,
      "##<": 271,
      "##澹": 272,
      "##琴": 273,
      "##况": 274,
      "##樋": 275,
      "##口": 276,
      "##;": 277,
      "▁t": 278,
      "▁a": 279,
      "▁th": 280,
      "##in": 281,
      "▁the": 282,
      "▁s": 283,
      "##re": 284,
      "▁o": 285,
      "▁,": 286,
      "▁w": 287,
      "▁.": 288,
      "##er": 289,
      "##at": 290,
      "▁i": 291,
      "▁c": 292,
      "##nd": 293,
      "▁b": 294,
      "##on": 295,
      "▁m": 296,
      "▁h": 297,
      "▁f": 298,
      "##ou": 299,
      "##en": 300,
      "▁p": 301,
      "##or": 302,
      "##es": 303,
      "▁in": 304,
      "##ed": 305,
      "##ing": 306,
      "▁d": 307,
      "▁of": 308,
      "##an": 309,
      "▁and": 310,
      "##al": 311,
      "▁to": 312,
      "##it": 313,
      "▁l": 314,
      "##is": 315,
      "##ar": 316,
      "▁n": 317,
      "##ic": 318,
      "##as": 319,
      "▁g": 320,
      "▁y": 321,
      "##om": 322,
      "##ion": 323,
      "▁e": 324,
      "##le": 325,
      "▁re": 326,
      "##ve": 327,
      "##ll": 328,
      "▁you": 329,
      "##st": 330,
      "▁be": 331,
      "##ent": 332,
      "##ro": 333,
      "▁it": 334,
      "##ly": 335,
      "▁that": 336,
      "▁u": 337,
      "▁'": 338,
      "▁wh": 339,
      "##ut": 340,
      "##ow": 341,
      "##ot": 342,
      "▁is": 343,
      "##et": 344,
      "▁on": 345,
      "##ct": 346,
      "##ay": 347,
      "▁we": 348,
      "##se": 349,
      "▁st": 350,
      "##id": 351,
      "##ch": 352,
      "##ig": 353,
      "▁for": 354,
      "##ver": 355,
      "##ad": 356,
      "##ur": 357,
      "##ce": 358,
      "##am": 359,
      "##ke": 360,
      "##ld": 361,
      "##ir": 362,
      "##ation": 363,
      "▁he": 364,
      "▁as": 365,
      "##th": 366,
      "##ol": 367,
      "##im": 368,
      "▁'s": 369,
      "▁an": 370,
      "▁was": 371,
      "▁-": 372,
      "▁sh": 373,
      "##ith": 374,
      "▁ha": 375,
      "▁this": 376,
      "▁li": 377,
      "##il": 378,
      "▁with": 379,
      "▁do": 380,
      "▁r": 381,
      "▁se": 382,
      "▁j": 383,
      "##ter": 384,
      "##em": 385,
      "▁at": 386,
      "##ul": 387,
      "▁fr": 388,
      "▁are": 389,
      "##igh": 390,
      "▁k": 391,
      "▁ch": 392,
      "▁so": 393,
      "▁1": 394,
      "▁or": 395,
      "▁\"": 396,
      "▁con": 397,
      "▁mo": 398,
      "##qu": 399,
      "▁ex": 400,
      "##ant": 401,
      "##ge": 402,
      "▁pro": 403,
      "##ist": 404,
      "##ra": 405,
      "##ill": 406,
      "▁al": 407,
      "##op": 408,
      "▁have": 409,
      "▁v": 410,
      "▁su": 411,
      "##ers": 412,
      "▁2": 413,
      "##est": 414,
      "##ight": 415,
      "▁not": 416,
      "##oo": 417,
      "▁ne": 418,
      "##ity": 419,
      "▁?": 420,
      "▁de": 421,
      "▁com": 422,
      "▁from": 423,
      "▁like": 424,
      "▁(": 425,
      "##ate": 426,
      "##ere": 427,
      "▁by": 428,
      "▁)": 429,
      "##pe": 430,
      "##ac": 431,
      "##ally": 432,
      "##ust": 433,
      "##ould": 434,
      "##and": 435,
      "##us": 436,
      "##ess": 437,
      "▁but": 438,
      "##if": 439,
      "▁they": 440,
      "##ure": 441,
      "##ie": 442,
      "##ies": 443,
      "▁me": 444,
      "##ive": 445,
      "##ain": 446,
      "▁wor": 447,
      "▁le": 448,
      "##um": 449,
      "▁can": 450,
      "##ab": 451,
      "▁un": 452,
      "##gh": 453,
      "##art": 454,
      "▁ar": 455,
      "##ome": 456,
      "▁all": 457,
      "##un": 458,
      "##el": 459,
      "##iv": 460,
      "##'t": 461,
      "##all": 462,
      "▁n't": 463,
      "▁go": 464,
      "▁’": 465,
      "##ort": 466,
      "▁ma": 467,
      "▁ab": 468,
      "##pp": 469,
      "##res": 470,
      "▁there": 471,
      "▁kn": 472,
      "▁your": 473,
      "▁tr": 474,
      "▁my": 475,
      "##ment": 476,
      "▁one": 477,
      "##ci": 478,
      "##ud": 479,
      "▁ye": 480,
      "##os": 481,
      "##nt": 482,
      "##king": 483,
      "▁his": 484,
      "##ast": 485,
      "▁us": 486,
      "##out": 487,
      "##ough": 488,
      "▁know": 489,
      "▁int": 490,
      "▁what": 491,
      "##our": 492,
      "▁pl": 493,
      "##au": 494,
      "▁20": 495,
      "##ich": 496,
      "##og": 497,
      "▁if": 498,
      "##very": 499,
      "▁en": 500,
      "▁she": 501,
      "##per": 502,
      "##ind": 503,
      "##ard": 504,
      "##pt": 505,
      "▁qu": 506,
      "##oc": 507,
      "▁out": 508,
      "##red": 509,
      "▁pe": 510,
      "▁ro": 511,
      "▁te": 512,
      "##od": 513,
      "##ong": 514,
      "##ound": 515,
      "▁just": 516,
      "▁will": 517,
      "▁ta": 518,
      "##ib": 519,
      "▁—": 520,
      "▁im": 521,
      "▁which": 522,
      "▁am": 523,
      "▁up": 524,
      "##ine": 525,
      "##her": 526,
      "▁:": 527,
      "▁some": 528,
      "▁no": 529,
      "##ect": 530,
      "##ame": 531,
      "▁when": 532,
      "▁more": 533,
      "▁how": 534,
      "▁[": 535,
      "##pl": 536,
      "##ions": 537,
      "##ult": 538,
      "▁]": 539,
      "##ther": 540,
      "##ore": 541,
      "▁her": 542,
      "▁has": 543,
      "##ans": 544,
      "▁ad": 545,
      "▁had": 546,
      "##ous": 547,
      "##ack": 548,
      "##so": 549,
      "▁their": 550,
      "##ag": 551,
      "▁tw": 552,
      "##ish": 553,
      "▁ev": 554,
      "▁’s": 555,
      "##ff": 556,
      "##one": 557,
      "▁bec": 558,
      "▁co": 559,
      "▁!": 560,
      "▁who": 561,
      "##ime": 562,
      "▁cont": 563,
      "##ated": 564,
      "##ood": 565,
      "##age": 566,
      "▁our": 567,
      "▁would": 568,
      "▁about": 569,
      "##ide": 570,
      "▁fe": 571,
      "▁cl": 572,
      "##iz": 573,
      "▁sp": 574,
      "▁then": 575,
      "▁new": 576,
      "##ice": 577,
      "##ite": 578,
      "▁peop": 579,
      "##ace": 580,
      "▁ac": 581,
      "##ks": 582,
      "▁man": 583,
      "##ber": 584,
      "##ause": 585,
      "▁fir": 586,
      "▁were": 587,
      "▁sa": 588,
      "▁fl": 589,
      "▁per": 590,
      "▁people": 591,
      "##ry": 592,
      "▁first": 593,
      "▁ag": 594,
      "##ink": 595,
      "##ple": 596,
      "▁get": 597,
      "##00": 598,
      "##ays": 599,
      "##ah": 600,
      "▁res": 601,
      "▁also": 602,
      "##reat": 603,
      "##act": 604,
      "##ia": 605,
      "##ence": 606,
      "▁“": 607,
      "▁inter": 608,
      "▁part": 609,
      "##ach": 610,
      "▁them": 611,
      "##itt": 612,
      "▁po": 613,
      "▁other": 614,
      "▁into": 615,
      "▁time": 616,
      "▁”": 617,
      "▁been": 618,
      "##ue": 619,
      "▁ca": 620,
      "##ical": 621,
      "▁year": 622,
      "##ip": 623,
      "▁two": 624,
      "▁over": 625,
      "▁pr": 626,
      "▁than": 627,
      "▁dis": 628,
      "▁–": 629,
      "##ub": 630,
      "▁these": 631,
      "##ass": 632,
      "▁'re": 633,
      "##ang": 634,
      "▁well": 635,
      "▁af": 636,
      "▁;": 637,
      "##ary": 638,
      "##ations": 639,
      "▁may": 640,
      "▁201": 641,
      "##ree": 642,
      "##ian": 643,
      "##ose": 644,
      "##ial": 645,
      "##nder": 646,
      "##ory": 647,
      "##av": 648,
      "▁gr": 649,
      "▁any": 650,
      "##ick": 651,
      "▁see": 652,
      "##ath": 653,
      "##ook": 654,
      "##ings": 655,
      "▁because": 656,
      "##iff": 657,
      "▁now": 658,
      "▁act": 659,
      "▁every": 660,
      "▁19": 661,
      "##orm": 662,
      "##ors": 663,
      "##ance": 664,
      "▁mar": 665,
      "##are": 666,
      "▁off": 667,
      "##vel": 668,
      "##own": 669,
      "▁stud": 670,
      "▁3": 671,
      "##ire": 672,
      "▁bas": 673,
      "##cess": 674,
      "##eth": 675,
      "##te": 676,
      "##ile": 677,
      "▁think": 678,
      "##vers": 679,
      "▁diff": 680,
      "##ens": 681,
      "##ress": 682,
      "▁make": 683,
      "▁good": 684,
      "##olog": 685,
      "▁sc": 686,
      "▁did": 687,
      "▁cou": 688,
      "▁its": 689,
      "##able": 690,
      "▁ind": 691,
      "##day": 692,
      "▁yeah": 693,
      "##ts": 694,
      "##les": 695,
      "##uct": 696,
      "▁right": 697,
      "▁want": 698,
      "▁pre": 699,
      "▁spe": 700,
      "##lect": 701,
      "▁imp": 702,
      "▁inc": 703,
      "▁very": 704,
      "##uc": 705,
      "▁bet": 706,
      "▁work": 707,
      "▁col": 708,
      "##ning": 709,
      "▁comm": 710,
      "▁under": 711,
      "▁here": 712,
      "▁after": 713,
      "##wn": 714,
      "▁most": 715,
      "##ied": 716,
      "▁ph": 717,
      "▁said": 718,
      "▁bl": 719,
      "▁rel": 720,
      "▁'m": 721,
      "▁ser": 722,
      "##ater": 723,
      "▁inst": 724,
      "▁really": 725,
      "##rough": 726,
      "##ak": 727,
      "▁only": 728,
      "##co": 729,
      "##ps": 730,
      "▁even": 731,
      "##ph": 732,
      "▁back": 733,
      "▁str": 734,
      "▁mu": 735,
      "▁should": 736,
      "▁many": 737,
      "##fe": 738,
      "▁em": 739,
      "##ign": 740,
      "##ces": 741,
      "##ty": 742,
      "##ail": 743,
      "▁app": 744,
      "##ics": 745,
      "▁rem": 746,
      "▁where": 747,
      "▁sm": 748,
      "▁lo": 749,
      "▁world": 750,
      "▁comp": 751,
      "▁car": 752,
      "##ition": 753,
      "▁oh": 754,
      "▁him": 755,
      "▁des": 756,
      "##row": 757,
      "##ade": 758,
      "▁tra": 759,
      "▁som": 760,
      "##ited": 761,
      "▁rec": 762,
      "▁differe": 763,
      "##we": 764,
      "▁mon": 765,
      "▁day": 766,
      "▁long": 767,
      "▁gu": 768,
      "##ild": 769,
      "##form": 770,
      "##lic": 771,
      "▁way": 772,
      "▁could": 773,
      "##ific": 774,
      "▁sy": 775,
      "▁wr": 776,
      "▁rep": 777,
      "▁use": 778,
      "##eric": 779,
      "▁br": 780,
      "▁let": 781,
      "##ved": 782,
      "▁pol": 783,
      "▁att": 784,
      "▁say": 785,
      "▁call": 786,
      "▁pres": 787,
      "▁cons": 788,
      "##ving": 789,
      "▁prob": 790,
      "▁gen": 791,
      "▁through": 792,
      "▁ob": 793,
      "##ents": 794,
      "▁start": 795,
      "▁take": 796,
      "▁great": 797,
      "▁jo": 798,
      "##ually": 799,
      "##ys": 800,
      "##ull": 801,
      "▁aw": 802,
      "##ates": 803,
      "▁bo": 804,
      "▁mor": 805,
      "##ord": 806,
      "▁exper": 807,
      "##ep": 808,
      "##ject": 809,
      "##fore": 810,
      "▁sci": 811,
      "▁art": 812,
      "▁add": 813,
      "▁4": 814,
      "##land": 815,
      "▁bot": 816,
      "▁look": 817,
      "▁need": 818,
      "▁americ": 819,
      "##ons": 820,
      "▁dr": 821,
      "##ious": 822,
      "▁la": 823,
      "▁down": 824,
      "##sel": 825,
      "##urn": 826,
      "▁those": 827,
      "▁bel": 828,
      "▁around": 829,
      "▁uni": 830,
      "▁again": 831,
      "##ution": 832,
      "##ational": 833,
      "▁city": 834,
      "##nds": 835,
      "▁bu": 836,
      "##ular": 837,
      "##ered": 838,
      "▁though": 839,
      "▁min": 840,
      "▁too": 841,
      "##ise": 842,
      "##ict": 843,
      "▁life": 844,
      "▁exam": 845,
      "##ap": 846,
      "##iew": 847,
      "▁much": 848,
      "##ily": 849,
      "▁war": 850,
      "##ative": 851,
      "▁id": 852,
      "▁cult": 853,
      "▁high": 854,
      "##ual": 855,
      "▁par": 856,
      "▁put": 857,
      "▁pos": 858,
      "##cept": 859,
      "##pect": 860,
      "##ittle": 861,
      "##ities": 862,
      "▁try": 863,
      "##ix": 864,
      "▁ok": 865,
      "▁little": 866,
      "##other": 867,
      "▁such": 868,
      "▁lar": 869,
      "▁gl": 870,
      "##ural": 871,
      "▁--": 872,
      "##ting": 873,
      "▁pers": 874,
      "▁ear": 875,
      "▁dec": 876,
      "▁na": 877,
      "▁before": 878,
      "▁trans": 879,
      "▁loc": 880,
      "##ase": 881,
      "▁gener": 882,
      "▁years": 883,
      "##ology": 884,
      "▁cent": 885,
      "▁bro": 886,
      "▁reg": 887,
      "##ething": 888,
      "▁find": 889,
      "▁something": 890,
      "▁sch": 891,
      "▁op": 892,
      "▁own": 893,
      "##erm": 894,
      "▁made": 895,
      "▁pub": 896,
      "##als": 897,
      "▁count": 898,
      "▁got": 899,
      "▁going": 900,
      "##ik": 901,
      "##ments": 902,
      "##ss": 903,
      "##lish": 904,
      "▁things": 905,
      "▁sur": 906,
      "▁real": 907,
      "▁while": 908,
      "▁form": 909,
      "##ract": 910,
      "▁mean": 911,
      "##ft": 912,
      "▁does": 913,
      "▁ke": 914,
      "##rib": 915,
      "▁ap": 916,
      "▁200": 917,
      "▁acc": 918,
      "##angu": 919,
      "▁ed": 920,
      "▁cr": 921,
      "▁fact": 922,
      "▁eff": 923,
      "▁kind": 924,
      "▁val": 925,
      "▁study": 926,
      "▁5": 927,
      "##’t": 928,
      "▁three": 929,
      "▁langu": 930,
      "▁n’t": 931,
      "##stem": 932,
      "▁betwe": 933,
      "▁okay": 934,
      "▁between": 935,
      "▁sk": 936,
      "##ren": 937,
      "▁fo": 938,
      "▁inv": 939,
      "▁show": 940,
      "▁play": 941,
      "▁different": 942,
      "▁univers": 943,
      "##ck": 944,
      "##ful": 945,
      "▁air": 946,
      "##atch": 947,
      "##ature": 948,
      "▁dist": 949,
      "##ues": 950,
      "##air": 951,
      "▁sl": 952,
      "▁dem": 953,
      "▁soci": 954,
      "▁vis": 955,
      "▁sub": 956,
      "▁quest": 957,
      "▁open": 958,
      "▁num": 959,
      "▁uh": 960,
      "##ident": 961,
      "▁supp": 962,
      "▁system": 963,
      "##enc": 964,
      "▁today": 965,
      "▁'ve": 966,
      "##thing": 967,
      "▁feel": 968,
      "##gan": 969,
      "##ves": 970,
      "##xt": 971,
      "▁old": 972,
      "##ism": 973,
      "##llow": 974,
      "▁um": 975,
      "▁head": 976,
      "##ible": 977,
      "##ds": 978,
      "##ier": 979,
      "▁sou": 980,
      "▁lot": 981,
      "▁end": 982,
      "▁ass": 983,
      "▁prod": 984,
      "▁fin": 985,
      "▁last": 986,
      "##arch": 987,
      "▁hel": 988,
      "##imes": 989,
      "▁6": 990,
      "##ever": 991,
      "##orn": 992,
      "▁still": 993,
      "##self": 994,
      "▁example": 995,
      "##kes": 996,
      "▁same": 997,
      "▁hist": 998,
      "▁found": 999
    }
  }
}