{
  "version": "1.0",
  "truncation": null,
  "padding": null,
  "added_tokens": [
    {
      "id": 0,
      "content": "[UNK]",
      "single_word": false,
      "lstrip": false,
      "rstrip": false,
      "normalized": false,
      "special": true
    },
    {
      "id": 1,
      "content": "[PAD]",
      "single_word": false,
      "lstrip": false,
      "rstrip": false,
      "normalized": false,
      "special": true
    },
    {
      "id": 2,
      "content": "[CLS]",
      "single_word": false,
      "lstrip": false,
      "rstrip": false,
      "normalized": false,
      "special": true
    },
    {
      "id": 3,
      "content": "[SEP]",
      "single_word": false,
      "lstrip": false,
      "rstrip": false,
      "normalized": false,
      "special": true
    },
    {
      "id": 4,
      "content": "[MASK]",
      "single_word": false,
      "lstrip": false,
      "rstrip": false,
      "normalized": false,
      "special": true
    }
  ],
  "normalizer": {
    "type": "Sequence",
    "normalizers": [
      {
        "type": "NFD"
      },
      {
        "type": "Lowercase"
      },
      {
        "type": "StripAccents"
      }
    ]
  },
  "pre_tokenizer": {
    "type": "Sequence",
    "pretokenizers": [
      {
        "type": "Metaspace",
        "replacement": "▁",
        "prepend_scheme": "always",
        "split": true
      }
    ]
  },
  "post_processor": {
    "type": "TemplateProcessing",
    "single": [
      {
        "SpecialToken": {
          "id": "[CLS]",
          "type_id": 0
        }
      },
      {
        "Sequence": {
          "id": "A",
          "type_id": 0
        }
      },
      {
        "SpecialToken": {
          "id": "[SEP]",
          "type_id": 0
        }
      }
    ],
    "pair": [
      {
        "SpecialToken": {
          "id": "[CLS]",
          "type_id": 0
        }
      },
      {
        "Sequence": {
          "id": "A",
          "type_id": 0
        }
      },
      {
        "SpecialToken": {
          "id": "[SEP]",
          "type_id": 0
        }
      },
      {
        "Sequence": {
          "id": "B",
          "type_id": 1
        }
      },
      {
        "SpecialToken": {
          "id": "[SEP]",
          "type_id": 1
        }
      }
    ],
    "special_tokens": {
      "[CLS]": {
        "id": "[CLS]",
        "ids": [
          2
        ],
        "tokens": [
          "[CLS]"
        ]
      },
      "[SEP]": {
        "id": "[SEP]",
        "ids": [
          3
        ],
        "tokens": [
          "[SEP]"
        ]
      }
    }
  },
  "decoder": {
    "type": "Metaspace",
    "replacement": "▁",
    "prepend_scheme": "always",
    "split": true
  },
  "model": {
    "type": "Unigram",
    "unk_id": 0,
    "vocab": [
      [
        "[UNK]",
        0.0
      ],
      [
        "[PAD]",
        0.0
      ],
      [
        "[CLS]",
        0.0
      ],
      [
        "[SEP]",
        0.0
      ],
      [
        "[MASK]",
        0.0
      ],
      [
        "▁",
        -2.3962606308591603
      ],
      [
        "s",
        -2.9894445369173397
      ],
      [
        "t",
        -3.4535070721503303
      ],
      [
        "▁the",
        -3.5961426797604155
      ],
      [
        ",",
        -3.6146049049793056
      ],
      [
        "▁.",
        -3.739831193850211
      ],
      [
        "e",
        -4.0203348030164765
      ],
      [
        "▁a",
        -4.1727040670399145
      ],
      [
        "m",
        -4.238138787545175
      ],
      [
        "y",
        -4.265435696966357
      ],
      [
        "d",
        -4.345231948172886
      ],
      [
        "▁and",
        -4.362018986879097
      ],
      [
        "▁of",
        -4.378711025619278
      ],
      [
        "▁to",
        -4.378942325359382
      ],
      [
        "i",
        -4.429619015423908
      ],
      [
        "ing",
        -4.499584369464328
      ],
      [
        "a",
        -4.517774901434979
      ],
      [
        "ed",
        -4.581471502931983
      ],
      [
        "▁in",
        -4.582299667843026
      ],
      [
        "n",
        -4.632104090943416
      ],
      [
        "o",
        -4.7603901113457745
      ],
      [
        "p",
        -4.764409425082498
      ],
      [
        "l",
        -4.943958210686151
      ],
      [
        "u",
        -4.9883849239701945
      ],
      [
        "r",
        -5.021363665490483
      ],
      [
        "c",
        -5.079295335526091
      ],
      [
        "▁i",
        -5.097106055237353
      ],
      [
        "▁tha",
        -5.131224742149545
      ],
      [
        "ly",
        -5.174754387319184
      ],
      [
        "▁be",
        -5.237982266689893
      ],
      [
        "▁you",
        -5.26018782517439
      ],
      [
        "▁it",
        -5.263478857549722
      ],
      [
        "er",
        -5.269965928022457
      ],
      [
        "g",
        -5.278228098801029
      ],
      [
        "al",
        -5.3753964296595536
      ],
      [
        "-",
        -5.379818000878883
      ],
      [
        "en",
        -5.401604778967456
      ],
      [
        "le",
        -5.409166785758982
      ],
      [
        "▁is",
        -5.4265847968036445
      ],
      [
        "▁for",
        -5.455312277094292
      ],
      [
        "in",
        -5.495475666117484
      ],
      [
        "or",
        -5.516299367632671
      ],
      [
        "ch",
        -5.518618465371181
      ],
      [
        "h",
        -5.573268490489357
      ],
      [
        "ar",
        -5.620556323264173
      ],
      [
        "▁on",
        -5.6335742519922105
      ],
      [
        "f",
        -5.637821108456153
      ],
      [
        "k",
        -5.650369110016509
      ],
      [
        "▁we",
        -5.6822861682136425
      ],
      [
        "it",
        -5.686230833156011
      ],
      [
        "re",
        -5.724313301757549
      ],
      [
        "▁do",
        -5.741077869276011
      ],
      [
        "▁thi",
        -5.747259567221441
      ],
      [
        "▁was",
        -5.747991989765036
      ],
      [
        "▁'s",
        -5.763629349201655
      ],
      [
        "b",
        -5.787491948303185
      ],
      [
        "▁w",
        -5.825544617593091
      ],
      [
        "es",
        -5.8453264716441184
      ],
      [
        "▁with",
        -5.854110369448658
      ],
      [
        "▁re",
        -5.935608060319626
      ],
      [
        "▁as",
        -5.950450731269926
      ],
      [
        "▁are",
        -5.967109942407485
      ],
      [
        "▁so",
        -5.970634455514866
      ],
      [
        "\"",
        -5.978297739753366
      ],
      [
        "an",
        -6.006066937145899
      ],
      [
        "▁c",
        -6.011414316528221
      ],
      [
        "v",
        -6.012034626586827
      ],
      [
        "▁he",
        -6.021790981281047
      ],
      [
        "on",
        -6.040306492502163
      ],
      [
        "▁f",
        -6.090691172668782
      ],
      [
        "▁have",
        -6.123682603864289
      ],
      [
        "ic",
        -6.124084661968856
      ],
      [
        "ve",
        -6.130387714665341
      ],
      [
        "▁b",
        -6.16252643262725
      ],
      [
        "▁fro",
        -6.1863996461361594
      ],
      [
        "ll",
        -6.188368463585625
      ],
      [
        "?",
        -6.18881463588818
      ],
      [
        "w",
        -6.211493686859684
      ],
      [
        "▁'",
        -6.216739253797441
      ],
      [
        "▁not",
        -6.2252301397710434
      ],
      [
        "▁like",
        -6.24325864098508
      ],
      [
        ")",
        -6.252799001799317
      ],
      [
        "▁de",
        -6.255374051868643
      ],
      [
        "▁at",
        -6.256849401672384
      ],
      [
        "▁(",
        -6.2663495244646805
      ],
      [
        "is",
        -6.275441466840966
      ],
      [
        "▁or",
        -6.276752402935749
      ],
      [
        "▁an",
        -6.288468131541843
      ],
      [
        "▁by",
        -6.289621095182501
      ],
      [
        "th",
        -6.301188137715028
      ],
      [
        "ur",
        -6.324359685930408
      ],
      [
        "▁but",
        -6.335339056179774
      ],
      [
        "ir",
        -6.340078191838818
      ],
      [
        ".",
        -6.392210080301433
      ],
      [
        "li",
        -6.397829405979128
      ],
      [
        "▁can",
        -6.414657653072767
      ],
      [
        "ation",
        -6.418855148003881
      ],
      [
        "ment",
        -6.43808760086795
      ],
      [
        "ter",
        -6.442514721225492
      ],
      [
        "▁con",
        -6.459462602798674
      ],
      [
        "tion",
        -6.472593977521956
      ],
      [
        "ion",
        -6.48097646510124
      ],
      [
        "▁me",
        -6.488377899302329
      ],
      [
        "▁whi",
        -6.5100695925336005
      ],
      [
        "ck",
        -6.5117222717351355
      ],
      [
        "ro",
        -6.519114577412792
      ],
      [
        "▁pa",
        -6.53479622371124
      ],
      [
        "▁some",
        -6.539783081135758
      ],
      [
        "▁go",
        -6.546359582718894
      ],
      [
        "n't",
        -6.555399197490975
      ],
      [
        "▁all",
        -6.558447500839369
      ],
      [
        "ne",
        -6.56851739499164
      ],
      [
        "▁no",
        -6.574924176168251
      ],
      [
        "us",
        -6.5754702325524335
      ],
      [
        "▁’",
        -6.582697283037017
      ],
      [
        "▁j",
        -6.5835379068915545
      ],
      [
        "ra",
        -6.602802799814841
      ],
      [
        "▁my",
        -6.608881018657336
      ],
      [
        "▁your",
        -6.613420866391114
      ],
      [
        "ould",
        -6.616895338893892
      ],
      [
        "▁what",
        -6.621291827396965
      ],
      [
        "▁there",
        -6.649958516409396
      ],
      [
        "ce",
        -6.659021398981688
      ],
      [
        "ate",
        -6.662810565290966
      ],
      [
        "id",
        -6.665383920864696
      ],
      [
        "▁one",
        -6.675918266498241
      ],
      [
        "▁his",
        -6.678765910938249
      ],
      [
        "ies",
        -6.680725470315773
      ],
      [
        "5",
        -6.690610688388371
      ],
      [
        "ive",
        -6.692123722525503
      ],
      [
        "▁she",
        -6.699252544979671
      ],
      [
        "▁if",
        -6.742686062141868
      ],
      [
        "at",
        -6.758725154557448
      ],
      [
        "0",
        -6.767194087249372
      ],
      [
        "▁co",
        -6.7708382843280885
      ],
      [
        "▁mo",
        -6.7747489477446
      ],
      [
        "el",
        -6.793655056031482
      ],
      [
        "▁ex",
        -6.820213544425789
      ],
      [
        "▁know",
        -6.823560755112938
      ],
      [
        "▁will",
        -6.835515067696567
      ],
      [
        "▁just",
        -6.835516814761414
      ],
      [
        "▁out",
        -6.838643232129361
      ],
      [
        "▁1",
        -6.862636551919573
      ],
      [
        "—",
        -6.864726197603872
      ],
      [
        "z",
        -6.866879179593702
      ],
      [
        "▁ba",
        -6.883635358763896
      ],
      [
        "▁di",
        -6.887778227285951
      ],
      [
        "▁ma",
        -6.902815501056275
      ],
      [
        "▁when",
        -6.918787277043234
      ],
      [
        "um",
        -6.921375018577665
      ],
      [
        "▁:",
        -6.9230262295482525
      ],
      [
        "▁more",
        -6.923702012051014
      ],
      [
        "▁see",
        -6.925332601973426
      ],
      [
        "▁how",
        -6.927552660667283
      ],
      [
        "ist",
        -6.929951870878268
      ],
      [
        "x",
        -6.930843759978383
      ],
      [
        "▁[",
        -6.932340224646983
      ],
      [
        "ers",
        -6.932521303861233
      ],
      [
        "]",
        -6.935524930642074
      ],
      [
        "un",
        -6.936352944093291
      ],
      [
        "▁her",
        -6.955853000275272
      ],
      [
        "▁pro",
        -6.960576458791137
      ],
      [
        "▁ro",
        -6.9723619751944135
      ],
      [
        "ant",
        -6.9731894800428735
      ],
      [
        "▁up",
        -6.979477486771681
      ],
      [
        "▁had",
        -6.98260513628476
      ],
      [
        "▁has",
        -6.984217871419414
      ],
      [
        "tra",
        -6.996576214111372
      ],
      [
        "am",
        -7.001038897079918
      ],
      [
        "!",
        -7.008284218517644
      ],
      [
        "ke",
        -7.0083539602767315
      ],
      [
        "cause",
        -7.0195403329308546
      ],
      [
        "▁abou",
        -7.022893673410726
      ],
      [
        "ac",
        -7.023159937607256
      ],
      [
        "▁who",
        -7.023465085057271
      ],
      [
        "▁our",
        -7.023691556099798
      ],
      [
        "▁po",
        -7.030010756178095
      ],
      [
        "▁their",
        -7.039903959787642
      ],
      [
        "ge",
        -7.042785009709874
      ],
      [
        "ul",
        -7.0429618290392835
      ],
      [
        "▁us",
        -7.044018976629681
      ],
      [
        "age",
        -7.045883061647648
      ],
      [
        "▁new",
        -7.0542318984383465
      ],
      [
        "co",
        -7.054590172871708
      ],
      [
        "2",
        -7.054841429974436
      ],
      [
        "▁time",
        -7.06092484094664
      ],
      [
        "▁people",
        -7.064736548159402
      ],
      [
        "vi",
        -7.068054729817141
      ],
      [
        "▁pre",
        -7.0823453590342496
      ],
      [
        "▁lo",
        -7.0850278437530285
      ],
      [
        "▁p",
        -7.085351607963354
      ],
      [
        "▁br",
        -7.092135433996745
      ],
      [
        "▁ca",
        -7.0929456843436345
      ],
      [
        "▁man",
        -7.097408642507428
      ],
      [
        "▁2",
        -7.099154866386001
      ],
      [
        "▁sp",
        -7.108067706717575
      ],
      [
        "6",
        -7.108159573918398
      ],
      [
        "1",
        -7.108488364409487
      ],
      [
        "▁other",
        -7.111499223913675
      ],
      [
        "▁fa",
        -7.112889893041851
      ],
      [
        "▁real",
        -7.118781179312642
      ],
      [
        "▁first",
        -7.120731648389466
      ],
      [
        "ten",
        -7.123179310102176
      ],
      [
        "▁get",
        -7.13633015053763
      ],
      [
        "thing",
        -7.145144925970614
      ],
      [
        "▁g",
        -7.149873938959723
      ],
      [
        "8",
        -7.150804445159432
      ],
      [
        "▁sh",
        -7.151820760366858
      ],
      [
        "bo",
        -7.152674527320079
      ],
      [
        "lso",
        -7.16299043051312
      ],
      [
        "4",
        -7.165181363260111
      ],
      [
        "one",
        -7.1742994638833775
      ],
      [
        "iz",
        -7.18523939052203
      ],
      [
        "9",
        -7.191218517710977
      ],
      [
        "“",
        -7.192322295746449
      ],
      [
        "▁sc",
        -7.198257749747107
      ],
      [
        "ol",
        -7.2069914961780706
      ],
      [
        "▁into",
        -7.2209043823244095
      ],
      [
        "▁mu",
        -7.220989116542104
      ],
      [
        "3",
        -7.224061234638066
      ],
      [
        "”",
        -7.225868369069345
      ],
      [
        "ru",
        -7.238614271777137
      ],
      [
        "▁un",
        -7.243619488565499
      ],
      [
        "ver",
        -7.2472467514553776
      ],
      [
        "▁two",
        -7.251856885038418
      ],
      [
        "ever",
        -7.2522064663552
      ],
      [
        "▁work",
        -7.253866697264456
      ],
      [
        "were",
        -7.256000749609136
      ],
      [
        "▁year",
        -7.257061329275798
      ],
      [
        "ence",
        -7.264976828779401
      ],
      [
        "▁over",
        -7.265830150729681
      ],
      [
        "▁la",
        -7.268924474259208
      ],
      [
        "day",
        -7.271451910139987
      ],
      [
        "and",
        -7.273436180135882
      ],
      [
        "▁–",
        -7.279530491268441
      ],
      [
        "▁make",
        -7.280106339752037
      ],
      [
        "▁think",
        -7.283063402229973
      ],
      [
        "ish",
        -7.283438292714071
      ],
      [
        "7",
        -7.29341915709827
      ],
      [
        ";",
        -7.296537827388902
      ],
      [
        "▁well",
        -7.298198671400036
      ],
      [
        "▁even",
        -7.301203116393134
      ],
      [
        "▁these",
        -7.314588047758941
      ],
      [
        "ated",
        -7.322824852696919
      ],
      [
        "▁may",
        -7.32714838066636
      ],
      [
        "▁ho",
        -7.334641117967435
      ],
      [
        "ine",
        -7.339567393827149
      ],
      [
        "▁na",
        -7.340301035929662
      ],
      [
        "▁su",
        -7.344406000131263
      ],
      [
        "ow",
        -7.353389283924536
      ],
      [
        "ance",
        -7.354121118499082
      ],
      [
        "▁ta",
        -7.355478636152252
      ],
      [
        "▁mar",
        -7.363959871133429
      ],
      [
        "ble",
        -7.370013391571749
      ],
      [
        "tic",
        -7.371248187254451
      ],
      [
        "'re",
        -7.377900018248639
      ],
      [
        "▁19",
        -7.388852758206083
      ],
      [
        "▁every",
        -7.390444442032655
      ],
      [
        "able",
        -7.394534820781709
      ],
      [
        "▁any",
        -7.398601021023906
      ],
      [
        "▁201",
        -7.400723261733676
      ],
      [
        "▁dis",
        -7.401356884877517
      ],
      [
        "ha",
        -7.404754948868149
      ],
      [
        "▁ha",
        -7.406864121380461
      ],
      [
        "▁now",
        -7.408304380272873
      ],
      [
        "▁look",
        -7.41375377810275
      ],
      [
        "q",
        -7.41399723460048
      ],
      [
        "ical",
        -7.41600444879991
      ],
      [
        "per",
        -7.4217661314846195
      ],
      [
        "ok",
        -7.426361964233564
      ],
      [
        "▁al",
        -7.427669480378927
      ],
      [
        "▁sta",
        -7.428326976397662
      ],
      [
        "▁car",
        -7.4391210992130565
      ],
      [
        "▁use",
        -7.446334834347209
      ],
      [
        "low",
        -7.446882278528678
      ],
      [
        "round",
        -7.451736922850934
      ],
      [
        "▁ra",
        -7.455512344298079
      ],
      [
        "ite",
        -7.460517837513434
      ],
      [
        "▁sa",
        -7.460678738861853
      ],
      [
        "▁take",
        -7.462834154012457
      ],
      [
        "▁com",
        -7.463567162263162
      ],
      [
        "▁good",
        -7.4720454110391294
      ],
      [
        "ry",
        -7.472860306677544
      ],
      [
        "ting",
        -7.475589284927973
      ],
      [
        "▁say",
        -7.486618898073881
      ],
      [
        "▁dr",
        -7.486657130847895
      ],
      [
        "▁yea",
        -7.487053336068873
      ],
      [
        "▁part",
        -7.4896401141309
      ],
      [
        "▁comp",
        -7.490973525546952
      ],
      [
        "ther",
        -7.501047026631969
      ],
      [
        "very",
        -7.502552713419195
      ],
      [
        "▁day",
        -7.506043790279094
      ],
      [
        "▁v",
        -7.508995942178297
      ],
      [
        "▁want",
        -7.515894959051421
      ],
      [
        "▁per",
        -7.517132020088123
      ],
      [
        "▁cit",
        -7.532041912498273
      ],
      [
        "na",
        -7.538795640303383
      ],
      [
        "▁pi",
        -7.547372326228176
      ],
      [
        "ph",
        -7.550303914253524
      ],
      [
        "▁right",
        -7.551490258113065
      ],
      [
        "▁3",
        -7.5529758665571105
      ],
      [
        "to",
        -7.556190874547438
      ],
      [
        "▁after",
        -7.556584324180688
      ],
      [
        "▁way",
        -7.568540600454316
      ],
      [
        "for",
        -7.568916757398445
      ],
      [
        "no",
        -7.571263987700848
      ],
      [
        "▁inter",
        -7.575131466227162
      ],
      [
        "est",
        -7.578996428966363
      ],
      [
        "bi",
        -7.582021325904317
      ],
      [
        "ian",
        -7.582425497788082
      ],
      [
        "ous",
        -7.586228848997731
      ],
      [
        "▁most",
        -7.593589496772577
      ],
      [
        "▁here",
        -7.59985615455198
      ],
      [
        "hol",
        -7.606571110476143
      ],
      [
        "▁hi",
        -7.609851184689137
      ],
      [
        "▁mean",
        -7.616720212731912
      ],
      [
        "man",
        -7.620795773803597
      ],
      [
        "ial",
        -7.6248540049113975
      ],
      [
        "▁back",
        -7.633555303338833
      ],
      [
        "▁sai",
        -7.633766343372209
      ],
      [
        "▁should",
        -7.645376295973371
      ],
      [
        "light",
        -7.649626112802825
      ],
      [
        "ng",
        -7.654203738318976
      ],
      [
        "▁thing",
        -7.657846057327758
      ],
      [
        "▁gra",
        -7.661771259812529
      ],
      [
        "▁world",
        -7.669374119334988
      ],
      [
        "did",
        -7.681708488354454
      ],
      [
        "▁where",
        -7.68407086183239
      ],
      [
        "be",
        -7.6927963040765315
      ],
      [
        "hose",
        -7.695807604558008
      ],
      [
        "▁oh",
        -7.695835092128549
      ],
      [
        "▁em",
        -7.699857186812316
      ],
      [
        "▁wh",
        -7.703514584311827
      ],
      [
        "▁him",
        -7.705271538812552
      ],
      [
        "▁gu",
        -7.70849079894975
      ],
      [
        "▁than",
        -7.709976325554144
      ],
      [
        "▁long",
        -7.711059910294659
      ],
      [
        "ca",
        -7.71666964632883
      ],
      [
        "▁state",
        -7.72191422311366
      ],
      [
        "▁down",
        -7.724140212127463
      ],
      [
        "way",
        -7.726990394549064
      ],
      [
        "other",
        -7.742457760475221
      ],
      [
        "▁call",
        -7.750253914586024
      ],
      [
        "ld",
        -7.750893061982715
      ],
      [
        "ful",
        -7.759454125683397
      ],
      [
        "▁let",
        -7.768848783339751
      ],
      [
        "side",
        -7.771011069136316
      ],
      [
        "▁through",
        -7.77435174240906
      ],
      [
        "fore",
        -7.777995377703084
      ],
      [
        "land",
        -7.778743169287315
      ],
      [
        "▁great",
        -7.783111022259194
      ],
      [
        "ture",
        -7.783357002114659
      ],
      [
        "each",
        -7.78813094328472
      ],
      [
        "▁life",
        -7.789269747111737
      ],
      [
        "ice",
        -7.790863407397228
      ],
      [
        "cent",
        -7.793049320899827
      ],
      [
        "▁start",
        -7.793311181547572
      ],
      [
        "que",
        -7.793742924835089
      ],
      [
        "▁art",
        -7.795753030765609
      ],
      [
        "▁vi",
        -7.796517906436281
      ],
      [
        "ber",
        -7.803309627824753
      ],
      [
        "▁pri",
        -7.809812025541477
      ],
      [
        "/",
        -7.8196413489911984
      ],
      [
        "▁col",
        -7.828410424314222
      ],
      [
        "▁need",
        -7.831065453005396
      ],
      [
        "port",
        -7.833843869415689
      ],
      [
        "▁writ",
        -7.836076652700653
      ],
      [
        "ren",
        -7.838146226842479
      ],
      [
        "▁da",
        -7.84397462410252
      ],
      [
        "line",
        -7.844471082075034
      ],
      [
        "uch",
        -7.8477252308960175
      ],
      [
        "▁ac",
        -7.84950632479596
      ],
      [
        "ary",
        -7.8549945955219
      ],
      [
        "log",
        -7.856058380001811
      ],
      [
        "ome",
        -7.858400899468874
      ],
      [
        "j",
        -7.860796869503378
      ],
      [
        "▁again",
        -7.8670905551809645
      ],
      [
        "den",
        -7.874379536796051
      ],
      [
        "red",
        -7.883744787039707
      ],
      [
        "▁pla",
        -7.884258552628023
      ],
      [
        "out",
        -7.8870447138461905
      ],
      [
        "▁them",
        -7.889255053686885
      ],
      [
        "▁ga",
        -7.891823150438473
      ],
      [
        "ure",
        -7.901277915828598
      ],
      [
        "▁war",
        -7.915072177030797
      ],
      [
        "▁high",
        -7.916909804231823
      ],
      [
        "self",
        -7.926138913709097
      ],
      [
        "▁put",
        -7.926386135554825
      ],
      [
        "ient",
        -7.926690570098276
      ],
      [
        "▁sam",
        -7.927760199778511
      ],
      [
        "ittle",
        -7.938985128316565
      ],
      [
        "▁try",
        -7.939433845116175
      ],
      [
        "rie",
        -7.941582403935834
      ],
      [
        "▁show",
        -7.944190925585986
      ],
      [
        "▁eas",
        -7.945194110587663
      ],
      [
        "’",
        -7.948330006253042
      ],
      [
        "▁come",
        -7.9520331755940425
      ],
      [
        "ative",
        -7.955756144182495
      ],
      [
        "▁che",
        -7.9597422195854035
      ],
      [
        "▁200",
        -7.960324562456834
      ],
      [
        "▁hu",
        -7.967944494357138
      ],
      [
        "▁large",
        -7.969341256635307
      ],
      [
        "ward",
        -7.970789317225499
      ],
      [
        "▁sea",
        -7.974911064846654
      ],
      [
        "ough",
        -7.985609097429966
      ],
      [
        "▁place",
        -7.994774862363634
      ],
      [
        "ext",
        -8.003387155612412
      ],
      [
        "▁mon",
        -8.009778624158042
      ],
      [
        "less",
        -8.01138500573899
      ],
      [
        "▁creat",
        -8.012640864550256
      ],
      [
        "▁find",
        -8.015598551169633
      ],
      [
        "▁made",
        -8.017147807005285
      ],
      [
        "iv",
        -8.018171736062008
      ],
      [
        "▁under",
        -8.024846864169216
      ],
      [
        "▁own",
        -8.02637208545679
      ],
      [
        "gen",
        -8.041794664932654
      ],
      [
        "▁imp",
        -8.063299038370326
      ],
      [
        "gan",
        -8.063446345546632
      ],
      [
        "twee",
        -8.064968176298438
      ],
      [
        "ade",
        -8.065410884616
      ],
      [
        "▁play",
        -8.070418448689173
      ],
      [
        "▁add",
        -8.082046556757106
      ],
      [
        "though",
        -8.082419771260906
      ],
      [
        "▁unit",
        -8.085427738431704
      ],
      [
        "▁example",
        -8.09326402334748
      ],
      [
        "▁study",
        -8.093264454477795
      ],
      [
        "▁kind",
        -8.093433005796697
      ],
      [
        "▁fact",
        -8.094125816334373
      ],
      [
        "ood",
        -8.096964331265475
      ],
      [
        "▁language",
        -8.103467964410267
      ],
      [
        "▁three",
        -8.103502766562467
      ],
      [
        "▁open",
        -8.103569723185512
      ],
      [
        "▁different",
        -8.113777232054412
      ],
      [
        "oka",
        -8.115468236660867
      ],
      [
        "▁game",
        -8.126737808548008
      ],
      [
        "▁end",
        -8.132499724754663
      ],
      [
        "ka",
        -8.138855342093361
      ],
      [
        "▁sub",
        -8.141464116361725
      ],
      [
        "▁system",
        -8.145358602825269
      ],
      [
        "▁uh",
        -8.153431535489155
      ],
      [
        "still",
        -8.156308234294539
      ],
      [
        "▁feel",
        -8.156309639424972
      ],
      [
        "came",
        -8.166462629364375
      ],
      [
        "▁old",
        -8.171566119832635
      ],
      [
        "▁question",
        -8.17798079272439
      ],
      [
        "▁hand",
        -8.179175833346303
      ],
      [
        "▁flo",
        -8.179549511447108
      ],
      [
        "tal",
        -8.18436525428898
      ],
      [
        "right",
        -8.187155777647586
      ],
      [
        "ject",
        -8.18910889924572
      ],
      [
        "▁last",
        -8.193245326529542
      ],
      [
        "leas",
        -8.198007764124657
      ],
      [
        "▁its",
        -8.199906340490447
      ],
      [
        "▁ki",
        -8.210728052837759
      ],
      [
        "▁water",
        -8.212124887430306
      ],
      [
        "▁word",
        -8.212285056057935
      ],
      [
        "▁histor",
        -8.21242069689719
      ],
      [
        "▁found",
        -8.213795422875686
      ],
      [
        "▁stor",
        -8.226119156533482
      ],
      [
        "▁person",
        -8.235104947726018
      ],
      [
        "ember",
        -8.240061368865252
      ],
      [
        "▁number",
        -8.246569008293337
      ],
      [
        "00",
        -8.24820037788001
      ],
      [
        "▁act",
        -8.248355893480653
      ],
      [
        "▁american",
        -8.263728043013437
      ],
      [
        "▁gon",
        -8.265744859973456
      ],
      [
        "stri",
        -8.275929944809924
      ],
      [
        "▁help",
        -8.283325749051851
      ],
      [
        "▁home",
        -8.284767668864886
      ],
      [
        "▁set",
        -8.292992747768302
      ],
      [
        "ific",
        -8.296320445226069
      ],
      [
        "▁both",
        -8.297864911169818
      ],
      [
        "ang",
        -8.304808626837055
      ],
      [
        "▁buil",
        -8.307583839132295
      ],
      [
        "▁learn",
        -8.307624342697078
      ],
      [
        "▁south",
        -8.308651494779667
      ],
      [
        "face",
        -8.318617497632472
      ],
      [
        "▁base",
        -8.318829610496053
      ],
      [
        "▁sw",
        -8.319529924536763
      ],
      [
        "▁school",
        -8.320219928528324
      ],
      [
        "▁small",
        -8.32023650814378
      ],
      [
        "▁give",
        -8.324209573234546
      ],
      [
        "▁universit",
        -8.334318580709489
      ],
      [
        "▁live",
        -8.339081432392977
      ],
      [
        "▁chi",
        -8.34402330565656
      ],
      [
        "▁second",
        -8.34602695907581
      ],
      [
        "night",
        -8.346027155752406
      ],
      [
        "▁turn",
        -8.346258377582103
      ],
      [
        "▁interest",
        -8.347584329833747
      ],
      [
        "▁cla",
        -8.351710261507204
      ],
      [
        "▁group",
        -8.359185229943467
      ],
      [
        "▁general",
        -8.359188742828675
      ],
      [
        "ness",
        -8.369233583701426
      ],
      [
        "▁read",
        -8.371015109764045
      ],
      [
        "▁point",
        -8.373059068984112
      ],
      [
        "▁process",
        -8.386050600331268
      ],
      [
        "▁main",
        -8.391024205161823
      ],
      [
        "▁dur",
        -8.395685159007527
      ],
      [
        "▁talk",
        -8.400464392956998
      ],
      [
        "▁17",
        -8.40308490333296
      ],
      [
        "▁square",
        -8.413619143300426
      ],
      [
        "▁includ",
        -8.413619298853142
      ],
      [
        ",000",
        -8.413692779559515
      ],
      [
        "▁lead",
        -8.41413908925485
      ],
      [
        "▁full",
        -8.420872710162824
      ],
      [
        "ound",
        -8.421067781486382
      ],
      [
        "▁trans",
        -8.42403099477519
      ],
      [
        "▁develop",
        -8.427703634485466
      ],
      [
        "▁research",
        -8.427703802375955
      ],
      [
        "▁important",
        -8.427704010672336
      ],
      [
        "▁actual",
        -8.427746872647159
      ],
      [
        "▁gre",
        -8.43069797213214
      ],
      [
        "▁public",
        -8.441989340292686
      ],
      [
        "▁minute",
        -8.441989638662182
      ],
      [
        "▁18",
        -8.446026444322154
      ],
      [
        "▁20",
        -8.447256384210327
      ],
      [
        "▁name",
        -8.45013384387973
      ],
      [
        "▁10",
        -8.453101474498382
      ],
      [
        "▁tru",
        -8.45353250381249
      ],
      [
        "▁friend",
        -8.456482694717623
      ],
      [
        "▁since",
        -8.45661142456602
      ],
      [
        "ship",
        -8.45746906373724
      ],
      [
        "▁probab",
        -8.457599176152874
      ],
      [
        "▁free",
        -8.457666144372823
      ],
      [
        "▁value",
        -8.47119425127752
      ],
      [
        "cross",
        -8.471833505384907
      ],
      [
        "▁idea",
        -8.472783099757459
      ],
      [
        "▁follow",
        -8.486119563333778
      ],
      [
        "▁collect",
        -8.48613016062468
      ],
      [
        "▁problem",
        -8.486156596033455
      ],
      [
        "▁four",
        -8.486310042115932
      ],
      [
        "formation",
        -8.48634436001775
      ],
      [
        "▁defin",
        -8.48639257835008
      ],
      [
        "▁data",
        -8.486857754939434
      ],
      [
        "▁north",
        -8.487011626932354
      ],
      [
        "ether",
        -8.498996349098928
      ],
      [
        "▁culture",
        -8.501270910673373
      ],
      [
        "▁consider",
        -8.50133083723884
      ],
      [
        "▁space",
        -8.501452573310356
      ],
      [
        "▁house",
        -8.501580878082692
      ],
      [
        "▁moral",
        -8.50164250638254
      ],
      [
        "▁tell",
        -8.501910461915767
      ],
      [
        "▁understand",
        -8.516651410524796
      ],
      [
        "▁result",
        -8.516673827449
      ],
      [
        "▁fel",
        -8.528998664922035
      ],
      [
        "▁team",
        -8.532554840272127
      ],
      [
        "▁few",
        -8.532751666805286
      ],
      [
        "▁human",
        -8.533193561012865
      ],
      [
        "▁week",
        -8.533449849985445
      ],
      [
        "▁medi",
        -8.533695398492206
      ],
      [
        "▁never",
        -8.535980301278514
      ],
      [
        "▁experience",
        -8.54814752168414
      ],
      [
        "▁might",
        -8.54814754037062
      ],
      [
        "▁elect",
        -8.548205339991311
      ],
      [
        "▁book",
        -8.548450928234576
      ],
      [
        "body",
        -8.549005939522724
      ],
      [
        "▁thought",
        -8.55278572137815
      ],
      [
        "▁earl",
        -8.557852211433588
      ],
      [
        "▁test",
        -8.558295381853226
      ],
      [
        "▁change",
        -8.564351840119027
      ],
      [
        "went",
        -8.57212459184355
      ],
      [
        "▁method",
        -8.580671732247628
      ],
      [
        "▁grow",
        -8.580717773538947
      ],
      [
        "▁lu",
        -8.592539266414473
      ],
      [
        "▁service",
        -8.597336999397447
      ],
      [
        "▁president",
        -8.597337314343974
      ],
      [
        "▁provide",
        -8.597352606731505
      ],
      [
        "▁future",
        -8.59737806096237
      ],
      [
        "▁post",
        -8.59951962765367
      ],
      [
        "istic",
        -8.603667071071492
      ],
      [
        "▁must",
        -8.604086463751258
      ],
      [
        "▁count",
        -8.614283239422901
      ],
      [
        "▁product",
        -8.614286280139034
      ],
      [
        "▁country",
        -8.614959082640578
      ],
      [
        "▁nation",
        -8.619297870688895
      ],
      [
        "▁hour",
        -8.620944358095809
      ],
      [
        "▁list",
        -8.621513550871505
      ],
      [
        "▁case",
        -8.623340385400507
      ],
      [
        "▁class",
        -8.634924823995025
      ],
      [
        "special",
        -8.642838312613002
      ],
      [
        "▁video",
        -8.649077512950779
      ],
      [
        "▁support",
        -8.649083611604505
      ],
      [
        "▁keep",
        -8.649186483171976
      ],
      [
        "▁half",
        -8.649200226914104
      ],
      [
        "▁hard",
        -8.649487800655377
      ],
      [
        "▁run",
        -8.656161757774203
      ],
      [
        "▁leg",
        -8.661677017321196
      ],
      [
        "▁econom",
        -8.666928261713526
      ],
      [
        "▁government",
        -8.666928266320127
      ],
      [
        "▁studie",
        -8.66692985148881
      ],
      [
        "▁major",
        -8.666937760852335
      ],
      [
        "▁famil",
        -8.667269219503373
      ],
      [
        "▁short",
        -8.667785494016986
      ],
      [
        "▁better",
        -8.66868344811532
      ],
      [
        "▁engl",
        -8.671355029537942
      ],
      [
        "▁democra",
        -8.68511000180268
      ],
      [
        "▁direct",
        -8.685141215286503
      ],
      [
        "stead",
        -8.68524278991073
      ],
      [
        "▁child",
        -8.685880208325491
      ],
      [
        "▁figure",
        -8.703629035934174
      ],
      [
        "▁york",
        -8.703738397005292
      ],
      [
        "▁common",
        -8.703753702157409
      ],
      [
        "▁remember",
        -8.722564504858251
      ],
      [
        "▁local",
        -8.722665702620333
      ],
      [
        "▁step",
        -8.72278500959785
      ],
      [
        "▁image",
        -8.723068836774718
      ],
      [
        "▁big",
        -8.72486859208615
      ],
      [
        "'",
        -8.72641429590253
      ],
      [
        "town",
        -8.734551958587781
      ],
      [
        "▁six",
        -8.742060049395057
      ],
      [
        "▁fla",
        -8.74420509118986
      ],
      [
        "▁cultural",
        -8.761335046295763
      ],
      [
        "▁success",
        -8.761335156621428
      ],
      [
        "▁appear",
        -8.761335562114729
      ],
      [
        "▁reason",
        -8.761360513481902
      ],
      [
        "▁qualit",
        -8.76137870271384
      ],
      [
        "▁view",
        -8.761453483463281
      ],
      [
        "▁polic",
        -8.762359813409734
      ],
      [
        "▁unti",
        -8.763309143571748
      ],
      [
        "▁mil",
        -8.771439422332506
      ],
      [
        "abilit",
        -8.779915681596918
      ],
      [
        "▁strong",
        -8.781335928545264
      ],
      [
        "...",
        -8.785775469569613
      ],
      [
        "work",
        -8.79247950453532
      ],
      [
        "▁mathematic",
        -8.801743204679568
      ],
      [
        "▁beautiful",
        -8.801746641955871
      ],
      [
        "▁simpl",
        -8.801757895884707
      ],
      [
        "▁watch",
        -8.801867035060248
      ],
      [
        "later",
        -8.820009351438065
      ],
      [
        "▁scientology",
        -8.822576537924311
      ],
      [
        "▁difference",
        -8.822576538166924
      ],
      [
        "▁mind",
        -8.823057368064374
      ],
      [
        "nia",
        -8.828611005208018
      ],
      [
        "▁effect",
        -8.843853134076486
      ],
      [
        "▁street",
        -8.843855027140597
      ],
      [
        "▁travel",
        -8.84389483548674
      ],
      [
        "▁bill",
        -8.844966909568468
      ],
      [
        "▁percent",
        -8.845597663782392
      ],
      [
        "uff",
        -8.8576924211563
      ],
      [
        "$",
        -8.865592264013557
      ],
      [
        "▁particular",
        -8.865592295163928
      ],
      [
        "▁field",
        -8.865597425386685
      ],
      [
        "▁close",
        -8.865604997343425
      ],
      [
        "▁social",
        -8.865655669100342
      ],
      [
        "▁complete",
        -8.865685374860082
      ],
      [
        "▁order",
        -8.866730886018631
      ],
      [
        "▁vari",
        -8.869589606692347
      ],
      [
        "▁america",
        -8.878026873884435
      ],
      [
        "oil",
        -8.885142504233647
      ],
      [
        "▁seri",
        -8.88540445253911
      ],
      [
        ":",
        -8.886533014435786
      ],
      [
        "▁believe",
        -8.88781789924376
      ],
      [
        "▁peace",
        -8.887821080524475
      ],
      [
        "▁region",
        -8.888024060191574
      ],
      [
        "▁final",
        -8.888190300792981
      ],
      [
        "▁fill",
        -8.88828620240195
      ],
      [
        "▁visit",
        -8.888586654909616
      ],
      [
        "▁hope",
        -8.889527515645963
      ],
      [
        "▁root",
        -8.889827243380665
      ],
      [
        "▁concept",
        -8.910546307089241
      ],
      [
        "▁wiki",
        -8.910800297295026
      ],
      [
        "▁walk",
        -8.910948378101729
      ],
      [
        "▁institution",
        -8.93379757853108
      ],
      [
        "▁societ",
        -8.933798426651224
      ],
      [
        "▁happen",
        -8.93379933411719
      ],
      [
        "▁return",
        -8.933811278169316
      ],
      [
        "▁become",
        -8.933915915931724
      ],
      [
        "▁box",
        -8.934498820762613
      ],
      [
        "▁wait",
        -8.93477990455621
      ],
      [
        "range",
        -8.944647948945875
      ],
      [
        "&",
        -8.957607096726065
      ],
      [
        "▁original",
        -8.957607118047441
      ],
      [
        "▁experiment",
        -8.957607199080705
      ],
      [
        "▁break",
        -8.957613744212978
      ],
      [
        "▁contain",
        -8.957626150121953
      ],
      [
        "▁christ",
        -8.957627825720223
      ],
      [
        "▁basil",
        -8.957641335516307
      ],
      [
        "▁mexic",
        -8.957642809584407
      ],
      [
        "▁course",
        -8.957646355376802
      ],
      [
        "▁along",
        -8.957748307542152
      ],
      [
        "▁job",
        -8.95789175323384
      ],
      [
        "▁receiv",
        -8.958217647527308
      ],
      [
        "known",
        -8.961025740865612
      ],
      [
        "▁india",
        -8.973880725446994
      ],
      [
        "level",
        -8.979652044823958
      ],
      [
        "▁require",
        -8.981997422153967
      ],
      [
        "▁equal",
        -8.981997594237162
      ],
      [
        "▁church",
        -8.982019679935643
      ],
      [
        "▁park",
        -8.98243053347024
      ],
      [
        "▁memor",
        -8.982766888288507
      ],
      [
        "having",
        -8.983614895895137
      ],
      [
        "▁represent",
        -9.006997346773463
      ],
      [
        "▁education",
        -9.006997923222766
      ],
      [
        "▁object",
        -9.007002710219645
      ],
      [
        "▁control",
        -9.007011433527136
      ],
      [
        "aught",
        -9.007039388719587
      ],
      [
        "▁among",
        -9.007040906531108
      ],
      [
        "▁present",
        -9.007062378388396
      ],
      [
        "▁health",
        -9.007182484487219
      ],
      [
        "▁fire",
        -9.011300664038977
      ],
      [
        "▁translat",
        -9.013947597314155
      ],
      [
        "▁focus",
        -9.032640358098027
      ],
      [
        "▁morning",
        -9.032650063262865
      ],
      [
        "▁drink",
        -9.03270835241979
      ],
      [
        "▁stop",
        -9.03290366581485
      ],
      [
        "▁serve",
        -9.033321861026696
      ],
      [
        "▁attempt",
        -9.058954212212601
      ],
      [
        "▁communit",
        -9.058954433612412
      ],
      [
        "▁achiev",
        -9.058964067694786
      ],
      [
        "▁film",
        -9.058980898841352
      ],
      [
        "▁quit",
        -9.059067910117133
      ],
      [
        "▁sense",
        -9.059180278123891
      ],
      [
        "▁political",
        -9.085981649543152
      ],
      [
        "▁black",
        -9.085983999632123
      ],
      [
        "▁sign",
        -9.086019261053819
      ],
      [
        "▁million",
        -9.08603224132881
      ],
      [
        "upon",
        -9.098691013515102
      ],
      [
        "▁publish",
        -9.113758962143175
      ],
      [
        "▁observ",
        -9.113759086789594
      ],
      [
        "▁eight",
        -9.113759203418413
      ],
      [
        "▁expect",
        -9.113759282118638
      ],
      [
        "▁international",
        -9.113759351391687
      ],
      [
        "▁middle",
        -9.113759968970147
      ],
      [
        "▁improve",
        -9.113769748759553
      ],
      [
        "▁specific",
        -9.11381628997277
      ],
      [
        "▁type",
        -9.11388595059648
      ],
      [
        "▁issue",
        -9.11509002500005
      ],
      [
        "▁civi",
        -9.115191970475358
      ],
      [
        "where",
        -9.138090077158292
      ],
      [
        "▁difficult",
        -9.142330389127498
      ],
      [
        "▁interview",
        -9.14233055161783
      ],
      [
        "▁effort",
        -9.142331309103051
      ],
      [
        "▁decide",
        -9.142420847907653
      ],
      [
        "▁girl",
        -9.142479952651506
      ],
      [
        "▁power",
        -9.142487498955578
      ],
      [
        "▁stuff",
        -9.142526676379212
      ],
      [
        "▁senat",
        -9.15107418152788
      ],
      [
        "▁student",
        -9.171742289745985
      ],
      [
        "▁increase",
        -9.171742694877258
      ],
      [
        "▁current",
        -9.171742970538887
      ],
      [
        "▁natural",
        -9.17174420681919
      ],
      [
        "▁discuss",
        -9.171745694859665
      ],
      [
        "▁period",
        -9.171749856702156
      ],
      [
        "▁texa",
        -9.17175452356534
      ],
      [
        "▁contribut",
        -9.202045184433658
      ],
      [
        "▁suggest",
        -9.202045368317307
      ],
      [
        "▁accept",
        -9.20204742822064
      ],
      [
        "▁religio",
        -9.202105805526054
      ],
      [
        "▁earth",
        -9.202162593095045
      ],
      [
        "▁beaut",
        -9.202163875546029
      ],
      [
        "▁environment",
        -9.23329518439876
      ],
      [
        "▁exhibit",
        -9.233295206631812
      ],
      [
        "▁sexual",
        -9.233295210601671
      ],
      [
        "▁respect",
        -9.233295232027787
      ],
      [
        "▁business",
        -9.233295405962682
      ],
      [
        "▁hundred",
        -9.233295429585507
      ],
      [
        "▁fight",
        -9.233295502353744
      ],
      [
        "▁amount",
        -9.233296085910528
      ],
      [
        "santorum",
        -9.233297738830508
      ],
      [
        "▁author",
        -9.23330433779714
      ],
      [
        "script",
        -9.233317786219914
      ],
      [
        "▁fift",
        -9.233484047675747
      ],
      [
        "▁generat",
        -9.234384928228287
      ],
      [
        "▁establish",
        -9.26555324875076
      ],
      [
        "▁introduc",
        -9.265553261011478
      ],
      [
        "▁replication",
        -9.265553263334112
      ],
      [
        "▁correct",
        -9.26555355427348
      ],
      [
        "▁significant",
        -9.265553560623967
      ],
      [
        "▁thousand",
        -9.265553987832968
      ],
      [
        "quino",
        -9.265555056083487
      ],
      [
        "▁chicken",
        -9.265572365738514
      ],
      [
        "▁micro",
        -9.265621645251596
      ],
      [
        "▁enjamb",
        -9.298886588248804
      ],
      [
        "▁operator",
        -9.298886614368035
      ],
      [
        "▁quick",
        -9.298886688482003
      ],
      [
        "▁popular",
        -9.29888687828819
      ],
      [
        "▁involve",
        -9.2988873850291
      ],
      [
        "▁produce",
        -9.298889779590278
      ],
      [
        "▁bottle",
        -9.29889178595333
      ],
      [
        "▁remain",
        -9.298908176108268
      ],
      [
        "▁further",
        -9.298916433660363
      ],
      [
        "function",
        -9.299069462643041
      ],
      [
        "▁phil",
        -9.29911138267014
      ],
      [
        "▁structure",
        -9.333369344028428
      ],
      [
        "▁europe",
        -9.333369413537469
      ],
      [
        "▁enjoy",
        -9.333369572067205
      ],
      [
        "▁explor",
        -9.333372736734265
      ],
      [
        "knowledge",
        -9.333382588437127
      ],
      [
        "wikihow",
        -9.333397757406592
      ],
      [
        "▁seven",
        -9.333399817306947
      ],
      [
        "▁russia",
        -9.333432509187055
      ],
      [
        "connect",
        -9.333811260995281
      ],
      [
        "load",
        -9.34618484197226
      ],
      [
        "place",
        -9.34903346660016
      ],
      [
        "▁describe",
        -9.369083627262965
      ],
      [
        "▁cupcake",
        -9.369083627498457
      ],
      [
        "▁łodz",
        -9.369083628041693
      ],
      [
        "▁character",
        -9.369087149462894
      ],
      [
        "▁george",
        -9.369088406885913
      ],
      [
        "▁protect",
        -9.369099355374715
      ],
      [
        "▁legislati",
        -9.369101289929988
      ],
      [
        "▁univers",
        -9.402403733205862
      ],
      [
        "▁photograph",
        -9.406120663355235
      ],
      [
        "▁explain",
        -9.406120700836006
      ],
      [
        "▁detail",
        -9.406121447608065
      ],
      [
        "▁daniel",
        -9.40612188972069
      ],
      [
        "▁glob",
        -9.4061272069747
      ],
      [
        "▁availab",
        -9.4061286587617
      ],
      [
        "▁discover",
        -9.4061937983245
      ],
      [
        "▁record",
        -9.40730406445768
      ],
      [
        "position",
        -9.44409555852135
      ],
      [
        "@",
        -9.444582201811377
      ],
      [
        "▁elevator",
        -9.444582203546046
      ],
      [
        "▁practice",
        -9.444582219668245
      ],
      [
        "▁regular",
        -9.444582865341893
      ],
      [
        "▁congress",
        -9.444583247381965
      ],
      [
        "▁conversation",
        -9.444584934677215
      ],
      [
        "▁license",
        -9.444584963071273
      ],
      [
        "▁freedom",
        -9.444586604733269
      ],
      [
        "▁website",
        -9.444586887357993
      ],
      [
        "▁measure",
        -9.444593312246116
      ],
      [
        "▁depend",
        -9.444595138030305
      ],
      [
        "▁answer",
        -9.444760742613074
      ],
      [
        "▁certain",
        -9.484582514336525
      ],
      [
        "▁psycholog",
        -9.484582832076025
      ],
      [
        "▁recogni",
        -9.484583050677514
      ],
      [
        "▁aspect",
        -9.484583558325266
      ],
      [
        "▁belief",
        -9.48459042667419
      ],
      [
        "taken",
        -9.51689911316803
      ],
      [
        "▁constituenc",
        -9.52624886850375
      ],
      [
        "▁quartile",
        -9.526248882114484
      ],
      [
        "▁linguistic",
        -9.526248997241755
      ],
      [
        "▁suppose",
        -9.526249028093169
      ],
      [
        "▁population",
        -9.526249114937091
      ],
      [
        "securit",
        -9.526249399857575
      ],
      [
        "industry",
        -9.526249624248614
      ],
      [
        "▁design",
        -9.526249734494328
      ],
      [
        "▁express",
        -9.526250082581868
      ],
      [
        "▁review",
        -9.52625018594389
      ],
      [
        "▁africa",
        -9.526250261823996
      ],
      [
        "▁situation",
        -9.526254034012501
      ],
      [
        "▁snitch",
        -9.526258069236285
      ],
      [
        "▁korea",
        -9.526285732609145
      ],
      [
        "▁except",
        -9.526326395806958
      ],
      [
        "evolutionar",
        -9.555211800064214
      ],
      [
        "▁temperature",
        -9.569727129383464
      ],
      [
        "▁individual",
        -9.569727129388468
      ],
      [
        "▁approach",
        -9.5697271306222
      ],
      [
        "▁application",
        -9.569727131120558
      ],
      [
        "▁similar",
        -9.569727132809753
      ],
      [
        "▁independen",
        -9.56972713319021
      ],
      [
        "▁purpose",
        -9.569727134906445
      ],
      [
        "▁challenge",
        -9.56972713515626
      ],
      [
        "▁festival",
        -9.56972716999325
      ],
      [
        "▁relationship",
        -9.569727238313316
      ],
      [
        "▁behavior",
        -9.569727315664405
      ],
      [
        "▁feature",
        -9.569730920250723
      ],
      [
        "sight",
        -9.569732411154925
      ],
      [
        "%",
        -9.61518167480215
      ],
      [
        "▁professor",
        -9.615181715072534
      ],
      [
        "cognitive",
        -9.615181720337382
      ],
      [
        "▁necessar",
        -9.615181860074854
      ],
      [
        "▁tradition",
        -9.615182163544798
      ],
      [
        "league",
        -9.615182829508583
      ],
      [
        "▁reflect",
        -9.615183156460672
      ],
      [
        "▁capital",
        -9.61518420554826
      ],
      [
        "▁critic",
        -9.615244150466431
      ],
      [
        "▁affect",
        -9.662800734090773
      ],
      [
        "▁journal",
        -9.662800740376104
      ],
      [
        "▁aesthetic",
        -9.662800754142534
      ],
      [
        "▁determine",
        -9.662802428838111
      ],
      [
        "▁opportunit",
        -9.712800722587653
      ],
      [
        "▁zealand",
        -9.712800950660906
      ],
      [
        "▁potential",
        -9.712800967849978
      ],
      [
        "▁pachomi",
        -9.712801109316418
      ],
      [
        "▁channel",
        -9.712801275691206
      ],
      [
        "▁progress",
        -9.712801491323408
      ],
      [
        "2017",
        -9.735601594599679
      ],
      [
        "technology",
        -9.765432301503916
      ],
      [
        "▁straight",
        -9.765432302082187
      ],
      [
        "▁polaroid",
        -9.765432310447702
      ],
      [
        "▁judgment",
        -9.765432319321729
      ],
      [
        "resources",
        -9.765432340446681
      ],
      [
        "▁response",
        -9.765432401370457
      ],
      [
        "▁council",
        -9.76543244273163
      ],
      [
        "▁estimate",
        -9.765436879914919
      ],
      [
        "▁committe",
        -9.765438553282483
      ],
      [
        "taiwan",
        -9.765439525760051
      ],
      [
        "‘",
        -9.820987856924123
      ],
      [
        "▁republic",
        -9.820987857188927
      ],
      [
        "▁identifie",
        -9.820987858277498
      ],
      [
        "▁collaborat",
        -9.820987868440183
      ],
      [
        "▁coffee",
        -9.820987952917582
      ],
      [
        "▁professional",
        -9.879811386435295
      ],
      [
        "▁lipstick",
        -9.879811390601343
      ],
      [
        "▁michael",
        -9.87981145114717
      ],
      [
        "▁revolution",
        -9.899947855496299
      ],
      [
        "▁paralympic",
        -9.942311386415986
      ],
      [
        "▁technique",
        -9.942311386542453
      ],
      [
        "▁cocktail",
        -9.942311387479037
      ],
      [
        "▁bernoulli",
        -9.942311388440714
      ],
      [
        "▁fundamental",
        -9.942311390383992
      ],
      [
        "▁efficien",
        -9.94231139406744
      ],
      [
        "▁geographic",
        -10.00897805300908
      ],
      [
        "▁equivalen",
        -10.00897805309519
      ],
      [
        "▁television",
        -10.00897805369261
      ],
      [
        "▁participant",
        -10.008978055966452
      ],
      [
        "▁encourag",
        -10.008978270680474
      ],
      [
        "▁possibilit",
        -10.08040662446128
      ],
      [
        "▁agricultur",
        -10.080406624970866
      ],
      [
        "▁episode",
        -10.08040662676756
      ],
      [
        "▁responsibilit",
        -10.157329701354282
      ],
      [
        "▁appreciat",
        -10.157329705839054
      ],
      [
        "▁guadeloupe",
        -10.24066303468799
      ],
      [
        "▁approximate",
        -10.331572125597091
      ],
      [
        "°",
        -10.43157212559785
      ],
      [
        "ø",
        -10.431572125597851
      ],
      [
        "=",
        -10.542683236711436
      ],
      [
        "▁http://www.",
        -10.977207046284308
      ],
      [
        "ł",
        -11.177207035760414
      ],
      [
        "_",
        -11.177207046244353
      ],
      [
        "€",
        -11.17720704628431
      ],
      [
        "(",
        -11.332113487878875
      ],
      [
        "ο",
        -11.427207046284305
      ],
      [
        "æ",
        -11.42720704628431
      ],
      [
        "ρ",
        -11.42720704628431
      ],
      [
        "ʁ",
        -11.42720704628431
      ],
      [
        "£",
        -11.42720704628431
      ],
      [
        "–",
        -11.665574859015338
      ],
      [
        "ε",
        -11.760540379577689
      ],
      [
        "ι",
        -11.760540379577694
      ],
      [
        "✉",
        -11.760540379617643
      ],
      [
        "☏",
        -11.760540379617643
      ],
      [
        "口",
        -11.760540379617643
      ],
      [
        "*",
        -11.760540379617643
      ],
      [
        "樋",
        -11.760540379617643
      ],
      [
        "ا",
        -11.760540379617643
      ],
      [
        "ɑ",
        -11.760540379617643
      ],
      [
        "ς",
        -11.760540379617643
      ],
      [
        "ʒ",
        -12.260540379577685
      ],
      [
        "υ",
        -12.260540379577693
      ],
      [
        "σ",
        -12.260540379617634
      ],
      [
        "ν",
        -12.260540379617634
      ],
      [
        "§",
        -12.260540379617645
      ],
      [
        "`",
        -12.260540379617645
      ],
      [
        "د",
        -12.260540379617645
      ],
      [
        "ω",
        -12.260540379617645
      ],
      [
        "×",
        -12.260540379617645
      ],
      [
        "ʊ",
        -12.260540379617645
      ],
      [
        "☎",
        -12.260540379617645
      ],
      [
        "ˈ",
        -12.260540379617645
      ],
      [
        "º",
        -12.260540379617645
      ],
      [
        "ɛ",
        -13.260040379617642
      ],
      [
        "+",
        -13.260140379617642
      ],
      [
        "ه",
        -13.260240379617644
      ],
      [
        "…",
        -13.260340379617643
      ],
      [
        "#",
        -13.260440379617643
      ],
      [
        "ز",
        -13.260540379577694
      ],
      [
        "•",
        -13.260540379617643
      ],
      [
        "½",
        -13.260540379617643
      ],
      [
        "φ",
        -13.260540379617643
      ],
      [
        "夏",
        -13.260540379617643
      ],
      [
        "<",
        -13.260540379617643
      ],
      [
        "津",
        -13.260540379617643
      ],
      [
        "清",
        -13.260540379617643
      ],
      [
        "远",
        -13.260540379617643
      ],
      [
        "±",
        -13.260540379617643
      ],
      [
        "古",
        -13.260540379617643
      ],
      [
        "[",
        -13.260540379617643
      ],
      [
        "静",
        -13.260540379617643
      ],
      [
        "ي",
        -13.260540379617643
      ],
      [
        "ʃ",
        -13.260540379617643
      ],
      [
        "ح",
        -13.260540379617643
      ],
      [
        "β",
        -13.260540379617643
      ],
      [
        "μ",
        -13.260540379617643
      ],
      [
        "琴",
        -13.260540379617643
      ],
      [
        "况",
        -13.260540379617643
      ],
      [
        "ɔ",
        -13.260540379617643
      ],
      [
        "²",
        -13.260540379617643
      ],
      [
        "澹",
        -13.260540379617643
      ],
      [
        "空",
        -13.260540379617643
      ],
      [
        "ə",
        -13.260540379617643
      ],
      [
        "一",
        -13.260540379617643
      ],
      [
        "子",
        -13.260540379617643
      ],
      [
        "葉",
        -13.260540379617643
      ],
      [
        "图",
        -13.260540379617643
      ],
      [
        "ن",
        -13.260540379617643
      ],
      [
        "司",
        -13.260540379617643
      ],
      [
        "和",
        -13.260540379617643
      ],
      [
        "ß",
        -13.260540379617643
      ],
      [
        "ف",
        -13.260540379617643
      ],
      [
        "山",
        -13.260540379617643
      ],
      [
        "ص",
        -13.260540379617643
      ],
      [
        "奈",
        -13.260540379617643
      ],
      [
        "谿",
        -13.260540379617643
      ]
    ],
    "byte_fallback": false
  }
}