{
  "version": "1.0",
  "truncation": null,
  "padding": null,
  "added_tokens": [
    {
      "id": 0,
      "content": "[UNK]",
      "single_word": false,
      "lstrip": false,
      "rstrip": false,
      "normalized": false,
      "special": true
    },
    {
      "id": 1,
      "content": "[PAD]",
      "single_word": false,
      "lstrip": false,
      "rstrip": false,
      "normalized": false,
      "special": true
    },
    {
      "id": 2,
      "content": "[CLS]",
      "single_word": false,
      "lstrip": false,
      "rstrip": false,
      "normalized": false,
      "special": true
    },
    {
      "id": 3,
      "content": "[SEP]",
      "single_word": false,
      "lstrip": false,
      "rstrip": false,
      "normalized": false,
      "special": true
    },
    {
      "id": 4,
      "content": "[MASK]",
      "single_word": false,
      "lstrip": false,
      "rstrip": false,
      "normalized": false,
      "special": true
    }
  ],
  "normalizer": {
    "type": "Sequence",
    "normalizers": [
      {
        "type": "NFD"
      },
      {
        "type": "Lowercase"
      },
      {
        "type": "StripAccents"
      }
    ]
  },
  "pre_tokenizer": {
    "type": "Sequence",
    "pretokenizers": [
      {
        "type": "Metaspace",
        "replacement": "▁",
        "prepend_scheme": "always",
        "split": true
      }
    ]
  },
  "post_processor": {
    "type": "TemplateProcessing",
    "single": [
      {
        "SpecialToken": {
          "id": "[CLS]",
          "type_id": 0
        }
      },
      {
        "Sequence": {
          "id": "A",
          "type_id": 0
        }
      },
      {
        "SpecialToken": {
          "id": "[SEP]",
          "type_id": 0
        }
      }
    ],
    "pair": [
      {
        "SpecialToken": {
          "id": "[CLS]",
          "type_id": 0
        }
      },
      {
        "Sequence": {
          "id": "A",
          "type_id": 0
        }
      },
      {
        "SpecialToken": {
          "id": "[SEP]",
          "type_id": 0
        }
      },
      {
        "Sequence": {
          "id": "B",
          "type_id": 1
        }
      },
      {
        "SpecialToken": {
          "id": "[SEP]",
          "type_id": 1
        }
      }
    ],
    "special_tokens": {
      "[CLS]": {
        "id": "[CLS]",
        "ids": [
          2
        ],
        "tokens": [
          "[CLS]"
        ]
      },
      "[SEP]": {
        "id": "[SEP]",
        "ids": [
          3
        ],
        "tokens": [
          "[SEP]"
        ]
      }
    }
  },
  "decoder": {
    "type": "Metaspace",
    "replacement": "▁",
    "prepend_scheme": "always",
    "split": true
  },
  "model": {
    "type": "BPE",
    "dropout": null,
    "unk_token": "[UNK]",
    "continuing_subword_prefix": null,
    "end_of_word_suffix": null,
    "fuse_unk": false,
    "byte_fallback": false,
    "ignore_merges": false,
    "vocab": {
      "[UNK]": 0,
      "[PAD]": 1,
      "[CLS]": 2,
      "[SEP]": 3,
      "[MASK]": 4,
      "!": 5,
      "\"": 6,
      "#": 7,
      "$": 8,
      "%": 9,
      "&": 10,
      "'": 11,
      "(": 12,
      ")": 13,
      "*": 14,
      "+": 15,
      ",": 16,
      "-": 17,
      ".": 18,
      "/": 19,
      "0": 20,
      "1": 21,
      "2": 22,
      "3": 23,
      "4": 24,
      "5": 25,
      "6": 26,
      "7": 27,
      "8": 28,
      "9": 29,
      ":": 30,
      ";": 31,
      "<": 32,
      "=": 33,
      "?": 34,
      "@": 35,
      "[": 36,
      "]": 37,
      "_": 38,
      "`": 39,
      "a": 40,
      "b": 41,
      "c": 42,
      "d": 43,
      "e": 44,
      "f": 45,
      "g": 46,
      "h": 47,
      "i": 48,
      "j": 49,
      "k": 50,
      "l": 51,
      "m": 52,
      "n": 53,
      "o": 54,
      "p": 55,
      "q": 56,
      "r": 57,
      "s": 58,
      "t": 59,
      "u": 60,
      "v": 61,
      "w": 62,
      "x": 63,
      "y": 64,
      "z": 65,
      "£": 66,
      "§": 67,
      "°": 68,
      "±": 69,
      "²": 70,
      "º": 71,
      "½": 72,
      "×": 73,
      "ß": 74,
      "æ": 75,
      "ø": 76,
      "ł": 77,
      "ɑ": 78,
      "ɔ": 79,
      "ə": 80,
      "ɛ": 81,
      "ʁ": 82,
      "ʃ": 83,
      "ʊ": 84,
      "ʒ": 85,
      "ˈ": 86,
      "β": 87,
      "ε": 88,
      "ι": 89,
      "μ": 90,
      "ν": 91,
      "ο": 92,
      "ρ": 93,
      "ς": 94,
      "σ": 95,
      "υ": 96,
      "φ": 97,
      "ω": 98,
      "ا": 99,
      "ح": 100,
      "د": 101,
      "ز": 102,
      "ص": 103,
      "ف": 104,
      "ن": 105,
      "ه": 106,
      "ي": 107,
      "–": 108,
      "—": 109,
      "‘": 110,
      "’": 111,
      "“": 112,
      "”": 113,
      "•": 114,
      "…": 115,
      "€": 116,
      "▁": 117,
      "☎": 118,
      "☏": 119,
      "✉": 120,
      "一": 121,
      "况": 122,
      "口": 123,
      "古": 124,
      "司": 125,
      "和": 126,
      "图": 127,
      "夏": 128,
      "奈": 129,
      "子": 130,
      "山": 131,
      "樋": 132,
      "津": 133,
      "清": 134,
      "澹": 135,
      "琴": 136,
      "空": 137,
      "葉": 138,
      "谿": 139,
      "远": 140,
      "静": 141,
      "▁t": 142,
      "▁a": 143,
      "▁th": 144,
      "in": 145,
      "▁the": 146,
      "▁s": 147,
      "re": 148,
      "▁o": 149,
      "▁,": 150,
      "▁w": 151,
      "▁.": 152,
      "er": 153,
      "at": 154,
      "▁i": 155,
      "▁c": 156,
      "nd": 157,
      "▁b": 158,
      "on": 159,
      "▁m": 160,
      "▁h": 161,
      "▁f": 162,
      "ou": 163,
      "en": 164,
      "▁p": 165,
      "or": 166,
      "es": 167,
      "▁in": 168,
      "ed": 169,
      "ing": 170,
      "▁d": 171,
      "▁of": 172,
      "an": 173,
      "▁and": 174,
      "al": 175,
      "▁to": 176,
      "it": 177,
      "▁l": 178,
      "is": 179,
      "ar": 180,
      "▁n": 181,
      "ic": 182,
      "as": 183,
      "▁g": 184,
      "▁y": 185,
      "om": 186,
      "ion": 187,
      "▁e": 188,
      "le": 189,
      "▁re": 190,
      "ve": 191,
      "ll": 192,
      "▁you": 193,
      "st": 194,
      "▁be": 195,
      "ent": 196,
      "ro": 197,
      "▁it": 198,
      "ly": 199,
      "▁that": 200,
      "▁u": 201,
      "▁'": 202,
      "▁wh": 203,
      "ut": 204,
      "ow": 205,
      "ot": 206,
      "▁is": 207,
      "et": 208,
      "▁on": 209,
      "ct": 210,
      "ay": 211,
      "▁we": 212,
      "se": 213,
      "▁st": 214,
      "id": 215,
      "ch": 216,
      "ig": 217,
      "▁for": 218,
      "ver": 219,
      "ad": 220,
      "ur": 221,
      "ce": 222,
      "am": 223,
      "ke": 224,
      "ld": 225,
      "ir": 226,
      "ation": 227,
      "▁he": 228,
      "▁as": 229,
      "th": 230,
      "im": 231,
      "ol": 232,
      "▁'s": 233,
      "▁an": 234,
      "▁was": 235,
      "▁-": 236,
      "▁sh": 237,
      "ith": 238,
      "▁ha": 239,
      "▁this": 240,
      "▁li": 241,
      "il": 242,
      "▁with": 243,
      "▁do": 244,
      "▁r": 245,
      "▁se": 246,
      "▁j": 247,
      "ter": 248,
      "em": 249,
      "▁at": 250,
      "ul": 251,
      "▁fr": 252,
      "▁are": 253,
      "igh": 254,
      "▁k": 255,
      "▁ch": 256,
      "▁so": 257,
      "▁1": 258,
      "▁or": 259,
      "▁\"": 260,
      "▁con": 261,
      "▁mo": 262,
      "qu": 263,
      "▁ex": 264,
      "ant": 265,
      "ge": 266,
      "▁pro": 267,
      "ist": 268,
      "ra": 269,
      "ill": 270,
      "▁al": 271,
      "op": 272,
      "▁have": 273,
      "▁v": 274,
      "▁su": 275,
      "ers": 276,
      "▁2": 277,
      "est": 278,
      "ight": 279,
      "▁not": 280,
      "oo": 281,
      "▁ne": 282,
      "ity": 283,
      "▁?": 284,
      "▁de": 285,
      "▁com": 286,
      "▁from": 287,
      "▁like": 288,
      "▁(": 289,
      "ate": 290,
      "ere": 291,
      "▁by": 292,
      "▁)": 293,
      "pe": 294,
      "ac": 295,
      "ally": 296,
      "ust": 297,
      "ould": 298,
      "and": 299,
      "us": 300,
      "ess": 301,
      "▁but": 302,
      "if": 303,
      "▁they": 304,
      "ure": 305,
      "ie": 306,
      "ies": 307,
      "▁me": 308,
      "ive": 309,
      "ain": 310,
      "▁wor": 311,
      "▁le": 312,
      "um": 313,
      "▁can": 314,
      "ab": 315,
      "▁un": 316,
      "gh": 317,
      "art": 318,
      "▁ar": 319,
      "ome": 320,
      "▁all": 321,
      "un": 322,
      "el": 323,
      "'t": 324,
      "iv": 325,
      "all": 326,
      "▁n't": 327,
      "▁go": 328,
      "▁’": 329,
      "ort": 330,
      "▁ma": 331,
      "▁ab": 332,
      "pp": 333,
      "res": 334,
      "▁there": 335,
      "▁kn": 336,
      "▁your": 337,
      "▁tr": 338,
      "▁my": 339,
      "ment": 340,
      "▁one": 341,
      "ci": 342,
      "ud": 343,
      "▁ye": 344,
      "nt": 345,
      "os": 346,
      "king": 347,
      "▁his": 348,
      "ast": 349,
      "▁us": 350,
      "out": 351,
      "ough": 352,
      "▁know": 353,
      "▁int": 354,
      "▁what": 355,
      "our": 356,
      "▁pl": 357,
      "au": 358,
      "▁20": 359,
      "ich": 360,
      "og": 361,
      "▁if": 362,
      "very": 363,
      "▁en": 364,
      "▁she": 365,
      "per": 366,
      "ind": 367,
      "ard": 368,
      "pt": 369,
      "oc": 370,
      "▁qu": 371,
      "▁out": 372,
      "red": 373,
      "▁pe": 374,
      "▁ro": 375,
      "▁te": 376,
      "od": 377,
      "ong": 378,
      "ound": 379,
      "▁just": 380,
      "▁will": 381,
      "▁ta": 382,
      "ib": 383,
      "▁—": 384,
      "▁im": 385,
      "▁which": 386,
      "▁am": 387,
      "▁up": 388,
      "ine": 389,
      "her": 390,
      "▁:": 391,
      "▁some": 392,
      "▁no": 393,
      "ect": 394,
      "ame": 395,
      "▁when": 396,
      "▁more": 397,
      "▁how": 398,
      "pl": 399,
      "▁[": 400,
      "ions": 401,
      "ult": 402,
      "▁]": 403,
      "ther": 404,
      "ore": 405,
      "▁her": 406,
      "▁has": 407,
      "ans": 408,
      "▁ad": 409,
      "▁had": 410,
      "ous": 411,
      "ack": 412,
      "so": 413,
      "▁their": 414,
      "ag": 415,
      "▁tw": 416,
      "ish": 417,
      "▁ev": 418,
      "▁’s": 419,
      "ff": 420,
      "one": 421,
      "▁bec": 422,
      "▁co": 423,
      "▁!": 424,
      "▁who": 425,
      "ime": 426,
      "▁cont": 427,
      "ated": 428,
      "ood": 429,
      "age": 430,
      "▁our": 431,
      "▁would": 432,
      "▁about": 433,
      "ide": 434,
      "▁fe": 435,
      "▁cl": 436,
      "iz": 437,
      "▁sp": 438,
      "▁then": 439,
      "▁new": 440,
      "ice": 441,
      "ite": 442,
      "▁peop": 443,
      "ace": 444,
      "▁ac": 445,
      "ks": 446,
      "▁man": 447,
      "ber": 448,
      "ause": 449,
      "▁fir": 450,
      "▁were": 451,
      "▁sa": 452,
      "▁fl": 453,
      "▁per": 454,
      "▁people": 455,
      "ry": 456,
      "▁first": 457,
      "▁ag": 458,
      "ink": 459,
      "ple": 460,
      "▁get": 461,
      "00": 462,
      "ays": 463,
      "ah": 464,
      "▁res": 465,
      "▁also": 466,
      "reat": 467,
      "act": 468,
      "ia": 469,
      "ence": 470,
      "▁“": 471,
      "▁inter": 472,
      "▁part": 473,
      "ach": 474,
      "▁them": 475,
      "itt": 476,
      "▁po": 477,
      "▁other": 478,
      "▁into": 479,
      "▁time": 480,
      "▁”": 481,
      "▁been": 482,
      "ue": 483,
      "▁ca": 484,
      "ical": 485,
      "▁year": 486,
      "ip": 487,
      "▁two": 488,
      "▁over": 489,
      "▁pr": 490,
      "▁than": 491,
      "▁dis": 492,
      "ub": 493,
      "▁–": 494,
      "▁these": 495,
      "ass": 496,
      "▁'re": 497,
      "ang": 498,
      "▁well": 499,
      "▁af": 500,
      "▁;": 501,
      "ary": 502,
      "ations": 503,
      "▁may": 504,
      "▁201": 505,
      "ree": 506,
      "ian": 507,
      "ial": 508,
      "ose": 509,
      "nder": 510,
      "ory": 511,
      "av": 512,
      "▁gr": 513,
      "▁any": 514,
      "ick": 515,
      "▁see": 516,
      "ath": 517,
      "ook": 518,
      "ings": 519,
      "▁because": 520,
      "iff": 521,
      "▁now": 522,
      "▁act": 523,
      "▁every": 524,
      "▁19": 525,
      "orm": 526,
      "ors": 527,
      "ance": 528,
      "▁mar": 529,
      "are": 530,
      "▁off": 531,
      "vel": 532,
      "own": 533,
      "▁stud": 534,
      "▁3": 535,
      "ire": 536,
      "▁bas": 537,
      "cess": 538,
      "eth": 539,
      "ile": 540,
      "te": 541,
      "▁think": 542,
      "vers": 543,
      "▁diff": 544,
      "ens": 545,
      "ress": 546,
      "▁make": 547,
      "▁good": 548,
      "olog": 549,
      "▁sc": 550,
      "▁did": 551,
      "▁cou": 552,
      "▁its": 553,
      "able": 554,
      "▁ind": 555,
      "day": 556,
      "▁yeah": 557,
      "les": 558,
      "ts": 559,
      "uct": 560,
      "▁right": 561,
      "▁want": 562,
      "▁pre": 563,
      "▁spe": 564,
      "lect": 565,
      "▁imp": 566,
      "▁inc": 567,
      "uc": 568,
      "▁very": 569,
      "▁bet": 570,
      "▁work": 571,
      "▁col": 572,
      "ning": 573,
      "▁comm": 574,
      "▁under": 575,
      "▁here": 576,
      "▁after": 577,
      "wn": 578,
      "▁most": 579,
      "ied": 580,
      "▁ph": 581,
      "▁said": 582,
      "▁bl": 583,
      "▁rel": 584,
      "▁'m": 585,
      "▁ser": 586,
      "ater": 587,
      "▁inst": 588,
      "▁really": 589,
      "rough": 590,
      "ak": 591,
      "▁only": 592,
      "co": 593,
      "ps": 594,
      "▁even": 595,
      "ph": 596,
      "▁back": 597,
      "▁str": 598,
      "▁mu": 599,
      "▁should": 600,
      "▁many": 601,
      "fe": 602,
      "▁em": 603,
      "ign": 604,
      "ces": 605,
      "ty": 606,
      "ail": 607,
      "▁app": 608,
      "ics": 609,
      "▁rem": 610,
      "▁where": 611,
      "▁sm": 612,
      "▁lo": 613,
      "▁world": 614,
      "▁comp": 615,
      "▁car": 616,
      "ition": 617,
      "▁oh": 618,
      "▁him": 619,
      "▁des": 620,
      "row": 621,
      "ade": 622,
      "▁tra": 623,
      "▁som": 624,
      "ited": 625,
      "▁rec": 626,
      "▁differe": 627,
      "we": 628,
      "▁mon": 629,
      "▁day": 630,
      "▁long": 631,
      "▁gu": 632,
      "form": 633,
      "ild": 634,
      "lic": 635,
      "▁way": 636,
      "▁could": 637,
      "ific": 638,
      "▁sy": 639,
      "▁wr": 640,
      "▁rep": 641,
      "▁use": 642,
      "eric": 643,
      "▁br": 644,
      "▁let": 645,
      "ved": 646,
      "▁pol": 647,
      "▁att": 648,
      "▁say": 649,
      "▁call": 650,
      "▁pres": 651,
      "▁cons": 652,
      "ving": 653,
      "▁prob": 654,
      "▁gen": 655,
      "▁through": 656,
      "▁ob": 657,
      "ents": 658,
      "▁start": 659,
      "▁take": 660,
      "▁great": 661,
      "▁jo": 662,
      "ually": 663,
      "ys": 664,
      "ull": 665,
      "▁aw": 666,
      "ates": 667,
      "▁bo": 668,
      "▁mor": 669,
      "ord": 670,
      "▁exper": 671,
      "ep": 672,
      "fore": 673,
      "ject": 674,
      "▁sci": 675,
      "▁art": 676,
      "▁add": 677,
      "land": 678,
      "▁4": 679,
      "▁bot": 680,
      "▁look": 681,
      "▁need": 682,
      "▁americ": 683,
      "ons": 684,
      "▁dr": 685,
      "ious": 686,
      "▁la": 687,
      "▁down": 688,
      "sel": 689,
      "urn": 690,
      "▁those": 691,
      "▁bel": 692,
      "▁around": 693,
      "▁uni": 694,
      "▁again": 695,
      "ution": 696,
      "ational": 697,
      "▁city": 698,
      "nds": 699,
      "▁bu": 700,
      "ular": 701,
      "ered": 702,
      "▁though": 703,
      "▁min": 704,
      "▁too": 705,
      "ise": 706,
      "ict": 707,
      "▁life": 708,
      "▁exam": 709,
      "ap": 710,
      "iew": 711,
      "▁much": 712,
      "ily": 713,
      "▁war": 714,
      "ative": 715,
      "▁id": 716,
      "▁cult": 717,
      "▁high": 718,
      "ual": 719,
      "▁par": 720,
      "▁put": 721,
      "▁pos": 722,
      "cept": 723,
      "pect": 724,
      "ittle": 725,
      "ities": 726,
      "▁try": 727,
      "ix": 728,
      "▁ok": 729,
      "▁little": 730,
      "other": 731,
      "▁such": 732,
      "▁lar": 733,
      "▁gl": 734,
      "ural": 735,
      "▁--": 736,
      "ting": 737,
      "▁pers": 738,
      "▁ear": 739,
      "▁dec": 740,
      "▁na": 741,
      "▁before": 742,
      "▁trans": 743,
      "▁loc": 744,
      "ase": 745,
      "▁gener": 746,
      "▁years": 747,
      "ology": 748,
      "▁cent": 749,
      "▁bro": 750,
      "▁reg": 751,
      "ething": 752,
      "▁find": 753,
      "▁something": 754,
      "▁sch": 755,
      "▁op": 756,
      "▁own": 757,
      "erm": 758,
      "▁made": 759,
      "▁pub": 760,
      "als": 761,
      "▁count": 762,
      "▁got": 763,
      "▁going": 764,
      "ik": 765,
      "ments": 766,
      "lish": 767,
      "ss": 768,
      "▁things": 769,
      "▁sur": 770,
      "▁real": 771,
      "▁while": 772,
      "▁form": 773,
      "ract": 774,
      "▁mean": 775,
      "ft": 776,
      "▁does": 777,
      "rib": 778,
      "▁ke": 779,
      "▁ap": 780,
      "▁200": 781,
      "▁acc": 782,
      "angu": 783,
      "▁ed": 784,
      "▁cr": 785,
      "▁fact": 786,
      "▁eff": 787,
      "▁kind": 788,
      "▁val": 789,
      "▁study": 790,
      "’t": 791,
      "▁5": 792,
      "▁three": 793,
      "▁langu": 794,
      "▁n’t": 795,
      "stem": 796,
      "▁betwe": 797,
      "▁okay": 798,
      "▁between": 799,
      "▁sk": 800,
      "ren": 801,
      "▁fo": 802,
      "▁inv": 803,
      "▁show": 804,
      "▁play": 805,
      "▁different": 806,
      "▁univers": 807,
      "ck": 808,
      "ful": 809,
      "▁air": 810,
      "atch": 811,
      "ature": 812,
      "▁dist": 813,
      "air": 814,
      "ues": 815,
      "▁sl": 816,
      "▁dem": 817,
      "▁soci": 818,
      "▁vis": 819,
      "▁sub": 820,
      "▁quest": 821,
      "▁open": 822,
      "▁num": 823,
      "▁uh": 824,
      "ident": 825,
      "▁supp": 826,
      "▁system": 827,
      "enc": 828,
      "▁today": 829,
      "▁'ve": 830,
      "thing": 831,
      "▁feel": 832,
      "gan": 833,
      "ves": 834,
      "xt": 835,
      "▁old": 836,
      "ism": 837,
      "llow": 838,
      "▁um": 839,
      "▁head": 840,
      "ible": 841,
      "ds": 842,
      "ier": 843,
      "▁sou": 844,
      "▁lot": 845,
      "▁end": 846,
      "▁ass": 847,
      "▁prod": 848,
      "▁fin": 849,
      "▁last": 850,
      "arch": 851,
      "▁hel": 852,
      "imes": 853,
      "ever": 854,
      "▁6": 855,
      "orn": 856,
      "▁still": 857,
      "self": 858,
      "▁example": 859,
      "kes": 860,
      "▁same": 861,
      "▁hist": 862,
      "▁found": 863,
      "▁why": 864,
      "ants": 865,
      "▁def": 866,
      "▁partic": 867,
      "▁scient": 868,
      "aut": 869,
      "be": 870,
      "ool": 871,
      "▁sim": 872,
      "atic": 873,
      "ality": 874,
      "▁eng": 875,
      "ating": 876,
      "▁light": 877,
      "▁exp": 878,
      "▁prov": 879,
      "▁intern": 880,
      "int": 881,
      "▁used": 882,
      "▁tal": 883,
      "▁wa": 884,
      "ert": 885,
      "ata": 886,
      "ether": 887,
      "ember": 888,
      "ably": 889,
      "▁united": 890,
      "led": 891,
      "ven": 892,
      "ward": 893,
      "▁ho": 894,
      "▁ins": 895,
      "ute": 896,
      "uring": 897,
      "▁called": 898,
      "▁person": 899,
      "ince": 900,
      "▁set": 901,
      "▁cre": 902,
      "ange": 903,
      "▁beaut": 904,
      "ility": 905,
      "▁import": 906,
      "▁incl": 907,
      "▁poss": 908,
      "ways": 909,
      "ork": 910,
      "▁ge": 911,
      "▁being": 912,
      "▁che": 913,
      "▁place": 914,
      "▁squ": 915,
      "▁cle": 916,
      "▁gon": 917,
      "▁ret": 918,
      "▁'ll": 919,
      "▁doing": 920,
      "▁lear": 921,
      "ared": 922,
      "oy": 923,
      "ines": 924,
      "▁hum": 925,
      "ense": 926,
      "▁gra": 927,
      "▁leg": 928,
      "000": 929,
      "▁small": 930,
      "▁both": 931,
      "▁school": 932,
      "con": 933,
      "ri": 934,
      "up": 935,
      "itch": 936,
      "▁land": 937,
      "▁read": 938,
      "▁expl": 939,
      "hing": 940,
      "read": 941,
      "▁med": 942,
      "ross": 943,
      "▁seco": 944,
      "▁mod": 945,
      "▁come": 946,
      "erest": 947,
      "▁interest": 948,
      "▁room": 949,
      "▁however": 950,
      "▁writ": 951,
      "▁help": 952,
      "ead": 953,
      "hip": 954,
      "▁grou": 955,
      "gr": 956,
      "ired": 957,
      "▁7": 958,
      "ern": 959,
      "ator": 960,
      "▁main": 961,
      "▁fun": 962,
      "▁nor": 963,
      "ction": 964,
      "tern": 965,
      "ger": 966,
      "▁ent": 967,
      "▁thing": 968,
      "▁water": 969,
      "▁hu": 970,
      "▁rese": 971,
      "▁process": 972,
      "ked": 973,
      "▁/": 974,
      "▁z": 975,
      "ather": 976,
      "▁home": 977,
      "▁full": 978,
      "ason": 979,
      "▁equ": 980,
      "lem": 981,
      "▁red": 982,
      "▁stre": 983,
      "amp": 984,
      "▁17": 985,
      ",000": 986,
      "ell": 987,
      "▁fam": 988,
      "▁loo": 989,
      "stand": 990,
      "ention": 991,
      "▁ext": 992,
      "▁lead": 993,
      "velop": 994,
      "▁ide": 995,
      "▁includ": 996,
      "▁mem": 997,
      "▁char": 998,
      "▁develop": 999
    },
    "merges": [
      [
        "▁",
        "t"
      ],
      [
        "▁",
        "a"
      ],
      [
        "▁t",
        "h"
      ],
      [
        "i",
        "n"
      ],
      [
        "▁th",
        "e"
      ],
      [
        "▁",
        "s"
      ],
      [
        "r",
        "e"
      ],
      [
        "▁",
        "o"
      ],
      [
        "▁",
        ","
      ],
      [
        "▁",
        "w"
      ],
      [
        "▁",
        "."
      ],
      [
        "e",
        "r"
      ],
      [
        "a",
        "t"
      ],
      [
        "▁",
        "i"
      ],
      [
        "▁",
        "c"
      ],
      [
        "n",
        "d"
      ],
      [
        "▁",
        "b"
      ],
      [
        "o",
        "n"
      ],
      [
        "▁",
        "m"
      ],
      [
        "▁",
        "h"
      ],
      [
        "▁",
        "f"
      ],
      [
        "o",
        "u"
      ],
      [
        "e",
        "n"
      ],
      [
        "▁",
        "p"
      ],
      [
        "o",
        "r"
      ],
      [
        "e",
        "s"
      ],
      [
        "▁",
        "in"
      ],
      [
        "e",
        "d"
      ],
      [
        "in",
        "g"
      ],
      [
        "▁",
        "d"
      ],
      [
        "▁o",
        "f"
      ],
      [
        "a",
        "n"
      ],
      [
        "▁a",
        "nd"
      ],
      [
        "a",
        "l"
      ],
      [
        "▁t",
        "o"
      ],
      [
        "i",
        "t"
      ],
      [
        "▁",
        "l"
      ],
      [
        "i",
        "s"
      ],
      [
        "a",
        "r"
      ],
      [
        "▁",
        "n"
      ],
      [
        "i",
        "c"
      ],
      [
        "a",
        "s"
      ],
      [
        "▁",
        "g"
      ],
      [
        "▁",
        "y"
      ],
      [
        "o",
        "m"
      ],
      [
        "i",
        "on"
      ],
      [
        "▁",
        "e"
      ],
      [
        "l",
        "e"
      ],
      [
        "▁",
        "re"
      ],
      [
        "v",
        "e"
      ],
      [
        "l",
        "l"
      ],
      [
        "▁y",
        "ou"
      ],
      [
        "s",
        "t"
      ],
      [
        "▁b",
        "e"
      ],
      [
        "en",
        "t"
      ],
      [
        "r",
        "o"
      ],
      [
        "▁i",
        "t"
      ],
      [
        "l",
        "y"
      ],
      [
        "▁th",
        "at"
      ],
      [
        "▁",
        "u"
      ],
      [
        "▁",
        "'"
      ],
      [
        "▁w",
        "h"
      ],
      [
        "u",
        "t"
      ],
      [
        "o",
        "w"
      ],
      [
        "o",
        "t"
      ],
      [
        "▁i",
        "s"
      ],
      [
        "e",
        "t"
      ],
      [
        "▁o",
        "n"
      ],
      [
        "c",
        "t"
      ],
      [
        "a",
        "y"
      ],
      [
        "▁w",
        "e"
      ],
      [
        "s",
        "e"
      ],
      [
        "▁s",
        "t"
      ],
      [
        "i",
        "d"
      ],
      [
        "c",
        "h"
      ],
      [
        "i",
        "g"
      ],
      [
        "▁f",
        "or"
      ],
      [
        "v",
        "er"
      ],
      [
        "a",
        "d"
      ],
      [
        "u",
        "r"
      ],
      [
        "c",
        "e"
      ],
      [
        "a",
        "m"
      ],
      [
        "k",
        "e"
      ],
      [
        "l",
        "d"
      ],
      [
        "i",
        "r"
      ],
      [
        "at",
        "ion"
      ],
      [
        "▁h",
        "e"
      ],
      [
        "▁a",
        "s"
      ],
      [
        "t",
        "h"
      ],
      [
        "i",
        "m"
      ],
      [
        "o",
        "l"
      ],
      [
        "▁'",
        "s"
      ],
      [
        "▁a",
        "n"
      ],
      [
        "▁w",
        "as"
      ],
      [
        "▁",
        "-"
      ],
      [
        "▁s",
        "h"
      ],
      [
        "it",
        "h"
      ],
      [
        "▁h",
        "a"
      ],
      [
        "▁th",
        "is"
      ],
      [
        "▁l",
        "i"
      ],
      [
        "i",
        "l"
      ],
      [
        "▁w",
        "ith"
      ],
      [
        "▁d",
        "o"
      ],
      [
        "▁",
        "r"
      ],
      [
        "▁s",
        "e"
      ],
      [
        "▁",
        "j"
      ],
      [
        "t",
        "er"
      ],
      [
        "e",
        "m"
      ],
      [
        "▁a",
        "t"
      ],
      [
        "u",
        "l"
      ],
      [
        "▁f",
        "r"
      ],
      [
        "▁a",
        "re"
      ],
      [
        "ig",
        "h"
      ],
      [
        "▁",
        "k"
      ],
      [
        "▁c",
        "h"
      ],
      [
        "▁s",
        "o"
      ],
      [
        "▁",
        "1"
      ],
      [
        "▁o",
        "r"
      ],
      [
        "▁",
        "\""
      ],
      [
        "▁c",
        "on"
      ],
      [
        "▁m",
        "o"
      ],
      [
        "q",
        "u"
      ],
      [
        "▁e",
        "x"
      ],
      [
        "an",
        "t"
      ],
      [
        "g",
        "e"
      ],
      [
        "▁p",
        "ro"
      ],
      [
        "is",
        "t"
      ],
      [
        "r",
        "a"
      ],
      [
        "i",
        "ll"
      ],
      [
        "▁a",
        "l"
      ],
      [
        "o",
        "p"
      ],
      [
        "▁ha",
        "ve"
      ],
      [
        "▁",
        "v"
      ],
      [
        "▁s",
        "u"
      ],
      [
        "er",
        "s"
      ],
      [
        "▁",
        "2"
      ],
      [
        "es",
        "t"
      ],
      [
        "igh",
        "t"
      ],
      [
        "▁n",
        "ot"
      ],
      [
        "o",
        "o"
      ],
      [
        "▁n",
        "e"
      ],
      [
        "it",
        "y"
      ],
      [
        "▁",
        "?"
      ],
      [
        "▁d",
        "e"
      ],
      [
        "▁c",
        "om"
      ],
      [
        "▁fr",
        "om"
      ],
      [
        "▁li",
        "ke"
      ],
      [
        "▁",
        "("
      ],
      [
        "at",
        "e"
      ],
      [
        "e",
        "re"
      ],
      [
        "▁b",
        "y"
      ],
      [
        "▁",
        ")"
      ],
      [
        "p",
        "e"
      ],
      [
        "a",
        "c"
      ],
      [
        "al",
        "ly"
      ],
      [
        "u",
        "st"
      ],
      [
        "ou",
        "ld"
      ],
      [
        "a",
        "nd"
      ],
      [
        "u",
        "s"
      ],
      [
        "es",
        "s"
      ],
      [
        "▁b",
        "ut"
      ],
      [
        "i",
        "f"
      ],
      [
        "▁the",
        "y"
      ],
      [
        "u",
        "re"
      ],
      [
        "i",
        "e"
      ],
      [
        "i",
        "es"
      ],
      [
        "▁m",
        "e"
      ],
      [
        "i",
        "ve"
      ],
      [
        "a",
        "in"
      ],
      [
        "▁w",
        "or"
      ],
      [
        "▁l",
        "e"
      ],
      [
        "u",
        "m"
      ],
      [
        "▁c",
        "an"
      ],
      [
        "a",
        "b"
      ],
      [
        "▁u",
        "n"
      ],
      [
        "g",
        "h"
      ],
      [
        "ar",
        "t"
      ],
      [
        "▁a",
        "r"
      ],
      [
        "om",
        "e"
      ],
      [
        "▁a",
        "ll"
      ],
      [
        "u",
        "n"
      ],
      [
        "e",
        "l"
      ],
      [
        "'",
        "t"
      ],
      [
        "i",
        "v"
      ],
      [
        "al",
        "l"
      ],
      [
        "▁n",
        "'t"
      ],
      [
        "▁g",
        "o"
      ],
      [
        "▁",
        "’"
      ],
      [
        "or",
        "t"
      ],
      [
        "▁m",
        "a"
      ],
      [
        "▁a",
        "b"
      ],
      [
        "p",
        "p"
      ],
      [
        "re",
        "s"
      ],
      [
        "▁the",
        "re"
      ],
      [
        "▁k",
        "n"
      ],
      [
        "▁you",
        "r"
      ],
      [
        "▁t",
        "r"
      ],
      [
        "▁m",
        "y"
      ],
      [
        "m",
        "ent"
      ],
      [
        "▁on",
        "e"
      ],
      [
        "c",
        "i"
      ],
      [
        "u",
        "d"
      ],
      [
        "▁y",
        "e"
      ],
      [
        "n",
        "t"
      ],
      [
        "o",
        "s"
      ],
      [
        "k",
        "ing"
      ],
      [
        "▁h",
        "is"
      ],
      [
        "as",
        "t"
      ],
      [
        "▁u",
        "s"
      ],
      [
        "ou",
        "t"
      ],
      [
        "ou",
        "gh"
      ],
      [
        "▁kn",
        "ow"
      ],
      [
        "▁in",
        "t"
      ],
      [
        "▁wh",
        "at"
      ],
      [
        "ou",
        "r"
      ],
      [
        "▁p",
        "l"
      ],
      [
        "a",
        "u"
      ],
      [
        "▁2",
        "0"
      ],
      [
        "ic",
        "h"
      ],
      [
        "o",
        "g"
      ],
      [
        "▁i",
        "f"
      ],
      [
        "ver",
        "y"
      ],
      [
        "▁",
        "en"
      ],
      [
        "▁sh",
        "e"
      ],
      [
        "p",
        "er"
      ],
      [
        "in",
        "d"
      ],
      [
        "ar",
        "d"
      ],
      [
        "p",
        "t"
      ],
      [
        "o",
        "c"
      ],
      [
        "▁",
        "qu"
      ],
      [
        "▁o",
        "ut"
      ],
      [
        "re",
        "d"
      ],
      [
        "▁p",
        "e"
      ],
      [
        "▁",
        "ro"
      ],
      [
        "▁t",
        "e"
      ],
      [
        "o",
        "d"
      ],
      [
        "on",
        "g"
      ],
      [
        "ou",
        "nd"
      ],
      [
        "▁j",
        "ust"
      ],
      [
        "▁w",
        "ill"
      ],
      [
        "▁t",
        "a"
      ],
      [
        "i",
        "b"
      ],
      [
        "▁",
        "—"
      ],
      [
        "▁i",
        "m"
      ],
      [
        "▁wh",
        "ich"
      ],
      [
        "▁a",
        "m"
      ],
      [
        "▁u",
        "p"
      ],
      [
        "in",
        "e"
      ],
      [
        "h",
        "er"
      ],
      [
        "▁",
        ":"
      ],
      [
        "▁s",
        "ome"
      ],
      [
        "▁n",
        "o"
      ],
      [
        "e",
        "ct"
      ],
      [
        "am",
        "e"
      ],
      [
        "▁wh",
        "en"
      ],
      [
        "▁mo",
        "re"
      ],
      [
        "▁h",
        "ow"
      ],
      [
        "p",
        "l"
      ],
      [
        "▁",
        "["
      ],
      [
        "ion",
        "s"
      ],
      [
        "ul",
        "t"
      ],
      [
        "▁",
        "]"
      ],
      [
        "th",
        "er"
      ],
      [
        "o",
        "re"
      ],
      [
        "▁h",
        "er"
      ],
      [
        "▁h",
        "as"
      ],
      [
        "an",
        "s"
      ],
      [
        "▁a",
        "d"
      ],
      [
        "▁h",
        "ad"
      ],
      [
        "ou",
        "s"
      ],
      [
        "ac",
        "k"
      ],
      [
        "s",
        "o"
      ],
      [
        "▁the",
        "ir"
      ],
      [
        "a",
        "g"
      ],
      [
        "▁t",
        "w"
      ],
      [
        "is",
        "h"
      ],
      [
        "▁e",
        "v"
      ],
      [
        "▁’",
        "s"
      ],
      [
        "f",
        "f"
      ],
      [
        "on",
        "e"
      ],
      [
        "▁be",
        "c"
      ],
      [
        "▁c",
        "o"
      ],
      [
        "▁",
        "!"
      ],
      [
        "▁wh",
        "o"
      ],
      [
        "im",
        "e"
      ],
      [
        "▁con",
        "t"
      ],
      [
        "at",
        "ed"
      ],
      [
        "oo",
        "d"
      ],
      [
        "a",
        "ge"
      ],
      [
        "▁o",
        "ur"
      ],
      [
        "▁w",
        "ould"
      ],
      [
        "▁ab",
        "out"
      ],
      [
        "id",
        "e"
      ],
      [
        "▁f",
        "e"
      ],
      [
        "▁c",
        "l"
      ],
      [
        "i",
        "z"
      ],
      [
        "▁s",
        "p"
      ],
      [
        "▁the",
        "n"
      ],
      [
        "▁ne",
        "w"
      ],
      [
        "ic",
        "e"
      ],
      [
        "it",
        "e"
      ],
      [
        "▁pe",
        "op"
      ],
      [
        "a",
        "ce"
      ],
      [
        "▁a",
        "c"
      ],
      [
        "k",
        "s"
      ],
      [
        "▁m",
        "an"
      ],
      [
        "b",
        "er"
      ],
      [
        "au",
        "se"
      ],
      [
        "▁f",
        "ir"
      ],
      [
        "▁we",
        "re"
      ],
      [
        "▁s",
        "a"
      ],
      [
        "▁f",
        "l"
      ],
      [
        "▁p",
        "er"
      ],
      [
        "▁peop",
        "le"
      ],
      [
        "r",
        "y"
      ],
      [
        "▁fir",
        "st"
      ],
      [
        "▁a",
        "g"
      ],
      [
        "in",
        "k"
      ],
      [
        "p",
        "le"
      ],
      [
        "▁g",
        "et"
      ],
      [
        "0",
        "0"
      ],
      [
        "ay",
        "s"
      ],
      [
        "a",
        "h"
      ],
      [
        "▁re",
        "s"
      ],
      [
        "▁al",
        "so"
      ],
      [
        "re",
        "at"
      ],
      [
        "a",
        "ct"
      ],
      [
        "i",
        "a"
      ],
      [
        "en",
        "ce"
      ],
      [
        "▁",
        "“"
      ],
      [
        "▁in",
        "ter"
      ],
      [
        "▁p",
        "art"
      ],
      [
        "a",
        "ch"
      ],
      [
        "▁the",
        "m"
      ],
      [
        "it",
        "t"
      ],
      [
        "▁p",
        "o"
      ],
      [
        "▁o",
        "ther"
      ],
      [
        "▁int",
        "o"
      ],
      [
        "▁t",
        "ime"
      ],
      [
        "▁",
        "”"
      ],
      [
        "▁be",
        "en"
      ],
      [
        "u",
        "e"
      ],
      [
        "▁c",
        "a"
      ],
      [
        "ic",
        "al"
      ],
      [
        "▁ye",
        "ar"
      ],
      [
        "i",
        "p"
      ],
      [
        "▁tw",
        "o"
      ],
      [
        "▁o",
        "ver"
      ],
      [
        "▁p",
        "r"
      ],
      [
        "▁th",
        "an"
      ],
      [
        "▁d",
        "is"
      ],
      [
        "u",
        "b"
      ],
      [
        "▁",
        "–"
      ],
      [
        "▁the",
        "se"
      ],
      [
        "as",
        "s"
      ],
      [
        "▁'",
        "re"
      ],
      [
        "an",
        "g"
      ],
      [
        "▁we",
        "ll"
      ],
      [
        "▁a",
        "f"
      ],
      [
        "▁",
        ";"
      ],
      [
        "ar",
        "y"
      ],
      [
        "ation",
        "s"
      ],
      [
        "▁m",
        "ay"
      ],
      [
        "▁20",
        "1"
      ],
      [
        "re",
        "e"
      ],
      [
        "i",
        "an"
      ],
      [
        "i",
        "al"
      ],
      [
        "o",
        "se"
      ],
      [
        "nd",
        "er"
      ],
      [
        "or",
        "y"
      ],
      [
        "a",
        "v"
      ],
      [
        "▁g",
        "r"
      ],
      [
        "▁an",
        "y"
      ],
      [
        "ic",
        "k"
      ],
      [
        "▁se",
        "e"
      ],
      [
        "at",
        "h"
      ],
      [
        "oo",
        "k"
      ],
      [
        "ing",
        "s"
      ],
      [
        "▁bec",
        "ause"
      ],
      [
        "if",
        "f"
      ],
      [
        "▁n",
        "ow"
      ],
      [
        "▁a",
        "ct"
      ],
      [
        "▁e",
        "very"
      ],
      [
        "▁1",
        "9"
      ],
      [
        "or",
        "m"
      ],
      [
        "or",
        "s"
      ],
      [
        "an",
        "ce"
      ],
      [
        "▁m",
        "ar"
      ],
      [
        "a",
        "re"
      ],
      [
        "▁of",
        "f"
      ],
      [
        "ve",
        "l"
      ],
      [
        "ow",
        "n"
      ],
      [
        "▁st",
        "ud"
      ],
      [
        "▁",
        "3"
      ],
      [
        "i",
        "re"
      ],
      [
        "▁b",
        "as"
      ],
      [
        "c",
        "ess"
      ],
      [
        "et",
        "h"
      ],
      [
        "i",
        "le"
      ],
      [
        "t",
        "e"
      ],
      [
        "▁th",
        "ink"
      ],
      [
        "ver",
        "s"
      ],
      [
        "▁d",
        "iff"
      ],
      [
        "en",
        "s"
      ],
      [
        "res",
        "s"
      ],
      [
        "▁ma",
        "ke"
      ],
      [
        "▁g",
        "ood"
      ],
      [
        "ol",
        "og"
      ],
      [
        "▁s",
        "c"
      ],
      [
        "▁d",
        "id"
      ],
      [
        "▁c",
        "ou"
      ],
      [
        "▁it",
        "s"
      ],
      [
        "ab",
        "le"
      ],
      [
        "▁in",
        "d"
      ],
      [
        "d",
        "ay"
      ],
      [
        "▁ye",
        "ah"
      ],
      [
        "l",
        "es"
      ],
      [
        "t",
        "s"
      ],
      [
        "u",
        "ct"
      ],
      [
        "▁r",
        "ight"
      ],
      [
        "▁w",
        "ant"
      ],
      [
        "▁p",
        "re"
      ],
      [
        "▁s",
        "pe"
      ],
      [
        "le",
        "ct"
      ],
      [
        "▁im",
        "p"
      ],
      [
        "▁in",
        "c"
      ],
      [
        "u",
        "c"
      ],
      [
        "▁",
        "very"
      ],
      [
        "▁be",
        "t"
      ],
      [
        "▁wor",
        "k"
      ],
      [
        "▁c",
        "ol"
      ],
      [
        "n",
        "ing"
      ],
      [
        "▁com",
        "m"
      ],
      [
        "▁u",
        "nder"
      ],
      [
        "▁he",
        "re"
      ],
      [
        "▁af",
        "ter"
      ],
      [
        "w",
        "n"
      ],
      [
        "▁mo",
        "st"
      ],
      [
        "i",
        "ed"
      ],
      [
        "▁p",
        "h"
      ],
      [
        "▁sa",
        "id"
      ],
      [
        "▁b",
        "l"
      ],
      [
        "▁re",
        "l"
      ],
      [
        "▁'",
        "m"
      ],
      [
        "▁s",
        "er"
      ],
      [
        "at",
        "er"
      ],
      [
        "▁in",
        "st"
      ],
      [
        "▁re",
        "ally"
      ],
      [
        "r",
        "ough"
      ],
      [
        "a",
        "k"
      ],
      [
        "▁on",
        "ly"
      ],
      [
        "c",
        "o"
      ],
      [
        "p",
        "s"
      ],
      [
        "▁ev",
        "en"
      ],
      [
        "p",
        "h"
      ],
      [
        "▁b",
        "ack"
      ],
      [
        "▁st",
        "r"
      ],
      [
        "▁m",
        "u"
      ],
      [
        "▁sh",
        "ould"
      ],
      [
        "▁man",
        "y"
      ],
      [
        "f",
        "e"
      ],
      [
        "▁e",
        "m"
      ],
      [
        "ig",
        "n"
      ],
      [
        "c",
        "es"
      ],
      [
        "t",
        "y"
      ],
      [
        "a",
        "il"
      ],
      [
        "▁a",
        "pp"
      ],
      [
        "ic",
        "s"
      ],
      [
        "▁re",
        "m"
      ],
      [
        "▁wh",
        "ere"
      ],
      [
        "▁s",
        "m"
      ],
      [
        "▁l",
        "o"
      ],
      [
        "▁wor",
        "ld"
      ],
      [
        "▁com",
        "p"
      ],
      [
        "▁c",
        "ar"
      ],
      [
        "it",
        "ion"
      ],
      [
        "▁o",
        "h"
      ],
      [
        "▁h",
        "im"
      ],
      [
        "▁d",
        "es"
      ],
      [
        "ro",
        "w"
      ],
      [
        "ad",
        "e"
      ],
      [
        "▁t",
        "ra"
      ],
      [
        "▁s",
        "om"
      ],
      [
        "it",
        "ed"
      ],
      [
        "▁re",
        "c"
      ],
      [
        "▁diff",
        "ere"
      ],
      [
        "w",
        "e"
      ],
      [
        "▁m",
        "on"
      ],
      [
        "▁d",
        "ay"
      ],
      [
        "▁l",
        "ong"
      ],
      [
        "▁g",
        "u"
      ],
      [
        "f",
        "orm"
      ],
      [
        "i",
        "ld"
      ],
      [
        "l",
        "ic"
      ],
      [
        "▁w",
        "ay"
      ],
      [
        "▁c",
        "ould"
      ],
      [
        "if",
        "ic"
      ],
      [
        "▁s",
        "y"
      ],
      [
        "▁w",
        "r"
      ],
      [
        "▁re",
        "p"
      ],
      [
        "▁u",
        "se"
      ],
      [
        "er",
        "ic"
      ],
      [
        "▁b",
        "r"
      ],
      [
        "▁l",
        "et"
      ],
      [
        "v",
        "ed"
      ],
      [
        "▁p",
        "ol"
      ],
      [
        "▁at",
        "t"
      ],
      [
        "▁s",
        "ay"
      ],
      [
        "▁c",
        "all"
      ],
      [
        "▁p",
        "res"
      ],
      [
        "▁con",
        "s"
      ],
      [
        "v",
        "ing"
      ],
      [
        "▁pro",
        "b"
      ],
      [
        "▁g",
        "en"
      ],
      [
        "▁th",
        "rough"
      ],
      [
        "▁o",
        "b"
      ],
      [
        "ent",
        "s"
      ],
      [
        "▁st",
        "art"
      ],
      [
        "▁ta",
        "ke"
      ],
      [
        "▁g",
        "reat"
      ],
      [
        "▁j",
        "o"
      ],
      [
        "u",
        "ally"
      ],
      [
        "y",
        "s"
      ],
      [
        "u",
        "ll"
      ],
      [
        "▁a",
        "w"
      ],
      [
        "at",
        "es"
      ],
      [
        "▁b",
        "o"
      ],
      [
        "▁m",
        "or"
      ],
      [
        "or",
        "d"
      ],
      [
        "▁ex",
        "per"
      ],
      [
        "e",
        "p"
      ],
      [
        "f",
        "ore"
      ],
      [
        "j",
        "ect"
      ],
      [
        "▁s",
        "ci"
      ],
      [
        "▁ar",
        "t"
      ],
      [
        "▁ad",
        "d"
      ],
      [
        "l",
        "and"
      ],
      [
        "▁",
        "4"
      ],
      [
        "▁b",
        "ot"
      ],
      [
        "▁l",
        "ook"
      ],
      [
        "▁ne",
        "ed"
      ],
      [
        "▁am",
        "eric"
      ],
      [
        "on",
        "s"
      ],
      [
        "▁d",
        "r"
      ],
      [
        "i",
        "ous"
      ],
      [
        "▁l",
        "a"
      ],
      [
        "▁d",
        "own"
      ],
      [
        "se",
        "l"
      ],
      [
        "ur",
        "n"
      ],
      [
        "▁th",
        "ose"
      ],
      [
        "▁be",
        "l"
      ],
      [
        "▁ar",
        "ound"
      ],
      [
        "▁un",
        "i"
      ],
      [
        "▁ag",
        "ain"
      ],
      [
        "ut",
        "ion"
      ],
      [
        "ation",
        "al"
      ],
      [
        "▁c",
        "ity"
      ],
      [
        "nd",
        "s"
      ],
      [
        "▁b",
        "u"
      ],
      [
        "ul",
        "ar"
      ],
      [
        "ere",
        "d"
      ],
      [
        "▁th",
        "ough"
      ],
      [
        "▁m",
        "in"
      ],
      [
        "▁to",
        "o"
      ],
      [
        "is",
        "e"
      ],
      [
        "ic",
        "t"
      ],
      [
        "▁li",
        "fe"
      ],
      [
        "▁ex",
        "am"
      ],
      [
        "a",
        "p"
      ],
      [
        "ie",
        "w"
      ],
      [
        "▁mu",
        "ch"
      ],
      [
        "i",
        "ly"
      ],
      [
        "▁w",
        "ar"
      ],
      [
        "at",
        "ive"
      ],
      [
        "▁i",
        "d"
      ],
      [
        "▁c",
        "ult"
      ],
      [
        "▁h",
        "igh"
      ],
      [
        "u",
        "al"
      ],
      [
        "▁p",
        "ar"
      ],
      [
        "▁p",
        "ut"
      ],
      [
        "▁p",
        "os"
      ],
      [
        "ce",
        "pt"
      ],
      [
        "pe",
        "ct"
      ],
      [
        "itt",
        "le"
      ],
      [
        "it",
        "ies"
      ],
      [
        "▁tr",
        "y"
      ],
      [
        "i",
        "x"
      ],
      [
        "▁o",
        "k"
      ],
      [
        "▁l",
        "ittle"
      ],
      [
        "ot",
        "her"
      ],
      [
        "▁su",
        "ch"
      ],
      [
        "▁l",
        "ar"
      ],
      [
        "▁g",
        "l"
      ],
      [
        "ur",
        "al"
      ],
      [
        "▁-",
        "-"
      ],
      [
        "t",
        "ing"
      ],
      [
        "▁p",
        "ers"
      ],
      [
        "▁e",
        "ar"
      ],
      [
        "▁de",
        "c"
      ],
      [
        "▁n",
        "a"
      ],
      [
        "▁be",
        "fore"
      ],
      [
        "▁tr",
        "ans"
      ],
      [
        "▁l",
        "oc"
      ],
      [
        "as",
        "e"
      ],
      [
        "▁gen",
        "er"
      ],
      [
        "▁year",
        "s"
      ],
      [
        "olog",
        "y"
      ],
      [
        "▁c",
        "ent"
      ],
      [
        "▁b",
        "ro"
      ],
      [
        "▁re",
        "g"
      ],
      [
        "eth",
        "ing"
      ],
      [
        "▁f",
        "ind"
      ],
      [
        "▁som",
        "ething"
      ],
      [
        "▁s",
        "ch"
      ],
      [
        "▁o",
        "p"
      ],
      [
        "▁o",
        "wn"
      ],
      [
        "er",
        "m"
      ],
      [
        "▁m",
        "ade"
      ],
      [
        "▁p",
        "ub"
      ],
      [
        "al",
        "s"
      ],
      [
        "▁cou",
        "nt"
      ],
      [
        "▁g",
        "ot"
      ],
      [
        "▁go",
        "ing"
      ],
      [
        "i",
        "k"
      ],
      [
        "ment",
        "s"
      ],
      [
        "l",
        "ish"
      ],
      [
        "s",
        "s"
      ],
      [
        "▁th",
        "ings"
      ],
      [
        "▁s",
        "ur"
      ],
      [
        "▁re",
        "al"
      ],
      [
        "▁wh",
        "ile"
      ],
      [
        "▁for",
        "m"
      ],
      [
        "ra",
        "ct"
      ],
      [
        "▁me",
        "an"
      ],
      [
        "f",
        "t"
      ],
      [
        "▁do",
        "es"
      ],
      [
        "r",
        "ib"
      ],
      [
        "▁",
        "ke"
      ],
      [
        "▁a",
        "p"
      ],
      [
        "▁20",
        "0"
      ],
      [
        "▁ac",
        "c"
      ],
      [
        "ang",
        "u"
      ],
      [
        "▁",
        "ed"
      ],
      [
        "▁c",
        "r"
      ],
      [
        "▁f",
        "act"
      ],
      [
        "▁e",
        "ff"
      ],
      [
        "▁k",
        "ind"
      ],
      [
        "▁v",
        "al"
      ],
      [
        "▁stud",
        "y"
      ],
      [
        "’",
        "t"
      ],
      [
        "▁",
        "5"
      ],
      [
        "▁th",
        "ree"
      ],
      [
        "▁l",
        "angu"
      ],
      [
        "▁n",
        "’t"
      ],
      [
        "st",
        "em"
      ],
      [
        "▁bet",
        "we"
      ],
      [
        "▁ok",
        "ay"
      ],
      [
        "▁betwe",
        "en"
      ],
      [
        "▁s",
        "k"
      ],
      [
        "re",
        "n"
      ],
      [
        "▁f",
        "o"
      ],
      [
        "▁in",
        "v"
      ],
      [
        "▁sh",
        "ow"
      ],
      [
        "▁pl",
        "ay"
      ],
      [
        "▁differe",
        "nt"
      ],
      [
        "▁uni",
        "vers"
      ],
      [
        "c",
        "k"
      ],
      [
        "f",
        "ul"
      ],
      [
        "▁a",
        "ir"
      ],
      [
        "at",
        "ch"
      ],
      [
        "at",
        "ure"
      ],
      [
        "▁d",
        "ist"
      ],
      [
        "a",
        "ir"
      ],
      [
        "u",
        "es"
      ],
      [
        "▁s",
        "l"
      ],
      [
        "▁d",
        "em"
      ],
      [
        "▁so",
        "ci"
      ],
      [
        "▁v",
        "is"
      ],
      [
        "▁su",
        "b"
      ],
      [
        "▁qu",
        "est"
      ],
      [
        "▁op",
        "en"
      ],
      [
        "▁n",
        "um"
      ],
      [
        "▁u",
        "h"
      ],
      [
        "id",
        "ent"
      ],
      [
        "▁su",
        "pp"
      ],
      [
        "▁sy",
        "stem"
      ],
      [
        "en",
        "c"
      ],
      [
        "▁to",
        "day"
      ],
      [
        "▁'",
        "ve"
      ],
      [
        "th",
        "ing"
      ],
      [
        "▁fe",
        "el"
      ],
      [
        "g",
        "an"
      ],
      [
        "v",
        "es"
      ],
      [
        "x",
        "t"
      ],
      [
        "▁o",
        "ld"
      ],
      [
        "is",
        "m"
      ],
      [
        "ll",
        "ow"
      ],
      [
        "▁u",
        "m"
      ],
      [
        "▁he",
        "ad"
      ],
      [
        "ib",
        "le"
      ],
      [
        "d",
        "s"
      ],
      [
        "i",
        "er"
      ],
      [
        "▁s",
        "ou"
      ],
      [
        "▁l",
        "ot"
      ],
      [
        "▁e",
        "nd"
      ],
      [
        "▁as",
        "s"
      ],
      [
        "▁pro",
        "d"
      ],
      [
        "▁f",
        "in"
      ],
      [
        "▁l",
        "ast"
      ],
      [
        "ar",
        "ch"
      ],
      [
        "▁he",
        "l"
      ],
      [
        "im",
        "es"
      ],
      [
        "e",
        "ver"
      ],
      [
        "▁",
        "6"
      ],
      [
        "or",
        "n"
      ],
      [
        "▁st",
        "ill"
      ],
      [
        "sel",
        "f"
      ],
      [
        "▁exam",
        "ple"
      ],
      [
        "k",
        "es"
      ],
      [
        "▁s",
        "ame"
      ],
      [
        "▁h",
        "ist"
      ],
      [
        "▁f",
        "ound"
      ],
      [
        "▁wh",
        "y"
      ],
      [
        "ant",
        "s"
      ],
      [
        "▁de",
        "f"
      ],
      [
        "▁part",
        "ic"
      ],
      [
        "▁sci",
        "ent"
      ],
      [
        "a",
        "ut"
      ],
      [
        "b",
        "e"
      ],
      [
        "o",
        "ol"
      ],
      [
        "▁s",
        "im"
      ],
      [
        "at",
        "ic"
      ],
      [
        "al",
        "ity"
      ],
      [
        "▁en",
        "g"
      ],
      [
        "at",
        "ing"
      ],
      [
        "▁l",
        "ight"
      ],
      [
        "▁ex",
        "p"
      ],
      [
        "▁pro",
        "v"
      ],
      [
        "▁inter",
        "n"
      ],
      [
        "in",
        "t"
      ],
      [
        "▁us",
        "ed"
      ],
      [
        "▁t",
        "al"
      ],
      [
        "▁w",
        "a"
      ],
      [
        "er",
        "t"
      ],
      [
        "at",
        "a"
      ],
      [
        "et",
        "her"
      ],
      [
        "em",
        "ber"
      ],
      [
        "ab",
        "ly"
      ],
      [
        "▁un",
        "ited"
      ],
      [
        "l",
        "ed"
      ],
      [
        "v",
        "en"
      ],
      [
        "w",
        "ard"
      ],
      [
        "▁h",
        "o"
      ],
      [
        "▁in",
        "s"
      ],
      [
        "ut",
        "e"
      ],
      [
        "ur",
        "ing"
      ],
      [
        "▁call",
        "ed"
      ],
      [
        "▁pers",
        "on"
      ],
      [
        "in",
        "ce"
      ],
      [
        "▁s",
        "et"
      ],
      [
        "▁c",
        "re"
      ],
      [
        "an",
        "ge"
      ],
      [
        "▁be",
        "aut"
      ],
      [
        "il",
        "ity"
      ],
      [
        "▁imp",
        "ort"
      ],
      [
        "▁inc",
        "l"
      ],
      [
        "▁pos",
        "s"
      ],
      [
        "w",
        "ays"
      ],
      [
        "or",
        "k"
      ],
      [
        "▁g",
        "e"
      ],
      [
        "▁be",
        "ing"
      ],
      [
        "▁ch",
        "e"
      ],
      [
        "▁pl",
        "ace"
      ],
      [
        "▁s",
        "qu"
      ],
      [
        "▁c",
        "le"
      ],
      [
        "▁g",
        "on"
      ],
      [
        "▁re",
        "t"
      ],
      [
        "▁'",
        "ll"
      ],
      [
        "▁do",
        "ing"
      ],
      [
        "▁le",
        "ar"
      ],
      [
        "a",
        "red"
      ],
      [
        "o",
        "y"
      ],
      [
        "in",
        "es"
      ],
      [
        "▁h",
        "um"
      ],
      [
        "en",
        "se"
      ],
      [
        "▁g",
        "ra"
      ],
      [
        "▁le",
        "g"
      ],
      [
        "00",
        "0"
      ],
      [
        "▁sm",
        "all"
      ],
      [
        "▁bot",
        "h"
      ],
      [
        "▁sch",
        "ool"
      ],
      [
        "c",
        "on"
      ],
      [
        "r",
        "i"
      ],
      [
        "u",
        "p"
      ],
      [
        "it",
        "ch"
      ],
      [
        "▁l",
        "and"
      ],
      [
        "▁re",
        "ad"
      ],
      [
        "▁ex",
        "pl"
      ],
      [
        "h",
        "ing"
      ],
      [
        "re",
        "ad"
      ],
      [
        "▁m",
        "ed"
      ],
      [
        "ro",
        "ss"
      ],
      [
        "▁se",
        "co"
      ],
      [
        "▁mo",
        "d"
      ],
      [
        "▁com",
        "e"
      ],
      [
        "ere",
        "st"
      ],
      [
        "▁int",
        "erest"
      ],
      [
        "▁ro",
        "om"
      ],
      [
        "▁how",
        "ever"
      ],
      [
        "▁wr",
        "it"
      ],
      [
        "▁hel",
        "p"
      ],
      [
        "e",
        "ad"
      ],
      [
        "h",
        "ip"
      ],
      [
        "▁gr",
        "ou"
      ],
      [
        "g",
        "r"
      ],
      [
        "i",
        "red"
      ],
      [
        "▁",
        "7"
      ],
      [
        "er",
        "n"
      ],
      [
        "at",
        "or"
      ],
      [
        "▁m",
        "ain"
      ],
      [
        "▁f",
        "un"
      ],
      [
        "▁n",
        "or"
      ],
      [
        "ct",
        "ion"
      ],
      [
        "ter",
        "n"
      ],
      [
        "g",
        "er"
      ],
      [
        "▁",
        "ent"
      ],
      [
        "▁th",
        "ing"
      ],
      [
        "▁w",
        "ater"
      ],
      [
        "▁h",
        "u"
      ],
      [
        "▁re",
        "se"
      ],
      [
        "▁pro",
        "cess"
      ],
      [
        "k",
        "ed"
      ],
      [
        "▁",
        "/"
      ],
      [
        "▁",
        "z"
      ],
      [
        "at",
        "her"
      ],
      [
        "▁h",
        "ome"
      ],
      [
        "▁f",
        "ull"
      ],
      [
        "as",
        "on"
      ],
      [
        "▁e",
        "qu"
      ],
      [
        "le",
        "m"
      ],
      [
        "▁re",
        "d"
      ],
      [
        "▁st",
        "re"
      ],
      [
        "am",
        "p"
      ],
      [
        "▁1",
        "7"
      ],
      [
        ",",
        "000"
      ],
      [
        "e",
        "ll"
      ],
      [
        "▁f",
        "am"
      ],
      [
        "▁l",
        "oo"
      ],
      [
        "st",
        "and"
      ],
      [
        "ent",
        "ion"
      ],
      [
        "▁ex",
        "t"
      ],
      [
        "▁le",
        "ad"
      ],
      [
        "vel",
        "op"
      ],
      [
        "▁id",
        "e"
      ],
      [
        "▁incl",
        "ud"
      ],
      [
        "▁m",
        "em"
      ],
      [
        "▁ch",
        "ar"
      ],
      [
        "▁de",
        "velop"
      ]
    ]
  }
}