{
  "version": "1.0",
  "truncation": null,
  "padding": null,
  "added_tokens": [
    {
      "id": 156,
      "content": "[UNK]",
      "single_word": false,
      "lstrip": false,
      "rstrip": false,
      "normalized": false,
      "special": true
    },
    {
      "id": 227,
      "content": "[SEP]",
      "single_word": false,
      "lstrip": false,
      "rstrip": false,
      "normalized": false,
      "special": true
    },
    {
      "id": 301,
      "content": "[CLS]",
      "single_word": false,
      "lstrip": false,
      "rstrip": false,
      "normalized": false,
      "special": true
    },
    {
      "id": 584,
      "content": "[MASK]",
      "single_word": false,
      "lstrip": false,
      "rstrip": false,
      "normalized": false,
      "special": true
    },
    {
      "id": 889,
      "content": "[PAD]",
      "single_word": false,
      "lstrip": false,
      "rstrip": false,
      "normalized": false,
      "special": true
    }
  ],
  "normalizer": {
    "type": "Sequence",
    "normalizers": [
      {
        "type": "NFD"
      },
      {
        "type": "Lowercase"
      },
      {
        "type": "StripAccents"
      }
    ]
  },
  "pre_tokenizer": {
    "type": "Sequence",
    "pretokenizers": [
      {
        "type": "Metaspace",
        "replacement": "▁",
        "prepend_scheme": "always",
        "split": true
      }
    ]
  },
  "post_processor": {
    "type": "TemplateProcessing",
    "single": [
      {
        "SpecialToken": {
          "id": "[CLS]",
          "type_id": 0
        }
      },
      {
        "Sequence": {
          "id": "A",
          "type_id": 0
        }
      },
      {
        "SpecialToken": {
          "id": "[SEP]",
          "type_id": 0
        }
      }
    ],
    "pair": [
      {
        "SpecialToken": {
          "id": "[CLS]",
          "type_id": 0
        }
      },
      {
        "Sequence": {
          "id": "A",
          "type_id": 0
        }
      },
      {
        "SpecialToken": {
          "id": "[SEP]",
          "type_id": 0
        }
      },
      {
        "Sequence": {
          "id": "B",
          "type_id": 1
        }
      },
      {
        "SpecialToken": {
          "id": "[SEP]",
          "type_id": 1
        }
      }
    ],
    "special_tokens": {
      "[CLS]": {
        "id": "[CLS]",
        "ids": [
          301
        ],
        "tokens": [
          "[CLS]"
        ]
      },
      "[SEP]": {
        "id": "[SEP]",
        "ids": [
          227
        ],
        "tokens": [
          "[SEP]"
        ]
      }
    }
  },
  "decoder": {
    "type": "Metaspace",
    "replacement": "▁",
    "prepend_scheme": "always",
    "split": true
  },
  "model": {
    "type": "WordPiece",
    "unk_token": "[UNK]",
    "continuing_subword_prefix": "##",
    "max_input_chars_per_word": 100,
    "vocab": {
      "ι": 0,
      "▁an": 1,
      "f": 2,
      "ɛ": 3,
      "▁]": 4,
      "##le": 5,
      "▁the": 6,
      "##ide": 7,
      "##hin": 8,
      "##use": 9,
      "##me": 10,
      "##co": 11,
      "▁tech": 12,
      "▁do": 13,
      "##king": 14,
      "▁,": 15,
      "##ount": 16,
      "##ning": 17,
      "▁d": 18,
      "▁upon": 19,
      "##ors": 20,
      "##lem": 21,
      "##orts": 22,
      "▁is": 23,
      "##se": 24,
      "▁hea": 25,
      "##ign": 26,
      "▁la": 27,
      "▁line": 28,
      "##en": 29,
      "▁use": 30,
      "##ok": 31,
      "▁has": 32,
      "##ugh": 33,
      "##tions": 34,
      "▁t": 35,
      "▁‘": 36,
      "##der": 37,
      "##els": 38,
      "▁co": 39,
      "##ip": 40,
      "##ince": 41,
      "▁like": 42,
      "##ames": 43,
      "▁fri": 44,
      "▁his": 45,
      "##ard": 46,
      "[": 47,
      "-": 48,
      "▁going": 49,
      "▁year": 50,
      "ν": 51,
      "##like": 52,
      "##ay": 53,
      "##od": 54,
      "▁image": 55,
      "▁without": 56,
      "▁ro": 57,
      "##ub": 58,
      "▁make": 59,
      "▁(": 60,
      "▁see": 61,
      "▁tak": 62,
      "!": 63,
      "▁world": 64,
      "##ense": 65,
      "##l": 66,
      "▁its": 67,
      "*": 68,
      "##ject": 69,
      "▁take": 70,
      "##a": 71,
      "##r": 72,
      "##ans": 73,
      "▁among": 74,
      "##ism": 75,
      "ɑ": 76,
      "?": 77,
      "▁ins": 78,
      "##ands": 79,
      "▁inter": 80,
      "▁rec": 81,
      "▁ques": 82,
      "▁exp": 83,
      "##ke": 84,
      "##ov": 85,
      "##air": 86,
      "##acy": 87,
      "##,": 88,
      "▁op": 89,
      "5": 90,
      "##+": 91,
      "▁peop": 92,
      "▁str": 93,
      "▁befor": 94,
      "##…": 95,
      "▁langu": 96,
      "##und": 97,
      "##we": 98,
      "±": 99,
      "▁number": 100,
      "▁language": 101,
      "▁ag": 102,
      "##olog": 103,
      "▁during": 104,
      "▁val": 105,
      "##'": 106,
      "##est": 107,
      "▁question": 108,
      "▁some": 109,
      "i": 110,
      "▁som": 111,
      "##7": 112,
      "##di": 113,
      "##ar": 114,
      "▁her": 115,
      "##_": 116,
      "▁head": 117,
      "##ked": 118,
      "##ever": 119,
      "##ter": 120,
      "▁game": 121,
      "▁video": 122,
      "##:": 123,
      "##form": 124,
      "▁wom": 125,
      "##og": 126,
      "##ou": 127,
      "▁around": 128,
      "##ail": 129,
      "##ri": 130,
      "##`": 131,
      "▁along": 132,
      "▁id": 133,
      "▁are": 134,
      "##al": 135,
      "2": 136,
      "ρ": 137,
      "g": 138,
      "##either": 139,
      "k": 140,
      "##c": 141,
      "▁get": 142,
      "▁jo": 143,
      "▁sh": 144,
      "▁itself": 145,
      "▁acro": 146,
      "##d": 147,
      "##j": 148,
      "▁am": 149,
      "8": 150,
      "##ome": 151,
      "##ivers": 152,
      "##im": 153,
      "▁you": 154,
      "▁meth": 155,
      "[UNK]": 156,
      "##ts": 157,
      "▁": 158,
      "##ner": 159,
      "##ities": 160,
      "##at": 161,
      "▁ex": 162,
      "▁im": 163,
      "9": 164,
      "##3": 165,
      "##–": 166,
      "##em": 167,
      "▁durin": 168,
      "▁—": 169,
      "▁himself": 170,
      "##ant": 171,
      "▁air": 172,
      "##q": 173,
      "##ve": 174,
      "##ore": 175,
      "b": 176,
      "##es": 177,
      "▁s": 178,
      "##\"": 179,
      "▁us": 180,
      "▁rel": 181,
      "##ection": 182,
      "▁gra": 183,
      "n": 184,
      "▁on": 185,
      "▁throughout": 186,
      "v": 187,
      "ɔ": 188,
      "##ake": 189,
      "##ces": 190,
      "##ire": 191,
      "▁which": 192,
      "o": 193,
      "▁say": 194,
      "##mp": 195,
      "##ty": 196,
      "▁me": 197,
      "▁soc": 198,
      "##‘": 199,
      "▁ind": 200,
      "▁po": 201,
      "ʒ": 202,
      "##ety": 203,
      "##earch": 204,
      "##ith": 205,
      "##ition": 206,
      "▁pl": 207,
      "▁cent": 208,
      "▁bus": 209,
      "##ned": 210,
      "##um": 211,
      "▁had": 212,
      "##eve": 213,
      "##per": 214,
      "▁call": 215,
      "##it": 216,
      "_": 217,
      "##ak": 218,
      "▁down": 219,
      "##us": 220,
      "▁because": 221,
      "▁another": 222,
      "▁add": 223,
      "▁differ": 224,
      "##tin": 225,
      "4": 226,
      "[SEP]": 227,
      "▁again": 228,
      "##tics": 229,
      "▁we": 230,
      "##]": 231,
      "##thin": 232,
      "##ality": 233,
      "y": 234,
      "##ive": 235,
      "▁despite": 236,
      "▁cont": 237,
      "▁look": 238,
      "##body": 239,
      "##ind": 240,
      "▁set": 241,
      "`": 242,
      "▁said": 243,
      "▁mom": 244,
      "▁min": 245,
      "##ication": 246,
      "##ght": 247,
      "##enti": 248,
      "1": 249,
      "▁commun": 250,
      "w": 251,
      "##ings": 252,
      "##ber": 253,
      "##mb": 254,
      "##or": 255,
      "##ur": 256,
      "▁across": 257,
      "▁city": 258,
      "##ose": 259,
      "▁fl": 260,
      "##ema": 261,
      "▁years": 262,
      "▁tod": 263,
      "##end": 264,
      "##il": 265,
      "##ury": 266,
      "▁chan": 267,
      "##²": 268,
      "##gh": 269,
      "▁sc": 270,
      "##try": 271,
      "▁vide": 272,
      "▁him": 273,
      "▁class": 274,
      "##gain": 275,
      "▁this": 276,
      "##tion": 277,
      "##ues": 278,
      "▁app": 279,
      "+": 280,
      "##cause": 281,
      "##ood": 282,
      "▁comp": 283,
      "h": 284,
      "▁bo": 285,
      "##ers": 286,
      "##“": 287,
      "##ent": 288,
      "##st": 289,
      "##yp": 290,
      "##tem": 291,
      "##ain": 292,
      "##f": 293,
      "##el": 294,
      "##iew": 295,
      "▁be": 296,
      "##res": 297,
      "##ency": 298,
      "▁myself": 299,
      "▁tra": 300,
      "[CLS]": 301,
      "##ell": 302,
      "▁yourself": 303,
      "##ny": 304,
      "##lik": 305,
      "##iz": 306,
      "##ch": 307,
      "▁fo": 308,
      "▁if": 309,
      "ł": 310,
      "▁fin": 311,
      "▁data": 312,
      "##over": 313,
      "3": 314,
      "##out": 315,
      "▁ph": 316,
      "##ca": 317,
      "##ience": 318,
      "▁art": 319,
      "##-": 320,
      "##s": 321,
      "##ation": 322,
      "##h": 323,
      "##port": 324,
      "##th": 325,
      "▁li": 326,
      "▁imp": 327,
      "##?": 328,
      "##ink": 329,
      "▁concep": 330,
      "▁thing": 331,
      "▁water": 332,
      "d": 333,
      "##ul": 334,
      "▁di": 335,
      "▁hand": 336,
      "▁pe": 337,
      "##ut": 338,
      "▁want": 339,
      "##ices": 340,
      "…": 341,
      "▁en": 342,
      "▁bott": 343,
      "##ects": 344,
      "▁lot": 345,
      "##urin": 346,
      "##wor": 347,
      "▁;": 348,
      "##ason": 349,
      "##un": 350,
      "/": 351,
      "▁cup": 352,
      "##titu": 353,
      "▁at": 354,
      "##’": 355,
      ";": 356,
      "▁mov": 357,
      "▁b": 358,
      "##te": 359,
      "▁way": 360,
      "##ge": 361,
      "##erm": 362,
      "##an": 363,
      "▁themselves": 364,
      "▁put": 365,
      "▁med": 366,
      "▁theory": 367,
      "▁loc": 368,
      "▁re": 369,
      "▁kn": 370,
      "##ution": 371,
      "▁within": 372,
      "##sing": 373,
      "@": 374,
      "##ite": 375,
      "▁su": 376,
      "##tit": 377,
      "##u": 378,
      "##ions": 379,
      "##cess": 380,
      "##ages": 381,
      "##ear": 382,
      "▁“": 383,
      "▁word": 384,
      "##er": 385,
      "▁bit": 386,
      "##tim": 387,
      "▁qu": 388,
      "▁govern": 389,
      "##duc": 390,
      "▁aft": 391,
      "▁today": 392,
      "▁whic": 393,
      "▁both": 394,
      "##ti": 395,
      "##ater": 396,
      "##sed": 397,
      "▁comm": 398,
      "▁c": 399,
      "##ights": 400,
      "▁war": 401,
      "7": 402,
      "##ver": 403,
      "▁gen": 404,
      "##ec": 405,
      "##ort": 406,
      "▁through": 407,
      "▁ho": 408,
      "▁anything": 409,
      "▁serv": 410,
      "##nd": 411,
      "▁par": 412,
      "▁to": 413,
      "▁sur": 414,
      "##;": 415,
      "##itch": 416,
      "▁diff": 417,
      "##to": 418,
      "##rou": 419,
      "▁trans": 420,
      "ς": 421,
      "▁[...]": 422,
      "##pl": 423,
      "▁cre": 424,
      "l": 425,
      "▁dec": 426,
      "##ir": 427,
      "##y": 428,
      "##os": 429,
      "##uc": 430,
      "▁mon": 431,
      "▁wr": 432,
      "##ility": 433,
      "▁that": 434,
      "▁so": 435,
      "▁isl": 436,
      "##plication": 437,
      "##!": 438,
      "▁/": 439,
      "▁anoth": 440,
      "β": 441,
      "ø": 442,
      "▁pa": 443,
      "##iter": 444,
      "▁br": 445,
      "▁und": 446,
      "##ach": 447,
      "##age": 448,
      "##k": 449,
      "▁ap": 450,
      "▁neither": 451,
      "▁wh": 452,
      "##z": 453,
      "▁ar": 454,
      "##ult": 455,
      "μ": 456,
      "##iti": 457,
      "▁people": 458,
      "▁pu": 459,
      "▁lo": 460,
      "ο": 461,
      "▁month": 462,
      "▁mor": 463,
      "▁either": 464,
      "▁was": 465,
      "▁night": 466,
      "▁sub": 467,
      "▁name": 468,
      "▁team": 469,
      "▁over": 470,
      "▁mean": 471,
      "▁any": 472,
      "##ight": 473,
      "##°": 474,
      "▁need": 475,
      "▁land": 476,
      "p": 477,
      "▁your": 478,
      "▁-": 479,
      "##ass": 480,
      "▁tho": 481,
      "▁wor": 482,
      "##cep": 483,
      "##all": 484,
      "c": 485,
      "▁between": 486,
      "##ice": 487,
      "##ology": 488,
      "##re": 489,
      "▁toward": 490,
      "▁near": 491,
      "•": 492,
      "▁se": 493,
      "##ories": 494,
      "▁life": 495,
      "##ce": 496,
      "##thing": 497,
      "▁somebody": 498,
      "##1": 499,
      "##ond": 500,
      "▁fact": 501,
      "##formation": 502,
      "▁each": 503,
      "##ited": 504,
      "▁rev": 505,
      "▁for": 506,
      "▁r": 507,
      "▁age": 508,
      "s": 509,
      "##id": 510,
      "▁dis": 511,
      "##angu": 512,
      "▁sk": 513,
      "##ulture": 514,
      "▁st": 515,
      "##ft": 516,
      "▁someone": 517,
      "##oo": 518,
      "▁fro": 519,
      "##)": 520,
      "▁star": 521,
      "▁sec": 522,
      "▁met": 523,
      "▁wan": 524,
      "##$": 525,
      "’": 526,
      "æ": 527,
      "▁they": 528,
      "##ures": 529,
      "▁quality": 530,
      "▁gro": 531,
      "▁who": 532,
      "▁perc": 533,
      "▁it": 534,
      "##ag": 535,
      "##rol": 536,
      "##b": 537,
      "##—": 538,
      "##ion": 539,
      "##et": 540,
      "▁:": 541,
      "▁sup": 542,
      "▁)": 543,
      "##ving": 544,
      "▁l": 545,
      "##•": 546,
      "t": 547,
      "##ect": 548,
      "##ies": 549,
      "##ments": 550,
      "▁th": 551,
      "##enc": 552,
      "▁gover": 553,
      "]": 554,
      "²": 555,
      "##om": 556,
      "▁sp": 557,
      "▁per": 558,
      "##lec": 559,
      "##ie": 560,
      "##ife": 561,
      "▁behind": 562,
      "##llow": 563,
      "##o": 564,
      "▁de": 565,
      "▁culture": 566,
      "##ded": 567,
      "▁school": 568,
      "▁before": 569,
      "▁such": 570,
      "▁al": 571,
      "▁hist": 572,
      "▁child": 573,
      "▁j": 574,
      "▁vis": 575,
      "▁whatever": 576,
      "##ia": 577,
      "##ment": 578,
      "##ward": 579,
      "##@": 580,
      "##5": 581,
      "##round": 582,
      "##ons": 583,
      "[MASK]": 584,
      "▁light": 585,
      ")": 586,
      "▁fam": 587,
      ",": 588,
      "▁?": 589,
      "##t": 590,
      "##for": 591,
      "▁te": 592,
      "##ish": 593,
      "▁area": 594,
      "=": 595,
      "x": 596,
      "##ks": 597,
      "&": 598,
      "##ding": 599,
      "▁sho": 600,
      "##æ": 601,
      "##ree": 602,
      "▁cons": 603,
      "▁bl": 604,
      "▁des": 605,
      "▁bre": 606,
      "▁...": 607,
      "▁o": 608,
      "▁ev": 609,
      "##am": 610,
      "▁have": 611,
      "▁--": 612,
      "▁car": 613,
      "##ow": 614,
      "▁prob": 615,
      "▁nothing": 616,
      "▁home": 617,
      "##ang": 618,
      "##oor": 619,
      "▁pers": 620,
      "##x": 621,
      "▁those": 622,
      "”": 623,
      "▁mo": 624,
      "##ong": 625,
      "##tr": 626,
      "▁group": 627,
      "##red": 628,
      "ʁ": 629,
      "##up": 630,
      "▁days": 631,
      "ʊ": 632,
      "▁i": 633,
      "##ich": 634,
      "▁process": 635,
      "ε": 636,
      "##oc": 637,
      "▁of": 638,
      "▁u": 639,
      "##oun": 640,
      "##ure": 641,
      "##ess": 642,
      "##its": 643,
      "‘": 644,
      "##side": 645,
      "▁res": 646,
      "##ered": 647,
      "##lev": 648,
      "▁w": 649,
      "▁pos": 650,
      "##ep": 651,
      "##igh": 652,
      "##ff": 653,
      "“": 654,
      "##ations": 655,
      "▁know": 656,
      "##ile": 657,
      "##tic": 658,
      "##ist": 659,
      "##ature": 660,
      "##/": 661,
      "##ee": 662,
      "▁example": 663,
      "▁poin": 664,
      "▁there": 665,
      "##ick": 666,
      "▁f": 667,
      "▁until": 668,
      "▁m": 669,
      "##ue": 670,
      "▁pol": 671,
      "▁throu": 672,
      "▁cap": 673,
      "##ance": 674,
      "##ators": 675,
      "▁ca": 676,
      "##pr": 677,
      "▁…": 678,
      "▁my": 679,
      "##twe": 680,
      "##ian": 681,
      "##6": 682,
      "▁let": 683,
      "▁sch": 684,
      "▁disc": 685,
      "▁all": 686,
      "##uff": 687,
      "a": 688,
      "##9": 689,
      "##qu": 690,
      "##selves": 691,
      "##ool": 692,
      "##ic": 693,
      "##4": 694,
      "##eed": 695,
      "##0": 696,
      "▁after": 697,
      "##ab": 698,
      "▁everyone": 699,
      "▁than": 700,
      "##as": 701,
      "▁fac": 702,
      "6": 703,
      "▁att": 704,
      "▁root": 705,
      "##ws": 706,
      "##ol": 707,
      "▁them": 708,
      "▁\"": 709,
      "e": 710,
      "u": 711,
      "▁hal": 712,
      "▁col": 713,
      "##tor": 714,
      "##ement": 715,
      "##8": 716,
      "▁day": 717,
      "–": 718,
      "##2": 719,
      "▁bas": 720,
      "##ys": 721,
      "##ace": 722,
      "##op": 723,
      "▁ab": 724,
      "$": 725,
      "▁into": 726,
      "▁since": 727,
      "##ook": 728,
      "##v": 729,
      "ə": 730,
      "▁out": 731,
      "▁information": 732,
      "▁eff": 733,
      "▁against": 734,
      "°": 735,
      "##als": 736,
      "##vel": 737,
      "▁p": 738,
      "##cro": 739,
      "▁tim": 740,
      "##ne": 741,
      "##ud": 742,
      "▁pr": 743,
      "▁or": 744,
      "##self": 745,
      "##p": 746,
      "▁cour": 747,
      "##alf": 748,
      "##pp": 749,
      "▁got": 750,
      "##ac": 751,
      "▁end": 752,
      "▁q": 753,
      "##ants": 754,
      "##ate": 755,
      "▁[..": 756,
      "σ": 757,
      "▁dow": 758,
      "▁con": 759,
      "▁le": 760,
      ".": 761,
      "▁exper": 762,
      "▁words": 763,
      "▁ever": 764,
      "##ends": 765,
      "▁hour": 766,
      "▁country": 767,
      "##ry": 768,
      "##*": 769,
      "▁ac": 770,
      "##ade": 771,
      "##±": 772,
      "▁[": 773,
      "##ech": 774,
      "q": 775,
      "▁k": 776,
      "##hip": 777,
      "##ines": 778,
      "##ity": 779,
      "##..": 780,
      "▁whose": 781,
      "▁gr": 782,
      "#": 783,
      "##ast": 784,
      "▁un": 785,
      "ʃ": 786,
      "▁'": 787,
      "▁place": 788,
      "##.": 789,
      "▁about": 790,
      "▁ne": 791,
      "▁kind": 792,
      "▁..": 793,
      "▁form": 794,
      "##iel": 795,
      "▁man": 796,
      "##ens": 797,
      "##urn": 798,
      "(": 799,
      "##ine": 800,
      "##orm": 801,
      "▁pro": 802,
      "▁anyone": 803,
      "▁e": 804,
      "##ra": 805,
      "##ved": 806,
      "##ention": 807,
      "▁bir": 808,
      "##tiv": 809,
      "▁fe": 810,
      "##w": 811,
      "▁ad": 812,
      "▁made": 813,
      "##ence": 814,
      "▁things": 815,
      "▁up": 816,
      "##i": 817,
      "▁she": 818,
      "▁'s": 819,
      "▁their": 820,
      "▁behin": 821,
      "##ik": 822,
      "▁these": 823,
      "##ness": 824,
      "▁as": 825,
      "▁produc": 826,
      "▁box": 827,
      "##ory": 828,
      "▁inc": 829,
      "▁view": 830,
      "##our": 831,
      "##ea": 832,
      "▁guys": 833,
      "▁go": 834,
      "▁from": 835,
      "▁quite": 836,
      "▁history": 837,
      "▁stud": 838,
      "▁by": 839,
      "▁famil": 840,
      "▁mod": 841,
      "##ing": 842,
      "##ied": 843,
      "▁what": 844,
      "▁sa": 845,
      "▁cr": 846,
      "▁sea": 847,
      "▁dr": 848,
      "▁wee": 849,
      "▁research": 850,
      "▁every": 851,
      "##he": 852,
      "▁ou": 853,
      "##iv": 854,
      "##'s": 855,
      "▁gl": 856,
      "##e": 857,
      "▁leg": 858,
      "▁person": 859,
      "##ld": 860,
      "##ad": 861,
      "##and": 862,
      "▁time": 863,
      "##ack": 864,
      "##ρ": 865,
      "▁work": 866,
      "##ap": 867,
      "▁off": 868,
      "▁something": 869,
      "##ted": 870,
      "▁room": 871,
      ":": 872,
      "▁num": 873,
      "##amp": 874,
      "▁h": 875,
      "▁a": 876,
      "##ator": 877,
      "##ild": 878,
      "##ll": 879,
      "##erv": 880,
      "▁he": 881,
      "##[": 882,
      "##ug": 883,
      "▁.": 884,
      "▁problem": 885,
      "##uch": 886,
      "##ill": 887,
      "##bod": 888,
      "[PAD]": 889,
      "'": 890,
      "##ot": 891,
      "\"": 892,
      "##ib": 893,
      "▁com": 894,
      "▁half": 895,
      "▁coun": 896,
      "▁study": 897,
      "##ath": 898,
      "##º": 899,
      "▁betwe": 900,
      "▁space": 901,
      "▁under": 902,
      "▁give": 903,
      "##ds": 904,
      "##sp": 905,
      "j": 906,
      "▁fr": 907,
      "▁minut": 908,
      "▁think": 909,
      "▁g": 910,
      "▁mar": 911,
      "##les": 912,
      "##til": 913,
      "▁–": 914,
      "▁ch": 915,
      "▁in": 916,
      "##rin": 917,
      "ˈ": 918,
      "##ed": 919,
      "##uite": 920,
      "▁cas": 921,
      "##.]": 922,
      "##other": 923,
      "##ame": 924,
      "▁em": 925,
      "▁cl": 926,
      "##”": 927,
      "z": 928,
      "##one": 929,
      "##own": 930,
      "▁fiel": 931,
      "▁step": 932,
      "▁v": 933,
      "▁*": 934,
      "##ystem": 935,
      "##ig": 936,
      "▁’": 937,
      "▁tr": 938,
      "##sel": 939,
      "##ated": 940,
      "##oth": 941,
      "##bs": 942,
      "▁system": 943,
      "##fl": 944,
      "▁y": 945,
      "▁everything": 946,
      "▁part": 947,
      "▁mem": 948,
      "##uth": 949,
      "▁basil": 950,
      "▁with": 951,
      "##in": 952,
      "##ither": 953,
      "▁gu": 954,
      "##ample": 955,
      "##ying": 956,
      "##ro": 957,
      "▁resp": 958,
      "▁”": 959,
      "0": 960,
      "##ture": 961,
      "m": 962,
      "##ences": 963,
      "##ves": 964,
      "▁term": 965,
      "##is": 966,
      "##yond": 967,
      "##m": 968,
      "▁dat": 969,
      "º": 970,
      "▁minutes": 971,
      "▁our": 972,
      "▁!": 973,
      "##ting": 974,
      "##on": 975,
      "▁ha": 976,
      "##g": 977,
      "▁no": 978,
      "##ents": 979,
      "r": 980,
      "▁family": 981,
      "##ph": 982,
      "##ters": 983,
      "▁desp": 984,
      "##esp": 985,
      "##av": 986,
      "▁abo": 987,
      "—": 988,
      "##gr": 989,
      "##ss": 990,
      "▁bro": 991,
      "##(": 992,
      "##if": 993,
      "##&": 994,
      "▁one": 995,
      "▁n": 996,
      "▁char": 997,
      "##ott": 998,
      "##n": 999
    }
  }
}