{
  "version": "1.0",
  "truncation": null,
  "padding": null,
  "added_tokens": [
    {
      "id": 147,
      "content": "[UNK]",
      "single_word": false,
      "lstrip": false,
      "rstrip": false,
      "normalized": false,
      "special": true
    },
    {
      "id": 220,
      "content": "[SEP]",
      "single_word": false,
      "lstrip": false,
      "rstrip": false,
      "normalized": false,
      "special": true
    },
    {
      "id": 298,
      "content": "[CLS]",
      "single_word": false,
      "lstrip": false,
      "rstrip": false,
      "normalized": false,
      "special": true
    },
    {
      "id": 578,
      "content": "[MASK]",
      "single_word": false,
      "lstrip": false,
      "rstrip": false,
      "normalized": false,
      "special": true
    },
    {
      "id": 882,
      "content": "[PAD]",
      "single_word": false,
      "lstrip": false,
      "rstrip": false,
      "normalized": false,
      "special": true
    }
  ],
  "normalizer": {
    "type": "Sequence",
    "normalizers": [
      {
        "type": "NFD"
      },
      {
        "type": "Lowercase"
      },
      {
        "type": "StripAccents"
      }
    ]
  },
  "pre_tokenizer": {
    "type": "Sequence",
    "pretokenizers": [
      {
        "type": "Metaspace",
        "replacement": "▁",
        "prepend_scheme": "always",
        "split": true
      }
    ]
  },
  "post_processor": {
    "type": "TemplateProcessing",
    "single": [
      {
        "SpecialToken": {
          "id": "[CLS]",
          "type_id": 0
        }
      },
      {
        "Sequence": {
          "id": "A",
          "type_id": 0
        }
      },
      {
        "SpecialToken": {
          "id": "[SEP]",
          "type_id": 0
        }
      }
    ],
    "pair": [
      {
        "SpecialToken": {
          "id": "[CLS]",
          "type_id": 0
        }
      },
      {
        "Sequence": {
          "id": "A",
          "type_id": 0
        }
      },
      {
        "SpecialToken": {
          "id": "[SEP]",
          "type_id": 0
        }
      },
      {
        "Sequence": {
          "id": "B",
          "type_id": 1
        }
      },
      {
        "SpecialToken": {
          "id": "[SEP]",
          "type_id": 1
        }
      }
    ],
    "special_tokens": {
      "[CLS]": {
        "id": "[CLS]",
        "ids": [
          298
        ],
        "tokens": [
          "[CLS]"
        ]
      },
      "[SEP]": {
        "id": "[SEP]",
        "ids": [
          220
        ],
        "tokens": [
          "[SEP]"
        ]
      }
    }
  },
  "decoder": {
    "type": "Metaspace",
    "replacement": "▁",
    "prepend_scheme": "always",
    "split": true
  },
  "model": {
    "type": "BPE",
    "dropout": null,
    "unk_token": "[UNK]",
    "continuing_subword_prefix": null,
    "end_of_word_suffix": null,
    "fuse_unk": false,
    "byte_fallback": false,
    "ignore_merges": false,
    "vocab": {
      "uc": 0,
      "ι": 1,
      "▁towards": 2,
      "▁an": 3,
      "or": 4,
      "f": 5,
      "ɛ": 6,
      "▁]": 7,
      "▁the": 8,
      "lly": 9,
      "▁tech": 10,
      "▁do": 11,
      "ity": 12,
      "ked": 13,
      "▁@": 14,
      "ased": 15,
      "ke": 16,
      "▁,": 17,
      "ok": 18,
      "▁d": 19,
      "▁upon": 20,
      "▁line": 21,
      "▁is": 22,
      "▁hea": 23,
      "▁la": 24,
      "▁use": 25,
      "ook": 26,
      "▁has": 27,
      "other": 28,
      "▁t": 29,
      "▁‘": 30,
      "ated": 31,
      "am": 32,
      "▁co": 33,
      "lev": 34,
      "▁like": 35,
      "tin": 36,
      "ded": 37,
      "▁fri": 38,
      "▁his": 39,
      "gain": 40,
      "ality": 41,
      "[": 42,
      "-": 43,
      "ife": 44,
      "▁year": 45,
      "▁going": 46,
      "ri": 47,
      "ex": 48,
      "▁image": 49,
      "as": 50,
      "▁ro": 51,
      "▁without": 52,
      "▁make": 53,
      "enti": 54,
      "▁(": 55,
      "▁see": 56,
      "▁s/he": 57,
      "im": 58,
      "!": 59,
      "▁world": 60,
      "▁tak": 61,
      "ath": 62,
      "ere": 63,
      "▁its": 64,
      "ech": 65,
      "*": 66,
      "▁take": 67,
      "ulture": 68,
      "▁among": 69,
      "ɑ": 70,
      "cep": 71,
      "?": 72,
      "no": 73,
      "▁ins": 74,
      "ject": 75,
      "age": 76,
      "▁inter": 77,
      "▁rec": 78,
      "▁ques": 79,
      "over": 80,
      "▁exp": 81,
      "ted": 82,
      "▁op": 83,
      "5": 84,
      "ink": 85,
      "▁peop": 86,
      "ort": 87,
      "ount": 88,
      "▁str": 89,
      "▁befor": 90,
      "av": 91,
      "▁langu": 92,
      "±": 93,
      "▁number": 94,
      "▁language": 95,
      "▁ag": 96,
      "▁question": 97,
      "▁during": 98,
      "▁val": 99,
      "▁some": 100,
      "i": 101,
      "tim": 102,
      "▁her": 103,
      "▁head": 104,
      "ov": 105,
      "ame": 106,
      "ices": 107,
      "ors": 108,
      "▁game": 109,
      "fer": 110,
      "▁video": 111,
      "ys": 112,
      "▁wom": 113,
      "ited": 114,
      "▁around": 115,
      "▁others": 116,
      "▁along": 117,
      ".]": 118,
      "▁id": 119,
      "▁are": 120,
      "wit": 121,
      "2": 122,
      "ild": 123,
      "ρ": 124,
      "g": 125,
      "▁jo": 126,
      "k": 127,
      "▁get": 128,
      "all": 129,
      "ense": 130,
      "▁sh": 131,
      "sin": 132,
      "▁acro": 133,
      "▁itself": 134,
      "bs": 135,
      "▁am": 136,
      "8": 137,
      "be": 138,
      "ry": 139,
      "▁you": 140,
      "ood": 141,
      "▁ours": 142,
      "king": 143,
      "ep": 144,
      "▁inside": 145,
      "▁meth": 146,
      "[UNK]": 147,
      "ved": 148,
      "▁": 149,
      "▁yours": 150,
      "▁used": 151,
      "ason": 152,
      "ect": 153,
      "el": 154,
      "ot": 155,
      "▁ex": 156,
      "▁words": 157,
      "▁im": 158,
      "als": 159,
      "9": 160,
      "▁durin": 161,
      "▁—": 162,
      "cause": 163,
      "▁himself": 164,
      "urin": 165,
      "▁air": 166,
      "b": 167,
      "ine": 168,
      "▁liv": 169,
      "ain": 170,
      "▁s": 171,
      "▁us": 172,
      "ans": 173,
      "▁rel": 174,
      "▁above": 175,
      "▁gra": 176,
      "n": 177,
      "▁on": 178,
      "rin": 179,
      "▁throughout": 180,
      "enc": 181,
      "▁months": 182,
      "itch": 183,
      "v": 184,
      "ɔ": 185,
      "▁which": 186,
      "yp": 187,
      "o": 188,
      "▁say": 189,
      "er": 190,
      "ators": 191,
      "▁me": 192,
      "res": 193,
      "▁soc": 194,
      "▁ind": 195,
      "▁po": 196,
      "ft": 197,
      "ʒ": 198,
      "ch": 199,
      "oor": 200,
      "▁pl": 201,
      "▁cent": 202,
      "▁bus": 203,
      "ating": 204,
      "others": 205,
      "ide": 206,
      "ning": 207,
      "hen": 208,
      "▁onto": 209,
      "▁had": 210,
      "▁call": 211,
      "ories": 212,
      "_": 213,
      "▁down": 214,
      "▁because": 215,
      "▁another": 216,
      "▁add": 217,
      "▁differ": 218,
      "4": 219,
      "[SEP]": 220,
      "▁again": 221,
      "ens": 222,
      "ig": 223,
      "▁we": 224,
      "ither": 225,
      "y": 226,
      "ich": 227,
      "▁despite": 228,
      "▁cont": 229,
      "▁look": 230,
      "▁set": 231,
      "`": 232,
      "▁said": 233,
      "▁mom": 234,
      "▁min": 235,
      "ly": 236,
      "1": 237,
      "▁commun": 238,
      "wh": 239,
      "et": 240,
      "▁n't": 241,
      "rou": 242,
      "ement": 243,
      "w": 244,
      "▁across": 245,
      "▁city": 246,
      "ake": 247,
      "tion": 248,
      "▁fl": 249,
      "per": 250,
      "ish": 251,
      "▁years": 252,
      "▁cro": 253,
      "▁tod": 254,
      "bl": 255,
      "ud": 256,
      "ra": 257,
      "ema": 258,
      "▁chan": 259,
      "side": 260,
      "▁sc": 261,
      "▁vide": 262,
      "▁were": 263,
      "ing": 264,
      "▁him": 265,
      "til": 266,
      "▁class": 267,
      "ive": 268,
      "cess": 269,
      "plication": 270,
      "▁this": 271,
      "thing": 272,
      "op": 273,
      "ed": 274,
      "▁app": 275,
      "+": 276,
      "eve": 277,
      "▁comp": 278,
      "h": 279,
      "’s": 280,
      "ess": 281,
      "ight": 282,
      "ces": 283,
      "▁bo": 284,
      "ott": 285,
      "le": 286,
      "ith": 287,
      "ication": 288,
      "ward": 289,
      "ach": 290,
      "ard": 291,
      "▁be": 292,
      "ystem": 293,
      "ver": 294,
      "▁myself": 295,
      "ea": 296,
      "ill": 297,
      "[CLS]": 298,
      "ur": 299,
      "ace": 300,
      "▁tra": 301,
      "▁yourself": 302,
      "ences": 303,
      "ety": 304,
      "▁if": 305,
      "▁fo": 306,
      "if": 307,
      "ł": 308,
      "ce": 309,
      "▁fin": 310,
      "▁’s": 311,
      "tem": 312,
      "▁data": 313,
      "3": 314,
      "▁except": 315,
      "▁ph": 316,
      "▁art": 317,
      "is": 318,
      "▁typ": 319,
      "ang": 320,
      "on": 321,
      "ving": 322,
      "▁li": 323,
      "▁imp": 324,
      "to": 325,
      "our": 326,
      "▁concep": 327,
      "hal": 328,
      "▁thing": 329,
      "llow": 330,
      "▁water": 331,
      "oo": 332,
      "ization": 333,
      "thin": 334,
      "d": 335,
      "▁hand": 336,
      "▁di": 337,
      "ames": 338,
      "▁pe": 339,
      "rol": 340,
      "▁want": 341,
      "…": 342,
      "ght": 343,
      "iti": 344,
      "▁en": 345,
      "▁bott": 346,
      "▁lot": 347,
      "▁;": 348,
      "orts": 349,
      "/": 350,
      "▁cup": 351,
      "▁at": 352,
      "ac": 353,
      "use": 354,
      ";": 355,
      "▁sin": 356,
      "▁b": 357,
      "▁way": 358,
      "port": 359,
      "▁med": 360,
      "▁put": 361,
      "▁theory": 362,
      "▁themselves": 363,
      "▁mov": 364,
      "▁loc": 365,
      "ds": 366,
      "▁stat": 367,
      "▁re": 368,
      "ks": 369,
      "round": 370,
      "▁would": 371,
      "▁kn": 372,
      "▁within": 373,
      "ends": 374,
      "▁case": 375,
      "@": 376,
      "hip": 377,
      "▁su": 378,
      "ativ": 379,
      "'t": 380,
      "▁“": 381,
      "▁word": 382,
      "ff": 383,
      "▁bit": 384,
      "▁but": 385,
      "▁govern": 386,
      "▁qu": 387,
      "em": 388,
      "▁aft": 389,
      "ury": 390,
      "ile": 391,
      "▁today": 392,
      "▁both": 393,
      "▁comm": 394,
      "al": 395,
      "▁c": 396,
      "ay": 397,
      "ence": 398,
      "7": 399,
      "sel": 400,
      "▁war": 401,
      "▁gen": 402,
      "▁through": 403,
      "▁ho": 404,
      "▁anything": 405,
      "..": 406,
      "ag": 407,
      "▁serv": 408,
      "▁par": 409,
      "▁lead": 410,
      "ments": 411,
      "▁to": 412,
      "▁sur": 413,
      "ip": 414,
      "▁diff": 415,
      "either": 416,
      "▁trans": 417,
      "▁cre": 418,
      "▁[...]": 419,
      "un": 420,
      "th": 421,
      "l": 422,
      "▁dec": 423,
      "ights": 424,
      "▁mon": 425,
      "▁wr": 426,
      "ure": 427,
      "alf": 428,
      "orm": 429,
      "▁that": 430,
      "ts": 431,
      "ca": 432,
      "▁so": 433,
      "▁isl": 434,
      "ied": 435,
      "ution": 436,
      "oun": 437,
      "ab": 438,
      "▁/": 439,
      "▁whom": 440,
      "ture": 441,
      "▁anoth": 442,
      "β": 443,
      "ø": 444,
      "▁pa": 445,
      "tic": 446,
      "▁br": 447,
      "▁und": 448,
      "ter": 449,
      "ou": 450,
      "st": 451,
      "in": 452,
      "▁neither": 453,
      "qu": 454,
      "▁wh": 455,
      "▁ap": 456,
      "▁ar": 457,
      "μ": 458,
      "▁pu": 459,
      "▁lo": 460,
      "▁people": 461,
      "pl": 462,
      "ered": 463,
      "▁month": 464,
      "▁wit": 465,
      "▁either": 466,
      "▁was": 467,
      "▁night": 468,
      "▁mor": 469,
      "▁sub": 470,
      "▁name": 471,
      "▁team": 472,
      "▁over": 473,
      "▁times": 474,
      "vel": 475,
      "ian": 476,
      "cro": 477,
      "▁mean": 478,
      "▁any": 479,
      "co": 480,
      "gh": 481,
      "own": 482,
      "▁need": 483,
      "▁land": 484,
      "p": 485,
      "▁your": 486,
      "▁-": 487,
      "▁tho": 488,
      "ation": 489,
      "▁wor": 490,
      "uch": 491,
      "▁not": 492,
      "ower": 493,
      "c": 494,
      "▁between": 495,
      "▁toward": 496,
      "▁near": 497,
      "▁method": 498,
      "red": 499,
      "•": 500,
      "iv": 501,
      "ience": 502,
      "▁se": 503,
      "▁life": 504,
      "▁fact": 505,
      "ines": 506,
      "▁somebody": 507,
      "▁each": 508,
      "▁rev": 509,
      "▁for": 510,
      "▁r": 511,
      "▁age": 512,
      "s": 513,
      "▁dis": 514,
      "ug": 515,
      "▁sk": 516,
      "▁st": 517,
      "▁someone": 518,
      "eed": 519,
      "▁fro": 520,
      "ands": 521,
      "▁star": 522,
      "▁sec": 523,
      "▁met": 524,
      "▁wan": 525,
      "’": 526,
      "æ": 527,
      "▁they": 528,
      "cept": 529,
      "▁quality": 530,
      "ics": 531,
      "▁gro": 532,
      "▁who": 533,
      "lu": 534,
      "▁and": 535,
      "▁perc": 536,
      "om": 537,
      "▁it": 538,
      "ass": 539,
      "▁:": 540,
      "▁sup": 541,
      "▁)": 542,
      "yond": 543,
      "▁l": 544,
      "ies": 545,
      "tics": 546,
      "t": 547,
      "ures": 548,
      "▁th": 549,
      "▁gover": 550,
      "]": 551,
      "²": 552,
      "sed": 553,
      "▁sp": 554,
      "ations": 555,
      "olog": 556,
      "▁per": 557,
      "▁nobody": 558,
      "▁behind": 559,
      "▁via": 560,
      "ition": 561,
      "▁de": 562,
      "its": 563,
      "▁culture": 564,
      "tions": 565,
      "▁school": 566,
      "▁bec": 567,
      "di": 568,
      "▁before": 569,
      "▁such": 570,
      "▁al": 571,
      "▁hist": 572,
      "▁child": 573,
      "▁j": 574,
      "▁vis": 575,
      "▁whatever": 576,
      "ings": 577,
      "[MASK]": 578,
      "▁light": 579,
      "▁beyond": 580,
      ")": 581,
      "▁fam": 582,
      ",": 583,
      "▁?": 584,
      "▁area": 585,
      "▁te": 586,
      "hin": 587,
      "=": 588,
      "x": 589,
      "&": 590,
      "angu": 591,
      "▁sho": 592,
      "▁cons": 593,
      "▁bl": 594,
      "ator": 595,
      "▁des": 596,
      "▁bre": 597,
      "▁...": 598,
      "▁o": 599,
      "▁ev": 600,
      "▁have": 601,
      "▁prob": 602,
      "▁--": 603,
      "ite": 604,
      "▁car": 605,
      "▁nothing": 606,
      "▁home": 607,
      "one": 608,
      "ould": 609,
      "▁pers": 610,
      "▁those": 611,
      "”": 612,
      "▁mo": 613,
      "pt": 614,
      "▁group": 615,
      "out": 616,
      "ʁ": 617,
      "▁days": 618,
      "ʊ": 619,
      "▁i": 620,
      "▁theirs": 621,
      "iew": 622,
      "▁process": 623,
      "ε": 624,
      "▁of": 625,
      "ik": 626,
      "▁u": 627,
      "‘": 628,
      "ail": 629,
      "▁res": 630,
      "ll": 631,
      "▁w": 632,
      "ss": 633,
      "sing": 634,
      "▁pos": 635,
      "ned": 636,
      "ions": 637,
      "ice": 638,
      "“": 639,
      "▁know": 640,
      "les": 641,
      "ty": 642,
      "els": 643,
      "▁it's": 644,
      "▁example": 645,
      "▁poin": 646,
      "▁there": 647,
      "ia": 648,
      "tr": 649,
      "▁f": 650,
      "▁until": 651,
      "▁m": 652,
      "▁betw": 653,
      "ting": 654,
      "▁pol": 655,
      "▁throu": 656,
      "oc": 657,
      "ue": 658,
      "▁cap": 659,
      "ance": 660,
      "▁ca": 661,
      "▁interv": 662,
      "▁…": 663,
      "▁my": 664,
      "ory": 665,
      "earch": 666,
      "▁let": 667,
      "▁sch": 668,
      "▁disc": 669,
      "▁all": 670,
      "ree": 671,
      "▁interest": 672,
      "ves": 673,
      "ness": 674,
      "a": 675,
      "▁after": 676,
      "▁everyone": 677,
      "▁than": 678,
      "try": 679,
      "ap": 680,
      "▁fac": 681,
      "6": 682,
      "us": 683,
      "▁att": 684,
      "▁root": 685,
      "▁them": 686,
      "▁\"": 687,
      "e": 688,
      "u": 689,
      "▁hal": 690,
      "▁col": 691,
      "▁will": 692,
      "▁day": 693,
      "iel": 694,
      "ign": 695,
      "–": 696,
      "body": 697,
      "▁bas": 698,
      "▁ab": 699,
      "$": 700,
      "▁into": 701,
      "es": 702,
      "▁since": 703,
      "like": 704,
      "ə": 705,
      "▁out": 706,
      "self": 707,
      "ects": 708,
      "▁information": 709,
      "it": 710,
      "ack": 711,
      "▁eff": 712,
      "▁against": 713,
      "ie": 714,
      "°": 715,
      "est": 716,
      "der": 717,
      "air": 718,
      "▁p": 719,
      "acy": 720,
      "ion": 721,
      "▁tim": 722,
      "▁side": 723,
      "▁or": 724,
      "▁pr": 725,
      "▁cour": 726,
      "en": 727,
      "ying": 728,
      "▁got": 729,
      "▁end": 730,
      "▁ourselves": 731,
      "ers": 732,
      "▁[..": 733,
      "igh": 734,
      "▁dow": 735,
      "▁con": 736,
      "▁le": 737,
      ".": 738,
      "ent": 739,
      "tit": 740,
      "▁exper": 741,
      "lec": 742,
      "▁ever": 743,
      "ose": 744,
      "'s": 745,
      "ell": 746,
      "ant": 747,
      "▁hour": 748,
      "▁country": 749,
      "ib": 750,
      "me": 751,
      "▁ac": 752,
      "se": 753,
      "both": 754,
      "▁[": 755,
      "wor": 756,
      "q": 757,
      "ater": 758,
      "▁k": 759,
      "▁gr": 760,
      "▁whose": 761,
      "ected": 762,
      "#": 763,
      "▁un": 764,
      "ʃ": 765,
      "▁'": 766,
      "▁place": 767,
      "▁about": 768,
      "▁experience": 769,
      "ding": 770,
      "▁ne": 771,
      "▁kind": 772,
      "▁..": 773,
      "ble": 774,
      "▁form": 775,
      "▁man": 776,
      "(": 777,
      "▁anyone": 778,
      "ate": 779,
      "▁pro": 780,
      "▁ya": 781,
      "▁e": 782,
      "▁bir": 783,
      "erm": 784,
      "for": 785,
      "▁anybody": 786,
      "ind": 787,
      "▁fe": 788,
      "▁ad": 789,
      "▁made": 790,
      "ught": 791,
      "ents": 792,
      "▁things": 793,
      "at": 794,
      "pr": 795,
      "▁up": 796,
      "▁find": 797,
      "▁she": 798,
      "▁'s": 799,
      "ore": 800,
      "▁their": 801,
      "▁behin": 802,
      "ample": 803,
      "▁these": 804,
      "end": 805,
      "▁as": 806,
      "ities": 807,
      "▁produc": 808,
      "ub": 809,
      "ages": 810,
      "▁box": 811,
      "iz": 812,
      "▁inc": 813,
      "ee": 814,
      "▁view": 815,
      "ph": 816,
      "▁guys": 817,
      "▁go": 818,
      "▁from": 819,
      "ism": 820,
      "▁quite": 821,
      "ner": 822,
      "od": 823,
      "ever": 824,
      "▁everybody": 825,
      "▁history": 826,
      "▁stud": 827,
      "ist": 828,
      "ency": 829,
      "▁by": 830,
      "▁famil": 831,
      "ne": 832,
      "▁mod": 833,
      "ge": 834,
      "▁what": 835,
      "▁sa": 836,
      "▁cr": 837,
      "▁sea": 838,
      "dy": 839,
      "▁dr": 840,
      "ugh": 841,
      "ong": 842,
      "ad": 843,
      "▁wee": 844,
      "▁every": 845,
      "▁ou": 846,
      "▁research": 847,
      "selves": 848,
      "ology": 849,
      "▁gl": 850,
      "form": 851,
      "▁leg": 852,
      "▁person": 853,
      "▁time": 854,
      "id": 855,
      "▁work": 856,
      "uth": 857,
      "▁room": 858,
      "▁off": 859,
      "▁something": 860,
      "tor": 861,
      "ention": 862,
      ":": 863,
      "▁num": 864,
      "▁h": 865,
      "ters": 866,
      "▁a": 867,
      "um": 868,
      "▁he": 869,
      "ues": 870,
      "tiv": 871,
      "nd": 872,
      "uff": 873,
      "▁.": 874,
      "▁problem": 875,
      "erv": 876,
      "▁show": 877,
      "bo": 878,
      "ut": 879,
      "urn": 880,
      "ow": 881,
      "[PAD]": 882,
      "'": 883,
      "ak": 884,
      "und": 885,
      "\"": 886,
      "ber": 887,
      "▁com": 888,
      "ick": 889,
      "▁half": 890,
      "▁coun": 891,
      "▁unlike": 892,
      "ire": 893,
      "▁study": 894,
      "▁space": 895,
      "ear": 896,
      "▁under": 897,
      "lem": 898,
      "▁give": 899,
      "ment": 900,
      "j": 901,
      "▁fr": 902,
      "ult": 903,
      "▁minut": 904,
      "▁think": 905,
      "▁g": 906,
      "▁mar": 907,
      "he": 908,
      "een": 909,
      "ul": 910,
      "ar": 911,
      "▁ch": 912,
      "▁in": 913,
      "os": 914,
      "ˈ": 915,
      "▁–": 916,
      "▁cas": 917,
      "ond": 918,
      "▁em": 919,
      "titu": 920,
      "duc": 921,
      "▁cl": 922,
      "ve": 923,
      "z": 924,
      "▁fiel": 925,
      "▁step": 926,
      "ws": 927,
      "▁v": 928,
      "▁*": 929,
      "pite": 930,
      "▁’": 931,
      "▁can": 932,
      "▁tr": 933,
      "▁system": 934,
      "▁y": 935,
      "▁everything": 936,
      "▁part": 937,
      "▁mem": 938,
      "formation": 939,
      "ast": 940,
      "▁with": 941,
      "ility": 942,
      "▁basil": 943,
      "▁gu": 944,
      "▁resp": 945,
      "ome": 946,
      "ld": 947,
      "ol": 948,
      "ons": 949,
      "▁”": 950,
      "0": 951,
      "and": 952,
      "▁herself": 953,
      "ool": 954,
      "▁bu": 955,
      "fl": 956,
      "m": 957,
      "ti": 958,
      "▁term": 959,
      "oth": 960,
      "▁friends": 961,
      "ec": 962,
      "▁dat": 963,
      "º": 964,
      "▁minutes": 965,
      "▁our": 966,
      "pp": 967,
      "ants": 968,
      "re": 969,
      "ection": 970,
      "ids": 971,
      "lik": 972,
      "ro": 973,
      "gr": 974,
      "amp": 975,
      "▁!": 976,
      "ic": 977,
      "og": 978,
      "tw": 979,
      "▁ha": 980,
      "ir": 981,
      "/he": 982,
      "up": 983,
      "▁no": 984,
      "ade": 985,
      "ivers": 986,
      "r": 987,
      "iter": 988,
      "▁family": 989,
      "ature": 990,
      "te": 991,
      "▁abo": 992,
      "—": 993,
      "▁bro": 994,
      "▁one": 995,
      "il": 996,
      "▁n": 997,
      "▁char": 998,
      "an": 999
    },
    "merges": [
      [
        "ul",
        "t"
      ],
      [
        "▁a",
        "c"
      ],
      [
        "▁s",
        "a"
      ],
      [
        "▁n",
        "ame"
      ],
      [
        "▁",
        "-"
      ],
      [
        "ou",
        "ld"
      ],
      [
        "it",
        "er"
      ],
      [
        "▁c",
        "oun"
      ],
      [
        "▁qu",
        "es"
      ],
      [
        "▁en",
        "d"
      ],
      [
        "▁their",
        "s"
      ],
      [
        "as",
        "t"
      ],
      [
        "d",
        "er"
      ],
      [
        "▁",
        "out"
      ],
      [
        "▁hist",
        "ory"
      ],
      [
        "▁hal",
        "f"
      ],
      [
        "ur",
        "n"
      ],
      [
        "▁it",
        "'s"
      ],
      [
        "▁d",
        "e"
      ],
      [
        "oo",
        "d"
      ],
      [
        "ce",
        "p"
      ],
      [
        "▁st",
        "at"
      ],
      [
        "es",
        "s"
      ],
      [
        "▁u",
        "sed"
      ],
      [
        "▁",
        "it"
      ],
      [
        "▁g",
        "l"
      ],
      [
        "▁on",
        "to"
      ],
      [
        "▁t",
        "erm"
      ],
      [
        "ve",
        "r"
      ],
      [
        "a",
        "d"
      ],
      [
        "o",
        "s"
      ],
      [
        "e",
        "ve"
      ],
      [
        "▁",
        "un"
      ],
      [
        "▁u",
        "nd"
      ],
      [
        "▁it",
        "s"
      ],
      [
        "▁prob",
        "lem"
      ],
      [
        "▁w",
        "or"
      ],
      [
        "o",
        "ur"
      ],
      [
        "e",
        "s"
      ],
      [
        "a",
        "th"
      ],
      [
        "a",
        "ss"
      ],
      [
        "u",
        "l"
      ],
      [
        "▁g",
        "over"
      ],
      [
        "i",
        "ds"
      ],
      [
        "i",
        "ve"
      ],
      [
        "enc",
        "y"
      ],
      [
        "▁",
        "sin"
      ],
      [
        "v",
        "ing"
      ],
      [
        "▁our",
        "selves"
      ],
      [
        "er",
        "s"
      ],
      [
        "▁n",
        "either"
      ],
      [
        "a",
        "c"
      ],
      [
        "s",
        "ed"
      ],
      [
        "i",
        "ted"
      ],
      [
        "c",
        "es"
      ],
      [
        "▁",
        "ne"
      ],
      [
        "▁lo",
        "c"
      ],
      [
        "i",
        "p"
      ],
      [
        "i",
        "on"
      ],
      [
        "▁",
        "tim"
      ],
      [
        "e",
        "r"
      ],
      [
        "▁",
        "/"
      ],
      [
        "▁m",
        "ov"
      ],
      [
        "am",
        "es"
      ],
      [
        "eve",
        "r"
      ],
      [
        "▁tod",
        "ay"
      ],
      [
        "▁a",
        "m"
      ],
      [
        "is",
        "h"
      ],
      [
        "▁them",
        "selves"
      ],
      [
        "▁",
        "le"
      ],
      [
        "▁c",
        "up"
      ],
      [
        "▁h",
        "ome"
      ],
      [
        "▁inter",
        "v"
      ],
      [
        "▁",
        "ex"
      ],
      [
        "ti",
        "v"
      ],
      [
        "▁",
        "th"
      ],
      [
        "▁b",
        "as"
      ],
      [
        "▁b",
        "o"
      ],
      [
        "▁kn",
        "ow"
      ],
      [
        "m",
        "e"
      ],
      [
        "i",
        "r"
      ],
      [
        "▁c",
        "h"
      ],
      [
        "▁",
        "…"
      ],
      [
        "▁in",
        "d"
      ],
      [
        "▁a",
        "ft"
      ],
      [
        "b",
        "o"
      ],
      [
        "▁pro",
        "cess"
      ],
      [
        "igh",
        "t"
      ],
      [
        "o",
        "k"
      ],
      [
        "▁s",
        "ea"
      ],
      [
        "▁",
        "c"
      ],
      [
        "l",
        "e"
      ],
      [
        "▁b",
        "r"
      ],
      [
        "ak",
        "e"
      ],
      [
        "▁in",
        "ter"
      ],
      [
        "▁every",
        "one"
      ],
      [
        "t",
        "il"
      ],
      [
        "a",
        "n"
      ],
      [
        "▁s",
        "u"
      ],
      [
        "e",
        "t"
      ],
      [
        "▁th",
        "ose"
      ],
      [
        "e",
        "ar"
      ],
      [
        "ec",
        "ts"
      ],
      [
        "form",
        "ation"
      ],
      [
        "▁sa",
        "y"
      ],
      [
        "▁betw",
        "een"
      ],
      [
        "▁d",
        "own"
      ],
      [
        "▁",
        "either"
      ],
      [
        "▁be",
        "tw"
      ],
      [
        "e",
        "en"
      ],
      [
        "▁un",
        "til"
      ],
      [
        "▁minut",
        "es"
      ],
      [
        "▁through",
        "out"
      ],
      [
        "▁l",
        "angu"
      ],
      [
        "i",
        "t"
      ],
      [
        "sel",
        "f"
      ],
      [
        "▁con",
        "cep"
      ],
      [
        "▁up",
        "on"
      ],
      [
        "▁wh",
        "at"
      ],
      [
        "t",
        "ure"
      ],
      [
        "▁l",
        "iv"
      ],
      [
        "▁f",
        "r"
      ],
      [
        "▁g",
        "ame"
      ],
      [
        "▁i",
        "n"
      ],
      [
        "v",
        "e"
      ],
      [
        "▁",
        "n"
      ],
      [
        "▁a",
        "ll"
      ],
      [
        "▁o",
        "ut"
      ],
      [
        "or",
        "ies"
      ],
      [
        "▁throu",
        "gh"
      ],
      [
        "al",
        "l"
      ],
      [
        "▁g",
        "u"
      ],
      [
        "at",
        "ing"
      ],
      [
        "▁meth",
        "od"
      ],
      [
        "u",
        "gh"
      ],
      [
        "a",
        "s"
      ],
      [
        "▁",
        "and"
      ],
      [
        "a",
        "tiv"
      ],
      [
        "gh",
        "t"
      ],
      [
        "r",
        "o"
      ],
      [
        "l",
        "l"
      ],
      [
        "▁",
        "["
      ],
      [
        "▁pro",
        "b"
      ],
      [
        "▁wan",
        "t"
      ],
      [
        "▁with",
        "out"
      ],
      [
        "a",
        "sed"
      ],
      [
        "un",
        "d"
      ],
      [
        "▁mon",
        "th"
      ],
      [
        "▁s",
        "ub"
      ],
      [
        "at",
        "ors"
      ],
      [
        "▁",
        "m"
      ],
      [
        "▁gover",
        "n"
      ],
      [
        "▁",
        "@"
      ],
      [
        "e",
        "e"
      ],
      [
        "an",
        "ds"
      ],
      [
        "▁le",
        "g"
      ],
      [
        "d",
        "y"
      ],
      [
        "▁",
        "us"
      ],
      [
        "ear",
        "ch"
      ],
      [
        "▁m",
        "in"
      ],
      [
        "ow",
        "n"
      ],
      [
        "r",
        "y"
      ],
      [
        "▁c",
        "re"
      ],
      [
        "▁fri",
        "ends"
      ],
      [
        "en",
        "d"
      ],
      [
        "▁",
        "hal"
      ],
      [
        "w",
        "or"
      ],
      [
        "▁be",
        "cause"
      ],
      [
        "a",
        "ch"
      ],
      [
        "ic",
        "s"
      ],
      [
        "▁[",
        ".."
      ],
      [
        "s",
        "s"
      ],
      [
        "i",
        "e"
      ],
      [
        "▁n",
        "eed"
      ],
      [
        "o",
        "me"
      ],
      [
        "ag",
        "e"
      ],
      [
        "if",
        "e"
      ],
      [
        "▁s",
        "/he"
      ],
      [
        "▁[..",
        ".]"
      ],
      [
        "▁m",
        "od"
      ],
      [
        "▁c",
        "ro"
      ],
      [
        "▁b",
        "e"
      ],
      [
        "▁m",
        "et"
      ],
      [
        "a",
        "k"
      ],
      [
        "▁ch",
        "an"
      ],
      [
        "ti",
        "c"
      ],
      [
        "tr",
        "y"
      ],
      [
        "d",
        "uc"
      ],
      [
        "▁fam",
        "il"
      ],
      [
        "▁su",
        "b"
      ],
      [
        "▁wh",
        "ich"
      ],
      [
        "▁c",
        "ulture"
      ],
      [
        "▁a",
        "round"
      ],
      [
        "u",
        "p"
      ],
      [
        "an",
        "g"
      ],
      [
        "▁t",
        "im"
      ],
      [
        "at",
        "e"
      ],
      [
        "o",
        "l"
      ],
      [
        "▁",
        "’"
      ],
      [
        "▁",
        "–"
      ],
      [
        "f",
        "t"
      ],
      [
        "e",
        "st"
      ],
      [
        "ro",
        "l"
      ],
      [
        "u",
        "tion"
      ],
      [
        "j",
        "ect"
      ],
      [
        "▁e",
        "x"
      ],
      [
        "e",
        "l"
      ],
      [
        "▁f",
        "e"
      ],
      [
        "an",
        "t"
      ],
      [
        "▁w",
        "ould"
      ],
      [
        "▁e",
        "ff"
      ],
      [
        "▁",
        "im"
      ],
      [
        "▁l",
        "e"
      ],
      [
        "s",
        "ing"
      ],
      [
        "▁o",
        "ff"
      ],
      [
        "s",
        "t"
      ],
      [
        "or",
        "t"
      ],
      [
        "e",
        "a"
      ],
      [
        "i",
        "st"
      ],
      [
        "▁w",
        "ay"
      ],
      [
        "▁wor",
        "ds"
      ],
      [
        "g",
        "h"
      ],
      [
        "ti",
        "n"
      ],
      [
        "i",
        "l"
      ],
      [
        "thin",
        "g"
      ],
      [
        "/",
        "he"
      ],
      [
        "ot",
        "h"
      ],
      [
        "▁a",
        "b"
      ],
      [
        "u",
        "g"
      ],
      [
        "▁f",
        "orm"
      ],
      [
        "ac",
        "y"
      ],
      [
        "h",
        "al"
      ],
      [
        "▁",
        "h"
      ],
      [
        "it",
        "e"
      ],
      [
        "i",
        "v"
      ],
      [
        "▁a",
        "re"
      ],
      [
        "▁l",
        "ife"
      ],
      [
        "▁a",
        "ge"
      ],
      [
        "▁fr",
        "om"
      ],
      [
        "e",
        "x"
      ],
      [
        "il",
        "d"
      ],
      [
        "i",
        "a"
      ],
      [
        "ec",
        "h"
      ],
      [
        "t",
        "y"
      ],
      [
        "l",
        "u"
      ],
      [
        "c",
        "h"
      ],
      [
        "u",
        "t"
      ],
      [
        "▁re",
        "s"
      ],
      [
        "▁day",
        "s"
      ],
      [
        "▁h",
        "alf"
      ],
      [
        "▁f",
        "ac"
      ],
      [
        "ti",
        "m"
      ],
      [
        "▁so",
        "me"
      ],
      [
        "▁coun",
        "try"
      ],
      [
        "▁s",
        "he"
      ],
      [
        "ca",
        "use"
      ],
      [
        "tion",
        "s"
      ],
      [
        "▁f",
        "ro"
      ],
      [
        "▁",
        "'"
      ],
      [
        "▁f",
        "l"
      ],
      [
        "▁be",
        "hin"
      ],
      [
        "▁t",
        "od"
      ],
      [
        "▁",
        "be"
      ],
      [
        "▁",
        "in"
      ],
      [
        "▁qu",
        "ite"
      ],
      [
        "enc",
        "es"
      ],
      [
        "▁m",
        "ed"
      ],
      [
        "tit",
        "u"
      ],
      [
        "▁th",
        "rou"
      ],
      [
        "en",
        "s"
      ],
      [
        "▁d",
        "is"
      ],
      [
        "u",
        "rin"
      ],
      [
        "▁f",
        "am"
      ],
      [
        "▁b",
        "ir"
      ],
      [
        "▁.",
        "."
      ],
      [
        "▁",
        "to"
      ],
      [
        "▁ex",
        "per"
      ],
      [
        "i",
        "ti"
      ],
      [
        "▁",
        "—"
      ],
      [
        "a",
        "me"
      ],
      [
        "▁st",
        "r"
      ],
      [
        "▁cl",
        "ass"
      ],
      [
        "▁w",
        "ith"
      ],
      [
        "▁r",
        "es"
      ],
      [
        "▁",
        "like"
      ],
      [
        "m",
        "ent"
      ],
      [
        "ic",
        "e"
      ],
      [
        "▁l",
        "a"
      ],
      [
        "s",
        "e"
      ],
      [
        "or",
        "e"
      ],
      [
        "f",
        "orm"
      ],
      [
        "▁u",
        "n"
      ],
      [
        "amp",
        "le"
      ],
      [
        "▁anoth",
        "er"
      ],
      [
        "ou",
        "t"
      ],
      [
        "▁s",
        "in"
      ],
      [
        "▁l",
        "ight"
      ],
      [
        "'",
        "s"
      ],
      [
        "at",
        "er"
      ],
      [
        "▁",
        ")"
      ],
      [
        "▁h",
        "er"
      ],
      [
        "q",
        "u"
      ],
      [
        "▁a",
        "d"
      ],
      [
        "▁fro",
        "m"
      ],
      [
        "▁l",
        "i"
      ],
      [
        "a",
        "l"
      ],
      [
        "iv",
        "ers"
      ],
      [
        "in",
        "d"
      ],
      [
        "▁un",
        "der"
      ],
      [
        "▁v",
        "iew"
      ],
      [
        "ro",
        "u"
      ],
      [
        "▁di",
        "ff"
      ],
      [
        "el",
        "s"
      ],
      [
        "▁what",
        "ever"
      ],
      [
        "c",
        "ess"
      ],
      [
        "▁wor",
        "ld"
      ],
      [
        "b",
        "oth"
      ],
      [
        "▁",
        "re"
      ],
      [
        "▁w",
        "ater"
      ],
      [
        "’",
        "s"
      ],
      [
        "▁gu",
        "ys"
      ],
      [
        "▁",
        "ou"
      ],
      [
        "▁the",
        "ory"
      ],
      [
        "f",
        "l"
      ],
      [
        "i",
        "an"
      ],
      [
        "▁durin",
        "g"
      ],
      [
        "▁peop",
        "le"
      ],
      [
        "t",
        "h"
      ],
      [
        "l",
        "y"
      ],
      [
        "ar",
        "d"
      ],
      [
        "p",
        "h"
      ],
      [
        "▁ad",
        "d"
      ],
      [
        "▁t",
        "ake"
      ],
      [
        "l",
        "ik"
      ],
      [
        "ee",
        "d"
      ],
      [
        "▁ha",
        "d"
      ],
      [
        "w",
        "it"
      ],
      [
        "▁c",
        "ity"
      ],
      [
        "▁the",
        "ir"
      ],
      [
        "▁b",
        "u"
      ],
      [
        "▁le",
        "ad"
      ],
      [
        "▁g",
        "ive"
      ],
      [
        "il",
        "ity"
      ],
      [
        "▁h",
        "ad"
      ],
      [
        "▁",
        "if"
      ],
      [
        "▁",
        "al"
      ],
      [
        "▁c",
        "o"
      ],
      [
        "▁o",
        "f"
      ],
      [
        "▁c",
        "as"
      ],
      [
        "▁con",
        "s"
      ],
      [
        "c",
        "ro"
      ],
      [
        "▁de",
        "s"
      ],
      [
        "b",
        "le"
      ],
      [
        "▁th",
        "o"
      ],
      [
        "▁h",
        "ea"
      ],
      [
        "o",
        "p"
      ],
      [
        "▁p",
        "h"
      ],
      [
        "▁com",
        "p"
      ],
      [
        "▁wh",
        "o"
      ],
      [
        "▁c",
        "r"
      ],
      [
        "▁",
        "id"
      ],
      [
        "▁a",
        "n"
      ],
      [
        "▁any",
        "body"
      ],
      [
        "▁ex",
        "p"
      ],
      [
        "▁",
        "both"
      ],
      [
        "o",
        "o"
      ],
      [
        "e",
        "p"
      ],
      [
        "f",
        "er"
      ],
      [
        "▁th",
        "ings"
      ],
      [
        "▁",
        "for"
      ],
      [
        "y",
        "ond"
      ],
      [
        "n",
        "ess"
      ],
      [
        "▁be",
        "for"
      ],
      [
        "o",
        "r"
      ],
      [
        "▁",
        "w"
      ],
      [
        "r",
        "es"
      ],
      [
        "▁m",
        "ade"
      ],
      [
        "▁",
        "d"
      ],
      [
        "▁c",
        "ar"
      ],
      [
        "▁y",
        "ear"
      ],
      [
        "o",
        "g"
      ],
      [
        "ir",
        "e"
      ],
      [
        "▁hea",
        "d"
      ],
      [
        "i",
        "tion"
      ],
      [
        "▁th",
        "ing"
      ],
      [
        "ee",
        "n"
      ],
      [
        "▁s",
        "ay"
      ],
      [
        "h",
        "ip"
      ],
      [
        "▁sin",
        "ce"
      ],
      [
        "p",
        "ite"
      ],
      [
        "es",
        "t"
      ],
      [
        "▁go",
        "ing"
      ],
      [
        "▁w",
        "ar"
      ],
      [
        "▁con",
        "t"
      ],
      [
        "u",
        "b"
      ],
      [
        "a",
        "ce"
      ],
      [
        "▁e",
        "ver"
      ],
      [
        "y",
        "s"
      ],
      [
        "▁go",
        "t"
      ],
      [
        "▁tim",
        "e"
      ],
      [
        "▁su",
        "ch"
      ],
      [
        "▁a",
        "s"
      ],
      [
        "▁w",
        "ill"
      ],
      [
        "▁s",
        "ide"
      ],
      [
        "o",
        "t"
      ],
      [
        "ut",
        "h"
      ],
      [
        "on",
        "d"
      ],
      [
        "▁w",
        "h"
      ],
      [
        "i",
        "g"
      ],
      [
        "▁",
        ","
      ],
      [
        "▁h",
        "as"
      ],
      [
        "i",
        "m"
      ],
      [
        "▁re",
        "l"
      ],
      [
        "re",
        "d"
      ],
      [
        "▁h",
        "o"
      ],
      [
        "▁dis",
        "c"
      ],
      [
        "o",
        "ver"
      ],
      [
        "o",
        "or"
      ],
      [
        "▁b",
        "y"
      ],
      [
        "▁f",
        "o"
      ],
      [
        "▁an",
        "oth"
      ],
      [
        "▁v",
        "is"
      ],
      [
        "e",
        "ver"
      ],
      [
        "▁th",
        "at"
      ],
      [
        "▁again",
        "st"
      ],
      [
        "▁ex",
        "ample"
      ],
      [
        "p",
        "l"
      ],
      [
        "▁ha",
        "ve"
      ],
      [
        "▁e",
        "ach"
      ],
      [
        "▁l",
        "o"
      ],
      [
        "▁to",
        "ward"
      ],
      [
        "lik",
        "e"
      ],
      [
        "oun",
        "t"
      ],
      [
        "▁s",
        "c"
      ],
      [
        "et",
        "y"
      ],
      [
        "ia",
        "n"
      ],
      [
        "▁m",
        "ar"
      ],
      [
        "▁ha",
        "s"
      ],
      [
        "▁toward",
        "s"
      ],
      [
        "v",
        "el"
      ],
      [
        "n",
        "ed"
      ],
      [
        "bo",
        "dy"
      ],
      [
        "▁",
        "op"
      ],
      [
        "▁y",
        "ou"
      ],
      [
        "u",
        "es"
      ],
      [
        "▁some",
        "body"
      ],
      [
        "y",
        "ing"
      ],
      [
        "▁met",
        "h"
      ],
      [
        "▁l",
        "ook"
      ],
      [
        "▁h",
        "ist"
      ],
      [
        "▁per",
        "c"
      ],
      [
        "▁ar",
        "ea"
      ],
      [
        "a",
        "ted"
      ],
      [
        "n",
        "d"
      ],
      [
        "an",
        "ts"
      ],
      [
        "a",
        "p"
      ],
      [
        "▁th",
        "e"
      ],
      [
        "in",
        "k"
      ],
      [
        "t",
        "ed"
      ],
      [
        "▁",
        "'s"
      ],
      [
        "▁d",
        "urin"
      ],
      [
        "t",
        "w"
      ],
      [
        "▁tr",
        "ans"
      ],
      [
        "p",
        "er"
      ],
      [
        "i",
        "ll"
      ],
      [
        "it",
        "y"
      ],
      [
        "at",
        "or"
      ],
      [
        "oth",
        "er"
      ],
      [
        "▁d",
        "es"
      ],
      [
        "▁the",
        "se"
      ],
      [
        "h",
        "in"
      ],
      [
        "u",
        "th"
      ],
      [
        "▁d",
        "ay"
      ],
      [
        "a",
        "r"
      ],
      [
        "w",
        "s"
      ],
      [
        "el",
        "l"
      ],
      [
        "▁f",
        "or"
      ],
      [
        "▁your",
        "self"
      ],
      [
        "▁c",
        "om"
      ],
      [
        "▁the",
        "y"
      ],
      [
        "▁ex",
        "cept"
      ],
      [
        "▁pro",
        "duc"
      ],
      [
        "▁i",
        "f"
      ],
      [
        "en",
        "ti"
      ],
      [
        "▁",
        "s"
      ],
      [
        "▁the",
        "m"
      ],
      [
        "u",
        "c"
      ],
      [
        "i",
        "el"
      ],
      [
        "ec",
        "ted"
      ],
      [
        "▁",
        "f"
      ],
      [
        "ad",
        "e"
      ],
      [
        "▁r",
        "ec"
      ],
      [
        "ur",
        "e"
      ],
      [
        "▁pl",
        "ace"
      ],
      [
        "▁m",
        "e"
      ],
      [
        "▁m",
        "em"
      ],
      [
        "▁c",
        "l"
      ],
      [
        "a",
        "t"
      ],
      [
        "▁e",
        "v"
      ],
      [
        "▁",
        "r"
      ],
      [
        "▁pe",
        "op"
      ],
      [
        "▁ap",
        "p"
      ],
      [
        "am",
        "p"
      ],
      [
        "il",
        "l"
      ],
      [
        "l",
        "ly"
      ],
      [
        "on",
        "s"
      ],
      [
        "▁res",
        "p"
      ],
      [
        "c",
        "o"
      ],
      [
        "▁p",
        "ol"
      ],
      [
        "▁at",
        "t"
      ],
      [
        "▁c",
        "a"
      ],
      [
        "re",
        "s"
      ],
      [
        "▁a",
        "cro"
      ],
      [
        "▁n",
        "um"
      ],
      [
        "in",
        "e"
      ],
      [
        "▁h",
        "e"
      ],
      [
        "▁l",
        "ine"
      ],
      [
        "u",
        "n"
      ],
      [
        "or",
        "y"
      ],
      [
        "o",
        "v"
      ],
      [
        "i",
        "z"
      ],
      [
        "i",
        "ence"
      ],
      [
        "en",
        "ce"
      ],
      [
        "▁al",
        "ong"
      ],
      [
        "ot",
        "t"
      ],
      [
        "▁t",
        "h"
      ],
      [
        "▁an",
        "y"
      ],
      [
        "▁",
        "ar"
      ],
      [
        "▁",
        "k"
      ],
      [
        "▁cas",
        "e"
      ],
      [
        "▁co",
        "un"
      ],
      [
        "f",
        "or"
      ],
      [
        "ion",
        "s"
      ],
      [
        "w",
        "h"
      ],
      [
        "▁n",
        "'t"
      ],
      [
        "▁every",
        "body"
      ],
      [
        "l",
        "es"
      ],
      [
        "▁our",
        "s"
      ],
      [
        "▁no",
        "thing"
      ],
      [
        "ec",
        "t"
      ],
      [
        "▁s",
        "ch"
      ],
      [
        "er",
        "v"
      ],
      [
        "▁",
        "no"
      ],
      [
        "▁",
        "“"
      ],
      [
        "u",
        "m"
      ],
      [
        "▁par",
        "t"
      ],
      [
        "▁ar",
        "t"
      ],
      [
        "ov",
        "er"
      ],
      [
        "▁s",
        "oc"
      ],
      [
        "▁s",
        "k"
      ],
      [
        "n",
        "o"
      ],
      [
        "▁wit",
        "h"
      ],
      [
        "▁s",
        "up"
      ],
      [
        "▁a",
        "l"
      ],
      [
        "ou",
        "n"
      ],
      [
        "m",
        "ents"
      ],
      [
        "▁",
        "at"
      ],
      [
        "ce",
        "ss"
      ],
      [
        "▁he",
        "r"
      ],
      [
        "▁sh",
        "ow"
      ],
      [
        "i",
        "b"
      ],
      [
        "▁s",
        "erv"
      ],
      [
        "▁s",
        "h"
      ],
      [
        "p",
        "p"
      ],
      [
        "t",
        "s"
      ],
      [
        "en",
        "ds"
      ],
      [
        "▁sh",
        "o"
      ],
      [
        "v",
        "ed"
      ],
      [
        "▁exper",
        "ience"
      ],
      [
        "w",
        "ard"
      ],
      [
        "▁h",
        "a"
      ],
      [
        "u",
        "nd"
      ],
      [
        "▁f",
        "iel"
      ],
      [
        "▁b",
        "re"
      ],
      [
        "▁any",
        "thing"
      ],
      [
        "g",
        "e"
      ],
      [
        "▁p",
        "os"
      ],
      [
        "o",
        "un"
      ],
      [
        "sel",
        "ves"
      ],
      [
        "▁t",
        "yp"
      ],
      [
        "▁fac",
        "t"
      ],
      [
        "▁c",
        "an"
      ],
      [
        "en",
        "tion"
      ],
      [
        "▁",
        "e"
      ],
      [
        "p",
        "r"
      ],
      [
        "▁s",
        "ec"
      ],
      [
        "▁aft",
        "er"
      ],
      [
        "u",
        "ch"
      ],
      [
        "n",
        "ing"
      ],
      [
        "r",
        "in"
      ],
      [
        "▁your",
        "s"
      ],
      [
        "▁",
        "em"
      ],
      [
        "▁sch",
        "ool"
      ],
      [
        "▁th",
        "an"
      ],
      [
        "▁her",
        "self"
      ],
      [
        "c",
        "e"
      ],
      [
        "o",
        "ne"
      ],
      [
        "▁ca",
        "ll"
      ],
      [
        "▁b",
        "it"
      ],
      [
        "a",
        "st"
      ],
      [
        "ac",
        "k"
      ],
      [
        "am",
        "e"
      ],
      [
        "▁comm",
        "un"
      ],
      [
        "▁sa",
        "id"
      ],
      [
        "on",
        "e"
      ],
      [
        "o",
        "u"
      ],
      [
        "▁no",
        "body"
      ],
      [
        "▁'",
        "s"
      ],
      [
        "▁co",
        "n"
      ],
      [
        "i",
        "es"
      ],
      [
        "▁b",
        "oth"
      ],
      [
        "t",
        "ing"
      ],
      [
        "ag",
        "es"
      ],
      [
        "▁p",
        "r"
      ],
      [
        "a",
        "v"
      ],
      [
        "at",
        "ure"
      ],
      [
        "▁year",
        "s"
      ],
      [
        "ult",
        "ure"
      ],
      [
        "p",
        "t"
      ],
      [
        "o",
        "th"
      ],
      [
        "▁s",
        "et"
      ],
      [
        "▁",
        "]"
      ],
      [
        "i",
        "ed"
      ],
      [
        "ac",
        "h"
      ],
      [
        "se",
        "l"
      ],
      [
        "▁famil",
        "y"
      ],
      [
        "en",
        "t"
      ],
      [
        "ti",
        "t"
      ],
      [
        "▁v",
        "ide"
      ],
      [
        "▁",
        ":"
      ],
      [
        "▁who",
        "se"
      ],
      [
        "▁sp",
        "ace"
      ],
      [
        "o",
        "c"
      ],
      [
        "igh",
        "ts"
      ],
      [
        "pl",
        "ication"
      ],
      [
        "oth",
        "ers"
      ],
      [
        "▁m",
        "an"
      ],
      [
        "▁n",
        "ot"
      ],
      [
        "▁",
        "ro"
      ],
      [
        "▁c",
        "ent"
      ],
      [
        "e",
        "c"
      ],
      [
        "i",
        "le"
      ],
      [
        "▁the",
        "re"
      ],
      [
        "▁",
        "l"
      ],
      [
        "▁co",
        "m"
      ],
      [
        "▁u",
        "p"
      ],
      [
        "i",
        "th"
      ],
      [
        "▁c",
        "on"
      ],
      [
        "as",
        "s"
      ],
      [
        "a",
        "il"
      ],
      [
        "ens",
        "e"
      ],
      [
        "▁o",
        "p"
      ],
      [
        "▁p",
        "ar"
      ],
      [
        "p",
        "ort"
      ],
      [
        "▁who",
        "m"
      ],
      [
        "▁",
        ";"
      ],
      [
        "▁a",
        "gain"
      ],
      [
        "a",
        "ir"
      ],
      [
        "▁in",
        "to"
      ],
      [
        "▁im",
        "age"
      ],
      [
        "'",
        "t"
      ],
      [
        "▁",
        "a"
      ],
      [
        "i",
        "c"
      ],
      [
        "▁gro",
        "up"
      ],
      [
        "n",
        "e"
      ],
      [
        "i",
        "ght"
      ],
      [
        "▁w",
        "as"
      ],
      [
        "▁p",
        "ers"
      ],
      [
        "▁g",
        "et"
      ],
      [
        "o",
        "ok"
      ],
      [
        "▁k",
        "ind"
      ],
      [
        "▁on",
        "e"
      ],
      [
        "▁und",
        "er"
      ],
      [
        "o",
        "n"
      ],
      [
        "c",
        "a"
      ],
      [
        "▁",
        "wh"
      ],
      [
        "▁some",
        "thing"
      ],
      [
        "ac",
        "e"
      ],
      [
        "▁w",
        "r"
      ],
      [
        "▁",
        "i"
      ],
      [
        "▁v",
        "ia"
      ],
      [
        "▁d",
        "ec"
      ],
      [
        "▁some",
        "one"
      ],
      [
        "▁e",
        "ither"
      ],
      [
        "▁langu",
        "age"
      ],
      [
        "e",
        "n"
      ],
      [
        "▁e",
        "m"
      ],
      [
        "em",
        "ent"
      ],
      [
        "▁ch",
        "ild"
      ],
      [
        "▁you",
        "r"
      ],
      [
        ".",
        "]"
      ],
      [
        "k",
        "ed"
      ],
      [
        "is",
        "t"
      ],
      [
        "it",
        "ed"
      ],
      [
        "t",
        "e"
      ],
      [
        "d",
        "i"
      ],
      [
        "o",
        "se"
      ],
      [
        "t",
        "em"
      ],
      [
        "▁of",
        "f"
      ],
      [
        "d",
        "ed"
      ],
      [
        "▁’",
        "s"
      ],
      [
        "r",
        "i"
      ],
      [
        "▁me",
        "an"
      ],
      [
        "ve",
        "s"
      ],
      [
        "i",
        "n"
      ],
      [
        "▁m",
        "on"
      ],
      [
        "▁vide",
        "o"
      ],
      [
        "▁th",
        "is"
      ],
      [
        "r",
        "ed"
      ],
      [
        "o",
        "m"
      ],
      [
        "▁com",
        "m"
      ],
      [
        "▁-",
        "-"
      ],
      [
        "▁m",
        "o"
      ],
      [
        "▁with",
        "in"
      ],
      [
        "▁t",
        "ech"
      ],
      [
        "e",
        "ither"
      ],
      [
        "y",
        "p"
      ],
      [
        "e",
        "m"
      ],
      [
        "▁am",
        "ong"
      ],
      [
        "▁un",
        "like"
      ],
      [
        "▁g",
        "ro"
      ],
      [
        "u",
        "re"
      ],
      [
        "▁min",
        "ut"
      ],
      [
        "▁a",
        "p"
      ],
      [
        "▁",
        "\""
      ],
      [
        "▁p",
        "e"
      ],
      [
        "▁o",
        "ver"
      ],
      [
        "at",
        "ion"
      ],
      [
        "▁num",
        "ber"
      ],
      [
        "er",
        "m"
      ],
      [
        "▁r",
        "o"
      ],
      [
        "▁ab",
        "o"
      ],
      [
        "▁stud",
        "y"
      ],
      [
        "ur",
        "y"
      ],
      [
        "▁ag",
        "ain"
      ],
      [
        "us",
        "e"
      ],
      [
        "▁",
        "”"
      ],
      [
        "ic",
        "es"
      ],
      [
        "ow",
        "er"
      ],
      [
        "▁t",
        "ra"
      ],
      [
        "▁m",
        "y"
      ],
      [
        "▁",
        "."
      ],
      [
        "▁re",
        "v"
      ],
      [
        "▁a",
        "r"
      ],
      [
        "o",
        "nd"
      ],
      [
        "▁exp",
        "er"
      ],
      [
        "▁abo",
        "ve"
      ],
      [
        "i",
        "s"
      ],
      [
        "▁h",
        "and"
      ],
      [
        "▁",
        "an"
      ],
      [
        "▁po",
        "in"
      ],
      [
        "▁b",
        "us"
      ],
      [
        "▁ro",
        "ot"
      ],
      [
        "an",
        "d"
      ],
      [
        "▁a",
        "g"
      ],
      [
        "s",
        "ide"
      ],
      [
        "i",
        "f"
      ],
      [
        "olog",
        "y"
      ],
      [
        "▁",
        "*"
      ],
      [
        "▁",
        "u"
      ],
      [
        "h",
        "en"
      ],
      [
        "in",
        "g"
      ],
      [
        "▁st",
        "ep"
      ],
      [
        "▁g",
        "ot"
      ],
      [
        "n",
        "er"
      ],
      [
        "▁l",
        "and"
      ],
      [
        "b",
        "s"
      ],
      [
        "▁n",
        "o"
      ],
      [
        "▁m",
        "or"
      ],
      [
        "▁dow",
        "n"
      ],
      [
        "u",
        "ff"
      ],
      [
        "▁a",
        "t"
      ],
      [
        "iz",
        "ation"
      ],
      [
        "▁qu",
        "ality"
      ],
      [
        "▁an",
        "d"
      ],
      [
        "▁p",
        "ro"
      ],
      [
        "▁h",
        "is"
      ],
      [
        "▁th",
        "ink"
      ],
      [
        "e",
        "ll"
      ],
      [
        "▁p",
        "l"
      ],
      [
        "ie",
        "w"
      ],
      [
        "▁s",
        "ystem"
      ],
      [
        "▁w",
        "e"
      ],
      [
        "▁month",
        "s"
      ],
      [
        "▁every",
        "thing"
      ],
      [
        "t",
        "i"
      ],
      [
        "or",
        "ts"
      ],
      [
        "i",
        "ch"
      ],
      [
        "▁",
        "others"
      ],
      [
        "▁him",
        "self"
      ],
      [
        "a",
        "tion"
      ],
      [
        "u",
        "d"
      ],
      [
        "t",
        "er"
      ],
      [
        "▁p",
        "a"
      ],
      [
        "▁y",
        "a"
      ],
      [
        "▁",
        "qu"
      ],
      [
        "le",
        "v"
      ],
      [
        "▁in",
        "c"
      ],
      [
        "▁d",
        "i"
      ],
      [
        "an",
        "ce"
      ],
      [
        "▁bas",
        "il"
      ],
      [
        "▁t",
        "o"
      ],
      [
        ".",
        "."
      ],
      [
        "ect",
        "s"
      ],
      [
        "i",
        "k"
      ],
      [
        "th",
        "in"
      ],
      [
        "ll",
        "ow"
      ],
      [
        "k",
        "s"
      ],
      [
        "▁",
        "p"
      ],
      [
        "▁",
        "on"
      ],
      [
        "a",
        "y"
      ],
      [
        "a",
        "g"
      ],
      [
        "▁ques",
        "tion"
      ],
      [
        "▁t",
        "r"
      ],
      [
        "▁w",
        "ee"
      ],
      [
        "▁w",
        "om"
      ],
      [
        "it",
        "s"
      ],
      [
        "h",
        "e"
      ],
      [
        "a",
        "m"
      ],
      [
        "g",
        "ain"
      ],
      [
        "u",
        "ght"
      ],
      [
        "▁",
        "o"
      ],
      [
        "ang",
        "u"
      ],
      [
        "▁s",
        "ome"
      ],
      [
        "▁diff",
        "er"
      ],
      [
        "▁p",
        "er"
      ],
      [
        "d",
        "s"
      ],
      [
        "tin",
        "g"
      ],
      [
        "g",
        "r"
      ],
      [
        "▁g",
        "ra"
      ],
      [
        "▁wor",
        "d"
      ],
      [
        "▁te",
        "am"
      ],
      [
        "ec",
        "tion"
      ],
      [
        "▁h",
        "im"
      ],
      [
        "ug",
        "h"
      ],
      [
        "t",
        "ic"
      ],
      [
        "▁s",
        "p"
      ],
      [
        "o",
        "ut"
      ],
      [
        "▁im",
        "p"
      ],
      [
        "▁b",
        "ott"
      ],
      [
        "▁r",
        "el"
      ],
      [
        "ig",
        "n"
      ],
      [
        "▁ever",
        "y"
      ],
      [
        "▁r",
        "e"
      ],
      [
        "▁",
        "g"
      ],
      [
        "▁",
        "y"
      ],
      [
        "id",
        "e"
      ],
      [
        "▁s",
        "ur"
      ],
      [
        "▁s",
        "o"
      ],
      [
        "o",
        "od"
      ],
      [
        "at",
        "h"
      ],
      [
        "it",
        "ch"
      ],
      [
        "▁l",
        "oc"
      ],
      [
        "▁k",
        "n"
      ],
      [
        "▁b",
        "ec"
      ],
      [
        "or",
        "m"
      ],
      [
        "ce",
        "pt"
      ],
      [
        "a",
        "nd"
      ],
      [
        "f",
        "f"
      ],
      [
        "▁m",
        "om"
      ],
      [
        "▁i",
        "t"
      ],
      [
        "k",
        "ing"
      ],
      [
        "▁",
        "is"
      ],
      [
        "▁tim",
        "es"
      ],
      [
        "▁st",
        "ud"
      ],
      [
        "an",
        "s"
      ],
      [
        "▁",
        "t"
      ],
      [
        "▁ho",
        "me"
      ],
      [
        "▁.",
        ".."
      ],
      [
        "▁re",
        "c"
      ],
      [
        "on",
        "g"
      ],
      [
        "or",
        "s"
      ],
      [
        "d",
        "ing"
      ],
      [
        "oo",
        "k"
      ],
      [
        "▁b",
        "ut"
      ],
      [
        "▁",
        "one"
      ],
      [
        "▁le",
        "t"
      ],
      [
        "▁des",
        "pite"
      ],
      [
        "a",
        "ll"
      ],
      [
        "▁",
        "en"
      ],
      [
        "for",
        "m"
      ],
      [
        "▁in",
        "formation"
      ],
      [
        "▁",
        "or"
      ],
      [
        "ith",
        "er"
      ],
      [
        "em",
        "a"
      ],
      [
        "▁n",
        "e"
      ],
      [
        "it",
        "h"
      ],
      [
        "▁behin",
        "d"
      ],
      [
        "o",
        "re"
      ],
      [
        "▁in",
        "s"
      ],
      [
        "▁res",
        "earch"
      ],
      [
        "▁al",
        "l"
      ],
      [
        "▁pers",
        "on"
      ],
      [
        "▁p",
        "u"
      ],
      [
        "b",
        "e"
      ],
      [
        "en",
        "ts"
      ],
      [
        "en",
        "c"
      ],
      [
        "▁g",
        "o"
      ],
      [
        "l",
        "d"
      ],
      [
        "▁s",
        "t"
      ],
      [
        "e",
        "re"
      ],
      [
        "▁f",
        "in"
      ],
      [
        "▁bo",
        "x"
      ],
      [
        "u",
        "s"
      ],
      [
        "▁ca",
        "n"
      ],
      [
        "▁h",
        "our"
      ],
      [
        "▁inter",
        "est"
      ],
      [
        "▁g",
        "r"
      ],
      [
        "▁",
        "!"
      ],
      [
        "ys",
        "tem"
      ],
      [
        "▁mo",
        "d"
      ],
      [
        "▁",
        "ever"
      ],
      [
        "i",
        "re"
      ],
      [
        "▁t",
        "e"
      ],
      [
        "v",
        "er"
      ],
      [
        "▁a",
        "pp"
      ],
      [
        "▁",
        "("
      ],
      [
        "t",
        "o"
      ],
      [
        "u",
        "r"
      ],
      [
        "▁dat",
        "a"
      ],
      [
        "ic",
        "k"
      ],
      [
        "ti",
        "on"
      ],
      [
        "e",
        "ss"
      ],
      [
        "le",
        "c"
      ],
      [
        "om",
        "e"
      ],
      [
        "▁d",
        "ow"
      ],
      [
        "▁l",
        "et"
      ],
      [
        "▁any",
        "one"
      ],
      [
        "▁",
        "?"
      ],
      [
        "k",
        "e"
      ],
      [
        "▁s",
        "tr"
      ],
      [
        "▁pu",
        "t"
      ],
      [
        "t",
        "r"
      ],
      [
        "▁",
        "‘"
      ],
      [
        "▁b",
        "ro"
      ],
      [
        "▁acro",
        "ss"
      ],
      [
        "▁t",
        "ak"
      ],
      [
        "ic",
        "h"
      ],
      [
        "▁d",
        "o"
      ],
      [
        "▁it",
        "self"
      ],
      [
        "▁b",
        "l"
      ],
      [
        "a",
        "in"
      ],
      [
        "▁v",
        "al"
      ],
      [
        "▁a",
        "ir"
      ],
      [
        "▁w",
        "an"
      ],
      [
        "iti",
        "es"
      ],
      [
        "▁c",
        "ol"
      ],
      [
        "o",
        "w"
      ],
      [
        "b",
        "l"
      ],
      [
        "▁m",
        "ake"
      ],
      [
        "▁p",
        "o"
      ],
      [
        "▁g",
        "en"
      ],
      [
        "▁d",
        "r"
      ],
      [
        "e",
        "ed"
      ],
      [
        "r",
        "e"
      ],
      [
        "▁fin",
        "d"
      ],
      [
        "o",
        "d"
      ],
      [
        "▁li",
        "ke"
      ],
      [
        "▁ab",
        "out"
      ],
      [
        "ig",
        "h"
      ],
      [
        "▁s",
        "e"
      ],
      [
        "ol",
        "og"
      ],
      [
        "ur",
        "es"
      ],
      [
        "o",
        "ol"
      ],
      [
        "er",
        "ed"
      ],
      [
        "▁",
        "j"
      ],
      [
        "e",
        "d"
      ],
      [
        "▁",
        "wit"
      ],
      [
        "re",
        "e"
      ],
      [
        "▁n",
        "ight"
      ],
      [
        "▁my",
        "self"
      ],
      [
        "i",
        "te"
      ],
      [
        "ou",
        "r"
      ],
      [
        "▁h",
        "al"
      ],
      [
        "ing",
        "s"
      ],
      [
        "ic",
        "ation"
      ],
      [
        "s",
        "in"
      ],
      [
        "t",
        "ers"
      ],
      [
        "▁ou",
        "r"
      ],
      [
        "t",
        "or"
      ],
      [
        "i",
        "d"
      ],
      [
        "▁w",
        "ere"
      ],
      [
        "r",
        "ee"
      ],
      [
        "rou",
        "nd"
      ],
      [
        "a",
        "b"
      ],
      [
        "al",
        "s"
      ],
      [
        "▁wor",
        "k"
      ],
      [
        "b",
        "er"
      ],
      [
        "al",
        "ity"
      ],
      [
        "in",
        "es"
      ],
      [
        "as",
        "on"
      ],
      [
        "▁ne",
        "ar"
      ],
      [
        "le",
        "m"
      ],
      [
        "▁c",
        "ap"
      ],
      [
        "al",
        "f"
      ],
      [
        "▁fr",
        "i"
      ],
      [
        "▁s",
        "ee"
      ],
      [
        "▁",
        "v"
      ],
      [
        "at",
        "ed"
      ],
      [
        "a",
        "ge"
      ],
      [
        "ation",
        "s"
      ],
      [
        "▁ch",
        "ar"
      ],
      [
        "▁",
        "use"
      ],
      [
        "▁o",
        "n"
      ],
      [
        "▁be",
        "yond"
      ],
      [
        "▁in",
        "side"
      ],
      [
        "os",
        "e"
      ],
      [
        "▁",
        "’s"
      ],
      [
        "▁befor",
        "e"
      ],
      [
        "▁s",
        "uch"
      ],
      [
        "▁co",
        "ur"
      ],
      [
        "▁u",
        "se"
      ],
      [
        "is",
        "m"
      ],
      [
        "▁st",
        "ar"
      ],
      [
        "▁d",
        "at"
      ],
      [
        "u",
        "e"
      ],
      [
        "▁l",
        "ot"
      ],
      [
        "▁",
        "b"
      ],
      [
        "r",
        "a"
      ],
      [
        "▁is",
        "l"
      ],
      [
        "▁j",
        "o"
      ],
      [
        "tic",
        "s"
      ],
      [
        "i",
        "gh"
      ],
      [
        "▁ro",
        "om"
      ],
      [
        "i",
        "ce"
      ]
    ]
  }
}