{
  "version": "1.0",
  "truncation": null,
  "padding": null,
  "added_tokens": [
    {
      "id": 111,
      "content": "[SEP]",
      "single_word": false,
      "lstrip": false,
      "rstrip": false,
      "normalized": false,
      "special": true
    },
    {
      "id": 133,
      "content": "[UNK]",
      "single_word": false,
      "lstrip": false,
      "rstrip": false,
      "normalized": false,
      "special": true
    },
    {
      "id": 195,
      "content": "[PAD]",
      "single_word": false,
      "lstrip": false,
      "rstrip": false,
      "normalized": false,
      "special": true
    },
    {
      "id": 213,
      "content": "[CLS]",
      "single_word": false,
      "lstrip": false,
      "rstrip": false,
      "normalized": false,
      "special": true
    },
    {
      "id": 457,
      "content": "[MASK]",
      "single_word": false,
      "lstrip": false,
      "rstrip": false,
      "normalized": false,
      "special": true
    }
  ],
  "normalizer": {
    "type": "Sequence",
    "normalizers": [
      {
        "type": "NFD"
      },
      {
        "type": "Lowercase"
      },
      {
        "type": "StripAccents"
      }
    ]
  },
  "pre_tokenizer": {
    "type": "Sequence",
    "pretokenizers": [
      {
        "type": "Metaspace",
        "replacement": "▁",
        "prepend_scheme": "always",
        "split": true
      }
    ]
  },
  "post_processor": {
    "type": "TemplateProcessing",
    "single": [
      {
        "SpecialToken": {
          "id": "[CLS]",
          "type_id": 0
        }
      },
      {
        "Sequence": {
          "id": "A",
          "type_id": 0
        }
      },
      {
        "SpecialToken": {
          "id": "[SEP]",
          "type_id": 0
        }
      }
    ],
    "pair": [
      {
        "SpecialToken": {
          "id": "[CLS]",
          "type_id": 0
        }
      },
      {
        "Sequence": {
          "id": "A",
          "type_id": 0
        }
      },
      {
        "SpecialToken": {
          "id": "[SEP]",
          "type_id": 0
        }
      },
      {
        "Sequence": {
          "id": "B",
          "type_id": 1
        }
      },
      {
        "SpecialToken": {
          "id": "[SEP]",
          "type_id": 1
        }
      }
    ],
    "special_tokens": {
      "[CLS]": {
        "id": "[CLS]",
        "ids": [
          213
        ],
        "tokens": [
          "[CLS]"
        ]
      },
      "[SEP]": {
        "id": "[SEP]",
        "ids": [
          111
        ],
        "tokens": [
          "[SEP]"
        ]
      }
    }
  },
  "decoder": {
    "type": "Metaspace",
    "replacement": "▁",
    "prepend_scheme": "always",
    "split": true
  },
  "model": {
    "type": "Unigram",
    "unk_id": 133,
    "vocab": [
      [
        "▁stor",
        -7.109987139352413
      ],
      [
        "ive",
        -7.292668621241223
      ],
      [
        "e",
        -3.9322468943644155
      ],
      [
        "’",
        -7.866549321073151
      ],
      [
        "e",
        -10.030342453734283
      ],
      [
        "ha",
        -7.287995151308998
      ],
      [
        "▁ma",
        -6.667037128212682
      ],
      [
        "▁learn",
        -7.477629147196954
      ],
      [
        "▁do",
        -4.585916632256021
      ],
      [
        "o",
        -11.30610184376667
      ],
      [
        "a",
        -4.410395114011603
      ],
      [
        "▁–",
        -8.133096167199689
      ],
      [
        "tion",
        -5.824237356217725
      ],
      [
        "▁mind",
        -7.321620695517982
      ],
      [
        "n",
        -3.899650997895063
      ],
      [
        "or",
        -5.694962048733596
      ],
      [
        "til",
        -7.794020963521493
      ],
      [
        "es",
        -5.376978422489887
      ],
      [
        "r",
        -4.442981270602209
      ],
      [
        "w",
        -5.880893317308239
      ],
      [
        "e",
        -11.30610184376667
      ],
      [
        "▁control",
        -7.506060425799008
      ],
      [
        "▁hour",
        -7.033766690745859
      ],
      [
        "▁institution",
        -7.535470632338394
      ],
      [
        "l",
        -2.8212338476625405
      ],
      [
        "▁at",
        -4.208666515164259
      ],
      [
        "k",
        -4.955875836629195
      ],
      [
        "▁d",
        -6.155873977546943
      ],
      [
        "ag",
        -6.973357810142724
      ],
      [
        "o",
        -6.381552443533746
      ],
      [
        "r",
        -4.428742651164837
      ],
      [
        "way",
        -5.348355200186857
      ],
      [
        "▁help",
        -6.265875994094404
      ],
      [
        "▁wo",
        -5.573505640555885
      ],
      [
        "el",
        -6.4453288095771
      ],
      [
        "ast",
        -7.018880342099333
      ],
      [
        "▁i",
        -6.277877407998338
      ],
      [
        "…",
        -8.14005820586976
      ],
      [
        "▁w",
        -5.356522623081311
      ],
      [
        "do",
        -7.392612609618412
      ],
      [
        "▁st",
        -5.659776073611224
      ],
      [
        "▁in",
        -5.54876679748911
      ],
      [
        "alit",
        -7.188822805746222
      ],
      [
        "▁dis",
        -6.8238459671866725
      ],
      [
        "▁name",
        -7.165554889654967
      ],
      [
        "▁m",
        -7.52873383860846
      ],
      [
        "est",
        -5.810221199377472
      ],
      [
        "c",
        -4.980831231540308
      ],
      [
        "u",
        -4.6544778037148005
      ],
      [
        "a",
        -6.058577201907582
      ],
      [
        "▁i",
        -7.935506234966109
      ],
      [
        "p",
        -4.454280002829121
      ],
      [
        "ain",
        -5.365544446162838
      ],
      [
        "▁p",
        -5.3358726596475154
      ],
      [
        "with",
        -6.564157565783232
      ],
      [
        "▁class",
        -7.186312354978183
      ],
      [
        "▁qualit",
        -7.2742914837193435
      ],
      [
        "▁ha",
        -7.407037798710411
      ],
      [
        "u",
        -5.678999085611288
      ],
      [
        "▁play",
        -6.169705460794857
      ],
      [
        "hi",
        -6.149150584608677
      ],
      [
        "▁group",
        -6.805718163521837
      ],
      [
        "▁your",
        -4.322341591353355
      ],
      [
        "wh",
        -11.044964896565157
      ],
      [
        "g",
        -5.655973482975192
      ],
      [
        "▁",
        -2.980127495239622
      ],
      [
        "▁sp",
        -7.109499861340909
      ],
      [
        "▁think",
        -5.003192051754571
      ],
      [
        "▁th",
        -4.116179268114889
      ],
      [
        "▁goal",
        -7.396708974255236
      ],
      [
        "▁just",
        -3.9933866883744447
      ],
      [
        "▁any",
        -6.135832262325762
      ],
      [
        "x",
        -8.148703898563046
      ],
      [
        "▁man",
        -5.063106165895938
      ],
      [
        "l",
        -4.890803893790878
      ],
      [
        "▁g",
        -6.224325493926221
      ],
      [
        "▁work",
        -5.861546500765102
      ],
      [
        "-",
        -7.229320738326674
      ],
      [
        "sh",
        -8.923302242740364
      ],
      [
        "c",
        -5.452102976435112
      ],
      [
        "▁pa",
        -6.83100154144872
      ],
      [
        "▁'",
        -7.427972425934706
      ],
      [
        "▁back",
        -5.198819456345511
      ],
      [
        "o",
        -3.46069091458207
      ],
      [
        "▁b",
        -5.33888786481237
      ],
      [
        "▁sense",
        -7.477563705637083
      ],
      [
        "▁an",
        -3.853860098762656
      ],
      [
        "▁unite",
        -5.930089569088497
      ],
      [
        "w",
        -11.044864896565157
      ],
      [
        "ca",
        -7.306272403559504
      ],
      [
        "stil",
        -5.383825877480753
      ],
      [
        "k",
        -5.75944054841179
      ],
      [
        "▁pre",
        -7.179388375030975
      ],
      [
        "one",
        -5.597870100335529
      ],
      [
        "ry",
        -6.590237143160901
      ],
      [
        "on",
        -5.214071259835873
      ],
      [
        "▁area",
        -6.791603155454774
      ],
      [
        "under",
        -9.109372021961642
      ],
      [
        "for",
        -3.971547382691539
      ],
      [
        "order",
        -7.173754833070882
      ],
      [
        "▁basil",
        -7.3462962773341856
      ],
      [
        "ge",
        -5.9452211649244
      ],
      [
        "▁mo",
        -6.5939802805800705
      ],
      [
        "▁term",
        -7.372253975349518
      ],
      [
        "w",
        -6.211650173036801
      ],
      [
        "▁old",
        -5.650994316158084
      ],
      [
        "ic",
        -6.0023034717092
      ],
      [
        "▁view",
        -7.396463411881437
      ],
      [
        "▁re",
        -5.929467096540928
      ],
      [
        "is",
        -6.227430543159616
      ],
      [
        "▁add",
        -6.426363734151122
      ],
      [
        "[SEP]",
        0.0
      ],
      [
        "n",
        -6.552465517695747
      ],
      [
        "▁box",
        -7.321428417931012
      ],
      [
        "▁learn",
        -6.594082611039645
      ],
      [
        "▁find",
        -5.850517686370618
      ],
      [
        "▁along",
        -7.071096683988473
      ],
      [
        "ant",
        -6.97616868844298
      ],
      [
        "right",
        -5.838305427164473
      ],
      [
        "e",
        -3.54313970307539
      ],
      [
        "r",
        -6.56085656665147
      ],
      [
        "side",
        -7.329395841773978
      ],
      [
        "ing",
        -2.5396134610140786
      ],
      [
        "or",
        -5.370908184022506
      ],
      [
        "▁day",
        -5.801425418157966
      ],
      [
        "▁s",
        -4.6444992714275175
      ],
      [
        "le",
        -5.249292916690825
      ],
      [
        "▁number",
        -6.696768458924458
      ],
      [
        "fro",
        -7.032259409749244
      ],
      [
        "▁a",
        -6.198641194371947
      ],
      [
        "▁he",
        -5.026214670308509
      ],
      [
        "i",
        -5.144980261513474
      ],
      [
        "0",
        -3.653736906340632
      ],
      [
        "[UNK]",
        0.0
      ],
      [
        "ne",
        -6.506091104147288
      ],
      [
        "have",
        -4.931878270442693
      ],
      [
        "n",
        -4.210594377094976
      ],
      [
        "ttle",
        -5.401154457907636
      ],
      [
        "▁the",
        -3.6553676255992835
      ],
      [
        "!",
        -5.060730384645579
      ],
      [
        "▁night",
        -7.03281581291003
      ],
      [
        "▁wh",
        -7.170654294202668
      ],
      [
        "n",
        -5.117451337177387
      ],
      [
        "ood",
        -5.105102759909239
      ],
      [
        "d",
        -1.6264937652128957
      ],
      [
        "▁consider",
        -6.315031740132308
      ],
      [
        "stance",
        -7.1950889580881405
      ],
      [
        "land",
        -5.464659224454331
      ],
      [
        "s",
        -5.708320477646637
      ],
      [
        "▁real",
        -4.8573733403541555
      ],
      [
        "@",
        -8.259815009676634
      ],
      [
        "u",
        -4.761850847795161
      ],
      [
        "er",
        -8.45479996087291
      ],
      [
        "▁diff",
        -5.324828728296516
      ],
      [
        "l",
        -7.805447836805206
      ],
      [
        "▁cam",
        -6.534355521156288
      ],
      [
        "▁wa",
        -7.533192188827108
      ],
      [
        "]",
        -4.9810863947911015
      ],
      [
        "e",
        -4.062956185772159
      ],
      [
        "ch",
        -4.952145728912897
      ],
      [
        "4",
        -4.034674710153098
      ],
      [
        "▁to",
        -4.141004917662345
      ],
      [
        "▁there",
        -4.830586305421089
      ],
      [
        "▁abo",
        -5.172629370174567
      ],
      [
        "hat",
        -7.942051988084126
      ],
      [
        "▁when",
        -4.0048488563503035
      ],
      [
        ":",
        -4.95900349681989
      ],
      [
        "▁th",
        -5.70002571291641
      ],
      [
        "er",
        -4.359586701593476
      ],
      [
        "▁value",
        -6.896003128290014
      ],
      [
        "ac",
        -6.65985120464798
      ],
      [
        "b",
        -6.679435672770687
      ],
      [
        "▁create",
        -6.647526505097452
      ],
      [
        "▁who",
        -4.89922205529329
      ],
      [
        "my",
        -7.5790432502119405
      ],
      [
        "▁ca",
        -6.632635618429724
      ],
      [
        "▁effort",
        -7.5060588684988225
      ],
      [
        "▁some",
        -5.260585183769414
      ],
      [
        "▁c",
        -5.8064921717029785
      ],
      [
        "des",
        -7.431248500145444
      ],
      [
        "b",
        -6.523660441766513
      ],
      [
        "ous",
        -4.844023471236834
      ],
      [
        "▁di",
        -6.016001051280069
      ],
      [
        "▁’",
        -5.553085575536861
      ],
      [
        "p",
        -5.20925009823068
      ],
      [
        "v",
        -5.590947530355339
      ],
      [
        "out",
        -7.304344578634963
      ],
      [
        "▁my",
        -4.3276074243896385
      ],
      [
        "ful",
        -5.252908833003607
      ],
      [
        "rent",
        -5.673239731195095
      ],
      [
        "'",
        -2.725182312064385
      ],
      [
        "▁ca",
        -4.056694532666722
      ],
      [
        "i",
        -5.511327297562266
      ],
      [
        "▁o",
        -6.552772567203013
      ],
      [
        "▁concept",
        -7.345728149397571
      ],
      [
        "[PAD]",
        0.0
      ],
      [
        "h",
        -2.991970090888345
      ],
      [
        "s",
        -5.421444097015033
      ],
      [
        "▁island",
        -7.105456790781764
      ],
      [
        "r",
        -4.79931960682362
      ],
      [
        "f",
        -8.275246665640946
      ],
      [
        "▁inter",
        -7.242194814372722
      ],
      [
        "▁pro",
        -5.4110448904000465
      ],
      [
        "▁[",
        -8.089724255412925
      ],
      [
        ".",
        -7.207581607891891
      ],
      [
        "‘",
        -7.866549321073151
      ],
      [
        "▁as",
        -4.373125265652987
      ],
      [
        "s",
        -3.164435250175118
      ],
      [
        "▁reason",
        -7.422743284547546
      ],
      [
        "n",
        -11.30610184376667
      ],
      [
        "th",
        -6.013369048073131
      ],
      [
        "▁end",
        -7.1431161314573135
      ],
      [
        "▁as",
        -4.930286868177858
      ],
      [
        "[CLS]",
        0.0
      ],
      [
        "▁communit",
        -7.477487445493515
      ],
      [
        "▁life",
        -6.2017552312347
      ],
      [
        "k",
        -5.2163596500263445
      ],
      [
        "ed",
        -7.455190809087517
      ],
      [
        "▁memor",
        -7.449717353808417
      ],
      [
        "y",
        -4.847215717466737
      ],
      [
        "n",
        -1.621631716033198
      ],
      [
        "▁use",
        -6.884989512324196
      ],
      [
        "d",
        -3.2048710408803895
      ],
      [
        "ican",
        -5.621122880060412
      ],
      [
        "s",
        -2.8813965090249978
      ],
      [
        "▁lot",
        -6.57411499493462
      ],
      [
        "▁bu",
        -7.003927754798321
      ],
      [
        "oth",
        -6.196132112876844
      ],
      [
        "▁large",
        -5.46486567429495
      ],
      [
        "s",
        -4.059401403973889
      ],
      [
        "ence",
        -6.484618393467772
      ],
      [
        "▁know",
        -4.42800771279298
      ],
      [
        "p",
        -11.30610184376667
      ],
      [
        "men",
        -7.155838590057572
      ],
      [
        "at",
        -6.572415853163942
      ],
      [
        "▁.",
        -7.633870414822361
      ],
      [
        "▁toward",
        -7.257763959061846
      ],
      [
        "▁",
        -2.752157629685346
      ],
      [
        "&",
        -6.348745782864013
      ],
      [
        "at",
        -7.198756256765716
      ],
      [
        "▁li",
        -6.7136197031869544
      ],
      [
        "▁e",
        -5.9888231776512955
      ],
      [
        "f",
        -5.779590228945134
      ],
      [
        "m",
        -5.554815412033024
      ],
      [
        "▁test",
        -7.371886462256905
      ],
      [
        "▁step",
        -7.347026381931964
      ],
      [
        "▁vs",
        -9.505219385666482
      ],
      [
        "ve",
        -6.715011740860778
      ],
      [
        "▁friend",
        -7.520405428421444
      ],
      [
        "▁",
        -1.209065188083141
      ],
      [
        "ing",
        -5.7215500241672155
      ],
      [
        "x",
        -11.30610184376667
      ],
      [
        "p",
        -5.591486315147161
      ],
      [
        "ame",
        -5.542992550175032
      ],
      [
        "formation",
        -6.9826795482555
      ],
      [
        "▁",
        -2.291043143180608
      ],
      [
        "▁fi",
        -4.835753479707899
      ],
      [
        "ce",
        -6.886372893890542
      ],
      [
        "▁th",
        -3.62672243562712
      ],
      [
        "▁a",
        -5.600098978301535
      ],
      [
        "ve",
        -6.02085325772088
      ],
      [
        "▁a",
        -5.424720179208393
      ],
      [
        "▁ba",
        -6.713766193098891
      ],
      [
        "ve",
        -7.205279174910387
      ],
      [
        "-",
        -3.7399703017848953
      ],
      [
        "▁time",
        -5.439473600332116
      ],
      [
        "▁question",
        -6.6967719529276675
      ],
      [
        "▁lo",
        -7.241354372715613
      ],
      [
        "ver",
        -5.506372038346979
      ],
      [
        "i",
        -6.668885263443606
      ],
      [
        "ne",
        -3.6871775819983803
      ],
      [
        "p",
        -6.121137864843278
      ],
      [
        "▁al",
        -3.9793844877706634
      ],
      [
        "▁com",
        -6.5338638062966625
      ],
      [
        "▁gra",
        -6.9913873167322595
      ],
      [
        "rsel",
        -8.543929487567437
      ],
      [
        "”",
        -5.271429833218373
      ],
      [
        "on",
        -5.606876756878683
      ],
      [
        "o",
        -4.2588886551758165
      ],
      [
        "▁ro",
        -7.284336091628606
      ],
      [
        "al",
        -3.5106226296288012
      ],
      [
        "▁un",
        -8.2155647150831
      ],
      [
        "▁do",
        -4.146461314148499
      ],
      [
        "▁com",
        -6.583469530311604
      ],
      [
        "▁impo",
        -5.833749262889407
      ],
      [
        "he",
        -7.272009344847461
      ],
      [
        "ar",
        -5.52564424695842
      ],
      [
        "▁hav",
        -4.564714170974164
      ],
      [
        "ar",
        -5.4354685539881835
      ],
      [
        "d",
        -4.567064013314124
      ],
      [
        "▁you",
        -2.9564604876134792
      ],
      [
        "es",
        -5.736679952664477
      ],
      [
        "▁par",
        -7.482483278098125
      ],
      [
        "▁ball",
        -7.522714276698769
      ],
      [
        "▁histor",
        -6.978027852533101
      ],
      [
        "its",
        -8.413673985203909
      ],
      [
        "o",
        -4.102424388170894
      ],
      [
        "▁provide",
        -6.339110456014698
      ],
      [
        "▁year",
        -5.655719708661876
      ],
      [
        "ry",
        -5.453793146047914
      ],
      [
        "▁difference",
        -7.186305013148326
      ],
      [
        "▁",
        -2.06512035398237
      ],
      [
        "▁type",
        -7.477933520547321
      ],
      [
        "d",
        -5.306425922250455
      ],
      [
        "u",
        -5.431996930937077
      ],
      [
        "t",
        -3.9345990918611866
      ],
      [
        "▁b",
        -6.5293904783926635
      ],
      [
        "▁land",
        -6.851966503189314
      ],
      [
        "▁project",
        -7.506059045410393
      ],
      [
        "o",
        -4.205784554345477
      ],
      [
        "▁tw",
        -3.3153921891638536
      ],
      [
        "▁gon",
        -5.991686088053788
      ],
      [
        "▁feel",
        -5.966221631825093
      ],
      [
        "▁system",
        -6.696768456059411
      ],
      [
        "for",
        -5.6167017532002514
      ],
      [
        "’",
        -3.9242235691608203
      ],
      [
        "▁ask",
        -6.111230928830491
      ],
      [
        "y",
        -5.412504097489629
      ],
      [
        "sh",
        -6.1641645391165
      ],
      [
        "▁role",
        -7.303192486722017
      ],
      [
        "h",
        -10.139491466887021
      ],
      [
        "pos",
        -8.949919840565112
      ],
      [
        "the",
        -3.398256238059738
      ],
      [
        "▁c",
        -7.162701144020633
      ],
      [
        "▁room",
        -6.759634517395354
      ],
      [
        "▁seem",
        -6.34787872593549
      ],
      [
        "what",
        -10.03682810298385
      ],
      [
        "an",
        -5.819978883827406
      ],
      [
        "u",
        -4.625895863937907
      ],
      [
        "▁vi",
        -6.816916707112391
      ],
      [
        "m",
        -4.008563921890476
      ],
      [
        "▁example",
        -6.467196501176696
      ],
      [
        "et",
        -5.748987603822464
      ],
      [
        "y",
        -4.022411045371133
      ],
      [
        "hat",
        -3.511858233914067
      ],
      [
        "▁it",
        -3.5763882959970887
      ],
      [
        "▁case",
        -7.018666218382976
      ],
      [
        "h",
        -5.797590078655874
      ],
      [
        "▁of",
        -3.346211456857615
      ],
      [
        "re",
        -5.7484620307314245
      ],
      [
        "y",
        -7.805447836805209
      ],
      [
        "sh",
        -7.896880689765334
      ],
      [
        "▁great",
        -5.292700127366454
      ],
      [
        "▁wh",
        -4.834304019193477
      ],
      [
        "▁se",
        -6.98639253088193
      ],
      [
        "ing",
        -5.2202055411583155
      ],
      [
        "y",
        -4.151446806904005
      ],
      [
        "r",
        -4.900771859001569
      ],
      [
        "o",
        -6.359780458278248
      ],
      [
        "▁its",
        -5.243553225790401
      ],
      [
        "▁continue",
        -6.650329225168411
      ],
      [
        "’",
        -7.95205364262455
      ],
      [
        "▁d",
        -8.845050029588357
      ],
      [
        "h",
        -11.30610184376667
      ],
      [
        "▁th",
        -6.5775431910472015
      ],
      [
        "nd",
        -8.321834674312024
      ],
      [
        "very",
        -5.128829170390489
      ],
      [
        "▁fre",
        -5.822585834383473
      ],
      [
        "▁game",
        -6.62251331747026
      ],
      [
        "▁in",
        -2.7175489697960025
      ],
      [
        "▁need",
        -5.727528666284559
      ],
      [
        "▁fa",
        -6.9640075376224235
      ],
      [
        "▁our",
        -4.748301914640347
      ],
      [
        "ton",
        -5.752074966037167
      ],
      [
        "▁vo",
        -7.347200446192975
      ],
      [
        "▁n",
        -5.083379298357054
      ],
      [
        "ma",
        -7.138099451611869
      ],
      [
        "ed",
        -2.5334807906440897
      ],
      [
        "s",
        -3.0953112562360605
      ],
      [
        "▁he",
        -7.3353753854421555
      ],
      [
        "▁try",
        -5.680352092494735
      ],
      [
        "ent",
        -4.999875881283376
      ],
      [
        "▁course",
        -7.345762202365748
      ],
      [
        "0",
        -7.396366840582645
      ],
      [
        "▁sur",
        -7.136606050393963
      ],
      [
        "us",
        -5.753332807705041
      ],
      [
        "se",
        -8.993246535347312
      ],
      [
        "b",
        -4.999519333311917
      ],
      [
        "get",
        -11.81100911764836
      ],
      [
        "tel",
        -5.40142430593785
      ],
      [
        "▁school",
        -6.944398755961649
      ],
      [
        "▁home",
        -7.166002924751552
      ],
      [
        "er",
        -4.7999231738420685
      ],
      [
        "▁side",
        -7.229677158713361
      ],
      [
        "am",
        -6.452131839763264
      ],
      [
        ",",
        -1.6639762844890722
      ],
      [
        "▁job",
        -7.321393254228159
      ],
      [
        "▁mother",
        -7.4775589589358535
      ],
      [
        "some",
        -8.353846738562591
      ],
      [
        "▁de",
        -5.85145318217659
      ],
      [
        "he",
        -6.728986349874887
      ],
      [
        "n",
        -4.447723216132507
      ],
      [
        "t",
        -5.365310256369506
      ],
      [
        "▁start",
        -5.585551701645566
      ],
      [
        "so",
        -4.292088408172421
      ],
      [
        "ate",
        -7.040741203702946
      ],
      [
        "ther",
        -5.375236320111261
      ],
      [
        "▁method",
        -7.012799534341989
      ],
      [
        "on",
        -3.7267412169329663
      ],
      [
        "n",
        -3.5654126009496556
      ],
      [
        "ut",
        -5.625839007577843
      ],
      [
        "–",
        -5.5779315773647875
      ],
      [
        "ship",
        -7.1397484574548
      ],
      [
        "5",
        -3.9548692762163986
      ],
      [
        "ic",
        -4.9093200329551205
      ],
      [
        "▁de",
        -5.866826473598539
      ],
      [
        "▁mil",
        -7.367198476764045
      ],
      [
        "▁make",
        -5.02493491258528
      ],
      [
        "b",
        -6.49057280753898
      ],
      [
        "▁use",
        -5.655256353609297
      ],
      [
        "▁be",
        -6.408329057068254
      ],
      [
        "▁word",
        -6.61038170319506
      ],
      [
        "si",
        -9.304032773717704
      ],
      [
        "be",
        -6.721532399106199
      ],
      [
        "ng",
        -6.848377916750415
      ],
      [
        "▁",
        -3.6557780711089176
      ],
      [
        "—",
        -4.9102876617529
      ],
      [
        "man",
        -7.406368345608223
      ],
      [
        "▁high",
        -5.757179559022294
      ],
      [
        "▁t",
        -7.181620240672388
      ],
      [
        "▁p",
        -6.48583240840618
      ],
      [
        "▁want",
        -5.201137014170473
      ],
      [
        "▁how",
        -4.042396341429274
      ],
      [
        "able",
        -5.040421882728963
      ],
      [
        "ism",
        -7.23425320013548
      ],
      [
        "ting",
        -6.059217143952011
      ],
      [
        "nd",
        -9.7252490230468
      ],
      [
        "i",
        -3.078617105005949
      ],
      [
        "▁month",
        -7.145188490239718
      ],
      [
        "▁air",
        -7.208447548026254
      ],
      [
        "c",
        -3.434059082723638
      ],
      [
        "▁ho",
        -6.705134770663146
      ],
      [
        "o",
        -1.9178392363553822
      ],
      [
        "l",
        -3.718981145850126
      ],
      [
        "g",
        -5.391237242770286
      ],
      [
        "▁believe",
        -6.571319044743239
      ],
      [
        "▁what",
        -6.792648021202967
      ],
      [
        "▁person",
        -6.995720778739993
      ],
      [
        "▁out",
        -5.16481070396172
      ],
      [
        "t",
        -2.9756758311728753
      ],
      [
        "hos",
        -6.4891024163628455
      ],
      [
        "▁bit",
        -7.02623343485251
      ],
      [
        "▁for",
        -3.5668338060422036
      ],
      [
        "all",
        -3.6856586658018076
      ],
      [
        "g",
        -6.061222259618575
      ],
      [
        "▁idea",
        -6.961118649438051
      ],
      [
        "▁base",
        -6.423660381912924
      ],
      [
        "▁is",
        -6.053955475573892
      ],
      [
        "en",
        -8.344875298263513
      ],
      [
        "pe",
        -6.770806487916432
      ],
      [
        "th",
        -5.558736650034625
      ],
      [
        ")",
        -4.324484394733614
      ],
      [
        "uff",
        -7.230272418899567
      ],
      [
        "ise",
        -7.1823190482096795
      ],
      [
        "▁turn",
        -6.4648705465653205
      ],
      [
        "ves",
        -7.504396777756824
      ],
      [
        "c",
        -8.904234464204674
      ],
      [
        "[MASK]",
        0.0
      ],
      [
        "w",
        -2.9061897012320355
      ],
      [
        "▁with",
        -3.6964794093175124
      ],
      [
        "ound",
        -7.392431285414727
      ],
      [
        "▁problem",
        -6.880378420704682
      ],
      [
        "ike",
        -2.735883790295266
      ],
      [
        "▁one",
        -6.51353564861134
      ],
      [
        "▁long",
        -5.8387730775047055
      ],
      [
        "▁beside",
        -8.756332305618702
      ],
      [
        "l",
        -3.835394122374213
      ],
      [
        "l",
        -2.991514109674865
      ],
      [
        "▁co",
        -6.01533538312653
      ],
      [
        "at",
        -6.556456625568501
      ],
      [
        "t",
        -2.629761133184793
      ],
      [
        "a",
        -3.735925954022197
      ],
      [
        "▁'",
        -5.1145193828358915
      ],
      [
        "u",
        -5.358877707252219
      ],
      [
        "'",
        -10.523304979711416
      ],
      [
        "m",
        -4.07411003510954
      ],
      [
        "l",
        -4.4700099513565545
      ],
      [
        "s",
        -2.065674414870575
      ],
      [
        "▁go",
        -4.776984895316962
      ],
      [
        "▁fel",
        -6.5170012944814015
      ],
      [
        "▁study",
        -6.978022306470739
      ],
      [
        "▁2",
        -3.9849485640678575
      ],
      [
        "▁watch",
        -6.571323290204678
      ],
      [
        "il",
        -6.0773247260590315
      ],
      [
        "sel",
        -5.948831641305075
      ],
      [
        "▁hi",
        -6.028802087285474
      ],
      [
        "i",
        -3.701204746274197
      ],
      [
        "▁age",
        -7.088515688693445
      ],
      [
        "rst",
        -4.876772230327624
      ],
      [
        "to",
        -6.043531531802064
      ],
      [
        "ge",
        -6.473666014767348
      ],
      [
        "▁th",
        -4.725489150133098
      ],
      [
        "▁get",
        -4.884236409230081
      ],
      [
        "▁got",
        -5.8025250167328055
      ],
      [
        "b",
        -6.172039612503957
      ],
      [
        "o",
        -5.669789371250692
      ],
      [
        "▁people",
        -5.472999246955371
      ],
      [
        "wh",
        -8.105835796666673
      ],
      [
        "▁say",
        -5.18820577440941
      ],
      [
        "▁",
        -1.5889713884094405
      ],
      [
        "▁pri",
        -7.282375414779258
      ],
      [
        "▁ad",
        -7.477373594639923
      ],
      [
        "y",
        -3.8489341831261346
      ],
      [
        "k",
        -6.57451673468685
      ],
      [
        "▁un",
        -5.450936402365645
      ],
      [
        "▁mo",
        -5.70058306957719
      ],
      [
        "m",
        -4.673660957853148
      ],
      [
        "ble",
        -5.488153542347395
      ],
      [
        "e",
        -3.405799858930563
      ],
      [
        "“",
        -5.237883759895477
      ],
      [
        "▁line",
        -7.191380909160401
      ],
      [
        "▁o",
        -6.39565891191401
      ],
      [
        "abilit",
        -7.105462762831582
      ],
      [
        "▁the",
        -4.205544691878754
      ],
      [
        "▁the",
        -1.435725413114227
      ],
      [
        "c",
        -5.1539619878976595
      ],
      [
        "ever",
        -5.569401422132533
      ],
      [
        "el",
        -5.8950222470700915
      ],
      [
        "ation",
        -5.179030959112085
      ],
      [
        "▁w",
        -5.823524398088204
      ],
      [
        "it",
        -6.806857314340589
      ],
      [
        "a",
        -2.627490449675336
      ],
      [
        "▁cor",
        -7.421753216067287
      ],
      [
        "▁found",
        -6.215779142189531
      ],
      [
        "e",
        -3.28509020564689
      ],
      [
        "▁l",
        -6.566057418437712
      ],
      [
        "a",
        -1.6262501004955467
      ],
      [
        "c",
        -5.183199688175706
      ],
      [
        "▁country",
        -7.059261970587744
      ],
      [
        "▁en",
        -6.883111761978674
      ],
      [
        "▁effect",
        -7.39636684067419
      ],
      [
        "▁open",
        -6.5940469797463965
      ],
      [
        "i",
        -2.595488117844046
      ],
      [
        "z",
        -6.915098690422436
      ],
      [
        "▁what",
        -4.376936577368236
      ],
      [
        "▁be",
        -5.147943309403018
      ],
      [
        "▁famil",
        -7.145108858992218
      ],
      [
        "▁",
        -0.6998516838016915
      ],
      [
        "▁includ",
        -6.57774881988059
      ],
      [
        "y",
        -3.676034383927923
      ],
      [
        "▁we",
        -6.9237305069845965
      ],
      [
        "▁talk",
        -6.231655769177786
      ],
      [
        "an",
        -6.9028980112849965
      ],
      [
        "/",
        -8.477133589746877
      ],
      [
        "▁un",
        -7.453019671215848
      ],
      [
        "2",
        -3.863110929337892
      ],
      [
        "▁tha",
        -2.4221387371588605
      ],
      [
        "de",
        -6.604111485115204
      ],
      [
        ";",
        -5.34209929153793
      ],
      [
        "▁their",
        -4.657686036740577
      ],
      [
        "on",
        -7.1868326965271265
      ],
      [
        "▁child",
        -7.086227580505736
      ],
      [
        "▁g",
        -4.782247238414075
      ],
      [
        "▁a",
        -5.705661849270948
      ],
      [
        "t",
        -11.30610184376667
      ],
      [
        "d",
        -2.8977941719445877
      ],
      [
        "▁him",
        -5.44144245945794
      ],
      [
        "an",
        -5.23752354440825
      ],
      [
        "f",
        -5.098106481997671
      ],
      [
        "che",
        -6.965862720068866
      ],
      [
        "▁tell",
        -6.200767124796021
      ],
      [
        "▁b",
        -5.562093291121588
      ],
      [
        "▁onl",
        -4.884161347803368
      ],
      [
        "e",
        -2.7918119305305495
      ],
      [
        "▁root",
        -7.251780317590373
      ],
      [
        "u",
        -3.461817505595028
      ],
      [
        "▁follow",
        -6.231652050405181
      ],
      [
        "▁week",
        -7.030724544978461
      ],
      [
        "p",
        -7.930447836814313
      ],
      [
        "▁",
        -1.5109898973011902
      ],
      [
        "r",
        -4.7780323422119375
      ],
      [
        "▁them",
        -5.071228821521144
      ],
      [
        "\"",
        -4.0250846940984735
      ],
      [
        "▁happen",
        -6.641112635384694
      ],
      [
        "▁re",
        -5.325279757089603
      ],
      [
        "line",
        -7.5067687371494385
      ],
      [
        "▁s",
        -5.621289411116619
      ],
      [
        "be",
        -8.229494500475171
      ],
      [
        "l",
        -2.437098213860101
      ],
      [
        "who",
        -8.038578433242403
      ],
      [
        "co",
        -6.79885048485257
      ],
      [
        "b",
        -4.417503380190653
      ],
      [
        "▁ha",
        -4.459486973408954
      ],
      [
        "▁de",
        -6.309004634577118
      ],
      [
        "w",
        -9.523304979711416
      ],
      [
        "day",
        -5.767456173282384
      ],
      [
        "d",
        -4.717608263371511
      ],
      [
        "y",
        -3.670432483286124
      ],
      [
        "h",
        -5.39940682749177
      ],
      [
        "d",
        -11.044764896565157
      ],
      [
        "n",
        -5.214996522817055
      ],
      [
        "ver",
        -9.650882351988544
      ],
      [
        "▁offer",
        -6.5941972299945855
      ],
      [
        "ft",
        -6.584007284218346
      ],
      [
        "ight",
        -6.731948705014686
      ],
      [
        "g",
        -4.876655188246787
      ],
      [
        "▁even",
        -4.717716320846275
      ],
      [
        "▁p",
        -9.637087184038196
      ],
      [
        "ce",
        -5.693097436289232
      ],
      [
        "▁light",
        -6.930134939968642
      ],
      [
        "▁state",
        -5.760847809058464
      ],
      [
        "thi",
        -4.829397908768713
      ],
      [
        "y",
        -2.1399752018294596
      ],
      [
        "ies",
        -5.032473422017564
      ],
      [
        "every",
        -8.938741162355829
      ],
      [
        "t",
        -4.495642681648763
      ],
      [
        "ll",
        -5.333331837717797
      ],
      [
        ".",
        -1.7636336578044016
      ],
      [
        "r",
        -3.4791671870992786
      ],
      [
        "u",
        -6.60703667514275
      ],
      [
        "▁sea",
        -7.050178629545585
      ],
      [
        "ar",
        -7.688168247021441
      ],
      [
        "b",
        -5.1998819461103425
      ],
      [
        "ian",
        -5.7261769310303805
      ],
      [
        "no",
        -5.308803361475787
      ],
      [
        "▁now",
        -4.4630067124551545
      ],
      [
        "it",
        -6.649926405693812
      ],
      [
        "▁fan",
        -7.4702283811951204
      ],
      [
        "▁mathematic",
        -7.50605886354243
      ],
      [
        "+",
        -11.30610184376667
      ],
      [
        "ed",
        -4.382816136122548
      ],
      [
        "tant",
        -5.639807237854504
      ],
      [
        "h",
        -8.051510808062513
      ],
      [
        "▁work",
        -6.1194594978842005
      ],
      [
        "a",
        -4.800420316039472
      ],
      [
        "▁t",
        -5.471740746005855
      ],
      [
        "▁man",
        -6.866708828179635
      ],
      [
        "▁b",
        -5.978498137743298
      ],
      [
        "w",
        -3.614522454266268
      ],
      [
        "▁writer",
        -7.449721715223934
      ],
      [
        "hi",
        -6.75097877995157
      ],
      [
        "▁fro",
        -4.088218230052947
      ],
      [
        "▁wi",
        -7.500538777320081
      ],
      [
        "te",
        -6.983709609968582
      ],
      [
        "ren",
        -7.159200367475908
      ],
      [
        "u",
        -3.635262221103514
      ],
      [
        "▁show",
        -5.807992076291985
      ],
      [
        "a",
        -5.832705377089547
      ],
      [
        "▁right",
        -7.166054264718955
      ],
      [
        "you",
        -6.04278706557591
      ],
      [
        "?",
        -4.235888959341293
      ],
      [
        "▁col",
        -7.348190524934784
      ],
      [
        "▁con",
        -6.30082234312859
      ],
      [
        "t",
        -3.6123564527933043
      ],
      [
        "▁w",
        -5.130691711296689
      ],
      [
        "g",
        -5.176309950984387
      ],
      [
        "▁us",
        -5.592528122872539
      ],
      [
        "e",
        -3.0945733736211354
      ],
      [
        "▁run",
        -6.6412066251846325
      ],
      [
        "▁n",
        -6.591899318099547
      ],
      [
        "'",
        -5.68869033693939
      ],
      [
        "e",
        -2.7676276725630906
      ],
      [
        "▁kind",
        -6.7097958805023
      ],
      [
        "n",
        -4.952321057609618
      ],
      [
        "▁do",
        -7.444626016452859
      ],
      [
        "what",
        -7.422757426495139
      ],
      [
        "▁war",
        -5.96050689990375
      ],
      [
        "▁ju",
        -7.368007688267264
      ],
      [
        "▁hi",
        -7.338899820187174
      ],
      [
        "h",
        -10.030342453734283
      ],
      [
        "them",
        -8.150870421839503
      ],
      [
        "ut",
        -6.3210635045066494
      ],
      [
        "▁li",
        -5.306775053839846
      ],
      [
        "e",
        -6.724424336470487
      ],
      [
        "nea",
        -7.4124322431807546
      ],
      [
        "a",
        -4.228489615839996
      ],
      [
        "ers",
        -6.43798839363189
      ],
      [
        "▁process",
        -6.820298607261647
      ],
      [
        "▁'",
        -6.111426089133699
      ],
      [
        "n",
        -3.005516931497115
      ],
      [
        "ow",
        -8.31481231342139
      ],
      [
        "ur",
        -6.17726799142183
      ],
      [
        "a",
        -4.833063945942889
      ],
      [
        "▁new",
        -4.827234529609366
      ],
      [
        "▁event",
        -7.274288867706982
      ],
      [
        "und",
        -6.038301791735757
      ],
      [
        "▁water",
        -6.737333005565728
      ],
      [
        "▁so",
        -3.7693524520366273
      ],
      [
        "▁ex",
        -6.789025451596341
      ],
      [
        "▁",
        -3.0427443003630357
      ],
      [
        "ture",
        -6.885016471844519
      ],
      [
        "▁culture",
        -6.9444221954526935
      ],
      [
        "▁her",
        -4.811964965955499
      ],
      [
        "wo",
        -8.937994999592204
      ],
      [
        "our",
        -7.218394813502767
      ],
      [
        "ca",
        -7.38259925691837
      ],
      [
        "▁m",
        -5.718884181419159
      ],
      [
        "▁interest",
        -7.274414438010659
      ],
      [
        "der",
        -7.035043949999614
      ],
      [
        "day",
        -6.23261852760148
      ],
      [
        "ever",
        -7.141912108139468
      ],
      [
        "▁guy",
        -7.013701856250157
      ],
      [
        "up",
        -7.3649237242742664
      ],
      [
        "▁t",
        -7.242876639552939
      ],
      [
        "▁a",
        -8.393578401288167
      ],
      [
        "▁other",
        -4.705810005306983
      ],
      [
        "in",
        -4.789649416697738
      ],
      [
        "▁point",
        -6.995264421788255
      ],
      [
        "▁like",
        -5.930072166976957
      ],
      [
        "▁a",
        -5.511525970108412
      ],
      [
        "▁keep",
        -6.387136511565646
      ],
      [
        "▁call",
        -5.518726558076758
      ],
      [
        "in",
        -6.38052025079336
      ],
      [
        "▁",
        -1.9009681234468863
      ],
      [
        "▁fee",
        -7.365597528505004
      ],
      [
        "es",
        -5.7150561653733805
      ],
      [
        "hin",
        -7.381586966400974
      ],
      [
        "▁fact",
        -6.960163651456573
      ],
      [
        "r",
        -4.867922633570448
      ],
      [
        "l",
        -4.7388961311484765
      ],
      [
        "ent",
        -6.026330241064752
      ],
      [
        "▁small",
        -5.769840103952445
      ],
      [
        "▁more",
        -4.5452392077232915
      ],
      [
        "▁under",
        -6.146905963386384
      ],
      [
        "th",
        -7.374978047225456
      ],
      [
        "▁way",
        -5.92847176836039
      ],
      [
        "ist",
        -6.263458608738451
      ],
      [
        "▁c",
        -5.628989355877304
      ],
      [
        "a",
        -2.0151618465948395
      ],
      [
        "ol",
        -6.3537077316750254
      ],
      [
        "i",
        -4.005045311408063
      ],
      [
        "i",
        -11.30610184376667
      ],
      [
        "▁grow",
        -6.549576393242187
      ],
      [
        "tic",
        -7.394692118414696
      ],
      [
        "as",
        -6.9140138242848685
      ],
      [
        "▁s",
        -9.3469743425392
      ],
      [
        "▁up",
        -4.9697523920827384
      ],
      [
        "me",
        -6.218667638658624
      ],
      [
        ".",
        -5.405371106308976
      ],
      [
        "a",
        -5.486754354345875
      ],
      [
        "'",
        -6.602478857655976
      ],
      [
        "▁video",
        -7.012823893985924
      ],
      [
        "f",
        -2.4236760951798866
      ],
      [
        "s",
        -3.085229503830507
      ],
      [
        "▁sh",
        -5.514840382373262
      ],
      [
        "cul",
        -7.281013866764125
      ],
      [
        "ure",
        -7.135536564034931
      ],
      [
        "er",
        -6.389852041986571
      ],
      [
        "ever",
        -5.15682297955127
      ],
      [
        "▁morning",
        -7.422686532724502
      ],
      [
        "ll",
        -6.344002796827064
      ],
      [
        "▁most",
        -5.268194016336504
      ],
      [
        "v",
        -5.455898714700986
      ],
      [
        "nt",
        -6.564405502537963
      ],
      [
        "q",
        -7.896278411621157
      ],
      [
        "u",
        -5.0214664641748525
      ],
      [
        "an",
        -6.240868064211118
      ],
      [
        "f",
        -5.798451293743836
      ],
      [
        "our",
        -7.049937331992389
      ],
      [
        "th",
        -6.314622855013121
      ],
      [
        "al",
        -5.366332230778962
      ],
      [
        "▁art",
        -6.9163613194395435
      ],
      [
        "▁understand",
        -6.485262670741855
      ],
      [
        "▁ye",
        -2.7891237942180895
      ],
      [
        "▁site",
        -7.3977357205040235
      ],
      [
        "their",
        -7.671590858615362
      ],
      [
        "is",
        -5.663290188813705
      ],
      [
        "ner",
        -7.051500735957273
      ],
      [
        "al",
        -5.62173579463617
      ],
      [
        "m",
        -4.712350737750165
      ],
      [
        "in",
        -5.256378230006859
      ],
      [
        "▁hal",
        -7.117073918467274
      ],
      [
        "▁st",
        -6.533736394247069
      ],
      [
        "▁thing",
        -5.879798297818737
      ],
      [
        "▁see",
        -4.97332015787349
      ],
      [
        "d",
        -10.030342453734283
      ],
      [
        "in",
        -6.087171759896929
      ],
      [
        "er",
        -5.038226701871529
      ],
      [
        "▁t",
        -7.271669971203471
      ],
      [
        "hav",
        -7.699518337880401
      ],
      [
        "▁",
        -1.5811811569806817
      ],
      [
        "a",
        -2.7022407532785033
      ],
      [
        "i",
        -4.211616108205406
      ],
      [
        "▁has",
        -5.8116867193592565
      ],
      [
        "end",
        -7.118159061116169
      ],
      [
        "▁place",
        -6.724112043844001
      ],
      [
        "r",
        -5.2490908206590525
      ],
      [
        "he",
        -5.463293494913207
      ],
      [
        "*",
        -10.306101843766672
      ],
      [
        "▁among",
        -6.780013786297806
      ],
      [
        "up",
        -8.066118629611145
      ],
      [
        "w",
        -6.013826489418303
      ],
      [
        "▁t",
        -6.053011300110063
      ],
      [
        "w",
        -5.259028253017254
      ],
      [
        "▁’",
        -6.804430684026614
      ],
      [
        "▁remember",
        -6.406000985999255
      ],
      [
        "▁…",
        -8.566281198299862
      ],
      [
        "b",
        -3.6881462591160137
      ],
      [
        "s",
        -3.241523031707027
      ],
      [
        "▁one",
        -7.349416966147237
      ],
      [
        "▁w",
        -7.136694531619211
      ],
      [
        "▁pro",
        -6.527635709318141
      ],
      [
        "m",
        -4.873338282702597
      ],
      [
        "▁m",
        -7.22654084759461
      ],
      [
        "1",
        -3.9547129393266545
      ],
      [
        "▁to",
        -4.979534575104661
      ],
      [
        "▁thank",
        -6.506083771089427
      ],
      [
        "▁become",
        -6.6243179051694145
      ],
      [
        "own",
        -5.667459273627456
      ],
      [
        "▁car",
        -6.845356862094227
      ],
      [
        "c",
        -4.5656218981371905
      ],
      [
        "oursel",
        -8.244637317724134
      ],
      [
        "ar",
        -6.316074318850194
      ],
      [
        "ook",
        -6.441677755674477
      ],
      [
        "▁part",
        -6.325605176158535
      ],
      [
        "d",
        -4.448180400021452
      ],
      [
        "▁field",
        -7.25155937877396
      ],
      [
        "▁tol",
        -6.619447968924938
      ],
      [
        "▁book",
        -7.091666143280841
      ],
      [
        "ia",
        -5.810984781859028
      ],
      [
        "▁wh",
        -5.260392102252067
      ],
      [
        "cy",
        -7.301974675073551
      ],
      [
        "▁every",
        -5.827912280323718
      ],
      [
        "o",
        -1.5460272171420382
      ],
      [
        "r",
        -3.1479864186106337
      ],
      [
        "▁war",
        -7.372767301810239
      ],
      [
        "▁come",
        -5.720042365847349
      ],
      [
        "abo",
        -8.154873967094142
      ],
      [
        "her",
        -5.50666189712034
      ],
      [
        "▁paper",
        -7.506326811561816
      ],
      [
        "▁ha",
        -5.285302595299471
      ],
      [
        "▁head",
        -6.820299002874557
      ],
      [
        "[",
        -5.025098208588913
      ],
      [
        "ch",
        -5.788810472820979
      ],
      [
        "t",
        -4.428757566080668
      ],
      [
        "▁di",
        -6.475707761878769
      ],
      [
        "o",
        -5.372294043628458
      ],
      [
        "▁state",
        -7.0902739325738295
      ],
      [
        "▁form",
        -7.100491847431804
      ],
      [
        "▁last",
        -5.769850026581193
      ],
      [
        "e",
        -2.5259902658094546
      ],
      [
        "▁get",
        -7.535760348101392
      ],
      [
        "v",
        -8.343590997408285
      ],
      [
        "v",
        -11.044964896565157
      ],
      [
        "▁h",
        -8.6111748859772
      ],
      [
        "ra",
        -6.0747980308753435
      ],
      [
        "ou",
        -4.113619871779317
      ],
      [
        "t",
        -1.365120618812556
      ],
      [
        "▁wo",
        -7.352478405662367
      ],
      [
        "'",
        -3.2953509562578676
      ],
      [
        "▁through",
        -5.566872451646352
      ],
      [
        "on",
        -5.409893816491634
      ],
      [
        "▁world",
        -6.265549455759921
      ],
      [
        "▁k",
        -6.9716547519614815
      ],
      [
        "your",
        -7.36662420479087
      ],
      [
        "z",
        -5.8897219061925705
      ],
      [
        "▁put",
        -5.617580341583281
      ],
      [
        "▁experience",
        -7.207581788727897
      ],
      [
        "▁ant",
        -7.208574966012113
      ],
      [
        "ty",
        -5.116759829219288
      ],
      [
        "i",
        -3.8283690920248956
      ],
      [
        "h",
        -3.090869574654092
      ],
      [
        "▁hand",
        -6.723031301013813
      ],
      [
        "▁government",
        -7.251542962968269
      ],
      [
        "▁whos",
        -7.655643741479455
      ],
      [
        "id",
        -6.504746141790508
      ],
      [
        "▁201",
        -3.5048978815298364
      ],
      [
        "c",
        -5.65520889630477
      ],
      [
        "▁language",
        -6.519839675131449
      ],
      [
        "ri",
        -5.892181349833204
      ],
      [
        "ame",
        -6.48065247327883
      ],
      [
        "tiona",
        -5.397350411471775
      ],
      [
        "ction",
        -6.537400797044159
      ],
      [
        "▁su",
        -5.412734575022557
      ],
      [
        "i",
        -5.195891743921663
      ],
      [
        "▁le",
        -6.346022970009012
      ],
      [
        "m",
        -4.7576336449675996
      ],
      [
        "▁",
        -1.3638307893711357
      ],
      [
        "▁space",
        -7.048903636696229
      ],
      [
        "are",
        -5.830283605413869
      ],
      [
        "u",
        -5.023611462570294
      ],
      [
        "▁s",
        -8.426435264482127
      ],
      [
        "ive",
        -4.7514790662918465
      ],
      [
        "o",
        -4.354104172686268
      ],
      [
        "’",
        -5.275169965045251
      ],
      [
        "the",
        -6.751332415888825
      ],
      [
        "▁be",
        -5.124209255408847
      ],
      [
        "st",
        -4.279915764048979
      ],
      [
        "▁ma",
        -5.904845066880752
      ],
      [
        "et",
        -7.933409568959277
      ],
      [
        "▁",
        -1.4747782116133212
      ],
      [
        "▁cit",
        -6.327066033488418
      ],
      [
        "f",
        -2.7212966895582813
      ],
      [
        "i",
        -2.133253282749468
      ],
      [
        "it",
        -5.124489546752391
      ],
      [
        "▁hav",
        -5.036765174018191
      ],
      [
        "ead",
        -5.451519235665476
      ],
      [
        "▁no",
        -6.825951876286568
      ],
      [
        "▁mean",
        -5.559113347629956
      ],
      [
        "▁mad",
        -5.704725292953532
      ],
      [
        "ter",
        -6.183835300799846
      ],
      [
        "in",
        -5.08426254851034
      ],
      [
        "us",
        -7.558572198443164
      ],
      [
        "er",
        -6.037587260190422
      ],
      [
        "x",
        -6.822362614587638
      ],
      [
        "▁1",
        -3.685650624320137
      ],
      [
        "or",
        -5.104623783614287
      ],
      [
        "▁unt",
        -8.49712424789461
      ],
      [
        "▁team",
        -6.965086452206969
      ],
      [
        "ro",
        -8.331404262082943
      ],
      [
        "through",
        -8.40912888382762
      ],
      [
        "▁to",
        -5.78929190372752
      ],
      [
        "ah",
        -3.1999803200912096
      ],
      [
        "▁result",
        -7.2515443786024285
      ],
      [
        "▁b",
        -5.484144501801622
      ],
      [
        "▁ri",
        -7.007305961305153
      ],
      [
        "t",
        -4.082589248873537
      ],
      [
        "th",
        -6.7950382600039365
      ],
      [
        "▁be",
        -3.4909699399811736
      ],
      [
        "ent",
        -6.10340369386007
      ],
      [
        "t",
        -3.17212677840532
      ],
      [
        "en",
        -6.416413463064515
      ],
      [
        "th",
        -5.655454969850582
      ],
      [
        "▁f",
        -5.838925658105928
      ],
      [
        "ove",
        -8.559344173835354
      ],
      [
        "s",
        -7.343171224524934
      ],
      [
        "ck",
        -6.5219326246769596
      ],
      [
        "▁service",
        -7.012800690094341
      ],
      [
        "um",
        -6.55946088285321
      ],
      [
        "king",
        -7.250215736958087
      ],
      [
        "▁f",
        -5.547292491879518
      ],
      [
        "▁look",
        -5.160310731047344
      ],
      [
        "▁atten",
        -7.422714132603094
      ],
      [
        "m",
        -8.689971646378083
      ],
      [
        "▁g",
        -5.72634738267291
      ],
      [
        "▁-",
        -8.290144487665776
      ],
      [
        "▁where",
        -4.829491942372701
      ],
      [
        "en",
        -5.287674076331846
      ],
      [
        "ion",
        -5.701437687020608
      ],
      [
        "ing",
        -4.774517716249061
      ],
      [
        "s",
        -2.045573364617246
      ],
      [
        "▁sai",
        -5.26026255576537
      ],
      [
        "ver",
        -6.523322049337635
      ],
      [
        "▁give",
        -5.760858951424052
      ],
      [
        "▁ra",
        -7.10922108066238
      ],
      [
        "▁sa",
        -6.611881181452996
      ],
      [
        "▁let",
        -5.625976675510211
      ],
      [
        "▁other",
        -7.37095520493064
      ],
      [
        "▁here",
        -4.712945295153403
      ],
      [
        "▁we",
        -5.202047739043486
      ],
      [
        "s",
        -2.5950008623808163
      ],
      [
        "▁take",
        -5.0823387091373755
      ],
      [
        "`",
        -10.306101843766672
      ],
      [
        "e",
        -4.498123711751313
      ],
      [
        "v",
        -5.613008809771729
      ],
      [
        "inst",
        -6.551509345101312
      ],
      [
        "▁t",
        -6.202332680898092
      ],
      [
        "e",
        -2.641809671386821
      ],
      [
        "l",
        -5.14822511480892
      ],
      [
        "▁minute",
        -6.834918243903195
      ],
      [
        "t",
        -2.184721147539917
      ],
      [
        "ment",
        -5.643507799700282
      ],
      [
        "▁la",
        -6.027572229058524
      ],
      [
        "te",
        -8.242457484558978
      ],
      [
        "▁product",
        -7.105809006989014
      ],
      [
        "▁image",
        -7.08728704538205
      ],
      [
        "o",
        -2.715884313782375
      ],
      [
        "age",
        -6.195957945550113
      ],
      [
        "▁d",
        -7.583631225373263
      ],
      [
        "▁mor",
        -5.1125316659797955
      ],
      [
        "ac",
        -6.822440025636048
      ],
      [
        "▁m",
        -5.470941991785364
      ],
      [
        "▁per",
        -7.438205549549685
      ],
      [
        "en",
        -6.288729284769598
      ],
      [
        "re",
        -5.936498072331295
      ],
      [
        "er",
        -6.144678676457095
      ],
      [
        "▁on",
        -5.613608482293001
      ],
      [
        "▁data",
        -6.849994355458601
      ],
      [
        "n",
        -2.4064996255134252
      ],
      [
        "him",
        -8.631697874562608
      ],
      [
        "▁allow",
        -6.571319103209818
      ],
      [
        "▁ag",
        -5.084567493475047
      ],
      [
        "▁pa",
        -5.619671962756453
      ],
      [
        "ance",
        -6.28805065522336
      ],
      [
        "ator",
        -7.3844072239015395
      ],
      [
        "(",
        -4.3228315021716295
      ],
      [
        "of",
        -5.998313840286214
      ],
      [
        "▁bea",
        -6.9120606405420455
      ],
      [
        "▁research",
        -6.944398621959343
      ],
      [
        "▁be",
        -3.5601666056372023
      ],
      [
        "▁theor",
        -7.067376517707602
      ],
      [
        "▁",
        -3.4188162990294773
      ],
      [
        "t",
        -3.7813088267885107
      ],
      [
        "ve",
        -7.733843813781635
      ],
      [
        "g",
        -5.183807341673724
      ],
      [
        "h",
        -5.354628483709603
      ],
      [
        "an",
        -5.320197798804208
      ],
      [
        "j",
        -5.944820376994514
      ],
      [
        "•",
        -11.30610184376667
      ],
      [
        "y",
        -6.5428769336937105
      ],
      [
        "ness",
        -6.8570220798815065
      ],
      [
        "▁studi",
        -7.3461188923194864
      ],
      [
        "▁eye",
        -7.450744652052255
      ],
      [
        "ough",
        -6.1888372195781285
      ],
      [
        "▁law",
        -7.321425963697937
      ],
      [
        "d",
        -6.679435672770685
      ],
      [
        "out",
        -5.84012599780889
      ],
      [
        "±",
        -10.523304979711416
      ],
      [
        "▁til",
        -9.114132700086191
      ],
      [
        "msel",
        -7.255595409445465
      ]
    ],
    "byte_fallback": false
  }
}