{
  "version": "1.0",
  "truncation": null,
  "padding": null,
  "added_tokens": [],
  "normalizer": {
    "type": "Sequence",
    "normalizers": [
      {
        "type": "NFD"
      },
      {
        "type": "Lowercase"
      },
      {
        "type": "StripAccents"
      }
    ]
  },
  "pre_tokenizer": {
    "type": "Sequence",
    "pretokenizers": [
      {
        "type": "Metaspace",
        "replacement": "▁",
        "prepend_scheme": "always",
        "split": true
      }
    ]
  },
  "post_processor": {
    "type": "TemplateProcessing",
    "single": [
      {
        "SpecialToken": {
          "id": "[CLS]",
          "type_id": 0
        }
      },
      {
        "Sequence": {
          "id": "A",
          "type_id": 0
        }
      },
      {
        "SpecialToken": {
          "id": "[SEP]",
          "type_id": 0
        }
      }
    ],
    "pair": [
      {
        "SpecialToken": {
          "id": "[CLS]",
          "type_id": 0
        }
      },
      {
        "Sequence": {
          "id": "A",
          "type_id": 0
        }
      },
      {
        "SpecialToken": {
          "id": "[SEP]",
          "type_id": 0
        }
      },
      {
        "Sequence": {
          "id": "B",
          "type_id": 1
        }
      },
      {
        "SpecialToken": {
          "id": "[SEP]",
          "type_id": 1
        }
      }
    ],
    "special_tokens": {
      "[CLS]": {
        "id": "[CLS]",
        "ids": [
          508
        ],
        "tokens": [
          "[CLS]"
        ]
      },
      "[SEP]": {
        "id": "[SEP]",
        "ids": [
          298
        ],
        "tokens": [
          "[SEP]"
        ]
      }
    }
  },
  "decoder": {
    "type": "Metaspace",
    "replacement": "▁",
    "prepend_scheme": "always",
    "split": true
  },
  "model": {
    "type": "BPE",
    "dropout": null,
    "unk_token": "[UNK]",
    "continuing_subword_prefix": null,
    "end_of_word_suffix": null,
    "fuse_unk": false,
    "byte_fallback": false,
    "ignore_merges": false,
    "vocab": {
      "▁any": 0,
      "▁ev": 1,
      "▁fiel": 2,
      "▁ind": 3,
      "ner": 4,
      "▁it": 5,
      "▁another": 6,
      "▁inc": 7,
      "▁cup": 8,
      "▁peop": 9,
      "ated": 10,
      "▁language": 11,
      "ge": 12,
      "itch": 13,
      "re": 14,
      "▁one": 15,
      "▁her": 16,
      "▁kind": 17,
      "▁root": 18,
      "º": 19,
      "av": 20,
      "ass": 21,
      "hal": 22,
      "▁ourselves": 23,
      "▁/": 24,
      "▁prob": 25,
      "▁group": 26,
      "red": 27,
      "1": 28,
      "ces": 29,
      "..": 30,
      "ected": 31,
      "sed": 32,
      "5": 33,
      "for": 34,
      "ʒ": 35,
      "ne": 36,
      "ward": 37,
      "b": 38,
      "•": 39,
      "▁hal": 40,
      "▁aft": 41,
      "°": 42,
      "²": 43,
      "▁months": 44,
      "▁'": 45,
      "▁—": 46,
      "u": 47,
      "▁hour": 48,
      "acy": 49,
      "up": 50,
      "=": 51,
      "▁dec": 52,
      "uch": 53,
      "ro": 54,
      "▁su": 55,
      "▁everything": 56,
      "hin": 57,
      "▁cont": 58,
      "▁sch": 59,
      "oth": 60,
      "iew": 61,
      "▁through": 62,
      "▁sc": 63,
      "▁!": 64,
      "ak": 65,
      "ign": 66,
      "▁o": 67,
      "ear": 68,
      "▁if": 69,
      "▁tho": 70,
      "ue": 71,
      "▁around": 72,
      "▁an": 73,
      "side": 74,
      "▁end": 75,
      "round": 76,
      "▁l": 77,
      "▁some": 78,
      "▁time": 79,
      "ok": 80,
      "ab": 81,
      "ted": 82,
      "▁dow": 83,
      "ol": 84,
      "▁met": 85,
      "▁for": 86,
      "]": 87,
      "ire": 88,
      "els": 89,
      "ation": 90,
      "▁bre": 91,
      "ety": 92,
      "▁water": 93,
      "▁produc": 94,
      "ot": 95,
      "$": 96,
      ",": 97,
      "enc": 98,
      "2": 99,
      "▁culture": 100,
      "gh": 101,
      "lec": 102,
      "ands": 103,
      "▁pr": 104,
      "▁vide": 105,
      "▁vis": 106,
      "▁fl": 107,
      "▁art": 108,
      "!": 109,
      "▁think": 110,
      "il": 111,
      "▁(": 112,
      "▁via": 113,
      "▁bec": 114,
      "▁famil": 115,
      "ig": 116,
      "ight": 117,
      "h": 118,
      "ned": 119,
      "▁comm": 120,
      "ators": 121,
      "yp": 122,
      "▁throu": 123,
      "±": 124,
      "et": 125,
      "est": 126,
      "ter": 127,
      "▁month": 128,
      "▁name": 129,
      "▁pers": 130,
      "▁rel": 131,
      "▁image": 132,
      "uth": 133,
      "ea": 134,
      "▁po": 135,
      "▁see": 136,
      "ks": 137,
      "cause": 138,
      "▁j": 139,
      "▁is": 140,
      "ie": 141,
      "▁video": 142,
      "▁into": 143,
      "▁bro": 144,
      "▁between": 145,
      "▁ro": 146,
      "ain": 147,
      "▁mo": 148,
      "ded": 149,
      "ook": 150,
      "▁down": 151,
      "als": 152,
      "▁at": 153,
      "tin": 154,
      "▁off": 155,
      "▁such": 156,
      "▁will": 157,
      "▁ne": 158,
      "▁near": 159,
      "▁experience": 160,
      "yond": 161,
      "▁[": 162,
      "▁place": 163,
      "▁fam": 164,
      "▁ad": 165,
      "ʁ": 166,
      "lem": 167,
      ")": 168,
      "▁the": 169,
      "▁[...]": 170,
      "di": 171,
      "o": 172,
      "▁gr": 173,
      "ity": 174,
      "▁sea": 175,
      "▁person": 176,
      "▁put": 177,
      "▁‘": 178,
      "ure": 179,
      "ense": 180,
      "if": 181,
      "iel": 182,
      "s": 183,
      "▁onto": 184,
      "bl": 185,
      "-": 186,
      "selves": 187,
      "▁we": 188,
      "▁quality": 189,
      "▁ar": 190,
      "ory": 191,
      "▁despite": 192,
      "[PAD]": 193,
      "▁itself": 194,
      "ld": 195,
      "▁;": 196,
      "air": 197,
      "▁call": 198,
      "▁do": 199,
      "▁somebody": 200,
      "▁mod": 201,
      "▁liv": 202,
      "▁med": 203,
      "▁or": 204,
      "ore": 205,
      "fl": 206,
      "▁himself": 207,
      "urn": 208,
      "▁make": 209,
      "ature": 210,
      "ked": 211,
      "[MASK]": 212,
      "▁sin": 213,
      "▁before": 214,
      "▁way": 215,
      "▁fro": 216,
      "▁has": 217,
      "ome": 218,
      "ut": 219,
      "lly": 220,
      "ip": 221,
      "ence": 222,
      "▁mov": 223,
      "▁cons": 224,
      "▁anything": 225,
      "fer": 226,
      "[UNK]": 227,
      "res": 228,
      "_": 229,
      "plication": 230,
      "ating": 231,
      "▁show": 232,
      "▁things": 233,
      "▁case": 234,
      "ds": 235,
      "▁ag": 236,
      "ac": 237,
      "▁anyone": 238,
      "▁word": 239,
      "ema": 240,
      "▁sho": 241,
      "wor": 242,
      "▁wit": 243,
      "—": 244,
      "▁behind": 245,
      "oor": 246,
      "other": 247,
      "▁mor": 248,
      "▁game": 249,
      "x": 250,
      "ik": 251,
      "r": 252,
      "▁to": 253,
      "▁\"": 254,
      "▁…": 255,
      "self": 256,
      "▁use": 257,
      "▁find": 258,
      "▁work": 259,
      "▁lot": 260,
      "▁need": 261,
      "▁isl": 262,
      "▁would": 263,
      "▁age": 264,
      "▁system": 265,
      "ay": 266,
      "▁’s": 267,
      "▁diff": 268,
      "uc": 269,
      "▁f": 270,
      "urin": 271,
      "▁str": 272,
      "der": 273,
      "ow": 274,
      "▁bit": 275,
      "“": 276,
      "▁days": 277,
      "▁n't": 278,
      "&": 279,
      "▁life": 280,
      "▁history": 281,
      "▁minut": 282,
      "▁und": 283,
      "▁tech": 284,
      "tor": 285,
      "▁stat": 286,
      "ience": 287,
      "lev": 288,
      "▁qu": 289,
      "▁space": 290,
      "ong": 291,
      "▁neither": 292,
      "alf": 293,
      "▁k": 294,
      "ould": 295,
      "z": 296,
      "▁day": 297,
      "[SEP]": 298,
      "▁they": 299,
      "▁thing": 300,
      "▁these": 301,
      "▁y": 302,
      "▁above": 303,
      "▁bo": 304,
      "over": 305,
      "▁concep": 306,
      "t": 307,
      "ose": 308,
      "▁'s": 309,
      "’s": 310,
      "▁cap": 311,
      "und": 312,
      "ection": 313,
      "▁since": 314,
      "▁@": 315,
      "▁this": 316,
      "▁those": 317,
      "▁u": 318,
      "▁get": 319,
      "rou": 320,
      "▁s/he": 321,
      "ugh": 322,
      "ason": 323,
      "pt": 324,
      "ε": 325,
      "▁except": 326,
      "▁form": 327,
      "ou": 328,
      "bo": 329,
      "ber": 330,
      "▁par": 331,
      "▁man": 332,
      "ist": 333,
      "▁ac": 334,
      "ub": 335,
      "ght": 336,
      "▁head": 337,
      "▁mar": 338,
      "▁gen": 339,
      "▁across": 340,
      "ting": 341,
      "▁ou": 342,
      "port": 343,
      "▁pos": 344,
      "ate": 345,
      "ues": 346,
      "▁step": 347,
      "▁com": 348,
      "▁meth": 349,
      "others": 350,
      "hen": 351,
      "▁op": 352,
      "▁know": 353,
      "'t": 354,
      "’": 355,
      "▁ours": 356,
      "▁let": 357,
      "ystem": 358,
      "▁sp": 359,
      "▁pe": 360,
      "amp": 361,
      "ion": 362,
      "ens": 363,
      "ec": 364,
      "▁e": 365,
      "▁their": 366,
      "▁along": 367,
      "ib": 368,
      "ud": 369,
      "▁h": 370,
      "▁wr": 371,
      "uff": 372,
      "pl": 373,
      "▁acro": 374,
      "ower": 375,
      "▁city": 376,
      "▁all": 377,
      "▁during": 378,
      "ech": 379,
      "ake": 380,
      "▁me": 381,
      "▁look": 382,
      "all": 383,
      "▁star": 384,
      "ti": 385,
      "tiv": 386,
      "ex": 387,
      "▁c": 388,
      "▁there": 389,
      "▁cent": 390,
      "hip": 391,
      "▁fr": 392,
      "`": 393,
      "▁cre": 394,
      "@": 395,
      "ott": 396,
      "9": 397,
      "▁child": 398,
      "ects": 399,
      "▁problem": 400,
      "ast": 401,
      "it": 402,
      "form": 403,
      "▁whom": 404,
      "ames": 405,
      "me": 406,
      "ants": 407,
      "tion": 408,
      "like": 409,
      "ic": 410,
      "▁“": 411,
      "▁fo": 412,
      "▁char": 413,
      "an": 414,
      "ife": 415,
      "m": 416,
      "▁years": 417,
      "▁go": 418,
      "▁both": 419,
      "▁can": 420,
      "ons": 421,
      "▁ques": 422,
      "▁": 423,
      "er": 424,
      "g": 425,
      "▁comp": 426,
      "▁tod": 427,
      "▁al": 428,
      "se": 429,
      "iz": 430,
      "ines": 431,
      "n": 432,
      "▁side": 433,
      "▁langu": 434,
      "▁hea": 435,
      "tics": 436,
      "▁class": 437,
      "[": 438,
      "ities": 439,
      "▁exp": 440,
      "β": 441,
      "od": 442,
      "f": 443,
      "ort": 444,
      "a": 445,
      "iter": 446,
      "▁in": 447,
      "▁–": 448,
      "▁gro": 449,
      "um": 450,
      "▁part": 451,
      "▁im": 452,
      "ath": 453,
      "▁myself": 454,
      ";": 455,
      "ication": 456,
      "▁towards": 457,
      "▁someone": 458,
      "oc": 459,
      "▁cro": 460,
      "▁tr": 461,
      "▁col": 462,
      "▁re": 463,
      "▁fac": 464,
      "▁had": 465,
      "▁id": 466,
      "sin": 467,
      "erv": 468,
      "thing": 469,
      "▁soc": 470,
      "▁again": 471,
      "▁bu": 472,
      "ver": 473,
      "▁over": 474,
      "ve": 475,
      "ʃ": 476,
      "▁g": 477,
      "ri": 478,
      "▁something": 479,
      "titu": 480,
      "ul": 481,
      "▁sa": 482,
      "ca": 483,
      "▁said": 484,
      "▁was": 485,
      "▁att": 486,
      "ness": 487,
      "▁going": 488,
      "▁our": 489,
      "ited": 490,
      "æ": 491,
      "l": 492,
      "▁bus": 493,
      "duc": 494,
      "▁des": 495,
      "king": 496,
      "use": 497,
      "▁mean": 498,
      "▁abo": 499,
      "▁half": 500,
      "bs": 501,
      ":": 502,
      "sing": 503,
      "▁ho": 504,
      "(": 505,
      "ition": 506,
      "thin": 507,
      "[CLS]": 508,
      "ive": 509,
      "▁rec": 510,
      "▁who": 511,
      "▁us": 512,
      "▁*": 513,
      ".": 514,
      "▁words": 515,
      "▁study": 516,
      "eve": 517,
      "▁by": 518,
      "▁ca": 519,
      "til": 520,
      "▁want": 521,
      "▁serv": 522,
      "▁en": 523,
      "i": 524,
      "ess": 525,
      "▁’": 526,
      "*": 527,
      "▁hand": 528,
      "▁perc": 529,
      "▁ap": 530,
      "ə": 531,
      "▁n": 532,
      "▁ex": 533,
      "iv": 534,
      "▁family": 535,
      "ator": 536,
      "out": 537,
      "▁ya": 538,
      "▁wee": 539,
      "ch": 540,
      "▁but": 541,
      "▁,": 542,
      "ught": 543,
      "▁friends": 544,
      "▁against": 545,
      "ution": 546,
      "ult": 547,
      "▁v": 548,
      "▁stud": 549,
      "ism": 550,
      "ention": 551,
      "per": 552,
      "▁coun": 553,
      "▁cr": 554,
      "ink": 555,
      "▁that": 556,
      "ish": 557,
      "▁imp": 558,
      "een": 559,
      "ell": 560,
      "▁befor": 561,
      "▁no": 562,
      "▁he": 563,
      "▁about": 564,
      "ine": 565,
      "▁from": 566,
      "▁term": 567,
      "wit": 568,
      "▁everyone": 569,
      "earch": 570,
      "▁:": 571,
      "▁cour": 572,
      "▁after": 573,
      "id": 574,
      "ments": 575,
      "am": 576,
      "▁so": 577,
      "▁school": 578,
      "our": 579,
      "4": 580,
      "▁val": 581,
      "ts": 582,
      "ag": 583,
      "ss": 584,
      "in": 585,
      "to": 586,
      "#": 587,
      "▁team": 588,
      "ool": 589,
      "op": 590,
      "▁whose": 591,
      "formation": 592,
      "\"": 593,
      "ar": 594,
      "▁you": 595,
      "ury": 596,
      "co": 597,
      "▁whatever": 598,
      "▁a": 599,
      "▁am": 600,
      "▁le": 601,
      "ack": 602,
      "ance": 603,
      "▁ins": 604,
      "ied": 605,
      "nd": 606,
      "ame": 607,
      "▁ph": 608,
      "ir": 609,
      "▁mom": 610,
      "ment": 611,
      "les": 612,
      "tr": 613,
      "ans": 614,
      "ur": 615,
      "▁jo": 616,
      "▁bir": 617,
      "no": 618,
      "gain": 619,
      "▁ab": 620,
      "▁la": 621,
      "▁be": 622,
      "at": 623,
      "▁-": 624,
      "y": 625,
      "angu": 626,
      "▁]": 627,
      "en": 628,
      "both": 629,
      "▁poin": 630,
      "▁everybody": 631,
      "ased": 632,
      "cept": 633,
      "em": 634,
      "8": 635,
      "▁area": 636,
      "▁leg": 637,
      "▁interest": 638,
      "rol": 639,
      "ends": 640,
      "ount": 641,
      "▁th": 642,
      "ɛ": 643,
      "▁con": 644,
      "ood": 645,
      "▁kn": 646,
      "▁disc": 647,
      "▁behin": 648,
      "ings": 649,
      "▁are": 650,
      "▁pro": 651,
      "▁war": 652,
      "▁guys": 653,
      "c": 654,
      "▁bas": 655,
      "its": 656,
      "oun": 657,
      "▁view": 658,
      "▁bott": 659,
      "ra": 660,
      "ug": 661,
      "▁up": 662,
      "▁min": 663,
      "▁lead": 664,
      "▁line": 665,
      "▁yourself": 666,
      "▁..": 667,
      "▁theory": 668,
      "▁his": 669,
      "▁beyond": 670,
      "vel": 671,
      "▁times": 672,
      "tit": 673,
      "▁as": 674,
      "ies": 675,
      "▁others": 676,
      "▁take": 677,
      "body": 678,
      "▁dr": 679,
      "eed": 680,
      "one": 681,
      "▁fri": 682,
      "▁question": 683,
      "ble": 684,
      "os": 685,
      "ee": 686,
      "▁te": 687,
      "▁ever": 688,
      "0": 689,
      "ject": 690,
      "el": 691,
      "▁un": 692,
      "3": 693,
      "ˈ": 694,
      "▁say": 695,
      "/": 696,
      "▁de": 697,
      "▁eff": 698,
      "orts": 699,
      "ying": 700,
      "▁gra": 701,
      "▁today": 702,
      "ology": 703,
      "ph": 704,
      "llow": 705,
      "▁not": 706,
      "igh": 707,
      "▁br": 708,
      "p": 709,
      "pr": 710,
      "ors": 711,
      "▁quite": 712,
      "ad": 713,
      "▁she": 714,
      "▁process": 715,
      "ding": 716,
      "oo": 717,
      "ap": 718,
      "▁year": 719,
      "▁nobody": 720,
      "is": 721,
      "ang": 722,
      "ulture": 723,
      "pite": 724,
      "▁set": 725,
      "ization": 726,
      "'": 727,
      "▁minutes": 728,
      "▁until": 729,
      "ories": 730,
      "▁betw": 731,
      "lu": 732,
      "▁)": 733,
      "▁it's": 734,
      "6": 735,
      "▁than": 736,
      "ither": 737,
      "▁nothing": 738,
      "ree": 739,
      "▁rev": 740,
      "▁toward": 741,
      "ep": 742,
      "▁within": 743,
      "▁wom": 744,
      "ality": 745,
      "▁of": 746,
      "▁information": 747,
      "▁differ": 748,
      "ile": 749,
      "es": 750,
      "ty": 751,
      "▁country": 752,
      "▁cas": 753,
      "▁air": 754,
      "ters": 755,
      "▁m": 756,
      "▁trans": 757,
      "▁app": 758,
      "▁basil": 759,
      "▁commun": 760,
      "▁upon": 761,
      "▁without": 762,
      "ility": 763,
      "▁typ": 764,
      "olog": 765,
      "▁fe": 766,
      "ights": 767,
      "▁sec": 768,
      "▁per": 769,
      "ent": 770,
      "orm": 771,
      "erm": 772,
      "▁give": 773,
      "ond": 774,
      "ll": 775,
      "▁.": 776,
      "▁car": 777,
      "▁resp": 778,
      "j": 779,
      "▁night": 780,
      "▁which": 781,
      "▁land": 782,
      "st": 783,
      "sel": 784,
      "w": 785,
      "▁because": 786,
      "▁di": 787,
      "▁dat": 788,
      "▁sub": 789,
      "om": 790,
      "wh": 791,
      "age": 792,
      "▁theirs": 793,
      "▁them": 794,
      "ild": 795,
      "▁themselves": 796,
      "ids": 797,
      "▁world": 798,
      "ith": 799,
      "ard": 800,
      "▁dis": 801,
      "og": 802,
      "ater": 803,
      "▁d": 804,
      "▁him": 805,
      "try": 806,
      "▁se": 807,
      "ick": 808,
      "ian": 809,
      "▁wan": 810,
      "▁interv": 811,
      "▁exper": 812,
      "ving": 813,
      "he": 814,
      "iti": 815,
      "▁s": 816,
      "ft": 817,
      "or": 818,
      "▁were": 819,
      "ia": 820,
      "…": 821,
      "▁people": 822,
      "μ": 823,
      "▁herself": 824,
      "▁fact": 825,
      "▁li": 826,
      "▁t": 827,
      "▁fin": 828,
      "▁sur": 829,
      "▁sup": 830,
      "ce": 831,
      ".]": 832,
      "▁hist": 833,
      "▁tim": 834,
      "▁have": 835,
      "either": 836,
      "k": 837,
      "as": 838,
      "‘": 839,
      "be": 840,
      "ations": 841,
      "ages": 842,
      "▁used": 843,
      "–": 844,
      "ys": 845,
      "▁b": 846,
      "enti": 847,
      "▁inter": 848,
      "un": 849,
      "▁tak": 850,
      "▁home": 851,
      "ativ": 852,
      "tem": 853,
      "▁p": 854,
      "▁lo": 855,
      "▁under": 856,
      "ant": 857,
      "ning": 858,
      "▁...": 859,
      "ɔ": 860,
      "on": 861,
      "▁ha": 862,
      "ere": 863,
      "▁cl": 864,
      "v": 865,
      "ind": 866,
      "▁sh": 867,
      "▁made": 868,
      "ed": 869,
      "gr": 870,
      "▁add": 871,
      "▁?": 872,
      "▁inside": 873,
      "▁box": 874,
      "▁its": 875,
      "ice": 876,
      "7": 877,
      "▁i": 878,
      "ite": 879,
      "▁out": 880,
      "▁”": 881,
      "▁wor": 882,
      "ρ": 883,
      "ade": 884,
      "▁anybody": 885,
      "cep": 886,
      "▁sk": 887,
      "ions": 888,
      "▁res": 889,
      "▁throughout": 890,
      "ov": 891,
      "”": 892,
      "▁num": 893,
      "▁yours": 894,
      "ke": 895,
      "rin": 896,
      "▁your": 897,
      "ace": 898,
      "cess": 899,
      "ivers": 900,
      "▁and": 901,
      "▁gl": 902,
      "ich": 903,
      "▁mem": 904,
      "ices": 905,
      "▁st": 906,
      "▁gu": 907,
      "▁with": 908,
      "tions": 909,
      "▁r": 910,
      "▁tra": 911,
      "e": 912,
      "▁among": 913,
      "/he": 914,
      "ł": 915,
      "te": 916,
      "ide": 917,
      "ency": 918,
      "im": 919,
      "ɑ": 920,
      "ample": 921,
      "▁gover": 922,
      "▁got": 923,
      "▁--": 924,
      "ly": 925,
      "ures": 926,
      "▁durin": 927,
      "own": 928,
      "ics": 929,
      "▁light": 930,
      "ved": 931,
      "▁method": 932,
      "ered": 933,
      "ences": 934,
      "end": 935,
      "us": 936,
      "ach": 937,
      "▁wh": 938,
      "tic": 939,
      "▁bl": 940,
      "ture": 941,
      "▁w": 942,
      "ry": 943,
      "▁unlike": 944,
      "▁my": 945,
      "▁like": 946,
      "th": 947,
      "▁example": 948,
      "▁chan": 949,
      "▁on": 950,
      "▁pu": 951,
      "▁either": 952,
      "▁anoth": 953,
      "dy": 954,
      "▁pl": 955,
      "▁number": 956,
      "▁ch": 957,
      "▁loc": 958,
      "ents": 959,
      "ʊ": 960,
      "ø": 961,
      "ill": 962,
      "ect": 963,
      "ement": 964,
      "?": 965,
      "▁pol": 966,
      "▁each": 967,
      "'s": 968,
      "al": 969,
      "▁what": 970,
      "ers": 971,
      "▁data": 972,
      "▁co": 973,
      "+": 974,
      "ws": 975,
      "▁mon": 976,
      "q": 977,
      "▁[..": 978,
      "and": 979,
      "▁pa": 980,
      "▁room": 981,
      "tw": 982,
      "cro": 983,
      "tim": 984,
      "▁every": 985,
      "ι": 986,
      "▁em": 987,
      "lik": 988,
      "qu": 989,
      "▁research": 990,
      "d": 991,
      "▁govern": 992,
      "ves": 993,
      "pp": 994,
      "ail": 995,
      "ing": 996,
      "le": 997,
      "ever": 998,
      "ff": 999
    },
    "merges": [
      [
        "u",
        "ght"
      ],
      [
        "at",
        "ed"
      ],
      [
        "▁",
        "\""
      ],
      [
        "▁l",
        "i"
      ],
      [
        "ic",
        "e"
      ],
      [
        "al",
        "s"
      ],
      [
        "▁res",
        "earch"
      ],
      [
        "▁w",
        "e"
      ],
      [
        "o",
        "r"
      ],
      [
        "▁p",
        "er"
      ],
      [
        "i",
        "st"
      ],
      [
        "enc",
        "es"
      ],
      [
        "▁l",
        "ine"
      ],
      [
        "▁com",
        "p"
      ],
      [
        "s",
        "t"
      ],
      [
        "▁p",
        "ar"
      ],
      [
        "▁of",
        "f"
      ],
      [
        "▁up",
        "on"
      ],
      [
        "v",
        "er"
      ],
      [
        "e",
        "t"
      ],
      [
        "▁p",
        "ers"
      ],
      [
        "ens",
        "e"
      ],
      [
        "i",
        "v"
      ],
      [
        "i",
        "ds"
      ],
      [
        "▁s",
        "a"
      ],
      [
        "▁num",
        "ber"
      ],
      [
        "i",
        "te"
      ],
      [
        "s",
        "s"
      ],
      [
        "e",
        "n"
      ],
      [
        "e",
        "s"
      ],
      [
        "▁",
        "out"
      ],
      [
        "▁an",
        "oth"
      ],
      [
        "ic",
        "k"
      ],
      [
        "▁meth",
        "od"
      ],
      [
        "▁ho",
        "me"
      ],
      [
        "▁vide",
        "o"
      ],
      [
        "▁bo",
        "x"
      ],
      [
        "▁your",
        "self"
      ],
      [
        "▁gover",
        "n"
      ],
      [
        "▁sin",
        "ce"
      ],
      [
        "e",
        "p"
      ],
      [
        "▁mon",
        "th"
      ],
      [
        "▁re",
        "v"
      ],
      [
        "▁r",
        "es"
      ],
      [
        "▁tod",
        "ay"
      ],
      [
        "b",
        "er"
      ],
      [
        "eve",
        "r"
      ],
      [
        "▁m",
        "on"
      ],
      [
        "▁",
        "f"
      ],
      [
        "o",
        "ver"
      ],
      [
        "▁y",
        "ear"
      ],
      [
        "▁th",
        "ings"
      ],
      [
        "▁h",
        "o"
      ],
      [
        "▁'",
        "s"
      ],
      [
        "▁’",
        "s"
      ],
      [
        "▁sh",
        "ow"
      ],
      [
        "u",
        "t"
      ],
      [
        "▁i",
        "t"
      ],
      [
        "▁fin",
        "d"
      ],
      [
        "▁dis",
        "c"
      ],
      [
        "p",
        "t"
      ],
      [
        "▁o",
        "ver"
      ],
      [
        "▁m",
        "od"
      ],
      [
        "▁",
        "us"
      ],
      [
        "▁st",
        "ud"
      ],
      [
        "a",
        "k"
      ],
      [
        "u",
        "n"
      ],
      [
        "er",
        "v"
      ],
      [
        "if",
        "e"
      ],
      [
        "u",
        "s"
      ],
      [
        "gh",
        "t"
      ],
      [
        "▁b",
        "re"
      ],
      [
        "▁ha",
        "s"
      ],
      [
        "a",
        "ll"
      ],
      [
        "▁w",
        "ould"
      ],
      [
        "▁o",
        "n"
      ],
      [
        "r",
        "ee"
      ],
      [
        "f",
        "t"
      ],
      [
        "h",
        "ip"
      ],
      [
        "u",
        "p"
      ],
      [
        "▁",
        "or"
      ],
      [
        "a",
        "ir"
      ],
      [
        "p",
        "p"
      ],
      [
        "▁wh",
        "o"
      ],
      [
        "▁s",
        "tr"
      ],
      [
        "▁a",
        "l"
      ],
      [
        "▁t",
        "ra"
      ],
      [
        "amp",
        "le"
      ],
      [
        "▁be",
        "hin"
      ],
      [
        "ang",
        "u"
      ],
      [
        "▁t",
        "yp"
      ],
      [
        "▁r",
        "el"
      ],
      [
        "or",
        "t"
      ],
      [
        "▁the",
        "se"
      ],
      [
        "▁g",
        "ot"
      ],
      [
        "j",
        "ect"
      ],
      [
        "or",
        "s"
      ],
      [
        "▁t",
        "o"
      ],
      [
        "▁ab",
        "o"
      ],
      [
        "w",
        "ard"
      ],
      [
        "▁n",
        "either"
      ],
      [
        "▁l",
        "ot"
      ],
      [
        "▁",
        ","
      ],
      [
        "o",
        "ok"
      ],
      [
        "▁",
        "?"
      ],
      [
        "i",
        "d"
      ],
      [
        "ov",
        "er"
      ],
      [
        "▁[..",
        ".]"
      ],
      [
        "▁f",
        "ro"
      ],
      [
        "r",
        "e"
      ],
      [
        "▁be",
        "for"
      ],
      [
        "▁",
        "d"
      ],
      [
        "e",
        "ar"
      ],
      [
        "n",
        "ess"
      ],
      [
        "▁",
        "e"
      ],
      [
        "ag",
        "e"
      ],
      [
        "/",
        "he"
      ],
      [
        "▁s",
        "he"
      ],
      [
        "▁",
        "g"
      ],
      [
        "▁",
        "it"
      ],
      [
        "▁be",
        "tw"
      ],
      [
        "▁l",
        "o"
      ],
      [
        "▁th",
        "o"
      ],
      [
        "c",
        "ess"
      ],
      [
        "ic",
        "s"
      ],
      [
        "u",
        "ch"
      ],
      [
        "▁c",
        "ent"
      ],
      [
        "▁t",
        "r"
      ],
      [
        "▁fro",
        "m"
      ],
      [
        "tr",
        "y"
      ],
      [
        "▁h",
        "a"
      ],
      [
        "e",
        "st"
      ],
      [
        "p",
        "er"
      ],
      [
        "▁stud",
        "y"
      ],
      [
        "y",
        "p"
      ],
      [
        "▁dat",
        "a"
      ],
      [
        "▁l",
        "iv"
      ],
      [
        "o",
        "od"
      ],
      [
        "▁any",
        "body"
      ],
      [
        "i",
        "k"
      ],
      [
        "▁t",
        "h"
      ],
      [
        "▁j",
        "o"
      ],
      [
        "f",
        "er"
      ],
      [
        "a",
        "b"
      ],
      [
        "i",
        "ll"
      ],
      [
        "u",
        "gh"
      ],
      [
        "▁on",
        "to"
      ],
      [
        "▁",
        "w"
      ],
      [
        "a",
        "r"
      ],
      [
        "▁wor",
        "ld"
      ],
      [
        "s",
        "in"
      ],
      [
        "k",
        "e"
      ],
      [
        "olog",
        "y"
      ],
      [
        "▁in",
        "s"
      ],
      [
        "▁their",
        "s"
      ],
      [
        "▁tr",
        "ans"
      ],
      [
        "oth",
        "er"
      ],
      [
        "▁with",
        "out"
      ],
      [
        "▁s",
        "ystem"
      ],
      [
        "▁w",
        "as"
      ],
      [
        "▁d",
        "i"
      ],
      [
        "a",
        "y"
      ],
      [
        "n",
        "o"
      ],
      [
        "▁so",
        "me"
      ],
      [
        "▁met",
        "h"
      ],
      [
        "ti",
        "m"
      ],
      [
        "os",
        "e"
      ],
      [
        "▁",
        "'s"
      ],
      [
        "t",
        "ure"
      ],
      [
        "▁who",
        "se"
      ],
      [
        "▁e",
        "m"
      ],
      [
        "el",
        "l"
      ],
      [
        "c",
        "o"
      ],
      [
        "ak",
        "e"
      ],
      [
        "▁ro",
        "ot"
      ],
      [
        "▁b",
        "ir"
      ],
      [
        "t",
        "il"
      ],
      [
        "at",
        "ing"
      ],
      [
        "p",
        "ort"
      ],
      [
        "a",
        "c"
      ],
      [
        "▁b",
        "ec"
      ],
      [
        "or",
        "ts"
      ],
      [
        "▁l",
        "a"
      ],
      [
        "▁a",
        "n"
      ],
      [
        "is",
        "m"
      ],
      [
        "▁res",
        "p"
      ],
      [
        "i",
        "m"
      ],
      [
        "ac",
        "y"
      ],
      [
        "ce",
        "ss"
      ],
      [
        "▁qu",
        "es"
      ],
      [
        "▁g",
        "ame"
      ],
      [
        "▁g",
        "over"
      ],
      [
        "▁",
        "m"
      ],
      [
        "▁o",
        "f"
      ],
      [
        "▁m",
        "om"
      ],
      [
        "▁w",
        "ar"
      ],
      [
        "ve",
        "r"
      ],
      [
        "al",
        "ity"
      ],
      [
        "▁f",
        "or"
      ],
      [
        "▁qu",
        "ite"
      ],
      [
        "o",
        "nd"
      ],
      [
        "▁",
        "ex"
      ],
      [
        "en",
        "ti"
      ],
      [
        "ac",
        "e"
      ],
      [
        "ult",
        "ure"
      ],
      [
        "h",
        "e"
      ],
      [
        "▁c",
        "ol"
      ],
      [
        "▁t",
        "im"
      ],
      [
        "▁",
        "le"
      ],
      [
        "▁",
        "ou"
      ],
      [
        "o",
        "or"
      ],
      [
        "as",
        "on"
      ],
      [
        "i",
        "b"
      ],
      [
        "▁every",
        "thing"
      ],
      [
        "c",
        "h"
      ],
      [
        "▁a",
        "gain"
      ],
      [
        "ear",
        "ch"
      ],
      [
        "▁",
        "t"
      ],
      [
        "e",
        "d"
      ],
      [
        "▁tim",
        "e"
      ],
      [
        "i",
        "r"
      ],
      [
        "▁",
        "both"
      ],
      [
        "in",
        "d"
      ],
      [
        "▁",
        "…"
      ],
      [
        "in",
        "e"
      ],
      [
        "▁durin",
        "g"
      ],
      [
        "▁b",
        "o"
      ],
      [
        "▁p",
        "o"
      ],
      [
        "▁",
        "id"
      ],
      [
        "▁",
        "/"
      ],
      [
        "in",
        "g"
      ],
      [
        "▁u",
        "nd"
      ],
      [
        "a",
        "me"
      ],
      [
        "▁",
        "s"
      ],
      [
        "l",
        "d"
      ],
      [
        "▁",
        "ne"
      ],
      [
        "▁prob",
        "lem"
      ],
      [
        "at",
        "ion"
      ],
      [
        "▁n",
        "ot"
      ],
      [
        "▁",
        ":"
      ],
      [
        "l",
        "e"
      ],
      [
        "er",
        "m"
      ],
      [
        "▁",
        "is"
      ],
      [
        "ti",
        "c"
      ],
      [
        "it",
        "y"
      ],
      [
        "▁",
        "–"
      ],
      [
        "▁mo",
        "d"
      ],
      [
        "is",
        "h"
      ],
      [
        "▁l",
        "oc"
      ],
      [
        "▁s",
        "u"
      ],
      [
        "▁toward",
        "s"
      ],
      [
        "it",
        "h"
      ],
      [
        "▁",
        "p"
      ],
      [
        "▁f",
        "e"
      ],
      [
        "▁d",
        "ec"
      ],
      [
        "▁[",
        ".."
      ],
      [
        "n",
        "ed"
      ],
      [
        "a",
        "th"
      ],
      [
        "ot",
        "h"
      ],
      [
        "e",
        "en"
      ],
      [
        "ac",
        "k"
      ],
      [
        "▁d",
        "ay"
      ],
      [
        "▁f",
        "ac"
      ],
      [
        "▁",
        "others"
      ],
      [
        "an",
        "g"
      ],
      [
        "▁f",
        "iel"
      ],
      [
        "c",
        "a"
      ],
      [
        "▁b",
        "r"
      ],
      [
        "▁some",
        "body"
      ],
      [
        "u",
        "d"
      ],
      [
        "▁t",
        "od"
      ],
      [
        "o",
        "g"
      ],
      [
        "▁y",
        "a"
      ],
      [
        "▁s",
        "ide"
      ],
      [
        "▁c",
        "as"
      ],
      [
        "am",
        "e"
      ],
      [
        "▁peop",
        "le"
      ],
      [
        "▁con",
        "cep"
      ],
      [
        "▁",
        "("
      ],
      [
        "e",
        "ll"
      ],
      [
        "i",
        "c"
      ],
      [
        "▁b",
        "y"
      ],
      [
        "b",
        "o"
      ],
      [
        "ec",
        "tion"
      ],
      [
        "e",
        "ither"
      ],
      [
        "k",
        "s"
      ],
      [
        "i",
        "ed"
      ],
      [
        "it",
        "ed"
      ],
      [
        "i",
        "a"
      ],
      [
        "ug",
        "h"
      ],
      [
        "▁minut",
        "es"
      ],
      [
        "▁d",
        "o"
      ],
      [
        "▁pro",
        "b"
      ],
      [
        "ic",
        "es"
      ],
      [
        "pl",
        "ication"
      ],
      [
        "a",
        "ted"
      ],
      [
        "▁through",
        "out"
      ],
      [
        "▁re",
        "c"
      ],
      [
        "at",
        "h"
      ],
      [
        "▁m",
        "an"
      ],
      [
        "▁no",
        "thing"
      ],
      [
        "▁ca",
        "ll"
      ],
      [
        "▁s",
        "ur"
      ],
      [
        "▁wor",
        "ds"
      ],
      [
        "▁com",
        "m"
      ],
      [
        "th",
        "in"
      ],
      [
        "ion",
        "s"
      ],
      [
        "▁te",
        "am"
      ],
      [
        "▁ab",
        "out"
      ],
      [
        "▁",
        "hal"
      ],
      [
        "▁an",
        "d"
      ],
      [
        "▁d",
        "r"
      ],
      [
        "▁p",
        "a"
      ],
      [
        "▁c",
        "ar"
      ],
      [
        "▁w",
        "ith"
      ],
      [
        "▁h",
        "ist"
      ],
      [
        "▁wh",
        "at"
      ],
      [
        "form",
        "ation"
      ],
      [
        "er",
        "ed"
      ],
      [
        "▁",
        "ar"
      ],
      [
        "▁ques",
        "tion"
      ],
      [
        "o",
        "ur"
      ],
      [
        "sel",
        "ves"
      ],
      [
        "e",
        "m"
      ],
      [
        "▁e",
        "v"
      ],
      [
        "▁again",
        "st"
      ],
      [
        "c",
        "ro"
      ],
      [
        "v",
        "ed"
      ],
      [
        "i",
        "th"
      ],
      [
        "▁w",
        "ater"
      ],
      [
        "tit",
        "u"
      ],
      [
        "▁im",
        "p"
      ],
      [
        "▁",
        "wh"
      ],
      [
        "▁li",
        "ke"
      ],
      [
        "▁ex",
        "ample"
      ],
      [
        "t",
        "ic"
      ],
      [
        "▁s",
        "erv"
      ],
      [
        "▁",
        "use"
      ],
      [
        "▁",
        "for"
      ],
      [
        "▁the",
        "m"
      ],
      [
        "▁n",
        "ame"
      ],
      [
        "▁v",
        "ide"
      ],
      [
        "▁in",
        "d"
      ],
      [
        "▁a",
        "cro"
      ],
      [
        "▁",
        "one"
      ],
      [
        "▁",
        "v"
      ],
      [
        "em",
        "ent"
      ],
      [
        "m",
        "ents"
      ],
      [
        "r",
        "in"
      ],
      [
        "▁",
        "un"
      ],
      [
        "▁comm",
        "un"
      ],
      [
        "i",
        "re"
      ],
      [
        "▁th",
        "at"
      ],
      [
        "▁it",
        "self"
      ],
      [
        "u",
        "m"
      ],
      [
        "▁",
        "in"
      ],
      [
        "a",
        "nd"
      ],
      [
        "▁",
        "re"
      ],
      [
        "ys",
        "tem"
      ],
      [
        "▁a",
        "pp"
      ],
      [
        "▁t",
        "ak"
      ],
      [
        "▁g",
        "en"
      ],
      [
        "ec",
        "t"
      ],
      [
        "▁a",
        "ge"
      ],
      [
        "a",
        "ss"
      ],
      [
        "an",
        "t"
      ],
      [
        "▁s",
        "p"
      ],
      [
        "en",
        "t"
      ],
      [
        "t",
        "ers"
      ],
      [
        "o",
        "ol"
      ],
      [
        "i",
        "ve"
      ],
      [
        "▁",
        "either"
      ],
      [
        "c",
        "es"
      ],
      [
        "o",
        "t"
      ],
      [
        "an",
        "s"
      ],
      [
        "▁b",
        "ro"
      ],
      [
        "tion",
        "s"
      ],
      [
        "en",
        "s"
      ],
      [
        "ur",
        "e"
      ],
      [
        "▁c",
        "up"
      ],
      [
        "▁b",
        "ut"
      ],
      [
        "▁wor",
        "d"
      ],
      [
        "ee",
        "n"
      ],
      [
        "▁cas",
        "e"
      ],
      [
        "u",
        "b"
      ],
      [
        "▁c",
        "ulture"
      ],
      [
        "o",
        "n"
      ],
      [
        "o",
        "s"
      ],
      [
        "▁h",
        "alf"
      ],
      [
        "▁m",
        "ar"
      ],
      [
        "o",
        "ne"
      ],
      [
        "▁",
        "ever"
      ],
      [
        "▁w",
        "ay"
      ],
      [
        "▁th",
        "ing"
      ],
      [
        "p",
        "r"
      ],
      [
        "▁ch",
        "ild"
      ],
      [
        "or",
        "m"
      ],
      [
        "i",
        "es"
      ],
      [
        "o",
        "p"
      ],
      [
        "e",
        "c"
      ],
      [
        "▁th",
        "ose"
      ],
      [
        "▁a",
        "d"
      ],
      [
        "▁co",
        "ur"
      ],
      [
        "s",
        "ed"
      ],
      [
        "e",
        "ed"
      ],
      [
        "e",
        "a"
      ],
      [
        "▁throu",
        "gh"
      ],
      [
        "am",
        "p"
      ],
      [
        "▁me",
        "an"
      ],
      [
        "▁u",
        "n"
      ],
      [
        "▁o",
        "p"
      ],
      [
        "r",
        "i"
      ],
      [
        "▁a",
        "g"
      ],
      [
        "▁pu",
        "t"
      ],
      [
        "▁",
        "i"
      ],
      [
        "▁sh",
        "o"
      ],
      [
        "a",
        "l"
      ],
      [
        "▁wor",
        "k"
      ],
      [
        "▁",
        "qu"
      ],
      [
        "▁l",
        "ight"
      ],
      [
        "▁u",
        "p"
      ],
      [
        "▁con",
        "t"
      ],
      [
        "▁s",
        "ch"
      ],
      [
        "▁g",
        "ra"
      ],
      [
        "o",
        "se"
      ],
      [
        "▁be",
        "cause"
      ],
      [
        "▁n",
        "'t"
      ],
      [
        "▁con",
        "s"
      ],
      [
        "▁m",
        "in"
      ],
      [
        "▁",
        "["
      ],
      [
        "▁fr",
        "om"
      ],
      [
        "▁what",
        "ever"
      ],
      [
        "u",
        "c"
      ],
      [
        "▁",
        "!"
      ],
      [
        "or",
        "y"
      ],
      [
        "q",
        "u"
      ],
      [
        "▁in",
        "ter"
      ],
      [
        "▁inter",
        "est"
      ],
      [
        "▁who",
        "m"
      ],
      [
        "g",
        "e"
      ],
      [
        "n",
        "ing"
      ],
      [
        "i",
        "el"
      ],
      [
        "▁g",
        "o"
      ],
      [
        "▁go",
        "t"
      ],
      [
        "▁u",
        "se"
      ],
      [
        "▁sch",
        "ool"
      ],
      [
        "ou",
        "r"
      ],
      [
        "an",
        "ce"
      ],
      [
        "▁h",
        "and"
      ],
      [
        "en",
        "ce"
      ],
      [
        "▁w",
        "r"
      ],
      [
        "ut",
        "h"
      ],
      [
        "▁h",
        "our"
      ],
      [
        "▁v",
        "is"
      ],
      [
        "se",
        "l"
      ],
      [
        "▁h",
        "ad"
      ],
      [
        "igh",
        "ts"
      ],
      [
        "t",
        "or"
      ],
      [
        "y",
        "s"
      ],
      [
        "▁e",
        "ither"
      ],
      [
        "▁",
        "en"
      ],
      [
        "▁",
        "op"
      ],
      [
        "▁co",
        "n"
      ],
      [
        "▁abo",
        "ve"
      ],
      [
        "▁r",
        "e"
      ],
      [
        "t",
        "i"
      ],
      [
        "▁m",
        "et"
      ],
      [
        "ic",
        "h"
      ],
      [
        "▁w",
        "h"
      ],
      [
        "h",
        "in"
      ],
      [
        "▁g",
        "r"
      ],
      [
        "▁a",
        "round"
      ],
      [
        "w",
        "or"
      ],
      [
        "▁ex",
        "per"
      ],
      [
        "▁m",
        "or"
      ],
      [
        "▁",
        "k"
      ],
      [
        "il",
        "d"
      ],
      [
        "ic",
        "ation"
      ],
      [
        "'",
        "t"
      ],
      [
        "▁wit",
        "h"
      ],
      [
        "▁them",
        "selves"
      ],
      [
        "▁d",
        "es"
      ],
      [
        "f",
        "orm"
      ],
      [
        "ec",
        "ts"
      ],
      [
        "▁",
        "—"
      ],
      [
        "an",
        "ts"
      ],
      [
        "e",
        "re"
      ],
      [
        "▁s",
        "in"
      ],
      [
        "en",
        "ts"
      ],
      [
        "▁sa",
        "id"
      ],
      [
        "'",
        "s"
      ],
      [
        "u",
        "th"
      ],
      [
        "v",
        "el"
      ],
      [
        "▁with",
        "in"
      ],
      [
        "t",
        "e"
      ],
      [
        "i",
        "l"
      ],
      [
        "▁f",
        "in"
      ],
      [
        "at",
        "or"
      ],
      [
        "▁a",
        "m"
      ],
      [
        "e",
        "ve"
      ],
      [
        "▁sa",
        "y"
      ],
      [
        "▁pro",
        "cess"
      ],
      [
        "▁t",
        "ech"
      ],
      [
        "▁h",
        "im"
      ],
      [
        "▁the",
        "re"
      ],
      [
        "▁ch",
        "an"
      ],
      [
        "▁st",
        "r"
      ],
      [
        "o",
        "v"
      ],
      [
        "ur",
        "n"
      ],
      [
        "▁de",
        "s"
      ],
      [
        "o",
        "un"
      ],
      [
        "▁s",
        "up"
      ],
      [
        "▁m",
        "e"
      ],
      [
        "w",
        "it"
      ],
      [
        "▁re",
        "l"
      ],
      [
        "u",
        "re"
      ],
      [
        "▁ro",
        "om"
      ],
      [
        "▁l",
        "and"
      ],
      [
        "▁st",
        "ep"
      ],
      [
        "▁s",
        "et"
      ],
      [
        "▁a",
        "t"
      ],
      [
        "v",
        "ing"
      ],
      [
        "▁d",
        "at"
      ],
      [
        "▁tim",
        "es"
      ],
      [
        "rou",
        "nd"
      ],
      [
        "▁you",
        "r"
      ],
      [
        "▁in",
        "c"
      ],
      [
        "▁th",
        "an"
      ],
      [
        "▁s",
        "ee"
      ],
      [
        "▁b",
        "l"
      ],
      [
        "▁p",
        "l"
      ],
      [
        "▁par",
        "t"
      ],
      [
        "▁ou",
        "r"
      ],
      [
        "▁c",
        "o"
      ],
      [
        "t",
        "w"
      ],
      [
        "r",
        "o"
      ],
      [
        "▁a",
        "s"
      ],
      [
        "ation",
        "s"
      ],
      [
        "ll",
        "ow"
      ],
      [
        "a",
        "n"
      ],
      [
        "▁",
        "o"
      ],
      [
        "▁b",
        "u"
      ],
      [
        "▁year",
        "s"
      ],
      [
        "▁ha",
        "ve"
      ],
      [
        "at",
        "e"
      ],
      [
        "i",
        "ence"
      ],
      [
        "tin",
        "g"
      ],
      [
        "▁a",
        "p"
      ],
      [
        "▁",
        "@"
      ],
      [
        "▁",
        "‘"
      ],
      [
        "ig",
        "h"
      ],
      [
        "u",
        "ff"
      ],
      [
        "at",
        "ure"
      ],
      [
        "h",
        "al"
      ],
      [
        "ec",
        "ted"
      ],
      [
        "for",
        "m"
      ],
      [
        "id",
        "e"
      ],
      [
        "u",
        "es"
      ],
      [
        "le",
        "v"
      ],
      [
        "▁n",
        "ight"
      ],
      [
        "▁",
        "b"
      ],
      [
        "▁k",
        "n"
      ],
      [
        "et",
        "y"
      ],
      [
        "▁",
        "r"
      ],
      [
        "▁s",
        "e"
      ],
      [
        "▁be",
        "yond"
      ],
      [
        "▁",
        "wit"
      ],
      [
        "p",
        "ite"
      ],
      [
        "h",
        "en"
      ],
      [
        "b",
        "l"
      ],
      [
        "d",
        "s"
      ],
      [
        "▁b",
        "oth"
      ],
      [
        "▁him",
        "self"
      ],
      [
        "▁u",
        "sed"
      ],
      [
        "▁a",
        "c"
      ],
      [
        "r",
        "y"
      ],
      [
        "e",
        "ss"
      ],
      [
        "▁",
        "y"
      ],
      [
        "ir",
        "e"
      ],
      [
        "▁s",
        "ea"
      ],
      [
        "an",
        "d"
      ],
      [
        "▁",
        "h"
      ],
      [
        "en",
        "d"
      ],
      [
        "▁v",
        "iew"
      ],
      [
        "ee",
        "d"
      ],
      [
        "▁co",
        "un"
      ],
      [
        "▁ad",
        "d"
      ],
      [
        "o",
        "d"
      ],
      [
        "▁her",
        "self"
      ],
      [
        "▁n",
        "o"
      ],
      [
        "▁ever",
        "y"
      ],
      [
        "▁",
        "if"
      ],
      [
        "al",
        "l"
      ],
      [
        "▁g",
        "ro"
      ],
      [
        "▁p",
        "r"
      ],
      [
        "▁the",
        "ory"
      ],
      [
        "▁t",
        "erm"
      ],
      [
        "or",
        "ies"
      ],
      [
        "▁every",
        "body"
      ],
      [
        "ia",
        "n"
      ],
      [
        "s",
        "ing"
      ],
      [
        "in",
        "k"
      ],
      [
        "▁",
        "to"
      ],
      [
        "▁ag",
        "ain"
      ],
      [
        "▁s",
        "k"
      ],
      [
        "▁some",
        "one"
      ],
      [
        "i",
        "an"
      ],
      [
        "▁",
        "’"
      ],
      [
        "a",
        "ce"
      ],
      [
        "▁",
        "c"
      ],
      [
        "▁p",
        "h"
      ],
      [
        "▁c",
        "a"
      ],
      [
        "en",
        "tion"
      ],
      [
        "r",
        "a"
      ],
      [
        "r",
        "ed"
      ],
      [
        "▁some",
        "thing"
      ],
      [
        "b",
        "oth"
      ],
      [
        "▁",
        "a"
      ],
      [
        "d",
        "ed"
      ],
      [
        "t",
        "s"
      ],
      [
        "e",
        "l"
      ],
      [
        "▁s",
        "/he"
      ],
      [
        "oun",
        "t"
      ],
      [
        "o",
        "k"
      ],
      [
        "▁l",
        "ook"
      ],
      [
        "o",
        "w"
      ],
      [
        "t",
        "y"
      ],
      [
        "▁the",
        "ir"
      ],
      [
        "el",
        "s"
      ],
      [
        "d",
        "er"
      ],
      [
        "w",
        "s"
      ],
      [
        "▁cl",
        "ass"
      ],
      [
        "a",
        "st"
      ],
      [
        "▁wan",
        "t"
      ],
      [
        "ro",
        "l"
      ],
      [
        "▁g",
        "ive"
      ],
      [
        "▁su",
        "ch"
      ],
      [
        "▁b",
        "ott"
      ],
      [
        "k",
        "ed"
      ],
      [
        "ro",
        "u"
      ],
      [
        "u",
        "l"
      ],
      [
        "ti",
        "on"
      ],
      [
        "ol",
        "og"
      ],
      [
        "p",
        "l"
      ],
      [
        "▁a",
        "re"
      ],
      [
        "bo",
        "dy"
      ],
      [
        "▁no",
        "body"
      ],
      [
        "▁exp",
        "er"
      ],
      [
        "a",
        "tiv"
      ],
      [
        "▁",
        "th"
      ],
      [
        "t",
        "ed"
      ],
      [
        "▁",
        "”"
      ],
      [
        "▁h",
        "e"
      ],
      [
        "f",
        "l"
      ],
      [
        "igh",
        "t"
      ],
      [
        "▁f",
        "o"
      ],
      [
        "▁am",
        "ong"
      ],
      [
        "u",
        "rin"
      ],
      [
        "▁s",
        "t"
      ],
      [
        "▁m",
        "ed"
      ],
      [
        "e",
        "r"
      ],
      [
        "▁h",
        "ea"
      ],
      [
        "t",
        "er"
      ],
      [
        "o",
        "o"
      ],
      [
        "i",
        "on"
      ],
      [
        "o",
        "m"
      ],
      [
        "▁",
        "sin"
      ],
      [
        "i",
        "ce"
      ],
      [
        "▁c",
        "re"
      ],
      [
        "▁ex",
        "cept"
      ],
      [
        "ac",
        "h"
      ],
      [
        "▁",
        "on"
      ],
      [
        "▁hist",
        "ory"
      ],
      [
        "▁e",
        "ff"
      ],
      [
        "▁al",
        "l"
      ],
      [
        "i",
        "z"
      ],
      [
        "y",
        "ing"
      ],
      [
        "▁ar",
        "ea"
      ],
      [
        "▁le",
        "ad"
      ],
      [
        "i",
        "ted"
      ],
      [
        "▁s",
        "ub"
      ],
      [
        "▁f",
        "r"
      ],
      [
        "▁your",
        "s"
      ],
      [
        "▁",
        "like"
      ],
      [
        "a",
        "ge"
      ],
      [
        "▁on",
        "e"
      ],
      [
        "l",
        "y"
      ],
      [
        "▁di",
        "ff"
      ],
      [
        "▁p",
        "ro"
      ],
      [
        "ce",
        "p"
      ],
      [
        "▁ne",
        "ar"
      ],
      [
        "▁diff",
        "er"
      ],
      [
        "▁t",
        "e"
      ],
      [
        "▁st",
        "at"
      ],
      [
        "u",
        "r"
      ],
      [
        "▁the",
        "y"
      ],
      [
        "ec",
        "h"
      ],
      [
        "▁en",
        "d"
      ],
      [
        "▁min",
        "ut"
      ],
      [
        "▁day",
        "s"
      ],
      [
        "r",
        "es"
      ],
      [
        "at",
        "er"
      ],
      [
        "▁s",
        "c"
      ],
      [
        "e",
        "ver"
      ],
      [
        "ag",
        "es"
      ],
      [
        "▁our",
        "selves"
      ],
      [
        "▁g",
        "l"
      ],
      [
        "a",
        "d"
      ],
      [
        "le",
        "m"
      ],
      [
        "▁exper",
        "ience"
      ],
      [
        "▁",
        "’s"
      ],
      [
        "p",
        "h"
      ],
      [
        "▁l",
        "e"
      ],
      [
        "▁und",
        "er"
      ],
      [
        "▁w",
        "om"
      ],
      [
        "▁th",
        "e"
      ],
      [
        "▁m",
        "ake"
      ],
      [
        "a",
        "g"
      ],
      [
        "d",
        "i"
      ],
      [
        "l",
        "ik"
      ],
      [
        "▁g",
        "u"
      ],
      [
        "▁s",
        "ome"
      ],
      [
        "en",
        "c"
      ],
      [
        "i",
        "f"
      ],
      [
        "o",
        "c"
      ],
      [
        "ce",
        "pt"
      ],
      [
        "m",
        "e"
      ],
      [
        "▁co",
        "m"
      ],
      [
        "a",
        "il"
      ],
      [
        "a",
        "tion"
      ],
      [
        "▁ca",
        "n"
      ],
      [
        "▁",
        "."
      ],
      [
        "e",
        "x"
      ],
      [
        "▁l",
        "angu"
      ],
      [
        "▁a",
        "ll"
      ],
      [
        "▁",
        "at"
      ],
      [
        "▁c",
        "ity"
      ],
      [
        "▁i",
        "n"
      ],
      [
        "▁",
        "al"
      ],
      [
        "▁f",
        "orm"
      ],
      [
        "▁an",
        "y"
      ],
      [
        "thin",
        "g"
      ],
      [
        "m",
        "ent"
      ],
      [
        "▁a",
        "ir"
      ],
      [
        "i",
        "ti"
      ],
      [
        "▁s",
        "oc"
      ],
      [
        "n",
        "d"
      ],
      [
        "ad",
        "e"
      ],
      [
        "▁e",
        "ach"
      ],
      [
        "n",
        "e"
      ],
      [
        "▁behin",
        "d"
      ],
      [
        "▁in",
        "formation"
      ],
      [
        "▁acro",
        "ss"
      ],
      [
        "▁wh",
        "ich"
      ],
      [
        "▁he",
        "r"
      ],
      [
        "▁ar",
        "t"
      ],
      [
        "▁b",
        "us"
      ],
      [
        "c",
        "e"
      ],
      [
        "▁h",
        "is"
      ],
      [
        "o",
        "me"
      ],
      [
        "▁",
        "em"
      ],
      [
        "▁pl",
        "ace"
      ],
      [
        "▁im",
        "age"
      ],
      [
        "as",
        "t"
      ],
      [
        "▁any",
        "one"
      ],
      [
        "ou",
        "ld"
      ],
      [
        "d",
        "ing"
      ],
      [
        "g",
        "ain"
      ],
      [
        "le",
        "c"
      ],
      [
        "▁d",
        "urin"
      ],
      [
        ".",
        "."
      ],
      [
        "as",
        "s"
      ],
      [
        "▁th",
        "rou"
      ],
      [
        "o",
        "th"
      ],
      [
        "▁anoth",
        "er"
      ],
      [
        "▁.",
        ".."
      ],
      [
        "▁.",
        "."
      ],
      [
        "il",
        "ity"
      ],
      [
        "▁any",
        "thing"
      ],
      [
        "▁bas",
        "il"
      ],
      [
        "i",
        "e"
      ],
      [
        "it",
        "e"
      ],
      [
        "sel",
        "f"
      ],
      [
        "▁w",
        "ill"
      ],
      [
        "▁c",
        "l"
      ],
      [
        "i",
        "g"
      ],
      [
        "▁f",
        "am"
      ],
      [
        "▁ap",
        "p"
      ],
      [
        "ou",
        "t"
      ],
      [
        "▁gro",
        "up"
      ],
      [
        "▁w",
        "an"
      ],
      [
        "an",
        "ds"
      ],
      [
        "▁un",
        "like"
      ],
      [
        "▁",
        "l"
      ],
      [
        "en",
        "ds"
      ],
      [
        "▁h",
        "as"
      ],
      [
        "▁",
        "tim"
      ],
      [
        "ou",
        "n"
      ],
      [
        "a",
        "m"
      ],
      [
        "o",
        "ut"
      ],
      [
        "y",
        "ond"
      ],
      [
        "▁",
        "u"
      ],
      [
        "▁in",
        "side"
      ],
      [
        "ow",
        "n"
      ],
      [
        "ect",
        "s"
      ],
      [
        "em",
        "a"
      ],
      [
        "▁in",
        "to"
      ],
      [
        "▁at",
        "t"
      ],
      [
        "o",
        "re"
      ],
      [
        "i",
        "tion"
      ],
      [
        "▁o",
        "ut"
      ],
      [
        "▁p",
        "os"
      ],
      [
        "▁fac",
        "t"
      ],
      [
        "▁c",
        "om"
      ],
      [
        "om",
        "e"
      ],
      [
        "l",
        "ly"
      ],
      [
        "ur",
        "y"
      ],
      [
        "k",
        "ing"
      ],
      [
        "lik",
        "e"
      ],
      [
        "▁",
        "]"
      ],
      [
        "al",
        "f"
      ],
      [
        "▁is",
        "l"
      ],
      [
        "▁b",
        "e"
      ],
      [
        "▁p",
        "e"
      ],
      [
        "▁a",
        "b"
      ],
      [
        "ca",
        "use"
      ],
      [
        "t",
        "em"
      ],
      [
        "in",
        "es"
      ],
      [
        "▁r",
        "ec"
      ],
      [
        "▁h",
        "ome"
      ],
      [
        "▁b",
        "it"
      ],
      [
        "a",
        "t"
      ],
      [
        "▁a",
        "r"
      ],
      [
        "t",
        "ing"
      ],
      [
        "▁n",
        "eed"
      ],
      [
        "▁gu",
        "ys"
      ],
      [
        "l",
        "es"
      ],
      [
        "▁h",
        "er"
      ],
      [
        "oo",
        "d"
      ],
      [
        "▁p",
        "u"
      ],
      [
        "▁coun",
        "try"
      ],
      [
        "a",
        "s"
      ],
      [
        "ing",
        "s"
      ],
      [
        "il",
        "l"
      ],
      [
        "▁m",
        "em"
      ],
      [
        "▁",
        ";"
      ],
      [
        "v",
        "e"
      ],
      [
        "tic",
        "s"
      ],
      [
        "▁l",
        "ife"
      ],
      [
        "▁th",
        "is"
      ],
      [
        "re",
        "d"
      ],
      [
        "a",
        "p"
      ],
      [
        "▁al",
        "ong"
      ],
      [
        "▁n",
        "e"
      ],
      [
        "on",
        "d"
      ],
      [
        "i",
        "ght"
      ],
      [
        "▁c",
        "ap"
      ],
      [
        "re",
        "e"
      ],
      [
        "▁",
        "“"
      ],
      [
        "on",
        "e"
      ],
      [
        "▁o",
        "ff"
      ],
      [
        "iz",
        "ation"
      ],
      [
        "▁-",
        "-"
      ],
      [
        "on",
        "g"
      ],
      [
        "oth",
        "ers"
      ],
      [
        "▁c",
        "r"
      ],
      [
        "▁",
        "j"
      ],
      [
        "▁r",
        "o"
      ],
      [
        "am",
        "es"
      ],
      [
        "g",
        "r"
      ],
      [
        ".",
        "]"
      ],
      [
        "ar",
        "d"
      ],
      [
        "b",
        "e"
      ],
      [
        "ith",
        "er"
      ],
      [
        "enc",
        "y"
      ],
      [
        "▁qu",
        "ality"
      ],
      [
        "▁my",
        "self"
      ],
      [
        "ul",
        "t"
      ],
      [
        "▁v",
        "ia"
      ],
      [
        "▁aft",
        "er"
      ],
      [
        "oo",
        "k"
      ],
      [
        "▁d",
        "e"
      ],
      [
        "▁c",
        "h"
      ],
      [
        "▁befor",
        "e"
      ],
      [
        "ti",
        "t"
      ],
      [
        "▁",
        "'"
      ],
      [
        "ow",
        "er"
      ],
      [
        "g",
        "h"
      ],
      [
        "▁su",
        "b"
      ],
      [
        "▁ex",
        "p"
      ],
      [
        "▁w",
        "ere"
      ],
      [
        "ie",
        "w"
      ],
      [
        "d",
        "y"
      ],
      [
        "▁our",
        "s"
      ],
      [
        "▁e",
        "ver"
      ],
      [
        "▁",
        "*"
      ],
      [
        "ti",
        "n"
      ],
      [
        "ig",
        "n"
      ],
      [
        "▁le",
        "g"
      ],
      [
        "▁i",
        "f"
      ],
      [
        "▁per",
        "c"
      ],
      [
        "t",
        "o"
      ],
      [
        "▁y",
        "ou"
      ],
      [
        "es",
        "t"
      ],
      [
        "▁k",
        "ind"
      ],
      [
        "▁th",
        "ink"
      ],
      [
        "ve",
        "s"
      ],
      [
        "▁every",
        "one"
      ],
      [
        "a",
        "ch"
      ],
      [
        "es",
        "s"
      ],
      [
        "▁ch",
        "ar"
      ],
      [
        "f",
        "f"
      ],
      [
        "i",
        "le"
      ],
      [
        "u",
        "nd"
      ],
      [
        "▁c",
        "an"
      ],
      [
        "▁m",
        "o"
      ],
      [
        "is",
        "t"
      ],
      [
        "▁",
        "and"
      ],
      [
        "i",
        "t"
      ],
      [
        "▁lo",
        "c"
      ],
      [
        "▁",
        "an"
      ],
      [
        "▁to",
        "ward"
      ],
      [
        "▁inter",
        "v"
      ],
      [
        "▁m",
        "ov"
      ],
      [
        "ot",
        "t"
      ],
      [
        "▁dow",
        "n"
      ],
      [
        "s",
        "e"
      ],
      [
        "▁famil",
        "y"
      ],
      [
        "i",
        "n"
      ],
      [
        "e",
        "e"
      ],
      [
        "t",
        "r"
      ],
      [
        "i",
        "s"
      ],
      [
        "it",
        "s"
      ],
      [
        "▁month",
        "s"
      ],
      [
        "▁t",
        "ake"
      ],
      [
        "▁",
        "n"
      ],
      [
        "▁e",
        "x"
      ],
      [
        "▁s",
        "ec"
      ],
      [
        "at",
        "ors"
      ],
      [
        "▁langu",
        "age"
      ],
      [
        "▁s",
        "ay"
      ],
      [
        "i",
        "p"
      ],
      [
        "f",
        "or"
      ],
      [
        "l",
        "l"
      ],
      [
        "▁it",
        "'s"
      ],
      [
        "▁po",
        "in"
      ],
      [
        "▁m",
        "ade"
      ],
      [
        "t",
        "h"
      ],
      [
        "▁re",
        "s"
      ],
      [
        "▁p",
        "ol"
      ],
      [
        "▁f",
        "l"
      ],
      [
        "l",
        "u"
      ],
      [
        "▁d",
        "ow"
      ],
      [
        "▁fam",
        "il"
      ],
      [
        "un",
        "d"
      ],
      [
        "▁st",
        "ar"
      ],
      [
        "s",
        "ide"
      ],
      [
        "▁s",
        "uch"
      ],
      [
        "▁hea",
        "d"
      ],
      [
        "▁m",
        "y"
      ],
      [
        "▁ha",
        "d"
      ],
      [
        "w",
        "h"
      ],
      [
        "o",
        "l"
      ],
      [
        "u",
        "e"
      ],
      [
        "n",
        "er"
      ],
      [
        "u",
        "g"
      ],
      [
        "a",
        "v"
      ],
      [
        "▁v",
        "al"
      ],
      [
        "us",
        "e"
      ],
      [
        "er",
        "s"
      ],
      [
        "▁pro",
        "duc"
      ],
      [
        "o",
        "u"
      ],
      [
        "▁s",
        "o"
      ],
      [
        "▁",
        "im"
      ],
      [
        "▁pe",
        "op"
      ],
      [
        "▁",
        "-"
      ],
      [
        "▁sp",
        "ace"
      ],
      [
        "a",
        "in"
      ],
      [
        "▁",
        ")"
      ],
      [
        "▁d",
        "own"
      ],
      [
        "ur",
        "es"
      ],
      [
        "▁h",
        "al"
      ],
      [
        "iti",
        "es"
      ],
      [
        "u",
        "tion"
      ],
      [
        "▁w",
        "or"
      ],
      [
        "▁w",
        "ee"
      ],
      [
        "b",
        "le"
      ],
      [
        "▁c",
        "ro"
      ],
      [
        "’",
        "s"
      ],
      [
        "▁kn",
        "ow"
      ],
      [
        "i",
        "ch"
      ],
      [
        "on",
        "s"
      ],
      [
        "it",
        "ch"
      ],
      [
        "re",
        "s"
      ],
      [
        "▁pers",
        "on"
      ],
      [
        "▁c",
        "oun"
      ],
      [
        "▁",
        "ro"
      ],
      [
        "▁betw",
        "een"
      ],
      [
        "or",
        "e"
      ],
      [
        "▁b",
        "as"
      ],
      [
        "it",
        "er"
      ],
      [
        "▁c",
        "on"
      ],
      [
        "▁",
        "be"
      ],
      [
        "▁g",
        "et"
      ],
      [
        "▁n",
        "um"
      ],
      [
        "▁des",
        "pite"
      ],
      [
        "▁",
        "no"
      ],
      [
        "b",
        "s"
      ],
      [
        "d",
        "uc"
      ],
      [
        "▁go",
        "ing"
      ],
      [
        "▁un",
        "der"
      ],
      [
        "▁a",
        "ft"
      ],
      [
        "▁it",
        "s"
      ],
      [
        "▁l",
        "et"
      ],
      [
        "a",
        "sed"
      ],
      [
        "iv",
        "ers"
      ],
      [
        "i",
        "gh"
      ],
      [
        "▁le",
        "t"
      ],
      [
        "▁un",
        "til"
      ],
      [
        "▁s",
        "h"
      ],
      [
        "ti",
        "v"
      ],
      [
        "▁d",
        "is"
      ],
      [
        "▁fri",
        "ends"
      ],
      [
        "▁fr",
        "i"
      ],
      [
        "▁hal",
        "f"
      ]
    ]
  }
}