{
  "version": "1.0",
  "truncation": null,
  "padding": null,
  "added_tokens": [
    {
      "id": 0,
      "content": "[UNK]",
      "single_word": false,
      "lstrip": false,
      "rstrip": false,
      "normalized": false,
      "special": true
    }
  ],
  "normalizer": null,
  "pre_tokenizer": {
    "type": "ByteLevel",
    "add_prefix_space": true,
    "trim_offsets": true,
    "use_regex": true
  },
  "post_processor": null,
  "decoder": null,
  "model": {
    "type": "BPE",
    "dropout": null,
    "unk_token": "[UNK]",
    "continuing_subword_prefix": null,
    "end_of_word_suffix": null,
    "fuse_unk": false,
    "byte_fallback": false,
    "ignore_merges": false,
    "vocab": {
      "[UNK]": 0,
      "!": 1,
      "\"": 2,
      "#": 3,
      "$": 4,
      "%": 5,
      "&": 6,
      "'": 7,
      "(": 8,
      ")": 9,
      "*": 10,
      "+": 11,
      ",": 12,
      "-": 13,
      ".": 14,
      "/": 15,
      "0": 16,
      "1": 17,
      "2": 18,
      "3": 19,
      "4": 20,
      "5": 21,
      "6": 22,
      "7": 23,
      "8": 24,
      "9": 25,
      ":": 26,
      ";": 27,
      "<": 28,
      "=": 29,
      ">": 30,
      "?": 31,
      "@": 32,
      "A": 33,
      "B": 34,
      "C": 35,
      "D": 36,
      "E": 37,
      "F": 38,
      "G": 39,
      "H": 40,
      "I": 41,
      "J": 42,
      "K": 43,
      "L": 44,
      "M": 45,
      "N": 46,
      "O": 47,
      "P": 48,
      "Q": 49,
      "R": 50,
      "S": 51,
      "T": 52,
      "U": 53,
      "V": 54,
      "W": 55,
      "X": 56,
      "Y": 57,
      "Z": 58,
      "[": 59,
      "\\": 60,
      "]": 61,
      "^": 62,
      "_": 63,
      "`": 64,
      "a": 65,
      "b": 66,
      "c": 67,
      "d": 68,
      "e": 69,
      "f": 70,
      "g": 71,
      "h": 72,
      "i": 73,
      "j": 74,
      "k": 75,
      "l": 76,
      "m": 77,
      "n": 78,
      "o": 79,
      "p": 80,
      "q": 81,
      "r": 82,
      "s": 83,
      "t": 84,
      "u": 85,
      "v": 86,
      "w": 87,
      "x": 88,
      "y": 89,
      "z": 90,
      "{": 91,
      "|": 92,
      "}": 93,
      "~": 94,
      "¡": 95,
      "¢": 96,
      "£": 97,
      "¤": 98,
      "¥": 99,
      "¦": 100,
      "§": 101,
      "¨": 102,
      "©": 103,
      "ª": 104,
      "«": 105,
      "¬": 106,
      "®": 107,
      "¯": 108,
      "°": 109,
      "±": 110,
      "²": 111,
      "³": 112,
      "´": 113,
      "µ": 114,
      "¶": 115,
      "·": 116,
      "¸": 117,
      "¹": 118,
      "º": 119,
      "»": 120,
      "¼": 121,
      "½": 122,
      "¾": 123,
      "¿": 124,
      "Â": 125,
      "Ã": 126,
      "Ä": 127,
      "Å": 128,
      "Æ": 129,
      "Ç": 130,
      "È": 131,
      "É": 132,
      "Ê": 133,
      "Ë": 134,
      "Ì": 135,
      "Í": 136,
      "Î": 137,
      "Ï": 138,
      "Ð": 139,
      "Ñ": 140,
      "Ò": 141,
      "Ó": 142,
      "Ô": 143,
      "Õ": 144,
      "Ö": 145,
      "×": 146,
      "Ø": 147,
      "Ù": 148,
      "Ú": 149,
      "Û": 150,
      "Ü": 151,
      "Ý": 152,
      "Þ": 153,
      "ß": 154,
      "à": 155,
      "á": 156,
      "â": 157,
      "ã": 158,
      "ä": 159,
      "å": 160,
      "æ": 161,
      "ç": 162,
      "è": 163,
      "é": 164,
      "ê": 165,
      "ë": 166,
      "ì": 167,
      "í": 168,
      "î": 169,
      "ï": 170,
      "ð": 171,
      "ñ": 172,
      "ó": 173,
      "ô": 174,
      "Ā": 175,
      "ā": 176,
      "Ă": 177,
      "ă": 178,
      "Ą": 179,
      "ą": 180,
      "Ć": 181,
      "ć": 182,
      "Ĉ": 183,
      "ĉ": 184,
      "Ċ": 185,
      "ċ": 186,
      "Č": 187,
      "č": 188,
      "Ď": 189,
      "ď": 190,
      "Đ": 191,
      "đ": 192,
      "Ē": 193,
      "ē": 194,
      "Ĕ": 195,
      "ĕ": 196,
      "Ė": 197,
      "ė": 198,
      "Ę": 199,
      "ę": 200,
      "Ě": 201,
      "ě": 202,
      "Ĝ": 203,
      "ĝ": 204,
      "Ğ": 205,
      "ğ": 206,
      "Ġ": 207,
      "ġ": 208,
      "Ģ": 209,
      "ģ": 210,
      "Ĥ": 211,
      "ĥ": 212,
      "Ħ": 213,
      "ħ": 214,
      "Ĩ": 215,
      "ĩ": 216,
      "Ī": 217,
      "ī": 218,
      "Ĭ": 219,
      "ĭ": 220,
      "Į": 221,
      "į": 222,
      "İ": 223,
      "ı": 224,
      "Ĳ": 225,
      "ĳ": 226,
      "Ĵ": 227,
      "ĵ": 228,
      "Ķ": 229,
      "ķ": 230,
      "ĸ": 231,
      "Ĺ": 232,
      "ĺ": 233,
      "Ļ": 234,
      "ļ": 235,
      "Ľ": 236,
      "ľ": 237,
      "Ŀ": 238,
      "ŀ": 239,
      "Ł": 240,
      "ł": 241,
      "Ń": 242,
      "ĠĠ": 243,
      "Ġt": 244,
      "Ġa": 245,
      "in": 246,
      "he": 247,
      "re": 248,
      "on": 249,
      "ĠĠĠĠ": 250,
      "Ġthe": 251,
      "er": 252,
      "at": 253,
      "Ġs": 254,
      "en": 255,
      "Ġo": 256,
      "Ġc": 257,
      "Ġw": 258,
      "is": 259,
      "it": 260,
      "or": 261,
      "es": 262,
      "ed": 263,
      "al": 264,
      "an": 265,
      "Ġp": 266,
      "Ġf": 267,
      "Ġb": 268,
      "Ġan": 269,
      "ing": 270,
      "Ġin": 271,
      "Ġof": 272,
      "ar": 273,
      "ion": 274,
      "ou": 275,
      "Ġm": 276,
      "Ġd": 277,
      "ic": 278,
      "--": 279,
      "Ġto": 280,
      "le": 281,
      "as": 282,
      "ĠĠĠĠĠĠĠĠ": 283,
      "Ġand": 284,
      "ro": 285,
      "Ġth": 286,
      "ent": 287,
      "Ġh": 288,
      "ct": 289,
      "Ġre": 290,
      "et": 291,
      "Ġn": 292,
      "el": 293,
      "st": 294,
      "om": 295,
      "il": 296,
      "Ġe": 297,
      "Ġl": 298,
      "id": 299,
      "ot": 300,
      "im": 301,
      "ig": 302,
      "ve": 303,
      "Ġis": 304,
      "ut": 305,
      "Ġg": 306,
      "Ġ(": 307,
      "ĠT": 308,
      "----": 309,
      "am": 310,
      "ol": 311,
      "ĠI": 312,
      "ation": 313,
      "se": 314,
      "ce": 315,
      "ly": 316,
      "âĢ": 317,
      "Ġfor": 318,
      "ur": 319,
      "ĠĠĠ": 320,
      "Ġbe": 321,
      "ĠS": 322,
      "ow": 323,
      "Ġthat": 324,
      "Ġu": 325,
      "ad": 326,
      "Ġon": 327,
      "ĠA": 328,
      "ĠC": 329,
      "Ġst": 330,
      "ch": 331,
      "ver": 332,
      "ay": 333,
      "ul": 334,
      "ith": 335,
      "Ġ1": 336,
      "if": 337,
      "Ġcon": 338,
      "Ġwith": 339,
      "ra": 340,
      "ĠĠĠĠĠĠĠĠĠĠĠĠĠĠĠĠ": 341,
      "Ġy": 342,
      "Ġas": 343,
      "ir": 344,
      "od": 345,
      "ter": 346,
      "00": 347,
      "Ġpro": 348,
      "Ġ\"": 349,
      "ate": 350,
      "Ġ$": 351,
      "Ġit": 352,
      "her": 353,
      "um": 354,
      "ĠM": 355,
      "ab": 356,
      "pe": 357,
      "Ġal": 358,
      "Ġwe": 359,
      "ri": 360,
      "ge": 361,
      "nd": 362,
      "Ġv": 363,
      "==": 364,
      "Ġwh": 365,
      "Ġ2": 366,
      "ĠP": 367,
      "Ġde": 368,
      "res": 369,
      "pp": 370,
      "qu": 371,
      "ac": 372,
      "Ġyou": 373,
      "ment": 374,
      "est": 375,
      "Ġex": 376,
      "os": 377,
      "ist": 378,
      "ĠThe": 379,
      "Ġwas": 380,
      "ĠB": 381,
      "us": 382,
      "Ġ\\": 383,
      "Ġhe": 384,
      "--------": 385,
      "ant": 386,
      "Ġor": 387,
      "Ġcom": 388,
      "em": 389,
      "ht": 390,
      "Ġare": 391,
      "th": 392,
      "**": 393,
      "oc": 394,
      "Ġat": 395,
      "ers": 396,
      "Ġsu": 397,
      "iv": 398,
      "Ġ=": 399,
      "un": 400,
      "ity": 401,
      "ess": 402,
      "ain": 403,
      "Ġr": 404,
      "ĠH": 405,
      "op": 406,
      "ĠF": 407,
      "Ġby": 408,
      "ĠD": 409,
      "Ġse": 410,
      "ld": 411,
      "ill": 412,
      "ction": 413,
      "ore": 414,
      "rom": 415,
      "and": 416,
      "ĠW": 417,
      "nt": 418,
      "ke": 419,
      "Ġnot": 420,
      "Ġ-": 421,
      "end": 422,
      "Ġha": 423,
      "ĠR": 424,
      "ive": 425,
      "ĠL": 426,
      "ort": 427,
      "Ġne": 428,
      "pt": 429,
      "Ġthis": 430,
      "ĊĠĠĠĠ": 431,
      "ĠN": 432,
      "âĢĻ": 433,
      "Ġfrom": 434,
      "ight": 435,
      "art": 436,
      "ud": 437,
      "red": 438,
      "ĊĠĠĠ": 439,
      "pl": 440,
      "ell": 441,
      "Ġsh": 442,
      "ial": 443,
      "ies": 444,
      "te": 445,
      "ĠG": 446,
      "Ġch": 447,
      "Ġhave": 448,
      "ated": 449,
      "ĠE": 450,
      "fe": 451,
      "Ġ*": 452,
      "ure": 453,
      "ine": 454,
      "'s": 455,
      "ould": 456,
      "our": 457,
      "all": 458,
      "{\\": 459,
      "Ġle": 460,
      "Ġ0": 461,
      "ag": 462,
      "per": 463,
      "og": 464,
      "ust": 465,
      "age": 466,
      "ical": 467,
      "Ġcan": 468,
      "ame": 469,
      ").": 470,
      "ue": 471,
      "iz": 472,
      "ĠO": 473,
      "ich": 474,
      "rou": 475,
      "cl": 476,
      "Ġ3": 477,
      "ib": 478,
      "ĊĠĠĠĠĠĠĠĠ": 479,
      "out": 480,
      "ard": 481,
      "Ġus": 482,
      "ome": 483,
      "able": 484,
      "ie": 485,
      "ase": 486,
      "Ġres": 487,
      "Ġcl": 488,
      "Ġwhe": 489,
      ");": 490,
      "Ġab": 491,
      "ath": 492,
      "Ġj": 493,
      "ack": 494,
      "====": 495,
      "ult": 496,
      "ass": 497,
      "Ġ{": 498,
      "act": 499,
      "ost": 500,
      "Ġk": 501,
      "ans": 502,
      "01": 503,
      "Ġpl": 504,
      "Ġcomp": 505,
      "ide": 506,
      "ther": 507,
      ".\"": 508,
      "Ġad": 509,
      "Ġme": 510,
      "ĊĠ": 511,
      "ast": 512,
      "=\"": 513,
      "Ġcont": 514,
      "Ġwere": 515,
      "orm": 516,
      "ĠâĢ": 517,
      "Ġim": 518,
      "The": 519,
      "Ġall": 520,
      "Ġtr": 521,
      "ub": 522,
      "ign": 523,
      "ĠJ": 524,
      "ĊĠĠĠĠĠĠĠ": 525,
      "..": 526,
      "ĠU": 527,
      "ap": 528,
      "Ġ[": 529,
      "Ġdo": 530,
      "ind": 531,
      "ition": 532,
      "ak": 533,
      "ip": 534,
      "Ġwhich": 535,
      "ĠĠĠĠĠĠĠĠĠĠĠĠĠĠĠĠĠĠĠĠĠĠĠĠĠĠĠĠĠĠĠĠ": 536,
      "ph": 537,
      "Ġhas": 538,
      "ice": 539,
      "Ġ+": 540,
      "cc": 541,
      "one": 542,
      "ary": 543,
      "ous": 544,
      "ĉĉ": 545,
      "//": 546,
      "Ġbut": 547,
      "ime": 548,
      "Ġint": 549,
      "ens": 550,
      "ĠIn": 551,
      "are": 552,
      "int": 553,
      "----------------": 554,
      "con": 555,
      "Ġwor": 556,
      "_{": 557,
      "du": 558,
      "Ġdis": 559,
      "ress": 560,
      "ong": 561,
      "ence": 562,
      "ations": 563,
      "Ġ4": 564,
      "ty": 565,
      "ff": 566,
      "Ġwill": 567,
      "ne": 568,
      "ile": 569,
      "ok": 570,
      "Ġgo": 571,
      "),": 572,
      "Ġ<": 573,
      "ru": 574,
      "Ġout": 575,
      "ep": 576,
      "ose": 577,
      "ance": 578,
      "}}": 579,
      "gh": 580,
      "Âł": 581,
      "av": 582,
      "Ġif": 583,
      "Ġper": 584,
      "ents": 585,
      "Ġen": 586,
      "au": 587,
      "ally": 588,
      "ĠTh": 589,
      "ber": 590,
      "Ġ5": 591,
      "Ġhis": 592,
      "ace": 593,
      "Ġone": 594,
      "so": 595,
      "Ġun": 596,
      "port": 597,
      "xt": 598,
      "ely": 599,
      "ia": 600,
      "ord": 601,
      "Ġthey": 602,
      "ory": 603,
      "ire": 604,
      "ear": 605,
      "ach": 606,
      "ect": 607,
      "ions": 608,
      "Ġapp": 609,
      "Ġev": 610,
      "Ġso": 611,
      "form": 612,
      "ry": 613,
      "Ġup": 614,
      "ang": 615,
      "Ġqu": 616,
      "ree": 617,
      "lic": 618,
      "Ġar": 619,
      "Ġtheir": 620,
      "âĢĿ": 621,
      "Ġmore": 622,
      "Ġpart": 623,
      "ail": 624,
      "ĠK": 625,
      "ite": 626,
      "ors": 627,
      "ll": 628,
      "Ġthere": 629,
      "ys": 630,
      "Ġag": 631,
      "Ġpre": 632,
      "ake": 633,
      "Ġother": 634,
      "Ġli": 635,
      "own": 636,
      "ĠĠĠĠĠĠĠ": 637,
      "very": 638,
      "Ġ}": 639,
      "ound": 640,
      "Ġyour": 641,
      "ft": 642,
      "Ġ$\\": 643,
      "vel": 644,
      "Ġhad": 645,
      "ount": 646,
      "fere": 647,
      "cre": 648,
      "urn": 649,
      "ĠSt": 650,
      "Ġsa": 651,
      "ata": 652,
      "Ġbeen": 653,
      "com": 654,
      "Ġsp": 655,
      "math": 656,
      "Ġman": 657,
      "ks": 658,
      "Ġalso": 659,
      "Ġwho": 660,
      "erv": 661,
      "Ġany": 662,
      "we": 663,
      "ates": 664,
      "Ġwould": 665,
      "de": 666,
      "ĠV": 667,
      "Ġno": 668,
      "[@": 669,
      "Ġabout": 670,
      "nder": 671,
      "low": 672,
      "ject": 673,
      "ĊĊ": 674,
      "Ġwhen": 675,
      "eth": 676,
      "Ġmy": 677,
      "Ġ'": 678,
      "Ġ&": 679,
      "ific": 680,
      "ook": 681,
      "\\]": 682,
      "Ġob": 683,
      "Ġtime": 684,
      "ple": 685,
      "Ġthan": 686,
      "ater": 687,
      "'t": 688,
      "ict": 689,
      "Ġass": 690,
      "wo": 691,
      "erm": 692,
      "Ġ6": 693,
      "Ġover": 694,
      "ref": 695,
      "10": 696,
      "Ġits": 697,
      "}$": 698,
      "row": 699,
      "ring": 700,
      "Ġ19": 701,
      "Ġsome": 702,
      "Ġsc": 703,
      "ĠâĢľ": 704,
      "ob": 705,
      "clud": 706,
      "rib": 707,
      "ck": 708,
      "fter": 709,
      "ays": 710,
      "ces": 711,
      "</": 712,
      "Ġspe": 713,
      "get": 714,
      "Ġbet": 715,
      "Ġsy": 716,
      "lect": 717,
      "Ġnew": 718,
      "Ġgen": 719,
      "Ġdif": 720,
      "In": 721,
      "fect": 722,
      "ĊĠĠĠĠĠĠĠĠĠĠĠ": 723,
      "old": 724,
      "Ġam": 725,
      "irst": 726,
      "ove": 727,
      "^{": 728,
      "Ġte": 729,
      "ode": 730,
      "hat": 731,
      "ied": 732,
      "Ġinter": 733,
      "vers": 734,
      "Ġfe": 735,
      "ps": 736,
      "Ġsub": 737,
      "Ġget": 738,
      "ild": 739,
      "Ġdef": 740,
      "Ġacc": 741,
      "19": 742,
      "Ġher": 743,
      "Ġoff": 744,
      "Ġkn": 745,
      "ĠY": 746,
      "reat": 747,
      "ause": 748,
      "Ġcomm": 749,
      "Ġact": 750,
      "Ġinto": 751,
      "Ġour": 752,
      "ced": 753,
      "Ġunder": 754,
      "ov": 755,
      "Ġro": 756,
      "iss": 757,
      "Ġcons": 758,
      "ings": 759,
      "ink": 760,
      "Ġpe": 761,
      "ĠIt": 762,
      "##": 763,
      "Ġdes": 764,
      "Ġrel": 765,
      "Ġmay": 766,
      "ma": 767,
      "========": 768,
      "ual": 769,
      "Ġrec": 770,
      "12": 771,
      "ick": 772,
      "Ġonly": 773,
      "ative": 774,
      "Ġtwo": 775,
      "ari": 776,
      "pon": 777,
      "Ġsaid": 778,
      "Ġthem": 779,
      "Ġval": 780,
      "ert": 781,
      "iew": 782,
      "pect": 783,
      "Ġyear": 784,
      "Ġwork": 785,
      "Ġstud": 786,
      "Ġbec": 787,
      "Ġwhat": 788,
      "ular": 789,
      "Ġlike": 790,
      "Ġadd": 791,
      "Ġind": 792,
      "Ġ7": 793,
      "hed": 794,
      "Ġret": 795,
      "ark": 796,
      "Ġmod": 797,
      "igh": 798,
      "Ġreg": 799,
      "Ġpos": 800,
      "ĠCh": 801,
      "Ġtrans": 802,
      "pro": 803,
      "unction": 804,
      "Ġinv": 805,
      "elf": 806,
      "ĠThis": 807,
      "cess": 808,
      "oint": 809,
      "Ġem": 810,
      "Ġbl": 811,
      "Ġuse": 812,
      "ock": 813,
      "stem": 814,
      "Ġco": 815,
      "itt": 816,
      "ish": 817,
      "Ġfirst": 818,
      "Ġsuch": 819,
      "ased": 820,
      "ating": 821,
      "Ġjust": 822,
      "Ġ201": 823,
      "ex": 824,
      "ont": 825,
      "Ġpr": 826,
      "ef": 827,
      "Ġph": 828,
      "Ġ8": 829,
      "ĠWe": 830,
      "Ġpres": 831,
      "Ġform": 832,
      "Ġthese": 833,
      "ian": 834,
      "\",": 835,
      "ments": 836,
      "ade": 837,
      "Ġprov": 838,
      "ient": 839,
      "Ġdiffere": 840,
      "Ġwhere": 841,
      "ility": 842,
      "ĊĠĠĠĠĠ": 843,
      "11": 844,
      "Ġcol": 845,
      "}\\": 846,
      "ĠHe": 847,
      "Ġpat": 848,
      "Ġshe": 849,
      "Ġafter": 850,
      "Ġdet": 851,
      "Ġsign": 852,
      "rac": 853,
      "ize": 854,
      "Ġpol": 855,
      "Ċĉĉ": 856,
      "ident": 857,
      "aw": 858,
      "Ġhow": 859,
      "ec": 860,
      "Ġ10": 861,
      "ood": 862,
      "ween": 863,
      "oth": 864,
      "Ġneed": 865,
      "__": 866,
      "der": 867,
      "ss": 868,
      "ffect": 869,
      "olog": 870,
      "ople": 871,
      "the": 872,
      "Ġexp": 873,
      "gr": 874,
      "Ġset": 875,
      "type": 876,
      "ption": 877,
      "Ġthen": 878,
      "Ġcould": 879,
      "ublic": 880,
      "ution": 881,
      "ange": 882,
      "Ġclass": 883,
      "ĊĠĠĠĠĠĠĠĠĠĠĠĠĠĠĠ": 884,
      "Ġ9": 885,
      "](": 886,
      "()": 887,
      "Ġresult": 888,
      "Ġatt": 889,
      "St": 890,
      "Ġbetween": 891,
      "Ġcell": 892,
      "ough": 893,
      "Ġrem": 894,
      "fig": 895,
      "ise": 896,
      "000": 897,
      "right": 898,
      "ious": 899,
      "Ġ\\[": 900,
      "Ġsupp": 901,
      "les": 902,
      "ollow": 903,
      "20": 904,
      ".,": 905,
      "ix": 906,
      "eg": 907,
      "ble": 908,
      "ype": 909,
      "Ċĉ": 910,
      "Ġgrou": 911,
      "Ġ|": 912,
      "up": 913,
      "Ġinclud": 914,
      "Ġused": 915,
      "ible": 916,
      "ax": 917,
      "iel": 918,
      "ER": 919,
      "als": 920,
      "Ġdid": 921,
      "ourt": 922,
      "Ġdata": 923,
      "Ġnum": 924,
      "Ġshow": 925,
      "ues": 926,
      "ons": 927,
      "Ġknow": 928,
      "Ġfl": 929,
      "oy": 930,
      "){": 931,
      "cy": 932,
      "Ġfact": 933,
      "\">": 934,
      "Ġpeople": 935,
      "ract": 936,
      "tern": 937,
      "ull": 938,
      "Ġshould": 939,
      "ics": 940,
      "ox": 941,
      "rough": 942,
      "ning": 943,
      "Ġac": 944,
      "Ġcor": 945,
      "Ġsim": 946,
      "Ġhim": 947,
      "Ġsur": 948,
      "ms": 949,
      "Ġspec": 950,
      "its": 951,
      "hen": 952,
      "****": 953,
      "Ġrequ": 954,
      "Ġfollow": 955,
      "fore": 956,
      "Ġusing": 957,
      "Ġdist": 958,
      "ren": 959,
      "inal": 960,
      "ruct": 961,
      "Ġi": 962,
      "Ġsee": 963,
      "Ġback": 964,
      "Ġbecause": 965,
      "sp": 966,
      "Ġfunction": 967,
      "Ġconst": 968,
      "ined": 969,
      "ield": 970,
      "ful": 971,
      "Ġsystem": 972,
      "ities": 973,
      "Ġmost": 974,
      ")$": 975,
      "li": 976,
      "ever": 977,
      "Ġinst": 978,
      "IN": 979,
      "rit": 980,
      "15": 981,
      "--------------------------------": 982,
      "ĊĠĠĠĠĠĠĠĠĠĠĠĠĠĠĠĠ": 983,
      "ool": 984,
      "pos": 985,
      "Ġ.": 986,
      "put": 987,
      "13": 988,
      "ited": 989,
      "Ġend": 990,
      "Ġsm": 991,
      "sc": 992,
      "uring": 993,
      "ures": 994,
      "Ġwell": 995,
      "ins": 996,
      "16": 997,
      "\"}": 998,
      "Ġreturn": 999,
      "Ġthrough": 1000,
      "Ġprodu": 1001,
      "Ġtest": 1002,
      "Ġright": 1003,
      "Ġtra": 1004,
      "Ġgener": 1005,
      "Ġ[@": 1006,
      "(\\": 1007,
      "ĠUn": 1008,
      "Ġbu": 1009,
      "]{": 1010,
      "Ġagain": 1011,
      "Ġext": 1012,
      "Ġchar": 1013,
      "14": 1014,
      "Ġwant": 1015,
      "hes": 1016,
      "mer": 1017,
      "Ġhigh": 1018,
      "Ġdifferent": 1019,
      "Ġeach": 1020,
      "err": 1021,
      "ized": 1022,
      "ational": 1023,
      "to": 1024,
      "ĠĠĠĠĠ": 1025,
      "ower": 1026,
      "Ġcase": 1027,
      "->": 1028,
      "round": 1029,
      "cond": 1030,
      "Ġstate": 1031,
      "Ġdoes": 1032,
      "imes": 1033,
      "ator": 1034,
      "Ġent": 1035,
      "Ġeffect": 1036,
      "text": 1037,
      "ically": 1038,
      "wn": 1039,
      "io": 1040,
      "ric": 1041,
      "Th": 1042,
      "],": 1043,
      "ĠSe": 1044,
      "25": 1045,
      "ON": 1046,
      "ew": 1047,
      "uch": 1048,
      "other": 1049,
      "ta": 1050,
      "nce": 1051,
      "Ġeven": 1052,
      "riv": 1053,
      "ily": 1054,
      "Ġ200": 1055,
      "Ġmake": 1056,
      "ctions": 1057,
      "par": 1058,
      "cal": 1059,
      "ients": 1060,
      "set": 1061,
      "Ġmin": 1062,
      "ork": 1063,
      "let": 1064,
      "_{\\": 1065,
      "vent": 1066,
      "Ġ@": 1067,
      "rol": 1068,
      "Ġ:": 1069,
      "...": 1070,
      "Ġevery": 1071,
      "uc": 1072,
      "))": 1073,
      "18": 1074,
      "ethod": 1075,
      "Ġke": 1076,
      "Ġcur": 1077,
      "Ġra": 1078,
      "ute": 1079,
      "read": 1080,
      "Ġsame": 1081,
      "Ġcall": 1082,
      "ants": 1083,
      "frac": 1084,
      "ars": 1085,
      "Ġway": 1086,
      "Ġnow": 1087,
      "ger": 1088,
      "Ġanal": 1089,
      "Ġap": 1090,
      "cept": 1091,
      "Ġfind": 1092,
      "Ġdec": 1093,
      "ince": 1094,
      "val": 1095,
      "Ġ/": 1096,
      "Ġdon": 1097,
      "\":": 1098,
      "Ġincre": 1099,
      "aint": 1100,
      "arch": 1101,
      "](#": 1102,
      "Ġpoint": 1103,
      "oci": 1104,
      "ĠĠĠĠĠĠĠĠĠĠĠĠĠĠĠĠĠĠĠĠĠĠĠĠĠĠĠĠĠĠĠĠĠĠĠĠĠĠĠĠĠĠĠĠĠĠĠĠĠĠĠĠĠĠĠĠĠĠĠĠĠĠĠĠ": 1105,
      "Ġlook": 1106,
      "oid": 1107,
      "17": 1108,
      "Ġthose": 1109,
      "str": 1110,
      "ward": 1111,
      "velop": 1112,
      "Ġinte": 1113,
      "Ġlong": 1114,
      "Ġyears": 1115,
      "Ġvery": 1116,
      "Ġ_": 1117,
      "Ġdi": 1118,
      "ug": 1119,
      "ason": 1120,
      "ym": 1121,
      "Ġpartic": 1122,
      "Ġloc": 1123,
      "pr": 1124,
      "ense": 1125,
      "Ġboth": 1126,
      "Ġvari": 1127,
      "Ġhere": 1128,
      "ases": 1129,
      "und": 1130,
      "Ġmon": 1131,
      "rm": 1132,
      "day": 1133,
      "ines": 1134,
      "cent": 1135,
      "rent": 1136,
      "irect": 1137,
      "AT": 1138,
      "rest": 1139,
      "Ġaut": 1140,
      "Ġmat": 1141,
      "ample": 1142,
      "Ġfound": 1143,
      "Ġ//": 1144,
      "Ġbel": 1145,
      "Ġbeing": 1146,
      "atic": 1147,
      "ting": 1148,
      "air": 1149,
      "yp": 1150,
      "Ġtri": 1151,
      "$\\": 1152,
      "Ġmed": 1153,
      "Ġexper": 1154,
      "led": 1155,
      "?\"": 1156,
      "Ġappro": 1157,
      "Ġpers": 1158,
      "Ġpar": 1159,
      "::": 1160,
      "ages": 1161,
      "Ġmany": 1162,
      "Ġplay": 1163,
      "Ġbefore": 1164,
      "ife": 1165,
      "]{}": 1166,
      "32": 1167,
      "ng": 1168,
      "ices": 1169,
      "ĠCom": 1170,
      "It": 1171,
      "ared": 1172,
      "alth": 1173,
      "Ġnumber": 1174,
      "Ġfil": 1175,
      "]\\]": 1176,
      "ĠQ": 1177,
      "over": 1178,
      "Ġmem": 1179,
      "âĢī": 1180,
      "Ġgr": 1181,
      "Ġ**": 1182,
      "Ġprote": 1183,
      "tr": 1184,
      "Ġser": 1185,
      "ature": 1186,
      "50": 1187,
      "30": 1188,
      "app": 1189,
      "Ġx": 1190,
      "cer": 1191,
      "Ġel": 1192,
      "Ġcar": 1193,
      "Ġpublic": 1194,
      "ES": 1195,
      "ified": 1196,
      "AR": 1197,
      "aking": 1198,
      "Ġop": 1199,
      "sh": 1200,
      "of": 1201,
      "min": 1202,
      "Ġrespon": 1203,
      "}{": 1204,
      "ateg": 1205,
      "left": 1206,
      "ody": 1207,
      "ner": 1208,
      "Ġgu": 1209,
      "Ġthink": 1210,
      "Ġhel": 1211,
      "formation": 1212,
      "Ġche": 1213,
      "ĠĠĠĠĠĠ": 1214,
      "Ġins": 1215,
      "Ġstr": 1216,
      "eng": 1217,
      "ression": 1218,
      "Ġgood": 1219,
      "We": 1220,
      "ale": 1221,
      "ĊĊĠĠĠ": 1222,
      "Ġ12": 1223,
      "Ġprocess": 1224,
      "ave": 1225,
      "yl": 1226,
      "ash": 1227,
      "Ġdown": 1228,
      "Ġinf": 1229,
      "Ġrep": 1230,
      "upp": 1231,
      "Ġmodel": 1232,
      "ĠFor": 1233,
      "ank": 1234,
      "Ġmade": 1235,
      "Ġvalue": 1236,
      "Ġreport": 1237,
      "ĠâĢĵ": 1238,
      "ively": 1239,
      "Ġcourt": 1240,
      "ism": 1241,
      "ness": 1242,
      "ually": 1243,
      "line": 1244,
      "ven": 1245,
      "Ġ\\[[@": 1246,
      "Ġwhile": 1247,
      "Ġlevel": 1248,
      "ired": 1249,
      "view": 1250,
      "Ġgiv": 1251,
      "Ġstudy": 1252,
      "://": 1253,
      "Ġsol": 1254,
      "mathb": 1255,
      "gg": 1256,
      "NA": 1257,
      "Ġpresent": 1258,
      "ved": 1259,
      "Ġdevelop": 1260,
      "24": 1261,
      "',": 1262,
      "mon": 1263,
      "Ġstart": 1264,
      "ument": 1265,
      "ĠLet": 1266,
      "201": 1267,
      "way": 1268,
      "ained": 1269,
      "Ġlar": 1270,
      "Ġsupport": 1271,
      "OR": 1272,
      ",\\": 1273,
      "ght": 1274,
      "dition": 1275,
      "Ġref": 1276,
      "Ġcount": 1277,
      "---": 1278,
      "Ġdisc": 1279,
      "Ġsecond": 1280,
      "CR": 1281,
      "Ġmuch": 1282,
      "ret": 1283,
      "$,": 1284,
      "Ġequ": 1285,
      "ĠÂ": 1286,
      "cul": 1287,
      "Ġown": 1288,
      "ams": 1289,
      ".âĢĿ": 1290,
      "erg": 1291,
      "ision": 1292,
      "Ġhand": 1293,
      "ĠPro": 1294,
      "ĠRe": 1295,
      "ole": 1296,
      "Ġserv": 1297,
      "0000": 1298,
      "Ġterm": 1299,
      "igned": 1300,
      "Ġthree": 1301,
      "man": 1302,
      "(\"": 1303,
      "ization": 1304,
      "Ġread": 1305,
      "ĠIf": 1306,
      "Ġnon": 1307,
      "ĠAl": 1308,
      "ray": 1309,
      "Ġpatients": 1310,
      "Ġest": 1311,
      "ider": 1312,
      "lement": 1313,
      "$.": 1314,
      "gan": 1315,
      "ality": 1316,
      "ffic": 1317,
      "Ġdep": 1318,
      "oad": 1319,
      "Ġet": 1320,
      "use": 1321,
      "Ġmethod": 1322,
      "Ġposs": 1323,
      "uss": 1324,
      "Ġwithout": 1325,
      "Ġant": 1326,
      "Ġduring": 1327,
      "Ġorder": 1328,
      "amp": 1329,
      "Ġcells": 1330,
      "abel": 1331,
      "oun": 1332,
      "ency": 1333,
      "ential": 1334,
      "ĠAs": 1335,
      "cri": 1336,
      ",\"": 1337,
      "Ġname": 1338,
      "ton": 1339,
      "any": 1340,
      "med": 1341,
      "What": 1342,
      "80": 1343,
      "eta": 1344,
      "arly": 1345,
      "Ġ20": 1346,
      "ource": 1347,
      "ĠAnd": 1348,
      "Ġactiv": 1349,
      "Ġhelp": 1350,
      "Ġcre": 1351,
      "not": 1352,
      "Ġline": 1353,
      "ided": 1354,
      "EN": 1355,
      "ists": 1356,
      "idence": 1357,
      "ify": 1358,
      "Ġgroup": 1359,
      "amb": 1360,
      "Ġimport": 1361,
      "Ġproper": 1362,
      "Re": 1363,
      "Ġperform": 1364,
      "ĠHow": 1365,
      "name": 1366,
      "tt": 1367,
      "ST": 1368,
      "22": 1369,
      "cial": 1370,
      "IT": 1371,
      "ah": 1372,
      "ather": 1373,
      "Ġlast": 1374,
      "be": 1375,
      "ĠAn": 1376,
      "Ġcle": 1377,
      "ability": 1378,
      "40": 1379,
      "Ġproble": 1380,
      "Ġlead": 1381,
      "alk": 1382,
      "ters": 1383,
      "ouse": 1384,
      "Ġav": 1385,
      "Ġsay": 1386,
      "Ġrun": 1387,
      "raph": 1388,
      "ving": 1389,
      "Ġz": 1390,
      "Ġagainst": 1391,
      "ĠBut": 1392,
      "ww": 1393,
      "99": 1394,
      "Ġsmall": 1395,
      "ane": 1396,
      "ron": 1397,
      "Ġiss": 1398,
      "Ġgl": 1399,
      "ulation": 1400,
      "Ġoper": 1401,
      "ames": 1402,
      "Ġsignific": 1403,
      "(-": 1404,
      "Ġlet": 1405,
      "Ġconf": 1406,
      "Ġmust": 1407,
      "23": 1408,
      "ross": 1409,
      "Ġtake": 1410,
      "hip": 1411,
      "Ġtype": 1412,
      "\\[": 1413,
      "Ġstill": 1414,
      "Ġcontrol": 1415,
      "aim": 1416,
      "acter": 1417,
      "Ġchild": 1418,
      "Ġperson": 1419,
      "ann": 1420,
      "Ġlaw": 1421,
      "ots": 1422,
      "itive": 1423,
      "ml": 1424,
      "Ġpur": 1425,
      "Ġappe": 1426,
      "ĠYou": 1427,
      "Ġmet": 1428,
      "Con": 1429,
      "Ġsom": 1430,
      "ention": 1431,
      "Ġexpl": 1432,
      "Let": 1433,
      "oh": 1434,
      "Ġ15": 1435,
      "irc": 1436,
      "pha": 1437,
      "Ġinformation": 1438,
      "rt": 1439,
      "Ġ,": 1440,
      "();": 1441,
      "Ġdirect": 1442,
      "Ġday": 1443,
      "ysis": 1444,
      "serv": 1445,
      "He": 1446,
      "ek": 1447,
      "ier": 1448,
      "Ġcent": 1449,
      "ds": 1450,
      "33": 1451,
      "Ġinc": 1452,
      "AL": 1453,
      "Fig": 1454,
      "ÃĲ": 1455,
      "âĢľ": 1456,
      "Ġfin": 1457,
      "AN": 1458,
      "urther": 1459,
      "Ġed": 1460,
      "Ġquest": 1461,
      "atch": 1462,
      "chn": 1463,
      "less": 1464,
      "me": 1465,
      "yn": 1466,
      "ination": 1467,
      "64": 1468,
      "].": 1469,
      "ology": 1470,
      "Ġpost": 1471,
      "Ġfam": 1472,
      "Ġtreat": 1473,
      "60": 1474,
      "mathcal": 1475,
      "ides": 1476,
      "Ġresults": 1477,
      "Ex": 1478,
      "Ġident": 1479,
      "Ġstand": 1480,
      "vious": 1481,
      "Ġmeas": 1482,
      "ĊĠĠ": 1483,
      ")\\": 1484,
      "ote": 1485,
      "Ġsignificant": 1486,
      "200": 1487,
      "ets": 1488,
      "Ġelect": 1489,
      "Ġca": 1490,
      "oot": 1491,
      "ience": 1492,
      "ission": 1493,
      "da": 1494,
      "Ġfollowing": 1495,
      "This": 1496,
      "for": 1497,
      "Ġerr": 1498,
      "htt": 1499,
      "agn": 1500,
      "Ġbre": 1501,
      "Pro": 1502,
      "Ġmult": 1503,
      "ium": 1504,
      "work": 1505,
      "eral": 1506,
      "ital": 1507,
      "Ġ18": 1508,
      "duct": 1509,
      "ration": 1510,
      "ĠNew": 1511,
      "Ġdeterm": 1512,
      "ately": 1513,
      "land": 1514,
      "ral": 1515,
      "Ġgoing": 1516,
      "Ġallow": 1517,
      "ĠTr": 1518,
      "ording": 1519,
      "aj": 1520,
      "meric": 1521,
      "27": 1522,
      "Ġcontin": 1523,
      "ĠDe": 1524,
      "ains": 1525,
      "Ġlim": 1526,
      "Ġcondition": 1527,
      "ior": 1528,
      "ished": 1529,
      "ploy": 1530,
      "================": 1531,
      "}(": 1532,
      "aterial": 1533,
      "ured": 1534,
      "Ġcare": 1535,
      "Ġfr": 1536,
      "Ġwithin": 1537,
      "Ġ*/": 1538,
      "CT": 1539,
      "iff": 1540,
      "ural": 1541,
      "ule": 1542,
      "son": 1543,
      "Ġsince": 1544,
      "Ġreal": 1545,
      "Ġlife": 1546,
      "Ġaround": 1547,
      "Ġrece": 1548,
      "âĢĵ": 1549,
      "bl": 1550,
      "Ġstat": 1551,
      "ional": 1552,
      "Ġwr": 1553,
      "'m": 1554,
      "Ġworld": 1555,
      "Ġhum": 1556,
      "def": 1557,
      "ivers": 1558,
      "Ġredu": 1559,
      "Ġcurrent": 1560,
      "Ġdev": 1561,
      "az": 1562,
      "Ġinterest": 1563,
      "ackage": 1564,
      "Ã©": 1565,
      "35": 1566,
      "ĠX": 1567,
      "gen": 1568,
      "28": 1569,
      "alpha": 1570,
      "Ġaddition": 1571,
      "Ġhealth": 1572,
      "que": 1573,
      "Ġstruct": 1574,
      "ently": 1575,
      "ĠWh": 1576,
      "Ġgover": 1577,
      "ID": 1578,
      "ived": 1579,
      "chool": 1580,
      "SE": 1581,
      "Ġanother": 1582,
      "akes": 1583,
      "Ġ#": 1584,
      "ond": 1585,
      "Ġpass": 1586,
      "Ġmark": 1587,
      ",âĢĿ": 1588,
      "34": 1589,
      "self": 1590,
      "Ġinvest": 1591,
      "ott": 1592,
      "resent": 1593,
      "Ġ14": 1594,
      "Ġopen": 1595,
      "Ġtry": 1596,
      "crib": 1597,
      "arent": 1598,
      "lex": 1599,
      "Ġcr": 1600,
      "Ġ</": 1601,
      "Ġarg": 1602,
      "âĢĶ": 1603,
      "br": 1604,
      "Ġself": 1605,
      "ts": 1606,
      "Ġfield": 1607,
      "Ġgreat": 1608,
      "amet": 1609,
      "Ġdel": 1610,
      "Ġcommun": 1611,
      "bers": 1612,
      "Ġlist": 1613,
      "Ġexample": 1614,
      "####": 1615,
      "ives": 1616,
      "arg": 1617,
      "Ġimp": 1618,
      "ves": 1619,
      "You": 1620,
      "Ġpower": 1621,
      "ither": 1622,
      "gram": 1623,
      "rel": 1624,
      "dd": 1625,
      "Ġincluding": 1626,
      "]\\].": 1627,
      "37": 1628,
      "********": 1629,
      "ĠZ": 1630,
      "ĊĊĠ": 1631,
      "ways": 1632,
      "Ġocc": 1633,
      "LE": 1634,
      "face": 1635,
      "Ġtoo": 1636,
      "Ġmean": 1637,
      "sec": 1638,
      "ething": 1639,
      "Ġbeh": 1640,
      "Ġclaim": 1641,
      "Ġmight": 1642,
      "Ġsl": 1643,
      "Ġgiven": 1644,
      "ury": 1645,
      "Ġhead": 1646,
      "ĠCon": 1647,
      "Ġrespect": 1648,
      "Ġtem": 1649,
      "here": 1650,
      "arn": 1651,
      "05": 1652,
      "ribut": 1653,
      "Ġbas": 1654,
      "26": 1655,
      "Ġart": 1656,
      "ably": 1657,
      "arget": 1658,
      "ĠCl": 1659,
      "Ġreally": 1660,
      "^{\\": 1661,
      "ĠIs": 1662,
      "ĠSh": 1663,
      "Ġchang": 1664,
      "Ġgovern": 1665,
      "Ġassoci": 1666,
      "29": 1667,
      "Ġplace": 1668,
      "ope": 1669,
      "Ġ16": 1670,
      "Ch": 1671,
      "ump": 1672,
      "lection": 1673,
      "iness": 1674,
      "ĠHowever": 1675,
      "Ġless": 1676,
      "ining": 1677,
      "arm": 1678,
      "hor": 1679,
      "ĠAmeric": 1680,
      "Ġpot": 1681,
      "ĠThey": 1682,
      "stand": 1683,
      "Ġ{#": 1684,
      "lease": 1685,
      "Ġadv": 1686,
      "ought": 1687,
      "Ġhig": 1688,
      "ength": 1689,
      "RE": 1690,
      "Ġfile": 1691,
      "Ġ$$\\": 1692,
      "yt": 1693,
      "Ġlow": 1694,
      "Ġhapp": 1695,
      "ends": 1696,
      "38": 1697,
      "ference": 1698,
      "fer": 1699,
      "roll": 1700,
      "Ġhome": 1701,
      "Ġbased": 1702,
      "Ġ--": 1703,
      "Ġvis": 1704,
      "Ġmonth": 1705,
      "ety": 1706,
      "Ġapplic": 1707,
      "Ġtop": 1708,
      "ery": 1709,
      "ãģ": 1710,
      "36": 1711,
      "ategory": 1712,
      "icro": 1713,
      "aining": 1714,
      "Ġcap": 1715,
      "ivid": 1716,
      "ault": 1717,
      "'re": 1718,
      "Ġwom": 1719,
      "alse": 1720,
      "rap": 1721,
      "reg": 1722,
      "vert": 1723,
      "Ġve": 1724,
      "thing": 1725,
      "Ġfew": 1726,
      "Ġobject": 1727,
      "Ġgrow": 1728,
      "ocument": 1729,
      "Ġprob": 1730,
      "att": 1731,
      "Ġbus": 1732,
      "Ġcal": 1733,
      "elta": 1734,
      "ĠĠĠĠĠĠĠĠĠĠĠĠĠĠĠĠĠĠĠĠĠĠĠĠ": 1735,
      "21": 1736,
      "ĠNo": 1737,
      "Ġbest": 1738,
      "Ġanalysis": 1739,
      "('": 1740,
      "Ġindic": 1741,
      "Ġsing": 1742,
      "Ġpop": 1743,
      "ittle": 1744,
      "osed": 1745,
      "Ġobserv": 1746,
      "Ġmot": 1747,
      "Ġnext": 1748,
      "ĠâĢĶ": 1749,
      "âĪ": 1750,
      "leg": 1751,
      "IC": 1752,
      "Ġimportant": 1753,
      "by": 1754,
      "Ġtechn": 1755,
      "75": 1756,
      "ised": 1757,
      "AS": 1758,
      "mb": 1759,
      "Ġevidence": 1760,
      "Ġsomething": 1761,
      "els": 1762,
      "oss": 1763,
      "Ġpath": 1764,
      "ambda": 1765,
      "Ġleft": 1766,
      "Ġobt": 1767,
      "Cl": 1768,
      "ext": 1769,
      "45": 1770,
      "Ġfour": 1771,
      "Ġwhether": 1772,
      "Ġopt": 1773,
      "$$": 1774,
      "Ġcommon": 1775,
      "bs": 1776,
      "Ġproduct": 1777,
      "Ġchange": 1778,
      "requ": 1779,
      "90": 1780,
      "che": 1781,
      "cur": 1782,
      "ĠPh": 1783,
      "abl": 1784,
      "Ġbo": 1785,
      "Ġput": 1786,
      "Ġbelie": 1787,
      "inf": 1788,
      "ĠLe": 1789,
      "ertain": 1790,
      "Ġleg": 1791,
      "plic": 1792,
      "Ġsugg": 1793,
      "cing": 1794,
      "Ġsuggest": 1795,
      "ik": 1796,
      "ware": 1797,
      "95": 1798,
      "Ġview": 1799,
      "Ġseem": 1800,
      "ĠThere": 1801,
      "ification": 1802,
      "Ġfail": 1803,
      "Ġexpect": 1804,
      "Ġparticular": 1805,
      "ĠInd": 1806,
      "Ġprof": 1807,
      "used": 1808,
      "ĠWhat": 1809,
      "label": 1810,
      "Ġ30": 1811,
      "AC": 1812,
      "por": 1813,
      "hib": 1814,
      "amma": 1815,
      ")/": 1816,
      "Ġnever": 1817,
      "add": 1818,
      "ccess": 1819,
      "action": 1820,
      "mun": 1821,
      "Ġlight": 1822,
      "70": 1823,
      "col": 1824,
      "opy": 1825,
      "cont": 1826,
      "version": 1827,
      "},": 1828,
      "ĠEx": 1829,
      "Com": 1830,
      "Ġunt": 1831,
      "Ġinvol": 1832,
      "div": 1833,
      "rop": 1834,
      "Ġdescrib": 1835,
      "Ġconne": 1836,
      "Ġask": 1837,
      "Ġbetter": 1838,
      "ples": 1839,
      "Ġturn": 1840,
      "mu": 1841,
      "Ġsit": 1842,
      "Ġabove": 1843,
      "lu": 1844,
      "new": 1845,
      "ĠSo": 1846,
      "Ġlarge": 1847,
      "To": 1848,
      "Ġwater": 1849,
      "ended": 1850,
      "ene": 1851,
      "mathbb": 1852,
      "Ġ11": 1853,
      "part": 1854,
      "ending": 1855,
      "ered": 1856,
      "Ġproblem": 1857,
      "Ġbi": 1858,
      "Ġsk": 1859,
      "Ġtrue": 1860,
      "Ġreason": 1861,
      "As": 1862,
      "ilar": 1863,
      "co": 1864,
      "ird": 1865,
      "Ġrese": 1866,
      "egin": 1867,
      "Ġ{\\": 1868,
      "ormal": 1869,
      "ĠPl": 1870,
      "Ġeas": 1871,
      "orn": 1872,
      "IS": 1873,
      "ser": 1874,
      "Name": 1875,
      "igma": 1876,
      "Ġconsider": 1877,
      "pi": 1878,
      "ats": 1879,
      "Ġtreatment": 1880,
      "Ġleast": 1881,
      "Ġlittle": 1882,
      "Ġsize": 1883,
      "ED": 1884,
      "Ġpossible": 1885,
      "ĠShe": 1886,
      "ailable": 1887,
      "Ġgot": 1888,
      "ĠAll": 1889,
      "Ġlocal": 1890,
      "}_": 1891,
      "48": 1892,
      "ask": 1893,
      "ho": 1894,
      "Ġposition": 1895,
      "Ġcome": 1896,
      "Ġthings": 1897,
      "}^{": 1898,
      "Ġtot": 1899,
      "!\"": 1900,
      "=\\": 1901,
      "Ġris": 1902,
      "ĊĠĠĠĠĠĠĠĠĠ": 1903,
      "Ġdue": 1904,
      "Ġopp": 1905,
      "Ġbuild": 1906,
      "Ġpay": 1907,
      "Ġmov": 1908,
      "Ġimpro": 1909,
      "Ġcharacter": 1910,
      "____": 1911,
      "ividual": 1912,
      "Ġtyp": 1913,
      "rain": 1914,
      "Ġide": 1915,
      "ĠUS": 1916,
      "Ġrepresent": 1917,
      "back": 1918,
      "Ġ==": 1919,
      "illion": 1920,
      "Ġinit": 1921,
      "epend": 1922,
      "39": 1923,
      "ina": 1924,
      "Ġfree": 1925,
      "package": 1926,
      "Ġhy": 1927,
      "HE": 1928,
      "ush": 1929,
      "Ġrest": 1930,
      "data": 1931,
      "iron": 1932,
      "play": 1933,
      "):": 1934,
      "icle": 1935,
      "Ġ17": 1936,
      "aring": 1937,
      "Ġelse": 1938,
      "Ġold": 1939,
      "ajor": 1940,
      "ances": 1941,
      "Ġbig": 1942,
      "Ġquestion": 1943,
      "ĠTo": 1944,
      "idth": 1945,
      "Ġdefend": 1946,
      "Ġsever": 1947,
      "nal": 1948,
      "čĊ": 1949,
      "iod": 1950,
      "Ġhaving": 1951,
      "Ġdays": 1952,
      "Ġshown": 1953,
      "Ġoffic": 1954,
      "Ġgive": 1955,
      "ĠOn": 1956,
      "Ġhuman": 1957,
      "Ġrecord": 1958,
      "ological": 1959,
      "Ġfurther": 1960,
      "sum": 1961,
      "imal": 1962,
      "Ġbr": 1963,
      "Ġorgan": 1964,
      "begin": 1965,
      "aps": 1966,
      "Ġbro": 1967,
      "Ġgame": 1968,
      "Ġes": 1969,
      "];": 1970,
      "Ġtrial": 1971,
      "Ġgre": 1972,
      "}_{": 1973,
      "Ġprom": 1974,
      "Ġ25": 1975,
      "org": 1976,
      "Ġgovernment": 1977,
      "ĠApp": 1978,
      "Ġnet": 1979,
      "mod": 1980,
      "Ġprogram": 1981,
      "ergy": 1982,
      "Ġhist": 1983,
      "Ġweek": 1984,
      "Ġsum": 1985,
      "âĪĴ": 1986,
      "Ġemploy": 1987,
      "ĠState": 1988,
      "Ġcode": 1989,
      "atory": 1990,
      "ctor": 1991,
      "ĊĠĠĠĠĠĠĠĠĠĠĠĠĠĠĠĠĠĠĠ": 1992,
      "Ġprevious": 1993,
      "ream": 1994,
      "Se": 1995,
      "44": 1996,
      "etic": 1997,
      "bar": 1998,
      "Ġkeep": 1999,
      "65": 2000,
      "ns": 2001,
      "If": 2002,
      "ead": 2003,
      "Ġjud": 2004,
      "aut": 2005,
      "Ġexpression": 2006,
      "Ġhard": 2007,
      "Ġindividual": 2008,
      "Ġfeel": 2009,
      "Ġden": 2010,
      "Ġprovide": 2011,
      "Ġpa": 2012,
      "Ġcost": 2013,
      "Id": 2014,
      "Ġalways": 2015,
      "88": 2016,
      "itor": 2017,
      "Type": 2018,
      "Ġmain": 2019,
      "AP": 2020,
      "sel": 2021,
      "Ġ)": 2022,
      "inc": 2023,
      "Ġpotential": 2024,
      "Ġeither": 2025,
      "ĠAd": 2026,
      "ern": 2027,
      "Ġsw": 2028,
      "Ġknown": 2029,
      "Ġcalled": 2030,
      "Ġpriv": 2031,
      "uro": 2032,
      "RO": 2033,
      "Ġrad": 2034,
      "angle": 2035,
      "Ġdiv": 2036,
      "Ġ!": 2037,
      "But": 2038,
      "Ġsimilar": 2039,
      "Ġschool": 2040,
      "ĠThese": 2041,
      "Ġpred": 2042,
      "Ġcho": 2043,
      "ours": 2044,
      "iple": 2045,
      "usion": 2046,
      "ĠCourt": 2047,
      "Ġuntil": 2048,
      "Ġavailable": 2049,
      "ĠUnited": 2050,
      "Ġfamily": 2051,
      "phi": 2052,
      "Ġcomb": 2053,
      "though": 2054,
      "Ġwon": 2055,
      "Ġgeneral": 2056,
      "uck": 2057,
      "lev": 2058,
      "ception": 2059,
      "itle": 2060,
      "opt": 2061,
      "ocial": 2062,
      "Ġside": 2063,
      "raw": 2064,
      "Ġsingle": 2065,
      "clude": 2066,
      "Category": 2067,
      "Ġvol": 2068,
      "Ġfac": 2069,
      "uff": 2070,
      "ental": 2071,
      "Ġben": 2072,
      "LL": 2073,
      "aligned": 2074,
      "Ġteam": 2075,
      "Ġdise": 2076,
      "ĊĊĠĠĠĠĠĠĠ": 2077,
      "Ġmeans": 2078,
      "}$$": 2079,
      "Ġaction": 2080,
      "class": 2081,
      "ĠRes": 2082,
      "ready": 2083,
      "oney": 2084,
      "And": 2085,
      "Ġlik": 2086,
      "Ġspecific": 2087,
      "yle": 2088,
      "Ġproject": 2089,
      "Ġ13": 2090,
      "Ġphys": 2091,
      "ĠFr": 2092,
      "66": 2093,
      "Ġvalues": 2094,
      "Ġplan": 2095,
      "Ġ%": 2096,
      "var": 2097,
      "oor": 2098,
      "For": 2099,
      "Ġcases": 2100,
      "Ġable": 2101,
      "ten": 2102,
      "ison": 2103,
      "Ġchildren": 2104,
      "mit": 2105,
      "Ġsequ": 2106,
      "import": 2107,
      "Ġmajor": 2108,
      "Ġtimes": 2109,
      "itted": 2110,
      "98": 2111,
      "Ġseveral": 2112,
      "Ġmaterial": 2113,
      "Ġcirc": 2114,
      "pone": 2115,
      "ĠCol": 2116,
      "ourse": 2117,
      "ries": 2118,
      "roup": 2119,
      "Ġorig": 2120,
      "Ġhold": 2121,
      "oper": 2122,
      "Ġunderstand": 2123,
      "String": 2124,
      "iversity": 2125,
      "osp": 2126,
      "Ġder": 2127,
      "cript": 2128,
      "Ġsuper": 2129,
      "Ġhigher": 2130,
      "respon": 2131,
      "Ġtre": 2132,
      "usepackage": 2133,
      "Ġkey": 2134,
      "ĠThat": 2135,
      "ember": 2136,
      "ĠĠĠĠĠĠĠĠĠĠĠ": 2137,
      "Ġ100": 2138,
      "lambda": 2139,
      "key": 2140,
      "ressed": 2141,
      "ĠSc": 2142,
      "77": 2143,
      "Ġarea": 2144,
      "100": 2145,
      "essage": 2146,
      "Ġstudies": 2147,
      "Ġabs": 2148,
      "pped": 2149,
      "Ġ>": 2150,
      "indow": 2151,
      "Ġtarget": 2152,
      "Ġbody": 2153,
      "'ve": 2154,
      "rict": 2155,
      "gment": 2156,
      "ney": 2157,
      "cle": 2158,
      "ystem": 2159,
      "http": 2160,
      "this": 2161,
      "iol": 2162,
      "Ġmove": 2163,
      "^{-": 2164,
      "iting": 2165,
      "ored": 2166,
      "94": 2167,
      "Ġ24": 2168,
      "ET": 2169,
      "><": 2170,
      "ION": 2171,
      "Ġfull": 2172,
      "lected": 2173,
      "span": 2174,
      "Ġrate": 2175,
      "Ġperiod": 2176,
      "An": 2177,
      "Ġwhy": 2178,
      "sub": 2179,
      "Ġerror": 2180,
      "96": 2181,
      "idd": 2182,
      "_\\": 2183,
      "conom": 2184,
      "})": 2185,
      "Ġtotal": 2186,
      "Res": 2187,
      "ĠÃ": 2188,
      "Ċĉĉĉ": 2189,
      "Ġstandard": 2190,
      "mm": 2191,
      "ences": 2192,
      "mission": 2193,
      "Ġenergy": 2194,
      "Ċĉĉĉĉ": 2195,
      "04": 2196,
      "Ġbusiness": 2197,
      "}^": 2198,
      "97": 2199,
      "ume": 2200,
      "Ġneg": 2201,
      "Tr": 2202,
      "fficient": 2203,
      "Ġaccess": 2204,
      "eps": 2205,
      "Ġexist": 2206,
      "ustom": 2207,
      "hy": 2208,
      "Ġlater": 2209,
      "rior": 2210,
      "utes": 2211,
      "rug": 2212,
      "Ġlot": 2213,
      "ering": 2214,
      "ids": 2215,
      "ling": 2216,
      "ĠStates": 2217,
      "Ġspace": 2218,
      "Ġfar": 2219,
      "Ġreview": 2220,
      "Ġla": 2221,
      "pm": 2222,
      "ĠAr": 2223,
      "iction": 2224,
      "{{\\": 2225,
      "empt": 2226,
      "Ġsure": 2227,
      "Ġdiff": 2228,
      "string": 2229,
      "Ġprim": 2230,
      "ler": 2231,
      "ift": 2232,
      "time": 2233,
      "Ġ`": 2234,
      "ables": 2235,
      "Ġalready": 2236,
      "aintiff": 2237,
      "Ġfinal": 2238,
      "ged": 2239,
      "Ġdidn": 2240,
      "AD": 2241,
      "ister": 2242,
      "AM": 2243,
      "ibility": 2244,
      "Ġinvestig": 2245,
      "Ġshort": 2246,
      "ĠSp": 2247,
      "55": 2248,
      "Ġdiscuss": 2249,
      "Ġcrit": 2250,
      "ued": 2251,
      "sw": 2252,
      "Ġreported": 2253,
      "ĠAt": 2254,
      "Ġamong": 2255,
      "verage": 2256,
      "go": 2257,
      "Ġassociated": 2258,
      "ĠWhen": 2259,
      "ayer": 2260,
      "qrt": 2261,
      "cription": 2262,
      "Ġmass": 2263,
      "Ġlevels": 2264,
      "urs": 2265,
      "outh": 2266,
      "....": 2267,
      "test": 2268,
      "ĠCal": 2269,
      "OU": 2270,
      "Ġstrong": 2271,
      "ape": 2272,
      "alf": 2273,
      "Ġthought": 2274,
      "olution": 2275,
      "aken": 2276,
      "Ġpract": 2277,
      "Ġresponse": 2278,
      "Ġcertain": 2279,
      "iving": 2280,
      "Ġsent": 2281,
      "FF": 2282,
      "Ġmen": 2283,
      "Ġalong": 2284,
      "chan": 2285,
      "viron": 2286,
      "place": 2287,
      "nces": 2288,
      "ators": 2289,
      "Ġinj": 2290,
      "cd": 2291,
      "Ġparamet": 2292,
      "ivity": 2293,
      "side": 2294,
      "Ġamount": 2295,
      "ava": 2296,
      "////": 2297,
      "31": 2298,
      "Ġsubject": 2299,
      "asing": 2300,
      "Ġrequired": 2301,
      "Ġdone": 2302,
      "Ġwomen": 2303,
      "uppose": 2304,
      "ĠBl": 2305,
      "'ll": 2306,
      "mathbf": 2307,
      "Ġaway": 2308,
      "Ġsays": 2309,
      "Ġexperim": 2310,
      "../": 2311,
      "Ġpercent": 2312,
      "table": 2313,
      "Ġfri": 2314,
      "Ġissue": 2315,
      "List": 2316,
      "Ġ${\\": 2317,
      "Ġpress": 2318,
      "rist": 2319,
      "return": 2320,
      "Ġdom": 2321,
      "sequ": 2322,
      "rect": 2323,
      "ograph": 2324,
      "ey": 2325,
      "Ġid": 2326,
      "85": 2327,
      "Ġdesign": 2328,
      "II": 2329,
      "Val": 2330,
      "td": 2331,
      "Ġoften": 2332,
      "icy": 2333,
      "Ġrequire": 2334,
      "Ġlog": 2335,
      "Ġterms": 2336,
      "uation": 2337,
      "Ġactivity": 2338,
      "ilon": 2339,
      "ogn": 2340,
      "Cont": 2341,
      "IG": 2342,
      "ension": 2343,
      "Ġ=>": 2344,
      "rem": 2345,
      "ands": 2346,
      "Ġ50": 2347,
      "amples": 2348,
      "67": 2349,
      "Ġdevelopment": 2350,
      "ribution": 2351,
      "Ġtell": 2352,
      "ique": 2353,
      "osis": 2354,
      "Ġgroups": 2355,
      "iver": 2356,
      "Ġfore": 2357,
      "Ġport": 2358,
      "Ġhowever": 2359,
      "Ġdr": 2360,
      "orth": 2361,
      "ĠCo": 2362,
      "aster": 2363,
      "Ġage": 2364,
      "Ġwar": 2365,
      "Ġthing": 2366,
      "\")": 2367,
      "Ġevent": 2368,
      "Ġsens": 2369,
      "Ġsuccess": 2370,
      "Ġpolit": 2371,
      "Ġcheck": 2372,
      "lete": 2373,
      "eb": 2374,
      "-\\": 2375,
      "ga": 2376,
      "Ġvir": 2377,
      "stit": 2378,
      "ising": 2379,
      "Ġsal": 2380,
      "></": 2381,
      "beta": 2382,
      "Ġkind": 2383,
      "Ġenough": 2384,
      "Ġcourse": 2385,
      "Ġenc": 2386,
      "Ġaccount": 2387,
      "Ġsat": 2388,
      "acy": 2389,
      "ched": 2390,
      "arrow": 2391,
      "Ġtold": 2392,
      "Ġlower": 2393,
      "fl": 2394,
      "Ġrisk": 2395,
      "ĠĠĠĠĠĠĠĠĠ": 2396,
      "Ġthough": 2397,
      "ources": 2398,
      "ley": 2399,
      "68": 2400,
      "ohn": 2401,
      "Ġcompared": 2402,
      "Ġmicro": 2403,
      "Ġeng": 2404,
      "Ġcoun": 2405,
      "Ġstring": 2406,
      "ories": 2407,
      "Ġfund": 2408,
      "Ġrelations": 2409,
      "----------------------------------------------------------------": 2410,
      "Ġaff": 2411,
      "Ġcou": 2412,
      "date": 2413,
      "ING": 2414,
      "DE": 2415,
      "Is": 2416,
      "Ġbase": 2417,
      "OT": 2418,
      "Ġprovided": 2419,
      "sigma": 2420,
      "Ġmaking": 2421,
      "Ġaccording": 2422,
      "aces": 2423,
      "omet": 2424,
      "Ġinclude": 2425,
      "ores": 2426,
      "angu": 2427,
      "ĠOr": 2428,
      "Ġworking": 2429,
      "Col": 2430,
      "Ġvoid": 2431,
      "Ġnecess": 2432,
      "How": 2433,
      "Ġupon": 2434,
      "gin": 2435,
      "Ġconditions": 2436,
      "pecial": 2437,
      "âĢ¦": 2438,
      "order": 2439,
      "Ġ([": 2440,
      "Ġagree": 2441,
      "Ġrole": 2442,
      "Ġtext": 2443,
      "Ġbit": 2444,
      "Ġfood": 2445,
      "na": 2446,
      "ding": 2447,
      "ival": 2448,
      "AG": 2449,
      "Ġresearch": 2450,
      "ges": 2451,
      "Ġauthor": 2452,
      "Al": 2453,
      "Ġsection": 2454,
      "cret": 2455,
      "Ġuser": 2456,
      "]).": 2457,
      "Ġincrease": 2458,
      "Ġrange": 2459,
      "uture": 2460,
      "Ġeffects": 2461,
      "47": 2462,
      "Ġseen": 2463,
      "ubl": 2464,
      "Ġchanges": 2465,
      "vironment": 2466,
      "inter": 2467,
      "code": 2468,
      "ung": 2469,
      "html": 2470,
      "most": 2471,
      "Ġdoesn": 2472,
      "ache": 2473,
      "Ġdou": 2474,
      "Ġrespons": 2475,
      "ibr": 2476,
      "ession": 2477,
      "ties": 2478,
      "atures": 2479,
      "ij": 2480,
      "Ġ([@": 2481,
      "02": 2482,
      "Ġtax": 2483,
      "Ġtoget": 2484,
      "Ġdem": 2485,
      "Ġtogether": 2486,
      "iation": 2487,
      "Ġbenef": 2488,
      "Ġmil": 2489,
      "ground": 2490,
      "ĠâĢĺ": 2491,
      "Ġsource": 2492,
      "\\_": 2493,
      "ĠRep": 2494,
      "ee": 2495,
      "Ġdetail": 2496,
      "ĠÎ": 2497,
      "Ġcompon": 2498,
      "Ġprotein": 2499,
      "Ġmoney": 2500,
      "Ġproperty": 2501,
      "Ġann": 2502,
      "Ġcomput": 2503,
      "Ġflu": 2504,
      "Ġjob": 2505,
      "Ġpast": 2506,
      "medi": 2507,
      "Ġcomplet": 2508,
      "uit": 2509,
      "Ġincreased": 2510,
      "Ġbecome": 2511,
      "Ġtalk": 2512,
      "Ġimage": 2513,
      "rodu": 2514,
      "Ġfactors": 2515,
      "Ġmor": 2516,
      "artment": 2517,
      "CC": 2518,
      "Ġphot": 2519,
      "www": 2520,
      "head": 2521,
      "Ġservice": 2522,
      "Ġmechan": 2523,
      "ians": 2524,
      "Ġcannot": 2525,
      "69": 2526,
      "Ġobserved": 2527,
      "Ġdri": 2528,
      "08": 2529,
      "Ġcomplex": 2530,
      "rr": 2531,
      "Ġrequest": 2532,
      "Ġsepar": 2533,
      "Ġconduct": 2534,
      "Ġcountry": 2535,
      "Ġlove": 2536,
      "istic": 2537,
      "bo": 2538,
      "Ġparticip": 2539,
      "\"}).": 2540,
      "Ġbook": 2541,
      "af": 2542,
      "ĠUniversity": 2543,
      "Ġfoc": 2544,
      "uration": 2545,
      "mp": 2546,
      "value": 2547,
      "rix": 2548,
      "ev": 2549,
      "bt": 2550,
      "Ġlo": 2551,
      "Ġmonths": 2552,
      "Ġregard": 2553,
      "ection": 2554,
      "Ġcy": 2555,
      "minist": 2556,
      "ules": 2557,
      "Ġdisease": 2558,
      "Ġthird": 2559,
      "ortun": 2560,
      "anc": 2561,
      "wh": 2562,
      "Ġestabl": 2563,
      "eq": 2564,
      "On": 2565,
      "Ġcult": 2566,
      "Ġair": 2567,
      "Ġmeasure": 2568,
      "Ġmom": 2569,
      "ruction": 2570,
      "ĠÐ": 2571,
      "Ġearly": 2572,
      "Ġdoing": 2573,
      "cted": 2574,
      "log": 2575,
      "Ġsocial": 2576,
      "Ġinde": 2577,
      "Ġep": 2578,
      "Ġcreate": 2579,
      "Ġestim": 2580,
      "ĊĠĠĠĠĠĠĠĠĠĠĠĠĠĠĠĠĠĠĠĠĠĠĠĠĠĠĠĠĠĠĠĠ": 2581,
      "mat": 2582,
      "Data": 2583,
      "roid": 2584,
      "View": 2585,
      "Ġmeet": 2586,
      "umber": 2587,
      "pper": 2588,
      "unt": 2589,
      "Ġnormal": 2590,
      "icense": 2591,
      "Ġfrequ": 2592,
      "ependent": 2593,
      "Ġeconom": 2594,
      "78": 2595,
      "Ġcalcul": 2596,
      "Ġclear": 2597,
      "Ġstructure": 2598,
      "ĊĠĠĠĠĠĠ": 2599,
      "Sh": 2600,
      "Ġexc": 2601,
      "Ġdefendant": 2602,
      "Ġclin": 2603,
      "file": 2604,
      "No": 2605,
      "App": 2606,
      "ucle": 2607,
      "Ġcontent": 2608,
      "ĠGen": 2609,
      "ĠSee": 2610,
      "Ġspecial": 2611,
      "Ġprior": 2612,
      "Ġdescribed": 2613,
      "Ġdeath": 2614,
      "Ġbehav": 2615,
      "mathrm": 2616,
      "Ph": 2617,
      "%)": 2618,
      "ened": 2619,
      "Ġprivate": 2620,
      "Ġmultiple": 2621,
      "off": 2622,
      "sqrt": 2623,
      "Ġviol": 2624,
      "Ġactually": 2625,
      "Ġpositive": 2626,
      "mber": 2627,
      "comm": 2628,
      "icult": 2629,
      "const": 2630,
      "Ġpoints": 2631,
      "Ġversion": 2632,
      "Ġcompany": 2633,
      "uf": 2634,
      "ript": 2635,
      "Ar": 2636,
      "load": 2637,
      "Ġseason": 2638,
      "Ġwa": 2639,
      "ĠCan": 2640,
      "oms": 2641,
      "inary": 2642,
      "Ob": 2643,
      "Ġdrug": 2644,
      "Ġsignal": 2645,
      "Ġacross": 2646,
      "CH": 2647,
      ")*": 2648,
      "ixed": 2649,
      "Ġothers": 2650,
      "Un": 2651,
      "Ġquant": 2652,
      "imum": 2653,
      "ony": 2654,
      "There": 2655,
      "Ġconcer": 2656,
      "ires": 2657,
      "equ": 2658,
      "ĠBe": 2659,
      "ounds": 2660,
      "Ġsurface": 2661,
      "Ġrather": 2662,
      "pec": 2663,
      "Ġbreak": 2664,
      "Ġonce": 2665,
      "gamma": 2666,
      "Ġmax": 2667,
      "Ġinitial": 2668,
      "Ġear": 2669,
      "ening": 2670,
      "ceed": 2671,
      "ĠMr": 2672,
      "Ġq": 2673,
      "ĠĠĠĠĠĠĠĠĠĠ": 2674,
      "bib": 2675,
      "Ġcut": 2676,
      "ĠAN": 2677,
      "ĠFig": 2678,
      "}{\\": 2679,
      "irm": 2680,
      "\");": 2681,
      "posed": 2682,
      "itch": 2683,
      "Ġey": 2684,
      "Ġlikely": 2685,
      "AB": 2686,
      "+\\": 2687,
      "bit": 2688,
      "Ġfive": 2689,
      "Ġpick": 2690,
      "OM": 2691,
      "Ġred": 2692,
      "ilde": 2693,
      "Ġshows": 2694,
      "Ġcorrespon": 2695,
      "ogen": 2696,
      "OS": 2697,
      "Ġmillion": 2698,
      "Ġperformed": 2699,
      "Ġdam": 2700,
      "Ġshowed": 2701,
      "Ġbelow": 2702,
      "Ġweight": 2703,
      "ĠAmerican": 2704,
      "ĠIN": 2705,
      "sy": 2706,
      "delta": 2707,
      "Ġmembers": 2708,
      "ĠAss": 2709,
      "Ġmatter": 2710,
      "Ġmarket": 2711,
      "Ġfactor": 2712,
      "Ġhouse": 2713,
      "Ġdetect": 2714,
      "Ġdemon": 2715,
      "ried": 2716,
      "Ġcame": 2717,
      "arc": 2718,
      "Ġsystems": 2719,
      "ude": 2720,
      "Ġapproach": 2721,
      "Ġhtt": 2722,
      "Ġeval": 2723,
      "atter": 2724,
      "Ġspect": 2725,
      "rho": 2726,
      "gree": 2727,
      "ĠGod": 2728,
      "Ġaffect": 2729,
      "Ġfalse": 2730,
      "Ġcause": 2731,
      "ĠMay": 2732,
      "Ġmus": 2733,
      "09": 2734,
      "no": 2735,
      "Ġver": 2736,
      "Ġobtained": 2737,
      ".)": 2738,
      "Ġsite": 2739,
      "ensity": 2740,
      "cular": 2741,
      "Ġbar": 2742,
      "Ġtook": 2743,
      "Ġmakes": 2744,
      "year": 2745,
      "obal": 2746,
      "Ġ(*": 2747,
      ")(": 2748,
      "86": 2749,
      "07": 2750,
      "ones": 2751,
      "Ġvar": 2752,
      "Ġnight": 2753,
      "hing": 2754,
      "idered": 2755,
      "ama": 2756,
      "raft": 2757,
      "iter": 2758,
      "lim": 2759,
      "Ġvarious": 2760,
      "Ġapplication": 2761,
      "Ġever": 2762,
      "onal": 2763,
      "So": 2764,
      "Ġcancer": 2765,
      "Ġblood": 2766,
      "uses": 2767,
      "IM": 2768,
      "Ġsoft": 2769,
      "Ġexperience": 2770,
      "ai": 2771,
      "my": 2772,
      "Ġscre": 2773,
      "Ġmar": 2774,
      "Ġwrit": 2775,
      "Ġdecre": 2776,
      "03": 2777,
      "enc": 2778,
      "Ġlimit": 2779,
      "Ġdeal": 2780,
      "anguage": 2781,
      "'d": 2782,
      "001": 2783,
      "hold": 2784,
      "Ġtemper": 2785,
      "uild": 2786,
      "Ġwhole": 2787,
      "Ġtaken": 2788,
      "Ġanti": 2789,
      "Ġflow": 2790,
      "Ġconsidered": 2791,
      "Ġadded": 2792,
      "Ġfuture": 2793,
      "Ġ$(": 2794,
      "Ġrelated": 2795,
      "now": 2796,
      "oph": 2797,
      "abor": 2798,
      "Ġclos": 2799,
      "ĠOne": 2800,
      "ager": 2801,
      "rad": 2802,
      "Ġoccur": 2803,
      "ino": 2804,
      "net": 2805,
      "plement": 2806,
      "Ġele": 2807,
      "Ġyet": 2808,
      "Ġconcent": 2809,
      "^\\": 2810,
      "illed": 2811,
      "rec": 2812,
      "Ġdefined": 2813,
      "Ġaddress": 2814,
      "Ġdemonstr": 2815,
      "49": 2816,
      "umn": 2817,
      "Figure": 2818,
      "Ġloss": 2819,
      "ĠTe": 2820,
      "ĠĠĠĠĠĠĠĠĠĠĠĠĠĠĠĠĠĠĠĠĠĠĠĠĠĠĠĠĠĠĠĠĠĠĠĠĠĠĠĠĠĠĠĠĠĠĠĠĠĠĠĠĠĠĠĠĠĠĠĠĠĠĠĠĠĠĠĠĠĠĠĠĠĠĠĠĠĠĠĠĠĠĠĠĠĠĠĠĠĠĠĠĠĠĠĠĠĠĠĠĠĠĠĠĠĠĠĠĠĠĠĠĠĠĠĠĠĠĠĠĠĠĠĠĠĠĠĠ": 2821,
      "Ġblock": 2822,
      "Ġparent": 2823,
      "pping": 2824,
      "Â°": 2825,
      "Ġbelieve": 2826,
      "big": 2827,
      "rim": 2828,
      "OP": 2829,
      "87": 2830,
      "Ġmut": 2831,
      "ĠJohn": 2832,
      "Ġnull": 2833,
      "------------": 2834,
      "Ġitem": 2835,
      "aff": 2836,
      "Ġhom": 2837,
      "oll": 2838,
      "Ġconsist": 2839,
      "46": 2840,
      "ĠThen": 2841,
      "Ġrelationship": 2842,
      "ĠWith": 2843,
      "ero": 2844,
      "iding": 2845,
      "dis": 2846,
      "partial": 2847,
      "Ġsolution": 2848,
      "wards": 2849,
      "Ġcommunity": 2850,
      "ĠAfter": 2851,
      "see": 2852,
      "$-": 2853,
      "ply": 2854,
      "57": 2855,
      "lam": 2856,
      "Ġstates": 2857,
      "xim": 2858,
      "Ġwent": 2859,
      "Ġminutes": 2860,
      "ÂłÂł": 2861,
      "ĠCar": 2862,
      "Ð¾": 2863,
      "Ġsex": 2864,
      "andom": 2865,
      "Ġfra": 2866,
      "ĠCent": 2867,
      "42": 2868,
      "Ġrat": 2869,
      "xi": 2870,
      "ĠChrist": 2871,
      "ball": 2872,
      "Ġdecision": 2873,
      "ĠInt": 2874,
      "leq": 2875,
      "')": 2876,
      "Im": 2877,
      "Ġassess": 2878,
      "ledge": 2879,
      "Ġmind": 2880,
      "size": 2881,
      "Ġland": 2882,
      "ĠĊ": 2883,
      "chie": 2884,
      "ĠPat": 2885,
      "aged": 2886,
      "Ġdifficult": 2887,
      "Ġur": 2888,
      "ulated": 2889,
      "Ġmaint": 2890,
      "ĠOb": 2891,
      "rc": 2892,
      "Ġdevice": 2893,
      "Ġimmun": 2894,
      "ober": 2895,
      "Ġtrying": 2896,
      "Ġincluded": 2897,
      "~~": 2898,
      "UT": 2899,
      "Ãĥ": 2900,
      "Ġcamp": 2901,
      "pose": 2902,
      "verse": 2903,
      "Ġcross": 2904,
      "Ġinhib": 2905,
      "Ġdecl": 2906,
      "ãĤ": 2907,
      "Ġexam": 2908,
      "Ġcard": 2909,
      "Ġregion": 2910,
      "Ġcontract": 2911,
      "*,": 2912,
      "atus": 2913,
      "enn": 2914,
      "Ġenvironment": 2915,
      "SS": 2916,
      "body": 2917,
      "89": 2918,
      "Ġhalf": 2919,
      "Ġground": 2920,
      "unc": 2921,
      "ached": 2922,
      "Ġtoday": 2923,
      "theta": 2924,
      "Ġrespectively": 2925,
      "ideo": 2926,
      "Ġface": 2927,
      "util": 2928,
      "inding": 2929,
      "Ġtrad": 2930,
      "ÂĤ": 2931,
      "where": 2932,
      "Ġclose": 2933,
      "izing": 2934,
      "Ġmagn": 2935,
      "Ġcustom": 2936,
      "Ġdefin": 2937,
      "],[@": 2938,
      "Ġappl": 2939,
      "ĠAct": 2940,
      "Ġreceived": 2941,
      "Ġce": 2942,
      "Ġ},": 2943,
      "dro": 2944,
      "itting": 2945,
      "ĠMore": 2946,
      "/*": 2947,
      "IR": 2948,
      "mitted": 2949,
      "une": 2950,
      "aging": 2951,
      "ender": 2952,
      "IL": 2953,
      "Ġadditional": 2954,
      "Ġentire": 2955,
      "Ġintegr": 2956,
      "omega": 2957,
      "Ġtable": 2958,
      "Ġchall": 2959,
      "Ġcity": 2960,
      "ternal": 2961,
      "Ġsignificantly": 2962,
      "Ġanything": 2963,
      "CL": 2964,
      "}}\\": 2965,
      "mary": 2966,
      "Ġpatient": 2967,
      "Ġdat": 2968,
      "lying": 2969,
      "ribute": 2970,
      "Ġfav": 2971,
      "etition": 2972,
      "Ġnetwork": 2973,
      "Ġsix": 2974,
      "Ġsimple": 2975,
      "Ġill": 2976,
      "odes": 2977,
      "ike": 2978,
      "lor": 2979,
      "Ġsus": 2980,
      "ĠÂ§": 2981,
      "Ġaccept": 2982,
      "Ġbound": 2983,
      "position": 2984,
      "ĠMy": 2985,
      "wise": 2986,
      "Ġdig": 2987,
      "06": 2988,
      "gl": 2989,
      "Ġbring": 2990,
      "43": 2991,
      "Ġnat": 2992,
      "Ġlink": 2993,
      "reed": 2994,
      "Ġcompl": 2995,
      "Ġgrowth": 2996,
      "uk": 2997,
      "agement": 2998,
      "istance": 2999,
      "Ġneeds": 3000,
      "Ġasked": 3001,
      "hel": 3002,
      "ocal": 3003,
      "ederal": 3004,
      "ensive": 3005,
      "ĠMed": 3006,
      "IP": 3007,
      "AA": 3008,
      "93": 3009,
      "Ġgetting": 3010,
      "Ġhistory": 3011,
      "pecially": 3012,
      "****************": 3013,
      "Ġ\\\\": 3014,
      "Ġpan": 3015,
      "Ġtw": 3016,
      "tau": 3017,
      "ram": 3018,
      "Ġlength": 3019,
      "Ġwin": 3020,
      "gress": 3021,
      "Ġheart": 3022,
      "Ġindu": 3023,
      "apt": 3024,
      "Ðµ": 3025,
      "Ġlooking": 3026,
      "Table": 3027,
      "Ġnear": 3028,
      "Ġimprove": 3029,
      "aced": 3030,
      "])": 3031,
      "Ġroom": 3032,
      "ĠMan": 3033,
      "Ġattack": 3034,
      "ops": 3035,
      "Ġdifference": 3036,
      "Get": 3037,
      "Ġhref": 3038,
      "miss": 3039,
      "Ġmethods": 3040,
      "include": 3041,
      "Ġtum": 3042,
      "nu": 3043,
      "bf": 3044,
      "Ġseries": 3045,
      "++": 3046,
      "UR": 3047,
      "Ġparty": 3048,
      "using": 3049,
      "Ġcontact": 3050,
      "orld": 3051,
      "based": 3052,
      "isf": 3053,
      "Ġperformance": 3054,
      "Ġexec": 3055,
      "pre": 3056,
      "ĠĠĠĠĠĠĠĠĠĠĠĠĠĠĠ": 3057,
      "ication": 3058,
      "ENT": 3059,
      "uly": 3060,
      "Ġpaper": 3061,
      "but": 3062,
      "ĠEng": 3063,
      "Ġproblems": 3064,
      "Ġvia": 3065,
      "Ġplaintiff": 3066,
      "ÃĹ": 3067,
      "fully": 3068,
      "Ġinput": 3069,
      "ris": 3070,
      "times": 3071,
      "Ġthus": 3072,
      "84": 3073,
      "ĠBy": 3074,
      "ĠSte": 3075,
      "Ġmiss": 3076,
      "Ġissues": 3077,
      "Ġinvolved": 3078,
      "Ġ...": 3079,
      "92": 3080,
      "Ġsubst": 3081,
      "Ġ21": 3082,
      "infty": 3083,
      "Ġcorrect": 3084,
      "Ġalmost": 3085,
      "Â±": 3086,
      "Ġpattern": 3087,
      "IV": 3088,
      ")}": 3089,
      "state": 3090,
      "Ġadj": 3091,
      "All": 3092,
      "US": 3093,
      "Ġnothing": 3094,
      "Ġhours": 3095,
      "56": 3096,
      "à¤": 3097,
      "Ġservices": 3098,
      "Ġeff": 3099,
      "Ġtherefore": 3100,
      "Ġprevent": 3101,
      "ief": 3102,
      "OL": 3103,
      "ĠDep": 3104,
      "Ġneeded": 3105,
      "Ġexpected": 3106,
      "oo": 3107,
      "Ãĳ": 3108,
      "Ġeduc": 3109,
      "Ð°": 3110,
      "irl": 3111,
      "ĠMc": 3112,
      "Ġadminist": 3113,
      "ĠMar": 3114,
      "Ġassum": 3115,
      "Wh": 3116,
      "Ġworks": 3117,
      "more": 3118,
      "ĠCount": 3119,
      "Ġheld": 3120,
      "uments": 3121,
      "box": 3122,
      "iles": 3123,
      "ĠĠĠĠĠĠĠĠĠĠĠĠ": 3124,
      "anks": 3125,
      "ilt": 3126,
      "Value": 3127,
      "ilities": 3128,
      "rid": 3129,
      "Ġpopulation": 3130,
      "Ġinstead": 3131,
      "Ġachie": 3132,
      "Ġofficial": 3133,
      "Ġfilm": 3134,
      "Ġblack": 3135,
      "comes": 3136,
      "ynam": 3137,
      "Ġemb": 3138,
      "With": 3139,
      "Ġansw": 3140,
      "erc": 3141,
      "Ġinflu": 3142,
      "urope": 3143,
      "čĊĠĠĠ": 3144,
      "Ġhost": 3145,
      "https": 3146,
      "yz": 3147,
      "Ġshall": 3148,
      "width": 3149,
      "EM": 3150,
      "Ġattempt": 3151,
      "When": 3152,
      "lt": 3153,
      "Ġbegin": 3154,
      "gest": 3155,
      "Ġrecent": 3156,
      "Ġ$$": 3157,
      "list": 3158,
      "function": 3159,
      "Ġlines": 3160,
      "Ġseems": 3161,
      "ĠDef": 3162,
      "ĠMon": 3163,
      "atively": 3164,
      "Set": 3165,
      "Ġang": 3166,
      "Ġfall": 3167,
      "ĠCor": 3168,
      "Ġgene": 3169,
      "like": 3170,
      "76": 3171,
      "Ġimplement": 3172,
      "ales": 3173,
      "itten": 3174,
      "olve": 3175,
      "ips": 3176,
      "atal": 3177,
      "come": 3178,
      "Ġremov": 3179,
      "PE": 3180,
      "Ġidea": 3181,
      "41": 3182,
      "rs": 3183,
      "Ġstep": 3184,
      "Ġpolice": 3185,
      "ii": 3186,
      "Ġcoll": 3187,
      "Ġstory": 3188,
      "Ġmotion": 3189,
      "ĠCont": 3190,
      "with": 3191,
      "Ġintrodu": 3192,
      "That": 3193,
      "Ġelement": 3194,
      "TR": 3195,
      "selves": 3196,
      "By": 3197,
      "));": 3198,
      "ĠIm": 3199,
      "Ġcomes": 3200,
      "Ġstudents": 3201,
      "![": 3202,
      "Ġpubl": 3203,
      "}$,": 3204,
      "Ġ(-": 3205,
      "ros": 3206,
      "uth": 3207,
      "ĠNot": 3208,
      "Ġpredict": 3209,
      "Ġproduction": 3210,
      "Ġcolor": 3211,
      "Ġ40": 3212,
      "Ġbad": 3213,
      "Ġquality": 3214,
      "Ġtool": 3215,
      "91": 3216,
      "\";": 3217,
      "En": 3218,
      "Ġdisplay": 3219,
      "Ġoutput": 3220,
      "Ġsomeone": 3221,
      "Ġ/*": 3222,
      "lation": 3223,
      "anced": 3224,
      "Ġmodels": 3225,
      "ĠTHE": 3226,
      "word": 3227,
      "Ġreve": 3228,
      "des": 3229,
      "px": 3230,
      "ĠAm": 3231,
      "ging": 3232,
      "field": 3233,
      "Ġlearn": 3234,
      "rapy": 3235,
      "Ġtaking": 3236,
      "trans": 3237,
      "Ġstarted": 3238,
      "Ġpage": 3239,
      "Ġdocument": 3240,
      "ĠYork": 3241,
      "Ġfig": 3242,
      "Ġmedia": 3243,
      "light": 3244,
      "Ġprovides": 3245,
      "ĠMin": 3246,
      "Pl": 3247,
      "Ġyoung": 3248,
      "Ġload": 3249,
      "ensure": 3250,
      "Ġste": 3251,
      "Int": 3252,
      "Ġdistribution": 3253,
      "Ġpolicy": 3254,
      "Ġitself": 3255,
      "Ġ22": 3256,
      "RNA": 3257,
      "Ġsearch": 3258,
      "ĠPres": 3259,
      "ster": 3260,
      "ĠThus": 3261,
      "Ġnecessary": 3262,
      "ills": 3263,
      "\\\\": 3264,
      "rown": 3265,
      "}$.": 3266,
      "Ġrecogn": 3267,
      "ulations": 3268,
      "document": 3269,
      "ying": 3270,
      "ches": 3271,
      "Ġindust": 3272,
      "53": 3273,
      "eks": 3274,
      "ĠPol": 3275,
      "unch": 3276,
      "Ġ28": 3277,
      "ĠDo": 3278,
      "Ġnucle": 3279,
      "Ġaverage": 3280,
      "ĠĠĠĠĠĠĠĠĠĠĠĠĠ": 3281,
      "aled": 3282,
      "Ġlive": 3283,
      "Ġproced": 3284,
      "astic": 3285,
      "down": 3286,
      "^*": 3287,
      "ospital": 3288,
      "ites": 3289,
      "Ġrights": 3290,
      "Ġappear": 3291,
      "Ġprobably": 3292,
      "Ġ||": 3293,
      "54": 3294,
      "ĠTrump": 3295,
      "ĠNational": 3296,
      "define": 3297,
      "Ġcompar": 3298,
      "rror": 3299,
      "Ġdiagn": 3300,
      "Ġoriginal": 3301,
      "utions": 3302,
      "Ġfront": 3303,
      "Ġdire": 3304,
      "Ġclinical": 3305,
      "ĊĠĠĠĠĠĠĠĠĠĠĠĠĠĠĠĠĠĠĠĠĠĠĠ": 3306,
      "Ġess": 3307,
      "Ġmoment": 3308,
      "Delta": 3309,
      "book": 3310,
      "Ġalleg": 3311,
      "Ġconfig": 3312,
      "hem": 3313,
      "elt": 3314,
      "pri": 3315,
      "Ġexact": 3316,
      "param": 3317,
      "Mod": 3318,
      "Ġ27": 3319,
      "Ġimpact": 3320,
      "Ġpret": 3321,
      "Ġfunctions": 3322,
      "Ġâ": 3323,
      "Ġsimply": 3324,
      "Ġproducts": 3325,
      "ccording": 3326,
      "amed": 3327,
      "ributed": 3328,
      "ĠOF": 3329,
      "Ġphase": 3330,
      "Ġcorrel": 3331,
      "Ġwalk": 3332,
      "ecause": 3333,
      "Ġespecially": 3334,
      "error": 3335,
      "Ġdim": 3336,
      "osition": 3337,
      "Ġindex": 3338,
      "ĠEurope": 3339,
      "iqu": 3340,
      "Ġtemperature": 3341,
      "eration": 3342,
      "eter": 3343,
      "ĠBo": 3344,
      "Ġwords": 3345,
      "hers": 3346,
      "fr": 3347,
      "clusion": 3348,
      "|\\": 3349,
      "comp": 3350,
      "Ġsequence": 3351,
      "overed": 3352,
      "PS": 3353,
      "Ġfoot": 3354,
      "olic": 3355,
      "istics": 3356,
      "Ġsample": 3357,
      "bb": 3358,
      "Ġproperties": 3359,
      "Ġcontext": 3360,
      "su": 3361,
      "83": 3362,
      "ãĥ": 3363,
      "Ġdest": 3364,
      "Ġconv": 3365,
      "Ġgra": 3366,
      "Ġdepend": 3367,
      "oke": 3368,
      "augh": 3369,
      "Ġformer": 3370,
      "ĠMe": 3371,
      "xy": 3372,
      "Ġinstall": 3373,
      "Ġvalid": 3374,
      "point": 3375,
      "ĠEn": 3376,
      "Ġpersonal": 3377,
      "Ġchem": 3378,
      "Object": 3379,
      "Ġeffort": 3380,
      "Ġ!=": 3381,
      "Ġassert": 3382,
      "Ġprint": 3383,
      "Text": 3384,
      "actions": 3385,
      "Ġcomplete": 3386,
      "Ġderiv": 3387,
      "ĠCity": 3388,
      "inally": 3389,
      "refore": 3390,
      "ards": 3391,
      "Ġsil": 3392,
      "Ġdetermined": 3393,
      "Ġpresence": 3394,
      "arily": 3395,
      "($": 3396,
      "Ġmedical": 3397,
      "Ġcopy": 3398,
      "perty": 3399,
      "iddle": 3400,
      "Ġdistrict": 3401,
      "Ġconsum": 3402,
      "Ġ26": 3403,
      "Ġstatic": 3404,
      "Ġevents": 3405,
      "quad": 3406,
      "array": 3407,
      "Ġmole": 3408,
      "Ġgenes": 3409,
      "Ġquick": 3410,
      "Ġ23": 3411,
      "Ġpoly": 3412,
      "\\*": 3413,
      "ili": 3414,
      "Ġcred": 3415,
      "ĠInc": 3416,
      "Ġpolitical": 3417,
      "Ġoutside": 3418,
      "Ġpressure": 3419,
      "ien": 3420,
      "Ġsense": 3421,
      "plit": 3422,
      "Ġarray": 3423,
      "inks": 3424,
      "sl": 3425,
      "ux": 3426,
      "ymb": 3427,
      "struct": 3428,
      "Ġdate": 3429,
      "ĠJan": 3430,
      "Ġsatisf": 3431,
      "Ġstrateg": 3432,
      "Ġeffective": 3433,
      "Ġtypes": 3434,
      "ĠCD": 3435,
      "Ġlack": 3436,
      "Ġprimary": 3437,
      "ran": 3438,
      "ĠString": 3439,
      "Ġlanguage": 3440,
      "52": 3441,
      "My": 3442,
      "Ind": 3443,
      "OD": 3444,
      "ults": 3445,
      "dom": 3446,
      "Ġeverything": 3447,
      "Ġcreat": 3448,
      "Ġ&&": 3449,
      "item": 3450,
      "MS": 3451,
      "File": 3452,
      "Ġwrong": 3453,
      "Ġremain": 3454,
      "char": 3455,
      "58": 3456,
      "ronic": 3457,
      "Ġphysical": 3458,
      "path": 3459,
      "ocr": 3460,
      "Ġfeatures": 3461,
      "ĠÂ±": 3462,
      "Ġlonger": 3463,
      "/>": 3464,
      "../../": 3465,
      "annel": 3466,
      "do": 3467,
      "cm": 3468,
      "ana": 3469,
      "]{},": 3470,
      "Ġinside": 3471,
      "Ġpain": 3472,
      "Ġdetermine": 3473,
      "Ġconstit": 3474,
      "Ġselect": 3475,
      "Ġpresented": 3476,
      "Ġeasy": 3477,
      "culate": 3478,
      "bor": 3479,
      "At": 3480,
      "Ġjudgment": 3481,
      "Ġnews": 3482,
      "Ġquite": 3483,
      "Ġidentified": 3484,
      "Ġcreated": 3485,
      "ĠPr": 3486,
      "Ġmi": 3487,
      "Ġstop": 3488,
      "public": 3489,
      "Ġacid": 3490,
      "ese": 3491,
      "ises": 3492,
      "Ġrunning": 3493,
      "sych": 3494,
      "fra": 3495,
      "icon": 3496,
      "Ad": 3497,
      "59": 3498,
      "Ġincreasing": 3499,
      "Ġsamples": 3500,
      "ags": 3501,
      "Ġbasis": 3502,
      "ĠĠĠĠĠĠĠĠĠĠĠĠĠĠ": 3503,
      "Ġrandom": 3504,
      "ĠGe": 3505,
      "aving": 3506,
      "Âĥ": 3507,
      "Ġsurv": 3508,
      "Ġhyp": 3509,
      "Ġstay": 3510,
      "Ġwhite": 3511,
      "Ġparameters": 3512,
      "Ġevalu": 3513,
      "Ġwanted": 3514,
      "Ġhope": 3515,
      "74": 3516,
      "Ġtiss": 3517,
      "sim": 3518,
      "Ġstatus": 3519,
      "Ġfollows": 3520,
      "Ġund": 3521,
      "Ġcontroll": 3522,
      "Ed": 3523,
      "Ġstatement": 3524,
      "72": 3525,
      "rast": 3526,
      "rack": 3527,
      "Ġmember": 3528,
      "Item": 3529,
      "81": 3530,
      "ÑĤ": 3531,
      "urch": 3532,
      "Ġapproxim": 3533,
      "Ġareas": 3534,
      "Ġfire": 3535,
      "ancial": 3536,
      "82": 3537,
      "Ġpack": 3538,
      "}(\\": 3539,
      "rite": 3540,
      "Ġsem": 3541,
      "ĠGu": 3542,
      "Ġcontinu": 3543,
      "Ġisn": 3544,
      "79": 3545,
      "Ġelements": 3546,
      "print": 3547,
      "ĠLicense": 3548,
      "Ġframe": 3549,
      "Ġweeks": 3550,
      "Ġoil": 3551,
      "ogle": 3552,
      "51": 3553,
      "asons": 3554,
      "ĠPart": 3555,
      "ĠQu": 3556,
      "Ġdirectly": 3557,
      "Ġ?": 3558,
      "Ġpair": 3559,
      "Ġsecur": 3560,
      "Ġstra": 3561,
      "Ġconstant": 3562,
      "top": 3563,
      "void": 3564,
      "âĢĲ": 3565,
      "ervice": 3566,
      "Par": 3567,
      "lier": 3568,
      "Ġquestions": 3569,
      "Ġago": 3570,
      "sk": 3571,
      "Ġrecomm": 3572,
      "itary": 3573,
      "ĠPar": 3574,
      "CD": 3575,
      "ottom": 3576,
      "Ġfun": 3577,
      "Not": 3578,
      "dev": 3579,
      "63": 3580,
      "________": 3581,
      "Ġmemory": 3582,
      "EL": 3583,
      "Ġprinc": 3584,
      "lig": 3585,
      "ha": 3586,
      "Ġforce": 3587,
      "``": 3588,
      "rial": 3589,
      "Ġnatural": 3590,
      "Ġcry": 3591,
      "Ġgames": 3592,
      "acc": 3593,
      "user": 3594,
      "earch": 3595,
      "ega": 3596,
      "Ġtheory": 3597,
      "isions": 3598,
      "UN": 3599,
      "erson": 3600,
      "msg": 3601,
      "fection": 3602,
      "OC": 3603,
      "ellant": 3604,
      "Ġtraining": 3605,
      "itation": 3606,
      "Ġgrad": 3607,
      "ocol": 3608,
      "ĠPe": 3609,
      "Ġstri": 3610,
      "gn": 3611,
      "Ã¡": 3612,
      "Ġpie": 3613,
      "Ġavoid": 3614,
      "Ġsett": 3615,
      "era": 3616,
      "Ġ(\\[": 3617,
      "Key": 3618,
      "Ps": 3619,
      "Ġknowledge": 3620,
      "lementary": 3621,
      "Qu": 3622,
      "Ġtransfer": 3623,
      "Ġopportun": 3624,
      "TH": 3625,
      "rangle": 3626,
      "Ġgas": 3627,
      "Ġcontinue": 3628,
      "ially": 3629,
      "ĠHar": 3630,
      "ĠDr": 3631,
      "ĠDNA": 3632,
      "Ġextra": 3633,
      "Ġple": 3634,
      "ĠHis": 3635,
      "hood": 3636,
      "tilde": 3637,
      "Ġbuilding": 3638,
      "Ġbehind": 3639,
      "plate": 3640,
      "ĠSystem": 3641,
      "73": 3642,
      "met": 3643,
      "het": 3644,
      "clus": 3645,
      "rote": 3646,
      ")$.": 3647,
      "ously": 3648,
      "Ġfem": 3649,
      "Ġgreater": 3650,
      "reet": 3651,
      "Ġcontain": 3652,
      "Ġapplied": 3653,
      "Ġshare": 3654,
      "Ġmis": 3655,
      "iet": 3656,
      "\\])": 3657,
      "cell": 3658,
      "Ġreplace": 3659,
      "fs": 3660,
      "Ġlimited": 3661,
      "from": 3662,
      "Ġvideo": 3663,
      "rows": 3664,
      "ferences": 3665,
      "oma": 3666,
      "ayout": 3667,
      "Ġmice": 3668,
      "Ġdefault": 3669,
      "PL": 3670,
      "lege": 3671,
      "Ġrelease": 3672,
      "map": 3673,
      "Ġpreviously": 3674,
      "ĠPresident": 3675,
      "vere": 3676,
      "Ġbehavior": 3677,
      "ML": 3678,
      "ĠSuppose": 3679,
      "aves": 3680,
      "Ġmap": 3681,
      "Ġtitle": 3682,
      "Ġincludes": 3683,
      "Ġreduced": 3684,
      "Ġsaw": 3685,
      "Ġful": 3686,
      "pite": 3687,
      "term": 3688,
      "oles": 3689,
      "cdot": 3690,
      "ague": 3691,
      "ĠTherefore": 3692,
      "Ġjo": 3693,
      "SD": 3694,
      "oat": 3695,
      "\".": 3696,
      "Ġvict": 3697,
      "ula": 3698,
      "roph": 3699,
      "Ġability": 3700,
      "Ġoption": 3701,
      "Ġnational": 3702,
      "script": 3703,
      "ĠOur": 3704,
      "max": 3705,
      "mpt": 3706,
      "Ġbur": 3707,
      "71": 3708,
      "Ġexpress": 3709,
      "Ġveh": 3710,
      "elling": 3711,
      "BC": 3712,
      "js": 3713,
      "ĠIntern": 3714,
      "Ġfriend": 3715,
      "arning": 3716,
      "De": 3717,
      "ada": 3718,
      "Ġmessage": 3719,
      "ÃĤ": 3720,
      "Ġstyle": 3721,
      "Ġ60": 3722,
      "Ġmach": 3723,
      "Ġclaims": 3724,
      "osure": 3725,
      "isms": 3726,
      "Ġdeveloped": 3727,
      "imate": 3728,
      "Ġarticle": 3729,
      "Ġimmedi": 3730,
      "rant": 3731,
      "rief": 3732,
      "Ġopin": 3733,
      ":**": 3734,
      "Ġrev": 3735,
      "apter": 3736,
      "umb": 3737,
      "ader": 3738,
      "ĊĊĊ": 3739,
      "Ġlayer": 3740,
      "ĠAf": 3741,
      "fered": 3742,
      "osph": 3743,
      "Ġfavor": 3744,
      "Ð¸": 3745,
      "Ġaccom": 3746,
      "().": 3747,
      "sm": 3748,
      "ech": 3749,
      "length": 3750,
      "Ġimpl": 3751,
      "Ġpresident": 3752,
      "Ġhot": 3753,
      "Or": 3754,
      "Ġcompan": 3755,
      "icles": 3756,
      "Ġinvention": 3757,
      "ĠId": 3758,
      "ĠNe": 3759,
      "orks": 3760,
      "ners": 3761,
      "Ġsoftware": 3762,
      "psilon": 3763,
      "iber": 3764,
      ".'": 3765,
      "pen": 3766,
      "ament": 3767,
      "aches": 3768,
      "ĠAP": 3769,
      "Ġindependent": 3770,
      "Ġwrite": 3771,
      "Ġmother": 3772,
      "Ġhttp": 3773,
      "Ġprec": 3774,
      "ĠFurther": 3775,
      "kn": 3776,
      "otic": 3777,
      "Test": 3778,
      "Ġnumbers": 3779,
      "...\"": 3780,
      "Ġplayers": 3781,
      "ĠDist": 3782,
      "Ġwritten": 3783,
      "Ġappropri": 3784,
      "Ġprotect": 3785,
      "Ġmatch": 3786,
      "Ġdouble": 3787,
      "Ġautom": 3788,
      "Ġword": 3789,
      "Ġreference": 3790,
      "och": 3791,
      "Ġ2012": 3792,
      "Ġantib": 3793,
      "]^": 3794,
      "62": 3795,
      "Ġfollowed": 3796,
      "ĠJust": 3797,
      "ĠComp": 3798,
      "Ġcoming": 3799,
      "ĠSim": 3800,
      "She": 3801,
      "uary": 3802,
      "Ġparticularly": 3803,
      "aign": 3804,
      "Def": 3805,
      "ĠCounty": 3806,
      "ĠDes": 3807,
      "ethyl": 3808,
      "ĠSouth": 3809,
      "ĠSince": 3810,
      "Ġcand": 3811,
      "atives": 3812,
      "ocation": 3813,
      "ĠDem": 3814,
      "IF": 3815,
      "Ġslow": 3816,
      ")=": 3817,
      "Ġleave": 3818,
      "apan": 3819,
      "čĊč": 3820,
      "Ġactive": 3821,
      "gor": 3822,
      "Ġir": 3823,
      "Ġobtain": 3824,
      "Ġrefer": 3825,
      "Ġsecurity": 3826,
      "CA": 3827,
      "ĠWhile": 3828,
      "illi": 3829,
      "EX": 3830,
      "rupt": 3831,
      "Ġ;": 3832,
      "Ġprep": 3833,
      "Ġbir": 3834,
      "Ġclean": 3835,
      "ĠRuss": 3836,
      "urb": 3837,
      "Ġforward": 3838,
      "Ġnegative": 3839,
      "Ġmention": 3840,
      "Ġunit": 3841,
      "ĠPa": 3842,
      "Ġrepe": 3843,
      "range": 3844,
      "ĠST": 3845,
      "iven": 3846,
      "ishing": 3847,
      "vention": 3848,
      "Ġcorresponding": 3849,
      "Ġconstruct": 3850,
      "Ġ[*": 3851,
      "Ġgirl": 3852,
      "Ġwindow": 3853,
      "supp": 3854,
      "ĠOR": 3855,
      "Ġlate": 3856,
      "Ġnature": 3857,
      "ĠNorth": 3858,
      "Ġspecies": 3859,
      "Ġusually": 3860,
      "abase": 3861,
      "fo": 3862,
      "ĠPer": 3863,
      "non": 3864,
      "Add": 3865,
      "hest": 3866,
      "ĠReg": 3867,
      "Ġvot": 3868,
      "ä¸": 3869,
      "Ġrule": 3870,
      "ashing": 3871,
      "Ġrates": 3872,
      "Ġdifferences": 3873,
      "MA": 3874,
      "mega": 3875,
      "Ġliving": 3876,
      "Ġoffice": 3877,
      "61": 3878,
      "Ġaltern": 3879,
      "Ġalthough": 3880,
      "ĠHere": 3881,
      "Ġanswer": 3882,
      "Ġdynam": 3883,
      "Ġ2013": 3884,
      "Ġwhose": 3885,
      "Ġorg": 3886,
      "Ġnote": 3887,
      "inated": 3888,
      "Ġbox": 3889,
      "Ġglobal": 3890,
      "Ġpurch": 3891,
      "Ġpractice": 3892,
      "reng": 3893,
      "ĠWorld": 3894,
      "Ġoffer": 3895,
      "Ġtried": 3896,
      "ĠVal": 3897,
      "levant": 3898,
      "Ġargument": 3899,
      "Ġbrain": 3900,
      "SP": 3901,
      "Ġetc": 3902,
      "Ġanim": 3903,
      "Ġregular": 3904,
      "eline": 3905,
      "Ġonline": 3906,
      "Ġgrant": 3907,
      "Ġinstance": 3908,
      "Ġ2016": 3909,
      "Ġwebs": 3910,
      "atform": 3911,
      "}}$": 3912,
      "ĠAb": 3913,
      "Ġpo": 3914,
      "Ġcompet": 3915,
      "group": 3916,
      "isc": 3917,
      "Ġgenerally": 3918,
      "ils": 3919,
      "Ġlost": 3920,
      "oon": 3921,
      "cast": 3922,
      "Ġsle": 3923,
      "ste": 3924,
      "Ġrecently": 3925,
      "ĠSm": 3926,
      "psi": 3927,
      "aries": 3928,
      "ĠEd": 3929,
      "Ġprot": 3930,
      "itness": 3931,
      "inate": 3932,
      "erve": 3933,
      "Ġaccur": 3934,
      "ĠSome": 3935,
      "Ġwall": 3936,
      "ĠGo": 3937,
      "encies": 3938,
      "Le": 3939,
      "Ġ2014": 3940,
      "quest": 3941,
      "Ġthemselves": 3942,
      "urance": 3943,
      "change": 3944,
      "Suppose": 3945,
      "Ġbackground": 3946,
      "ĠPhys": 3947,
      "Ġanyone": 3948,
      "////////": 3949,
      "pret": 3950,
      "illing": 3951,
      "Ġtakes": 3952,
      "ener": 3953,
      "Ġproposed": 3954,
      "Ġcountries": 3955,
      "link": 3956,
      "Ġwatch": 3957,
      "joy": 3958,
      "Ġagreement": 3959,
      "================================": 3960,
      "vey": 3961,
      "Ġge": 3962,
      "Ġsort": 3963,
      "Ġdriv": 3964,
      "ees": 3965,
      "Ġresid": 3966,
      "ĠâĪĴ": 3967,
      "Ġsaying": 3968,
      "pat": 3969,
      "ivil": 3970,
      "pace": 3971,
      "CE": 3972,
      "Ġexcept": 3973,
      "Ġdensity": 3974,
      "Ġball": 3975,
      "Ġstress": 3976,
      "Ġ/>": 3977,
      "Exception": 3978,
      "ĠDav": 3979,
      "resh": 3980,
      "wide": 3981,
      "Ġtreated": 3982,
      "gorith": 3983,
      "lin": 3984,
      "Ġessential": 3985,
      "orph": 3986,
      "ĠII": 3987,
      "py": 3988,
      "ĠOct": 3989,
      "*~": 3990,
      "Des": 3991,
      "ĠMarch": 3992,
      "ĠFirst": 3993,
      "rew": 3994,
      "ned": 3995,
      "Ġanalyz": 3996,
      "vare": 3997,
      "}=": 3998,
      "Ġhimself": 3999,
      "ĠHouse": 4000,
      "Error": 4001,
      "ming": 4002,
      "Ġlegal": 4003,
      "00000000": 4004,
      "Ġrot": 4005,
      "ĠIS": 4006,
      "Ġsituation": 4007,
      "ufact": 4008,
      "Ġpurpose": 4009,
      "Ġfederal": 4010,
      "Ġhar": 4011,
      "ĊĠĠĠĠĠĠĠĠĠĠĠĠĠ": 4012,
      "^[@": 4013,
      "((": 4014,
      "pril": 4015,
      "Ġenh": 4016,
      "index": 4017,
      "Ġcenter": 4018,
      "Ġheav": 4019,
      "anger": 4020,
      "\"><": 4021,
      "Ġ29": 4022,
      "rightarrow": 4023,
      "Ġbecame": 4024,
      "ĠChina": 4025,
      "Ġ2015": 4026,
      "State": 4027,
      "Ġrelative": 4028,
      "ĠAmerica": 4029,
      "epsilon": 4030,
      "Ġfeed": 4031,
      "Ġpretty": 4032,
      "Ġspeed": 4033,
      "ĠSch": 4034,
      "ham": 4035,
      "Ġdeep": 4036,
      "Ġways": 4037,
      "Ġcover": 4038,
      "Ġdirection": 4039,
      "Ġhydro": 4040,
      "âĢĥ": 4041,
      "Ġrele": 4042,
      "bon": 4043,
      "Ġfinancial": 4044,
      "One": 4045,
      "Time": 4046,
      "ULL": 4047,
      "uel": 4048,
      "ï¼": 4049,
      "igen": 4050,
      "aily": 4051,
      "Ġfailed": 4052,
      "Ġserious": 4053,
      "Ġfast": 4054,
      "Ġpublished": 4055,
      "ulate": 4056,
      "ĠDepartment": 4057,
      "ĠAust": 4058,
      "Ġperfect": 4059,
      "Ġrespond": 4060,
      "Ġ);": 4061,
      "Ġpict": 4062,
      "acity": 4063,
      "003": 4064,
      "Ġvers": 4065,
      "varepsilon": 4066,
      "lib": 4067,
      "Ġintern": 4068,
      "Ġhighly": 4069,
      "lock": 4070,
      "\\].": 4071,
      "Omega": 4072,
      "ports": 4073,
      "['": 4074,
      "Ġwoman": 4075,
      "Cal": 4076,
      "Ġphen": 4077,
      "Ġprice": 4078,
      "Ġisol": 4079,
      "Ġfindings": 4080,
      "Man": 4081,
      "ĠBar": 4082,
      "Gamma": 4083,
      "reme": 4084,
      "sing": 4085,
      "Ġallowed": 4086,
      "pan": 4087,
      "bi": 4088,
      "Ġderivative": 4089,
      "Ġsufficient": 4090,
      "ĠAug": 4091,
      "Ġselected": 4092,
      "Ġcharge": 4093,
      "ae": 4094,
      "ait": 4095,
      "ĠĊĠĠĠĠĠĠĠĠĠĠĠĠĠĠĠ": 4096,
      "oding": 4097,
      "Ġnode": 4098,
      "Ġdegree": 4099,
      "Ġcommit": 4100,
      "aching": 4101,
      "base": 4102,
      "Ġoperation": 4103,
      "rought": 4104,
      "ĉĉĉĉ": 4105,
      "uge": 4106,
      "Ġcomponent": 4107,
      "Ġstar": 4108,
      "izes": 4109,
      "Ġcomment": 4110,
      "Ġcommand": 4111,
      "Ġhor": 4112,
      "ociety": 4113,
      ")$,": 4114,
      "ournal": 4115,
      "Ġstage": 4116,
      "dim": 4117,
      "Ġlarger": 4118,
      "Ġdesigned": 4119,
      "aur": 4120,
      "Ġmeasured": 4121,
      "Ġlabel": 4122,
      "anch": 4123,
      "Ġtradition": 4124,
      "Ġgave": 4125,
      "that": 4126,
      "rael": 4127,
      "Ġjury": 4128,
      "###": 4129,
      "ĠGerm": 4130,
      "Ġsaf": 4131,
      "Ġdetails": 4132,
      "Ġgraph": 4133,
      "init": 4134,
      "mar": 4135,
      "GF": 4136,
      "ibrary": 4137,
      "oud": 4138,
      "argin": 4139,
      "Ġindividuals": 4140,
      "ĠSu": 4141,
      "Ġsoon": 4142,
      "PR": 4143,
      "ĠGeneral": 4144,
      "Ġcampaign": 4145,
      "Ġidentify": 4146,
      "Class": 4147,
      "Ġdraw": 4148,
      "oice": 4149,
      "Ġimages": 4150,
      "nb": 4151,
      "Ġeveryone": 4152,
      "ades": 4153,
      "olds": 4154,
      "Ġsubstant": 4155,
      "orem": 4156,
      "Ġcurrently": 4157,
      "haps": 4158,
      "Ġcaused": 4159,
      "ĠAp": 4160,
      "Ġfocus": 4161,
      "Ġalone": 4162,
      "Ġpsych": 4163,
      "PA": 4164,
      "Ġauth": 4165,
      "Ġsqu": 4166,
      "Ġque": 4167,
      "Ġfriends": 4168,
      "Ġlocation": 4169,
      "Ġproteins": 4170,
      "fn": 4171,
      "oe": 4172,
      "Ġwasn": 4173,
      "omy": 4174,
      "Ġ2011": 4175,
      "Ġaud": 4176,
      "ĠJune": 4177,
      "ĠJapan": 4178,
      "ĠNow": 4179,
      "Ġvisit": 4180,
      "};": 4181,
      "Of": 4182,
      "Ġgives": 4183,
      "Ġrestr": 4184,
      "BS": 4185,
      "aling": 4186,
      "Ġcomponents": 4187,
      "Ġstreng": 4188,
      "TT": 4189,
      "Ġ[**": 4190,
      "ĠAlthough": 4191,
      "Ġeyes": 4192,
      "den": 4193,
      "Ġstim": 4194,
      "Ġbank": 4195,
      "Ġ2010": 4196,
      "Ġfiles": 4197,
      "orage": 4198,
      "Ġmatrix": 4199,
      "Ġprofess": 4200,
      "ouch": 4201,
      "ĠRepublic": 4202,
      "Ġchoice": 4203,
      "Ġround": 4204,
      "fil": 4205,
      "Ġscale": 4206,
      "Ġrequires": 4207,
      "oring": 4208,
      "iated": 4209,
      "ocks": 4210,
      "Ġ:=": 4211,
      "hern": 4212,
      "zz": 4213,
      "NS": 4214,
      "exp": 4215,
      "Ġattention": 4216,
      "Ġroad": 4217,
      "Ġfixed": 4218,
      "Ġclust": 4219,
      "operator": 4220,
      "Ġproceed": 4221,
      "New": 4222,
      "ersion": 4223,
      "section": 4224,
      "Ġpromot": 4225,
      "FL": 4226,
      "Ġcompanies": 4227,
      "estern": 4228,
      "Ġfight": 4229,
      "Ġbegan": 4230,
      "Ġknew": 4231,
      "Ġuseful": 4232,
      "ius": 4233,
      "hesis": 4234,
      "aker": 4235,
      "Ġhyper": 4236,
      "call": 4237,
      "ĠHealth": 4238,
      "Ġsynt": 4239,
      "iency": 4240,
      "ze": 4241,
      "ffer": 4242,
      "Ġleading": 4243,
      "Ġpull": 4244,
      "Ġoptions": 4245,
      "Ġled": 4246,
      "Ġsuit": 4247,
      "Ġ2017": 4248,
      "Ġbal": 4249,
      "Ġpoor": 4250,
      "ĠSer": 4251,
      "Ġ///": 4252,
      "obile": 4253,
      "semb": 4254,
      "Ġfailure": 4255,
      "(),": 4256,
      "ÃĹÂ": 4257,
      "---|": 4258,
      "osing": 4259,
      "Ġnotice": 4260,
      "Ġ__": 4261,
      "Ġmanagement": 4262,
      "Ġcook": 4263,
      "istry": 4264,
      "Ġfrequency": 4265,
      "itter": 4266,
      "Ġusers": 4267,
      "Ġdeb": 4268,
      "EC": 4269,
      "Ġthreat": 4270,
      "Ġbed": 4271,
      "ifically": 4272,
      "Ġ->": 4273,
      "active": 4274,
      "coming": 4275,
      "Ġord": 4276,
      "reen": 4277,
      "ography": 4278,
      "ĠSen": 4279,
      "Ġunique": 4280,
      "ken": 4281,
      "Ġ\"\"": 4282,
      "Ġeducation": 4283,
      "cap": 4284,
      "ĠSept": 4285,
      "rate": 4286,
      "iring": 4287,
      "Ġcandid": 4288,
      "Ġratio": 4289,
      "Ġtechnology": 4290,
      "Path": 4291,
      "}_{\\": 4292,
      "irmed": 4293,
      "Ġsche": 4294,
      "orney": 4295,
      "čĊĠ": 4296,
      "Ġrecept": 4297,
      "Ġcontains": 4298,
      "tee": 4299,
      "ĠWar": 4300,
      "ride": 4301,
      "vis": 4302,
      "Ġemerg": 4303,
      "Ġson": 4304,
      "Sec": 4305,
      "ellow": 4306,
      "cil": 4307,
      "Ġdivided": 4308,
      ".*": 4309,
      "Ġcircum": 4310,
      "Ġcompletely": 4311,
      "omen": 4312,
      "Ġprime": 4313,
      "Ġten": 4314,
      "Ġexerc": 4315,
      "Ġgoal": 4316,
      "Ġacqu": 4317,
      "style": 4318,
      "Ġcosts": 4319,
      "Ġconnection": 4320,
      "ĠTH": 4321,
      "run": 4322,
      "itude": 4323,
      "ifier": 4324,
      "!!": 4325,
      "Ġsn": 4326,
      "Sc": 4327,
      "Ġlat": 4328,
      "Ġparts": 4329,
      "SC": 4330,
      "Now": 4331,
      "gu": 4332,
      "Ġapply": 4333,
      "Ġbuy": 4334,
      "Do": 4335,
      "Ġindustry": 4336,
      "Ġparties": 4337,
      "Ġcentral": 4338,
      "ĠJanuary": 4339,
      ".[": 4340,
      "Ġserver": 4341,
      "True": 4342,
      "Ġneigh": 4343,
      "Ġenjoy": 4344,
      "static": 4345,
      "ĠApril": 4346,
      "');": 4347,
      "ube": 4348,
      "known": 4349,
      "UL": 4350,
      "Ġappropriate": 4351,
      "spec": 4352,
      "Ġearlier": 4353,
      "Ð¾Ð": 4354,
      "ĠGl": 4355,
      "Ġfair": 4356,
      "Ġheat": 4357,
      "Ġmulti": 4358,
      "Ġmanufact": 4359,
      "nes": 4360,
      "ĠWest": 4361,
      "Ġcyt": 4362,
      "());": 4363,
      "Ġinform": 4364,
      "Ġfine": 4365,
      "Ġexpressed": 4366,
      "ĠJuly": 4367,
      "Ġoverall": 4368,
      "Ġ\\<": 4369,
      "efore": 4370,
      "Ġdistance": 4371,
      "Ġpen": 4372,
      "Ġtim": 4373,
      "band": 4374,
      "Ġaim": 4375,
      "Ġsupported": 4376,
      "Ġgenerated": 4377,
      "ĠĠĠĠĠĠĠĠĠĠĠĠĠĠĠĠĠĠĠ": 4378,
      "alt": 4379,
      "varphi": 4380,
      "Ġdead": 4381,
      "Ġdefinition": 4382,
      "Ġ----------------": 4383,
      "^+": 4384,
      "Ġestablished": 4385,
      "Ġstated": 4386,
      "Ġ31": 4387,
      "Ġallows": 4388,
      "Ġdog": 4389,
      "Ġtrack": 4390,
      "ancy": 4391,
      "ĠTrans": 4392,
      "Ġwidth": 4393,
      "Ġdevices": 4394,
      "OW": 4395,
      "}.": 4396,
      "Ġequal": 4397,
      "Ġhospital": 4398,
      "Ġbroad": 4399,
      "Ġengine": 4400,
      "lick": 4401,
      "Ġ($": 4402,
      "Ġeasily": 4403,
      "Ġboard": 4404,
      "Ġheight": 4405,
      "ĠCir": 4406,
      "From": 4407,
      "They": 4408,
      "ĠJud": 4409,
      "Ġ<<": 4410,
      "force": 4411,
      "Ġimm": 4412,
      "Ġsites": 4413,
      "čĊĠĠĠĠĠĠĠ": 4414,
      "ĠBrit": 4415,
      "Ġcontaining": 4416,
      "abled": 4417,
      "Ġweb": 4418,
      "Ġtown": 4419,
      "Ġreasons": 4420,
      "cember": 4421,
      "\"/>": 4422,
      "Ġfinding": 4423,
      "enses": 4424,
      "df": 4425,
      "ãĢ": 4426,
      "uted": 4427,
      "MP": 4428,
      "Form": 4429,
      "Over": 4430,
      "ĠMich": 4431,
      "Ġ(\\": 4432,
      "Ġhighest": 4433,
      "Ġcapt": 4434,
      "chi": 4435,
      "Ġcritical": 4436,
      "='": 4437,
      "Ġlocated": 4438,
      "Ġ32": 4439,
      "Be": 4440,
      "Ġparameter": 4441,
      "Ġproduced": 4442,
      "Supp": 4443,
      "Ġactivities": 4444,
      "Ġdiscl": 4445,
      "Ġleaders": 4446,
      "Ġeconomic": 4447,
      "Ġtumor": 4448,
      "Ġfather": 4449,
      "eed": 4450,
      "overn": 4451,
      "ĠRed": 4452,
      "ĠFeb": 4453,
      "Ġstaff": 4454,
      "urity": 4455,
      "Ġfiled": 4456,
      "Ġtrust": 4457,
      "ĠStud": 4458,
      "ĠIsrael": 4459,
      "._": 4460,
      ")-": 4461,
      "Ġreduce": 4462,
      "ica": 4463,
      "Ġrelevant": 4464,
      "Ġworth": 4465,
      "overy": 4466,
      "mark": 4467,
      "Ġones": 4468,
      "ĠAg": 4469,
      "bra": 4470,
      "Ġclearly": 4471,
      "yond": 4472,
      "ĠMod": 4473,
      "Ġactual": 4474,
      "){#": 4475,
      "Ġchalleng": 4476,
      "vec": 4477,
      "Ġconcept": 4478,
      "DA": 4479,
      "Ġauthors": 4480,
      "Ġnames": 4481,
      "Ġsympt": 4482,
      "Ġmeaning": 4483,
      "Ġfelt": 4484,
      "Ġmode": 4485,
      "iate": 4486,
      "ÑĢ": 4487,
      "ĠSw": 4488,
      "Ġstore": 4489,
      "}^{\\": 4490,
      "ios": 4491,
      "bin": 4492,
      "Ġopinion": 4493,
      "Ġvariable": 4494,
      "Ġappeal": 4495,
      "title": 4496,
      "ymbol": 4497,
      "hand": 4498,
      "ails": 4499,
      "Ġmys": 4500,
      "Sim": 4501,
      "ĠEl": 4502,
      "Ġhit": 4503,
      "king": 4504,
      "ĠAND": 4505,
      "pid": 4506,
      "Ġax": 4507,
      "Ġadjust": 4508,
      "ytes": 4509,
      "Ġplant": 4510,
      "Ġles": 4511,
      "SA": 4512,
      "Ġwriting": 4513,
      "Ġtravel": 4514,
      "Ġliter": 4515,
      "Context": 4516,
      "*-": 4517,
      "bre": 4518,
      "Ġvs": 4519,
      "ĠCons": 4520,
      "Ġqual": 4521,
      "ibly": 4522,
      "Ġwebsite": 4523,
      "Ġsound": 4524,
      "oura": 4525,
      "Size": 4526,
      "\\'": 4527,
      "config": 4528,
      "Ġproof": 4529,
      "Ġinjury": 4530,
      "Ġchanged": 4531,
      "Ġbrought": 4532,
      "lish": 4533,
      "odies": 4534,
      "Ġdro": 4535,
      "Ġhands": 4536,
      "overline": 4537,
      "Ġshowing": 4538,
      "ĠĠĠĠĠĠĠĠĠĠĠĠĠĠĠĠĠ": 4539,
      "Ġsmaller": 4540,
      "002": 4541,
      "ĠÃĲ": 4542,
      "Ġreceive": 4543,
      "color": 4544,
      "related": 4545,
      "Ġmid": 4546,
      "';": 4547,
      "ovember": 4548,
      "Ġgoes": 4549,
      "Ġdoor": 4550,
      "Ġuses": 4551,
      "ĠGet": 4552,
      "cluded": 4553,
      "Ġexperiments": 4554,
      "fort": 4555,
      "*.": 4556,
      "Ġ2008": 4557,
      "Ġlearning": 4558,
      "Ġdark": 4559,
      "Ġtransition": 4560,
      "Ġcontrast": 4561,
      "Ġappears": 4562,
      "Ġrules": 4563,
      "Ġhon": 4564,
      "operatorname": 4565,
      "font": 4566,
      "Ġitems": 4567,
      "langle": 4568,
      "Ġ35": 4569,
      "Ġelectro": 4570,
      "Ġvector": 4571,
      "Ġlooks": 4572,
      "Ġbeyond": 4573,
      "Ġheard": 4574,
      "Ġmer": 4575,
      "men": 4576,
      "Ġeffic": 4577,
      "Ġdu": 4578,
      "Ġremains": 4579,
      "Ġcomputer": 4580,
      "Ġculture": 4581,
      "ATE": 4582,
      "ĠCong": 4583,
      "arter": 4584,
      "Ġcounsel": 4585,
      "':": 4586,
      "Ð½": 4587,
      "Ġbuilt": 4588,
      "Ġaw": 4589,
      "Ġfat": 4590,
      "ĠFrom": 4591,
      "âĶ": 4592,
      "Ġutil": 4593,
      "Ġfa": 4594,
      "Ġunderstanding": 4595,
      "la": 4596,
      "Ġhearing": 4597,
      "Ġnumer": 4598,
      "Ġrelig": 4599,
      "Ġinterpret": 4600,
      "ĠGr": 4601,
      "Ġbeaut": 4602,
      "ashington": 4603,
      "Ġadvant": 4604,
      "raz": 4605,
      "Ġlooked": 4606,
      "room": 4607,
      "Ġroot": 4608,
      "Ġturned": 4609,
      "Ġalgorith": 4610,
      "Ġsecret": 4611,
      "attle": 4612,
      "Ġcarry": 4613,
      "rier": 4614,
      "Ġworked": 4615,
      "Ġinn": 4616,
      "Ġtowards": 4617,
      "ĠArt": 4618,
      "Ġwonder": 4619,
      "rence": 4620,
      "opl": 4621,
      "Ġsurpr": 4622,
      "Ġmajority": 4623,
      "ĠSy": 4624,
      "ĠPublic": 4625,
      "Ġtransport": 4626,
      "Ġprefer": 4627,
      "Ġextract": 4628,
      "rum": 4629,
      "Ġplease": 4630,
      "Ġbinding": 4631,
      "Ġregarding": 4632,
      "works": 4633,
      "inct": 4634,
      "Ġvariables": 4635,
      "Ġinternal": 4636,
      "Ġproduce": 4637,
      "Info": 4638,
      "Ġdecided": 4639,
      "Ñģ": 4640,
      "utive": 4641,
      "lamm": 4642,
      "Ġskin": 4643,
      "After": 4644,
      "input": 4645,
      "ille": 4646,
      ")).": 4647,
      "Ġexists": 4648,
      "Ġsomet": 4649,
      "osite": 4650,
      "Ġtherapy": 4651,
      "Ġbenefits": 4652,
      "Ġconnect": 4653,
      "ights": 4654,
      "Ġdrive": 4655,
      "Ġfully": 4656,
      "Ġlov": 4657,
      "ĠDistrict": 4658,
      "RA": 4659,
      "Ġconcentration": 4660,
      "Ġcontribut": 4661,
      "\":\"": 4662,
      "Ġtissue": 4663,
      "grams": 4664,
      "Ġcounter": 4665,
      "Ġsubsequ": 4666,
      "Ġbirth": 4667,
      "Ġrepl": 4668,
      "ĠAugust": 4669,
      "Ġparents": 4670,
      "Ġeight": 4671,
      "Ġreports": 4672,
      "Ġtask": 4673,
      "Ġmilitary": 4674,
      "Ġgun": 4675,
      "Ġsold": 4676,
      "Config": 4677,
      "cules": 4678,
      "Ġresulting": 4679,
      "Ġcool": 4680,
      "Ġ2009": 4681,
      "Ġprogress": 4682,
      "icted": 4683,
      "Ġ^": 4684,
      "Ġprop": 4685,
      ")^": 4686,
      "rag": 4687,
      "pective": 4688,
      "ĠSchool": 4689,
      "^{(": 4690,
      "lo": 4691,
      "oses": 4692,
      "Ġexactly": 4693,
      "oken": 4694,
      "Ġcouple": 4695,
      "Ġyield": 4696,
      "irt": 4697,
      "inst": 4698,
      "Ġindicated": 4699,
      "java": 4700,
      "Ġvirt": 4701,
      "ĠAccording": 4702,
      "node": 4703,
      "Ġinfection": 4704,
      "ĠOctober": 4705,
      "unk": 4706,
      "Ġlinear": 4707,
      ")**": 4708,
      "Ġsetting": 4709,
      "Ġmedium": 4710,
      "free": 4711,
      "Ġwrote": 4712,
      "======": 4713,
      "eah": 4714,
      "}}(": 4715,
      "stream": 4716,
      "Ġandroid": 4717,
      "Ġinteresting": 4718,
      "Ġmorning": 4719,
      "Ġ/**": 4720,
      "ĊĊĠĠĠĠĠĠĠĠĠĠĠ": 4721,
      "iday": 4722,
      "Ġox": 4723,
      "asis": 4724,
      "enge": 4725,
      "geq": 4726,
      "Ġmount": 4727,
      "Ġmaterials": 4728,
      "count": 4729,
      "Ġreading": 4730,
      "Ġvehicle": 4731,
      "pol": 4732,
      "Ġconsequ": 4733,
      "Ġplayed": 4734,
      "Ġfeature": 4735,
      "ĠSeptember": 4736,
      "\\<": 4737,
      "gy": 4738,
      "Ġscore": 4739,
      "nbsp": 4740,
      "Ġobvious": 4741,
      "undred": 4742,
      "Ġcam": 4743,
      "ĠDecember": 4744,
      "}}_": 4745,
      "Ġsolid": 4746,
      "Ġinterview": 4747,
      "Ġmeeting": 4748,
      "PC": 4749,
      "Ġgets": 4750,
      "db": 4751,
      "ĠAfric": 4752,
      "ares": 4753,
      "Ġcolumn": 4754,
      "Ġseparate": 4755,
      "asm": 4756,
      "Ġreasonable": 4757,
      "material": 4758,
      "itro": 4759,
      "Ġdefine": 4760,
      "icip": 4761,
      "ĠLa": 4762,
      "ford": 4763,
      "athe": 4764,
      "\\,": 4765,
      "Ġreaction": 4766,
      ">>": 4767,
      "ls": 4768,
      "Ġ2018": 4769,
      "iforn": 4770,
      "Ġplayer": 4771,
      "Ġconstruction": 4772,
      "Ġfields": 4773,
      "icit": 4774,
      "ĠDemocr": 4775,
      "Event": 4776,
      "Ġapplications": 4777,
      "Ġstarting": 4778,
      "tered": 4779,
      "Ġzero": 4780,
      "Ġarrest": 4781,
      "frak": 4782,
      "Ġsec": 4783,
      "ĠSub": 4784,
      "Ġpul": 4785,
      "ĠChar": 4786,
      "adem": 4787,
      "Ġmaximum": 4788,
      "Ġthroughout": 4789,
      "Ġliqu": 4790,
      "ME": 4791,
      "gs": 4792,
      "ql": 4793,
      "Ġparticipants": 4794,
      "arest": 4795,
      "ico": 4796,
      "rab": 4797,
      "anged": 4798,
      "Ġvolume": 4799,
      "Ġnoted": 4800,
      "erate": 4801,
      "Ġdamage": 4802,
      "Ġprocesses": 4803,
      "ĠData": 4804,
      "ĠChe": 4805,
      "Ġregions": 4806,
      "Ġdomain": 4807,
      "Ġformation": 4808,
      "cos": 4809,
      "Ġcollect": 4810,
      "Ct": 4811,
      "iences": 4812,
      "Ġconnected": 4813,
      "Ġclosed": 4814,
      "case": 4815,
      "Ġrob": 4816,
      "Ġsafety": 4817,
      "Ġfix": 4818,
      "Ġlives": 4819,
      "Ġinstit": 4820,
      "start": 4821,
      "Ġabsol": 4822,
      "Ġnor": 4823,
      "Ġbecomes": 4824,
      "Ġformed": 4825,
      "omic": 4826,
      "ĠBecause": 4827,
      "Ġarch": 4828,
      "Ġfit": 4829,
      "Exp": 4830,
      "grad": 4831,
      "Ġsources": 4832,
      "Ġslight": 4833,
      "erved": 4834,
      "irit": 4835,
      "Ġadministration": 4836,
      "Ġaspect": 4837,
      "true": 4838,
      "Ġhear": 4839,
      "Out": 4840,
      "ruary": 4841,
      "Ġlay": 4842,
      "Ġsafe": 4843,
      "Ġrevealed": 4844,
      "Ġcoord": 4845,
      "gery": 4846,
      "Ġinternational": 4847,
      "Ġstru": 4848,
      "Ġinteraction": 4849,
      "ĠÃĹ": 4850,
      "Ġstd": 4851,
      "------": 4852,
      "Ġcit": 4853,
      "ĠSection": 4854,
      "ĠDet": 4855,
      "Ġswe": 4856,
      "]:": 4857,
      "VER": 4858,
      "Ġtransform": 4859,
      "ida": 4860,
      "Ġcollection": 4861,
      "Ġotherwise": 4862,
      "ESS": 4863,
      "Ġbasic": 4864,
      "Ġtests": 4865,
      "ĠNovember": 4866,
      "Ġreflect": 4867,
      "cons": 4868,
      "Ab": 4869,
      "Ġlaws": 4870,
      "HT": 4871,
      "mail": 4872,
      "was": 4873,
      "Ġeth": 4874,
      "urt": 4875,
      "ifornia": 4876,
      "Ġimmediately": 4877,
      "info": 4878,
      "Ġter": 4879,
      "Ġmess": 4880,
      "Ġequation": 4881,
      "BA": 4882,
      "Ġdemand": 4883,
      "ĠMoreover": 4884,
      "Ġpopular": 4885,
      "RT": 4886,
      "Ġscient": 4887,
      "ameter": 4888,
      "conne": 4889,
      "otal": 4890,
      "ĠCenter": 4891,
      "wid": 4892,
      "which": 4893,
      "image": 4894,
      "ĠIL": 4895,
      "Ġign": 4896,
      "Ġvictim": 4897,
      "Ġreduction": 4898,
      "Ġactions": 4899,
      "Ġ80": 4900,
      "Ġreleased": 4901,
      "ĠUSA": 4902,
      "atur": 4903,
      "ĠSan": 4904,
      "Ġthous": 4905,
      "Ġhous": 4906,
      "amin": 4907,
      "pling": 4908,
      "ĠWashington": 4909,
      "ANT": 4910,
      "Ġer": 4911,
      "Ġopportunity": 4912,
      "Ġtoward": 4913,
      "cles": 4914,
      "Sub": 4915,
      "iance": 4916,
      ".\\": 4917,
      "Ġpaid": 4918,
      "Ġmort": 4919,
      "Ġinfluence": 4920,
      "ĠID": 4921,
      "Ġmechanism": 4922,
      "Ġgiving": 4923,
      "ĠDis": 4924,
      "EST": 4925,
      "ĠOf": 4926,
      "ĠCoun": 4927,
      "CS": 4928,
      "Ġremember": 4929,
      "ĠHigh": 4930,
      "Ġroll": 4931,
      "']": 4932,
      "Ġwide": 4933,
      "bur": 4934,
      "ounced": 4935,
      "Ġ90": 4936,
      "long": 4937,
      "CP": 4938,
      "ĠBr": 4939,
      "ĠRec": 4940,
      "board": 4941,
      "Ġmetab": 4942,
      "Ġconsistent": 4943,
      "Ġcombination": 4944,
      "imony": 4945,
      "Ġfigure": 4946,
      "Ġtesting": 4947,
      "ĠPark": 4948,
      "Ġsleep": 4949,
      "ĠMark": 4950,
      "sembly": 4951,
      "Ġdefense": 4952,
      "Ġult": 4953,
      "Big": 4954,
      "Ġspeak": 4955,
      "php": 4956,
      "Ġ]": 4957,
      "Ġrelatively": 4958,
      "ĠCommission": 4959,
      "########": 4960,
      "Ġwild": 4961,
      "mathfrak": 4962,
      "raint": 4963,
      "Ġensure": 4964,
      "Ġsometimes": 4965,
      "ael": 4966,
      "alle": 4967,
      "Ġresources": 4968,
      "CO": 4969,
      "cin": 4970,
      "Ġphosph": 4971,
      "Ġresistance": 4972,
      "Ġforms": 4973,
      "Ġcapital": 4974,
      "Ġmur": 4975,
      "False": 4976,
      "Ġphone": 4977,
      "Ġyes": 4978,
      "ctors": 4979,
      "Ġquickly": 4980,
      "Ġfunctional": 4981,
      "Ġclient": 4982,
      "zym": 4983,
      "Ġaware": 4984,
      "ĠAD": 4985,
      "ĠAng": 4986,
      "object": 4987,
      "Ġmiddle": 4988,
      "Ġthinking": 4989,
      "tem": 4990,
      "ĠPM": 4991,
      "ny": 4992,
      "Ġalleged": 4993,
      "Ġchance": 4994,
      "RI": 4995,
      "iful": 4996,
      "check": 4997,
      "Node": 4998,
      "Ġstrength": 4999,
      "Ġspin": 5000,
      "Ġ(**": 5001,
      "âĶĢ": 5002,
      "Ġmyself": 5003,
      "enty": 5004,
      "Ġprocedure": 5005,
      "Ġgreen": 5006,
      "ĠInst": 5007,
      "Ġhappen": 5008,
      "stitute": 5009,
      "Ġplaying": 5010,
      "Here": 5011,
      "Ġmembr": 5012,
      "[]": 5013,
      "ĠTable": 5014,
      "Ġnearly": 5015,
      "Ġchoose": 5016,
      "Ġremove": 5017,
      "ĠTw": 5018,
      "Ġportion": 5019,
      "Ġswitch": 5020,
      "Ġproviding": 5021,
      "Ġmovement": 5022,
      "Ġneut": 5023,
      "Ġmoved": 5024,
      "Ġenter": 5025,
      "uffer": 5026,
      "Ġdetected": 5027,
      "ilies": 5028,
      "ponent": 5029,
      "Ġhappened": 5030,
      "aste": 5031,
      "Ġconducted": 5032,
      "Ġdatabase": 5033,
      "Ġbottom": 5034,
      "Ġblog": 5035,
      "Ġachieve": 5036,
      "Ġ~": 5037,
      "ĠNet": 5038,
      "PD": 5039,
      "Ġmoving": 5040,
      "Ġlegis": 5041,
      "Ġexisting": 5042,
      "Ġcore": 5043,
      "Ġstation": 5044,
      "ooth": 5045,
      "Ġobjects": 5046,
      "pc": 5047,
      "ky": 5048,
      "poses": 5049,
      "Ġmal": 5050,
      "Ġestablish": 5051,
      "[^": 5052,
      "iform": 5053,
      "Ġbrief": 5054,
      "Ġmusic": 5055,
      "ĠAustral": 5056,
      "ĠObama": 5057,
      "Ġcomplic": 5058,
      "Ġready": 5059,
      "Ġchannel": 5060,
      "Ġcircumst": 5061,
      "EE": 5062,
      "Ġreach": 5063,
      "eria": 5064,
      "ĠList": 5065,
      "Ġcommer": 5066,
      "Ġhundred": 5067,
      "iques": 5068,
      "Ġequival": 5069,
      "Map": 5070,
      "Ġlif": 5071,
      "Ġdaily": 5072,
      "Ġsteps": 5073,
      "ĊĊĠĠĠĠĠ": 5074,
      "500": 5075,
      "ensions": 5076,
      "Ġcalculated": 5077,
      "jection": 5078,
      "Ġfacts": 5079,
      "Ġcircuit": 5080,
      "FA": 5081,
      "Ġanalys": 5082,
      "Inst": 5083,
      "Ġincor": 5084,
      "Ġfinally": 5085,
      "Ġanimals": 5086,
      "Index": 5087,
      "ĠFl": 5088,
      "lication": 5089,
      "Ġconcentr": 5090,
      "\\],": 5091,
      "Ġindicate": 5092,
      "iable": 5093,
      "Oh": 5094,
      "Ġyourself": 5095,
      "Field": 5096,
      "oto": 5097,
      "Ġdemonstrated": 5098,
      "ĠHol": 5099,
      "endant": 5100,
      "Ġnearest": 5101,
      "Ġemail": 5102,
      "Ġil": 5103,
      "Fr": 5104,
      "Ġexhib": 5105,
      "ett": 5106,
      "airs": 5107,
      "level": 5108,
      "pir": 5109,
      "ĠĠĠĠĠĠĠĠĠĠĠĠĠĠĠĠĠĠ": 5110,
      "encing": 5111,
      "parent": 5112,
      "Ġunits": 5113,
      "%,": 5114,
      "ĠAlso": 5115,
      "ĠSec": 5116,
      "ĠTex": 5117,
      "())": 5118,
      "flow": 5119,
      "vest": 5120,
      "Ġcomments": 5121,
      "\"},": 5122,
      "itors": 5123,
      "omin": 5124,
      "},\\": 5125,
      "Ġprove": 5126,
      "INT": 5127,
      "thon": 5128,
      "Ġupper": 5129,
      "Ġcrim": 5130,
      "Ġstatist": 5131,
      "ĠNULL": 5132,
      "######": 5133,
      "Ġwave": 5134,
      "ĠAdd": 5135,
      "Ġregul": 5136,
      "ĠAM": 5137,
      "Ġband": 5138,
      "ĠCalifornia": 5139,
      "Ġtrade": 5140,
      "Ġjur": 5141,
      "atin": 5142,
      "rome": 5143,
      "Ġcapacity": 5144,
      "can": 5145,
      "Equ": 5146,
      "Ġcarried": 5147,
      "ĠRev": 5148,
      "Up": 5149,
      "Ġremoved": 5150,
      "Ġpetition": 5151,
      "uced": 5152,
      "Ġdoc": 5153,
      "soft": 5154,
      "Ġplaced": 5155,
      "ĠKing": 5156,
      "Ġbacter": 5157,
      "indows": 5158,
      "Ġborder": 5159,
      "Ġseven": 5160,
      "Ġsend": 5161,
      "CON": 5162,
      "Ġprocessing": 5163,
      "ĠLaw": 5164,
      "ocket": 5165,
      "under": 5166,
      "rees": 5167,
      "Ġpow": 5168,
      "Trans": 5169,
      "Ġfear": 5170,
      "Ġstuff": 5171,
      "Ġvariety": 5172,
      "oz": 5173,
      "Fl": 5174,
      "Ġcivil": 5175,
      "Ġ37": 5176,
      "Ġblue": 5177,
      "ĠHer": 5178,
      "ui": 5179,
      "Ġweak": 5180,
      "Ġwitness": 5181,
      "otype": 5182,
      "Ġsets": 5183,
      "---|---|": 5184,
      "FT": 5185,
      "Ġshape": 5186,
      "ĠOther": 5187,
      "Ġwife": 5188,
      "ĠCO": 5189,
      "aught": 5190,
      "atever": 5191,
      "Ġ45": 5192,
      "ÃŃ": 5193,
      "iers": 5194,
      "igation": 5195,
      "GL": 5196,
      "ĠAT": 5197,
      "Ġscreen": 5198,
      "ĠFebruary": 5199,
      "Ġoperator": 5200,
      "Ġdistributed": 5201,
      "Ġbenefit": 5202,
      "Ġextrem": 5203,
      "IB": 5204,
      "ĠHam": 5205,
      "*(": 5206,
      "Ġpackage": 5207,
      "stitution": 5208,
      "Me": 5209,
      "Ġselection": 5210,
      "Ġcert": 5211,
      "Ġmg": 5212,
      "Ġ2007": 5213,
      "urrent": 5214,
      "Ã³": 5215,
      "well": 5216,
      "pected": 5217,
      "Ġlabor": 5218,
      "Ġsuggested": 5219,
      "uty": 5220,
      "umin": 5221,
      "Ġrow": 5222,
      "ĠEven": 5223,
      "Ġpeak": 5224,
      "Ġmachine": 5225,
      "coh": 5226,
      "olved": 5227,
      "ipe": 5228,
      "dered": 5229,
      "acing": 5230,
      "Ġonto": 5231,
      "iment": 5232,
      "ĠFigure": 5233,
      "Ġtruth": 5234,
      "Ġrecommend": 5235,
      "\",\"": 5236,
      "Ġnamed": 5237,
      "Ġrace": 5238,
      "LA": 5239,
      ",-": 5240,
      "Ġprem": 5241,
      "orb": 5242,
      "]\\],": 5243,
      "space": 5244,
      "Ġapparent": 5245,
      "roy": 5246,
      "Ġprograms": 5247,
      "Ġimag": 5248,
      "num": 5249,
      "circ": 5250,
      "Ser": 5251,
      "ĠAssoci": 5252,
      "DS": 5253,
      "apping": 5254,
      "IA": 5255,
      "Ġcomparison": 5256,
      "Array": 5257,
      "Code": 5258,
      "Ġworkers": 5259,
      "ĠPre": 5260,
      "icity": 5261,
      "Color": 5262,
      "uman": 5263,
      "othe": 5264,
      "Ġhealthy": 5265,
      "Ġconflic": 5266,
      "/(-": 5267,
      "Ġnation": 5268,
      "Ġplatform": 5269,
      "UM": 5270,
      "Ġincreases": 5271,
      "Log": 5272,
      "ĠPal": 5273,
      "atically": 5274,
      "Ġlib": 5275,
      "Hand": 5276,
      "md": 5277,
      "Ġmagnetic": 5278,
      "Ġsen": 5279,
      "ĠEuropean": 5280,
      "Ġsusp": 5281,
      "race": 5282,
      "block": 5283,
      "Ġexposure": 5284,
      "elle": 5285,
      "Ġnorm": 5286,
      "rie": 5287,
      "ĠAut": 5288,
      "Ġmaybe": 5289,
      "Ġpassed": 5290,
      "Ġletters": 5291,
      "omas": 5292,
      "car": 5293,
      "ĠWhite": 5294,
      "content": 5295,
      "open": 5296,
      "cho": 5297,
      "Ġplaces": 5298,
      "Date": 5299,
      "Ġresponsible": 5300,
      "Ġvisual": 5301,
      "PT": 5302,
      "Ġmeasures": 5303,
      "Ġ\\,": 5304,
      "ĠIndia": 5305,
      "Ġdiscussed": 5306,
      "Ġreplacement": 5307,
      "ithub": 5308,
      "ensional": 5309,
      "Ġupd": 5310,
      "berg": 5311,
      "ifying": 5312,
      "Ġmag": 5313,
      "Ġsave": 5314,
      "Ġcorpor": 5315,
      "Ġapproximately": 5316,
      "Ġ95": 5317,
      "ĠBro": 5318,
      "build": 5319,
      "aughter": 5320,
      "Ġpicked": 5321,
      "Ġbill": 5322,
      "ondon": 5323,
      "ĠCON": 5324,
      "Ġhair": 5325,
      "Ġletter": 5326,
      "Ġcharacteristics": 5327,
      "Ġbul": 5328,
      "Ġincome": 5329,
      "Î±": 5330,
      "Ġmanner": 5331,
      "kay": 5332,
      "ĊĠĠĠĠĠĠĠĠĠĠĠĠĠĠĠĠĠĠĠĠĠĠĠĠĠĠĠ": 5333,
      "ĠBoard": 5334,
      "Ġjudge": 5335,
      "Ġemot": 5336,
      "Ġsymptoms": 5337,
      "Ġ70": 5338,
      "dot": 5339,
      "core": 5340,
      "Ġinsurance": 5341,
      "/(": 5342,
      "Ġupdate": 5343,
      "pass": 5344,
      "url": 5345,
      "[\\": 5346,
      "source": 5347,
      "ĠFound": 5348,
      "Ġfresh": 5349,
      "Ġwid": 5350,
      "di": 5351,
      "Ġdrugs": 5352,
      "omb": 5353,
      "Ġstructures": 5354,
      "za": 5355,
      "ado": 5356,
      "Ġfib": 5357,
      "ruit": 5358,
      "Ġadopt": 5359,
      "Ġtalking": 5360,
      "ĠResearch": 5361,
      "ĠPaul": 5362,
      "Ġbeginning": 5363,
      "Ġarriv": 5364,
      "ĠAc": 5365,
      "ĠUK": 5366,
      "Ġunc": 5367,
      "Ġstraight": 5368,
      "ĠInter": 5369,
      "Reg": 5370,
      "Ġhour": 5371,
      "Ġcontinued": 5372,
      "Att": 5373,
      "Ġshot": 5374,
      "Ġmodern": 5375,
      "Ġpanel": 5376,
      "roller": 5377,
      "Ġnut": 5378,
      "Ġunf": 5379,
      "Ġdie": 5380,
      "bm": 5381,
      "Ġdiss": 5382,
      "Ġmale": 5383,
      "Ġtestimony": 5384,
      "itis": 5385,
      "Ġ36": 5386,
      "Ġspread": 5387,
      "Rec": 5388,
      "Ġassume": 5389,
      "normal": 5390,
      "Ġactivation": 5391,
      "Ġbud": 5392,
      "asp": 5393,
      "Ġri": 5394,
      "Ġsevere": 5395,
      "izer": 5396,
      "Ġreturned": 5397,
      "ara": 5398,
      "ipp": 5399,
      ")/(-": 5400,
      "Ġuns": 5401,
      "Ġtour": 5402,
      "Ġexperiment": 5403,
      "Ġhappy": 5404,
      "Ġadapt": 5405,
      "Ġtend": 5406,
      "Ġedge": 5407,
      "Act": 5408,
      "ĠĠĠĠĠĠĠĠĠĠĠĠĠĠĠĠĠĠĠĠ": 5409,
      "reate": 5410,
      "ĠFurthermore": 5411,
      "*)": 5412,
      "Ġut": 5413,
      "Ġmit": 5414,
      "ĠRNA": 5415,
      "Ġdetection": 5416,
      "Ġscen": 5417,
      "004": 5418,
      "Ġstock": 5419,
      "Ġforeign": 5420,
      "aa": 5421,
      "Ġbab": 5422,
      "ĠMus": 5423,
      "Ġ});": 5424,
      "Ġbillion": 5425,
      "Ġtree": 5426,
      "Ġnice": 5427,
      "current": 5428,
      "Ġinvestigation": 5429,
      "PO": 5430,
      "iled": 5431,
      "ventional": 5432,
      "Request": 5433,
      "idden": 5434,
      "create": 5435,
      "api": 5436,
      "Ġmac": 5437,
      "''": 5438,
      "Ġdelay": 5439,
      "Yes": 5440,
      "Ġchemical": 5441,
      "Ġaward": 5442,
      "oul": 5443,
      "Ġexpand": 5444,
      "*]{}": 5445,
      "Ġthrow": 5446,
      "Ġkids": 5447,
      "Î²": 5448,
      "Ġrout": 5449,
      "ĠJe": 5450,
      "host": 5451,
      "Ġscript": 5452,
      "ĠGovern": 5453,
      "ĠAtt": 5454,
      "ync": 5455,
      "ĠDavid": 5456,
      "Ġfilter": 5457,
      "Ġ48": 5458,
      "ART": 5459,
      "Ġdescription": 5460,
      "arr": 5461,
      "Ġtherm": 5462,
      "arian": 5463,
      "ĠTest": 5464,
      "ÂŃ": 5465,
      "gar": 5466,
      "ptr": 5467,
      "orter": 5468,
      "Ġ((": 5469,
      "Ġclub": 5470,
      "asion": 5471,
      "ĠIll": 5472,
      "ĠEnglish": 5473,
      "Ġexercise": 5474,
      "ĠMor": 5475,
      "rench": 5476,
      "post": 5477,
      "EG": 5478,
      "Image": 5479,
      "istant": 5480,
      "Count": 5481,
      "untu": 5482,
      "Ġexception": 5483,
      "Ġneur": 5484,
      "âĶĢâĶĢ": 5485,
      "Ġrapid": 5486,
      "ria": 5487,
      "Ġsexual": 5488,
      "Ġinterface": 5489,
      "Dis": 5490,
      "Ġshift": 5491,
      "Ġspent": 5492,
      "ĠTO": 5493,
      "yst": 5494,
      "Ġinsert": 5495,
      "Ġspecifically": 5496,
      "Ġdenied": 5497,
      "ĠWilli": 5498,
      "Ġchallenge": 5499,
      "Ġplans": 5500,
      "Ġsurgery": 5501,
      "Ġsell": 5502,
      "Ġfamilies": 5503,
      "XX": 5504,
      "abs": 5505,
      "ĠCongress": 5506,
      "Ġstrategy": 5507,
      "Ġliquid": 5508,
      "frame": 5509,
      "Ġsolutions": 5510,
      "CF": 5511,
      "Ġalternative": 5512,
      "Ġserve": 5513,
      ":\"": 5514,
      "Ġshoot": 5515,
      "xx": 5516,
      "Ġtested": 5517,
      "Ġcomplaint": 5518,
      "going": 5519,
      "Ġ2000": 5520,
      "Ġwait": 5521,
      "Ġrul": 5522,
      "Model": 5523,
      "Ġofficials": 5524,
      "Ġcareer": 5525,
      "ĠInternational": 5526,
      "arant": 5527,
      "ario": 5528,
      "Ġcouldn": 5529,
      "Ġsummary": 5530,
      "Ġwants": 5531,
      "Ġsto": 5532,
      "Ġmentioned": 5533,
      "âĢ¢": 5534,
      "ALL": 5535,
      "ĠOff": 5536,
      "rav": 5537,
      "Build": 5538,
      "ldots": 5539,
      "Ġelection": 5540,
      "Ġtouch": 5541,
      "Ġ2006": 5542,
      "ignment": 5543,
      "Ġarm": 5544,
      "Ġnovel": 5545,
      "Ġpark": 5546,
      "icks": 5547,
      "icial": 5548,
      "iced": 5549,
      "Ġprepared": 5550,
      "Â¾": 5551,
      "Ġnil": 5552,
      "User": 5553,
      "QL": 5554,
      "çļ": 5555,
      "rary": 5556,
      "Ġ(!": 5557,
      "orge": 5558,
      "Ġclick": 5559,
      "Ġleads": 5560,
      "PP": 5561,
      "Ġdespite": 5562,
      "ĠPost": 5563,
      "Ġoptim": 5564,
      "Ġthick": 5565,
      "abil": 5566,
      "ellig": 5567,
      "Ġmill": 5568,
      "Ġstudent": 5569,
      "Ġunless": 5570,
      "rely": 5571,
      "igration": 5572,
      "Ġdebt": 5573,
      "Ġhypot": 5574,
      "Ġagent": 5575,
      "Inter": 5576,
      "olean": 5577,
      "Ġfemale": 5578,
      "Ġlip": 5579,
      "Ġcycle": 5580,
      "ota": 5581,
      "mand": 5582,
      "Ġstudied": 5583,
      "Ġnone": 5584,
      "Ġmodule": 5585,
      "ipment": 5586,
      "çļĦ": 5587,
      "Ġkill": 5588,
      "Ġimproved": 5589,
      "Ġplate": 5590,
      "Ġsup": 5591,
      "Ġnuclear": 5592,
      "Ġdiet": 5593,
      "Ġtypically": 5594,
      "Ġpush": 5595,
      "Ġcombined": 5596,
      "iders": 5597,
      "AV": 5598,
      "SH": 5599,
      "%%": 5600,
      "ingu": 5601,
      "ptions": 5602,
      "Ġexplain": 5603,
      "Ġmetal": 5604,
      "MO": 5605,
      "ĠSupp": 5606,
      "Ġeye": 5607,
      "upreme": 5608,
      "âĢ²": 5609,
      "({\\": 5610,
      "actory": 5611,
      "cs": 5612,
      "ĠYour": 5613,
      "ĠDon": 5614,
      "len": 5615,
      "Ġexperimental": 5616,
      "aser": 5617,
      "Phi": 5618,
      "Ġgrowing": 5619,
      "itz": 5620,
      "fected": 5621,
      "Ġcontrols": 5622,
      "Ġplus": 5623,
      "Ġded": 5624,
      "Ġentry": 5625,
      "Ġcommunication": 5626,
      "Ġ-->": 5627,
      "Ġsuccessful": 5628,
      "Ġminimum": 5629,
      "Ġhop": 5630,
      "Ġvote": 5631,
      "Ġ(\"": 5632,
      "ascular": 5633,
      "Ġsurvival": 5634,
      "itivity": 5635,
      "enced": 5636,
      "Ġune": 5637,
      "iling": 5638,
      "ano": 5639,
      "ĠĠĠĠĠĠĠĠĠĠĠĠĠĠĠĠĠĠĠĠĠ": 5640,
      "Ġcommercial": 5641,
      "inese": 5642,
      "Calculate": 5643,
      "Ġconfirmed": 5644,
      "Ġdanger": 5645,
      "stract": 5646,
      "Ġsubstr": 5647,
      "005": 5648,
      "ded": 5649,
      "ĠAnt": 5650,
      "ĠCH": 5651,
      "idel": 5652,
      "ĠIndian": 5653,
      "Ġkilled": 5654,
      "Âµ": 5655,
      "à¸": 5656,
      "ĠÎ¼": 5657,
      "dict": 5658,
      "produ": 5659,
      "inner": 5660,
      "Ġmolecular": 5661,
      "Well": 5662,
      "Ġguy": 5663,
      "**)": 5664,
      "Ġcircumstances": 5665,
      "osen": 5666,
      "Ġinduced": 5667,
      "Ġsociety": 5668,
      "ĊĊĉ": 5669,
      "Ġpiece": 5670,
      "Ġmotor": 5671,
      "ĠDi": 5672,
      "Ġperhaps": 5673,
      "Ġhttps": 5674,
      "ÂłÂłÂłÂł": 5675,
      "Ġvac": 5676,
      "Ġagreed": 5677,
      "Ġmonitor": 5678,
      "Ġdismiss": 5679,
      "Ġ33": 5680,
      "Ġencoura": 5681,
      "Ġraised": 5682,
      "Ġelectr": 5683,
      "Ġoperations": 5684,
      "ingly": 5685,
      "Ġseed": 5686,
      "anned": 5687,
      "Ġanalyzed": 5688,
      "ato": 5689,
      "github": 5690,
      "Ġprotocol": 5691,
      "Ġprofessional": 5692,
      "&\\": 5693,
      "RS": 5694,
      "inger": 5695,
      "Ġillust": 5696,
      "Ġreached": 5697,
      "ban": 5698,
      "Ġlinks": 5699,
      "ĠTV": 5700,
      "Ġsyn": 5701,
      "Ġwhereas": 5702,
      "Ġcalls": 5703,
      "Ġaffected": 5704,
      "Ġdied": 5705,
      "Ġassociation": 5706,
      "ĠBank": 5707,
      "ĠCode": 5708,
      "Ġtools": 5709,
      "Ġfeet": 5710,
      "Ġcru": 5711,
      "ypes": 5712,
      "otimes": 5713,
      "Ġdrink": 5714,
      "Ġemployees": 5715,
      "racy": 5716,
      "Ġofficer": 5717,
      "Ġclasses": 5718,
      "Ġhandle": 5719,
      "kg": 5720,
      "Ġcop": 5721,
      "Ass": 5722,
      "\"></": 5723,
      "Ġminor": 5724,
      "Ġmm": 5725,
      "ĠMost": 5726,
      "ĠRel": 5727,
      "cher": 5728,
      "rient": 5729,
      "Ġcauses": 5730,
      "Ġevolution": 5731,
      "ferent": 5732,
      "Ġsentence": 5733,
      "izations": 5734,
      "ading": 5735,
      "Ġwouldn": 5736,
      "Ġtrig": 5737,
      "ĠNews": 5738,
      "Ġprobability": 5739,
      "oute": 5740,
      "Ġsun": 5741,
      "bolds": 5742,
      "Ġtransl": 5743,
      "Ġmedic": 5744,
      "prime": 5745,
      "Ġkept": 5746,
      "ĠNote": 5747,
      "Ġsurround": 5748,
      ".](": 5749,
      "^âĪĴ": 5750,
      "Ġ34": 5751,
      "ĠNS": 5752,
      "Ġefforts": 5753,
      "Ġsrc": 5754,
      "Ġmental": 5755,
      "acters": 5756,
      "Ġjava": 5757,
      "Ġproport": 5758,
      "Ġcollected": 5759,
      "Group": 5760,
      "cor": 5761,
      "ialog": 5762,
      "po": 5763,
      "Ġefficient": 5764,
      "actor": 5765,
      "Ġtraditional": 5766,
      "Ġoccurred": 5767,
      "Ġhuge": 5768,
      "Ġmix": 5769,
      "BL": 5770,
      "Ġgal": 5771,
      "........": 5772,
      "boldsymbol": 5773,
      "Cs": 5774,
      "ira": 5775,
      "Ġcredit": 5776,
      "asma": 5777,
      "Ġtrou": 5778,
      "Ġcast": 5779,
      "Ġcatch": 5780,
      "Ġconver": 5781,
      "Ġprepar": 5782,
      "0001": 5783,
      "wood": 5784,
      "Ġintroduced": 5785,
      "Element": 5786,
      "Ġrelation": 5787,
      "Ġfaith": 5788,
      "ĠPlaintiff": 5789,
      "Ent": 5790,
      "Can": 5791,
      "Service": 5792,
      "idem": 5793,
      "Ġdiscussion": 5794,
      "reedom": 5795,
      "arth": 5796,
      "subset": 5797,
      "Ġsuggests": 5798,
      "Ġbehavi": 5799,
      "Why": 5800,
      "ĠSuper": 5801,
      "write": 5802,
      "nam": 5803,
      "ĠNOT": 5804,
      "Ġsust": 5805,
      "opyright": 5806,
      "Ġestimated": 5807,
      "mem": 5808,
      "Ġcertainly": 5809,
      "local": 5810,
      "Ġenzym": 5811,
      "ĠSet": 5812,
      "Ġexplained": 5813,
      "Ġstorage": 5814,
      "Ġtechniques": 5815,
      "Ġkid": 5816,
      "ĠLondon": 5817,
      "Ġhistor": 5818,
      "Ġlock": 5819,
      "Ġcorrelation": 5820,
      "Ġdiagnosis": 5821,
      "ulf": 5822,
      "resents": 5823,
      "Ġimplic": 5824,
      "Ġstatute": 5825,
      "Lambda": 5826,
      "pa": 5827,
      "ometry": 5828,
      "Ġelectric": 5829,
      "Ġremaining": 5830,
      "ca": 5831,
      "Ġmovie": 5832,
      "Ġprotection": 5833,
      "Ġchrom": 5834,
      "assert": 5835,
      "Ġadvantage": 5836,
      "Ġgone": 5837,
      "Ġappellant": 5838,
      "uate": 5839,
      "page": 5840,
      "ka": 5841,
      "KE": 5842,
      "Ġbeautiful": 5843,
      "Sigma": 5844,
      "Ġinflamm": 5845,
      "cohol": 5846,
      "Ġforces": 5847,
      "appa": 5848,
      "Ġcardi": 5849,
      "Ġcriminal": 5850,
      "Ġalgorithm": 5851,
      "iny": 5852,
      "Ġkin": 5853,
      "Ġchain": 5854,
      "Ġmist": 5855,
      "ographic": 5856,
      "ĠGroup": 5857,
      "CM": 5858,
      "Ġbuffer": 5859,
      "Ġrequirements": 5860,
      "Ġ2005": 5861,
      "Ġprosec": 5862,
      "Per": 5863,
      "Ġbiggest": 5864,
      "{{": 5865,
      "Ġvoice": 5866,
      "Ġoccup": 5867,
      "Ġpros": 5868,
      "}}_{": 5869,
      "BI": 5870,
      "dir": 5871,
      "Message": 5872,
      "itled": 5873,
      "While": 5874,
      "Our": 5875,
      "tage": 5876,
      "Rep": 5877,
      "ship": 5878,
      "doc": 5879,
      "ĠBen": 5880,
      "opic": 5881,
      "inity": 5882,
      "Ġabsence": 5883,
      "Ġguess": 5884,
      "Ġrecords": 5885,
      "/**": 5886,
      "\\|": 5887,
      "Ġformat": 5888,
      "ĠEm": 5889,
      "isation": 5890,
      "Ġgeneration": 5891,
      ".$$": 5892,
      "Ġpun": 5893,
      "Ġtal": 5894,
      "ivery": 5895,
      "Ġfootball": 5896,
      "model": 5897,
      "Ġpicture": 5898,
      "Ġolder": 5899,
      "Ġorganization": 5900,
      "Ġresponses": 5901,
      "Ġdoll": 5902,
      "Ġmissing": 5903,
      "Ġserved": 5904,
      "what": 5905,
      "Ġtempor": 5906,
      "Ġwhom": 5907,
      "Ġcitiz": 5908,
      "ĠEach": 5909,
      "DR": 5910,
      "Ġadding": 5911,
      "Method": 5912,
      "ĠEast": 5913,
      "acebook": 5914,
      "Ġoffers": 5915,
      "Ġoptical": 5916,
      "Ġbreast": 5917,
      "Ġquantum": 5918,
      "Ġfloor": 5919,
      "reshold": 5920,
      ")?": 5921,
      "Ġderived": 5922,
      "Ġeat": 5923,
      "rivate": 5924,
      "Ġcreating": 5925,
      "Ġmanif": 5926,
      "Ġvan": 5927,
      "greg": 5928,
      "Ġbrother": 5929,
      "ymph": 5930,
      "ĠTexas": 5931,
      "Ġscience": 5932,
      "Ġpolic": 5933,
      "Ġsubjects": 5934,
      "čĊĉ": 5935,
      "Ġpurposes": 5936,
      "Ġ42": 5937,
      "Bl": 5938,
      "Ġ()": 5939,
      "osc": 5940,
      "src": 5941,
      "BU": 5942,
      "Ġvert": 5943,
      "Ġeconomy": 5944,
      "$(": 5945,
      "Ġexternal": 5946,
      "Ġanimal": 5947,
      "ĠBlack": 5948,
      "ĠĠĠĠĠĠĠĠĠĠĠĠĠĠĠĠĠĠĠĠĠĠĠ": 5949,
      "Ġstream": 5950,
      "det": 5951,
      "older": 5952,
      "ologies": 5953,
      "Ġideas": 5954,
      "how": 5955,
      "Ġintended": 5956,
      "}-": 5957,
      "Ġschools": 5958,
      "------------------------------------------------": 5959,
      "istan": 5960,
      "unday": 5961,
      "allel": 5962,
      "CI": 5963,
      "sf": 5964,
      "anging": 5965,
      "Ġauto": 5966,
      "AND": 5967,
      "Ġdrop": 5968,
      "Ġproperly": 5969,
      "mmet": 5970,
      "Fil": 5971,
      "cknow": 5972,
      "Ġrepresents": 5973,
      "icrosoft": 5974,
      "induced": 5975,
      "Ġresolution": 5976,
      "nel": 5977,
      "Ġextent": 5978,
      "First": 5979,
      "SI": 5980,
      "default": 5981,
      "Ġjoint": 5982,
      "Ġglass": 5983,
      "sole": 5984,
      "ĠBritish": 5985,
      "Ġpool": 5986,
      "Ġdecreased": 5987,
      "Ġdirector": 5988,
      "Ġthank": 5989,
      "itory": 5990,
      "Ġradio": 5991,
      "Ġsymmet": 5992,
      "mbox": 5993,
      "Ġsummer": 5994,
      "Pre": 5995,
      "Ġcoe": 5996,
      "Ġconvers": 5997,
      "ĠOh": 5998,
      "NT": 5999,
      "specific": 6000,
      "result": 6001,
      "icians": 6002,
      "Ġ38": 6003,
      "Ġthread": 6004,
      "Ġbelong": 6005,
      "zon": 6006,
      "Ġcomfort": 6007,
      "Ġauthority": 6008,
      "ĠSupreme": 6009,
      "Ġmechanisms": 6010,
      "nonumber": 6011,
      "eturn": 6012,
      "ĠEv": 6013,
      "Ġprotected": 6014,
      "Ġearn": 6015,
      "Ġvirus": 6016,
      "Ġdistinct": 6017,
      "ĠJew": 6018,
      "Ġlargest": 6019,
      "Â»": 6020,
      "Ġsav": 6021,
      "ORT": 6022,
      "Ġsymb": 6023,
      "ya": 6024,
      "Ġattorney": 6025,
      "Ġexperien": 6026,
      "Ġfeeling": 6027,
      "Ġgrand": 6028,
      "orry": 6029,
      "esis": 6030,
      "while": 6031,
      "Ġarbit": 6032,
      "MT": 6033,
      "Sp": 6034,
      "iat": 6035,
      "Ġcommunic": 6036,
      "Ġinterests": 6037,
      "(&": 6038,
      "Comp": 6039,
      "Ġteams": 6040,
      "Pr": 6041,
      "ensuremath": 6042,
      "Aut": 6043,
      "Ġtechnique": 6044,
      "Ġmembrane": 6045,
      "/\\": 6046,
      "Ġofficers": 6047,
      "Ġregist": 6048,
      "Co": 6049,
      "sens": 6050,
      "ĠJack": 6051,
      "FI": 6052,
      "Ġcrime": 6053,
      "However": 6054,
      "ĠGoogle": 6055,
      "_.": 6056,
      "Ġcontained": 6057,
      "aud": 6058,
      "rian": 6059,
      "Ġteac": 6060,
      "Ġrac": 6061,
      "ĠSur": 6062,
      "Ġslightly": 6063,
      "Ġcat": 6064,
      "typ": 6065,
      "Ġdry": 6066,
      "Ġempt": 6067,
      "idge": 6068,
      "Ġloop": 6069,
      "Ġvel": 6070,
      "ĠOver": 6071,
      "Ġfirm": 6072,
      "poss": 6073,
      "Ġgold": 6074,
      "rd": 6075,
      "Ġsales": 6076,
      "Box": 6077,
      "cks": 6078,
      "uesday": 6079,
      "Ġstrugg": 6080,
      "UE": 6081,
      "Ġdriver": 6082,
      "Ġshared": 6083,
      "Ġvent": 6084,
      "Ġguys": 6085,
      "Ġbool": 6086,
      "CG": 6087,
      "utor": 6088,
      "Ġsitu": 6089,
      "Ġcharged": 6090,
      "onic": 6091,
      "jo": 6092,
      "valid": 6093,
      "Ġopening": 6094,
      "pack": 6095,
      "func": 6096,
      "Che": 6097,
      "Ġcharacters": 6098,
      "etes": 6099,
      "ĠAny": 6100,
      "ago": 6101,
      "}}}": 6102,
      "last": 6103,
      "Ġdoubt": 6104,
      "Ġlatest": 6105,
      "olar": 6106,
      "Ġerrors": 6107,
      "inte": 6108,
      "orders": 6109,
      "Ġprojects": 6110,
      "ugin": 6111,
      "Ġrise": 6112,
      "ĠRem": 6113,
      "ĠChinese": 6114,
      "********************************": 6115,
      "ĠAL": 6116,
      "Ġoffered": 6117,
      "Ġepis": 6118,
      "MR": 6119,
      "Ġconventional": 6120,
      "Ġhus": 6121,
      "Ġprison": 6122,
      "Â·": 6123,
      ".[@": 6124,
      "ilarly": 6125,
      "Ġholding": 6126,
      "ĠDan": 6127,
      "Ġcoverage": 6128,
      "**]{},": 6129,
      "Ġdra": 6130,
      "Ġannounced": 6131,
      "ouble": 6132,
      "Line": 6133,
      "rich": 6134,
      "Ġkit": 6135,
      "oman": 6136,
      "Ġneighbor": 6137,
      "ĠStreet": 6138,
      "ĠCanada": 6139,
      "ĠFoundation": 6140,
      "Ġhol": 6141,
      "Ġexchange": 6142,
      "ĠEq": 6143,
      "ĠTwo": 6144,
      "hetic": 6145,
      "âĢĿ.": 6146,
      "Ġdescribe": 6147,
      "ĠRE": 6148,
      "Ġentered": 6149,
      "Ġconserv": 6150,
      "Ġweap": 6151,
      "Ġgain": 6152,
      "Property": 6153,
      "ĠDE": 6154,
      "Ġagents": 6155,
      "Ġinteractions": 6156,
      "Ġinvolve": 6157,
      "Ġring": 6158,
      "draw": 6159,
      "just": 6160,
      "ĠFriday": 6161,
      "venue": 6162,
      "ATION": 6163,
      "Ġsupply": 6164,
      "illa": 6165,
      "}}{": 6166,
      "plify": 6167,
      "ename": 6168,
      "SU": 6169,
      "Ġrank": 6170,
      "anges": 6171,
      "Ġdecrease": 6172,
      "ariant": 6173,
      "care": 6174,
      "mic": 6175,
      "ĠCirc": 6176,
      "ĠGreen": 6177,
      "ĠClass": 6178,
      "ĠRober": 6179,
      "System": 6180,
      "ĠĠĠĠĠĠĠĠĠĠĠĠĠĠĠĠĠĠĠĠĠĠ": 6181,
      "Ġexpert": 6182,
      "ĠCa": 6183,
      "Ġagency": 6184,
      "xml": 6185,
      "Ġanalyses": 6186,
      "See": 6187,
      "riage": 6188,
      "Ġdose": 6189,
      "Ste": 6190,
      "Ġprofile": 6191,
      "ĠCalculate": 6192,
      "Ġcryst": 6193,
      "Ġconcentrations": 6194,
      "abla": 6195,
      "Ġrepeated": 6196,
      "Ġcomposition": 6197,
      "({": 6198,
      "Ġwish": 6199,
      "kin": 6200,
      "Ġsmooth": 6201,
      "ĠCommun": 6202,
      "hi": 6203,
      "ĠCouncil": 6204,
      "ĠPeople": 6205,
      "Ġwind": 6206,
      "Ġoutcome": 6207,
      "Some": 6208,
      "Ġviews": 6209,
      "iler": 6210,
      "ructions": 6211,
      "OG": 6212,
      "\").": 6213,
      "ĠJames": 6214,
      "summary": 6215,
      "ĠDirect": 6216,
      "âĢĬ": 6217,
      "Â½": 6218,
      "Ġowners": 6219,
      "Ġreceptor": 6220,
      "chen": 6221,
      "lif": 6222,
      "Ġneuro": 6223,
      "Ġgenetic": 6224,
      "ĊĊĊĊ": 6225,
      "ansion": 6226,
      "Ġquarter": 6227,
      "čĊĠĠĠĠĠĠĠĠĠĠĠ": 6228,
      "ĠSuch": 6229,
      "Ġexistence": 6230,
      "query": 6231,
      "Ġpossibility": 6232,
      "Ġcold": 6233,
      "ĠFe": 6234,
      "Call": 6235,
      "Ġplants": 6236,
      "Ġ\"[": 6237,
      "Ġelim": 6238,
      "Ġoperating": 6239,
      "ponse": 6240,
      "Source": 6241,
      "ainer": 6242,
      "Ġ+=": 6243,
      "Ġelectron": 6244,
      "Ġcompleted": 6245,
      "Ġdriving": 6246,
      "pled": 6247,
      "Ref": 6248,
      "ĠArm": 6249,
      "Ġtrend": 6250,
      "Ġreturns": 6251,
      "onald": 6252,
      "ĠRich": 6253,
      "Ġcir": 6254,
      "Ġpatterns": 6255,
      "ĠUnder": 6256,
      "Ġstars": 6257,
      "Ġinteger": 6258,
      "Ġsignals": 6259,
      "Ġaren": 6260,
      "mittee": 6261,
      "Ġwhatever": 6262,
      "asks": 6263,
      "ini": 6264,
      "ĠFOR": 6265,
      "Ġ2004": 6266,
      "ville": 6267,
      "Ġidentity": 6268,
      "Ġheavy": 6269,
      "oted": 6270,
      "ĠCA": 6271,
      "OUT": 6272,
      "child": 6273,
      "ĠĠĠĠĠĠĠĠĠĠĠĠĠĠĠĠĠĠĠĠĠĠĠĠĠĠĠĠĠĠĠĠĠĠĠĠĠĠĠĠĠĠĠĠĠĠĠĠĠĠĠĠĠĠĠĠ": 6274,
      "Ġdiseases": 6275,
      "tes": 6276,
      "Ġinterested": 6277,
      "Ġgenerate": 6278,
      "==========": 6279,
      "Ġ--------": 6280,
      "reated": 6281,
      "ĠWed": 6282,
      "asc": 6283,
      "pg": 6284,
      "ITH": 6285,
      "oom": 6286,
      "Ġlit": 6287,
      "Ġstable": 6288,
      "itect": 6289,
      "Ġfinite": 6290,
      "Î¼": 6291,
      "Ġ${": 6292,
      "arp": 6293,
      "Ġbutton": 6294,
      "Ġmeant": 6295,
      "RL": 6296,
      "Ġpeace": 6297,
      "Ġequivalent": 6298,
      "Ġquery": 6299,
      "Ġappeared": 6300,
      "Ġ};": 6301,
      "Ġequipment": 6302,
      "Ġindicates": 6303,
      "cence": 6304,
      "Ġimportance": 6305,
      "ĠService": 6306,
      "Ġboy": 6307,
      "property": 6308,
      "ĠMonday": 6309,
      "you": 6310,
      "Ġspectrum": 6311,
      "Ġconfirm": 6312,
      "Ġwel": 6313,
      "rated": 6314,
      "Ġcontrolled": 6315,
      "Ġmobile": 6316,
      "kappa": 6317,
      "ĠTra": 6318,
      "Ġcarbon": 6319,
      "widet": 6320,
      "Ġholds": 6321,
      "ĠMart": 6322,
      "widetilde": 6323,
      "nabla": 6324,
      "Ġconclusion": 6325,
      "ĠKe": 6326,
      "Ġsequences": 6327,
      "Ġincorpor": 6328,
      "ĠAddition": 6329,
      "dt": 6330,
      "Ġconvert": 6331,
      "ĠBoth": 6332,
      "amily": 6333,
      "Ġruns": 6334,
      "sem": 6335,
      "Ġdiag": 6336,
      "ba": 6337,
      "ĠWestern": 6338,
      "dots": 6339,
      "Ġjuris": 6340,
      "ĠWell": 6341,
      "Ġconfiguration": 6342,
      "Ġnan": 6343,
      "ĠPD": 6344,
      "Ġhappens": 6345,
      "after": 6346,
      "ITY": 6347,
      "Ġparticles": 6348,
      "PH": 6349,
      "Ġpregn": 6350,
      "Ġ2019": 6351,
      "inn": 6352,
      "PI": 6353,
      "main": 6354,
      "Ġbra": 6355,
      "Ġsecondary": 6356,
      "Ġdefendants": 6357,
      "Ġreality": 6358,
      "xture": 6359,
      "Ġmouse": 6360,
      "Ġtox": 6361,
      "})$": 6362,
      "jected": 6363,
      "ilit": 6364,
      "Manager": 6365,
      "]),": 6366,
      "ĠOut": 6367,
      "ursday": 6368,
      ".</": 6369,
      "amine": 6370,
      "iveness": 6371,
      "web": 6372,
      "Ġmaintain": 6373,
      "ï¼Į": 6374,
      "Click": 6375,
      "Ġpy": 6376,
      "Ġsuff": 6377,
      "Ġcatal": 6378,
      "Ġreferred": 6379,
      "gebra": 6380,
      "Ġapprec": 6381,
      "Ġmeasurements": 6382,
      "Ġdigital": 6383,
      "ERT": 6384,
      "Ġbow": 6385,
      "nesday": 6386,
      "Ġinstr": 6387,
      "ancing": 6388,
      "ĠIns": 6389,
      "Ġsurvey": 6390,
      "ilos": 6391,
      "cluding": 6392,
      "Ġsession": 6393,
      "Ġ------------": 6394,
      "Any": 6395,
      "Ġtrain": 6396,
      "Ġcontinuous": 6397,
      "uries": 6398,
      "ĠInstitute": 6399,
      "ston": 6400,
      "Ð°Ð": 6401,
      "eless": 6402,
      "][": 6403,
      "Ċĉĉĉĉĉ": 6404,
      "Ġseemed": 6405,
      "Ġflex": 6406,
      "faces": 6407,
      "select": 6408,
      "Ġcompens": 6409,
      "Ġdeveloping": 6410,
      "eric": 6411,
      "crete": 6412,
      "101": 6413,
      "ND": 6414,
      "Ġstatements": 6415,
      "istent": 6416,
      "ĠTechn": 6417,
      "Ġdisp": 6418,
      "Ġnoise": 6419,
      "ĠDay": 6420,
      "Ġing": 6421,
      "Ġburn": 6422,
      "Ġlibrary": 6423,
      "false": 6424,
      "NE": 6425,
      "Ġ500": 6426,
      "Ġfarm": 6427,
      "raction": 6428,
      "Ġalcohol": 6429,
      "Ġpure": 6430,
      "ridge": 6431,
      "hal": 6432,
      "othing": 6433,
      "icated": 6434,
      "ĠSecond": 6435,
      "Ġspirit": 6436,
      "inder": 6437,
      "ĠAir": 6438,
      "2015": 6439,
      "has": 6440,
      "Ġattract": 6441,
      "!--": 6442,
      "TO": 6443,
      "Ġdownload": 6444,
      "look": 6445,
      "ĠYes": 6446,
      "height": 6447,
      "Ġchronic": 6448,
      "antly": 6449,
      "ĠSmith": 6450,
      "abilities": 6451,
      "Ġcateg": 6452,
      "Ġbalance": 6453,
      "Ġremainder": 6454,
      "Ġrepresentation": 6455,
      "ĠAS": 6456,
      "Ġexcess": 6457,
      "Pe": 6458,
      "ĠJes": 6459,
      "ĠDel": 6460,
      "ady": 6461,
      "rape": 6462,
      "Ġenvironmental": 6463,
      "Ġjobs": 6464,
      "rig": 6465,
      "ĠMal": 6466,
      "Ġexcell": 6467,
      "ĠCompany": 6468,
      "Ġcollege": 6469,
      "Ġapproved": 6470,
      "ĠAre": 6471,
      "orrow": 6472,
      "Ġdiab": 6473,
      "ocity": 6474,
      "Ġcele": 6475,
      "}+": 6476,
      "aming": 6477,
      "omorph": 6478,
      "ĠMet": 6479,
      "ĠEvery": 6480,
      "ĠFacebook": 6481,
      "Ġlatter": 6482,
      "Ġissued": 6483,
      "Ġsho": 6484,
      "Ġliver": 6485,
      "CK": 6486,
      "Ġhighlight": 6487,
      "Ġborn": 6488,
      "Ġsquare": 6489,
      "Ġextremely": 6490,
      "ows": 6491,
      "ĠItal": 6492,
      "Ġspeech": 6493,
      "ln": 6494,
      "Ġknows": 6495,
      "win": 6496,
      "Ġempty": 6497,
      "Ġwarrant": 6498,
      "ĠMichael": 6499,
      "Ġhab": 6500,
      "Ġspot": 6501,
      "ĠSunday": 6502,
      "Ġestimate": 6503,
      "End": 6504,
      "MI": 6505,
      "Ġexamples": 6506,
      "Ġpartners": 6507,
      "Ġorigin": 6508,
      "aneous": 6509,
      "Ġleader": 6510,
      "Ġabuse": 6511,
      "Ġcovered": 6512,
      "Ġcharges": 6513,
      "Ġtransmission": 6514,
      "ĠKore": 6515,
      "Ġlung": 6516,
      "ĠPort": 6517,
      "ĠPress": 6518,
      ")/(": 6519,
      "sey": 6520,
      "Ġserum": 6521,
      "ĠBig": 6522,
      "Ġahead": 6523,
      "Ġexplicit": 6524,
      "Ġregulation": 6525,
      "alysis": 6526,
      "Ġliterature": 6527,
      "lem": 6528,
      "ĠMac": 6529,
      "ĠFlor": 6530,
      "ensor": 6531,
      "Ġstre": 6532,
      "house": 6533,
      "ailed": 6534,
      "ki": 6535,
      "Ġsubstantial": 6536,
      ")[": 6537,
      "Ġsigned": 6538,
      "Ġopened": 6539,
      "Ġhusband": 6540,
      "apache": 6541,
      "Ġimplementation": 6542,
      "Ġterror": 6543,
      "ĠWhy": 6544,
      "ias": 6545,
      "Ġscene": 6546,
      "Ġfluid": 6547,
      "Ġcustomers": 6548,
      "asure": 6549,
      "stein": 6550,
      "ĠMat": 6551,
      "rl": 6552,
      "ogene": 6553,
      "Ġchurch": 6554,
      "ror": 6555,
      "Ġformula": 6556,
      "Ġvill": 6557,
      "ĊĊĠĠĠĠĠĠ": 6558,
      "Ġoccurs": 6559,
      "ytic": 6560,
      "ĠTheorem": 6561,
      "Don": 6562,
      "Ġplasma": 6563,
      "Ġintent": 6564,
      "ĠChristian": 6565,
      "Ġwood": 6566,
      "gments": 6567,
      "Ġrecorded": 6568,
      "ĠCR": 6569,
      "Ġdelivery": 6570,
      "Ġcompounds": 6571,
      "ĠER": 6572,
      "aturday": 6573,
      "Ġdecisions": 6574,
      "Ġappar": 6575,
      "ishes": 6576,
      "Ġcycl": 6577,
      "mt": 6578,
      "appro": 6579,
      "hent": 6580,
      "Ġextension": 6581,
      "ĠMiss": 6582,
      "ĠLeg": 6583,
      "target": 6584,
      "legal": 6585,
      "Ġreceiving": 6586,
      "Ġevaluated": 6587,
      "$$\\": 6588,
      "Ġassay": 6589,
      "Ġnetworks": 6590,
      "ulin": 6591,
      "Ġinner": 6592,
      "Ġallowing": 6593,
      "Button": 6594,
      "duc": 6595,
      "Ġcalling": 6596,
      "Ġextended": 6597,
      "process": 6598,
      "Ġleaves": 6599,
      "ĠAmericans": 6600,
      "product": 6601,
      "Ġviolence": 6602,
      "lets": 6603,
      "Ġwat": 6604,
      "anes": 6605,
      "Ġ75": 6606,
      "Ġhaven": 6607,
      "ĠFrench": 6608,
      "Ġpercentage": 6609,
      "AY": 6610,
      "real": 6611,
      "format": 6612,
      "Ġdigit": 6613,
      "ĠUnion": 6614,
      "first": 6615,
      "Ġoutcomes": 6616,
      "-------": 6617,
      "According": 6618,
      "itative": 6619,
      "Ġconcerns": 6620,
      "Ġassessment": 6621,
      "**(-": 6622,
      "message": 6623,
      "Ġappoint": 6624,
      "Ġsubsequent": 6625,
      "endif": 6626,
      "names": 6627,
      "Ġleaving": 6628,
      "Ġthousands": 6629,
      "ĠCommittee": 6630,
      "okes": 6631,
      "Ġ2003": 6632,
      "bal": 6633,
      "Ġtestified": 6634,
      "Ġhelped": 6635,
      "phone": 6636,
      "oking": 6637,
      "sa": 6638,
      "Ġmostly": 6639,
      "standing": 6640,
      "erest": 6641,
      "åı": 6642,
      "ipped": 6643,
      "Ġunderlying": 6644,
      "Ġowner": 6645,
      "Ġarr": 6646,
      "IST": 6647,
      "Ġimmune": 6648,
      "Ġguarant": 6649,
      "ĠLeague": 6650,
      "Ġarguments": 6651,
      "ĠFinally": 6652,
      "lands": 6653,
      "Ġsale": 6654,
      "\\{": 6655,
      "Ġefficiency": 6656,
      "Net": 6657,
      "oret": 6658,
      "ĠDuring": 6659,
      "elled": 6660,
      "ĠTuesday": 6661,
      "ortunately": 6662,
      "ributes": 6663,
      "omes": 6664,
      "std": 6665,
      "Ġwire": 6666,
      "Ġmuscle": 6667,
      "ups": 6668,
      "van": 6669,
      "ilty": 6670,
      "night": 6671,
      "ifications": 6672,
      "Ġlymph": 6673,
      "Ġrepresented": 6674,
      "edy": 6675,
      "ĠUsing": 6676,
      "Ġcriteria": 6677,
      "ads": 6678,
      "Ġcentury": 6679,
      "Ġuniform": 6680,
      "endment": 6681,
      "Ġraise": 6682,
      ")=\\": 6683,
      "server": 6684,
      "=======": 6685,
      "ĠĊĠ": 6686,
      "ĠJer": 6687,
      "tex": 6688,
      "Ġgreatest": 6689,
      "ĠCT": 6690,
      "Ġexamined": 6691,
      "author": 6692,
      "Ġmanufacture": 6693,
      "zeta": 6694,
      "2013": 6695,
      "sor": 6696,
      "Ġvacc": 6697,
      "Ġbudget": 6698,
      "null": 6699,
      "Ġspecified": 6700,
      "Ġlearned": 6701,
      "Ġeventually": 6702,
      "Ġbooks": 6703,
      ")\"": 6704,
      "SM": 6705,
      "ĠSun": 6706,
      "Ġadult": 6707,
      "rog": 6708,
      "Ġ39": 6709,
      "Ext": 6710,
      "Ġpowerful": 6711,
      "Ġdiscrim": 6712,
      "ĠLou": 6713,
      "Ġshut": 6714,
      "Point": 6715,
      "Ġcandidate": 6716,
      "ĠWH": 6717,
      "yan": 6718,
      "bed": 6719,
      "Ġcurve": 6720,
      "omal": 6721,
      "ostic": 6722,
      "Ġrestaur": 6723,
      "hens": 6724,
      "Ġdepends": 6725,
      "zen": 6726,
      "2014": 6727,
      "Ġlimitations": 6728,
      "2016": 6729,
      "Ġincident": 6730,
      "ĠMany": 6731,
      "Ġpositions": 6732,
      ":\\": 6733,
      "ih": 6734,
      "itely": 6735,
      "Ġbeg": 6736,
      "Ġlicense": 6737,
      "akers": 6738,
      "Ġelev": 6739,
      "Ġconstitution": 6740,
      "ĠIran": 6741,
      "yr": 6742,
      "Ġscheme": 6743,
      "ORD": 6744,
      "Ġdefect": 6745,
      "wed": 6746,
      "Ġsupposed": 6747,
      "Ġplane": 6748,
      "ampions": 6749,
      "ĠGermany": 6750,
      "Ġ64": 6751,
      "ĠJudge": 6752,
      "Ġvoltage": 6753,
      "operative": 6754,
      "Query": 6755,
      "Bar": 6756,
      "ĠâĢ¦": 6757,
      "Ġinvestigated": 6758,
      "Ġvary": 6759,
      ")*(": 6760,
      "Ġthreshold": 6761,
      "'.": 6762,
      "-----": 6763,
      "ĠWeb": 6764,
      "ette": 6765,
      "Ġachieved": 6766,
      "ĠScience": 6767,
      "Ġtypical": 6768,
      "dem": 6769,
      "?âĢĿ": 6770,
      "SON": 6771,
      "ãĢĤ": 6772,
      "ĠIII": 6773,
      "ĠLem": 6774,
      "Ġresearc": 6775,
      "Ġwarm": 6776,
      "000000": 6777,
      "Ġpathway": 6778,
      "FFFF": 6779,
      "ĊĠĠĠĠĠĠĠĠĠĠĠĠ": 6780,
      "isher": 6781,
      "Ġgar": 6782,
      "Ġgoals": 6783,
      "Ġpurchase": 6784,
      "Ġ${{\\": 6785,
      "Ġmixed": 6786,
      "gt": 6787,
      "ĠNone": 6788,
      "otes": 6789,
      "Ġchanging": 6790,
      "Ġunivers": 6791,
      "ipal": 6792,
      "Ġpolicies": 6793,
      "ĠCollege": 6794,
      "Ġ00": 6795,
      "Ġjournal": 6796,
      "Ġ44": 6797,
      "Client": 6798,
      "Ġfraction": 6799,
      "iant": 6800,
      "Ġprocedures": 6801,
      "Ġspring": 6802,
      "rowser": 6803,
      "Ġstandards": 6804,
      "Ġmetabol": 6805,
      "dependent": 6806,
      "olf": 6807,
      "supplementary": 6808,
      "enu": 6809,
      "Ġrecovery": 6810,
      "oday": 6811,
      "These": 6812,
      "Ġflat": 6813,
      "Ġfish": 6814,
      "Ġenforce": 6815,
      "Ġapplicable": 6816,
      "ĠAssociation": 6817,
      "Ġgranted": 6818,
      "Ġtub": 6819,
      "Ġspend": 6820,
      "Ġfilms": 6821,
      "Pol": 6822,
      "à¥": 6823,
      "bug": 6824,
      "cp": 6825,
      "dimensional": 6826,
      "Ġ2001": 6827,
      "Ġtele": 6828,
      "ĠAR": 6829,
      "gression": 6830,
      "PRO": 6831,
      "**]{}": 6832,
      "ĠGovernment": 6833,
      "ella": 6834,
      "she": 6835,
      "Then": 6836,
      "gers": 6837,
      "ĠBay": 6838,
      "UD": 6839,
      "CTION": 6840,
      "Ġheter": 6841,
      "Ġacts": 6842,
      "Ġisolated": 6843,
      "Ġinsp": 6844,
      "Ġpert": 6845,
      "Ġflav": 6846,
      "law": 6847,
      "Ġacknow": 6848,
      "weight": 6849,
      "Ġpolar": 6850,
      "ASS": 6851,
      "ĠUp": 6852,
      "DB": 6853,
      "Ġgon": 6854,
      "Ġdesired": 6855,
      "${": 6856,
      "Number": 6857,
      "Ġevaluation": 6858,
      "Ġseeing": 6859,
      "FC": 6860,
      "ructure": 6861,
      "isted": 6862,
      "lang": 6863,
      "aper": 6864,
      "Just": 6865,
      ",'": 6866,
      "dr": 6867,
      "organ": 6868,
      "Ġeasier": 6869,
      "Ġsubstrate": 6870,
      "riend": 6871,
      "json": 6872,
      "Are": 6873,
      "ĠTR": 6874,
      "Ġmanager": 6875,
      "Ġsections": 6876,
      "cf": 6877,
      "Ġindeed": 6878,
      "Ġstrongly": 6879,
      "Ġrelief": 6880,
      "Ġtraffic": 6881,
      "Ġdetailed": 6882,
      "Ġmorph": 6883,
      "Ġfunds": 6884,
      "Ġpaint": 6885,
      "Ġinvestment": 6886,
      "Ġbaby": 6887,
      "cel": 6888,
      "ipl": 6889,
      "Ġfuel": 6890,
      ";\\": 6891,
      "aine": 6892,
      "Ġchosen": 6893,
      "Ġfourth": 6894,
      "Ġlab": 6895,
      "Ġ55": 6896,
      "Ġfol": 6897,
      "button": 6898,
      "Ġentitled": 6899,
      "Ġ{{\\": 6900,
      "Ġmaster": 6901,
      "FS": 6902,
      "Ã¶": 6903,
      "ĠChurch": 6904,
      "2012": 6905,
      "Stream": 6906,
      "Ã¨": 6907,
      "Input": 6908,
      "Ġreplic": 6909,
      "Ġfreedom": 6910,
      "Ġcategory": 6911,
      "Ġstored": 6912,
      "ĠFin": 6913,
      "Ġrestrict": 6914,
      "Run": 6915,
      "ested": 6916,
      "iller": 6917,
      "Ġgly": 6918,
      "jud": 6919,
      "Ġcommitted": 6920,
      "Ġjoin": 6921,
      "ests": 6922,
      "Ġaccord": 6923,
      "Ġpropos": 6924,
      "Ġamaz": 6925,
      "}=\\": 6926,
      "Ġdaughter": 6927,
      "Ġcluster": 6928,
      "ceived": 6929,
      "Ġrevers": 6930,
      "Ġduty": 6931,
      "Ġconclude": 6932,
      "Ġconsidering": 6933,
      "img": 6934,
      "cretion": 6935,
      "break": 6936,
      "ĠMem": 6937,
      "Ġ65": 6938,
      "ĠWhich": 6939,
      "Ġdirected": 6940,
      "////////////////": 6941,
      "ĠEngland": 6942,
      "ĠPen": 6943,
      "ĠForm": 6944,
      "Ġsymbol": 6945,
      "ocytes": 6946,
      "Ġfif": 6947,
      "DL": 6948,
      "Ġdraft": 6949,
      "Ġpayment": 6950,
      "FP": 6951,
      "Ġthanks": 6952,
      "fee": 6953,
      "Ġgalax": 6954,
      "ector": 6955,
      "annels": 6956,
      "ĠFlorida": 6957,
      "Ġprices": 6958,
      "Ġincub": 6959,
      "amental": 6960,
      "Ġbond": 6961,
      "cat": 6962,
      "Ġcris": 6963,
      "ĠSN": 6964,
      "bert": 6965,
      "Ġforced": 6966,
      "Ġdocuments": 6967,
      "QU": 6968,
      "Ġemph": 6969,
      "Ġreligious": 6970,
      "ĠTom": 6971,
      "ĠParty": 6972,
      "Ġearth": 6973,
      "Ġintellig": 6974,
      "velopment": 6975,
      "2017": 6976,
      "diction": 6977,
      "ĠWil": 6978,
      "Ġlisted": 6979,
      "small": 6980,
      "dat": 6981,
      "300": 6982,
      "ĠMo": 6983,
      "Ã¼": 6984,
      "Ġcup": 6985,
      "Ġaccident": 6986,
      "ERR": 6987,
      "ÃĲÂµ": 6988,
      "estic": 6989,
      ">(": 6990,
      "context": 6991,
      "Ġnav": 6992,
      "itions": 6993,
      "Ġoxid": 6994,
      "plet": 6995,
      "ivo": 6996,
      "ĠThursday": 6997,
      "Ġdetermination": 6998,
      "Ġapparatus": 6999,
      "ĠCopyright": 7000,
      "Ġstories": 7001,
      "Us": 7002,
      "Ġmo": 7003,
      "Ġequations": 7004,
      "Ġstimul": 7005,
      "Start": 7006,
      "Ġskills": 7007,
      "Ġrock": 7008,
      "Ġconflict": 7009,
      "Ġfocused": 7010,
      "]--": 7011,
      "Ġalter": 7012,
      "Ġdepending": 7013,
      "inv": 7014,
      "Ġforth": 7015,
      "rive": 7016,
      "Ġ300": 7017,
      "ĠHill": 7018,
      "ĠSal": 7019,
      "Ġwaiting": 7020,
      "Ġlose": 7021,
      "amm": 7022,
      "ĠSE": 7023,
      "Ġvirtual": 7024,
      "Ġplays": 7025,
      "_{{\\": 7026,
      "itable": 7027,
      "}}^": 7028,
      "ĠWednesday": 7029,
      "Ġresulted": 7030,
      "sg": 7031,
      "Ġconsult": 7032,
      "Ġ2002": 7033,
      "Ġminim": 7034,
      "rep": 7035,
      "Ġfans": 7036,
      "idelines": 7037,
      "Ġaccum": 7038,
      "Ġecho": 7039,
      "clusive": 7040,
      "Ġmeasurement": 7041,
      "AGE": 7042,
      "NO": 7043,
      "Ġuint": 7044,
      "iot": 7045,
      "ĠPC": 7046,
      "Ġconcern": 7047,
      "Ġobservations": 7048,
      "Ġpossibly": 7049,
      "Ġsch": 7050,
      "levision": 7051,
      "scale": 7052,
      "Ġversus": 7053,
      "ounce": 7054,
      "Ġmodified": 7055,
      "status": 7056,
      "Ġbelieved": 7057,
      "only": 7058,
      "cdots": 7059,
      "ĠRussia": 7060,
      "Ġdeg": 7061,
      "\"}.": 7062,
      "--------------------------------------------------------------------------------------------------------------------------------": 7063,
      "Gen": 7064,
      "Part": 7065,
      "BO": 7066,
      "ĠHIV": 7067,
      "ĠCI": 7068,
      "bound": 7069,
      "YPE": 7070,
      "ĠOpen": 7071,
      "Content": 7072,
      "ĠTime": 7073,
      "Ġafford": 7074,
      "Ġexcellent": 7075,
      "Ġassuming": 7076,
      "Ġtag": 7077,
      "output": 7078,
      "ĠGold": 7079,
      "ĠMA": 7080,
      "Ġcompr": 7081,
      "event": 7082,
      "Ġneither": 7083,
      "rypt": 7084,
      "Result": 7085,
      "alty": 7086,
      "Ġnodes": 7087,
      "ĠIT": 7088,
      "Since": 7089,
      "inations": 7090,
      "ushed": 7091,
      "Ġfees": 7092,
      "Ġangle": 7093,
      "ĠBre": 7094,
      "ĠDiv": 7095,
      "Ġexplan": 7096,
      "Ġfloat": 7097,
      "Ġoffense": 7098,
      "Ġtwice": 7099,
      "ĠNa": 7100,
      "Ġcere": 7101,
      "ĠLord": 7102,
      "Ġemployed": 7103,
      "ĠVir": 7104,
      "stood": 7105,
      "imately": 7106,
      "rapeut": 7107,
      "Ġapproaches": 7108,
      "Ġcommunities": 7109,
      "Ġdamages": 7110,
      "Â¶": 7111,
      "Ġoblig": 7112,
      "ĠUN": 7113,
      "ĠEX": 7114,
      "Ġcompare": 7115,
      "va": 7116,
      "ĠServ": 7117,
      "Back": 7118,
      "ĠFree": 7119,
      "search": 7120,
      "Ġstreet": 7121,
      "Ġplanning": 7122,
      "GE": 7123,
      "ACK": 7124,
      "ellular": 7125,
      "Ġ41": 7126,
      "Ġscan": 7127,
      "Ġseek": 7128,
      "Ġresource": 7129,
      "Ġinvestigate": 7130,
      "ĠRob": 7131,
      "Ġstanding": 7132,
      "imer": 7133,
      "Ġenhance": 7134,
      "GB": 7135,
      "Ġsalt": 7136,
      "ĠSam": 7137,
      "Ġrich": 7138,
      "Ġpreval": 7139,
      "Ġscores": 7140,
      "umns": 7141,
      "ĠWindows": 7142,
      "Ġtranscription": 7143,
      "ä»": 7144,
      "ĠBel": 7145,
      "Ġcos": 7146,
      "Ġconfidence": 7147,
      "Ġaccuracy": 7148,
      "otherapy": 7149,
      "Ġ120": 7150,
      "ipher": 7151,
      "Ġshock": 7152,
      "Ġfunding": 7153,
      "128": 7154,
      "ĠBer": 7155,
      "Ġhelps": 7156,
      "Ġbatter": 7157,
      "ĠFile": 7158,
      "Ġwilling": 7159,
      "Ġconcerned": 7160,
      "]--[@": 7161,
      "ĠRef": 7162,
      "Ġhousing": 7163,
      "SL": 7164,
      "edia": 7165,
      "Ġtrials": 7166,
      "else": 7167,
      "ĠMary": 7168,
      "ician": 7169,
      "Ġintervention": 7170,
      "ĠPet": 7171,
      "Ġsensitivity": 7172,
      "outhern": 7173,
      "layout": 7174,
      "Ġ_{": 7175,
      "\\!": 7176,
      "Ġcitizens": 7177,
      "Ġegg": 7178,
      "ĠEnd": 7179,
      "Ġmainly": 7180,
      "istory": 7181,
      "Ġdepth": 7182,
      "Ġguilty": 7183,
      "ĠBur": 7184,
      "Ø§": 7185,
      "Ġboundary": 7186,
      "del": 7187,
      "Ġasking": 7188,
      "Ġelectronic": 7189,
      "nav": 7190,
      "uous": 7191,
      "Ġadults": 7192,
      "inton": 7193,
      "oded": 7194,
      "Ġrelationships": 7195,
      "pload": 7196,
      "ĠMex": 7197,
      "ĠSH": 7198,
      "Ġtun": 7199,
      "Controller": 7200,
      "INE": 7201,
      "ĠCircuit": 7202,
      "Read": 7203,
      "erior": 7204,
      "ĠSaturday": 7205,
      "Ġspat": 7206,
      "Ġpal": 7207,
      "ĠJapanese": 7208,
      "Ġinvolving": 7209,
      "sect": 7210,
      "Ġdatas": 7211,
      "Ġexperienced": 7212,
      "Ġanalog": 7213,
      "android": 7214,
      "%.": 7215,
      "ĠPR": 7216,
      "^+^": 7217,
      "ĠIslam": 7218,
      "Ġbon": 7219,
      "Ġfinished": 7220,
      "Ġevaluate": 7221,
      "Ġcogn": 7222,
      "Ġ&=": 7223,
      "Ġexposed": 7224,
      "Ġrecip": 7225,
      "Ã¤": 7226,
      "ĠBrown": 7227,
      "usal": 7228,
      "client": 7229,
      "Ġexpansion": 7230,
      "Ġcontribution": 7231,
      "Rem": 7232,
      "mid": 7233,
      "________________": 7234,
      "Which": 7235,
      "Ġsignaling": 7236,
      "ĠCL": 7237,
      "Ġextends": 7238,
      "ontal": 7239,
      "ĠAlex": 7240,
      "possible": 7241,
      "Ġadvice": 7242,
      "Ġworse": 7243,
      "appe": 7244,
      "Override": 7245,
      "ateral": 7246,
      "cr": 7247,
      "Base": 7248,
      "esh": 7249,
      "ĠSolve": 7250,
      "eles": 7251,
      "Te": 7252,
      "sin": 7253,
      "ĠJesus": 7254,
      "gent": 7255,
      "Ġframework": 7256,
      "ĊĠĠĠĠĠĠĠĠĠĠĠĠĠĠĠĠĠ": 7257,
      "2000": 7258,
      "Ġemployee": 7259,
      "\"),": 7260,
      "TA": 7261,
      "More": 7262,
      "Ġcontinues": 7263,
      "cup": 7264,
      "Ġcapable": 7265,
      "2010": 7266,
      "adding": 7267,
      "uls": 7268,
      "ĠĠĠĠĠĠĠĠĠĠĠĠĠĠĠĠĠĠĠĠĠĠĠĠĠĠĠĠĠĠĠĠĠĠĠĠĠĠĠĠĠĠĠĠĠĠĠĠĠĠĠĠĠĠĠĠĠĠĠĠĠĠĠĠĠĠĠĠĠĠĠĠĠĠĠĠĠĠĠĠĠĠĠĠĠĠĠĠĠĠĠĠĠĠĠĠĠĠĠĠĠĠĠĠĠĠĠĠĠĠĠĠĠĠĠĠĠĠĠĠĠĠĠĠĠĠĠĠĠĠĠĠĠĠĠĠĠĠĠĠĠĠĠĠĠĠĠĠĠĠĠĠĠĠĠĠĠĠĠĠĠĠĠĠĠĠĠĠĠĠĠĠĠĠĠĠĠĠĠĠĠĠĠĠĠĠĠĠĠĠĠĠĠĠĠĠĠĠĠĠĠĠĠĠĠĠĠĠĠĠĠĠĠĠĠĠĠĠĠĠĠĠĠĠĠĠĠĠĠĠĠĠĠĠĠĠĠĠĠĠĠĠĠĠĠĠĠĠĠĠĠĠĠĠĠĠ": 7269,
      "Ġadvert": 7270,
      "2011": 7271,
      "ita": 7272,
      "Ġfab": 7273,
      "Ġsettings": 7274,
      "ĠFederal": 7275,
      "Ġideal": 7276,
      "čĊĠĠĠĠĠ": 7277,
      "Ġdepartment": 7278,
      "Ġdil": 7279,
      "Ġassessed": 7280,
      "Ġintensity": 7281,
      "ĠAustralia": 7282,
      "utely": 7283,
      "Ġcritic": 7284,
      "umer": 7285,
      "Ġplot": 7286,
      "ĠSD": 7287,
      "ĠInternet": 7288,
      "Ġion": 7289,
      "Ġharm": 7290,
      "007": 7291,
      "FIG": 7292,
      ")^{": 7293,
      "Ġphenomen": 7294,
      "/-": 7295,
      "Ġrent": 7296,
      "Ñĥ": 7297,
      "ĠOffice": 7298,
      "Ġdys": 7299,
      ".**": 7300,
      "ivation": 7301,
      "ĠGeorge": 7302,
      "je": 7303,
      "ĠIP": 7304,
      "enance": 7305,
      "etime": 7306,
      "Ġcompetition": 7307,
      "Ġordered": 7308,
      "END": 7309,
      "conf": 7310,
      "Ġadvance": 7311,
      "Ġadvanced": 7312,
      "Ġdemonstrate": 7313,
      "Ġbiological": 7314,
      "Ġguide": 7315,
      "Ġplaintiffs": 7316,
      "press": 7317,
      "OK": 7318,
      "Ġpept": 7319,
      "Ġrelates": 7320,
      "Ġstack": 7321,
      "Note": 7322,
      "Vert": 7323,
      "NF": 7324,
      "raq": 7325,
      "eting": 7326,
      "006": 7327,
      ";&": 7328,
      "ernel": 7329,
      "Ð»": 7330,
      "Ġmurder": 7331,
      "apers": 7332,
      "ĠField": 7333,
      "ĠMS": 7334,
      "Ġpersons": 7335,
      "rot": 7336,
      "Ġdeliver": 7337,
      "Ġcash": 7338,
      "MD": 7339,
      "Ġscope": 7340,
      "ilton": 7341,
      "GC": 7342,
      "Ġstrain": 7343,
      "entry": 7344,
      "Ġchallenges": 7345,
      "display": 7346,
      "Ġ49": 7347,
      "Ġpotentially": 7348,
      "ĠGood": 7349,
      "Ġsuitable": 7350,
      "Ġ47": 7351,
      "Ġban": 7352,
      "Ġimaging": 7353,
      "dy": 7354,
      "Ġ46": 7355,
      "ĠHall": 7356,
      "module": 7357,
      "Ġhumans": 7358,
      "gical": 7359,
      "Ġvelocity": 7360,
      "ua": 7361,
      "ĠFIG": 7362,
      "Ġnorth": 7363,
      "ĠPlease": 7364,
      "ĠRobert": 7365,
      "ker": 7366,
      "Ġinterval": 7367,
      "Ġindepend": 7368,
      "Ġconsent": 7369,
      "Ġconference": 7370,
      "Ġrats": 7371,
      "Ġdecide": 7372,
      "Ġstopped": 7373,
      "Ġfill": 7374,
      "ĠCP": 7375,
      "ĠSum": 7376,
      "Ġiron": 7377,
      "Ġsam": 7378,
      "Ġstatistical": 7379,
      "ftware": 7380,
      "Ġconstraint": 7381,
      "Ġimprovement": 7382,
      "Ġarter": 7383,
      "missions": 7384,
      "ĠGa": 7385,
      "Version": 7386,
      "Last": 7387,
      "uint": 7388,
      "Ġrecall": 7389,
      "Ġtight": 7390,
      "âĢĿ,": 7391,
      "Simplify": 7392,
      "iary": 7393,
      "Ġadministr": 7394,
      "orthern": 7395,
      "ĠDefendant": 7396,
      "Ġcrow": 7397,
      "Ġmel": 7398,
      "Ġclaimed": 7399,
      "Ġconsc": 7400,
      "Ġremained": 7401,
      "ashed": 7402,
      "Ġthin": 7403,
      "Ġstrict": 7404,
      "Ġ43": 7405,
      "iliar": 7406,
      "apped": 7407,
      "orted": 7408,
      "ĠNO": 7409,
      "ROM": 7410,
      "Ut": 7411,
      "ifferent": 7412,
      "Go": 7413,
      "ometric": 7414,
      "arden": 7415,
      "iples": 7416,
      "Ġended": 7417,
      "ĠType": 7418,
      "inates": 7419,
      "ĉĉĉ": 7420,
      "ifies": 7421,
      "ERS": 7422,
      "Ġsides": 7423,
      "Ġburden": 7424,
      "xygen": 7425,
      "Ġunknown": 7426,
      "Ġpartial": 7427,
      "Ġduration": 7428,
      "Ġmand": 7429,
      "Ġchief": 7430,
      "ĠUse": 7431,
      "dule": 7432,
      "ĠStat": 7433,
      "Ġlegisl": 7434,
      "sd": 7435,
      "Ġjump": 7436,
      "Ġsuggesting": 7437,
      "ĊĠĠĠĠĠĠĠĠĠĠ": 7438,
      "Ġran": 7439,
      "ĊĠĠĠĠĠĠĠĠĠĠĠĠĠĠĠĠĠĠĠĠĠĠĠĠĠĠĠĠĠĠĠ": 7440,
      "ĠRussian": 7441,
      "ĠLin": 7442,
      "Rev": 7443,
      "Ġfrequently": 7444,
      "Ġdiscovered": 7445,
      "ĠTur": 7446,
      "Ġbranch": 7447,
      "Ġhence": 7448,
      "120": 7449,
      "ĠÂ£": 7450,
      "itud": 7451,
      "arks": 7452,
      "Ge": 7453,
      "Ġdoctor": 7454,
      "Ġadequ": 7455,
      "Âº": 7456,
      "Ġlic": 7457,
      "ĠRepublican": 7458,
      "ĠWork": 7459,
      "Ġbag": 7460,
      "ĠIF": 7461,
      "antic": 7462,
      "============": 7463,
      "clusions": 7464,
      "Ġreverse": 7465,
      "ears": 7466,
      "Ġargues": 7467,
      "ĠRule": 7468,
      "plete": 7469,
      "dep": 7470,
      "Ġsan": 7471,
      "Ġorient": 7472,
      ")}\\": 7473,
      "Ġlimits": 7474,
      "Ġbright": 7475,
      "Ġnine": 7476,
      "Ġcelebr": 7477,
      "~~~": 7478,
      "Ġnecessarily": 7479,
      "Fe": 7480,
      "Ġ150": 7481,
      "Script": 7482,
      "Ġton": 7483,
      "Ġcolon": 7484,
      "Ġarms": 7485,
      "ĠCE": 7486,
      "Ġannual": 7487,
      "rey": 7488,
      "charge": 7489,
      "rip": 7490,
      "Off": 7491,
      "ĠANY": 7492,
      "Ġmarked": 7493,
      "Frame": 7494,
      "Create": 7495,
      "args": 7496,
      "ployment": 7497,
      "ju": 7498,
      "mg": 7499,
      "Ġcourts": 7500,
      "2018": 7501,
      "Check": 7502,
      "ĠSecret": 7503,
      "Ġsynd": 7504,
      "Ġsole": 7505,
      "Ġseconds": 7506,
      "Ġpharm": 7507,
      "Ġ56": 7508,
      "dden": 7509,
      "Ġradiation": 7510,
      "Ġaxis": 7511,
      "Ġformal": 7512,
      "Ġvariation": 7513,
      "Ġdestroy": 7514,
      "Ġassembly": 7515,
      "Ġstability": 7516,
      "Ġrough": 7517,
      "Ġens": 7518,
      "iverse": 7519,
      "roke": 7520,
      "GA": 7521,
      ")]": 7522,
      "ĠMinister": 7523,
      "iological": 7524,
      "ĠHence": 7525,
      "*/": 7526,
      "\"]": 7527,
      "Ġpoll": 7528,
      "Ġwidely": 7529,
      "Ġtick": 7530,
      "Conne": 7531,
      "Ġacute": 7532,
      "TC": 7533,
      "uing": 7534,
      "Ġantibody": 7535,
      "Ġthereby": 7536,
      "ools": 7537,
      "IO": 7538,
      "Ġstick": 7539,
      "Ġdefinitely": 7540,
      "ĠSand": 7541,
      "Ġbrand": 7542,
      "mas": 7543,
      "ĠTwitter": 7544,
      "ells": 7545,
      "ĠLike": 7546,
      "Ġoral": 7547,
      "icious": 7548,
      "Ġconven": 7549,
      "Ġprovision": 7550,
      "Ġtables": 7551,
      "Post": 7552,
      "Ġice": 7553,
      "Ġpossess": 7554,
      "Ġlinked": 7555,
      "Ġdimension": 7556,
      "Ġaspects": 7557,
      "ĠJohnson": 7558,
      "ĠmRNA": 7559,
      "Ġcort": 7560,
      "Ġgrav": 7561,
      "Ġattacks": 7562,
      "usiness": 7563,
      "method": 7564,
      "month": 7565,
      "Ġkeeping": 7566,
      "ĠLog": 7567,
      "Ġimplies": 7568,
      "Ġnumerous": 7569,
      "helial": 7570,
      "icago": 7571,
      "References": 7572,
      "Ġpopulations": 7573,
      "ĠFrance": 7574,
      "mut": 7575,
      "Mon": 7576,
      "Ġindicating": 7577,
      "ABLE": 7578,
      "Ġul": 7579,
      "ĠGerman": 7580,
      "Ġanc": 7581,
      "Ġstarts": 7582,
      "ĠWITH": 7583,
      "Page": 7584,
      "asy": 7585,
      "Ġmixture": 7586,
      "ĠJustice": 7587,
      "ochem": 7588,
      "ĠOnce": 7589,
      "Ġidentification": 7590,
      "Ġfundamental": 7591,
      "NN": 7592,
      "rine": 7593,
      "Ġwaste": 7594,
      "Ġarchitect": 7595,
      "Ġopposite": 7596,
      "cut": 7597,
      "Ġrare": 7598,
      "Ġaccepted": 7599,
      "Action": 7600,
      "osh": 7601,
      "roduction": 7602,
      "ĠDec": 7603,
      "HS": 7604,
      "ĠOnly": 7605,
      "ĠĊĠĠĠ": 7606,
      "Ġinterpretation": 7607,
      "Ġmortality": 7608,
      "Ġunable": 7609,
      "Ġinstructions": 7610,
      "Char": 7611,
      "Ġentirely": 7612,
      "Ġviolation": 7613,
      "Ġmission": 7614,
      "Ġinteract": 7615,
      "Ġbreath": 7616,
      "ĠAppe": 7617,
      "Ġcoach": 7618,
      "Ġbeat": 7619,
      "war": 7620,
      "Response": 7621,
      "([": 7622,
      "Ġtruly": 7623,
      "Ġabsolute": 7624,
      "Ġrecognized": 7625,
      "Psi": 7626,
      "May": 7627,
      "Ġju": 7628,
      "Ġsouth": 7629,
      "agon": 7630,
      "Ġcellular": 7631,
      "Ġbone": 7632,
      "Ġgonna": 7633,
      "\\/": 7634,
      "msgid": 7635,
      "Ġpractices": 7636,
      "Ġdistingu": 7637,
      "Ġreprodu": 7638,
      "Ġgirls": 7639,
      "unit": 7640,
      "hedul": 7641,
      "\"})": 7642,
      "rency": 7643,
      "Ġspl": 7644,
      "Ġcontribute": 7645,
      "Ġnotes": 7646,
      "Ġgluc": 7647,
      "Americ": 7648,
      "Ġnarrow": 7649,
      "anda": 7650,
      "Ġparallel": 7651,
      "Ġdegrees": 7652,
      "ensed": 7653,
      "Ġsudden": 7654,
      "MC": 7655,
      "Ġends": 7656,
      "Ġpartner": 7657,
      "Status": 7658,
      "Ġmassive": 7659,
      "hether": 7660,
      "Ġsupporting": 7661,
      "Ġrelax": 7662,
      "ĠIraq": 7663,
      "Ġsmart": 7664,
      "ashion": 7665,
      "ĠPA": 7666,
      "Ġsuppl": 7667,
      "Filter": 7668,
      "msgstr": 7669,
      "Ġmouth": 7670,
      "find": 7671,
      "ĠMass": 7672,
      "opath": 7673,
      "xe": 7674,
      "ĠSenate": 7675,
      "Ġprotest": 7676,
      "next": 7677,
      "lections": 7678,
      "110": 7679,
      "ĠON": 7680,
      "png": 7681,
      "Ġtrip": 7682,
      "Ġresponsibility": 7683,
      "Ġreact": 7684,
      "})\\": 7685,
      "request": 7686,
      "EXT": 7687,
      "Ġsigns": 7688,
      "$)": 7689,
      "Ġbecoming": 7690,
      "Ġmiles": 7691,
      "Ġemployment": 7692,
      "Ġast": 7693,
      "claim": 7694,
      "Ġpolymer": 7695,
      "vol": 7696,
      "cale": 7697,
      "Ġcorre": 7698,
      "apse": 7699,
      "BD": 7700,
      "oster": 7701,
      "ĠObject": 7702,
      "Ġattached": 7703,
      "Ġappearance": 7704,
      "Ġcamera": 7705,
      "(\\[": 7706,
      "ello": 7707,
      "Ġsin": 7708,
      "Ġtechnical": 7709,
      "ipping": 7710,
      "Load": 7711,
      "Ġaccompl": 7712,
      "Ġ[[": 7713,
      "Solve": 7714,
      "Ġdisk": 7715,
      "Ġcompound": 7716,
      "Ġhole": 7717,
      "Ġmanaged": 7718,
      "Ġresidents": 7719,
      "Ġroute": 7720,
      "ĠProgram": 7721,
      "ERE": 7722,
      "ĠGive": 7723,
      "Ġdependent": 7724,
      "tyle": 7725,
      "Ġoffset": 7726,
      "Ne": 7727,
      "iral": 7728,
      "400": 7729,
      "Ġvitro": 7730,
      "Ġminute": 7731,
      "append": 7732,
      "ĠCle": 7733,
      "Ġmolecules": 7734,
      "widehat": 7735,
      "Ġenable": 7736,
      "Ġconcluded": 7737,
      "Ġdynamic": 7738,
      "Ġcoh": 7739,
      "tra": 7740,
      "\\]).": 7741,
      "orters": 7742,
      "Ġesc": 7743,
      "Ġapart": 7744,
      "Ġcommonly": 7745,
      "Ġamounts": 7746,
      "clear": 7747,
      "wing": 7748,
      "Ġpix": 7749,
      "\\[[@": 7750,
      "ĠSing": 7751,
      "TE": 7752,
      "Ġdefic": 7753,
      "Ġassigned": 7754,
      "option": 7755,
      "ĠMot": 7756,
      "match": 7757,
      "Ġconsideration": 7758,
      "Label": 7759,
      "BP": 7760,
      "Ġcommission": 7761,
      "media": 7762,
      "Ġprolif": 7763,
      "Ġphoto": 7764,
      "kins": 7765,
      "Dec": 7766,
      "*^": 7767,
      "ket": 7768,
      "Ġpursu": 7769,
      "Ġunderstood": 7770,
      "Default": 7771,
      "Ġarticles": 7772,
      "omial": 7773,
      "Handler": 7774,
      "Ġdynamics": 7775,
      "ĠTheir": 7776,
      "ĠPH": 7777,
      "FO": 7778,
      "Ġsought": 7779,
      "yer": 7780,
      "Ġrequirement": 7781,
      "effect": 7782,
      "Ġfacilit": 7783,
      "ĠJava": 7784,
      "herent": 7785,
      "ĠInstead": 7786,
      "LS": 7787,
      "aked": 7788,
      "ĠAnn": 7789,
      "Ġeffectively": 7790,
      "Ġaccurate": 7791,
      "uns": 7792,
      "{\"": 7793,
      "grade": 7794,
      "UI": 7795,
      "ĠPlan": 7796,
      "LC": 7797,
      "VA": 7798,
      "Ġship": 7799,
      "Ġgap": 7800,
      "control": 7801,
      "road": 7802,
      "Ġestimates": 7803,
      "irty": 7804,
      "Ġjurisdiction": 7805,
      "ĠPRO": 7806,
      "Ġsensitive": 7807,
      "Ġmicrosc": 7808,
      "adata": 7809,
      "scrib": 7810,
      "neg": 7811,
      "Ġspaces": 7812,
      "Ġtemplate": 7813,
      "adian": 7814,
      "Ġrender": 7815,
      "Ġconj": 7816,
      "Ġ52": 7817,
      "Ġfilled": 7818,
      "Ġstem": 7819,
      "ĠTor": 7820,
      "ĠAfrica": 7821,
      "linear": 7822,
      "uscript": 7823,
      "**,": 7824,
      "}}{\\": 7825,
      "Ġsplit": 7826,
      "fess": 7827,
      "Ġdecades": 7828,
      "eding": 7829,
      "Ġusual": 7830,
      "Ġmessages": 7831,
      "ijms": 7832,
      "ĠPhil": 7833,
      "Ġbath": 7834,
      "ĠThomas": 7835,
      "chron": 7836,
      "Ġbinary": 7837,
      "Ġ51": 7838,
      "Ġestate": 7839,
      "ĠAPI": 7840,
      "Ġoxygen": 7841,
      "Ġjustice": 7842,
      "Ġspending": 7843,
      "Your": 7844,
      "perties": 7845,
      "ĠPCR": 7846,
      "prote": 7847,
      "#:": 7848,
      "Ġseeking": 7849,
      "rapeutic": 7850,
      "Ġdisput": 7851,
      "life": 7852,
      "ĠScott": 7853,
      "Ġfluores": 7854,
      "ĠTimes": 7855,
      "åĪ": 7856,
      "tings": 7857,
      "Ġwww": 7858,
      "oral": 7859,
      "ola": 7860,
      "Ġadmitted": 7861,
      "Ġnom": 7862,
      "Ġnegot": 7863,
      "Ġsenior": 7864,
      "uster": 7865,
      "ĠBill": 7866,
      "ĠNor": 7867,
      "Ġfont": 7868,
      "IE": 7869,
      "ressive": 7870,
      "Ġfavorite": 7871,
      "ĠRiver": 7872,
      "ws": 7873,
      "ander": 7874,
      "ivered": 7875,
      "Please": 7876,
      "Ġcm": 7877,
      "Ġstrategies": 7878,
      "Ġpet": 7879,
      "ĠMag": 7880,
      "COM": 7881,
      "Ġsecure": 7882,
      "strong": 7883,
      "mo": 7884,
      "Ġsweet": 7885,
      "ĠEarth": 7886,
      "Ġobjective": 7887,
      "values": 7888,
      "Web": 7889,
      "ĠMad": 7890,
      "Ġconsumption": 7891,
      "istor": 7892,
      "++)": 7893,
      "Ġhoriz": 7894,
      "Ġsqrt": 7895,
      "obj": 7896,
      "agger": 7897,
      "Ġ72": 7898,
      "star": 7899,
      "ĠWill": 7900,
      "Ġabund": 7901,
      "ĠStand": 7902,
      "Ġbroken": 7903,
      "Ġassistance": 7904,
      "prop": 7905,
      "Ġcharacterized": 7906,
      "Ġsimpl": 7907,
      "anta": 7908,
      "mL": 7909,
      "Ġgender": 7910,
      "igr": 7911,
      "ĠPy": 7912,
      "high": 7913,
      "Det": 7914,
      "Ġplastic": 7915,
      "icken": 7916,
      "Ġintention": 7917,
      "Yeah": 7918,
      "]]": 7919,
      "ĠNE": 7920,
      "Ġsmallest": 7921,
      "Ġacadem": 7922,
      "bour": 7923,
      "ĠFore": 7924,
      "amber": 7925,
      "float": 7926,
      "Ġintra": 7927,
      "Ġpredicted": 7928,
      "Ġarrange": 7929,
      "^-": 7930,
      "Ġemission": 7931,
      "2008": 7932,
      "ĠIndeed": 7933,
      "OB": 7934,
      "private": 7935,
      "lik": 7936,
      "Ġtissues": 7937,
      "[\"": 7938,
      "ributions": 7939,
      "Â¸": 7940,
      "Äģ": 7941,
      "water": 7942,
      "ĠMil": 7943,
      "Ġped": 7944,
      "Ġorders": 7945,
      "Ġreb": 7946,
      "ĠProject": 7947,
      "fold": 7948,
      "Ġchair": 7949,
      "Ġhem": 7950,
      "ura": 7951,
      "Layout": 7952,
      "ami": 7953,
      "Ġcof": 7954,
      "ĠDen": 7955,
      "olecules": 7956,
      "Ġfan": 7957,
      "NU": 7958,
      "Ġneurons": 7959,
      "}/": 7960,
      "ĠSP": 7961,
      "Ġcart": 7962,
      "Ġ[]": 7963,
      "Ġprinciple": 7964,
      "Ġscientific": 7965,
      "ĠCarol": 7966,
      "Two": 7967,
      "Ġpages": 7968,
      "osa": 7969,
      "Ġexpensive": 7970,
      "Ġmarriage": 7971,
      "adow": 7972,
      "Ġalt": 7973,
      "Ġzone": 7974,
      "fit": 7975,
      "Control": 7976,
      "ala": 7977,
      "Ġrecommended": 7978,
      "Rel": 7979,
      "ĠMedical": 7980,
      "Ġphilos": 7981,
      "').": 7982,
      "Gl": 7983,
      "Ġsubset": 7984,
      "Ġsupports": 7985,
      "ogenic": 7986,
      "quot": 7987,
      "yg": 7988,
      "tab": 7989,
      "Ġfell": 7990,
      "Am": 7991,
      "Ġcustomer": 7992,
      "??": 7993,
      "Ġ54": 7994,
      "Ġcorner": 7995,
      "Ġparticle": 7996,
      "coin": 7997,
      "Ġpieces": 7998,
      "ani": 7999,
      "ĠMethod": 8000,
      "æľ": 8001,
      "TS": 8002,
      "system": 8003,
      "never": 8004,
      "Ġmanuscript": 8005,
      "ounter": 8006,
      "ĠMuslim": 8007,
      "ocy": 8008,
      "ĠLouis": 8009,
      "Ġperman": 8010,
      "2009": 8011,
      "Ġwatching": 8012,
      "ĠFranc": 8013,
      "ĠInformation": 8014,
      "tag": 8015,
      "Ġexceed": 8016,
      "Ġlarg": 8017,
      "Ġlaunch": 8018,
      "DC": 8019,
      "ĠSpec": 8020,
      "Ġdiscretion": 8021,
      "ĠRad": 8022,
      "eds": 8023,
      "Ġcausing": 8024,
      "rition": 8025,
      "etch": 8026,
      "ĠSil": 8027,
      "Ġsuccessfully": 8028,
      "Ġtelevision": 8029,
      "Ġmargin": 8030,
      "ĠIV": 8031,
      "show": 8032,
      "Ġchannels": 8033,
      "ĠFrank": 8034,
      "Ġcompre": 8035,
      "Ġtoler": 8036,
      "Ġ1999": 8037,
      "aren": 8038,
      "otted": 8039,
      "Ġtranscript": 8040,
      "Ġinfo": 8041,
      "wer": 8042,
      "split": 8043,
      "Ġbaseline": 8044,
      "FR": 8045,
      "Ġtargets": 8046,
      "ye": 8047,
      "ĠMa": 8048,
      "gener": 8049,
      "vant": 8050,
      "Ġsupra": 8051,
      "Ġreducing": 8052,
      "seud": 8053,
      "Tem": 8054,
      "Ġcrisis": 8055,
      "ĠHospital": 8056,
      "fa": 8057,
      "Ġsegment": 8058,
      "iki": 8059,
      "Ġamb": 8060,
      "fast": 8061,
      "Ġwarn": 8062,
      "ĠEU": 8063,
      "ena": 8064,
      "Ġlargely": 8065,
      "Ġbattle": 8066,
      "Ġunion": 8067,
      "Ġimpossible": 8068,
      "tw": 8069,
      "acent": 8070,
      "ĠpH": 8071,
      "Ġvit": 8072,
      "}},": 8073,
      "ĠArab": 8074,
      "Ġscr": 8075,
      "Ġinhibition": 8076,
      "SR": 8077,
      "Ġcomposite": 8078,
      "ĠCr": 8079,
      "ĠCap": 8080,
      "ollowing": 8081,
      "Ġautomatically": 8082,
      "\"\"": 8083,
      "Ġsitting": 8084,
      "creen": 8085,
      "Ġinstalled": 8086,
      "Ġinformed": 8087,
      "ĠMath": 8088,
      "exec": 8089,
      "Ġepit": 8090,
      "Ġsupplement": 8091,
      "Ġdiabetes": 8092,
      "Ġpromote": 8093,
      "Ġauthorities": 8094,
      "ĠHel": 8095,
      "Ġattend": 8096,
      "Ġresearchers": 8097,
      "Ġâī": 8098,
      "ĠWAR": 8099,
      "VE": 8100,
      "Ġvess": 8101,
      "oxy": 8102,
      "ĠQue": 8103,
      "inite": 8104,
      "Ġaccel": 8105,
      "css": 8106,
      "brid": 8107,
      "Ġasym": 8108,
      "Ġstructural": 8109,
      "Ġworry": 8110,
      "iability": 8111,
      "Ġsand": 8112,
      "ĠSoftware": 8113,
      "Ġexamination": 8114,
      "Ġmarried": 8115,
      "ĠGL": 8116,
      "Ġorganic": 8117,
      "Ġsector": 8118,
      "Ġsac": 8119,
      "ĠCentral": 8120,
      "Ġforget": 8121,
      "Ġcompact": 8122,
      "///": 8123,
      "olid": 8124,
      "Ġdisorder": 8125,
      "Ġtor": 8126,
      "Ġdomin": 8127,
      "ogenesis": 8128,
      "ĠStr": 8129,
      "Ġrepresentative": 8130,
      "ulating": 8131,
      "thm": 8132,
      "Ġknock": 8133,
      "imb": 8134,
      "ZE": 8135,
      "root": 8136,
      "ĠVol": 8137,
      "vin": 8138,
      "Ġstrains": 8139,
      "Next": 8140,
      "ĠBi": 8141,
      "ez": 8142,
      "UP": 8143,
      "OH": 8144,
      "plant": 8145,
      "Ġweekend": 8146,
      "Ġproportion": 8147,
      "Ġseat": 8148,
      "Ġputting": 8149,
      "Ġvisible": 8150,
      "ĠĠĠĠĠĠĠĠĠĠĠĠĠĠĠĠĠĠĠĠĠĠĠĠĠĠĠĠĠĠĠĠĠĠĠĠĠĠĠĠĠĠĠĠĠĠĠĠĠĠĠĠĠĠĠĠĠĠĠĠĠĠĠĠĠĠĠĠĠĠĠĠĠĠĠĠĠĠĠĠĠĠĠĠĠĠĠĠĠĠĠĠĠĠĠĠ": 8151,
      "google": 8152,
      "ĠEduc": 8153,
      "Ġjoined": 8154,
      "```": 8155,
      "Ġguard": 8156,
      "Ġfaster": 8157,
      "Ġsi": 8158,
      "Ġconcerning": 8159,
      "ĠLemma": 8160,
      "ĠBack": 8161,
      "oration": 8162,
      "Ġstret": 8163,
      "Ġveget": 8164,
      "Ġeditor": 8165,
      "Ġadm": 8166,
      "Ġreplaced": 8167,
      "fections": 8168,
      "Ġfacilities": 8169,
      "Ġobservation": 8170,
      "Ġdivers": 8171,
      "Ġfinish": 8172,
      "ĊĠĠĠĠĠĠĠĠĠĠĠĠĠĠ": 8173,
      "Ġbott": 8174,
      "Mr": 8175,
      "number": 8176,
      "ĠIts": 8177,
      "ĠAfrican": 8178,
      "Ġsolve": 8179,
      "ĠView": 8180,
      "dist": 8181,
      "Ġdebate": 8182,
      "oxid": 8183,
      "Ġdream": 8184,
      "Thanks": 8185,
      "ĠChicago": 8186,
      "mediate": 8187,
      "ĠGreat": 8188,
      "Ġherself": 8189,
      "Ġforg": 8190,
      "Ġalgebra": 8191,
      "GR": 8192,
      "La": 8193,
      "}|": 8194,
      "Ġreform": 8195,
      "Ã§": 8196,
      "Where": 8197,
      "Ġacting": 8198,
      "contin": 8199,
      "Ġsea": 8200,
      "ptic": 8201,
      "Ġ101": 8202,
      "Su": 8203,
      "Ġbehaviour": 8204,
      "Ġlayers": 8205,
      "Ġoverl": 8206,
      "Although": 8207,
      "Ġble": 8208,
      "ĠAnother": 8209,
      "Ġsugar": 8210,
      "Ġhomes": 8211,
      "&=": 8212,
      "Ġantibodies": 8213,
      "Ġassumed": 8214,
      "common": 8215,
      "Ġdangerous": 8216,
      "otten": 8217,
      "ĠClinton": 8218,
      "options": 8219,
      "Ġturns": 8220,
      "ĠProte": 8221,
      "Ġcandidates": 8222,
      "sign": 8223,
      "NAME": 8224,
      "loc": 8225,
      "Ġlie": 8226,
      "Ġinvolves": 8227,
      "Ġreson": 8228,
      "Another": 8229,
      "Ġmerely": 8230,
      "Ġmatters": 8231,
      "Ġapopt": 8232,
      "ICE": 8233,
      "Ġemergency": 8234,
      "lements": 8235,
      "150": 8236,
      "Ġpropag": 8237,
      "Ġurl": 8238,
      "Ġampl": 8239,
      "ĠLong": 8240,
      "kl": 8241,
      "arsh": 8242,
      "ĠSO": 8243,
      ")|": 8244,
      "ĠSecurity": 8245,
      "nut": 8246,
      "ĊĊĠĠ": 8247,
      "Ġdesc": 8248,
      "ora": 8249,
      "Ġjour": 8250,
      "Ġ1990": 8251,
      "Ġcontainer": 8252,
      "sche": 8253,
      "Ġsubt": 8254,
      "Ġdifferential": 8255,
      "Ġexperiences": 8256,
      "ĠFed": 8257,
      "Ġperspective": 8258,
      "Ġhundreds": 8259,
      "Instance": 8260,
      "Ġ2020": 8261,
      "Ġflag": 8262,
      "ĠHuman": 8263,
      "Ġ*)": 8264,
      "Ġluck": 8265,
      "Ġpassing": 8266,
      "Ġamazing": 8267,
      "Ġlowest": 8268,
      "Ġexplore": 8269,
      "Ġexecutive": 8270,
      "Ġpairs": 8271,
      "Ġdetermining": 8272,
      "Ġneglig": 8273,
      "GG": 8274,
      "Ġrepair": 8275,
      "eli": 8276,
      "ulture": 8277,
      "equiv": 8278,
      "Gu": 8279,
      "ameters": 8280,
      "ĠUs": 8281,
      "ĠEqu": 8282,
      "friend": 8283,
      "ĠSl": 8284,
      "Ġlived": 8285,
      "ĠHT": 8286,
      "Ġclosely": 8287,
      "aneously": 8288,
      "Ġbias": 8289,
      "Ġsimult": 8290,
      "MM": 8291,
      "\\*\\*": 8292,
      "ĠGal": 8293,
      "ĠÃł": 8294,
      "]);": 8295,
      "Ġproved": 8296,
      "ellar": 8297,
      "Ġdirectory": 8298,
      "ubuntu": 8299,
      "aped": 8300,
      "Ġaid": 8301,
      "lectric": 8302,
      "Ġwrt": 8303,
      "Ġouter": 8304,
      "Ġmenu": 8305,
      "ĠChild": 8306,
      "TD": 8307,
      "oder": 8308,
      "ivated": 8309,
      "ATA": 8310,
      "Ġposted": 8311,
      "Ġnative": 8312,
      "Ġregister": 8313,
      "omer": 8314,
      "Ġwalking": 8315,
      "Ġclar": 8316,
      "Ġpolitics": 8317,
      "ĠFour": 8318,
      "eness": 8319,
      "ampionship": 8320,
      "Ġconversation": 8321,
      "Ġgate": 8322,
      "rer": 8323,
      "Ġpump": 8324,
      "Ġliability": 8325,
      "Hz": 8326,
      "ĠMont": 8327,
      "ortion": 8328,
      "Right": 8329,
      "ĠSocial": 8330,
      "cers": 8331,
      "Ĥ¬": 8332,
      "Ġ---": 8333,
      "Ġtrees": 8334,
      "Ġmilk": 8335,
      "Ġargue": 8336,
      "Ġdelet": 8337,
      "Ġfamiliar": 8338,
      "plex": 8339,
      "Ġbio": 8340,
      "ĠStar": 8341,
      "Ġinstant": 8342,
      "hydro": 8343,
      "eger": 8344,
      "Ġprincipal": 8345,
      "DNA": 8346,
      "ĠOffic": 8347,
      "ĠWhere": 8348,
      "Ġfre": 8349,
      ".-": 8350,
      "Look": 8351,
      "icular": 8352,
      "Ġmonitoring": 8353,
      "Ġtelling": 8354,
      "Ġprimarily": 8355,
      ">,": 8356,
      "oked": 8357,
      "Ġinnov": 8358,
      "Ġprev": 8359,
      "ĠMer": 8360,
      "Ġsignificance": 8361,
      "igan": 8362,
      "project": 8363,
      "Ġblocks": 8364,
      "Ġembed": 8365,
      "Ġinitially": 8366,
      "Ġinequ": 8367,
      "aven": 8368,
      "Ġloved": 8369,
      "fonts": 8370,
      "Ġdepos": 8371,
      "URL": 8372,
      "Ġcities": 8373,
      "Ġvivo": 8374,
      "Ġoperators": 8375,
      "Hel": 8376,
      "Ġhonest": 8377,
      "Ġcorrespond": 8378,
      "pers": 8379,
      "008": 8380,
      "TER": 8381,
      "Ġphotos": 8382,
      "Ġpip": 8383,
      "Ġ53": 8384,
      "Ġlots": 8385,
      "description": 8386,
      "born": 8387,
      "icate": 8388,
      "00000": 8389,
      "Ġobser": 8390,
      "Ġdollars": 8391,
      "Ġhell": 8392,
      "Ġinjuries": 8393,
      "ĠYOU": 8394,
      "Ġshell": 8395,
      "Ġeating": 8396,
      "Ġvision": 8397,
      "Ġinstitution": 8398,
      "ayers": 8399,
      "Ġvul": 8400,
      "Ġrational": 8401,
      "Ġdelivered": 8402,
      "ums": 8403,
      "Ġimplemented": 8404,
      "Ġmaps": 8405,
      "Ġdisorders": 8406,
      "Ġwear": 8407,
      "ĠColor": 8408,
      "160": 8409,
      "Select": 8410,
      "documentclass": 8411,
      "Pat": 8412,
      "uh": 8413,
      "ords": 8414,
      "atrix": 8415,
      "Ġbusinesses": 8416,
      "Ġ\\{": 8417,
      "Ġbind": 8418,
      "ĠControl": 8419,
      "Ġcontributions": 8420,
      "Ġconsists": 8421,
      "Ġ99": 8422,
      "Ġinjection": 8423,
      "ci": 8424,
      "idential": 8425,
      "weet": 8426,
      "Ġassault": 8427,
      "uzz": 8428,
      "ophy": 8429,
      "theless": 8430,
      "minimal": 8431,
      "ented": 8432,
      "Ġsensor": 8433,
      "Ġaccordance": 8434,
      "avel": 8435,
      "andon": 8436,
      "then": 8437,
      "Ġsuspect": 8438,
      "BR": 8439,
      "ĠLife": 8440,
      "ĠJones": 8441,
      "Ġgrown": 8442,
      "Ġbigger": 8443,
      "Ġenhanced": 8444,
      "Ġ1998": 8445,
      "Ġoptimal": 8446,
      "ether": 8447,
      "Ġcloser": 8448,
      "Ġleadership": 8449,
      "Ġdress": 8450,
      "CU": 8451,
      "ĠÎ²": 8452,
      "Ġdepart": 8453,
      "Ġtom": 8454,
      "reek": 8455,
      "home": 8456,
      "Ġdefe": 8457,
      "Ġbodies": 8458,
      "Cell": 8459,
      "Other": 8460,
      "ĠHy": 8461,
      "CIT": 8462,
      "Ġlaser": 8463,
      "IND": 8464,
      "called": 8465,
      "ĠĠĠĠĠĠĠĠĠĠĠĠĠĠĠĠĠĠĠĠĠĠĠĠĠĠĠ": 8466,
      "reatment": 8467,
      "Ġcaught": 8468,
      "Ġterminal": 8469,
      "Ġaccounts": 8470,
      "Ġpig": 8471,
      "Ġorganizations": 8472,
      "odds": 8473,
      "rovers": 8474,
      "Ġgenome": 8475,
      "ĠAv": 8476,
      "Ġleague": 8477,
      "Ġmethyl": 8478,
      "Ġlocations": 8479,
      "jpg": 8480,
      "Ġextend": 8481,
      "Output": 8482,
      "Ġremark": 8483,
      "Ġconsequences": 8484,
      "Function": 8485,
      "ski": 8486,
      "Ġillegal": 8487,
      "sup": 8488,
      "Ġopportunities": 8489,
      "Ġsorry": 8490,
      "DP": 8491,
      "Ã£": 8492,
      "ĠRoy": 8493,
      "Ġminimal": 8494,
      "Ġelectrical": 8495,
      "yles": 8496,
      "Vis": 8497,
      "Max": 8498,
      "Ġrub": 8499,
      "buf": 8500,
      "ĠGO": 8501,
      "Ġfraud": 8502,
      "Ġcorrectly": 8503,
      "Ġfer": 8504,
      "urally": 8505,
      "Ġfigures": 8506,
      "pet": 8507,
      "avas": 8508,
      "Ġfold": 8509,
      "ĠPut": 8510,
      "Ġmaintenance": 8511,
      "Ġrig": 8512,
      "ĠMedic": 8513,
      "ĠMcC": 8514,
      "lines": 8515,
      "1000": 8516,
      "Ġintr": 8517,
      ")+": 8518,
      "Ġarrived": 8519,
      "Ġdenote": 8520,
      "Ġpp": 8521,
      "ĠFrancis": 8522,
      "Ġfacility": 8523,
      "Mode": 8524,
      "ĠĠĠĠĠĠĠĠĠĠĠĠĠĠĠĠĠĠĠĠĠĠĠĠĠ": 8525,
      "Ġthermal": 8526,
      "]$": 8527,
      "**(": 8528,
      "Ġclosest": 8529,
      "Ġthoughts": 8530,
      "ĠÃĳ": 8531,
      "ĠExt": 8532,
      "matrix": 8533,
      "Ġpathways": 8534,
      "Ġprevalence": 8535,
      "ruption": 8536,
      "racellular": 8537,
      "Ġenem": 8538,
      "Ġpil": 8539,
      "Ġhousehold": 8540,
      "template": 8541,
      "Ġinternet": 8542,
      "rics": 8543,
      "Ġdual": 8544,
      "Ġsyndrome": 8545,
      "agen": 8546,
      "2006": 8547,
      "irus": 8548,
      "Before": 8549,
      "ko": 8550,
      "Ġremoval": 8551,
      "fill": 8552,
      "Ġpin": 8553,
      "Buffer": 8554,
      "foot": 8555,
      "onym": 8556,
      "idents": 8557,
      "Ġtrouble": 8558,
      "Ġpointed": 8559,
      "Ġxml": 8560,
      "Ġdisplayed": 8561,
      "Format": 8562,
      "Ġsurrounding": 8563,
      "ĠAcc": 8564,
      "VD": 8565,
      "Ġmutations": 8566,
      "Ġfruit": 8567,
      "ÂĢ": 8568,
      "Const": 8569,
      "ĠName": 8570,
      "STR": 8571,
      "Ġabsolutely": 8572,
      "Ġpri": 8573,
      "ĠMax": 8574,
      "Ġcoc": 8575,
      "\\]),": 8576,
      "Ġpractical": 8577,
      "]^.": 8578,
      "ĠDemocratic": 8579,
      "Ġinstruction": 8580,
      "Ġupdated": 8581,
      "Ġcoron": 8582,
      "Ġprohib": 8583,
      "ĠRichard": 8584,
      "Ġcreation": 8585,
      "IES": 8586,
      "liament": 8587,
      "Ġapparently": 8588,
      "Cons": 8589,
      "Ġintegrated": 8590,
      "Ġscal": 8591,
      "Ġinstrument": 8592,
      "Ġcas": 8593,
      "Ġbacteria": 8594,
      "Ġflux": 8595,
      "***": 8596,
      "ĠNon": 8597,
      "ĠCup": 8598,
      "Ġmetast": 8599,
      "orption": 8600,
      "Ġclients": 8601,
      "Ġstages": 8602,
      "ĠSpring": 8603,
      "Ġtro": 8604,
      "Ġprofession": 8605,
      "vo": 8606,
      "ĠReview": 8607,
      "2007": 8608,
      "stack": 8609,
      "iations": 8610,
      "Ġ1997": 8611,
      "MENT": 8612,
      "Ġpreced": 8613,
      "Ġhelping": 8614,
      "scr": 8615,
      "achment": 8616,
      "2019": 8617,
      "Ġdepression": 8618,
      "align": 8619,
      "Ġuncertain": 8620,
      "Ġ400": 8621,
      "Ġspectra": 8622,
      "spring": 8623,
      "Ġmedian": 8624,
      "Phys": 8625,
      "Ġevening": 8626,
      "Ġemotional": 8627,
      "Ġcoupling": 8628,
      "Ġscreening": 8629,
      "Ġconviction": 8630,
      "phen": 8631,
      "ĠVirgin": 8632,
      "Ġsounds": 8633,
      "Ġimplied": 8634,
      "});": 8635,
      "Ġ1000": 8636,
      "Ġregression": 8637,
      "Ġtail": 8638,
      "erves": 8639,
      "ifts": 8640,
      "Ġadopted": 8641,
      "etal": 8642,
      "arge": 8643,
      "roups": 8644,
      "Ġsubmitted": 8645,
      "ĠSign": 8646,
      "Ġschedul": 8647,
      "Ġsports": 8648,
      "Ġkitchen": 8649,
      "ĠAppellant": 8650,
      "ochond": 8651,
      "sensors": 8652,
      "Ġneighborhood": 8653,
      "Ġ58": 8654,
      "txt": 8655,
      "Ġcommittee": 8656,
      "athered": 8657,
      "aph": 8658,
      "ĠWilliams": 8659,
      "Ġrid": 8660,
      "vider": 8661,
      "III": 8662,
      "BM": 8663,
      "Ġtopic": 8664,
      "endants": 8665,
      "Ġingred": 8666,
      "RANT": 8667,
      "Ġsong": 8668,
      "Ġ96": 8669,
      "ĠVis": 8670,
      "si": 8671,
      "çĶ": 8672,
      "chain": 8673,
      "Ġneck": 8674,
      "Ġbeam": 8675,
      "Arg": 8676,
      "Ġconstructed": 8677,
      "Ġ110": 8678,
      "Ġrail": 8679,
      "pert": 8680,
      "ĠPolice": 8681,
      "Ġargued": 8682,
      "Ġsynthesis": 8683,
      "Ġsurve": 8684,
      "pdf": 8685,
      "Ġamplit": 8686,
      "Ġdescribes": 8687,
      "rb": 8688,
      "Ġpictures": 8689,
      "Ġclassical": 8690,
      "ä½": 8691,
      "Ġdogs": 8692,
      "Ġgast": 8693,
      "Ġmine": 8694,
      "Oper": 8695,
      "=\"#": 8696,
      "Ġprovisions": 8697,
      "čĊĉĉ": 8698,
      "Ġamino": 8699,
      "Ġmanage": 8700,
      "Ġsolar": 8701,
      "Ġrecover": 8702,
      "Ġ\"(": 8703,
      "riter": 8704,
      "250": 8705,
      "Ġepisode": 8706,
      "Ġtheoret": 8707,
      "Ġcollabor": 8708,
      "ĠMult": 8709,
      "ĠRT": 8710,
      "Ġcharacteristic": 8711,
      "Ġcounts": 8712,
      "ĠRead": 8713,
      "ARE": 8714,
      "Ġessentially": 8715,
      "Ġsheet": 8716,
      "=\"../../": 8717,
      "LR": 8718,
      "Ġlig": 8719,
      "ĠBas": 8720,
      "Ġasc": 8721,
      "Ġ57": 8722,
      "Ġkick": 8723,
      "Min": 8724,
      "Ġcopyright": 8725,
      "ĠÃĹÂ": 8726,
      "Ġske": 8727,
      "Ġmeat": 8728,
      "ĠCall": 8729,
      "Factory": 8730,
      "Ġsuc": 8731,
      "ÐµÐ": 8732,
      "ĠCommon": 8733,
      "mosp": 8734,
      "mi": 8735,
      "}{-": 8736,
      "Ġ\\>": 8737,
      "}^\\": 8738,
      "Ġtasks": 8739,
      "Ġtotally": 8740,
      "PCR": 8741,
      "Ġje": 8742,
      "WH": 8743,
      "riers": 8744,
      "Ġexplanation": 8745,
      "-(": 8746,
      "Ġmarkets": 8747,
      "Ġremote": 8748,
      "125": 8749,
      "Ġcategories": 8750,
      "center": 8751,
      "Ġspatial": 8752,
      "ORE": 8753,
      "Ġadvoc": 8754,
      "Command": 8755,
      "sur": 8756,
      "ĠOS": 8757,
      "Ġtaxes": 8758,
      "Ġfeedback": 8759,
      "isting": 8760,
      "Ġtit": 8761,
      "\\\"": 8762,
      "Ġguidelines": 8763,
      "ĠĠĠĠĠĠĠĠĠĠĠĠĠĠĠĠĠĠĠĠĠĠĠĠĠĠ": 8764,
      "ĠInterest": 8765,
      "ĠDC": 8766,
      "ensus": 8767,
      "setlength": 8768,
      "inet": 8769,
      "Ġbund": 8770,
      "Ġhypothesis": 8771,
      "Ġspeaking": 8772,
      "Ġpit": 8773,
      "Ġmaintained": 8774,
      "mes": 8775,
      "Builder": 8776,
      "enter": 8777,
      "Ġdesire": 8778,
      "ĠCamp": 8779,
      "eper": 8780,
      "Ġapproval": 8781,
      "Ġchapter": 8782,
      "ĠÃ©": 8783,
      "Ġ1996": 8784,
      "ACE": 8785,
      "anol": 8786,
      "Ġdeclared": 8787,
      "Ġregime": 8788,
      "Ġfashion": 8789,
      "Ġrecording": 8790,
      "Ġsoil": 8791,
      "atural": 8792,
      "ailability": 8793,
      "Ġlisten": 8794,
      "Ġconscious": 8795,
      "Ġma": 8796,
      "Ġwealth": 8797,
      "Ġultimately": 8798,
      "Ġ\"\"\"": 8799,
      "ysym": 8800,
      "Ġ85": 8801,
      "}\\,": 8802,
      "Ġcov": 8803,
      "ĠNav": 8804,
      "ĠFire": 8805,
      "Ġfabric": 8806,
      "isters": 8807,
      "ione": 8808,
      "ĠServices": 8809,
      "ĠCorp": 8810,
      "Ġimmediate": 8811,
      "={": 8812,
      "È±": 8813,
      "DM": 8814,
      "Ġoffering": 8815,
      "Ġlen": 8816,
      "ĠWal": 8817,
      "ĠChief": 8818,
      "amsmath": 8819,
      "ĠWall": 8820,
      "ussion": 8821,
      "ao": 8822,
      "gence": 8823,
      "Ġ59": 8824,
      "header": 8825,
      "greek": 8826,
      "||": 8827,
      "iatric": 8828,
      "ĠHaw": 8829,
      "Ġtells": 8830,
      "Ġdram": 8831,
      "rolled": 8832,
      ".âĢĻ": 8833,
      "bool": 8834,
      "ĠBE": 8835,
      "Ġeigen": 8836,
      "ĠCare": 8837,
      "Link": 8838,
      "sn": 8839,
      "Ġfellow": 8840,
      "avascript": 8841,
      "Ġquiet": 8842,
      "Ġraw": 8843,
      "Ġreporting": 8844,
      "Ġpreparation": 8845,
      "Ġidentical": 8846,
      "Ġtreatments": 8847,
      "ĠHome": 8848,
      "obe": 8849,
      "Sm": 8850,
      "Ġassign": 8851,
      "Ġtherapeutic": 8852,
      "Ġconsole": 8853,
      "Ġkne": 8854,
      "unte": 8855,
      "010": 8856,
      "ssymb": 8857,
      "Options": 8858,
      "Every": 8859,
      "service": 8860,
      "ĠSk": 8861,
      "ĠVer": 8862,
      "å®": 8863,
      "rh": 8864,
      "amssymb": 8865,
      "MB": 8866,
      "Ġclassification": 8867,
      "Ġiniti": 8868,
      "eller": 8869,
      "Resource": 8870,
      "Ġdiffer": 8871,
      "idity": 8872,
      "Ġking": 8873,
      "flu": 8874,
      "bsy": 8875,
      "Ġrealize": 8876,
      "ĠDevelopment": 8877,
      "################": 8878,
      "][@": 8879,
      "erman": 8880,
      "Ġtransformation": 8881,
      "ĠIR": 8882,
      "ĠJose": 8883,
      "amsfonts": 8884,
      "Ġneutral": 8885,
      "Ġmodify": 8886,
      "Ġregulations": 8887,
      "Ġrecognition": 8888,
      "Ġcoffee": 8889,
      "Open": 8890,
      "orts": 8891,
      "bel": 8892,
      "Ġexamine": 8893,
      "Ġmic": 8894,
      "Ġencoding": 8895,
      "mann": 8896,
      "Ġserving": 8897,
      "Ġrespective": 8898,
      "rsfs": 8899,
      "Ġod": 8900,
      "Ġcurves": 8901,
      "Ġobviously": 8902,
      "Results": 8903,
      "mathrsfs": 8904,
      "Ġrequested": 8905,
      "ĠHen": 8906,
      "amsbsy": 8907,
      "Ġprinciples": 8908,
      "upgreek": 8909,
      "iser": 8910,
      "LD": 8911,
      "idemargin": 8912,
      "Ġcomprehens": 8913,
      "uable": 8914,
      "aded": 8915,
      "2005": 8916,
      "Style": 8917,
      "Ġspoke": 8918,
      "oddsidemargin": 8919,
      "ĠCheck": 8920,
      "wasysym": 8921,
      "Ġsurgical": 8922,
      "Ġincidence": 8923,
      "Ġpurs": 8924,
      "Ġ$(\\": 8925,
      "ĠHE": 8926,
      "ductor": 8927,
      "Ġdiscovery": 8928,
      "Ġfinds": 8929,
      "Ġbars": 8930,
      "Block": 8931,
      "Ġsituations": 8932,
      "Ke": 8933,
      "ttp": 8934,
      "Init": 8935,
      "Length": 8936,
      "close": 8937,
      "Listener": 8938,
      "Ġillness": 8939,
      "ĠMicrosoft": 8940,
      "Component": 8941,
      "graph": 8942,
      "qquad": 8943,
      "Ġtumors": 8944,
      "Ġhal": 8945,
      "ĠLi": 8946,
      "Ġcarcin": 8947,
      "vector": 8948,
      "(*": 8949,
      "Ġtaste": 8950,
      "^,": 8951,
      "iana": 8952,
      "LECT": 8953,
      "ĠDO": 8954,
      "dx": 8955,
      "ĠIsland": 8956,
      "Ġprompt": 8957,
      "odium": 8958,
      "ĠSecretary": 8959,
      "Attribute": 8960,
      "Because": 8961,
      "åĲ": 8962,
      "Ġplain": 8963,
      "Ġworst": 8964,
      "&&": 8965,
      "asive": 8966,
      "Ġposts": 8967,
      "Ġcontem": 8968,
      "tx": 8969,
      "SO": 8970,
      "ĠAdditionally": 8971,
      "ĠBit": 8972,
      "Ġlies": 8973,
      "cb": 8974,
      "Ġrotation": 8975,
      "iner": 8976,
      "Ã£o": 8977,
      "Ġcontrovers": 8978,
      "Ġshooting": 8979,
      "ĠApple": 8980,
      "ffered": 8981,
      "ĠText": 8982,
      ":(": 8983,
      "Ġcrucial": 8984,
      "ĠCath": 8985,
      "otypes": 8986,
      "omatic": 8987,
      "ĠÎ±": 8988,
      "Ġaggreg": 8989,
      "Ġyouth": 8990,
      "empty": 8991,
      "ĠLib": 8992,
      "Ġclimate": 8993,
      "Ġsick": 8994,
      "Ġcompliance": 8995,
      "terday": 8996,
      "bered": 8997,
      "Ġbought": 8998,
      "ĠDemocrats": 8999,
      "Ġhelpful": 9000,
      "Ġalloc": 9001,
      "Ġment": 9002,
      "Ġven": 9003,
      "Find": 9004,
      "auge": 9005,
      "Ġcognitive": 9006,
      "thlet": 9007,
      "Ġassets": 9008,
      "Ġpulled": 9009,
      "teen": 9010,
      "Ġnurs": 9011,
      "Ġloan": 9012,
      "second": 9013,
      "2001": 9014,
      "äº": 9015,
      "icide": 9016,
      "Ġok": 9017,
      "attice": 9018,
      "neq": 9019,
      "ĠLabor": 9020,
      "Ġsomewhat": 9021,
      "Ġrequests": 9022,
      "Ġtransaction": 9023,
      "Ġthr": 9024,
      "Update": 9025,
      "DD": 9026,
      "ĠTim": 9027,
      "Ġplanet": 9028,
      "Ġarrested": 9029,
      "Ġalign": 9030,
      "mode": 9031,
      "cribed": 9032,
      "Ġcontents": 9033,
      "xiety": 9034,
      ">&": 9035,
      "ĠPeter": 9036,
      "Ġsustain": 9037,
      "Ġenforcement": 9038,
      "Ġmask": 9039,
      "Ġhurt": 9040,
      "FE": 9041,
      "nergy": 9042,
      "Ġruling": 9043,
      "256": 9044,
      "Current": 9045,
      "Supplementary": 9046,
      "Ġdrawn": 9047,
      "ĠFil": 9048,
      "ĠMur": 9049,
      "ĠSociety": 9050,
      "Ġ66": 9051,
      "Token": 9052,
      "Ġteaching": 9053,
      "Ġhero": 9054,
      "âĢĺ": 9055,
      "ĠPo": 9056,
      "Ġpreferred": 9057,
      "Ġglucose": 9058,
      "Eng": 9059,
      "Ġ],": 9060,
      "spe": 9061,
      "åħ": 9062,
      "Ġpossession": 9063,
      "card": 9064,
      "Ġmail": 9065,
      "prot": 9066,
      "utory": 9067,
      "Ġhate": 9068,
      "rium": 9069,
      "udd": 9070,
      "Ġhidden": 9071,
      "Ġ\\*": 9072,
      "Ġinfected": 9073,
      "ben": 9074,
      "Ġpresum": 9075,
      "Ġtube": 9076,
      "Ident": 9077,
      "Ġfurn": 9078,
      "ĠPower": 9079,
      "ĠLu": 9080,
      "Ġmanip": 9081,
      "Ġdeaths": 9082,
      "Ġbiom": 9083,
      "ĠDev": 9084,
      "Spec": 9085,
      "Ġdriven": 9086,
      "ishment": 9087,
      "Work": 9088,
      "mult": 9089,
      "ĠDirector": 9090,
      "ĠFund": 9091,
      "allow": 9092,
      "Ġlogic": 9093,
      "\\^": 9094,
      "estion": 9095,
      "ĠZe": 9096,
      "ĠAdminist": 9097,
      "Ġenzyme": 9098,
      "Ġfighting": 9099,
      "Ġrend": 9100,
      "ĠThose": 9101,
      "Ġapplying": 9102,
      "Ġpicking": 9103,
      "Gener": 9104,
      "Ġnormally": 9105,
      "Ġintelligence": 9106,
      "%),": 9107,
      "Ġrect": 9108,
      "Ġvoters": 9109,
      "bottom": 9110,
      "ĠJournal": 9111,
      "Ġnm": 9112,
      "Ġcentre": 9113,
      "azine": 9114,
      "push": 9115,
      "ĠRoad": 9116,
      "Ġpowers": 9117,
      "everal": 9118,
      "Ġnoticed": 9119,
      "}^{(": 9120,
      "Ġweapons": 9121,
      "ariable": 9122,
      "Dev": 9123,
      "click": 9124,
      "buffer": 9125,
      "GET": 9126,
      ")))": 9127,
      "Ġcarrying": 9128,
      "Ġrealized": 9129,
      "ĠTem": 9130,
      "Ġcounty": 9131,
      "attr": 9132,
      "Ġdivision": 9133,
      "ĠSpe": 9134,
      "icing": 9135,
      "rolog": 9136,
      "ĠArch": 9137,
      "Ġpermission": 9138,
      "Ġgrade": 9139,
      "Ġroles": 9140,
      "Ġassumption": 9141,
      "update": 9142,
      "ĠCorpor": 9143,
      "har": 9144,
      "ĠIg": 9145,
      "bling": 9146,
      "Ġmechanical": 9147,
      "Ġvertical": 9148,
      "Ġcontroller": 9149,
      "Ġincred": 9150,
      "Ġspectral": 9151,
      "Ġgrid": 9152,
      "Ġproliferation": 9153,
      "Ġpor": 9154,
      "quare": 9155,
      "Ġ&\\": 9156,
      "Ġfiber": 9157,
      "ĠMel": 9158,
      "akistan": 9159,
      "Ġreads": 9160,
      "}+\\": 9161,
      "Ñı": 9162,
      "WS": 9163,
      "ĠLee": 9164,
      "han": 9165,
      "Ġourselves": 9166,
      "esides": 9167,
      "inition": 9168,
      "Ġcultural": 9169,
      "Ġperipher": 9170,
      "ĠReturn": 9171,
      "isor": 9172,
      "filter": 9173,
      "None": 9174,
      "Ġoccasion": 9175,
      "Ġregistered": 9176,
      "molecules": 9177,
      "Row": 9178,
      "Ġacids": 9179,
      "Ġ62": 9180,
      "ĠModel": 9181,
      "scill": 9182,
      "Ġsubstantially": 9183,
      "ĠDonald": 9184,
      "response": 9185,
      "Ġattempts": 9186,
      "DI": 9187,
      "Ġinfections": 9188,
      "ATH": 9189,
      "ĠEducation": 9190,
      "ĠPT": 9191,
      "Ġtrigger": 9192,
      "oids": 9193,
      "Tex": 9194,
      "Ġhappening": 9195,
      "sen": 9196,
      "Ġgro": 9197,
      "Met": 9198,
      "Tab": 9199,
      "emia": 9200,
      "Ġtip": 9201,
      "ĠNov": 9202,
      "ĠValue": 9203,
      "outs": 9204,
      "GT": 9205,
      "Ġorth": 9206,
      "NOT": 9207,
      "ja": 9208,
      "ermine": 9209,
      "Ġaccused": 9210,
      "ĠHamilton": 9211,
      "Ġmillions": 9212,
      "Ġexcited": 9213,
      "ĠWho": 9214,
      "OST": 9215,
      "Ġimagine": 9216,
      "power": 9217,
      "ĠThanks": 9218,
      "Ġseparated": 9219,
      "ching": 9220,
      "Child": 9221,
      "Ġcalc": 9222,
      "direct": 9223,
      "âĢĭ": 9224,
      "Ġdisag": 9225,
      "Ġatmosp": 9226,
      "fortunately": 9227,
      "ĠBet": 9228,
      "Ġexperts": 9229,
      "ULT": 9230,
      "Ġconversion": 9231,
      "2004": 9232,
      "NC": 9233,
      "Ġdiameter": 9234,
      "ĠMount": 9235,
      "Ġà¤": 9236,
      "Ġpatent": 9237,
      "Ġpaying": 9238,
      "]\\": 9239,
      "Ġdropped": 9240,
      "Ġpermit": 9241,
      "ĠWilliam": 9242,
      "Ġuniversity": 9243,
      "Ġembod": 9244,
      "Ġcorrelated": 9245,
      "Ġmedicine": 9246,
      "ĠDate": 9247,
      "types": 9248,
      "kt": 9249,
      "obby": 9250,
      "Ġweather": 9251,
      "Ġfo": 9252,
      "People": 9253,
      "Â¼": 9254,
      "Ġblow": 9255,
      "ĠMs": 9256,
      "Ġchart": 9257,
      "inical": 9258,
      "ĠNever": 9259,
      "Ġopposition": 9260,
      "Ġconsumer": 9261,
      "Ġmetric": 9262,
      "Ġplanned": 9263,
      "ĠAttorney": 9264,
      "Who": 9265,
      "Ġlegislation": 9266,
      "Ġradius": 9267,
      "Ġ63": 9268,
      "ĠWARRANT": 9269,
      "Mem": 9270,
      "hr": 9271,
      "Ġsuperior": 9272,
      "Width": 9273,
      "Equal": 9274,
      "rif": 9275,
      "ĠKorea": 9276,
      "Ġboolean": 9277,
      "Ġsister": 9278,
      "Ġinstitutions": 9279,
      "Ġvide": 9280,
      "Ġmir": 9281,
      "IGHT": 9282,
      "HC": 9283,
      "Configuration": 9284,
      "Ġtrac": 9285,
      "Ġ>=": 9286,
      "ÑĮ": 9287,
      "VAL": 9288,
      "Ġpurchased": 9289,
      "blog": 9290,
      "element": 9291,
      "Ġnic": 9292,
      "some": 9293,
      "Ġsizes": 9294,
      "Ġknowing": 9295,
      "Ġfle": 9296,
      "Ġhall": 9297,
      "Ġsimulation": 9298,
      "Ġconstitutional": 9299,
      "Ġreactions": 9300,
      "Ġfee": 9301,
      "Ġdocumentation": 9302,
      "Ġcars": 9303,
      "Ġfeels": 9304,
      "Ġcrystal": 9305,
      "AK": 9306,
      "tml": 9307,
      "Ġfant": 9308,
      "notation": 9309,
      "kes": 9310,
      "Ġshel": 9311,
      "Ġconc": 9312,
      "ĠWood": 9313,
      "essions": 9314,
      "---------": 9315,
      "gi": 9316,
      "ĠDu": 9317,
      "./": 9318,
      "Pa": 9319,
      "Ġintroduce": 9320,
      "oston": 9321,
      "ĠMartin": 9322,
      "ĠAff": 9323,
      "Ġreliable": 9324,
      "ĠIr": 9325,
      "Ġdegrad": 9326,
      "Ġalpha": 9327,
      "Ġ68": 9328,
      "ynomial": 9329,
      "Ġincreasingly": 9330,
      "Ġsharing": 9331,
      "Ġpromise": 9332,
      "Ġrein": 9333,
      "ventions": 9334,
      "è¿": 9335,
      "Ġviral": 9336,
      "Ġowned": 9337,
      "Ġokay": 9338,
      "mathsf": 9339,
      "ĠmM": 9340,
      "Ġtransferred": 9341,
      "unched": 9342,
      "erred": 9343,
      "Ġkinds": 9344,
      "BB": 9345,
      "Ġdomestic": 9346,
      "Ġreligion": 9347,
      "haust": 9348,
      "uting": 9349,
      "endar": 9350,
      "Direct": 9351,
      "Ġcomplicated": 9352,
      "river": 9353,
      "Ġentity": 9354,
      "Dep": 9355,
      "Ġcab": 9356,
      "Ġsubstance": 9357,
      "Ġanswers": 9358,
      "ĠGNU": 9359,
      "there": 9360,
      "Str": 9361,
      "=(": 9362,
      "Ġvictims": 9363,
      "Ġrapidly": 9364,
      "zy": 9365,
      "Ġrecognize": 9366,
      "Ġoriginally": 9367,
      "ĠDivision": 9368,
      "Ġforming": 9369,
      "aks": 9370,
      "ester": 9371,
      "ĠTre": 9372,
      "orne": 9373,
      ")*(-": 9374,
      "Ġsetup": 9375,
      "Ġwine": 9376,
      "}}^{": 9377,
      "Ġradical": 9378,
      "Ġslowly": 9379,
      "approx": 9380,
      "Ġ--------------------------------": 9381,
      "ĠFind": 9382,
      "Ġbrowser": 9383,
      "Ġcorporate": 9384,
      "files": 9385,
      "{-": 9386,
      "Ġmes": 9387,
      "rible": 9388,
      "Ġextensive": 9389,
      "ĠAri": 9390,
      "Ġacquired": 9391,
      "255": 9392,
      "Also": 9393,
      "Ġanyway": 9394,
      "aration": 9395,
      "ĠMexico": 9396,
      "ĠKey": 9397,
      "iginal": 9398,
      "agraph": 9399,
      "Ġclock": 9400,
      "Ġ1995": 9401,
      "pin": 9402,
      "Ġtheorem": 9403,
      "Ġdust": 9404,
      "uma": 9405,
      "ighter": 9406,
      "Ġretrie": 9407,
      "Ġradi": 9408,
      "column": 9409,
      "Ġmitochond": 9410,
      "Ġintegral": 9411,
      "ĊĊĠĠĠĠĠĠĠĠĠĠĠĠĠĠĠ": 9412,
      "inson": 9413,
      "Ġcrypt": 9414,
      "ĠAtl": 9415,
      "Ã³n": 9416,
      "Ġinduction": 9417,
      ")}{": 9418,
      "'$": 9419,
[...]
