{
  "version": "1.0",
  "truncation": null,
  "padding": null,
  "added_tokens": [],
  "normalizer": null,
  "pre_tokenizer": {
    "type": "ByteLevel",
    "add_prefix_space": true,
    "trim_offsets": true,
    "use_regex": true
  },
  "post_processor": null,
  "decoder": null,
  "model": {
    "type": "WordPiece",
    "unk_token": "[UNK]",
    "continuing_subword_prefix": "##",
    "max_input_chars_per_word": 100,
    "vocab": {
      "\u0000": 0,
      "\u0001": 1,
      "\u0002": 2,
      "\u0003": 3,
      "\u0004": 4,
      "\u0005": 5,
      "\u0006": 6,
      "\u0007": 7,
      "\b": 8,
      "\t": 9,
      "\n": 10,
      "\u000b": 11,
      "\f": 12,
      "\r": 13,
      "\u000e": 14,
      "\u000f": 15,
      "\u0010": 16,
      "\u0011": 17,
      "\u0012": 18,
      "\u0013": 19,
      "\u0014": 20,
      "\u0015": 21,
      "\u0016": 22,
      "\u0017": 23,
      "\u0018": 24,
      "\u0019": 25,
      "\u001a": 26,
      "\u001b": 27,
      "\u001c": 28,
      "\u001d": 29,
      "\u001e": 30,
      "\u001f": 31,
      " ": 32,
      "!": 33,
      "\"": 34,
      "#": 35,
      "$": 36,
      "%": 37,
      "&": 38,
      "'": 39,
      "(": 40,
      ")": 41,
      "*": 42,
      "+": 43,
      ",": 44,
      "-": 45,
      ".": 46,
      "/": 47,
      "0": 48,
      "1": 49,
      "2": 50,
      "3": 51,
      "4": 52,
      "5": 53,
      "6": 54,
      "7": 55,
      "8": 56,
      "9": 57,
      ":": 58,
      ";": 59,
      "<": 60,
      "=": 61,
      ">": 62,
      "?": 63,
      "@": 64,
      "A": 65,
      "B": 66,
      "C": 67,
      "D": 68,
      "E": 69,
      "F": 70,
      "G": 71,
      "H": 72,
      "I": 73,
      "J": 74,
      "K": 75,
      "L": 76,
      "M": 77,
      "N": 78,
      "O": 79,
      "P": 80,
      "Q": 81,
      "R": 82,
      "S": 83,
      "T": 84,
      "U": 85,
      "V": 86,
      "W": 87,
      "X": 88,
      "Y": 89,
      "Z": 90,
      "[": 91,
      "\\": 92,
      "]": 93,
      "^": 94,
      "_": 95,
      "`": 96,
      "a": 97,
      "b": 98,
      "c": 99,
      "d": 100,
      "e": 101,
      "f": 102,
      "g": 103,
      "h": 104,
      "i": 105,
      "j": 106,
      "k": 107,
      "l": 108,
      "m": 109,
      "n": 110,
      "o": 111,
      "p": 112,
      "q": 113,
      "r": 114,
      "s": 115,
      "t": 116,
      "u": 117,
      "v": 118,
      "w": 119,
      "x": 120,
      "y": 121,
      "z": 122,
      "{": 123,
      "|": 124,
      "}": 125,
      "~": 126,
      "": 127,
      "[UNK]": 128,
      "[UNK]_129": 129,
      "[UNK]_130": 130,
      "[UNK]_131": 131,
      "[UNK]_132": 132,
      "[UNK]_133": 133,
      "[UNK]_134": 134,
      "[UNK]_135": 135,
      "[UNK]_136": 136,
      "[UNK]_137": 137,
      "[UNK]_138": 138,
      "[UNK]_139": 139,
      "[UNK]_140": 140,
      "[UNK]_141": 141,
      "[UNK]_142": 142,
      "[UNK]_143": 143,
      "[UNK]_144": 144,
      "[UNK]_145": 145,
      "[UNK]_146": 146,
      "[UNK]_147": 147,
      "[UNK]_148": 148,
      "[UNK]_149": 149,
      "[UNK]_150": 150,
      "[UNK]_151": 151,
      "[UNK]_152": 152,
      "[UNK]_153": 153,
      "[UNK]_154": 154,
      "[UNK]_155": 155,
      "[UNK]_156": 156,
      "[UNK]_157": 157,
      "[UNK]_158": 158,
      "[UNK]_159": 159,
      "[UNK]_160": 160,
      "[UNK]_161": 161,
      "[UNK]_162": 162,
      "[UNK]_163": 163,
      "[UNK]_164": 164,
      "[UNK]_165": 165,
      "[UNK]_166": 166,
      "[UNK]_167": 167,
      "[UNK]_168": 168,
      "[UNK]_169": 169,
      "[UNK]_170": 170,
      "[UNK]_171": 171,
      "[UNK]_172": 172,
      "[UNK]_173": 173,
      "[UNK]_174": 174,
      "[UNK]_175": 175,
      "[UNK]_176": 176,
      "[UNK]_177": 177,
      "[UNK]_178": 178,
      "[UNK]_179": 179,
      "[UNK]_180": 180,
      "[UNK]_181": 181,
      "[UNK]_182": 182,
      "[UNK]_183": 183,
      "[UNK]_184": 184,
      "[UNK]_185": 185,
      "[UNK]_186": 186,
      "[UNK]_187": 187,
      "[UNK]_188": 188,
      "[UNK]_189": 189,
      "[UNK]_190": 190,
      "[UNK]_191": 191,
      "[UNK]_192": 192,
      "[UNK]_193": 193,
      "[UNK]_194": 194,
      "[UNK]_195": 195,
      "[UNK]_196": 196,
      "[UNK]_197": 197,
      "[UNK]_198": 198,
      "[UNK]_199": 199,
      "[UNK]_200": 200,
      "[UNK]_201": 201,
      "[UNK]_202": 202,
      "[UNK]_203": 203,
      "[UNK]_204": 204,
      "[UNK]_205": 205,
      "[UNK]_206": 206,
      "[UNK]_207": 207,
      "[UNK]_208": 208,
      "[UNK]_209": 209,
      "[UNK]_210": 210,
      "[UNK]_211": 211,
      "[UNK]_212": 212,
      "[UNK]_213": 213,
      "[UNK]_214": 214,
      "[UNK]_215": 215,
      "[UNK]_216": 216,
      "[UNK]_217": 217,
      "[UNK]_218": 218,
      "[UNK]_219": 219,
      "[UNK]_220": 220,
      "[UNK]_221": 221,
      "[UNK]_222": 222,
      "[UNK]_223": 223,
      "[UNK]_224": 224,
      "[UNK]_225": 225,
      "[UNK]_226": 226,
      "[UNK]_227": 227,
      "[UNK]_228": 228,
      "[UNK]_229": 229,
      "[UNK]_230": 230,
      "[UNK]_231": 231,
      "[UNK]_232": 232,
      "[UNK]_233": 233,
      "[UNK]_234": 234,
      "[UNK]_235": 235,
      "[UNK]_236": 236,
      "[UNK]_237": 237,
      "[UNK]_238": 238,
      "[UNK]_239": 239,
      "[UNK]_240": 240,
      "[UNK]_241": 241,
      "[UNK]_242": 242,
      "[UNK]_243": 243,
      "[UNK]_244": 244,
      "[UNK]_245": 245,
      "[UNK]_246": 246,
      "[UNK]_247": 247,
      "[UNK]_248": 248,
      "[UNK]_249": 249,
      "[UNK]_250": 250,
      "[UNK]_251": 251,
      "[UNK]_252": 252,
      "[UNK]_253": 253,
      "[UNK]_254": 254,
      "[UNK]_255": 255,
      "ing": 256,
      "ed": 257,
      "at": 258,
      "ly": 259,
      "**": 260,
      "The": 261,
      "=\"": 262,
      "he": 263,
      ".\"": 264,
      ").": 265,
      "in": 266,
      "_{": 267,
      ");": 268,
      "re": 269,
      "</": 270,
      "[@": 271,
      "),": 272,
      "{\\": 273,
      "type": 274,
      "ref": 275,
      "er": 276,
      "or": 277,
      "10": 278,
      "on": 279,
      "to": 280,
      "In": 281,
      "}\\": 282,
      "->": 283,
      "able": 284,
      "){": 285,
      "right": 286,
      "left": 287,
      "frac": 288,
      "com": 289,
      "](#": 290,
      "12": 291,
      "}$": 292,
      "and": 293,
      "()": 294,
      "the": 295,
      "\">": 296,
      "?\"": 297,
      "\\[[@": 298,
      "al": 299,
      "What": 300,
      "11": 301,
      "us": 302,
      "...": 303,
      "th": 304,
      "::": 305,
      "We": 306,
      "fig": 307,
      "--": 308,
      "],": 309,
      "is": 310,
      "name": 311,
      "mathb": 312,
      "://": 313,
      "end": 314,
      "ve": 315,
      "text": 316,
      "if": 317,
      "_{\\": 318,
      "It": 319,
      "Let": 320,
      "Â": 321,
      "//": 322,
      "This": 323,
      "\":": 324,
      "ll": 325,
      "(\\": 326,
      "}{": 327,
      "int": 328,
      "00": 329,
      "16": 330,
      "{#": 331,
      "15": 332,
      "ers": 333,
      "^{": 334,
      "alpha": 335,
      "You": 336,
      "However": 337,
      "32": 338,
      "20": 339,
      "();": 340,
      "ies": 341,
      "000": 342,
      "an": 343,
      "ity": 344,
      "13": 345,
      "(\"": 346,
      "age": 347,
      "var": 348,
      ")$": 349,
      "č": 350,
      "http": 351,
      "14": 352,
      "label": 353,
      "\\]": 354,
      "]\\].": 355,
      "begin": 356,
      "CR": 357,
      "up": 358,
      "man": 359,
      "data": 360,
      "of": 361,
      "18": 362,
      "set": 363,
      "].": 364,
      "mu": 365,
      "import": 366,
      "17": 367,
      "19": 368,
      "div": 369,
      "get": 370,
      "it": 371,
      "math": 372,
      "\\[": 373,
      "table": 374,
      "If": 375,
      "25": 376,
      "01": 377,
      "30": 378,
      "this": 379,
      "sum": 380,
      "span": 381,
      "!\"": 382,
      "le": 383,
      "Fig": 384,
      "aligned": 385,
      "}(": 386,
      "==": 387,
      "over": 388,
      "time": 389,
      "Category": 390,
      "org": 391,
      "\"}": 392,
      "string": 393,
      "lambda": 394,
      "for": 395,
      "And": 396,
      "For": 397,
      "beta": 398,
      "}}": 399,
      "}$$": 400,
      "Figure": 401,
      "pone": 402,
      "))": 403,
      "class": 404,
      "return": 405,
      "out": 406,
      "---": 407,
      "ion": 408,
      "To": 409,
      "www": 410,
      "24": 411,
      "He": 412,
      "But": 413,
      "among": 414,
      "less": 415,
      "64": 416,
      ")\\": 417,
      "];": 418,
      "by": 419,
      "80": 420,
      "sqrt": 421,
      "21": 422,
      "=>": 423,
      "]\\]": 424,
      "didn": 425,
      "mathr": 426,
      "50": 427,
      "html": 428,
      "05": 429,
      "eq": 430,
      "><": 431,
      "sec": 432,
      "uppose": 433,
      "however": 434,
      "No": 435,
      "bar": 436,
      "value": 437,
      "sigma": 438,
      "as": 439,
      "Table": 440,
      "log": 441,
      "There": 442,
      "compared": 443,
      "partial": 444,
      "according": 445,
      "upon": 446,
      "22": 447,
      "line": 448,
      "100": 449,
      "epsilon": 450,
      "ability": 451,
      "https": 452,
      "}_{": 453,
      "hat": 454,
      "ness": 455,
      "defendant": 456,
      "^{\\": 457,
      "23": 458,
      "code": 459,
      "phi": 460,
      "%)": 461,
      "size": 462,
      "}^{": 463,
      "gamma": 464,
      "]).": 465,
      "):": 466,
      "doesn": 467,
      "></": 468,
      "bib": 469,
      "delta": 470,
      "33": 471,
      "described": 472,
      "}_": 473,
      "likely": 474,
      "45": 475,
      "([@": 476,
      "\"}).": 477,
      "('": 478,
      "Name": 479,
      "across": 480,
      "key": 481,
      "rather": 482,
      "went": 483,
      "ation": 484,
      "So": 485,
      "27": 486,
      "include": 487,
      "took": 488,
      "times": 489,
      "rho": 490,
      "ive": 491,
      "more": 492,
      "ally": 493,
      "year": 494,
      "use": 495,
      "40": 496,
      "theta": 497,
      "obtained": 498,
      "based": 499,
      "tilde": 500,
      "28": 501,
      "showed": 502,
      "When": 503,
      "---------------": 504,
      "\");": 505,
      "While": 506,
      "self": 507,
      "95": 508,
      "ant": 509,
      "34": 510,
      "Type": 511,
      "001": 512,
      "How": 513,
      "held": 514,
      "new": 515,
      "26": 516,
      "}^": 517,
      "omega": 518,
      "tau": 519,
      "String": 520,
      "see": 521,
      "leq": 522,
      "On": 523,
      "^{-": 524,
      "est": 525,
      "_\\": 526,
      "ment": 527,
      "trying": 528,
      "38": 529,
      "href": 530,
      "cdot": 531,
      "taking": 532,
      "That": 533,
      "define": 534,
      "one": 535,
      "document": 536,
      "Since": 537,
      "asked": 538,
      "file": 539,
      "wide": 540,
      "35": 541,
      "ID": 542,
      "infty": 543,
      "side": 544,
      "================": 545,
      "someone": 546,
      "width": 547,
      "__": 548,
      "Delta": 549,
      "min": 550,
      "way": 551,
      "75": 552,
      "probably": 553,
      "public": 554,
      "void": 555,
      "dots": 556,
      "from": 557,
      "Further": 558,
      "Although": 559,
      "length": 560,
      "directly": 561,
      "ably": 562,
      "55": 563,
      "seems": 564,
      "not": 565,
      "with": 566,
      "script": 567,
      "therefore": 568,
      "ell": 569,
      "ous": 570,
      ")/": 571,
      "const": 572,
      "All": 573,
      "53": 574,
      "function": 575,
      "package": 576,
      "List": 577,
      ")/(": 578,
      "rangle": 579,
      "max": 580,
      "69": 581,
      "\\])": 582,
      "developed": 583,
      "06": 584,
      "although": 585,
      "56": 586,
      "ED": 587,
      "Because": 588,
      "land": 589,
      "particularly": 590,
      "]^": 591,
      "corresponding": 592,
      "term": 593,
      "user": 594,
      "ams": 595,
      "cal": 596,
      "sim": 597,
      "static": 598,
      "java": 599,
      "tried": 600,
      "comes": 601,
      "Also": 602,
      "59": 603,
      "With": 604,
      "Gamma": 605,
      ":**": 606,
      "dev": 607,
      "became": 608,
      "day": 609,
      "Sec": 610,
      "Object": 611,
      "gave": 612,
      "}$,": 613,
      "ian": 614,
      "reasonable": 615,
      "designed": 616,
      "node": 617,
      "chi": 618,
      "July": 619,
      "})": 620,
      "ities": 621,
      "saying": 622,
      "style": 623,
      "58": 624,
      "related": 625,
      "knew": 626,
      "After": 627,
      "true": 628,
      "located": 629,
      "False": 630,
      "completely": 631,
      "app": 632,
      "parties": 633,
      "useful": 634,
      "struct": 635,
      "um": 636,
      "goes": 637,
      "produced": 638,
      "\"><": 639,
      "input": 640,
      "my": 641,
      "easily": 642,
      "}$.": 643,
      "down": 644,
      "());": 645,
      "ch": 646,
      "ul": 647,
      "giving": 648,
      "December": 649,
      "formed": 650,
      "error": 651,
      "\"/>": 652,
      "are": 653,
      "clearly": 654,
      "looked": 655,
      "ar": 656,
      "langle": 657,
      "majority": 658,
      "View": 659,
      "source": 660,
      "ization": 661,
      "was": 662,
      "Key": 663,
      "ng": 664,
      "played": 665,
      "nbsp": 666,
      "content": 667,
      "throughout": 668,
      "\\\\": 669,
      "From": 670,
      "but": 671,
      "\":\"": 672,
      "');": 673,
      "men": 674,
      "February": 675,
      "sometimes": 676,
      "ING": 677,
      "77": 678,
      "\\].": 679,
      "##": 680,
      "wife": 681,
      "url": 682,
      "molecules": 683,
      "Text": 684,
      "-------------": 685,
      "providing": 686,
      "attorney": 687,
      "002": 688,
      "81": 689,
      "worked": 690,
      "97": 691,
      "[^": 692,
      "long": 693,
      "config": 694,
      "resulting": 695,
      "api": 696,
      "prime": 697,
      "73": 698,
      "statute": 699,
      "Calculate": 700,
      "appears": 701,
      "distributed": 702,
      "responsible": 703,
      "Well": 704,
      "approximately": 705,
      "level": 706,
      "well": 707,
      "Yes": 708,
      "specific": 709,
      "model": 710,
      "Why": 711,
      "demonstrated": 712,
      "obvious": 713,
      "87": 714,
      "ensure": 715,
      "==========": 716,
      "remains": 717,
      "holding": 718,
      "efficient": 719,
      "dimensional": 720,
      "reached": 721,
      "func": 722,
      "appellant": 723,
      "older": 724,
      "growing": 725,
      "result": 726,
      "perhaps": 727,
      "mail": 728,
      "State": 729,
      "Index": 730,
      "------------": 731,
      "summary": 732,
      "({\\": 733,
      "aware": 734,
      "default": 735,
      "2015": 736,
      ".](": 737,
      "ence": 738,
      "matrix": 739,
      "Monday": 740,
      "improved": 741,
      "intended": 742,
      "quantum": 743,
      "occurred": 744,
      "First": 745,
      "false": 746,
      "height": 747,
      "voltage": 748,
      "****************": 749,
      "/**": 750,
      "Theorem": 751,
      "covered": 752,
      "contained": 753,
      "Array": 754,
      "spectrum": 755,
      "err": 756,
      "2013": 757,
      "mbox": 758,
      "============": 759,
      "our": 760,
      "driving": 761,
      "possibility": 762,
      "operating": 763,
      "Class": 764,
      "event": 765,
      "changing": 766,
      "**]{},": 767,
      "-----------": 768,
      "appeared": 769,
      "takes": 770,
      "post": 771,
      "interested": 772,
      "Defendant": 773,
      "ling": 774,
      "local": 775,
      "serum": 776,
      "conviction": 777,
      "layout": 778,
      "target": 779,
      "sensors": 780,
      "directed": 781,
      "context": 782,
      "Click": 783,
      "receiving": 784,
      "status": 785,
      "belief": 786,
      "small": 787,
      "action": 788,
      ".$$": 789,
      "sensitivity": 790,
      "android": 791,
      "assumption": 792,
      "burden": 793,
      "range": 794,
      "System": 795,
      "Count": 796,
      "claimed": 797,
      "powerful": 798,
      "format": 799,
      "star": 800,
      "google": 801,
      "2000": 802,
      "greatest": 803,
      "2018": 804,
      "entry": 805,
      "religious": 806,
      "Image": 807,
      "disclose": 808,
      "possibly": 809,
      "vert": 810,
      "committed": 811,
      "supposed": 812,
      "versus": 813,
      "section": 814,
      "exposed": 815,
      "looks": 816,
      "entitled": 817,
      "practical": 818,
      "ă": 819,
      "parent": 820,
      "differential": 821,
      "pparatus": 822,
      "indeed": 823,
      "mistake": 824,
      "listed": 825,
      "Hz": 826,
      "tab": 827,
      "thousands": 828,
      "display": 829,
      "Override": 830,
      "current": 831,
      "executive": 832,
      "coupling": 833,
      "offers": 834,
      "output": 835,
      "option": 836,
      "necessarily": 837,
      "definitely": 838,
      "float": 839,
      "doc": 840,
      "massive": 841,
      "Those": 842,
      "assert": 843,
      "frame": 844,
      "center": 845,
      "---------": 846,
      "Any": 847,
      "serving": 848,
      "match": 849,
      "stopped": 850,
      "split": 851,
      "infected": 852,
      "align": 853,
      "involving": 854,
      "Despite": 855,
      "TYPE": 856,
      "next": 857,
      "discovered": 858,
      "active": 859,
      "build": 860,
      "forces": 861,
      "common": 862,
      "prop": 863,
      "Simplify": 864,
      "unable": 865,
      "128": 866,
      "expense": 867,
      "png": 868,
      "extensive": 869,
      "Based": 870,
      "Group": 871,
      "Event": 872,
      "Psi": 873,
      "Another": 874,
      "Thanks": 875,
      "home": 876,
      "experienced": 877,
      "Syria": 878,
      "description": 879,
      "template": 880,
      "holds": 881,
      "cup": 882,
      "author": 883,
      "minimal": 884,
      "potentially": 885,
      "occurs": 886,
      "gonna": 887,
      "NAME": 888,
      "married": 889,
      "other": 890,
      "Result": 891,
      "Response": 892,
      "ize": 893,
      "fold": 894,
      "incidence": 895,
      "putting": 896,
      "depends": 897,
      "sought": 898,
      "dangerous": 899,
      "web": 900,
      "league": 901,
      "header": 902,
      "correctly": 903,
      "ible": 904,
      "symmetry": 905,
      "ideas": 906,
      "concluded": 907,
      "last": 908,
      "args": 909,
      "effectively": 910,
      "sitting": 911,
      "inhibition": 912,
      "amazing": 913,
      "surgical": 914,
      "grown": 915,
      "lies": 916,
      "Status": 917,
      "weight": 918,
      "crisis": 919,
      "dynamics": 920,
      "winning": 921,
      "extends": 922,
      "ppellee": 923,
      "statements": 924,
      "manuscript": 925,
      "fonts": 926,
      "concerns": 927,
      "service": 928,
      "Element": 929,
      "meant": 930,
      "possession": 931,
      "offering": 932,
      "Read": 933,
      "bodies": 934,
      "2001": 935,
      "passing": 936,
      "None": 937,
      "identical": 938,
      "liability": 939,
      "sorry": 940,
      "board": 941,
      "search": 942,
      "participate": 943,
      "afford": 944,
      "strong": 945,
      "noted": 946,
      "materials": 947,
      "minus": 948,
      "bottom": 949,
      "caught": 950,
      "make": 951,
      "therapeutic": 952,
      "drawn": 953,
      "Base": 954,
      "wage": 955,
      "den": 956,
      "deny": 957,
      "response": 958,
      "FROM": 959,
      "high": 960,
      "cognitive": 961,
      "People": 962,
      "child": 963,
      "informed": 964,
      "delivered": 965,
      "leadership": 966,
      "positive": 967,
      "injuries": 968,
      "discretion": 969,
      "word": 970,
      "\\]).": 971,
      "supporting": 972,
      "submitted": 973,
      "\"),": 974,
      "ħ": 975,
      "column": 976,
      "ier": 977,
      "amplitude": 978,
      "tree": 979,
      "opportunities": 980,
      "Thank": 981,
      "Rev": 982,
      "climate": 983,
      "place": 984,
      "producing": 985,
      "double": 986,
      "compliance": 987,
      "reliable": 988,
      "residue": 989,
      "whom": 990,
      "Č": 991,
      "meta": 992,
      "#:": 993,
      "į": 994,
      "American": 995,
      "neighborhood": 996,
      "spectral": 997,
      "buffer": 998,
      "Right": 999,
      "system": 1000,
      "hypothesis": 1001,
      "Version": 1002,
      "night": 1003,
      "Filter": 1004,
      "essentially": 1005,
      "Input": 1006,
      "Secretary": 1007,
      "pieces": 1008,
      "arise": 1009,
      "ative": 1010,
      "zero": 1011,
      "worst": 1012,
      "ctx": 1013,
      "User": 1014,
      "taxes": 1015,
      "magnitude": 1016,
      "project": 1017,
      "fighting": 1018,
      "===": 1019,
      "NS": 1020,
      "offset": 1021,
      "closer": 1022,
      "Tex": 1023,
      "vary": 1024,
      "argues": 1025,
      "month": 1026,
      "somewhat": 1027,
      "momentum": 1028,
      "breaking": 1029,
      "Options": 1030,
      "impose": 1031,
      "regulatory": 1032,
      "play": 1033,
      "Democrats": 1034,
      "prices": 1035,
      "Component": 1036,
      "Config": 1037,
      "complicated": 1038,
      "&\\": 1039,
      "Jewish": 1040,
      "impossibl": 1041,
      "when": 1042,
      "picking": 1043,
      "Description": 1044,
      "neq": 1045,
      "wonderful": 1046,
      "berg": 1047,
      "printf": 1048,
      "docs": 1049,
      "location": 1050,
      "Cell": 1051,
      "Several": 1052,
      "legislation": 1053,
      ">&": 1054,
      "selling": 1055,
      "Action": 1056,
      "wards": 1057,
      "obligation": 1058,
      "including": 1059,
      "bacterial": 1060,
      "Many": 1061,
      "Whether": 1062,
      "transferred": 1063,
      "induction": 1064,
      "lattice": 1065,
      "dogs": 1066,
      "soldier": 1067,
      "judicial": 1068,
      "noticed": 1069,
      "town": 1070,
      "emphasis": 1071,
      "Reference": 1072,
      "MAX": 1073,
      "gencies": 1074,
      "normally": 1075,
      "pointed": 1076,
      "candidates": 1077,
      "making": 1078,
      "cpp": 1079,
      "lim": 1080,
      "command": 1081,
      "plaintiffs": 1082,
      "separated": 1083,
      "ated": 1084,
      "arbitrary": 1085,
      "erdict": 1086,
      "External": 1087,
      "will": 1088,
      "Determine": 1089,
      "tmp": 1090,
      "introduction": 1091,
      "performing": 1092,
      "throws": 1093,
      "ERROR": 1094,
      "world": 1095,
      "framework": 1096,
      "product": 1097,
      "sizeof": 1098,
      "fault": 1099,
      "adjacent": 1100,
      "known": 1101,
      "purchased": 1102,
      "wearing": 1103,
      "address": 1104,
      "wedge": 1105,
      "care": 1106,
      "aging": 1107,
      "Come": 1108,
      "provisions": 1109,
      "renal": 1110,
      "Perhaps": 1111,
      "responses": 1112,
      "caps": 1113,
      "Controller": 1114,
      "metabolic": 1115,
      "made": 1116,
      "stone": 1117,
      "OK": 1118,
      "peptide": 1119,
      "they": 1120,
      "refused": 1121,
      "comprehensive": 1122,
      "manufacturing": 1123,
      "representing": 1124,
      "voted": 1125,
      "principles": 1126,
      "Ref": 1127,
      "KEY": 1128,
      "figures": 1129,
      "victory": 1130,
      "institutions": 1131,
      "Henc": 1132,
      "afternoon": 1133,
      "ending": 1134,
      "handling": 1135,
      "his": 1136,
      "quantitative": 1137,
      "ically": 1138,
      "reg": 1139,
      "mild": 1140,
      "family": 1141,
      "operators": 1142,
      "competitive": 1143,
      "pathways": 1144,
      "click": 1145,
      "under": 1146,
      "rising": 1147,
      "statutory": 1148,
      "reasonably": 1149,
      "prod": 1150,
      "eanwhile": 1151,
      "allegations": 1152,
      "absorption": 1153,
      "amendment": 1154,
      "continues": 1155,
      "params": 1156,
      "protective": 1157,
      "who": 1158,
      "generating": 1159,
      "fifth": 1160,
      "anywhere": 1161,
      "game": 1162,
      "contributed": 1163,
      "bound": 1164,
      "healthcare": 1165,
      "PCR": 1166,
      "bearing": 1167,
      "echo": 1168,
      "wouldn": 1169,
      "plus": 1170,
      "complexity": 1171,
      "covering": 1172,
      "dominant": 1173,
      "Expand": 1174,
      "causes": 1175,
      "clause": 1176,
      "Italy": 1177,
      "controlling": 1178,
      "curves": 1179,
      "Again": 1180,
      "GFP": 1181,
      "psychological": 1182,
      "composed": 1183,
      "copies": 1184,
      "closing": 1185,
      "+/-": 1186,
      "heavi": 1187,
      "export": 1188,
      "penalty": 1189,
      "abundance": 1190,
      "John": 1191,
      "utility": 1192,
      "~*": 1193,
      "reaching": 1194,
      "somewhere": 1195,
      "helping": 1196,
      "Proposition": 1197,
      "denominator": 1198,
      "domain": 1199,
      "comment": 1200,
      "loop": 1201,
      "expressing": 1202,
      "experts": 1203,
      "!!": 1204,
      "email": 1205,
      "occurrence": 1206,
      "challenging": 1207,
      "armed": 1208,
      "Vert": 1209,
      "security": 1210,
      "perfectly": 1211,
      "season": 1212,
      "fill": 1213,
      "Does": 1214,
      "yards": 1215,
      "background": 1216,
      "evening": 1217,
      "unsigned": 1218,
      "genuine": 1219,
      "explicitly": 1220,
      "Module": 1221,
      "FILE": 1222,
      "convenient": 1223,
      "compris": 1224,
      "scope": 1225,
      "divisor": 1226,
      "payments": 1227,
      "awareness": 1228,
      "aircraft": 1229,
      "vice": 1230,
      "Default": 1231,
      "bold": 1232,
      "underline": 1233,
      "Section": 1234,
      "stellar": 1235,
      "nearby": 1236,
      "being": 1237,
      "describes": 1238,
      "conf": 1239,
      "LICENS": 1240,
      "window": 1241,
      "power": 1242,
      "witnesse": 1243,
      "ligand": 1244,
      "selective": 1245,
      "parse": 1246,
      "associated": 1247,
      "sodium": 1248,
      "phase": 1249,
      "simulations": 1250,
      "wrap": 1251,
      "presidential": 1252,
      "feeding": 1253,
      "black": 1254,
      "Nothing": 1255,
      "CONFIG": 1256,
      "week": 1257,
      "continuing": 1258,
      "channel": 1259,
      "]]": 1260,
      "assertEqual": 1261,
      "compatible": 1262,
      "Patent": 1263,
      "Height": 1264,
      "synthetic": 1265,
      "RE": 1266,
      "files": 1267,
      "elder": 1268,
      "boxes": 1269,
      "Olympic": 1270,
      "systematic": 1271,
      "laid": 1272,
      "incorporated": 1273,
      "illustrate": 1274,
      "Defendants": 1275,
      "$^{": 1276,
      "wherein": 1277,
      "taught": 1278,
      "giant": 1279,
      "consecutive": 1280,
      "ĩ": 1281,
      "consumers": 1282,
      "lawyer": 1283,
      "respiratory": 1284,
      "army": 1285,
      "tolerance": 1286,
      "Sometimes": 1287,
      "application": 1288,
      "knowing": 1289,
      "losses": 1290,
      "receptors": 1291,
      "teachers": 1292,
      "art": 1293,
      "----": 1294,
      "naturally": 1295,
      "investors": 1296,
      "deserve": 1297,
      "fitting": 1298,
      "roughly": 1299,
      "NFL": 1300,
      "AP": 1301,
      "executed": 1302,
      "ownership": 1303,
      "notion": 1304,
      "mature": 1305,
      "tension": 1306,
      "ruled": 1307,
      "frequencies": 1308,
      "eligible": 1309,
      "Ã¢": 1310,
      "victims": 1311,
      "ball": 1312,
      "personnel": 1313,
      "passes": 1314,
      "aggressive": 1315,
      "difficulty": 1316,
      "Factory": 1317,
      "offensive": 1318,
      "AL": 1319,
      "*]{},": 1320,
      "Range": 1321,
      "248": 1322,
      "equilibrium": 1323,
      "Row": 1324,
      "interface": 1325,
      "process": 1326,
      "disability": 1327,
      "marijuana": 1328,
      "Left": 1329,
      "resonance": 1330,
      "Palestinian": 1331,
      "likelihood": 1332,
      "vacuum": 1333,
      "cooking": 1334,
      "uncertainty": 1335,
      "prevention": 1336,
      "nervous": 1337,
      "degradation": 1338,
      "interference": 1339,
      "unlike": 1340,
      "ION": 1341,
      "breach": 1342,
      "sentencing": 1343,
      "accumulation": 1344,
      "Frame": 1345,
      "Put": 1346,
      "coordinates": 1347,
      "Control": 1348,
      "Project": 1349,
      "flags": 1350,
      "lawsuit": 1351,
      "language": 1352,
      "session": 1353,
      "tbl": 1354,
      "bedroom": 1355,
      "funded": 1356,
      "Would": 1357,
      "change": 1358,
      "wiki": 1359,
      "actor": 1360,
      "Edit": 1361,
      "disclosure": 1362,
      "TNF": 1363,
      "sensitive": 1364,
      "Islamic": 1365,
      "Panel": 1366,
      "citing": 1367,
      "DC": 1368,
      "dagger": 1369,
      "cells": 1370,
      "images": 1371,
      "Token": 1372,
      "violate": 1373,
      "gov": 1374,
      "ried": 1375,
      "cleaning": 1376,
      "Column": 1377,
      "ancient": 1378,
      "phenomenon": 1379,
      "Interesting": 1380,
      "printed": 1381,
      "oplus": 1382,
      "Format": 1383,
      "prejudice": 1384,
      "===========": 1385,
      "analysis": 1386,
      "thm": 1387,
      "steady": 1388,
      "troop": 1389,
      "Could": 1390,
      "profile": 1391,
      "Window": 1392,
      "suspension": 1393,
      "Settings": 1394,
      "border": 1395,
      "mates": 1396,
      "immigration": 1397,
      "earned": 1398,
      "spread": 1399,
      "Iowa": 1400,
      "card": 1401,
      "answered": 1402,
      "supplied": 1403,
      "Block": 1404,
      "Convert": 1405,
      "relating": 1406,
      "juice": 1407,
      "front": 1408,
      "entering": 1409,
      "mask": 1410,
      "because": 1411,
      "180": 1412,
      "hormone": 1413,
      "locally": 1414,
      "Properties": 1415,
      "voting": 1416,
      "worldwide": 1417,
      "assistant": 1418,
      "advertising": 1419,
      "fired": 1420,
      "kin": 1421,
      "gradual": 1422,
      "GET": 1423,
      "ogenous": 1424,
      "Out": 1425,
      "meter": 1426,
      "member": 1427,
      "Phys": 1428,
      "promising": 1429,
      "Entity": 1430,
      "colon": 1431,
      "energy": 1432,
      "regularly": 1433,
      "estimation": 1434,
      "attractive": 1435,
      "suicide": 1436,
      "Over": 1437,
      "discrete": 1438,
      "done": 1439,
      "stock": 1440,
      ").$$": 1441,
      "1993": 1442,
      "310": 1443,
      "105": 1444,
      "CF": 1445,
      "person": 1446,
      "remand": 1447,
      "organisms": 1448,
      "Maybe": 1449,
      "advocate": 1450,
      "personally": 1451,
      "stages": 1452,
      "SO": 1453,
      "ivity": 1454,
      "diffusion": 1455,
      "perceived": 1456,
      "fall": 1457,
      "mixing": 1458,
      "Eastern": 1459,
      "Collect": 1460,
      "shopping": 1461,
      "pregnant": 1462,
      "Only": 1463,
      "translation": 1464,
      "complexes": 1465,
      "computing": 1466,
      "implications": 1467,
      "TIES": 1468,
      "ĭ": 1469,
      "grams": 1470,
      "stained": 1471,
      "regulate": 1472,
      "fast": 1473,
      "diff": 1474,
      "Statistical": 1475,
      "invasive": 1476,
      "enable": 1477,
      "cases": 1478,
      "everybody": 1479,
      "foot": 1480,
      "insufficient": 1481,
      "erred": 1482,
      "Equal": 1483,
      "region": 1484,
      "activity": 1485,
      "password": 1486,
      "typedef": 1487,
      "funny": 1488,
      "}.$$": 1489,
      "reflected": 1490,
      "widget": 1491,
      "deposition": 1492,
      "ler": 1493,
      "Consequent": 1494,
      "targeting": 1495,
      "interpreted": 1496,
      "succeed": 1497,
      "Under": 1498,
      "designated": 1499,
      "Man": 1500,
      "validity": 1501,
      "fields": 1502,
      "discipline": 1503,
      "treating": 1504,
      "\\|": 1505,
      "Server": 1506,
      "equality": 1507,
      "Task": 1508,
      "UI": 1509,
      "racial": 1510,
      "Interface": 1511,
      "exponential": 1512,
      "Today": 1513,
      "TR": 1514,
      "Cambridge": 1515,
      "legislative": 1516,
      "surveillance": 1517,
      "philosophy": 1518,
      "ships": 1519,
      "immigrant": 1520,
      "maker": 1521,
      "wireless": 1522,
      ".*]{}": 1523,
      "machines": 1524,
      "viewed": 1525,
      "residential": 1526,
      "modules": 1527,
      "INFO": 1528,
      "entities": 1529,
      "280": 1530,
      "systemic": 1531,
      "landscape": 1532,
      "developers": 1533,
      "CODE": 1534,
      "idx": 1535,
      "İ": 1536,
      "}}_{\\": 1537,
      "Offset": 1538,
      "AA": 1539,
      "phone": 1540,
      "headed": 1541,
      "pleasure": 1542,
      "enhancement": 1543,
      "airport": 1544,
      "Resource": 1545,
      "category": 1546,
      "mitting": 1547,
      "1991": 1548,
      "harder": 1549,
      "air": 1550,
      "genomic": 1551,
      "qualify": 1552,
      "YES": 1553,
      "criticism": 1554,
      "strengthen": 1555,
      "printing": 1556,
      "defining": 1557,
      "inner": 1558,
      "drivers": 1559,
      "enum": 1560,
      "quipped": 1561,
      "Values": 1562,
      "Container": 1563,
      "tackle": 1564,
      "mann": 1565,
      "wedding": 1566,
      "adapted": 1567,
      "engagement": 1568,
      "Parameters": 1569,
      "trans": 1570,
      "Recently": 1571,
      "destruction": 1572,
      "alteration": 1573,
      "patient": 1574,
      "Columbia": 1575,
      "queue": 1576,
      "identifying": 1577,
      "Debug": 1578,
      "dated": 1579,
      "Part": 1580,
      "reactive": 1581,
      "expectations": 1582,
      "ocaine": 1583,
      "poverty": 1584,
      "willing": 1585,
      "Commonwealth": 1586,
      "||": 1587,
      "herent": 1588,
      "insured": 1589,
      "():": 1590,
      "assertion": 1591,
      "recovered": 1592,
      "Unfortunate": 1593,
      "traits": 1594,
      "besity": 1595,
      "Search": 1596,
      "Photo": 1597,
      "Soviet": 1598,
      "eggs": 1599,
      "connecting": 1600,
      "yard": 1601,
      "connection": 1602,
      "probable": 1603,
      "btn": 1604,
      "ruly": 1605,
      "cooling": 1606,
      "nucleus": 1607,
      "INT": 1608,
      "}^{-": 1609,
      "excitation": 1610,
      "dom": 1611,
      "insight": 1612,
      "utils": 1613,
      "900": 1614,
      "profit": 1615,
      "WHERE": 1616,
      "Ministry": 1617,
      "somebody": 1618,
      "plot": 1619,
      "injected": 1620,
      "premium": 1621,
      "IP": 1622,
      "Layout": 1623,
      "PP": 1624,
      "geometric": 1625,
      "satellite": 1626,
      "asically": 1627,
      "Build": 1628,
      "Upon": 1629,
      "sort": 1630,
      "oxidative": 1631,
      "tired": 1632,
      "schema": 1633,
      "libraries": 1634,
      "pontaneous": 1635,
      "handler": 1636,
      "frustrat": 1637,
      "yeast": 1638,
      "Template": 1639,
      "bind": 1640,
      "settings": 1641,
      "para": 1642,
      "Write": 1643,
      "lawful": 1644,
      "*~*": 1645,
      "shaft": 1646,
      "homogeneous": 1647,
      "esides": 1648,
      "functionality": 1649,
      "Dir": 1650,
      "phosphate": 1651,
      "choices": 1652,
      "climb": 1653,
      "treatment": 1654,
      "felon": 1655,
      "away": 1656,
      "falls": 1657,
      "figure": 1658,
      "Cache": 1659,
      "forall": 1660,
      "expr": 1661,
      "roots": 1662,
      "upset": 1663,
      "Call": 1664,
      "motivation": 1665,
      "occupation": 1666,
      "boundaries": 1667,
      "cycles": 1668,
      "behavioral": 1669,
      "LOG": 1670,
      "meaningful": 1671,
      "draw": 1672,
      "atory": 1673,
      "attribute": 1674,
      "realistic": 1675,
      "callback": 1676,
      "lane": 1677,
      "vulnerable": 1678,
      "]{.": 1679,
      "ously": 1680,
      "consensus": 1681,
      "abilities": 1682,
      "waves": 1683,
      "farmers": 1684,
      "Integer": 1685,
      "distributions": 1686,
      "franchise": 1687,
      "=============": 1688,
      "Handle": 1689,
      "crossing": 1690,
      "breakfast": 1691,
      "Round": 1692,
      "Menu": 1693,
      "'),": 1694,
      "Matthew": 1695,
      "readers": 1696,
      "1984": 1697,
      "robber": 1698,
      "occupied": 1699,
      "baseball": 1700,
      "intracellular": 1701,
      "bytes": 1702,
      "High": 1703,
      "here": 1704,
      "voluntary": 1705,
      "$]{}": 1706,
      "strategic": 1707,
      "hazard": 1708,
      "corrected": 1709,
      "biology": 1710,
      "chemistry": 1711,
      "EN": 1712,
      "axial": 1713,
      "reputation": 1714,
      "emerging": 1715,
      "oxidation": 1716,
      "Afghanistan": 1717,
      "stands": 1718,
      "satisfying": 1719,
      "cigarette": 1720,
      "Unlike": 1721,
      "inspection": 1722,
      "physically": 1723,
      "usual": 1724,
      "innovation": 1725,
      "stairs": 1726,
      "Utils": 1727,
      "sleep": 1728,
      "shoes": 1729,
      "access": 1730,
      "twitter": 1731,
      "silence": 1732,
      "divorce": 1733,
      "Expression": 1734,
      "metadata": 1735,
      "computational": 1736,
      "founded": 1737,
      "stomach": 1738,
      "nobody": 1739,
      "Show": 1740,
      "narrative": 1741,
      "Bar": 1742,
      "140": 1743,
      "answers": 1744,
      "ops": 1745,
      "reaches": 1746,
      "quoting": 1747,
      "expression": 1748,
      "bits": 1749,
      "invited": 1750,
      "Star": 1751,
      "Example": 1752,
      "fish": 1753,
      "1985": 1754,
      "thirty": 1755,
      "Instance": 1756,
      "priv": 1757,
      "abstract": 1758,
      "convergence": 1759,
      "Users": 1760,
      "seizure": 1761,
      "decomposition": 1762,
      "}}$,": 1763,
      "knife": 1764,
      "1988": 1765,
      "nitrogen": 1766,
      "clonal": 1767,
      "bounds": 1768,
      "dental": 1769,
      "BBC": 1770,
      "similarity": 1771,
      "actively": 1772,
      "1987": 1773,
      "subunit": 1774,
      "VF": 1775,
      "orbital": 1776,
      "faculty": 1777,
      "FALSE": 1778,
      "enzymes": 1779,
      "Activity": 1780,
      "characterization": 1781,
      "necessary": 1782,
      "joining": 1783,
      "confusion": 1784,
      "tournament": 1785,
      "beans": 1786,
      "inhibited": 1787,
      "elections": 1788,
      "Run": 1789,
      "watch": 1790,
      "standard": 1791,
      "fiscal": 1792,
      "EC": 1793,
      "Store": 1794,
      "Sorry": 1795,
      "00000000": 1796,
      "creature": 1797,
      "bad": 1798,
      "]{}]{}": 1799,
      "basketball": 1800,
      "riding": 1801,
      "chain": 1802,
      "Product": 1803,
      "searching": 1804,
      "appreciated": 1805,
      "ectomy": 1806,
      "Layer": 1807,
      "$-$": 1808,
      "Parameter": 1809,
      "welfare": 1810,
      "spoken": 1811,
      "$^{-": 1812,
      "gate": 1813,
      "prefix": 1814,
      "ram": 1815,
      "celebrate": 1816,
      "through": 1817,
      "toString": 1818,
      "liable": 1819,
      "825": 1820,
      "four": 1821,
      "scales": 1822,
      "FONT": 1823,
      "PS": 1824,
      "ite": 1825,
      "males": 1826,
      "sex": 1827,
      "litigation": 1828,
      "dramatic": 1829,
      "containing": 1830,
      "Everyone": 1831,
      "report": 1832,
      "Order": 1833,
      "modulation": 1834,
      "flying": 1835,
      "crimes": 1836,
      "depth": 1837,
      "inflation": 1838,
      "PA": 1839,
      "conserved": 1840,
      "tomato": 1841,
      "plasmid": 1842,
      "acceptance": 1843,
      "independence": 1844,
      "motif": 1845,
      "extern": 1846,
      "topics": 1847,
      "descending": 1848,
      "Hillary": 1849,
      "Massachusetts": 1850,
      "memories": 1851,
      "nations": 1852,
      "DNA": 1853,
      "ATP": 1854,
      "film": 1855,
      ";\">": 1856,
      "randomized": 1857,
      "properties": 1858,
      "),\\": 1859,
      "fitted": 1860,
      "DE": 1861,
      "price": 1862,
      "entrance": 1863,
      "lit": 1864,
      "Abstract": 1865,
      "salary": 1866,
      "maternal": 1867,
      "controversial": 1868,
      "Child": 1869,
      "intervals": 1870,
      "Current": 1871,
      "Collection": 1872,
      "would": 1873,
      "RR": 1874,
      "purified": 1875,
      "conservation": 1876,
      "everyday": 1877,
      "register": 1878,
      "transfect": 1879,
      "shared": 1880,
      "chromosome": 1881,
      "applicant": 1882,
      "iterator": 1883,
      "incubation": 1884,
      "Ukraine": 1885,
      "cancers": 1886,
      "results": 1887,
      "Spec": 1888,
      "ranking": 1889,
      "written": 1890,
      "rolling": 1891,
      "record": 1892,
      "prescribed": 1893,
      "pleasant": 1894,
      "graphs": 1895,
      "Will": 1896,
      "compell": 1897,
      "quark": 1898,
      "challenged": 1899,
      "vegetables": 1900,
      "metallic": 1901,
      "integer": 1902,
      "visiting": 1903,
      "looking": 1904,
      "transform": 1905,
      "shelter": 1906,
      "resembl": 1907,
      "affiliate": 1908,
      "Jason": 1909,
      "confused": 1910,
      "AND": 1911,
      "scanning": 1912,
      "Document": 1913,
      "both": 1914,
      "hidden": 1915,
      "competent": 1916,
      "distance": 1917,
      "job": 1918,
      "network": 1919,
      "embrace": 1920,
      "account": 1921,
      "Miami": 1922,
      "algorithms": 1923,
      "equity": 1924,
      "protected": 1925,
      "Oxford": 1926,
      "eclipse": 1927,
      "secretary": 1928,
      "original": 1929,
      "Neither": 1930,
      "Work": 1931,
      "diminish": 1932,
      "solving": 1933,
      "Binding": 1934,
      "poison": 1935,
      "birthday": 1936,
      "instances": 1937,
      "119": 1938,
      "references": 1939,
      "ological": 1940,
      "outstanding": 1941,
      "sustainable": 1942,
      "verified": 1943,
      "polymers": 1944,
      "reproduce": 1945,
      "incorporate": 1946,
      "topological": 1947,
      "backs": 1948,
      "grade": 1949,
      "ping": 1950,
      "vectors": 1951,
      "nonlinear": 1952,
      "pgen": 1953,
      "points": 1954,
      "NMR": 1955,
      "Consider": 1956,
      "LLC": 1957,
      "Avenue": 1958,
      "Stop": 1959,
      "flowers": 1960,
      "Dallas": 1961,
      "matters": 1962,
      "worthy": 1963,
      "painting": 1964,
      "Ī": 1965,
      "aggravat": 1966,
      "asymptotic": 1967,
      "cur": 1968,
      "Between": 1969,
      "tobacco": 1970,
      "entertainment": 1971,
      "paired": 1972,
      "clothing": 1973,
      "rect": 1974,
      "structure": 1975,
      "1980": 1976,
      "Host": 1977,
      "stations": 1978,
      "iness": 1979,
      "Express": 1980,
      "diabetic": 1981,
      "urprising": 1982,
      "incentive": 1983,
      "fits": 1984,
      "IF": 1985,
      "sight": 1986,
      "debut": 1987,
      "exists": 1988,
      "printl": 1989,
      "predictions": 1990,
      "deficient": 1991,
      "spin": 1992,
      "hitting": 1993,
      "Helper": 1994,
      "contemporary": 1995,
      "limit": 1996,
      "perturbation": 1997,
      "Conclusion": 1998,
      "Case": 1999,
      "MAP": 2000,
      "rosecution": 2001,
      "padding": 2002,
      "ancy": 2003,
      "aws": 2004,
      "equals": 2005,
      "emissions": 2006,
      "conduct": 2007,
      "EPA": 2008,
      "XF": 2009,
      "terrorism": 2010,
      "temple": 2011,
      "statement": 2012,
      "lymphocyte": 2013,
      "Until": 2014,
      "URI": 2015,
      "cDNA": 2016,
      "logistic": 2017,
      "tile": 2018,
      "Icon": 2019,
      "ren": 2020,
      "Evaluate": 2021,
      "breed": 2022,
      "Device": 2023,
      "ranked": 2024,
      "__(": 2025,
      "ORDER": 2026,
      "par": 2027,
      "cytokines": 2028,
      "catalyst": 2029,
      "protecting": 2030,
      "unity": 2031,
      "specially": 2032,
      "required": 2033,
      "Howard": 2034,
      "sacrifice": 2035,
      "responsive": 2036,
      ")));": 2037,
      "ANOVA": 2038,
      "Close": 2039,
      "threatening": 2040,
      "vibration": 2041,
      "stationary": 2042,
      "viruses": 2043,
      ")}(": 2044,
      "FDA": 2045,
      "virtual": 2046,
      "possibilities": 2047,
      "attain": 2048,
      "except": 2049,
      "athroom": 2050,
      "pronounce": 2051,
      "Release": 2052,
      "virtue": 2053,
      "motive": 2054,
      "characterize": 2055,
      "Rect": 2056,
      "guaranteed": 2057,
      "DOC": 2058,
      "basal": 2059,
      "platform": 2060,
      "Elizabeth": 2061,
      "nuclei": 2062,
      "Json": 2063,
      "Pro": 2064,
      "sensory": 2065,
      "legislature": 2066,
      "demonstration": 2067,
      "Reuters": 2068,
      "David": 2069,
      "jquery": 2070,
      "shifted": 2071,
      "Summary": 2072,
      "cloud": 2073,
      "tower": 2074,
      "dissent": 2075,
      "donation": 2076,
      "genic": 2077,
      "writers": 2078,
      "install": 2079,
      "Typical": 2080,
      "Dutch": 2081,
      "HAVE": 2082,
      "Home": 2083,
      "evolved": 2084,
      "probation": 2085,
      "triggered": 2086,
      "inconsistent": 2087,
      "missile": 2088,
      "adaptive": 2089,
      "siRNA": 2090,
      "cost": 2091,
      "AM": 2092,
      "asthma": 2093,
      "Record": 2094,
      "linked": 2095,
      "ambiguous": 2096,
      "lawyers": 2097,
      "DM": 2098,
      "athletes": 2099,
      "edited": 2100,
      "breathing": 2101,
      "0005": 2102,
      "STR": 2103,
      "normalization": 2104,
      "controller": 2105,
      "Var": 2106,
      "tial": 2107,
      "colored": 2108,
      "drift": 2109,
      "(__": 2110,
      "morphology": 2111,
      "rated": 2112,
      "nemies": 2113,
      "450": 2114,
      "Indiana": 2115,
      "loving": 2116,
      "Root": 2117,
      "disposition": 2118,
      "buildings": 2119,
      "MMP": 2120,
      "discussions": 2121,
      "cooked": 2122,
      "Ã¡": 2123,
      "ware": 2124,
      "venue": 2125,
      "packaging": 2126,
      "highway": 2127,
      "Plaintiff": 2128,
      "garlic": 2129,
      ">::": 2130,
      "passive": 2131,
      "certified": 2132,
      "135": 2133,
      "abdominal": 2134,
      "spouse": 2135,
      "BASE": 2136,
      "compromise": 2137,
      "Str": 2138,
      "}}^{\\": 2139,
      "teaspoon": 2140,
      "feasibl": 2141,
      "hepatic": 2142,
      "influenza": 2143,
      "emotions": 2144,
      "affordable": 2145,
      "independent": 2146,
      "XML": 2147,
      "typeof": 2148,
      "stopping": 2149,
      "surgeon": 2150,
      "lecture": 2151,
      "infinity": 2152,
      "192": 2153,
      "Schema": 2154,
      "Mark": 2155,
      "Le": 2156,
      "moments": 2157,
      "News": 2158,
      "CHECK": 2159,
      "Editor": 2160,
      "manager": 2161,
      "xpenditure": 2162,
      "Flag": 2163,
      "Fourth": 2164,
      "ubtle": 2165,
      "methodology": 2166,
      "annoy": 2167,
      "mine": 2168,
      "restaurants": 2169,
      "ach": 2170,
      "methyl": 2171,
      "Callback": 2172,
      "wisdom": 2173,
      "defence": 2174,
      "genes": 2175,
      "exe": 2176,
      "validated": 2177,
      "115": 2178,
      "shower": 2179,
      "PER": 2180,
      "XX": 2181,
      "transcriptional": 2182,
      "unique": 2183,
      "amount": 2184,
      "sovereign": 2185,
      "representations": 2186,
      "CHAR": 2187,
      "Dec": 2188,
      "topology": 2189,
      "causal": 2190,
      "Async": 2191,
      "curious": 2192,
      "late": 2193,
      "ajax": 2194,
      "manipulation": 2195,
      "extracellular": 2196,
      "ceiling": 2197,
      "article": 2198,
      "wall": 2199,
      "cortical": 2200,
      "BR": 2201,
      "transverse": 2202,
      "redshift": 2203,
      "regulating": 2204,
      "prize": 2205,
      "savings": 2206,
      "susceptibility": 2207,
      "locus": 2208,
      "Writer": 2209,
      "dialogue": 2210,
      "angle": 2211,
      "rotating": 2212,
      "prostate": 2213,
      "plots": 2214,
      "Space": 2215,
      "amplification": 2216,
      "numbered": 2217,
      "something": 2218,
      "rally": 2219,
      "ington": 2220,
      "Posted": 2221,
      "considerations": 2222,
      "TABLE": 2223,
      "proof": 2224,
      "returning": 2225,
      "fucking": 2226,
      "rays": 2227,
      "ITNESS": 2228,
      "lid": 2229,
      "caution": 2230,
      "arose": 2231,
      "concepts": 2232,
      "exports": 2233,
      "\"\",": 2234,
      "runner": 2235,
      "tepped": 2236,
      "counting": 2237,
      "versions": 2238,
      "tourist": 2239,
      "viewing": 2240,
      "TGF": 2241,
      "plead": 2242,
      "psychiatric": 2243,
      "criticiz": 2244,
      "Life": 2245,
      "CSF": 2246,
      "Mask": 2247,
      "pride": 2248,
      "admissible": 2249,
      "cuts": 2250,
      "UPDATE": 2251,
      "mitigat": 2252,
      "best": 2253,
      "parser": 2254,
      "een": 2255,
      "allies": 2256,
      "months": 2257,
      "dynamical": 2258,
      "ionic": 2259,
      "events": 2260,
      "cfg": 2261,
      "bonus": 2262,
      "ī": 2263,
      "biased": 2264,
      "boolean": 2265,
      "forward": 2266,
      "equivalence": 2267,
      "generated": 2268,
      "bladder": 2269,
      "subjective": 2270,
      "factory": 2271,
      "PC": 2272,
      "Information": 2273,
      "linking": 2274,
      "Win": 2275,
      "single": 2276,
      "balls": 2277,
      "localhost": 2278,
      "clock": 2279,
      "distal": 2280,
      "Directory": 2281,
      "protein": 2282,
      "humans": 2283,
      "frequency": 2284,
      "baking": 2285,
      "trapped": 2286,
      "Proof": 2287,
      "Pre": 2288,
      "Rules": 2289,
      "racing": 2290,
      "infectious": 2291,
      "Louisiana": 2292,
      "Real": 2293,
      "Great": 2294,
      "Return": 2295,
      "implementing": 2296,
      "maps": 2297,
      "Conservative": 2298,
      "EF": 2299,
      "uid": 2300,
      "mimic": 2301,
      "tubes": 2302,
      "suspicio": 2303,
      "Examples": 2304,
      "essence": 2305,
      "Fourier": 2306,
      "cong": 2307,
      "agricultural": 2308,
      "roles": 2309,
      "resp": 2310,
      "exploration": 2311,
      "144": 2312,
      "fetal": 2313,
      "ester": 2314,
      "DVD": 2315,
      "props": 2316,
      "Taking": 2317,
      "residency": 2318,
      "memory": 2319,
      "foam": 2320,
      "Debt": 2321,
      "brilliant": 2322,
      "downtown": 2323,
      "Bundle": 2324,
      "omehow": 2325,
      "Still": 2326,
      "modal": 2327,
      "Android": 2328,
      "IRS": 2329,
      "Clear": 2330,
      "Comment": 2331,
      "polymorphism": 2332,
      "zen": 2333,
      "operation": 2334,
      "),$$": 2335,
      "eager": 2336,
      "between": 2337,
      "exec": 2338,
      "Double": 2339,
      "cabinet": 2340,
      "twelve": 2341,
      "Public": 2342,
      "ArrayList": 2343,
      "IS": 2344,
      "malignant": 2345,
      "pathological": 2346,
      "gravitational": 2347,
      "musical": 2348,
      "modest": 2349,
      "TABILITY": 2350,
      "National": 2351,
      "evolve": 2352,
      "volatile": 2353,
      "counted": 2354,
      "arrows": 2355,
      "toggle": 2356,
      "throwing": 2357,
      "touched": 2358,
      "Delete": 2359,
      "furniture": 2360,
      "extraordinary": 2361,
      "JSON": 2362,
      "subspace": 2363,
      "\\~": 2364,
      "bandwidth": 2365,
      "RAS": 2366,
      "spite": 2367,
      "tray": 2368,
      "disciplinary": 2369,
      "engine": 2370,
      "cervical": 2371,
      "Really": 2372,
      "ATION": 2373,
      "Ontario": 2374,
      "stunn": 2375,
      "bishop": 2376,
      "attraction": 2377,
      "Super": 2378,
      "512": 2379,
      "English": 2380,
      "counter": 2381,
      "clearance": 2382,
      "license": 2383,
      "spots": 2384,
      "catalytic": 2385,
      "adequately": 2386,
      "RESULT": 2387,
      "BOOL": 2388,
      "elevation": 2389,
      "graft": 2390,
      "METHOD": 2391,
      "Atlanta": 2392,
      "Laboratory": 2393,
      "Commerce": 2394,
      "Listener": 2395,
      "Contact": 2396,
      "shire": 2397,
      "Charlie": 2398,
      "act": 2399,
      "Help": 2400,
      "Register": 2401,
      "competitor": 2402,
      "Whatever": 2403,
      "worth": 2404,
      "senator": 2405,
      "existing": 2406,
      "propagation": 2407,
      "collection": 2408,
      "citation": 2409,
      ",[@": 2410,
      "consumed": 2411,
      "LIMIT": 2412,
      "appellants": 2413,
      "skilled": 2414,
      "aluminum": 2415,
      "sense": 2416,
      "fatigue": 2417,
      "general": 2418,
      "CONDITION": 2419,
      "Extension": 2420,
      "accounting": 2421,
      "reversal": 2422,
      "compatibility": 2423,
      "011": 2424,
      "components": 2425,
      "$|\\": 2426,
      "ket": 2427,
      "exception": 2428,
      "noun": 2429,
      "babies": 2430,
      "sheets": 2431,
      "cor": 2432,
      "traveling": 2433,
      "recombinant": 2434,
      "IT": 2435,
      "venture": 2436,
      "Background": 2437,
      "proving": 2438,
      "myocardial": 2439,
      "mmol": 2440,
      "fascinat": 2441,
      "Doc": 2442,
      "rises": 2443,
      "basic": 2444,
      "weakness": 2445,
      "hunting": 2446,
      "fragments": 2447,
      "embarrass": 2448,
      "Turkish": 2449,
      "phenomena": 2450,
      "conscious": 2451,
      "USER": 2452,
      "reception": 2453,
      "dependency": 2454,
      "Gary": 2455,
      "neighbors": 2456,
      "courage": 2457,
      "cluster": 2458,
      "Unc": 2459,
      "Beijing": 2460,
      "pattern": 2461,
      "Taiwan": 2462,
      "terminated": 2463,
      "plaque": 2464,
      "educated": 2465,
      "March": 2466,
      "Arabia": 2467,
      "ridiculous": 2468,
      "girlfriend": 2469,
      "mov": 2470,
      "shots": 2471,
      "isomorphism": 2472,
      "entity": 2473,
      "nate": 2474,
      "TLR": 2475,
      "comedy": 2476,
      "tex": 2477,
      "Proxy": 2478,
      "harsh": 2479,
      "peaceful": 2480,
      "continuum": 2481,
      "positioned": 2482,
      "South": 2483,
      "ensemble": 2484,
      "mechanics": 2485,
      "dining": 2486,
      "haul": 2487,
      "Former": 2488,
      "rolled": 2489,
      "classroom": 2490,
      "fancy": 2491,
      "liberty": 2492,
      "zens": 2493,
      "enabled": 2494,
      "carriers": 2495,
      "proto": 2496,
      "Nelson": 2497,
      "LORD": 2498,
      "favourite": 2499,
      "dressed": 2500,
      "======": 2501,
      "appearing": 2502,
      "particle": 2503,
      "distinguished": 2504,
      "morbidity": 2505,
      "INTO": 2506,
      "peaks": 2507,
      "Living": 2508,
      "surface": 2509,
      "Null": 2510,
      "gaming": 2511,
      "connectivity": 2512,
      "coronavirus": 2513,
      "fixing": 2514,
      "instability": 2515,
      "President": 2516,
      "resection": 2517,
      "abroad": 2518,
      "Plugin": 2519,
      "INSERT": 2520,
      "routes": 2521,
      "deposited": 2522,
      "BP": 2523,
      "partisan": 2524,
      "trivial": 2525,
      "tensor": 2526,
      "plain": 2527,
      "CDC": 2528,
      "met": 2529,
      "reservoir": 2530,
      "\\{\\": 2531,
      "crude": 2532,
      "Remove": 2533,
      "reported": 2534,
      "Parser": 2535,
      "precedent": 2536,
      "Warning": 2537,
      "1978": 2538,
      "portions": 2539,
      "gz": 2540,
      "IOException": 2541,
      "Cohen": 2542,
      "PIN": 2543,
      "delim": 2544,
      "burg": 2545,
      "writer": 2546,
      "transplantation": 2547,
      "BB": 2548,
      "hpp": 2549,
      "GDP": 2550,
      "disruption": 2551,
      "created": 2552,
      "Internal": 2553,
      "pointing": 2554,
      "LONG": 2555,
      "biopsy": 2556,
      "track": 2557,
      "score": 2558,
      "garage": 2559,
      "portfolio": 2560,
      "Douglas": 2561,
      "sign": 2562,
      "groups": 2563,
      "proxy": 2564,
      "vested": 2565,
      "elementary": 2566,
      "extension": 2567,
      "adhesive": 2568,
      "splitting": 2569,
      "selecting": 2570,
      "preliminar": 2571,
      "Google": 2572,
      "LDL": 2573,
      "DAY": 2574,
      "think": 2575,
      "1976": 2576,
      "=\\\"": 2577,
      "arms": 2578,
      "igorous": 2579,
      "sandwich": 2580,
      "resolution": 2581,
      "backed": 2582,
      "boards": 2583,
      "Fields": 2584,
      "urged": 2585,
      "pid": 2586,
      "Args": 2587,
      "supervised": 2588,
      "Scope": 2589,
      "supporter": 2590,
      "Access": 2591,
      "electrodes": 2592,
      "merger": 2593,
      "conductivity": 2594,
      "147": 2595,
      "devastat": 2596,
      "Library": 2597,
      "bigl": 2598,
      "fulness": 2599,
      "ituated": 2600,
      "Pointer": 2601,
      "physical": 2602,
      "parental": 2603,
      "question": 2604,
      "burn": 2605,
      "165": 2606,
      "cytokine": 2607,
      "obey": 2608,
      "larva": 2609,
      "Conclusions": 2610,
      "cond": 2611,
      "fmt": 2612,
      "Assert": 2613,
      "groupI": 2614,
      "electrons": 2615,
      "coalition": 2616,
      "grocer": 2617,
      "configuration": 2618,
      "0004": 2619,
      "specialized": 2620,
      "toxins": 2621,
      "wear": 2622,
      "corporations": 2623,
      "insurer": 2624,
      "grasp": 2625,
      "addiction": 2626,
      "Antonio": 2627,
      "breeding": 2628,
      "argv": 2629,
      "ropping": 2630,
      "resources": 2631,
      "sleeve": 2632,
      "talks": 2633,
      "pen": 2634,
      "Save": 2635,
      "Kentucky": 2636,
      "poptotic": 2637,
      "Sydney": 2638,
      "symptomatic": 2639,
      "focus": 2640,
      "Regard": 2641,
      "Adapter": 2642,
      "guide": 2643,
      "reproductive": 2644,
      "turn": 2645,
      "Changes": 2646,
      "Iterator": 2647,
      "posed": 2648,
      "steem": 2649,
      "proximity": 2650,
      "urgent": 2651,
      "___": 2652,
      "setup": 2653,
      "dielectric": 2654,
      "BF": 2655,
      "forms": 2656,
      "ietary": 2657,
      "parameters": 2658,
      "Indonesia": 2659,
      "practitioner": 2660,
      "picture": 2661,
      "controlled": 2662,
      "conformation": 2663,
      "contraction": 2664,
      "Denver": 2665,
      "ubunt": 2666,
      "TODO": 2667,
      "detail": 2668,
      "native": 2669,
      "Chemical": 2670,
      "Empty": 2671,
      "Follow": 2672,
      "Baltimore": 2673,
      "BOOST": 2674,
      "simultaneous": 2675,
      "calculating": 2676,
      "reversible": 2677,
      "protocols": 2678,
      "University": 2679,
      "fluctuat": 2680,
      "oyalty": 2681,
      "microbial": 2682,
      "pot": 2683,
      "significant": 2684,
      "Recall": 2685,
      "hosted": 2686,
      "Brexit": 2687,
      "Notes": 2688,
      "formally": 2689,
      "Austria": 2690,
      "must": 2691,
      "generous": 2692,
      "ridge": 2693,
      "Delhi": 2694,
      "soft": 2695,
      "platforms": 2696,
      "fungal": 2697,
      "movements": 2698,
      "bigr": 2699,
      "optional": 2700,
      "Obj": 2701,
      "PBX": 2702,
      "SU": 2703,
      "Col": 2704,
      "starter": 2705,
      "360": 2706,
      "inspiration": 2707,
      "ToString": 2708,
      "James": 2709,
      "proximal": 2710,
      "cattle": 2711,
      "Certain": 2712,
      "izer": 2713,
      "recurrent": 2714,
      "Court": 2715,
      "logged": 2716,
      "Cleveland": 2717,
      "argument": 2718,
      "oscillator": 2719,
      "Package": 2720,
      "pathogenesis": 2721,
      "puzzle": 2722,
      "TIME": 2723,
      "roster": 2724,
      "lab": 2725,
      "correspondence": 2726,
      "van": 2727,
      "artists": 2728,
      "polymerase": 2729,
      "conn": 2730,
      "webkit": 2731,
      "\"],": 2732,
      "stochastic": 2733,
      "biochemical": 2734,
      "moves": 2735,
      "Texture": 2736,
      "Lib": 2737,
      "Year": 2738,
      "financing": 2739,
      "lifted": 2740,
      "ace": 2741,
      "acres": 2742,
      "ESM": 2743,
      "Scale": 2744,
      "Either": 2745,
      "simplicit": 2746,
      "vascular": 2747,
      "searched": 2748,
      "extra": 2749,
      "toilet": 2750,
      "information": 2751,
      "manufactured": 2752,
      "putative": 2753,
      "Center": 2754,
      "Graph": 2755,
      "Mississippi": 2756,
      "psychology": 2757,
      "012": 2758,
      "algebraic": 2759,
      ").](": 2760,
      "137": 2761,
      "mysql": 2762,
      "quantified": 2763,
      "ELISA": 2764,
      "DS": 2765,
      "exceptions": 2766,
      "Policy": 2767,
      "155": 2768,
      "algebra": 2769,
      "AMP": 2770,
      "****": 2771,
      "eye": 2772,
      "arrangements": 2773,
      "prone": 2774,
      "period": 2775,
      "ratings": 2776,
      "utilization": 2777,
      "~/": 2778,
      "TM": 2779,
      "Licensed": 2780,
      "capacitor": 2781,
      "tuning": 2782,
      "pan": 2783,
      "Transform": 2784,
      "UP": 2785,
      "database": 2786,
      "Password": 2787,
      "hockey": 2788,
      "shadow": 2789,
      "trademark": 2790,
      "Technical": 2791,
      "incomplete": 2792,
      "014": 2793,
      "forgotten": 2794,
      "CMD": 2795,
      "Job": 2796,
      "abc": 2797,
      "could": 2798,
      "pediatric": 2799,
      "lands": 2800,
      "bury": 2801,
      "wings": 2802,
      "DF": 2803,
      "oldest": 2804,
      "Enum": 2805,
      "Copyright": 2806,
      "honour": 2807,
      "Lawrence": 2808,
      "FLAG": 2809,
      "ulent": 2810,
      "ck": 2811,
      "pharmaceutical": 2812,
      "North": 2813,
      "Compared": 2814,
      "maximize": 2815,
      "workers": 2816,
      "versely": 2817,
      "Queue": 2818,
      "MDA": 2819,
      "leap": 2820,
      "Database": 2821,
      "agriculture": 2822,
      "ground": 2823,
      "iscrepanc": 2824,
      "retinal": 2825,
      "Making": 2826,
      "Tests": 2827,
      "lighting": 2828,
      "£": 2829,
      "folding": 2830,
      "conjugate": 2831,
      "Legislature": 2832,
      "skeletal": 2833,
      "series": 2834,
      "associations": 2835,
      "banned": 2836,
      "omorphic": 2837,
      "TEXT": 2838,
      "deliberate": 2839,
      "sumption": 2840,
      "securities": 2841,
      "electromagnetic": 2842,
      "fibrosis": 2843,
      "fibre": 2844,
      "Network": 2845,
      "changed": 2846,
      "Superior": 2847,
      "friendship": 2848,
      "complementary": 2849,
      "focal": 2850,
      "peel": 2851,
      "pressing": 2852,
      "ports": 2853,
      "Classes": 2854,
      "protease": 2855,
      "MASK": 2856,
      "feature": 2857,
      "cmp": 2858,
      "Report": 2859,
      "chloride": 2860,
      "hopeful": 2861,
      "proc": 2862,
      "standardized": 2863,
      "rehabilitation": 2864,
      "rack": 2865,
      "commit": 2866,
      "ely": 2867,
      "fleet": 2868,
      "differentiated": 2869,
      "documentary": 2870,
      "glasses": 2871,
      "balloon": 2872,
      "^*(": 2873,
      "Light": 2874,
      "Bytes": 2875,
      "story": 2876,
      "spectroscopy": 2877,
      "118": 2878,
      "credibil": 2879,
      "certification": 2880,
      "prognostic": 2881,
      "GPL": 2882,
      "continuity": 2883,
      "Http": 2884,
      "irrelevan": 2885,
      "chiral": 2886,
      "Stack": 2887,
      "kernel": 2888,
      "trafficking": 2889,
      "meetings": 2890,
      "awful": 2891,
      "clinical": 2892,
      "figured": 2893,
      "INCLUD": 2894,
      "SNPs": 2895,
      "guards": 2896,
      "stadium": 2897,
      "console": 2898,
      "juvenil": 2899,
      "Multi": 2900,
      "stipulat": 2901,
      "cease": 2902,
      "Timer": 2903,
      "Effect": 2904,
      "isotropic": 2905,
      "journal": 2906,
      "trajectory": 2907,
      "Security": 2908,
      "themes": 2909,
      "saw": 2910,
      "published": 2911,
      "filtering": 2912,
      "frontal": 2913,
      "flavour": 2914,
      "renewable": 2915,
      "optic": 2916,
      "Aaron": 2917,
      "gas": 2918,
      "Repository": 2919,
      "293": 2920,
      "Sheriff": 2921,
      "cruel": 2922,
      "bodi": 2923,
      "got": 2924,
      "clean": 2925,
      "binary": 2926,
      "coherence": 2927,
      "Alice": 2928,
      "Scheme": 2929,
      "Self": 2930,
      "dynamic": 2931,
      "Details": 2932,
      "pointer": 2933,
      "tutorial": 2934,
      "mic": 2935,
      "sibling": 2936,
      "NOTE": 2937,
      "Portland": 2938,
      "fifty": 2939,
      "many": 2940,
      "sym": 2941,
      "concentrate": 2942,
      "faithful": 2943,
      "governmental": 2944,
      "schemas": 2945,
      "Rearrange": 2946,
      "accepting": 2947,
      "fused": 2948,
      "especially": 2949,
      "infringe": 2950,
      "Watch": 2951,
      "Highway": 2952,
      "Private": 2953,
      "perfusion": 2954,
      "download": 2955,
      "lucidat": 2956,
      "duct": 2957,
      "tailor": 2958,
      "Display": 2959,
      "Logger": 2960,
      "repeat": 2961,
      "passionate": 2962,
      "conspirac": 2963,
      "program": 2964,
      "flies": 2965,
      "berries": 2966,
      "sequence": 2967,
      "airway": 2968,
      "ABLE": 2969,
      "Err": 2970,
      "chart": 2971,
      "acoustic": 2972,
      "Police": 2973,
      "Kenya": 2974,
      "works": 2975,
      "Hash": 2976,
      "epidemic": 2977,
      "elicit": 2978,
      "Ok": 2979,
      "adherence": 2980,
      "pertinent": 2981,
      "HTTP": 2982,
      "payers": 2983,
      "seats": 2984,
      "cricket": 2985,
      "ducing": 2986,
      "Invalid": 2987,
      "scream": 2988,
      ")\",": 2989,
      "shifting": 2990,
      "overlapping": 2991,
      "circle": 2992,
      "xF": 2993,
      "clone": 2994,
      "voluntari": 2995,
      "trust": 2996,
      "socket": 2997,
      "acetate": 2998,
      "Low": 2999,
      "China": 3000,
      "pants": 3001,
      "dreams": 3002,
      "Almost": 3003,
      "146": 3004,
      "WT": 3005,
      "ctress": 3006,
      "issues": 3007,
      "Storage": 3008,
      "sphere": 3009,
      "suited": 3010,
      "triangle": 3011,
      "acy": 3012,
      "{%": 3013,
      "implements": 3014,
      "books": 3015,
      "crush": 3016,
      "locking": 3017,
      "nodes": 3018,
      "HLA": 3019,
      "Welcome": 3020,
      "wrapper": 3021,
      "survivors": 3022,
      "Metadata": 3023,
      "Earlier": 3024,
      "tended": 3025,
      "Poland": 3026,
      "Html": 3027,
      "gambl": 3028,
      "etention": 3029,
      "aboratories": 3030,
      "Param": 3031,
      "descent": 3032,
      "hiding": 3033,
      "Python": 3034,
      "reservation": 3035,
      "whisper": 3036,
      "dressing": 3037,
      "Female": 3038,
      "lethal": 3039,
      "Military": 3040,
      "Tell": 3041,
      "visible": 3042,
      "swift": 3043,
      "fertility": 3044,
      "hypoxi": 3045,
      "hover": 3046,
      "icons": 3047,
      "Blue": 3048,
      "electric": 3049,
      "Someone": 3050,
      "ranian": 3051,
      "Points": 3052,
      "Native": 3053,
      "Men": 3054,
      "Remark": 3055,
      "Master": 3056,
      "Benjamin": 3057,
      "Variable": 3058,
      "packing": 3059,
      "lasting": 3060,
      "quotation": 3061,
      "motion": 3062,
      "disappointed": 3063,
      "Hispanic": 3064,
      "conjecture": 3065,
      "Materials": 3066,
      "Include": 3067,
      "teen": 3068,
      "raises": 3069,
      "cutoff": 3070,
      "]$.": 3071,
      "reproduction": 3072,
      "Custom": 3073,
      "pages": 3074,
      "bills": 3075,
      "Encoding": 3076,
      "scholarship": 3077,
      "business": 3078,
      "Molecular": 3079,
      "polarized": 3080,
      "ascertain": 3081,
      "depletion": 3082,
      "ospel": 3083,
      "cher": 3084,
      "Such": 3085,
      "})$,": 3086,
      "122": 3087,
      "transparency": 3088,
      "1970": 3089,
      "economist": 3090,
      "precious": 3091,
      "Engine": 3092,
      "overhead": 3093,
      "dealer": 3094,
      "City": 3095,
      "¶": 3096,
      "ookie": 3097,
      "Alzheimer": 3098,
      "IBM": 3099,
      "divergence": 3100,
      "globe": 3101,
      "connected": 3102,
      "obese": 3103,
      "Down": 3104,
      "registry": 3105,
      "garbage": 3106,
      "secret": 3107,
      "BSD": 3108,
      "direction": 3109,
      "manufacturers": 3110,
      "mobile": 3111,
      "leverage": 3112,
      "hospitals": 3113,
      "cascade": 3114,
      "enhancing": 3115,
      "scientist": 3116,
      "Selected": 3117,
      "expect": 3118,
      "hungry": 3119,
      "substantive": 3120,
      "134": 3121,
      "millions": 3122,
      "Pittsburgh": 3123,
      "culture": 3124,
      "simplified": 3125,
      "{};": 3126,
      "chemicals": 3127,
      "boy": 3128,
      "}|\\": 3129,
      "justice": 3130,
      "Higgs": 3131,
      "illustration": 3132,
      "painted": 3133,
      "hello": 3134,
      "necrosis": 3135,
      "finitely": 3136,
      "DR": 3137,
      "USE": 3138,
      "chat": 3139,
      "different": 3140,
      "Sources": 3141,
      "workout": 3142,
      "timate": 3143,
      "states": 3144,
      "Send": 3145,
      "Ã³": 3146,
      "citations": 3147,
      "graphene": 3148,
      "allow": 3149,
      "wanted": 3150,
      "Floyd": 3151,
      "EGFR": 3152,
      "DMA": 3153,
      "Significant": 3154,
      "HCV": 3155,
      "cargo": 3156,
      "ICU": 3157,
      "generation": 3158,
      "variance": 3159,
      "MC": 3160,
      "traumatic": 3161,
      "^+$": 3162,
      "\"\"\"": 3163,
      "spice": 3164,
      "roast": 3165,
      "Marx": 3166,
      "gui": 3167,
      "Higher": 3168,
      "'])": 3169,
      "ogenic": 3170,
      "Forms": 3171,
      "qualities": 3172,
      "capitalism": 3173,
      "WHAT": 3174,
      "schizophreni": 3175,
      "seller": 3176,
      "cutaneous": 3177,
      "Robert": 3178,
      "fighters": 3179,
      "explosive": 3180,
      "[],": 3181,
      "phantom": 3182,
      "assets": 3183,
      "condition": 3184,
      "csv": 3185,
      "HPV": 3186,
      "rought": 3187,
      "CBD": 3188,
      "history": 3189,
      "Pattern": 3190,
      "Christianity": 3191,
      "NEXT": 3192,
      "Parker": 3193,
      "organize": 3194,
      "evidence": 3195,
      "Liverpool": 3196,
      "Children": 3197,
      "paper": 3198,
      "tax": 3199,
      "fail": 3200,
      "Turner": 3201,
      "teenage": 3202,
      "CSS": 3203,
      "impeach": 3204,
      "errors": 3205,
      "basement": 3206,
      "libs": 3207,
      "latency": 3208,
      "1973": 3209,
      "reactivity": 3210,
      "Usual": 3211,
      "159": 3212,
      "throughput": 3213,
      "permutation": 3214,
      "examination": 3215,
      "750": 3216,
      "origin": 3217,
      "Player": 3218,
      "nine": 3219,
      "Vegas": 3220,
      "youtube": 3221,
      "fixation": 3222,
      "harbor": 3223,
      "exterior": 3224,
      "naked": 3225,
      "Authors": 3226,
      "205": 3227,
      "running": 3228,
      "structed": 3229,
      "chaos": 3230,
      "recession": 3231,
      "labelled": 3232,
      "Phase": 3233,
      "ordering": 3234,
      "mount": 3235,
      "ElementById": 3236,
      "scanner": 3237,
      "brightness": 3238,
      "having": 3239,
      "coarse": 3240,
      "collar": 3241,
      "WRITE": 3242,
      "typing": 3243,
      "litre": 3244,
      "Writing": 3245,
      "ugged": 3246,
      "nut": 3247,
      "publishing": 3248,
      "photographs": 3249,
      "FE": 3250,
      "disable": 3251,
      "Jerry": 3252,
      "converting": 3253,
      "Venezuela": 3254,
      "trillion": 3255,
      "grape": 3256,
      "lookup": 3257,
      "Vancouver": 3258,
      "building": 3259,
      "sure": 3260,
      "review": 3261,
      "hall": 3262,
      "available": 3263,
      "furnish": 3264,
      "Comparison": 3265,
      "wander": 3266,
      "EXT": 3267,
      "Card": 3268,
      "TARGET": 3269,
      "steps": 3270,
      "MRI": 3271,
      "TOR": 3272,
      "midst": 3273,
      "Final": 3274,
      "commander": 3275,
      "remote": 3276,
      "food": 3277,
      "swallow": 3278,
      "rim": 3279,
      "SDK": 3280,
      "silly": 3281,
      "surrender": 3282,
      "tors": 3283,
      "ankle": 3284,
      "Question": 3285,
      "NGC": 3286,
      "Rep": 3287,
      "October": 3288,
      "dynamically": 3289,
      "congressional": 3290,
      "Generic": 3291,
      "Love": 3292,
      "sch": 3293,
      "uspicious": 3294,
      "SUB": 3295,
      ".....": 3296,
      "PhD": 3297,
      "publications": 3298,
      "emergence": 3299,
      "stance": 3300,
      "Along": 3301,
      "evolving": 3302,
      "Ctrl": 3303,
      "Wayne": 3304,
      "Speaking": 3305,
      "Resources": 3306,
      "speculation": 3307,
      "catch": 3308,
      "degenerate": 3309,
      "aromatic": 3310,
      "effect": 3311,
      "muscular": 3312,
      "updating": 3313,
      "possessed": 3314,
      "confidential": 3315,
      "outputs": 3316,
      "Program": 3317,
      "strikes": 3318,
      "glory": 3319,
      "Domain": 3320,
      "=\"../../../../": 3321,
      "sued": 3322,
      "Notification": 3323,
      "â": 3324,
      "QR": 3325,
      "Never": 3326,
      "cooperative": 3327,
      "ites": 3328,
      "September": 3329,
      "political": 3330,
      "warming": 3331,
      "installing": 3332,
      "intuitive": 3333,
      "SSL": 3334,
      "predator": 3335,
      "dialog": 3336,
      "perpendicular": 3337,
      "radio": 3338,
      "visualization": 3339,
      "scene": 3340,
      "Sign": 3341,
      "earning": 3342,
      "writing": 3343,
      "Around": 3344,
      "objects": 3345,
      "apple": 3346,
      "ashed": 3347,
      "indoor": 3348,
      "forty": 3349,
      "shocked": 3350,
      "graded": 3351,
      "dairy": 3352,
      "churche": 3353,
      "management": 3354,
      "bug": 3355,
      "Maine": 3356,
      "keeper": 3357,
      "politician": 3358,
      "podcast": 3359,
      "classifier": 3360,
      "dag": 3361,
      "rreducible": 3362,
      "duration": 3363,
      "Thailand": 3364,
      "switches": 3365,
      "gastrointestinal": 3366,
      "Expr": 3367,
      "DATE": 3368,
      "maven": 3369,
      "helps": 3370,
      "Mathematics": 3371,
      "Nobody": 3372,
      "tumor": 3373,
      "own": 3374,
      "ison": 3375,
      "wildlife": 3376,
      "stent": 3377,
      "mediator": 3378,
      "COM": 3379,
      "Collections": 3380,
      "elaborat": 3381,
      "doubt": 3382,
      "sequel": 3383,
      "mont": 3384,
      "athop": 3385,
      "Selection": 3386,
      "nic": 3387,
      "ladies": 3388,
      "merge": 3389,
      "[];": 3390,
      "solid": 3391,
      "DEVICE": 3392,
      "audio": 3393,
      "occupy": 3394,
      "Language": 3395,
      "negotiate": 3396,
      "reactor": 3397,
      "pellet": 3398,
      "})=": 3399,
      "unconstitutional": 3400,
      "Smith": 3401,
      "cocktail": 3402,
      "discriminate": 3403,
      "growth": 3404,
      "expensive": 3405,
      "IMPLI": 3406,
      "thrust": 3407,
      "spot": 3408,
      "atience": 3409,
      "government": 3410,
      "Revenue": 3411,
      "traged": 3412,
      "(!": 3413,
      "activating": 3414,
      "dosage": 3415,
      "Analysis": 3416,
      "GPIO": 3417,
      "locale": 3418,
      "Treasury": 3419,
      "affected": 3420,
      "execution": 3421,
      "accessed": 3422,
      "LINK": 3423,
      "Poisson": 3424,
      "atically": 3425,
      "bundle": 3426,
      "directory": 3427,
      "dopamine": 3428,
      "snapshot": 3429,
      "observational": 3430,
      "International": 3431,
      "development": 3432,
      "sol": 3433,
      "established": 3434,
      "Orleans": 3435,
      "quantification": 3436,
      "managers": 3437,
      "Supporting": 3438,
      "rotor": 3439,
      "$(\"#": 3440,
      "270": 3441,
      "emphasized": 3442,
      "aperture": 3443,
      "Applied": 3444,
      "*^*": 3445,
      "truncated": 3446,
      "collapsed": 3447,
      "ubdivision": 3448,
      "transfection": 3449,
      "jackson": 3450,
      "lien": 3451,
      "potassium": 3452,
      "issue": 3453,
      "Attributes": 3454,
      "async": 3455,
      "tomography": 3456,
      "conditioning": 3457,
      "fer": 3458,
      "flows": 3459,
      "orollary": 3460,
      "ORS": 3461,
      "CLASS": 3462,
      "relapse": 3463,
      "blanket": 3464,
      "design": 3465,
      "August": 3466,
      "western": 3467,
      "tuned": 3468,
      "groove": 3469,
      "parity": 3470,
      "activist": 3471,
      "drugs": 3472,
      "tuberculosis": 3473,
      "unitary": 3474,
      "economic": 3475,
      "affair": 3476,
      "marking": 3477,
      "rotational": 3478,
      "TER": 3479,
      "Stanford": 3480,
      "Folder": 3481,
      "meric": 3482,
      "judgment": 3483,
      "TextView": 3484,
      "McDonald": 3485,
      "JOIN": 3486,
      "auditor": 3487,
      "Java": 3488,
      "builder": 3489,
      "median": 3490,
      "eternal": 3491,
      "fixes": 3492,
      "Car": 3493,
      "SRC": 3494,
      "NP": 3495,
      "laying": 3496,
      "149": 3497,
      "eum": 3498,
      "aortic": 3499,
      "activation": 3500,
      "preservation": 3501,
      "Dakota": 3502,
      "woke": 3503,
      "1972": 3504,
      "constraint": 3505,
      "cute": 3506,
      "relativistic": 3507,
      "Bitmap": 3508,
      "Samuel": 3509,
      "leukemia": 3510,
      "Arkansas": 3511,
      "caption": 3512,
      "containers": 3513,
      "homeless": 3514,
      "lanes": 3515,
      "believing": 3516,
      "MT": 3517,
      "symbol": 3518,
      "destroy": 3519,
      "athletic": 3520,
      "django": 3521,
      "FUNCTION": 3522,
      "casting": 3523,
      "ı": 3524,
      "hydrophobic": 3525,
      "concede": 3526,
      "desperat": 3527,
      "Terms": 3528,
      "progress": 3529,
      "resolve": 3530,
      "Reg": 3531,
      "brave": 3532,
      "naive": 3533,
      "hospitalization": 3534,
      "flowing": 3535,
      "mushroom": 3536,
      "atom": 3537,
      "......": 3538,
      "ACTION": 3539,
      "distinctive": 3540,
      "parametric": 3541,
      "benign": 3542,
      "licensing": 3543,
      "provok": 3544,
      "worker": 3545,
      "Funding": 3546,
      "Nancy": 3547,
      "west": 3548,
      "rous": 3549,
      "differentiate": 3550,
      "aerobic": 3551,
      "cellulose": 3552,
      "spectacular": 3553,
      "curriculum": 3554,
      "}}}}": 3555,
      "IGF": 3556,
      "features": 3557,
      "Parse": 3558,
      "gent": 3559,
      "dominance": 3560,
      "slice": 3561,
      "VC": 3562,
      "375": 3563,
      "performance": 3564,
      "QCD": 3565,
      "ITS": 3566,
      "pipe": 3567,
      "fielder": 3568,
      "dancing": 3569,
      "icide": 3570,
      "clever": 3571,
      "simplest": 3572,
      "upload": 3573,
      "Account": 3574,
      "167": 3575,
      "modified": 3576,
      "fact": 3577,
      "hit": 3578,
      "FPar": 3579,
      "brand": 3580,
      "NATO": 3581,
      "clones": 3582,
      "priorities": 3583,
      "helicopter": 3584,
      "OGLE": 3585,
      "169": 3586,
      "funeral": 3587,
      "loyal": 3588,
      "tri": 3589,
      "veil": 3590,
      "thermodynamic": 3591,
      "commute": 3592,
      "Samples": 3593,
      "Dennis": 3594,
      "delay": 3595,
      "retaliat": 3596,
      "itrogen": 3597,
      "proposals": 3598,
      "Petition": 3599,
      "flux": 3600,
      "fried": 3601,
      "Updated": 3602,
      "pic": 3603,
      "fractions": 3604,
      "institute": 3605,
      "censor": 3606,
      "hosting": 3607,
      "gases": 3608,
      "burglar": 3609,
      "conformal": 3610,
      "views": 3611,
      "Wrapper": 3612,
      "bicycle": 3613,
      "NC": 3614,
      "potted": 3615,
      "UNIT": 3616,
      "cytometr": 3617,
      "flank": 3618,
      "multiplication": 3619,
      "PUBLIC": 3620,
      "anchor": 3621,
      "DAMAGE": 3622,
      "mountains": 3623,
      "Namespace": 3624,
      "keV": 3625,
      "USB": 3626,
      "\\](": 3627,
      "5000": 3628,
      "phylogenetic": 3629,
      "closed": 3630,
      "equalities": 3631,
      "comfortable": 3632,
      "Barbara": 3633,
      "recombination": 3634,
      "rails": 3635,
      "CRP": 3636,
      "critically": 3637,
      "drops": 3638,
      "November": 3639,
      "pins": 3640,
      "\\}$,": 3641,
      "Jimmy": 3642,
      "still": 3643,
      "links": 3644,
      "Enable": 3645,
      "amazon": 3646,
      "costume": 3647,
      "Due": 3648,
      ")$-": 3649,
      "Warner": 3650,
      "CPU": 3651,
      "earliest": 3652,
      "reader": 3653,
      "Limit": 3654,
      "commentary": 3655,
      "decoder": 3656,
      "Delegate": 3657,
      "averaging": 3658,
      "vicin": 3659,
      "adjuvant": 3660,
      "tory": 3661,
      "UINT": 3662,
      "Rachel": 3663,
      "'];": 3664,
      "generalization": 3665,
      "crystalline": 3666,
      "confine": 3667,
      "Facebook": 3668,
      "magination": 3669,
      "artridge": 3670,
      "Patriot": 3671,
      "ctl": 3672,
      "CON": 3673,
      "fossil": 3674,
      "ONLY": 3675,
      "ONE": 3676,
      "STATES": 3677,
      "quote": 3678,
      "Counter": 3679,
      "interrupted": 3680,
      "patrol": 3681,
      "warnings": 3682,
      "journals": 3683,
      "telescope": 3684,
      "Sony": 3685,
      "distribution": 3686,
      "tyrosine": 3687,
      "=\"../../": 3688,
      "rem": 3689,
      "quotient": 3690,
      "Something": 3691,
      "wipe": 3692,
      "illusion": 3693,
      "bones": 3694,
      "competence": 3695,
      "chip": 3696,
      "Century": 3697,
      "hostile": 3698,
      "ang": 3699,
      "glue": 3700,
      "compile": 3701,
      "Friday": 3702,
      "door": 3703,
      "naming": 3704,
      "Feature": 3705,
      "wkward": 3706,
      "cursor": 3707,
      "logging": 3708,
      "BEGIN": 3709,
      "Eventually": 3710,
      "grants": 3711,
      "ľ": 3712,
      "Emergency": 3713,
      "Women": 3714,
      "Transaction": 3715,
      "riot": 3716,
      "direct": 3717,
      "energetic": 3718,
      "taken": 3719,
      "soever": 3720,
      "cytes": 3721,
      "021": 3722,
      "winding": 3723,
      "geographic": 3724,
      "Ðµ": 3725,
      "Person": 3726,
      "Framework": 3727,
      "manifolds": 3728,
      "dvocacy": 3729,
      "Similar": 3730,
      "branch": 3731,
      "CTRL": 3732,
      "lysate": 3733,
      "initial": 3734,
      "Kyle": 3735,
      "mar": 3736,
      "glutamate": 3737,
      "payment": 3738,
      "malignanc": 3739,
      "perform": 3740,
      "hydraulic": 3741,
      ">()": 3742,
      "206": 3743,
      "conclusive": 3744,
      "psilon": 3745,
      "holder": 3746,
      "Small": 3747,
      "relative": 3748,
      "similar": 3749,
      "ustained": 3750,
      "Mueller": 3751,
      "ranks": 3752,
      "lbow": 3753,
      "union": 3754,
      "dividend": 3755,
      "climbing": 3756,
      "polymerization": 3757,
      "manipulate": 3758,
      "loader": 3759,
      "transition": 3760,
      "magical": 3761,
      "displaying": 3762,
      "MW": 3763,
      "identified": 3764,
      "eligibility": 3765,
      "Ext": 3766,
      "impur": 3767,
      "within": 3768,
      "bombing": 3769,
      "philosophical": 3770,
      "rushing": 3771,
      "BASI": 3772,
      "revolutionary": 3773,
      "plotte": 3774,
      "<<": 3775,
      "parasite": 3776,
      "ionization": 3777,
      "NR": 3778,
      "radiotherapy": 3779,
      "implantation": 3780,
      "ADD": 3781,
      "cleaned": 3782,
      "hollow": 3783,
      "Generator": 3784,
      "lighter": 3785,
      "retreat": 3786,
      "archive": 3787,
      "vaginal": 3788,
      "orgeous": 3789,
      "rocks": 3790,
      "continue": 3791,
      "alert": 3792,
      "178": 3793,
      "Bigg": 3794,
      "discourse": 3795,
      "Selector": 3796,
      "HD": 3797,
      "har": 3798,
      "#####": 3799,
      "infarction": 3800,
      "Previous": 3801,
      "molar": 3802,
      "invisible": 3803,
      "}}[": 3804,
      "Jefferson": 3805,
      "Loader": 3806,
      "Through": 3807,
      "slot": 3808,
      "eight": 3809,
      "Role": 3810,
      "pleen": 3811,
      "rope": 3812,
      "requisite": 3813,
      "Memory": 3814,
      "Cast": 3815,
      "wax": 3816,
      "189": 3817,
      "loads": 3818,
      "*),": 3819,
      "explode": 3820,
      "mix": 3821,
      "Thomas": 3822,
      "grading": 3823,
      "gray": 3824,
      ":@\"": 3825,
      "actions": 3826,
      "disk": 3827,
      "entail": 3828,
      "184": 3829,
      "tablespoons": 3830,
      "arthquake": 3831,
      "invalid": 3832,
      "166": 3833,
      "tron": 3834,
      "pharmacological": 3835,
      "ylum": 3836,
      "Madrid": 3837,
      "Hint": 3838,
      "Detective": 3839,
      "immens": 3840,
      "purification": 3841,
      "Manhattan": 3842,
      "Junior": 3843,
      "Cursor": 3844,
      "Margaret": 3845,
      "tubular": 3846,
      "FIELD": 3847,
      "Creating": 3848,
      "sets": 3849,
      "Family": 3850,
      "Uri": 3851,
      "Signature": 3852,
      "Rate": 3853,
      "restraint": 3854,
      "protests": 3855,
      "Denmark": 3856,
      "Holland": 3857,
      "Recent": 3858,
      "getting": 3859,
      "permeability": 3860,
      "tariff": 3861,
      "sville": 3862,
      "science": 3863,
      "utilities": 3864,
      "jective": 3865,
      "dicative": 3866,
      "&&\\": 3867,
      "vanishing": 3868,
      "209": 3869,
      "haven": 3870,
      "innings": 3871,
      "valuation": 3872,
      "EX": 3873,
      "George": 3874,
      "keep": 3875,
      "vertical": 3876,
      "grains": 3877,
      "estimator": 3878,
      "Sequence": 3879,
      "grep": 3880,
      "Weight": 3881,
      "els": 3882,
      "methanol": 3883,
      "[****": 3884,
      "dec": 3885,
      "Third": 3886,
      "inspire": 3887,
      "Nuclear": 3888,
      "historian": 3889,
      "Planning": 3890,
      "codon": 3891,
      "WE": 3892,
      "Kit": 3893,
      "CLAIM": 3894,
      "assign": 3895,
      "adsorption": 3896,
      "skin": 3897,
      "cliff": 3898,
      "visualize": 3899,
      "RETURN": 3900,
      "WIN": 3901,
      "validation": 3902,
      "charge": 3903,
      "integrating": 3904,
      "creativity": 3905,
      "autonomous": 3906,
      "lense": 3907,
      "veterans": 3908,
      "Place": 3909,
      "cleaner": 3910,
      "hoped": 3911,
      "\\^[": 3912,
      "onnie": 3913,
      "validate": 3914,
      "Cluster": 3915,
      "patch": 3916,
      "interfaces": 3917,
      "provider": 3918,
      "corroborat": 3919,
      "graphics": 3920,
      "tennis": 3921,
      "timestamp": 3922,
      "MIN": 3923,
      "Everything": 3924,
      "windows": 3925,
      "glass": 3926,
      "ealous": 3927,
      "Conflict": 3928,
      "ography": 3929,
      "metres": 3930,
      "ALJ": 3931,
      "environment": 3932,
      "Zero": 3933,
      "Controls": 3934,
      "transporter": 3935,
      "sley": 3936,
      "touch": 3937,
      "Reagan": 3938,
      "repetition": 3939,
      "credited": 3940,
      "Argentina": 3941,
      "cancellation": 3942,
      "SOURCE": 3943,
      "MAC": 3944,
      "appendix": 3945,
      "above": 3946,
      "transfer": 3947,
      "GM": 3948,
      "certainty": 3949,
      "casino": 3950,
      "incorporation": 3951,
      "linger": 3952,
      "designation": 3953,
      "Pearson": 3954,
      "lance": 3955,
      "tourism": 3956,
      "zones": 3957,
      "Tuesday": 3958,
      "thrill": 3959,
      "constants": 3960,
      "OPT": 3961,
      "\\*\\*": 3962,
      "Lagrangian": 3963,
      "exhibition": 3964,
      "ppreciation": 3965,
      "lly": 3966,
      "guard": 3967,
      "hilst": 3968,
      "stroke": 3969,
      "Speed": 3970,
      "helper": 3971,
      "203": 3972,
      "Research": 3973,
      "CALL": 3974,
      "midnight": 3975,
      "mathematics": 3976,
      "PI": 3977,
      "Protocol": 3978,
      "conditioned": 3979,
      "probes": 3980,
      "Site": 3981,
      "rules": 3982,
      "ozen": 3983,
      "Brown": 3984,
      "Dictionary": 3985,
      "calendar": 3986,
      "terrifi": 3987,
      "},{\\": 3988,
      "linearly": 3989,
      "WORD": 3990,
      "gluten": 3991,
      "tolerate": 3992,
      "incredibl": 3993,
      "loaded": 3994,
      "penetration": 3995,
      "Taliban": 3996,
      "clay": 3997,
      "esophageal": 3998,
      "WAY": 3999,
      "functional": 4000,
      "company": 4001,
      "vulnerability": 4002,
      "estimating": 4003,
      "covariance": 4004,
      "^{(\\": 4005,
      "Tags": 4006,
      "hereafter": 4007,
      "ample": 4008,
      "agreement": 4009,
      "yarn": 4010,
      "xxx": 4011,
      "Advertisement": 4012,
      "ampton": 4013,
      "SL": 4014,
      "Social": 4015,
      "245": 4016,
      "lite": 4017,
      "GW": 4018,
      "164": 4019,
      "Donald": 4020,
      "amide": 4021,
      "freezing": 4022,
      "spheres": 4023,
      "need": 4024,
      "Bangladesh": 4025,
      "Identity": 4026,
      "mul": 4027,
      "Belgium": 4028,
      ")},": 4029,
      "Contents": 4030,
      "Rhode": 4031,
      "CVD": 4032,
      "RC": 4033,
      "fake": 4034,
      "Mesh": 4035,
      "Interval": 4036,
      "sediment": 4037,
      "Hughes": 4038,
      "periods": 4039,
      "SUCCESS": 4040,
      "ques": 4041,
      "motor": 4042,
      "executable": 4043,
      "unlock": 4044,
      "mismatch": 4045,
      "ourtesy": 4046,
      "Render": 4047,
      "malloc": 4048,
      "circuits": 4049,
      "compassion": 4050,
      "dentist": 4051,
      "pesticide": 4052,
      "Sunday": 4053,
      "cranial": 4054,
      "backslash": 4055,
      "eonatal": 4056,
      "Butler": 4057,
      "blessed": 4058,
      "rick": 4059,
      "movable": 4060,
      "hinder": 4061,
      "sheriff": 4062,
      "Abraham": 4063,
      "FN": 4064,
      "coordinated": 4065,
      "NONE": 4066,
      "deteriorat": 4067,
      "Hudson": 4068,
      "Axis": 4069,
      "lender": 4070,
      "indexes": 4071,
      "kinetics": 4072,
      "illumination": 4073,
      "estimony": 4074,
      "rpc": 4075,
      "altitude": 4076,
      "lung": 4077,
      "mucosa": 4078,
      "ctant": 4079,
      "landmark": 4080,
      "thin": 4081,
      "loading": 4082,
      "038": 4083,
      "666": 4084,
      "streams": 4085,
      "miracle": 4086,
      "Water": 4087,
      "warfar": 4088,
      "hyperbolic": 4089,
      "Consistent": 4090,
      "tweeted": 4091,
      "lodge": 4092,
      "fulfilled": 4093,
      "avier": 4094,
      "shapes": 4095,
      "activator": 4096,
      "Garcia": 4097,
      "Agriculture": 4098,
      "built": 4099,
      "Packet": 4100,
      "mitant": 4101,
      "generator": 4102,
      "configurations": 4103,
      "investments": 4104,
      "Mod": 4105,
      "Written": 4106,
      "histone": 4107,
      "Bernie": 4108,
      "Models": 4109,
      "enrollment": 4110,
      "stdout": 4111,
      "positioning": 4112,
      "Setting": 4113,
      "servlet": 4114,
      "/((": 4115,
      "Taken": 4116,
      "aemia": 4117,
      "isclaimer": 4118,
      "cylindrical": 4119,
      "redundant": 4120,
      "trigger": 4121,
      "auxiliary": 4122,
      "combusti": 4123,
      "unlimited": 4124,
      "villain": 4125,
      "atmospheric": 4126,
      "Proceeding": 4127,
      "below": 4128,
      "logy": 4129,
      "Daniel": 4130,
      "torsion": 4131,
      "staging": 4132,
      "discriminatory": 4133,
      "macro": 4134,
      "practice": 4135,
      "aspx": 4136,
      "hinge": 4137,
      "aggression": 4138,
      "shipped": 4139,
      "Draw": 4140,
      "blogs": 4141,
      "onfinement": 4142,
      "Notice": 4143,
      "Bool": 4144,
      "Design": 4145,
      "550": 4146,
      "compiler": 4147,
      "CN": 4148,
      "chase": 4149,
      "GCC": 4150,
      "winners": 4151,
      "nomine": 4152,
      "Peterson": 4153,
      "samples": 4154,
      "ators": 4155,
      "tragic": 4156,
      "drawable": 4157,
      "420": 4158,
      "gifts": 4159,
      "major": 4160,
      "William": 4161,
      "signed": 4162,
      "species": 4163,
      "Driver": 4164,
      "EXPORT": 4165,
      "members": 4166,
      "initialized": 4167,
      "Supplemental": 4168,
      "protobuf": 4169,
      "viewpoint": 4170,
      "adjoint": 4171,
      "Whit": 4172,
      "sufficiency": 4173,
      "currencies": 4174,
      "potential": 4175,
      "drive": 4176,
      "Orlando": 4177,
      "widow": 4178,
      "exchange": 4179,
      "gpu": 4180,
      "Extra": 4181,
      "perpetrat": 4182,
      "hunger": 4183,
      "Orthodox": 4184,
      "330": 4185,
      "projects": 4186,
      "feasibility": 4187,
      "sensor": 4188,
      "confound": 4189,
      "Detail": 4190,
      "identity": 4191,
      "functor": 4192,
      "squares": 4193,
      "stderr": 4194,
      "centrifuge": 4195,
      "terms": 4196,
      "Marcus": 4197,
      "Bottom": 4198,
      "recreational": 4199,
      "pedestrian": 4200,
      "768": 4201,
      "Mike": 4202,
      "empire": 4203,
      "Princess": 4204,
      "XY": 4205,
      "NaC": 4206,
      "Tom": 4207,
      "}),": 4208,
      "LANG": 4209,
      "ixty": 4210,
      "Success": 4211,
      "PHP": 4212,
      "ranged": 4213,
      "effector": 4214,
      "fame": 4215,
      "026": 4216,
      "demo": 4217,
      "acceptable": 4218,
      "scheduling": 4219,
      "formant": 4220,
      "GABA": 4221,
      "lightly": 4222,
      "epithelium": 4223,
      "socialist": 4224,
      "community": 4225,
      "populated": 4226,
      "odgers": 4227,
      "plate": 4228,
      "Usage": 4229,
      "KK": 4230,
      "locks": 4231,
      "keywords": 4232,
      "Prefix": 4233,
      "Login": 4234,
      "Martinez": 4235,
      "Kerry": 4236,
      "deprivation": 4237,
      "signature": 4238,
      "profiling": 4239,
      "HOST": 4240,
      "elem": 4241,
      "neighbourhood": 4242,
      "Holder": 4243,
      "confrontation": 4244,
      "NY": 4245,
      "NUMBER": 4246,
      "breaks": 4247,
      "missing": 4248,
      "durable": 4249,
      "antigens": 4250,
      "pixel": 4251,
      "024": 4252,
      "phenotypic": 4253,
      "Rodriguez": 4254,
      "DLL": 4255,
      "central": 4256,
      "planted": 4257,
      "sentences": 4258,
      "always": 4259,
      "*(*": 4260,
      "gems": 4261,
      "phases": 4262,
      "Cross": 4263,
      "fridge": 4264,
      "027": 4265,
      "thermal": 4266,
      "phenyl": 4267,
      "flora": 4268,
      "love": 4269,
      "hills": 4270,
      "Condition": 4271,
      "aspiration": 4272,
      "burst": 4273,
      "composer": 4274,
      "aten": 4275,
      "Edwards": 4276,
      "tangible": 4277,
      "cas": 4278,
      "arithmetic": 4279,
      "wikipedi": 4280,
      "Static": 4281,
      "Dim": 4282,
      "somal": 4283,
      "spinning": 4284,
      "cues": 4285,
      "impulse": 4286,
      "stresses": 4287,
      "Wallace": 4288,
      "casing": 4289,
      "RELEASE": 4290,
      "schematic": 4291,
      "Czech": 4292,
      "landlord": 4293,
      "bred": 4294,
      "meeting": 4295,
      "conscience": 4296,
      "Patients": 4297,
      "Vec": 4298,
      "lashes": 4299,
      "breathe": 4300,
      "athlete": 4301,
      "Washington": 4302,
      "genital": 4303,
      "staple": 4304,
      "Review": 4305,
      "invoked": 4306,
      "resize": 4307,
      "official": 4308,
      "Euler": 4309,
      "touches": 4310,
      "616": 4311,
      "Western": 4312,
      "discourag": 4313,
      "unfold": 4314,
      "cytoplasm": 4315,
      "Essential": 4316,
      "DWORD": 4317,
      "writes": 4318,
      "great": 4319,
      "foreclosure": 4320,
      "moto": 4321,
      "contractual": 4322,
      "equation": 4323,
      "convolution": 4324,
      "\\!\\": 4325,
      "living": 4326,
      "optimal": 4327,
      "vortex": 4328,
      "chemic": 4329,
      "alley": 4330,
      "autoimmun": 4331,
      "Powell": 4332,
      "therapist": 4333,
      "critique": 4334,
      "mph": 4335,
      "Prize": 4336,
      "AUTHOR": 4337,
      "planets": 4338,
      "gains": 4339,
      "shaping": 4340,
      "Visible": 4341,
      "Finding": 4342,
      "descriptive": 4343,
      "rgba": 4344,
      "Bit": 4345,
      "029": 4346,
      "projections": 4347,
      "Lucas": 4348,
      "trim": 4349,
      "continuous": 4350,
      "osomes": 4351,
      "unilateral": 4352,
      "ambassador": 4353,
      "Bennett": 4354,
      "Lloyd": 4355,
      "grant": 4356,
      "scent": 4357,
      "vendor": 4358,
      "bzr": 4359,
      "chrome": 4360,
      "annotated": 4361,
      "gcolor": 4362,
      "until": 4363,
      "Off": 4364,
      "reserves": 4365,
      "examples": 4366,
      "every": 4367,
      "krainian": 4368,
      "marketplace": 4369,
      "phosphatase": 4370,
      "STAT": 4371,
      "precipitation": 4372,
      "Insert": 4373,
      "animals": 4374,
      "PTS": 4375,
      "platin": 4376,
      "phosphorylated": 4377,
      "Saturday": 4378,
      "selectivity": 4379,
      "implie": 4380,
      "}{(": 4381,
      "ances": 4382,
      "bully": 4383,
      "Struct": 4384,
      "snap": 4385,
      "cured": 4386,
      "Disclosure": 4387,
      "jumping": 4388,
      "sensible": 4389,
      "ippocampus": 4390,
      "dorsal": 4391,
      "PTR": 4392,
      "united": 4393,
      "medium": 4394,
      "piston": 4395,
      "pending": 4396,
      "scaffold": 4397,
      "lately": 4398,
      "DEV": 4399,
      "authorized": 4400,
      "Future": 4401,
      "Baptist": 4402,
      "weather": 4403,
      "Depression": 4404,
      "Term": 4405,
      "lithium": 4406,
      "synchronization": 4407,
      "configure": 4408,
      "tent": 4409,
      "Montgomery": 4410,
      "logo": 4411,
      "756": 4412,
      "Created": 4413,
      "Props": 4414,
      "Commander": 4415,
      "Identification": 4416,
      "anatomical": 4417,
      "Execute": 4418,
      "indications": 4419,
      "adic": 4420,
      "Scott": 4421,
      "again": 4422,
      "Mediterranean": 4423,
      "INDEX": 4424,
      "tribal": 4425,
      "\"}**": 4426,
      "electrophoresis": 4427,
      "Billy": 4428,
      "completeness": 4429,
      "gradient": 4430,
      "captiv": 4431,
      "Spencer": 4432,
      "Galactic": 4433,
      "sentence": 4434,
      "}</": 4435,
      "Primary": 4436,
      "threshold": 4437,
      "Cannot": 4438,
      "maturity": 4439,
      "jeopard": 4440,
      "Anti": 4441,
      "Score": 4442,
      "cite": 4443,
      "moving": 4444,
      "reflective": 4445,
      "GEN": 4446,
      "621": 4447,
      "OPIN": 4448,
      "former": 4449,
      "verbose": 4450,
      "WARN": 4451,
      "arc": 4452,
      "slam": 4453,
      "cosmetic": 4454,
      "never": 4455,
      "genius": 4456,
      "determined": 4457,
      "tainless": 4458,
      "parents": 4459,
      "cytotoxic": 4460,
      "polite": 4461,
      "dude": 4462,
      "Income": 4463,
      "sexual": 4464,
      "ewer": 4465,
      "215": 4466,
      "236": 4467,
      "Years": 4468,
      "Bradley": 4469,
      "outlook": 4470,
      "implication": 4471,
      "docker": 4472,
      "directories": 4473,
      "abrupt": 4474,
      "colonial": 4475,
      "determinant": 4476,
      "tbody": 4477,
      "308": 4478,
      "Sports": 4479,
      "Archives": 4480,
      "Office": 4481,
      "infiltration": 4482,
      "Desc": 4483,
      "resonant": 4484,
      "castle": 4485,
      "brook": 4486,
      "ordered": 4487,
      "kill": 4488,
      "Reynolds": 4489,
      "à": 4490,
      "Claims": 4491,
      "\"\";": 4492,
      "organizational": 4493,
      "snippet": 4494,
      "conductance": 4495,
      "lipped": 4496,
      "wardly": 4497,
      "interval": 4498,
      "unknown": 4499,
      "arotid": 4500,
      "caring": 4501,
      "specified": 4502,
      "033": 4503,
      "Think": 4504,
      "guides": 4505,
      "Television": 4506,
      "cautious": 4507,
      "RFC": 4508,
      "cold": 4509,
      "robots": 4510,
      "heading": 4511,
      "moz": 4512,
      "soda": 4513,
      "blocks": 4514,
      "BUILD": 4515,
      "Original": 4516,
      "reliev": 4517,
      "supp": 4518,
      "plastic": 4519,
      "little": 4520,
      "()]": 4521,
      "wrestl": 4522,
      "elephant": 4523,
      "Elliot": 4524,
      "leaning": 4525,
      "licate": 4526,
      "yellow": 4527,
      "lague": 4528,
      "parish": 4529,
      "translate": 4530,
      "Ann": 4531,
      "InputStream": 4532,
      "Nathan": 4533,
      "ceased": 4534,
      "Sister": 4535,
      "Obama": 4536,
      "anticipate": 4537,
      "humble": 4538,
      "atrial": 4539,
      "flush": 4540,
      "behaviors": 4541,
      "ET": 4542,
      "Multiple": 4543,
      "Richard": 4544,
      "Random": 4545,
      "trader": 4546,
      "Environment": 4547,
      "constructor": 4548,
      "Chase": 4549,
      "COUNT": 4550,
      "Volume": 4551,
      "229": 4552,
      "0025": 4553,
      "Ohio": 4554,
      "Tools": 4555,
      "sectors": 4556,
      "engines": 4557,
      "EU": 4558,
      "Portugal": 4559,
      "surfactant": 4560,
      "GG": 4561,
      "aneurysm": 4562,
      "dropdown": 4563,
      "Wrap": 4564,
      "anime": 4565,
      "semester": 4566,
      "steroid": 4567,
      "shop": 4568,
      "MESSAGE": 4569,
      "Male": 4570,
      "boiling": 4571,
      "QString": 4572,
      "scala": 4573,
      "trade": 4574,
      "Johnny": 4575,
      "races": 4576,
      "national": 4577,
      "tattoo": 4578,
      "Solution": 4579,
      "Face": 4580,
      "translocation": 4581,
      "Lorentz": 4582,
      "evaporat": 4583,
      "hypertensive": 4584,
      "DIS": 4585,
      "rooted": 4586,
      "á»": 4587,
      "verify": 4588,
      "bond": 4589,
      "getValue": 4590,
      "restricted": 4591,
      "Congressional": 4592,
      "=\"../../../": 4593,
      "cooled": 4594,
      "========": 4595,
      "graphical": 4596,
      "unsaturated": 4597,
      "/><": 4598,
      "enthusias": 4599,
      "geodesic": 4600,
      "dehydrogenase": 4601,
      "ique": 4602,
      "arson": 4603,
      "smiling": 4604,
      "Management": 4605,
      "ported": 4606,
      "matter": 4607,
      "Five": 4608,
      "Serum": 4609,
      "Res": 4610,
      "agonist": 4611,
      "squared": 4612,
      "lash": 4613,
      "proliferative": 4614,
      "east": 4615,
      "Focus": 4616,
      "zyg": 4617,
      "vertebrate": 4618,
      "qualification": 4619,
      "notify": 4620,
      "Concern": 4621,
      "chen": 4622,
      "thigh": 4623,
      "Parkinson": 4624,
      "exaggerat": 4625,
      "ame": 4626,
      "transduction": 4627,
      "forbidden": 4628,
      "scroll": 4629,
      "ecedent": 4630,
      "fence": 4631,
      "saddle": 4632,
      "TestCase": 4633,
      "palace": 4634,
      "marker": 4635,
      "lipoprotein": 4636,
      "FORMAT": 4637,
      "curb": 4638,
      "deterministic": 4639,
      "})_{": 4640,
      "Columns": 4641,
      "Arsenal": 4642,
      "jets": 4643,
      "riders": 4644,
      "Cost": 4645,
      "Canvas": 4646,
      "zebr": 4647,
      "HOME": 4648,
      "Trigger": 4649,
      "hrive": 4650,
      "Gene": 4651,
      "ECT": 4652,
      "Fixed": 4653,
      "capillary": 4654,
      "Township": 4655,
      "thick": 4656,
      "Customer": 4657,
      "ocioeconomic": 4658,
      "Anchor": 4659,
      "camera": 4660,
      "prematur": 4661,
      "AST": 4662,
      "RUN": 4663,
      "privileged": 4664,
      "Loading": 4665,
      "stakeholders": 4666,
      "Compile": 4667,
      "HS": 4668,
      "Quick": 4669,
      "OBJECT": 4670,
      "dead": 4671,
      "Fire": 4672,
      "inode": 4673,
      "Bill": 4674,
      "habitant": 4675,
      "cushion": 4676,
      "messaging": 4677,
      "cancel": 4678,
      "Outside": 4679,
      "photography": 4680,
      "veterinar": 4681,
      "Arabic": 4682,
      "GA": 4683,
      "Available": 4684,
      "Deprecated": 4685,
      "vis": 4686,
      "LEN": 4687,
      "pure": 4688,
      "apolis": 4689,
      "pol": 4690,
      "rotated": 4691,
      "acquaint": 4692,
      "043": 4693,
      "forums": 4694,
      "asek": 4695,
      "estrogen": 4696,
      "memorial": 4697,
      "stable": 4698,
      "rip": 4699,
      "sanity": 4700,
      "synapse": 4701,
      "Argument": 4702,
      "tailed": 4703,
      "steadi": 4704,
      "override": 4705,
      "immers": 4706,
      "\"];": 4707,
      "gcc": 4708,
      "lactat": 4709,
      "epi": 4710,
      "Mass": 4711,
      "Anything": 4712,
      "healthy": 4713,
      "Constant": 4714,
      "orwegian": 4715,
      "suits": 4716,
      "symmetries": 4717,
      "Richardson": 4718,
      "blood": 4719,
      "Maxwell": 4720,
      "endoscopic": 4721,
      "Complete": 4722,
      "PLC": 4723,
      "Span": 4724,
      "cornea": 4725,
      "almost": 4726,
      "NODE": 4727,
      "programmed": 4728,
      "dawn": 4729,
      "Live": 4730,
      "sexuality": 4731,
      "Food": 4732,
      "Bailey": 4733,
      "Arnold": 4734,
      "problem": 4735,
      "phage": 4736,
      "bed": 4737,
      "British": 4738,
      "exploitation": 4739,
      "absolute": 4740,
      "Brandon": 4741,
      "gold": 4742,
      "soften": 4743,
      "stenosis": 4744,
      "liness": 4745,
      "Companies": 4746,
      "NOTICE": 4747,
      "mediate": 4748,
      "inherit": 4749,
      "Cancel": 4750,
      "itigation": 4751,
      "compensated": 4752,
      "shirts": 4753,
      "curl": 4754,
      "tweak": 4755,
      "tracing": 4756,
      "whale": 4757,
      "]]>": 4758,
      "rectangular": 4759,
      "gpio": 4760,
      "iconic": 4761,
      "iterations": 4762,
      "Jack": 4763,
      "Agent": 4764,
      "uterine": 4765,
      "(+)": 4766,
      "],\\": 4767,
      "generates": 4768,
      "Thermo": 4769,
      "coagulation": 4770,
      "Processor": 4771,
      "kinematic": 4772,
      "grammar": 4773,
      "Caribbean": 4774,
      "ATTR": 4775,
      "friend": 4776,
      "semi": 4777,
      "alleles": 4778,
      "supermarket": 4779,
      "mbulance": 4780,
      "testif": 4781,
      "fff": 4782,
      "lepton": 4783,
      "DCs": 4784,
      "ijn": 4785,
      "Diabetes": 4786,
      "239": 4787,
      "^{+": 4788,
      "servants": 4789,
      "laundr": 4790,
      "nasty": 4791,
      "seconds": 4792,
      "tuition": 4793,
      "communist": 4794,
      "Plot": 4795,
      "nickname": 4796,
      "Loop": 4797,
      "FLOAT": 4798,
      "Intent": 4799,
      "focused": 4800,
      "telomer": 4801,
      "YOU": 4802,
      "newer": 4803,
      "Frank": 4804,
      "angiogenesis": 4805,
      "Nix": 4806,
      "Median": 4807,
      "Kaplan": 4808,
      "Alpha": 4809,
      "allied": 4810,
      "cumbent": 4811,
      "seven": 4812,
      "Somali": 4813,
      "apped": 4814,
      "shipment": 4815,
      "Nodes": 4816,
      "lam": 4817,
      "EventArgs": 4818,
      "Micro": 4819,
      "bees": 4820,
      "tweets": 4821,
      "bid": 4822,
      "phonon": 4823,
      "Cmd": 4824,
      "Lopez": 4825,
      "STRICT": 4826,
      "ablation": 4827,
      "ENCE": 4828,
      "Sierra": 4829,
      "titer": 4830,
      "ACS": 4831,
      "capture": 4832,
      "chapter": 4833,
      "ichmond": 4834,
      "cognition": 4835,
      "0009": 4836,
      "VIII": 4837,
      "Griffin": 4838,
      "medical": 4839,
      "collect": 4840,
      "ishes": 4841,
      "potency": 4842,
      "ADDR": 4843,
      "synchronized": 4844,
      "quench": 4845,
      "Holmes": 4846,
      "directional": 4847,
      "Diff": 4848,
      "}}=\\": 4849,
      "Judicia": 4850,
      "money": 4851,
      "substring": 4852,
      "Citation": 4853,
      "NSCLC": 4854,
      "INTRODUCTION": 4855,
      "PROVIDE": 4856,
      "maneuver": 4857,
      "Athletic": 4858,
      "finding": 4859,
      "puts": 4860,
      "amyloid": 4861,
      "perturbative": 4862,
      "}}^\\": 4863,
      "polling": 4864,
      "stabb": 4865,
      "Station": 4866,
      "Decide": 4867,
      "Previously": 4868,
      "ICE": 4869,
      "Birmingham": 4870,
      "cyclist": 4871,
      "descendant": 4872,
      "Bank": 4873,
      "Conn": 4874,
      "Duncan": 4875,
      "ASF": 4876,
      "unsuccessful": 4877,
      "Ala": 4878,
      "sustainability": 4879,
      "rVert": 4880,
      "scout": 4881,
      "Eagles": 4882,
      "agnification": 4883,
      "compact": 4884,
      "Delay": 4885,
      "disciple": 4886,
      "dependently": 4887,
      "960": 4888,
      "Border": 4889,
      "Running": 4890,
      "router": 4891,
      "harness": 4892,
      "alton": 4893,
      "ewelry": 4894,
      "enforced": 4895,
      "Barnes": 4896,
      "tones": 4897,
      "hawks": 4898,
      "constructing": 4899,
      "multiplier": 4900,
      "Obvious": 4901,
      "mutated": 4902,
      "/></": 4903,
      "binder": 4904,
      "phrase": 4905,
      "ncRNA": 4906,
      "eva": 4907,
      "pecialty": 4908,
      "Brooks": 4909,
      "Authentication": 4910,
      "Israel": 4911,
      "SEL": 4912,
      "broadband": 4913,
      "cision": 4914,
      "Standards": 4915,
      "clip": 4916,
      "accomplishment": 4917,
      "686": 4918,
      "elastic": 4919,
      "eficiencies": 4920,
      "pharmacy": 4921,
      "Fatal": 4922,
      "serine": 4923,
      "East": 4924,
      "Portuguese": 4925,
      "logarithmic": 4926,
      "alone": 4927,
      "customer": 4928,
      "brackets": 4929,
      "Scientist": 4930,
      "quarters": 4931,
      "CAM": 4932,
      "1103": 4933,
      "rgb": 4934,
      "collapse": 4935,
      "tics": 4936,
      "inverted": 4937,
      "390": 4938,
      "HIF": 4939,
      "methods": 4940,
      "fidelity": 4941,
      "blun": 4942,
      "organization": 4943,
      "judgement": 4944,
      "304": 4945,
      "atisfies": 4946,
      "catalyze": 4947,
      "THING": 4948,
      "mother": 4949,
      "degrade": 4950,
      "Regulation": 4951,
      "MPs": 4952,
      "slang": 4953,
      "sepsis": 4954,
      "Gold": 4955,
      "iterative": 4956,
      "alternating": 4957,
      "Drosophil": 4958,
      "Christian": 4959,
      "Russian": 4960,
      "ixteen": 4961,
      "permission": 4962,
      "centrifugation": 4963,
      "repression": 4964,
      "pillow": 4965,
      "286": 4966,
      "future": 4967,
      "fermentation": 4968,
      "Farmer": 4969,
      "Segment": 4970,
      "Representatives": 4971,
      "precaution": 4972,
      "allergy": 4973,
      "Initiative": 4974,
      "summation": 4975,
      "Metropolitan": 4976,
      "vote": 4977,
      "760": 4978,
      "modulator": 4979,
      "ROI": 4980,
      "tiffness": 4981,
      "attress": 4982,
      "Clinical": 4983,
      "marked": 4984,
      "sale": 4985,
      "lat": 4986,
      "eradicat": 4987,
      "]['": 4988,
      "irradiat": 4989,
      "ļ": 4990,
      "Animals": 4991,
      "abelian": 4992,
      "Gilbert": 4993,
      "capacity": 4994,
      "dissipat": 4995,
      "horn": 4996,
      "proj": 4997,
      "TW": 4998,
      "unlight": 4999,
      "Milwaukee": 5000,
      "percent": 5001,
      "contract": 5002,
      "Subscribe": 5003,
      "Remote": 5004,
      "Everybody": 5005,
      "emetery": 5006,
      "distributor": 5007,
      "Pursu": 5008,
      "325": 5009,
      "triangular": 5010,
      "penis": 5011,
      "cysteine": 5012,
      "technology": 5013,
      "aker": 5014,
      "steroids": 5015,
      "Switch": 5016,
      "revenge": 5017,
      "desktop": 5018,
      "RPM": 5019,
      "pacing": 5020,
      "SHALL": 5021,
      "DEFINE": 5022,
      "Annotation": 5023,
      "locked": 5024,
      ")^\\": 5025,
      "277": 5026,
      "interchange": 5027,
      "shuttle": 5028,
      "compressor": 5029,
      "reading": 5030,
      "iking": 5031,
      "cops": 5032,
      "Shift": 5033,
      "finder": 5034,
      "MLB": 5035,
      "dded": 5036,
      "laughter": 5037,
      "})=\\": 5038,
      "hex": 5039,
      "ergeant": 5040,
      "INIT": 5041,
      "delegation": 5042,
      "pencil": 5043,
      "MUST": 5044,
      "(\"/": 5045,
      "pockets": 5046,
      "Partnership": 5047,
      "wheel": 5048,
      "correct": 5049,
      "rinse": 5050,
      "ppraisal": 5051,
      "holomorphic": 5052,
      "Linux": 5053,
      "milestone": 5054,
      "interpreting": 5055,
      "tRNA": 5056,
      "requires": 5057,
      "Nicholas": 5058,
      "heads": 5059,
      "segmentation": 5060,
      "cyclin": 5061,
      "lack": 5062,
      "('/": 5063,
      "junctions": 5064,
      "braid": 5065,
      "DOT": 5066,
      "}\",": 5067,
      "decorated": 5068,
      "sonic": 5069,
      "slit": 5070,
      "Components": 5071,
      "Frederick": 5072,
      "commodity": 5073,
      "carce": 5074,
      "ered": 5075,
      "ruler": 5076,
      "Ethiopia": 5077,
      "issolution": 5078,
      "DataSource": 5079,
      "epressive": 5080,
      "credit": 5081,
      "messenger": 5082,
      "backer": 5083,
      "lied": 5084,
      "septic": 5085,
      "REQUEST": 5086,
      "reverse": 5087,
      "inoculat": 5088,
      "637": 5089,
      "adjustments": 5090,
      "lending": 5091,
      "Twitter": 5092,
      "hemisphere": 5093,
      "Registry": 5094,
      "transforming": 5095,
      "LA": 5096,
      "contingent": 5097,
      "Connect": 5098,
      "UTR": 5099,
      "Ralph": 5100,
      "psychotic": 5101,
      "ading": 5102,
      "balance": 5103,
      "imposition": 5104,
      "preventive": 5105,
      "XXX": 5106,
      "}}</": 5107,
      "Company": 5108,
      "minutes": 5109,
      "passport": 5110,
      "Poly": 5111,
      "evity": 5112,
      "poses": 5113,
      "Conventional": 5114,
      "peroxide": 5115,
      "Mirand": 5116,
      "squash": 5117,
      "Alternative": 5118,
      "missions": 5119,
      "Moving": 5120,
      "tenth": 5121,
      "bride": 5122,
      "scalar": 5123,
      "hemoglobin": 5124,
      "Coming": 5125,
      "ubcutaneous": 5126,
      "dissociation": 5127,
      "\\]]{}": 5128,
      "Chain": 5129,
      "carbon": 5130,
      "ferential": 5131,
      "Genetic": 5132,
      "URE": 5133,
      "bundles": 5134,
      "ock": 5135,
      "getString": 5136,
      "mating": 5137,
      "embark": 5138,
      "CRT": 5139,
      "aren": 5140,
      "tolerant": 5141,
      "tidal": 5142,
      "planetary": 5143,
      "Sanchez": 5144,
      "errno": 5145,
      "intervene": 5146,
      "stove": 5147,
      "246": 5148,
      "akin": 5149,
      "Queensland": 5150,
      "iomarker": 5151,
      "596": 5152,
      "Quantitative": 5153,
      "hostname": 5154,
      "Track": 5155,
      "ark": 5156,
      "}}^{(": 5157,
      "DELETE": 5158,
      "302": 5159,
      "Compare": 5160,
      "duality": 5161,
      "aide": 5162,
      "PPAR": 5163,
      "resistance": 5164,
      "Planck": 5165,
      "039": 5166,
      "LENGTH": 5167,
      "filters": 5168,
      "virulence": 5169,
      "Testament": 5170,
      "structures": 5171,
      "minimum": 5172,
      "really": 5173,
      "genomes": 5174,
      "dep": 5175,
      "½": 5176,
      "holidays": 5177,
      "Split": 5178,
      "regex": 5179,
      "ivariate": 5180,
      "î": 5181,
      ":=\\": 5182,
      "pulsar": 5183,
      "Equ": 5184,
      "copyright": 5185,
      "apex": 5186,
      "ibrant": 5187,
      "throne": 5188,
      "granule": 5189,
      "481": 5190,
      "llvm": 5191,
      "hop": 5192,
      "Exp": 5193,
      "pads": 5194,
      "Tech": 5195,
      "later": 5196,
      "031": 5197,
      "Alfred": 5198,
      "Girls": 5199,
      "quartile": 5200,
      "tanks": 5201,
      "airplane": 5202,
      "termed": 5203,
      "backend": 5204,
      "NE": 5205,
      "operatively": 5206,
      "timber": 5207,
      "cultural": 5208,
      "Addr": 5209,
      "Hours": 5210,
      "Console": 5211,
      "horizontal": 5212,
      "IRQ": 5213,
      "Serbi": 5214,
      "Software": 5215,
      "FIF": 5216,
      "ERS": 5217,
      "forEach": 5218,
      "professional": 5219,
      "death": 5220,
      "Nov": 5221,
      "OUR": 5222,
      "Resident": 5223,
      "268": 5224,
      "Administrative": 5225,
      "subscribers": 5226,
      "elecommunication": 5227,
      "DSM": 5228,
      "Mice": 5229,
      "thumb": 5230,
      "dispersed": 5231,
      "\\,{\\": 5232,
      "Nepal": 5233,
      "RD": 5234,
      "magnesium": 5235,
      "salvation": 5236,
      "Unable": 5237,
      "quel": 5238,
      "transfusion": 5239,
      "States": 5240,
      "cooler": 5241,
      "thnicity": 5242,
      "ick": 5243,
      "258": 5244,
      "Dublin": 5245,
      "lowly": 5246,
      "MVC": 5247,
      "&=&\\": 5248,
      "visual": 5249,
      "texture": 5250,
      "accept": 5251,
      "subsystem": 5252,
      "pulses": 5253,
      "PASS": 5254,
      "RBC": 5255,
      "VPN": 5256,
      "CCL": 5257,
      "sharing": 5258,
      "gods": 5259,
      "psies": 5260,
      "635": 5261,
      "dimension": 5262,
      "celebrity": 5263,
      "structured": 5264,
      "mixed": 5265,
      "Official": 5266,
      "spark": 5267,
      "torus": 5268,
      "School": 5269,
      "eccentric": 5270,
      "PhysRev": 5271,
      "illa": 5272,
      "460": 5273,
      "Src": 5274,
      "jest": 5275,
      "supported": 5276,
      "]],": 5277,
      "Manning": 5278,
      "encoded": 5279,
      "Replace": 5280,
      "harmony": 5281,
      "Notch": 5282,
      "intuition": 5283,
      "graduates": 5284,
      "aiming": 5285,
      "PF": 5286,
      "lapped": 5287,
      "Mart": 5288,
      "ubmitting": 5289,
      "helix": 5290,
      "positivity": 5291,
      "raped": 5292,
      "Catherine": 5293,
      "()).": 5294,
      "lovers": 5295,
      "Trace": 5296,
      "bacon": 5297,
      "ibson": 5298,
      "RMED": 5299,
      "seek": 5300,
      "digit": 5301,
      "=\\{": 5302,
      "bibliography": 5303,
      "Runner": 5304,
      "Expected": 5305,
      "strlen": 5306,
      "urbulence": 5307,
      "nucleotides": 5308,
      "850": 5309,
      "psychiatrist": 5310,
      "hemorrhage": 5311,
      "wholesale": 5312,
      "TOP": 5313,
      "Brussel": 5314,
      "Known": 5315,
      "facie": 5316,
      "Iceland": 5317,
      "POINT": 5318,
      "istically": 5319,
      "immunization": 5320,
      "Binary": 5321,
      "somatic": 5322,
      "SARS": 5323,
      "Progress": 5324,
      "moduli": 5325,
      "Converter": 5326,
      "xcuse": 5327,
      "networking": 5328,
      "AGE": 5329,
      "education": 5330,
      "DW": 5331,
      "scramble": 5332,
      "ACP": 5333,
      "Kim": 5334,
      "WriteLine": 5335,
      "Matt": 5336,
      "attrs": 5337,
      "Fergus": 5338,
      "datetime": 5339,
      "Protestant": 5340,
      "flicted": 5341,
      "plasticity": 5342,
      "Jones": 5343,
      "219": 5344,
      "Little": 5345,
      "213": 5346,
      "stratified": 5347,
      "Investigation": 5348,
      "Direct": 5349,
      "indemn": 5350,
      "CK": 5351,
      "onclick": 5352,
      "statin": 5353,
      "pets": 5354,
      "protection": 5355,
      "hull": 5356,
      "Bits": 5357,
      "deplete": 5358,
      "Canada": 5359,
      "Failure": 5360,
      "estoppe": 5361,
      "^*_": 5362,
      "Compiler": 5363,
      "wich": 5364,
      "herbal": 5365,
      "Coalition": 5366,
      "Leave": 5367,
      "1960": 5368,
      "clash": 5369,
      "undef": 5370,
      "Edinburgh": 5371,
      "THERE": 5372,
      "Gates": 5373,
      "Calendar": 5374,
      "Utility": 5375,
      "Mail": 5376,
      "NGO": 5377,
      "Allow": 5378,
      "compute": 5379,
      "ifies": 5380,
      "227": 5381,
      "Corps": 5382,
      "stumble": 5383,
      "Graduate": 5384,
      "payload": 5385,
      "genome": 5386,
      "Skip": 5387,
      "definite": 5388,
      "pthread": 5389,
      "Visit": 5390,
      "dissect": 5391,
      "anese": 5392,
      "triplet": 5393,
      "cows": 5394,
      "RSV": 5395,
      "symmetrical": 5396,
      "etal": 5397,
      "Definitions": 5398,
      "alignment": 5399,
      "'';": 5400,
      "440": 5401,
      "means": 5402,
      "267": 5403,
      "previous": 5404,
      "chromosomal": 5405,
      "Mapper": 5406,
      "VO": 5407,
      "toire": 5408,
      "Surface": 5409,
      "urkey": 5410,
      "Executor": 5411,
      "Touch": 5412,
      "NB": 5413,
      "Hernandez": 5414,
      "Experimental": 5415,
      "vintage": 5416,
      "Doppler": 5417,
      "physiology": 5418,
      "Preparation": 5419,
      "Anonymous": 5420,
      "Transport": 5421,
      "BOX": 5422,
      "notebook": 5423,
      "ilgrim": 5424,
      "Amsterdam": 5425,
      "updated": 5426,
      "consolidated": 5427,
      "entries": 5428,
      "acquitt": 5429,
      "mighty": 5430,
      "oyle": 5431,
      "Du": 5432,
      "Charter": 5433,
      "sellers": 5434,
      "Headers": 5435,
      "prompt": 5436,
      "^{*}": 5437,
      "MK": 5438,
      "305": 5439,
      "software": 5440,
      "={\\": 5441,
      "isset": 5442,
      "meaning": 5443,
      "etching": 5444,
      "affection": 5445,
      "reiterat": 5446,
      "EMT": 5447,
      "merging": 5448,
      "decisiv": 5449,
      "otary": 5450,
      "8000": 5451,
      "nitrate": 5452,
      "ranium": 5453,
      "rained": 5454,
      "RPG": 5455,
      ">`": 5456,
      "otility": 5457,
      "meson": 5458,
      "Differences": 5459,
      "bell": 5460,
      "FGF": 5461,
      "bacterium": 5462,
      "ripple": 5463,
      "descriptor": 5464,
      "ibility": 5465,
      "__)": 5466,
      "stringent": 5467,
      "fuzzy": 5468,
      "contaminant": 5469,
      "Ambassador": 5470,
      "FUNC": 5471,
      "Sound": 5472,
      "respectful": 5473,
      "tem": 5474,
      "MPL": 5475,
      "alter": 5476,
      "425": 5477,
      "218": 5478,
      "indexOf": 5479,
      "Asset": 5480,
      "isdemeano": 5481,
      "Colonel": 5482,
      "locker": 5483,
      "Compensation": 5484,
      "bean": 5485,
      "Stats": 5486,
      "conduit": 5487,
      "oka": 5488,
      "ausage": 5489,
      "HEK": 5490,
      "vault": 5491,
      "volumes": 5492,
      "Bounds": 5493,
      "Sql": 5494,
      "wizard": 5495,
      "Equals": 5496,
      "Oral": 5497,
      "Starting": 5498,
      "burger": 5499,
      "hip": 5500,
      "glial": 5501,
      "Done": 5502,
      "quick": 5503,
      "Joel": 5504,
      "Export": 5505,
      "VIEW": 5506,
      "Slice": 5507,
      "dyn": 5508,
      "Demo": 5509,
      "decl": 5510,
      "bide": 5511,
      "grunt": 5512,
      "literar": 5513,
      "Shannon": 5514,
      "242": 5515,
      "297": 5516,
      "coli": 5517,
      "uria": 5518,
      "Imaging": 5519,
      "learn": 5520,
      "Origin": 5521,
      "Hearing": 5522,
      "Overview": 5523,
      "MIC": 5524,
      "integration": 5525,
      "cuisin": 5526,
      "($_": 5527,
      "Gonzalez": 5528,
      "Looks": 5529,
      "failure": 5530,
      "shrimp": 5531,
      "bins": 5532,
      "curved": 5533,
      "FAQ": 5534,
      "exemplar": 5535,
      "1963": 5536,
      "Conservation": 5537,
      "gadget": 5538,
      "Increasing": 5539,
      "diamond": 5540,
      "responders": 5541,
      "indent": 5542,
      "endpoints": 5543,
      "separable": 5544,
      "beam": 5545,
      "mux": 5546,
      "linearity": 5547,
      "shaw": 5548,
      "Install": 5549,
      "Islands": 5550,
      "nvision": 5551,
      "concurrent": 5552,
      "digestive": 5553,
      "Central": 5554,
      "ripped": 5555,
      "resilien": 5556,
      "Charles": 5557,
      "patio": 5558,
      "287": 5559,
      "MIT": 5560,
      "irrational": 5561,
      "475": 5562,
      "assignments": 5563,
      "requesting": 5564,
      "ips": 5565,
      "selfish": 5566,
      "cols": 5567,
      "architectural": 5568,
      "Lookup": 5569,
      "bursts": 5570,
      "linker": 5571,
      "honest": 5572,
      "Alcohol": 5573,
      ">';": 5574,
      "oligonucleotide": 5575,
      "sprinkle": 5576,
      "Solomon": 5577,
      "betting": 5578,
      "Indigenous": 5579,
      "directing": 5580,
      "YEAR": 5581,
      "qualifications": 5582,
      "Drop": 5583,
      "XL": 5584,
      "ju": 5585,
      "listeners": 5586,
      "navigation": 5587,
      "paraffin": 5588,
      "congestion": 5589,
      "Forward": 5590,
      "OUTPUT": 5591,
      "simulator": 5592,
      "ViewModel": 5593,
      "glycoprotein": 5594,
      "beginner": 5595,
      "\"$(": 5596,
      "trypsin": 5597,
      "allergen": 5598,
      "formaldehyde": 5599,
      "257": 5600,
      "INS": 5601,
      "genetic": 5602,
      "bronze": 5603,
      "CASE": 5604,
      "agnificent": 5605,
      "needed": 5606,
      ")}$.": 5607,
      "amateur": 5608,
      "park": 5609,
      "buddy": 5610,
      "Films": 5611,
      "INTEGER": 5612,
      "bolish": 5613,
      "iomedical": 5614,
      "traces": 5615,
      "arrays": 5616,
      "ieth": 5617,
      "road": 5618,
      "KNOW": 5619,
      "Lecture": 5620,
      "323": 5621,
      "Glu": 5622,
      "lCompile": 5623,
      "voices": 5624,
      "tiles": 5625,
      "Yesterday": 5626,
      "blockad": 5627,
      "CDK": 5628,
      "highlight": 5629,
      "PEOPLE": 5630,
      "Solutions": 5631,
      "ounces": 5632,
      "Warriors": 5633,
      "erial": 5634,
      "Hold": 5635,
      "Municipal": 5636,
      "NLS": 5637,
      "grounded": 5638,
      "Owner": 5639,
      "695": 5640,
      "arum": 5641,
      "THER": 5642,
      "strips": 5643,
      "Friedman": 5644,
      "flight": 5645,
      "Utilities": 5646,
      "naval": 5647,
      "034": 5648,
      "washer": 5649,
      "surveys": 5650,
      "Mormon": 5651,
      "^\\*^": 5652,
      "histochemistry": 5653,
      "vegetarian": 5654,
      "Parents": 5655,
      "WS": 5656,
      "lumber": 5657,
      "breakthrough": 5658,
      "Literal": 5659,
      "LEVEL": 5660,
      "wash": 5661,
      "fortunate": 5662,
      "NPR": 5663,
      "dull": 5664,
      "reopen": 5665,
      "6000": 5666,
      "morphisms": 5667,
      "432": 5668,
      "computer": 5669,
      "SHIFT": 5670,
      "biotic": 5671,
      "stunt": 5672,
      "storm": 5673,
      "marvel": 5674,
      "Permission": 5675,
      "shi": 5676,
      "condensate": 5677,
      "acre": 5678,
      "Temp": 5679,
      "Feed": 5680,
      "juni": 5681,
      "corrido": 5682,
      "thirteen": 5683,
      "Young": 5684,
      "seafood": 5685,
      "ambodia": 5686,
      "CFG": 5687,
      "Zone": 5688,
      "SDL": 5689,
      "ICD": 5690,
      "Particular": 5691,
      "riad": 5692,
      "frames": 5693,
      "penetrate": 5694,
      "asynchronous": 5695,
      "enters": 5696,
      "thought": 5697,
      "utumn": 5698,
      "formulate": 5699,
      "Want": 5700,
      "}}.$$": 5701,
      "quarks": 5702,
      "Endpoint": 5703,
      "Pop": 5704,
      "Brothers": 5705,
      "SPACE": 5706,
      "plant": 5707,
      "canonical": 5708,
      "photometric": 5709,
      "cystic": 5710,
      "existent": 5711,
      "construe": 5712,
      "ammonium": 5713,
      "trains": 5714,
      "vision": 5715,
      "Spring": 5716,
      "BLOCK": 5717,
      "SCRIPT": 5718,
      "MRS": 5719,
      "Laser": 5720,
      "Schematic": 5721,
      "Robertson": 5722,
      "Push": 5723,
      "Mozilla": 5724,
      "STOP": 5725,
      "opted": 5726,
      "augmented": 5727,
      "lottery": 5728,
      "Hodge": 5729,
      "Statut": 5730,
      "Specific": 5731,
      "Virtual": 5732,
      "patients": 5733,
      "priced": 5734,
      "brush": 5735,
      "Define": 5736,
      "grass": 5737,
      "Signal": 5738,
      "Publisher": 5739,
      "intoxicat": 5740,
      "vocation": 5741,
      "menities": 5742,
      "hospital": 5743,
      "279": 5744,
      "toxic": 5745,
      "lightning": 5746,
      "ertaining": 5747,
      "regs": 5748,
      "consciously": 5749,
      "chr": 5750,
      "Comp": 5751,
      "Literature": 5752,
      "afeguard": 5753,
      "transcribe": 5754,
      "Bulgaria": 5755,
      "Raymond": 5756,
      "daily": 5757,
      "SPECIAL": 5758,
      "compliant": 5759,
      "secondary": 5760,
      "Rewrite": 5761,
      "refresh": 5762,
      "Much": 5763,
      "HSC": 5764,
      "escor": 5765,
      "evoked": 5766,
      "sticks": 5767,
      "Working": 5768,
      "StringBuilder": 5769,
      "epidemiological": 5770,
      "665": 5771,
      "pollutant": 5772,
      "<!": 5773,
      "1200": 5774,
      "jah": 5775,
      "clump": 5776,
      "Joshua": 5777,
      "imprison": 5778,
      "Tenn": 5779,
      "Leadership": 5780,
      "postpone": 5781,
      "accessory": 5782,
      "Distribution": 5783,
      "rail": 5784,
      "shatter": 5785,
      "nutrition": 5786,
      "269": 5787,
      "methamphetamine": 5788,
      "grades": 5789,
      "parts": 5790,
      "Cabinet": 5791,
      "jj": 5792,
      "DTD": 5793,
      "Disclaimer": 5794,
      "spotlight": 5795,
      "manifest": 5796,
      "bubbles": 5797,
      "nodal": 5798,
      "towers": 5799,
      "gated": 5800,
      "rabbit": 5801,
      "688": 5802,
      "050": 5803,
      "asement": 5804,
      "Steve": 5805,
      "Perez": 5806,
      "Independence": 5807,
      "redirect": 5808,
      "CAT": 5809,
      "HC": 5810,
      "Goldman": 5811,
      "ibly": 5812,
      "Graphics": 5813,
      "ISO": 5814,
      "catalog": 5815,
      "UUID": 5816,
      "MVP": 5817,
      "symplectic": 5818,
      "fisher": 5819,
      "metabolite": 5820,
      "Behavior": 5821,
      "385": 5822,
      "eoul": 5823,
      "lonely": 5824,
      "Clerk": 5825,
      "balcon": 5826,
      "jihad": 5827,
      "controllers": 5828,
      "Reflection": 5829,
      "Racing": 5830,
      "488": 5831,
      "marathon": 5832,
      "admissions": 5833,
      "317": 5834,
      "altar": 5835,
      "Tri": 5836,
      "crypto": 5837,
      "equivalent": 5838,
      "RH": 5839,
      "hal": 5840,
      "IoT": 5841,
      "pores": 5842,
      "},{": 5843,
      "emulsion": 5844,
      "//--------------": 5845,
      "condensation": 5846,
      "follic": 5847,
      "liquid": 5848,
      "revise": 5849,
      "narcotic": 5850,
      "1962": 5851,
      "pope": 5852,
      "Timestamp": 5853,
      "solidarity": 5854,
      "299": 5855,
      "goal": 5856,
      "ylon": 5857,
      "Wagner": 5858,
      "saving": 5859,
      "Visual": 5860,
      "triglyceride": 5861,
      "hitter": 5862,
      "crossover": 5863,
      "PPI": 5864,
      "paused": 5865,
      "Census": 5866,
      "vid": 5867,
      "spirit": 5868,
      "ensity": 5869,
      "proclaim": 5870,
      "TLS": 5871,
      "agging": 5872,
      "elf": 5873,
      "cum": 5874,
      "wow": 5875,
      "fashion": 5876,
      "calibrated": 5877,
      "arther": 5878,
      "refractive": 5879,
      "Newman": 5880,
      "Declaration": 5881,
      "getInstance": 5882,
      "catalysts": 5883,
      "Wall": 5884,
      "Brien": 5885,
      "tra": 5886,
      "Guid": 5887,
      ")|$": 5888,
      "websites": 5889,
      "IMAGE": 5890,
      "Snapshot": 5891,
      "haunt": 5892,
      "contracted": 5893,
      "things": 5894,
      "popular": 5895,
      "anning": 5896,
      "logically": 5897,
      "Filed": 5898,
      "analyzer": 5899,
      "arbitrat": 5900,
      "prob": 5901,
      "Pane": 5902,
      "metrics": 5903,
      "ogurt": 5904,
      "renamed": 5905,
      "Energy": 5906,
      "Pharmaceutical": 5907,
      "!'": 5908,
      "recisely": 5909,
      "Certificate": 5910,
      "ejection": 5911,
      "crore": 5912,
      "neck": 5913,
      "sorption": 5914,
      "bucket": 5915,
      "Sebastian": 5916,
      "street": 5917,
      "shall": 5918,
      "cytochrome": 5919,
      "Eleven": 5920,
      "minster": 5921,
      "Sounds": 5922,
      "736": 5923,
      "vous": 5924,
      "booth": 5925,
      "{(\\": 5926,
      "920": 5927,
      "controls": 5928,
      "EXP": 5929,
      "cannot": 5930,
      "VA": 5931,
      "345": 5932,
      "supplements": 5933,
      "emcpy": 5934,
      "Magent": 5935,
      "kids": 5936,
      "Images": 5937,
      "gnition": 5938,
      "Pair": 5939,
      "broken": 5940,
      "Zimbabwe": 5941,
      "Donnell": 5942,
      "Radio": 5943,
      "stay": 5944,
      "subsec": 5945,
      "homotop": 5946,
      "Batch": 5947,
      "rugby": 5948,
      "chester": 5949,
      "cadherin": 5950,
      "stated": 5951,
      "evacuat": 5952,
      "lubric": 5953,
      "commons": 5954,
      "deficiency": 5955,
      "messages": 5956,
      "often": 5957,
      "ucci": 5958,
      "widgets": 5959,
      "oming": 5960,
      "*]{}.": 5961,
      "Behind": 5962,
      "tenants": 5963,
      "MOD": 5964,
      "grey": 5965,
      "Quality": 5966,
      "Kernel": 5967,
      "quarter": 5968,
      "surrogate": 5969,
      "phys": 5970,
      "786": 5971,
      "sent": 5972,
      "PRODUCT": 5973,
      "preserve": 5974,
      "Defence": 5975,
      "Buy": 5976,
      "chair": 5977,
      "transcriptome": 5978,
      "864": 5979,
      "pacious": 5980,
      "tactical": 5981,
      "notice": 5982,
      "fabulous": 5983,
      "Alt": 5984,
      "medieval": 5985,
      "titanium": 5986,
      "during": 5987,
      "Broadway": 5988,
      "LOC": 5989,
      "Student": 5990,
      "Messages": 5991,
      "heim": 5992,
      "Eating": 5993,
      "274": 5994,
      "289": 5995,
      "eng": 5996,
      "northeast": 5997,
      "ches": 5998,
      "Ashley": 5999,
      "submarine": 6000,
      "048": 6001,
      "disposable": 6002,
      "grating": 6003,
      "Trinity": 6004,
      "surpass": 6005,
      "centre": 6006,
      "icious": 6007,
      "NotNull": 6008,
      "DOWN": 6009,
      "Armstrong": 6010,
      "Jamaica": 6011,
      "Paint": 6012,
      "Mary": 6013,
      "colours": 6014,
      "perceptions": 6015,
      "Need": 6016,
      "TL": 6017,
      "articles": 6018,
      "tribute": 6019,
      "uous": 6020,
      "DFT": 6021,
      "Travis": 6022,
      "lurry": 6023,
      "truth": 6024,
      "feast": 6025,
      "follow": 6026,
      "edication": 6027,
      "Deep": 6028,
      "etained": 6029,
      "Science": 6030,
      "hibernate": 6031,
      "additional": 6032,
      "urious": 6033,
      "moot": 6034,
      "music": 6035,
      "express": 6036,
      "negotiation": 6037,
      "Internet": 6038,
      "electrochemical": 6039,
      "filler": 6040,
      "picker": 6041,
      "privileges": 6042,
      "decision": 6043,
      "359": 6044,
      "Standing": 6045,
      "SECTION": 6046,
      "877": 6047,
      "occupan": 6048,
      "exercised": 6049,
      "848": 6050,
      "rotation": 6051,
      "468": 6052,
      "departments": 6053,
      "emails": 6054,
      "Tracker": 6055,
      "fraud": 6056,
      "ases": 6057,
      "Timoth": 6058,
      "Dev": 6059,
      "COMMENT": 6060,
      "Mohammed": 6061,
      "pound": 6062,
      "Citizens": 6063,
      "apping": 6064,
      "Physical": 6065,
      "sickness": 6066,
      "backyard": 6067,
      "NavBar": 6068,
      "hearted": 6069,
      "consistency": 6070,
      "Halloween": 6071,
      "enberg": 6072,
      "OO": 6073,
      "Country": 6074,
      "baryon": 6075,
      "Promise": 6076,
      "nature": 6077,
      "Immigration": 6078,
      "odded": 6079,
      "Raider": 6080,
      "Found": 6081,
      "biotin": 6082,
      "helpers": 6083,
      "gels": 6084,
      "}}})": 6085,
      "}}$$": 6086,
      "ummy": 6087,
      "liquo": 6088,
      "stool": 6089,
      "Worker": 6090,
      "fragment": 6091,
      "deb": 6092,
      "directors": 6093,
      "feeds": 6094,
      "wrong": 6095,
      "lysine": 6096,
      "ures": 6097,
      "avg": 6098,
      "363": 6099,
      "damping": 6100,
      "Coulomb": 6101,
      "appropriation": 6102,
      "Received": 6103,
      "SESSION": 6104,
      "trophy": 6105,
      "262": 6106,
      "salm": 6107,
      "ault": 6108,
      "Elementary": 6109,
      "944": 6110,
      "Packer": 6111,
      "eloid": 6112,
      "serotonin": 6113,
      "COMMAND": 6114,
      "oxidase": 6115,
      "Defender": 6116,
      "basin": 6117,
      "mosqu": 6118,
      "maximum": 6119,
      "Gardner": 6120,
      "Freeman": 6121,
      "scoop": 6122,
      "tending": 6123,
      "Damn": 6124,
      "COPY": 6125,
      "heels": 6126,
      "855": 6127,
      "HV": 6128,
      "ListView": 6129,
      "Erik": 6130,
      "medicines": 6131,
      "tell": 6132,
      "conductors": 6133,
      "misunderstand": 6134,
      "0040": 6135,
      "osity": 6136,
      "LED": 6137,
      "preview": 6138,
      "319": 6139,
      "intron": 6140,
      "todo": 6141,
      "Located": 6142,
      "Prophet": 6143,
      "Pacific": 6144,
      "onium": 6145,
      "mmature": 6146,
      "DID": 6147,
      "ě": 6148,
      "dicted": 6149,
      "{|\\": 6150,
      "chromium": 6151,
      "buy": 6152,
      "Serializer": 6153,
      "347": 6154,
      "prudent": 6155,
      "\\}.$$": 6156,
      "bored": 6157,
      "HSV": 6158,
      "MG": 6159,
      "tender": 6160,
      "atican": 6161,
      "LF": 6162,
      "knit": 6163,
      "Playing": 6164,
      "ANY": 6165,
      "scape": 6166,
      "homework": 6167,
      "Clarke": 6168,
      "workload": 6169,
      "getId": 6170,
      "presume": 6171,
      "AUTO": 6172,
      "tylish": 6173,
      "structural": 6174,
      "clustered": 6175,
      "civic": 6176,
      "REPORT": 6177,
      "Progressive": 6178,
      "Lily": 6179,
      "female": 6180,
      "Algorithm": 6181,
      "Muslim": 6182,
      "skeptic": 6183,
      "Sheet": 6184,
      "reminisc": 6185,
      "planner": 6186,
      "Chief": 6187,
      "Thu": 6188,
      "slider": 6189,
      "295": 6190,
      "ART": 6191,
      "Tamil": 6192,
      "LDH": 6193,
      "tooltip": 6194,
      "Scanner": 6195,
      "ARM": 6196,
      "9000": 6197,
      "mesenchym": 6198,
      "cessation": 6199,
      "turbulent": 6200,
      "372": 6201,
      "jersey": 6202,
      "278": 6203,
      "shield": 6204,
      "instead": 6205,
      "444": 6206,
      "ovariates": 6207,
      "penicillin": 6208,
      "307": 6209,
      "Times": 6210,
      "formats": 6211,
      "Chemistry": 6212,
      "Pen": 6213,
      "ashmir": 6214,
      "ignite": 6215,
      "influx": 6216,
      "364": 6217,
      "RBI": 6218,
      "nude": 6219,
      "925": 6220,
      "plants": 6221,
      "bidding": 6222,
      "protect": 6223,
      "FU": 6224,
      "noodle": 6225,
      "enjoyment": 6226,
      "OM": 6227,
      "playing": 6228,
      "topical": 6229,
      "SiO": 6230,
      "tasks": 6231,
      "Lang": 6232,
      "refrigerat": 6233,
      "Credit": 6234,
      "crit": 6235,
      "Degree": 6236,
      "lipids": 6237,
      "uber": 6238,
      "Optical": 6239,
      "demand": 6240,
      "792": 6241,
      "embedded": 6242,
      "shock": 6243,
      "Divine": 6244,
      "sink": 6245,
      "pipes": 6246,
      "ensis": 6247,
      "lieu": 6248,
      "culmina": 6249,
      "circuit": 6250,
      "Always": 6251,
      "RAM": 6252,
      "Weyl": 6253,
      "469": 6254,
      "ducible": 6255,
      "trails": 6256,
      "Shakespeare": 6257,
      "commercial": 6258,
      "Collective": 6259,
      "LAND": 6260,
      "398": 6261,
      "MDS": 6262,
      "estimated": 6263,
      "SMC": 6264,
      "387": 6265,
      "eosinophil": 6266,
      "754": 6267,
      "constituent": 6268,
      "435": 6269,
      "enthal": 6270,
      "298": 6271,
      "Reporting": 6272,
      "Crawford": 6273,
      "407": 6274,
      "820": 6275,
      "326": 6276,
      "ordpress": 6277,
      "355": 6278,
      "uncover": 6279,
      "representation": 6280,
      "pollen": 6281,
      "Documents": 6282,
      "porch": 6283,
      "Cut": 6284,
      "Alex": 6285,
      "maze": 6286,
      "Monro": 6287,
      "PREFIX": 6288,
      "ATPase": 6289,
      "difference": 6290,
      "striker": 6291,
      "Ghana": 6292,
      "Week": 6293,
      "thanks": 6294,
      "punit": 6295,
      "tighten": 6296,
      "Orientation": 6297,
      "Facts": 6298,
      "361": 6299,
      "Upload": 6300,
      ")}$,": 6301,
      "sitate": 6302,
      "CRM": 6303,
      "sites": 6304,
      "mult": 6305,
      "Operator": 6306,
      "lyric": 6307,
      "catalogue": 6308,
      "resonat": 6309,
      "Pelosi": 6310,
      "Wile": 6311,
      "MORE": 6312,
      "TIF": 6313,
      "Sherman": 6314,
      "Radius": 6315,
      "tal": 6316,
      "rocket": 6317,
      "millimeter": 6318,
      "easing": 6319,
      "utomotive": 6320,
      "Lord": 6321,
      "pole": 6322,
      "GH": 6323,
      "tight": 6324,
      "shutter": 6325,
      "polar": 6326,
      "robotic": 6327,
      "stride": 6328,
      "537": 6329,
      "omination": 6330,
      "nationally": 6331,
      "Submitted": 6332,
      "462": 6333,
      "Works": 6334,
      "PSC": 6335,
      "tendon": 6336,
      "Genomic": 6337,
      "Operating": 6338,
      "Tesl": 6339,
      "capped": 6340,
      "billionaire": 6341,
      "ImageView": 6342,
      "skeleton": 6343,
      "harmonic": 6344,
      "Experiments": 6345,
      "Neal": 6346,
      "744": 6347,
      "nephe": 6348,
      "eller": 6349,
      "Cities": 6350,
      "Eddi": 6351,
      "biase": 6352,
      "customized": 6353,
      "Shared": 6354,
      "founders": 6355,
      "fences": 6356,
      "unbeliev": 6357,
      "fellowship": 6358,
      "acetic": 6359,
      "rods": 6360,
      "modality": 6361,
      "TAB": 6362,
      "EOC": 6363,
      "microbe": 6364,
      "abduct": 6365,
      "827": 6366,
      "converse": 6367,
      "voxel": 6368,
      "Sacramento": 6369,
      "FDR": 6370,
      "Desktop": 6371,
      "Slot": 6372,
      "vocabular": 6373,
      "STD": 6374,
      "504": 6375,
      "Regular": 6376,
      "spreadsheet": 6377,
      "terrac": 6378,
      "stress": 6379,
      "mkdir": 6380,
      "Honest": 6381,
      "slaughter": 6382,
      "generalize": 6383,
      "lanced": 6384,
      "(@\"": 6385,
      "urban": 6386,
      "preponder": 6387,
      "Changing": 6388,
      "Walking": 6389,
      "Minutes": 6390,
      "claw": 6391,
      "ehran": 6392,
      "ventral": 6393,
      "stan": 6394,
      "Jupiter": 6395,
      "Mono": 6396,
      "granular": 6397,
      "807": 6398,
      "DECLAR": 6399,
      "Sets": 6400,
      "Nietzsche": 6401,
      "429": 6402,
      "reduction": 6403,
      "formatting": 6404,
      "Character": 6405,
      "Excellent": 6406,
      "pools": 6407,
      "784": 6408,
      "urdle": 6409,
      "OVER": 6410,
      "sexy": 6411,
      "nactment": 6412,
      "particulate": 6413,
      "withstand": 6414,
      "luminescence": 6415,
      "ucked": 6416,
      "788": 6417,
      "Tim": 6418,
      "oxygen": 6419,
      "ubble": 6420,
      "785": 6421,
      "Metrics": 6422,
      "pologies": 6423,
      "Blood": 6424,
      "leash": 6425,
      "IE": 6426,
      "designs": 6427,
      "Modules": 6428,
      "SHORT": 6429,
      "789": 6430,
      "Nashville": 6431,
      "pelled": 6432,
      "croft": 6433,
      "subordinate": 6434,
      "Synthesis": 6435,
      "Tribune": 6436,
      "Valid": 6437,
      "EGF": 6438,
      "937": 6439,
      "merged": 6440,
      "ven": 6441,
      "propell": 6442,
      "exported": 6443,
      "estimate": 6444,
      "Navigation": 6445,
      "Sen": 6446,
      "Marriage": 6447,
      "Happy": 6448,
      "soak": 6449,
      "Benedict": 6450,
      "fork": 6451,
      "relation": 6452,
      "Mom": 6453,
      "panned": 6454,
      "ucumber": 6455,
      "Accept": 6456,
      "boycott": 6457,
      "lding": 6458,
      "748": 6459,
      "heuristic": 6460,
      "contemplate": 6461,
      "mozill": 6462,
      "ECs": 6463,
      "certificates": 6464,
      "485": 6465,
      "sunset": 6466,
      "Patricia": 6467,
      "posted": 6468,
      "rice": 6469,
      "phosphorus": 6470,
      "TRX": 6471,
      "cents": 6472,
      "iosis": 6473,
      "Theoretical": 6474,
      "Claire": 6475,
      "McConnell": 6476,
      "activates": 6477,
      "articulate": 6478,
      "Educational": 6479,
      "aucus": 6480,
      "sponge": 6481,
      "acle": 6482,
      "consistent": 6483,
      "Subjects": 6484,
      "Russia": 6485,
      "believe": 6486,
      "commodities": 6487,
      "integrable": 6488,
      "Brenda": 6489,
      "escence": 6490,
      "pulse": 6491,
      "vue": 6492,
      "handlers": 6493,
      "hydration": 6494,
      "coloured": 6495,
      "launcher": 6496,
      "Canadian": 6497,
      "southwest": 6498,
      "Suppress": 6499,
      "adenosine": 6500,
      "ook": 6501,
      "comprehend": 6502,
      "Enforcement": 6503,
      "Landau": 6504,
      "421": 6505,
      "ItemType": 6506,
      "ologies": 6507,
      "729": 6508,
      "Loc": 6509,
      "346": 6510,
      "ChIP": 6511,
      "ounding": 6512,
      "mission": 6513,
      "CURRENT": 6514,
      "Chocolate": 6515,
      "vehicle": 6516,
      "Except": 6517,
      "Positive": 6518,
      "endpoint": 6519,
      "PROP": 6520,
      "Dad": 6521,
      "enlighten": 6522,
      "Nobel": 6523,
      "near": 6524,
      "UCL": 6525,
      "attachment": 6526,
      "pinning": 6527,
      "Lipschitz": 6528,
      "magic": 6529,
      "freight": 6530,
      "sniff": 6531,
      "OX": 6532,
      "CRISPR": 6533,
      "}|^": 6534,
      "gradle": 6535,
      "hacking": 6536,
      "Statistics": 6537,
      "iously": 6538,
      "EOS": 6539,
      "plumb": 6540,
      "uperintendent": 6541,
      "hub": 6542,
      "threads": 6543,
      "Integrated": 6544,
      "marble": 6545,
      "lumbar": 6546,
      "Serve": 6547,
      "paths": 6548,
      "Students": 6549,
      "sprout": 6550,
      "brown": 6551,
      "estitution": 6552,
      "olic": 6553,
      "sections": 6554,
      "incidental": 6555,
      "correspondent": 6556,
      "Backend": 6557,
      "atrophy": 6558,
      "southeast": 6559,
      "Rotation": 6560,
      "BUF": 6561,
      "Errors": 6562,
      "Amanda": 6563,
      "Affirm": 6564,
      "VIP": 6565,
      "*((": 6566,
      "WASHINGTON": 6567,
      "conversion": 6568,
      "[{\\": 6569,
      "graduat": 6570,
      "Tasks": 6571,
      "thinking": 6572,
      "cloak": 6573,
      "legend": 6574,
      "ITY": 6575,
      "playground": 6576,
      "Torres": 6577,
      "vampir": 6578,
      "irritat": 6579,
      "IABLE": 6580,
      "374": 6581,
      "arginine": 6582,
      "procure": 6583,
      "OutputStream": 6584,
      "490": 6585,
      "Monitor": 6586,
      "reviewer": 6587,
      "WKH": 6588,
      "032": 6589,
      "solitar": 6590,
      "DRAM": 6591,
      "mosaic": 6592,
      "SPI": 6593,
      "pickle": 6594,
      "ixth": 6595,
      "delineat": 6596,
      "perl": 6597,
      "diving": 6598,
      "intensity": 6599,
      "376": 6600,
      "rheumat": 6601,
      "socialism": 6602,
      "tation": 6603,
      "iggins": 6604,
      "Van": 6605,
      "Acknowledgements": 6606,
      "immunoglobulin": 6607,
      "speculative": 6608,
      "hormonal": 6609,
      "comprehension": 6610,
      "separator": 6611,
      "endocrine": 6612,
      "snapped": 6613,
      "roads": 6614,
      "isappointment": 6615,
      "latex": 6616,
      "peg": 6617,
      "ocytosis": 6618,
      "cont": 6619,
      "835": 6620,
      "modern": 6621,
      "digest": 6622,
      "rotate": 6623,
      "[])": 6624,
      "imony": 6625,
      "mitotic": 6626,
      "Computing": 6627,
      "Season": 6628,
      "postulat": 6629,
      "feedback": 6630,
      "pred": 6631,
      "sampling": 6632,
      "debt": 6633,
      "enumeration": 6634,
      "terminals": 6635,
      "traced": 6636,
      "MF": 6637,
      "kits": 6638,
      "Mat": 6639,
      "Relative": 6640,
      "dragging": 6641,
      "goose": 6642,
      "397": 6643,
      "reheat": 6644,
      "291": 6645,
      "units": 6646,
      "EMS": 6647,
      "military": 6648,
      "brewer": 6649,
      "Picture": 6650,
      "IFN": 6651,
      "Chunk": 6652,
      "syntax": 6653,
      "corner": 6654,
      "353": 6655,
      "parenting": 6656,
      "spacing": 6657,
      "imprint": 6658,
      "Culture": 6659,
      "partitions": 6660,
      "418": 6661,
      "Isle": 6662,
      "young": 6663,
      "quand": 6664,
      "AFM": 6665,
      "dosing": 6666,
      "Magnetic": 6667,
      "luminal": 6668,
      "vocado": 6669,
      "setter": 6670,
      "prepared": 6671,
      "otropic": 6672,
      "itiating": 6673,
      "KP": 6674,
      "idewalk": 6675,
      "042": 6676,
      "cartilag": 6677,
      "SAME": 6678,
      "terrestrial": 6679,
      "grpc": 6680,
      "Sprite": 6681,
      "delimiter": 6682,
      "tires": 6683,
      "Buf": 6684,
      "495": 6685,
      "Amazing": 6686,
      "ieties": 6687,
      "phenolic": 6688,
      "LinearLayout": 6689,
      "Wood": 6690,
      "atterson": 6691,
      "SERVICES": 6692,
      "threaded": 6693,
      "deleting": 6694,
      "periodic": 6695,
      "classification": 6696,
      "AX": 6697,
      "ĸ": 6698,
      "1600": 6699,
      "Reason": 6700,
      "TWO": 6701,
      "1957": 6702,
      "blur": 6703,
      "VB": 6704,
      "JOHN": 6705,
      "Spin": 6706,
      "327": 6707,
      "Houston": 6708,
      "Know": 6709,
      "lights": 6710,
      "trap": 6711,
      "Religious": 6712,
      "379": 6713,
      "attendee": 6714,
      "366": 6715,
      "402": 6716,
      "Levels": 6717,
      "rpm": 6718,
      "hobby": 6719,
      "Multiply": 6720,
      "ades": 6721,
      "Purpose": 6722,
      "Groups": 6723,
      "]{}[": 6724,
      "cmake": 6725,
      "planting": 6726,
      "suburban": 6727,
      "FW": 6728,
      "858": 6729,
      "Salmonella": 6730,
      "733": 6731,
      "cuity": 6732,
      "sailing": 6733,
      "menopausal": 6734,
      "selenium": 6735,
      "'},": 6736,
      "relational": 6737,
      "SV": 6738,
      "hydrophilic": 6739,
      "boarding": 6740,
      "728": 6741,
      "listen": 6742,
      "ENTIAL": 6743,
      "Uint": 6744,
      "LIG": 6745,
      "djective": 6746,
      "trespass": 6747,
      "868": 6748,
      "funnel": 6749,
      "adiabatic": 6750,
      "CRC": 6751,
      "aryotic": 6752,
      "Arrays": 6753,
      "ssuance": 6754,
      "geom": 6755,
      "926": 6756,
      "mediation": 6757,
      "447": 6758,
      "voidance": 6759,
      "createElement": 6760,
      "GLM": 6761,
      "rious": 6762,
      "accessible": 6763,
      "Priority": 6764,
      "798": 6765,
      "conventional": 6766,
      "PHY": 6767,
      "Hit": 6768,
      "strict": 6769,
      "ndurance": 6770,
      "adjudication": 6771,
      "FFFFFF": 6772,
      "845": 6773,
      "tripping": 6774,
      "928": 6775,
      "flights": 6776,
      "noting": 6777,
      "clips": 6778,
      "leader": 6779,
      "921": 6780,
      "commands": 6781,
      "TextField": 6782,
      "FTC": 6783,
      "486": 6784,
      "bankrupt": 6785,
      "tunneling": 6786,
      "([]": 6787,
      "Username": 6788,
      "Month": 6789,
      "Christine": 6790,
      "Employer": 6791,
      "dresses": 6792,
      "difficult": 6793,
      "wagon": 6794,
      "curly": 6795,
      "Dependencies": 6796,
      "|_{\\": 6797,
      "redemption": 6798,
      "FileType": 6799,
      "minimis": 6800,
      "ionized": 6801,
      "laminate": 6802,
      "acid": 6803,
      "RST": 6804,
      "ague": 6805,
      "DOE": 6806,
      "curing": 6807,
      "CTX": 6808,
      "Contract": 6809,
      "banks": 6810,
      "lure": 6811,
      "ometer": 6812,
      "Ã¬": 6813,
      "propylene": 6814,
      "Officer": 6815,
      "electronics": 6816,
      "blogging": 6817,
      "arrhythmia": 6818,
      "054": 6819,
      "776": 6820,
      "pnea": 6821,
      "ollah": 6822,
      "noon": 6823,
      "butyl": 6824,
      "Fact": 6825,
      "incompatible": 6826,
      "adjudicat": 6827,
      "Welfare": 6828,
      "356": 6829,
      "mime": 6830,
      "ocytic": 6831,
      "graz": 6832,
      "FR": 6833,
      "dhol": 6834,
      "achelor": 6835,
      "spelling": 6836,
      "1950": 6837,
      "stagger": 6838,
      "lists": 6839,
      "Amazon": 6840,
      "enlist": 6841,
      "Nigerian": 6842,
      "Doesn": 6843,
      "ulous": 6844,
      ")\\]": 6845,
      "Cond": 6846,
      "familial": 6847,
      "828": 6848,
      "popup": 6849,
      "Negative": 6850,
      "Davidson": 6851,
      "OTU": 6852,
      "865": 6853,
      "sopho": 6854,
      "jungle": 6855,
      "Simmon": 6856,
      "lik": 6857,
      "Community": 6858,
      "BODY": 6859,
      "expedition": 6860,
      "PAR": 6861,
      "preparations": 6862,
      "Prosecut": 6863,
      "aeru": 6864,
      "survivor": 6865,
      "visceral": 6866,
      "algorithm": 6867,
      "ainstream": 6868,
      "NRA": 6869,
      "lenders": 6870,
      "Debian": 6871,
      "1301": 6872,
      "SMA": 6873,
      "Continue": 6874,
      "changes": 6875,
      "342": 6876,
      "hoc": 6877,
      "bastard": 6878,
      "giveness": 6879,
      "Lie": 6880,
      "pretty": 6881,
      "promulgat": 6882,
      "Azure": 6883,
      "hopped": 6884,
      "genocid": 6885,
      "Hawaiian": 6886,
      "factorization": 6887,
      "TCP": 6888,
      "valueOf": 6889,
      "docking": 6890,
      "Daily": 6891,
      "DataType": 6892,
      "basis": 6893,
      "PV": 6894,
      "avian": 6895,
      "Pedro": 6896,
      "dummy": 6897,
      "ink": 6898,
      "eject": 6899,
      "ronically": 6900,
      "precision": 6901,
      "elect": 6902,
      "friends": 6903,
      "adness": 6904,
      "toolbar": 6905,
      "Kevin": 6906,
      "banner": 6907,
      "silicone": 6908,
      "FMT": 6909,
      "Infection": 6910,
      "caching": 6911,
      "Silver": 6912,
      "929": 6913,
      "locating": 6914,
      "Lower": 6915,
      "}}$-": 6916,
      "evolution": 6917,
      "interstitial": 6918,
      "Surgical": 6919,
      ")-(": 6920,
      "1500": 6921,
      "roam": 6922,
      "SECOND": 6923,
      "anny": 6924,
      "Killing": 6925,
      "907": 6926,
      "InstanceState": 6927,
      "IMG": 6928,
      "368": 6929,
      "Preview": 6930,
      ")}=": 6931,
      "recurring": 6932,
      "platelets": 6933,
      "haus": 6934,
      "314": 6935,
      "BMP": 6936,
      "Ignore": 6937,
      "VERY": 6938,
      "notch": 6939,
      "figuring": 6940,
      "IVE": 6941,
      "mingly": 6942,
      "autre": 6943,
      "affective": 6944,
      "oxidize": 6945,
      "bay": 6946,
      "formatter": 6947,
      "060": 6948,
      "899": 6949,
      "voice": 6950,
      "{})": 6951,
      "aerosol": 6952,
      "insider": 6953,
      "raged": 6954,
      "ESI": 6955,
      "elony": 6956,
      "conjugation": 6957,
      "791": 6958,
      "reductase": 6959,
      "feminin": 6960,
      "501": 6961,
      "animate": 6962,
      "tically": 6963,
      "BACKGROUND": 6964,
      "backdrop": 6965,
      "535": 6966,
      "avid": 6967,
      "ginosa": 6968,
      "MEF": 6969,
      "libertarian": 6970,
      "Units": 6971,
      "Mother": 6972,
      "mgr": 6973,
      "gulp": 6974,
      "metropolitan": 6975,
      "LABEL": 6976,
      "STM": 6977,
      "schedule": 6978,
      "Congress": 6979,
      "Router": 6980,
      "comics": 6981,
      "enaissance": 6982,
      "Patch": 6983,
      "Syndrome": 6984,
      "Variant": 6985,
      "diaphragm": 6986,
      "almart": 6987,
      "detox": 6988,
      "esque": 6989,
      "pituitar": 6990,
      "Film": 6991,
      "BUS": 6992,
      "Absolute": 6993,
      "ARB": 6994,
      "serial": 6995,
      "Stories": 6996,
      "aneous": 6997,
      "eurs": 6998,
      "Bachelor": 6999,
      "TOKEN": 7000,
      "836": 7001,
      "France": 7002,
      "counsel": 7003,
      "crate": 7004,
      "parseInt": 7005,
      "soliton": 7006,
      "Continental": 7007,
      "recreation": 7008,
      "middleware": 7009,
      "Mouse": 7010,
      "prescribe": 7011,
      "leak": 7012,
      "ascent": 7013,
      "persisted": 7014,
      "PDB": 7015,
      "424": 7016,
      "itz": 7017,
      "homepage": 7018,
      "seasons": 7019,
      "asses": 7020,
      "parabolic": 7021,
      "Started": 7022,
      "Electrical": 7023,
      "Bears": 7024,
      "CFT": 7025,
      "lusive": 7026,
      "multiplex": 7027,
      "Competition": 7028,
      "bucks": 7029,
      "Hill": 7030,
      "mAb": 7031,
      "warrior": 7032,
      "ymposium": 7033,
      "aquatic": 7034,
      "mining": 7035,
      "backpack": 7036,
      "ubulin": 7037,
      "Instructions": 7038,
      "pandemi": 7039,
      "appropriate": 7040,
      "StackTrace": 7041,
      "Forces": 7042,
      "evaluate": 7043,
      "MATCH": 7044,
      "Medium": 7045,
      "945": 7046,
      "acetyl": 7047,
      "decompose": 7048,
      "Brian": 7049,
      "sweeten": 7050,
      "Gender": 7051,
      "easant": 7052,
      "Quit": 7053,
      "strom": 7054,
      "cology": 7055,
      "RANGE": 7056,
      "CONTROL": 7057,
      "Cre": 7058,
      "876": 7059,
      "WATCH": 7060,
      "Corresponding": 7061,
      "normalized": 7062,
      "Blob": 7063,
      "annotations": 7064,
      "Programming": 7065,
      "seekers": 7066,
      "mentality": 7067,
      "HER": 7068,
      "homogeneity": 7069,
      "Arthur": 7070,
      "Barret": 7071,
      "436": 7072,
      "²": 7073,
      "ribs": 7074,
      "thrombin": 7075,
      "Immediately": 7076,
      "0017": 7077,
      "']))": 7078,
      "Cognitive": 7079,
      "758": 7080,
      "EAN": 7081,
      "aiver": 7082,
      "liner": 7083,
      "committee": 7084,
      "udding": 7085,
      "Period": 7086,
      "433": 7087,
      "rented": 7088,
      "deals": 7089,
      "leaflet": 7090,
      "Rank": 7091,
      "Bus": 7092,
      "finish": 7093,
      "arxi": 7094,
      "evaluation": 7095,
      "recount": 7096,
      "BAD": 7097,
      "applicable": 7098,
      "930": 7099,
      "adenoma": 7100,
      "pie": 7101,
      "vasion": 7102,
      "Modifier": 7103,
      "Lawyer": 7104,
      "concave": 7105,
      "565": 7106,
      "Keeping": 7107,
      "904": 7108,
      "folk": 7109,
      "Breaking": 7110,
      "Basketball": 7111,
      "Lines": 7112,
      "rance": 7113,
      "declare": 7114,
      "990": 7115,
      "timezone": 7116,
      "billion": 7117,
      "0000000": 7118,
      "Katherine": 7119,
      "Patrol": 7120,
      "Resolver": 7121,
      "Schedule": 7122,
      "kidd": 7123,
      "Ancient": 7124,
      "immunological": 7125,
      "prioritize": 7126,
      "391": 7127,
      "universal": 7128,
      "idine": 7129,
      "bands": 7130,
      ")})": 7131,
      "sensitization": 7132,
      "packs": 7133,
      "amaze": 7134,
      "Dynamics": 7135,
      "Families": 7136,
      "STEP": 7137,
      "Beyond": 7138,
      "Scroll": 7139,
      "311": 7140,
      "urges": 7141,
      "Lodg": 7142,
      "astronaut": 7143,
      "Rise": 7144,
      "TITLE": 7145,
      "subscribe": 7146,
      "optimizer": 7147,
      "CBC": 7148,
      "Coding": 7149,
      "advertiser": 7150,
      "numbers": 7151,
      "terling": 7152,
      "Constitutional": 7153,
      "bombs": 7154,
      "sends": 7155,
      "drv": 7156,
      "launder": 7157,
      "refut": 7158,
      "rctic": 7159,
      "culpture": 7160,
      "SPAN": 7161,
      "Penal": 7162,
      "VARCHAR": 7163,
      "590": 7164,
      "CMake": 7165,
      "ewing": 7166,
      "**************": 7167,
      "temporal": 7168,
      "evelt": 7169,
      "ludge": 7170,
      "Factors": 7171,
      "sidebar": 7172,
      "Rest": 7173,
      "LLP": 7174,
      "extinguish": 7175,
      "bcam": 7176,
      "316": 7177,
      "0018": 7178,
      "possible": 7179,
      "395": 7180,
      "analgesic": 7181,
      "loot": 7182,
      "dioces": 7183,
      "Quantum": 7184,
      "496": 7185,
      "ClassName": 7186,
      "iframe": 7187,
      "mbition": 7188,
      "066": 7189,
      "520": 7190,
      "notations": 7191,
      "Registration": 7192,
      "aisle": 7193,
      "weed": 7194,
      "Rural": 7195,
      "Macro": 7196,
      "Ever": 7197,
      "318": 7198,
      "inaries": 7199,
      "paragraph": 7200,
      "ffordable": 7201,
      "417": 7202,
      "taker": 7203,
      "might": 7204,
      "FilePath": 7205,
      "SK": 7206,
      "icnic": 7207,
      "ledger": 7208,
      "8080": 7209,
      "VR": 7210,
      "CY": 7211,
      "Boys": 7212,
      "rivals": 7213,
      "eminent": 7214,
      "843": 7215,
      "citrate": 7216,
      "Advanced": 7217,
      "Payload": 7218,
      "aternity": 7219,
      "Ð¾": 7220,
      "cling": 7221,
      "confirm": 7222,
      "CEA": 7223,
      "pneumoniae": 7224,
      "negate": 7225,
      "Servlet": 7226,
      "brewing": 7227,
      "1021": 7228,
      "beard": 7229,
      "INTERNAL": 7230,
      "DY": 7231,
      "Completed": 7232,
      "cular": 7233,
      "GIT": 7234,
      "Digital": 7235,
      "tails": 7236,
      "Respondents": 7237,
      "GTP": 7238,
      "sufficient": 7239,
      "sober": 7240,
      "AFL": 7241,
      "uggling": 7242,
      "MATH": 7243,
      "receive": 7244,
      "630": 7245,
      "cupuncture": 7246,
      "975": 7247,
      "breaker": 7248,
      "backup": 7249,
      "CAN": 7250,
      "caffein": 7251,
      "AES": 7252,
      "kubernetes": 7253,
      "radford": 7254,
      "DROP": 7255,
      "stacking": 7256,
      "SAT": 7257,
      "reconcile": 7258,
      "ologist": 7259,
      "zzle": 7260,
      "bridges": 7261,
      "heavy": 7262,
      "Computer": 7263,
      "bruis": 7264,
      "Majority": 7265,
      "boundary": 7266,
      "Decoder": 7267,
      "Forbes": 7268,
      "Twelve": 7269,
      "Wire": 7270,
      "james": 7271,
      "nmol": 7272,
      "topping": 7273,
      "deprecated": 7274,
      "moan": 7275,
      "Authorities": 7276,
      "riving": 7277,
      "mapper": 7278,
      "migrated": 7279,
      "ilemma": 7280,
      "nik": 7281,
      "ologists": 7282,
      "sarcoma": 7283,
      "Xcode": 7284,
      "HCT": 7285,
      "Align": 7286,
      "adventures": 7287,
      "myosin": 7288,
      "won": 7289,
      "Plant": 7290,
      "obedien": 7291,
      "EBV": 7292,
      "wrinkle": 7293,
      "covariant": 7294,
      "854": 7295,
      "confidence": 7296,
      "convex": 7297,
      "873": 7298,
      "occupie": 7299,
      "nard": 7300,
      "ister": 7301,
      "shelve": 7302,
      "VK": 7303,
      "Middle": 7304,
      "}&\\": 7305,
      "bout": 7306,
      "Opening": 7307,
      "923": 7308,
      "polysaccharide": 7309,
      "Premium": 7310,
      "nyder": 7311,
      "arrington": 7312,
      "bstetric": 7313,
      "0035": 7314,
      "spacer": 7315,
      "corollary": 7316,
      "cube": 7317,
      "DIV": 7318,
      "Leslie": 7319,
      "Wolve": 7320,
      "839": 7321,
      "AVAIL": 7322,
      "oux": 7323,
      "Australia": 7324,
      "booking": 7325,
      "colloid": 7326,
      "472": 7327,
      "Telescop": 7328,
      "eference": 7329,
      "blueprint": 7330,
      "unjab": 7331,
      "445": 7332,
      "broad": 7333,
      "Modified": 7334,
      "479": 7335,
      "1111": 7336,
      "483": 7337,
      "grave": 7338,
      "lish": 7339,
      "Calvin": 7340,
      "imp": 7341,
      "checklist": 7342,
      "coat": 7343,
      "Captain": 7344,
      "illard": 7345,
      "flatter": 7346,
      "rosity": 7347,
      "gnome": 7348,
      "baseline": 7349,
      "075": 7350,
      "bagg": 7351,
      "Bethe": 7352,
      "hang": 7353,
      "Financial": 7354,
      "getMessage": 7355,
      "NAS": 7356,
      "431": 7357,
      "soap": 7358,
      "communal": 7359,
      "906": 7360,
      "ERC": 7361,
      "Taylor": 7362,
      "MZ": 7363,
      "hir": 7364,
      "maid": 7365,
      "INST": 7366,
      "fascist": 7367,
      "keratin": 7368,
      "curry": 7369,
      "Ruler": 7370,
      "bro": 7371,
      "GLOBAL": 7372,
      "Tile": 7373,
      "Different": 7374,
      "colonic": 7375,
      "Staphylococc": 7376,
      "Moderate": 7377,
      "abad": 7378,
      "chem": 7379,
      "feel": 7380,
      "Destination": 7381,
      "emph": 7382,
      "walker": 7383,
      "))$.": 7384,
      "tensil": 7385,
      "KV": 7386,
      "Btn": 7387,
      "969": 7388,
      "BUSINESS": 7389,
      "pseudo": 7390,
      "whatever": 7391,
      "increasing": 7392,
      "617": 7393,
      "Borel": 7394,
      "tempted": 7395,
      "Dolphin": 7396,
      "moderator": 7397,
      "SYSTEM": 7398,
      "ADDRESS": 7399,
      "localized": 7400,
      "icidal": 7401,
      "stitution": 7402,
      "horse": 7403,
      "cuda": 7404,
      "pink": 7405,
      "Regulator": 7406,
      "PACKAGE": 7407,
      "seat": 7408,
      "Choice": 7409,
      "partum": 7410,
      "nouncing": 7411,
      "Clock": 7412,
      "NIR": 7413,
      "blender": 7414,
      "provide": 7415,
      "skipped": 7416,
      "Equations": 7417,
      "667": 7418,
      "framing": 7419,
      "stars": 7420,
      "least": 7421,
      "ADC": 7422,
      "retroviral": 7423,
      "WAS": 7424,
      "Actor": 7425,
      "missibility": 7426,
      "Violence": 7427,
      "comparator": 7428,
      "Europe": 7429,
      "Relief": 7430,
      "necdot": 7431,
      "GAP": 7432,
      "differentiable": 7433,
      "omorphism": 7434,
      "Ver": 7435,
      "murmur": 7436,
      "gren": 7437,
      "dolph": 7438,
      "}}}}\\": 7439,
      "psychic": 7440,
      "chambers": 7441,
      "887": 7442,
      "pathetic": 7443,
      "ELSE": 7444,
      "PRIVATE": 7445,
      "started": 7446,
      "IllegalArgument": 7447,
      "stratification": 7448,
      "downloading": 7449,
      "allocator": 7450,
      "ifford": 7451,
      "Appeal": 7452,
      "anche": 7453,
      "elective": 7454,
      "positional": 7455,
      "886": 7456,
      "Testing": 7457,
      "ermon": 7458,
      "NCB": 7459,
      "Places": 7460,
      "cid": 7461,
      "nationalist": 7462,
      "BK": 7463,
      "explain": 7464,
      "traveler": 7465,
      "Bless": 7466,
      "EFI": 7467,
      "frail": 7468,
      "annular": 7469,
      "intel": 7470,
      "activate": 7471,
      "Geo": 7472,
      "entangle": 7473,
      "rational": 7474,
      "Simon": 7475,
      "frontend": 7476,
      "Ivy": 7477,
      "places": 7478,
      "BN": 7479,
      "Infrastructure": 7480,
      "crane": 7481,
      "translated": 7482,
      "acrylamide": 7483,
      "traveller": 7484,
      "contingenc": 7485,
      "RPE": 7486,
      ")={\\": 7487,
      "Parts": 7488,
      "edible": 7489,
      "ositron": 7490,
      "PAC": 7491,
      "academy": 7492,
      "contraceptive": 7493,
      "dural": 7494,
      "ROUND": 7495,
      "Tonight": 7496,
      "ethyl": 7497,
      "relent": 7498,
      "Justice": 7499,
      "}}|": 7500,
      "675": 7501,
      "oauth": 7502,
      "LR": 7503,
      "president": 7504,
      "gard": 7505,
      "quarantin": 7506,
      "466": 7507,
      "invad": 7508,
      "427": 7509,
      "iles": 7510,
      "842": 7511,
      "extended": 7512,
      "Flem": 7513,
      "Examination": 7514,
      "iasis": 7515,
      "498": 7516,
      "Exists": 7517,
      "judge": 7518,
      "immobiliz": 7519,
      "resses": 7520,
      "overview": 7521,
      "stretche": 7522,
      "WH": 7523,
      "988": 7524,
      "satisfaction": 7525,
      "ovich": 7526,
      "celer": 7527,
      "571": 7528,
      "Garrett": 7529,
      "installed": 7530,
      "modify": 7531,
      "997": 7532,
      "prior": 7533,
      "Better": 7534,
      "Louis": 7535,
      "Raide": 7536,
      "AdS": 7537,
      "878": 7538,
      "yield": 7539,
      "agogue": 7540,
      "Supervisor": 7541,
      "giants": 7542,
      "Instruction": 7543,
      "lattices": 7544,
      "relevant": 7545,
      "Wheeler": 7546,
      "predefined": 7547,
      "associative": 7548,
      "ddEventListener": 7549,
      "Newton": 7550,
      "Tick": 7551,
      "Opt": 7552,
      "Disable": 7553,
      "reconciliation": 7554,
      "detected": 7555,
      "FRAME": 7556,
      "shove": 7557,
      "acrylic": 7558,
      "Shadow": 7559,
      "give": 7560,
      "891": 7561,
      "violent": 7562,
      "malware": 7563,
      "imitat": 7564,
      "CACHE": 7565,
      "Quantification": 7566,
      "1956": 7567,
      "Predicate": 7568,
      "tokens": 7569,
      "059": 7570,
      "verb": 7571,
      "lymphatic": 7572,
      "076": 7573,
      "past": 7574,
      "fountain": 7575,
      ")+(": 7576,
      "EXIST": 7577,
      "Swift": 7578,
      "magery": 7579,
      "framed": 7580,
      "persistence": 7581,
      "Launch": 7582,
      "^*)": 7583,
      "tether": 7584,
      "KC": 7585,
      "blk": 7586,
      "logarithm": 7587,
      "bleach": 7588,
      "Forget": 7589,
      "reports": 7590,
      "obsolete": 7591,
      "434": 7592,
      "bican": 7593,
      "laden": 7594,
      "ues": 7595,
      "Front": 7596,
      "centres": 7597,
      "894": 7598,
      "pandas": 7599,
      "Zhou": 7600,
      "moment": 7601,
      "885": 7602,
      "inadvert": 7603,
      "hemp": 7604,
      "tricks": 7605,
      "faces": 7606,
      "598": 7607,
      "Encoder": 7608,
      "Brotherhood": 7609,
      "nives": 7610,
      "angels": 7611,
      "preempt": 7612,
      "aliens": 7613,
      "webpage": 7614,
      "ppression": 7615,
      "rightening": 7616,
      "acked": 7617,
      "Entries": 7618,
      "pragmatic": 7619,
      "Jacki": 7620,
      "GBM": 7621,
      "getClass": 7622,
      "597": 7623,
      "Sponsor": 7624,
      "PROC": 7625,
      "geography": 7626,
      "vacuation": 7627,
      "Pediatric": 7628,
      "troll": 7629,
      "Venus": 7630,
      "Maximum": 7631,
      "unresolved": 7632,
      "completion": 7633,
      "STREAM": 7634,
      "FILTER": 7635,
      "greeting": 7636,
      "auster": 7637,
      "everything": 7638,
      "offices": 7639,
      "stability": 7640,
      "Sally": 7641,
      "4096": 7642,
      "Penguin": 7643,
      "Steps": 7644,
      "avi": 7645,
      "RSO": 7646,
      "Stephen": 7647,
      "fuels": 7648,
      "OL": 7649,
      "]{};": 7650,
      "ruth": 7651,
      "Bring": 7652,
      "cenic": 7653,
      "estry": 7654,
      "Australian": 7655,
      "Breakfast": 7656,
      "pitch": 7657,
      "hurst": 7658,
      "flipped": 7659,
      "867": 7660,
      "oping": 7661,
      "965": 7662,
      "photometry": 7663,
      "meth": 7664,
      "ENTITY": 7665,
      "SBP": 7666,
      "cusp": 7667,
      "089": 7668,
      "congratulat": 7669,
      "iagen": 7670,
      "ballistic": 7671,
      "}\")": 7672,
      "trip": 7673,
      ")[$": 7674,
      "initializer": 7675,
      "referencing": 7676,
      "0019": 7677,
      "GRP": 7678,
      "stops": 7679,
      "clockwise": 7680,
      "Modern": 7681,
      "Tomato": 7682,
      "067": 7683,
      "Pages": 7684,
      "972": 7685,
      "progesterone": 7686,
      "Merge": 7687,
      "respect": 7688,
      "brane": 7689,
      "SB": 7690,
      "crosse": 7691,
      "MOS": 7692,
      "utterance": 7693,
      "Mix": 7694,
      "venom": 7695,
      "QT": 7696,
      "keepers": 7697,
      "Contrar": 7698,
      "TBS": 7699,
      "Initialize": 7700,
      "orally": 7701,
      "rivol": 7702,
      "Baseline": 7703,
      "Fischer": 7704,
      "rky": 7705,
      "MSE": 7706,
      "curcumin": 7707,
      "gown": 7708,
      "rogue": 7709,
      "collective": 7710,
      "^+_": 7711,
      "Melissa": 7712,
      "hol": 7713,
      "PTC": 7714,
      "peace": 7715,
      "gging": 7716,
      "INC": 7717,
      "higher": 7718,
      "}}}}$": 7719,
      "abid": 7720,
      "libc": 7721,
      "lipping": 7722,
      "Northeast": 7723,
      "Protein": 7724,
      "Carpenter": 7725,
      "deploy": 7726,
      "Verify": 7727,
      "WC": 7728,
      "steoporosis": 7729,
      "COLUMN": 7730,
      "epidemiology": 7731,
      "Logging": 7732,
      "918": 7733,
      "Gome": 7734,
      "gers": 7735,
      "Nickel": 7736,
      "ESA": 7737,
      "CPR": 7738,
      "Encode": 7739,
      "flexion": 7740,
      "gossip": 7741,
      "Tuple": 7742,
      "webpack": 7743,
      "caramel": 7744,
      "bilinear": 7745,
      "recursion": 7746,
      "hunters": 7747,
      "phenomenal": 7748,
      "cookbook": 7749,
      "umpkin": 7750,
      "PCA": 7751,
      "richer": 7752,
      "869": 7753,
      "GPU": 7754,
      "LG": 7755,
      "vagina": 7756,
      "Deutsche": 7757,
      "smack": 7758,
      "684": 7759,
      "874": 7760,
      "ZERO": 7761,
      "482": 7762,
      "Devin": 7763,
      "factorial": 7764,
      "GUID": 7765,
      "901": 7766,
      "alogues": 7767,
      "uart": 7768,
      "razor": 7769,
      "warriors": 7770,
      "834": 7771,
      "gloss": 7772,
      "cocoa": 7773,
      "shells": 7774,
      "liked": 7775,
      "439": 7776,
      "fresh": 7777,
      "lic": 7778,
      "welcome": 7779,
      "Handbook": 7780,
      "garnish": 7781,
      "Janet": 7782,
      "recv": 7783,
      "ener": 7784,
      "hernia": 7785,
      "580": 7786,
      "cutter": 7787,
      "_+$": 7788,
      "1080": 7789,
      "Generated": 7790,
      "ayette": 7791,
      "champions": 7792,
      "tale": 7793,
      "strcmp": 7794,
      "Eight": 7795,
      "LOOK": 7796,
      "HAS": 7797,
      "Caesar": 7798,
      "INNER": 7799,
      "981": 7800,
      "accret": 7801,
      "Soldier": 7802,
      "MMC": 7803,
      "fac": 7804,
      "589": 7805,
      "graphite": 7806,
      "Islamis": 7807,
      "oolish": 7808,
      "hexagon": 7809,
      "rebelli": 7810,
      "enure": 7811,
      "eagle": 7812,
      "violet": 7813,
      "REFERENCE": 7814,
      "rake": 7815,
      "reduced": 7816,
      "unicode": 7817,
      "svc": 7818,
      "DPP": 7819,
      "revoked": 7820,
      "Mid": 7821,
      "mputation": 7822,
      "compression": 7823,
      "vengers": 7824,
      "cxx": 7825,
      "turf": 7826,
      "BOARD": 7827,
      "scott": 7828,
      "quiries": 7829,
      "feld": 7830,
      "Ruby": 7831,
      "883": 7832,
      "851": 7833,
      "cerebellar": 7834,
      "coal": 7835,
      "transmission": 7836,
      "luminous": 7837,
      "drag": 7838,
      "formation": 7839,
      "454": 7840,
      "musing": 7841,
      "459": 7842,
      "963": 7843,
      "Symptoms": 7844,
      "905": 7845,
      "705": 7846,
      "stdin": 7847,
      "Murder": 7848,
      "LOSS": 7849,
      "electronic": 7850,
      "rivers": 7851,
      "../../../../../": 7852,
      "GTK": 7853,
      "933": 7854,
      "DIGIT": 7855,
      "stump": 7856,
      "toner": 7857,
      "703": 7858,
      "awaken": 7859,
      "epler": 7860,
      "DIC": 7861,
      "unconditional": 7862,
      "Mutex": 7863,
      "558": 7864,
      "skill": 7865,
      "poker": 7866,
      "gamers": 7867,
      "COL": 7868,
      "batche": 7869,
      "penny": 7870,
      "uric": 7871,
      "Yang": 7872,
      "Successful": 7873,
      "bioinformatic": 7874,
      "agged": 7875,
      "consortium": 7876,
      "Brush": 7877,
      "vious": 7878,
      "Mechanical": 7879,
      "1953": 7880,
      "Settlement": 7881,
      "unused": 7882,
      "readable": 7883,
      "oria": 7884,
      "normative": 7885,
      "Smoking": 7886,
      "ising": 7887,
      "patrick": 7888,
      "CLIENT": 7889,
      "sting": 7890,
      "acne": 7891,
      "Wilson": 7892,
      "ozy": 7893,
      "ourteen": 7894,
      "solve": 7895,
      "Directive": 7896,
      "Duty": 7897,
      "]));": 7898,
      "scrolling": 7899,
      "968": 7900,
      "PROPERTY": 7901,
      "Individuals": 7902,
      "939": 7903,
      "Monica": 7904,
      "091": 7905,
      "tained": 7906,
      "Dataset": 7907,
      "Managing": 7908,
      "publish": 7909,
      "automatic": 7910,
      "owski": 7911,
      "pearl": 7912,
      "iana": 7913,
      ">{{": 7914,
      "471": 7915,
      "mbassy": 7916,
      "certify": 7917,
      "olleyball": 7918,
      "perf": 7919,
      "swarm": 7920,
      "Maintain": 7921,
      "postle": 7922,
      "Ernest": 7923,
      "Important": 7924,
      "ACT": 7925,
      "largest": 7926,
      "spoiler": 7927,
      "opinion": 7928,
      "Hermitian": 7929,
      "478": 7930,
      "golan": 7931,
      "arment": 7932,
      "RING": 7933,
      "ERP": 7934,
      "pity": 7935,
      "dies": 7936,
      "Countries": 7937,
      "}$).": 7938,
      "Germany": 7939,
      "scientific": 7940,
      "preach": 7941,
      "Numeric": 7942,
      "Tanzania": 7943,
      "angling": 7944,
      "addam": 7945,
      "FileReference": 7946,
      ")}.$$": 7947,
      "516": 7948,
      "crystal": 7949,
      "Roche": 7950,
      "confiscat": 7951,
      "spores": 7952,
      "tenham": 7953,
      "creation": 7954,
      "defaults": 7955,
      "Separator": 7956,
      "athedral": 7957,
      "gardens": 7958,
      "films": 7959,
      "axillary": 7960,
      "585": 7961,
      "FIRST": 7962,
      "Ratio": 7963,
      "already": 7964,
      "Volunteer": 7965,
      ">\",": 7966,
      "Infinity": 7967,
      "Fresh": 7968,
      "Professor": 7969,
      "527": 7970,
      "React": 7971,
      "terpersonal": 7972,
      "}$\\": 7973,
      "IntPtr": 7974,
      "somnia": 7975,
      "rtwork": 7976,
      "disks": 7977,
      "994": 7978,
      "orchestra": 7979,
      "Resolution": 7980,
      "670": 7981,
      "677": 7982,
      "peut": 7983,
      "roatia": 7984,
      "relocation": 7985,
      "Retirement": 7986,
      "Savings": 7987,
      "777": 7988,
      "Bucket": 7989,
      "complicate": 7990,
      "deflect": 7991,
      "Describe": 7992,
      "shown": 7993,
      "owitz": 7994,
      "multiplicative": 7995,
      "Construction": 7996,
      "Explain": 7997,
      "INTERRUPT": 7998,
      "Loaded": 7999,
      "CDF": 8000,
      "cade": 8001,
      "1954": 8002,
      "jump": 8003,
      "1038": 8004,
      "Serious": 8005,
      "inflated": 8006,
      "coordinate": 8007,
      "moderate": 8008,
      "striv": 8009,
      "encapsulated": 8010,
      "PARAMETER": 8011,
      "Partial": 8012,
      "oddess": 8013,
      "technical": 8014,
      "doubled": 8015,
      "whim": 8016,
      "986": 8017,
      "setTimeout": 8018,
      "TSS": 8019,
      "serialize": 8020,
      "PPP": 8021,
      "ackling": 8022,
      "whitespace": 8023,
      "uckland": 8024,
      "curia": 8025,
      "oped": 8026,
      "SLC": 8027,
      "Warnings": 8028,
      "activism": 8029,
      "datum": 8030,
      "Enough": 8031,
      "989": 8032,
      "contours": 8033,
      "063": 8034,
      "brewery": 8035,
      "Matcher": 8036,
      "Algebra": 8037,
      "righteousness": 8038,
      "quer": 8039,
      "Valve": 8040,
      "opoulos": 8041,
      "racis": 8042,
      "Transmission": 8043,
      "FAILED": 8044,
      "DHA": 8045,
      "612": 8046,
      "IMPORT": 8047,
      "hashCode": 8048,
      "told": 8049,
      "Boulder": 8050,
      "erton": 8051,
      "CLA": 8052,
      "rgic": 8053,
      "measured": 8054,
      "Adjusted": 8055,
      "luent": 8056,
      "crime": 8057,
      "Vaccine": 8058,
      "FOUND": 8059,
      "segregate": 8060,
      "yahoo": 8061,
      "Checked": 8062,
      "QOL": 8063,
      "Late": 8064,
      "058": 8065,
      "Drawable": 8066,
      "775": 8067,
      "Boy": 8068,
      "BRC": 8069,
      "080": 8070,
      "Ingredients": 8071,
      "Postal": 8072,
      "Overlay": 8073,
      "matic": 8074,
      "elites": 8075,
      "578": 8076,
      "ingestion": 8077,
      "DES": 8078,
      "lamps": 8079,
      "941": 8080,
      "Ideas": 8081,
      "Cellular": 8082,
      "blonde": 8083,
      "proximate": 8084,
      "incarcerat": 8085,
      "Growing": 8086,
      "iuretic": 8087,
      "938": 8088,
      "Ecuador": 8089,
      "919": 8090,
      "947": 8091,
      "ashes": 8092,
      "arousal": 8093,
      "áº¡": 8094,
      "Clean": 8095,
      "Frequency": 8096,
      "Variables": 8097,
      "Sarah": 8098,
      "656": 8099,
      "repay": 8100,
      "labelling": 8101,
      "Lars": 8102,
      "histamine": 8103,
      "arcs": 8104,
      "medicine": 8105,
      "ithuania": 8106,
      "676": 8107,
      "consumer": 8108,
      "establish": 8109,
      "Rectangle": 8110,
      "augmentation": 8111,
      "ENUM": 8112,
      "Legion": 8113,
      "elmer": 8114,
      "mantra": 8115,
      "izable": 8116,
      "Far": 8117,
      "reactors": 8118,
      "coverage": 8119,
      "Validate": 8120,
      "413": 8121,
      "Assistance": 8122,
      "985": 8123,
      "Requirements": 8124,
      "].$$": 8125,
      "layoff": 8126,
      "uburn": 8127,
      "dictionary": 8128,
      "OPA": 8129,
      "injector": 8130,
      "Denied": 8131,
      "chute": 8132,
      "avatar": 8133,
      "androgen": 8134,
      "finance": 8135,
      "608": 8136,
      "Reverse": 8137,
      "CHANGE": 8138,
      "PROJECT": 8139,
      "DZ": 8140,
      "Revision": 8141,
      "PBM": 8142,
      "filtered": 8143,
      "604": 8144,
      "postal": 8145,
      "':'": 8146,
      "Strong": 8147,
      "inety": 8148,
      "iveness": 8149,
      "oyote": 8150,
      "exact": 8151,
      "Mechanism": 8152,
      "scores": 8153,
      "Might": 8154,
      "954": 8155,
      "Labels": 8156,
      "glomerular": 8157,
      "TIP": 8158,
      "Topics": 8159,
      "spline": 8160,
      "Bug": 8161,
      "blocker": 8162,
      "('<": 8163,
      "eier": 8164,
      "utter": 8165,
      ".......": 8166,
      "mediates": 8167,
      "azimuth": 8168,
      "petition": 8169,
      "}}-\\": 8170,
      "riches": 8171,
      "BOUND": 8172,
      "slave": 8173,
      "vir": 8174,
      "Beverly": 8175,
      "rumble": 8176,
      "ribosomal": 8177,
      "Paper": 8178,
      "\\[[": 8179,
      "lions": 8180,
      "fibration": 8181,
      "ubbard": 8182,
      "sprite": 8183,
      "experimental": 8184,
      "repayment": 8185,
      "ALPHA": 8186,
      "grease": 8187,
      "683": 8188,
      "Signaling": 8189,
      "hump": 8190,
      "648": 8191,
      "desser": 8192,
      "biliary": 8193,
      "rested": 8194,
      "HO": 8195,
      "935": 8196,
      "~^": 8197,
      "Opposition": 8198,
      "nitride": 8199,
      "/${": 8200,
      "owler": 8201,
      "Minn": 8202,
      "proves": 8203,
      "potent": 8204,
      "619": 8205,
      "Bitcoin": 8206,
      "hydroxide": 8207,
      "fluff": 8208,
      "plaintiff": 8209,
      "1945": 8210,
      "Santos": 8211,
      "museums": 8212,
      "Verno": 8213,
      "725": 8214,
      "Operand": 8215,
      "Steam": 8216,
      "wicke": 8217,
      "delivery": 8218,
      "recreate": 8219,
      "607": 8220,
      "Aviation": 8221,
      "Legal": 8222,
      "heroic": 8223,
      "Formatter": 8224,
      "Unlock": 8225,
      "abbage": 8226,
      "presentation": 8227,
      "GameObject": 8228,
      "EACH": 8229,
      "lier": 8230,
      "Zip": 8231,
      "toolkit": 8232,
      "aceae": 8233,
      "nesses": 8234,
      "Complex": 8235,
      "Screening": 8236,
      "protea": 8237,
      "APPEL": 8238,
      "mindful": 8239,
      "simplicial": 8240,
      "577": 8241,
      "inertia": 8242,
      "blossom": 8243,
      "Street": 8244,
      "Pending": 8245,
      "folds": 8246,
      "carousel": 8247,
      "volcano": 8248,
      "udible": 8249,
      "958": 8250,
      "913": 8251,
      "BUG": 8252,
      "funding": 8253,
      "grit": 8254,
      "rat": 8255,
      ";\"><": 8256,
      "stint": 8257,
      "}),\\": 8258,
      "registers": 8259,
      "ENGINE": 8260,
      "ragrance": 8261,
      "methasone": 8262,
      "gulf": 8263,
      "accredit": 8264,
      "Cricket": 8265,
      "dish": 8266,
      "Pseudomona": 8267,
      "DOUBLE": 8268,
      "Traditional": 8269,
      "spasm": 8270,
      "frog": 8271,
      "CIRCU": 8272,
      "bloggers": 8273,
      "OnClickListener": 8274,
      "hypertroph": 8275,
      "BUT": 8276,
      "exclusive": 8277,
      "redistribution": 8278,
      "wimmer": 8279,
      "862": 8280,
      "unchecked": 8281,
      "blush": 8282,
      "Troph": 8283,
      ")\">": 8284,
      "Tween": 8285,
      "547": 8286,
      "}})$.": 8287,
      "UAE": 8288,
      "[\\#": 8289,
      "emergent": 8290,
      "882": 8291,
      "alanine": 8292,
      "transparent": 8293,
      "chaperone": 8294,
      "crop": 8295,
      "ACTIVE": 8296,
      "MEMOR": 8297,
      "AO": 8298,
      "977": 8299,
      "READM": 8300,
      "Dependency": 8301,
      "impact": 8302,
      "956": 8303,
      "immunoprecipitat": 8304,
      "0050": 8305,
      "plural": 8306,
      "ishing": 8307,
      "idium": 8308,
      "vastatin": 8309,
      "bang": 8310,
      "Manufacturing": 8311,
      "Clone": 8312,
      "\\;\\": 8313,
      "ococcus": 8314,
      "odine": 8315,
      "dean": 8316,
      "AUTH": 8317,
      "cysts": 8318,
      "vitamin": 8319,
      "DECL": 8320,
      "jars": 8321,
      "blocking": 8322,
      "validator": 8323,
      "debugger": 8324,
      "mural": 8325,
      "Drupal": 8326,
      "Salvador": 8327,
      "VV": 8328,
      "posing": 8329,
      "Shepherd": 8330,
      "connector": 8331,
      "Electronic": 8332,
      "Cover": 8333,
      "distinct": 8334,
      "binomial": 8335,
      "Authorization": 8336,
      "Paulo": 8337,
      "delinquen": 8338,
      "967": 8339,
      "bromide": 8340,
      "reserving": 8341,
      "revive": 8342,
      "Pinterest": 8343,
      "Giving": 8344,
      "Upper": 8345,
      "thalamic": 8346,
      "maple": 8347,
      "tably": 8348,
      "therapists": 8349,
      "arcade": 8350,
      "savage": 8351,
      "iOS": 8352,
      "})+": 8353,
      "Movie": 8354,
      "rving": 8355,
      "461": 8356,
      "..\\..\\": 8357,
      "protector": 8358,
      "frown": 8359,
      "revision": 8360,
      "WL": 8361,
      "chapel": 8362,
      "bronchial": 8363,
      "Hyper": 8364,
      "smoothing": 8365,
      "647": 8366,
      "dispatcher": 8367,
      "Minimum": 8368,
      "0022": 8369,
      "Brigade": 8370,
      "pip": 8371,
      "downloads": 8372,
      "voyage": 8373,
      "financial": 8374,
      "HRP": 8375,
      "MBA": 8376,
      "plug": 8377,
      "Eye": 8378,
      "dust": 8379,
      "CAD": 8380,
      "endow": 8381,
      "057": 8382,
      "assignment": 8383,
      "544": 8384,
      "574": 8385,
      "rant": 8386,
      "leucine": 8387,
      "borders": 8388,
      "mminen": 8389,
      "ratification": 8390,
      "Hall": 8391,
      "listitem": 8392,
      "quilt": 8393,
      "1952": 8394,
      "eering": 8395,
      "urgenc": 8396,
      "vil": 8397,
      "ervasive": 8398,
      "},$": 8399,
      "ComboBox": 8400,
      "tant": 8401,
      "polymorphic": 8402,
      "WORLD": 8403,
      "Comparative": 8404,
      "guest": 8405,
      "trough": 8406,
      "cables": 8407,
      "Walk": 8408,
      "TOF": 8409,
      "studio": 8410,
      "Translation": 8411,
      "joint": 8412,
      "UT": 8413,
      "Ethan": 8414,
      "pain": 8415,
      "IGN": 8416,
      "deux": 8417,
      "quisite": 8418,
      "expansive": 8419,
      "upus": 8420,
      "Updates": 8421,
      "mound": 8422,
      "faults": 8423,
      "inositol": 8424,
      "Lin": 8425,
      "trooper": 8426,
      "EDGE": 8427,
      "tubule": 8428,
      "speak": 8429,
      "fiber": 8430,
      "prints": 8431,
      "dolphin": 8432,
      "BITS": 8433,
      "lihood": 8434,
      "Extended": 8435,
      "ARGS": 8436,
      "precipitate": 8437,
      "Couple": 8438,
      "PROTO": 8439,
      "County": 8440,
      "**),": 8441,
      "dilation": 8442,
      "discussion": 8443,
      "MRT": 8444,
      "CONNECT": 8445,
      "carrier": 8446,
      "ECD": 8447,
      "707": 8448,
      "ple": 8449,
      "Psychological": 8450,
      "severe": 8451,
      "injection": 8452,
      "Credentials": 8453,
      "Rider": 8454,
      "SCAR": 8455,
      "Inline": 8456,
      "judicat": 8457,
      "WO": 8458,
      "venge": 8459,
      "addClass": 8460,
      "WEEK": 8461,
      "simplification": 8462,
      "secretory": 8463,
      "thumbnail": 8464,
      "fiction": 8465,
      "unbound": 8466,
      "adjust": 8467,
      "EventHandler": 8468,
      "MLA": 8469,
      "ozone": 8470,
      "}=-\\": 8471,
      "]{}(": 8472,
      "latitude": 8473,
      "appall": 8474,
      "lol": 8475,
      "comparison": 8476,
      "spheroid": 8477,
      "DH": 8478,
      "insurance": 8479,
      "Huber": 8480,
      "DEAL": 8481,
      "luded": 8482,
      "desired": 8483,
      "POS": 8484,
      "connective": 8485,
      "543": 8486,
      "ration": 8487,
      "lingual": 8488,
      "lurk": 8489,
      "Saxon": 8490,
      "scription": 8491,
      "construction": 8492,
      "wellness": 8493,
      "Rating": 8494,
      "daddy": 8495,
      "Vertical": 8496,
      "multimedia": 8497,
      "zest": 8498,
      "mil": 8499,
      "Loss": 8500,
      "Brand": 8501,
      "nationalism": 8502,
      "indexPath": 8503,
      "Therapeutic": 8504,
      "reflection": 8505,
      "pathologic": 8506,
      "Beat": 8507,
      "Excel": 8508,
      "RO": 8509,
      ">${": 8510,
      "nostalgi": 8511,
      "knight": 8512,
      "belt": 8513,
      "ursery": 8514,
      "()[": 8515,
      "ethic": 8516,
      "Dlg": 8517,
      "SN": 8518,
      "MATERIAL": 8519,
      "bread": 8520,
      "ipple": 8521,
      "tractable": 8522,
      "Dimensions": 8523,
      "benefit": 8524,
      "yyyy": 8525,
      "Characterization": 8526,
      "lucocorticoid": 8527,
      "EXTERN": 8528,
      "Miguel": 8529,
      "^*}": 8530,
      "buster": 8531,
      "FEATURE": 8532,
      "madness": 8533,
      "accelerator": 8534,
      "heft": 8535,
      "vory": 8536,
      "pane": 8537,
      "Receive": 8538,
      "RPA": 8539,
      "FFFFFFFFFFFFFFFF": 8540,
      "equate": 8541,
      "semblance": 8542,
      "Repeat": 8543,
      "gitation": 8544,
      "crystallization": 8545,
      "Danis": 8546,
      "oncogene": 8547,
      "BMD": 8548,
      "duke": 8549,
      "Dogs": 8550,
      "dimethyl": 8551,
      "934": 8552,
      "encent": 8553,
      "deleted": 8554,
      "BUTTON": 8555,
      "HDR": 8556,
      "OTA": 8557,
      "immune": 8558,
      "turm": 8559,
      "ejected": 8560,
      "Runnable": 8561,
      "mindfulness": 8562,
      "shoot": 8563,
      "coords": 8564,
      "luminance": 8565,
      "dataType": 8566,
      "Fail": 8567,
      "982": 8568,
      "Slider": 8569,
      "transitive": 8570,
      "767": 8571,
      "superhero": 8572,
      "textual": 8573,
      "GPR": 8574,
      "histochemical": 8575,
      "completed": 8576,
      "Probability": 8577,
      "assigned": 8578,
      "Die": 8579,
      "bbb": 8580,
      "0045": 8581,
      "stakes": 8582,
      "Applicant": 8583,
      "typ": 8584,
      "aim": 8585,
      "Copenhagen": 8586,
      "emphasiz": 8587,
      "Bose": 8588,
      "PVC": 8589,
      "Bruin": 8590,
      "9999": 8591,
      "tabular": 8592,
      "astic": 8593,
      "Philippine": 8594,
      "Savage": 8595,
      "Symfony": 8596,
      "SIBILITY": 8597,
      "ulation": 8598,
      "hither": 8599,
      "lakh": 8600,
      "Libraries": 8601,
      "requests": 8602,
      "Processing": 8603,
      "Website": 8604,
      "ike": 8605,
      "Products": 8606,
      "Legend": 8607,
      "463": 8608,
      "transmitters": 8609,
      "518": 8610,
      "enstein": 8611,
      "discovery": 8612,
      "thriller": 8613,
      "Including": 8614,
      "lazar": 8615,
      "predispos": 8616,
      "odules": 8617,
      "flang": 8618,
      "STANDARD": 8619,
      "Majest": 8620,
      "itinib": 8621,
      "otic": 8622,
      "618": 8623,
      "492": 8624,
      "Banks": 8625,
      "7000": 8626,
      "pdev": 8627,
      "intervention": 8628,
      "ODE": 8629,
      "]\",": 8630,
      "TU": 8631,
      "citement": 8632,
      "ELF": 8633,
      "419": 8634,
      "relationship": 8635,
      "principal": 8636,
      "Pipeline": 8637,
      "Evaluation": 8638,
      "locations": 8639,
      "992": 8640,
      "scrape": 8641,
      "ESC": 8642,
      "Animal": 8643,
      "nxiety": 8644,
      "Serial": 8645,
      "ellipse": 8646,
      "oplasmic": 8647,
      "flakes": 8648,
      "recorder": 8649,
      "enough": 8650,
      "steric": 8651,
      "polymer": 8652,
      "blending": 8653,
      "CHF": 8654,
      "pyruvate": 8655,
      "]\\\\": 8656,
      "emulate": 8657,
      "enius": 8658,
      "quantity": 8659,
      "Jenny": 8660,
      "podium": 8661,
      "oper": 8662,
      "Img": 8663,
      "HIGH": 8664,
      "African": 8665,
      "integral": 8666,
      "nounced": 8667,
      "perforation": 8668,
      "Suite": 8669,
      "buckle": 8670,
      "MJ": 8671,
      "ponents": 8672,
      "Church": 8673,
      "(*)": 8674,
      "702": 8675,
      "resident": 8676,
      "DLC": 8677,
      "rollers": 8678,
      "Criteria": 8679,
      "717": 8680,
      "Buen": 8681,
      "RULE": 8682,
      "exposure": 8683,
      "quasi": 8684,
      "678": 8685,
      "sunshine": 8686,
      "fece": 8687,
      "examine": 8688,
      "Lenin": 8689,
      "izers": 8690,
      "Wizard": 8691,
      "behavior": 8692,
      "tuzumab": 8693,
      "monaster": 8694,
      "transforms": 8695,
      "raft": 8696,
      "runcation": 8697,
      "1800": 8698,
      "BCG": 8699,
      "Semit": 8700,
      "ugging": 8701,
      "fileName": 8702,
      "tents": 8703,
      "bliss": 8704,
      "chromatic": 8705,
      "lobster": 8706,
      "objective": 8707,
      "770": 8708,
      "adrenergic": 8709,
      "SX": 8710,
      "suffix": 8711,
      "Radiation": 8712,
      "serious": 8713,
      "molecule": 8714,
      "Megan": 8715,
      "keeps": 8716,
      "1107": 8717,
      "Trial": 8718,
      "Pick": 8719,
      "Links": 8720,
      "multiplicit": 8721,
      "LSU": 8722,
      "clown": 8723,
      "instein": 8724,
      "legacy": 8725,
      "Percent": 8726,
      "urture": 8727,
      "ailor": 8728,
      "zilla": 8729,
      "Gaussian": 8730,
      "Advocate": 8731,
      "pierc": 8732,
      "joined": 8733,
      "(\"#": 8734,
      "Impact": 8735,
      "alright": 8736,
      "earm": 8737,
      "consultants": 8738,
      "Cool": 8739,
      "Paris": 8740,
      "debit": 8741,
      "partitioning": 8742,
      "Seconds": 8743,
      "Coord": 8744,
      "selves": 8745,
      "browsers": 8746,
      "elasticsearch": 8747,
      "NW": 8748,
      "increment": 8749,
      "alga": 8750,
      "PCP": 8751,
      "Hawkin": 8752,
      "eats": 8753,
      "mails": 8754,
      "administration": 8755,
      "MODEL": 8756,
      "Verla": 8757,
      "yang": 8758,
      "Pont": 8759,
      "specialization": 8760,
      "sank": 8761,
      "Galile": 8762,
      "otto": 8763,
      "Throwable": 8764,
      "elders": 8765,
      "genetics": 8766,
      "beacon": 8767,
      "BIO": 8768,
      "loaf": 8769,
      "Circle": 8770,
      "alliative": 8771,
      "Secondary": 8772,
      "portal": 8773,
      "CHANNEL": 8774,
      "7554": 8775,
      "Shop": 8776,
      ")',": 8777,
      "LinkedIn": 8778,
      "Battle": 8779,
      "clinic": 8780,
      "glitter": 8781,
      "primitive": 8782,
      "asphalt": 8783,
      "GREAT": 8784,
      "ulnerabilities": 8785,
      "biscuit": 8786,
      "CX": 8787,
      "cleanup": 8788,
      "Contractor": 8789,
      "degenerative": 8790,
      "CENTER": 8791,
      "frag": 8792,
      "crc": 8793,
      "usband": 8794,
      "PCS": 8795,
      "EXTRA": 8796,
      "RESET": 8797,
      "Flash": 8798,
      "214748364": 8799,
      "Actual": 8800,
      "spaces": 8801,
      "aque": 8802,
      "Casual": 8803,
      "Recommended": 8804,
      "osonic": 8805,
      "prosthetic": 8806,
      "Merke": 8807,
      "Arduino": 8808,
      "Physics": 8809,
      "inson": 8810,
      "neural": 8811,
      "Drag": 8812,
      "Royal": 8813,
      "fund": 8814,
      "Generation": 8815,
      "getAttribute": 8816,
      "GAIN": 8817,
      "Measures": 8818,
      "REMENT": 8819,
      "stash": 8820,
      "Keywords": 8821,
      "mince": 8822,
      "assessment": 8823,
      "Entities": 8824,
      "darling": 8825,
      "esophagus": 8826,
      "aken": 8827,
      "lugg": 8828,
      "THINK": 8829,
      "oxides": 8830,
      "LIBRARY": 8831,
      "Vaugh": 8832,
      "Proposed": 8833,
      "angiogenic": 8834,
      "CIS": 8835,
      "asteroid": 8836,
      "elemental": 8837,
      "Mongol": 8838,
      "Critical": 8839,
      "bunk": 8840,
      "Geographic": 8841,
      "submissions": 8842,
      "kai": 8843,
      "SERVICE": 8844,
      "TAKE": 8845,
      "uring": 8846,
      "booster": 8847,
      "tainment": 8848,
      "584": 8849,
      "behind": 8850,
      "Gordon": 8851,
      "Sweet": 8852,
      "RuntimeException": 8853,
      "malformation": 8854,
      "insof": 8855,
      "opcode": 8856,
      "1949": 8857,
      "chili": 8858,
      "\\^[(": 8859,
      "canned": 8860,
      "sulfide": 8861,
      "slug": 8862,
      "NIST": 8863,
      "Limitations": 8864,
      "AKI": 8865,
      "erennial": 8866,
      "ketone": 8867,
      "averick": 8868,
      "gill": 8869,
      "Training": 8870,
      "Boltzmann": 8871,
      "chk": 8872,
      "registered": 8873,
      "lapping": 8874,
      "endoscopy": 8875,
      "tinence": 8876,
      "police": 8877,
      "commuting": 8878,
      "629": 8879,
      "SCP": 8880,
      "devices": 8881,
      "clipping": 8882,
      "pdb": 8883,
      "declaration": 8884,
      "LSA": 8885,
      "dates": 8886,
      "ValueError": 8887,
      "binge": 8888,
      "097": 8889,
      "missible": 8890,
      "GRANT": 8891,
      "PPV": 8892,
      "genomics": 8893,
      "FCS": 8894,
      "bots": 8895,
      "citabine": 8896,
      "starting": 8897,
      "787": 8898,
      "Availability": 8899,
      "voiced": 8900,
      "echocardiograph": 8901,
      "blister": 8902,
      "pbi": 8903,
      "Transactions": 8904,
      "WebKit": 8905,
      "PLUS": 8906,
      "Norm": 8907,
      "cached": 8908,
      "Inclusion": 8909,
      "further": 8910,
      "theism": 8911,
      "BCL": 8912,
      "insecure": 8913,
      "POSITION": 8914,
      "Extract": 8915,
      "708": 8916,
      "epileptic": 8917,
      "flop": 8918,
      "tank": 8919,
      "2500": 8920,
      "scalation": 8921,
      "xpath": 8922,
      "ClassLoader": 8923,
      "Jordan": 8924,
      "dart": 8925,
      "instruction": 8926,
      "colors": 8927,
      "dinosaur": 8928,
      "chilling": 8929,
      "strut": 8930,
      "reject": 8931,
      "714": 8932,
      "setValue": 8933,
      "methoxy": 8934,
      "intermediate": 8935,
      "biological": 8936,
      "tapes": 8937,
      "stealth": 8938,
      "sieve": 8939,
      "RFP": 8940,
      "SCALE": 8941,
      "HM": 8942,
      "incarnation": 8943,
      "Computational": 8944,
      "anonymous": 8945,
      "077": 8946,
      "491": 8947,
      "relic": 8948,
      "521": 8949,
      "Capacity": 8950,
      "surfing": 8951,
      "GST": 8952,
      "DON": 8953,
      "reprint": 8954,
      "FULL": 8955,
      "626": 8956,
      "depot": 8957,
      "Muscle": 8958,
      "Blocks": 8959,
      "fries": 8960,
      "renders": 8961,
      "Carl": 8962,
      "Lagrange": 8963,
      "squat": 8964,
      "HashSet": 8965,
      "713": 8966,
      "hamster": 8967,
      "Wiki": 8968,
      "SAS": 8969,
      "APC": 8970,
      "rowning": 8971,
      "Preston": 8972,
      "extent": 8973,
      "PPC": 8974,
      "DDR": 8975,
      "Weaver": 8976,
      "Studios": 8977,
      "CDATA": 8978,
      "divisible": 8979,
      "TFT": 8980,
      "Hugo": 8981,
      "REGISTER": 8982,
      "745": 8983,
      "UNKNOWN": 8984,
      "aryl": 8985,
      "Pakistan": 8986,
      "glucose": 8987,
      "Estimated": 8988,
      "drenaline": 8989,
      "listings": 8990,
      "Offline": 8991,
      "clamp": 8992,
      "Windsor": 8993,
      "cdc": 8994,
      "Wild": 8995,
      "jsp": 8996,
      "axle": 8997,
      "CSI": 8998,
      "several": 8999,
      "^\\#^": 9000,
      "FFT": 9001,
      "783": 9002,
      "anna": 9003,
      "PES": 9004,
      "clique": 9005,
      "Dump": 9006,
      "odging": 9007,
      "526": 9008,
      "dysplasia": 9009,
      "Concentration": 9010,
      "unrise": 9011,
      "hound": 9012,
      "applied": 9013,
      "694": 9014,
      "expansion": 9015,
      "991": 9016,
      "Presence": 9017,
      "Assumption": 9018,
[...]
