{
  "version": "1.0",
  "truncation": null,
  "padding": null,
  "added_tokens": [
    {
      "id": 0,
      "content": "[UNK]",
      "single_word": false,
      "lstrip": false,
      "rstrip": false,
      "normalized": false,
      "special": true
    }
  ],
  "normalizer": null,
  "pre_tokenizer": {
    "type": "ByteLevel",
    "add_prefix_space": true,
    "trim_offsets": true,
    "use_regex": true
  },
  "post_processor": null,
  "decoder": null,
  "model": {
    "type": "Unigram",
    "unk_id": null,
    "vocab": [
      [
        "[UNK]",
        0.0
      ],
      [
        "Ġ",
        -2.0222917284502913
      ],
      [
        ".",
        -3.4623604518081876
      ],
      [
        "Ċ",
        -3.514957076913845
      ],
      [
        ",",
        -3.5919429793935507
      ],
      [
        "Ġthe",
        -3.7412188060905187
      ],
      [
        "s",
        -3.9081779038017466
      ],
      [
        "Ġof",
        -4.329785521613456
      ],
      [
        "a",
        -4.333683732807476
      ],
      [
        "-",
        -4.407538279223125
      ],
      [
        "Ġand",
        -4.496957444388503
      ],
      [
        "Ġto",
        -4.507011376404801
      ],
      [
        "(",
        -4.695504108803387
      ],
      [
        "Ġin",
        -4.785279088590823
      ],
      [
        "_",
        -5.059945430913679
      ],
      [
        "\"",
        -5.111040883984344
      ],
      [
        ")",
        -5.142629585779524
      ],
      [
        "Ġis",
        -5.202709026498493
      ],
      [
        "'",
        -5.321563802816774
      ],
      [
        "1",
        -5.356103341320102
      ],
      [
        "Ġthat",
        -5.367279707229118
      ],
      [
        ":",
        -5.401491511507855
      ],
      [
        "\\",
        -5.4239796841495735
      ],
      [
        "2",
        -5.441784479400983
      ],
      [
        "t",
        -5.4439785749374074
      ],
      [
        "Ġfor",
        -5.459103910812793
      ],
      [
        "d",
        -5.477687056808268
      ],
      [
        "e",
        -5.503735905068254
      ],
      [
        "$",
        -5.55726538956176
      ],
      [
        "I",
        -5.563898904751943
      ],
      [
        "0",
        -5.590375148504714
      ],
      [
        "*",
        -5.610046565588764
      ],
      [
        "i",
        -5.669271741654434
      ],
      [
        "n",
        -5.714541365473972
      ],
      [
        "Ġwith",
        -5.734011415317598
      ],
      [
        "ing",
        -5.7545193181125605
      ],
      [
        "m",
        -5.758415714688681
      ],
      [
        "{",
        -5.7606534607754565
      ],
      [
        "=",
        -5.77075918466538
      ],
      [
        "/",
        -5.779673051417927
      ],
      [
        "ed",
        -5.82500199744867
      ],
      [
        "o",
        -5.845432443180398
      ],
      [
        "Ġon",
        -5.899793746371737
      ],
      [
        "}",
        -5.931482608643945
      ],
      [
        "Ġbe",
        -5.960865190726311
      ],
      [
        "Ġas",
        -5.983162805691842
      ],
      [
        "Ġwas",
        -5.991691547063752
      ],
      [
        "Ġit",
        -6.016927311814548
      ],
      [
        "3",
        -6.037395186804924
      ],
      [
        ";",
        -6.059548718161981
      ],
      [
        "Ġare",
        -6.1028536541810094
      ],
      [
        "Ġby",
        -6.121027802751172
      ],
      [
        "A",
        -6.136837725426082
      ],
      [
        "p",
        -6.142794871571148
      ],
      [
        "at",
        -6.169560618365498
      ],
      [
        "ly",
        -6.172412900678278
      ],
      [
        "c",
        -6.173296375677619
      ],
      [
        "y",
        -6.212447952839225
      ],
      [
        "r",
        -6.242491567767287
      ],
      [
        "Ġthis",
        -6.27179207554563
      ],
      [
        "âĢĻ",
        -6.28811672182125
      ],
      [
        "ĠĠĠĠĠĠĠĠĠĠĠĠĠĠĠĠ",
        -6.292919677842834
      ],
      [
        "Ġfrom",
        -6.2963042346922755
      ],
      [
        "Ġnot",
        -6.297940043001807
      ],
      [
        "Ġyou",
        -6.300662739891781
      ],
      [
        "ĠThe",
        -6.301280772986962
      ],
      [
        "b",
        -6.308349301920366
      ],
      [
        "ĉ",
        -6.319837404870627
      ],
      [
        "Ġor",
        -6.3561586864507
      ],
      [
        ">",
        -6.361357751214447
      ],
      [
        "ĊĠĠĠ",
        -6.370640808891382
      ],
      [
        "4",
        -6.388357472491805
      ],
      [
        "Ġhave",
        -6.390214481320033
      ],
      [
        "f",
        -6.395754692049982
      ],
      [
        "S",
        -6.423849966762944
      ],
      [
        "x",
        -6.434311210207246
      ],
      [
        "Ġan",
        -6.444821750273212
      ],
      [
        "+",
        -6.476726252164825
      ],
      [
        "<",
        -6.527716986399922
      ],
      [
        "5",
        -6.539504687106573
      ],
      [
        "l",
        -6.541329628524068
      ],
      [
        "[",
        -6.573943169416273
      ],
      [
        "C",
        -6.597427117705955
      ],
      [
        "Ġwe",
        -6.631630995363961
      ],
      [
        "B",
        -6.67793793743372
      ],
      [
        "g",
        -6.717095130987364
      ],
      [
        "Ġcan",
        -6.7263042152733235
      ],
      [
        "h",
        -6.727548320302125
      ],
      [
        "Ġwere",
        -6.740836035430107
      ],
      [
        "v",
        -6.753428782407374
      ],
      [
        "ĊĠĠĠĠĠĠĠ",
        -6.762313601157825
      ],
      [
        "**",
        -6.77936750618662
      ],
      [
        "=\"",
        -6.793276899478322
      ],
      [
        "The",
        -6.7961606483872
      ],
      [
        "Ġwhich",
        -6.820478273799571
      ],
      [
        "he",
        -6.827287074173416
      ],
      [
        "k",
        -6.830296545120175
      ],
      [
        "Ġhas",
        -6.84154111706618
      ],
      [
        "?",
        -6.853445827461922
      ],
      [
        "Ġbut",
        -6.9164221781371555
      ],
      [
        "u",
        -6.926787285879813
      ],
      [
        "Ġwill",
        -6.933399986307506
      ],
      [
        ".\"",
        -6.948834735199856
      ],
      [
        "in",
        -6.960951084092057
      ],
      [
        "6",
        -6.967051559374674
      ],
      [
        "]",
        -6.982677067854468
      ],
      [
        "Ġall",
        -6.9882053905519985
      ],
      [
        "Ġhis",
        -7.030026882362325
      ],
      [
        "Ġone",
        -7.036911111063354
      ],
      [
        "Ġif",
        -7.042406042576813
      ],
      [
        ").",
        -7.066655818188739
      ],
      [
        "P",
        -7.081487678011335
      ],
      [
        "M",
        -7.088807616882285
      ],
      [
        "D",
        -7.0928750580181585
      ],
      [
        "Âł",
        -7.117998612062596
      ],
      [
        "E",
        -7.130070863246418
      ],
      [
        "R",
        -7.134506949151472
      ],
      [
        "Ġthey",
        -7.135139638877497
      ],
      [
        "8",
        -7.143018476030747
      ],
      [
        "Ġtheir",
        -7.1438135230741455
      ],
      [
        "T",
        -7.1543906618029425
      ],
      [
        "F",
        -7.157188745675521
      ],
      [
        "Ġmore",
        -7.160741384425224
      ],
      [
        "_{",
        -7.161532474664407
      ],
      [
        "7",
        -7.168236821726024
      ],
      [
        "&",
        -7.176566168344751
      ],
      [
        ");",
        -7.197555692387944
      ],
      [
        "^",
        -7.217891575737092
      ],
      [
        "Ġhad",
        -7.2297016192702195
      ],
      [
        "Ġ$\\",
        -7.251172588618871
      ],
      [
        "Ġbeen",
        -7.251606737003696
      ],
      [
        "re",
        -7.255976233155881
      ],
      [
        "%",
        -7.2697807815836
      ],
      [
        "Ġyour",
        -7.277144139062427
      ],
      [
        "Ġalso",
        -7.2815889639967395
      ],
      [
        "N",
        -7.28835181299768
      ],
      [
        "Ġwould",
        -7.2924105300425985
      ],
      [
        "Ġthere",
        -7.306864017451925
      ],
      [
        "Ġout",
        -7.314240797892531
      ],
      [
        "Ġwhen",
        -7.318540901747989
      ],
      [
        "L",
        -7.319198591213922
      ],
      [
        "Ġabout",
        -7.326185323611936
      ],
      [
        "j",
        -7.331471461865403
      ],
      [
        "Ġtime",
        -7.33800345784568
      ],
      [
        "er",
        -7.345837955189724
      ],
      [
        "H",
        -7.347673546677687
      ],
      [
        "Ġother",
        -7.3641104129921935
      ],
      [
        "ĠIn",
        -7.367716729725418
      ],
      [
        "ĊĠĠĠĠĠĠĠĠĠĠĠ",
        -7.37876864189624
      ],
      [
        "w",
        -7.37893092571181
      ],
      [
        "Ġwho",
        -7.380009350376708
      ],
      [
        "Ġdo",
        -7.384691769183055
      ],
      [
        "9",
        -7.401616521375347
      ],
      [
        "</",
        -7.402943258726577
      ],
      [
        "Ġmy",
        -7.405939542663029
      ],
      [
        "Ġno",
        -7.406856814046909
      ],
      [
        "Ġup",
        -7.415961043863215
      ],
      [
        "#",
        -7.431025976218294
      ],
      [
        "),",
        -7.431040937654371
      ],
      [
        "[@",
        -7.432574314229662
      ],
      [
        "Ġthan",
        -7.4473598734235225
      ],
      [
        "ĠâĢľ",
        -7.4487738431983725
      ],
      [
        "z",
        -7.476046837909273
      ],
      [
        "{\\",
        -7.49197633974307
      ],
      [
        "|",
        -7.495074461251663
      ],
      [
        "G",
        -7.506825348050448
      ],
      [
        "Ġinto",
        -7.518771162674081
      ],
      [
        "type",
        -7.530136126251305
      ],
      [
        "Ġour",
        -7.539117682868495
      ],
      [
        "Ġher",
        -7.543982846685465
      ],
      [
        "Ġlike",
        -7.544517012428187
      ],
      [
        "Ġtwo",
        -7.556207358425734
      ],
      [
        "Ġany",
        -7.559345844402307
      ],
      [
        "Ġsaid",
        -7.5633327603049505
      ],
      [
        "Ġonly",
        -7.563427281353054
      ],
      [
        "Ġnew",
        -7.567969276390183
      ],
      [
        "Ġwhat",
        -7.579609490446419
      ],
      [
        "or",
        -7.587285513804771
      ],
      [
        "ĊĠĠĠĠĠĠĠĠĠĠĠĠĠĠĠ",
        -7.596466697981986
      ],
      [
        "Ġits",
        -7.598414876353688
      ],
      [
        "Ġsome",
        -7.6058430084102735
      ],
      [
        "U",
        -7.610573427903086
      ],
      [
        "Ġmay",
        -7.6129427989928455
      ],
      [
        "Ġover",
        -7.619076571540058
      ],
      [
        "----------------",
        -7.630644270433907
      ],
      [
        "ĠIt",
        -7.651242347346608
      ],
      [
        "Ġsuch",
        -7.655260617966791
      ],
      [
        "Ġfirst",
        -7.659288185005517
      ],
      [
        "ref",
        -7.664570026114282
      ],
      [
        "Ġthese",
        -7.677918970708509
      ],
      [
        "ĠThis",
        -7.685142460614621
      ],
      [
        "@",
        -7.686039463928109
      ],
      [
        "ĊĠĠĠĠĠ",
        -7.691223505146688
      ],
      [
        "X",
        -7.698156790084326
      ],
      [
        "Ġget",
        -7.7006527698858775
      ],
      [
        "Ġme",
        -7.7045700190872015
      ],
      [
        "K",
        -7.7057282988659335
      ],
      [
        "Ġuse",
        -7.722185401351199
      ],
      [
        "Ġwhere",
        -7.726685454741618
      ],
      [
        "10",
        -7.731871442446511
      ],
      [
        "Ġun",
        -7.741409705613739
      ],
      [
        "Ġafter",
        -7.745013203024797
      ],
      [
        "J",
        -7.746762479657855
      ],
      [
        "Ġjust",
        -7.753198270292554
      ],
      [
        "Ġbetween",
        -7.765721063401134
      ],
      [
        "q",
        -7.765724279104942
      ],
      [
        "on",
        -7.785603880846118
      ],
      [
        "!",
        -7.791916321936917
      ],
      [
        "Ġcould",
        -7.79828625431492
      ],
      [
        "V",
        -7.806046918662
      ],
      [
        "to",
        -7.807059130278988
      ],
      [
        "In",
        -7.820130093217568
      ],
      [
        "Ġused",
        -7.822697675711847
      ],
      [
        "ĠWe",
        -7.852854262761225
      ],
      [
        "Ġpeople",
        -7.856520423495036
      ],
      [
        "~",
        -7.8580099420282306
      ],
      [
        "Ġshe",
        -7.87875077487144
      ],
      [
        "Ġdata",
        -7.884217669696303
      ],
      [
        "al",
        -7.886328034449374
      ],
      [
        "Ġthem",
        -7.889621729113603
      ],
      [
        "Ġusing",
        -7.909620391691714
      ],
      [
        "Ġbecause",
        -7.912531487165708
      ],
      [
        "}\\",
        -7.913366401089766
      ],
      [
        "Ġunder",
        -7.914243534300882
      ],
      [
        "able",
        -7.917371357652387
      ],
      [
        "Ġshould",
        -7.917393813792755
      ],
      [
        "W",
        -7.93174215855387
      ],
      [
        "us",
        -7.940488181445016
      ],
      [
        "->",
        -7.963610776536822
      ],
      [
        "Ġwell",
        -7.975887177177555
      ],
      [
        "O",
        -7.988787191482249
      ],
      [
        "Ġmost",
        -7.990268585757255
      ],
      [
        "Ġhow",
        -7.99560325851292
      ],
      [
        "){",
        -8.012057836343955
      ],
      [
        "Ġcase",
        -8.012640119357531
      ],
      [
        "Ġeach",
        -8.016865758838195
      ],
      [
        "Ġwork",
        -8.02115987904569
      ],
      [
        "Q",
        -8.022924569939276
      ],
      [
        "Ġhim",
        -8.027577685502107
      ],
      [
        "right",
        -8.03221436405423
      ],
      [
        "Ġknow",
        -8.03362701326051
      ],
      [
        "Ġway",
        -8.036009688843352
      ],
      [
        "is",
        -8.040079050704566
      ],
      [
        "Ġmake",
        -8.04432988897049
      ],
      [
        "Ċĉ",
        -8.060085000264035
      ],
      [
        "ĠHe",
        -8.061657677679774
      ],
      [
        "Ġsee",
        -8.084151485953752
      ],
      [
        "left",
        -8.087813977152425
      ],
      [
        "frac",
        -8.096469961744653
      ],
      [
        "Ġthrough",
        -8.097011718206524
      ],
      [
        "Ġeven",
        -8.097056723005988
      ],
      [
        "Ġclass",
        -8.09749577552012
      ],
      [
        "12",
        -8.100081272606058
      ],
      [
        "Ġsame",
        -8.107766364996962
      ],
      [
        "com",
        -8.11328217857346
      ],
      [
        "âĢĿ",
        -8.11446694018659
      ],
      [
        "th",
        -8.114911377939332
      ],
      [
        "}$",
        -8.116084731430089
      ],
      [
        "and",
        -8.13448278497891
      ],
      [
        "Ġthose",
        -8.136639951705941
      ],
      [
        "](#",
        -8.137397029321518
      ],
      [
        "Ġnow",
        -8.140603148068909
      ],
      [
        "Ġboth",
        -8.142115986113817
      ],
      [
        "Ġneed",
        -8.1438170019732
      ],
      [
        "Ġvery",
        -8.143837143240567
      ],
      [
        "()",
        -8.148493829510844
      ],
      [
        "Ġdid",
        -8.153514746236231
      ],
      [
        "Ġyears",
        -8.160661387569121
      ],
      [
        "Ġ10",
        -8.166686140068952
      ],
      [
        "Ġdifferent",
        -8.169490779937373
      ],
      [
        "Ġde",
        -8.170602745994726
      ],
      [
        "\">",
        -8.173403070642822
      ],
      [
        "Ġbeing",
        -8.175891820839745
      ],
      [
        "the",
        -8.179151322656702
      ],
      [
        "Ġnumber",
        -8.182775501941329
      ],
      [
        "Ġmany",
        -8.183482113080634
      ],
      [
        "Ġreturn",
        -8.186486921536266
      ],
      [
        "end",
        -8.1884768588008
      ],
      [
        "Ġbefore",
        -8.189965830321961
      ],
      [
        "?\"",
        -8.193687054009857
      ],
      [
        "Ġback",
        -8.19390608735857
      ],
      [
        "11",
        -8.195424504565738
      ],
      [
        "\\[[@",
        -8.199820264742533
      ],
      [
        "...",
        -8.20255919550344
      ],
      [
        "âĢī",
        -8.20599205175383
      ],
      [
        "Y",
        -8.21609093045017
      ],
      [
        "Ġdon",
        -8.22675165993175
      ],
      [
        "Ġhere",
        -8.233856929692681
      ],
      [
        "What",
        -8.239635431324457
      ],
      [
        "--",
        -8.241685459882328
      ],
      [
        "ve",
        -8.243069242792481
      ],
      [
        "We",
        -8.24361735292084
      ],
      [
        "],",
        -8.243670529666133
      ],
      [
        "::",
        -8.245008925357553
      ],
      [
        "Ġset",
        -8.247335002423856
      ],
      [
        "name",
        -8.252482469321432
      ],
      [
        "Ġtake",
        -8.254319785621336
      ],
      [
        "fig",
        -8.261148562369097
      ],
      [
        "Ġsystem",
        -8.266426761722418
      ],
      [
        "if",
        -8.27089735412778
      ],
      [
        "Ġmade",
        -8.27173543820651
      ],
      [
        "Ġfound",
        -8.272283661392368
      ],
      [
        "Ġcourt",
        -8.27545884051399
      ],
      [
        "Ġhigh",
        -8.282867763772858
      ],
      [
        "Ġstudy",
        -8.285106326719971
      ],
      [
        "mathb",
        -8.28720647984552
      ],
      [
        "Ġvalue",
        -8.287374440793728
      ],
      [
        "Ġwant",
        -8.287771302834752
      ],
      [
        "Ġwhile",
        -8.288405705124902
      ],
      [
        "://",
        -8.288609541717053
      ],
      [
        "Ġgood",
        -8.298174890942919
      ],
      [
        "Ġfunction",
        -8.310807970499408
      ],
      [
        "text",
        -8.316601349213224
      ],
      [
        "Ġmuch",
        -8.317406616047199
      ],
      [
        "Ġstate",
        -8.329632746503968
      ],
      [
        "Ġthree",
        -8.336087721675968
      ],
      [
        "Ġthink",
        -8.339798764560948
      ],
      [
        "ĊĊĠĠĠ",
        -8.342562681018975
      ],
      [
        "Ġright",
        -8.343374633680272
      ],
      [
        "Ġpatients",
        -8.35289647343459
      ],
      [
        "_{\\",
        -8.353226303032196
      ],
      [
        "Ġorder",
        -8.354401048085508
      ],
      [
        "Ġnon",
        -8.35540674774316
      ],
      [
        ".âĢĿ",
        -8.355555285078152
      ],
      [
        "Ġpublic",
        -8.35739824251827
      ],
      [
        "Ġdoes",
        -8.359258013969125
      ],
      [
        "Ġduring",
        -8.359948252207493
      ],
      [
        "Ġwithout",
        -8.362072648736987
      ],
      [
        "Ġpart",
        -8.374604157736753
      ],
      [
        "It",
        -8.37698703212001
      ],
      [
        "ĠâĢĵ",
        -8.378294433034641
      ],
      [
        "ers",
        -8.381160238178028
      ],
      [
        "ll",
        -8.383940758543792
      ],
      [
        "Â",
        -8.385191212774133
      ],
      [
        "Ġcells",
        -8.385516267884247
      ],
      [
        "Let",
        -8.386515496811366
      ],
      [
        "Z",
        -8.392380987471727
      ],
      [
        "//",
        -8.398752991124226
      ],
      [
        "00",
        -8.40198544227398
      ],
      [
        "Ġdown",
        -8.414808419819131
      ],
      [
        "ĠFor",
        -8.414862253357063
      ],
      [
        "an",
        -8.417491951224322
      ],
      [
        "\":",
        -8.420059055479346
      ],
      [
        "`",
        -8.422046654346488
      ],
      [
        "This",
        -8.423791985505938
      ],
      [
        "ĠIf",
        -8.424341221263704
      ],
      [
        "Ġhelp",
        -8.42527268113302
      ],
      [
        "16",
        -8.432532223272233
      ],
      [
        "Ġyear",
        -8.433354342856358
      ],
      [
        "Ġgroup",
        -8.437713760585266
      ],
      [
        "âĢľ",
        -8.441105878379103
      ],
      [
        "Ġname",
        -8.441420221821211
      ],
      [
        "(\\",
        -8.444063170105458
      ],
      [
        "ity",
        -8.449564442370951
      ],
      [
        "Ġagainst",
        -8.450117108847609
      ],
      [
        "Ġlong",
        -8.451999582663937
      ],
      [
        "int",
        -8.455360971321758
      ],
      [
        "15",
        -8.458052244216754
      ],
      [
        "Ġlast",
        -8.460836716072794
      ],
      [
        "}{",
        -8.461586469759565
      ],
      [
        "Ġgo",
        -8.462251407243128
      ],
      [
        "Ġus",
        -8.465372299717128
      ],
      [
        "get",
        -8.467200709255566
      ],
      [
        "Ġmust",
        -8.469890876714297
      ],
      [
        "Ġ//",
        -8.472309648922698
      ],
      [
        "Ġstill",
        -8.477696037617502
      ],
      [
        "Ġend",
        -8.48902318988061
      ],
      [
        "ĠLet",
        -8.500445149758406
      ],
      [
        "20",
        -8.503361192431178
      ],
      [
        "Ġinformation",
        -8.504641382951295
      ],
      [
        "Ġfind",
        -8.505411626207803
      ],
      [
        "32",
        -8.508556956032864
      ],
      [
        "âĢĵ",
        -8.511584121451119
      ],
      [
        "Ġsecond",
        -8.512018326268286
      ],
      [
        "{#",
        -8.515600876607724
      ],
      [
        "ion",
        -8.523850842671989
      ],
      [
        "Ġday",
        -8.524478108612318
      ],
      [
        "ĠĠĠĠĠĠ",
        -8.524809290176787
      ],
      [
        "000",
        -8.52495792003286
      ],
      [
        "^{",
        -8.529297999637153
      ],
      [
        "Ċĉĉ",
        -8.529839742962679
      ],
      [
        "set",
        -8.53226895272122
      ],
      [
        "ies",
        -8.53357816560845
      ],
      [
        "alpha",
        -8.541934468540335
      ],
      [
        "Ġresult",
        -8.547697781541649
      ],
      [
        "13",
        -8.548282332066242
      ],
      [
        "You",
        -8.551407158056449
      ],
      [
        "age",
        -8.554799275863214
      ],
      [
        "athcal",
        -8.555219295828616
      ],
      [
        "However",
        -8.555829183344088
      ],
      [
        "man",
        -8.561330875201126
      ],
      [
        "ĠAs",
        -8.561832392788494
      ],
      [
        "Ġtest",
        -8.562625718697609
      ],
      [
        "Ġfollowing",
        -8.565618523591432
      ],
      [
        "(\"",
        -8.566849742139796
      ],
      [
        "Ġresults",
        -8.570015986073015
      ],
      [
        "();",
        -8.578058368610455
      ],
      [
        "Ġpoint",
        -8.579153944346086
      ],
      [
        "ĠBut",
        -8.57937042733577
      ],
      [
        "14",
        -8.581522536663531
      ],
      [
        "Ġlife",
        -8.584672742455249
      ],
      [
        "Ġmodel",
        -8.59107410087415
      ],
      [
        "Ġpresent",
        -8.594611730104516
      ],
      [
        "Ġgoing",
        -8.59595369177963
      ],
      [
        "Ġ*/",
        -8.608347681497309
      ],
      [
        "Ġsince",
        -8.610508099452913
      ],
      [
        "Ġown",
        -8.618429154906703
      ],
      [
        "Ġaround",
        -8.619739436379929
      ],
      [
        "Ġwithin",
        -8.619897277668649
      ],
      [
        "var",
        -8.621074705903363
      ],
      [
        "up",
        -8.621386977259112
      ],
      [
        ")$",
        -8.623275025439883
      ],
      [
        "č",
        -8.630662220736113
      ],
      [
        "Ġcontrol",
        -8.632113802700303
      ],
      [
        "âĢĶ",
        -8.632550765249043
      ],
      [
        "Ġsupport",
        -8.632884504600844
      ],
      [
        "Ġshow",
        -8.638093210086682
      ],
      [
        "CR",
        -8.641077888671335
      ],
      [
        "Ġanother",
        -8.645770796895677
      ],
      [
        "http",
        -8.648322772827452
      ],
      [
        "Ġexample",
        -8.666510760492432
      ],
      [
        "\\]",
        -8.673330371610085
      ],
      [
        "Ġline",
        -8.677529062237674
      ],
      [
        "Ġsay",
        -8.67771922840658
      ],
      [
        "label",
        -8.682647474903787
      ],
      [
        "Ġfact",
        -8.688109906245746
      ],
      [
        ",âĢĿ",
        -8.68909899629837
      ],
      [
        "]\\].",
        -8.689585928163751
      ],
      [
        "Ġworld",
        -8.692213817387671
      ],
      [
        "Ġincluding",
        -8.692566363316576
      ],
      [
        "ĠAnd",
        -8.693185742681585
      ],
      [
        "le",
        -8.693287812978232
      ],
      [
        "begin",
        -8.694897747226312
      ],
      [
        "Ġevery",
        -8.69582293123819
      ],
      [
        "18",
        -8.696695172862963
      ],
      [
        "Ġgiven",
        -8.700510832369691
      ],
      [
        "ÃĲ",
        -8.70118407028431
      ],
      [
        "Ġoff",
        -8.701240737018471
      ],
      [
        "Ġmight",
        -8.702610305034144
      ],
      [
        "Ġcell",
        -8.704077418545548
      ],
      [
        "mu",
        -8.707681150785037
      ],
      [
        "Ġcome",
        -8.709139740938486
      ],
      [
        "Ġreally",
        -8.710750012266365
      ],
      [
        "Ġhome",
        -8.716720396226085
      ],
      [
        "data",
        -8.720631772591457
      ],
      [
        "Ġprocess",
        -8.725660828653192
      ],
      [
        "Ġlarge",
        -8.726606057676529
      ],
      [
        "17",
        -8.72695042400428
      ],
      [
        "].",
        -8.729089084507411
      ],
      [
        "of",
        -8.736035271482674
      ],
      [
        "Ġlook",
        -8.73906876439232
      ],
      [
        "Ġlaw",
        -8.740410624014855
      ],
      [
        "Ġself",
        -8.744704980162872
      ],
      [
        "Ġper",
        -8.745924506318277
      ],
      [
        "ĠYou",
        -8.74823831376546
      ],
      [
        "ĠNo",
        -8.748762963053323
      ],
      [
        "Ġ$$\\",
        -8.753766910045941
      ],
      [
        "Ġfew",
        -8.75669787585809
      ],
      [
        "Ġcause",
        -8.758305648859066
      ],
      [
        "Ġevidence",
        -8.761935131538893
      ],
      [
        "Ġmethod",
        -8.767853422752596
      ],
      [
        "To",
        -8.769740725358428
      ],
      [
        "19",
        -8.770793932796934
      ],
      [
        "Ġchange",
        -8.776648660604462
      ],
      [
        "Ġanalysis",
        -8.776659028511952
      ],
      [
        "Ġgive",
        -8.777895326661474
      ],
      [
        "Ġbest",
        -8.778771764549026
      ],
      [
        "Ġfile",
        -8.780912726210941
      ],
      [
        "Ġimportant",
        -8.787080380068966
      ],
      [
        "it",
        -8.788657611338639
      ],
      [
        "ĠThey",
        -8.789585028783993
      ],
      [
        "Ġsomething",
        -8.792244611471267
      ],
      [
        "import",
        -8.79240709326187
      ],
      [
        "Ġnext",
        -8.795148879992523
      ],
      [
        "Ġplace",
        -8.796356300355436
      ],
      [
        "Ġwhether",
        -8.799205278445193
      ],
      [
        "Ġcommon",
        -8.809735383986299
      ],
      [
        "Ġpower",
        -8.810050680208684
      ],
      [
        "Ġsmall",
        -8.811968449011975
      ],
      [
        "Ġbased",
        -8.813852774520521
      ],
      [
        "Ġpre",
        -8.815750343800637
      ],
      [
        "Ġform",
        -8.818877830938106
      ],
      [
        "Ġgreat",
        -8.819978446666696
      ],
      [
        "25",
        -8.820835899951438
      ],
      [
        "div",
        -8.820968653277966
      ],
      [
        "Ġtype",
        -8.82206120908713
      ],
      [
        "01",
        -8.825418065277749
      ],
      [
        "ĠNew",
        -8.82645674375125
      ],
      [
        "table",
        -8.827488005937433
      ],
      [
        "30",
        -8.83381298282385
      ],
      [
        "Ġal",
        -8.84244624551277
      ],
      [
        "Ġbetter",
        -8.842679341380473
      ],
      [
        "Ġabove",
        -8.848075475013284
      ],
      [
        "Ġhuman",
        -8.848655112876106
      ],
      [
        "Ġwater",
        -8.85089872861777
      ],
      [
        "math",
        -8.854746937893394
      ],
      [
        "Ġnever",
        -8.858780234280841
      ],
      [
        "\\[",
        -8.86345297657593
      ],
      [
        "Ġlevel",
        -8.864920616988906
      ],
      [
        "Ġtreatment",
        -8.865065025154344
      ],
      [
        "Ġ20",
        -8.868496910392786
      ],
      [
        "If",
        -8.87056867331521
      ],
      [
        "Ġ12",
        -8.871363299243951
      ],
      [
        "Ġproblem",
        -8.872124562139877
      ],
      [
        "Ġleast",
        -8.877998001541354
      ],
      [
        "Ġ\\[",
        -8.878219572241479
      ],
      [
        "Ġlittle",
        -8.881523010728186
      ],
      [
        "Ġpossible",
        -8.881609551899574
      ],
      [
        "Ġdue",
        -8.883641257508689
      ],
      [
        "sum",
        -8.884469011927
      ],
      [
        "ĠĠĠĠĠĠĠ",
        -8.89643537000891
      ],
      [
        "Ġexpression",
        -8.896853651613597
      ],
      [
        "Ġresponse",
        -8.896949288432129
      ],
      [
        "Ġtrue",
        -8.900986389593717
      ],
      [
        "ĠThere",
        -8.905455928531413
      ],
      [
        "Ġthings",
        -8.905468047295612
      ],
      [
        "}}",
        -8.909518521650146
      ],
      [
        "this",
        -8.910236963674325
      ],
      [
        "ĊĠĠĠĠĠĠĠĠĠ",
        -8.910382242202322
      ],
      [
        "Ġeffect",
        -8.912402953079363
      ],
      [
        "Ġlow",
        -8.912950927131853
      ],
      [
        "ĠĠĠĠĠĠĠĠĠĠĠĠĠĠĠ",
        -8.914616969437608
      ],
      [
        "Â±",
        -8.9171066114521
      ],
      [
        "Ġgame",
        -8.918985376362892
      ],
      [
        "span",
        -8.919547676864754
      ],
      [
        "!\"",
        -8.928166562747382
      ],
      [
        "}(",
        -8.929738881316746
      ],
      [
        "Ġsize",
        -8.931393898158587
      ],
      [
        "Ġhaving",
        -8.932394033798975
      ],
      [
        "Ġtrial",
        -8.933991504954477
      ],
      [
        "Ġshown",
        -8.936688330145277
      ],
      [
        "Ġfurther",
        -8.936706228664365
      ],
      [
        "For",
        -8.936942640833518
      ],
      [
        "Ġprovide",
        -8.942817277805828
      ],
      [
        "ĠâĢĶ",
        -8.943335740089102
      ],
      [
        "Ġhealth",
        -8.944371960778284
      ],
      [
        "over",
        -8.944595451618955
      ],
      [
        "Ġpost",
        -8.948034671392588
      ],
      [
        "Ġmean",
        -8.949276429884105
      ],
      [
        "Ġgot",
        -8.949345968755193
      ],
      [
        "aligned",
        -8.952759968580816
      ],
      [
        "ĠTo",
        -8.952834876268756
      ],
      [
        "Fig",
        -8.95376141095955
      ],
      [
        "Ġcurrent",
        -8.955347794099634
      ],
      [
        "Ġless",
        -8.958009538028533
      ],
      [
        "==",
        -8.959271118641524
      ],
      [
        "ĠĠĠĠĠĠĠĠ",
        -8.95964241420897
      ],
      [
        "Ġgovernment",
        -8.961616084074159
      ],
      [
        "Ġlet",
        -8.962522736168083
      ],
      [
        "ĠSo",
        -8.966458662685179
      ],
      [
        "Ġfree",
        -8.967154021747767
      ],
      [
        "Ġlot",
        -8.971310787929657
      ],
      [
        "Ġsingle",
        -8.972136241296484
      ],
      [
        "time",
        -8.972633310530098
      ],
      [
        "org",
        -8.973006656924436
      ],
      [
        "out",
        -8.973275233672332
      ],
      [
        "Ġdays",
        -8.973431242080498
      ],
      [
        "Ġfour",
        -8.973503001641406
      ],
      [
        "))",
        -8.975307270797332
      ],
      [
        "Ġelse",
        -8.975817038967298
      ],
      [
        "Ġalways",
        -8.97680770209377
      ],
      [
        "Category",
        -8.978843838914884
      ],
      [
        "Ġfield",
        -8.978883526695082
      ],
      [
        "Ġagain",
        -8.980562232040622
      ],
      [
        "Ġhand",
        -8.981119100333975
      ],
      [
        "for",
        -8.98413505030441
      ],
      [
        "And",
        -8.984267858944476
      ],
      [
        "\"}",
        -8.988638317340412
      ],
      [
        "Ġsimilar",
        -8.988781238898682
      ],
      [
        "Ġmain",
        -8.991151238717915
      ],
      [
        "string",
        -8.992983793843738
      ],
      [
        "24",
        -8.998624709971496
      ],
      [
        "Ġuntil",
        -8.998945964385234
      ],
      [
        "Ġteam",
        -8.999967176421098
      ],
      [
        "ĠCourt",
        -9.002775988160558
      ],
      [
        "Ġavailable",
        -9.00308912445383
      ],
      [
        "Ġput",
        -9.006368264572453
      ],
      [
        "Ġcare",
        -9.00640868246349
      ],
      [
        "Ġreal",
        -9.008644876077447
      ],
      [
        "Ġknown",
        -9.009013648766137
      ],
      [
        "Ġlight",
        -9.009430597727086
      ],
      [
        "ĠUnited",
        -9.010597918969001
      ],
      [
        "Ġcalled",
        -9.011812763991966
      ],
      [
        "Type",
        -9.013405380328203
      ],
      [
        "Ġfamily",
        -9.013861709679187
      ],
      [
        "lambda",
        -9.01430411359724
      ],
      [
        "Ġeither",
        -9.01475091897875
      ],
      [
        "ĠShe",
        -9.01491213246846
      ],
      [
        "Ġlocal",
        -9.016394422835685
      ],
      [
        "Ġquestion",
        -9.016812208736177
      ],
      [
        "Ġ15",
        -9.017515636804767
      ],
      [
        "}$$",
        -9.018161439170562
      ],
      [
        "ĠState",
        -9.018807773185891
      ],
      [
        "ĠThese",
        -9.022853378989277
      ],
      [
        ")\\",
        -9.023388396139962
      ],
      [
        "64",
        -9.024342790081924
      ],
      [
        "beta",
        -9.026172915625734
      ],
      [
        "Ġcode",
        -9.026235364928382
      ],
      [
        "Ġaction",
        -9.02654123890555
      ],
      [
        "Name",
        -9.030245514537288
      ],
      [
        "---",
        -9.031300594845712
      ],
      [
        "Ġseveral",
        -9.032561091893779
      ],
      [
        "pone",
        -9.03480161945736
      ],
      [
        "80",
        -9.034862089911323
      ],
      [
        "Figure",
        -9.036020809465686
      ],
      [
        "Ġmeans",
        -9.03933417029244
      ],
      [
        "Ġchildren",
        -9.040272790112864
      ],
      [
        "Ġspace",
        -9.040386268873249
      ],
      [
        "Ġbelieve",
        -9.043409330399932
      ],
      [
        "05",
        -9.044662817474546
      ],
      [
        "class",
        -9.045033120888816
      ],
      [
        "Ġtotal",
        -9.045652675349556
      ],
      [
        "Ġhigher",
        -9.046768279045706
      ],
      [
        "He",
        -9.046985410076472
      ],
      [
        "return",
        -9.04762655290673
      ],
      [
        "Ġopen",
        -9.048695599381139
      ],
      [
        "Ġsignificant",
        -9.050606002356885
      ],
      [
        "Ġrate",
        -9.051490584567501
      ],
      [
        "Ġstudies",
        -9.055507363723363
      ],
      [
        "21",
        -9.057026968905252
      ],
      [
        "less",
        -9.058184214685072
      ],
      [
        "Ġside",
        -9.065547845216766
      ],
      [
        "ation",
        -9.067337880603699
      ],
      [
        "Ġincrease",
        -9.069862766492497
      ],
      [
        "Ġwhy",
        -9.070737805243779
      ],
      [
        "epackage",
        -9.072213441375327
      ],
      [
        "ĠĠĠĠĠĠĠĠĠĠĠĠĠĠ",
        -9.072327798604352
      ],
      [
        "www",
        -9.073481229681091
      ],
      [
        "ive",
        -9.07434097774734
      ],
      [
        "Ġinterest",
        -9.074899396171984
      ],
      [
        "Ġrun",
        -9.076613085928802
      ],
      [
        "Ġrisk",
        -9.078115836071378
      ],
      [
        "by",
        -9.07986425072396
      ],
      [
        "Ġstart",
        -9.08026916286167
      ],
      [
        "50",
        -9.081640553388954
      ],
      [
        "Ġvalues",
        -9.085224970626886
      ],
      [
        "];",
        -9.085950638454758
      ],
      [
        "Ġenergy",
        -9.087700542195792
      ],
      [
        "Ġ11",
        -9.088177807586703
      ],
      [
        "ĠWhat",
        -9.088410483545916
      ],
      [
        "Ġfull",
        -9.089614660127802
      ],
      [
        "among",
        -9.091048337483357
      ],
      [
        "Ġissue",
        -9.094914588912056
      ],
      [
        "Ġsure",
        -9.095211095971885
      ],
      [
        "ĠĠĠĠĠĠĠĠĠĠĠ",
        -9.095513935020549
      ],
      [
        "Ġleft",
        -9.095974267589481
      ],
      [
        "Ġerror",
        -9.096893964101836
      ],
      [
        "Ġfinal",
        -9.09716569908612
      ],
      [
        "Ġcases",
        -9.097327184123868
      ],
      [
        "But",
        -9.097646301258752
      ],
      [
        "Ġperson",
        -9.099237058596497
      ],
      [
        "bar",
        -9.099322233470762
      ],
      [
        "Ġco",
        -9.099488636886736
      ],
      [
        "Ġalready",
        -9.099899195946138
      ],
      [
        "Ġcourse",
        -9.102252971718864
      ],
      [
        "Ġ30",
        -9.104849245388678
      ],
      [
        "Ġgeneral",
        -9.104854727711222
      ],
      [
        "=>",
        -9.106564505319199
      ],
      [
        "ĠĠĠĠĠĠĠĠĠ",
        -9.107309707813421
      ],
      [
        "Ġbody",
        -9.107624427670808
      ],
      [
        "Ġshort",
        -9.109243502673145
      ],
      [
        "sqrt",
        -9.11379805435091
      ],
      [
        "ĠStates",
        -9.114613463032674
      ],
      [
        "Table",
        -9.114968488241166
      ],
      [
        "Ġreported",
        -9.115414403409801
      ],
      [
        "Ġrole",
        -9.11618073254233
      ],
      [
        "sec",
        -9.117790268507301
      ],
      [
        "Ġfar",
        -9.118011516610478
      ],
      [
        "No",
        -9.119470202553753
      ],
      [
        "ness",
        -9.121081467205371
      ],
      [
        "log",
        -9.121977063808743
      ],
      [
        "Ġassociated",
        -9.12289385135852
      ],
      [
        "uppose",
        -9.124189454249908
      ],
      [
        "22",
        -9.127644211036362
      ],
      [
        "ĠThat",
        -9.128712906633776
      ],
      [
        "Ġkeep",
        -9.129363660621781
      ],
      [
        "]\\]",
        -9.129406622479827
      ],
      [
        "><",
        -9.131990727550189
      ],
      [
        "ant",
        -9.13370611587594
      ],
      [
        "Ġwomen",
        -9.134493774617177
      ],
      [
        "mathr",
        -9.134959301194336
      ],
      [
        "eq",
        -9.135800781604019
      ],
      [
        "Ġlove",
        -9.136481407325249
      ],
      [
        "Ġlevels",
        -9.136811372888847
      ],
      [
        "Ġamount",
        -9.138328285523256
      ],
      [
        "didn",
        -9.139197618126541
      ],
      [
        "Ġrequired",
        -9.144230629530387
      ],
      [
        "html",
        -9.144337332452192
      ],
      [
        "Ġanti",
        -9.144740766508303
      ],
      [
        "ability",
        -9.144912169992036
      ],
      [
        "Ġ${\\",
        -9.146806324162435
      ],
      [
        "ĠĠĠĠĠĠĠĠĠĠ",
        -9.148573165160617
      ],
      [
        "Ġcall",
        -9.149914236087456
      ],
      [
        "Ġaway",
        -9.15010873000385
      ],
      [
        "Ġplay",
        -9.15015111820238
      ],
      [
        "Ġcertain",
        -9.151296427791863
      ],
      [
        "Ġoften",
        -9.152560885626022
      ],
      [
        "however",
        -9.153426887752563
      ],
      [
        "Ġthing",
        -9.156165745921646
      ],
      [
        "Ġdone",
        -9.156245781226065
      ],
      [
        "ĠĠĠĠĠĠĠĠĠĠĠĠ",
        -9.156736247352665
      ],
      [
        "Ġpotential",
        -9.15719747097824
      ],
      [
        "Ġmatter",
        -9.158429514000543
      ],
      [
        "line",
        -9.158798514097636
      ],
      [
        "23",
        -9.165086729840837
      ],
      [
        "Ġalong",
        -9.165614281798934
      ],
      [
        "ĠAll",
        -9.16644065923881
      ],
      [
        "value",
        -9.169550811194583
      ],
      [
        "Ġdevelopment",
        -9.169611856910553
      ],
      [
        "Ġdecision",
        -9.170026555162192
      ],
      [
        "}_{",
        -9.170723326995885
      ],
      [
        "Ġactivity",
        -9.170772097304035
      ],
      [
        "Ġsays",
        -9.171698513768936
      ],
      [
        "Ġposition",
        -9.171753471498535
      ],
      [
        "sigma",
        -9.171820674062538
      ],
      [
        "Ġlower",
        -9.173893771737776
      ],
      [
        "Ċĉĉĉ",
        -9.174839178586979
      ],
      [
        "Ġman",
        -9.176634933758894
      ],
      [
        "Ġreason",
        -9.176673147858223
      ],
      [
        "Ġterms",
        -9.176751087150148
      ],
      [
        "Ġspecific",
        -9.178599974195084
      ],
      [
        "Ġsurface",
        -9.178744097263182
      ],
      [
        "Ġsub",
        -9.179281941451617
      ],
      [
        "Ġlater",
        -9.181588394993085
      ],
      [
        "phi",
        -9.185825212716338
      ],
      [
        "Ġenough",
        -9.186195002446258
      ],
      [
        "hat",
        -9.187776583249669
      ],
      [
        "33",
        -9.190603911787491
      ],
      [
        "Ġtold",
        -9.191324201908312
      ],
      [
        "ĠWhen",
        -9.191546011213706
      ],
      [
        "partial",
        -9.192494177678343
      ],
      [
        "compared",
        -9.19262675689344
      ],
      [
        "upon",
        -9.192690967736615
      ],
      [
        "Ġclose",
        -9.193549268215929
      ],
      [
        "Ġfeel",
        -9.193565007660485
      ],
      [
        "Ġperiod",
        -9.193914790171316
      ],
      [
        "Ġthough",
        -9.194171865440527
      ],
      [
        "Ġhard",
        -9.194516441344172
      ],
      [
        "according",
        -9.19518044063405
      ],
      [
        "Ġhead",
        -9.196398514760986
      ],
      [
        "There",
        -9.196810681280354
      ],
      [
        "45",
        -9.199138238921504
      ],
      [
        "Ġresearch",
        -9.204124416906778
      ],
      [
        "Ġmillion",
        -9.204511733882814
      ],
      [
        "ĊĊĠĠĠĠĠĠĠ",
        -9.20479259100145
      ],
      [
        "ĠĠĠĠĠĠĠĠĠĠĠĠĠ",
        -9.208141861644874
      ],
      [
        "Ġlist",
        -9.210137690704496
      ],
      [
        "epsilon",
        -9.21275865553207
      ],
      [
        "Ġprovided",
        -9.213342001891782
      ],
      [
        "Ġrange",
        -9.21564682084149
      ],
      [
        "100",
        -9.217280231909823
      ],
      [
        "):",
        -9.217349963987104
      ],
      [
        "ment",
        -9.219151892360394
      ],
      [
        "Ġgroups",
        -9.219282977893094
      ],
      [
        "Ġweek",
        -9.219314992395264
      ],
      [
        "Ġsuggest",
        -9.21963452283008
      ],
      [
        "Ġworking",
        -9.221245984729082
      ],
      [
        "Ġversion",
        -9.223120006058108
      ],
      [
        "code",
        -9.224336618606442
      ],
      [
        "Ġ100",
        -9.22461616588307
      ],
      [
        "Ġmaking",
        -9.224800361608636
      ],
      [
        "https",
        -9.225424130832062
      ],
      [
        "('",
        -9.228344531219188
      ],
      [
        "Ġkey",
        -9.23029395438838
      ],
      [
        "defendant",
        -9.231293339685266
      ],
      [
        "}^{",
        -9.232432173705174
      ],
      [
        "Ġpositive",
        -9.233547701654091
      ],
      [
        "Ġread",
        -9.233734433080585
      ],
      [
        "Ġkind",
        -9.234907063863012
      ],
      [
        "Ġconditions",
        -9.235141561279548
      ],
      [
        "Ġaddition",
        -9.237769976918651
      ],
      [
        "27",
        -9.238932547657589
      ],
      [
        "Ġbecome",
        -9.239117559868856
      ],
      [
        "^{\\",
        -9.2417773826396
      ],
      [
        "âĢ¦",
        -9.241813471868142
      ],
      [
        "Ġprogram",
        -9.245101018471386
      ],
      [
        "Ġ([",
        -9.245349995249274
      ],
      [
        "}_",
        -9.247052799029781
      ],
      [
        "Ġclear",
        -9.249081541212446
      ],
      [
        "Ġseen",
        -9.250778551340712
      ],
      [
        "Ġschool",
        -9.2511524228587
      ],
      [
        "%)",
        -9.25132816578466
      ],
      [
        "Ġmoney",
        -9.251826639780896
      ],
      [
        "gamma",
        -9.252079777227301
      ],
      [
        "Ġbusiness",
        -9.252307690421679
      ],
      [
        "Ġseason",
        -9.25266689730492
      ],
      [
        "Ġdisease",
        -9.253311314948402
      ],
      [
        "Ġprotein",
        -9.25331569762322
      ],
      [
        "Ġcontent",
        -9.253954704033871
      ],
      [
        "Ġsection",
        -9.25432613347827
      ],
      [
        "Ġparticular",
        -9.255226239780809
      ],
      [
        "ID",
        -9.256262557603003
      ],
      [
        "Ġservice",
        -9.256447080561307
      ],
      [
        "So",
        -9.257052453827688
      ],
      [
        "></",
        -9.257170842447525
      ],
      [
        "bib",
        -9.257449335923749
      ],
      [
        "]).",
        -9.259906960131447
      ],
      [
        "Ġtogether",
        -9.260073141689352
      ],
      [
        "size",
        -9.262361608773228
      ],
      [
        "Ġincreased",
        -9.26362258104064
      ],
      [
        "Ġeffects",
        -9.265471065883863
      ],
      [
        "doesn",
        -9.26769201048441
      ],
      [
        "Ġimage",
        -9.268175272270598
      ],
      [
        "Ġobserved",
        -9.270113429449173
      ],
      [
        "Ġcannot",
        -9.270944661251693
      ],
      [
        "test",
        -9.273557718919308
      ],
      [
        "Ġsource",
        -9.273799304811005
      ],
      [
        "delta",
        -9.273843774851237
      ],
      [
        "Ġthought",
        -9.274099183603226
      ],
      [
        "String",
        -9.27525956808178
      ],
      [
        "Ġ14",
        -9.276385736608567
      ],
      [
        "Ġchanges",
        -9.277480926497866
      ],
      [
        "Ġ16",
        -9.277864589236957
      ],
      [
        "described",
        -9.279606702860777
      ],
      [
        "ĠâĢĺ",
        -9.279717884005404
      ],
      [
        "Ġcountry",
        -9.279823040023064
      ],
      [
        "Ġmultiple",
        -9.2816452212585
      ],
      [
        "key",
        -9.282035028812285
      ],
      [
        "Ġtry",
        -9.282159663791687
      ],
      [
        "Ġapproach",
        -9.283018193363587
      ],
      [
        "est",
        -9.283736507819867
      ],
      [
        "ĠUniversity",
        -9.284322831796336
      ],
      [
        "Ġfactors",
        -9.284407114722159
      ],
      [
        "40",
        -9.286123373692824
      ],
      [
        "Ġthird",
        -9.286447063253542
      ],
      [
        "([@",
        -9.28676183000652
      ],
      [
        "Ġstructure",
        -9.287058961320657
      ],
      [
        "\"}).",
        -9.287885802562284
      ],
      [
        "ally",
        -9.287960207287743
      ],
      [
        "ĠOn",
        -9.288421151094562
      ],
      [
        "Â°",
        -9.288765681159655
      ],
      [
        "Ġearly",
        -9.29152184949507
      ],
      [
        "likely",
        -9.292373106993173
      ],
      [
        "Ġturn",
        -9.29347729876834
      ],
      [
        "Ġconst",
        -9.296966114336339
      ],
      [
        "Ġtimes",
        -9.298375880101112
      ],
      [
        "34",
        -9.300011691327958
      ],
      [
        "include",
        -9.301293982402921
      ],
      [
        "Ġmonths",
        -9.302107072483732
      ],
      [
        "Ġproperty",
        -9.302356107806883
      ],
      [
        "Ġbase",
        -9.30439087128788
      ],
      [
        "went",
        -9.305699050120287
      ],
      [
        "Ġprivate",
        -9.306152886883913
      ],
      [
        "ĠSee",
        -9.306655520572798
      ],
      [
        "Ġarea",
        -9.307255772747475
      ],
      [
        "28",
        -9.307471065826897
      ],
      [
        "across",
        -9.308032581480237
      ],
      [
        "Ġview",
        -9.308543565579175
      ],
      [
        "Ġinclude",
        -9.309575536562456
      ],
      [
        "rather",
        -9.309884582574588
      ],
      [
        "Ġreport",
        -9.310437103575318
      ],
      [
        "001",
        -9.310827810179084
      ],
      [
        "Ġvoid",
        -9.312011338064957
      ],
      [
        "Ġdoing",
        -9.312444614454682
      ],
      [
        "Ġold",
        -9.31377500945683
      ],
      [
        "ĠAt",
        -9.315417115347707
      ],
      [
        "Ġactually",
        -9.31609387371434
      ],
      [
        "Ġcreate",
        -9.316477453789313
      ],
      [
        "Ġobject",
        -9.31736400289052
      ],
      [
        "Ġcompany",
        -9.320516701365834
      ],
      [
        "Ãĳ",
        -9.322761534932791
      ],
      [
        "\");",
        -9.323849385661362
      ],
      [
        "95",
        -9.324185003966228
      ],
      [
        "Ĥ",
        -9.329659497745963
      ],
      [
        "Ġdeal",
        -9.332980280262138
      ],
      [
        "Ġcancer",
        -9.333403865153217
      ],
      [
        "rho",
        -9.334833634969241
      ],
      [
        "Data",
        -9.336888854076872
      ],
      [
        "Ġtell",
        -9.337205616272554
      ],
      [
        "Ġpast",
        -9.337307030074774
      ],
      [
        "Ġindividual",
        -9.33870069512882
      ],
      [
        "Ġexperience",
        -9.339085495077457
      ],
      [
        "26",
        -9.34037723072782
      ],
      [
        "more",
        -9.341524585953604
      ],
      [
        "took",
        -9.342184500833424
      ],
      [
        "Ġ13",
        -9.34235333476153
      ],
      [
        "Ġonce",
        -9.348178789658814
      ],
      [
        "Ġclaim",
        -9.34919751422459
      ],
      [
        "Ġ18",
        -9.353268595031917
      ],
      [
        "Ġperformed",
        -9.355711528062487
      ],
      [
        "times",
        -9.356138696060684
      ],
      [
        "Ġconsider",
        -9.356786976617318
      ],
      [
        "Ġaccess",
        -9.357374255581817
      ],
      [
        "Ġsocial",
        -9.357726162961383
      ],
      [
        "Ġtop",
        -9.359224614223995
      ],
      [
        "Ġfive",
        -9.359415944895282
      ],
      [
        "Ġbelow",
        -9.359559657753426
      ],
      [
        "Ġcame",
        -9.359578453854517
      ],
      [
        "On",
        -9.360086331377053
      ],
      [
        "Ġfood",
        -9.36098978575786
      ],
      [
        "ĠAmerican",
        -9.362380071533932
      ],
      [
        "Ġstandard",
        -9.362498905261015
      ],
      [
        "Ġdesign",
        -9.36299131622472
      ],
      [
        "Ġuser",
        -9.370262747508535
      ],
      [
        "Ġreview",
        -9.370560013107255
      ],
      [
        "ar",
        -9.371086142464582
      ],
      [
        "Ġpoints",
        -9.37142256378195
      ],
      [
        "Ġfactor",
        -9.37190851489234
      ],
      [
        "year",
        -9.372069278822103
      ],
      [
        "Ġfuture",
        -9.372563903482478
      ],
      [
        "theta",
        -9.373493282490285
      ],
      [
        "Ġsite",
        -9.374257955337544
      ],
      [
        "obtained",
        -9.379301179695254
      ],
      [
        "tilde",
        -9.379322837311934
      ],
      [
        "38",
        -9.379777721548233
      ],
      [
        "Ġwhole",
        -9.381345969895962
      ],
      [
        "Ġapplication",
        -9.382874497012617
      ],
      [
        "Ġvarious",
        -9.383775943821659
      ],
      [
        "]{}",
        -9.384934558035177
      ],
      [
        "based",
        -9.38507310747073
      ],
      [
        "new",
        -9.385202405234882
      ],
      [
        "}^",
        -9.38801215495237
      ],
      [
        "ĠGod",
        -9.388596746421817
      ],
      [
        "Ġblood",
        -9.39009302767569
      ],
      [
        "Ġfalse",
        -9.391983578959591
      ],
      [
        "Ġshows",
        -9.392988626450014
      ],
      [
        "While",
        -9.394208051857083
      ],
      [
        "self",
        -9.395042282757029
      ],
      [
        "showed",
        -9.395989981140266
      ],
      [
        "file",
        -9.396354040109395
      ],
      [
        "When",
        -9.397418336227016
      ],
      [
        "Ġmove",
        -9.397997960468423
      ],
      [
        "Ġconsidered",
        -9.399833274500196
      ],
      [
        "Ġ24",
        -9.400481772252155
      ],
      [
        "Ġidea",
        -9.400868834607076
      ],
      [
        "Ġsignal",
        -9.403096770138218
      ],
      [
        "29",
        -9.403104087578086
      ],
      [
        "Ġadded",
        -9.40406555367806
      ],
      [
        "Ġ$(",
        -9.404870123718652
      ],
      [
        "Ġpay",
        -9.405818235565864
      ],
      [
        "Ġyet",
        -9.407022383875992
      ],
      [
        "Ġadd",
        -9.4074782663491
      ],
      [
        "ĠCo",
        -9.407829162280512
      ],
      [
        "ĠMr",
        -9.408960952688197
      ],
      [
        "Ġtaken",
        -9.409525600788129
      ],
      [
        "Ġpaper",
        -9.412176416057601
      ],
      [
        "Ġsolution",
        -9.412938549013925
      ],
      [
        "un",
        -9.413622392408024
      ],
      [
        "35",
        -9.414727591235376
      ],
      [
        "tau",
        -9.416102296822856
      ],
      [
        "held",
        -9.417060830941454
      ],
      [
        "see",
        -9.420897652588891
      ],
      [
        "Ġ50",
        -9.420912785679786
      ],
      [
        "List",
        -9.423210819235614
      ],
      [
        "How",
        -9.42334502587158
      ],
      [
        "Ġ(*",
        -9.426005114014966
      ],
      [
        "omega",
        -9.427062583126798
      ],
      [
        "Ġadditional",
        -9.427755578156395
      ],
      [
        "Ġoriginal",
        -9.427792570244195
      ],
      [
        "Ġlead",
        -9.428337818215821
      ],
      [
        "Ġdefined",
        -9.430985028978006
      ],
      [
        "Ġproject",
        -9.431356877994665
      ],
      [
        "Ġsystems",
        -9.431405442030783
      ],
      [
        "Ġsimple",
        -9.431992561211686
      ],
      [
        "^{-",
        -9.432430265393844
      ],
      [
        "Ġterm",
        -9.433785905915443
      ],
      [
        "Ġcommunity",
        -9.434635641898364
      ],
      [
        "Ġmajor",
        -9.43716603282415
      ],
      [
        "Ġchild",
        -9.43843239440349
      ],
      [
        "Ġever",
        -9.438702634690861
      ],
      [
        "_\\",
        -9.439378762498453
      ],
      [
        "led",
        -9.441572934170392
      ],
      [
        "Ġminutes",
        -9.44385063086919
      ],
      [
        "Ġyoung",
        -9.444048099749857
      ],
      [
        "leq",
        -9.444930681314878
      ],
      [
        "Ġwon",
        -9.444933343120091
      ],
      [
        "Ġroom",
        -9.445666426252775
      ],
      [
        "Ġtemperature",
        -9.446218989823615
      ],
      [
        "Ġfollow",
        -9.447794676654354
      ],
      [
        "Ġperformance",
        -9.45048274686879
      ],
      [
        "39",
        -9.453484001315154
      ],
      [
        "Ġface",
        -9.453513283284837
      ],
      [
        "Ġbit",
        -9.453624217213196
      ],
      [
        "min",
        -9.454637129155573
      ],
      [
        "09",
        -9.455352329528411
      ],
      [
        "Ġbig",
        -9.456680707532808
      ],
      [
        "Ġdevice",
        -9.457882444543309
      ],
      [
        "Ġincluded",
        -9.459856378104682
      ],
      [
        "str",
        -9.461315732249462
      ],
      [
        "Ġmakes",
        -9.461735315141928
      ],
      [
        "Ġregion",
        -9.462103190502448
      ],
      [
        "Ġfilm",
        -9.464789293788623
      ],
      [
        "02",
        -9.467107083035835
      ],
      [
        "trying",
        -9.467600055800794
      ],
      [
        "Ġrespectively",
        -9.468332666994314
      ],
      [
        "čĊĠĠĠ",
        -9.470295467883373
      ],
      [
        "Ġcost",
        -9.470775627109626
      ],
      [
        "Ġmen",
        -9.471204932140166
      ],
      [
        "Ġproduct",
        -9.472364764988653
      ],
      [
        "Ġtoday",
        -9.473284655059853
      ],
      [
        "cdot",
        -9.474092391754555
      ],
      [
        "href",
        -9.47432845769778
      ],
      [
        "Ġrelated",
        -9.474454211904085
      ],
      [
        "taking",
        -9.475037486298824
      ],
      [
        "Ġhouse",
        -9.475355247669896
      ],
      [
        "Ġmotion",
        -9.476285119343313
      ],
      [
        "Ġentire",
        -9.476566488179124
      ],
      [
        "Ġnull",
        -9.476701236035948
      ],
      [
        "Ġpatient",
        -9.477276486239456
      ],
      [
        "ian",
        -9.477286547378466
      ],
      [
        "define",
        -9.477476333204438
      ],
      [
        "ful",
        -9.477977485963335
      ],
      [
        "03",
        -9.478157272689744
      ],
      [
        "side",
        -9.478239910637463
      ],
      [
        "Ġreceived",
        -9.479066323190525
      ],
      [
        "Ġaccount",
        -9.479858603139856
      ],
      [
        "Since",
        -9.479862525993045
      ],
      [
        "Ġlive",
        -9.479867648799454
      ],
      [
        "Ġanything",
        -9.481511021132395
      ],
      [
        "Ġdeath",
        -9.482162603590286
      ],
      [
        "That",
        -9.482481680273432
      ],
      [
        "asked",
        -9.483145958292683
      ],
      [
        "Ġunderstand",
        -9.483535984681323
      ],
      [
        "Ġothers",
        -9.484362611394179
      ],
      [
        "one",
        -9.485080983986023
      ],
      [
        "Ġmembers",
        -9.485462200248973
      ],
      [
        "75",
        -9.485626619234885
      ],
      [
        "}{\\",
        -9.486461342145978
      ],
      [
        "Ġpercent",
        -9.486782381545138
      ],
      [
        "refore",
        -9.487730414481565
      ],
      [
        "thus",
        -9.48822986492325
      ],
      [
        "ĠOne",
        -9.489400120061658
      ],
      [
        "Ġaverage",
        -9.49020452271544
      ],
      [
        "Ġbring",
        -9.490599710969663
      ],
      [
        "be",
        -9.490685558669197
      ],
      [
        "ell",
        -9.490843219418002
      ],
      [
        "ĠAn",
        -9.490930926548836
      ],
      [
        "document",
        -9.491093822721568
      ],
      [
        "Ġcity",
        -9.491976318635118
      ],
      [
        "Ġhalf",
        -9.492634685804765
      ],
      [
        "Thus",
        -9.493336926350793
      ],
      [
        "08",
        -9.493631224695173
      ],
      [
        "significantly",
        -9.494211149953726
      ],
      [
        "Ġmaterial",
        -9.495428427064027
      ],
      [
        "wide",
        -9.495503885721321
      ],
      [
        "Ġgrowth",
        -9.496706500888077
      ],
      [
        "Ġdifference",
        -9.499078933494278
      ],
      [
        "Ġagree",
        -9.499229004986962
      ],
      [
        "list",
        -9.49950989568204
      ],
      [
        "Ġdistribution",
        -9.499686440964203
      ],
      [
        "array",
        -9.501335072391264
      ],
      [
        "Ġtarget",
        -9.50304687785727
      ],
      [
        "04",
        -9.503162198155694
      ],
      [
        "44",
        -9.505501063565834
      ],
      [
        "Ġnetwork",
        -9.505856651748863
      ],
      [
        "Ġphase",
        -9.505908409305082
      ],
      [
        "Ġmind",
        -9.506247935368147
      ],
      [
        "Ġgetting",
        -9.506492346402068
      ],
      [
        "ĠUS",
        -9.506623642756306
      ],
      [
        "31",
        -9.507059478782104
      ],
      [
        "Ġstates",
        -9.508616382271525
      ],
      [
        "Ġvia",
        -9.509338219779751
      ],
      [
        "ĠAfter",
        -9.509780480721657
      ],
      [
        "Ġhistory",
        -9.510896515913092
      ],
      [
        "ED",
        -9.514689412634246
      ],
      [
        "ance",
        -9.514792799543685
      ],
      [
        "all",
        -9.514944776596897
      ],
      [
        "Ġsubject",
        -9.517871827091337
      ],
      [
        "Ġ25",
        -9.518293135070705
      ],
      [
        "Ġcar",
        -9.519090859132314
      ],
      [
        "ĠMore",
        -9.520972959059899
      ],
      [
        "{{\\",
        -9.521195961485448
      ],
      [
        "Ġnight",
        -9.521293937970228
      ],
      [
        "Ġacid",
        -9.524747311824436
      ],
      [
        "Ġseries",
        -9.527629804412644
      ],
      [
        "Ġrecord",
        -9.527779767791634
      ],
      [
        "Ġstring",
        -9.528887256211732
      ],
      [
        "Ġevent",
        -9.530100699051026
      ],
      [
        "param",
        -9.530256366512129
      ],
      [
        "infty",
        -9.530274856031332
      ],
      [
        "ous",
        -9.53106428897713
      ],
      [
        "Ġlooking",
        -9.532186329188697
      ],
      [
        "__",
        -9.533139427371768
      ],
      [
        "Ġpopulation",
        -9.533359791435819
      ],
      [
        "Ġinvolved",
        -9.533458675020292
      ],
      [
        "Ġnormal",
        -9.534556007864284
      ],
      [
        "Ġprevious",
        -9.5357229005611
      ],
      [
        "Ġtax",
        -9.53645279311364
      ],
      [
        "ĥ",
        -9.536494358526438
      ],
      [
        "Ġalmost",
        -9.537078233190137
      ],
      [
        "Ġmass",
        -9.537113847819114
      ],
      [
        "Ġgene",
        -9.53714496912157
      ],
      [
        "/*",
        -9.537959930429125
      ],
      [
        "Ġcondition",
        -9.538972020096145
      ],
      [
        "Ġair",
        -9.540386858000932
      ],
      [
        "Ġnothing",
        -9.541340539231918
      ],
      [
        "Value",
        -9.54178393394126
      ],
      [
        "================",
        -9.54208732611885
      ],
      [
        "Ġstrong",
        -9.542210821525629
      ],
      [
        "Ġparty",
        -9.543612217925928
      ],
      [
        "36",
        -9.544871052732496
      ],
      [
        "Ġpolice",
        -9.54508730779411
      ],
      [
        "Ġclinical",
        -9.546308314843147
      ],
      [
        "Ġhours",
        -9.552350749939754
      ],
      [
        "Ġmarket",
        -9.55283478249522
      ],
      [
        "Ġweight",
        -9.553019160543752
      ],
      [
        "ĠThen",
        -9.553257263679589
      ],
      [
        "Ġdis",
        -9.553924072984671
      ],
      [
        "field",
        -9.553932010858395
      ],
      [
        "Ġinstead",
        -9.55445185492092
      ],
      [
        "Ġexpected",
        -9.554878572585913
      ],
      [
        "Ġaddress",
        -9.55490947181246
      ],
      [
        "Ġneeded",
        -9.554930800179633
      ],
      [
        "Ġrespect",
        -9.555689879410943
      ],
      [
        "Ġcomplex",
        -9.558069493982275
      ],
      [
        "Ġbuilding",
        -9.55808431405798
      ],
      [
        "Ġtalk",
        -9.559784266732565
      ],
      [
        "ul",
        -9.55979226166821
      ],
      [
        "Ġrecent",
        -9.56072498472447
      ],
      [
        "Ġlanguage",
        -9.560931046783619
      ],
      [
        "![",
        -9.561458516914659
      ],
      [
        "add",
        -9.562540712771364
      ],
      [
        "Ġproblems",
        -9.56423129719671
      ],
      [
        "Ġmethods",
        -9.566600380918093
      ],
      [
        "43",
        -9.567117065446253
      ],
      [
        "treated",
        -9.567360292446903
      ],
      [
        "Ġjob",
        -9.567444622750402
      ],
      [
        "ĠSt",
        -9.567747090078115
      ],
      [
        "Ġdetermine",
        -9.569699427740716
      ],
      [
        "Ġdamage",
        -9.569877105834987
      ],
      [
        "Ġissues",
        -9.570258298015977
      ],
      [
        "ĠYork",
        -9.570311695300983
      ],
      [
        "Ġproduction",
        -9.570427349462582
      ],
      [
        "ĠÂ§",
        -9.570849987103378
      ],
      [
        "Ġservices",
        -9.5734599062618
      ],
      [
        "old",
        -9.57378399545041
      ],
      [
        "someone",
        -9.573976609391062
      ],
      [
        "Ġprior",
        -9.574380415872112
      ],
      [
        "Ãĥ",
        -9.575173111755163
      ],
      [
        "Ġneeds",
        -9.575878098535881
      ],
      [
        "Ġpro",
        -9.576152493919672
      ],
      [
        "55",
        -9.576853847559725
      ],
      [
        "Ġstep",
        -9.577491543776706
      ],
      [
        "way",
        -9.577740154257357
      ],
      [
        "Delta",
        -9.577958459017234
      ],
      [
        "Ġcheck",
        -9.580911593953488
      ],
      [
        "ism",
        -9.581199706837438
      ],
      [
        "Ġmicro",
        -9.582040097349472
      ],
      [
        "like",
        -9.582760578022684
      ],
      [
        "Ġloss",
        -9.584440208183741
      ],
      [
        "Ġsix",
        -9.584508290953815
      ],
      [
        "Ġblack",
        -9.584658764264892
      ],
      [
        "Ġsequence",
        -9.585559334061399
      ],
      [
        "width",
        -9.586115024989489
      ],
      [
        "public",
        -9.587795526753796
      ],
      [
        "Ġstatement",
        -9.587829084222728
      ],
      [
        "Ġpolicy",
        -9.587955212902907
      ],
      [
        "probably",
        -9.588985257026623
      ],
      [
        "Ġhope",
        -9.589045628427455
      ],
      [
        "Object",
        -9.590017852506593
      ],
      [
        "Ġpressure",
        -9.591029554570285
      ],
      [
        "void",
        -9.592129588174165
      ],
      [
        "Ġstudents",
        -9.592698405460949
      ],
      [
        "ably",
        -9.596612489989859
      ],
      [
        "Ġstory",
        -9.596735017570246
      ],
      [
        "Ġ17",
        -9.596824016315336
      ],
      [
        "49",
        -9.59922306180598
      ],
      [
        "Ġplan",
        -9.599780436505172
      ],
      [
        "Ġquality",
        -9.600323295738631
      ],
      [
        "Ġstarted",
        -9.602058376411119
      ],
      [
        "Ġsense",
        -9.603231414261144
      ],
      [
        "Ġcomplete",
        -9.603359208547166
      ],
      [
        "Ġstop",
        -9.60458595301654
      ],
      [
        "not",
        -9.605304957249691
      ],
      [
        "Ġitself",
        -9.60626225131728
      ],
      [
        "Ġremain",
        -9.606706216171235
      ],
      [
        "Ġbreak",
        -9.606956096496914
      ],
      [
        "Ġlength",
        -9.60836152169255
      ],
      [
        "Ġmedia",
        -9.609463223400533
      ],
      [
        "Ġsituation",
        -9.60966578000825
      ],
      [
        "Ġallow",
        -9.610707589904656
      ],
      [
        "60",
        -9.612100472828244
      ],
      [
        "Ġcontinue",
        -9.612121888235468
      ],
      [
        "Ġobtain",
        -9.612503591856667
      ],
      [
        "99",
        -9.612885133602825
      ],
      [
        "Get",
        -9.61349365447009
      ],
      [
        "Ġforce",
        -9.613697057141767
      ],
      [
        "ary",
        -9.6137383996866
      ],
      [
        "All",
        -9.613851964242436
      ],
      [
        "Ġdifficult",
        -9.614088554286697
      ],
      [
        "!=",
        -9.615429986488978
      ],
      [
        "ĠTHE",
        -9.615628977220869
      ],
      [
        "ĠNational",
        -9.615683146037771
      ],
      [
        "Ġpolitical",
        -9.616799735970462
      ],
      [
        "Ġsample",
        -9.61794420703356
      ],
      [
        "41",
        -9.618721118926363
      ],
      [
        "coming",
        -9.620185680156375
      ],
      [
        "dots",
        -9.620607122235668
      ],
      [
        "Ġindependent",
        -9.62145597981522
      ],
      [
        "53",
        -9.623978613814803
      ],
      [
        "Ġbook",
        -9.624496456579704
      ],
      [
        "script",
        -9.624809041851975
      ],
      [
        "Ġnecessary",
        -9.624809824356799
      ],
      [
        "Ġheart",
        -9.624904844775177
      ],
      [
        "Ġ\\\\",
        -9.625848227958919
      ],
      [
        "Ġpage",
        -9.628808528842999
      ],
      [
        "Further",
        -9.630617389210322
      ],
      [
        "Although",
        -9.630765816789799
      ],
      [
        "With",
        -9.631348286524942
      ],
      [
        "Ġreference",
        -9.631873861629654
      ],
      [
        "Ġshall",
        -9.632324622989875
      ],
      [
        "}}\\",
        -9.6327375530327
      ],
      [
        "from",
        -9.632748925985698
      ],
      [
        "net",
        -9.633619008799656
      ],
      [
        "ĠTrump",
        -9.634954964622837
      ],
      [
        "ized",
        -9.63594849680393
      ],
      [
        "Ġanswer",
        -9.636645340810267
      ],
      [
        "Ġimpact",
        -9.637280028396109
      ],
      [
        "Ġsimply",
        -9.637890531669868
      ],
      [
        "47",
        -9.638216185453617
      ],
      [
        "Ġcolor",
        -9.638453136328293
      ],
      [
        "According",
        -9.6391336052625
      ],
      [
        "Ġprovides",
        -9.639551277189698
      ],
      [
        "Ġlines",
        -9.639916248818185
      ],
      [
        "Ġstay",
        -9.641659732998667
      ],
      [
        "My",
        -9.644796364927927
      ],
      [
        "Ġcut",
        -9.64485098377473
      ],
      [
        "Ġmedical",
        -9.645663882816706
      ],
      [
        "Ġprevent",
        -9.646758432613606
      ],
      [
        "Ġjudgment",
        -9.647629980176038
      ],
      [
        "Ġnear",
        -9.64817176555174
      ],
      [
        "Ġbad",
        -9.64832230615802
      ],
      [
        "Ġconstant",
        -9.650429334577847
      ],
      [
        "Ġcontact",
        -9.65241729698997
      ],
      [
        "Ġoutside",
        -9.652904458783857
      ],
      [
        "Ġmoment",
        -9.652921409927233
      ],
      [
        "length",
        -9.653318357826226
      ],
      [
        "Ġespecially",
        -9.6538602331302
      ],
      [
        ")/",
        -9.654139827289146
      ],
      [
        "ĠOF",
        -9.65502150842128
      ],
      [
        "Ġ||",
        -9.655151151865056
      ],
      [
        "Ġshare",
        -9.656006146908378
      ],
      [
        "ch",
        -9.656948678234464
      ],
      [
        "land",
        -9.65804195722598
      ],
      [
        "46",
        -9.658620067008709
      ],
      [
        "Ġinput",
        -9.65873267015062
      ],
      [
        "Ġpersonal",
        -9.659798169644208
      ],
      [
        "Ġinstance",
        -9.660334406159965
      ],
      [
        "Ġcontract",
        -9.661377577654452
      ],
      [
        "\\_",
        -9.662040552292622
      ],
      [
        "65",
        -9.662171596087214
      ],
      [
        "Ġspecial",
        -9.662215314297399
      ],
      [
        "directly",
        -9.663159966347184
      ],
      [
        "Ġformer",
        -9.66330877405232
      ],
      [
        "Ġpresence",
        -9.663764287371093
      ],
      [
        "69",
        -9.665394614734561
      ],
      [
        "Ġmodels",
        -9.665565286294068
      ],
      [
        "^\\",
        -9.665622045766112
      ],
      [
        "px",
        -9.66630487459969
      ],
      [
        "Ġproperties",
        -9.667296131484825
      ],
      [
        "56",
        -9.667891131015482
      ],
      [
        "ĠMay",
        -9.669735898182804
      ],
      [
        "with",
        -9.67132107142741
      ],
      [
        "eta",
        -9.672118102933384
      ],
      [
        "chi",
        -9.672241217900813
      ],
      [
        "Ġproducts",
        -9.672824429617743
      ],
      [
        "Ġwords",
        -9.672879108380608
      ],
      [
        "ĠCity",
        -9.672904610053482
      ],
      [
        "Ġdistrict",
        -9.673789797164968
      ],
      [
        "Ġoutput",
        -9.674245780492917
      ],
      [
        "Ġdetermined",
        -9.674370127689613
      ],
      [
        "Ġint",
        -9.676404704723575
      ],
      [
        "07",
        -9.677128689521675
      ],
      [
        "06",
        -9.679979571433465
      ],
      [
        "Ġseem",
        -9.681200276932383
      ],
      [
        "Ġrest",
        -9.68178151783361
      ],
      [
        "Ġappeal",
        -9.684907614992428
      ],
      [
        "Ġcross",
        -9.685275548618995
      ],
      [
        "const",
        -9.688462596381143
      ],
      [
        "Ġdecrease",
        -9.688576921200035
      ],
      [
        "state",
        -9.689438421179677
      ],
      [
        "));",
        -9.689912778474277
      ],
      [
        "function",
        -9.691412536772711
      ],
      [
        "Ġeffective",
        -9.692056992782687
      ],
      [
        "Ġphysical",
        -9.692644011501104
      ],
      [
        "Ġeverything",
        -9.692646922007519
      ],
      [
        "Ġwide",
        -9.692845929409938
      ],
      [
        "Ġground",
        -9.694374907403619
      ],
      [
        "Ġwrong",
        -9.695539823184411
      ],
      [
        "seems",
        -9.69562766330752
      ],
      [
        "Ġprimary",
        -9.696143015307626
      ],
      [
        "Ġrelease",
        -9.69667900386216
      ],
      [
        "Ġinside",
        -9.69786591837984
      ],
      [
        "Ġlonger",
        -9.698071455857235
      ],
      [
        "Ġwhite",
        -9.699013178534528
      ],
      [
        "lib",
        -9.699854240040148
      ],
      [
        "View",
        -9.700452034999298
      ],
      [
        "Ġpain",
        -9.701037912888525
      ],
      [
        "âĢ",
        -9.701643254328271
      ],
      [
        "Ġflow",
        -9.701778492854885
      ],
      [
        "Ġelement",
        -9.702655305237476
      ],
      [
        "Ġact",
        -9.70480947431424
      ],
      [
        "Ġwrite",
        -9.706608156091262
      ],
      [
        "Ġrights",
        -9.70722879422884
      ],
      [
        "Ġlayer",
        -9.707517747454075
      ],
      [
        "Ġhold",
        -9.70785411431026
      ],
      [
        "Ġevents",
        -9.708268856520306
      ],
      [
        "///",
        -9.708800633174647
      ],
      [
        "Ġquite",
        -9.709733060447945
      ],
      [
        "um",
        -9.71037345928052
      ],
      [
        "Ġpresented",
        -9.71386026571731
      ],
      [
        "Ġincreasing",
        -9.714392027187966
      ],
      [
        "Ġeasy",
        -9.714488657049541
      ],
      [
        "Ġ21",
        -9.71489783964947
      ],
      [
        "Ġidentified",
        -9.716310885423235
      ],
      [
        "Ġbasis",
        -9.716582128755201
      ],
      [
        "Ġoffer",
        -9.71787290280369
      ],
      [
        "Ġfeatures",
        -9.718788240165333
      ],
      [
        "Ġrunning",
        -9.719118194264375
      ],
      [
        "Ġoffice",
        -9.719699281517451
      ],
      [
        "51",
        -9.720157137352174
      ],
      [
        "Ġmulti",
        -9.720683673305151
      ],
      [
        "])",
        -9.720945933450116
      ],
      [
        "54",
        -9.721868833889403
      ],
      [
        "therefore",
        -9.722588933386243
      ],
      [
        "max",
        -9.722890216923641
      ],
      [
        "Ġarray",
        -9.72310915359897
      ],
      [
        "Ġdate",
        -9.723191759355212
      ],
      [
        "Ġgenes",
        -9.723911356370424
      ],
      [
        "Ġenvironment",
        -9.72515324154605
      ],
      [
        "Ġmember",
        -9.725415526906932
      ],
      [
        "ĠLicense",
        -9.725572132096659
      ],
      [
        "Ġplaintiff",
        -9.725689923218962
      ],
      [
        "induced",
        -9.72660642189091
      ],
      [
        "Ġcreated",
        -9.726884272874399
      ],
      [
        "Ġcenter",
        -9.727246054127583
      ],
      [
        "Ġapply",
        -9.728865982582159
      ],
      [
        "Ġfunctions",
        -9.729046692143712
      ],
      [
        "Ġvideo",
        -9.729326455509307
      ],
      [
        "âĢĲ",
        -9.729743882861147
      ],
      [
        "Ġrelationship",
        -9.730715681331926
      ],
      [
        "37",
        -9.730866175575235
      ],
      [
        "Ġagreement",
        -9.730878281678029
      ],
      [
        "Ġinitial",
        -9.734573246959314
      ],
      [
        "Ġoil",
        -9.735604287494398
      ],
      [
        "psi",
        -9.73865318310187
      ],
      [
        "Ġago",
        -9.73870691561961
      ],
      [
        "ĠMy",
        -9.738805807241294
      ],
      [
        "path",
        -9.740002150302658
      ],
      [
        "ĠBy",
        -9.741038475642279
      ],
      [
        "off",
        -9.741050492189304
      ],
      [
        "Ġsamples",
        -9.741281688991174
      ],
      [
        ")/(",
        -9.741735872586577
      ],
      [
        "Ġwanted",
        -9.74194967753488
      ],
      [
        "True",
        -9.742566929346896
      ],
      [
        "Ġnegative",
        -9.742586262314868
      ],
      [
        "Ġparameters",
        -9.743652802067194
      ],
      [
        "Ġdirection",
        -9.744278739011351
      ],
      [
        "Ġfront",
        -9.745184817107083
      ],
      [
        "Ġcontext",
        -9.745614417497169
      ],
      [
        "item",
        -9.745716445753088
      ],
      [
        "48",
        -9.746803996756531
      ],
      [
        "Ġdirect",
        -9.74798363634736
      ],
      [
        "52",
        -9.748230804237618
      ],
      [
        "Ġ&&",
        -9.748393699854724
      ],
      [
        "Ġtitle",
        -9.74921592259015
      ],
      [
        "Ġgas",
        -9.75054026308239
      ],
      [
        "rangle",
        -9.751091650335006
      ],
      [
        "Ġnatural",
        -9.752185902804491
      ],
      [
        "Ġrequest",
        -9.752197591187564
      ],
      [
        "Ġsearch",
        -9.753181201662061
      ],
      [
        "Ġprice",
        -9.755298201168912
      ],
      [
        "Key",
        -9.756340735280054
      ],
      [
        "Ġdeep",
        -9.756567237239672
      ],
      [
        "Ġlegal",
        -9.758229526469515
      ],
      [
        "\\])",
        -9.759085179915102
      ],
      [
        "42",
        -9.759199010140138
      ],
      [
        "base",
        -9.759869213284876
      ],
      [
        "57",
        -9.761196661427041
      ],
      [
        "sim",
        -9.761812261053574
      ],
      [
        "Ġexpect",
        -9.761951282983944
      ],
      [
        "Ġ/*",
        -9.762178762758653
      ],
      [
        "Ġtraining",
        -9.762735012144692
      ],
      [
        "Ġmemory",
        -9.764443494503446
      ],
      [
        "Ġequal",
        -9.76473753296425
      ],
      [
        "Ġelements",
        -9.76478893267041
      ],
      [
        "msg",
        -9.76509576385016
      ],
      [
        "ĠDr",
        -9.766265495827335
      ],
      [
        "Ġavoid",
        -9.766433310891903
      ],
      [
        "Ġtypes",
        -9.767391126942291
      ],
      [
        "Ġstatic",
        -9.7677938444215
      ],
      [
        "Ġbuild",
        -9.768398770494102
      ],
      [
        "Ġknowledge",
        -9.76867196203039
      ],
      [
        "Ġstage",
        -9.76914862214236
      ],
      [
        "Ġmice",
        -9.769335600306016
      ],
      [
        "Ġareas",
        -9.7701335465975
      ],
      [
        "usually",
        -9.770165599102276
      ],
      [
        "})",
        -9.77120152963247
      ],
      [
        "developed",
        -9.772020142870801
      ],
      [
        "Ġtheory",
        -9.772320533185752
      ],
      [
        "Ġassume",
        -9.772491874592761
      ],
      [
        "cal",
        -9.773028018317326
      ],
      [
        "although",
        -9.773362743962824
      ],
      [
        "Ġfire",
        -9.77477292458273
      ],
      [
        "+\\",
        -9.774785276438822
      ],
      [
        "Ġdrug",
        -9.775662817012151
      ],
      [
        "Ġstatus",
        -9.775776264793892
      ],
      [
        "One",
        -9.776140667420245
      ],
      [
        "Ġbehind",
        -9.776171922440207
      ],
      [
        "Ġsuper",
        -9.77645577573897
      ],
      [
        "}(\\",
        -9.776922913888562
      ],
      [
        "Ġunit",
        -9.778308852832984
      ],
      [
        "Ġbehavior",
        -9.778359777635526
      ],
      [
        "Ġrequire",
        -9.77869638080657
      ],
      [
        "Ġweeks",
        -9.780638751945991
      ],
      [
        "Error",
        -9.781351019825731
      ],
      [
        "Ġapplied",
        -9.782469036753522
      ],
      [
        "ÃĤ",
        -9.783378779120866
      ],
      [
        "Ġgreater",
        -9.78377511725118
      ],
      [
        "Ġratio",
        -9.784150534194518
      ],
      [
        "ĠInc",
        -9.785283088248761
      ],
      [
        "ĠJohn",
        -9.788081676328957
      ],
      [
        "Ġpath",
        -9.788242915324046
      ],
      [
        "top",
        -9.788492970647996
      ],
      [
        "Ġ40",
        -9.788697533374787
      ],
      [
        "Ġreduce",
        -9.789265490429257
      ],
      [
        "ĠDNA",
        -9.789614349471995
      ],
      [
        "Ġpreviously",
        -9.7909380709865
      ],
      [
        "Ġdouble",
        -9.791143453741327
      ],
      [
        "ĠWith",
        -9.7913750783598
      ],
      [
        "Ġquestions",
        -9.791642761337066
      ],
      [
        "Ġlimited",
        -9.792140156652186
      ],
      [
        "Ġask",
        -9.792306192182497
      ],
      [
        "](",
        -9.793320232599598
      ],
      [
        "big",
        -9.793789842899901
      ],
      [
        "invention",
        -9.796147056667051
      ],
      [
        "59",
        -9.796651649289181
      ],
      [
        "Ġreduced",
        -9.797164119247142
      ],
      [
        "ĠRe",
        -9.797576285702508
      ],
      [
        "Ġarticle",
        -9.7979130884013
      ],
      [
        "Ġlack",
        -9.798306052137777
      ],
      [
        "Ġpractice",
        -9.798483238557681
      ],
      [
        "Ġsaw",
        -9.80104732384921
      ],
      [
        "Ġmonth",
        -9.801862896899104
      ],
      [
        "Ġrelative",
        -9.80249522025201
      ],
      [
        "ĠPresident",
        -9.802795162146086
      ],
      [
        "Ġglobal",
        -9.804295285694819
      ],
      [
        "Ġworks",
        -9.804506483408456
      ],
      [
        "that",
        -9.80515374201918
      ],
      [
        "Because",
        -9.805736854787753
      ],
      [
        "Ġgames",
        -9.80805203185638
      ],
      [
        "Ġopinion",
        -9.810086207721891
      ],
      [
        "user",
        -9.811852292016123
      ],
      [
        "Ġ22",
        -9.813098500306253
      ],
      [
        "]^",
        -9.814306502179486
      ],
      [
        "Ġproduce",
        -9.814382479366097
      ],
      [
        "Ġleave",
        -9.814952032434636
      ],
      [
        "ams",
        -9.815235639979722
      ],
      [
        "Ġculture",
        -9.81721869894818
      ],
      [
        "Ġforward",
        -9.81808357984116
      ],
      [
        "Ġsoftware",
        -9.81870147303976
      ],
      [
        "my",
        -9.819435086900635
      ],
      [
        "particularly",
        -9.819487303759292
      ],
      [
        "term",
        -9.819544598608347
      ],
      [
        "Ġdi",
        -9.819709744308492
      ],
      [
        "Ġrule",
        -9.821756132603468
      ],
      [
        "Ġword",
        -9.821899769507564
      ],
      [
        "File",
        -9.822530557964507
      ],
      [
        "ring",
        -9.823757937241588
      ],
      [
        "Ġ(\\[",
        -9.82386300588243
      ],
      [
        "Ġ19",
        -9.825368852845692
      ],
      [
        "operator",
        -9.825526431122174
      ],
      [
        "Ġincludes",
        -9.826046459482153
      ],
      [
        "Ġmother",
        -9.826186046482277
      ],
      [
        "Ġseparate",
        -9.826248556572489
      ],
      [
        "---------------",
        -9.827740600315087
      ],
      [
        "quad",
        -9.829143542513108
      ],
      [
        "static",
        -9.830346463121705
      ],
      [
        "Ġattack",
        -9.830930580502006
      ],
      [
        "Ġdisplay",
        -9.830973348656906
      ],
      [
        "...\"",
        -9.831839202162621
      ],
      [
        "Ġchoice",
        -9.83232769960367
      ],
      [
        "ĠCounty",
        -9.832579472000072
      ],
      [
        "ĠAct",
        -9.833005065861592
      ],
      [
        "corresponding",
        -9.833308180309746
      ],
      [
        "Ġinfluence",
        -9.833770061566597
      ],
      [
        "Ġlimit",
        -9.834018916499666
      ],
      [
        "Ġaffect",
        -9.83732019063002
      ],
      [
        "Ġplayers",
        -9.8376159043035
      ],
      [
        "Ġclaims",
        -9.838466236518881
      ],
      [
        "whose",
        -9.84071429595182
      ],
      [
        "use",
        -9.840877730058304
      ],
      [
        "Ġwritten",
        -9.842333389583203
      ],
      [
        "dev",
        -9.844625728425294
      ],
      [
        "ities",
        -9.844814116475671
      ],
      [
        "Ġnature",
        -9.845123621789346
      ],
      [
        "Set",
        -9.84554476099776
      ],
      [
        "Ġmessage",
        -9.845975997504368
      ],
      [
        "followed",
        -9.846288020573425
      ],
      [
        "Ġnational",
        -9.84790403401484
      ],
      [
        "58",
        -9.848644295862771
      ],
      [
        "index",
        -9.84943477731033
      ],
      [
        "Ġfine",
        -9.84949285010241
      ],
      [
        "tried",
        -9.853287325098439
      ],
      [
        "Ġ[*",
        -9.85356571229357
      ],
      [
        "Ġdistance",
        -9.85545817614703
      ],
      [
        "java",
        -9.855710193260425
      ],
      [
        "Ġmis",
        -9.85582874703676
      ],
      [
        "Ġargument",
        -9.856573407893073
      ],
      [
        "By",
        -9.858123652380593
      ],
      [
        "back",
        -9.858421469283567
      ],
      [
        "Ġspecies",
        -9.85869877625051
      ],
      [
        "čĊ",
        -9.859801465579684
      ],
      [
        "link",
        -9.860053086650758
      ],
      [
        "ĠHis",
        -9.860886864555905
      ],
      [
        "Ġlate",
        -9.861632829729233
      ],
      [
        "Ġwar",
        -9.862021573718502
      ],
      [
        "Ġliving",
        -9.863401472938861
      ],
      [
        "Ġart",
        -9.8647220538062
      ],
      [
        "Ġsuccess",
        -9.864823998201782
      ],
      [
        "ions",
        -9.86536511240058
      ],
      [
        "day",
        -9.865865973438524
      ],
      [
        "ĠSouth",
        -9.867193800673077
      ],
      [
        "Ġsecurity",
        -9.868312163796881
      ],
      [
        "Text",
        -9.868721841376143
      ],
      [
        "anyone",
        -9.868758275096305
      ],
      [
        "Ġbrain",
        -9.86983195749455
      ],
      [
        "90",
        -9.869970604706054
      ],
      [
        "Ġstyle",
        -9.871283653931881
      ],
      [
        "Now",
        -9.871356690075428
      ],
      [
        "She",
        -9.871445517668569
      ],
      [
        "ĠOur",
        -9.872313388147894
      ],
      [
        "Ġrecently",
        -9.872968777241578
      ],
      [
        "Ġindex",
        -9.873033424445223
      ],
      [
        "Ġappropriate",
        -9.87305335965767
      ],
      [
        "Ġpurpose",
        -9.87308216158318
      ],
      [
        "app",
        -9.873499351204932
      ],
      [
        "Ġlost",
        -9.874591828132202
      ],
      [
        "Ġdefault",
        -9.874904867629567
      ],
      [
        "sub",
        -9.874992933858048
      ],
      [
        "Ġthemselves",
        -9.876384201418603
      ],
      [
        "map",
        -9.876857031760686
      ],
      [
        "Ġetc",
        -9.87747679578251
      ],
      [
        "generally",
        -9.877834250804472
      ],
      [
        "72",
        -9.87818335048624
      ],
      [
        "Ġexplain",
        -9.878225789026699
      ],
      [
        "les",
        -9.878969309945834
      ],
      [
        "node",
        -9.879295824133452
      ],
      [
        "Ġfederal",
        -9.880278093251196
      ],
      [
        "Ġactive",
        -9.881200087961314
      ],
      [
        "Ġonline",
        -9.881350469103685
      ],
      [
        "Ġcountries",
        -9.881591605980498
      ],
      [
        "Ġhospital",
        -9.881976704583604
      ],
      [
        "Ġfailure",
        -9.882127601260473
      ],
      [
        "Ġdifferences",
        -9.882410279349914
      ],
      [
        "jury",
        -9.883187137777778
      ],
      [
        "ley",
        -9.883925502412936
      ],
      [
        "Also",
        -9.884148619398887
      ],
      [
        "Sec",
        -9.884784613844268
      ],
      [
        "ĠAmerica",
        -9.884878634380222
      ],
      [
        "Ġproposed",
        -9.885708205800272
      ],
      [
        "Ġ$$",
        -9.885846453376216
      ],
      [
        "Ġex",
        -9.88655888306582
      ],
      [
        "Ġvar",
        -9.887732944246599
      ],
      [
        "Ġcharge",
        -9.88780701331731
      ],
      [
        "Ġreceive",
        -9.888265935966402
      ],
      [
        "Ġappear",
        -9.888343380079343
      ],
      [
        "Ġeconomic",
        -9.88903479674376
      ],
      [
        "}}$",
        -9.890114398050484
      ],
      [
        "čĊĠĠĠĠĠĠĠ",
        -9.89056872746307
      ],
      [
        "form",
        -9.892118576047595
      ],
      [
        "Ġcomputer",
        -9.892570523873921
      ],
      [
        "Ġred",
        -9.894106859537048
      ],
      [
        "Ġ2012",
        -9.89442170140278
      ],
      [
        ":**",
        -9.894763505761425
      ],
      [
        "Ġbasic",
        -9.895414785009663
      ],
      [
        "Ġcount",
        -9.895891357651905
      ],
      [
        "Gamma",
        -9.895978716642698
      ],
      [
        "Ġhit",
        -9.896078231867373
      ],
      [
        "ĠGeneral",
        -9.896569555461168
      ],
      [
        "Ġslow",
        -9.89676535169606
      ],
      [
        "became",
        -9.896787672133287
      ],
      [
        "Ġ23",
        -9.896870847732092
      ],
      [
        "Ġhimself",
        -9.897152286518446
      ],
      [
        "}$,",
        -9.897685526445969
      ],
      [
        "ĠMarch",
        -9.898205036043851
      ],
      [
        "67",
        -9.89877945888985
      ],
      [
        "Omega",
        -9.899332774311516
      ],
      [
        "ĠWorld",
        -9.900487075930561
      ],
      [
        "Ġpoor",
        -9.901524828889908
      ],
      [
        "gave",
        -9.90204832981461
      ],
      [
        "Ġdensity",
        -9.902670865069595
      ],
      [
        "Ġtable",
        -9.903130607598982
      ],
      [
        "Test",
        -9.903380272992667
      ],
      [
        "reasonable",
        -9.903765715809863
      ],
      [
        "ĠHouse",
        -9.904047921653756
      ],
      [
        "Ġnotice",
        -9.904988817095564
      ],
      [
        "rightarrow",
        -9.906552014081216
      ],
      [
        "ĠChina",
        -9.907000236735906
      ],
      [
        "color",
        -9.907137142898847
      ],
      [
        "Ġwalk",
        -9.907162869784536
      ],
      [
        "Ġwebsite",
        -9.907210853263624
      ],
      [
        "Ġmeeting",
        -9.90908847830068
      ],
      [
        "Ġ60",
        -9.910132360970985
      ],
      [
        "Ġconcern",
        -9.910230354793644
      ],
      [
        "Ġblock",
        -9.91026416117751
      ],
      [
        "group",
        -9.910305929839762
      ],
      [
        "Ġfocus",
        -9.91056112556427
      ],
      [
        "Ġrates",
        -9.911009108751019
      ],
      [
        "ĠNorth",
        -9.91141778326755
      ],
      [
        "Ġunique",
        -9.91200057632349
      ],
      [
        "Ġderivative",
        -9.912175509216484
      ],
      [
        "63",
        -9.914672828044418
      ],
      [
        "Ġpretty",
        -9.915391997174552
      ],
      [
        "^[@",
        -9.915624563357621
      ],
      [
        "Ġmap",
        -9.915683108426872
      ],
      [
        "Ġdrive",
        -9.91655228764665
      ],
      [
        "men",
        -9.917063868841677
      ],
      [
        "Ġfinancial",
        -9.917161612557571
      ],
      [
        "66",
        -9.917946706955217
      ],
      [
        "Ġregard",
        -9.918236920318659
      ],
      [
        "Ġland",
        -9.91827120412563
      ],
      [
        "});",
        -9.918979290886515
      ],
      [
        "003",
        -9.919001545750643
      ],
      [
        "From",
        -9.920259090388132
      ],
      [
        "Exception",
        -9.92099674248222
      ],
      [
        "ĠDepartment",
        -9.92102312517484
      ],
      [
        "July",
        -9.921430265868949
      ],
      [
        "Ġbackground",
        -9.921492142871266
      ],
      [
        "68",
        -9.92187894137457
      ],
      [
        "title",
        -9.922499443820403
      ],
      [
        "85",
        -9.922558916671377
      ],
      [
        "def",
        -9.923299848935233
      ],
      [
        "Ġ/>",
        -9.923608632280605
      ],
      [
        "Ġcouple",
        -9.924863684783597
      ],
      [
        "ng",
        -9.925674635145093
      ],
      [
        "Ġcorrect",
        -9.926473834770325
      ],
      [
        "designed",
        -9.926528750923898
      ],
      [
        "Ġrandom",
        -9.926910196170152
      ],
      [
        "Ġgain",
        -9.92696104699229
      ],
      [
        "Ã©",
        -9.927926767604085
      ],
      [
        "Ġfailed",
        -9.928462229040468
      ],
      [
        "follows",
        -9.930010394659222
      ],
      [
        "hearing",
        -9.931147278720598
      ],
      [
        "\";",
        -9.931249523600464
      ],
      [
        "They",
        -9.931363321847554
      ],
      [
        "70",
        -9.931643626837372
      ],
      [
        "ĠCD",
        -9.931736254057949
      ],
      [
        "Ġ2013",
        -9.932026688581775
      ],
      [
        "Ġcampaign",
        -9.933790459136723
      ],
      [
        "Ġpublished",
        -9.933806472439343
      ],
      [
        "Ġscale",
        -9.934159953300338
      ],
      [
        "Ġserious",
        -9.934741192003482
      ],
      [
        "Ġinter",
        -9.93545653657463
      ],
      [
        "Ġspeed",
        -9.935894056349417
      ],
      [
        "Ġoperation",
        -9.935960539777701
      ],
      [
        "Ġnumbers",
        -9.937142802633277
      ],
      [
        "Ġattempt",
        -9.937268138408978
      ],
      [
        "comes",
        -9.937399721288127
      ],
      [
        "94",
        -9.93758285975355
      ],
      [
        "Ġmeet",
        -9.937950154023323
      ],
      [
        "ization",
        -9.938822537846608
      ],
      [
        "96",
        -9.939280161166133
      ],
      [
        "=\\",
        -9.939832374039678
      ],
      [
        "Ġallowed",
        -9.939956105493868
      ],
      [
        "86",
        -9.940439276205803
      ],
      [
        "Ġ2016",
        -9.94083490926853
      ],
      [
        "Ġdegree",
        -9.94198071669398
      ],
      [
        "style",
        -9.942288548114092
      ],
      [
        "free",
        -9.944080966661273
      ],
      [
        "Ġ28",
        -9.944188121955257
      ],
      [
        "Ġwoman",
        -9.944800058084574
      ],
      [
        "Ġstress",
        -9.945787445316855
      ],
      [
        "Ġfindings",
        -9.94599317714176
      ],
      [
        "Ġexist",
        -9.946694668908583
      ],
      [
        "Ġlarger",
        -9.947128762128456
      ],
      [
        "body",
        -9.947162605094015
      ],
      [
        "expressed",
        -9.947345274704482
      ],
      [
        "saying",
        -9.947414207378209
      ],
      [
        "Ġmeasured",
        -9.947904723461582
      ],
      [
        "Ġconcentration",
        -9.948264198717684
      ],
      [
        "ĠII",
        -9.94852255620116
      ],
      [
        "then",
        -9.948888327225252
      ],
      [
        "čĊĠ",
        -9.949179717945828
      ],
      [
        "Ġ2014",
        -9.949638990099075
      ],
      [
        "Ġeveryone",
        -9.949833921970221
      ],
      [
        "Ġportion",
        -9.949900436923752
      ],
      [
        "Ġtissue",
        -9.94990106082766
      ],
      [
        "Ġimprove",
        -9.950397660923485
      ],
      [
        "88",
        -9.950611212454179
      ],
      [
        "Ġdepend",
        -9.951153392418616
      ],
      [
        "down",
        -9.95183361261414
      ],
      [
        "###",
        -9.953050165728976
      ],
      [
        "Ġcomponent",
        -9.953703306739017
      ],
      [
        "Ġsoon",
        -9.95441450006445
      ],
      [
        "we",
        -9.955207746332487
      ],
      [
        "ĠDe",
        -9.9552885509912
      ],
      [
        "Ġson",
        -9.955786562849218
      ],
      [
        "Ċĉĉĉĉ",
        -9.956923720475908
      ],
      [
        "Ġmovement",
        -9.958711909268384
      ],
      [
        "Ġcurrently",
        -9.958778168902628
      ],
      [
        "Ġalone",
        -9.959190127693157
      ],
      [
        "Ġsafe",
        -9.95920972987205
      ],
      [
        "After",
        -9.959300039106491
      ],
      [
        "ĠString",
        -9.960053812517112
      ],
      [
        "Ġselected",
        -9.960934680613677
      ],
      [
        "knew",
        -9.962394896658346
      ],
      [
        "ĠHere",
        -9.962461348201451
      ],
      [
        "Ġattention",
        -9.96572278986917
      ],
      [
        "Ġheat",
        -9.965825184631699
      ],
      [
        "related",
        -9.966559216988028
      ],
      [
        "Ġdetails",
        -9.966671510691683
      ],
      [
        "began",
        -9.96704457089558
      ],
      [
        "divided",
        -9.96720380762798
      ],
      [
        "located",
        -9.968073414838306
      ],
      [
        "Ġsign",
        -9.96943550002612
      ],
      [
        "vec",
        -9.970928259191659
      ],
      [
        "ĠâĪĴ",
        -9.971754335597552
      ],
      [
        "ĠJune",
        -9.971835951220166
      ],
      [
        "Ġpull",
        -9.972076602577461
      ],
      [
        "Ġvolume",
        -9.972529500829012
      ],
      [
        "False",
        -9.973342364422376
      ],
      [
        "Ġcompanies",
        -9.974273781598411
      ],
      [
        "true",
        -9.97509297772114
      ],
      [
        "Ġstand",
        -9.975394745884856
      ],
      [
        "Ġfriends",
        -9.97602333013659
      ],
      [
        "Ġcharacter",
        -9.976875739671776
      ],
      [
        "Ġvehicle",
        -9.977879749305247
      ],
      [
        "Ġlocation",
        -9.978919970197953
      ],
      [
        "Ġtransfer",
        -9.979690921618202
      ],
      [
        "Ġsentence",
        -9.980484555127898
      ],
      [
        "['",
        -9.981112103380129
      ],
      [
        "info",
        -9.981254364935548
      ],
      [
        "Ġgoal",
        -9.981762749017376
      ],
      [
        "$\\",
        -9.981971598231606
      ],
      [
        "Ġbio",
        -9.982499623620809
      ],
      [
        "Ġindividuals",
        -9.98263109209226
      ],
      [
        "Size",
        -9.98339532771667
      ],
      [
        "Ġlearn",
        -9.984346474419457
      ],
      [
        "Ġapp",
        -9.986038003599448
      ],
      [
        "ĠFirst",
        -9.986937796832768
      ],
      [
        "Ġnote",
        -9.987757009502962
      ],
      [
        "ĊĠĠĠĠĠĠĠĠĠĠĠĠĠ",
        -9.988925945969736
      ],
      [
        "Ġstar",
        -9.988951620696808
      ],
      [
        "Ġchance",
        -9.989370862953553
      ],
      [
        "Ġreaction",
        -9.989413572206889
      ],
      [
        "highly",
        -9.989450116649428
      ],
      [
        "ate",
        -9.989563521385687
      ],
      [
        "ING",
        -9.990049251776481
      ],
      [
        "completely",
        -9.990175718901243
      ],
      [
        "struct",
        -9.990320959658522
      ],
      [
        "Ġfixed",
        -9.99109239336008
      ],
      [
        "parties",
        -9.991364386981228
      ],
      [
        "Ġeducation",
        -9.991523613957344
      ],
      [
        "Ġvector",
        -9.992673657649092
      ],
      [
        "Ġ[**",
        -9.993088042944166
      ],
      [
        "ĠDo",
        -9.99473602011879
      ],
      [
        "val",
        -9.994878072519079
      ],
      [
        "Ġmanagement",
        -9.996019776529256
      ],
      [
        "Ġproteins",
        -9.996023474011578
      ],
      [
        "App",
        -9.996755102166112
      ],
      [
        "Ġ2015",
        -9.997314659956029
      ],
      [
        "Which",
        -9.997926412944475
      ],
      [
        "Ġcomponents",
        -9.9984251054823
      ],
      [
        "Ġrequires",
        -9.998919756083275
      ],
      [
        "Ġhappen",
        -9.999289939954235
      ],
      [
        "Ġfast",
        -9.999590498842574
      ],
      [
        "useful",
        -9.999956902940722
      ],
      [
        "\"><",
        -10.000018134598825
      ],
      [
        "Ġpattern",
        -10.000637230285635
      ],
      [
        "Ġenjoy",
        -10.000823971648824
      ],
      [
        "Ġtechnology",
        -10.00215655764258
      ],
      [
        "Ġeyes",
        -10.002249120260602
      ],
      [
        "Ġcentral",
        -10.002720523211002
      ],
      [
        "input",
        -10.003963008159147
      ],
      [
        "ling",
        -10.004097475763741
      ],
      [
        "Ġfrequency",
        -10.004172776893451
      ],
      [
        "¾",
        -10.004455416981289
      ],
      [
        "Ġ:=",
        -10.005062051151139
      ],
      [
        "goes",
        -10.005164641290257
      ],
      [
        "}$.",
        -10.00628878723827
      ],
      [
        "space",
        -10.006885870288738
      ],
      [
        "Ġnews",
        -10.007294642567956
      ],
      [
        "98",
        -10.00817804086709
      ],
      [
        "Ġpass",
        -10.009373092855776
      ],
      [
        "Ġindustry",
        -10.010155521855102
      ],
      [
        "Ġcopy",
        -10.01154016757363
      ],
      [
        "62",
        -10.01192028987347
      ],
      [
        "produced",
        -10.012509388082533
      ],
      [
        "Ġfair",
        -10.013034341081802
      ],
      [
        "Ġearlier",
        -10.013515249864668
      ],
      [
        "Ġwriting",
        -10.01361048263862
      ],
      [
        "case",
        -10.013676209997598
      ],
      [
        "Ġmaintain",
        -10.013754573041801
      ],
      [
        "Ġconnection",
        -10.014538815963784
      ],
      [
        "let",
        -10.016187972576635
      ],
      [
        "Ġleading",
        -10.016585753753539
      ],
      [
        "Ġsent",
        -10.01807003896334
      ],
      [
        "Ġassert",
        -10.019557039376394
      ],
      [
        "error",
        -10.020003404156759
      ],
      [
        "Ġequation",
        -10.020490302852247
      ],
      [
        "Ġwin",
        -10.021012934375644
      ],
      [
        "Ġoverall",
        -10.021037981940012
      ],
      [
        "ĠSystem",
        -10.021121475410899
      ],
      [
        "Ġmechanism",
        -10.021132028010738
      ],
      [
        "61",
        -10.021764177051786
      ],
      [
        "--------------",
        -10.022095650665495
      ],
      [
        "ĠJanuary",
        -10.022146588534893
      ],
      [
        "Ġmeasure",
        -10.022986733878088
      ],
      [
        "Ġpresident",
        -10.023170144037651
      ],
      [
        "easily",
        -10.023509229225471
      ],
      [
        "Ġcircuit",
        -10.023906371312437
      ],
      [
        "State",
        -10.023978288678164
      ],
      [
        "Ġremember",
        -10.024208949822448
      ],
      [
        "paid",
        -10.024248318050478
      ],
      [
        "());",
        -10.024993877982721
      ],
      [
        "Ġimages",
        -10.02527630223174
      ],
      [
        "Ġcontains",
        -10.025443662174803
      ],
      [
        "ĠApril",
        -10.025526059812254
      ],
      [
        "Ġ2011",
        -10.02844476837381
      ],
      [
        "which",
        -10.02862786012679
      ],
      [
        "Ġauto",
        -10.028699794068185
      ],
      [
        "Ġtoward",
        -10.029115961317826
      ],
      [
        "Ġdemand",
        -10.029305555180267
      ],
      [
        "image",
        -10.029443015718579
      ],
      [
        "giving",
        -10.029601235244286
      ],
      [
        "Ġindicate",
        -10.030973811351137
      ],
      [
        "ĠNot",
        -10.031035765925155
      ],
      [
        "Ġboard",
        -10.031470928424909
      ],
      [
        "ĠSome",
        -10.031776177852672
      ],
      [
        "Ġhost",
        -10.033258479296167
      ],
      [
        "len",
        -10.034085010849996
      ],
      [
        "ĠWest",
        -10.034281591634302
      ],
      [
        "Ġfall",
        -10.03483320042898
      ],
      [
        "Ġ2010",
        -10.03578297597566
      ],
      [
        "Ġcosts",
        -10.036053639995805
      ],
      [
        "December",
        -10.036812870438668
      ],
      [
        "uint",
        -10.037187054422386
      ],
      [
        "Ġestablished",
        -10.038076204440495
      ],
      [
        "Node",
        -10.038117092911197
      ],
      [
        "\"/>",
        -10.03891379191934
      ],
      [
        "Ġcounsel",
        -10.039279159545792
      ],
      [
        "Ġrepresent",
        -10.0399574449929
      ],
      [
        "Ġfinding",
        -10.040033674051891
      ],
      [
        "Ġsupported",
        -10.040453635548063
      ],
      [
        "Ġfigure",
        -10.040464503530224
      ],
      [
        "ĠCir",
        -10.040521611909135
      ],
      [
        "Ġcritical",
        -10.041153918374516
      ],
      [
        "Ġtumor",
        -10.042084674080861
      ],
      [
        "Ġgenerated",
        -10.043687218398931
      ],
      [
        "Ġhighest",
        -10.04405948700101
      ],
      [
        "Ġcomment",
        -10.044775699881354
      ],
      [
        "formed",
        -10.044917340574651
      ],
      [
        "Ġoption",
        -10.045649253640624
      ],
      [
        "Ġ26",
        -10.045660713010763
      ],
      [
        "version",
        -10.046659974194224
      ],
      [
        "Ġmode",
        -10.047062068041148
      ],
      [
        "Ġactivities",
        -10.047514252045714
      ],
      [
        "Ġnode",
        -10.049624358766062
      ],
      [
        "Ġlink",
        -10.049754925922286
      ],
      [
        "**(",
        -10.04994217194689
      ],
      [
        "Ġfather",
        -10.050408557926271
      ],
      [
        "source",
        -10.052114162873767
      ],
      [
        "Ġpush",
        -10.052438849379703
      ],
      [
        "Ġcomparison",
        -10.052979634463844
      ],
      [
        "New",
        -10.053473905771988
      ],
      [
        "Ġfelt",
        -10.053654337045554
      ],
      [
        "Ġallows",
        -10.053737832835843
      ],
      [
        "Ġstated",
        -10.053882757863207
      ],
      [
        "Ġtrade",
        -10.053919608036532
      ],
      [
        "Ġrelevant",
        -10.05411175606982
      ],
      [
        "Ġmatrix",
        -10.05413549868004
      ],
      [
        "Ġstaff",
        -10.054163986721955
      ],
      [
        "Ġcarrie",
        -10.054172616414819
      ],
      [
        "Info",
        -10.054818114635944
      ],
      [
        "Ġprime",
        -10.055279865485968
      ],
      [
        "77",
        -10.056069915098263
      ],
      [
        "Ġprove",
        -10.056567051597801
      ],
      [
        "Ġrace",
        -10.056890768723992
      ],
      [
        "Ġ<<",
        -10.057081459049261
      ],
      [
        "Ġusers",
        -10.057094260965684
      ],
      [
        "Ġcommand",
        -10.057199696317728
      ],
      [
        "Ġpair",
        -10.057931868920589
      ],
      [
        "Ġ2017",
        -10.05830292195952
      ],
      [
        "clearly",
        -10.058921188015503
      ],
      [
        "php",
        -10.059065602761585
      ],
      [
        "Ġvariable",
        -10.059201040711736
      ],
      [
        "Ġcontaining",
        -10.060022993580246
      ],
      [
        "Ġoptions",
        -10.060031665363292
      ],
      [
        "Here",
        -10.060194567146928
      ],
      [
        "Ġconsist",
        -10.060428820280015
      ],
      [
        "}_{\\",
        -10.060752178291734
      ],
      [
        "Ġdomain",
        -10.061233687010807
      ],
      [
        "Ġactual",
        -10.061467400684538
      ],
      [
        "Ġdoor",
        -10.06181380325435
      ],
      [
        "âĢ¢",
        -10.06200212227633
      ],
      [
        "ij",
        -10.062063982193171
      ],
      [
        "Ġinvestigation",
        -10.062552356321394
      ],
      [
        "Ġserver",
        -10.06298311510401
      ],
      [
        "Ġplease",
        -10.063880746507413
      ],
      [
        "Ġpanel",
        -10.064107464697058
      ],
      [
        "read",
        -10.064145984468738
      ],
      [
        "Ġinvestigate",
        -10.064249602622683
      ],
      [
        "turned",
        -10.0654216544542
      ],
      [
        "Ġdevices",
        -10.065496300379026
      ],
      [
        "was",
        -10.065816911739443
      ],
      [
        "smaller",
        -10.066626987943648
      ],
      [
        "Ġbrought",
        -10.066924160294162
      ],
      [
        "Ġexcept",
        -10.067366243376028
      ],
      [
        "Ġbar",
        -10.06782441245577
      ],
      [
        "84",
        -10.06839269766542
      ],
      [
        "Ġfiled",
        -10.068452218757988
      ],
      [
        "78",
        -10.06845723702245
      ],
      [
        "âĢĥ",
        -10.06859139207409
      ],
      [
        "}^{\\",
        -10.069958716572787
      ],
      [
        "ence",
        -10.070921418210842
      ],
      [
        "Ġcredit",
        -10.071874947322467
      ],
      [
        "97",
        -10.073615230721476
      ],
      [
        "majority",
        -10.073941141703443
      ],
      [
        "langle",
        -10.074192366384933
      ],
      [
        "dir",
        -10.074749959760355
      ],
      [
        "Ġshowing",
        -10.076213636644237
      ],
      [
        "Ġreduction",
        -10.076273915131807
      ],
      [
        "ified",
        -10.076895292106176
      ],
      [
        "decided",
        -10.077935254673154
      ],
      [
        "500",
        -10.077960490881086
      ],
      [
        "Ġunderstanding",
        -10.078161131980222
      ],
      [
        "Ġsites",
        -10.078932437575933
      ],
      [
        "Ġcontrast",
        -10.080085985015222
      ],
      [
        "wise",
        -10.080922277160072
      ],
      [
        "Ġinjury",
        -10.081167051062659
      ],
      [
        "Ġsort",
        -10.082302490563881
      ],
      [
        "Of",
        -10.083150507051835
      ],
      [
        "Ġshape",
        -10.084041205947045
      ],
      [
        "Ġbeyond",
        -10.084274427773712
      ],
      [
        "Ġreading",
        -10.086058474964672
      ],
      [
        "Index",
        -10.08628398075892
      ],
      [
        "Ġfit",
        -10.086570758717913
      ],
      [
        "Ġlearning",
        -10.086906612364155
      ],
      [
        "Ġexperiments",
        -10.087031042804746
      ],
      [
        "Context",
        -10.088717979528669
      ],
      [
        "Ġauthors",
        -10.08893674580676
      ],
      [
        "Ġparameter",
        -10.089599315373384
      ],
      [
        "Ġtransition",
        -10.09081683171474
      ],
      [
        "Ġproof",
        -10.091025082745402
      ],
      [
        "Ġmorning",
        -10.091236034273823
      ],
      [
        "Ġperform",
        -10.09146701417485
      ],
      [
        "Ġheard",
        -10.09149623634947
      ],
      [
        "regarding",
        -10.091747598082653
      ],
      [
        "Ġinternational",
        -10.091930256573963
      ],
      [
        "Ġstore",
        -10.092640234390082
      ],
      [
        "Ġwave",
        -10.093363899702055
      ],
      [
        "wrote",
        -10.09380492178662
      ],
      [
        "Ġinternal",
        -10.093905426255532
      ],
      [
        "Path",
        -10.094058469711959
      ],
      [
        "Ġalternative",
        -10.095200498343315
      ],
      [
        "\\\\",
        -10.095730145488425
      ],
      [
        "Ġextra",
        -10.095750790211326
      ],
      [
        "looked",
        -10.096035575895433
      ],
      [
        "76",
        -10.096484349679438
      ],
      [
        "Ġtown",
        -10.096604144446642
      ],
      [
        "ĠAND",
        -10.097090434359595
      ],
      [
        "Ġcarry",
        -10.098503409129467
      ],
      [
        "Ġvisit",
        -10.098529413677316
      ],
      [
        "Ġconstruction",
        -10.099572862039182
      ],
      [
        "002",
        -10.09980019280933
      ],
      [
        "obvious",
        -10.099939616720368
      ],
      [
        "Ġphoto",
        -10.099968156929327
      ],
      [
        "74",
        -10.10027561405124
      ],
      [
        "Ġdefense",
        -10.100692355568647
      ],
      [
        "Ġborder",
        -10.101046775624456
      ],
      [
        "Ġfeature",
        -10.101555932176316
      ],
      [
        "Ġsound",
        -10.10274276706157
      ],
      [
        "Ġroot",
        -10.102808445449494
      ],
      [
        "};",
        -10.103394977318363
      ],
      [
        "exactly",
        -10.105137059667145
      ],
      [
        "[^",
        -10.105284226096138
      ],
      [
        "Ġhear",
        -10.10540352039996
      ],
      [
        "');",
        -10.105482313352056
      ],
      [
        "Ġbinding",
        -10.10649752433243
      ],
      [
        "Ġjudge",
        -10.107123219889779
      ],
      [
        ")}",
        -10.107205235080501
      ],
      [
        "Ġemail",
        -10.108596128220181
      ],
      [
        "Ġsend",
        -10.110036816644365
      ],
      [
        "indicated",
        -10.110223281515621
      ],
      [
        "Ġchanged",
        -10.11140541286676
      ],
      [
        "Ġbuilt",
        -10.112082872854458
      ],
      [
        "Ġinfection",
        -10.112215556638104
      ],
      [
        "view",
        -10.112702329217264
      ],
      [
        "content",
        -10.112824807842982
      ],
      [
        "Ġformation",
        -10.112932303881914
      ],
      [
        "dot",
        -10.113091499936012
      ],
      [
        "Ġassociation",
        -10.113305814044221
      ],
      [
        "81",
        -10.113916196048525
      ],
      [
        "Ġcollection",
        -10.11392617714599
      ],
      [
        "api",
        -10.114010094381
      ],
      [
        "ĠDistrict",
        -10.11500038991282
      ],
      [
        "Ġskin",
        -10.116096121771731
      ],
      [
        "Ġcover",
        -10.11686741790139
      ],
      [
        "Ġfeeling",
        -10.116968593510213
      ],
      [
        "Ġmilitary",
        -10.117358009570644
      ],
      [
        "Do",
        -10.117361048571784
      ],
      [
        "url",
        -10.117814150352405
      ],
      [
        "Ġ($",
        -10.1179900124303
      ],
      [
        "Ġeye",
        -10.118027369642412
      ],
      [
        "ĠHealth",
        -10.118241407660076
      ],
      [
        "ĠId",
        -10.118348960161056
      ],
      [
        "83",
        -10.118699459177362
      ],
      [
        "Ġdefine",
        -10.118828006372615
      ],
      [
        "Ġwall",
        -10.119497505942267
      ],
      [
        "Ġrules",
        -10.119662615345426
      ],
      [
        "73",
        -10.119682848541492
      ],
      [
        "Ġsetting",
        -10.120410826770913
      ],
      [
        "Ġtherapy",
        -10.120714072307557
      ],
      [
        "Ġdef",
        -10.121130558207392
      ],
      [
        "but",
        -10.12137765358688
      ],
      [
        "Ġfriend",
        -10.121503433449355
      ],
      [
        "ent",
        -10.12177183052382
      ],
      [
        "Ġyield",
        -10.121794661533505
      ],
      [
        "Ġheight",
        -10.12192530611186
      ],
      [
        "ĠCenter",
        -10.122107197113099
      ],
      [
        "Ġparts",
        -10.122488157909105
      ],
      [
        "Ġmachine",
        -10.12255987752552
      ],
      [
        "Ġphone",
        -10.122645381718405
      ],
      [
        "Ġensure",
        -10.122868578767411
      ],
      [
        "|\\",
        -10.123038926460461
      ],
      [
        "().",
        -10.123317697162776
      ],
      [
        "Ġsubstantial",
        -10.123612344848482
      ],
      [
        "Ġfiles",
        -10.123616386721764
      ],
      [
        "Ġbuy",
        -10.123737325716778
      ],
      [
        "Ġbenefits",
        -10.124313610460396
      ],
      [
        "89",
        -10.125998254045331
      ],
      [
        "Ġitems",
        -10.1261236078482
      ],
      [
        "Ġbill",
        -10.126928492714248
      ],
      [
        "Ġdefinition",
        -10.128243414739057
      ],
      [
        "ish",
        -10.128450983833016
      ],
      [
        "Ġvariables",
        -10.128940117711187
      ],
      [
        "geq",
        -10.129236757638179
      ],
      [
        "pp",
        -10.129397279355718
      ],
      [
        "nbsp",
        -10.129401011017999
      ],
      [
        "200",
        -10.129412973919985
      ],
      [
        "Ġseven",
        -10.129564552360323
      ],
      [
        "Ġzero",
        -10.129608211389703
      ],
      [
        "Ġtravel",
        -10.130024719461556
      ],
      [
        "Re",
        -10.130438002825665
      ],
      [
        "Ġscore",
        -10.131381666289153
      ],
      [
        "Ġmedium",
        -10.131608063128741
      ],
      [
        "}}_",
        -10.132391797468587
      ],
      [
        "*~",
        -10.132467827705746
      ],
      [
        "Ġdevelop",
        -10.132718475934599
      ],
      [
        "ĠNow",
        -10.133184184743056
      ],
      [
        "Ġletter",
        -10.133210711615433
      ],
      [
        "Ġadministration",
        -10.13429039062245
      ],
      [
        "ĠOr",
        -10.134475484300156
      ],
      [
        "ĠOctober",
        -10.134749621345332
      ],
      [
        "box",
        -10.134769847834528
      ],
      [
        "Item",
        -10.135963402272399
      ],
      [
        "Ġinteresting",
        -10.13604768117759
      ],
      [
        "Ġparents",
        -10.136397839266072
      ],
      [
        "core",
        -10.138760182020665
      ],
      [
        "Ġexercise",
        -10.138802280232476
      ],
      [
        "79",
        -10.138936443923251
      ],
      [
        "Ġchoose",
        -10.14064938326335
      ],
      [
        "frak",
        -10.14124823191994
      ],
      [
        "ĠLa",
        -10.14134556540393
      ],
      [
        "played",
        -10.142284059953301
      ],
      [
        "throughout",
        -10.142692217096403
      ],
      [
        "Ġbenefit",
        -10.14284534936365
      ],
      [
        "Ġtask",
        -10.143645318180006
      ],
      [
        "Ġ\\<",
        -10.14439841817613
      ],
      [
        "ĠSeptember",
        -10.144418601573642
      ],
      [
        "Ġsubsequent",
        -10.144468931223168
      ],
      [
        "ĠHow",
        -10.146054702701063
      ],
      [
        "Ġeffort",
        -10.146186703826373
      ],
      [
        "Ġ2008",
        -10.146261706436078
      ],
      [
        "are",
        -10.14660938169772
      ],
      [
        "Ġinteraction",
        -10.146796108525583
      ],
      [
        "cap",
        -10.149067989569861
      ],
      [
        "Ġofficial",
        -10.149186016718394
      ],
      [
        "ĠSection",
        -10.149243506866672
      ],
      [
        "ice",
        -10.149345916622144
      ],
      [
        "Ġaward",
        -10.149738545260636
      ],
      [
        "ĠOR",
        -10.150276224318144
      ],
      [
        "Ġsolid",
        -10.151123774514865
      ],
      [
        "Ġfunctional",
        -10.151144062743006
      ],
      [
        "Ġparticipants",
        -10.151280701020468
      ],
      [
        "87",
        -10.151335158845976
      ],
      [
        "##",
        -10.151677660872634
      ],
      [
        "\":\"",
        -10.151863887821397
      ],
      [
        "Ġprocesses",
        -10.152093522039998
      ],
      [
        "Ġexists",
        -10.15215875585616
      ],
      [
        "Ġnor",
        -10.152248197516183
      ],
      [
        "Ġplayer",
        -10.153123554129722
      ],
      [
        "Ġmatch",
        -10.153253336289065
      ],
      [
        "Ġmaximum",
        -10.154170102283297
      ],
      [
        "Ġchain",
        -10.154825215933853
      ],
      [
        "ĠObama",
        -10.154864207508057
      ],
      [
        "long",
        -10.154942799328552
      ],
      [
        "Each",
        -10.155397631955623
      ],
      [
        "ĠAugust",
        -10.155524073541887
      ],
      [
        "Ġserve",
        -10.157100659484168
      ],
      [
        "Ġstarting",
        -10.157394892236278
      ],
      [
        "Ġ27",
        -10.157530589972971
      ],
      [
        "Ġsafety",
        -10.157587914496665
      ],
      [
        "Ġmale",
        -10.157947239916282
      ],
      [
        ")*(",
        -10.159123258978564
      ],
      [
        "\\].",
        -10.161580402547417
      ],
      [
        "February",
        -10.1616706060371
      ],
      [
        "Ġaspect",
        -10.162031253157854
      ],
      [
        "Ġreports",
        -10.16205012896814
      ],
      [
        "Ġremove",
        -10.164116545035446
      ],
      [
        "sometimes",
        -10.164227042266427
      ],
      [
        "93",
        -10.165380514438061
      ],
      [
        "Ġcombination",
        -10.166215104657269
      ],
      [
        "Ġidentify",
        -10.166423253215095
      ],
      [
        "Ġround",
        -10.167145985477207
      ],
      [
        "Ġfear",
        -10.167489672402143
      ],
      [
        "revealed",
        -10.167836754720012
      ],
      [
        "wife",
        -10.16794334608363
      ],
      [
        ")$.",
        -10.16836824987847
      ],
      [
        "71",
        -10.168675977982161
      ],
      [
        "------",
        -10.169239869592746
      ],
      [
        "Ġconnected",
        -10.169577879834232
      ],
      [
        "Ġ29",
        -10.170770226481354
      ],
      [
        "well",
        -10.171538742892851
      ],
      [
        "ĠAl",
        -10.172024445794662
      ],
      [
        "ĠUSA",
        -10.172043514736098
      ],
      [
        "Ġregular",
        -10.173299464510407
      ],
      [
        "Ġwait",
        -10.173546249937235
      ],
      [
        "Ġnice",
        -10.173613630946093
      ],
      [
        "Ġimmediately",
        -10.173628688094817
      ],
      [
        "molecules",
        -10.174097062236605
      ],
      [
        "start",
        -10.174373167370785
      ],
      [
        "Ġotherwise",
        -10.175596720063727
      ],
      [
        "Ġgreen",
        -10.177056053166028
      ],
      [
        "Î²",
        -10.177280074741436
      ],
      [
        "ship",
        -10.177806873977591
      ],
      [
        "where",
        -10.178281669936514
      ],
      [
        "Ġclosed",
        -10.179613334984879
      ],
      [
        "Oh",
        -10.180430885030907
      ],
      [
        "Ġconsistent",
        -10.180613829858704
      ],
      [
        "Ġconclusion",
        -10.180710512596194
      ],
      [
        "ĠNovember",
        -10.181105566884092
      ],
      [
        "Ġopportunity",
        -10.181568267007579
      ],
      [
        "Ġpopular",
        -10.181570791622695
      ],
      [
        "91",
        -10.184289722355183
      ],
      [
        "Ġ2009",
        -10.184307992537288
      ],
      [
        ")^",
        -10.185032147972867
      ],
      [
        "Ġlinear",
        -10.185527269022387
      ],
      [
        "During",
        -10.185820433684418
      ],
      [
        "92",
        -10.18590445552985
      ],
      [
        "Array",
        -10.186272346702106
      ],
      [
        "verline",
        -10.186422848891542
      ],
      [
        "providing",
        -10.186964594406371
      ],
      [
        "Ġapplications",
        -10.187384861496392
      ],
      [
        "open",
        -10.187582372002733
      ],
      [
        "Ġworth",
        -10.187959157235824
      ],
      [
        "Ġoccur",
        -10.187996943316621
      ],
      [
        "Ġhands",
        -10.188040199605284
      ],
      [
        "Ġresistance",
        -10.189157932298684
      ],
      [
        "head",
        -10.189656785774279
      ],
      [
        "ĠWashington",
        -10.189676554633131
      ],
      [
        "attorney",
        -10.190309928161938
      ],
      [
        "alleged",
        -10.190809554171032
      ],
      [
        "Ġedge",
        -10.191518650932432
      ],
      [
        "point",
        -10.191662765616428
      ],
      [
        "Ĭ",
        -10.191874494493824
      ],
      [
        "Ġsex",
        -10.19199389763092
      ],
      [
        "Ġprocedure",
        -10.192469301690348
      ],
      [
        "level",
        -10.193043041392569
      ],
      [
        "Finally",
        -10.193406223414026
      ],
      [
        "Ġlives",
        -10.193650695959164
      ],
      [
        "src",
        -10.194394501475355
      ],
      [
        "prime",
        -10.195080001493402
      ],
      [
        "me",
        -10.19514575655467
      ],
      [
        "Ġregions",
        -10.196106635900266
      ],
      [
        "())",
        -10.196232075227808
      ],
      [
        "released",
        -10.196403296624863
      ],
      [
        "Ġshot",
        -10.197184823862854
      ],
      [
        "Ġmetal",
        -10.197244740527623
      ],
      [
        "Ġexposure",
        -10.197445512971004
      ],
      [
        "Ġstrength",
        -10.197629338297846
      ],
      [
        "Ġwindow",
        -10.197790737070148
      ],
      [
        "Ġvote",
        -10.198708267943008
      ],
      [
        "relatively",
        -10.198816009897225
      ],
      [
        "Map",
        -10.199144198541015
      ],
      [
        "82",
        -10.199296887277082
      ],
      [
        "config",
        -10.199783699276427
      ],
      [
        "Ġdead",
        -10.19999508287222
      ],
      [
        "quickly",
        -10.20068460209986
      ],
      [
        "ĠSchool",
        -10.201927466120422
      ],
      [
        "Not",
        -10.202834177366997
      ],
      [
        "[]",
        -10.204916570101767
      ],
      [
        "Ġandroid",
        -10.205191346759674
      ],
      [
        "Ġpick",
        -10.205605191170873
      ],
      [
        "Ġmyself",
        -10.20596439438656
      ],
      [
        "statute",
        -10.20596754368787
      ],
      [
        "object",
        -10.205999174230572
      ],
      [
        "Ġload",
        -10.206226681564486
      ],
      [
        "ĠBe",
        -10.20845299068477
      ],
      [
        "Ġbecomes",
        -10.208717076617523
      ],
      [
        "Ġelection",
        -10.21124226624341
      ],
      [
        "-------------",
        -10.211360169128545
      ],
      [
        "ham",
        -10.211622940596323
      ],
      [
        "Ġstd",
        -10.212726810754136
      ],
      [
        "Ġstock",
        -10.212928759414357
      ],
      [
        "nearly",
        -10.213735226763506
      ],
      [
        "Ġdatabase",
        -10.21381591035441
      ],
      [
        "Ġplant",
        -10.214185949113293
      ],
      [
        "Ġgeneration",
        -10.214956088230897
      ],
      [
        "Calculate",
        -10.21579368449059
      ],
      [
        "Ġsources",
        -10.215988426644287
      ],
      [
        "Ġreach",
        -10.216435710110758
      ],
      [
        "Ġ31",
        -10.216997660961068
      ],
      [
        "Ġvoice",
        -10.217952990280754
      ],
      [
        "Ġbox",
        -10.217980951717927
      ],
      [
        "resulting",
        -10.218493089314748
      ],
      [
        "Ġsave",
        -10.21873258901753
      ],
      [
        "distributed",
        -10.220161480064338
      ],
      [
        "ĠOf",
        -10.22033549927586
      ],
      [
        "Ġguy",
        -10.22036735451797
      ],
      [
        "Ġargue",
        -10.220908369801059
      ],
      [
        "Ġdetected",
        -10.221201853771111
      ],
      [
        "Yes",
        -10.22203113397395
      ],
      [
        "Ġroad",
        -10.22211296725681
      ],
      [
        "ĠSan",
        -10.22241669533271
      ],
      [
        "######",
        -10.222627570328054
      ],
      [
        "conducted",
        -10.222901997442795
      ],
      [
        "responsible",
        -10.223110715264351
      ],
      [
        "Ġfun",
        -10.223880539376054
      ],
      [
        "Ġhundred",
        -10.224336438766814
      ],
      [
        "arrow",
        -10.224612311096214
      ],
      [
        "Ġmoved",
        -10.224888410525423
      ],
      [
        "Î±",
        -10.22516608035445
      ],
      [
        "some",
        -10.225177538425324
      ],
      [
        "Ġplaying",
        -10.225189333445256
      ],
      [
        "Ġselection",
        -10.225393606493759
      ],
      [
        "Ġperfect",
        -10.225494059857809
      ],
      [
        "variety",
        -10.226256188490588
      ],
      [
        "den",
        -10.226298412249523
      ],
      [
        "Ġ2018",
        -10.227026188238314
      ],
      [
        "Ġmoving",
        -10.227102247928972
      ],
      [
        "Ġcon",
        -10.227150480060335
      ],
      [
        "Ġcalculated",
        -10.227162971079794
      ],
      [
        "Ġhair",
        -10.22728469132357
      ],
      [
        "Ġresources",
        -10.227807925979155
      ],
      [
        "red",
        -10.229001048790048
      ],
      [
        "Ġtesting",
        -10.229027077940279
      ],
      [
        "Class",
        -10.229108946983079
      ],
      [
        "Ġdaily",
        -10.229148442710551
      ],
      [
        "Ġfully",
        -10.229482035009962
      ],
      [
        "Ġchar",
        -10.229657367587162
      ],
      [
        "happened",
        -10.22966166823516
      ],
      [
        "ĠCalifornia",
        -10.230109777513908
      ],
      [
        "Ġcolumn",
        -10.23034767221878
      ],
      [
        "approximately",
        -10.230359768662469
      ],
      [
        "==========",
        -10.230737919336729
      ],
      [
        "manner",
        -10.230930127774249
      ],
      [
        "Ġthinking",
        -10.230967623353035
      ],
      [
        "Ġmembrane",
        -10.23115152934687
      ],
      [
        "Ġmet",
        -10.231281219652729
      ],
      [
        "Ġyourself",
        -10.231395425329447
      ],
      [
        "Ġmaterials",
        -10.231775590024027
      ],
      [
        "Ġexchange",
        -10.232127957892395
      ],
      [
        "Ġofficer",
        -10.232299479534685
      ],
      [
        "Ġnearest",
        -10.232390123713097
      ],
      [
        "\",\"",
        -10.234265526239112
      ],
      [
        "count",
        -10.234506945583487
      ],
      [
        "Ġcycle",
        -10.234767872226033
      ],
      [
        "limitation",
        -10.235964472749309
      ],
      [
        "ĠEuropean",
        -10.236064968819232
      ],
      [
        "Ġdark",
        -10.236334581023463
      ],
      [
        "Ġchannel",
        -10.237159811381519
      ],
      [
        "Well",
        -10.237178770782325
      ],
      [
        "Ġready",
        -10.237539001994003
      ],
      [
        "Ġmin",
        -10.237759390393483
      ],
      [
        "Ġprotect",
        -10.23780292286736
      ],
      [
        "Ġsufficient",
        -10.238324798991336
      ],
      [
        "lock",
        -10.238541942759904
      ],
      [
        "ER",
        -10.238816629902757
      ],
      [
        "Ġexperimental",
        -10.239161856125929
      ],
      [
        "specific",
        -10.239829499925222
      ],
      [
        "molecular",
        -10.241161310906952
      ],
      [
        "Ġmeaning",
        -10.241308683728823
      ],
      [
        "Ġprint",
        -10.242268989696386
      ],
      [
        "Ġexisting",
        -10.24248970713022
      ],
      [
        "Ġpursu",
        -10.242790902247021
      ],
      [
        "Request",
        -10.24369923956541
      ],
      [
        "Ġgovern",
        -10.243716168574789
      ],
      [
        "Ġ/**",
        -10.24464869026859
      ],
      [
        "Ġgrant",
        -10.245535870489123
      ],
      [
        "finally",
        -10.245773124432702
      ],
      [
        "^{(",
        -10.247721246936567
      ],
      [
        "worked",
        -10.248317623436813
      ],
      [
        "Ġreplacement",
        -10.248838931362132
      ],
      [
        "Ġbrief",
        -10.249005362439567
      ],
      [
        "model",
        -10.249279512657836
      ],
      [
        "Ġfields",
        -10.249326922595172
      ],
      [
        "Ġrespond",
        -10.251230590286092
      ],
      [
        "ensure",
        -10.251689879785564
      ],
      [
        "arg",
        -10.251830273302085
      ],
      [
        "Ġmiddle",
        -10.25213447742137
      ],
      [
        "ptr",
        -10.25271233960246
      ],
      [
        "Ġwidth",
        -10.2527820970386
      ],
      [
        "Ġcareer",
        -10.25299322573329
      ],
      [
        "Ġchallenge",
        -10.253156689925728
      ],
      [
        "appears",
        -10.253226451097577
      ],
      [
        "Ġanimals",
        -10.253781419391357
      ],
      [
        "Ġ(**",
        -10.253904809090354
      ],
      [
        "Ġremoved",
        -10.254028449969486
      ],
      [
        "Ġdiscussion",
        -10.254146843889028
      ],
      [
        "ĠFrom",
        -10.254148498468888
      ],
      [
        "Ġcapacity",
        -10.25421476000414
      ],
      [
        "demonstrated",
        -10.254650487405497
      ],
      [
        "Ġradio",
        -10.256584269181413
      ],
      [
        "$$",
        -10.25664235925441
      ],
      [
        "ĠRepublican",
        -10.256701728813216
      ],
      [
        "subset",
        -10.257967017261507
      ],
      [
        "err",
        -10.258375611843869
      ],
      [
        "Ġactions",
        -10.258584941632952
      ],
      [
        "Ġstuff",
        -10.25911247343189
      ],
      [
        "Ġweb",
        -10.259281775158733
      ],
      [
        "create",
        -10.259467705023352
      ],
      [
        "init",
        -10.260372019759894
      ],
      [
        "ĠWhite",
        -10.260628405446514
      ],
      [
        "Service",
        -10.260681158702623
      ],
      [
        "Image",
        -10.261009284374696
      ],
      [
        "Ġpiece",
        -10.261633517957003
      ],
      [
        "Why",
        -10.26186195492515
      ],
      [
        "Ġbottom",
        -10.262858464915624
      ],
      [
        "ĠPM",
        -10.263820399350475
      ],
      [
        "Ġreflect",
        -10.263943136977192
      ],
      [
        "Time",
        -10.266011495270227
      ],
      [
        "Ġdirector",
        -10.26602030280427
      ],
      [
        "Ġdebt",
        -10.26605371087906
      ],
      [
        "Ġclean",
        -10.266933435129888
      ],
      [
        "ever",
        -10.266990558392987
      ],
      [
        "Ġbeginning",
        -10.267109511991277
      ],
      [
        "ÂŃ",
        -10.267129642297853
      ],
      [
        "Ġcorrelation",
        -10.267134584857352
      ],
      [
        "Ġbillion",
        -10.267444196250858
      ],
      [
        "Ġfresh",
        -10.267726242301286
      ],
      [
        "Ġdecade",
        -10.267794205842506
      ],
      [
        "Ġinterface",
        -10.26814096397399
      ],
      [
        "efficient",
        -10.26838433372737
      ],
      [
        "Ġhot",
        -10.269238470966588
      ],
      [
        "gone",
        -10.269765604976458
      ],
      [
        "Ġscreen",
        -10.270788647855063
      ],
      [
        "Ġdescription",
        -10.270948880142141
      ],
      [
        "Ġchemical",
        -10.271105712208358
      ],
      [
        "ĠWar",
        -10.271148293730468
      ],
      [
        "Ġsuggested",
        -10.271256675166955
      ],
      [
        "Ġten",
        -10.271524379124369
      ],
      [
        "ĠPhys",
        -10.27156008796102
      ],
      [
        "Ġincome",
        -10.271613978642891
      ],
      [
        "Ġliquid",
        -10.272855079146051
      ],
      [
        "Ġpetition",
        -10.273412536047868
      ],
      [
        "Ġeight",
        -10.273630069608096
      ],
      [
        "Ġtruth",
        -10.274161924279886
      ],
      [
        "Ġtraditional",
        -10.274180417415614
      ],
      [
        "Ġupper",
        -10.274598348890017
      ],
      [
        "Ġsevere",
        -10.274918383266595
      ],
      [
        "Big",
        -10.274987855895464
      ],
      [
        "page",
        -10.2757448994698
      ],
      [
        "Ġunits",
        -10.276996844012146
      ],
      [
        "Our",
        -10.277002648219405
      ],
      [
        "Ġweak",
        -10.277072448462354
      ],
      [
        "Ġstation",
        -10.27741706876159
      ],
      [
        "ĠNULL",
        -10.277759883449173
      ],
      [
        "Color",
        -10.27791139636257
      ],
      [
        "Ġwish",
        -10.278045952372143
      ],
      [
        "Ġcomments",
        -10.278275579741512
      ],
      [
        "unless",
        -10.278387021337831
      ],
      [
        "Ġsteps",
        -10.278497916357821
      ],
      [
        "ĠBoard",
        -10.27905078019074
      ],
      [
        "Ġonto",
        -10.27943833170633
      ],
      [
        "row",
        -10.279489237673934
      ],
      [
        "placed",
        -10.279849219117718
      ],
      [
        "discussed",
        -10.280328466023658
      ],
      [
        "Add",
        -10.280373539902454
      ],
      [
        "ĠIN",
        -10.282045796696304
      ],
      [
        "Ġclient",
        -10.282107498325415
      ],
      [
        "Ġprocessing",
        -10.282246092456965
      ],
      [
        "Ġdetection",
        -10.284435842847392
      ],
      [
        "fully",
        -10.284476026607347
      ],
      [
        "per",
        -10.284919603089934
      ],
      [
        "date",
        -10.285855430731694
      ],
      [
        "Event",
        -10.285988474224016
      ],
      [
        "Ġobjects",
        -10.286043631939995
      ],
      [
        "Ġmagnetic",
        -10.286149082525665
      ],
      [
        "picked",
        -10.286822966753482
      ],
      [
        "Ġdrop",
        -10.287982260291484
      ],
      [
        "]:",
        -10.288047523804424
      ],
      [
        "Ġpassed",
        -10.28820646623453
      ],
      [
        "Ġpackage",
        -10.288249215829945
      ],
      [
        "Ġgenerate",
        -10.288333858768127
      ],
      [
        "ĠIndia",
        -10.288348837369957
      ],
      [
        "Ġloop",
        -10.288786901074712
      ],
      [
        "Ġcontain",
        -10.289033660541927
      ],
      [
        "aware",
        -10.28914092972085
      ],
      [
        "towards",
        -10.289506011710236
      ],
      [
        "Ġnation",
        -10.289669553879007
      ],
      [
        "raised",
        -10.29037262224079
      ],
      [
        "Ġfirm",
        -10.29047153877423
      ],
      [
        "num",
        -10.291580729155484
      ],
      [
        "Ġframe",
        -10.29204418361632
      ],
      [
        "scale",
        -10.292133435803452
      ],
      [
        "Ġsymptoms",
        -10.292530885524402
      ],
      [
        "talking",
        -10.292666477837024
      ],
      [
        "Ġinsurance",
        -10.292982515491643
      ],
      [
        "nd",
        -10.29324809886714
      ],
      [
        "Ġessential",
        -10.293408467964236
      ],
      [
        "\\<",
        -10.293480468868369
      ],
      [
        "Sigma",
        -10.293524382330327
      ],
      [
        "Ġmaybe",
        -10.293607183390657
      ],
      [
        "Ġblue",
        -10.295015771132626
      ],
      [
        "Ġhealthy",
        -10.295256891033922
      ],
      [
        "Ġspin",
        -10.295521575856469
      ],
      [
        "Ġshift",
        -10.295630802124496
      ],
      [
        "\"})",
        -10.295757035031544
      ],
      [
        "ĠPublic",
        -10.29634169590553
      ],
      [
        "specifically",
        -10.297052330958577
      ],
      [
        "Ġcharacteristics",
        -10.297170155827766
      ],
      [
        "Ġoperator",
        -10.297595025049914
      ],
      [
        "Ġbound",
        -10.297669764698691
      ],
      [
        "holding",
        -10.298238614782138
      ],
      [
        "char",
        -10.298248216536699
      ],
      [
        "ĠIL",
        -10.298844814801503
      ],
      [
        "dimensional",
        -10.299069018109275
      ],
      [
        "ĠResearch",
        -10.299383817306932
      ],
      [
        "Ġgrow",
        -10.299689717923847
      ],
      [
        "++",
        -10.299741132879705
      ],
      [
        "Ġcriminal",
        -10.299909366710757
      ],
      [
        "Ġvariation",
        -10.300600554723383
      ],
      [
        "Ġtests",
        -10.301648244811576
      ],
      [
        "Ġworkers",
        -10.301741488477251
      ],
      [
        "See",
        -10.30254692957266
      ],
      [
        "Ġerr",
        -10.302578569833846
      ],
      [
        "Ġdescribe",
        -10.302633589521822
      ],
      [
        "Phi",
        -10.302772875979052
      ],
      [
        "Ġalgorithm",
        -10.303417504490717
      ],
      [
        "Ġconduct",
        -10.304288003150278
      ],
      [
        "Ġactivation",
        -10.304490207336016
      ],
      [
        "Ġdiscuss",
        -10.30494241726859
      ],
      [
        "Ġabuse",
        -10.305230943090876
      ],
      [
        "limits",
        -10.306044922127942
      ],
      [
        "ray",
        -10.3064728540304
      ],
      [
        "Ġcontinuous",
        -10.30723436610613
      ],
      [
        "Ġmuscle",
        -10.307381018925911
      ],
      [
        "typically",
        -10.308114647891747
      ],
      [
        "appellant",
        -10.308490605699536
      ],
      [
        "Ġwonder",
        -10.30882716880522
      ],
      [
        "Ġproper",
        -10.3091299470393
      ],
      [
        "Ġexpress",
        -10.309555408615129
      ],
      [
        "spent",
        -10.309601387660623
      ],
      [
        ")$,",
        -10.309672602264312
      ],
      [
        "Ġpoly",
        -10.310635324608022
      ],
      [
        "Ġgenetic",
        -10.311355498203609
      ],
      [
        "mail",
        -10.311688112753444
      ],
      [
        "Ġforms",
        -10.311869323675449
      ],
      [
        "denied",
        -10.31209862413839
      ],
      [
        "}=",
        -10.312183420543064
      ],
      [
        "ĠTO",
        -10.312724334113938
      ],
      [
        "Ġcontinued",
        -10.312796312108219
      ],
      [
        "ur",
        -10.312811160885886
      ],
      [
        "Ġmeasures",
        -10.313355947732429
      ],
      [
        "block",
        -10.313844554411192
      ],
      [
        "Ġmodern",
        -10.31448593320827
      ],
      [
        "reached",
        -10.314671894616355
      ],
      [
        "Ġtestimon",
        -10.31526879447148
      ],
      [
        "Ġnamed",
        -10.315709058144838
      ],
      [
        "(),",
        -10.317217802833625
      ],
      [
        "Ġ90",
        -10.317504601418502
      ],
      [
        "Ġestablish",
        -10.318504656243737
      ],
      [
        "growing",
        -10.318551604228498
      ],
      [
        "ĠEven",
        -10.318724715382542
      ],
      [
        "ĠUK",
        -10.319197565094962
      ],
      [
        "Once",
        -10.319310511387133
      ],
      [
        "result",
        -10.319789102488105
      ],
      [
        "func",
        -10.32034388428553
      ],
      [
        "older",
        -10.320445446924207
      ],
      [
        "Ġspeak",
        -10.320468388865653
      ],
      [
        "Ġforeign",
        -10.320686618958577
      ],
      [
        "perhaps",
        -10.321496425225293
      ],
      [
        "Ġcrime",
        -10.321819817257715
      ],
      [
        "Ġrapid",
        -10.322072254557579
      ],
      [
        "despite",
        -10.322962040226455
      ],
      [
        "Ġprofessional",
        -10.323298452488663
      ],
      [
        "material",
        -10.324095526622383
      ],
      [
        "Ġmusic",
        -10.324446852418667
      ],
      [
        "github",
        -10.324470456530765
      ],
      [
        "ĠNa",
        -10.324539240472363
      ],
      [
        "run",
        -10.324632680579418
      ],
      [
        "({\\",
        -10.325442374172809
      ],
      [
        "confirmed",
        -10.325631850791446
      ],
      [
        "Ġbi",
        -10.325687153745797
      ],
      [
        "Ġhappy",
        -10.325867887391095
      ],
      [
        "optical",
        -10.326192916391932
      ],
      [
        "Ġmid",
        -10.326221601829495
      ],
      [
        "Ġsurvey",
        -10.326313668295235
      ],
      [
        "Ġprograms",
        -10.32670227532768
      ],
      [
        "Model",
        -10.32791516771331
      ],
      [
        "main",
        -10.328072058538325
      ],
      [
        "Ġconfiguration",
        -10.328546939170238
      ],
      [
        "Ġprotection",
        -10.328548672602489
      ],
      [
        "Ġhour",
        -10.32889889994868
      ],
      [
        "default",
        -10.329960044003846
      ],
      [
        "ĊĊĠĠĠĠĠĠĠĠĠĠĠ",
        -10.330583888238017
      ],
      [
        "Ġswitch",
        -10.330763608471425
      ],
      [
        "Ġtool",
        -10.331204873572247
      ],
      [
        "ĠPark",
        -10.331819490127646
      ],
      [
        "Ġclub",
        -10.332770063963814
      ],
      [
        "Ġreturned",
        -10.332942952524359
      ],
      [
        "ĠFig",
        -10.333471543065507
      ],
      [
        "using",
        -10.335670079543702
      ],
      [
        "2015",
        -10.335815208174996
      ],
      [
        "Ġscience",
        -10.336410433087417
      ],
      [
        "Manager",
        -10.336903421423088
      ],
      [
        "Ġupdate",
        -10.337242726203947
      ],
      [
        "properly",
        -10.338511238057652
      ],
      [
        "Ġ2007",
        -10.338563573180457
      ],
      [
        "Ġstudent",
        -10.33865771292652
      ],
      [
        "Ġkids",
        -10.339094221053054
      ],
      [
        "Ġball",
        -10.339381761388806
      ],
      [
        "Ġcivil",
        -10.339790688933236
      ],
      [
        "Ġfamilies",
        -10.340773007726634
      ],
      [
        "Ġdetect",
        -10.340973766645313
      ],
      [
        "Ġsurgery",
        -10.341397916247285
      ],
      [
        "Ġstudie",
        -10.341508345805144
      ],
      [
        "Ġstrategy",
        -10.341745207231673
      ],
      [
        "Ġminor",
        -10.341838241445485
      ],
      [
        "},\\",
        -10.341892100491238
      ],
      [
        "remains",
        -10.342077571984605
      ],
      [
        "denote",
        -10.342167513029265
      ],
      [
        "ĠCongress",
        -10.343256116326808
      ],
      [
        "Count",
        -10.343554751394525
      ],
      [
        "Ġexhibit",
        -10.343601076373094
      ],
      [
        "Ġcounter",
        -10.343831888868912
      ],
      [
        "Ġfemale",
        -10.343875646274329
      ],
      [
        "Ġnovel",
        -10.344203971020585
      ],
      [
        "ten",
        -10.344332376824052
      ],
      [
        "Ġtransport",
        -10.344348995551933
      ],
      [
        "xml",
        -10.344353052719606
      ],
      [
        "}}(",
        -10.344645010298395
      ],
      [
        "ists",
        -10.34526263721511
      ],
      [
        "------------",
        -10.345443497395888
      ],
      [
        "Ġuses",
        -10.346042605609364
      ],
      [
        ")**",
        -10.346115021185533
      ],
      [
        "Ġdrugs",
        -10.34618977684161
      ],
      [
        "Â»",
        -10.347099378257745
      ],
      [
        "Ġhuge",
        -10.349155445283643
      ],
      [
        "ward",
        -10.349555577556199
      ],
      [
        "col",
        -10.349589735161166
      ],
      [
        "accurate",
        -10.350712829997024
      ],
      [
        "Ġsleep",
        -10.350807688301407
      ],
      [
        "Ġfloor",
        -10.351157951592866
      ],
      [
        "First",
        -10.351449280015178
      ],
      [
        "Ġsuccessful",
        -10.351769762153001
      ],
      [
        "Ġcommunication",
        -10.352170883709382
      ],
      [
        "ĠEnglish",
        -10.352673636898608
      ],
      [
        "cell",
        -10.352801501867154
      ],
      [
        "Ġachieve",
        -10.35360341750744
      ],
      [
        "Ġbroad",
        -10.354526257611369
      ],
      [
        "ĠInternational",
        -10.354959425040962
      ],
      [
        "Message",
        -10.355419048234248
      ],
      [
        "Ġ-->",
        -10.355812485031025
      ],
      [
        "\"},",
        -10.356174094285352
      ],
      [
        "Ġcore",
        -10.356281302355763
      ],
      [
        "Ġaccept",
        -10.356860038429115
      ],
      [
        "society",
        -10.357210931756805
      ],
      [
        "Date",
        -10.357214106077537
      ],
      [
        "Ġitem",
        -10.357216534890984
      ],
      [
        "Ġagent",
        -10.359360181886027
      ],
      [
        "summary",
        -10.360255665404154
      ],
      [
        "Ġprepared",
        -10.361650818672766
      ],
      [
        "Ġpurchase",
        -10.36212015318063
      ],
      [
        "bin",
        -10.362689385449128
      ],
      [
        "circumstances",
        -10.362984176687771
      ],
      [
        "Ġenter",
        -10.36306657578456
      ],
      [
        "Ġstructures",
        -10.363169450985422
      ],
      [
        "ĠIS",
        -10.363509389829368
      ],
      [
        "port",
        -10.363579760142203
      ],
      [
        "Ġdiet",
        -10.363607057682032
      ],
      [
        "Ġtree",
        -10.363957462206887
      ],
      [
        "Ġrare",
        -10.364074892249857
      ],
      [
        "served",
        -10.364345424193706
      ],
      [
        "Ġofficials",
        -10.364396462096858
      ],
      [
        "Ġinvolve",
        -10.364849598685243
      ],
      [
        "Supreme",
        -10.364897723532748
      ],
      [
        "Ġtested",
        -10.365794819088093
      ],
      [
        ".](",
        -10.366391538693382
      ],
      [
        "Ġcombined",
        -10.366675184099908
      ],
      [
        "Ġsurvival",
        -10.367229568082484
      ],
      [
        "Ġfight",
        -10.36734266899361
      ],
      [
        "circ",
        -10.36802683157249
      ],
      [
        ")).",
        -10.36807624239788
      ],
      [
        "Ġprofile",
        -10.369412207432163
      ],
      [
        "ter",
        -10.36965968902205
      ],
      [
        "*]{}",
        -10.370455301963945
      ],
      [
        "Ġwatch",
        -10.370566177939404
      ],
      [
        "advantage",
        -10.370779113083328
      ],
      [
        "Code",
        -10.371776380844866
      ],
      [
        "after",
        -10.372235626547345
      ],
      [
        "Ġgirl",
        -10.372400991273436
      ],
      [
        "Lambda",
        -10.372571478107309
      ],
      [
        "kept",
        -10.373245022233565
      ],
      [
        "Ġkilled",
        -10.373677886297912
      ],
      [
        "Ġdose",
        -10.373803581704323
      ],
      [
        "Ġhyper",
        -10.37447004619306
      ],
      [
        "Ġplans",
        -10.375618094003235
      ],
      [
        "Ġdoubt",
        -10.375786546460176
      ],
      [
        "Ġdriver",
        -10.3762345767025
      ],
      [
        "Ġtrust",
        -10.376380332497988
      ],
      [
        "Ġdemonstrate",
        -10.376397015237675
      ],
      [
        "âĢ²",
        -10.376422953109262
      ],
      [
        "Ġscheme",
        -10.37787584981412
      ],
      [
        "Ġminimum",
        -10.378042154859662
      ],
      [
        "gen",
        -10.378329505005837
      ],
      [
        "Ġpicture",
        -10.378628358789214
      ],
      [
        "Ġreceptor",
        -10.378679901401497
      ],
      [
        "Ġcommercial",
        -10.378922143098855
      ],
      [
        "čĊĠĠĠĠĠĠĠĠĠĠĠ",
        -10.378986313822102
      ],
      [
        "čĊč",
        -10.379255238866003
      ],
      [
        "explained",
        -10.379592495362415
      ],
      [
        "Ġbuffer",
        -10.380093936515944
      ],
      [
        "ĠOther",
        -10.380520283540376
      ],
      [
        "ĠPaul",
        -10.380696055748741
      ],
      [
        "Ġrow",
        -10.380916833192511
      ],
      [
        "ill",
        -10.38175859333756
      ],
      [
        "Ġinteger",
        -10.381885268628967
      ],
      [
        "Ġ(!",
        -10.382188187745307
      ],
      [
        "Î¼",
        -10.382220029072059
      ],
      [
        "Ġcatch",
        -10.382419274148134
      ],
      [
        "Ġplaces",
        -10.382626522106143
      ],
      [
        "Ġnuclear",
        -10.383277701877136
      ],
      [
        "matrix",
        -10.383912712194112
      ],
      [
        "stream",
        -10.384005175012962
      ],
      [
        "Ed",
        -10.384157538493108
      ],
      [
        "absence",
        -10.384652639232932
      ],
      [
        "analyzed",
        -10.38479313822814
      ],
      [
        "Monday",
        -10.384813804855858
      ],
      [
        "Ġpromote",
        -10.38549202795717
      ],
      [
        "\\],",
        -10.385679964580616
      ],
      [
        "Ġresolution",
        -10.387811755656127
      ],
      [
        "Ġsolutions",
        -10.388255018221049
      ],
      [
        "quantum",
        -10.388550766722913
      ],
      [
        "res",
        -10.38890842630568
      ],
      [
        "Ġmental",
        -10.389316386438736
      ],
      [
        "Ġsuffer",
        -10.389616622236892
      ],
      [
        "âĪĴ",
        -10.390024752572069
      ],
      [
        "Ġselect",
        -10.390355130450086
      ],
      [
        "intended",
        -10.390367976768651
      ],
      [
        "improved",
        -10.390371318289336
      ],
      [
        "occurred",
        -10.390612138048088
      ],
      [
        "Ġfeet",
        -10.391169691895085
      ],
      [
        "Ġmentioned",
        -10.391183979290123
      ],
      [
        "Ġconcept",
        -10.391204159801228
      ],
      [
        "Ġrelation",
        -10.392730929672929
      ],
      [
        "otimes",
        -10.39317388850081
      ],
      [
        "ĠApp",
        -10.39357130404303
      ],
      [
        "Ġplus",
        -10.393594814257185
      ],
      [
        "you",
        -10.395081589193396
      ],
      [
        "ĠDavid",
        -10.395753786590575
      ],
      [
        "Ġextend",
        -10.396900207847985
      ],
      [
        "Ġmotor",
        -10.397830585649706
      ],
      [
        "Ġprobability",
        -10.397890170381878
      ],
      [
        "died",
        -10.39818990810547
      ],
      [
        "Ġhandle",
        -10.398752637355143
      ],
      [
        "check",
        -10.398963556059543
      ],
      [
        "Ġcollected",
        -10.398997278453455
      ],
      [
        "ĠCa",
        -10.399127963433138
      ],
      [
        "either",
        -10.399334059710686
      ],
      [
        "lang",
        -10.399517187293021
      ],
      [
        "boldsymbol",
        -10.400311422164611
      ],
      [
        "Ġmovie",
        -10.400599321115934
      ],
      [
        "Ġtreat",
        -10.401655933812895
      ],
      [
        "write",
        -10.40172734292883
      ],
      [
        "Ġrise",
        -10.402937082998045
      ],
      [
        "Ġsupply",
        -10.4036624237509
      ],
      [
        "guilt",
        -10.404395238645296
      ],
      [
        "Ġthrow",
        -10.404617274336719
      ],
      [
        "Ġemployees",
        -10.404901451069538
      ],
      [
        "Ġque",
        -10.404932381226255
      ],
      [
        "Ġexternal",
        -10.404959411511532
      ],
      [
        "Ġsubstrate",
        -10.405585507898664
      ],
      [
        "Ġdocument",
        -10.407119510197463
      ],
      [
        "property",
        -10.407205814483413
      ],
      [
        "Ġaffected",
        -10.407784593873608
      ],
      [
        "Ġintroduced",
        -10.409736286368238
      ],
      [
        "Ġopening",
        -10.409905950519745
      ],
      [
        "Ġ200",
        -10.410205161188776
      ],
      [
        "****************",
        -10.410317189995318
      ],
      [
        "false",
        -10.410334526400574
      ],
      [
        "voltage",
        -10.410503068182908
      ],
      [
        "Ġscene",
        -10.410586256470816
      ],
      [
        "Ġpeak",
        -10.411523439125475
      ],
      [
        "Ġsexual",
        -10.41205524938668
      ],
      [
        "existence",
        -10.413856360505102
      ],
      [
        "Ġcaus",
        -10.4138987673581
      ],
      [
        "can",
        -10.414061374166245
      ],
      [
        "ĠCal",
        -10.41417797953227
      ],
      [
        "ĠMe",
        -10.414263222755649
      ],
      [
        "finite",
        -10.414365331433997
      ],
      [
        "height",
        -10.414936797040056
      ],
      [
        "Ġdiagnosis",
        -10.415081387350462
      ],
      [
        "Ġjava",
        -10.41512877027681
      ],
      [
        "Ġclasses",
        -10.415663445118426
      ],
      [
        "Ġnone",
        -10.415978787595305
      ],
      [
        "ver",
        -10.416017943227223
      ],
      [
        "Ġnil",
        -10.416053582002288
      ],
      [
        "Ġmurder",
        -10.416769728938954
      ],
      [
        "/**",
        -10.41680803605156
      ],
      [
        "\"></",
        -10.416915376844532
      ],
      [
        "Ġinvestment",
        -10.417702164017589
      ],
      [
        "Ġbeautiful",
        -10.41821415313767
      ],
      [
        "Â¶",
        -10.418516470788441
      ],
      [
        "Ġquarter",
        -10.418972313172173
      ],
      [
        "Ġoperations",
        -10.419661676348463
      ],
      [
        "Ġequivalent",
        -10.419984910868067
      ],
      [
        "Ġsummer",
        -10.420048375055108
      ],
      [
        "kg",
        -10.42042808626282
      ],
      [
        "Ġestimated",
        -10.42081287446186
      ],
      [
        "ĠPat",
        -10.421444667194395
      ],
      [
        "Ġsquare",
        -10.421498522228115
      ],
      [
        "vert",
        -10.421813575903261
      ],
      [
        "order",
        -10.422047735666403
      ],
      [
        "ner",
        -10.422501456872439
      ],
      [
        "Ġattend",
        -10.4226190744777
      ],
      [
        "ĠLondon",
        -10.422655800032866
      ],
      [
        "Ġassessment",
        -10.422820940419859
      ],
      [
        "Ġcollege",
        -10.423123231655229
      ],
      [
        "Ġbiggest",
        -10.42383766379463
      ],
      [
        "Ġremaining",
        -10.423890529164442
      ],
      [
        "ast",
        -10.424111005698329
      ],
      [
        "Ġvirtual",
        -10.424588215803201
      ],
      [
        "Ġdraw",
        -10.424745990285972
      ],
      [
        "Appellant",
        -10.42474697250745
      ],
      [
        "economy",
        -10.4251269608613
      ],
      [
        "Ġwild",
        -10.425420233802882
      ],
      [
        "2016",
        -10.426956257225282
      ],
      [
        "Ġtechniques",
        -10.427101582967499
      ],
      [
        "offense",
        -10.42732443309629
      ],
      [
        "Â½",
        -10.427447902923275
      ],
      [
        "Ġestimate",
        -10.428221765665068
      ],
      [
        "Click",
        -10.428267259962084
      ],
      [
        "ģ",
        -10.428374800203727
      ],
      [
        "Ġband",
        -10.428416121835564
      ],
      [
        "Ġorganization",
        -10.428801540779705
      ],
      [
        "Ġanimal",
        -10.430099800792755
      ],
      [
        "Ġ70",
        -10.43036347063061
      ],
      [
        "Ġ2006",
        -10.430405482785432
      ],
      [
        "Ġ35",
        -10.43057961511587
      ],
      [
        "Ġguess",
        -10.43135769944446
      ],
      [
        "Theorem",
        -10.431368085177091
      ],
      [
        "Ġbank",
        -10.431489180723178
      ],
      [
        "ize",
        -10.431720316069894
      ],
      [
        "Ġrepresentation",
        -10.431764686116852
      ],
      [
        "message",
        -10.432635041845764
      ],
      [
        "Ġsets",
        -10.43268204104828
      ],
      [
        "ĠGreen",
        -10.432821517008453
      ],
      [
        "violation",
        -10.433003237150636
      ],
      [
        "has",
        -10.433216535378468
      ],
      [
        "Ġpress",
        -10.433266911512593
      ],
      [
        "Ġstorage",
        -10.433575317526754
      ],
      [
        "Ġlinks",
        -10.434187988608269
      ],
      [
        "covered",
        -10.434297471389133
      ],
      [
        "reasons",
        -10.434455621769386
      ],
      [
        "ĠPlaintiff",
        -10.434655819081419
      ],
      [
        "2014",
        -10.43536730872328
      ],
      [
        "Ġfootball",
        -10.435894843780881
      ],
      [
        "Ġfluid",
        -10.435968202822854
      ],
      [
        "Ġexperiment",
        -10.436155270368316
      ],
      [
        "System",
        -10.43679061998918
      ],
      [
        "Ġsecret",
        -10.437640748091756
      ],
      [
        "2013",
        -10.438638494198916
      ],
      [
        "ĠTV",
        -10.438717785948596
      ],
      [
        "Ġthank",
        -10.439061025669988
      ],
      [
        "Ġrequirements",
        -10.439688947249921
      ],
      [
        "contained",
        -10.440054821965347
      ],
      [
        "Ġextent",
        -10.440384790342838
      ],
      [
        "Ġconventional",
        -10.440574891501251
      ],
      [
        "pre",
        -10.440646774602257
      ],
      [
        "button",
        -10.441254514807774
      ],
      [
        "font",
        -10.44184475149201
      ],
      [
        "letters",
        -10.442489529687876
      ],
      [
        "Ġprogress",
        -10.442500298966735
      ],
      [
        "Ġfavor",
        -10.44262470205998
      ],
      [
        "ĠIsrael",
        -10.44271871804909
      ],
      [
        "Ġpredict",
        -10.443136720591768
      ],
      [
        "spectrum",
        -10.443263257725183
      ],
      [
        "Ġtouch",
        -10.443720944477949
      ],
      [
        "============",
        -10.444258321747265
      ],
      [
        "ier",
        -10.44457324378141
      ],
      [
        "çļĦ",
        -10.44511248989415
      ],
      [
        "Ġcreating",
        -10.445827723049907
      ],
      [
        "Ġparent",
        -10.446082535924873
      ],
      [
        "Ġblog",
        -10.44685901212988
      ],
      [
        "ĠEast",
        -10.447437513962969
      ],
      [
        "Ġauthor",
        -10.447856799705523
      ],
      [
        "Ġmissing",
        -10.450082455679645
      ],
      [
        "Ġcurve",
        -10.450203455187175
      ],
      [
        "Ġ2000",
        -10.450409276533167
      ],
      [
        "Ġformula",
        -10.450700678824019
      ],
      [
        "Ġmodule",
        -10.450844317233255
      ],
      [
        "Ġconclude",
        -10.451233135963658
      ],
      [
        "Ġtechnique",
        -10.452084207819796
      ],
      [
        "Ġtrack",
        -10.452496657850181
      ],
      [
        "ĠTexas",
        -10.45314779184894
      ],
      [
        "Ġassay",
        -10.453950753658601
      ],
      [
        "adding",
        -10.454237188852687
      ],
      [
        "Ġprob",
        -10.454331675185152
      ],
      [
        "Ġplatform",
        -10.454694637011656
      ],
      [
        "Ġtrip",
        -10.454796961138156
      ],
      [
        "typical",
        -10.455510361255824
      ],
      [
        "uk",
        -10.455734411098435
      ],
      [
        "charged",
        -10.455879820605023
      ],
      [
        "Ġclick",
        -10.456761629448884
      ],
      [
        "mbox",
        -10.457575922435314
      ],
      [
        "izing",
        -10.458369492817345
      ],
      [
        "ĠInstitute",
        -10.458840115064508
      ],
      [
        "ĠMost",
        -10.459312192599775
      ],
      [
        "util",
        -10.459551303600065
      ],
      [
        "ĠStreet",
        -10.460306184944423
      ],
      [
        "slightly",
        -10.460430030523947
      ],
      [
        "driving",
        -10.460533327795362
      ],
      [
        "arphi",
        -10.460830769194658
      ],
      [
        "2012",
        -10.460904014508648
      ],
      [
        "onumber",
        -10.462369451339677
      ],
      [
        "Ġtools",
        -10.462413389095293
      ],
      [
        "ĠBank",
        -10.463450518495616
      ],
      [
        "dependent",
        -10.46437985917381
      ],
      [
        "Ġcalls",
        -10.464410181974136
      ],
      [
        "Group",
        -10.465289363310173
      ],
      [
        "kappa",
        -10.465413191675882
      ],
      [
        "cos",
        -10.465648826113249
      ],
      [
        "Ġauthority",
        -10.465761023138212
      ],
      [
        "img",
        -10.466905505039968
      ],
      [
        "Ġgun",
        -10.46696004250426
      ],
      [
        "Ġbirth",
        -10.46780585735016
      ],
      [
        "Field",
        -10.468027707870657
      ],
      [
        "Ġdie",
        -10.468037356584505
      ],
      [
        "Ġjoint",
        -10.46835234259635
      ],
      [
        "offered",
        -10.46871293222911
      ],
      [
        "Ġsuit",
        -10.468856432453562
      ],
      [
        "ĠBritish",
        -10.469052257376388
      ],
      [
        "post",
        -10.469348267048934
      ],
      [
        "ways",
        -10.469351186585236
      ],
      [
        "Ġharm",
        -10.469733833662419
      ],
      [
        "possibility",
        -10.470342167208765
      ],
      [
        "Ġdelay",
        -10.470677481929465
      ],
      [
        "margin",
        -10.470752929757229
      ],
      [
        "Ġseek",
        -10.470832786066131
      ],
      [
        "}}}",
        -10.470975830438864
      ],
      [
        "operating",
        -10.471023842129663
      ],
      [
        "ĠEurope",
        -10.47102972428501
      ],
      [
        "Some",
        -10.471407734203767
      ],
      [
        "referred",
        -10.471544670341443
      ],
      [
        "Ġlargest",
        -10.471766162618525
      ],
      [
        "ĠCommission",
        -10.471963231511808
      ],
      [
        "Ġraise",
        -10.472411119069365
      ],
      [
        "der",
        -10.47243565393704
      ],
      [
        "announced",
        -10.472461958656613
      ],
      [
        "Ġplate",
        -10.472466864139676
      ],
      [
        "Ġcandidate",
        -10.473137565421917
      ],
      [
        "Ġbalance",
        -10.473568746106052
      ],
      [
        "Ġexception",
        -10.473678259395195
      ],
      [
        "Ġbreast",
        -10.474583971916026
      ],
      [
        "Ġformat",
        -10.47538109337984
      ],
      [
        "Button",
        -10.47566050386441
      ],
      [
        "Ġpercentage",
        -10.476300134412414
      ],
      [
        "Ġentry",
        -10.476676513266556
      ],
      [
        "Ġwarrant",
        -10.47702181526214
      ],
      [
        "Yeah",
        -10.477318601811
      ],
      [
        "Ġpathway",
        -10.477358741572308
      ],
      [
        "ĠHigh",
        -10.477806514204861
      ],
      [
        "Ġpurposes",
        -10.477876042257291
      ],
      [
        "approved",
        -10.478940102320257
      ],
      [
        "Ġimplementation",
        -10.479500028002041
      ],
      [
        "Ġassess",
        -10.479941900724356
      ],
      [
        "ĠYour",
        -10.4799470632957
      ],
      [
        "Ġsummary",
        -10.480202814005613
      ],
      [
        "ties",
        -10.480897203452013
      ],
      [
        "Ġfoot",
        -10.480909501252876
      ],
      [
        "ĠFoundation",
        -10.481138306312426
      ],
      [
        "Ġincident",
        -10.48119331407977
      ],
      [
        "ultimate",
        -10.48138702505275
      ],
      [
        "Ġadvance",
        -10.482737207810729
      ],
      [
        "ĠCouncil",
        -10.482742568849039
      ],
      [
        "Ġreveal",
        -10.482788110267842
      ],
      [
        "ĠRNA",
        -10.483470587449245
      ],
      [
        "ĠJudge",
        -10.48357373240924
      ],
      [
        "Ġvirus",
        -10.483768864349102
      ],
      [
        "ĠLaw",
        -10.484111288905323
      ],
      [
        "Ġcoverage",
        -10.484267484132374
      ],
      [
        "tag",
        -10.4845605503108
      ],
      [
        "Ġarm",
        -10.48472620963453
      ],
      [
        "event",
        -10.48529861386398
      ],
      [
        "Ġrecords",
        -10.4860684460143
      ],
      [
        "our",
        -10.486625306481022
      ],
      [
        "Client",
        -10.487709591799206
      ],
      [
        "Ġoutcome",
        -10.488748788469183
      ],
      [
        "Ġderived",
        -10.488797268633668
      ],
      [
        "Ġobjective",
        -10.489358024013182
      ],
      [
        "ĠCode",
        -10.4900537902605
      ],
      [
        "ĠBlack",
        -10.490285991848431
      ],
      [
        "004",
        -10.490706239389036
      ],
      [
        "determination",
        -10.491400741895603
      ],
      [
        "standing",
        -10.492396885347889
      ],
      [
        "ex",
        -10.492472163500485
      ],
      [
        "User",
        -10.492808035298733
      ],
      [
        "ĠFriday",
        -10.492931667314714
      ],
      [
        "ĠGoogle",
        -10.493017705452038
      ],
      [
        "Ġsubjects",
        -10.49335209112529
      ],
      [
        "2017",
        -10.493650337169798
      ],
      [
        "Ġdry",
        -10.49623595510999
      ],
      [
        "ĠChinese",
        -10.49644815568786
      ],
      [
        "Ġcomplaint",
        -10.497344588510455
      ],
      [
        "ĠCanada",
        -10.497741224876151
      ],
      [
        "Ġcontrols",
        -10.49793959904243
      ],
      [
        "Results",
        -10.498278229461443
      ],
      [
        "Ġlatest",
        -10.498513505683876
      ],
      [
        "Ġmono",
        -10.498888573260999
      ],
      [
        "ĠNote",
        -10.499018947889738
      ],
      [
        "CD",
        -10.499202909723987
      ],
      [
        "Ġthreat",
        -10.49936944317295
      ],
      [
        "upplementary",
        -10.499679950094542
      ],
      [
        "Ġentered",
        -10.500228997138747
      ],
      [
        "Ġtrain",
        -10.500629258371614
      ],
      [
        "lin",
        -10.500673595062102
      ],
      [
        "Ġnoise",
        -10.50072292385192
      ],
      [
        "Ġcold",
        -10.500730521579017
      ],
      [
        "aid",
        -10.501276920403294
      ],
      [
        "Ãł",
        -10.501333339543041
      ],
      [
        "Ġfat",
        -10.501823929532248
      ],
      [
        "Ġdog",
        -10.502140200389999
      ],
      [
        "čĊĉ",
        -10.50273494095766
      ],
      [
        "Ġadult",
        -10.50301720650815
      ],
      [
        "Ġprotected",
        -10.503735723266837
      ],
      [
        "ĠGo",
        -10.503968033240232
      ],
      [
        "These",
        -10.504057880873608
      ],
      [
        "Ġcontribute",
        -10.504155238275919
      ],
      [
        "ĠHer",
        -10.504184792674877
      ],
      [
        "ĠGet",
        -10.505206208382424
      ],
      [
        "Ġsales",
        -10.505222677496734
      ],
      [
        "$$\\",
        -10.505294755844957
      ],
      [
        "Ġcapital",
        -10.505470286592526
      ],
      [
        "Ġsmooth",
        -10.505606940904205
      ],
      [
        "-----------",
        -10.50578896917308
      ],
      [
        "**)",
        -10.506440998927268
      ],
      [
        "importance",
        -10.50714668929718
      ],
      [
        "else",
        -10.507418016269982
      ],
      [
        "Ġdaughter",
        -10.50749601406202
      ],
      [
        "exp",
        -10.507959732134838
      ],
      [
        "json",
        -10.508108033933949
      ],
      [
        "Ġagency",
        -10.508161662151515
      ],
      [
        "ĠRed",
        -10.508542014089665
      ],
      [
        "Ġconflict",
        -10.509635533574071
      ],
      [
        "Ġ2005",
        -10.509715575385968
      ],
      [
        "Ġenvironmental",
        -10.510456690565546
      ],
      [
        "Ġrepeated",
        -10.511080753615287
      ],
      [
        "Ġwants",
        -10.511490043070063
      ],
      [
        "ĠÎ¼",
        -10.51239676735449
      ],
      [
        "action",
        -10.512751888632973
      ],
      [
        "Ġcard",
        -10.512761988397013
      ],
      [
        "Ġspeech",
        -10.512830931807931
      ],
      [
        "changing",
        -10.513008069537053
      ],
      [
        "ÃĹ",
        -10.513499710719511
      ],
      [
        "Ġequipment",
        -10.513880771845015
      ],
      [
        "Ġeventual",
        -10.513927538717457
      ],
      [
        "Ġ37",
        -10.514377632287882
      ],
      [
        "Ġspend",
        -10.514566226349045
      ],
      [
        "Ġinterview",
        -10.514848681375607
      ],
      [
        "Ġanalyses",
        -10.514865949781079
      ],
      [
        "ory",
        -10.515242611265963
      ],
      [
        "CC",
        -10.515376926061876
      ],
      [
        "Ġdigit",
        -10.51557620845486
      ],
      [
        "Ġcharacters",
        -10.516089570433785
      ],
      [
        "**]{},",
        -10.516322850289258
      ],
      [
        "Ġelectronic",
        -10.516826544525397
      ],
      [
        "Ġschools",
        -10.51686342226432
      ],
      [
        "Ġagents",
        -10.517484801892055
      ],
      [
        "latter",
        -10.518186488210686
      ],
      [
        "ĠAM",
        -10.519339597711767
      ],
      [
        "Content",
        -10.519388065993295
      ],
      [
        "Ġdigital",
        -10.519706065920895
      ],
      [
        "first",
        -10.520266939900209
      ],
      [
        "Ġvisual",
        -10.520358897521502
      ],
      [
        "amp",
        -10.52130435898207
      ],
      [
        "house",
        -10.521485575574287
      ],
      [
        "null",
        -10.52210210524687
      ],
      [
        "ĊĊĠĠĠĠĠ",
        -10.522345140143342
      ],
      [
        "Ġarrive",
        -10.52235671298838
      ],
      [
        "Ġstable",
        -10.522407781418536
      ],
      [
        "Ġinteractions",
        -10.522543916051832
      ],
      [
        "Ġrefer",
        -10.52260745465227
      ],
      [
        "Ġsell",
        -10.523010053856705
      ],
      [
        "Ġvictim",
        -10.523861930850448
      ],
      [
        "Ġcamera",
        -10.524010447485475
      ],
      [
        "Ġfuel",
        -10.525011415911854
      ],
      [
        "Ġdecide",
        -10.525901800633939
      ],
      [
        "bit",
        -10.525920810633947
      ],
      [
        "ĠCan",
        -10.526268456554563
      ],
      [
        "client",
        -10.52662767088828
      ],
      [
        "Ġheavy",
        -10.526683987780881
      ],
      [
        "Ġwhatever",
        -10.526810895946694
      ],
      [
        "ĠGroup",
        -10.527156506576674
      ],
      [
        "ĠJames",
        -10.527239612086786
      ],
      [
        "ĠCI",
        -10.527866059269739
      ],
      [
        "represented",
        -10.528138024887724
      ],
      [
        "ase",
        -10.528163368375125
      ],
      [
        "Ġcorrespond",
        -10.528450742126758
      ],
      [
        "module",
        -10.528533584999236
      ],
      [
        "Defendant",
        -10.528817773571117
      ],
      [
        "Ġshared",
        -10.529007082782782
      ],
      [
        "appeared",
        -10.529039756693413
      ],
      [
        "Ġevaluation",
        -10.52930823532994
      ],
      [
        "Ġcomposition",
        -10.529323194731589
      ],
      [
        "Ġprefer",
        -10.529604922129254
      ],
      [
        "nabla",
        -10.529831012274283
      ],
      [
        "Ġkill",
        -10.530037411603411
      ],
      [
        "OUT",
        -10.53069150102759
      ],
      [
        "Ġtransmission",
        -10.531465317355973
      ],
      [
        "ĠSuch",
        -10.53182848408739
      ],
      [
        "Ġvalid",
        -10.531847976134433
      ],
      [
        "range",
        -10.532019250429505
      ],
      [
        "Ġcompleted",
        -10.532457295703397
      ],
      [
        "Ġideal",
        -10.533584618396326
      ],
      [
        "local",
        -10.534438871030101
      ],
      [
        "Ġliver",
        -10.534533548208994
      ],
      [
        "Ġchronic",
        -10.534699777675755
      ],
      [
        "Ġ+=",
        -10.535125771587866
      ],
      [
        "Thursday",
        -10.535579125588942
      ],
      [
        "Ġidentity",
        -10.536125573044712
      ],
      [
        "2011",
        -10.53623585990531
      ],
      [
        "Ġhusband",
        -10.536517351900965
      ],
      [
        "Ġowner",
        -10.536792933860603
      ],
      [
        "format",
        -10.537167977043998
      ],
      [
        "ahead",
        -10.53763719802112
      ],
      [
        "Ġlose",
        -10.538523176159986
      ],
      [
        "apache",
        -10.538756963933515
      ],
      [
        "work",
        -10.539319626403726
      ],
      [
        "print",
        -10.539427408578621
      ],
      [
        "Ġextract",
        -10.54024823719555
      ],
      [
        "serum",
        -10.540954996357287
      ],
      [
        "context",
        -10.541127485353146
      ],
      [
        "ĠIndian",
        -10.541633891521746
      ],
      [
        "Ġdepartment",
        -10.542744503363375
      ],
      [
        "Ġcool",
        -10.542993927895026
      ],
      [
        "Ġfilter",
        -10.54371411425357
      ],
      [
        "Ġjoin",
        -10.544276572544762
      ],
      [
        "target",
        -10.544732690335612
      ],
      [
        "Ġseat",
        -10.545378937292158
      ],
      [
        "ï¼Į",
        -10.545475377713323
      ],
      [
        "remainder",
        -10.545497811983722
      ],
      [
        "Ġengine",
        -10.545717488930313
      ],
      [
        "conviction",
        -10.54580919951599
      ],
      [
        "ĠNews",
        -10.546075250466684
      ],
      [
        "Ġmobile",
        -10.546260988859364
      ],
      [
        "ĠEq",
        -10.54642064380083
      ],
      [
        "Ġsoft",
        -10.546599541909057
      ],
      [
        "OR",
        -10.546995739612099
      ],
      [
        "';",
        -10.547185854491344
      ],
      [
        ".$$",
        -10.54719618469945
      ],
      [
        "2010",
        -10.547648907912327
      ],
      [
        "Ġquick",
        -10.547797469769648
      ],
      [
        "Ġreality",
        -10.54824347806408
      ],
      [
        "0000",
        -10.548377524411492
      ],
      [
        "Ġpayment",
        -10.548454539732452
      ],
      [
        "Ġmanager",
        -10.549789822015862
      ],
      [
        "Ġpatterns",
        -10.550047866543096
      ],
      [
        "extremely",
        -10.550352406480796
      ],
      [
        "Ġepisode",
        -10.550829216882432
      ],
      [
        "Ġplants",
        -10.551060173702783
      ],
      [
        "worse",
        -10.551589288109446
      ],
      [
        "ĠSunday",
        -10.55208197056265
      ],
      [
        "Ġnano",
        -10.552260906657427
      ],
      [
        "Ġ\"[",
        -10.552561297269161
      ],
      [
        "Ġsuspect",
        -10.553181117707416
      ],
      [
        "Ġplasma",
        -10.553214654548592
      ],
      [
        "ĠWestern",
        -10.55363225609331
      ],
      [
        "sensors",
        -10.553672152243625
      ],
      [
        "ĠPeople",
        -10.554921641492129
      ],
      [
        "Ġsecondary",
        -10.555119082385326
      ],
      [
        "Response",
        -10.555487438713577
      ],
      [
        "ĠLe",
        -10.555720611962611
      ],
      [
        "Ġplane",
        -10.555764001507487
      ],
      [
        "300",
        -10.55630006157618
      ],
      [
        "employed",
        -10.556480919611834
      ],
      [
        "ĠUn",
        -10.556769056051031
      ],
      [
        "Ġsalt",
        -10.556933920065994
      ],
      [
        "directed",
        -10.557016432446694
      ],
      [
        "status",
        -10.557673093072715
      ],
      [
        "NO",
        -10.557739688224679
      ],
      [
        "ĠKing",
        -10.557741240536162
      ],
      [
        "layout",
        -10.557779913340203
      ],
      [
        "active",
        -10.558715953602775
      ],
      [
        "receiving",
        -10.55875340536295
      ],
      [
        "interested",
        -10.559388008744323
      ],
      [
        "Ġteams",
        -10.559545355966604
      ],
      [
        "ĠMa",
        -10.55956455789924
      ],
      [
        "Ġannual",
        -10.560156815049424
      ],
      [
        "small",
        -10.560642181352394
      ],
      [
        "Ġcontrolled",
        -10.56198944598701
      ],
      [
        "Ġ48",
        -10.562053240478688
      ],
      [
        "leaving",
        -10.56279363440025
      ],
      [
        "Ġprojects",
        -10.562839066367236
      ],
      [
        "tab",
        -10.563539545960586
      ],
      [
        "non",
        -10.563541233194403
      ],
      [
        "Ġinstall",
        -10.56430318128403
      ],
      [
        "zeta",
        -10.56453850857425
      ],
      [
        "Ġmeasurements",
        -10.564562288188574
      ],
      [
        "belief",
        -10.56470348786315
      ],
      [
        "})$",
        -10.565098478200522
      ],
      [
        "defendants",
        -10.56557653346891
      ],
      [
        "Ġsrc",
        -10.565929605066726
      ],
      [
        "media",
        -10.566347383419362
      ],
      [
        "Ġliterature",
        -10.566905183824597
      ],
      [
        "Ġgap",
        -10.56760413217724
      ],
      [
        "examined",
        -10.568136151044012
      ],
      [
        "Ġchurch",
        -10.568926737249265
      ],
      [
        "developing",
        -10.569266043451412
      ],
      [
        "sensitivity",
        -10.569292567485954
      ],
      [
        "Ġsit",
        -10.569733995819819
      ],
      [
        "']",
        -10.570602513363246
      ],
      [
        "assumption",
        -10.570913902582747
      ],
      [
        "2018",
        -10.571394804278338
      ],
      [
        "Ġstars",
        -10.571833733965452
      ],
      [
        "gives",
        -10.572320474856864
      ],
      [
        "Ġmouse",
        -10.573796267724054
      ],
      [
        "Ġprotocol",
        -10.57417406525218
      ],
      [
        "Ġleader",
        -10.574449395547552
      ],
      [
        "Ġbool",
        -10.575235146767174
      ],
      [
        "Element",
        -10.575263965774202
      ],
      [
        "mixture",
        -10.575312871349094
      ],
      [
        "128",
        -10.575623690421045
      ],
      [
        "Ġcompare",
        -10.575672983184894
      ],
      [
        "burden",
        -10.575750504484464
      ],
      [
        "capable",
        -10.576647772863469
      ],
      [
        "ney",
        -10.576797190003967
      ],
      [
        "}}_{",
        -10.5773046640308
      ],
      [
        "android",
        -10.577946431740667
      ],
      [
        "Source",
        -10.578223505257489
      ],
      [
        "ĠCommittee",
        -10.578562155368525
      ],
      [
        "con",
        -10.578775525284819
      ],
      [
        "Ġorg",
        -10.579387507189166
      ],
      [
        "tic",
        -10.579392912004227
      ],
      [
        "ĠBoth",
        -10.579425875460442
      ],
      [
        "ĠSmith",
        -10.57974870140484
      ],
      [
        "star",
        -10.580175566568649
      ],
      [
        "precise",
        -10.580539927543029
      ],
      [
        "005",
        -10.581052474000142
      ],
      [
        ")=\\",
        -10.581281169905335
      ],
      [
        "Ġlung",
        -10.581309001312567
      ],
      [
        "Ġdeliver",
        -10.581552953169684
      ],
      [
        "Ġnames",
        -10.582174661587555
      ],
      [
        "Ġpure",
        -10.582471837482016
      ],
      [
        "ĠCompany",
        -10.5825416389621
      ],
      [
        "Ġstream",
        -10.582705763645789
      ],
      [
        "Ġalcohol",
        -10.582941753288855
      ],
      [
        "IN",
        -10.583452191269345
      ],
      [
        "powerful",
        -10.583471515042243
      ],
      [
        "2000",
        -10.584503722166206
      ],
      [
        "**]{}",
        -10.584697183566176
      ],
      [
        "Ġfaith",
        -10.584892665112264
      ],
      [
        "Ġaccus",
        -10.585461759071665
      ],
      [
        "Ġstraight",
        -10.585598115479891
      ],
      [
        "Ġleaders",
        -10.585738871128887
      ],
      [
        "${{\\",
        -10.587079631950433
      ],
      [
        "Ġsequences",
        -10.588056910667257
      ],
      [
        "duty",
        -10.58819329784719
      ],
      [
        "Base",
        -10.588405442009826
      ],
      [
        "Ġintra",
        -10.588420931935465
      ],
      [
        "Ġfish",
        -10.588948128004667
      ],
      [
        "Ġlicense",
        -10.589192979248
      ],
      [
        "server",
        -10.589361170063203
      ],
      [
        "ĠTwo",
        -10.589532382856024
      ],
      [
        "google",
        -10.58970563364628
      ],
      [
        "parent",
        -10.589851159040817
      ],
      [
        "ĠMichael",
        -10.590013633556222
      ],
      [
        "Ġappearance",
        -10.59063290217578
      ],
      [
        "Ġexact",
        -10.59077097029516
      ],
      [
        "Ġspread",
        -10.59101322639925
      ],
      [
        "Result",
        -10.591371369312222
      ],
      [
        "ĠJapan",
        -10.591422449304769
      ],
      [
        "Note",
        -10.591478898695378
      ],
      [
        "Ġcustom",
        -10.591701355073429
      ],
      [
        "ĠFacebook",
        -10.591795764498048
      ],
      [
        "Don",
        -10.592981978409973
      ],
      [
        "Ġgraph",
        -10.592995134056439
      ],
      [
        "entry",
        -10.593059264617697
      ],
      [
        "More",
        -10.593107145081557
      ],
      [
        "Ġpermit",
        -10.593192249719474
      ],
      [
        "ĠMo",
        -10.593384398358067
      ],
      [
        "Ġangle",
        -10.593547123309218
      ],
      [
        "Ġdecline",
        -10.59395929066257
      ],
      [
        "ĊĊĠĠĠĠĠĠ",
        -10.594366790318576
      ],
      [
        "Property",
        -10.594384267396832
      ],
      [
        "Ġorigin",
        -10.59457302775083
      ],
      [
        "Ġexplore",
        -10.594578896580503
      ],
      [
        "Ġelectron",
        -10.594657629743653
      ],
      [
        "Ġdiseases",
        -10.595165254633972
      ],
      [
        "seemed",
        -10.595471651529698
      ],
      [
        "Ġsession",
        -10.595505239220952
      ],
      [
        "Ġerrors",
        -10.59592503892088
      ],
      [
        "Ġspot",
        -10.597395748123237
      ],
      [
        "acute",
        -10.598439554249438
      ],
      [
        "ĠUnion",
        -10.598446841096859
      ],
      [
        "Ġparticles",
        -10.59863546228169
      ],
      [
        "efforts",
        -10.59879941609777
      ],
      [
        "Instead",
        -10.598880566170541
      ],
      [
        "Ġimprovement",
        -10.598986149831903
      ],
      [
        "ĠLeague",
        -10.599003964126798
      ],
      [
        "Ġneuro",
        -10.600629291658088
      ],
      [
        "----------",
        -10.60078706099183
      ],
      [
        "Ġdiffer",
        -10.601049889870781
      ],
      [
        "ĠData",
        -10.601384834444135
      ],
      [
        "claimed",
        -10.602291019710181
      ],
      [
        "Ġviews",
        -10.602485673412566
      ],
      [
        "Ġextension",
        -10.602805441367524
      ],
      [
        "Input",
        -10.60282558516131
      ],
      [
        "Ġpark",
        -10.603286842172729
      ],
      [
        "Ġdoctor",
        -10.603321788084676
      ],
      [
        "Ġsale",
        -10.6035249561458
      ],
      [
        "policies",
        -10.60357681291534
      ],
      [
        "Ġdelivery",
        -10.603734295233089
      ],
      [
        "inflammatory",
        -10.603868869406694
      ],
      [
[...]
