{
  "version": "1.0",
  "truncation": null,
  "padding": null,
  "added_tokens": [
    {
      "id": 0,
      "content": "[UNK]",
      "single_word": false,
      "lstrip": false,
      "rstrip": false,
      "normalized": false,
      "special": true
    }
  ],
  "normalizer": null,
  "pre_tokenizer": {
    "type": "ByteLevel",
    "add_prefix_space": true,
    "trim_offsets": true,
    "use_regex": true
  },
  "post_processor": null,
  "decoder": null,
  "model": {
    "type": "Unigram",
    "unk_id": null,
    "vocab": [
      [
        "[UNK]",
        0.0
      ],
      [
        "Ġ",
        -2.0240085605500795
      ],
      [
        ".",
        -3.477791651178343
      ],
      [
        "Ċ",
        -3.5307245497298148
      ],
      [
        ",",
        -3.6066833880851483
      ],
      [
        "Ġthe",
        -3.756934546982727
      ],
      [
        "s",
        -3.8554079390499325
      ],
      [
        "a",
        -4.307028016690257
      ],
      [
        "Ġof",
        -4.346035707994449
      ],
      [
        "-",
        -4.421076115971321
      ],
      [
        "Ġand",
        -4.513321516160914
      ],
      [
        "Ġto",
        -4.523292745079441
      ],
      [
        "(",
        -4.707747192972601
      ],
      [
        "Ġin",
        -4.800902067732263
      ],
      [
        "_",
        -5.07557241301987
      ],
      [
        "\"",
        -5.120885526350552
      ],
      [
        ")",
        -5.148522357545378
      ],
      [
        "Ġis",
        -5.220666533363552
      ],
      [
        "'",
        -5.328247678079105
      ],
      [
        "1",
        -5.340906926154286
      ],
      [
        "t",
        -5.374866593925574
      ],
      [
        "Ġthat",
        -5.383480997356358
      ],
      [
        "e",
        -5.399731087217969
      ],
      [
        "d",
        -5.41467085289942
      ],
      [
        ":",
        -5.415581419750044
      ],
      [
        "\\",
        -5.4291147758605796
      ],
      [
        "2",
        -5.448018481136398
      ],
      [
        "Ġfor",
        -5.475221599248021
      ],
      [
        "I",
        -5.541679436342582
      ],
      [
        "i",
        -5.564251002018079
      ],
      [
        "$",
        -5.566622789243368
      ],
      [
        "0",
        -5.591739895328283
      ],
      [
        "*",
        -5.618757177505131
      ],
      [
        "n",
        -5.647261414355787
      ],
      [
        "o",
        -5.714497433234328
      ],
      [
        "m",
        -5.7164887092034835
      ],
      [
        "ing",
        -5.732618086216878
      ],
      [
        "Ġwith",
        -5.750138721222626
      ],
      [
        "{",
        -5.767369766851294
      ],
      [
        "=",
        -5.77961699374049
      ],
      [
        "/",
        -5.792320644645546
      ],
      [
        "ed",
        -5.806799510760433
      ],
      [
        "Ġon",
        -5.919041935605565
      ],
      [
        "}",
        -5.932362064990727
      ],
      [
        "Ġbe",
        -5.9763909862589415
      ],
      [
        "Ġas",
        -5.9999360526341565
      ],
      [
        "Ġwas",
        -6.0078049507131155
      ],
      [
        "Ġit",
        -6.034739156332538
      ],
      [
        "3",
        -6.041526873003878
      ],
      [
        ";",
        -6.068671935635667
      ],
      [
        "p",
        -6.069539021545275
      ],
      [
        "A",
        -6.077366943181389
      ],
      [
        "c",
        -6.102922483381821
      ],
      [
        "Ġare",
        -6.119053507138586
      ],
      [
        "Ġby",
        -6.137676302102854
      ],
      [
        "r",
        -6.139172817410131
      ],
      [
        "y",
        -6.145755638724619
      ],
      [
        "at",
        -6.1548518996357675
      ],
      [
        "ly",
        -6.169154025273807
      ],
      [
        "b",
        -6.242894683412235
      ],
      [
        "Ġthis",
        -6.2879721884856306
      ],
      [
        "âĢĻ",
        -6.303607966619916
      ],
      [
        "ĠĠĠĠĠĠĠĠĠĠĠĠĠĠĠĠ",
        -6.309895776907254
      ],
      [
        "Ġfrom",
        -6.312487428974148
      ],
      [
        "Ġnot",
        -6.312876852969428
      ],
      [
        "ĠThe",
        -6.315799332516578
      ],
      [
        "Ġyou",
        -6.317207246586257
      ],
      [
        "S",
        -6.317473025588825
      ],
      [
        "ĉ",
        -6.334621568156795
      ],
      [
        "f",
        -6.358935554793149
      ],
      [
        ">",
        -6.371319581075422
      ],
      [
        "Ġor",
        -6.378001818164535
      ],
      [
        "ĊĠĠĠ",
        -6.3869737365802255
      ],
      [
        "4",
        -6.394138404830507
      ],
      [
        "Ġhave",
        -6.405189478389387
      ],
      [
        "x",
        -6.4105774676218665
      ],
      [
        "l",
        -6.435577208208345
      ],
      [
        "Ġan",
        -6.460491361023976
      ],
      [
        "+",
        -6.482257427819697
      ],
      [
        "C",
        -6.524752915943269
      ],
      [
        "<",
        -6.5373320450633035
      ],
      [
        "5",
        -6.538671752616363
      ],
      [
        "[",
        -6.572964582964781
      ],
      [
        "B",
        -6.586625652413643
      ],
      [
        "g",
        -6.604698484419606
      ],
      [
        "h",
        -6.624971784426982
      ],
      [
        "Ġwe",
        -6.648600080365471
      ],
      [
        "v",
        -6.684580420059657
      ],
      [
        "k",
        -6.7283263178010735
      ],
      [
        "Ġcan",
        -6.740666120892639
      ],
      [
        "Ġwere",
        -6.757186412026364
      ],
      [
        "ĊĠĠĠĠĠĠĠ",
        -6.778823043765408
      ],
      [
        "**",
        -6.790761953695709
      ],
      [
        "u",
        -6.794994819762898
      ],
      [
        "=\"",
        -6.806273757913953
      ],
      [
        "The",
        -6.812032196006257
      ],
      [
        "he",
        -6.816007076654639
      ],
      [
        "in",
        -6.825039537073792
      ],
      [
        "Ġwhich",
        -6.836662128768685
      ],
      [
        "Ġhas",
        -6.855537604263464
      ],
      [
        "?",
        -6.863041090526293
      ],
      [
        "Ġbut",
        -6.932367631582435
      ],
      [
        "Ġwill",
        -6.9491504844388725
      ],
      [
        ".\"",
        -6.9630884859803945
      ],
      [
        "6",
        -6.972969020461312
      ],
      [
        "]",
        -6.973891647160823
      ],
      [
        "P",
        -6.976098755770984
      ],
      [
        "D",
        -6.990067889588447
      ],
      [
        "M",
        -6.994391328927831
      ],
      [
        "Ġall",
        -7.005409873183375
      ],
      [
        "T",
        -7.042295251519196
      ],
      [
        "R",
        -7.04609024325614
      ],
      [
        "Ġhis",
        -7.046403954223134
      ],
      [
        "E",
        -7.050642427652891
      ],
      [
        "Ġone",
        -7.054936567812598
      ],
      [
        "Ġif",
        -7.060332163771953
      ],
      [
        "F",
        -7.070588305963277
      ],
      [
        ").",
        -7.0776853360976695
      ],
      [
        "re",
        -7.113152410924295
      ],
      [
        "Âł",
        -7.12605641018132
      ],
      [
        "8",
        -7.147444786466627
      ],
      [
        "Ġthey",
        -7.155227745107593
      ],
      [
        "Ġtheir",
        -7.160056030720888
      ],
      [
        "er",
        -7.164075183005561
      ],
      [
        "_{",
        -7.169807292234575
      ],
      [
        "7",
        -7.1738230493708794
      ],
      [
        "Ġmore",
        -7.176966901082773
      ],
      [
        "&",
        -7.181070655770709
      ],
      [
        "^",
        -7.210428795243679
      ],
      [
        ");",
        -7.212935600158344
      ],
      [
        "N",
        -7.223534000076947
      ],
      [
        "Ġhad",
        -7.24616762944623
      ],
      [
        "L",
        -7.247721228718884
      ],
      [
        "H",
        -7.249921554249243
      ],
      [
        "Ġ$\\",
        -7.263866819272286
      ],
      [
        "Ġbeen",
        -7.267808101790353
      ],
      [
        "%",
        -7.272470001131545
      ],
      [
        "j",
        -7.2736925623906075
      ],
      [
        "w",
        -7.290880507313039
      ],
      [
        "Ġyour",
        -7.294520142996399
      ],
      [
        "Ġalso",
        -7.29778565673946
      ],
      [
        "Ġwould",
        -7.308608308741263
      ],
      [
        "G",
        -7.314798449964213
      ],
      [
        "Ġthere",
        -7.325350184145277
      ],
      [
        "Ġout",
        -7.33284379381648
      ],
      [
        "Ġwhen",
        -7.3346977012859504
      ],
      [
        "Ġabout",
        -7.342374535323339
      ],
      [
        "Ġtime",
        -7.353287289548025
      ],
      [
        "ĠIn",
        -7.361596687770124
      ],
      [
        "Ġother",
        -7.379509581418251
      ],
      [
        "z",
        -7.386871614076245
      ],
      [
        "Ġdo",
        -7.393341027902524
      ],
      [
        "ĊĠĠĠĠĠĠĠĠĠĠĠ",
        -7.395401112899149
      ],
      [
        "Ġwho",
        -7.39603806538754
      ],
      [
        "9",
        -7.401423978842045
      ],
      [
        "</",
        -7.414754024367211
      ],
      [
        "Ġno",
        -7.4188659155073875
      ],
      [
        "Ġmy",
        -7.4231493199125556
      ],
      [
        "Ġup",
        -7.43453016782234
      ],
      [
        "#",
        -7.436479009854358
      ],
      [
        "),",
        -7.440079844787521
      ],
      [
        "or",
        -7.447568292355864
      ],
      [
        "[@",
        -7.4489580926185255
      ],
      [
        "Ġthan",
        -7.463899732163348
      ],
      [
        "ĠâĢľ",
        -7.463976607638109
      ],
      [
        "|",
        -7.474398100993984
      ],
      [
        "{\\",
        -7.494987634780195
      ],
      [
        "K",
        -7.510256862123168
      ],
      [
        "Ġinto",
        -7.534123473456196
      ],
      [
        "type",
        -7.537376689148269
      ],
      [
        "U",
        -7.540280286786194
      ],
      [
        "Ġour",
        -7.55902755269717
      ],
      [
        "Ġlike",
        -7.559859858332404
      ],
      [
        "Ġher",
        -7.561721714908284
      ],
      [
        "Ġtwo",
        -7.572392858753821
      ],
      [
        "Ġany",
        -7.57508193762982
      ],
      [
        "Ġsaid",
        -7.579536770111176
      ],
      [
        "Ġonly",
        -7.579671331964876
      ],
      [
        "Ġnew",
        -7.583148163768207
      ],
      [
        "Ġwhat",
        -7.595800954921943
      ],
      [
        "ĊĠĠĠĠĠĠĠĠĠĠĠĠĠĠĠ",
        -7.609147722023652
      ],
      [
        "on",
        -7.619212377102878
      ],
      [
        "Ġits",
        -7.6204675581861
      ],
      [
        "X",
        -7.620609154557155
      ],
      [
        "Ġsome",
        -7.622080155703115
      ],
      [
        "Ġmay",
        -7.629161458155281
      ],
      [
        "Ġover",
        -7.637829945268129
      ],
      [
        "al",
        -7.642704387761036
      ],
      [
        "----------------",
        -7.646533607598723
      ],
      [
        "J",
        -7.659760838298126
      ],
      [
        "ĠIt",
        -7.666301771315908
      ],
      [
        "V",
        -7.670601470244641
      ],
      [
        "Ġsuch",
        -7.671476786041705
      ],
      [
        "Ġfirst",
        -7.675444150819166
      ],
      [
        "ref",
        -7.6772360957980155
      ],
      [
        "10",
        -7.6795172106862655
      ],
      [
        "Ġthese",
        -7.694819907113327
      ],
      [
        "@",
        -7.70049576774244
      ],
      [
        "ĠThis",
        -7.7012720064858105
      ],
      [
        "ĊĠĠĠĠĠ",
        -7.701870110213676
      ],
      [
        "Ġme",
        -7.709711177936015
      ],
      [
        "Ġget",
        -7.714280986621571
      ],
      [
        "W",
        -7.71821914882573
      ],
      [
        "to",
        -7.725750106166709
      ],
      [
        "Ġuse",
        -7.738192445945806
      ],
      [
        "Ġwhere",
        -7.742260425988656
      ],
      [
        "Ġun",
        -7.743912645724679
      ],
      [
        "q",
        -7.7511720724148745
      ],
      [
        "Ġafter",
        -7.761197923023797
      ],
      [
        "Ġjust",
        -7.768736427476931
      ],
      [
        "Ġbetween",
        -7.781908677933952
      ],
      [
        "!",
        -7.7929166712985225
      ],
      [
        "In",
        -7.806704158163923
      ],
      [
        "Ġcould",
        -7.81305004079381
      ],
      [
        "Ġused",
        -7.839510354265974
      ],
      [
        "is",
        -7.84060593319346
      ],
      [
        "~",
        -7.852057029559031
      ],
      [
        "ĠWe",
        -7.856478618921388
      ],
      [
        "us",
        -7.857868870592036
      ],
      [
        "able",
        -7.868592766160891
      ],
      [
        "Ġpeople",
        -7.872708459624921
      ],
      [
        "O",
        -7.874710147851101
      ],
      [
        "Ġshe",
        -7.890433289151785
      ],
      [
        "Ġdata",
        -7.898521918838409
      ],
      [
        "}\\",
        -7.904159709434767
      ],
      [
        "Ġthem",
        -7.913699423467712
      ],
      [
        "Ġusing",
        -7.926802053807176
      ],
      [
        "Ġbecause",
        -7.928718318992772
      ],
      [
        "Ġshould",
        -7.932971602230294
      ],
      [
        "Ġunder",
        -7.935494848982186
      ],
      [
        "Q",
        -7.958850915145947
      ],
      [
        "->",
        -7.979224349400187
      ],
      [
        "Ġwell",
        -7.992175324735541
      ],
      [
        "th",
        -7.995544127871041
      ],
      [
        "Ġmost",
        -8.00646430912779
      ],
      [
        "Ġhow",
        -8.012248957339311
      ],
      [
        "Ġwork",
        -8.025957942592685
      ],
      [
        "Ġcase",
        -8.02826626120082
      ],
      [
        "){",
        -8.02832048965803
      ],
      [
        "right",
        -8.029855304820702
      ],
      [
        "Ġeach",
        -8.034244743218158
      ],
      [
        "ĠHe",
        -8.034672198367927
      ],
      [
        "Ġhim",
        -8.044367811645568
      ],
      [
        "Ġknow",
        -8.049736862039497
      ],
      [
        "Ġway",
        -8.0504563280554
      ],
      [
        "Ġmake",
        -8.058528716110569
      ],
      [
        "com",
        -8.06824171046814
      ],
      [
        "Ċĉ",
        -8.071523647317859
      ],
      [
        "12",
        -8.072314226082398
      ],
      [
        "Ġsee",
        -8.098161022813654
      ],
      [
        "left",
        -8.104199261052651
      ],
      [
        "Y",
        -8.105437516807683
      ],
      [
        "}$",
        -8.108709363885817
      ],
      [
        "frac",
        -8.10966875522281
      ],
      [
        "Ġclass",
        -8.11203221550081
      ],
      [
        "and",
        -8.112524042308776
      ],
      [
        "Ġthrough",
        -8.113173806791927
      ],
      [
        "Ġeven",
        -8.113331308509839
      ],
      [
        "âĢĿ",
        -8.116637674482087
      ],
      [
        "Ġsame",
        -8.123983872254353
      ],
      [
        "end",
        -8.136235428671663
      ],
      [
        "11",
        -8.145885508323937
      ],
      [
        "Ġthose",
        -8.15283290557405
      ],
      [
        "](#",
        -8.153576047723908
      ],
      [
        "Ġ10",
        -8.15477872494871
      ],
      [
        "Ġnow",
        -8.156839106051985
      ],
      [
        "()",
        -8.157357601703623
      ],
      [
        "Ġboth",
        -8.157474422453893
      ],
      [
        "Ġneed",
        -8.159811187023335
      ],
      [
        "Ġvery",
        -8.160162021090006
      ],
      [
        "Ġde",
        -8.161971140587656
      ],
      [
        "Ġdid",
        -8.168317642697906
      ],
      [
        "\">",
        -8.174402497520319
      ],
      [
        "Ġyears",
        -8.177666254559625
      ],
      [
        "the",
        -8.178267102312322
      ],
      [
        "ve",
        -8.17913671168118
      ],
      [
        "an",
        -8.179228144797436
      ],
      [
        "Ġdifferent",
        -8.18554577003365
      ],
      [
        "Ġbeing",
        -8.192781891686165
      ],
      [
        "Ġnumber",
        -8.198615937704966
      ],
      [
        "...",
        -8.199558262113431
      ],
      [
        "Ġmany",
        -8.199784104608863
      ],
      [
        "Ġreturn",
        -8.201554317504941
      ],
      [
        "Ġbefore",
        -8.206144869394661
      ],
      [
        "?\"",
        -8.209684157731875
      ],
      [
        "Ġback",
        -8.210758143898632
      ],
      [
        "\\[[@",
        -8.216000285803023
      ],
      [
        "âĢī",
        -8.21786966981238
      ],
      [
        "--",
        -8.23735696944613
      ],
      [
        "name",
        -8.240329418690768
      ],
      [
        "Ġdon",
        -8.242004291311066
      ],
      [
        "We",
        -8.24835768649919
      ],
      [
        "if",
        -8.249021968903186
      ],
      [
        "Ġhere",
        -8.25025440926356
      ],
      [
        "What",
        -8.256125187014687
      ],
      [
        "Z",
        -8.256131565741605
      ],
      [
        "],",
        -8.257820117729905
      ],
      [
        "::",
        -8.260313152619913
      ],
      [
        "Ġset",
        -8.265088380292832
      ],
      [
        "Ġtake",
        -8.27141716447602
      ],
      [
        "fig",
        -8.276229343671872
      ],
      [
        "Ġsystem",
        -8.282096047748947
      ],
      [
        "Ġfound",
        -8.28278847591403
      ],
      [
        "Ġmade",
        -8.287954447963353
      ],
      [
        "Ġcourt",
        -8.291570046848895
      ],
      [
        "Ġhigh",
        -8.298927890502233
      ],
      [
        "ers",
        -8.300014448939796
      ],
      [
        "Ġstudy",
        -8.301282953489775
      ],
      [
        "Ġvalue",
        -8.302080268595498
      ],
      [
        "Ġwant",
        -8.302925359056683
      ],
      [
        "mathb",
        -8.303473360120051
      ],
      [
        "Ġwhile",
        -8.304543074760609
      ],
      [
        "://",
        -8.30480472333609
      ],
      [
        "text",
        -8.30848302247066
      ],
      [
        "Ġgood",
        -8.31421953491029
      ],
      [
        "ll",
        -8.317514805266585
      ],
      [
        "Ġfunction",
        -8.326036899458016
      ],
      [
        "Ġmuch",
        -8.333596459287845
      ],
      [
        "Ġstate",
        -8.345839086711369
      ],
      [
        "Ġthree",
        -8.352274150363963
      ],
      [
        "ion",
        -8.352358028706652
      ],
      [
        "ĊĊĠĠĠ",
        -8.353362140526547
      ],
      [
        "00",
        -8.35451453286883
      ],
      [
        "_{\\",
        -8.354717019765562
      ],
      [
        "Ġthink",
        -8.355926143697207
      ],
      [
        "Ġright",
        -8.358540019689272
      ],
      [
        "Ġpatients",
        -8.368006314592083
      ],
      [
        "Ġorder",
        -8.369439368366075
      ],
      [
        ".âĢĿ",
        -8.371225928874914
      ],
      [
        "Ġpublic",
        -8.373979278237625
      ],
      [
        "Ġdoes",
        -8.374019907817017
      ],
      [
        "Ġnon",
        -8.374475491282398
      ],
      [
        "Ġduring",
        -8.376127179474649
      ],
      [
        "Ġwithout",
        -8.37846207974173
      ],
      [
        "Ġpart",
        -8.38501880852358
      ],
      [
        "`",
        -8.386352567501394
      ],
      [
        "get",
        -8.386546017175062
      ],
      [
        "Â",
        -8.391263890685769
      ],
      [
        "ity",
        -8.39320862492913
      ],
      [
        "ĠâĢĵ",
        -8.395877881128092
      ],
      [
        "It",
        -8.396221080001796
      ],
      [
        "(\\",
        -8.396901895535633
      ],
      [
        "//",
        -8.39822746517249
      ],
      [
        "Ġcells",
        -8.40046755564696
      ],
      [
        "Let",
        -8.402877455210877
      ],
      [
        "ĠFor",
        -8.422304668579043
      ],
      [
        "15",
        -8.423560824180733
      ],
      [
        "\":",
        -8.424832971526106
      ],
      [
        "16",
        -8.427647012552477
      ],
      [
        "Ġdown",
        -8.428272296061587
      ],
      [
        "int",
        -8.429119274669944
      ],
      [
        "This",
        -8.440194609314199
      ],
      [
        "ĠIf",
        -8.44052766403804
      ],
      [
        "Ġhelp",
        -8.44081467846868
      ],
      [
        "Ġgroup",
        -8.442565153324553
      ],
      [
        "Ġyear",
        -8.44835072800668
      ],
      [
        "set",
        -8.448802826467524
      ],
      [
        "man",
        -8.449785757911462
      ],
      [
        "âĢľ",
        -8.454482783889464
      ],
      [
        "Ġname",
        -8.45920178278217
      ],
      [
        "}{",
        -8.460007007092644
      ],
      [
        "Ġgo",
        -8.46337372951572
      ],
      [
        "Ġagainst",
        -8.466315067218412
      ],
      [
        "Ġlong",
        -8.470124626293073
      ],
      [
        "20",
        -8.472258789371407
      ],
      [
        "Ġlast",
        -8.477082513897443
      ],
      [
        "32",
        -8.480763300561689
      ],
      [
        "Ġmust",
        -8.485594986967632
      ],
      [
        "it",
        -8.486362027507187
      ],
      [
        "Ġus",
        -8.48804628064463
      ],
      [
        "Ġ//",
        -8.48954618421856
      ],
      [
        "Ġstill",
        -8.494627971401467
      ],
      [
        "age",
        -8.498591901578763
      ],
      [
        "13",
        -8.508755059019853
      ],
      [
        "âĢĵ",
        -8.511681028410445
      ],
      [
        "Ġend",
        -8.51400684989037
      ],
      [
        "ĠLet",
        -8.515909016340979
      ],
      [
        "000",
        -8.51970365141764
      ],
      [
        "Ġinformation",
        -8.52031680141928
      ],
      [
        "Ġfind",
        -8.521164704387653
      ],
      [
        "ies",
        -8.523162219236022
      ],
      [
        "Ġsecond",
        -8.527165442304492
      ],
      [
        "{#",
        -8.531732898271486
      ],
      [
        "Ċĉĉ",
        -8.535495585591937
      ],
      [
        "ĠĠĠĠĠĠ",
        -8.53681310104508
      ],
      [
        "up",
        -8.537142845153825
      ],
      [
        "Ġday",
        -8.540997950795235
      ],
      [
        "^{",
        -8.541891256252248
      ],
      [
        "14",
        -8.552592138894205
      ],
      [
        "ĠAs",
        -8.55432869487677
      ],
      [
        "(\"",
        -8.55688882199657
      ],
      [
        "alpha",
        -8.558015480970889
      ],
      [
        "Ġresult",
        -8.562138758055122
      ],
      [
        "You",
        -8.567689289567666
      ],
      [
        "However",
        -8.572033240469985
      ],
      [
        "athcal",
        -8.572674490271714
      ],
      [
        "le",
        -8.57351950089427
      ],
      [
        "Ġtest",
        -8.578478966107589
      ],
      [
        "Ġfollowing",
        -8.581850008430704
      ],
      [
        "Ġresults",
        -8.587292043254955
      ],
      [
        "ĠBut",
        -8.593463208097369
      ],
      [
        "();",
        -8.593555753909444
      ],
      [
        "CR",
        -8.594514142315058
      ],
      [
        "Ġpoint",
        -8.596126900112429
      ],
      [
        "Ġlife",
        -8.601526911500473
      ],
      [
        "var",
        -8.60201022010387
      ],
      [
        "Ġmodel",
        -8.60572614685044
      ],
      [
        "Ġpresent",
        -8.611512527088003
      ],
      [
        "Ġgoing",
        -8.612734618067355
      ],
      [
        "âĢĶ",
        -8.622312104787804
      ],
      [
        ")$",
        -8.622940874887588
      ],
      [
        "Ġ*/",
        -8.624488249364648
      ],
      [
        "Ġfact",
        -8.624564597740758
      ],
      [
        "18",
        -8.626446551053526
      ],
      [
        "Ġsince",
        -8.62669263902938
      ],
      [
        "Ġown",
        -8.63568920376125
      ],
      [
        "Ġaround",
        -8.63625879571726
      ],
      [
        "č",
        -8.637453168388038
      ],
      [
        "Ġwithin",
        -8.63840421816727
      ],
      [
        "Ġlook",
        -8.639634972647539
      ],
      [
        "\\]",
        -8.641585324446257
      ],
      [
        "Ġsupport",
        -8.646398760030888
      ],
      [
        "Ġcontrol",
        -8.648539701875366
      ],
      [
        "Ġshow",
        -8.652782897779428
      ],
      [
        "Ġanother",
        -8.661978475631091
      ],
      [
        "http",
        -8.663425860373867
      ],
      [
        "mu",
        -8.664855618335853
      ],
      [
        "Ġexample",
        -8.68167162472186
      ],
      [
        "Ġlaw",
        -8.694365645619321
      ],
      [
        "Ġsay",
        -8.694684686558446
      ],
      [
        "Ġline",
        -8.696374840824678
      ],
      [
        "label",
        -8.698302460154203
      ],
      [
        ",âĢĿ",
        -8.705103307064354
      ],
      [
        "]\\].",
        -8.705475109459952
      ],
      [
        "begin",
        -8.705935207412459
      ],
      [
        "Ġworld",
        -8.708390943600675
      ],
      [
        "Ġincluding",
        -8.708734191391319
      ],
      [
        "01",
        -8.70898300069986
      ],
      [
        "ĠAnd",
        -8.709263877436944
      ],
      [
        "of",
        -8.709832009350936
      ],
      [
        "To",
        -8.71135764587309
      ],
      [
        "Ġevery",
        -8.712093369470184
      ],
      [
        "Ġcome",
        -8.7157266939186
      ],
      [
        "17",
        -8.715874600879129
      ],
      [
        "Ġcell",
        -8.716829929015406
      ],
      [
        "Ġgiven",
        -8.716942074676405
      ],
      [
        "ÃĲ",
        -8.717381044153361
      ],
      [
        "Ġmight",
        -8.718560492024878
      ],
      [
        "Ġoff",
        -8.721587216943664
      ],
      [
        "].",
        -8.723744714692533
      ],
      [
        "Ġreally",
        -8.726965854428451
      ],
      [
        "Ġhome",
        -8.729282717261274
      ],
      [
        "data",
        -8.730496574405567
      ],
      [
        "19",
        -8.735050795515294
      ],
      [
        "Ġprocess",
        -8.738949792564616
      ],
      [
        "Ġlarge",
        -8.74358480454435
      ],
      [
        "Ġper",
        -8.746234621796088
      ],
      [
        "ĠNo",
        -8.747025309684252
      ],
      [
        "Ġself",
        -8.763418071493524
      ],
      [
        "ĠYou",
        -8.763925055452331
      ],
      [
        "Ġ$$\\",
        -8.771579002254539
      ],
      [
        "Ġfew",
        -8.772819139877845
      ],
      [
        "Ġcause",
        -8.773185795082112
      ],
      [
        "Ġevidence",
        -8.77807830835697
      ],
      [
        "Ġmethod",
        -8.782996640117894
      ],
      [
        "Ġgive",
        -8.785268982547407
      ],
      [
        "Ġpre",
        -8.786662980058727
      ],
      [
        "Ġchange",
        -8.791236945331491
      ],
      [
        "ation",
        -8.792716075875992
      ],
      [
        "Ġanalysis",
        -8.79294577965668
      ],
      [
        "Ġbest",
        -8.795092171103907
      ],
      [
        "Ġfile",
        -8.797973416478861
      ],
      [
        "Ġimportant",
        -8.803260339501994
      ],
      [
        "div",
        -8.804057065687218
      ],
      [
        "ĠThey",
        -8.80734092033738
      ],
      [
        "Ġsomething",
        -8.8084288547043
      ],
      [
        "import",
        -8.808600128094703
      ],
      [
        "Ġplace",
        -8.811720374645471
      ],
      [
        "Ġnext",
        -8.81181961743523
      ],
      [
        "Ġwhether",
        -8.815390826233463
      ],
      [
        "25",
        -8.817847680932637
      ],
      [
        "30",
        -8.81946172345896
      ],
      [
        "Ġpower",
        -8.825722462815401
      ],
      [
        "Ġsmall",
        -8.827145482610302
      ],
      [
        "Ġcommon",
        -8.827450143505107
      ],
      [
        "Ġbased",
        -8.829968089410434
      ],
      [
        "table",
        -8.83427606293745
      ],
      [
        "Ġgreat",
        -8.835842750098667
      ],
      [
        "Ġform",
        -8.836518555192432
      ],
      [
        "Ġtype",
        -8.838204043508407
      ],
      [
        "ĠNew",
        -8.842040335930099
      ],
      [
        "Ġ20",
        -8.846455392103046
      ],
      [
        "\\[",
        -8.849658813040502
      ],
      [
        "out",
        -8.855143126761167
      ],
      [
        "Ġ12",
        -8.855831428282972
      ],
      [
        "Ġbetter",
        -8.85890862538869
      ],
      [
        "Ġabove",
        -8.864263519439183
      ],
      [
        "Ġhuman",
        -8.864365113836742
      ],
      [
        "Ġwater",
        -8.866242231047396
      ],
      [
        "math",
        -8.866586802907682
      ],
      [
        "Ġnever",
        -8.87541157063529
      ],
      [
        "Ġlevel",
        -8.88015114123023
      ],
      [
        "Ġtreatment",
        -8.88025090591259
      ],
      [
        "over",
        -8.888184503749986
      ],
      [
        "Ġproblem",
        -8.888434561762693
      ],
      [
        "If",
        -8.890136489672503
      ],
      [
        "Ġ\\[",
        -8.890842084214723
      ],
      [
        "}}",
        -8.891179888805842
      ],
      [
        "sum",
        -8.892009111925512
      ],
      [
        "Ġleast",
        -8.894199441736603
      ],
      [
        "Ġal",
        -8.895100688065115
      ],
      [
        "Ġlittle",
        -8.897714190844539
      ],
      [
        "Ġpossible",
        -8.897801286045473
      ],
      [
        "ĠĠĠĠĠĠĠ",
        -8.900490556999191
      ],
      [
        "Ġdue",
        -8.901589534145609
      ],
      [
        "For",
        -8.910995786541042
      ],
      [
        "Ġexpression",
        -8.91303015969868
      ],
      [
        "Ġresponse",
        -8.9131057156739
      ],
      [
        "Ġtrue",
        -8.917235905093039
      ],
      [
        "ĊĠĠĠĠĠĠĠĠĠ",
        -8.919149017107197
      ],
      [
        "Ġthings",
        -8.922493564156321
      ],
      [
        "ĠThere",
        -8.923097069781294
      ],
      [
        "!\"",
        -8.923641415312307
      ],
      [
        "for",
        -8.925112025846625
      ],
      [
        "Ġeffect",
        -8.925889904441863
      ],
      [
        "this",
        -8.927503586714975
      ],
      [
        "Type",
        -8.928034380359472
      ],
      [
        "ĠTo",
        -8.93078192326017
      ],
      [
        "Ġlow",
        -8.9328927968307
      ],
      [
        "Â±",
        -8.933316364609349
      ],
      [
        "span",
        -8.935485111835462
      ],
      [
        "Name",
        -8.935696309298013
      ],
      [
        "Ġgame",
        -8.936711533249357
      ],
      [
        "org",
        -8.939560156422862
      ],
      [
        "}(",
        -8.941346013160166
      ],
      [
        "ĠSo",
        -8.94186972023578
      ],
      [
        "ĠĠĠĠĠĠĠĠĠĠĠĠĠĠĠ",
        -8.943909736746496
      ],
      [
        "Ġsize",
        -8.947920789205183
      ],
      [
        "Ġhaving",
        -8.948580944345444
      ],
      [
        "Ġtrial",
        -8.949672936604635
      ],
      [
        "Ġshown",
        -8.951484501692466
      ],
      [
        "Ġfurther",
        -8.952889949209219
      ],
      [
        "Ġpost",
        -8.954088616513996
      ],
      [
        "==",
        -8.956766469451383
      ],
      [
        "Ġprovide",
        -8.958525447594068
      ],
      [
        "time",
        -8.958877887620318
      ],
      [
        "))",
        -8.960197445509566
      ],
      [
        "Ġhealth",
        -8.960390774679928
      ],
      [
        "Ġmean",
        -8.96085927902238
      ],
      [
        "ive",
        -8.962020035686525
      ],
      [
        "ĠâĢĶ",
        -8.96230551026694
      ],
      [
        "ant",
        -8.963043520000905
      ],
      [
        "Ġgot",
        -8.963320471904881
      ],
      [
        "Ġfree",
        -8.968460538360057
      ],
      [
        "aligned",
        -8.968979879609465
      ],
      [
        "Fig",
        -8.969262296507937
      ],
      [
        "ĠĠĠĠĠĠĠĠ",
        -8.970085548057138
      ],
      [
        "Ġcurrent",
        -8.97127221543701
      ],
      [
        "Ġless",
        -8.972669979442818
      ],
      [
        "64",
        -8.976023171414841
      ],
      [
        "Ġgovernment",
        -8.976312023668813
      ],
      [
        "Ġlet",
        -8.979036008634418
      ],
      [
        "Ġlot",
        -8.986548435656825
      ],
      [
        "And",
        -8.987787744028331
      ],
      [
        "Ġsingle",
        -8.988018175813641
      ],
      [
        "Ġfour",
        -8.988402102700764
      ],
      [
        "Ġhand",
        -8.989283586532187
      ],
      [
        "Ġsimilar",
        -8.990430001079277
      ],
      [
        "Ġdays",
        -8.99137716759232
      ],
      [
        "Ġfield",
        -8.991558711307617
      ],
      [
        "Ġalways",
        -8.992996413358354
      ],
      [
        "Category",
        -8.995034190237323
      ],
      [
        "Ġelse",
        -8.995406325489416
      ],
      [
        "Ġagain",
        -8.9967341273087
      ],
      [
        ")\\",
        -8.998860004330517
      ],
      [
        "string",
        -8.999441680099272
      ],
      [
        "24",
        -9.00145503413608
      ],
      [
        "ĠShe",
        -9.003798261074143
      ],
      [
        "He",
        -9.003818831011262
      ],
      [
        "Ġmain",
        -9.006692859254693
      ],
      [
        "\"}",
        -9.007473667134109
      ],
      [
        "05",
        -9.010850699832186
      ],
      [
        "21",
        -9.011198066745777
      ],
      [
        "80",
        -9.011524540691894
      ],
      [
        "Ġquestion",
        -9.013029567734137
      ],
      [
        "Ġ15",
        -9.013052359706144
      ],
      [
        "Ġuntil",
        -9.015152750272689
      ],
      [
        "Ġteam",
        -9.015214077463863
      ],
      [
        "ĠCourt",
        -9.018995017807086
      ],
      [
        "Ġavailable",
        -9.019805238508049
      ],
      [
        "Ġlocal",
        -9.023083066919797
      ],
      [
        "Ġcare",
        -9.02424041504957
      ],
      [
        "Ġput",
        -9.024404601509387
      ],
      [
        "Ġreal",
        -9.024810719689901
      ],
      [
        "Ġlight",
        -9.02531813531477
      ],
      [
        "Ġknown",
        -9.025785468244475
      ],
      [
        "ĠUnited",
        -9.026780049044442
      ],
      [
        "Ġcalled",
        -9.028074238057567
      ],
      [
        "est",
        -9.029727929294108
      ],
      [
        "Ġfamily",
        -9.030026825535964
      ],
      [
        "lambda",
        -9.030500372764608
      ],
      [
        "Ġeither",
        -9.03087324775934
      ],
      [
        "Ġcode",
        -9.032593012717337
      ],
      [
        "}$$",
        -9.033835628591701
      ],
      [
        "by",
        -9.037584009093827
      ],
      [
        "ĠState",
        -9.039132609709213
      ],
      [
        "ĠThese",
        -9.039193016997634
      ],
      [
        "---",
        -9.0403459077992
      ],
      [
        "beta",
        -9.04279749541378
      ],
      [
        "Ġaction",
        -9.045298068307488
      ],
      [
        "line",
        -9.04532736437648
      ],
      [
        "class",
        -9.045591279044812
      ],
      [
        "Ġseveral",
        -9.048755816647057
      ],
      [
        "ness",
        -9.050685213107776
      ],
      [
        "pone",
        -9.051117759503354
      ],
      [
        "Figure",
        -9.051291683003509
      ],
      [
        "bar",
        -9.052736094829626
      ],
      [
        "log",
        -9.053070984413418
      ],
      [
        "Ġspace",
        -9.055046062748978
      ],
      [
        "Ġchildren",
        -9.056447906801418
      ],
      [
        "Ġco",
        -9.056561685156895
      ],
      [
        "Ġmeans",
        -9.056747848144214
      ],
      [
        "Ġbelieve",
        -9.058627227694913
      ],
      [
        "50",
        -9.061868064412433
      ],
      [
        "Ġtotal",
        -9.062365660800127
      ],
      [
        "return",
        -9.063180775960014
      ],
      [
        "Ġhigher",
        -9.063235012925686
      ],
      [
        "Ġopen",
        -9.064282276206004
      ],
      [
        "Ġsignificant",
        -9.066687590127225
      ],
      [
        "ĠĠĠĠĠĠĠĠĠĠĠĠĠĠ",
        -9.07074133197286
      ],
      [
        "Ġstudies",
        -9.07199745447502
      ],
      [
        "Ġrate",
        -9.075377063173415
      ],
      [
        "Ġ11",
        -9.076826154338317
      ],
      [
        "Ġincrease",
        -9.077824892302093
      ],
      [
        "less",
        -9.077867622045298
      ],
      [
        "ar",
        -9.079581828807099
      ],
      [
        "Ġwhy",
        -9.086941591121697
      ],
      [
        "Ġ30",
        -9.086955091206722
      ],
      [
        "epackage",
        -9.087375807005245
      ],
      [
        "ment",
        -9.088839034527007
      ],
      [
        "Ġside",
        -9.089455985429412
      ],
      [
        "www",
        -9.08967944498514
      ],
      [
        "22",
        -9.090912127561223
      ],
      [
        "Ġstart",
        -9.09095194921162
      ],
      [
        "Ġinterest",
        -9.091102154572692
      ],
      [
        "Ġrisk",
        -9.094234234264555
      ],
      [
        "];",
        -9.094630010277886
      ],
      [
        "Ġrun",
        -9.095373972935795
      ],
      [
        "ID",
        -9.09551332476751
      ],
      [
        "Ġfull",
        -9.095953676662594
      ],
      [
        "Ġissue",
        -9.098733432041355
      ],
      [
        "Ġrole",
        -9.100317016905748
      ],
      [
        "Ġvalues",
        -9.103801981848886
      ],
      [
        "Ġenergy",
        -9.103867746441857
      ],
      [
        "ĠWhat",
        -9.103996809307546
      ],
      [
        "among",
        -9.107252071602367
      ],
      [
        "ĠĠĠĠĠĠĠĠĠĠĠ",
        -9.108227694281544
      ],
      [
        "Ġerror",
        -9.10973288324557
      ],
      [
        "Ġgeneral",
        -9.11024856768533
      ],
      [
        "But",
        -9.110744342156044
      ],
      [
        "Ġperson",
        -9.11123103679102
      ],
      [
        "Ġleft",
        -9.111487771339508
      ],
      [
        "Ġfinal",
        -9.113197649292681
      ],
      [
        "Ġsure",
        -9.114779676476205
      ],
      [
        "Table",
        -9.114894267446045
      ],
      [
        "=>",
        -9.116041573318387
      ],
      [
        "Ġalready",
        -9.11609112797736
      ],
      [
        "ability",
        -9.1166712974567
      ],
      [
        "Ġcases",
        -9.116801313562672
      ],
      [
        "Ġcourse",
        -9.118586147246308
      ],
      [
        "ĠĠĠĠĠĠĠĠĠ",
        -9.119125113990965
      ],
      [
        "33",
        -9.122613101988607
      ],
      [
        "Ġshort",
        -9.125174372433685
      ],
      [
        "Ġbody",
        -9.126149137323802
      ],
      [
        "sec",
        -9.126654467982014
      ],
      [
        "No",
        -9.12737094945336
      ],
      [
        "ĠStates",
        -9.128647190369666
      ],
      [
        "sqrt",
        -9.129994522674473
      ],
      [
        "eq",
        -9.130588258448116
      ],
      [
        "Ġreported",
        -9.13165458906976
      ],
      [
        "Ġfar",
        -9.133659613865417
      ],
      [
        "Ġassociated",
        -9.139088131375388
      ],
      [
        "uppose",
        -9.140325791066156
      ],
      [
        "Ġkeep",
        -9.141805066056337
      ],
      [
        "23",
        -9.14230811010378
      ],
      [
        "]\\]",
        -9.1462054449077
      ],
      [
        "Ġsub",
        -9.146259500486666
      ],
      [
        "><",
        -9.148330976809138
      ],
      [
        "ĠThat",
        -9.148377315402584
      ],
      [
        "Ġwomen",
        -9.150683159788219
      ],
      [
        "mathr",
        -9.151455380063982
      ],
      [
        "Ġlove",
        -9.151811101782695
      ],
      [
        "phi",
        -9.15219356679856
      ],
      [
        "Ġlevels",
        -9.154415168796556
      ],
      [
        "Ġamount",
        -9.155352665182852
      ],
      [
        "ĠĠĠĠĠĠĠĠĠĠ",
        -9.15708411473636
      ],
      [
        "un",
        -9.158646108321493
      ],
      [
        "didn",
        -9.159230311426514
      ],
      [
        "html",
        -9.160539483324513
      ],
      [
        "Ġrequired",
        -9.160566424863823
      ],
      [
        "Ġplay",
        -9.160959257823622
      ],
      [
        "Ġcall",
        -9.162202440557468
      ],
      [
        "Ġanti",
        -9.16232451473078
      ],
      [
        "Ġ${\\",
        -9.163038455520105
      ],
      [
        "ĠAll",
        -9.165386838039055
      ],
      [
        "Ġaway",
        -9.166813748462241
      ],
      [
        "Ġcertain",
        -9.167971921493697
      ],
      [
        "ĠĠĠĠĠĠĠĠĠĠĠĠ",
        -9.169034767194363
      ],
      [
        "Ġoften",
        -9.169646910987112
      ],
      [
        "however",
        -9.169728618839237
      ],
      [
        "}_{",
        -9.170380233044638
      ],
      [
        "Ġthing",
        -9.172181225030489
      ],
      [
        "Ġpotential",
        -9.173281929431827
      ],
      [
        "Ġmatter",
        -9.174598465381946
      ],
      [
        "Ġdone",
        -9.174644272784949
      ],
      [
        "Ċĉĉĉ",
        -9.176380763420873
      ],
      [
        "ian",
        -9.177063703930745
      ],
      [
        "Ġalong",
        -9.179145968519633
      ],
      [
        "value",
        -9.184806368725443
      ],
      [
        "Ġdevelopment",
        -9.18512369761344
      ],
      [
        "Ġreason",
        -9.185254122044613
      ],
      [
        "Ġdecision",
        -9.186206963253554
      ],
      [
        "Ġactivity",
        -9.186805834481104
      ],
      [
        "sigma",
        -9.188037202792135
      ],
      [
        "Ġsays",
        -9.189646152959295
      ],
      [
        "Ġlower",
        -9.189832604802659
      ],
      [
        "Ġposition",
        -9.189854615661755
      ],
      [
        "('",
        -9.192571069770873
      ],
      [
        "Ġterms",
        -9.193874647022897
      ],
      [
        "code",
        -9.195176102921263
      ],
      [
        "Ġsurface",
        -9.195340665361304
      ],
      [
        "Ġspecific",
        -9.195457686218422
      ],
      [
        "Ġlater",
        -9.195607623114274
      ],
      [
        "hat",
        -9.197751431883548
      ],
      [
        "Ġenough",
        -9.20238330485485
      ],
      [
        "45",
        -9.203274817191273
      ],
      [
        "String",
        -9.203548460528284
      ],
      [
        "Ġtold",
        -9.205508009224436
      ],
      [
        "upon",
        -9.206269515001408
      ],
      [
        "Ġperiod",
        -9.207069843094311
      ],
      [
        "ĠWhen",
        -9.207454094383825
      ],
      [
        "):",
        -9.208063585650693
      ],
      [
        "Ġman",
        -9.208437619688429
      ],
      [
        "Ġclose",
        -9.208805646297407
      ],
      [
        "partial",
        -9.208892988147118
      ],
      [
        "compared",
        -9.20946365068404
      ],
      [
        "ul",
        -9.209889081930822
      ],
      [
        "Ġthough",
        -9.21004163175026
      ],
      [
        "ĊĊĠĠĠĠĠĠĠ",
        -9.210065298566919
      ],
      [
        "ally",
        -9.21038080260946
      ],
      [
        "Ġfeel",
        -9.210962413144749
      ],
      [
        "Ġhard",
        -9.211230932521222
      ],
      [
        "according",
        -9.211537560670372
      ],
      [
        "Ġ18",
        -9.212686043033427
      ],
      [
        "}^{",
        -9.212748484597777
      ],
      [
        "There",
        -9.214722204387408
      ],
      [
        "Ġhead",
        -9.215021085209646
      ],
      [
        "Ġresearch",
        -9.220167354035123
      ],
      [
        "ĠĠĠĠĠĠĠĠĠĠĠĠĠ",
        -9.220946908313826
      ],
      [
        "Ġmillion",
        -9.220947188850586
      ],
      [
        "Ġlist",
        -9.221915808984447
      ],
      [
        "^{\\",
        -9.222621389878144
      ],
      [
        "Ġread",
        -9.225097107536984
      ],
      [
        "27",
        -9.225870359404066
      ],
      [
        "100",
        -9.226268008868901
      ],
      [
        "epsilon",
        -9.228977317401787
      ],
      [
        "Ġprovided",
        -9.229877878278664
      ],
      [
        "min",
        -9.230073722263134
      ],
      [
        "Ġrange",
        -9.231982502519845
      ],
      [
        "Ġweek",
        -9.234396347388975
      ],
      [
        "So",
        -9.235823265697068
      ],
      [
        "test",
        -9.23641239928609
      ],
      [
        "Ġsuggest",
        -9.236601527066064
      ],
      [
        "âĢ¦",
        -9.237042810240172
      ],
      [
        "Ġ100",
        -9.237482900708184
      ],
      [
        "Ġworking",
        -9.237786674993032
      ],
      [
        "Ġgroups",
        -9.238343296120474
      ],
      [
        "Ġversion",
        -9.23942967177849
      ],
      [
        "Ġmaking",
        -9.240955562147871
      ],
      [
        "https",
        -9.243525175000109
      ],
      [
        "Ġkey",
        -9.245124193579505
      ],
      [
        "defendant",
        -9.246472468046893
      ],
      [
        "Ġconditions",
        -9.249432908620305
      ],
      [
        "Ġpositive",
        -9.249680931786246
      ],
      [
        "Ġkind",
        -9.250435206490932
      ],
      [
        "Ġaddition",
        -9.253724008302848
      ],
      [
        "Ġbecome",
        -9.254176405582786
      ],
      [
        "Ġprogram",
        -9.25429001389521
      ],
      [
        "Ġ([",
        -9.259254144425737
      ],
      [
        "></",
        -9.259677686027523
      ],
      [
        "Ġ14",
        -9.260918876869246
      ],
      [
        "}_",
        -9.261116173370077
      ],
      [
        "Ġ16",
        -9.263923564036979
      ],
      [
        "Ġclear",
        -9.26487765715514
      ],
      [
        "34",
        -9.265936230176749
      ],
      [
        "95",
        -9.266197817878735
      ],
      [
        "Ġschool",
        -9.26655962664053
      ],
      [
        "Ġseen",
        -9.267738646427198
      ],
      [
        "Ġmoney",
        -9.26801279287296
      ],
      [
        "Ġseason",
        -9.268057449284864
      ],
      [
        "gamma",
        -9.26830196433703
      ],
      [
        "Ġbusiness",
        -9.26838421746694
      ],
      [
        "Ġdisease",
        -9.268467915872446
      ],
      [
        "%)",
        -9.268510738837549
      ],
      [
        "Ġprotein",
        -9.2689701571653
      ],
      [
        "Ġcontent",
        -9.269082757787325
      ],
      [
        "Ġparticular",
        -9.269748803837986
      ],
      [
        "bib",
        -9.271310924371736
      ],
      [
        "Ġsection",
        -9.271711187361992
      ],
      [
        "Ġservice",
        -9.272531919871794
      ],
      [
        "size",
        -9.275603949704756
      ],
      [
        "Ġtogether",
        -9.276242524648712
      ],
      [
        "]).",
        -9.276902791297035
      ],
      [
        "Ġimage",
        -9.278689090191348
      ],
      [
        "Ġincreased",
        -9.278852368774805
      ],
      [
        "Data",
        -9.279934665521044
      ],
      [
        "key",
        -9.28151714867117
      ],
      [
        "Ġeffects",
        -9.2832041279907
      ],
      [
        "Ĥ",
        -9.284907294232005
      ],
      [
        "Ġobserved",
        -9.286375291267882
      ],
      [
        "Ġcannot",
        -9.287178097324496
      ],
      [
        "doesn",
        -9.287762572462631
      ],
      [
        "ĠOn",
        -9.289451909001905
      ],
      [
        "Ġthought",
        -9.289595268812295
      ],
      [
        "Ġview",
        -9.289780181329476
      ],
      [
        "delta",
        -9.29000807101745
      ],
      [
        "Ġchanges",
        -9.292652148191824
      ],
      [
        "40",
        -9.293390140263483
      ],
      [
        "Ġsource",
        -9.293972997720893
      ],
      [
        "ĠâĢĺ",
        -9.295870829856659
      ],
      [
        "Ġcountry",
        -9.295999236262032
      ],
      [
        "described",
        -9.296712674037941
      ],
      [
        "Ġmultiple",
        -9.297652025361124
      ],
      [
        "Ġapproach",
        -9.299107022795969
      ],
      [
        "Ġtry",
        -9.299646856542822
      ],
      [
        "]{}",
        -9.299780897962576
      ],
      [
        "be",
        -9.300206602269864
      ],
      [
        "ĠUniversity",
        -9.300503955326471
      ],
      [
        "Ġfactors",
        -9.30160172324865
      ],
      [
        "([@",
        -9.302238585515092
      ],
      [
        "Ġthird",
        -9.302612003616051
      ],
      [
        "Ġstructure",
        -9.302667651782963
      ],
      [
        "28",
        -9.30319917541822
      ],
      [
        "\"}).",
        -9.303438490977642
      ],
      [
        "001",
        -9.303621450899549
      ],
      [
        "ĠAt",
        -9.30438604102114
      ],
      [
        "Â°",
        -9.30497571231091
      ],
      [
        "Ġ13",
        -9.306601750529182
      ],
      [
        "Ġearly",
        -9.307805521419924
      ],
      [
        "likely",
        -9.308560380185593
      ],
      [
        "Ġturn",
        -9.308893885322945
      ],
      [
        "ĠSee",
        -9.309574974040672
      ],
      [
        "Ġconst",
        -9.312433310018514
      ],
      [
        "went",
        -9.315563690428593
      ],
      [
        "include",
        -9.317299114390384
      ],
      [
        "Ġbase",
        -9.31797380375572
      ],
      [
        "Ġproperty",
        -9.318409444979917
      ],
      [
        "\");",
        -9.318697490292017
      ],
      [
        "Ġmonths",
        -9.318894338156182
      ],
      [
        "26",
        -9.319766870812195
      ],
      [
        "Ġtimes",
        -9.322014997355547
      ],
      [
        "Ġprivate",
        -9.322275344784146
      ],
      [
        "str",
        -9.32272980610605
      ],
      [
        "across",
        -9.324095494718348
      ],
      [
        "Ġinclude",
        -9.32451201394707
      ],
      [
        "rather",
        -9.326289127736564
      ],
      [
        "rho",
        -9.327613573613888
      ],
      [
        "Ġvoid",
        -9.327979801909882
      ],
      [
        "Ġreport",
        -9.328435778911155
      ],
      [
        "Ġdoing",
        -9.329587191358256
      ],
      [
        "ĠCo",
        -9.330115648953571
      ],
      [
        "Ġarea",
        -9.330445215991782
      ],
      [
        "ch",
        -9.331730038519149
      ],
      [
        "Ġactually",
        -9.332287449648435
      ],
      [
        "Ġcreate",
        -9.332444091117322
      ],
      [
        "Ġold",
        -9.333289530466438
      ],
      [
        "Ġobject",
        -9.33524831398182
      ],
      [
        "Ġcompany",
        -9.33670100015961
      ],
      [
        "ance",
        -9.338514262415437
      ],
      [
        "Ãĳ",
        -9.33895867050747
      ],
      [
        "Ġaccess",
        -9.339098260340899
      ],
      [
        "Ġcancer",
        -9.348184572497125
      ],
      [
        "Ġtell",
        -9.349418307774641
      ],
      [
        "Ġpast",
        -9.352323447559465
      ],
      [
        "Ġexperience",
        -9.35239895743226
      ],
      [
        "Ġindividual",
        -9.353840368993042
      ],
      [
        "On",
        -9.354166954825676
      ],
      [
        "more",
        -9.35439441797288
      ],
      [
        "took",
        -9.359466100882871
      ],
      [
        "Ġdeal",
        -9.36160327577436
      ],
      [
        "ED",
        -9.363276317857327
      ],
      [
        "Ġonce",
        -9.36475434677247
      ],
      [
        "Ġclaim",
        -9.365682616756258
      ],
      [
        "times",
        -9.366862794289187
      ],
      [
        "Ġ24",
        -9.369502786828257
      ],
      [
        "Ġperformed",
        -9.369787276857062
      ],
      [
        "self",
        -9.36986002415028
      ],
      [
        "Ġcame",
        -9.37002667273775
      ],
      [
        "Ġstandard",
        -9.371897074808494
      ],
      [
        "Ġconsider",
        -9.373530570116312
      ],
      [
        "Ġsocial",
        -9.373766956460871
      ],
      [
        "Ġfive",
        -9.375617528492304
      ],
      [
        "Ġbelow",
        -9.375853512608229
      ],
      [
        "Ġtop",
        -9.376866809413157
      ],
      [
        "new",
        -9.377056800835916
      ],
      [
        "ell",
        -9.377956904406327
      ],
      [
        "Ġfood",
        -9.378680996978659
      ],
      [
        "38",
        -9.379006437353697
      ],
      [
        "Ġdesign",
        -9.37904781174822
      ],
      [
        "file",
        -9.37961744513934
      ],
      [
        "Ġuser",
        -9.379742551582114
      ],
      [
        "ĠAmerican",
        -9.38042072721305
      ],
      [
        "Ġreview",
        -9.384836504181829
      ],
      [
        "}^",
        -9.386999717823175
      ],
      [
        "Ġpaper",
        -9.387430225177837
      ],
      [
        "year",
        -9.387865559182398
      ],
      [
        "Ġfactor",
        -9.388048958241841
      ],
      [
        "Ġfuture",
        -9.388763107913581
      ],
      [
        "ous",
        -9.389898290350988
      ],
      [
        "theta",
        -9.389993383212595
      ],
      [
        "Ġpoints",
        -9.391725899956082
      ],
      [
        "one",
        -9.391950722421543
      ],
      [
        "Ġsite",
        -9.393031291983387
      ],
      [
        "ĠAn",
        -9.393339980818626
      ],
      [
        "tilde",
        -9.395486764592864
      ],
      [
        "obtained",
        -9.395904750194132
      ],
      [
        "Ġwhole",
        -9.397714791929104
      ],
      [
        "Ġapplication",
        -9.398228974814415
      ],
      [
        "Ġvarious",
        -9.398693612292345
      ],
      [
        "Ġ50",
        -9.399912891506196
      ],
      [
        "based",
        -9.401740893964892
      ],
      [
        "29",
        -9.40188579070818
      ],
      [
        "list",
        -9.404762370488164
      ],
      [
        "ĠGod",
        -9.405208414654288
      ],
      [
        "List",
        -9.4054481051535
      ],
      [
        "Ġblood",
        -9.406277468494059
      ],
      [
        "all",
        -9.406556938905892
      ],
      [
        "Ġsignal",
        -9.40729034020968
      ],
      [
        "Ġfalse",
        -9.408087662376863
      ],
      [
        "Ġidea",
        -9.409047448235789
      ],
      [
        "While",
        -9.41041728033479
      ],
      [
        "09",
        -9.410889875650659
      ],
      [
        "Ġshows",
        -9.411556717930882
      ],
      [
        "Ġadd",
        -9.411939452391776
      ],
      [
        "showed",
        -9.413422048321817
      ],
      [
        "When",
        -9.413911516731918
      ],
      [
        "Ġmove",
        -9.41392550379016
      ],
      [
        "Ġconsidered",
        -9.414026423353334
      ],
      [
        "35",
        -9.415299381240484
      ],
      [
        "02",
        -9.415359723357575
      ],
      [
        "Ġ$(",
        -9.417444307084992
      ],
      [
        "Ġpay",
        -9.418658409077425
      ],
      [
        "Ġtaken",
        -9.419464698629643
      ],
      [
        "Ġadded",
        -9.422031468079638
      ],
      [
        "ĠMr",
        -9.422628089953616
      ],
      [
        "tau",
        -9.42336625047617
      ],
      [
        "Ġyet",
        -9.423432689609974
      ],
      [
        "led",
        -9.42360252693016
      ],
      [
        "39",
        -9.42730739575983
      ],
      [
        "Ġsolution",
        -9.428465607691441
      ],
      [
        "^{-",
        -9.431355098295022
      ],
      [
        "held",
        -9.433285754293841
      ],
      [
        "see",
        -9.433428815511098
      ],
      [
        "08",
        -9.433683672787035
      ],
      [
        "Ġlead",
        -9.43742362705163
      ],
      [
        "31",
        -9.438266584129757
      ],
      [
        "Ġ(*",
        -9.439113161515577
      ],
      [
        "How",
        -9.43987132156638
      ],
      [
        "um",
        -9.440529306957494
      ],
      [
        "omega",
        -9.440840303502442
      ],
      [
        "Ġoriginal",
        -9.444215918236981
      ],
      [
        "Ġadditional",
        -9.44423167118771
      ],
      [
        "ful",
        -9.444368344426021
      ],
      [
        "Ġterm",
        -9.445864229031542
      ],
      [
        "Ġhouse",
        -9.446597601953519
      ],
      [
        "Ġproject",
        -9.44718369460359
      ],
      [
        "Ġdefined",
        -9.447832260021505
      ],
      [
        "Ġsimple",
        -9.44823623620976
      ],
      [
        "ism",
        -9.450269482420492
      ],
      [
        "side",
        -9.450565443211866
      ],
      [
        "Ġcommunity",
        -9.450817748258206
      ],
      [
        "Ġsystems",
        -9.450991361119705
      ],
      [
        "_\\",
        -9.451941671381963
      ],
      [
        "ĠSt",
        -9.452221953629117
      ],
      [
        "Ġmajor",
        -9.453242159049925
      ],
      [
        "That",
        -9.453686794683161
      ],
      [
        "Ġyoung",
        -9.454531247960505
      ],
      [
        "Ġfollow",
        -9.454752037767266
      ],
      [
        "Ġchild",
        -9.45808872185598
      ],
      [
        "Ġmen",
        -9.460184156411472
      ],
      [
        "Ġminutes",
        -9.460302599047168
      ],
      [
        "leq",
        -9.461057427182054
      ],
      [
        "Ġroom",
        -9.461168975188533
      ],
      [
        "Ġwon",
        -9.461482084197675
      ],
      [
        "Ġtemperature",
        -9.462397630086514
      ],
      [
        "Ġever",
        -9.462420891870742
      ],
      [
        "Ġperformance",
        -9.466669780684654
      ],
      [
        "Ġbit",
        -9.468428170088545
      ],
      [
        "ary",
        -9.46919119531793
      ],
      [
        "Ġface",
        -9.469364041744644
      ],
      [
        "add",
        -9.469364490345685
      ],
      [
        "41",
        -9.471672972737949
      ],
      [
        "44",
        -9.472656175257754
      ],
      [
        "Ġbig",
        -9.473132786724545
      ],
      [
        "Ġdevice",
        -9.475436307971878
      ],
      [
        "Ġincluded",
        -9.476396234145728
      ],
      [
        "Value",
        -9.476535713210474
      ],
      [
        "define",
        -9.47959499230884
      ],
      [
        "Ġregion",
        -9.479736627436258
      ],
      [
        "Ġfilm",
        -9.482223493236026
      ],
      [
        "Ġmakes",
        -9.482316259547357
      ],
      [
        "Ġproduct",
        -9.483966751554762
      ],
      [
        "Ġrespectively",
        -9.484528815210624
      ],
      [
        "trying",
        -9.484590980870554
      ],
      [
        "03",
        -9.485286965013254
      ],
      [
        "75",
        -9.485528337786747
      ],
      [
        "ĥ",
        -9.485630059196692
      ],
      [
        "čĊĠĠĠ",
        -9.485702627682654
      ],
      [
        "Ġcost",
        -9.485758277106997
      ],
      [
        "04",
        -9.489168714691905
      ],
      [
        "Ġtoday",
        -9.489657878871029
      ],
      [
        "Ġrelated",
        -9.490646217186724
      ],
      [
        "cdot",
        -9.490715105289894
      ],
      [
        "Ġentire",
        -9.490850145498362
      ],
      [
        "taking",
        -9.491314791214347
      ],
      [
        "href",
        -9.491334190564803
      ],
      [
        "Ġnull",
        -9.493819983315843
      ],
      [
        "Ġ25",
        -9.493928227671505
      ],
      [
        "Ġaccount",
        -9.494531091553657
      ],
      [
        "Ġcar",
        -9.494946129111701
      ],
      [
        "Ġmotion",
        -9.495047119061422
      ],
      [
        "Ġlive",
        -9.495280983734654
      ],
      [
        "Ġreceived",
        -9.495433908812995
      ],
      [
        "Ġmaterial",
        -9.496010156735064
      ],
      [
        "Since",
        -9.496075089689317
      ],
      [
        "Ġdeath",
        -9.497323581769969
      ],
      [
        "Ġpatient",
        -9.497655381357536
      ],
      [
        "Ġanything",
        -9.497705176242855
      ],
      [
        "Ãĥ",
        -9.498068216263121
      ],
      [
        "{{\\",
        -9.498885834330572
      ],
      [
        "}{\\",
        -9.498920068866273
      ],
      [
        "asked",
        -9.49952311269299
      ],
      [
        "Ġpro",
        -9.500325058939342
      ],
      [
        "Ġunderstand",
        -9.501204326561677
      ],
      [
        "thus",
        -9.501747893934205
      ],
      [
        "Ġmembers",
        -9.502474289207306
      ],
      [
        "Ġpercent",
        -9.502947745607369
      ],
      [
        "Thus",
        -9.50537364582521
      ],
      [
        "Ġaverage",
        -9.506373179977999
      ],
      [
        "ĠOne",
        -9.506455625513574
      ],
      [
        "refore",
        -9.507085586750517
      ],
      [
        "Ġbring",
        -9.507275034546469
      ],
      [
        "document",
        -9.50741564841911
      ],
      [
        "Ġhalf",
        -9.508766799876724
      ],
      [
        "Ġothers",
        -9.50891873068754
      ],
      [
        "significantly",
        -9.510562991837217
      ],
      [
        "Ġcity",
        -9.510669084474344
      ],
      [
        "wide",
        -9.511869934509509
      ],
      [
        "Ġdistribution",
        -9.512508559702171
      ],
      [
        "Ġgrowth",
        -9.512901857435356
      ],
      [
        "Ġdifference",
        -9.51421359293257
      ],
      [
        "Ġagree",
        -9.515435641177392
      ],
      [
        "Ġmind",
        -9.517307198414798
      ],
      [
        "array",
        -9.517864207232687
      ],
      [
        "__",
        -9.519012123931853
      ],
      [
        "Ġtarget",
        -9.519693246572556
      ],
      [
        "Ġnetwork",
        -9.520894152918189
      ],
      [
        "Ġphase",
        -9.522004287055465
      ],
      [
        "Ġgetting",
        -9.522745817031943
      ],
      [
        "ĠAfter",
        -9.525827960225115
      ],
      [
        "Ġtalk",
        -9.525992678049825
      ],
      [
        "Ġhistory",
        -9.527071601950247
      ],
      [
        "Ġstates",
        -9.527726875610488
      ],
      [
        "Ġ19",
        -9.528984627539213
      ],
      [
        "55",
        -9.529018353571917
      ],
      [
        "Ġsubject",
        -9.532866155607849
      ],
      [
        "ĠUS",
        -9.532962094396385
      ],
      [
        "net",
        -9.53644868088181
      ],
      [
        "Ġdis",
        -9.537837535908077
      ],
      [
        "ized",
        -9.537843551472934
      ],
      [
        "ĠMore",
        -9.537866846891443
      ],
      [
        "Ġvia",
        -9.538208101948324
      ],
      [
        "param",
        -9.539441148417438
      ],
      [
        "Ġnight",
        -9.539478878334785
      ],
      [
        "Object",
        -9.540887707864377
      ],
      [
        "Ġacid",
        -9.541030974047219
      ],
      [
        "Ġnormal",
        -9.541067936054537
      ],
      [
        "43",
        -9.542192476370438
      ],
      [
        "chi",
        -9.54267054299288
      ],
      [
        "36",
        -9.543810196111346
      ],
      [
        "Ġseries",
        -9.543874188218464
      ],
      [
        "Ġstring",
        -9.544440930232026
      ],
      [
        "infty",
        -9.546471128734334
      ],
      [
        "Ġinvolved",
        -9.547169406650237
      ],
      [
        "Ġevent",
        -9.54717594536609
      ],
      [
        "/*",
        -9.547547927834543
      ],
      [
        "99",
        -9.547734846017248
      ],
      [
        "Ġrecord",
        -9.548397677468056
      ],
      [
        "ĠRe",
        -9.548765846526239
      ],
      [
        "Ġpopulation",
        -9.54916668522248
      ],
      [
        "Ġlooking",
        -9.549361270334497
      ],
      [
        "field",
        -9.549384277524137
      ],
      [
        "old",
        -9.549842655226943
      ],
      [
        "Ġmass",
        -9.550349166304935
      ],
      [
        "not",
        -9.551518478481148
      ],
      [
        "Ġtax",
        -9.55196894113373
      ],
      [
        "Ġalmost",
        -9.5532601298685
      ],
      [
        "Ġprevious",
        -9.553498661103205
      ],
      [
        "Ġmicro",
        -9.554065661484618
      ],
      [
        "All",
        -9.55577061277706
      ],
      [
        "Ġanswer",
        -9.55598698532126
      ],
      [
        "Ġgene",
        -9.55720142141908
      ],
      [
        "Ġstrong",
        -9.557272427435544
      ],
      [
        "Ġnothing",
        -9.557537533324378
      ],
      [
        "Ġcondition",
        -9.558437923696632
      ],
      [
        "Ġparty",
        -9.560291070359442
      ],
      [
        "49",
        -9.56089083525015
      ],
      [
        "Ġpolice",
        -9.561299354564044
      ],
      [
        "Ġclinical",
        -9.562553913737075
      ],
      [
        "script",
        -9.56349579601531
      ],
      [
        "Ġair",
        -9.563500196602396
      ],
      [
        "Get",
        -9.56362316072679
      ],
      [
        "Ġcheck",
        -9.566065856440781
      ],
      [
        "================",
        -9.5684673537573
      ],
      [
        "way",
        -9.568523631221401
      ],
      [
        "Ġhours",
        -9.569029466161819
      ],
      [
        "Ġsix",
        -9.569192339458843
      ],
      [
        "Ġmarket",
        -9.570270893685219
      ],
      [
        "Ġinstead",
        -9.570676843827485
      ],
      [
        "Ġneeded",
        -9.571386645091863
      ],
      [
        "Ġaddress",
        -9.571837396139973
      ],
      [
        "Ġweight",
        -9.571901916490097
      ],
      [
        "Ġrespect",
        -9.57198517800168
      ],
      [
        "Ġexpected",
        -9.57252828469021
      ],
      [
        "Ġcomplex",
        -9.574068503505798
      ],
      [
        "Ġbuilding",
        -9.574753467782102
      ],
      [
        "Ġ17",
        -9.575059163921628
      ],
      [
        "ĠThen",
        -9.575292192141108
      ],
      [
        "![",
        -9.575975405279957
      ],
      [
        "Ġlanguage",
        -9.577073389352412
      ],
      [
        "Ġrecent",
        -9.577088684054253
      ],
      [
        "Ġproblems",
        -9.579885895514247
      ],
      [
        "Ġprior",
        -9.581597320419284
      ],
      [
        "ably",
        -9.582481876461204
      ],
      [
        "Ġdetermine",
        -9.583252812562451
      ],
      [
        "treated",
        -9.583581893492635
      ],
      [
        "}}\\",
        -9.583820389654525
      ],
      [
        "Ġmethods",
        -9.585131581974382
      ],
      [
        "Ġdamage",
        -9.585896885453648
      ],
      [
        "Ġstep",
        -9.586343007952095
      ],
      [
        "Ġjob",
        -9.586450817551176
      ],
      [
        "Ġproduction",
        -9.586644805262374
      ],
      [
        "ĠYork",
        -9.586708410907418
      ],
      [
        "public",
        -9.586912098221344
      ],
      [
        "ĠÂ§",
        -9.588184973627895
      ],
      [
        "})",
        -9.58833328110796
      ],
      [
        "Ġissues",
        -9.588493201639931
      ],
      [
        "View",
        -9.588973285955488
      ],
      [
        "someone",
        -9.590596834511508
      ],
      [
        "Ġservices",
        -9.591664295557463
      ],
      [
        "53",
        -9.592504754430937
      ],
      [
        "Ġneeds",
        -9.593699178174449
      ],
      [
        "Delta",
        -9.594145977515934
      ],
      [
        "width",
        -9.594968733100378
      ],
      [
        "Ġstatement",
        -9.597298463693374
      ],
      [
        "eta",
        -9.597429735072405
      ],
      [
        "land",
        -9.597500449454973
      ],
      [
        "Ġbreak",
        -9.597698946314994
      ],
      [
        "like",
        -9.598677944446306
      ],
      [
        "With",
        -9.598862569794763
      ],
      [
        "52",
        -9.600582991391885
      ],
      [
        "Ġblack",
        -9.601129473635845
      ],
      [
        "Ġhope",
        -9.601323116449128
      ],
      [
        "Ġsequence",
        -9.602041517174893
      ],
      [
        "Ġplan",
        -9.603835176611316
      ],
      [
        "Ġpolicy",
        -9.604125126901888
      ],
      [
        "Ġloss",
        -9.60438925395012
      ],
      [
        "probably",
        -9.60519588932203
      ],
      [
        "ate",
        -9.606717631630652
      ],
      [
        "lib",
        -9.606755797520677
      ],
      [
        "Ġpressure",
        -9.607021916034581
      ],
      [
        "Ġstudents",
        -9.607140378123184
      ],
      [
        "60",
        -9.608007711368764
      ],
      [
        "void",
        -9.608322274241257
      ],
      [
        "Ġremain",
        -9.612944603555764
      ],
      [
        "Ġstory",
        -9.61311525244205
      ],
      [
        "Ġstarted",
        -9.614747308232133
      ],
      [
        "Ġquality",
        -9.61649375357476
      ],
      [
        "Ġsense",
        -9.619074405609704
      ],
      [
        "Ġitself",
        -9.619932235980597
      ],
      [
        "56",
        -9.621046456224342
      ],
      [
        "07",
        -9.621389437659227
      ],
      [
        "Ġstop",
        -9.62215468829987
      ],
      [
        "Ġsample",
        -9.622829980845916
      ],
      [
        "Ġcontinue",
        -9.622897508321302
      ],
      [
        "Ġcomplete",
        -9.623884345794108
      ],
      [
        "Ġsituation",
        -9.624261537308168
      ],
      [
        "Ġlength",
        -9.624284748970423
      ],
      [
        "Ġforce",
        -9.624970974908269
      ],
      [
        "âĢ",
        -9.62543978611851
      ],
      [
        "Ġmedia",
        -9.626218601504487
      ],
      [
        "Ġobtain",
        -9.628182343931737
      ],
      [
        "Ġdifficult",
        -9.629296412748497
      ],
      [
        "Ġallow",
        -9.630117487141499
      ],
      [
        "51",
        -9.630992261236413
      ],
      [
        "ĠTHE",
        -9.63150946722618
      ],
      [
        "ur",
        -9.631589373345106
      ],
      [
        "ĠNational",
        -9.631841950608441
      ],
      [
        "!=",
        -9.63184813602386
      ],
      [
        "47",
        -9.6319443738074
      ],
      [
        "off",
        -9.632220659304261
      ],
      [
        "Ġpolitical",
        -9.632975718586188
      ],
      [
        "46",
        -9.63510466906407
      ],
      [
        ")/",
        -9.636153655307055
      ],
      [
        "dots",
        -9.636244018819216
      ],
      [
        "Ġconstant",
        -9.637134967330288
      ],
      [
        "Ġindependent",
        -9.637704200792852
      ],
      [
        "coming",
        -9.638367803304797
      ],
      [
        "Ġheart",
        -9.639604235565933
      ],
      [
        "Ġinput",
        -9.640449207366775
      ],
      [
        "Ġpage",
        -9.640939924554868
      ],
      [
        "Ġnecessary",
        -9.640954527269267
      ],
      [
        "path",
        -9.641333636761729
      ],
      [
        "Ġbook",
        -9.641938664243073
      ],
      [
        "Ã©",
        -9.642492925177782
      ],
      [
        "Ġshall",
        -9.64359211117307
      ],
      [
        "Ġspecial",
        -9.644146678473472
      ],
      [
        "Ġ\\\\",
        -9.645123316580834
      ],
      [
        "Further",
        -9.646812771175751
      ],
      [
        "Although",
        -9.646966500169691
      ],
      [
        "from",
        -9.649455380479798
      ],
      [
        "My",
        -9.649695668159762
      ],
      [
        "Ġreference",
        -9.650377151981685
      ],
      [
        "cal",
        -9.65059813634675
      ],
      [
        "ling",
        -9.650836372021212
      ],
      [
        "ĠTrump",
        -9.651113030068917
      ],
      [
        "06",
        -9.652764006301421
      ],
      [
        "Ġimpact",
        -9.65350554018714
      ],
      [
        "69",
        -9.653699859211933
      ],
      [
        "Ġcolor",
        -9.653703293386426
      ],
      [
        "Ġsimply",
        -9.654295948850807
      ],
      [
        "Ġbad",
        -9.654392009406703
      ],
      [
        "According",
        -9.655386056350448
      ],
      [
        "Ġprovides",
        -9.655760428026527
      ],
      [
        "Ġstay",
        -9.657767239004663
      ],
      [
        "65",
        -9.659049152387711
      ],
      [
        "Ġnear",
        -9.659742453093694
      ],
      [
        "\\_",
        -9.659785762296421
      ],
      [
        "state",
        -9.660606012395913
      ],
      [
        "Ġpersonal",
        -9.661311786435734
      ],
      [
        "Ġcut",
        -9.661726599132319
      ],
      [
        "Ġmedical",
        -9.661775568444263
      ],
      [
        "Key",
        -9.66193264244856
      ],
      [
        "Ġlines",
        -9.661992698519942
      ],
      [
        "Ġprevent",
        -9.66248342367376
      ],
      [
        "Ġjudgment",
        -9.663805686239836
      ],
      [
        "Ġoutput",
        -9.66493203081558
      ],
      [
        "Ġcontact",
        -9.66758348923464
      ],
      [
        "Ġoutside",
        -9.668575936061714
      ],
      [
        "Ġmoment",
        -9.668976637683725
      ],
      [
        "ĠOF",
        -9.669570407415321
      ],
      [
        "length",
        -9.669799253042825
      ],
      [
        "my",
        -9.66980764869005
      ],
      [
        "Ġespecially",
        -9.67003424382553
      ],
      [
        "Ġshare",
        -9.672025513260662
      ],
      [
        "])",
        -9.67345473403383
      ],
      [
        "Ġ||",
        -9.674328271696856
      ],
      [
        "^\\",
        -9.674409815989467
      ],
      [
        "54",
        -9.67547291932199
      ],
      [
        "with",
        -9.675698708491906
      ],
      [
        "Ġcontract",
        -9.676131550020337
      ],
      [
        "Ġinstance",
        -9.676568029835
      ],
      [
        "Ġwhite",
        -9.677227685064572
      ],
      [
        "sim",
        -9.677594634484425
      ],
      [
        "directly",
        -9.67942965363401
      ],
      [
        "ent",
        -9.679831969919007
      ],
      [
        "Ġpresence",
        -9.679954477237303
      ],
      [
        "Ġformer",
        -9.681479068896953
      ],
      [
        "Error",
        -9.683266728971123
      ],
      [
        "Ġproperties",
        -9.683453012207066
      ],
      [
        "max",
        -9.68479661504774
      ],
      [
        "Ġmodels",
        -9.6848077832737
      ],
      [
        "ĠMay",
        -9.687701869081957
      ],
      [
        "Ġseem",
        -9.688336234468217
      ],
      [
        "px",
        -9.688376201885834
      ],
      [
        "ĠCity",
        -9.689082634122798
      ],
      [
        "));",
        -9.689496865749776
      ],
      [
        "Ġflow",
        -9.689876723606947
      ],
      [
        "Ġdistrict",
        -9.689968748541768
      ],
      [
        "Ġwords",
        -9.690014885858242
      ],
      [
        "Ġproducts",
        -9.690349318739544
      ],
      [
        "Ġrelease",
        -9.690782903362962
      ],
      [
        "Ġdetermined",
        -9.690878184887932
      ],
      [
        "48",
        -9.694255489730711
      ],
      [
        "Ġcross",
        -9.694805701890866
      ],
      [
        "Ġ21",
        -9.694950427026795
      ],
      [
        "ring",
        -9.695374153048732
      ],
      [
        "ĠDr",
        -9.698260713505345
      ],
      [
        "Ġrest",
        -9.698684728327185
      ],
      [
        "Ġappeal",
        -9.70111633410493
      ],
      [
        "Ġdecrease",
        -9.701487903502793
      ],
      [
        "const",
        -9.70395752576663
      ],
      [
        "Ġwide",
        -9.706955312637911
      ],
      [
        "function",
        -9.707366139587457
      ],
      [
        "Ġeffective",
        -9.708118996407972
      ],
      [
        "Ġphysical",
        -9.708656652865747
      ],
      [
        "Ġeverything",
        -9.708835636431761
      ],
      [
        "Ġmulti",
        -9.708853114898087
      ],
      [
        "Ġinside",
        -9.709143678347838
      ],
      [
        "Ġact",
        -9.709804570240042
      ],
      [
        "Ġground",
        -9.710557194677941
      ],
      [
        "Ġwrong",
        -9.711723738673427
      ],
      [
        "Ġprimary",
        -9.712311593982868
      ],
      [
        "37",
        -9.714458331358871
      ],
      [
        "Ġlonger",
        -9.714726889993038
      ],
      [
        "ĠMy",
        -9.715033403231999
      ],
      [
        "Ġhold",
        -9.716413785824995
      ],
      [
        "Ġpain",
        -9.716846027276972
      ],
      [
        "Ġelement",
        -9.716986890757127
      ],
      [
        "psi",
        -9.717344039946221
      ],
      [
        "Ġint",
        -9.717762749088863
      ],
      [
        "Ġlayer",
        -9.718626925082159
      ],
      [
        "seems",
        -9.720853507131718
      ],
      [
        "Ġquite",
        -9.722497539547094
      ],
      [
        "Ġoffer",
        -9.723767965526687
      ],
      [
        "///",
        -9.724312922446153
      ],
      [
        "57",
        -9.72480381202514
      ],
      [
        "Ġevents",
        -9.725912474609947
      ],
      [
        "Ġpresented",
        -9.727951493781381
      ],
      [
        "Ġrights",
        -9.728429882080603
      ],
      [
        "Ġwrite",
        -9.729457559891527
      ],
      [
        "Ġincreasing",
        -9.73057844372248
      ],
      [
        "Ġeasy",
        -9.730722759546829
      ],
      [
        "+\\",
        -9.730818192432777
      ],
      [
        "app",
        -9.731747305004031
      ],
      [
        "Ġidentified",
        -9.732503543098593
      ],
      [
        "Ġbasis",
        -9.7327403239654
      ],
      [
        "Ġdate",
        -9.733644010824754
      ],
      [
        "therefore",
        -9.734943476213155
      ],
      [
        "Ġplaintiff",
        -9.734974811998875
      ],
      [
        "Ġrunning",
        -9.735292313629609
      ],
      [
        "Ġago",
        -9.735650463792965
      ],
      [
        "Ġfeatures",
        -9.735701887607817
      ],
      [
        "Ġoffice",
        -9.737485057055931
      ],
      [
        "Ġarray",
        -9.738953321207456
      ],
      [
        "42",
        -9.739023585233761
      ],
      [
        "ĠLicense",
        -9.740129289335185
      ],
      [
        "Ġgenes",
        -9.74117401152843
      ],
      [
        "Ġmember",
        -9.74213111238937
      ],
      [
        "item",
        -9.742963982150018
      ],
      [
        "Ġenvironment",
        -9.743107531737072
      ],
      [
        "Ġcenter",
        -9.743246530393625
      ],
      [
        "induced",
        -9.743314938821614
      ],
      [
        "Ġcreated",
        -9.743562448682715
      ],
      [
        "Ġvideo",
        -9.744282775638673
      ],
      [
        "Ġinitial",
        -9.745039592475106
      ],
      [
        "Ġapply",
        -9.74514680424322
      ],
      [
        "ions",
        -9.745672611064395
      ],
      [
        "âĢĲ",
        -9.745944520331474
      ],
      [
        "Ġrelationship",
        -9.74611114949401
      ],
      [
        "Ġagreement",
        -9.747275847660063
      ],
      [
        "](",
        -9.748771338011124
      ],
      [
        "Ġfunctions",
        -9.749562257516411
      ],
      [
        "Ġgas",
        -9.750960919402855
      ],
      [
        "Ġ&&",
        -9.751164095946685
      ],
      [
        "58",
        -9.75118915579138
      ],
      [
        "Ġ40",
        -9.755795740292035
      ],
      [
        "File",
        -9.75618715042963
      ],
      [
        ")/(",
        -9.757726315598267
      ],
      [
        "Ġoil",
        -9.757851690069808
      ],
      [
        "ĠBy",
        -9.758082412949808
      ],
      [
        "Ġwanted",
        -9.758389179212346
      ],
      [
        "Ġnegative",
        -9.758712984850522
      ],
      [
        "True",
        -9.758798207855031
      ],
      [
        "Ġsamples",
        -9.758874432233876
      ],
      [
        "Ġsearch",
        -9.760054356069913
      ],
      [
        "Ġdirection",
        -9.760372768696374
      ],
      [
        "Ġdi",
        -9.760560612864648
      ],
      [
        "Ġparameters",
        -9.76082912401539
      ],
      [
        "base",
        -9.760927632021327
      ],
      [
        "Ġnatural",
        -9.761771081722932
      ],
      [
        "Ġcontext",
        -9.761957921891868
      ],
      [
        "Ġfront",
        -9.763013109476049
      ],
      [
        "Ġprice",
        -9.763261125513141
      ],
      [
        "ng",
        -9.76469504680787
      ],
      [
        "Ġtitle",
        -9.766119326238607
      ],
      [
        "rangle",
        -9.76686790037362
      ],
      [
        "Ġdirect",
        -9.767237802719098
      ],
      [
        "ĠDe",
        -9.767374300738867
      ],
      [
        "top",
        -9.767805648993688
      ],
      [
        "Ġsuper",
        -9.771432480473521
      ],
      [
        "Ġrequest",
        -9.772557985743582
      ],
      [
        "Ġdeep",
        -9.772883265398603
      ],
      [
        "Ġequal",
        -9.773081417969541
      ],
      [
        "Ġ22",
        -9.774237252279454
      ],
      [
        "Ġlegal",
        -9.774606441109908
      ],
      [
        "\\])",
        -9.776120282837354
      ],
      [
        "Ġexpect",
        -9.777997050493521
      ],
      [
        "msg",
        -9.77840847825264
      ],
      [
        "val",
        -9.778592322281064
      ],
      [
        "Ġ/*",
        -9.778604300240954
      ],
      [
        "Ġstage",
        -9.778990369642974
      ],
      [
        "Ġtraining",
        -9.77934176432546
      ],
      [
        "Ġmemory",
        -9.780615284589544
      ],
      [
        "den",
        -9.781728913751111
      ],
      [
        "Ġelements",
        -9.782111277839363
      ],
      [
        "Ġavoid",
        -9.782662151665031
      ],
      [
        "men",
        -9.782697448649554
      ],
      [
        "Ġstatic",
        -9.78346164513696
      ],
      [
        "Ġbuild",
        -9.784202004540484
      ],
      [
        "Ġknowledge",
        -9.784840764952497
      ],
      [
        "usually",
        -9.786394872615729
      ],
      [
        "Ġareas",
        -9.786834942532835
      ],
      [
        "Ġmice",
        -9.786905598292533
      ],
      [
        "Ġtypes",
        -9.787807008026729
      ],
      [
        "Ġfire",
        -9.787953459334798
      ],
      [
        "developed",
        -9.788569582241603
      ],
      [
        "sub",
        -9.788570747626938
      ],
      [
        "Ġassume",
        -9.788620637299934
      ],
      [
        "Ġtheory",
        -9.788994031941874
      ],
      [
        "although",
        -9.78956861614496
      ],
      [
        "dev",
        -9.78990529272466
      ],
      [
        "One",
        -9.790196698511368
      ],
      [
        "Ġstatus",
        -9.79065153270633
      ],
      [
        "Ġdrug",
        -9.790786479420808
      ],
      [
        "ization",
        -9.79109899016946
      ],
      [
        "}(\\",
        -9.792060416294637
      ],
      [
        "Ġbehind",
        -9.792359387861158
      ],
      [
        "user",
        -9.792679994541633
      ],
      [
        "Ġbehavior",
        -9.793814339305335
      ],
      [
        "59",
        -9.793820213374916
      ],
      [
        "ley",
        -9.793917734446634
      ],
      [
        "ĠInc",
        -9.795619796162015
      ],
      [
        "Set",
        -9.795852538667898
      ],
      [
        "les",
        -9.796866017333064
      ],
      [
        "Ġrequire",
        -9.797476037220676
      ],
      [
        "Ġapplied",
        -9.798657671601324
      ],
      [
        "Ġweeks",
        -9.798665932090055
      ],
      [
        "ÃĤ",
        -9.799580908285787
      ],
      [
        "Ġunit",
        -9.799690374322976
      ],
      [
        "Ġgreater",
        -9.8003028856359
      ],
      [
        "use",
        -9.801543764553236
      ],
      [
        "Ġratio",
        -9.801785238006978
      ],
      [
        "Ġask",
        -9.803812892368496
      ],
      [
        "big",
        -9.804042072131645
      ],
      [
        "ĠJohn",
        -9.804237051294702
      ],
      [
        "Ġpreviously",
        -9.804737428857173
      ],
      [
        "ities",
        -9.805038751014502
      ],
      [
        "Ġreduce",
        -9.805224565203407
      ],
      [
        "Ġquestions",
        -9.805574228826174
      ],
      [
        "Ġdouble",
        -9.805939228885414
      ],
      [
        "ĠDNA",
        -9.808806046044271
      ],
      [
        "Ġlimited",
        -9.80924384293317
      ],
      [
        "Test",
        -9.80988180154848
      ],
      [
        "Ġglobal",
        -9.811838423902353
      ],
      [
        "invention",
        -9.813475723787963
      ],
      [
        "Ġpractice",
        -9.813540769546664
      ],
      [
        "Ġreduced",
        -9.813621679744415
      ],
      [
        "ĠWith",
        -9.813672025398601
      ],
      [
        "Ġlack",
        -9.8137320764607
      ],
      [
        "back",
        -9.814644308773158
      ],
      [
        "term",
        -9.815260442153685
      ],
      [
        "ĠHis",
        -9.815608677602546
      ],
      [
        "Ġpath",
        -9.815898747415204
      ],
      [
        "ĠPresident",
        -9.816075487157491
      ],
      [
        "per",
        -9.816906002618346
      ],
      [
        "Ġsaw",
        -9.81691890374098
      ],
      [
        "Ġmonth",
        -9.81724324198286
      ],
      [
        "Ġarticle",
        -9.817830720161828
      ],
      [
        "ams",
        -9.818044696523579
      ],
      [
        "Ġrelative",
        -9.818497536684234
      ],
      [
        "that",
        -9.81981707199853
      ],
      [
        "Ġgames",
        -9.820234105450764
      ],
      [
        "72",
        -9.82163287432667
      ],
      [
        "Because",
        -9.821944956982668
      ],
      [
        "quad",
        -9.821970341447297
      ],
      [
        "]^",
        -9.822325851471328
      ],
      [
        "ING",
        -9.822783469292101
      ],
      [
        "Ġopinion",
        -9.82627635347726
      ],
      [
        "Ġworks",
        -9.826384657856723
      ],
      [
        "By",
        -9.827526858889138
      ],
      [
        "Text",
        -9.829040777635534
      ],
      [
        "Ġproduce",
        -9.830556864398238
      ],
      [
        "Ġleave",
        -9.830576503800257
      ],
      [
        "ish",
        -9.831117216239187
      ],
      [
        "Ġculture",
        -9.831509858845676
      ],
      [
        "Ġmis",
        -9.832747477472862
      ],
      [
        "Ġ$$",
        -9.83367747405299
      ],
      [
        "Ġrule",
        -9.834223849142623
      ],
      [
        "Ġforward",
        -9.834439626207994
      ],
      [
        "ĠAct",
        -9.834642799813713
      ],
      [
        "Ġsoftware",
        -9.834882722849255
      ],
      [
        "particularly",
        -9.835850534102194
      ],
      [
        "Ġword",
        -9.836107664821917
      ],
      [
        "day",
        -9.836947380980165
      ],
      [
        "len",
        -9.83852665657477
      ],
      [
        "Ġ(\\[",
        -9.839990754704248
      ],
      [
        "Ġseparate",
        -9.840700126781284
      ],
      [
        "Ġlimit",
        -9.841171838614455
      ],
      [
        "operator",
        -9.841611820198452
      ],
      [
        "Ġmother",
        -9.842335422951477
      ],
      [
        "Ġchoice",
        -9.842727987985274
      ],
      [
        "we",
        -9.843308178151325
      ],
      [
        "Ġart",
        -9.844097594383264
      ],
      [
        "Ġincludes",
        -9.844183379971067
      ],
      [
        "ĠCounty",
        -9.84486187071058
      ],
      [
        "Ġex",
        -9.845903047792408
      ],
      [
        "Ġattack",
        -9.846396610253606
      ],
      [
        "Ġdisplay",
        -9.84643502781434
      ],
      [
        "Ġinfluence",
        -9.846743348424654
      ],
      [
        "...\"",
        -9.84763421868425
      ],
      [
        "---------------",
        -9.847679450502877
      ],
      [
        "ĠBe",
        -9.84787470878096
      ],
      [
        "static",
        -9.849017337431318
      ],
      [
        "corresponding",
        -9.849822148921781
      ],
      [
        "node",
        -9.853948736565481
      ],
      [
        "Ġplayers",
        -9.854631320411851
      ],
      [
        "003",
        -9.85575765798378
      ],
      [
        "96",
        -9.856079408704066
      ],
      [
        "Ġaffect",
        -9.85616220965469
      ],
      [
        "link",
        -9.85616403158241
      ],
      [
        "form",
        -9.856523625040722
      ],
      [
        "}}$",
        -9.856832221988643
      ],
      [
        "Ġclaims",
        -9.85704492319237
      ],
      [
        "86",
        -9.857087408055303
      ],
      [
        "whose",
        -9.858114207232958
      ],
      [
        "Ġwritten",
        -9.858481746667454
      ],
      [
        "Ġnature",
        -9.861266252961382
      ],
      [
        "90",
        -9.8614902131576
      ],
      [
        "followed",
        -9.863434297576331
      ],
      [
        "Ġfine",
        -9.864999904826654
      ],
      [
        "index",
        -9.865122470279656
      ],
      [
        "Ġnational",
        -9.865504210338484
      ],
      [
        "Ġmessage",
        -9.865703565830946
      ],
      [
        "Ġvar",
        -9.86681111077629
      ],
      [
        "map",
        -9.86764549853026
      ],
      [
        "Ġ[*",
        -9.869878860248704
      ],
      [
        "tried",
        -9.869928575070356
      ],
      [
        "pp",
        -9.87083505168154
      ],
      [
        "Ġdistance",
        -9.871610239262516
      ],
      [
        "Ġargument",
        -9.871724943126324
      ],
      [
        "java",
        -9.872050217393264
      ],
      [
        "85",
        -9.872122049268146
      ],
      [
        "čĊ",
        -9.872356297537747
      ],
      [
        "68",
        -9.87458004576379
      ],
      [
        "Ġspecies",
        -9.874878606714645
      ],
      [
        "jury",
        -9.875272519536164
      ],
      [
        "Ġsuccess",
        -9.877935854743004
      ],
      [
        "Ġliving",
        -9.879568080005594
      ],
      [
        "}$,",
        -9.88302455775886
      ],
      [
        "ĠSouth",
        -9.883352738235638
      ],
      [
        "Ġ23",
        -9.8838237886757
      ],
      [
        "Ġsecurity",
        -9.884432600216364
      ],
      [
        "Ġlate",
        -9.884590203816614
      ],
      [
        "ER",
        -9.885078306267795
      ],
      [
        "anyone",
        -9.885588158405106
      ],
      [
        "Re",
        -9.886206310708797
      ],
      [
        "She",
        -9.886856785778214
      ],
      [
        "67",
        -9.886938030747098
      ],
      [
        "ĠOur",
        -9.888157314573597
      ],
      [
        "Ġpurpose",
        -9.888208399580936
      ],
      [
        "Now",
        -9.888456764903047
      ],
      [
        "Ġwar",
        -9.888815540895077
      ],
      [
        "Ġindex",
        -9.889019900072629
      ],
      [
        "Ġrecently",
        -9.889174493570177
      ],
      [
        "Sec",
        -9.889271346334459
      ],
      [
        "Ġappropriate",
        -9.889316187971964
      ],
      [
        "Ġbrain",
        -9.889360711646045
      ],
      [
        "Ġvector",
        -9.889574168103035
      ],
      [
        "Ġdefault",
        -9.891379153565742
      ],
      [
        "Ġlost",
        -9.891973171295561
      ],
      [
        "88",
        -9.89200565366413
      ],
      [
        "Ġstyle",
        -9.892055612342627
      ],
      [
        "Ġthemselves",
        -9.89256152438599
      ],
      [
        "Ġetc",
        -9.893664768539413
      ],
      [
        "Ġexplain",
        -9.893930284043908
      ],
      [
        "čĊĠĠĠĠĠĠĠ",
        -9.89431953832942
      ],
      [
        "ĠDo",
        -9.894338468329591
      ],
      [
        "generally",
        -9.894577049838885
      ],
      [
        "Ġwalk",
        -9.895192963757356
      ],
      [
        "Ġcountries",
        -9.895287623950875
      ],
      [
        "Ġappear",
        -9.895652073152304
      ],
      [
        "Ġfederal",
        -9.896491187952119
      ],
      [
        "me",
        -9.897120300012375
      ],
      [
        "Ġhospital",
        -9.897133592385527
      ],
      [
        "Ġred",
        -9.897365551172449
      ],
      [
        "Ġactive",
        -9.898025187880283
      ],
      [
        "Ġonline",
        -9.898199639355695
      ],
      [
        "Ġfailure",
        -9.89830976940581
      ],
      [
        "style",
        -9.898971973212701
      ],
      [
        "=\\",
        -9.899242168367994
      ],
      [
        "Ġcount",
        -9.899740836673361
      ],
      [
        "Ġdifferences",
        -9.90016237624181
      ],
      [
        "Also",
        -9.900472737127055
      ],
      [
        "ĠAmerica",
        -9.90081590089171
      ],
      [
        "Ġcharge",
        -9.900977288360682
      ],
      [
        "Ġproposed",
        -9.901967397943864
      ],
      [
        "Ġtable",
        -9.902400022404594
      ],
      [
        "From",
        -9.903116093139877
      ],
      [
        "Ġreceive",
        -9.903977695640785
      ],
      [
        "Ġeconomic",
        -9.90445012615639
      ],
      [
        "Ġslow",
        -9.905515553459855
      ],
      [
        "Ġ28",
        -9.906096043790262
      ],
      [
        "ĠCD",
        -9.907115228374511
      ],
      [
        "Ġblock",
        -9.90841188248719
      ],
      [
        "Ġcomputer",
        -9.908815589214942
      ],
      [
        ":**",
        -9.909259087995853
      ],
      [
        "Size",
        -9.910579759907845
      ],
      [
        "Ġ2012",
        -9.910780221689707
      ],
      [
        "Ġhimself",
        -9.91125025014624
      ],
      [
        "Ġbasic",
        -9.91143682064296
      ],
      [
        "94",
        -9.911510506060257
      ],
      [
        "group",
        -9.911563746989094
      ],
      [
        "Gamma",
        -9.912185555061207
      ],
      [
        "body",
        -9.912197911536543
      ],
      [
        "ĠGeneral",
        -9.912673338782648
      ],
      [
        "became",
        -9.912982984375029
      ],
      [
        "title",
        -9.914290822060222
      ],
      [
        "\";",
        -9.914521529312875
      ],
      [
        "ĠMarch",
        -9.914641481881365
      ],
      [
        "Omega",
        -9.915517893557803
      ],
      [
        "66",
        -9.915561040968043
      ],
      [
        "Ġhit",
        -9.916010787977322
      ],
      [
        "Exception",
        -9.91669334756598
      ],
      [
        "State",
        -9.917591492841684
      ],
      [
        "Ġpoor",
        -9.917726416743927
      ],
      [
        "ĠWorld",
        -9.917815804225887
      ],
      [
        "Ġconcern",
        -9.918006998550423
      ],
      [
        "\\\\",
        -9.918185793339298
      ],
      [
        "color",
        -9.918388842833066
      ],
      [
        "gave",
        -9.918394838842689
      ],
      [
        "Ġdensity",
        -9.918832292424472
      ],
      [
        "Ġnotice",
        -9.919591203827775
      ],
      [
        "reasonable",
        -9.920228039920936
      ],
      [
        "ĠHouse",
        -9.920314234424776
      ],
      [
        "def",
        -9.920746794431533
      ],
      [
        "down",
        -9.921861750152832
      ],
      [
        "read",
        -9.922470258440153
      ],
      [
        "rightarrow",
        -9.922755364331241
      ],
      [
        "ĠChina",
        -9.923170598330033
      ],
      [
        "Ġwebsite",
        -9.923377568919594
      ],
      [
        "let",
        -9.924126711245046
      ],
      [
        "Ġmeeting",
        -9.925334985043488
      ],
      [
        "Ġfocus",
        -9.926208495229286
      ],
      [
        "Ġderivative",
        -9.92733799245837
      ],
      [
        "63",
        -9.92740492142843
      ],
      [
        "ĠNorth",
        -9.928211445436132
      ],
      [
        "Ġunique",
        -9.928237471160456
      ],
      [
        "Ġdrive",
        -9.931248418893466
      ],
      [
        "Ġpretty",
        -9.931575670149034
      ],
      [
        "^[@",
        -9.931722106457572
      ],
      [
        "¾",
        -9.932914900684777
      ],
      [
        "Ġ60",
        -9.933340113317355
      ],
      [
        "Ġfinancial",
        -9.933347618154869
      ],
      [
        "70",
        -9.934593222605084
      ],
      [
        "});",
        -9.935085599531785
      ],
      [
        "Ġrates",
        -9.935197857336004
      ],
      [
        "Path",
        -9.935200190135655
      ],
      [
        "Ġmap",
        -9.935547721168183
      ],
      [
        "ĠDepartment",
        -9.93718819079711
      ],
      [
        "Ġbackground",
        -9.937597596575108
      ],
      [
        "July",
        -9.93800274089269
      ],
      [
        "Ġserious",
        -9.938127293641285
      ],
      [
        "Ġcouple",
        -9.939474794537766
      ],
      [
        "Ġregard",
        -9.940629372326036
      ],
      [
        "Ġ/>",
        -9.941034535487745
      ],
      [
        "Ġinter",
        -9.941679203482392
      ],
      [
        "čĊĠ",
        -9.941863888534229
      ],
      [
        "designed",
        -9.942638857859986
      ],
      [
        "Ġrandom",
        -9.942901849181295
      ],
      [
        "Ġgain",
        -9.943494285074276
      ],
      [
        "Ġattempt",
        -9.943646085408542
      ],
      [
        "Ġfailed",
        -9.944672484617872
      ],
      [
        "ence",
        -9.944802006035028
      ],
      [
        "Ġland",
        -9.94579663774617
      ],
      [
        "ĠII",
        -9.946326732479575
      ],
      [
        "Ġcorrect",
        -9.946708981235115
      ],
      [
        "Ġcampaign",
        -9.946824244472763
      ],
      [
        "hearing",
        -9.94730228254862
      ],
      [
        "Ġ2013",
        -9.948359569369229
      ],
      [
        "Ġson",
        -9.949078688006075
      ],
      [
        "They",
        -9.950833960767097
      ],
      [
        "98",
        -9.951158694538353
      ],
      [
        "Ġdepend",
        -9.951242879547646
      ],
      [
        "Ġspeed",
        -9.95203533987171
      ],
      [
        "Ġscale",
        -9.95224219628569
      ],
      [
        "Ġpublished",
        -9.952887942351175
      ],
      [
        "Ġmeet",
        -9.954103790346943
      ],
      [
        "Ġnumbers",
        -9.954105258903983
      ],
      [
        "box",
        -9.954463952547412
      ],
      [
        "['",
        -9.954978734104609
      ],
      [
        "Ġoperation",
        -9.955132586428851
      ],
      [
        "App",
        -9.95590398830388
      ],
      [
        "Ġtissue",
        -9.955938479590309
      ],
      [
        "Ġconcentration",
        -9.956395218371169
      ],
      [
        "Ġ2016",
        -9.9569446353499
      ],
      [
        "Ġdegree",
        -9.957045849142096
      ],
      [
        "Ġallowed",
        -9.958866511867887
      ],
      [
        "Ġmeasured",
        -9.95965014002688
      ],
      [
        "vec",
        -9.959902715236735
      ],
      [
        "follows",
        -9.959975349433153
      ],
      [
        "free",
        -9.96027534704531
      ],
      [
        "Ġwoman",
        -9.960950215939555
      ],
      [
        "Ġsoon",
        -9.961210877053436
      ],
      [
        "Ġstress",
        -9.961590266683412
      ],
      [
        "Ġlarger",
        -9.961849218483263
      ],
      [
        "Ġcomponent",
        -9.962897786814656
      ],
      [
        "Ġfindings",
        -9.963181529599176
      ],
      [
        "Ġimprove",
        -9.963382472247204
      ],
      [
        "expressed",
        -9.963911067164576
      ],
      [
        "Ġportion",
        -9.964153617479441
      ],
      [
        "Ġexist",
        -9.96490597887913
      ],
      [
        "Ġ2014",
        -9.965780930858928
      ],
      [
        "saying",
        -9.965819400679747
      ],
      [
        "Ġeveryone",
        -9.966050081823553
      ],
      [
        "ĊĠĠĠĠĠĠĠĠĠĠĠĠĠ",
        -9.96647729486298
      ],
      [
        "Ġsign",
        -9.966888798643788
      ],
      [
        "###",
        -9.967281804166868
      ],
      [
        "source",
        -9.969433376441403
      ],
      [
        "located",
        -9.970407039186602
      ],
      [
        "Ġcurrently",
        -9.97145225891907
      ],
      [
        "space",
        -9.971527639529816
      ],
      [
        "Ġheat",
        -9.972745565353287
      ],
      [
        "comes",
        -9.973339888529996
      ],
      [
        "Ċĉĉĉĉ",
        -9.973616532203692
      ],
      [
        "Ġmovement",
        -9.974969365849313
      ],
      [
        "input",
        -9.975253929698505
      ],
      [
        "After",
        -9.97573108719869
      ],
      [
        "ij",
        -9.97590912344828
      ],
      [
        "ice",
        -9.976122517632307
      ],
      [
        "Ġalone",
        -9.976411017428847
      ],
      [
        "Ġsafe",
        -9.97677336156738
      ],
      [
        "Ġpass",
        -9.976893667512208
      ],
      [
        "ified",
        -9.976909815587662
      ],
      [
        "Ġselected",
        -9.977153237467187
      ],
      [
        "ĠString",
        -9.977227232169826
      ],
      [
        "knew",
        -9.978486899708109
      ],
      [
        "related",
        -9.98151794618867
      ],
      [
        "Ġattention",
        -9.981914055498931
      ],
      [
        "ĠHere",
        -9.982017158639437
      ],
      [
        "\"><",
        -9.983264425536705
      ],
      [
        "Ġdetails",
        -9.983316874856651
      ],
      [
        "Ġbio",
        -9.983920817133258
      ],
      [
        "divided",
        -9.984093244037917
      ],
      [
        "began",
        -9.984539366178836
      ],
      [
        "Ġstand",
        -9.984751104634535
      ],
      [
        "$\\",
        -9.985736501391917
      ],
      [
        "Info",
        -9.986054551333163
      ],
      [
        "Ġvehicle",
        -9.987324983655562
      ],
      [
        "Ġfriends",
        -9.987338930201293
      ],
      [
        "Ġpull",
        -9.98742892718118
      ],
      [
        "ĠJune",
        -9.988203888762344
      ],
      [
        "Ġvolume",
        -9.988687080115284
      ],
      [
        "ĠAl",
        -9.989062762784725
      ],
      [
        "False",
        -9.989540343329775
      ],
      [
        "Ġassert",
        -9.99014411521305
      ],
      [
        "Ġcharacter",
        -9.990192925791021
      ],
      [
        "Ġcompanies",
        -9.990464229589305
      ],
      [
        "true",
        -9.991675450306136
      ],
      [
        "info",
        -9.99397771151145
      ],
      [
        "Ġboard",
        -9.99398281614658
      ],
      [
        "Ġreaction",
        -9.994599268948033
      ],
      [
        "Ġtransfer",
        -9.994998876734531
      ],
      [
        "der",
        -9.995078655942644
      ],
      [
        "then",
        -9.996164119971718
      ],
      [
        "Ġapp",
        -9.996189859791244
      ],
      [
        "61",
        -9.996444458097207
      ],
      [
        "Ġsentence",
        -9.996732007511778
      ],
      [
        "ĠâĪĴ",
        -9.997368443524293
      ],
      [
        "Ġgoal",
        -9.998164951933495
      ],
      [
        "Ġ26",
        -9.998510998174043
      ],
      [
        "Ġlearn",
        -9.999087376996581
      ],
      [
        "Ġlocation",
        -10.00053361452768
      ],
      [
        "ĠFirst",
        -10.000701368088198
      ],
      [
        "Ġindividuals",
        -10.000841430272596
      ],
      [
        "case",
        -10.000898387658289
      ],
      [
        "ĠLa",
        -10.002445773758687
      ],
      [
        "struct",
        -10.002548850385226
      ],
      [
        "Ġchance",
        -10.002759672007313
      ],
      [
        "Ġstar",
        -10.004293600275673
      ],
      [
        "parties",
        -10.005708836244866
      ],
      [
        "Ġhappen",
        -10.005991044719739
      ],
      [
        "highly",
        -10.006187239680099
      ],
      [
        "completely",
        -10.006582316654741
      ],
      [
        "84",
        -10.006670152289125
      ],
      [
        "Node",
        -10.00680310339773
      ],
      [
        "Ġeducation",
        -10.006941012290676
      ],
      [
        "Ġfixed",
        -10.007263882730161
      ],
      [
        "Ġ[**",
        -10.009333779960135
      ],
      [
        "ter",
        -10.01004965752053
      ],
      [
        "Context",
        -10.01052454836992
      ],
      [
        "Ġfast",
        -10.01090217817084
      ],
      [
        "62",
        -10.011661666051847
      ],
      [
        "Ġeyes",
        -10.01180293786173
      ],
      [
        "Ġmanagement",
        -10.012191496114273
      ],
      [
        "Of",
        -10.01337993296173
      ],
      [
        "}$.",
        -10.013495883125534
      ],
      [
        "Ġ2015",
        -10.01376122853016
      ],
      [
        "\"/>",
        -10.013958146449612
      ],
      [
        "ĠSome",
        -10.01396142291382
      ],
      [
        "Which",
        -10.014136031374683
      ],
      [
        "Ġproteins",
        -10.01446188105389
      ],
      [
        "Ġsent",
        -10.014827593453731
      ],
      [
        "Ġenjoy",
        -10.015325004911542
      ],
      [
        "start",
        -10.015371591720223
      ],
      [
        "Ġcomponents",
        -10.015808237810282
      ],
      [
        "useful",
        -10.016011489249347
      ],
      [
        "Ġpattern",
        -10.0160936352048
      ],
      [
        "Ġrequires",
        -10.016528041104372
      ],
      [
        "Index",
        -10.017300045222532
      ],
      [
        "Ġtechnology",
        -10.018329605371596
      ],
      [
        "Ġnote",
        -10.018399912070196
      ],
      [
        "view",
        -10.019044426147266
      ],
      [
        "Ġauto",
        -10.019354696199546
      ],
      [
        "Ġfrequency",
        -10.020323690459671
      ],
      [
        "Ġ:=",
        -10.020907945396912
      ],
      [
        "Ġcentral",
        -10.02150274394517
      ],
      [
        "goes",
        -10.02191178784013
      ],
      [
        "api",
        -10.023066798566543
      ],
      [
        "500",
        -10.02387345286822
      ],
      [
        "ham",
        -10.024232229365015
      ],
      [
        "Ġindustry",
        -10.0263444514583
      ],
      [
        "--------------",
        -10.027365710968716
      ],
      [
        "error",
        -10.027634211302962
      ],
      [
        "Ġcopy",
        -10.027640345782636
      ],
      [
        "Ġearlier",
        -10.02810121044764
      ],
      [
        "Ġequation",
        -10.02884990227904
      ],
      [
        "Ġfair",
        -10.028953878871443
      ],
      [
        "Ġbar",
        -10.02897684581221
      ],
      [
        "Ġmechanism",
        -10.029196242222943
      ],
      [
        "Ġmaintain",
        -10.029412755901157
      ],
      [
        "Ġwriting",
        -10.029811197791135
      ],
      [
        "produced",
        -10.029910227835588
      ],
      [
        "image",
        -10.030649189402343
      ],
      [
        "Ġconnection",
        -10.032104242613153
      ],
      [
        "Ġleading",
        -10.033046198786781
      ],
      [
        "}_{\\",
        -10.033354353787058
      ],
      [
        "Ġoverall",
        -10.034416552859371
      ],
      [
        "Ġnews",
        -10.035662989965605
      ],
      [
        "Ġtoward",
        -10.035863038711923
      ],
      [
        "formed",
        -10.036300900119844
      ],
      [
        "Ġindicate",
        -10.036720417619375
      ],
      [
        "Ġwin",
        -10.036845358396898
      ],
      [
        "uint",
        -10.037237680651604
      ],
      [
        "ĠSystem",
        -10.037941653700685
      ],
      [
        "ĠJanuary",
        -10.038309057832294
      ],
      [
        "Ġpresident",
        -10.039286135209641
      ],
      [
        "Ġremember",
        -10.040034548322945
      ],
      [
        "Ġcircuit",
        -10.040087130708548
      ],
      [
        "our",
        -10.040305147250441
      ],
      [
        "());",
        -10.040859989286107
      ],
      [
        "paid",
        -10.041018771524163
      ],
      [
        "easily",
        -10.041069454943285
      ],
      [
        "ĠApril",
        -10.041683725350232
      ],
      [
        "Ġcontains",
        -10.042259892181905
      ],
      [
        "Item",
        -10.042955616126255
      ],
      [
        "Ġimages",
        -10.044057829795182
      ],
      [
        "ĠCir",
        -10.044417812963836
      ],
      [
        "Ġ2011",
        -10.044752875985386
      ],
      [
        "Ġdemand",
        -10.044956266495822
      ],
      [
        "which",
        -10.045134522504034
      ],
      [
        "ĠNot",
        -10.045635586964602
      ],
      [
        "giving",
        -10.045677406643845
      ],
      [
        "was",
        -10.045966177314249
      ],
      [
        "Ġfall",
        -10.046004919306828
      ],
      [
        "Ġrepresent",
        -10.046956427360154
      ],
      [
        "Ġhost",
        -10.047090615955579
      ],
      [
        "Ġfigure",
        -10.047950218876629
      ],
      [
        "Ġmeasure",
        -10.04841378370302
      ],
      [
        "Ġmode",
        -10.048767619883778
      ],
      [
        "ĠWest",
        -10.050551123795493
      ],
      [
        "Ġ2010",
        -10.0521266414029
      ],
      [
        ")}",
        -10.052851704929045
      ],
      [
        "Ġdefinition",
        -10.052978583991154
      ],
      [
        "December",
        -10.053009443058684
      ],
      [
        "77",
        -10.053096349295334
      ],
      [
        "Ġcosts",
        -10.054131965779273
      ],
      [
        "Ġestablished",
        -10.054308779222644
      ],
      [
        "Ġcounsel",
        -10.055460529718651
      ],
      [
        "Ġfinding",
        -10.055467860505757
      ],
      [
        "New",
        -10.056124577575838
      ],
      [
        "Ġseven",
        -10.056864769253295
      ],
      [
        "Ġsupported",
        -10.056895962787136
      ],
      [
        "Ġtumor",
        -10.057039053736508
      ],
      [
        "Ġcritical",
        -10.05725502589524
      ],
      [
        "**(",
        -10.058545222181781
      ],
      [
        "Ġcomment",
        -10.059762172197532
      ],
      [
        "Ġoption",
        -10.06005864580687
      ],
      [
        "Ġgenerated",
        -10.060117085379034
      ],
      [
        "};",
        -10.060193361710454
      ],
      [
        "Ġhighest",
        -10.060397895832613
      ],
      [
        "Do",
        -10.062671521471904
      ],
      [
        "97",
        -10.063303785707472
      ],
      [
        "81",
        -10.06333950768591
      ],
      [
        "Ġactivities",
        -10.06370282747722
      ],
      [
        "Ġstated",
        -10.063820559944693
      ],
      [
        "version",
        -10.066216259521683
      ],
      [
        "Time",
        -10.066381212482884
      ],
      [
        "Ġfather",
        -10.066604904206251
      ],
      [
        "Ġlink",
        -10.066666043101845
      ],
      [
        "Ġrace",
        -10.067186785425562
      ],
      [
        "Ġtrade",
        -10.067445590278384
      ],
      [
        "dot",
        -10.067615846200244
      ],
      [
        "Ġpush",
        -10.068549800039273
      ],
      [
        "002",
        -10.068976335904969
      ],
      [
        "76",
        -10.069058790113969
      ],
      [
        "Ġcarrie",
        -10.069065373354528
      ],
      [
        "Ġcomparison",
        -10.069163312923271
      ],
      [
        "Ġnode",
        -10.069236289955224
      ],
      [
        "Ġfelt",
        -10.069836048227275
      ],
      [
        "Ġmatrix",
        -10.070125811533126
      ],
      [
        "Ġrelevant",
        -10.070294550882217
      ],
      [
        "Ġstaff",
        -10.070351340278469
      ],
      [
        "|\\",
        -10.070879196567892
      ],
      [
        "Ġ<<",
        -10.07117071464048
      ],
      [
        "Ġallows",
        -10.071562333466758
      ],
      [
        "78",
        -10.07164353464321
      ],
      [
        "Ġprime",
        -10.071654421681353
      ],
      [
        "Ġpair",
        -10.071731587812218
      ],
      [
        "ĠId",
        -10.071898230826601
      ],
      [
        "Ġdomain",
        -10.07222223260866
      ],
      [
        "cap",
        -10.07238595892471
      ],
      [
        "Ġtravel",
        -10.072447217944347
      ],
      [
        "Ġ27",
        -10.073089335635935
      ],
      [
        "Array",
        -10.073871899433284
      ],
      [
        "Ġ2017",
        -10.074528630889892
      ],
      [
        "Ġprove",
        -10.075280760776337
      ],
      [
        "php",
        -10.075319061845216
      ],
      [
        "clearly",
        -10.075342522624588
      ],
      [
        "dir",
        -10.07534329376081
      ],
      [
        "Ġusers",
        -10.075832248307469
      ],
      [
        "Ġinvestigate",
        -10.076166284190238
      ],
      [
        "Ġcontaining",
        -10.076225683950918
      ],
      [
        "Ġinvestigation",
        -10.07629298993954
      ],
      [
        "Ġcommand",
        -10.076328352284191
      ],
      [
        "}^{\\",
        -10.076477218988991
      ],
      [
        "Ġconsist",
        -10.076610225730956
      ],
      [
        "Ġoptions",
        -10.077174093959885
      ],
      [
        "Ġactual",
        -10.0776211352293
      ],
      [
        "âĢ¢",
        -10.078206820030552
      ],
      [
        "Ġplease",
        -10.078386729563062
      ],
      [
        "Ġpanel",
        -10.078758701759028
      ],
      [
        "Here",
        -10.078956342795374
      ],
      [
        "Ġdevices",
        -10.079095309301344
      ],
      [
        "long",
        -10.079212464328068
      ],
      [
        "Ġserver",
        -10.080001708310949
      ],
      [
        "Ġdoor",
        -10.08043660280801
      ],
      [
        "open",
        -10.080715690056604
      ],
      [
        "Ġfiled",
        -10.081067197978761
      ],
      [
        "Ġvariable",
        -10.082274184179427
      ],
      [
        "turned",
        -10.08243156581704
      ],
      [
        "');",
        -10.082692608373629
      ],
      [
        "Ġbrought",
        -10.083112805151156
      ],
      [
        "Ġexcept",
        -10.083460401683887
      ],
      [
        "but",
        -10.085007352433689
      ],
      [
        "ĠMo",
        -10.085232846404192
      ],
      [
        "smaller",
        -10.086239886977177
      ],
      [
        "âĢĥ",
        -10.086520924172726
      ],
      [
        "Ġparameter",
        -10.08742396672728
      ],
      [
        "Ġcollection",
        -10.087552659803308
      ],
      [
        "Ġcredit",
        -10.087811657304437
      ],
      [
        "wise",
        -10.088639645047591
      ],
      [
        "Ġwave",
        -10.089339111130544
      ],
      [
        "majority",
        -10.090325969267345
      ],
      [
        "Ġunderstanding",
        -10.090374133556278
      ],
      [
        "Ġsites",
        -10.090407901587682
      ],
      [
        "langle",
        -10.09047222796284
      ],
      [
        "Ġreduction",
        -10.092432029539946
      ],
      [
        "Ġshowing",
        -10.09277085358985
      ],
      [
        "Ġinjury",
        -10.092992498311798
      ],
      [
        "are",
        -10.093437219869902
      ],
      [
        "74",
        -10.09426248787448
      ],
      [
        "Ġfit",
        -10.09522373071047
      ],
      [
        "decided",
        -10.095505880990029
      ],
      [
        "ĠOr",
        -10.095901439471813
      ],
      [
        "Ġcontrast",
        -10.096275162379563
      ],
      [
        "Ġsort",
        -10.096331927471152
      ],
      [
        "url",
        -10.096618646578667
      ],
      [
        "ĠCa",
        -10.098876963080995
      ],
      [
        "Ġextra",
        -10.099045892539309
      ],
      [
        "Ġshape",
        -10.099382752484798
      ],
      [
        "Ĭ",
        -10.100251787940154
      ],
      [
        "Ġbeyond",
        -10.100459426469488
      ],
      [
        "Ġdef",
        -10.1025541293066
      ],
      [
        "Ġreading",
        -10.102735204609713
      ],
      [
        "Ġlearning",
        -10.103160736704407
      ],
      [
        "Ġtown",
        -10.103446982101007
      ],
      [
        "Ġ31",
        -10.103858848837284
      ],
      [
        "Ġexperiments",
        -10.103981864642282
      ],
      [
        "ier",
        -10.104346045507679
      ],
      [
        "Ġcon",
        -10.10502183971961
      ],
      [
        "Ġauthors",
        -10.105589086624029
      ],
      [
        "83",
        -10.106076302348693
      ],
      [
        "89",
        -10.106991225663602
      ],
      [
        "Ġtransition",
        -10.107011345220872
      ],
      [
        "Ġ29",
        -10.10703151168715
      ],
      [
        "Ġmorning",
        -10.107424591687483
      ],
      [
        "Ġheard",
        -10.107947367250071
      ],
      [
        "Ġinternational",
        -10.107968459513
      ],
      [
        "Ġproof",
        -10.108081912204236
      ],
      [
        "regarding",
        -10.108431847482947
      ],
      [
        "Ġinternal",
        -10.108632398015892
      ],
      [
        "tic",
        -10.108680631767108
      ],
      [
        "200",
        -10.109441292541051
      ],
      [
        "gen",
        -10.109607677477356
      ],
      [
        "Ġperform",
        -10.109830741495031
      ],
      [
        "wrote",
        -10.110009677286458
      ],
      [
        "nd",
        -10.110168970290166
      ],
      [
        "head",
        -10.110185273183529
      ],
      [
        "Ġstore",
        -10.110848700989743
      ],
      [
        "Color",
        -10.111095563043476
      ],
      [
        "Ġalternative",
        -10.111384844131038
      ],
      [
        "Ġphoto",
        -10.11164946754085
      ],
      [
        "ship",
        -10.111814946685987
      ],
      [
        "ĠAND",
        -10.113989966529275
      ],
      [
        "Ġcarry",
        -10.114649589886783
      ],
      [
        "Ġfeature",
        -10.11490791399223
      ],
      [
        "Ġshot",
        -10.115287105066304
      ],
      [
        "Ġsound",
        -10.115316233078008
      ],
      [
        "Ġroot",
        -10.115547815637253
      ],
      [
        "Ġvisit",
        -10.115627732684098
      ],
      [
        "Ġconstruction",
        -10.115748496382189
      ],
      [
        "point",
        -10.115917052979732
      ],
      [
        "91",
        -10.116021303603489
      ],
      [
        "obvious",
        -10.116122896017194
      ],
      [
        "Ġdefense",
        -10.116861951628113
      ],
      [
        "Ġborder",
        -10.117168231033926
      ],
      [
        "ill",
        -10.11768956041205
      ],
      [
        "Ġskin",
        -10.119287275864155
      ],
      [
        "err",
        -10.121234212176418
      ],
      [
        "Ġhear",
        -10.121273490927377
      ],
      [
        "exactly",
        -10.12139482854017
      ],
      [
        "[^",
        -10.12142349233027
      ],
      [
        "}}_",
        -10.122602011479367
      ],
      [
        "Ġbinding",
        -10.123300548629143
      ],
      [
        "73",
        -10.123601534677892
      ],
      [
        "ten",
        -10.12408465814279
      ],
      [
        "looked",
        -10.124107312308265
      ],
      [
        "Ġjudge",
        -10.124204584145385
      ],
      [
        "Ġwall",
        -10.124608385092483
      ],
      [
        "Ġemail",
        -10.124628304231727
      ],
      [
        "Ġ($",
        -10.126018019089003
      ],
      [
        "Not",
        -10.126374302664669
      ],
      [
        "Ġinfection",
        -10.127324107351724
      ],
      [
        "red",
        -10.1278570718238
      ],
      [
        "Ġbuilt",
        -10.127933459649185
      ],
      [
        "content",
        -10.128187967054123
      ],
      [
        "indicated",
        -10.128568827298428
      ],
      [
        "Ġchanged",
        -10.128608558749807
      ],
      [
        "Ġsend",
        -10.128959907743832
      ],
      [
        "Ġassociation",
        -10.129507818183193
      ],
      [
        "Ġfeeling",
        -10.129596510950936
      ],
      [
        "71",
        -10.12975649486778
      ],
      [
        "Ġformation",
        -10.130858978018855
      ],
      [
        "ĠDistrict",
        -10.131177607207153
      ],
      [
        "\\].",
        -10.132177017836302
      ],
      [
        "Ġmachine",
        -10.132314392825371
      ],
      [
        "ner",
        -10.132704671724278
      ],
      [
        "Ġphone",
        -10.13279052203818
      ],
      [
        "79",
        -10.132802781239953
      ],
      [
        "87",
        -10.132822001604607
      ],
      [
        "Ġmilitary",
        -10.133539978217495
      ],
      [
        "Ġsetting",
        -10.13557028674629
      ],
      [
        "().",
        -10.136537888673818
      ],
      [
        "Ġparts",
        -10.137078429568447
      ],
      [
        "ĠHealth",
        -10.137184836469983
      ],
      [
        "Ġrules",
        -10.137302131677101
      ],
      [
        "Ġbuy",
        -10.137585092841276
      ],
      [
        "Ġdefine",
        -10.137632995596297
      ],
      [
        "Ġeye",
        -10.137716388273098
      ],
      [
        "Ġheight",
        -10.137909893448054
      ],
      [
        "Ġyield",
        -10.137976040332108
      ],
      [
        "ĠMe",
        -10.138216585319466
      ],
      [
        "ĠCenter",
        -10.138360853582613
      ],
      [
        "Ġvariables",
        -10.138656258817296
      ],
      [
        "Ġensure",
        -10.138856118038813
      ],
      [
        "ĠAugust",
        -10.140184225295096
      ],
      [
        "Ġcover",
        -10.140417104432212
      ],
      [
        "\":\"",
        -10.140476904448738
      ],
      [
        "Ġsubstantial",
        -10.140766358427335
      ],
      [
        "Ġfriend",
        -10.141455493188232
      ],
      [
        "Ġbenefits",
        -10.141508706343881
      ],
      [
        "Ġtherapy",
        -10.141535139029694
      ],
      [
        ")$.",
        -10.142900681702647
      ],
      [
        "Ġitems",
        -10.14317415960903
      ],
      [
        "Ġletter",
        -10.14339547053515
      ],
      [
        "Ġfiles",
        -10.143668095772117
      ],
      [
        "*~",
        -10.144027697042988
      ],
      [
        "Ġbill",
        -10.144459466865108
      ],
      [
        "ever",
        -10.144865036060594
      ],
      [
        "ĠOR",
        -10.145461495288291
      ],
      [
        "nbsp",
        -10.14560726480332
      ],
      [
        "Ġzero",
        -10.145701939938514
      ],
      [
        "geq",
        -10.145917447896016
      ],
      [
        "Ġscore",
        -10.147319329328415
      ],
      [
        "core",
        -10.147485458417602
      ],
      [
        "Ġdevelop",
        -10.147508168546624
      ],
      [
        "Ġmedium",
        -10.147783873417344
      ],
      [
        "Ġinteresting",
        -10.148399129430468
      ],
      [
        "Ġadministration",
        -10.150475440031375
      ],
      [
        "ĠOctober",
        -10.150907522339896
      ],
      [
        "ĠNow",
        -10.151999096022235
      ],
      [
        "Ġeffort",
        -10.152057970101692
      ],
      [
        "ated",
        -10.152694639336952
      ],
      [
        "Ġexercise",
        -10.1533902247931
      ],
      [
        "Ġparents",
        -10.15355986512155
      ],
      [
        "ģ",
        -10.15446094051945
      ],
      [
        ")^",
        -10.155543862339199
      ],
      [
        "row",
        -10.155617481729308
      ],
      [
        "}=",
        -10.15581155413973
      ],
      [
        "Ġchoose",
        -10.156915678454322
      ],
      [
        "Map",
        -10.157481334665636
      ],
      [
        "frak",
        -10.157556203352557
      ],
      [
        "Ġbenefit",
        -10.158378671638486
      ],
      [
        "played",
        -10.159759389653386
      ],
      [
        "throughout",
        -10.159771502181613
      ],
      [
        "ĠSan",
        -10.159911405121617
      ],
      [
        "Ġ\\<",
        -10.160314360318125
      ],
      [
        "ĠSeptember",
        -10.160578503230012
      ],
      [
        "Ġsubsequent",
        -10.160655105676577
      ],
      [
        "ĠHow",
        -10.161272475268103
      ],
      [
        "Ġinteraction",
        -10.161912305708041
      ],
      [
        "Image",
        -10.162034827252281
      ],
      [
        "Ġ2008",
        -10.16240668848689
      ],
      [
        "Î±",
        -10.162846878286759
      ],
      [
        "run",
        -10.164099425129706
      ],
      [
        "Ġofficial",
        -10.164315910225898
      ],
      [
        "())",
        -10.165008368303331
      ],
      [
        "Ġprocesses",
        -10.165240330142893
      ],
      [
        "ĠSection",
        -10.165359784051672
      ],
      [
        "Ġtask",
        -10.165389107720848
      ],
      [
        "Ġmet",
        -10.165406927295779
      ],
      [
        "Ġnice",
        -10.165463031161465
      ],
      [
        "##",
        -10.166234062188243
      ],
      [
        "Ġaward",
        -10.166379938047161
      ],
      [
        "ex",
        -10.167241851988523
      ],
      [
        "Ġparticipants",
        -10.16771204108514
      ],
      [
        "Ġfunctional",
        -10.168385803508418
      ],
      [
        "Ġmale",
        -10.16847899146596
      ],
      [
        "93",
        -10.168523650803218
      ],
      [
        "Ġsolid",
        -10.16862233066044
      ],
      [
        "Ġstarting",
        -10.168888924175754
      ],
      [
        "Ġexists",
        -10.169534320300807
      ],
      [
        "Ġmaximum",
        -10.170346753508705
      ],
      [
        "Ġplayer",
        -10.170469822388224
      ],
      [
        "Ġserve",
        -10.17063743398583
      ],
      [
        "Ġbi",
        -10.17070299378432
      ],
      [
        "ĠObama",
        -10.171018073507943
      ],
      [
        ")*(",
        -10.17165684379258
      ],
      [
        "Each",
        -10.171728143206565
      ],
      [
        "Ġnor",
        -10.171969858997267
      ],
      [
        "where",
        -10.172804362018606
      ],
      [
        "Ġmatch",
        -10.173227019846609
      ],
      [
        "Ġaspect",
        -10.173272914770848
      ],
      [
        "con",
        -10.17346820925898
      ],
      [
        "Ġsafety",
        -10.173773596267463
      ],
      [
        "Ġreports",
        -10.17459621032656
      ],
      [
        "ize",
        -10.175705630200953
      ],
      [
        "92",
        -10.176007264071202
      ],
      [
        "February",
        -10.177866879861691
      ],
      [
        "Request",
        -10.178207618728795
      ],
      [
        "Ġchain",
        -10.179310137951568
      ],
      [
        "Ġidentify",
        -10.179575405127759
      ],
      [
        "Ġfear",
        -10.180045145124414
      ],
      [
        "well",
        -10.180762110026985
      ],
      [
        "Ġremove",
        -10.181115751505441
      ],
      [
        "sometimes",
        -10.181247834511073
      ],
      [
        "Ġcombination",
        -10.18137895080159
      ],
      [
        "Event",
        -10.18147023196716
      ],
      [
        "Ġregular",
        -10.182053850733148
      ],
      [
        "OR",
        -10.182720335455633
      ],
      [
        "ĠNa",
        -10.18296326134276
      ],
      [
        "wife",
        -10.184336505074937
      ],
      [
        "revealed",
        -10.184406181050974
      ],
      [
        "Ġconnected",
        -10.185778262491528
      ],
      [
        "Ġimmediately",
        -10.186783576898733
      ],
      [
        "Ġsex",
        -10.188510111815626
      ],
      [
        "ĠUSA",
        -10.189097934851874
      ],
      [
        "port",
        -10.18936373344222
      ],
      [
        "ast",
        -10.190108958744439
      ],
      [
        "------",
        -10.1910679012358
      ],
      [
        "Ġlinear",
        -10.191270145140685
      ],
      [
        "molecules",
        -10.19156268066224
      ],
      [
        "Ġotherwise",
        -10.191766458868525
      ],
      [
        "82",
        -10.19182450314602
      ],
      [
        "Ġoccur",
        -10.192088356852247
      ],
      [
        "count",
        -10.19215968177088
      ],
      [
        "Ġgreen",
        -10.192865345121525
      ],
      [
        "Ġwait",
        -10.193370246196826
      ],
      [
        "Î²",
        -10.193670963093833
      ],
      [
        "Ġclosed",
        -10.196515862861594
      ],
      [
        "Ġround",
        -10.19663089783048
      ],
      [
        "Ġconsistent",
        -10.196723921245916
      ],
      [
        "Ġconclusion",
        -10.196894633929197
      ],
      [
        "ĠNovember",
        -10.19726752377322
      ],
      [
        "Ġopportunity",
        -10.197758665796856
      ],
      [
        "Ġpopular",
        -10.197999763402539
      ],
      [
        "Oh",
        -10.198235686788445
      ],
      [
        "char",
        -10.200417587501516
      ],
      [
        "Ġ2009",
        -10.200485635073033
      ],
      [
        "Ġfun",
        -10.200586894955851
      ],
      [
        "Ġdead",
        -10.2011926664255
      ],
      [
        "During",
        -10.202334661537417
      ],
      [
        "providing",
        -10.203161017650977
      ],
      [
        "Ġworth",
        -10.203345686828483
      ],
      [
        "Class",
        -10.204201714335753
      ],
      [
        "$$",
        -10.205072808384895
      ],
      [
        "Ġresistance",
        -10.205335889308637
      ],
      [
        "Ġvote",
        -10.2055228859743
      ],
      [
        "Ġedge",
        -10.205790553663752
      ],
      [
        "ĠWashington",
        -10.20584432306362
      ],
      [
        "amp",
        -10.20587014062061
      ],
      [
        "Ġapplications",
        -10.205907366190177
      ],
      [
        "Ġhands",
        -10.206236622103898
      ],
      [
        "attorney",
        -10.206506207998396
      ],
      [
        "Ġmetal",
        -10.206647409552513
      ],
      [
        "[]",
        -10.20664971950898
      ],
      [
        "col",
        -10.206838455411436
      ],
      [
        "Ġprocedure",
        -10.207564083094102
      ],
      [
        "alleged",
        -10.207601215934917
      ],
      [
        "verline",
        -10.208137864586822
      ],
      [
        "level",
        -10.20884331256672
      ],
      [
        "Ġscreen",
        -10.209258826100758
      ],
      [
        "Ġregions",
        -10.209286268736436
      ],
      [
        "config",
        -10.209536326034181
      ],
      [
        "Finally",
        -10.209687334813147
      ],
      [
        "prime",
        -10.211248763732774
      ],
      [
        "src",
        -10.211293495162087
      ],
      [
        "==========",
        -10.211436667629473
      ],
      [
        "Ġlives",
        -10.211963873523295
      ],
      [
        "Ġstrength",
        -10.212207983327113
      ],
      [
        "Ġwindow",
        -10.21289766713464
      ],
      [
        "ĠLi",
        -10.21345955311379
      ],
      [
        "Ġexposure",
        -10.213629654113628
      ],
      [
        "relatively",
        -10.21518869615694
      ],
      [
        "######",
        -10.216187449702254
      ],
      [
        "quickly",
        -10.216951868365362
      ],
      [
        "ĠSchool",
        -10.217169198340333
      ],
      [
        "released",
        -10.217410770327374
      ],
      [
        "ver",
        -10.217464259658982
      ],
      [
        "Message",
        -10.217583403161983
      ],
      [
        "Ġstock",
        -10.218383072495977
      ],
      [
        "mail",
        -10.220015138779281
      ],
      [
        "Ġpick",
        -10.220245953683156
      ],
      [
        "Ġelection",
        -10.22066563923597
      ],
      [
        "Ġandroid",
        -10.221188225306534
      ],
      [
        "object",
        -10.221388036968
      ],
      [
        "Ġmyself",
        -10.222194049018798
      ],
      [
        "statute",
        -10.222198244531853
      ],
      [
        "Service",
        -10.222366020749947
      ],
      [
        "Ġplant",
        -10.223457533638307
      ],
      [
        "-------------",
        -10.22373108737614
      ],
      [
        "Ġargue",
        -10.223931149516831
      ],
      [
        "Ġcolumn",
        -10.225130746907048
      ],
      [
        "ĠLe",
        -10.225256989651944
      ],
      [
        "Ġinterface",
        -10.22730804717922
      ],
      [
        "Ġbecomes",
        -10.227587528142982
      ],
      [
        "Ġsources",
        -10.227617743461595
      ],
      [
        "ĠWar",
        -10.228055050036135
      ],
      [
        "Ġguy",
        -10.228727386783596
      ],
      [
        "Ġstd",
        -10.22879551200912
      ],
      [
        "Ġdatabase",
        -10.228932355101112
      ],
      [
        "nearly",
        -10.229886033507842
      ],
      [
        "},\\",
        -10.230231470313635
      ],
      [
        "Ġbox",
        -10.230546198078729
      ],
      [
        "Ġgeneration",
        -10.231006731574531
      ],
      [
        "scale",
        -10.23109446325292
      ],
      [
        "Ġload",
        -10.23115635734864
      ],
      [
        "Ġreach",
        -10.23168255465095
      ],
      [
        "Calculate",
        -10.232266734007629
      ],
      [
        "ĠPM",
        -10.232609447317593
      ],
      [
        "Ġpoly",
        -10.23310786336616
      ],
      [
        "NS",
        -10.234972347737864
      ],
      [
        "specific",
        -10.235022624028176
      ],
      [
        "Ġsave",
        -10.23540397861037
      ],
      [
        "Ġweb",
        -10.235783965101525
      ],
      [
        "pre",
        -10.236186398696574
      ],
      [
        "distributed",
        -10.23657753873017
      ],
      [
        "Ġdetected",
        -10.23743594139004
      ],
      [
        "Ġofficer",
        -10.237615620990233
      ],
      [
        "resulting",
        -10.237919742917283
      ],
      [
        "Ġmoved",
        -10.238121520510873
      ],
      [
        "\",\"",
        -10.238462995951954
      ],
      [
        "Yes",
        -10.238932344758528
      ],
      [
        "Code",
        -10.238944709072062
      ],
      [
        "responsible",
        -10.239311344339086
      ],
      [
        "Ġcalculated",
        -10.239430547653749
      ],
      [
        "conducted",
        -10.239593168690382
      ],
      [
        "Ġhundred",
        -10.240521494326748
      ],
      [
        "Ġselection",
        -10.241656366110817
      ],
      [
        "Ġplaying",
        -10.241685720888865
      ],
      [
        "Ġperfect",
        -10.242037756243182
      ],
      [
        "variety",
        -10.242483246123891
      ],
      [
        "some",
        -10.243027393358556
      ],
      [
        "Ġmoving",
        -10.243059104116726
      ],
      [
        "Ġten",
        -10.243189509820754
      ],
      [
        "Ġ2018",
        -10.243520202456425
      ],
      [
        "Ġchar",
        -10.24355873174287
      ],
      [
        "mp",
        -10.243790666688668
      ],
      [
        "Ġresources",
        -10.244589235193095
      ],
      [
        "Ġyourself",
        -10.24494202498993
      ],
      [
        "Ġdaily",
        -10.245321721578975
      ],
      [
        "res",
        -10.245404662353044
      ],
      [
        "Ġvoice",
        -10.245590123027386
      ],
      [
        "Ġtesting",
        -10.245807335714758
      ],
      [
        "Ġroad",
        -10.2459272018629
      ],
      [
        "Ġnearest",
        -10.246161674784332
      ],
      [
        "ĠCalifornia",
        -10.246282273531312
      ],
      [
        "arrow",
        -10.246464359562387
      ],
      [
        "approximately",
        -10.246578566224011
      ],
      [
        "happened",
        -10.246671475293471
      ],
      [
        "Ġfully",
        -10.247166855925315
      ],
      [
        "lin",
        -10.247444176444981
      ],
      [
        "manner",
        -10.247624659951498
      ],
      [
        "Ġthinking",
        -10.247637049595236
      ],
      [
        "^{(",
        -10.247760804798412
      ],
      [
        "Ġmembrane",
        -10.247914897680054
      ],
      [
        "ĠPhys",
        -10.248140228281027
      ],
      [
        "Ġexchange",
        -10.248179692401996
      ],
      [
        "date",
        -10.248303260631078
      ],
      [
        "Ġhair",
        -10.249371977435095
      ],
      [
        "ĠOf",
        -10.24980103534725
      ],
      [
        "Ġrespond",
        -10.250253064601017
      ],
      [
        "Ġmaterials",
        -10.250666079823473
      ],
      [
        "Well",
        -10.251486802110184
      ],
      [
        "Ġdark",
        -10.251636792546732
      ],
      [
        "ĠEuropean",
        -10.252281239942656
      ],
      [
        "Ġprotect",
        -10.253245527541724
      ],
      [
        "limitation",
        -10.253835630296598
      ],
      [
        "Ġcycle",
        -10.254094249641831
      ],
      [
        "Ġsufficient",
        -10.254759507838838
      ],
      [
        "Ġready",
        -10.254766353558281
      ],
      [
        "create",
        -10.25500688094043
      ],
      [
        "AL",
        -10.255579346492413
      ],
      [
        "lock",
        -10.25566068870939
      ],
      [
        "Ġexperimental",
        -10.2556788952614
      ],
      [
        "arg",
        -10.255950124822576
      ],
      [
        "molecular",
        -10.257358479626292
      ],
      [
        "Ġmeaning",
        -10.25787825499247
      ],
      [
        "Ġpursu",
        -10.257978575102477
      ],
      [
        "bin",
        -10.258484704109089
      ],
      [
        "Ġexisting",
        -10.258722198055189
      ],
      [
        "Ġprint",
        -10.259892284999328
      ],
      [
        "Ġgovern",
        -10.260024678954506
      ],
      [
        "Ġchannel",
        -10.260386644991684
      ],
      [
        "izing",
        -10.26109222959609
      ],
      [
        "Ġgrant",
        -10.2612768138309
      ],
      [
        "Ġreplacement",
        -10.261516954837528
      ],
      [
        "Ġ/**",
        -10.261664548982361
      ],
      [
        "Ġbound",
        -10.2624531516265
      ],
      [
        "finally",
        -10.262495192346002
      ],
      [
        "Ġradio",
        -10.263040496526449
      ],
      [
        "AS",
        -10.26322113493829
      ],
      [
        "Ġdiscussion",
        -10.263625982715102
      ],
      [
        "model",
        -10.264763833626548
      ],
      [
        "Ġbrief",
        -10.265125314787984
      ],
      [
        "efficient",
        -10.26572254141225
      ],
      [
        "Ġremoved",
        -10.265988157513233
      ],
      [
        "Ġcareer",
        -10.26648674692695
      ],
      [
        "Ġchallenge",
        -10.266498069058423
      ],
      [
        "ĠMan",
        -10.267103475988153
      ],
      [
        "ensure",
        -10.267357995411366
      ],
      [
        "Ġmiddle",
        -10.268277109462947
      ],
      [
        "ptr",
        -10.269225675455075
      ],
      [
        "page",
        -10.269308209477728
      ],
      [
        "Add",
        -10.269367477749315
      ],
      [
        "ray",
        -10.269387190552369
      ],
      [
        "Ġfields",
        -10.269464773121276
      ],
      [
        "Ġ(**",
        -10.269698474493614
      ],
      [
        "Ġwidth",
        -10.269866198830302
      ],
      [
        "Ġcapacity",
        -10.270443863106404
      ],
      [
        "worked",
        -10.270671533437685
      ],
      [
        "Ġpiece",
        -10.270757531613864
      ],
      [
        "Ġanimals",
        -10.270844892166304
      ],
      [
        "using",
        -10.271521137163939
      ],
      [
        "denote",
        -10.272617718978271
      ],
      [
        "demonstrated",
        -10.272819273763904
      ],
      [
        "ĠRepublican",
        -10.272896664032732
      ],
      [
        "ward",
        -10.273374149196545
      ],
      [
        "ists",
        -10.273773697655187
      ],
      [
        "subset",
        -10.274464850668323
      ],
      [
        "See",
        -10.274925121907614
      ],
      [
        "Ġstuff",
        -10.275269735059585
      ],
      [
        "ĠFrom",
        -10.275281176007852
      ],
      [
        "init",
        -10.276004562270929
      ],
      [
        "holding",
        -10.276632952669395
      ],
      [
        "Ġcorrelation",
        -10.277258254865052
      ],
      [
        "\"})",
        -10.277662597842212
      ],
      [
        "Phi",
        -10.277988295396565
      ],
      [
        "Why",
        -10.278339530902192
      ],
      [
        "CC",
        -10.278447579787517
      ],
      [
        "ĠWhite",
        -10.278618169090416
      ],
      [
        "Ġreflect",
        -10.278978177154835
      ],
      [
        "Ġbottom",
        -10.279010769902309
      ],
      [
        "Ġweak",
        -10.279021988565265
      ],
      [
        "Ġclean",
        -10.2798321399626
      ],
      [
        "block",
        -10.280106681668315
      ],
      [
        "Ġbeginning",
        -10.280244648979137
      ],
      [
        "appears",
        -10.28032560565595
      ],
      [
        "Ġactions",
        -10.28049880291533
      ],
      [
        "Ġdecade",
        -10.281299841414024
      ],
      [
        "Ġdirector",
        -10.28138686340339
      ],
      [
        "*]{}",
        -10.282318864246285
      ],
      [
        "Ġmagnetic",
        -10.282652954363227
      ],
      [
        "ÂŃ",
        -10.283662666106052
      ],
      [
        "Ġbillion",
        -10.28386294346168
      ],
      [
        "Big",
        -10.283874671475012
      ],
      [
        "Ġfresh",
        -10.283907197884124
      ],
      [
        "Ġhot",
        -10.284395421258205
      ],
      [
        "Model",
        -10.28494940677513
      ],
      [
        "Ġmin",
        -10.285156621734362
      ],
      [
        "Ġincome",
        -10.285556446919287
      ],
      [
        "Ġdebt",
        -10.286326135052747
      ],
      [
        "gone",
        -10.286623419141925
      ],
      [
        "Manager",
        -10.286903665032032
      ],
      [
        "Ġdescription",
        -10.28697844659455
      ],
      [
        "Date",
        -10.287080719106827
      ],
      [
        "Ġunits",
        -10.28711254822956
      ],
      [
        "ĠIN",
        -10.287211763887534
      ],
      [
        "Ġsuggested",
        -10.28762942721437
      ],
      [
        "Ġwish",
        -10.28763008429901
      ],
      [
        "Ġalgorithm",
        -10.28884911884468
      ],
      [
        "Ġliquid",
        -10.289043688649672
      ],
      [
        "Ġpetition",
        -10.289056242156658
      ],
      [
        "Ġeight",
        -10.28946075531755
      ],
      [
        "Ġstation",
        -10.289505286981269
      ],
      [
        "Ġtruth",
        -10.290166667417568
      ],
      [
        "Ġtraditional",
        -10.290417740749696
      ],
      [
        "ĠMa",
        -10.290460231687149
      ],
      [
        "fully",
        -10.290635400060982
      ],
      [
        "cell",
        -10.290803865027298
      ],
      [
        "Ġclient",
        -10.290817112937003
      ],
      [
        "Ġsevere",
        -10.291074812493019
      ],
      [
        "Ġupper",
        -10.291429532153565
      ],
      [
        "ĊĊĠĠĠĠĠĠĠĠĠĠĠ",
        -10.292206516538268
      ],
      [
        "Ġnation",
        -10.292756083730312
      ],
      [
        "Our",
        -10.293783431227249
      ],
      [
        "ĠNULL",
        -10.293853317395357
      ],
      [
        "tra",
        -10.29411879436955
      ],
      [
        ")$,",
        -10.29470917433289
      ],
      [
        "unless",
        -10.294724176743559
      ],
      [
        "ĠBoard",
        -10.295237596324775
      ],
      [
        "++",
        -10.29549205036418
      ],
      [
        "Ġcomments",
        -10.295727242870477
      ],
      [
        "Ġsteps",
        -10.296864660409854
      ],
      [
        "discussed",
        -10.297072677933587
      ],
      [
        "Ġchemical",
        -10.297258475149347
      ],
      [
        "Ġerr",
        -10.298365716405504
      ],
      [
        "ĠTO",
        -10.298668036843395
      ],
      [
        "material",
        -10.298863540216034
      ],
      [
        "Count",
        -10.29906484797457
      ],
      [
        "Ġonto",
        -10.299084661942638
      ],
      [
        "num",
        -10.299338566292146
      ],
      [
        "Ġpassed",
        -10.29999157650064
      ],
      [
        "Ġcontain",
        -10.300518455775766
      ],
      [
        "Ġfirm",
        -10.300593199351116
      ],
      [
        "Ġdetection",
        -10.300654464007868
      ],
      [
        "Ġprocessing",
        -10.300899696120544
      ],
      [
        "IN",
        -10.300942180097184
      ],
      [
        "main",
        -10.301833655724352
      ],
      [
        "Ġdrop",
        -10.301900508799056
      ],
      [
        "Ġpackage",
        -10.302023146130761
      ],
      [
        "âĪĴ",
        -10.302682730414222
      ],
      [
        "Ġframe",
        -10.30293460520534
      ],
      [
        "placed",
        -10.303433749661549
      ],
      [
        "picked",
        -10.303633783459903
      ],
      [
        "]:",
        -10.304185299624743
      ],
      [
        "ĠIndia",
        -10.304287243868337
      ],
      [
        "Ġobjects",
        -10.304807988716426
      ],
      [
        "Ġgenerate",
        -10.305013312236738
      ],
      [
        "Ġoperator",
        -10.305329263538614
      ],
      [
        "Ġloop",
        -10.305495671503728
      ],
      [
        "aware",
        -10.30595258271606
      ],
      [
        "ĠGo",
        -10.30676495278896
      ],
      [
        "Ġgrow",
        -10.306769260589835
      ],
      [
        "ber",
        -10.306880600831459
      ],
      [
        "ting",
        -10.307371149697447
      ],
      [
        "raised",
        -10.308268101004401
      ],
      [
        "Ġcriminal",
        -10.308631949716986
      ],
      [
        "Ġdescribe",
        -10.3087282600142
      ],
      [
        "Ġsymptoms",
        -10.308926516252757
      ],
      [
        "Ġinsurance",
        -10.309161228005097
      ],
      [
        "Ġessential",
        -10.309485399236696
      ],
      [
        "stream",
        -10.309602882704038
      ],
      [
        "Sigma",
        -10.309816409918588
      ],
      [
        "Ġmaybe",
        -10.310014067221706
      ],
      [
        "Ġblue",
        -10.310861339979297
      ],
      [
        "Ġshift",
        -10.311097349695368
      ],
      [
        "Ġhealthy",
        -10.311938528809357
      ],
      [
        "\\<",
        -10.312090021338973
      ],
      [
        "talking",
        -10.312805003925012
      ],
      [
        "older",
        -10.313317727465556
      ],
      [
        "served",
        -10.31356105163207
      ],
      [
        "Ġcharacteristics",
        -10.31400114892217
      ],
      [
        "ĠIS",
        -10.314523120578375
      ],
      [
        "specifically",
        -10.314776146192106
      ],
      [
        "dimensional",
        -10.315417306492824
      ],
      [
        "ĠResearch",
        -10.315496262855417
      ],
      [
        "ler",
        -10.315702308202187
      ],
      [
        "Group",
        -10.315882916749445
      ],
      [
        "Ġspin",
        -10.315883553548867
      ],
      [
        "Ġvariation",
        -10.316081439024483
      ],
      [
        "ĠPublic",
        -10.316647332984266
      ],
      [
        "write",
        -10.31678390816618
      ],
      [
        "Ġdiscuss",
        -10.317586049423161
      ],
      [
        "Ġconduct",
        -10.318418764891721
      ],
      [
        "Ġworkers",
        -10.318469314770548
      ],
      [
        "towards",
        -10.318587436797811
      ],
      [
        "Ġcounter",
        -10.31934426104317
      ],
      [
        "ating",
        -10.320305764103697
      ],
      [
        "Ġproper",
        -10.320420121858398
      ],
      [
        "Ġabuse",
        -10.320456940443716
      ],
      [
        "Ġactivation",
        -10.320626555269968
      ],
      [
        "Ġexpress",
        -10.322290806265512
      ],
      [
        "Ġgenetic",
        -10.32276008440634
      ],
      [
        "Ġcontinuous",
        -10.32344101576808
      ],
      [
        "Ġmuscle",
        -10.323569822679515
      ],
      [
        "appellant",
        -10.323662248772244
      ],
      [
        "Ġmodern",
        -10.32370565664398
      ],
      [
        "Ġtests",
        -10.32398555765536
      ],
      [
        "Ġcontinued",
        -10.324537568717693
      ],
      [
        "denied",
        -10.324898128527918
      ],
      [
        "Ġwonder",
        -10.325150561066929
      ],
      [
        "ĠIL",
        -10.325313296831474
      ],
      [
        "typically",
        -10.325583763015638
      ],
      [
        "spent",
        -10.325863113724177
      ],
      [
        "Ġmeasures",
        -10.326211929110418
      ],
      [
        "ase",
        -10.327186294809426
      ],
      [
        "Ġenter",
        -10.327875758708409
      ],
      [
        "limits",
        -10.328225818279044
      ],
      [
        "can",
        -10.329174467438213
      ],
      [
        "MS",
        -10.3291938515654
      ],
      [
        "Field",
        -10.329408132539088
      ],
      [
        "Ġspeak",
        -10.329503423192156
      ],
      [
        "ĠFig",
        -10.329525649165959
      ],
      [
        "reached",
        -10.330557761069661
      ],
      [
        "(),",
        -10.330759839648739
      ],
      [
        "Ġcrime",
        -10.3307657521134
      ],
      [
        "Ġtestimon",
        -10.332088360806182
      ],
      [
        "First",
        -10.33216814592034
      ],
      [
        "ĠPaul",
        -10.333079643148302
      ],
      [
        "Ġforms",
        -10.33364167979433
      ],
      [
        "Ġestablish",
        -10.333884753724293
      ],
      [
        "func",
        -10.334185554037443
      ],
      [
        "Ġnamed",
        -10.334307085274524
      ],
      [
        "({\\",
        -10.334338882267106
      ],
      [
        "ĠEven",
        -10.33475459439855
      ],
      [
        "result",
        -10.335205353658083
      ],
      [
        "ard",
        -10.335237465518281
      ],
      [
        "growing",
        -10.335349338817318
      ],
      [
        "Once",
        -10.335541484451063
      ],
      [
        "ĠUK",
        -10.335889062890011
      ],
      [
        "0000",
        -10.33607172280975
      ],
      [
        "aid",
        -10.336476009782182
      ],
      [
        "Ġforeign",
        -10.336713304074053
      ],
      [
        "perhaps",
        -10.337692642127935
      ],
      [
        "âĢ²",
        -10.337829762158279
      ],
      [
        "Ġrapid",
        -10.338268569673415
      ],
      [
        "Ġprofessional",
        -10.338320390368812
      ],
      [
        "despite",
        -10.339169231233154
      ],
      [
        "Ġmusic",
        -10.339457086171153
      ],
      [
        "github",
        -10.340666840606834
      ],
      [
        "que",
        -10.341126705235803
      ],
      [
        "Ġ90",
        -10.341781584887988
      ],
      [
        "Ġhappy",
        -10.342021212420484
      ],
      [
        "confirmed",
        -10.342254654163558
      ],
      [
        "Ġsurvey",
        -10.34248865166918
      ],
      [
        "optical",
        -10.342581846259845
      ],
      [
        "Ġminor",
        -10.344090106212839
      ],
      [
        "Ġhour",
        -10.344161896817338
      ],
      [
        "Ġprotection",
        -10.344241647433822
      ],
      [
        "Ġconfiguration",
        -10.3445477007845
      ],
      [
        "ear",
        -10.34551459504299
      ],
      [
        "default",
        -10.345636883900935
      ],
      [
        "Ġswitch",
        -10.346260288596413
      ],
      [
        "Ġprograms",
        -10.34651596174457
      ],
      [
        "ĠCon",
        -10.346642718785683
      ],
      [
        "light",
        -10.346980290093635
      ],
      [
        "ĠPark",
        -10.3473695658027
      ],
      [
        "Ġtool",
        -10.347386553592736
      ],
      [
        "ĠOther",
        -10.348298389962348
      ],
      [
        "2015",
        -10.348314181885456
      ],
      [
        "han",
        -10.348588867337634
      ],
      [
        "Ġhyper",
        -10.348656814240991
      ],
      [
        "Ġclub",
        -10.34902583324228
      ],
      [
        "Ġreturned",
        -10.349719302319643
      ],
      [
        "circ",
        -10.35184354130584
      ],
      [
        "čĊĠĠĠĠĠĠĠĠĠĠĠ",
        -10.352460549215849
      ],
      [
        "Ġscience",
        -10.352585353067838
      ],
      [
        "Ġupdate",
        -10.352947685691891
      ],
      [
        "------------",
        -10.35297025144145
      ],
      [
        "properly",
        -10.354256484756272
      ],
      [
        "Ġ2007",
        -10.354673466414258
      ],
      [
        "vert",
        -10.355491784535424
      ],
      [
        "Ġkids",
        -10.35570558906366
      ],
      [
        "Ġcivil",
        -10.356116814540602
      ],
      [
        "Ġstudie",
        -10.3564842792361
      ],
      [
        "Ġdetect",
        -10.35651702265468
      ],
      [
        "Ġfamilies",
        -10.356955531433057
      ],
      [
        "Ġsurgery",
        -10.357581084728281
      ],
      [
        "Ġstrategy",
        -10.357928226227417
      ],
      [
        "Ġexhibit",
        -10.358009789672332
      ],
      [
        "Ġstudent",
        -10.358521541909257
      ],
      [
        "Ġfemale",
        -10.358997777347902
      ],
      [
        "Ġtransport",
        -10.359222225890548
      ],
      [
        "ĠCongress",
        -10.359418345201735
      ],
      [
        "check",
        -10.359568797310596
      ],
      [
        ")**",
        -10.359584507650565
      ],
      [
        "Ġball",
        -10.359909627782505
      ],
      [
        "Ġnovel",
        -10.360311023010489
      ],
      [
        "}}(",
        -10.360722885767936
      ],
      [
        "xml",
        -10.3608448566674
      ],
      [
        "Ġhuge",
        -10.361802474174779
      ],
      [
        "Ġdrugs",
        -10.364177002398902
      ],
      [
        "ĠPa",
        -10.364249688195878
      ],
      [
        "Ġmid",
        -10.366194729793074
      ],
      [
        "accurate",
        -10.366908711781324
      ],
      [
        "Ġsleep",
        -10.367036874741391
      ],
      [
        "Ġfloor",
        -10.36725138585583
      ],
      [
        "Ġcommunication",
        -10.367271684958435
      ],
      [
        "Ġachieve",
        -10.367746323694323
      ],
      [
        "Ġsuccessful",
        -10.36786409005691
      ],
      [
        "uk",
        -10.368291634591092
      ],
      [
        "Ġbroad",
        -10.368713571410245
      ],
      [
        "ĠEnglish",
        -10.368808734206057
      ],
      [
        "Ġwatch",
        -10.370131956453157
      ],
      [
        "\"},",
        -10.370637792293318
      ],
      [
        "Ġprofile",
        -10.370879776644081
      ],
      [
        "ĠInternational",
        -10.371099834657354
      ],
      [
        "Ġitem",
        -10.371243816637639
      ],
      [
        "message",
        -10.371475263016148
      ],
      [
        "Ġ-->",
        -10.371813452947372
      ],
      [
        "mer",
        -10.372022117957354
      ],
      [
        "čĊč",
        -10.372761391658253
      ],
      [
        "Ġcore",
        -10.372805821647521
      ],
      [
        "Ġtested",
        -10.373439435505928
      ],
      [
        "society",
        -10.373639780027691
      ],
      [
        "Ġagent",
        -10.374587724796402
      ],
      [
        "remains",
        -10.375361585390014
      ],
      [
        "Ġpurchase",
        -10.37601256802695
      ],
      [
        "Ġaccept",
        -10.376038540033589
      ],
      [
        "Ġuses",
        -10.376361564001574
      ],
      [
        "summary",
        -10.376736218839419
      ],
      [
        "CD",
        -10.377321278675495
      ],
      [
        "Ġprepared",
        -10.37797215557642
      ],
      [
        "Ġcombined",
        -10.377976007407037
      ],
      [
        "lang",
        -10.378734596979122
      ],
      [
        "User",
        -10.378783519339393
      ],
      [
        "Ġinvolve",
        -10.379779458050827
      ],
      [
        "circumstances",
        -10.38020010791181
      ],
      [
        "Ġrare",
        -10.380324660212992
      ],
      [
        "ĠApp",
        -10.380417332274472
      ],
      [
        "kept",
        -10.380762989345305
      ],
      [
        "Supreme",
        -10.380809769074826
      ],
      [
        "Ġgirl",
        -10.380993129778863
      ],
      [
        "Â»",
        -10.38177300096175
      ],
      [
        "}}}",
        -10.381828107302768
      ],
      [
        "Ġofficials",
        -10.38190758188369
      ],
      [
        "Ġfight",
        -10.382393330354802
      ],
      [
        "Ġstructures",
        -10.38250583928696
      ],
      [
        "ĠBo",
        -10.382543190256127
      ],
      [
        "Ġsurvival",
        -10.38341447253905
      ],
      [
        "Ġdose",
        -10.383938758567545
      ],
      [
        "Ġ35",
        -10.384304282240125
      ],
      [
        ")).",
        -10.384890605622154
      ],
      [
        "Ġtree",
        -10.38576468279992
      ],
      [
        "advantage",
        -10.385926159370383
      ],
      [
        "Ġdriver",
        -10.386025593269288
      ],
      [
        ".](",
        -10.386129910318473
      ],
      [
        "print",
        -10.386554907635956
      ],
      [
        "ĠCal",
        -10.388157644733212
      ],
      [
        "Ġreceptor",
        -10.388162704331542
      ],
      [
        "Lambda",
        -10.388767891278336
      ],
      [
        "Ġquarter",
        -10.389056342730587
      ],
      [
        "Ġkilled",
        -10.389929518970739
      ],
      [
        "Ġdemonstrate",
        -10.390622997129428
      ],
      [
        "after",
        -10.390703120755207
      ],
      [
        "Ġque",
        -10.390772626041148
      ],
      [
        "house",
        -10.391613329969124
      ],
      [
        "Ġdoubt",
        -10.391932278515789
      ],
      [
        "Ġconflict",
        -10.39269597556958
      ],
      [
        "Ġpicture",
        -10.393755604378352
      ],
      [
        "Ġscheme",
        -10.394039067290594
      ],
      [
        "Ġminimum",
        -10.394209128479233
      ],
      [
        "Ġdiet",
        -10.39433075909076
      ],
      [
        "Ġplans",
        -10.394626831460377
      ],
      [
        "ĠGreen",
        -10.394710415418581
      ],
      [
        "Ġcommercial",
        -10.39509496651592
      ],
      [
        "Ed",
        -10.395481671214657
      ],
      [
        "Ġcatch",
        -10.395567954319002
      ],
      [
        "Ġtrust",
        -10.395677122934217
      ],
      [
        "Ġplaces",
        -10.396439418262087
      ],
      [
        "explained",
        -10.396586651102849
      ],
      [
        "finite",
        -10.396958623937333
      ],
      [
        "order",
        -10.397496266941728
      ],
      [
        "bit",
        -10.39767286912173
      ],
      [
        "Ġinteger",
        -10.398003563490512
      ],
      [
        "Ġ(!",
        -10.398371987488416
      ],
      [
        "Î¼",
        -10.3986277232744
      ],
      [
        "Ġpromote",
        -10.398682308692816
      ],
      [
        "Ġnuclear",
        -10.39941498551152
      ],
      [
        "\\],",
        -10.399437324095556
      ],
      [
        "matrix",
        -10.400380619264261
      ],
      [
        "Ġconcept",
        -10.400697999301968
      ],
      [
        "Ġbuffer",
        -10.400805113025973
      ],
      [
        "absence",
        -10.40085340271083
      ],
      [
        "Monday",
        -10.40107753762724
      ],
      [
        "ĠHa",
        -10.401324496270256
      ],
      [
        "analyzed",
        -10.402033423664951
      ],
      [
        "you",
        -10.403068705136139
      ],
      [
        "Ġfeet",
        -10.403137829413675
      ],
      [
        "cos",
        -10.403522381201748
      ],
      [
        "ĠSa",
        -10.40374283233979
      ],
      [
        "Ġresolution",
        -10.403946632516313
      ],
      [
        "quantum",
        -10.404705243784296
      ],
      [
        "Ġextend",
        -10.405112377064754
      ],
      [
        "Ġsuffer",
        -10.40527508288934
      ],
      [
        "ĠHer",
        -10.405330050659957
      ],
      [
        "Ġthrow",
        -10.4059870616747
      ],
      [
        "Ġmental",
        -10.406404358724377
      ],
      [
        "ĠAM",
        -10.406440495048969
      ],
      [
        "intended",
        -10.406600328272312
      ],
      [
        "occurred",
        -10.406985917844194
      ],
      [
        "Ġsolutions",
        -10.407179710355683
      ],
      [
        "Ġselect",
        -10.407294719440625
      ],
      [
        "Ġmentioned",
        -10.407321157492486
      ],
      [
        "Ġrelation",
        -10.407831970108742
      ],
      [
        "Ġplus",
        -10.408621710493396
      ],
      [
        "ES",
        -10.409483330441624
      ],
      [
        "ĠCan",
        -10.409881254909251
      ],
      [
        "otimes",
        -10.410571140412172
      ],
      [
        "improved",
        -10.410739784833563
      ],
      [
        "ative",
        -10.410946663880331
      ],
      [
        "çļĦ",
        -10.410996956034634
      ],
      [
        "Ġrow",
        -10.411648368343764
      ],
      [
        "ĠDavid",
        -10.41175145002227
      ],
      [
        "Ġhandle",
        -10.41217631387859
      ],
      [
        "event",
        -10.412588704073658
      ],
      [
        "ties",
        -10.412834394953746
      ],
      [
        "Ġprobability",
        -10.41407878072179
      ],
      [
        "Ġsuit",
        -10.414444721748886
      ],
      [
        "Ġcollected",
        -10.415231237144688
      ],
      [
        "action",
        -10.415551643984411
      ],
      [
        "Ġmovie",
        -10.415700795280973
      ],
      [
        "either",
        -10.415777358380927
      ],
      [
        "Ġmotor",
        -10.415847750156376
      ],
      [
        "boldsymbol",
        -10.416507802148947
      ],
      [
        "Ġemployees",
        -10.416854511602791
      ],
      [
        "NO",
        -10.417013789095929
      ],
      [
        "Ġsubstrate",
        -10.418171314221228
      ],
      [
        "Ġopening",
        -10.41871047803195
      ],
      [
        "Ġtreat",
        -10.419228211186624
      ],
      [
        "/**",
        -10.41960479330872
      ],
      [
        "Ġsupply",
        -10.419845767372053
      ],
      [
        "guilt",
        -10.420429433916283
      ],
      [
        "Ġdocument",
        -10.420835824168282
      ],
      [
        "ung",
        -10.421036825808363
      ],
      [
        "died",
        -10.421048974080978
      ],
      [
        "Ġexternal",
        -10.42108105139581
      ],
      [
        "Ġscene",
        -10.421093744665109
      ],
      [
        "Ġintroduced",
        -10.42133720048991
      ],
      [
        "Ġprob",
        -10.421827863948838
      ],
      [
        "Click",
        -10.422282834599253
      ],
      [
        "Ġrise",
        -10.422294094341373
      ],
      [
        "Ġvirtual",
        -10.423016701744608
      ],
      [
        "util",
        -10.423681658948409
      ],
      [
        "property",
        -10.4236932095678
      ],
      [
        "Ġaffected",
        -10.42402446614395
      ],
      [
        "kg",
        -10.425251572174705
      ],
      [
        "mid",
        -10.425657554517132
      ],
      [
        "Ġpress",
        -10.42645145599446
      ],
      [
        "ĠPat",
        -10.426598339620918
      ],
      [
        "voltage",
        -10.426713550297807
      ],
      [
        "false",
        -10.4268319178404
      ],
      [
        "tab",
        -10.427594977247546
      ],
      [
        "post",
        -10.427615593597903
      ],
      [
        "ial",
        -10.428544878320578
      ],
      [
        "CH",
        -10.428689211285533
      ],
      [
        "Ġcaus",
        -10.429835124538766
      ],
      [
        "existence",
        -10.430118620175895
      ],
      [
        "Ġoperations",
        -10.43030695169513
      ],
      [
        "Ġbeautiful",
        -10.43068819494533
      ],
      [
        "Ġjava",
        -10.430871871071757
      ],
      [
        "has",
        -10.43099638060585
      ],
      [
        "Ġsummer",
        -10.431091786296019
      ],
      [
        "Ġdiagnosis",
        -10.431246308254188
      ],
      [
        "\"></",
        -10.431503449544566
      ],
      [
        "height",
        -10.43155947422421
      ],
      [
        "Ġclasses",
        -10.43192154269008
      ],
      [
        "Ã¡",
        -10.432230111998575
      ],
      [
        "Ġsexual",
        -10.43292485301712
      ],
      [
        "Ġmurder",
        -10.432953561866555
      ],
      [
        "ney",
        -10.433574490636461
      ],
      [
        "Ġ200",
        -10.433585379665704
      ],
      [
        "Ġnil",
        -10.433985286243681
      ],
      [
        "Ġinvestment",
        -10.434017115850914
      ],
      [
        "ĠSe",
        -10.434193654320195
      ],
      [
        "System",
        -10.434215522962491
      ],
      [
        "Â¶",
        -10.434746483625903
      ],
      [
        "Ġpeak",
        -10.43589724946405
      ],
      [
        "Ġequivalent",
        -10.436154288882602
      ],
      [
        "Ġestimate",
        -10.436212676107024
      ],
      [
        "Ġattend",
        -10.436780746343166
      ],
      [
        "Ġsquare",
        -10.43684989853036
      ],
      [
        "font",
        -10.436969673050411
      ],
      [
        "Ġnone",
        -10.436980994365616
      ],
      [
        "Ġestimated",
        -10.437168049908031
      ],
      [
        "Ġbiggest",
        -10.437495808331807
      ],
      [
        "ious",
        -10.437510473761376
      ],
      [
        "ĠLondon",
        -10.438815302690879
      ],
      [
        "AP",
        -10.439017499265981
      ],
      [
        "Ġassessment",
        -10.439031039677475
      ],
      [
        "Button",
        -10.43903276302094
      ],
      [
        "****************",
        -10.43920315780073
      ],
      [
        "Ġcollege",
        -10.439307767197887
      ],
      [
        "Ġmanager",
        -10.439412430826588
      ],
      [
        "dependent",
        -10.439444239490664
      ],
      [
        "Ġremaining",
        -10.44029581607987
      ],
      [
        "exp",
        -10.440908058239676
      ],
      [
        "Appellant",
        -10.440943262462797
      ],
      [
        "Ġwild",
        -10.441228998498456
      ],
      [
        "economy",
        -10.441326965349784
      ],
      [
        "Ġrepresentation",
        -10.442176148228816
      ],
      [
        "Ġorganization",
        -10.443057916540242
      ],
      [
        "Ġparent",
        -10.443137155318556
      ],
      [
        "2016",
        -10.44336247611822
      ],
      [
        "Ġband",
        -10.443391000122178
      ],
      [
        "offense",
        -10.443636995131852
      ],
      [
        "Â½",
        -10.44369525474377
      ],
      [
        "Ġtechniques",
        -10.444336023453008
      ],
      [
        "range",
        -10.444857499516543
      ],
      [
        "Ġanimal",
        -10.445209641573662
      ],
      [
        "Ġ2006",
        -10.44689614134901
      ],
      [
        "Ġguess",
        -10.44755028185196
      ],
      [
        "Theorem",
        -10.447570386718084
      ],
      [
        "eat",
        -10.44892823081883
      ],
      [
        "$$\\",
        -10.448946738029463
      ],
      [
        "violation",
        -10.449524284291131
      ],
      [
        "tag",
        -10.449603162720996
      ],
      [
        "Ġstorage",
        -10.449703331818075
      ],
      [
        "Ġthank",
        -10.449717967449242
      ],
      [
        "covered",
        -10.449726411984676
      ],
      [
        "005",
        -10.44977504541748
      ],
      [
        "Ġ70",
        -10.450435964033327
      ],
      [
        "ĠPlaintiff",
        -10.45077806889205
      ],
      [
        "Ġexperiment",
        -10.450866704977198
      ],
      [
        "Ġrequirements",
        -10.450875567342594
      ],
      [
        "2014",
        -10.451527720894946
      ],
      [
        "Ġdraw",
        -10.451718801463777
      ],
      [
        "Ġlinks",
        -10.451983215040162
      ],
      [
        "Ġfootball",
        -10.452080450306276
      ],
      [
        "Ġfluid",
        -10.452127625708894
      ],
      [
        "2013",
        -10.45223076845558
      ],
      [
        "============",
        -10.452897296682352
      ],
      [
        "Ġsecret",
        -10.453296320391969
      ],
      [
        "Ġbank",
        -10.453631558692997
      ],
      [
        "Ãł",
        -10.454285724890857
      ],
      [
        "mon",
        -10.456113377119118
      ],
      [
        "button",
        -10.456274862609328
      ],
      [
        "Ġextent",
        -10.456587088625398
      ],
      [
        "Ġcurve",
        -10.45681995306085
      ],
      [
        "Ġconventional",
        -10.456823335312682
      ],
      [
        "contained",
        -10.456824238199262
      ],
      [
        "non",
        -10.457226675664552
      ],
      [
        "Ġbreast",
        -10.4580377399791
      ],
      [
        "Ġassay",
        -10.4581336082741
      ],
      [
        "Ġprogress",
        -10.458403165166535
      ],
      [
        "Ġfavor",
        -10.458781117171931
      ],
      [
        "spectrum",
        -10.45946115690105
      ],
      [
        "Ġsets",
        -10.459986373922883
      ],
      [
        "Ġpredict",
        -10.461964123511878
      ],
      [
        "Ġcreating",
        -10.462027310896369
      ],
      [
        "Ġtrain",
        -10.46220723326317
      ],
      [
        "ĠBank",
        -10.462330446456837
      ],
      [
        "US",
        -10.462858178233688
      ],
      [
        "Ġ2000",
        -10.463074208938353
      ],
      [
        "ĠTV",
        -10.463290739329034
      ],
      [
        "Ġclick",
        -10.463353698476862
      ],
      [
        "letters",
        -10.463834831208816
      ],
      [
        "ĠEast",
        -10.464055459390105
      ],
      [
        "Ġtouch",
        -10.46440888010023
      ],
      [
        "Ġblog",
        -10.464579202836166
      ],
      [
        "Ġplatform",
        -10.464615092542287
      ],
      [
        "ĠIsrael",
        -10.464903661434654
      ],
      [
        "ible",
        -10.465018273026192
      ],
      [
        "SD",
        -10.465243663424868
      ],
      [
        "Ġtrack",
        -10.465301771168976
      ],
      [
        "Ġconclude",
        -10.465392152548224
      ],
      [
        "ĠUn",
        -10.46560742866069
      ],
      [
        "Ġformula",
        -10.466414176341878
      ],
      [
        "Ġmissing",
        -10.466485636160362
      ],
      [
        "Ġmodule",
        -10.466516142092718
      ],
      [
        "Ġmono",
        -10.466926605637239
      ],
      [
        "Ġtechnique",
        -10.467209446978348
      ],
      [
        "Client",
        -10.468372560839272
      ],
      [
        "Ġauthor",
        -10.469318943770942
      ],
      [
        "Element",
        -10.469397022175714
      ],
      [
        "ĠTexas",
        -10.469508910452126
      ],
      [
        "ĠInstitute",
        -10.469547465277003
      ],
      [
        "adding",
        -10.46956161687621
      ],
      [
        "margin",
        -10.469802493540895
      ],
      [
        "004",
        -10.470614935104823
      ],
      [
        "typical",
        -10.471492161179528
      ],
      [
        "**)",
        -10.471811925908094
      ],
      [
        "arphi",
        -10.472834078292783
      ],
      [
        "charged",
        -10.473378640080773
      ],
      [
        "Ġtrip",
        -10.47384773404543
      ],
      [
        "į",
        -10.474443277635737
      ],
      [
        "2012",
        -10.474486447391985
      ],
      [
        "mbox",
        -10.474733547403956
      ],
      [
        "Ġadult",
        -10.474965379333195
      ],
      [
        "ĠMost",
        -10.475048101818974
      ],
      [
        "Ġgun",
        -10.475059691913705
      ],
      [
        "OUT",
        -10.47628453128554
      ],
      [
        "Ġauthority",
        -10.476481287722876
      ],
      [
        "ĠStreet",
        -10.476482795763435
      ],
      [
        "Some",
        -10.47673994193189
      ],
      [
        "slightly",
        -10.476792836244458
      ],
      [
        "Ġplate",
        -10.476857916354591
      ],
      [
        "driving",
        -10.476983775053954
      ],
      [
        "Ġbalance",
        -10.477297467677106
      ],
      [
        "ĠYour",
        -10.477385895438267
      ],
      [
        "reasons",
        -10.477440513185813
      ],
      [
        "Ġbirth",
        -10.477471949257712
      ],
      [
        "Ġseek",
        -10.478244234858828
      ],
      [
        "Ġcalls",
        -10.478286499173297
      ],
      [
        "ĠNote",
        -10.47852827178994
      ],
      [
        "king",
        -10.478656997254918
      ],
      [
        "ĠHigh",
        -10.478978091879611
      ],
      [
        "onumber",
        -10.47902465948748
      ],
      [
        "ĠGroup",
        -10.479767321187289
      ],
      [
        "ĠPro",
        -10.48069288212762
      ],
      [
        "Ġcandidate",
        -10.481382292391176
      ],
      [
        "Ġraise",
        -10.481537465545887
      ],
      [
        "Ġtools",
        -10.48158006053834
      ],
      [
        "kappa",
        -10.481611738567093
      ],
      [
        "her",
        -10.482671408660405
      ],
      [
        "img",
        -10.482978337674611
      ],
      [
        "possibility",
        -10.483124299919057
      ],
      [
        "SM",
        -10.483364965554617
      ],
      [
        "Ġformat",
        -10.483436270432975
      ],
      [
        "latter",
        -10.483938563718592
      ],
      [
        "Ġdie",
        -10.484009306666307
      ],
      [
        "Ġjoint",
        -10.484942459628584
      ],
      [
        "ĠRNA",
        -10.485063870563021
      ],
      [
        "ĠBritish",
        -10.485217898463508
      ],
      [
        "Ġpathway",
        -10.485433678746043
      ],
      [
        "offered",
        -10.486231202396276
      ],
      [
        "Ġsmooth",
        -10.486804699634277
      ],
      [
        "ĠCommission",
        -10.487049783108096
      ],
      [
        "operating",
        -10.48709371973691
      ],
      [
        "ĠEurope",
        -10.487149995155368
      ],
      [
        "Ġexception",
        -10.487559025942048
      ],
      [
        "referred",
        -10.487752240678583
      ],
      [
        "Ġlargest",
        -10.48800544021895
      ],
      [
        "announced",
        -10.489245455478544
      ],
      [
        "mar",
        -10.489704850283207
      ],
      [
        "Ġdelay",
        -10.49070857234351
      ],
      [
        "Results",
        -10.49243533433515
      ],
      [
        "Ġpercentage",
        -10.492503294423168
      ],
      [
        "Ġentry",
        -10.492644426731687
      ],
      [
        "ĠCI",
        -10.492715413812203
      ],
      [
        "ways",
        -10.493069211939808
      ],
      [
        "Ġwarrant",
        -10.49320759615522
      ],
      [
        "Yeah",
        -10.493519826688388
      ],
      [
        "Ġreveal",
        -10.494829142751898
      ],
      [
        "Ġfat",
        -10.494924743210502
      ],
      [
        "Ġassess",
        -10.494954030223134
      ],
      [
        "ory",
        -10.495012353457952
      ],
      [
        "ÃĹ",
        -10.495494738487674
      ],
      [
        "approved",
        -10.495541229633353
      ],
      [
        "Ġimplementation",
        -10.495708088458697
      ],
      [
        "Ġpurposes",
        -10.49602016660796
      ],
      [
        "Ġsummary",
        -10.496083173260853
      ],
      [
        "ultimate",
        -10.496326859115975
      ],
      [
        "Ġrecords",
        -10.496670815980082
      ],
      [
        "Ġfoot",
        -10.496778614017279
      ],
      [
        "Ġincident",
        -10.497094480851898
      ],
      [
        "last",
        -10.49723737187969
      ],
      [
        "ĠFoundation",
        -10.497288973705395
      ],
      [
        "Ġharm",
        -10.497340428235141
      ],
      [
        "čĊĉ",
        -10.498396517451583
      ],
      [
        "Ġplane",
        -10.498408840737726
      ],
      [
        "ĠBlack",
        -10.498448870669144
      ],
      [
        "ĠCouncil",
        -10.498924935692028
      ],
      [
        "Ġadvance",
        -10.498966674053758
      ],
      [
        "Int",
        -10.499033278872943
      ],
      [
        "ĠLaw",
        -10.499566500392838
      ],
      [
        "ĠJudge",
        -10.499821130607424
      ],
      [
        "Ġoutcome",
        -10.500070796664634
      ],
      [
        "ĠCA",
        -10.500104337557724
      ],
      [
        "Content",
        -10.50039934800782
      ],
      [
        "Ġcoverage",
        -10.500464369291102
      ],
      [
        "ement",
        -10.50051178698459
      ],
      [
        "Ġ37",
        -10.500631376773343
      ],
      [
        "ĠCar",
        -10.500685767517828
      ],
      [
        "][",
        -10.501460489900412
      ],
      [
        "Ġdog",
        -10.501793812806804
      ],
      [
        "Page",
        -10.5020601351127
      ],
      [
        "pos",
        -10.50246141440455
      ],
      [
        "ĠGet",
        -10.504399376187367
      ],
      [
        "-----------",
        -10.504404976240002
      ],
      [
        "Ġderived",
        -10.504751586939596
      ],
      [
        "Ġobjective",
        -10.505442364785974
      ],
      [
        "ĠRed",
        -10.505602409288826
      ],
      [
        ".$$",
        -10.505811053193039
      ],
      [
        "target",
        -10.505902233516446
      ],
      [
        "Ġcomplaint",
        -10.507094334759932
      ],
      [
        "standing",
        -10.507248334225785
      ],
      [
        "determination",
        -10.507566408682345
      ],
      [
        "Ġeasi",
        -10.508019581037734
      ],
      [
        "2017",
        -10.508531366716099
      ],
      [
        "Response",
        -10.50855056224207
      ],
      [
        "ĠFriday",
        -10.50908719434541
      ],
      [
        "ĠGoogle",
        -10.509147115241891
      ],
      [
        "Ġcontrols",
        -10.50932212919323
      ],
      [
        "Ġcapital",
        -10.509480320895845
      ],
      [
        "})$",
        -10.509534251597094
      ],
      [
        "Ġvirus",
        -10.509555736564321
      ],
      [
        "Ġrefer",
        -10.509736117455395
      ],
      [
        "first",
        -10.510582208589934
      ],
      [
        "Ġthreat",
        -10.510880722052212
      ],
      [
        "null",
        -10.51103563245073
      ],
      [
        "Ġentered",
        -10.511776516276543
      ],
      [
        "ĠCode",
        -10.512088672826682
      ],
      [
        "Ġsubjects",
        -10.512355251244859
      ],
      [
        "ĠChinese",
        -10.512615158598612
      ],
      [
        "Ġsales",
        -10.513188121281193
      ],
      [
        "ĠCanada",
        -10.513471447576487
      ],
      [
        "RE",
        -10.514026118626752
      ],
      [
        "Ġlatest",
        -10.514817263313622
      ],
      [
        "star",
        -10.515655613941414
      ],
      [
        "Ġinstall",
        -10.515706285946289
      ],
      [
        "upplementary",
        -10.515929007542207
      ],
      [
        "Ġdry",
        -10.515997881320143
      ],
      [
        "work",
        -10.516359710338495
      ],
      [
        "media",
        -10.516757524709682
      ],
      [
        "Ġnoise",
        -10.516955990974145
      ],
      [
        "Ġagency",
        -10.517039941859775
      ],
      [
        "PS",
        -10.517359711613897
      ],
      [
        "Ġcold",
        -10.517806502676086
      ],
      [
        "Ġdu",
        -10.518337905740866
      ],
      [
        "Ġcontribute",
        -10.518475381213655
      ],
      [
        "Property",
        -10.519531297975854
      ],
      [
        "Ġprotected",
        -10.519923287341813
      ],
      [
        "Ġcomposition",
        -10.52017509709474
      ],
      [
        "These",
        -10.52110703054102
      ],
      [
        "ĠDon",
        -10.521472196906068
      ],
      [
        "Ġenvironmental",
        -10.521674657878611
      ],
      [
        "Ġrepeated",
        -10.522225721302165
      ],
      [
        "ĊĊĠĠĠĠĠ",
        -10.522751809420665
      ],
      [
        "**]{},",
        -10.523267826947233
      ],
      [
        "importance",
        -10.52341959432435
      ],
      [
        "Ġdaughter",
        -10.523726956782822
      ],
      [
        "Ġarm",
        -10.523903098815556
      ],
      [
        "json",
        -10.524592157815448
      ],
      [
        "Ġinterview",
        -10.52505988033908
      ],
      [
        "Ġanalyses",
        -10.525076029716383
      ],
      [
        "Ġeventual",
        -10.525615081410113
      ],
      [
        "else",
        -10.526041638743811
      ],
      [
        "Ġ2005",
        -10.526127898716528
      ],
      [
        "Ġspend",
        -10.526516552961068
      ],
      [
        "}}{",
        -10.526999384767823
      ],
      [
        "ĠKo",
        -10.527371451187316
      ],
      [
        "ĠÎ¼",
        -10.528313779462867
      ],
      [
        "changing",
        -10.528703505937237
      ],
      [
        "Ġspeech",
        -10.528944175431755
      ],
      [
        "Ġequipment",
        -10.530072073574686
      ],
      [
        "Result",
        -10.530167515857828
      ],
      [
        "ĠMar",
        -10.530834063144752
      ],
      [
        "local",
        -10.530949400069217
      ],
      [
        "put",
        -10.531049337281539
      ],
      [
        "Ġdigit",
        -10.53134202666265
      ],
      [
        "client",
        -10.5319080957037
      ],
      [
        "ĠAm",
        -10.531944762799883
      ],
      [
        "Ġvictim",
        -10.532254674882935
      ],
      [
        "Ġarrive",
        -10.534059992675484
      ],
      [
        "Ġcharacters",
        -10.534062991867403
      ],
      [
        "Ġelectronic",
        -10.534850358597547
      ],
      [
        "Ġagents",
        -10.534945187415897
      ],
      [
        "current",
        -10.535130831512308
      ],
      [
        "Ġvisual",
        -10.535688114052856
      ],
      [
        "Ġdigital",
        -10.536003583931748
      ],
      [
        "Ġschools",
        -10.53681807584119
      ],
      [
        "Ġwants",
        -10.536978904527876
      ],
      [
        "ĠAr",
        -10.537885103235272
      ],
      [
        "ĊĊĠĠĠĠĠĠ",
        -10.538364534746346
      ],
      [
        "Ġextract",
        -10.539051774415908
      ],
      [
        "ants",
        -10.539436811987965
      ],
      [
        "Ġstable",
        -10.539557303523178
      ],
      [
        "Ġsell",
        -10.539651203722018
      ],
      [
        "Ġcamera",
        -10.540091115870773
      ],
      [
        "Ġdecide",
        -10.540218338310329
      ],
      [
        "Ġinteractions",
        -10.540292766439347
      ],
      [
        "300",
        -10.540301235129064
      ],
      [
        "win",
        -10.54080294492632
      ],
      [
        "ħ",
        -10.540824311064418
      ],
      [
        "Ġfuel",
        -10.54097449863891
      ],
      [
        "Ġcard",
        -10.54101106373511
      ],
      [
        "represented",
        -10.54119164618284
      ],
      [
        "appeared",
        -10.54141014564216
      ],
      [
        "Ġcompleted",
        -10.541459218006835
      ],
      [
        "**]{}",
        -10.542003146562898
      ],
      [
        "Ġdepartment",
        -10.542038655180436
      ],
      [
        "Ġprefer",
        -10.542448306387518
      ],
      [
        "Ġheavy",
        -10.542857801250943
      ],
      [
        "module",
        -10.54296891001396
      ],
      [
        "Ġwhatever",
        -10.543066745646838
      ],
      [
        "ĠJames",
        -10.543390688139352
      ],
      [
        "Ġcorrespond",
        -10.543801017342222
      ],
      [
        "Defendant",
        -10.543956090224205
      ],
      [
        "';",
        -10.544291150667854
      ],
      [
        "Source",
        -10.54510579631598
      ],
      [
        "Ġevaluation",
        -10.545439635184449
      ],
      [
        "Ġshared",
        -10.54573730035259
      ],
      [
        "nabla",
        -10.54596692858159
      ],
      [
        "ran",
        -10.545969750181424
      ],
      [
        "rate",
        -10.546166722688337
      ],
      [
        "Ġseat",
        -10.546309049478483
      ],
      [
        "Ġhusband",
        -10.54727978749722
      ],
      [
        "Ġvalid",
        -10.547577097561701
      ],
      [
        "Ġtransmission",
        -10.547638463594332
      ],
      [
        "']",
        -10.547796405737678
      ],
      [
        "ide",
        -10.547832015682859
      ],
      [
        "Ġowner",
        -10.547932994735568
      ],
      [
        "format",
        -10.549092237785603
      ],
      [
        "Box",
        -10.549491213696857
      ],
      [
        "Ġkill",
        -10.549583753979999
      ],
      [
        "Ġideal",
        -10.550210517407724
      ],
      [
        "Ġchronic",
        -10.550293622656923
      ],
      [
        "Un",
        -10.550478014844291
      ],
      [
        "ĠSuch",
        -10.550796741005048
      ],
      [
        "2011",
        -10.551079242030058
      ],
      [
        "Ġ+=",
        -10.551212185770874
      ],
      [
        "Thursday",
        -10.551775441801466
      ],
      [
        "Ġidentity",
        -10.552282903590328
      ],
      [
        "context",
        -10.554491500468519
      ],
      [
        "apache",
        -10.554923861053213
      ],
      [
        "Ġliver",
        -10.55515404258036
      ],
      [
        "©",
        -10.555482654846243
      ],
      [
        "ĠIndian",
        -10.555647203587272
      ],
      [
        "ahead",
        -10.555979603424158
      ],
      [
        "ĠKa",
        -10.556391258952889
      ],
      [
        "Ġcool",
        -10.557178476902406
      ],
      [
        "serum",
        -10.557224658594361
      ],
      [
        "request",
        -10.55728248430652
      ],
      [
        "Ġpayment",
        -10.557382825835814
      ],
      [
        "Ġplants",
        -10.557690517432931
      ],
      [
        "ze",
        -10.557982042588597
      ],
      [
        "Link",
        -10.55873198727716
      ],
      [
        "Ġreality",
        -10.55903518059172
      ],
      [
        "section",
        -10.55981369833576
      ],
      [
        "Label",
        -10.560373709231705
      ],
      [
        "128",
        -10.56055787012563
      ],
      [
        "Ġsoft",
        -10.560641407348557
      ],
      [
        "prop",
        -10.560755168974781
      ],
      [
        "ĠMc",
        -10.560836635233708
      ],
      [
        "Or",
        -10.56136873954382
      ],
      [
        "Number",
        -10.561441773431804
      ],
      [
        "lim",
        -10.56153107541948
      ],
      [
        "AD",
        -10.561581251008928
      ],
      [
        "ï¼Į",
        -10.561672325706347
      ],
      [
        "Ġlose",
        -10.561683759080228
      ],
      [
        "Ġ${",
        -10.561738535316156
      ],
      [
        "ĠKing",
        -10.562004659887627
      ],
      [
        "remainder",
        -10.562006250516157
      ],
      [
        "conviction",
        -10.562297531878336
      ],
      [
        "Ġplasma",
        -10.562384147962899
      ],
      [
        "Ġmobile",
        -10.56240690978498
      ],
      [
        "ĠEq",
        -10.562480087976898
      ],
      [
        "status",
        -10.562797923504542
      ],
      [
        "2010",
        -10.563204747673266
      ],
      [
        "Ġquick",
        -10.564064621937103
      ],
      [
        "Ġjoin",
        -10.56505082740123
      ],
      [
        "Ġengine",
        -10.565190722894977
      ],
      [
        "CO",
        -10.566217705929176
      ],
      [
        "Ġsuspect",
        -10.566487381879007
      ],
      [
        "extremely",
        -10.566610092632386
      ],
      [
        "directed",
        -10.566702149339521
      ],
      [
        "Ġepisode",
        -10.567010242192872
      ],
      [
        "Line",
        -10.567129261242407
      ],
      [
        "worse",
        -10.567798719205703
      ],
      [
        "Ġ\"[",
        -10.567988315593688
      ],
      [
        "ĠSunday",
        -10.568234560207145
      ],
      [
        "Ġpatterns",
        -10.56824728689672
      ],
      [
        "ĠWestern",
        -10.569782582350156
      ],
      [
        "doc",
        -10.570260945407986
      ],
      [
        "Ġspot",
        -10.570793574555365
      ],
      [
        "ĠPeople",
        -10.570917906820414
      ],
      [
        "ster",
        -10.57104365681343
      ],
      [
        "Ġsecondary",
        -10.57136343064788
      ],
      [
        "Ġsalt",
        -10.57139269509154
      ],
      [
        "Ġnano",
        -10.571483657560664
      ],
      [
        "sensors",
        -10.571848173933887
      ],
      [
        "ĠNews",
        -10.571962426215114
      ],
      [
        "Don",
        -10.572188328671967
      ],
      [
        "layout",
        -10.572346376531502
      ],
      [
        "employed",
        -10.572970565241647
      ],
      [
        "active",
        -10.573989320992343
      ],
      [
        "output",
        -10.574293669330672
      ],
      [
        "Base",
        -10.575046894428471
      ],
      [
        "receiving",
        -10.575104966329299
      ],
      [
        "Ġfilter",
        -10.575222423022621
      ],
      [
        "Ġ48",
        -10.575648560775573
      ],
      [
        "small",
        -10.576238475270339
      ],
      [
        "Ġannual",
        -10.576337027967455
      ],
      [
        "Ġcontrolled",
        -10.578140104033643
      ],
      [
        "OS",
        -10.578317291206956
      ],
      [
        "leaving",
        -10.578918708145522
      ],
      [
        "interested",
        -10.57909099914048
      ],
      [
        "Ġteams",
        -10.580532082479769
      ],
      [
        "low",
        -10.580557555674861
      ],
      [
        "zeta",
        -10.580589594158408
      ],
      [
        "Ġstars",
        -10.580849080224604
      ],
      [
        "belief",
        -10.58090440640699
      ],
      [
        "server",
        -10.580974162154936
      ],
      [
        "ren",
        -10.581168210429386
      ],
      [
        "Ġliterature",
        -10.581541765401477
      ],
      [
        "Ġmeasurements",
        -10.581715715935745
      ],
      [
        "Ġsrc",
        -10.58184697023386
      ],
      [
        "Ġchurch",
        -10.581985862512628
      ],
      [
        "Ġprojects",
        -10.582354246219719
      ],
      [
[...]
