{
  "version": "1.0",
  "truncation": null,
  "padding": null,
  "added_tokens": [
    {
      "id": 0,
      "content": "[UNK]",
      "single_word": false,
      "lstrip": false,
      "rstrip": false,
      "normalized": false,
      "special": true
    }
  ],
  "normalizer": null,
  "pre_tokenizer": {
    "type": "ByteLevel",
    "add_prefix_space": true,
    "trim_offsets": true,
    "use_regex": true
  },
  "post_processor": null,
  "decoder": null,
  "model": {
    "type": "Unigram",
    "unk_id": null,
    "vocab": [
      [
        "[UNK]",
        0.0
      ],
      [
        "Ġ",
        -2.022085629057642
      ],
      [
        ".",
        -3.468484687322146
      ],
      [
        "Ċ",
        -3.521232551413405
      ],
      [
        ",",
        -3.597970682626382
      ],
      [
        "Ġthe",
        -3.7473922846963887
      ],
      [
        "s",
        -3.8842083306866755
      ],
      [
        "a",
        -4.32310061346212
      ],
      [
        "Ġof",
        -4.336196914295012
      ],
      [
        "-",
        -4.41298459571162
      ],
      [
        "Ġand",
        -4.503413876961027
      ],
      [
        "Ġto",
        -4.513561783851824
      ],
      [
        "(",
        -4.70084658903621
      ],
      [
        "Ġin",
        -4.791415878357331
      ],
      [
        "_",
        -5.066306813579015
      ],
      [
        "\"",
        -5.11479555059503
      ],
      [
        ")",
        -5.144858249487143
      ],
      [
        "Ġis",
        -5.209801284202886
      ],
      [
        "'",
        -5.323033049290494
      ],
      [
        "1",
        -5.3474885082043855
      ],
      [
        "Ġthat",
        -5.3736954101068815
      ],
      [
        ":",
        -5.407058071704778
      ],
      [
        "t",
        -5.418900689563225
      ],
      [
        "\\",
        -5.428165064880474
      ],
      [
        "2",
        -5.44503298466852
      ],
      [
        "d",
        -5.451308497060429
      ],
      [
        "e",
        -5.457489390937107
      ],
      [
        "Ġfor",
        -5.465508369623306
      ],
      [
        "I",
        -5.556425933714557
      ],
      [
        "$",
        -5.561699944833956
      ],
      [
        "0",
        -5.594039986121819
      ],
      [
        "*",
        -5.614876711268321
      ],
      [
        "i",
        -5.626042133865733
      ],
      [
        "n",
        -5.693793009802775
      ],
      [
        "m",
        -5.7391025838078775
      ],
      [
        "Ġwith",
        -5.74036988705938
      ],
      [
        "ing",
        -5.750386913864659
      ],
      [
        "{",
        -5.763552914625192
      ],
      [
        "=",
        -5.774637523523644
      ],
      [
        "/",
        -5.78429897864687
      ],
      [
        "o",
        -5.7922800857129335
      ],
      [
        "ed",
        -5.818294526577519
      ],
      [
        "Ġon",
        -5.907118347488774
      ],
      [
        "}",
        -5.934616674558386
      ],
      [
        "Ġbe",
        -5.966934515151793
      ],
      [
        "Ġas",
        -5.989772612908041
      ],
      [
        "Ġwas",
        -5.9980663648018115
      ],
      [
        "Ġit",
        -6.024078232504722
      ],
      [
        "3",
        -6.040158587744232
      ],
      [
        ";",
        -6.065222980623124
      ],
      [
        "Ġare",
        -6.109234372025027
      ],
      [
        "A",
        -6.119536900677042
      ],
      [
        "p",
        -6.123051438592071
      ],
      [
        "Ġby",
        -6.12767396247439
      ],
      [
        "c",
        -6.145291713993956
      ],
      [
        "at",
        -6.165118370117931
      ],
      [
        "ly",
        -6.169300238847221
      ],
      [
        "y",
        -6.186023845874017
      ],
      [
        "r",
        -6.2034358379646175
      ],
      [
        "Ġthis",
        -6.278204549072541
      ],
      [
        "b",
        -6.278374786614249
      ],
      [
        "âĢĻ",
        -6.293820225174757
      ],
      [
        "ĠĠĠĠĠĠĠĠĠĠĠĠĠĠĠĠ",
        -6.299145022005677
      ],
      [
        "Ġfrom",
        -6.302712286332046
      ],
      [
        "Ġnot",
        -6.304030704442791
      ],
      [
        "Ġyou",
        -6.307123873049342
      ],
      [
        "ĠThe",
        -6.307493776058438
      ],
      [
        "ĉ",
        -6.326579613638318
      ],
      [
        "Ġor",
        -6.364978503810651
      ],
      [
        ">",
        -6.365580401972309
      ],
      [
        "ĊĠĠĠ",
        -6.377184880880293
      ],
      [
        "f",
        -6.386968908334891
      ],
      [
        "S",
        -6.387377726020858
      ],
      [
        "4",
        -6.390912898869923
      ],
      [
        "Ġhave",
        -6.39654850342729
      ],
      [
        "x",
        -6.430316557962453
      ],
      [
        "Ġan",
        -6.4523338877156124
      ],
      [
        "+",
        -6.479185354795938
      ],
      [
        "l",
        -6.505419196626544
      ],
      [
        "<",
        -6.533105599129163
      ],
      [
        "5",
        -6.540228765530266
      ],
      [
        "C",
        -6.570730685675947
      ],
      [
        "[",
        -6.574335938830245
      ],
      [
        "Ġwe",
        -6.638288329195618
      ],
      [
        "B",
        -6.648603478160327
      ],
      [
        "g",
        -6.6632179659631525
      ],
      [
        "h",
        -6.6844006185658795
      ],
      [
        "v",
        -6.723360476547803
      ],
      [
        "Ġcan",
        -6.732558749865927
      ],
      [
        "Ġwere",
        -6.747320123948144
      ],
      [
        "ĊĠĠĠĠĠĠĠ",
        -6.768797941837688
      ],
      [
        "**",
        -6.782382496926081
      ],
      [
        "k",
        -6.798189012858767
      ],
      [
        "=\"",
        -6.79981091931986
      ],
      [
        "The",
        -6.802391030413689
      ],
      [
        "he",
        -6.820866518411762
      ],
      [
        "Ġwhich",
        -6.8268890187811095
      ],
      [
        "Ġhas",
        -6.847786496484471
      ],
      [
        "?",
        -6.855847258042926
      ],
      [
        "u",
        -6.885715578132579
      ],
      [
        "in",
        -6.910553788094202
      ],
      [
        "Ġbut",
        -6.922851799494413
      ],
      [
        "Ġwill",
        -6.939948023992702
      ],
      [
        ".\"",
        -6.954383385278366
      ],
      [
        "6",
        -6.966798830853039
      ],
      [
        "]",
        -6.983447148450825
      ],
      [
        "Ġall",
        -6.995112316479453
      ],
      [
        "P",
        -7.0342277070779815
      ],
      [
        "Ġhis",
        -7.0366537000451785
      ],
      [
        "Ġone",
        -7.044127714832303
      ],
      [
        "D",
        -7.04422001939575
      ],
      [
        "Ġif",
        -7.049473948583698
      ],
      [
        "M",
        -7.053914957126157
      ],
      [
        ").",
        -7.071436844521193
      ],
      [
        "R",
        -7.104771204870552
      ],
      [
        "E",
        -7.106355855658439
      ],
      [
        "T",
        -7.110834134074958
      ],
      [
        "Âł",
        -7.122373890249168
      ],
      [
        "F",
        -7.124011469781854
      ],
      [
        "Ġthey",
        -7.1431608873637735
      ],
      [
        "8",
        -7.144065447870242
      ],
      [
        "Ġtheir",
        -7.150241034774375
      ],
      [
        "_{",
        -7.162526739489849
      ],
      [
        "Ġmore",
        -7.167196166841489
      ],
      [
        "7",
        -7.170396990842926
      ],
      [
        "&",
        -7.180472522108483
      ],
      [
        "re",
        -7.187761255351607
      ],
      [
        ");",
        -7.204180989033727
      ],
      [
        "^",
        -7.210794183589609
      ],
      [
        "Ġhad",
        -7.2361031295783285
      ],
      [
        "N",
        -7.253409251617528
      ],
      [
        "Ġ$\\",
        -7.257631490227471
      ],
      [
        "Ġbeen",
        -7.258017061779938
      ],
      [
        "%",
        -7.271770641590713
      ],
      [
        "er",
        -7.274403347844064
      ],
      [
        "L",
        -7.277842723021752
      ],
      [
        "Ġyour",
        -7.283768195919526
      ],
      [
        "Ġalso",
        -7.287998338319515
      ],
      [
        "Ġwould",
        -7.298825430173549
      ],
      [
        "j",
        -7.306497101516651
      ],
      [
        "Ġthere",
        -7.313478174089205
      ],
      [
        "H",
        -7.3202080339699
      ],
      [
        "Ġout",
        -7.321428841905984
      ],
      [
        "Ġwhen",
        -7.324926843067493
      ],
      [
        "Ġabout",
        -7.332595457696161
      ],
      [
        "Ġtime",
        -7.343775550828321
      ],
      [
        "w",
        -7.350999152293598
      ],
      [
        "ĠIn",
        -7.366812643680758
      ],
      [
        "Ġother",
        -7.3700419575977065
      ],
      [
        "ĊĠĠĠĠĠĠĠĠĠĠĠ",
        -7.385413151266322
      ],
      [
        "Ġwho",
        -7.385854301849385
      ],
      [
        "Ġdo",
        -7.3906788849192715
      ],
      [
        "9",
        -7.4024531090977135
      ],
      [
        "</",
        -7.405853386110783
      ],
      [
        "Ġno",
        -7.410519865149144
      ],
      [
        "Ġmy",
        -7.412063392585754
      ],
      [
        "Ġup",
        -7.423525707356561
      ],
      [
        "z",
        -7.4332802854868305
      ],
      [
        "),",
        -7.435728267764823
      ],
      [
        "#",
        -7.43602896468672
      ],
      [
        "[@",
        -7.4390927154375195
      ],
      [
        "G",
        -7.445717806952501
      ],
      [
        "Ġthan",
        -7.4537583942134
      ],
      [
        "ĠâĢľ",
        -7.455244294039844
      ],
      [
        "|",
        -7.482492357912548
      ],
      [
        "{\\",
        -7.49586311973618
      ],
      [
        "Ġinto",
        -7.524005604707705
      ],
      [
        "or",
        -7.530103004954748
      ],
      [
        "type",
        -7.532198185986552
      ],
      [
        "Ġour",
        -7.546387591801288
      ],
      [
        "Ġlike",
        -7.550168442554186
      ],
      [
        "Ġher",
        -7.55181661646553
      ],
      [
        "Ġtwo",
        -7.562616622989442
      ],
      [
        "U",
        -7.564721924344148
      ],
      [
        "Ġany",
        -7.566325540948247
      ],
      [
        "Ġsaid",
        -7.5697267316821275
      ],
      [
        "Ġonly",
        -7.569852997496476
      ],
      [
        "Ġnew",
        -7.574075463014404
      ],
      [
        "Ġwhat",
        -7.586018985621655
      ],
      [
        "ĊĠĠĠĠĠĠĠĠĠĠĠĠĠĠĠ",
        -7.602194222800479
      ],
      [
        "Ġits",
        -7.607756823536922
      ],
      [
        "Ġsome",
        -7.6124696749286365
      ],
      [
        "Ġmay",
        -7.619452390068391
      ],
      [
        "Ġover",
        -7.6247134967338415
      ],
      [
        "----------------",
        -7.636498338562916
      ],
      [
        "K",
        -7.6385599802570034
      ],
      [
        "ĠIt",
        -7.657019580105059
      ],
      [
        "Ġsuch",
        -7.661680526224373
      ],
      [
        "Ġfirst",
        -7.665692381121097
      ],
      [
        "X",
        -7.667143891481562
      ],
      [
        "ref",
        -7.669854781763727
      ],
      [
        "Ġthese",
        -7.684646433788471
      ],
      [
        "ĠThis",
        -7.69159748906138
      ],
      [
        "@",
        -7.692419399704583
      ],
      [
        "ĊĠĠĠĠĠ",
        -7.697436074981908
      ],
      [
        "Ġget",
        -7.70639758884527
      ],
      [
        "Ġme",
        -7.7080748616699015
      ],
      [
        "J",
        -7.7125385255705154
      ],
      [
        "10",
        -7.714822279643132
      ],
      [
        "Ġuse",
        -7.7286814680758
      ],
      [
        "Ġwhere",
        -7.73273207620054
      ],
      [
        "on",
        -7.739091109568468
      ],
      [
        "V",
        -7.741188845220179
      ],
      [
        "Ġun",
        -7.744225806816614
      ],
      [
        "Ġafter",
        -7.751431139801047
      ],
      [
        "Ġjust",
        -7.759543164487708
      ],
      [
        "q",
        -7.7602418463474105
      ],
      [
        "to",
        -7.764985428738607
      ],
      [
        "Ġbetween",
        -7.772130611787084
      ],
      [
        "al",
        -7.78966321071305
      ],
      [
        "!",
        -7.795360389078509
      ],
      [
        "Ġcould",
        -7.8040664340548
      ],
      [
        "In",
        -7.812831743270593
      ],
      [
        "Ġused",
        -7.829248158852101
      ],
      [
        "~",
        -7.851820323951799
      ],
      [
        "W",
        -7.854484762509861
      ],
      [
        "ĠWe",
        -7.856491183855249
      ],
      [
        "Ġpeople",
        -7.862930526560518
      ],
      [
        "Ġshe",
        -7.880143672341017
      ],
      [
        "Ġdata",
        -7.890731466619787
      ],
      [
        "Ġthem",
        -7.9001015429098835
      ],
      [
        "able",
        -7.910113686874922
      ],
      [
        "}\\",
        -7.911912961834808
      ],
      [
        "Ġusing",
        -7.916110997392542
      ],
      [
        "Ġbecause",
        -7.918941420905911
      ],
      [
        "Ġunder",
        -7.920572630167728
      ],
      [
        "Ġshould",
        -7.923360397754754
      ],
      [
        "us",
        -7.934702795217163
      ],
      [
        "O",
        -7.950625852206331
      ],
      [
        "is",
        -7.951246521772257
      ],
      [
        "->",
        -7.969787543712629
      ],
      [
        "Ġwell",
        -7.982349587927159
      ],
      [
        "Q",
        -7.985051591314246
      ],
      [
        "Ġmost",
        -7.996708108560011
      ],
      [
        "Ġhow",
        -8.001977499371659
      ],
      [
        "){",
        -8.018526860258401
      ],
      [
        "Ġcase",
        -8.018762516114483
      ],
      [
        "Ġeach",
        -8.02336734483652
      ],
      [
        "Ġwork",
        -8.026773369095078
      ],
      [
        "right",
        -8.031712820574166
      ],
      [
        "Ġhim",
        -8.034109420213857
      ],
      [
        "Ġknow",
        -8.040265331213964
      ],
      [
        "Ġway",
        -8.040804807240464
      ],
      [
        "Ġmake",
        -8.049432857043385
      ],
      [
        "ĠHe",
        -8.05381442666681
      ],
      [
        "th",
        -8.061651502116577
      ],
      [
        "Ċĉ",
        -8.064904969999493
      ],
      [
        "12",
        -8.082233308555095
      ],
      [
        "com",
        -8.089761342583042
      ],
      [
        "Ġsee",
        -8.090129250127971
      ],
      [
        "left",
        -8.094149062839891
      ],
      [
        "frac",
        -8.102051764621583
      ],
      [
        "Ġeven",
        -8.103291693112812
      ],
      [
        "Ġthrough",
        -8.103375453066448
      ],
      [
        "Ġclass",
        -8.1040038249282
      ],
      [
        "âĢĿ",
        -8.1111177049317
      ],
      [
        "Ġsame",
        -8.114177031741695
      ],
      [
        "}$",
        -8.118161292491237
      ],
      [
        "and",
        -8.133063033847204
      ],
      [
        "Ġthose",
        -8.143049050102146
      ],
      [
        "](#",
        -8.14380109982455
      ],
      [
        "Ġnow",
        -8.147421462801924
      ],
      [
        "Ġboth",
        -8.148195008346264
      ],
      [
        "()",
        -8.14865253013746
      ],
      [
        "Ġneed",
        -8.150250689079106
      ],
      [
        "Ġvery",
        -8.150318110338933
      ],
      [
        "Ġ10",
        -8.157871983723062
      ],
      [
        "Ġdid",
        -8.158979135286287
      ],
      [
        "Y",
        -8.164864112537515
      ],
      [
        "Ġyears",
        -8.167466920688085
      ],
      [
        "end",
        -8.171281836716355
      ],
      [
        "\">",
        -8.17381193423558
      ],
      [
        "Ġdifferent",
        -8.175844461279237
      ],
      [
        "the",
        -8.177672492525978
      ],
      [
        "Ġde",
        -8.178021182177938
      ],
      [
        "11",
        -8.180047848080301
      ],
      [
        "Ġbeing",
        -8.182449407029788
      ],
      [
        "Ġnumber",
        -8.189385661390297
      ],
      [
        "Ġmany",
        -8.189924860653235
      ],
      [
        "Ġreturn",
        -8.192364105262035
      ],
      [
        "Ġbefore",
        -8.196377692124905
      ],
      [
        "?\"",
        -8.200093591834042
      ],
      [
        "Ġback",
        -8.200439206501
      ],
      [
        "...",
        -8.205497283775554
      ],
      [
        "\\[[@",
        -8.206225036591507
      ],
      [
        "âĢī",
        -8.21136576785445
      ],
      [
        "ve",
        -8.216439362087245
      ],
      [
        "Ġdon",
        -8.232391559987327
      ],
      [
        "--",
        -8.236147611936643
      ],
      [
        "Ġhere",
        -8.240240523586474
      ],
      [
        "We",
        -8.241718692982339
      ],
      [
        "name",
        -8.242611292281433
      ],
      [
        "What",
        -8.246045799369627
      ],
      [
        "],",
        -8.249943978784962
      ],
      [
        "::",
        -8.251004848335574
      ],
      [
        "Ġset",
        -8.254598221621379
      ],
      [
        "Ġtake",
        -8.261004439829296
      ],
      [
        "if",
        -8.263941590247029
      ],
      [
        "fig",
        -8.26652219770229
      ],
      [
        "Ġsystem",
        -8.272814144482004
      ],
      [
        "Ġfound",
        -8.27751331980612
      ],
      [
        "Ġmade",
        -8.278149162631951
      ],
      [
        "Ġcourt",
        -8.281831090555679
      ],
      [
        "Ġhigh",
        -8.289256089519599
      ],
      [
        "Ġstudy",
        -8.29151599818361
      ],
      [
        "Ġvalue",
        -8.293111181891284
      ],
      [
        "Ġwant",
        -8.293617198571626
      ],
      [
        "mathb",
        -8.293647457070767
      ],
      [
        "Ġwhile",
        -8.294779173621068
      ],
      [
        "://",
        -8.295040333350927
      ],
      [
        "Ġgood",
        -8.303999553141143
      ],
      [
        "an",
        -8.305186599423061
      ],
      [
        "Z",
        -8.3130744815401
      ],
      [
        "Ġfunction",
        -8.316627029883822
      ],
      [
        "text",
        -8.317302569699729
      ],
      [
        "Ġmuch",
        -8.32381454597831
      ],
      [
        "Ġstate",
        -8.335534924476754
      ],
      [
        "Ġthree",
        -8.34250065719124
      ],
      [
        "_{\\",
        -8.345450605283055
      ],
      [
        "Ġthink",
        -8.346195529101777
      ],
      [
        "ĊĊĠĠĠ",
        -8.346220901013123
      ],
      [
        "Ġright",
        -8.348042116380453
      ],
      [
        "ers",
        -8.355170437288283
      ],
      [
        "Ġpatients",
        -8.359501754893074
      ],
      [
        "Ġorder",
        -8.35966675172237
      ],
      [
        ".âĢĿ",
        -8.362066285168103
      ],
      [
        "Ġnon",
        -8.362838323170807
      ],
      [
        "Ġpublic",
        -8.363808191860345
      ],
      [
        "Ġdoes",
        -8.365192272541668
      ],
      [
        "Ġduring",
        -8.366354541865043
      ],
      [
        "Ġwithout",
        -8.368582650284486
      ],
      [
        "ll",
        -8.375482224226378
      ],
      [
        "Ġpart",
        -8.377323603276963
      ],
      [
        "Â",
        -8.386367897659763
      ],
      [
        "ĠâĢĵ",
        -8.386375749860349
      ],
      [
        "It",
        -8.386766467253318
      ],
      [
        "//",
        -8.391969042532148
      ],
      [
        "Ġcells",
        -8.392326167046699
      ],
      [
        "00",
        -8.392634068406885
      ],
      [
        "Let",
        -8.392812556117901
      ],
      [
        "`",
        -8.406677721946235
      ],
      [
        "ĠFor",
        -8.417240669696346
      ],
      [
        "(\\",
        -8.41830339309248
      ],
      [
        "Ġdown",
        -8.421476321556277
      ],
      [
        "16",
        -8.422173796915205
      ],
      [
        "ity",
        -8.425025871558574
      ],
      [
        "\":",
        -8.425040440650822
      ],
      [
        "This",
        -8.430051612709837
      ],
      [
        "ĠIf",
        -8.430773916076257
      ],
      [
        "Ġhelp",
        -8.43150858710354
      ],
      [
        "15",
        -8.434364196671298
      ],
      [
        "Ġyear",
        -8.439246292221268
      ],
      [
        "get",
        -8.443644968939388
      ],
      [
        "Ġgroup",
        -8.443688986653491
      ],
      [
        "âĢľ",
        -8.447356918194362
      ],
      [
        "Ġname",
        -8.450126890516488
      ],
      [
        "int",
        -8.451211366377109
      ],
      [
        "Ġagainst",
        -8.456529248911686
      ],
      [
        "Ġgo",
        -8.458857610693288
      ],
      [
        "Ġlong",
        -8.459282374503115
      ],
      [
        "}{",
        -8.462252263085283
      ],
      [
        "ion",
        -8.466878522989116
      ],
      [
        "Ġlast",
        -8.467935063783942
      ],
      [
        "Ġus",
        -8.473854136582828
      ],
      [
        "Ġmust",
        -8.476186406583901
      ],
      [
        "Ġ//",
        -8.48017686921793
      ],
      [
        "set",
        -8.481251708557231
      ],
      [
        "Ġstill",
        -8.484480249167486
      ],
      [
        "20",
        -8.494062818102192
      ],
      [
        "Ġend",
        -8.497564018011579
      ],
      [
        "âĢĵ",
        -8.50154546733031
      ],
      [
        "32",
        -8.505589122925198
      ],
      [
        "ĠLet",
        -8.506741423355265
      ],
      [
        "Ġinformation",
        -8.51079768228356
      ],
      [
        "Ġfind",
        -8.511604920010463
      ],
      [
        "13",
        -8.513260776970645
      ],
      [
        "ies",
        -8.513524766798923
      ],
      [
        "Ġsecond",
        -8.517848198817749
      ],
      [
        "{#",
        -8.52188681896202
      ],
      [
        "000",
        -8.523825358081801
      ],
      [
        "ĠĠĠĠĠĠ",
        -8.529283095401063
      ],
      [
        "Ġday",
        -8.530585354594052
      ],
      [
        "age",
        -8.530651826358834
      ],
      [
        "^{",
        -8.53291659856668
      ],
      [
        "Ċĉĉ",
        -8.535365717474305
      ],
      [
        "man",
        -8.54111708108371
      ],
      [
        "alpha",
        -8.54835762146349
      ],
      [
        "Ġresult",
        -8.553412168888519
      ],
      [
        "You",
        -8.557698895863005
      ],
      [
        "ĠAs",
        -8.558830791176781
      ],
      [
        "(\"",
        -8.561608889552112
      ],
      [
        "athcal",
        -8.562187523918913
      ],
      [
        "However",
        -8.562240930220137
      ],
      [
        "14",
        -8.562382349860927
      ],
      [
        "Ġtest",
        -8.569554292625861
      ],
      [
        "Ġfollowing",
        -8.572043180983442
      ],
      [
        "Ġresults",
        -8.576966537026902
      ],
      [
        "ĠBut",
        -8.583977414719955
      ],
      [
        "();",
        -8.584266921304604
      ],
      [
        "Ġpoint",
        -8.586050763581817
      ],
      [
        "Ġlife",
        -8.591230383002129
      ],
      [
        "up",
        -8.594220618069889
      ],
      [
        "Ġmodel",
        -8.596788351715933
      ],
      [
        "Ġpresent",
        -8.60175075312875
      ],
      [
        "Ġgoing",
        -8.602889584465478
      ],
      [
        "CR",
        -8.607248567154938
      ],
      [
        "Ġ*/",
        -8.61473526414448
      ],
      [
        "var",
        -8.615803187547591
      ],
      [
        "Ġsince",
        -8.616918914303628
      ],
      [
        ")$",
        -8.61915497112446
      ],
      [
        "Ġown",
        -8.625390248925942
      ],
      [
        "Ġaround",
        -8.626445388131891
      ],
      [
        "Ġwithin",
        -8.627219980059285
      ],
      [
        "Ġlook",
        -8.630670228826752
      ],
      [
        "č",
        -8.637306209370708
      ],
      [
        "Ġcontrol",
        -8.637884134396433
      ],
      [
        "Ġsupport",
        -8.638134230441825
      ],
      [
        "âĢĶ",
        -8.638752496348316
      ],
      [
        "le",
        -8.642001649016517
      ],
      [
        "Ġshow",
        -8.643287514156764
      ],
      [
        "it",
        -8.643766452471546
      ],
      [
        "Ġanother",
        -8.65219160070308
      ],
      [
        "http",
        -8.654182763860893
      ],
      [
        "Ġexample",
        -8.672387567000682
      ],
      [
        "18",
        -8.673381483216083
      ],
      [
        "\\]",
        -8.67402905788737
      ],
      [
        "Ġline",
        -8.683561096064047
      ],
      [
        "Ġsay",
        -8.68518052920043
      ],
      [
        "label",
        -8.688888877253312
      ],
      [
        "Ġfact",
        -8.691075424053198
      ],
      [
        "mu",
        -8.69516380184219
      ],
      [
        ",âĢĿ",
        -8.695658639378669
      ],
      [
        "]\\].",
        -8.695848688124645
      ],
      [
        "Ġworld",
        -8.698630628116423
      ],
      [
        "ĠAnd",
        -8.698734366470593
      ],
      [
        "Ġincluding",
        -8.698979459181208
      ],
      [
        "begin",
        -8.70076161248189
      ],
      [
        "Ġevery",
        -8.702289730465893
      ],
      [
        "Ġgiven",
        -8.706999835520131
      ],
      [
        "ÃĲ",
        -8.707593180218035
      ],
      [
        "17",
        -8.70829270318549
      ],
      [
        "Ġcell",
        -8.70865719840409
      ],
      [
        "Ġmight",
        -8.708909750759624
      ],
      [
        "Ġcome",
        -8.710760799142511
      ],
      [
        "Ġoff",
        -8.711705184562414
      ],
      [
        "Ġreally",
        -8.717171538108214
      ],
      [
        "Ġhome",
        -8.72267450200946
      ],
      [
        "].",
        -8.724991753633182
      ],
      [
        "data",
        -8.726826535701651
      ],
      [
        "of",
        -8.726940314699572
      ],
      [
        "Ġprocess",
        -8.73233930819946
      ],
      [
        "Ġlarge",
        -8.733579666018054
      ],
      [
        "ĠNo",
        -8.739663716394595
      ],
      [
        "Ġlaw",
        -8.74450179445318
      ],
      [
        "Ġper",
        -8.74515616539848
      ],
      [
        "Ġself",
        -8.751384177809246
      ],
      [
        "ĠYou",
        -8.75457654825894
      ],
      [
        "Ġ$$\\",
        -8.760369370151407
      ],
      [
        "To",
        -8.762020635910043
      ],
      [
        "Ġfew",
        -8.763063212859507
      ],
      [
        "Ġcause",
        -8.764031714365853
      ],
      [
        "Ġevidence",
        -8.768345221609087
      ],
      [
        "19",
        -8.768608105950975
      ],
      [
        "Ġmethod",
        -8.773738676748689
      ],
      [
        "Ġgive",
        -8.779679192235887
      ],
      [
        "01",
        -8.781929945977476
      ],
      [
        "Ġchange",
        -8.782861048607268
      ],
      [
        "Ġanalysis",
        -8.783054634327668
      ],
      [
        "Ġbest",
        -8.78527131201536
      ],
      [
        "Ġfile",
        -8.789001726737323
      ],
      [
        "Ġpre",
        -8.792784124552442
      ],
      [
        "Ġimportant",
        -8.793491399851293
      ],
      [
        "ĠThey",
        -8.796650248405616
      ],
      [
        "Ġsomething",
        -8.798656774410507
      ],
      [
        "import",
        -8.798794351451107
      ],
      [
        "Ġnext",
        -8.802080049607119
      ],
      [
        "Ġplace",
        -8.802741570230362
      ],
      [
        "Ġwhether",
        -8.805615779718973
      ],
      [
        "Ġpower",
        -8.815927833003986
      ],
      [
        "Ġcommon",
        -8.816149928366334
      ],
      [
        "Ġsmall",
        -8.818015823538815
      ],
      [
        "div",
        -8.81827098901107
      ],
      [
        "Ġbased",
        -8.820341049674841
      ],
      [
        "25",
        -8.822372343612884
      ],
      [
        "Ġgreat",
        -8.82627101772436
      ],
      [
        "Ġform",
        -8.826982783323999
      ],
      [
        "Ġtype",
        -8.82843515774389
      ],
      [
        "table",
        -8.832322602488864
      ],
      [
        "ĠNew",
        -8.832756104565158
      ],
      [
        "30",
        -8.836930941628916
      ],
      [
        "Ġbetter",
        -8.849101634280418
      ],
      [
        "\\[",
        -8.85050487150592
      ],
      [
        "Ġ12",
        -8.854264731330154
      ],
      [
        "Ġabove",
        -8.854485648109918
      ],
      [
        "Ġwater",
        -8.856789696547372
      ],
      [
        "Ġhuman",
        -8.856871762707248
      ],
      [
        "math",
        -8.859563410599495
      ],
      [
        "Ġnever",
        -8.865369635804091
      ],
      [
        "Ġ20",
        -8.870017592350596
      ],
      [
        "Ġtreatment",
        -8.870934082142712
      ],
      [
        "Ġlevel",
        -8.870983656550555
      ],
      [
        "Ġal",
        -8.877566245906984
      ],
      [
        "If",
        -8.87796921352698
      ],
      [
        "Ġproblem",
        -8.879185100076194
      ],
      [
        "sum",
        -8.880489222504574
      ],
      [
        "Ġ\\[",
        -8.881421164876206
      ],
      [
        "Ġleast",
        -8.884413708009014
      ],
      [
        "Ġlittle",
        -8.887932890271713
      ],
      [
        "Ġpossible",
        -8.888019269910439
      ],
      [
        "Ġdue",
        -8.890352528181541
      ],
      [
        "ĠĠĠĠĠĠĠ",
        -8.898391101945636
      ],
      [
        "Ġexpression",
        -8.903263230449715
      ],
      [
        "Ġresponse",
        -8.903365224958918
      ],
      [
        "Ġtrue",
        -8.90747794034973
      ],
      [
        "ĊĠĠĠĠĠĠĠĠĠ",
        -8.910359895616788
      ],
      [
        "}}",
        -8.910994771170289
      ],
      [
        "Ġthings",
        -8.912284078728401
      ],
      [
        "ĠThere",
        -8.912668439525026
      ],
      [
        "Ġeffect",
        -8.916929718355256
      ],
      [
        "this",
        -8.917008663173522
      ],
      [
        "out",
        -8.918219239761097
      ],
      [
        "Ġlow",
        -8.920743548887927
      ],
      [
        "!\"",
        -8.921745059838777
      ],
      [
        "over",
        -8.921762658240251
      ],
      [
        "Â±",
        -8.923522179330082
      ],
      [
        "Ġgame",
        -8.925494481624954
      ],
      [
        "span",
        -8.92552959774226
      ],
      [
        "For",
        -8.928607777928992
      ],
      [
        "}(",
        -8.934678687795225
      ],
      [
        "ĠĠĠĠĠĠĠĠĠĠĠĠĠĠĠ",
        -8.936531318888617
      ],
      [
        "Ġsize",
        -8.938134753869871
      ],
      [
        "Ġhaving",
        -8.938806073710364
      ],
      [
        "Ġtrial",
        -8.940308719966545
      ],
      [
        "Ġfurther",
        -8.943106583979448
      ],
      [
        "Ġshown",
        -8.943197707649794
      ],
      [
        "==",
        -8.947342944803985
      ],
      [
        "Ġpost",
        -8.94785303524931
      ],
      [
        "Ġprovide",
        -8.949563712139739
      ],
      [
        "ĠâĢĶ",
        -8.950034662999375
      ],
      [
        "Ġhealth",
        -8.950699943456605
      ],
      [
        "))",
        -8.952251179263508
      ],
      [
        "Ġmean",
        -8.95437299386245
      ],
      [
        "Ġgot",
        -8.957010282044747
      ],
      [
        "Fig",
        -8.958774216651769
      ],
      [
        "aligned",
        -8.95917227308209
      ],
      [
        "Ġcurrent",
        -8.96093155263313
      ],
      [
        "ĠTo",
        -8.961798317841945
      ],
      [
        "ĠSo",
        -8.961825902488933
      ],
      [
        "Ġless",
        -8.963723710380007
      ],
      [
        "ĠĠĠĠĠĠĠĠ",
        -8.96465852562993
      ],
      [
        "Ġlet",
        -8.966643544682112
      ],
      [
        "Ġgovernment",
        -8.967267663854658
      ],
      [
        "time",
        -8.96768846047686
      ],
      [
        "for",
        -8.972481649967285
      ],
      [
        "Type",
        -8.972527719093224
      ],
      [
        "Ġfree",
        -8.973453863982986
      ],
      [
        "org",
        -8.975078978805255
      ],
      [
        "Ġsingle",
        -8.978245312917046
      ],
      [
        "Ġlot",
        -8.97875159181381
      ],
      [
        "Ġhand",
        -8.978819833159346
      ],
      [
        "Ġfour",
        -8.980078560874665
      ],
      [
        "Ġdays",
        -8.980639518403972
      ],
      [
        "ation",
        -8.98084314344356
      ],
      [
        "Ġalways",
        -8.983215716840693
      ],
      [
        "Ġelse",
        -8.984665249779113
      ],
      [
        "Ġfield",
        -8.98501600267732
      ],
      [
        "Category",
        -8.985252848748424
      ],
      [
        "Ġagain",
        -8.98695960913674
      ],
      [
        "string",
        -8.989153406964965
      ],
      [
        "And",
        -8.990498827543727
      ],
      [
        "Ġsimilar",
        -8.995477973386427
      ],
      [
        "\"}",
        -8.996179299850661
      ],
      [
        "Name",
        -8.996783380953634
      ],
      [
        "Ġmain",
        -8.999206123495204
      ],
      [
        "Ġquestion",
        -9.001673219633046
      ],
      [
        "80",
        -9.002808420316107
      ],
      [
        "Ġuntil",
        -9.005364418420024
      ],
      [
        "Ġteam",
        -9.005877658981083
      ],
      [
        "24",
        -9.00591774789711
      ],
      [
        ")\\",
        -9.006461783549415
      ],
      [
        "ĠCourt",
        -9.009264147569086
      ],
      [
        "Ġavailable",
        -9.009500196640309
      ],
      [
        "Ġ15",
        -9.010058143862747
      ],
      [
        "Ġreal",
        -9.012889463446218
      ],
      [
        "Ġlight",
        -9.01350312873243
      ],
      [
        "Ġcare",
        -9.013833007246715
      ],
      [
        "Ġput",
        -9.014067354487397
      ],
      [
        "ĠShe",
        -9.014076105900745
      ],
      [
        "Ġknown",
        -9.015620824259155
      ],
      [
        "ĠUnited",
        -9.017014635772274
      ],
      [
        "Ġcalled",
        -9.018270091544798
      ],
      [
        "Ġfamily",
        -9.020279029290647
      ],
      [
        "lambda",
        -9.020712907796153
      ],
      [
        "Ġeither",
        -9.02117230613201
      ],
      [
        "Ġlocal",
        -9.021552468112176
      ],
      [
        "21",
        -9.023139811251697
      ],
      [
        "Ġcode",
        -9.023486648190291
      ],
      [
        "}$$",
        -9.024455077761584
      ],
      [
        "64",
        -9.024877254784995
      ],
      [
        "ĠState",
        -9.025990957951132
      ],
      [
        "ĠThese",
        -9.02936140096747
      ],
      [
        "---",
        -9.030790789071931
      ],
      [
        "beta",
        -9.032822311291126
      ],
      [
        "Ġaction",
        -9.034129135425555
      ],
      [
        "Ġseveral",
        -9.038971364500261
      ],
      [
        "pone",
        -9.041286195467851
      ],
      [
        "class",
        -9.041430297803679
      ],
      [
        "Figure",
        -9.041882117602356
      ],
      [
        "ive",
        -9.04289884813822
      ],
      [
        "He",
        -9.043386255617243
      ],
      [
        "05",
        -9.04419010265678
      ],
      [
        "Ġmeans",
        -9.04633561871417
      ],
      [
        "Ġchildren",
        -9.046687870234093
      ],
      [
        "Ġspace",
        -9.04788131388173
      ],
      [
        "Ġbelieve",
        -9.049394170965494
      ],
      [
        "Ġtotal",
        -9.052408165952633
      ],
      [
        "ant",
        -9.052830005239354
      ],
      [
        "Ġhigher",
        -9.053279044326544
      ],
      [
        "return",
        -9.053412721636885
      ],
      [
        "Ġopen",
        -9.055181256301896
      ],
      [
        "Ġsignificant",
        -9.056973453592114
      ],
      [
        "by",
        -9.05893694824701
      ],
      [
        "Ġrate",
        -9.059251943885403
      ],
      [
        "Ġstudies",
        -9.06206099910819
      ],
      [
        "less",
        -9.064822917514284
      ],
      [
        "ĠĠĠĠĠĠĠĠĠĠĠĠĠĠ",
        -9.06730552146513
      ],
      [
        "Ġ11",
        -9.068393600198934
      ],
      [
        "Ġincrease",
        -9.072426590757091
      ],
      [
        "Ġside",
        -9.07633414767262
      ],
      [
        "Ġwhy",
        -9.077152558649994
      ],
      [
        "epackage",
        -9.079427797303062
      ],
      [
        "www",
        -9.079891247693212
      ],
      [
        "Ġinterest",
        -9.080801394499701
      ],
      [
        "Ġrun",
        -9.08272107306679
      ],
      [
        "ness",
        -9.08396979765599
      ],
      [
        "Ġrisk",
        -9.084654697712617
      ],
      [
        "Ġstart",
        -9.08595356981535
      ],
      [
        "bar",
        -9.087948559867096
      ],
      [
        "50",
        -9.08821896519109
      ],
      [
        "Ġrole",
        -9.090411757903162
      ],
      [
        "Ġissue",
        -9.090516653760043
      ],
      [
        "];",
        -9.09225629930656
      ],
      [
        "Ġvalues",
        -9.092858923077378
      ],
      [
        "Ġ30",
        -9.093298786576584
      ],
      [
        "Ġenergy",
        -9.094114016279972
      ],
      [
        "ĠWhat",
        -9.094850950721677
      ],
      [
        "Ġfull",
        -9.095769341528268
      ],
      [
        "among",
        -9.097459608584236
      ],
      [
        "Ġco",
        -9.098505833093968
      ],
      [
        "ĠĠĠĠĠĠĠĠĠĠĠ",
        -9.10020268754173
      ],
      [
        "Ġerror",
        -9.100554478498891
      ],
      [
        "But",
        -9.10093447385193
      ],
      [
        "Ġperson",
        -9.101796212693161
      ],
      [
        "Ġleft",
        -9.102417955796843
      ],
      [
        "Ġsure",
        -9.102484399628027
      ],
      [
        "Ġfinal",
        -9.103498773622103
      ],
      [
        "log",
        -9.103952086816006
      ],
      [
        "line",
        -9.104221865621044
      ],
      [
        "Ġcases",
        -9.105314002589648
      ],
      [
        "Ġalready",
        -9.106308447789042
      ],
      [
        "=>",
        -9.10631597188344
      ],
      [
        "Ġcourse",
        -9.108821947708543
      ],
      [
        "Ġgeneral",
        -9.110994575635873
      ],
      [
        "ĠĠĠĠĠĠĠĠĠ",
        -9.1131861073908
      ],
      [
        "Ġbody",
        -9.113998995916843
      ],
      [
        "Table",
        -9.114046593639104
      ],
      [
        "Ġshort",
        -9.115530703191315
      ],
      [
        "22",
        -9.117500312986655
      ],
      [
        "sqrt",
        -9.120206972053474
      ],
      [
        "Ġfar",
        -9.12124814130924
      ],
      [
        "ĠStates",
        -9.121389443284098
      ],
      [
        "sec",
        -9.121620535008033
      ],
      [
        "Ġreported",
        -9.121846503071993
      ],
      [
        "No",
        -9.124453901386554
      ],
      [
        "Ġassociated",
        -9.129328800302785
      ],
      [
        "uppose",
        -9.130593235802953
      ],
      [
        "ability",
        -9.132725216718487
      ],
      [
        "Ġkeep",
        -9.13436986676856
      ],
      [
        "ĠThat",
        -9.135191006514376
      ],
      [
        "]\\]",
        -9.136171619329547
      ],
      [
        "><",
        -9.138540133543287
      ],
      [
        "Ġwomen",
        -9.140903654563818
      ],
      [
        "mathr",
        -9.141412530835286
      ],
      [
        "eq",
        -9.143039069474428
      ],
      [
        "Ġlove",
        -9.143056298783348
      ],
      [
        "Ġlevels",
        -9.143906850212275
      ],
      [
        "Ġamount",
        -9.14555238155076
      ],
      [
        "didn",
        -9.146826749605323
      ],
      [
        "ĠĠĠĠĠĠĠĠĠĠ",
        -9.147983933432426
      ],
      [
        "Ġrequired",
        -9.150706677257041
      ],
      [
        "html",
        -9.150747496228444
      ],
      [
        "Ġ${\\",
        -9.153186669219476
      ],
      [
        "Ġanti",
        -9.155245630538817
      ],
      [
        "Ġcall",
        -9.156319703881987
      ],
      [
        "Ġplay",
        -9.156705597423523
      ],
      [
        "Ġaway",
        -9.157027183952335
      ],
      [
        "Ġcertain",
        -9.158189023717679
      ],
      [
        "Ġsub",
        -9.158215881152975
      ],
      [
        "Ġoften",
        -9.159075614956453
      ],
      [
        "ĠĠĠĠĠĠĠĠĠĠĠĠ",
        -9.15952536788808
      ],
      [
        "however",
        -9.159873086066263
      ],
      [
        "}_{",
        -9.161874311862276
      ],
      [
        "Ġthing",
        -9.162550116714039
      ],
      [
        "Ġdone",
        -9.163015813080024
      ],
      [
        "Ġpotential",
        -9.163566165208135
      ],
      [
        "ĠAll",
        -9.163831927433678
      ],
      [
        "Ġmatter",
        -9.16481746986566
      ],
      [
        "23",
        -9.166676376980956
      ],
      [
        "phi",
        -9.17105833646041
      ],
      [
        "ment",
        -9.172291080945758
      ],
      [
        "Ġalong",
        -9.172730036275267
      ],
      [
        "value",
        -9.175274760583656
      ],
      [
        "Ġdevelopment",
        -9.175751622923558
      ],
      [
        "Ġdecision",
        -9.176428823261379
      ],
      [
        "Ġactivity",
        -9.177176814799262
      ],
      [
        "sigma",
        -9.178242342548602
      ],
      [
        "Ġreason",
        -9.178388986276861
      ],
      [
        "Ġsays",
        -9.178957223588956
      ],
      [
        "Ġposition",
        -9.180001819366648
      ],
      [
        "Ġlower",
        -9.180151235889983
      ],
      [
        "Ċĉĉĉ",
        -9.181030977055215
      ],
      [
        "Ġterms",
        -9.183560208417912
      ],
      [
        "Ġman",
        -9.184037737763324
      ],
      [
        "Ġsurface",
        -9.185579026064545
      ],
      [
        "Ġspecific",
        -9.185907426416325
      ],
      [
        "code",
        -9.186736148268952
      ],
      [
        "ID",
        -9.187556415785563
      ],
      [
        "Ġlater",
        -9.187987024648194
      ],
      [
        "est",
        -9.188380491565164
      ],
      [
        "33",
        -9.18883362584241
      ],
      [
        "hat",
        -9.1913359154522
      ],
      [
        "Ġenough",
        -9.19260427619298
      ],
      [
        "Ġtold",
        -9.195618666056204
      ],
      [
        "ĠWhen",
        -9.19792202809205
      ],
      [
        "partial",
        -9.198979304769402
      ],
      [
        "Ġclose",
        -9.199258146414008
      ],
      [
        "compared",
        -9.199273758104923
      ],
      [
        "Ġfeel",
        -9.199972057977478
      ],
      [
        "upon",
        -9.199976210638994
      ],
      [
        "Ġperiod",
        -9.200284949254879
      ],
      [
        "Ġhard",
        -9.200408994180291
      ],
      [
        "Ġthough",
        -9.20047137480392
      ],
      [
        "according",
        -9.201619210947213
      ],
      [
        "There",
        -9.203832198642328
      ],
      [
        "Ġhead",
        -9.204104482222506
      ],
      [
        "ĊĊĠĠĠĠĠĠĠ",
        -9.204496287707583
      ],
      [
        "45",
        -9.204738500763229
      ],
      [
        "Ġlist",
        -9.208899647115086
      ],
      [
        "Ġresearch",
        -9.210481387021165
      ],
      [
        "Ġmillion",
        -9.210925941384225
      ],
      [
        "100",
        -9.214477059552918
      ],
      [
        "ĠĠĠĠĠĠĠĠĠĠĠĠĠ",
        -9.21457112851884
      ],
      [
        "):",
        -9.218102156839967
      ],
      [
        "epsilon",
        -9.219177198961344
      ],
      [
        "Ġprovided",
        -9.219899163383623
      ],
      [
        "('",
        -9.22048391989132
      ],
      [
        "Ġrange",
        -9.221803445338695
      ],
      [
        "Ġweek",
        -9.22519934953254
      ],
      [
        "Ġsuggest",
        -9.226114518816383
      ],
      [
        "Ġgroups",
        -9.226838741125873
      ],
      [
        "Ġ100",
        -9.227680245821935
      ],
      [
        "Ġworking",
        -9.227715874364305
      ],
      [
        "}^{",
        -9.228083977358791
      ],
      [
        "Ġversion",
        -9.229788049597142
      ],
      [
        "Ġmaking",
        -9.231219782188024
      ],
      [
        "https",
        -9.232792583757368
      ],
      [
        "Ġkey",
        -9.23559381867684
      ],
      [
        "defendant",
        -9.237176017031327
      ],
      [
        "ar",
        -9.239762547331942
      ],
      [
        "Ġread",
        -9.239866175029912
      ],
      [
        "Ġpositive",
        -9.239962205376912
      ],
      [
        "Ġkind",
        -9.240673157491624
      ],
      [
        "Ġconditions",
        -9.241949371751188
      ],
      [
        "Ġaddition",
        -9.24410808016218
      ],
      [
        "Ġbecome",
        -9.244996623842054
      ],
      [
        "String",
        -9.247650251439397
      ],
      [
        "^{\\",
        -9.248082173731081
      ],
      [
        "âĢ¦",
        -9.248107531312895
      ],
      [
        "27",
        -9.248157586626558
      ],
      [
        "Ġ([",
        -9.249917473951172
      ],
      [
        "></",
        -9.250046582907459
      ],
      [
        "Ġprogram",
        -9.250808731179092
      ],
      [
        "}_",
        -9.252844708413011
      ],
      [
        "So",
        -9.254702059012782
      ],
      [
        "Ġclear",
        -9.255287249418888
      ],
      [
        "Ġschool",
        -9.257311776292623
      ],
      [
        "Ġseen",
        -9.257392170082783
      ],
      [
        "%)",
        -9.258078481758346
      ],
      [
        "Ġmoney",
        -9.258237215933388
      ],
      [
        "gamma",
        -9.25849957115424
      ],
      [
        "Ġbusiness",
        -9.258673918090528
      ],
      [
        "Ġseason",
        -9.258782959994415
      ],
      [
        "Ġdisease",
        -9.25919172791947
      ],
      [
        "Ġprotein",
        -9.259244036506665
      ],
      [
        "Ġcontent",
        -9.259978330969904
      ],
      [
        "test",
        -9.26000716100817
      ],
      [
        "Ġsection",
        -9.260136459135754
      ],
      [
        "Ġparticular",
        -9.261592373369467
      ],
      [
        "Ġservice",
        -9.26335040695615
      ],
      [
        "ally",
        -9.263514255551485
      ],
      [
        "Ġ14",
        -9.265266073413562
      ],
      [
        "bib",
        -9.265543389230544
      ],
      [
        "size",
        -9.26624896937766
      ],
      [
        "Ġtogether",
        -9.266486376856399
      ],
      [
        "]).",
        -9.266999872549931
      ],
      [
        "Ġincreased",
        -9.268882550664667
      ],
      [
        "key",
        -9.271354412511123
      ],
      [
        "Ġeffects",
        -9.272670560296714
      ],
      [
        "Ġimage",
        -9.27382618815059
      ],
      [
        "doesn",
        -9.275310918808215
      ],
      [
        "Ġ16",
        -9.275889333157899
      ],
      [
        "Ġobserved",
        -9.27654542108276
      ],
      [
        "Ġcannot",
        -9.277359453666287
      ],
      [
        "Ġthought",
        -9.280092850814682
      ],
      [
        "delta",
        -9.28024667598059
      ],
      [
        "Ġsource",
        -9.282254654885683
      ],
      [
        "ĠOn",
        -9.28468113702442
      ],
      [
        "Ġchanges",
        -9.284704380562998
      ],
      [
        "ĠâĢĺ",
        -9.286140410308974
      ],
      [
        "Ġcountry",
        -9.286235081728414
      ],
      [
        "Data",
        -9.286386365054202
      ],
      [
        "described",
        -9.286435295300922
      ],
      [
        "Ġmultiple",
        -9.2880339597044
      ],
      [
        "Ġtry",
        -9.288722741124534
      ],
      [
        "Ġapproach",
        -9.289383358376984
      ],
      [
        "ĠUniversity",
        -9.290736166888847
      ],
      [
        "40",
        -9.290954913474511
      ],
      [
        "Ġfactors",
        -9.291296592680778
      ],
      [
        "Ġstructure",
        -9.292779193525368
      ],
      [
        "([@",
        -9.292823678032756
      ],
      [
        "Ġthird",
        -9.292860655044223
      ],
      [
        "\"}).",
        -9.294199445868417
      ],
      [
        "Â°",
        -9.295178009115725
      ],
      [
        "Ġearly",
        -9.29796812807829
      ],
      [
        "likely",
        -9.298872914098595
      ],
      [
        "ĠSee",
        -9.299366789448367
      ],
      [
        "Ġturn",
        -9.299658271938137
      ],
      [
        "34",
        -9.300962932549833
      ],
      [
        "Ġconst",
        -9.30239664012081
      ],
      [
        "001",
        -9.303407257452333
      ],
      [
        "went",
        -9.305777798224153
      ],
      [
        "28",
        -9.306350832766872
      ],
      [
        "95",
        -9.306420342734306
      ],
      [
        "include",
        -9.307284224418462
      ],
      [
        "Ġ13",
        -9.307648641831337
      ],
      [
        "Ġtimes",
        -9.308692921219855
      ],
      [
        "Ġproperty",
        -9.30876339897412
      ],
      [
        "Ġmonths",
        -9.308795430744764
      ],
      [
        "Ġbase",
        -9.310668586498831
      ],
      [
        "Ġview",
        -9.311254346905386
      ],
      [
        "Ĥ",
        -9.311862998509179
      ],
      [
        "Ġprivate",
        -9.31257295925493
      ],
      [
        "across",
        -9.314391964218457
      ],
      [
        "\");",
        -9.315546464805733
      ],
      [
        "Ġinclude",
        -9.31571153616071
      ],
      [
        "Ġreport",
        -9.316236238888424
      ],
      [
        "rather",
        -9.31637705155199
      ],
      [
        "un",
        -9.316417939895217
      ],
      [
        "Ġarea",
        -9.316880181688417
      ],
      [
        "Ġ18",
        -9.318235010005084
      ],
      [
        "Ġvoid",
        -9.318440512461272
      ],
      [
        "Ġdoing",
        -9.31897019680052
      ],
      [
        "ian",
        -9.320361404631837
      ],
      [
        "Ġcreate",
        -9.32223056584382
      ],
      [
        "Ġactually",
        -9.322508547691983
      ],
      [
        "ĠAt",
        -9.322583876477434
      ],
      [
        "Ġold",
        -9.322976649258777
      ],
      [
        "Ġobject",
        -9.326684570964005
      ],
      [
        "Ġcompany",
        -9.326929526771535
      ],
      [
        "26",
        -9.328108182311668
      ],
      [
        "Ãĳ",
        -9.329170713602613
      ],
      [
        "rho",
        -9.334850710237095
      ],
      [
        "Ġcancer",
        -9.33903088593875
      ],
      [
        "Ġdeal",
        -9.339096442184529
      ],
      [
        "Ġpast",
        -9.342967739387559
      ],
      [
        "Ġtell",
        -9.344097450832251
      ],
      [
        "Ġexperience",
        -9.34410946385336
      ],
      [
        "Ġindividual",
        -9.344586548428872
      ],
      [
        "more",
        -9.345782576171235
      ],
      [
        "On",
        -9.346084586538657
      ],
      [
        "took",
        -9.348959523617973
      ],
      [
        "Ġonce",
        -9.354746159778252
      ],
      [
        "Ġclaim",
        -9.354811456404521
      ],
      [
        "Ġcame",
        -9.360715344064388
      ],
      [
        "Ġperformed",
        -9.362133318971134
      ],
      [
        "ĠCo",
        -9.362605217863647
      ],
      [
        "Ġaccess",
        -9.362620302529125
      ],
      [
        "Ġconsider",
        -9.362949792867848
      ],
      [
        "times",
        -9.36306609936144
      ],
      [
        "Ġsocial",
        -9.364106579527126
      ],
      [
        "Ġfive",
        -9.365824417733634
      ],
      [
        "Ġbelow",
        -9.366009245468142
      ],
      [
        "Ġtop",
        -9.366506311821837
      ],
      [
        "ĠAmerican",
        -9.368303030196476
      ],
      [
        "Ġstandard",
        -9.368334313558172
      ],
      [
        "Ġdesign",
        -9.368606466388613
      ],
      [
        "file",
        -9.369598510441174
      ],
      [
        "Ġfood",
        -9.36961623603557
      ],
      [
        "38",
        -9.372010240517191
      ],
      [
        "Ġuser",
        -9.372595097034838
      ],
      [
        "Ġreview",
        -9.376219214336611
      ],
      [
        "Ġ24",
        -9.376886309554495
      ],
      [
        "Ġpaper",
        -9.377649477906079
      ],
      [
        "new",
        -9.377683515897912
      ],
      [
        "Ġfactor",
        -9.377793096060948
      ],
      [
        "year",
        -9.378037913410722
      ],
      [
        "Ġfuture",
        -9.378982381026516
      ],
      [
        "theta",
        -9.380013441531297
      ],
      [
        "Ġpoints",
        -9.380306548240107
      ],
      [
        "Ġsite",
        -9.381001850597205
      ],
      [
        "tilde",
        -9.385698127589592
      ],
      [
        "obtained",
        -9.38584468102443
      ],
      [
        "Ġwhole",
        -9.387823193147913
      ],
      [
        "Ġvarious",
        -9.388904995222925
      ],
      [
        "]{}",
        -9.38899789295877
      ],
      [
        "Ġapplication",
        -9.389018343753328
      ],
      [
        "based",
        -9.391490616783445
      ],
      [
        "}^",
        -9.392303645903993
      ],
      [
        "ĠGod",
        -9.39531253076179
      ],
      [
        "Ġblood",
        -9.396503670748615
      ],
      [
        "Ġfalse",
        -9.39841837555407
      ],
      [
        "min",
        -9.400385920554138
      ],
      [
        "Ġshows",
        -9.4005734676454
      ],
      [
        "While",
        -9.400618751651454
      ],
      [
        "Ġsignal",
        -9.401180400467856
      ],
      [
        "Ġidea",
        -9.401181870209419
      ],
      [
        "self",
        -9.401331932896744
      ],
      [
        "showed",
        -9.40283875838226
      ],
      [
        "When",
        -9.403795887978788
      ],
      [
        "29",
        -9.404179560850325
      ],
      [
        "Ġmove",
        -9.404614022227074
      ],
      [
        "ul",
        -9.404638222863037
      ],
      [
        "Ġadd",
        -9.405673942696975
      ],
      [
        "Ġconsidered",
        -9.406273104511689
      ],
      [
        "Ġ50",
        -9.409923596073174
      ],
      [
        "Ġ$(",
        -9.410241289781245
      ],
      [
        "Ġadded",
        -9.410507952263897
      ],
      [
        "Ġpay",
        -9.412289131720964
      ],
      [
        "ĠMr",
        -9.413498114975575
      ],
      [
        "Ġyet",
        -9.413526795217486
      ],
      [
        "Ġtaken",
        -9.415928015100185
      ],
      [
        "tau",
        -9.41610160658518
      ],
      [
        "35",
        -9.41706703231643
      ],
      [
        "Ġsolution",
        -9.419210112120595
      ],
      [
        "str",
        -9.420721626660185
      ],
      [
        "be",
        -9.422496521048108
      ],
      [
        "held",
        -9.423458188206203
      ],
      [
        "^{-",
        -9.425628088484352
      ],
      [
        "List",
        -9.428626836374757
      ],
      [
        "one",
        -9.429313465837
      ],
      [
        "How",
        -9.429758059558127
      ],
      [
        "see",
        -9.430166397409387
      ],
      [
        "led",
        -9.430359047373184
      ],
      [
        "Ġlead",
        -9.43046324486333
      ],
      [
        "Ġ(*",
        -9.431969207892653
      ],
      [
        "omega",
        -9.433416058621766
      ],
      [
        "Ġadditional",
        -9.434253416194865
      ],
      [
        "Ġoriginal",
        -9.434310562943814
      ],
      [
        "Ġhouse",
        -9.434866216336273
      ],
      [
        "Ġproject",
        -9.43691376537245
      ],
      [
        "ance",
        -9.437301603966736
      ],
      [
        "Ġdefined",
        -9.438006593500864
      ],
      [
        "Ġsimple",
        -9.438956076058856
      ],
      [
        "Ġsystems",
        -9.43957638249148
      ],
      [
        "Ġterm",
        -9.439613883718001
      ],
      [
        "Ġcommunity",
        -9.441046884163645
      ],
      [
        "list",
        -9.442061990655148
      ],
      [
        "_\\",
        -9.442715662078525
      ],
      [
        "Ġmajor",
        -9.443534665942693
      ],
      [
        "39",
        -9.447349500497475
      ],
      [
        "Ġyoung",
        -9.447408652012442
      ],
      [
        "Ġchild",
        -9.447866731211096
      ],
      [
        "Ġever",
        -9.44800860826081
      ],
      [
        "Ġfollow",
        -9.44849967615612
      ],
      [
        "ell",
        -9.448982908493042
      ],
      [
        "Ġminutes",
        -9.450387355825457
      ],
      [
        "leq",
        -9.451059091133907
      ],
      [
        "Ġwon",
        -9.451625570942813
      ],
      [
        "Ġroom",
        -9.452572352753386
      ],
      [
        "Ġtemperature",
        -9.452629790613802
      ],
      [
        "ful",
        -9.45475817902414
      ],
      [
        "09",
        -9.456241390077368
      ],
      [
        "Ġperformance",
        -9.456897234262094
      ],
      [
        "02",
        -9.458578839355134
      ],
      [
        "Ġface",
        -9.46037205529331
      ],
      [
        "Ġbit",
        -9.461660839545091
      ],
      [
        "Ġbig",
        -9.462927970496445
      ],
      [
        "Ġdevice",
        -9.466252250176058
      ],
      [
        "Ġincluded",
        -9.46641019865538
      ],
      [
        "define",
        -9.469672171208769
      ],
      [
        "Ġregion",
        -9.470395524359914
      ],
      [
        "Ġmakes",
        -9.47042562527165
      ],
      [
        "Ġfilm",
        -9.47292738184949
      ],
      [
        "trying",
        -9.474157375913046
      ],
      [
        "ĠAn",
        -9.474185615721348
      ],
      [
        "Ġrespectively",
        -9.474746420087785
      ],
      [
        "Ġproduct",
        -9.475041372136912
      ],
      [
        "Ġcost",
        -9.476262421286664
      ],
      [
        "čĊĠĠĠ",
        -9.476387419331145
      ],
      [
        "75",
        -9.476444342523852
      ],
      [
        "03",
        -9.476553682794016
      ],
      [
        "Ġmen",
        -9.476936120820332
      ],
      [
        "all",
        -9.478160773998217
      ],
      [
        "Ġtoday",
        -9.479677596932326
      ],
      [
        "cdot",
        -9.480551701269434
      ],
      [
        "ED",
        -9.480851320414452
      ],
      [
        "Ġrelated",
        -9.481040140197386
      ],
      [
        "href",
        -9.481049561753427
      ],
      [
        "ous",
        -9.481318111618302
      ],
      [
        "taking",
        -9.481482099551782
      ],
      [
        "04",
        -9.4816082392183
      ],
      [
        "Ġentire",
        -9.48297449847335
      ],
      [
        "Ġnull",
        -9.483156793636969
      ],
      [
        "Ġmotion",
        -9.484232509668619
      ],
      [
        "Ġpatient",
        -9.48465314808177
      ],
      [
        "Ġlive",
        -9.485255274060284
      ],
      [
        "Ġreceived",
        -9.485551787252755
      ],
      [
        "Ġaccount",
        -9.485911824764857
      ],
      [
        "Since",
        -9.486277004665038
      ],
      [
        "Ġmaterial",
        -9.486897400060801
      ],
      [
        "08",
        -9.487680906750427
      ],
      [
        "Ġanything",
        -9.487923418753585
      ],
      [
        "Ġdeath",
        -9.488035484666442
      ],
      [
        "That",
        -9.488962359531405
      ],
      [
        "asked",
        -9.48954637959161
      ],
      [
        "Ġunderstand",
        -9.489924568074418
      ],
      [
        "}{\\",
        -9.491825065726177
      ],
      [
        "Ġmembers",
        -9.492232734717449
      ],
      [
        "Ġ25",
        -9.492841291161225
      ],
      [
        "Ġpercent",
        -9.493187364347687
      ],
      [
        "thus",
        -9.495033908270688
      ],
      [
        "Ġothers",
        -9.495202715993758
      ],
      [
        "side",
        -9.495676829512668
      ],
      [
        "31",
        -9.496473985022355
      ],
      [
        "ĠOne",
        -9.496511247432641
      ],
      [
        "Ġaverage",
        -9.496616709620296
      ],
      [
        "Ġbring",
        -9.497069283237577
      ],
      [
        "refore",
        -9.497169903930798
      ],
      [
        "document",
        -9.497502435862417
      ],
      [
        "Ġhalf",
        -9.499070752956069
      ],
      [
        "Ġcity",
        -9.499961539577983
      ],
      [
        "Thus",
        -9.500020208016336
      ],
      [
        "significantly",
        -9.500688050853652
      ],
      [
        "44",
        -9.500937998429992
      ],
      [
        "wide",
        -9.501964654452882
      ],
      [
        "Ġgrowth",
        -9.503125584826806
      ],
      [
        "Ġdistribution",
        -9.503986488511952
      ],
      [
        "Ġdifference",
        -9.504968648631015
      ],
      [
        "Ġagree",
        -9.50534702999312
      ],
      [
        "{{\\",
        -9.506280605449867
      ],
      [
        "Ġcar",
        -9.507485788636274
      ],
      [
        "array",
        -9.507773377853516
      ],
      [
        "ism",
        -9.50928529210251
      ],
      [
        "Ġtarget",
        -9.5111936261293
      ],
      [
        "Ġnetwork",
        -9.511905951700216
      ],
      [
        "Ġphase",
        -9.512280877877046
      ],
      [
        "Ġmind",
        -9.512742811120777
      ],
      [
        "Ġgetting",
        -9.51292305162831
      ],
      [
        "ĠUS",
        -9.515648185788978
      ],
      [
        "Ġstates",
        -9.51618719777128
      ],
      [
        "ĠAfter",
        -9.516250388642472
      ],
      [
        "Ġtalk",
        -9.516497360538985
      ],
      [
        "Ġhistory",
        -9.51730675785469
      ],
      [
        "Ġvia",
        -9.51899955073547
      ],
      [
        "Ġsubject",
        -9.523729447011439
      ],
      [
        "Ġpro",
        -9.523984987273348
      ],
      [
        "add",
        -9.526375107888713
      ],
      [
        "Ġnight",
        -9.527269482183009
      ],
      [
        "ĠMore",
        -9.527762341937043
      ],
      [
        "ĠSt",
        -9.528756117048108
      ],
      [
        "ĥ",
        -9.530714163367847
      ],
      [
        "__",
        -9.53094488240771
      ],
      [
        "Ġacid",
        -9.531260244670747
      ],
      [
        "param",
        -9.53358200744826
      ],
      [
        "Ġseries",
        -9.534022349644092
      ],
      [
        "Ġrecord",
        -9.53499773329432
      ],
      [
        "Ġstring",
        -9.535590574883335
      ],
      [
        "55",
        -9.53579639800318
      ],
      [
        "Ġdis",
        -9.536506504390168
      ],
      [
        "Ġevent",
        -9.536519170947894
      ],
      [
        "infty",
        -9.536683660900298
      ],
      [
        "/*",
        -9.53826818926929
      ],
      [
        "Ġmass",
        -9.539056849885538
      ],
      [
        "Ġpopulation",
        -9.539238075861682
      ],
      [
        "Ġlooking",
        -9.539462780293032
      ],
      [
        "Ġinvolved",
        -9.539920821716326
      ],
      [
        "Value",
        -9.540480638633962
      ],
      [
        "Ġnormal",
        -9.54077119140084
      ],
      [
        "Ġprevious",
        -9.542127512040388
      ],
      [
        "Ġtax",
        -9.54250643552132
      ],
      [
        "Ġalmost",
        -9.543488911002763
      ],
      [
        "Ġcondition",
        -9.544264971522923
      ],
      [
        "Ġgene",
        -9.544625447459781
      ],
      [
        "Ġmicro",
        -9.544678482873408
      ],
      [
        "Ġanswer",
        -9.54648439946652
      ],
      [
        "Ġnothing",
        -9.547760179293185
      ],
      [
        "Ġstrong",
        -9.548216808901268
      ],
      [
        "Ġparty",
        -9.55022935342868
      ],
      [
        "Ġair",
        -9.550933891391418
      ],
      [
        "36",
        -9.551250677100086
      ],
      [
        "Ġpolice",
        -9.551513107146686
      ],
      [
        "Ġclinical",
        -9.552739500888418
      ],
      [
        "old",
        -9.554517014887535
      ],
      [
        "Object",
        -9.555277035093612
      ],
      [
        "================",
        -9.556759055224038
      ],
      [
        "Ġhours",
        -9.559002247573636
      ],
      [
        "field",
        -9.559178361719914
      ],
      [
        "Ãĥ",
        -9.559835645550876
      ],
      [
        "Ġinstead",
        -9.560844844477986
      ],
      [
        "Ġmarket",
        -9.561084800897758
      ],
      [
        "Ġaddress",
        -9.56116215162465
      ],
      [
        "Ġneeded",
        -9.56145229436052
      ],
      [
        "Ġexpected",
        -9.561525393183617
      ],
      [
        "ĠThen",
        -9.561589849660372
      ],
      [
        "Ġrespect",
        -9.562195266513694
      ],
      [
        "43",
        -9.562357749800956
      ],
      [
        "Ġweight",
        -9.562791278468323
      ],
      [
        "Ġcomplex",
        -9.564422497237397
      ],
      [
        "Ġbuilding",
        -9.564539890435679
      ],
      [
        "![",
        -9.566297603770957
      ],
      [
        "Ġrecent",
        -9.567279541868617
      ],
      [
        "Ġlanguage",
        -9.567352242522347
      ],
      [
        "Ġproblems",
        -9.569046192343789
      ],
      [
        "ch",
        -9.571544059591721
      ],
      [
        "Ġjob",
        -9.573344495195562
      ],
      [
        "treated",
        -9.573727271176127
      ],
      [
        "Ġmethods",
        -9.57417858264148
      ],
      [
        "Ġdetermine",
        -9.575992032215417
      ],
      [
        "Ġdamage",
        -9.57621706041352
      ],
      [
        "41",
        -9.576217591554547
      ],
      [
        "All",
        -9.576241466293666
      ],
      [
        "way",
        -9.576339678263958
      ],
      [
        "ĠYork",
        -9.576821369839662
      ],
      [
        "Ġproduction",
        -9.576851525555528
      ],
      [
        "ĠÂ§",
        -9.577219224439185
      ],
      [
        "Ġstep",
        -9.57776747673907
      ],
      [
        "Ġissues",
        -9.57787059373732
      ],
      [
        "Ġ17",
        -9.57974273401719
      ],
      [
        "Ġprior",
        -9.580618041291698
      ],
      [
        "someone",
        -9.580623468853481
      ],
      [
        "Ġservices",
        -9.5811632773961
      ],
      [
        "Ġneeds",
        -9.581768754714457
      ],
      [
        "Delta",
        -9.58436640456564
      ],
      [
        "Ġcheck",
        -9.586851146880763
      ],
      [
        "like",
        -9.58800505816121
      ],
      [
        "ably",
        -9.58817385919654
      ],
      [
        "Ġbreak",
        -9.588636251752515
      ],
      [
        "Get",
        -9.588878816698305
      ],
      [
        "ized",
        -9.589357499713483
      ],
      [
        "Ġsix",
        -9.590009062468067
      ],
      [
        "Ġstatement",
        -9.590048191251741
      ],
      [
        "Ġblack",
        -9.591401873178146
      ],
      [
        "Ġsequence",
        -9.59149215143584
      ],
      [
        "width",
        -9.592507441197213
      ],
      [
        "Ġloss",
        -9.593086551604012
      ],
      [
        "public",
        -9.593977917712769
      ],
      [
        "Ġpolicy",
        -9.594369794264145
      ],
      [
        "Ġhope",
        -9.594624295691265
      ],
      [
        "probably",
        -9.595395079495919
      ],
      [
        "ary",
        -9.596654936821805
      ],
      [
        "Ġstudents",
        -9.597118445930112
      ],
      [
        "Ġpressure",
        -9.597443387358494
      ],
      [
        "void",
        -9.5982443839372
      ],
      [
        "49",
        -9.600298940291502
      ],
      [
        "not",
        -9.60236361577362
      ],
      [
        "Ġstory",
        -9.603154646255891
      ],
      [
        "net",
        -9.6032285921274
      ],
      [
        "}}\\",
        -9.60424426995404
      ],
      [
        "Ġplan",
        -9.604663640270719
      ],
      [
        "60",
        -9.606322340557604
      ],
      [
        "Ġremain",
        -9.606647912125046
      ],
      [
        "Ġquality",
        -9.606751329881945
      ],
      [
        "script",
        -9.607143929703588
      ],
      [
        "Ġstarted",
        -9.608541905527838
      ],
      [
        "Ġsense",
        -9.609288084311556
      ],
      [
        "Ġstop",
        -9.611106054405534
      ],
      [
        "Ġcomplete",
        -9.611744864280661
      ],
      [
        "Ġitself",
        -9.612652259754787
      ],
      [
        "99",
        -9.612926435213904
      ],
      [
        "Ġcontinue",
        -9.613540167977707
      ],
      [
        "Ġsample",
        -9.614245300485988
      ],
      [
        "um",
        -9.61454504311435
      ],
      [
        "Ġlength",
        -9.61479988364482
      ],
      [
        "Ġforce",
        -9.615892724218526
      ],
      [
        "Ġsituation",
        -9.61607651396804
      ],
      [
        "Ġmedia",
        -9.618127258862073
      ],
      [
        "Ġobtain",
        -9.618743043700842
      ],
      [
        "land",
        -9.619239531536552
      ],
      [
        "Ġdifficult",
        -9.62010475310152
      ],
      [
        "56",
        -9.62054927915598
      ],
      [
        "Ġallow",
        -9.621177467616297
      ],
      [
        "chi",
        -9.621583992134253
      ],
      [
        "!=",
        -9.62177656480287
      ],
      [
        "ĠTHE",
        -9.622057330114973
      ],
      [
        "ĠNational",
        -9.62210928816059
      ],
      [
        "Ġpolitical",
        -9.623209623311148
      ],
      [
        "With",
        -9.623677596431017
      ],
      [
        "53",
        -9.625826005737466
      ],
      [
        "dots",
        -9.626318176225702
      ],
      [
        "coming",
        -9.62725322163864
      ],
      [
        "Ġconstant",
        -9.627607064787156
      ],
      [
        "Ġindependent",
        -9.627845089123344
      ],
      [
        "Ġ\\\\",
        -9.630147630878225
      ],
      [
        "Ġheart",
        -9.630598971925108
      ],
      [
        "Ġinput",
        -9.630677617975044
      ],
      [
        "47",
        -9.630975877658047
      ],
      [
        "Ġnecessary",
        -9.631226290125811
      ],
      [
        "Ġpage",
        -9.631742184269559
      ],
      [
        "Ġbook",
        -9.632731645510612
      ],
      [
        "Further",
        -9.637026311432829
      ],
      [
        "Although",
        -9.63717632386109
      ],
      [
        "lib",
        -9.637178139328727
      ],
      [
        "My",
        -9.638389166728523
      ],
      [
        "eta",
        -9.638467432977146
      ],
      [
        "Ġshall",
        -9.638687577095501
      ],
      [
        "from",
        -9.639240090597752
      ],
      [
        "Ġreference",
        -9.64077989593305
      ],
      [
        "ĠTrump",
        -9.641367471960825
      ],
      [
        "Ġimpact",
        -9.643702710231032
      ],
      [
        "Ġsimply",
        -9.644311092332345
      ],
      [
        "Ġcolor",
        -9.644806384400521
      ],
      [
        "Ġprovides",
        -9.644917004893065
      ],
      [
        "According",
        -9.645544340203571
      ],
      [
        "Ġbad",
        -9.646777595881767
      ],
      [
        "Ġstay",
        -9.648078989643933
      ],
      [
        "Ġlines",
        -9.648482583257476
      ],
      [
        "Ġcut",
        -9.651424193027315
      ],
      [
        "Ġmedical",
        -9.652032300102563
      ],
      [
        "46",
        -9.652181180776424
      ],
      [
        "Ġprevent",
        -9.653141634567113
      ],
      [
        "Ġjudgment",
        -9.654042177805119
      ],
      [
        "Ġnear",
        -9.65450677284008
      ],
      [
        "Ġspecial",
        -9.654940322761147
      ],
      [
        "69",
        -9.655791818890156
      ],
      [
        "Ġcontact",
        -9.658298696939951
      ],
      [
        "\\_",
        -9.658790006745253
      ],
      [
        ")/",
        -9.658989056035018
      ],
      [
        "Ġoutside",
        -9.659013611231822
      ],
      [
        "Ġmoment",
        -9.659291350991548
      ],
      [
        "length",
        -9.659696704483395
      ],
      [
        "âĢ",
        -9.659847855180734
      ],
      [
        "Ġespecially",
        -9.660271943775442
      ],
      [
        "Ġshare",
        -9.662381749636292
      ],
      [
        "ĠOF",
        -9.662777191024063
      ],
      [
        "Ġ||",
        -9.664435391143549
      ],
      [
        "65",
        -9.66497726767087
      ],
      [
        "Ġpersonal",
        -9.666126825417038
      ],
      [
        "Ġinstance",
        -9.666750589508064
      ],
      [
        "Ġcontract",
        -9.667330619393555
      ],
      [
        "06",
        -9.668210309573212
      ],
      [
        "^\\",
        -9.668855641465832
      ],
      [
        "directly",
        -9.669578194839868
      ],
      [
        "07",
        -9.670032424436851
      ],
      [
        "Ġpresence",
        -9.670174316451249
      ],
      [
        "Ġformer",
        -9.67105653372873
      ],
      [
        "Ġflow",
        -9.672784411937933
      ],
      [
        "Ġmodels",
        -9.673537598462612
      ],
      [
        "Ġproperties",
        -9.673710994911966
      ],
      [
        "54",
        -9.673771505587867
      ],
      [
        "px",
        -9.674201460304436
      ],
      [
        "View",
        -9.675503051080494
      ],
      [
        "ĠMay",
        -9.676182087528325
      ],
      [
        "with",
        -9.677458384914713
      ],
      [
        "])",
        -9.678774510223247
      ],
      [
        "));",
        -9.67914627955731
      ],
      [
        "ĠCity",
        -9.67930762622902
      ],
      [
        "Ġoutput",
        -9.679625635065113
      ],
      [
        "Ġwords",
        -9.67975385907958
      ],
      [
        "Ġproducts",
        -9.679922000338333
      ],
      [
        "Ġdistrict",
        -9.680201447812243
      ],
      [
        "Ġdetermined",
        -9.680918518023445
      ],
      [
        "Ġrelease",
        -9.681533040708318
      ],
      [
        "Ġseem",
        -9.68284217785991
      ],
      [
        "Ġcross",
        -9.686206194884015
      ],
      [
        "Ġrest",
        -9.687740778300315
      ],
      [
        "path",
        -9.690623896670996
      ],
      [
        "Ġappeal",
        -9.691328468001272
      ],
      [
        "Ġdecrease",
        -9.693148853525374
      ],
      [
        "const",
        -9.69405952075556
      ],
      [
        "state",
        -9.696435732067668
      ],
      [
        "function",
        -9.696998679849148
      ],
      [
        "Ġeffective",
        -9.698435674910463
      ],
      [
        "Ġwide",
        -9.698603483540913
      ],
      [
        "Ġphysical",
        -9.698971142382556
      ],
      [
        "Ġeverything",
        -9.699058164387319
      ],
      [
        "Ġground",
        -9.7005052245832
      ],
      [
        "})",
        -9.701869483158328
      ],
      [
        "Ġwrong",
        -9.701950131368688
      ],
      [
        "Ġprimary",
        -9.70255696601137
      ],
      [
        "Ġint",
        -9.70365811939103
      ],
      [
        "Ġinside",
        -9.70372574265528
      ],
      [
        "Ġlonger",
        -9.704649551425259
      ],
      [
        "Ġwhite",
        -9.705089370652798
      ],
      [
        "51",
        -9.705864014547295
      ],
      [
        "Ġact",
        -9.70628142198294
      ],
      [
        "seems",
        -9.70692810479293
      ],
      [
        "Ġpain",
        -9.70733861293352
      ],
      [
        "Ġelement",
        -9.70825524941879
      ],
      [
        "off",
        -9.709755426443033
      ],
      [
        "Ġhold",
        -9.709924598263845
      ],
      [
        "Ġlayer",
        -9.711028565418326
      ],
      [
        "ĠMy",
        -9.711146059546376
      ],
      [
        "52",
        -9.714441462926795
      ],
      [
        "///",
        -9.71487734160876
      ],
      [
        "Ġevents",
        -9.71530233841651
      ],
      [
        "cal",
        -9.715679976141711
      ],
      [
        "Ġrights",
        -9.716251161349359
      ],
      [
        "Ġquite",
        -9.716285246037607
      ],
      [
        "Ġpresented",
        -9.718044546239655
      ],
      [
        "Ġwrite",
        -9.71997443154405
      ],
      [
        "Ġoffer",
        -9.720260487485627
      ],
      [
        "Ġincreasing",
        -9.72080237462214
      ],
      [
        "Ġeasy",
        -9.72094737991137
      ],
      [
        "Ġidentified",
        -9.722731204818846
      ],
      [
        "Ġbasis",
        -9.722983609231358
      ],
      [
        "ĠDr",
        -9.724329942015208
      ],
      [
        "my",
        -9.724581898806244
      ],
      [
        "Ġrunning",
        -9.72553086428262
      ],
      [
        "Ġfeatures",
        -9.725569137139848
      ],
      [
        "Ġmulti",
        -9.725966159453113
      ],
      [
        "therefore",
        -9.72625855575383
      ],
      [
        "Ġdate",
        -9.727116264122126
      ],
      [
        "Ġplaintiff",
        -9.727716691635115
      ],
      [
        "Ġoffice",
        -9.727851728738386
      ],
      [
        "Ġ21",
        -9.728171684415122
      ],
      [
        "Ġarray",
        -9.729538753890552
      ],
      [
        "max",
        -9.730434125312549
      ],
      [
        "Ġgenes",
        -9.730863532034897
      ],
      [
        "ĠLicense",
        -9.731202124973777
      ],
      [
        "Ġenvironment",
        -9.731523919529609
      ],
      [
        "Ġmember",
        -9.73162108300766
      ],
      [
        "induced",
        -9.733280374480442
      ],
      [
        "item",
        -9.733424967239966
      ],
      [
        "Ġcreated",
        -9.733481649422888
      ],
      [
        "Ġcenter",
        -9.733555037292824
      ],
      [
        "Ġvideo",
        -9.735007589429241
      ],
      [
        "Ġapply",
        -9.735300039570731
      ],
      [
        "âĢĲ",
        -9.736154374772159
      ],
      [
        "Ġrelationship",
        -9.73684268005172
      ],
      [
        "Ġagreement",
        -9.7372627186682
      ],
      [
        "Ġfunctions",
        -9.737712896676383
      ],
      [
        "psi",
        -9.73937319386429
      ],
      [
        "Ġ19",
        -9.739609517503258
      ],
      [
        "ĠRe",
        -9.74048667258333
      ],
      [
        "Key",
        -9.740496121162813
      ],
      [
        "Ġinitial",
        -9.740997774854904
      ],
      [
        "48",
        -9.741182076098964
      ],
      [
        "37",
        -9.741640569557156
      ],
      [
        "sim",
        -9.742247721257216
      ],
      [
        "Error",
        -9.74254209531895
      ],
      [
        "Ġoil",
        -9.744035454222
      ],
      [
        "ĠBy",
        -9.745678252063184
      ],
      [
        "Ġago",
        -9.746805968432193
      ],
      [
        ")/(",
        -9.747334190996826
      ],
      [
        "Ġwanted",
        -9.748471819834212
      ],
      [
        "Ġsamples",
        -9.748489449066774
      ],
      [
        "True",
        -9.749004729283044
      ],
      [
        "Ġnegative",
        -9.74900633036929
      ],
      [
        "Ġparameters",
        -9.750438124941784
      ],
      [
        "Ġdirection",
        -9.750531976912132
      ],
      [
        "Ġfront",
        -9.751274837520075
      ],
      [
        "Ġsearch",
        -9.75220759150442
      ],
      [
        "Ġcontext",
        -9.752311031536538
      ],
      [
        "Ġgas",
        -9.753533874004066
      ],
      [
        "+\\",
        -9.754868888856425
      ],
      [
        "Ġtitle",
        -9.754923670581178
      ],
      [
        "Ġ&&",
        -9.755311598053616
      ],
      [
        "Ġdirect",
        -9.756038287360578
      ],
      [
        "Ġprice",
        -9.756553904573792
      ],
      [
        "57",
        -9.756561567134268
      ],
      [
        "rangle",
        -9.757281390728508
      ],
      [
        "Ġnatural",
        -9.758572105677342
      ],
      [
        "Ã©",
        -9.759643541404897
      ],
      [
        "Ġdeep",
        -9.76305006419426
      ],
      [
        "Ġrequest",
        -9.763758888526757
      ],
      [
        "Ġequal",
        -9.763817024110264
      ],
      [
        "Ġlegal",
        -9.764779764001204
      ],
      [
        "top",
        -9.76516346661472
      ],
      [
        "\\])",
        -9.765722186552098
      ],
      [
        "File",
        -9.766187265196335
      ],
      [
        "base",
        -9.766547772823834
      ],
      [
        "msg",
        -9.76686008780414
      ],
      [
        "42",
        -9.768101375171334
      ],
      [
        "Ġexpect",
        -9.768324856208732
      ],
      [
        "Ġtraining",
        -9.769270484464965
      ],
      [
        "Ġ/*",
        -9.769508048248952
      ],
      [
        "Ġmemory",
        -9.770861948013557
      ],
      [
        "Ġstage",
        -9.771258553269503
      ],
      [
        "Ġelements",
        -9.771761737152694
      ],
      [
        "Ġ40",
        -9.772265428445921
      ],
      [
        "Ġavoid",
        -9.772865359277326
      ],
      [
        "Ġstatic",
        -9.774046716191803
      ],
      [
        "Ġbuild",
        -9.774743829177385
      ],
      [
        "Ġknowledge",
        -9.775067380299781
      ],
      [
        "Ġmice",
        -9.775654044080413
      ],
      [
        "Ġareas",
        -9.775757423469724
      ],
      [
        "Ġtypes",
        -9.775911958306521
      ],
      [
        "](",
        -9.77609167605101
      ],
      [
        "usually",
        -9.776589125408526
      ],
      [
        "developed",
        -9.778549513185478
      ],
      [
        "Ġtheory",
        -9.778796561265938
      ],
      [
        "Ġassume",
        -9.778882295802024
      ],
      [
        "One",
        -9.779609382595218
      ],
      [
        "although",
        -9.779772417525745
      ],
      [
        "Ġfire",
        -9.78070673072486
      ],
      [
        "Ġstatus",
        -9.781080284313928
      ],
      [
        "Ġdrug",
        -9.781522930257953
      ],
      [
        "Ġbehind",
        -9.78258177723075
      ],
      [
        "}(\\",
        -9.782751206197666
      ],
      [
        "ling",
        -9.783770285475347
      ],
      [
        "Ġbehavior",
        -9.78448981235869
      ],
      [
        "Ġrequire",
        -9.78450900765964
      ],
      [
        "Ġunit",
        -9.785346402798318
      ],
      [
        "Ġsuper",
        -9.785945428070045
      ],
      [
        "ĠInc",
        -9.786126773906396
      ],
      [
        "Ġweeks",
        -9.787967846933036
      ],
      [
        "Ġapplied",
        -9.788879449166071
      ],
      [
        "ÃĤ",
        -9.789790163114704
      ],
      [
        "Ġgreater",
        -9.790317716706731
      ],
      [
        "Ġratio",
        -9.791172723940331
      ],
      [
        "ring",
        -9.794187711791883
      ],
      [
        "ĠJohn",
        -9.794515868230349
      ],
      [
        "59",
        -9.794794113927937
      ],
      [
        "Ġreduce",
        -9.79561196995248
      ],
      [
        "Ġdi",
        -9.796253345923148
      ],
      [
        "Ġdouble",
        -9.796783867369324
      ],
      [
        "Ġpreviously",
        -9.797356279731012
      ],
      [
        "Ġlimited",
        -9.798588368842609
      ],
      [
        "ĠDNA",
        -9.799060193458391
      ],
      [
        "big",
        -9.799599727303866
      ],
      [
        "user",
        -9.799906953847279
      ],
      [
        "Ġask",
        -9.799961296538656
      ],
      [
        "Ġquestions",
        -9.800114378631067
      ],
      [
        "Ġpath",
        -9.80035231687793
      ],
      [
        "ĠWith",
        -9.800486068104245
      ],
      [
        "Ġglobal",
        -9.802111018295749
      ],
      [
        "invention",
        -9.803031871811923
      ],
      [
        "Ġreduced",
        -9.803688822253083
      ],
      [
        "Ġarticle",
        -9.8037902739916
      ],
      [
        "Ġlack",
        -9.803940131756923
      ],
      [
        "Ġpractice",
        -9.804321633485584
      ],
      [
        "use",
        -9.804819898024244
      ],
      [
        "Ġsaw",
        -9.80713733898641
      ],
      [
        "ĠPresident",
        -9.8074520811659
      ],
      [
        "Ġmonth",
        -9.808115105791556
      ],
      [
        "that",
        -9.80831053410199
      ],
      [
        "Ġrelative",
        -9.808820909567117
      ],
      [
        "ams",
        -9.8100647368523
      ],
      [
        "Ġ22",
        -9.810086609651604
      ],
      [
        "58",
        -9.810613675504504
      ],
      [
        "Because",
        -9.812147658848478
      ],
      [
        "Ġworks",
        -9.813466395000386
      ],
      [
        "Ġgames",
        -9.814791076125676
      ],
      [
        "dev",
        -9.815296500156524
      ],
      [
        "Ġopinion",
        -9.816501001893172
      ],
      [
        "quad",
        -9.818367238375329
      ],
      [
        "]^",
        -9.818793115211701
      ],
      [
        "Ġproduce",
        -9.819921386088941
      ],
      [
        "ate",
        -9.820918011905645
      ],
      [
        "Ġleave",
        -9.821110509373009
      ],
      [
        "Ġculture",
        -9.82256666439473
      ],
      [
        "Ġforward",
        -9.824498238867864
      ],
      [
        "Ġsoftware",
        -9.82511270259099
      ],
      [
        "term",
        -9.825155062827227
      ],
      [
        "particularly",
        -9.825970423809665
      ],
      [
        "Ġrule",
        -9.826385731345956
      ],
      [
        "Set",
        -9.8265350651115
      ],
      [
        "Ġword",
        -9.82730691867184
      ],
      [
        "Ġ(\\[",
        -9.830295749144359
      ],
      [
        "Ġseparate",
        -9.831855214212075
      ],
      [
        "operator",
        -9.831917256686594
      ],
      [
        "Ġmother",
        -9.832568511303446
      ],
      [
        "Ġincludes",
        -9.833409272894967
      ],
      [
        "Ġlimit",
        -9.834011984605706
      ],
      [
        "Ġchoice",
        -9.83492864190204
      ],
      [
        "ĠAct",
        -9.835460548171687
      ],
      [
        "By",
        -9.837058951705536
      ],
      [
        "Ġattack",
        -9.837147206216908
      ],
      [
        "Ġdisplay",
        -9.837211168770274
      ],
      [
        "Ġart",
        -9.837618431473722
      ],
      [
        "...\"",
        -9.838009317938797
      ],
      [
        "static",
        -9.838212331910121
      ],
      [
        "ĠCounty",
        -9.839015350261102
      ],
      [
        "corresponding",
        -9.839776877142365
      ],
      [
        "Ġinfluence",
        -9.839947150499306
      ],
      [
        "---------------",
        -9.84019569423429
      ],
      [
        "Ġplayers",
        -9.844397621719025
      ],
      [
        "Ġclaims",
        -9.845737677051002
      ],
      [
        "ities",
        -9.84574857760516
      ],
      [
        "whose",
        -9.847646527932518
      ],
      [
        "Ġaffect",
        -9.84872182106032
      ],
      [
        "Ġwritten",
        -9.848747202721574
      ],
      [
        "Ġmis",
        -9.849514907856445
      ],
      [
        "Text",
        -9.849652517722891
      ],
      [
        "app",
        -9.85042183370976
      ],
      [
        "Ġnature",
        -9.851495569489888
      ],
      [
        "Ġmessage",
        -9.851875154261581
      ],
      [
        "followed",
        -9.853166000207622
      ],
      [
        "Ġnational",
        -9.854329794892264
      ],
      [
        "index",
        -9.855509204251405
      ],
      [
        "Ġfine",
        -9.855868359246506
      ],
      [
        "node",
        -9.85630956236491
      ],
      [
        "les",
        -9.856425535264494
      ],
      [
        "back",
        -9.856507205592942
      ],
      [
        "ions",
        -9.856753482565308
      ],
      [
        "tried",
        -9.85861944652273
      ],
      [
        "form",
        -9.859627018422373
      ],
      [
        "Ġ[*",
        -9.86002680595968
      ],
      [
        "ley",
        -9.860037350017535
      ],
      [
        "map",
        -9.861535024270028
      ],
      [
        "Ġdistance",
        -9.861876920393811
      ],
      [
        "java",
        -9.862035437635114
      ],
      [
        "Ġargument",
        -9.862496655236951
      ],
      [
        "čĊ",
        -9.865076954463008
      ],
      [
        "Ġspecies",
        -9.865111872986608
      ],
      [
        "link",
        -9.865304676464243
      ],
      [
        "ng",
        -9.866393963710959
      ],
      [
        "Ġ$$",
        -9.868059243662508
      ],
      [
        "ĠHis",
        -9.868168721648708
      ],
      [
        "men",
        -9.868930137444814
      ],
      [
        "Test",
        -9.869175882105367
      ],
      [
        "sub",
        -9.869756683111326
      ],
      [
        "Ġliving",
        -9.869803715278376
      ],
      [
        "day",
        -9.86989031483742
      ],
      [
        "90",
        -9.870622195962243
      ],
      [
        "Ġsuccess",
        -9.871188889368781
      ],
      [
        "Ġlate",
        -9.87212641691363
      ],
      [
        "Ġwar",
        -9.873127951725989
      ],
      [
        "ĠSouth",
        -9.873605393854975
      ],
      [
        "Ġsecurity",
        -9.87473235338294
      ],
      [
        "72",
        -9.87488728843488
      ],
      [
        "She",
        -9.874994383576237
      ],
      [
        "anyone",
        -9.875512641835105
      ],
      [
        "Ġbrain",
        -9.876327327793955
      ],
      [
        "Now",
        -9.878028787538375
      ],
      [
        "ĠOur",
        -9.878740536885635
      ],
      [
        "Ġpurpose",
        -9.87898044262267
      ],
      [
        "Ġvector",
        -9.879347222078431
      ],
      [
        "Ġrecently",
        -9.879384257549662
      ],
      [
        "Ġindex",
        -9.879469059072813
      ],
      [
        "Ġappropriate",
        -9.879652166840339
      ],
      [
        "Sec",
        -9.880153059656157
      ],
      [
        "Ġstyle",
        -9.881027535092628
      ],
      [
        "Ġdefault",
        -9.881817206930025
      ],
      [
        "Ġlost",
        -9.881843667390951
      ],
      [
        "Ġthemselves",
        -9.88279354314906
      ],
      [
        "Ġwalk",
        -9.883332183929076
      ],
      [
        "Ġetc",
        -9.884091959186298
      ],
      [
        "generally",
        -9.884344024195139
      ],
      [
        "Ġexplain",
        -9.88447353029613
      ],
      [
        "čĊĠĠĠĠĠĠĠ",
        -9.884494097769988
      ],
      [
        "Ġfederal",
        -9.88668841899022
      ],
      [
        "Ġhospital",
        -9.887814349781877
      ],
      [
        "Ġcountries",
        -9.888001770269023
      ],
      [
        "Ġonline",
        -9.888055162153023
      ],
      [
        "Ġactive",
        -9.888418850660711
      ],
      [
        "Ġfailure",
        -9.888539818066558
      ],
      [
        "Ġdifferences",
        -9.889591154949668
      ],
      [
        "Ġappear",
        -9.889599451854723
      ],
      [
        "jury",
        -9.889649692718585
      ],
      [
        "Also",
        -9.890603186809628
      ],
      [
        "Ġex",
        -9.891054776857482
      ],
      [
        "ĠAmerica",
        -9.891195326996602
      ],
      [
        "Ġproposed",
        -9.892153655352713
      ],
      [
        "Ġred",
        -9.892244189184435
      ],
      [
        "Ġcharge",
        -9.892966235877719
      ],
      [
        "From",
        -9.893007034750323
      ],
      [
        "Ġreceive",
        -9.894488906779921
      ],
      [
        "}}$",
        -9.895342710496605
      ],
      [
        "Ġeconomic",
        -9.895351460504248
      ],
      [
        "we",
        -9.896008515779778
      ],
      [
        "Ġ28",
        -9.896032497322443
      ],
      [
        "003",
        -9.897189727262457
      ],
      [
        "Ġslow",
        -9.89798185673385
      ],
      [
        "Ġcomputer",
        -9.89900708819981
      ],
      [
        ":**",
        -9.900035347534645
      ],
      [
        "len",
        -9.900338018486934
      ],
      [
        "Ġ2012",
        -9.900909444966242
      ],
      [
        "}$,",
        -9.901364120414273
      ],
      [
        "Gamma",
        -9.902389346944762
      ],
      [
        "Ġhit",
        -9.902877847917889
      ],
      [
        "ĠGeneral",
        -9.902975413323729
      ],
      [
        "Ġ23",
        -9.90306739110687
      ],
      [
        "67",
        -9.903165728278639
      ],
      [
        "became",
        -9.90318973886418
      ],
      [
        "Ġcount",
        -9.903528282557826
      ],
      [
        "Ġhimself",
        -9.90355858269374
      ],
      [
        "Ġbasic",
        -9.903706063613345
      ],
      [
        "Ġvar",
        -9.904582347458794
      ],
      [
        "ĠMarch",
        -9.904729775194383
      ],
      [
        "\";",
        -9.905301616640381
      ],
      [
        "Omega",
        -9.905741993314065
      ],
      [
        "style",
        -9.906855532005856
      ],
      [
        "Ġpoor",
        -9.90797000201206
      ],
      [
        "ĠWorld",
        -9.908087373821354
      ],
      [
        "gave",
        -9.908491010794144
      ],
      [
        "color",
        -9.908705749591425
      ],
      [
        "Ġdensity",
        -9.909085339168493
      ],
      [
        "reasonable",
        -9.91023742572255
      ],
      [
        "def",
        -9.910465474645294
      ],
      [
        "ĠHouse",
        -9.91050614901733
      ],
      [
        "ING",
        -9.910590493050966
      ],
      [
        "Ġnotice",
        -9.91067583801839
      ],
      [
        "Ġconcern",
        -9.911612216339934
      ],
      [
        "Ġtable",
        -9.912408501844515
      ],
      [
        "rightarrow",
        -9.912963050606683
      ],
      [
        "ĠChina",
        -9.913389288850476
      ],
      [
        "Ġwebsite",
        -9.913622694913947
      ],
      [
        "Ġblock",
        -9.915039617750171
      ],
      [
        "Ġmeeting",
        -9.915516215526624
      ],
      [
        "group",
        -9.915657448065755
      ],
      [
        "85",
        -9.915839917365899
      ],
      [
        "Exception",
        -9.915973403242612
      ],
      [
        "66",
        -9.916917568790454
      ],
      [
        "Ġfocus",
        -9.917167882207632
      ],
      [
        "Ġderivative",
        -9.918050484552975
      ],
      [
        "ĠNorth",
        -9.918165713767916
      ],
      [
        "Ġunique",
        -9.918380294093282
      ],
      [
        "Ġrates",
        -9.919680058808227
      ],
      [
        "Ġ60",
        -9.92120705437359
      ],
      [
        "Ġpretty",
        -9.921804045452873
      ],
      [
        "ization",
        -9.9219472098575
      ],
      [
        "^[@",
        -9.921969865576976
      ],
      [
        "ĠCD",
        -9.922305602194191
      ],
      [
        "Ġdrive",
        -9.9224932249875
      ],
      [
        "68",
        -9.923356966343485
      ],
      [
        "Ġfinancial",
        -9.923572021561915
      ],
      [
        "});",
        -9.924960806335877
      ],
      [
        "Ġmap",
        -9.926068289094708
      ],
      [
        "63",
        -9.927051052919449
      ],
      [
        "ĠDepartment",
        -9.927436613236807
      ],
      [
        "Ġbackground",
        -9.927907309363865
      ],
      [
        "July",
        -9.928002958163862
      ],
      [
        "96",
        -9.92827998604773
      ],
      [
        "Ġserious",
        -9.928338679734116
      ],
      [
        "title",
        -9.92886544733652
      ],
      [
        "Ġregard",
        -9.929783539029742
      ],
      [
        "Ġcouple",
        -9.930632489847383
      ],
      [
        "Ġ/>",
        -9.93093967400978
      ],
      [
        "Ġland",
        -9.932313268527441
      ],
      [
        "Ġcorrect",
        -9.932901774562245
      ],
      [
        "designed",
        -9.933205129608064
      ],
      [
        "ĠDe",
        -9.933232754883324
      ],
      [
        "Ġrandom",
        -9.93329045706534
      ],
      [
        "ent",
        -9.933600471669743
      ],
      [
        "Ġgain",
        -9.933782896443992
      ],
      [
        "Ġfailed",
        -9.934896086935534
      ],
      [
        "=\\",
        -9.935151850953115
      ],
      [
        "hearing",
        -9.937333098600709
      ],
      [
        "pp",
        -9.937902924055646
      ],
      [
        "Ġ2013",
        -9.938667254836098
      ],
      [
        "Ġattempt",
        -9.938975891523947
      ],
      [
        "They",
        -9.938991494940739
      ],
      [
        "Ġcampaign",
        -9.940200383266621
      ],
      [
        "Ġpublished",
        -9.94027643199281
      ],
      [
        "70",
        -9.94027685830311
      ],
      [
        "Ġnumbers",
        -9.941476144429263
      ],
      [
        "Ġscale",
        -9.941635710474154
      ],
      [
        "Ġson",
        -9.941753495450909
      ],
      [
        "Ġoperation",
        -9.941978285413047
      ],
      [
        "Ġspeed",
        -9.942310923191364
      ],
      [
        "86",
        -9.943185990745121
      ],
      [
        "val",
        -9.944152350036214
      ],
      [
        "Ġmeet",
        -9.944361949543742
      ],
      [
        "follows",
        -9.944440747582098
      ],
      [
        "94",
        -9.945683841985893
      ],
      [
        "Ġ2016",
        -9.947293296038211
      ],
      [
        "Ġdegree",
        -9.947861390383201
      ],
      [
        "Ġinter",
        -9.948145916692075
      ],
      [
        "vec",
        -9.948179278432134
      ],
      [
        "Ġtissue",
        -9.948889785885623
      ],
      [
        "Ġallowed",
        -9.948999666927758
      ],
      [
        "ĠDo",
        -9.949253846922474
      ],
      [
        "Ġconcentration",
        -9.949885288532355
      ],
      [
        "ĠII",
        -9.949938674820299
      ],
      [
        "free",
        -9.950448027231912
      ],
      [
        "down",
        -9.950955536128713
      ],
      [
        "Ġwoman",
        -9.951215693997531
      ],
      [
        "Ġlarger",
        -9.951581955154229
      ],
      [
        "Ġstress",
        -9.951849821149098
      ],
      [
        "Size",
        -9.951887463109747
      ],
      [
        "88",
        -9.951997610551407
      ],
      [
        "Ġfindings",
        -9.95288739371129
      ],
      [
        "Ġdepend",
        -9.95310597860082
      ],
      [
        "Ġcomponent",
        -9.953727832459217
      ],
      [
        "expressed",
        -9.95388925981196
      ],
      [
        "saying",
        -9.954253974766027
      ],
      [
        "Ġportion",
        -9.954325670057928
      ],
      [
        "body",
        -9.954364099610281
      ],
      [
        "Ġmeasured",
        -9.954417895942825
      ],
      [
        "Ġimprove",
        -9.95457885943464
      ],
      [
        "čĊĠ",
        -9.955431119158009
      ],
      [
        "Ġexist",
        -9.955825053228857
      ],
      [
        "Ġ2014",
        -9.956114003756605
      ],
      [
        "Ġeveryone",
        -9.956259473245696
      ],
      [
        "Ġsoon",
        -9.956964679558768
      ],
      [
        "###",
        -9.95748716690546
      ],
      [
        "comes",
        -9.959851457867316
      ],
      [
        "App",
        -9.960268366869075
      ],
      [
        "located",
        -9.960856431782858
      ],
      [
        "Ġcurrently",
        -9.961656009102729
      ],
      [
        "Ċĉĉĉĉ",
        -9.963042849095642
      ],
      [
        "Ġheat",
        -9.963656327654459
      ],
      [
        "input",
        -9.965092394902301
      ],
      [
        "Ġmovement",
        -9.965139562925192
      ],
      [
        "After",
        -9.965613581239941
      ],
      [
        "Ġsafe",
        -9.965972994207892
      ],
      [
        "let",
        -9.966203489516316
      ],
      [
        "Ġalone",
        -9.966528861919263
      ],
      [
        "Ġselected",
        -9.967385369739372
      ],
      [
        "ĠString",
        -9.968301920925422
      ],
      [
        "knew",
        -9.968889674185064
      ],
      [
        "ĠHere",
        -9.969137440904925
      ],
      [
        "related",
        -9.971341479060925
      ],
      [
        "Ġsign",
        -9.971694830838073
      ],
      [
        "Ġattention",
        -9.972136513771963
      ],
      [
        "then",
        -9.972978273548808
      ],
      [
        "Ġdetails",
        -9.973281221141866
      ],
      [
        "divided",
        -9.973892496636799
      ],
      [
        "began",
        -9.974031263194044
      ],
      [
        "Ġapp",
        -9.975940230066849
      ],
      [
        "space",
        -9.9769243111735
      ],
      [
        "Ġstand",
        -9.977400437461812
      ],
      [
        "Ġpull",
        -9.977615961370976
      ],
      [
        "ĠJune",
        -9.978407847975726
      ],
      [
        "Ġvolume",
        -9.978945823154236
      ],
      [
        "False",
        -9.979752081705495
      ],
      [
        "Ġvehicle",
        -9.979805907738415
      ],
      [
        "Ġcompanies",
        -9.98068354271232
      ],
      [
        "true",
        -9.98163218554481
      ],
      [
        "Ġcharacter",
        -9.982246499272367
      ],
      [
        "Ġbio",
        -9.98276984462165
      ],
      [
        "Ġfriends",
        -9.982870476691529
      ],
      [
        "$\\",
        -9.983785905281056
      ],
      [
        "info",
        -9.985174002409615
      ],
      [
        "ĠâĪĴ",
        -9.985211660958983
      ],
      [
        "Ġtransfer",
        -9.986158812663358
      ],
      [
        "['",
        -9.98639624325152
      ],
      [
        "Ġsentence",
        -9.98687373464356
      ],
      [
        "98",
        -9.986905433633074
      ],
      [
        "Ġgoal",
        -9.988492699743832
      ],
      [
        "Ġindividuals",
        -9.99004505304085
      ],
      [
        "Ġlearn",
        -9.99024977914092
      ],
      [
        "Ġlocation",
        -9.991379004470982
      ],
      [
        "Ġreaction",
        -9.991397038297519
      ],
      [
        "ĊĠĠĠĠĠĠĠĠĠĠĠĠĠ",
        -9.994459279265842
      ],
      [
        "ĠFirst",
        -9.994560209181994
      ],
      [
        "struct",
        -9.99571752120845
      ],
      [
        "Ġchance",
        -9.9957625382471
      ],
      [
        "parties",
        -9.995875874791846
      ],
      [
        "Ġ26",
        -9.995985550363942
      ],
      [
        "highly",
        -9.996114048907925
      ],
      [
        "completely",
        -9.996651590526508
      ],
      [
        "Ġstar",
        -9.996957027363589
      ],
      [
        "Ġfixed",
        -9.997509323961868
      ],
      [
        "Ġeducation",
        -9.997642199785785
      ],
      [
        "ish",
        -9.99889257455191
      ],
      [
        "Ġ[**",
        -9.999592743006183
      ],
      [
        "Ġhappen",
        -10.000291598897551
      ],
      [
        "Ġnote",
        -10.001070349628773
      ],
      [
        "State",
        -10.0012156679539
      ],
      [
        "Ġfast",
        -10.00224248342628
      ],
      [
        "Ġmanagement",
        -10.002435487406323
      ],
      [
        "Ġproteins",
        -10.003536048858471
      ],
      [
        "Ġ2015",
        -10.003814135562664
      ],
      [
        "Which",
        -10.0043370571471
      ],
      [
        "Ġcomponents",
        -10.005500065374548
      ],
      [
        "Path",
        -10.005754818679742
      ],
      [
        "\"><",
        -10.00597139998109
      ],
      [
        "Ġrequires",
        -10.005987319765602
      ],
      [
        "useful",
        -10.006044657803514
      ],
      [
        "case",
        -10.006542723959907
      ],
      [
        "Ġpattern",
        -10.007025573855586
      ],
      [
        "Ġenjoy",
        -10.007206749912326
      ],
      [
        "Ġwin",
        -10.007343527839884
      ],
      [
        "Ġeyes",
        -10.00797892761997
      ],
      [
        "source",
        -10.008251440801741
      ],
      [
        "Ġtechnology",
        -10.0085699100157
      ],
      [
        "ified",
        -10.00903459285282
      ],
      [
        "Ġcentral",
        -10.009121871299342
      ],
      [
        "Of",
        -10.00942904026635
      ],
      [
        "¾",
        -10.010451812659815
      ],
      [
        "}$.",
        -10.010521445546468
      ],
      [
        "Ġfrequency",
        -10.010588286085316
      ],
      [
        "Ġ:=",
        -10.011350928741743
      ],
      [
        "goes",
        -10.011813075036176
      ],
      [
        "61",
        -10.012139327639085
      ],
      [
        "62",
        -10.014383662021743
      ],
      [
        "84",
        -10.014857540922238
      ],
      [
        "Ġindustry",
        -10.016565489869691
      ],
      [
        "\"/>",
        -10.017518949225195
      ],
      [
        "Info",
        -10.017685387493374
      ],
      [
        "error",
        -10.017907098485699
      ],
      [
        "Ġcopy",
        -10.01791455921424
      ],
      [
        "Ġearlier",
        -10.018313623876466
      ],
      [
        "den",
        -10.01866765316549
      ],
      [
        "produced",
        -10.019053008900672
      ],
      [
        "Ġfair",
        -10.019486239546001
      ],
      [
        "Ġnews",
        -10.019912548649318
      ],
      [
        "Ġmaintain",
        -10.019990441781498
      ],
      [
        "Ġwriting",
        -10.020052082278513
      ],
      [
        "Ġpass",
        -10.020248384880905
      ],
      [
        "ij",
        -10.02085703427197
      ],
      [
        "Ġconnection",
        -10.02217286824366
      ],
      [
        "Ġequation",
        -10.02217996582962
      ],
      [
        "Ġmechanism",
        -10.022807896638062
      ],
      [
        "Ġleading",
        -10.023249437788863
      ],
      [
        "Ġsent",
        -10.024414079578934
      ],
      [
        "Ġauto",
        -10.02652661611878
      ],
      [
        "Ġassert",
        -10.026855628088923
      ],
      [
        "Ġoverall",
        -10.027468161525674
      ],
      [
        "ĠJanuary",
        -10.028560360341945
      ],
      [
        "ĠSystem",
        -10.028877139227022
      ],
      [
        "Ġtoward",
        -10.029133770018085
      ],
      [
        "\\\\",
        -10.029486492702063
      ],
      [
        "Ġpresident",
        -10.029542605510644
      ],
      [
        "Ġcircuit",
        -10.030320206557567
      ],
      [
        "Ġremember",
        -10.030506679519426
      ],
      [
        "paid",
        -10.030789077309018
      ],
      [
        "());",
        -10.031142164009882
      ],
      [
        "easily",
        -10.031246376494687
      ],
      [
        "Ġindicate",
        -10.031512438609138
      ],
      [
        "ĠSome",
        -10.03166741777384
      ],
      [
        "ĠApril",
        -10.031941391422624
      ],
      [
        "Ġcontains",
        -10.032071920788997
      ],
      [
        "--------------",
        -10.032442174119293
      ],
      [
        "Ġmeasure",
        -10.032536241913913
      ],
      [
        "Ġimages",
        -10.032999106990744
      ],
      [
        "ĠCir",
        -10.03484637961412
      ],
      [
        "Ġ2011",
        -10.034950756496784
      ],
      [
        "which",
        -10.034990134430206
      ],
      [
        "Ġdemand",
        -10.035588281679685
      ],
      [
        "uint",
        -10.035651410004865
      ],
      [
        "giving",
        -10.035889866073704
      ],
      [
        "image",
        -10.037030299709526
      ],
      [
        "Ġfall",
        -10.038461510167776
      ],
      [
        "ence",
        -10.038778779654958
      ],
      [
        "Ġboard",
        -10.040483379586993
      ],
      [
        "ĠWest",
        -10.040918982001715
      ],
      [
        "Ġrepresent",
        -10.040924216729783
      ],
      [
        "Node",
        -10.040987130528078
      ],
      [
        "formed",
        -10.041164150042485
      ],
      [
        "per",
        -10.041238845794119
      ],
      [
        "Ġbar",
        -10.04161885453391
      ],
      [
        "Ġfigure",
        -10.041688466661606
      ],
      [
        "Ġmode",
        -10.041788468768479
      ],
      [
        "ĠNot",
        -10.041978713590948
      ],
      [
        "Ġ2010",
        -10.042261672146186
      ],
      [
        "December",
        -10.043221959644079
      ],
      [
        "Ġdefinition",
        -10.043233999936996
      ],
      [
        "Ġcosts",
        -10.04340655915003
      ],
      [
        "Ġhost",
        -10.044334141298744
      ],
      [
        "Ġestablished",
        -10.044516414571447
      ],
      [
        "Ġcounsel",
        -10.04569006312908
      ],
      [
        "read",
        -10.045750394935418
      ],
      [
        "Ġfinding",
        -10.045977295892824
      ],
      [
        "New",
        -10.04641605728515
      ],
      [
        "Ġsupported",
        -10.046976049570242
      ],
      [
        "Ġcritical",
        -10.047540608385091
      ],
      [
        "Ġtumor",
        -10.047893619462853
      ],
      [
        "**(",
        -10.050113902695706
      ],
      [
        "Ġgenerated",
        -10.050202068071666
      ],
      [
        "Index",
        -10.050353192579143
      ],
      [
        "Ġcomment",
        -10.050487037412367
      ],
      [
        "Ġhighest",
        -10.050524000516564
      ],
      [
        "77",
        -10.05115029524766
      ],
      [
        "Ġoption",
        -10.051414556259779
      ],
      [
        "version",
        -10.05261596945079
      ],
      [
        "Ġactivities",
        -10.05392676368825
      ],
      [
        "Ġlink",
        -10.056185946777251
      ],
      [
        "Ġfather",
        -10.056821702230614
      ],
      [
        "was",
        -10.058157261561492
      ],
      [
        "Ġpush",
        -10.058891304391002
      ],
      [
        "Ġcomparison",
        -10.059390577092858
      ],
      [
        "Ġtrade",
        -10.059948924822287
      ],
      [
        "Ġfelt",
        -10.060061476240696
      ],
      [
        "Ġ<<",
        -10.0603243426775
      ],
      [
        "Ġrelevant",
        -10.060523571702566
      ],
      [
        "Ġmatrix",
        -10.06057266715344
      ],
      [
        "Ġstaff",
        -10.060593058567434
      ],
      [
        "Ġcarrie",
        -10.06082829239045
      ],
      [
        "Ġnode",
        -10.060853611448042
      ],
      [
        "Ġstated",
        -10.060915307054245
      ],
      [
        "Ġallows",
        -10.060928160737681
      ],
      [
        "Re",
        -10.061193945692406
      ],
      [
        "Ġpair",
        -10.061422742623684
      ],
      [
        "Ġprime",
        -10.061551067624121
      ],
      [
        "Ġprove",
        -10.062323527419197
      ],
      [
        "Ġcommand",
        -10.062724314017004
      ],
      [
        "78",
        -10.063047002487465
      ],
      [
        "Ġrace",
        -10.063697282543567
      ],
      [
        "Ġdomain",
        -10.064625928749955
      ],
      [
        "Ġusers",
        -10.06471260041318
      ],
      [
        "Ġ2017",
        -10.064871032919479
      ],
      [
        "Ġvariable",
        -10.065054118906533
      ],
      [
        "97",
        -10.065362450233547
      ],
      [
        "clearly",
        -10.065430960064868
      ],
      [
        "php",
        -10.065508708626622
      ],
      [
        "}_{\\",
        -10.066204776463572
      ],
      [
        "Ġcontaining",
        -10.066455547088115
      ],
      [
        "Ġconsist",
        -10.066828587677966
      ],
      [
        "Here",
        -10.066901264364152
      ],
      [
        "Ġoptions",
        -10.06698779696065
      ],
      [
        "Ġinvestigate",
        -10.067804406376625
      ],
      [
        "Ġactual",
        -10.067924862507969
      ],
      [
        "Ġdoor",
        -10.06815568322513
      ],
      [
        "Ġdevices",
        -10.068315543618377
      ],
      [
        "500",
        -10.068382597189148
      ],
      [
        "âĢ¢",
        -10.068413519326038
      ],
      [
        "Ġinvestigation",
        -10.068962703511756
      ],
      [
        "Ġpanel",
        -10.069077104424611
      ],
      [
        "Ġplease",
        -10.069467157219368
      ],
      [
        "Ġfiled",
        -10.0706597547169
      ],
      [
        "Ġserver",
        -10.070728353495902
      ],
      [
        "turned",
        -10.072025396634565
      ],
      [
        "}^{\\",
        -10.072352161691443
      ],
      [
        "Context",
        -10.0724117251648
      ],
      [
        "Ġbrought",
        -10.073323060452799
      ],
      [
        "Ġexcept",
        -10.073786827432333
      ],
      [
        "smaller",
        -10.074297750769553
      ],
      [
        "me",
        -10.074773776264173
      ],
      [
        "âĢĥ",
        -10.075034300279565
      ],
      [
        "ER",
        -10.075562835047666
      ],
      [
        "Ġcredit",
        -10.078214639662194
      ],
      [
        "wise",
        -10.078781638036867
      ],
      [
        "');",
        -10.080399029987463
      ],
      [
        "majority",
        -10.080422797323687
      ],
      [
        "langle",
        -10.080630727643396
      ],
      [
        "dir",
        -10.081798054295092
      ],
      [
        "dot",
        -10.081830285916281
      ],
      [
        "Ġreduction",
        -10.082681132728956
      ],
      [
        "Ġshowing",
        -10.082710810569719
      ],
      [
        "76",
        -10.082730304373131
      ],
      [
        "Ġunderstanding",
        -10.084590591172937
      ],
      [
        "ĠLa",
        -10.084778790113301
      ],
      [
        "decided",
        -10.084914142893712
      ],
      [
        "Ġsort",
        -10.085365726006025
      ],
      [
        "ice",
        -10.085443498031449
      ],
      [
        "Ġcollection",
        -10.085825223708696
      ],
      [
        "Ġsites",
        -10.086300063425115
      ],
      [
        "Ġcontrast",
        -10.086497498186228
      ],
      [
        "Ġfit",
        -10.087202546044276
      ],
      [
        "Ġinjury",
        -10.087515888115064
      ],
      [
        "Ġextra",
        -10.089092459153804
      ],
      [
        "Ġshape",
        -10.090157227364188
      ],
      [
        "Ġbeyond",
        -10.090684146048297
      ],
      [
        "Ġreading",
        -10.092495256470757
      ],
      [
        "Item",
        -10.092865613227648
      ],
      [
        "Ġlearning",
        -10.093339358933786
      ],
      [
        ")}",
        -10.093405141666375
      ],
      [
        "Ġtown",
        -10.093721025190973
      ],
      [
        "Ġexperiments",
        -10.093811130378732
      ],
      [
        "view",
        -10.094231936407454
      ],
      [
        "Ġparameter",
        -10.095457475409738
      ],
      [
        "Ġauthors",
        -10.095550334953364
      ],
      [
        "Ġshot",
        -10.09596871650745
      ],
      [
        "Ġwave",
        -10.096705924101284
      ],
      [
        "Ġtransition",
        -10.097240340021743
      ],
      [
        "Ġproof",
        -10.097610339722001
      ],
      [
        "Ġmorning",
        -10.097646544437847
      ],
      [
        "Ġperform",
        -10.097706210846983
      ],
      [
        "Ġheard",
        -10.098011708993084
      ],
      [
        "regarding",
        -10.098105734455292
      ],
      [
        "Ġinternational",
        -10.098257652543925
      ],
      [
        "Do",
        -10.098573855296324
      ],
      [
        "cap",
        -10.099563253490302
      ],
      [
        "Ġstore",
        -10.099707278154202
      ],
      [
        "Ġinternal",
        -10.099802240527513
      ],
      [
        "ĠAND",
        -10.09980317223153
      ],
      [
        "wrote",
        -10.100217210001919
      ],
      [
        "ĠOr",
        -10.10033011068251
      ],
      [
        "Ġalternative",
        -10.101610871472612
      ],
      [
        "Ġphoto",
        -10.10165970445778
      ],
      [
        "81",
        -10.102701077589028
      ],
      [
        "74",
        -10.103219539426574
      ],
      [
        "Ġtravel",
        -10.103681978580655
      ],
      [
        "ĠAl",
        -10.104005426189374
      ],
      [
        "Ġvisit",
        -10.104239366536252
      ],
      [
        "Ġ27",
        -10.104259642134494
      ],
      [
        "Ġcarry",
        -10.105018608658224
      ],
      [
        "Ġconstruction",
        -10.105974402412867
      ],
      [
        "obvious",
        -10.106340957350325
      ],
      [
        "Ġfeature",
        -10.106614569091043
      ],
      [
        "Ġdefense",
        -10.10710736954748
      ],
      [
        "Ġborder",
        -10.107461305951752
      ],
      [
        "Ġroot",
        -10.107912011448311
      ],
      [
        "Ġsound",
        -10.108680608489435
      ],
      [
        "};",
        -10.10892644405512
      ],
      [
        "002",
        -10.109324906191462
      ],
      [
        "Ġdef",
        -10.110365740234021
      ],
      [
        "but",
        -10.110730934041733
      ],
      [
        "Ġhear",
        -10.111398019513818
      ],
      [
        "exactly",
        -10.111572586734578
      ],
      [
        "api",
        -10.111780412940725
      ],
      [
        "box",
        -10.111899046129512
      ],
      [
        "89",
        -10.112555001613082
      ],
      [
        "[^",
        -10.112768437765778
      ],
      [
        "looked",
        -10.112923814995225
      ],
      [
        "Ġjudge",
        -10.113421929364243
      ],
      [
        "Ġbinding",
        -10.113610744588986
      ],
      [
        "}}_",
        -10.11427377985112
      ],
      [
        "Ġemail",
        -10.1149272173228
      ],
      [
        "ur",
        -10.11672581111354
      ],
      [
        "ĠId",
        -10.117661805137299
      ],
      [
        "indicated",
        -10.117724813328078
      ],
      [
        "Ġinfection",
        -10.1180866406748
      ],
      [
        "Ġchanged",
        -10.118258068795143
      ],
      [
        "Ġbuilt",
        -10.118377012612061
      ],
      [
        "|\\",
        -10.118474786288965
      ],
      [
        "content",
        -10.118502088543673
      ],
      [
        "Ġ($",
        -10.118512268483666
      ],
      [
        "Ġsend",
        -10.118824998185932
      ],
      [
        "Ġphone",
        -10.118859898637233
      ],
      [
        "Ġassociation",
        -10.119730920013508
      ],
      [
        "ham",
        -10.120207780871583
      ],
      [
        "83",
        -10.120547696615052
      ],
      [
        "Ġformation",
        -10.120930692815413
      ],
      [
        "ĠDistrict",
        -10.121412330587507
      ],
      [
        "long",
        -10.121781637302321
      ],
      [
        "Ġskin",
        -10.122215700566986
      ],
      [
        "url",
        -10.12267767449106
      ],
      [
        "Ġwall",
        -10.122701463679478
      ],
      [
        "73",
        -10.122827212060901
      ],
      [
        "Ġfeeling",
        -10.123424431265676
      ],
      [
        "Ġmilitary",
        -10.123770873178158
      ],
      [
        "Ġ29",
        -10.124269130642165
      ],
      [
        "Ġcover",
        -10.12460815992726
      ],
      [
        "Ġeye",
        -10.124852219842305
      ],
      [
        "Ġmachine",
        -10.125305854196965
      ],
      [
        "Ġsetting",
        -10.12620299059465
      ],
      [
        "Ġrules",
        -10.126807481233758
      ],
      [
        "Ġtherapy",
        -10.1269000397682
      ],
      [
        "Ġfriend",
        -10.127350411683636
      ],
      [
        "ĠHealth",
        -10.127536638889012
      ],
      [
        "Ġyield",
        -10.128203149102381
      ],
      [
        "Ġheight",
        -10.128359492217289
      ],
      [
        "Ġdefine",
        -10.128535352274165
      ],
      [
        "ĠCenter",
        -10.12861715418781
      ],
      [
        "().",
        -10.128754711774015
      ],
      [
        "are",
        -10.129180421352933
      ],
      [
        "Ġensure",
        -10.129484519232498
      ],
      [
        "Ġbuy",
        -10.129867096062931
      ],
      [
        "79",
        -10.13034271059189
      ],
      [
        "\":\"",
        -10.13048400916086
      ],
      [
        "Ġsubstantial",
        -10.130682845648964
      ],
      [
        "Ġbenefits",
        -10.13119041814599
      ],
      [
        "200",
        -10.132048634793913
      ],
      [
        "Ġfiles",
        -10.13207684360045
      ],
      [
        "Ġparts",
        -10.132335521569972
      ],
      [
        "Ġitems",
        -10.132959685877937
      ],
      [
        "Ġbill",
        -10.133860436597308
      ],
      [
        "start",
        -10.13519414763384
      ],
      [
        "Ġletter",
        -10.135402380555096
      ],
      [
        "nbsp",
        -10.135802332424339
      ],
      [
        "geq",
        -10.135809079601742
      ],
      [
        "Ġvariables",
        -10.13591113171172
      ],
      [
        "Ġzero",
        -10.136054844479396
      ],
      [
        "Ġseven",
        -10.136235864321835
      ],
      [
        "Array",
        -10.136842569414918
      ],
      [
        "Ġmedium",
        -10.138025879759672
      ],
      [
        "*~",
        -10.138660874572576
      ],
      [
        "Ġdevelop",
        -10.13874060700002
      ],
      [
        "Ġscore",
        -10.139649098265076
      ],
      [
        "Ġadministration",
        -10.14070125871757
      ],
      [
        "ĠOctober",
        -10.14116190318008
      ],
      [
        "ĠBe",
        -10.141265699533031
      ],
      [
        "ĠNow",
        -10.142103139144426
      ],
      [
        "Ġinteresting",
        -10.14254947969181
      ],
      [
        "core",
        -10.142917989065669
      ],
      [
        "Ġparents",
        -10.143363775396836
      ],
      [
        "Ġexercise",
        -10.144363055472242
      ],
      [
        "open",
        -10.146502255197495
      ],
      [
        "Ġchoose",
        -10.147107958582401
      ],
      [
        "frak",
        -10.147707058378005
      ],
      [
        "Ġeffort",
        -10.147874556626208
      ],
      [
        "87",
        -10.148960783482181
      ],
      [
        "played",
        -10.149055104612332
      ],
      [
        "Ġbenefit",
        -10.149149418495607
      ],
      [
        "throughout",
        -10.14951609050661
      ],
      [
        "Ġtask",
        -10.149679745188257
      ],
      [
        "Ĭ",
        -10.150290218335051
      ],
      [
        "Ġ\\<",
        -10.150736759257184
      ],
      [
        "ĠSeptember",
        -10.150832826563283
      ],
      [
        "Ġsubsequent",
        -10.150875485287829
      ],
      [
        "ĠHow",
        -10.151770165714403
      ],
      [
        "point",
        -10.151924279564106
      ],
      [
        "Ġinteraction",
        -10.15266797650432
      ],
      [
        "Ġ2008",
        -10.152688809925133
      ],
      [
        "Î±",
        -10.15281659370313
      ],
      [
        "Ġofficial",
        -10.155069585673095
      ],
      [
        "ĠSection",
        -10.155689477007984
      ],
      [
        "Ġaward",
        -10.156128984767705
      ],
      [
        "Ġ31",
        -10.156367283147073
      ],
      [
        "##",
        -10.156395737241871
      ],
      [
        "Ġparticipants",
        -10.157804159319241
      ],
      [
        "ĠSan",
        -10.157922828928552
      ],
      [
        "Ġfunctional",
        -10.15795442005746
      ],
      [
        "Ġprocesses",
        -10.158528842214066
      ],
      [
        "Ġstarting",
        -10.158780616750349
      ],
      [
        "Ġsolid",
        -10.158782583863584
      ],
      [
        "Ġexists",
        -10.159161792129334
      ],
      [
        "Ġmatch",
        -10.159509730100623
      ],
      [
        "Ġnor",
        -10.159904009282386
      ],
      [
        "Ġserve",
        -10.160400450833002
      ],
      [
        "Ġmale",
        -10.160468497571937
      ],
      [
        "ĠOR",
        -10.16052283813649
      ],
      [
        "Ġmaximum",
        -10.160581519563712
      ],
      [
        "Ġplayer",
        -10.16104352218923
      ],
      [
        "ĠObama",
        -10.161270333150956
      ],
      [
        "Each",
        -10.161837466292813
      ],
      [
        "ĠAugust",
        -10.161884891891669
      ],
      [
        ")*(",
        -10.16364243337785
      ],
      [
        "Ġsafety",
        -10.163999273303352
      ],
      [
        ")^",
        -10.164629531154258
      ],
      [
        "head",
        -10.165238583170973
      ],
      [
        "\\].",
        -10.166457814661907
      ],
      [
        "February",
        -10.168079455571204
      ],
      [
        "Ġaspect",
        -10.168450761927248
      ],
      [
        "Not",
        -10.169380040679254
      ],
      [
        ")$.",
        -10.169391231576205
      ],
      [
        "Ġchain",
        -10.169585287910515
      ],
      [
        "Ġreports",
        -10.169700234924079
      ],
      [
        "Ġfear",
        -10.170199306546357
      ],
      [
        "sometimes",
        -10.17102369858663
      ],
      [
        "Ġremove",
        -10.171615808961091
      ],
      [
        "Ġcombination",
        -10.17209464370543
      ],
      [
        "Ġidentify",
        -10.172713581476975
      ],
      [
        "93",
        -10.172909098966423
      ],
      [
        "Ġround",
        -10.17335118782727
      ],
      [
        "revealed",
        -10.174370308048697
      ],
      [
        "wife",
        -10.174459146268877
      ],
      [
        "well",
        -10.174931049339241
      ],
      [
        "71",
        -10.175595177125691
      ],
      [
        "Ġconnected",
        -10.176014201368476
      ],
      [
        "ĠUSA",
        -10.177945275083124
      ],
      [
        "------",
        -10.179025704004216
      ],
      [
        "where",
        -10.179696779036767
      ],
      [
        "Ġnice",
        -10.179768638593808
      ],
      [
        "Ġimmediately",
        -10.18004148531987
      ],
      [
        "Ġwait",
        -10.180070170619539
      ],
      [
        "Ġregular",
        -10.180775114151801
      ],
      [
        "molecules",
        -10.18112120036683
      ],
      [
        "Map",
        -10.18115695511751
      ],
      [
        "red",
        -10.181419839272781
      ],
      [
        "Ġlinear",
        -10.181582965607635
      ],
      [
        "Ġotherwise",
        -10.182010353842335
      ],
      [
        "Color",
        -10.182371874519399
      ],
      [
        "Ġgreen",
        -10.183210247057966
      ],
      [
        "ship",
        -10.183615579374003
      ],
      [
        "Î²",
        -10.183627444186312
      ],
      [
        "Ġmet",
        -10.185471511233406
      ],
      [
        "Ġclosed",
        -10.18636193126829
      ],
      [
        "Ġconsistent",
        -10.186996891498296
      ],
      [
        "Ġconclusion",
        -10.187121773009057
      ],
      [
        "Ġoccur",
        -10.187128859647697
      ],
      [
        "ĠNovember",
        -10.18751965004919
      ],
      [
        "Ġpopular",
        -10.187933564574863
      ],
      [
        "Oh",
        -10.187944458195723
      ],
      [
        "Ġopportunity",
        -10.187978295869653
      ],
      [
        "92",
        -10.189728846815246
      ],
      [
        "Ġ2009",
        -10.19073888710856
      ],
      [
        "91",
        -10.190866599552725
      ],
      [
        "During",
        -10.19234204888591
      ],
      [
        "providing",
        -10.193373528467014
      ],
      [
        "Ġworth",
        -10.194109900724511
      ],
      [
        "Class",
        -10.194175542493568
      ],
      [
        "())",
        -10.194723327313792
      ],
      [
        "Ġapplications",
        -10.194927897421701
      ],
      [
        "Ġresistance",
        -10.195572132224804
      ],
      [
        "[]",
        -10.19601895118409
      ],
      [
        "ĠWashington",
        -10.196089672002556
      ],
      [
        "Ġhands",
        -10.19644334114419
      ],
      [
        "verline",
        -10.196576682933522
      ],
      [
        "Ġmetal",
        -10.196717170822657
      ],
      [
        "attorney",
        -10.196718777783644
      ],
      [
        "Ġsex",
        -10.197119387252306
      ],
      [
        "Ġcon",
        -10.197210668821889
      ],
      [
        "alleged",
        -10.197456726859713
      ],
      [
        "Ġprocedure",
        -10.198351684845715
      ],
      [
        "Ġregions",
        -10.198401229911902
      ],
      [
        "Ġedge",
        -10.198403845464322
      ],
      [
        "level",
        -10.198777947807391
      ],
      [
        "Request",
        -10.199144016517414
      ],
      [
        "Finally",
        -10.199825575519883
      ],
      [
        "Ġvote",
        -10.199826381615885
      ],
      [
        "src",
        -10.201013645457682
      ],
      [
        "Ġlives",
        -10.20104945318345
      ],
      [
        "config",
        -10.201477852882741
      ],
      [
        "prime",
        -10.201842607288567
      ],
      [
        "Ġstrength",
        -10.202947775756066
      ],
      [
        "Ġstock",
        -10.203584487584527
      ],
      [
        "Ġwindow",
        -10.203694311265016
      ],
      [
        "Ġexposure",
        -10.203856431668518
      ],
      [
        "relatively",
        -10.20528835718814
      ],
      [
        "released",
        -10.205568522968989
      ],
      [
        "######",
        -10.206389736965894
      ],
      [
        "Ġdead",
        -10.20642142295774
      ],
      [
        "quickly",
        -10.207124192083427
      ],
      [
        "ĠSchool",
        -10.207843010446826
      ],
      [
        "mail",
        -10.21016489489874
      ],
      [
        "82",
        -10.21038202818905
      ],
      [
        "Ġpick",
        -10.211328498929024
      ],
      [
        "Image",
        -10.211517753806662
      ],
      [
        "Ġandroid",
        -10.211623380596132
      ],
      [
        "count",
        -10.211929716408596
      ],
      [
        "object",
        -10.211933077641941
      ],
      [
        "err",
        -10.212179351534813
      ],
      [
        "Ġmyself",
        -10.212367190917849
      ],
      [
        "statute",
        -10.21238506550234
      ],
      [
        "Ġload",
        -10.213066843365247
      ],
      [
        "Ġelection",
        -10.213297859868533
      ],
      [
        "-------------",
        -10.2156430070512
      ],
      [
        "row",
        -10.21613331657797
      ],
      [
        "port",
        -10.216164484034396
      ],
      [
        "Ġsources",
        -10.216288181097315
      ],
      [
        "Ġbecomes",
        -10.21644013534114
      ],
      [
        "Ġcolumn",
        -10.216510236607364
      ],
      [
        "Ġinterface",
        -10.217649581466834
      ],
      [
        "Ġstd",
        -10.219073631200066
      ],
      [
        "Ġargue",
        -10.219270244215375
      ],
      [
        "Ġdatabase",
        -10.219677689217676
      ],
      [
        "nearly",
        -10.220209898755789
      ],
      [
        "==========",
        -10.221306780125934
      ],
      [
        "Ġgeneration",
        -10.221432918018172
      ],
      [
        "Ġplant",
        -10.221484145209274
      ],
      [
        "Calculate",
        -10.222182731209122
      ],
      [
        "Ġguy",
        -10.222427840228592
      ],
      [
        "Ġreach",
        -10.222713976142728
      ],
      [
        "ever",
        -10.223717927828877
      ],
      [
        "Ġvoice",
        -10.223862814912875
      ],
      [
        "Ġfun",
        -10.224929694861245
      ],
      [
        "specific",
        -10.22553856250127
      ],
      [
        "Ġsave",
        -10.22558726011632
      ],
      [
        "resulting",
        -10.225686919892533
      ],
      [
        "distributed",
        -10.226577785940854
      ],
      [
        "Ġdetected",
        -10.227632727142236
      ],
      [
        "Ġmoved",
        -10.227952624438501
      ],
      [
        "Yes",
        -10.228264227226175
      ],
      [
        "Ġbox",
        -10.228587031817144
      ],
      [
        "nd",
        -10.229394885159447
      ],
      [
        "conducted",
        -10.229481291074473
      ],
      [
        "responsible",
        -10.229521204121083
      ],
      [
        "\",\"",
        -10.230315279501742
      ],
      [
        "Ġhundred",
        -10.230746990699531
      ],
      [
        "Ġroad",
        -10.231018236603557
      ],
      [
        "Ġofficer",
        -10.231193839170121
      ],
      [
        "Ġplaying",
        -10.231634062615434
      ],
      [
        "some",
        -10.23174116430138
      ],
      [
        "Ġselection",
        -10.231879419542762
      ],
      [
        "Ġperfect",
        -10.232330179667388
      ],
      [
        "arrow",
        -10.232491076214767
      ],
      [
        "variety",
        -10.232665711370622
      ],
      [
        "Ġmoving",
        -10.233301281157052
      ],
      [
        "Ġcalculated",
        -10.233625864727266
      ],
      [
        "Ġ2018",
        -10.233700373133185
      ],
      [
        "Event",
        -10.234308997272505
      ],
      [
        "Ġresources",
        -10.234526520761289
      ],
      [
        "$$",
        -10.235256012250536
      ],
      [
        "Ġdaily",
        -10.235559969067085
      ],
      [
        "Ġtesting",
        -10.235637701638957
      ],
      [
        "happened",
        -10.236454959087858
      ],
      [
        "ĠCalifornia",
        -10.23652219242508
      ],
      [
        "approximately",
        -10.236777187011981
      ],
      [
        "Ġfully",
        -10.237070118788207
      ],
      [
        "Ġthinking",
        -10.237485743455686
      ],
      [
        "manner",
        -10.237577599453273
      ],
      [
        "Ġhair",
        -10.237726729048598
      ],
      [
        "Ġyourself",
        -10.23779600160095
      ],
      [
        "Ġmembrane",
        -10.23812047716269
      ],
      [
        "Ġexchange",
        -10.238479894967284
      ],
      [
        "Ġnearest",
        -10.238816496043498
      ],
      [
        "ĠOf",
        -10.239226913910295
      ],
      [
        "Ġchar",
        -10.23953659458343
      ],
      [
        "Ġmaterials",
        -10.239940018360242
      ],
      [
        "Well",
        -10.24124232846937
      ],
      [
        "Ġcycle",
        -10.24234976367298
      ],
      [
        "ĠEuropean",
        -10.242501081359146
      ],
      [
        "limitation",
        -10.24267011367281
      ],
      [
        "Ġchannel",
        -10.24302956154943
      ],
      [
        "Ġdark",
        -10.243109116048949
      ],
      [
        "Ġweb",
        -10.243245893686492
      ],
      [
        "ĠPM",
        -10.243398240328839
      ],
      [
        "Ġready",
        -10.244097683414326
      ],
      [
        "Ġprotect",
        -10.244207275670943
      ],
      [
        "Ġprint",
        -10.244577940556681
      ],
      [
        "col",
        -10.245043757008087
      ],
      [
        "Ġmin",
        -10.245045579572174
      ],
      [
        "Ġsufficient",
        -10.245047444230657
      ],
      [
        "Ġexperimental",
        -10.245664427214257
      ],
      [
        "ĠWar",
        -10.246637001666535
      ],
      [
        "molecular",
        -10.247570445593603
      ],
      [
        "ĠMe",
        -10.247588470565502
      ],
      [
        "Ġmeaning",
        -10.247894654057934
      ],
      [
        "Ġpursu",
        -10.248185258729045
      ],
      [
        "lock",
        -10.248371573498467
      ],
      [
        "ĠPhys",
        -10.248734404006838
      ],
      [
        "Ġexisting",
        -10.248918063038825
      ],
      [
        "Service",
        -10.249648177822115
      ],
      [
        "Ġgovern",
        -10.250247304026056
      ],
      [
        "Ġgrant",
        -10.251735965983748
      ],
      [
        "ner",
        -10.252151395651909
      ],
      [
        "finally",
        -10.252328402328674
      ],
      [
        "Ġ/**",
        -10.252579929600817
      ],
      [
        "arg",
        -10.25258571041465
      ],
      [
        "^{(",
        -10.252870152373735
      ],
      [
        "Ġradio",
        -10.253597018185312
      ],
      [
        "Ġbound",
        -10.254703954387526
      ],
      [
        "scale",
        -10.255040622219793
      ],
      [
        "model",
        -10.255125335839848
      ],
      [
        "Ġreplacement",
        -10.255252517003568
      ],
      [
        "Ġbrief",
        -10.255423168441709
      ],
      [
        "Ġremoved",
        -10.256023767369864
      ],
      [
        "Ġdiscussion",
        -10.256107704233807
      ],
      [
        "Ġcareer",
        -10.256293832241159
      ],
      [
        "ensure",
        -10.256353397008562
      ],
      [
        "worked",
        -10.256570142350483
      ],
      [
        "Time",
        -10.256742027808725
      ],
      [
        "ĠCa",
        -10.257413924917444
      ],
      [
        "Ġrespond",
        -10.257449494750798
      ],
      [
        "Ġfields",
        -10.257536262718155
      ],
      [
        "Ġchallenge",
        -10.258219680660114
      ],
      [
        "Ġmiddle",
        -10.258550434474461
      ],
      [
        "Add",
        -10.258929786675315
      ],
      [
        "Ġwidth",
        -10.259221718076624
      ],
      [
        "page",
        -10.259570491957785
      ],
      [
        "ptr",
        -10.259974265778697
      ],
      [
        "Ġ(**",
        -10.260184882378796
      ],
      [
        "Ġanimals",
        -10.260642546887219
      ],
      [
        "Ġcapacity",
        -10.260670772055404
      ],
      [
        "demonstrated",
        -10.261878087108673
      ],
      [
        "ĠRepublican",
        -10.26312311827043
      ],
      [
        "Ġpiece",
        -10.26398089052884
      ],
      [
        "subset",
        -10.264382869840741
      ],
      [
        "ill",
        -10.265168733144996
      ],
      [
        "See",
        -10.265204172458622
      ],
      [
        "ter",
        -10.26525125246359
      ],
      [
        "Ġstuff",
        -10.265512225051296
      ],
      [
        "create",
        -10.265660930632777
      ],
      [
        "ĠFrom",
        -10.265920303641598
      ],
      [
        "holding",
        -10.266075884537388
      ],
      [
        "appears",
        -10.26645958694111
      ],
      [
        "init",
        -10.26719539781502
      ],
      [
        "ĠWhite",
        -10.267286395647586
      ],
      [
        "Why",
        -10.268252892652757
      ],
      [
        "Ġactions",
        -10.268485865640427
      ],
      [
        "Ġbottom",
        -10.269398252896226
      ],
      [
        "Ġcorrelation",
        -10.269516487770108
      ],
      [
        "Ġreflect",
        -10.269955706451107
      ],
      [
        "Ġdirector",
        -10.27162754581528
      ],
      [
        "}=",
        -10.27192486673581
      ],
      [
        "Ġscreen",
        -10.272184471664607
      ],
      [
        "Ġdebt",
        -10.272492955403875
      ],
      [
        "Ġclean",
        -10.272610494512247
      ],
      [
        "gen",
        -10.2729590396251
      ],
      [
        "Ġbeginning",
        -10.273519364600688
      ],
      [
        "ÂŃ",
        -10.273677399586655
      ],
      [
        "Ġbillion",
        -10.27385894413287
      ],
      [
        "Big",
        -10.273975233232814
      ],
      [
        "Ġfresh",
        -10.274138233544411
      ],
      [
        "Ġdecade",
        -10.2742022384666
      ],
      [
        "efficient",
        -10.27478014706623
      ],
      [
        "gone",
        -10.276972386190769
      ],
      [
        "Ġincome",
        -10.276987721453104
      ],
      [
        "Ġdescription",
        -10.277385787574266
      ],
      [
        "Ġhot",
        -10.27742413437696
      ],
      [
        "date",
        -10.277462416905509
      ],
      [
        "Ġsuggested",
        -10.277725781129972
      ],
      [
        "Ġeight",
        -10.27851515875746
      ],
      [
        "Ġchemical",
        -10.279145010358278
      ],
      [
        "Ġliquid",
        -10.279285059217651
      ],
      [
        "ray",
        -10.279386364990573
      ],
      [
        "Ġstation",
        -10.279476152663939
      ],
      [
        "Ġpetition",
        -10.280262073246911
      ],
      [
        "Ġtruth",
        -10.280591426278773
      ],
      [
        "Ġtraditional",
        -10.280605091465562
      ],
      [
        "Ġsevere",
        -10.28130570431453
      ],
      [
        "Ġupper",
        -10.281541104211719
      ],
      [
        "Ġclient",
        -10.28177842186471
      ],
      [
        "char",
        -10.281897817185179
      ],
      [
        "Ġwish",
        -10.283076768815157
      ],
      [
        "Our",
        -10.283467805843488
      ],
      [
        "fully",
        -10.283474220119379
      ],
      [
        "ĠNULL",
        -10.28416726398255
      ],
      [
        "Ġunits",
        -10.284219436731716
      ],
      [
        "unless",
        -10.284780057480955
      ],
      [
        "ĠBoard",
        -10.285469030817891
      ],
      [
        "Ġcomments",
        -10.28551783873609
      ],
      [
        "Ġsteps",
        -10.286160349355919
      ],
      [
        "ier",
        -10.28626365669999
      ],
      [
        "discussed",
        -10.28694324389996
      ],
      [
        "Ġonto",
        -10.287401816691865
      ],
      [
        "material",
        -10.289268637469272
      ],
      [
        "placed",
        -10.289496853074755
      ],
      [
        "ĠTO",
        -10.289647911568784
      ],
      [
        "Ġpassed",
        -10.289943820979866
      ],
      [
        "Ġten",
        -10.289952993544118
      ],
      [
        "main",
        -10.290765343196846
      ],
      [
        "Ġprocessing",
        -10.290837753084805
      ],
      [
        "Ġdetection",
        -10.290857280589846
      ],
      [
        ")$,",
        -10.291751373059892
      ],
      [
        "Ġmagnetic",
        -10.292493271005805
      ],
      [
        "picked",
        -10.293475137149995
      ],
      [
        "Ġdrop",
        -10.293505750207041
      ],
      [
        "Ġpackage",
        -10.293519895871293
      ],
      [
        "Ġobjects",
        -10.293663738057315
      ],
      [
        "]:",
        -10.294365700542402
      ],
      [
        "++",
        -10.294466825004859
      ],
      [
        "Ġgenerate",
        -10.29464933222974
      ],
      [
        "ĠIndia",
        -10.294696889633894
      ],
      [
        "Ġcontain",
        -10.294760642231381
      ],
      [
        "num",
        -10.295147790108683
      ],
      [
        "Ġpoly",
        -10.295279111306467
      ],
      [
        "aware",
        -10.295622116944735
      ],
      [
        "Ġloop",
        -10.295823435860456
      ],
      [
        "Ġnation",
        -10.296099361554829
      ],
      [
        "ĠNa",
        -10.296506527760206
      ],
      [
        "Ġfirm",
        -10.296928889134673
      ],
      [
        "Ġframe",
        -10.297276762942714
      ],
      [
        "pre",
        -10.297661553763737
      ],
      [
        "raised",
        -10.297802843242266
      ],
      [
        "Ġoperator",
        -10.298759368838265
      ],
      [
        "Ġsymptoms",
        -10.299043528302251
      ],
      [
        "Ġinsurance",
        -10.299396130369237
      ],
      [
        "Ġalgorithm",
        -10.29954824690098
      ],
      [
        "stream",
        -10.299733563713318
      ],
      [
        "Ġessential",
        -10.299781148164445
      ],
      [
        "Sigma",
        -10.299927815484905
      ],
      [
        "Ġmaybe",
        -10.300120727152144
      ],
      [
        "\\<",
        -10.300201654414913
      ],
      [
        "older",
        -10.300440568995556
      ],
      [
        "ĠIL",
        -10.30078702170578
      ],
      [
        "Date",
        -10.301380375618574
      ],
      [
        "Ġblue",
        -10.301440868321395
      ],
      [
        "towards",
        -10.301654695473648
      ],
      [
        "Ġhealthy",
        -10.301880581217752
      ],
      [
        "talking",
        -10.301982929184916
      ],
      [
        "Ġshift",
        -10.30203704184279
      ],
      [
        "Model",
        -10.302087139849593
      ],
      [
        "ĠPublic",
        -10.302722488081141
      ],
      [
        "Ġdescribe",
        -10.30314894365617
      ],
      [
        "ĠIN",
        -10.303369858416223
      ],
      [
        "\"})",
        -10.303405884695708
      ],
      [
        "specifically",
        -10.303634741783945
      ],
      [
        "Ġcharacteristics",
        -10.30385050877194
      ],
      [
        "Ġgrow",
        -10.305461621409213
      ],
      [
        "dimensional",
        -10.305543917247885
      ],
      [
        "ĠResearch",
        -10.30581628065399
      ],
      [
        "Ġcriminal",
        -10.306288715019837
      ],
      [
        "Ġerr",
        -10.306575827024695
      ],
      [
        "Ġvariation",
        -10.306756803594082
      ],
      [
        "write",
        -10.306828745969437
      ],
      [
        "Ġspin",
        -10.306889395762802
      ],
      [
        "Ġworkers",
        -10.308374969317086
      ],
      [
        "Ġdiscuss",
        -10.309561720598136
      ],
      [
        "Ġcounter",
        -10.309827328335098
      ],
      [
        "Ġconduct",
        -10.310016925139692
      ],
      [
        "der",
        -10.310082165706854
      ],
      [
        "Phi",
        -10.310832656226465
      ],
      [
        "Ġactivation",
        -10.310894814957841
      ],
      [
        "Ġtests",
        -10.310902849546556
      ],
      [
        "Ġabuse",
        -10.311092715207355
      ],
      [
        "Ġbi",
        -10.311235022889027
      ],
      [
        "ĠIS",
        -10.312269849163677
      ],
      [
        "ward",
        -10.312504212903557
      ],
      [
        "bin",
        -10.313434350723513
      ],
      [
        "Ġcontinuous",
        -10.313693657901284
      ],
      [
        "Ġmuscle",
        -10.313791370782889
      ],
      [
        "Ġexpress",
        -10.314297690467214
      ],
      [
        "appellant",
        -10.314367308764277
      ],
      [
        "typically",
        -10.314545844611011
      ],
      [
        "Ġwonder",
        -10.315257246819076
      ],
      [
        "Ġmeasures",
        -10.315516209441961
      ],
      [
        "Ġproper",
        -10.315543919986911
      ],
      [
        "Message",
        -10.315982656119749
      ],
      [
        "spent",
        -10.316039360093443
      ],
      [
        "Ġweak",
        -10.316091783486053
      ],
      [
        "limits",
        -10.316355202257121
      ],
      [
        "Ġenter",
        -10.317868941200148
      ],
      [
        "Ġgenetic",
        -10.318116058337973
      ],
      [
        "block",
        -10.31822887092585
      ],
      [
        "ĠFig",
        -10.31865424774177
      ],
      [
        "denied",
        -10.318714813501948
      ],
      [
        "res",
        -10.319474317487959
      ],
      [
        "Ġcontinued",
        -10.31961857722898
      ],
      [
        "Ġmodern",
        -10.32090534788734
      ],
      [
        "reached",
        -10.320911662021473
      ],
      [
        "Ġforms",
        -10.321119686444234
      ],
      [
        "ĊĊĠĠĠĠĠĠĠĠĠĠĠ",
        -10.322076334492763
      ],
      [
        "Ġtestimon",
        -10.322429641379294
      ],
      [
        "(),",
        -10.322760099778986
      ],
      [
        "Ġnamed",
        -10.32292512236395
      ],
      [
        "Ġcrime",
        -10.323839302975983
      ],
      [
        "Ġestablish",
        -10.32461652416653
      ],
      [
        "growing",
        -10.325092929114847
      ],
      [
        "ĠEven",
        -10.325176909282089
      ],
      [
        "ĠUK",
        -10.325587717503822
      ],
      [
        "result",
        -10.325631611063843
      ],
      [
        "Once",
        -10.32568443578843
      ],
      [
        "âĪĴ",
        -10.326061877784268
      ],
      [
        "ģ",
        -10.326134595652546
      ],
      [
        "Ġspeak",
        -10.326559660326927
      ],
      [
        "Ġforeign",
        -10.327133486492299
      ],
      [
        "Ġ90",
        -10.32740171731733
      ],
      [
        "func",
        -10.327463048869776
      ],
      [
        "perhaps",
        -10.32790520777094
      ],
      [
        "Ġrapid",
        -10.328499929877063
      ],
      [
        "Ġprofessional",
        -10.329193268763053
      ],
      [
        "despite",
        -10.329368098926768
      ],
      [
        "cell",
        -10.329598678839616
      ],
      [
        "({\\",
        -10.330102080720327
      ],
      [
        "Ġmusic",
        -10.330422307697653
      ],
      [
        "run",
        -10.33047315181589
      ],
      [
        "ten",
        -10.33084732929205
      ],
      [
        "github",
        -10.330879362560303
      ],
      [
        "confirmed",
        -10.332160017678996
      ],
      [
        "Ġhappy",
        -10.33228278655588
      ],
      [
        "optical",
        -10.332629470454618
      ],
      [
        "Ġsurvey",
        -10.332718692886058
      ],
      [
        "Count",
        -10.333911898826935
      ],
      [
        "Ġprotection",
        -10.334630541627105
      ],
      [
        "Ġprograms",
        -10.334677375027812
      ],
      [
        "Code",
        -10.334697814646013
      ],
      [
        "Ġhour",
        -10.334794524886078
      ],
      [
        "Ġconfiguration",
        -10.334827626070506
      ],
      [
        "default",
        -10.335536110511283
      ],
      [
        "Ġswitch",
        -10.337065162295211
      ],
      [
        "Ġtool",
        -10.337866072124449
      ],
      [
        "ĠPark",
        -10.338003487284038
      ],
      [
        "ex",
        -10.338556822924241
      ],
      [
        "ĠOther",
        -10.338712348337179
      ],
      [
        "Ġclub",
        -10.339160764031991
      ],
      [
        "Ġreturned",
        -10.339587316477855
      ],
      [
        "using",
        -10.34015471027571
      ],
      [
        "2015",
        -10.341868792548757
      ],
      [
        "čĊĠĠĠĠĠĠĠĠĠĠĠ",
        -10.34266898622291
      ],
      [
        "ize",
        -10.342693857805104
      ],
      [
        "Ġscience",
        -10.342839017288677
      ],
      [
        "Manager",
        -10.343311842543649
      ],
      [
        "served",
        -10.344093400259414
      ],
      [
        "Ġupdate",
        -10.344340905531501
      ],
      [
        "properly",
        -10.344728942882476
      ],
      [
        "Ġ2007",
        -10.344945903584483
      ],
      [
        "ĠPaul",
        -10.345262910170906
      ],
      [
        "Ġkids",
        -10.345575644393778
      ],
      [
        "Ġcivil",
        -10.346398040994671
      ],
      [
        "First",
        -10.346586113585508
      ],
      [
        "Ġball",
        -10.346654345115379
      ],
      [
        "denote",
        -10.347131344200179
      ],
      [
        "Ġdetect",
        -10.347180315688664
      ],
      [
        "Ġfamilies",
        -10.34718527341169
      ],
      [
        "Ġstudie",
        -10.347407332181394
      ],
      [
        "},\\",
        -10.347571515667926
      ],
      [
        "Ġsurgery",
        -10.347811029992931
      ],
      [
        "Ġstrategy",
        -10.348156908077536
      ],
      [
        "Ġminor",
        -10.348213199152903
      ],
      [
        "------------",
        -10.348649897815012
      ],
      [
        "ists",
        -10.349045499159377
      ],
      [
        "Ġstudent",
        -10.34926547735527
      ],
      [
        "ĠCongress",
        -10.349659460117943
      ],
      [
        "Ġfemale",
        -10.34975485875194
      ],
      [
        "}}(",
        -10.350033615434377
      ],
      [
        "Ġmid",
        -10.350223734725569
      ],
      [
        "Ġexhibit",
        -10.350243418501089
      ],
      [
        "Ġtransport",
        -10.35041659353204
      ],
      [
        "circ",
        -10.350493787644508
      ],
      [
        "Ġnovel",
        -10.350493895654212
      ],
      [
        "xml",
        -10.35078054038109
      ],
      [
        ")**",
        -10.350933096263264
      ],
      [
        "Ġdrugs",
        -10.353528131362467
      ],
      [
        "ver",
        -10.354427006833175
      ],
      [
        "Ġhuge",
        -10.355586232118277
      ],
      [
        "accurate",
        -10.357121290232415
      ],
      [
        "Ġfloor",
        -10.357579448649792
      ],
      [
        "Ġsleep",
        -10.357787598106448
      ],
      [
        "Ġcommunication",
        -10.35805627716019
      ],
      [
        "Ġsuccessful",
        -10.358141470443003
      ],
      [
        "remains",
        -10.358423187719485
      ],
      [
        "ĠEnglish",
        -10.359091409430313
      ],
      [
        "Ġachieve",
        -10.359138861402021
      ],
      [
        "Ġbroad",
        -10.359645317896943
      ],
      [
        "Ġuses",
        -10.360812475091473
      ],
      [
        "ĠInternational",
        -10.36138486872399
      ],
      [
        "\"},",
        -10.361828111726577
      ],
      [
        "Ġ-->",
        -10.362235065697867
      ],
      [
        "Ġitem",
        -10.362291586991129
      ],
      [
        "Ġcore",
        -10.362984502284625
      ],
      [
        "Â»",
        -10.36332083717931
      ],
      [
        "society",
        -10.363707662555186
      ],
      [
        "Ġprofile",
        -10.363967971963081
      ],
      [
        "Ġagent",
        -10.365268624341475
      ],
      [
        "summary",
        -10.366636571803838
      ],
      [
        "ĠMo",
        -10.366653187788579
      ],
      [
        "Ġaccept",
        -10.366825353707776
      ],
      [
        "Ġpurchase",
        -10.367444763484862
      ],
      [
        "Ġprepared",
        -10.368103687763089
      ],
      [
        "circumstances",
        -10.369909286496178
      ],
      [
        "Ġ35",
        -10.37039272337383
      ],
      [
        "Ġinvolve",
        -10.370434781352449
      ],
      [
        "Ġrare",
        -10.370562506104502
      ],
      [
        "lin",
        -10.370647559146427
      ],
      [
        "Supreme",
        -10.371022332775944
      ],
      [
        "Ġstructures",
        -10.371112405115761
      ],
      [
        "Ġofficials",
        -10.371461910296723
      ],
      [
        "Ġdiet",
        -10.371773875003395
      ],
      [
        "ast",
        -10.37223577496712
      ],
      [
        "Ġtree",
        -10.37245170185285
      ],
      [
        "Ġtested",
        -10.372497834451556
      ],
      [
        "tic",
        -10.372560385422263
      ],
      [
        "Ġcombined",
        -10.373156764003527
      ],
      [
        "Ġfight",
        -10.373357251172504
      ],
      [
        "Ġsurvival",
        -10.373641270626749
      ],
      [
        ".](",
        -10.37428378537639
      ],
      [
        "Ġgirl",
        -10.374377172219361
      ],
      [
        "Ġhyper",
        -10.374934613405587
      ],
      [
        ")).",
        -10.375823272145949
      ],
      [
        "Ġdose",
        -10.376552700420595
      ],
      [
        "advantage",
        -10.376656362329587
      ],
      [
        "Ġwatch",
        -10.37696652535842
      ],
      [
        "*]{}",
        -10.377120313017135
      ],
      [
        "after",
        -10.37775483044134
      ],
      [
        "ĠCal",
        -10.37806741905199
      ],
      [
        "Ġdriver",
        -10.378674504626346
      ],
      [
        "Lambda",
        -10.378980331986499
      ],
      [
        "Ġquarter",
        -10.37935111308868
      ],
      [
        "kept",
        -10.379663589955157
      ],
      [
        "ĠGo",
        -10.37978851461559
      ],
      [
        "Ġkilled",
        -10.380100129342646
      ],
      [
        "Ġreceptor",
        -10.381058575388668
      ],
      [
        "can",
        -10.381722068338885
      ],
      [
        "Ġdemonstrate",
        -10.381984772952263
      ],
      [
        "Ġdoubt",
        -10.382203395761357
      ],
      [
        "our",
        -10.38259252190456
      ],
      [
        "Ġtrust",
        -10.38266728703642
      ],
      [
        "âĢ²",
        -10.382851299622176
      ],
      [
        "Ġplans",
        -10.383247418138541
      ],
      [
        "****************",
        -10.383279532120667
      ],
      [
        "Ġconflict",
        -10.383314510121583
      ],
      [
        "Ġplaces",
        -10.383979155421722
      ],
      [
        "Ġscheme",
        -10.384299857478554
      ],
      [
        "Ġminimum",
        -10.384454506040136
      ],
      [
        "Ġpicture",
        -10.384559144067357
      ],
      [
        "Ġcommercial",
        -10.38533451386799
      ],
      [
        "ĠApp",
        -10.38563555945354
      ],
      [
        "čĊč",
        -10.386232062732974
      ],
      [
        "explained",
        -10.386270274288513
      ],
      [
        "Ġbuffer",
        -10.386909306409397
      ],
      [
        "finite",
        -10.387159769255385
      ],
      [
        "Ġcatch",
        -10.387290868285577
      ],
      [
        "lang",
        -10.388145138848916
      ],
      [
        "Ġinteger",
        -10.388305601491451
      ],
      [
        "Î¼",
        -10.388528414482906
      ],
      [
        "Ġ(!",
        -10.388634699478189
      ],
      [
        "izing",
        -10.388964625031383
      ],
      [
        "Ġnuclear",
        -10.389702814125704
      ],
      [
        "\\],",
        -10.389871645746359
      ],
      [
        "matrix",
        -10.39026697586491
      ],
      [
        "Ġpromote",
        -10.390614398821361
      ],
      [
        "absence",
        -10.39105780732068
      ],
      [
        "Monday",
        -10.391223987274017
      ],
      [
        "analyzed",
        -10.391626264563172
      ],
      [
        "Ed",
        -10.391789863682032
      ],
      [
        "Ġfeet",
        -10.393233471299174
      ],
      [
        "Ġresolution",
        -10.394225263949432
      ],
      [
        "Ġconcept",
        -10.394776232058764
      ],
      [
        "quantum",
        -10.39497581183712
      ],
      [
        "Ġsuffer",
        -10.395948786667104
      ],
      [
        "Ġsolutions",
        -10.39600699951193
      ],
      [
        "Ġrow",
        -10.396053109898972
      ],
      [
        "Ġmental",
        -10.39613925044485
      ],
      [
        "intended",
        -10.396719352505666
      ],
      [
        "occurred",
        -10.397065054429758
      ],
      [
        "Ġmentioned",
        -10.39762762434553
      ],
      [
        "uk",
        -10.397660901056584
      ],
      [
        "Ġselect",
        -10.397999066812753
      ],
      [
        "improved",
        -10.398295452449762
      ],
      [
        "Ġextend",
        -10.398749667703736
      ],
      [
        "Ġrelation",
        -10.39899495570492
      ],
      [
        "Ġthrow",
        -10.399563791050396
      ],
      [
        "Ġplus",
        -10.399966782882021
      ],
      [
        "otimes",
        -10.400025285219366
      ],
      [
        "you",
        -10.400275137929667
      ],
      [
        "çļĦ",
        -10.401209473658112
      ],
      [
        "ĠDavid",
        -10.40205296466175
      ],
      [
        "}}}",
        -10.403106875259251
      ],
      [
        "Ġhandle",
        -10.404004351051176
      ],
      [
        "Ġprobability",
        -10.404301218601919
      ],
      [
        "Ġmotor",
        -10.404319731047323
      ],
      [
        "died",
        -10.405088389850414
      ],
      [
        "Ġsuit",
        -10.405190085767815
      ],
      [
        "check",
        -10.40536241336204
      ],
      [
        "Ġcollected",
        -10.405417266017837
      ],
      [
        "either",
        -10.40566443551539
      ],
      [
        "Ġmovie",
        -10.406456538682999
      ],
      [
        "Ġemployees",
        -10.40667602025454
      ],
      [
        "boldsymbol",
        -10.406720387552046
      ],
      [
        "Ġtreat",
        -10.407836238974648
      ],
      [
        "Ġsupply",
        -10.41007083599362
      ],
      [
        "Ġrise",
        -10.410095745491413
      ],
      [
        "guilt",
        -10.41080762989948
      ],
      [
        "Ġexternal",
        -10.411374653974232
      ],
      [
        "/**",
        -10.41155391068999
      ],
      [
        "Ġsubstrate",
        -10.411995486086262
      ],
      [
        "Click",
        -10.412448288333355
      ],
      [
        "Ġdocument",
        -10.412558649882579
      ],
      [
        "Ġscene",
        -10.413214738860725
      ],
      [
        "property",
        -10.413571537475372
      ],
      [
        "Ġaffected",
        -10.414214909362833
      ],
      [
        "order",
        -10.415116680652758
      ],
      [
        "Field",
        -10.415774344333622
      ],
      [
        "Ġintroduced",
        -10.416220387107055
      ],
      [
        "Ġopening",
        -10.416423410904878
      ],
      [
        "false",
        -10.416702637031495
      ],
      [
        "voltage",
        -10.416922599456004
      ],
      [
        "Ġpeak",
        -10.417914270671979
      ],
      [
        "Ġsexual",
        -10.41837654958353
      ],
      [
        "Ġ200",
        -10.41947951130295
      ],
      [
        "existence",
        -10.420282928410884
      ],
      [
        "has",
        -10.420855629251125
      ],
      [
        "Ġsummer",
        -10.421167379964535
      ],
      [
        "height",
        -10.421366487321562
      ],
      [
        "Ġdiagnosis",
        -10.421473873341451
      ],
      [
        "Ġjava",
        -10.42158669062763
      ],
      [
        "Ġclasses",
        -10.422130352061735
      ],
      [
        "Ġnil",
        -10.42251707497035
      ],
      [
        "Ġmurder",
        -10.42318048020563
      ],
      [
        "\"></",
        -10.423294648840859
      ],
      [
        "Ġcaus",
        -10.423446501196079
      ],
      [
        "System",
        -10.424163678022602
      ],
      [
        "Ġinvestment",
        -10.424240831440232
      ],
      [
        "Ġbeautiful",
        -10.42462430910767
      ],
      [
        "Â¶",
        -10.424936853591728
      ],
      [
        "Ġnone",
        -10.425043913568631
      ],
      [
        "kg",
        -10.425412036791089
      ],
      [
        "Ġequivalent",
        -10.426397912039949
      ],
      [
        "Ġoperations",
        -10.426862040162817
      ],
      [
        "Ġestimated",
        -10.427256355660795
      ],
      [
        "User",
        -10.427346865285456
      ],
      [
        "Ġattend",
        -10.427578875027564
      ],
      [
        "Ġbiggest",
        -10.427707390391133
      ],
      [
        "Ġsquare",
        -10.427714869175151
      ],
      [
        "ĠLondon",
        -10.429069994519683
      ],
      [
        "Ġmanager",
        -10.42915919769385
      ],
      [
        "Ġassessment",
        -10.429241669839612
      ],
      [
        "Ġcollege",
        -10.429533864536602
      ],
      [
        "house",
        -10.429583573952195
      ],
      [
        "Ġestimate",
        -10.429939883528174
      ],
      [
        "Ġremaining",
        -10.430388119158206
      ],
      [
        "Ġvirtual",
        -10.431060449883457
      ],
      [
        "Appellant",
        -10.431155848152596
      ],
      [
        "economy",
        -10.431535925341228
      ],
      [
        "Ġwild",
        -10.431898604273929
      ],
      [
        "Ġque",
        -10.432846101787996
      ],
      [
        "vert",
        -10.433062053320237
      ],
      [
        "2016",
        -10.433378345812915
      ],
      [
        "offense",
        -10.433827748702514
      ],
      [
        "Â½",
        -10.433881338961617
      ],
      [
        "Ġtechniques",
        -10.43402269124785
      ],
      [
        "0000",
        -10.43410185246792
      ],
      [
        "Ġband",
        -10.434110699557491
      ],
      [
        "Ġorganization",
        -10.434278636160272
      ],
      [
        "Ġrepresentation",
        -10.434432633256685
      ],
      [
        "Ġparent",
        -10.434911466782228
      ],
      [
        "ĠPat",
        -10.434922871015171
      ],
      [
        "Ġanimal",
        -10.435975822556976
      ],
      [
        "Ġdraw",
        -10.436083373006008
      ],
      [
        "Ġ2006",
        -10.436782327093978
      ],
      [
        "Ġbank",
        -10.437321038853781
      ],
      [
        "Theorem",
        -10.437779476768934
      ],
      [
        "Ġguess",
        -10.437779667661795
      ],
      [
        "message",
        -10.438469054713025
      ],
      [
        "violation",
        -10.439418952909767
      ],
      [
        "ĠGreen",
        -10.439723267194616
      ],
      [
        "Ġstorage",
        -10.439993820885844
      ],
      [
        "covered",
        -10.440608535440608
      ],
      [
        "ĠPlaintiff",
        -10.441075191473882
      ],
      [
        "Ġlinks",
        -10.441321729871843
      ],
      [
        "2014",
        -10.441496320091526
      ],
      [
        "Ġexperiment",
        -10.441934596713482
      ],
      [
        "Ġ70",
        -10.442191256891068
      ],
      [
        "Ġfootball",
        -10.442306116031967
      ],
      [
        "Ġfluid",
        -10.442370948782909
      ],
      [
        "2013",
        -10.442642796171581
      ],
      [
        "Ġsecret",
        -10.443968612096183
      ],
      [
        "CC",
        -10.444454436588439
      ],
      [
        "Ġsets",
        -10.444872478068035
      ],
      [
        "Ġprogress",
        -10.445296200624046
      ],
      [
        "Ġthank",
        -10.44595771815522
      ],
      [
        "ĠMan",
        -10.445959898621744
      ],
      [
        "button",
        -10.446231976983361
      ],
      [
        "Ġrequirements",
        -10.446462968552225
      ],
      [
        "contained",
        -10.446667296528764
      ],
      [
        "Ġextent",
        -10.446811221284921
      ],
      [
        "Ġconventional",
        -10.447009847633227
      ],
      [
        "============",
        -10.447188693324346
      ],
      [
        "Ġpress",
        -10.447627223013471
      ],
      [
        "font",
        -10.447907650835324
      ],
      [
        "IN",
        -10.448062810279056
      ],
      [
        "Group",
        -10.448127257310789
      ],
      [
        "amp",
        -10.44866443935556
      ],
      [
        "Ġfavor",
        -10.449132299289417
      ],
      [
        "cos",
        -10.449562504220637
      ],
      [
        "spectrum",
        -10.449672459565262
      ],
      [
        "ĠIsrael",
        -10.449830991964287
      ],
      [
        "print",
        -10.450139531979932
      ],
      [
        "Ġpredict",
        -10.450765137932445
      ],
      [
        "Ġcurve",
        -10.450976298188015
      ],
      [
        "ĠTV",
        -10.451040397484524
      ],
      [
        "Ġcreating",
        -10.452251510084738
      ],
      [
        "letters",
        -10.452674933648193
      ],
      [
        "Button",
        -10.453159270045367
      ],
      [
        "Ġtouch",
        -10.45327338752527
      ],
      [
        "Ġclick",
        -10.453769640230439
      ],
      [
        "ĠEast",
        -10.454421571166083
      ],
      [
        "Ġauthor",
        -10.454460497852653
      ],
      [
        "Ġblog",
        -10.455318490761712
      ],
      [
        "Ġassay",
        -10.456185983924634
      ],
      [
        "Ġtrack",
        -10.456360944565171
      ],
      [
        "Ġmissing",
        -10.456503112781283
      ],
      [
        "Ġformula",
        -10.456530452515533
      ],
      [
        "Ġconclude",
        -10.456780955984769
      ],
      [
        "Ġ2000",
        -10.456824366629974
      ],
      [
        "Ġplatform",
        -10.45702954871442
      ],
      [
        "reasons",
        -10.457425512378428
      ],
      [
        "Ġmodule",
        -10.457496054176618
      ],
      [
        "OR",
        -10.457784990122963
      ],
      [
        "Ġtechnique",
        -10.457969695990997
      ],
      [
        "Client",
        -10.458582029141386
      ],
      [
        "ĠTexas",
        -10.459713653421185
      ],
      [
        "post",
        -10.459916717669886
      ],
      [
        "que",
        -10.460375224338593
      ],
      [
        "arphi",
        -10.460825689452241
      ],
      [
        "adding",
        -10.46111724568018
      ],
      [
        "util",
        -10.461519303484131
      ],
      [
        "Ġtrip",
        -10.461805105219536
      ],
      [
        "bit",
        -10.462186009350827
      ],
      [
        "typical",
        -10.462366520811475
      ],
      [
        "action",
        -10.462488547536108
      ],
      [
        "charged",
        -10.463604676363092
      ],
      [
        "NO",
        -10.4639962710411
      ],
      [
        "mbox",
        -10.464211940483043
      ],
      [
        "Ġprob",
        -10.464556574530933
      ],
      [
        "ĠInstitute",
        -10.465232958583647
      ],
      [
        "ated",
        -10.465371631660782
      ],
      [
        "ĠMost",
        -10.465911367730918
      ],
      [
        "Ġcalls",
        -10.466309285667421
      ],
      [
        "ĠStreet",
        -10.466718279249541
      ],
      [
        "ĠLi",
        -10.466748540420873
      ],
      [
        "2012",
        -10.46682882644845
      ],
      [
        "slightly",
        -10.46690969394219
      ],
      [
        "driving",
        -10.466954851065628
      ],
      [
        "aid",
        -10.466970405051478
      ],
      [
        "Some",
        -10.467006213161296
      ],
      [
        "tag",
        -10.46710892483281
      ],
      [
        "ĠMa",
        -10.468833871577234
      ],
      [
        "onumber",
        -10.469064921366707
      ],
      [
        "Ġbirth",
        -10.46990206345818
      ],
      [
        "margin",
        -10.469951909164736
      ],
      [
        "dependent",
        -10.470719313255922
      ],
      [
        "Ġgun",
        -10.47126213251488
      ],
      [
        "Ġtools",
        -10.471374455504662
      ],
      [
        "ĠBank",
        -10.471700022165644
      ],
      [
        "kappa",
        -10.471808395160313
      ],
      [
        "Ġauthority",
        -10.472175199054002
      ],
      [
        "exp",
        -10.472320621426514
      ],
      [
        "Ġplate",
        -10.472415533742906
      ],
      [
        "possibility",
        -10.472435617957098
      ],
      [
        "img",
        -10.473612766130001
      ],
      [
        "con",
        -10.474123390352679
      ],
      [
        "Ġraise",
        -10.474696518812362
      ],
      [
        "range",
        -10.474870294618636
      ],
      [
        "Ġjoint",
        -10.474892243503454
      ],
      [
        "Ġcandidate",
        -10.474954488025132
      ],
      [
        "ĠBritish",
        -10.475466422112303
      ],
      [
        "offered",
        -10.475752350927122
      ],
      [
        "ĠRNA",
        -10.476491822139689
      ],
      [
        "NS",
        -10.47698051643947
      ],
      [
        "Ġseek",
        -10.477293266031857
      ],
      [
        "operating",
        -10.4773894559187
      ],
      [
        "ĠEurope",
        -10.477413388584345
      ],
      [
        "referred",
        -10.477974671271468
      ],
      [
        "ĠCommission",
        -10.47805985671573
      ],
      [
        "Ġlargest",
        -10.478204083227132
      ],
      [
        "Ġpathway",
        -10.478982826039768
      ],
      [
        "Ġharm",
        -10.479105337917712
      ],
      [
        "announced",
        -10.47911002243729
      ],
      [
        "Ġexception",
        -10.479395854330448
      ],
      [
        "Ġbalance",
        -10.47942959221922
      ],
      [
        "Ġdelay",
        -10.481007431427694
      ],
      [
        "CD",
        -10.481660703120792
      ],
      [
        "Ġformat",
        -10.482157796826513
      ],
      [
        "han",
        -10.482328938054106
      ],
      [
        "Ġdie",
        -10.482470215968767
      ],
      [
        "Ġpercentage",
        -10.482715654694054
      ],
      [
        "Ġbreast",
        -10.482944881966834
      ],
      [
        "Ġentry",
        -10.483121983338677
      ],
      [
        "Ġ37",
        -10.483251871820517
      ],
      [
        "Ġwarrant",
        -10.4834372647249
      ],
      [
        "Yeah",
        -10.483728427995839
      ],
      [
        "ties",
        -10.484012289843188
      ],
      [
        "Ġpurposes",
        -10.48525511337154
      ],
      [
        "approved",
        -10.48551727371543
      ],
      [
        "ase",
        -10.485527121734457
      ],
      [
        "Ġassess",
        -10.485529101081712
      ],
      [
        "mid",
        -10.485653474515805
      ],
      [
        "ĠHigh",
        -10.48572156416108
      ],
      [
        "Ġimplementation",
        -10.485922547018061
      ],
      [
        "Ġfat",
        -10.486002914210479
      ],
      [
        "Ġsummary",
        -10.486644421689858
      ],
      [
        "ĠYour",
        -10.486816603851963
      ],
      [
        "Ġfoot",
        -10.487316328546818
      ],
      [
        "ĠCan",
        -10.487358393172805
      ],
      [
        "Ġincident",
        -10.487425286644603
      ],
      [
        "ĠFoundation",
        -10.48755441019254
      ],
      [
        "ultimate",
        -10.487953752552624
      ],
      [
        "Ġplane",
        -10.48824456378289
      ],
      [
        "ĠBlack",
        -10.488702569020596
      ],
      [
        "Ġreveal",
        -10.489027151633135
      ],
      [
        "ĠCouncil",
        -10.489154168733654
      ],
      [
        "Ġadvance",
        -10.489298713450252
      ],
      [
        "ĠAM",
        -10.489358667970535
      ],
      [
        "čĊĉ",
        -10.48939115542191
      ],
      [
        "ĠJudge",
        -10.49002684595361
      ],
      [
        "ĠLaw",
        -10.49028466592223
      ],
      [
        "Ġcoverage",
        -10.490685261812217
      ],
      [
        "event",
        -10.491309261454163
      ],
      [
        "Ġvirus",
        -10.491525509649325
      ],
      [
        "Ġarm",
        -10.492053776286795
      ],
      [
        "**)",
        -10.49288675411837
      ],
      [
        "Ġrecords",
        -10.493794944597306
      ],
      [
        "Ġoutcome",
        -10.494631962173086
      ],
      [
        "ÃĹ",
        -10.494835429416167
      ],
      [
        "Ġderived",
        -10.495282622300284
      ],
      [
        "-----------",
        -10.49560606943114
      ],
      [
        "Ġobjective",
        -10.49573745625094
      ],
      [
        "target",
        -10.495943391209442
      ],
      [
        "ĠGet",
        -10.496443393068946
      ],
      [
        "Results",
        -10.497794906388727
      ],
      [
        "determination",
        -10.497818546415113
      ],
      [
        "Ġeasi",
        -10.498266611146775
      ],
      [
        "2017",
        -10.498688080206092
      ],
      [
        "Response",
        -10.498763657532617
      ],
      [
        "standing",
        -10.499136459041821
      ],
      [
        "ĠFriday",
        -10.499351932749322
      ],
      [
        "Ġcomplaint",
        -10.499422483620037
      ],
      [
        "ĠGoogle",
        -10.499442385724725
      ],
      [
        "Ġcapital",
        -10.499968960532795
      ],
      [
        "Ġmono",
        -10.499985734289377
      ],
      [
        "ĠCode",
        -10.50000089648589
      ],
      [
        "first",
        -10.500690446953305
      ],
      [
        "ard",
        -10.500897559698712
      ],
      [
        "ways",
        -10.500983610150406
      ],
      [
        "Ġthreat",
        -10.501092791953482
      ],
      [
        "Ġsubjects",
        -10.501175694478485
      ],
      [
        "Ġentered",
        -10.501938823597676
      ],
      [
        "Ġsmooth",
        -10.50198536567401
      ],
      [
        "Ġdry",
        -10.502745246399643
      ],
      [
        "ĠChinese",
        -10.502860733654478
      ],
      [
        "004",
        -10.50291233984644
      ],
      [
        "mp",
        -10.503319845824256
      ],
      [
        "Ãł",
        -10.503839329493903
      ],
      [
        "ĠCanada",
        -10.504158834741201
      ],
      [
        "ĠHer",
        -10.504642503490404
      ],
      [
        "Ġlatest",
        -10.504953300797336
      ],
      [
        "ĠNote",
        -10.505194915360446
      ],
      [
        "ĠRed",
        -10.505891035872663
      ],
      [
        "upplementary",
        -10.506079053631417
      ],
      [
        "Ġnoise",
        -10.507002441329844
      ],
      [
        "Ġcontrols",
        -10.507825726909342
      ],
      [
        "Ġcold",
        -10.508224089580342
      ],
      [
        "Ġadult",
        -10.508266027675399
      ],
      [
        "SD",
        -10.509275978420463
      ],
      [
        "Ġdog",
        -10.509445833713562
      ],
      [
        "Ġcontribute",
        -10.509738628671318
      ],
      [
        "$$\\",
        -10.51007487790405
      ],
      [
        "Ġprotected",
        -10.51018775230378
      ],
      [
        "These",
        -10.510674034526627
      ],
      [
        "Ġsales",
        -10.511861595522417
      ],
      [
        "Element",
        -10.512224615330132
      ],
      [
        "Ġrepeated",
        -10.512408035123523
      ],
      [
        "Ġtrain",
        -10.513497838477363
      ],
      [
        "importance",
        -10.513587795353793
      ],
      [
        "Ġdaughter",
        -10.513878630646039
      ],
      [
        "json",
        -10.514560258269949
      ],
      [
        "Ġagency",
        -10.514582289936623
      ],
      [
        "Ġrefer",
        -10.514768453351161
      ],
      [
        "Ġ2005",
        -10.516083955115569
      ],
      [
        "star",
        -10.516241532867236
      ],
      [
        "OUT",
        -10.516387975045214
      ],
      [
        "else",
        -10.516693313730325
      ],
      [
        "Ġenvironmental",
        -10.51691363462286
      ],
      [
        "Ġspend",
        -10.51719390880523
      ],
      [
        "ĠÎ¼",
        -10.518879373770341
      ],
      [
        "ĊĊĠĠĠĠĠ",
        -10.519075122249207
      ],
      [
        "ory",
        -10.519153209072082
      ],
      [
        "Ġspeech",
        -10.519194786992948
      ],
      [
        "changing",
        -10.51943580912927
      ],
      [
        "Ġequipment",
        -10.520291249710283
      ],
      [
        "Ġinterview",
        -10.520487399532893
      ],
      [
        "Ġeventual",
        -10.52063522179783
      ],
      [
        "Page",
        -10.521304631846842
      ],
      [
        "Ġanalyses",
        -10.52147798404221
      ],
      [
        "client",
        -10.521854401287468
      ],
      [
        "ĠUn",
        -10.522039177652927
      ],
      [
        "ĠLe",
        -10.522368127458247
      ],
      [
        "Ġdigit",
        -10.522538722776803
      ],
      [
        "king",
        -10.522818047919609
      ],
      [
        "Ġwants",
        -10.522917620469618
      ],
      [
        "Ġcharacters",
        -10.523357908337204
      ],
      [
        "**]{},",
        -10.523916355305936
      ],
      [
        ".$$",
        -10.524438358662348
      ],
      [
        "Ġagents",
        -10.524513685007186
      ],
      [
        "latter",
        -10.524604136975467
      ],
      [
        "Ġschools",
        -10.52520988627135
      ],
      [
        "Ġelectronic",
        -10.525366375648005
      ],
      [
        "Content",
        -10.525388455514738
      ],
      [
        "Ġvictim",
        -10.525667171647578
      ],
      [
        "Ġarrive",
        -10.526151915432704
      ],
      [
        "Ġdigital",
        -10.526183991071736
      ],
      [
        "Ġvisual",
        -10.526610407574724
      ],
      [
        "null",
        -10.52726396005301
      ],
      [
        "media",
        -10.52733592337342
      ],
      [
        "][",
        -10.528672785628189
      ],
      [
        "ĠCI",
        -10.529180748122785
      ],
      [
        "Ġstable",
        -10.529261528252103
      ],
      [
        "Ġinteractions",
        -10.529721400613255
      ],
      [
        "Ġsell",
        -10.529751309887724
      ],
      [
        "ney",
        -10.52993830349545
      ],
      [
        "Ġcamera",
        -10.530337826258915
      ],
      [
        "Ġcard",
        -10.530933195747446
      ],
      [
        "Ġcomposition",
        -10.53107635633125
      ],
      [
        "Ġfuel",
        -10.531232849296307
      ],
      [
        "ĊĊĠĠĠĠĠĠ",
        -10.531357898555488
      ],
      [
        "Ġdecide",
        -10.531536908993386
      ],
      [
        "non",
        -10.532681521286328
      ],
      [
        "Ġheavy",
        -10.533096369736871
      ],
      [
        "Ġwhatever",
        -10.533253131273487
      ],
      [
        "module",
        -10.533365238806315
      ],
      [
        "ĠJames",
        -10.533664272672091
      ],
      [
        "Ġcorrespond",
        -10.53466780505057
      ],
      [
        "Defendant",
        -10.53469200689429
      ],
      [
        "represented",
        -10.535017022382451
      ],
      [
        "Source",
        -10.535494140802152
      ],
      [
        "Ġevaluation",
        -10.535606236029885
      ],
      [
        "Ġprefer",
        -10.535607554868374
      ],
      [
        "Ġshared",
        -10.535695841019058
      ],
      [
        "appeared",
        -10.535851370481554
      ],
      [
        "nabla",
        -10.53616295087791
      ],
      [
        "Ġkill",
        -10.536931970627958
      ],
      [
        "ĠGroup",
        -10.537018125576882
      ],
      [
        "Ġtransmission",
        -10.537874105121123
      ],
      [
        "ĠSuch",
        -10.538041548350114
      ],
      [
        "Ġvalid",
        -10.53813620191249
      ],
      [
        "';",
        -10.539074497153297
      ],
      [
        "Ġcompleted",
        -10.539147840356494
      ],
      [
        "tab",
        -10.53947304888859
      ],
      [
        "Ġideal",
        -10.539860484883086
      ],
      [
        "ible",
        -10.540022485743016
      ],
      [
        "Ġowner",
        -10.540306321053945
      ],
      [
        "local",
        -10.540779565508233
      ],
      [
        "005",
        -10.540846235740306
      ],
      [
        "Ġchronic",
        -10.540889035873967
      ],
      [
        "Ġliver",
        -10.541125183445443
      ],
      [
        "']",
        -10.541225911435241
      ],
      [
        "MS",
        -10.541231031359889
      ],
      [
        "Ġ+=",
        -10.541437901371461
      ],
      [
        "})$",
        -10.541620898259406
      ],
      [
        "ants",
        -10.541650927750608
      ],
      [
        "2011",
        -10.541923549600346
      ],
      [
        "Thursday",
        -10.54198798309554
      ],
      [
        "Ġidentity",
        -10.542541361547318
      ],
      [
        "Ġhusband",
        -10.54292802372163
      ],
      [
        "format",
        -10.543280079746449
      ],
      [
        "work",
        -10.543935942568034
      ],
      [
        "her",
        -10.54398047192257
      ],
      [
        "context",
        -10.544461559547761
      ],
      [
        "ahead",
        -10.54483722384199
      ],
      [
        "**]{}",
        -10.545057453014568
      ],
      [
        "apache",
        -10.545168653025922
      ],
      [
        "Ġextract",
        -10.54648266756123
      ],
      [
        "ĠIndian",
        -10.54689296704769
      ],
      [
        "request",
        -10.547263744169097
      ],
      [
        "serum",
        -10.547398677557476
      ],
      [
        "Ġseat",
        -10.548531759753471
      ],
      [
        "Ġcool",
        -10.5487274585055
      ],
      [
        "Ġdepartment",
        -10.548928350777748
      ],
      [
        "Ġfilter",
        -10.549446682493295
      ],
      [
        "Ġlose",
        -10.549590179900113
      ],
      [
        "Label",
        -10.550574409982621
      ],
      [
        "Ġpayment",
        -10.55066874512055
      ],
      [
        "Ġsoft",
        -10.551254469450576
      ],
      [
        "current",
        -10.55176204805529
      ],
      [
        "ï¼Į",
        -10.551884493001625
      ],
      [
        "remainder",
        -10.55200814564875
      ],
      [
        "Ġengine",
        -10.552113361534012
      ],
      [
        "conviction",
        -10.552223963485845
      ],
      [
        "status",
        -10.55253425056999
      ],
      [
        "Ġplasma",
        -10.552565043060614
      ],
      [
        "ĠEq",
        -10.552572869733954
      ],
      [
        "Ġmobile",
        -10.552685157003111
      ],
      [
        "128",
        -10.553263688295107
      ],
      [
        "2010",
        -10.553728320134915
      ],
      [
        "Ġquick",
        -10.554105101576912
      ],
      [
        "Ġreality",
        -10.554691889444616
      ],
      [
        "Ġjoin",
        -10.554982912709127
      ],
      [
        "Ġsuspect",
        -10.556716858879684
      ],
      [
        "extremely",
        -10.556788363858415
      ],
      [
        "Ġepisode",
        -10.557240395776748
      ],
      [
        "Ġpatterns",
        -10.557289288294198
      ],
      [
        "worse",
        -10.55800404825395
      ],
      [
        "300",
        -10.55810091928982
      ],
      [
        "Ġplants",
        -10.558215308017383
      ],
      [
        "ĠSunday",
        -10.55849622518138
      ],
      [
        "Ġ\"[",
        -10.558929460163158
      ],
      [
        "ĠNews",
        -10.559750640244696
      ],
      [
        "Ġnano",
        -10.559935638072698
      ],
      [
        "ĠWestern",
        -10.560040796464458
      ],
      [
        "sensors",
        -10.561111079621693
      ],
      [
        "ĠPeople",
        -10.561354940930364
      ],
      [
        "Ġsecondary",
        -10.561541193783645
      ],
      [
        "Link",
        -10.561878908246378
      ],
      [
        "layout",
        -10.56229068780828
      ],
      [
        "ĠDon",
        -10.562870755442322
      ],
      [
        "employed",
        -10.562991077990437
      ],
      [
        "Ġsalt",
        -10.563581207574547
      ],
      [
        "active",
        -10.56365115353504
      ],
      [
        "directed",
        -10.563684774315833
      ],
      [
        "ĠKing",
        -10.564326986291531
      ],
      [
        "ĠCon",
        -10.564401856179655
      ],
      [
        "receiving",
        -10.565202903896376
      ],
      [
        "ious",
        -10.56539371245088
      ],
      [
        "ative",
        -10.566333891325453
      ],
      [
        "Ġannual",
        -10.566566053882008
      ],
      [
        "Ġ48",
        -10.567009946352293
      ],
      [
        "small",
        -10.567036457460993
      ],
      [
        "interested",
        -10.56781348906755
      ],
      [
        "Ġspot",
        -10.568167074101083
      ],
      [
        "Ġcontrolled",
        -10.568420315432917
      ],
      [
        "Ġteams",
        -10.568486378248043
      ],
      [
        "ating",
        -10.568638960897983
      ],
      [
        "leaving",
        -10.569159708403033
      ],
      [
        "AS",
        -10.569887643354164
      ],
      [
        "Ġstars",
        -10.569981322416924
      ],
      [
        "Result",
        -10.570629568867506
      ],
      [
        "Ġprojects",
        -10.570902999703222
      ],
      [
        "zeta",
        -10.571027645428707
      ],
      [
        "server",
        -10.571067496741405
      ],
      [
        "belief",
        -10.571114287523073
      ],
      [
        "Ġmeasurements",
        -10.571443357808674
      ],
      [
        "Ġliterature",
        -10.571754335178854
      ],
      [
        "Ġsrc",
        -10.572347067823953
      ],
      [
        "Don",
        -10.572812519239312
      ],
      [
        "Int",
        -10.573370651441092
      ],
      [
        "Ġchurch",
        -10.573841182304193
      ],
      [
        "defendants",
        -10.574005011603687
      ],
      [
        "2018",
        -10.574840606009262
      ],
      [
        "Ġgap",
        -10.575197532165003
      ],
      [
        "examined",
        -10.575212822029439
      ],
      [
        "sensitivity",
        -10.575702996805108
      ],
      [
        "developing",
        -10.575869575859667
      ],
      [
        "Ġprotocol",
        -10.57652646480869
      ],
      [
        "assumption",
        -10.57729322854953
      ],
      [
        "Ġinstall",
        -10.578751691674743
      ],
      [
        "}}_{",
        -10.578983515721088
      ],
      [
        "SM",
        -10.579572499470546
      ],
      [
        "Ġmouse",
        -10.580225485300616
      ],
      [
        "Number",
        -10.58052329874918
      ],
      [
        "Ġsit",
        -10.580860441572884
      ],
      [
        "Ġcompare",
        -10.581240340821592
      ],
      [
        "ber",
        -10.58146344829697
      ],
      [
        "Ġleader",
        -10.581468633984528
      ],
      [
        "Ġbool",
        -10.581605406112056
      ],
      [
        "eat",
        -10.581624049249415
      ],
      [
        "wood",
        -10.581704208215251
      ],
      [
        "mixture",
        -10.581726350381564
      ],
      [
        "US",
        -10.581752714339357
      ],
      [
        "burden",
        -10.582138421899268
      ],
      [
        "capable",
        -10.58316993392194
      ],
      [
        "last",
        -10.583719421841817
      ],
      [
        "android",
        -10.58433786433788
      ],
      [
        "ĠCommittee",
        -10.584972621389472
      ],
      [
        ")=\\",
        -10.58583029932376
      ],
      [
        "ĠBoth",
        -10.585918065515548
      ],
      [
        "ĠSmith",
        -10.58616548346893
      ],
      [
        "precise",
        -10.586951562739163
      ],
      [
        "Ġangle",
        -10.58714467267828
      ],
      [
        "Ġdeliver",
        -10.587743097864431
      ],
      [
        "Ġlung",
        -10.588380069636191
      ],
      [
        "ĠCompany",
        -10.588960560167877
      ],
      [
        "Ġpermit",
        -10.589043499541262
      ],
      [
        "Ġalcohol",
        -10.589350378380315
      ],
      [
        "Input",
        -10.589787099324067
      ],
      [
        "powerful",
        -10.589930990287524
      ],
      [
        "Ġpure",
        -10.590161432812803
      ],
      [
        "ung",
        -10.590801811663205
      ],
      [
        "Ġaccus",
        -10.590829892193922
      ],
      [
        "Ġstraight",
        -10.590912358698276
      ],
      [
        "2000",
        -10.59127450574149
      ],
      [
        "Ġfaith",
        -10.591591602026595
      ],
      [
        "${{\\",
        -10.592511277928619
      ],
      [
        "Ġleaders",
        -10.592617659624107
      ],
      [
        "400",
        -10.593052262706456
      ],
      [
        "Ġnames",
        -10.593151388473574
      ],
      [
        "Base",
        -10.593338595008783
      ],
      [
        "ĠPa",
        -10.593433025406975
      ],
      [
        "Ġlicense",
        -10.593708983986547
      ],
      [
        "Ġorg",
        -10.593774799504507
      ],
      [
        "parent",
        -10.594165365647974
      ],
      [
        "duty",
        -10.594607530574295
      ],
      [
        "google",
        -10.59488353283873
      ],
      [
        "Ġneuro",
        -10.595475204576145
      ],
      [
        "ĠTwo",
        -10.595795764371097
      ],
      [
        "Ġsequences",
        -10.59590736408673
      ],
      [
        "Ġfish",
        -10.596073806189645
      ],
      [
        "ĠMichael",
        -10.596432850703183
      ],
      [
        "Ġappearance",
        -10.597111964240877
      ],
      [
        "Ġexact",
        -10.597165138430213
      ],
      [
        "Ġcustom",
        -10.597310884063539
      ],
      [
        "Ġspread",
        -10.59732374918331
      ],
      [
        "Ġintra",
[...]
