{
  "version": "1.0",
  "truncation": null,
  "padding": null,
  "added_tokens": [
    {
      "id": 0,
      "content": "[UNK]",
      "single_word": false,
      "lstrip": false,
      "rstrip": false,
      "normalized": false,
      "special": true
    },
    {
      "id": 1,
      "content": "[PAD]",
      "single_word": false,
      "lstrip": false,
      "rstrip": false,
      "normalized": false,
      "special": true
    },
    {
      "id": 2,
      "content": "[CLS]",
      "single_word": false,
      "lstrip": false,
      "rstrip": false,
      "normalized": false,
      "special": true
    },
    {
      "id": 3,
      "content": "[SEP]",
      "single_word": false,
      "lstrip": false,
      "rstrip": false,
      "normalized": false,
      "special": true
    },
    {
      "id": 4,
      "content": "[MASK]",
      "single_word": false,
      "lstrip": false,
      "rstrip": false,
      "normalized": false,
      "special": true
    }
  ],
  "normalizer": {
    "type": "Sequence",
    "normalizers": [
      {
        "type": "NFD"
      },
      {
        "type": "Lowercase"
      },
      {
        "type": "StripAccents"
      }
    ]
  },
  "pre_tokenizer": {
    "type": "Sequence",
    "pretokenizers": [
      {
        "type": "Metaspace",
        "replacement": "▁",
        "prepend_scheme": "always",
        "split": true
      }
    ]
  },
  "post_processor": {
    "type": "TemplateProcessing",
    "single": [
      {
        "SpecialToken": {
          "id": "[CLS]",
          "type_id": 0
        }
      },
      {
        "Sequence": {
          "id": "A",
          "type_id": 0
        }
      },
      {
        "SpecialToken": {
          "id": "[SEP]",
          "type_id": 0
        }
      }
    ],
    "pair": [
      {
        "SpecialToken": {
          "id": "[CLS]",
          "type_id": 0
        }
      },
      {
        "Sequence": {
          "id": "A",
          "type_id": 0
        }
      },
      {
        "SpecialToken": {
          "id": "[SEP]",
          "type_id": 0
        }
      },
      {
        "Sequence": {
          "id": "B",
          "type_id": 1
        }
      },
      {
        "SpecialToken": {
          "id": "[SEP]",
          "type_id": 1
        }
      }
    ],
    "special_tokens": {
      "[CLS]": {
        "id": "[CLS]",
        "ids": [
          2
        ],
        "tokens": [
          "[CLS]"
        ]
      },
      "[SEP]": {
        "id": "[SEP]",
        "ids": [
          3
        ],
        "tokens": [
          "[SEP]"
        ]
      }
    }
  },
  "decoder": {
    "type": "Metaspace",
    "replacement": "▁",
    "prepend_scheme": "always",
    "split": true
  },
  "model": {
    "type": "Unigram",
    "unk_id": 0,
    "vocab": [
      [
        "[UNK]",
        0.0
      ],
      [
        "[PAD]",
        0.0
      ],
      [
        "[CLS]",
        0.0
      ],
      [
        "[SEP]",
        0.0
      ],
      [
        "[MASK]",
        0.0
      ],
      [
        "▁.",
        -2.8273167377285855
      ],
      [
        "▁,",
        -3.701153118117034
      ],
      [
        "n",
        -3.9054689004776577
      ],
      [
        "▁bir",
        -4.158523870040476
      ],
      [
        "▁",
        -4.210012896364864
      ],
      [
        "a",
        -4.389149980772633
      ],
      [
        "m",
        -4.458293183895671
      ],
      [
        "k",
        -4.486612204401469
      ],
      [
        "e",
        -4.582980427747842
      ],
      [
        "▁ve",
        -4.826482804731739
      ],
      [
        "r",
        -5.028869396932862
      ],
      [
        "lar",
        -5.06278276263795
      ],
      [
        "▁bu",
        -5.070273837416636
      ],
      [
        "i",
        -5.0922148676047225
      ],
      [
        "t",
        -5.244693397424182
      ],
      [
        "ler",
        -5.296376742762877
      ],
      [
        "ya",
        -5.333976520247177
      ],
      [
        "▁cok",
        -5.377329028114628
      ],
      [
        "s",
        -5.436158729483051
      ],
      [
        "li",
        -5.540077097290508
      ],
      [
        "▁\"",
        -5.5442254176721075
      ],
      [
        "p",
        -5.565983975179892
      ],
      [
        "▁de",
        -5.573809409226122
      ],
      [
        "di",
        -5.599780508631856
      ],
      [
        "ları",
        -5.634756578355951
      ],
      [
        "ı",
        -5.648420260028548
      ],
      [
        "▁icin",
        -5.653364999220576
      ],
      [
        "da",
        -5.684824001044165
      ],
      [
        "si",
        -5.702245650945665
      ],
      [
        "ye",
        -5.7062748702916775
      ],
      [
        "lı",
        -5.744936412362666
      ],
      [
        "la",
        -5.747158974037607
      ],
      [
        "z",
        -5.754995874761899
      ],
      [
        "den",
        -5.770242261608583
      ],
      [
        "l",
        -5.7711385204606245
      ],
      [
        "▁da",
        -5.780710832667051
      ],
      [
        "u",
        -5.7866592204517335
      ],
      [
        "leri",
        -5.7923852490526215
      ],
      [
        "le",
        -5.853473259512597
      ],
      [
        "▁o",
        -5.8652507903198305
      ],
      [
        "dan",
        -5.8673413472240314
      ],
      [
        "arak",
        -5.867472542000857
      ],
      [
        "de",
        -5.878625983656935
      ],
      [
        "▁ol",
        -5.911221689616925
      ],
      [
        "in",
        -5.921073269789448
      ],
      [
        "ce",
        -6.005383644520962
      ],
      [
        "sı",
        -6.037680100761727
      ],
      [
        "▁ne",
        -6.050365704644094
      ],
      [
        "na",
        -6.08036628181071
      ],
      [
        "▁daha",
        -6.111350529420261
      ],
      [
        "ma",
        -6.1214513152814884
      ],
      [
        "ki",
        -6.1220090160793275
      ],
      [
        "▁ile",
        -6.161135396598758
      ],
      [
        "ca",
        -6.1792392081902685
      ],
      [
        "▁her",
        -6.230903446520968
      ],
      [
        "▁var",
        -6.232998922886465
      ],
      [
        "▁iyi",
        -6.255522836928702
      ],
      [
        "▁en",
        -6.2574867299739925
      ],
      [
        "y",
        -6.266438285510194
      ],
      [
        "▁olan",
        -6.284914173981219
      ],
      [
        "dir",
        -6.290339607664103
      ],
      [
        "er",
        -6.293411817922112
      ],
      [
        "▁ki",
        -6.308519565890798
      ],
      [
        "en",
        -6.326179486080773
      ],
      [
        "▁gibi",
        -6.341488811848213
      ],
      [
        "'",
        -6.352690802159196
      ],
      [
        "ti",
        -6.3567670818933655
      ],
      [
        "f",
        -6.389854704053404
      ],
      [
        "▁sonra",
        -6.4012612387290515
      ],
      [
        ".",
        -6.404979366265425
      ],
      [
        "du",
        -6.428760514181694
      ],
      [
        "ne",
        -6.441240421757295
      ],
      [
        "▁san",
        -6.446023486216757
      ],
      [
        "lu",
        -6.485021901691481
      ],
      [
        "ların",
        -6.4886979248849626
      ],
      [
        "un",
        -6.493278081165291
      ],
      [
        "nin",
        -6.500881303997958
      ],
      [
        "im",
        -6.5124619187594135
      ],
      [
        "ın",
        -6.514845502981003
      ],
      [
        "▁kadar",
        -6.5213574490280815
      ],
      [
        "larını",
        -6.528216308342912
      ],
      [
        "dı",
        -6.529591392386876
      ],
      [
        "nın",
        -6.533376865365752
      ],
      [
        "um",
        -6.535840624549468
      ],
      [
        "te",
        -6.554024784981721
      ],
      [
        "ta",
        -6.562562378283277
      ],
      [
        "lık",
        -6.584657101593305
      ],
      [
        "tı",
        -6.590291945867659
      ],
      [
        "▁?",
        -6.59201540373831
      ],
      [
        "▁guzeldi",
        -6.609745338829444
      ],
      [
        "se",
        -6.612529141090557
      ],
      [
        "d",
        -6.615564605020819
      ],
      [
        "lerin",
        -6.6162451154749675
      ],
      [
        "▁ama",
        -6.6262773042138265
      ],
      [
        "o",
        -6.62685945835897
      ],
      [
        "▁bana",
        -6.647020309469111
      ],
      [
        "dır",
        -6.679430568935774
      ],
      [
        "▁su",
        -6.6864686467490015
      ],
      [
        "▁iki",
        -6.6933971232306755
      ],
      [
        "lik",
        -6.693742692943199
      ],
      [
        "c",
        -6.695756112387336
      ],
      [
        "▁ben",
        -6.696556431850612
      ],
      [
        "h",
        -6.727827969716564
      ],
      [
        "▁bay",
        -6.733793802880414
      ],
      [
        "ydi",
        -6.736657726285878
      ],
      [
        "▁memnun",
        -6.743022962187329
      ],
      [
        "▁ucusları",
        -6.747425793390417
      ],
      [
        "g",
        -6.749072023184742
      ],
      [
        "▁degildi",
        -6.759504075593296
      ],
      [
        "▁sey",
        -6.760704236121006
      ],
      [
        "▁goster",
        -6.769370808549082
      ],
      [
        ":",
        -6.7718302148744245
      ],
      [
        "yı",
        -6.782660041383764
      ],
      [
        "▁yeni",
        -6.787930017037062
      ],
      [
        "▁iyiydi",
        -6.802704676106306
      ],
      [
        "mak",
        -6.817158747785194
      ],
      [
        "▁ya",
        -6.832770925421666
      ],
      [
        "yi",
        -6.833683942565179
      ],
      [
        "lerini",
        -6.835192027808846
      ],
      [
        "▁guzel",
        -6.847899259354681
      ],
      [
        "lan",
        -6.86169266011495
      ],
      [
        "tan",
        -6.862461156183467
      ],
      [
        "ci",
        -6.864142978447766
      ],
      [
        "ni",
        -6.866158519716708
      ],
      [
        "ur",
        -6.867091677893
      ],
      [
        "ri",
        -6.8752772907648145
      ],
      [
        "▁buyuk",
        -6.876224449600949
      ],
      [
        "▁bey",
        -6.881448190980694
      ],
      [
        "sa",
        -6.883518386285961
      ],
      [
        "▁c",
        -6.885617282056992
      ],
      [
        "mıs",
        -6.894217422756353
      ],
      [
        "v",
        -6.910436467446417
      ],
      [
        "cı",
        -6.921195861296961
      ],
      [
        "▁degil",
        -6.923601655768543
      ],
      [
        "su",
        -6.938124482912278
      ],
      [
        "mis",
        -6.955946535872905
      ],
      [
        "ar",
        -6.956855927695601
      ],
      [
        "ini",
        -6.957057244860687
      ],
      [
        "▁tum",
        -6.961207940812308
      ],
      [
        "▁%",
        -6.962349993892247
      ],
      [
        "▁-",
        -6.9700033503295735
      ],
      [
        "ten",
        -6.972647230708088
      ],
      [
        "▁gore",
        -6.977687870661648
      ],
      [
        "▁is",
        -6.986126727181194
      ],
      [
        "▁once",
        -6.995191763876142
      ],
      [
        "ır",
        -7.009324672513016
      ],
      [
        "ra",
        -7.018904138616617
      ],
      [
        "▁hisse",
        -7.021683465064608
      ],
      [
        "uz",
        -7.029789812298231
      ],
      [
        "▁milyon",
        -7.032734679873588
      ],
      [
        "▁gun",
        -7.0356069227274345
      ],
      [
        "at",
        -7.043269029880112
      ],
      [
        "▁al",
        -7.048360620240692
      ],
      [
        "ıyor",
        -7.051393465088543
      ],
      [
        "▁oldu",
        -7.05460074167872
      ],
      [
        "ba",
        -7.061095393976219
      ],
      [
        "et",
        -7.062014105614859
      ],
      [
        "▁arasında",
        -7.070735935023231
      ],
      [
        "▁yok",
        -7.070827475671268
      ],
      [
        "▁oda",
        -7.073222820394175
      ],
      [
        "▁soyledi",
        -7.080851634923471
      ],
      [
        "tu",
        -7.091099940983744
      ],
      [
        "▁diye",
        -7.096003187763767
      ],
      [
        "▁son",
        -7.096821515721654
      ],
      [
        "gı",
        -7.098654361660017
      ],
      [
        "▁hizmet",
        -7.104928053984205
      ],
      [
        "al",
        -7.1121642898638076
      ],
      [
        "▁mu",
        -7.118732007022182
      ],
      [
        "▁zaman",
        -7.119539179538191
      ],
      [
        "gu",
        -7.124037410370378
      ],
      [
        "▁etti",
        -7.125799150645862
      ],
      [
        "'in",
        -7.126687277836356
      ],
      [
        "▁karsı",
        -7.132527936723402
      ],
      [
        "ını",
        -7.137174328728727
      ],
      [
        "ir",
        -7.139720995772831
      ],
      [
        "▁mi",
        -7.14249584213204
      ],
      [
        "▁dedi",
        -7.147917864986894
      ],
      [
        "gi",
        -7.150386178654273
      ],
      [
        "▁kendi",
        -7.154306616775246
      ],
      [
        "▁istiyoru",
        -7.157841279653879
      ],
      [
        "luk",
        -7.160081405017912
      ],
      [
        "b",
        -7.161217718984914
      ],
      [
        "erek",
        -7.166732219026956
      ],
      [
        "▁az",
        -7.168585771133606
      ],
      [
        "▁ucus",
        -7.173934149859894
      ],
      [
        "▁anca",
        -7.180466104996412
      ],
      [
        "▁1",
        -7.180954343748063
      ],
      [
        "'de",
        -7.188399819598613
      ],
      [
        "▁fazla",
        -7.189689196345333
      ],
      [
        "ga",
        -7.191754796772116
      ],
      [
        "yla",
        -7.202423342485853
      ],
      [
        "▁yıl",
        -7.205248770449849
      ],
      [
        "▁puan",
        -7.206313622461766
      ],
      [
        "ine",
        -7.207300658396268
      ],
      [
        "▁dolar",
        -7.213599067807109
      ],
      [
        "▁temiz",
        -7.214499666053255
      ],
      [
        "▁para",
        -7.228215047835631
      ],
      [
        "iz",
        -7.241660210126637
      ],
      [
        "▁icinde",
        -7.2473842395473635
      ],
      [
        "lara",
        -7.249989790993234
      ],
      [
        "▁onun",
        -7.253945733891545
      ],
      [
        "▁bile",
        -7.260195891750797
      ],
      [
        "▁ka",
        -7.262929441523389
      ],
      [
        "'da",
        -7.263051772316956
      ],
      [
        "▁ilk",
        -7.267147147782193
      ],
      [
        "▁...",
        -7.2690652248840895
      ],
      [
        "▁on",
        -7.271083290975333
      ],
      [
        "▁uc",
        -7.276761792523947
      ],
      [
        "▁ay",
        -7.2818129356052275
      ],
      [
        "siz",
        -7.284534277739039
      ],
      [
        "▁kaldi",
        -7.284726606724419
      ],
      [
        "▁te",
        -7.284869020317124
      ],
      [
        "▁!",
        -7.286839893356851
      ],
      [
        "▁gunu",
        -7.298631505329602
      ],
      [
        "sını",
        -7.300330638097567
      ],
      [
        "▁biraz",
        -7.306095484012982
      ],
      [
        "5",
        -7.307850324563769
      ],
      [
        "sini",
        -7.318081369179506
      ],
      [
        "sine",
        -7.32517696243378
      ],
      [
        "lere",
        -7.329123060885253
      ],
      [
        "acak",
        -7.331097380882728
      ],
      [
        "ına",
        -7.340608573694894
      ],
      [
        "mus",
        -7.340665906278237
      ],
      [
        "▁ev",
        -7.344635168343799
      ],
      [
        "▁orta",
        -7.344997354029088
      ],
      [
        "▁''",
        -7.345103866948762
      ],
      [
        "2",
        -7.3484260693642725
      ],
      [
        "▁bas",
        -7.350156789768364
      ],
      [
        "▁oldugunu",
        -7.360373096311156
      ],
      [
        "▁tek",
        -7.361647530532739
      ],
      [
        "il",
        -7.361903292754943
      ],
      [
        "yle",
        -7.365493543043182
      ],
      [
        "sına",
        -7.370277760351017
      ],
      [
        "▁hangi",
        -7.371566033283713
      ],
      [
        "▁ta",
        -7.375244413977447
      ],
      [
        "▁an",
        -7.375616198014017
      ],
      [
        "▁ucuslar",
        -7.376733109299
      ],
      [
        "▁biz",
        -7.376965943370505
      ],
      [
        "▁yasa",
        -7.378597383943636
      ],
      [
        "ken",
        -7.391540292326396
      ],
      [
        "is",
        -7.393665353983767
      ],
      [
        "▁saat",
        -7.402763246214521
      ],
      [
        "▁hic",
        -7.406426636567967
      ],
      [
        "dim",
        -7.409147971024088
      ],
      [
        "sız",
        -7.415576831258488
      ],
      [
        "▁butun",
        -7.416021761514142
      ],
      [
        "ndan",
        -7.4164480274326
      ],
      [
        "▁genel",
        -7.418979529956033
      ],
      [
        "3",
        -7.4237099664026625
      ],
      [
        "be",
        -7.4260280885967545
      ],
      [
        "▁ac",
        -7.435970911866464
      ],
      [
        "▁tur",
        -7.443685421009807
      ],
      [
        "ul",
        -7.444730334542584
      ],
      [
        "▁ediyor",
        -7.451998623762126
      ],
      [
        "or",
        -7.452878802381839
      ],
      [
        "inde",
        -7.466934643776386
      ],
      [
        "sinde",
        -7.468412007824297
      ],
      [
        "▁mı",
        -7.468421277082256
      ],
      [
        "▁se",
        -7.4716194602598645
      ],
      [
        "cu",
        -7.472276667112914
      ],
      [
        "ması",
        -7.47672398976988
      ],
      [
        "7",
        -7.476840048422079
      ],
      [
        "▁cesit",
        -7.481007694570943
      ],
      [
        "▁`",
        -7.490079786845643
      ],
      [
        "▁boyle",
        -7.4903828478879815
      ],
      [
        "8",
        -7.490658633646781
      ],
      [
        "lıgı",
        -7.49127157207355
      ],
      [
        "ladı",
        -7.492357187843697
      ],
      [
        "`",
        -7.494910577233677
      ],
      [
        "▁ma",
        -7.497389827840057
      ],
      [
        "▁du",
        -7.497482748548262
      ],
      [
        "▁yoktu",
        -7.501800760963149
      ],
      [
        "▁sa",
        -7.501951142148121
      ],
      [
        "maya",
        -7.506937616732507
      ],
      [
        ";",
        -7.508063509962216
      ],
      [
        "▁simdi",
        -7.508552880823696
      ],
      [
        "mi",
        -7.514675096870099
      ],
      [
        "larda",
        -7.515001885737265
      ],
      [
        "▁kar",
        -7.516878509361748
      ],
      [
        "iyor",
        -7.51871234594925
      ],
      [
        "▁yer",
        -7.520405236338368
      ],
      [
        "▁at",
        -7.521595875516088
      ],
      [
        "▁ak",
        -7.527131626134051
      ],
      [
        "9",
        -7.531974388131151
      ],
      [
        "-",
        -7.532282614729554
      ],
      [
        "▁5",
        -7.538584150142199
      ],
      [
        "▁tesis",
        -7.538759892213261
      ],
      [
        "▁oldugu",
        -7.540969285268541
      ],
      [
        "'ın",
        -7.541960669735709
      ],
      [
        "ecek",
        -7.543367771168523
      ],
      [
        "ge",
        -7.544386289991744
      ],
      [
        "▁dogru",
        -7.549889856105393
      ],
      [
        "▁baska",
        -7.550664271586097
      ],
      [
        "▁geldi",
        -7.55106996118913
      ],
      [
        "unu",
        -7.552440583058919
      ],
      [
        "▁f",
        -7.553120448689075
      ],
      [
        "lama",
        -7.553294436160988
      ],
      [
        "4",
        -7.555800912309777
      ],
      [
        "▁ilgili",
        -7.558409877884266
      ],
      [
        "▁do",
        -7.561040362626159
      ],
      [
        "▁/",
        -7.567540152451848
      ],
      [
        "▁otel",
        -7.573094062413233
      ],
      [
        "▁milyar",
        -7.574755200126751
      ],
      [
        "▁eski",
        -7.574916896167624
      ],
      [
        "▁neden",
        -7.586148712088154
      ],
      [
        "ligi",
        -7.597420884711419
      ],
      [
        "▁3",
        -7.598863877770514
      ],
      [
        "▁ucret",
        -7.600755975944776
      ],
      [
        "▁kucuk",
        -7.605580357440918
      ],
      [
        "us",
        -7.607697529887858
      ],
      [
        "▁konumu",
        -7.608278143898128
      ],
      [
        "▁francisco'",
        -7.6105259906601805
      ],
      [
        "▁fiyat",
        -7.613608017765435
      ],
      [
        "▁bazı",
        -7.614338904417888
      ],
      [
        "ip",
        -7.618455241722009
      ],
      [
        "▁sirket",
        -7.618722784443928
      ],
      [
        "▁aksam",
        -7.62236846428741
      ],
      [
        "1",
        -7.637903357750659
      ],
      [
        "▁ko",
        -7.640331151179907
      ],
      [
        "▁as",
        -7.641909656912758
      ],
      [
        "▁yap",
        -7.650123970333102
      ],
      [
        "▁be",
        -7.652031380632901
      ],
      [
        "▁adam",
        -7.652140488331417
      ],
      [
        "▁diger",
        -7.662379519616283
      ],
      [
        "▁personel",
        -7.664158393410712
      ],
      [
        "▁gorusuldu",
        -7.664437892319985
      ],
      [
        "el",
        -7.6659278111352664
      ],
      [
        "▁iste",
        -7.666396153552068
      ],
      [
        "▁onu",
        -7.667877814465625
      ],
      [
        "▁boston'da",
        -7.671739161210062
      ],
      [
        "sun",
        -7.67183708699121
      ],
      [
        "▁insan",
        -7.674760599486993
      ],
      [
        "ze",
        -7.681059406714004
      ],
      [
        "sında",
        -7.682916579144911
      ],
      [
        "▁sade",
        -7.686390758331463
      ],
      [
        "▁uzun",
        -7.687132748943098
      ],
      [
        "▁me",
        -7.687822376259113
      ],
      [
        "yor",
        -7.6919941713049695
      ],
      [
        "lerinin",
        -7.693314117621979
      ],
      [
        "▁4",
        -7.693482798234873
      ],
      [
        "▁bilgi",
        -7.696523147306769
      ],
      [
        "'e",
        -7.699482475494027
      ],
      [
        "mek",
        -7.7034500861143975
      ],
      [
        "▁gelir",
        -7.703722643171368
      ],
      [
        "ik",
        -7.704185298634068
      ],
      [
        "▁ara",
        -7.709814761891272
      ],
      [
        "iyle",
        -7.713278725651537
      ],
      [
        "▁geri",
        -7.713491757936703
      ],
      [
        "▁sabah",
        -7.715813111843605
      ],
      [
        "6",
        -7.7159564882493035
      ],
      [
        "nda",
        -7.717891093328784
      ],
      [
        "▁tavsiye",
        -7.721016524449419
      ],
      [
        "▁es",
        -7.725030381956918
      ],
      [
        "▁deniz",
        -7.728932954748207
      ],
      [
        "▁uzerinde",
        -7.7344519721277125
      ],
      [
        "suz",
        -7.735561834070226
      ],
      [
        "ha",
        -7.7382272110726165
      ],
      [
        ")",
        -7.7384256556934465
      ],
      [
        "▁(",
        -7.745052227097141
      ],
      [
        "▁gece",
        -7.747173665173551
      ],
      [
        "▁acı",
        -7.752316434677896
      ],
      [
        "▁benim",
        -7.752897464569548
      ],
      [
        "▁kadın",
        -7.753473589604618
      ],
      [
        "lerde",
        -7.7578333684515
      ],
      [
        "larında",
        -7.758111056231935
      ],
      [
        "ım",
        -7.76091068667533
      ],
      [
        "▁tu",
        -7.76205376557613
      ],
      [
        "▁co",
        -7.764094881103196
      ],
      [
        "ebilir",
        -7.766019924147559
      ],
      [
        "▁ha",
        -7.76741549791544
      ],
      [
        "▁bes",
        -7.767812004757184
      ],
      [
        "va",
        -7.771194503179858
      ],
      [
        "▁sure",
        -7.772077265054617
      ],
      [
        "lardan",
        -7.773818627638572
      ],
      [
        "lerden",
        -7.774503818241154
      ],
      [
        "▁ver",
        -7.775070778729997
      ],
      [
        "▁sag",
        -7.775687418685342
      ],
      [
        "▁bo",
        -7.776786337012552
      ],
      [
        "sin",
        -7.779804704670353
      ],
      [
        "▁10",
        -7.780008007317588
      ],
      [
        "▁hanim",
        -7.781370641943795
      ],
      [
        "▁new",
        -7.782637344874984
      ],
      [
        "yu",
        -7.783462781069742
      ],
      [
        "nı",
        -7.785576499553567
      ],
      [
        "▁ise",
        -7.788261755977304
      ],
      [
        "▁tarafında",
        -7.7959715886649255
      ],
      [
        "'a",
        -7.798384065756743
      ],
      [
        "ının",
        -7.803554365270736
      ],
      [
        "▁dunya",
        -7.805351679899962
      ],
      [
        "▁kapı",
        -7.807146478852629
      ],
      [
        "bi",
        -7.807540204166628
      ],
      [
        "dur",
        -7.808818082849754
      ],
      [
        "▁donus",
        -7.809193969445532
      ],
      [
        "tır",
        -7.810447678714616
      ],
      [
        "▁kur",
        -7.811589674609192
      ],
      [
        "▁yol",
        -7.81595077096867
      ],
      [
        "▁pek",
        -7.820765197266941
      ],
      [
        "landı",
        -7.824916194257309
      ],
      [
        "▁artık",
        -7.825789912034297
      ],
      [
        "inin",
        -7.828132299015468
      ],
      [
        "▁ic",
        -7.829126490340167
      ],
      [
        "ıp",
        -7.830000792051309
      ],
      [
        "'un",
        -7.830303188279787
      ],
      [
        "▁hicbir",
        -7.83046733775601
      ],
      [
        "uyor",
        -7.831670059142287
      ],
      [
        "▁ogle",
        -7.840104584916959
      ],
      [
        "▁kap",
        -7.843728344199095
      ],
      [
        "▁re",
        -7.843952069692972
      ],
      [
        "dıgı",
        -7.846378133592778
      ],
      [
        "▁basladı",
        -7.84731093992163
      ],
      [
        "abilir",
        -7.8499144800558085
      ],
      [
        "▁ke",
        -7.853022917645567
      ],
      [
        "▁2",
        -7.85413768705908
      ],
      [
        "▁lezzet",
        -7.856862325472083
      ],
      [
        "ında",
        -7.857332662913752
      ],
      [
        "▁ucusu",
        -7.860281343226551
      ],
      [
        "▁st",
        -7.8613959504097615
      ],
      [
        "▁7",
        -7.864970065929514
      ],
      [
        "▁bak",
        -7.865378518673099
      ],
      [
        "tir",
        -7.866171820934099
      ],
      [
        "▁olabilir",
        -7.872385859613316
      ],
      [
        "▁biri",
        -7.873012563866237
      ],
      [
        "▁tam",
        -7.873016742521431
      ],
      [
        "▁yan",
        -7.873781640394631
      ],
      [
        "▁piyasa",
        -7.873886613563828
      ],
      [
        "▁yuksek",
        -7.874360301217106
      ],
      [
        "▁aynı",
        -7.878115778044915
      ],
      [
        "ve",
        -7.8798360312361755
      ],
      [
        "▁aldı",
        -7.879974847915768
      ],
      [
        "▁kız",
        -7.881427935613919
      ],
      [
        "ran",
        -7.887344455788921
      ],
      [
        "on",
        -7.887654951408335
      ],
      [
        "nde",
        -7.891694251327079
      ],
      [
        "▁soyle",
        -7.893021421316861
      ],
      [
        "▁cıkar",
        -7.894599943957304
      ],
      [
        "▁sen",
        -7.895116260740069
      ],
      [
        "▁kac",
        -7.896338678470306
      ],
      [
        "▁beni",
        -7.897000940212614
      ],
      [
        "▁eder",
        -7.89758219355661
      ],
      [
        "▁diyor",
        -7.898174419688228
      ],
      [
        "man",
        -7.898919608110356
      ],
      [
        "▁hafta",
        -7.900108345197125
      ],
      [
        "▁hava",
        -7.903217274312963
      ],
      [
        "▁ra",
        -7.9035563468283785
      ],
      [
        "▁can",
        -7.9046766846426415
      ],
      [
        "▁acık",
        -7.905776054580109
      ],
      [
        "▁cocuk",
        -7.909980236139206
      ],
      [
        "▁19",
        -7.916854997733214
      ],
      [
        "▁goz",
        -7.918027243749094
      ],
      [
        "▁yapı",
        -7.923740728151367
      ],
      [
        "▁olma",
        -7.926988032113674
      ],
      [
        "lardı",
        -7.9276483928553585
      ],
      [
        "▁amerikan",
        -7.930309238350431
      ],
      [
        "▁yalnız",
        -7.931564450342347
      ],
      [
        "sel",
        -7.932200560241438
      ],
      [
        "▁ilgilendi",
        -7.936684237469437
      ],
      [
        "sinin",
        -7.938149091944432
      ],
      [
        "lerinde",
        -7.9382889120273825
      ],
      [
        "▁bin",
        -7.939566121882013
      ],
      [
        "mıstı",
        -7.941265784643656
      ],
      [
        "▁tesisti",
        -7.942434340458851
      ],
      [
        "▁sekilde",
        -7.945336796571611
      ],
      [
        "▁aile",
        -7.946495950620271
      ],
      [
        "▁za",
        -7.947792268198933
      ],
      [
        "▁cıktı",
        -7.94843815332943
      ],
      [
        "▁veya",
        -7.949440078443413
      ],
      [
        "'ni",
        -7.951013441624003
      ],
      [
        "▁ku",
        -7.951124485603917
      ],
      [
        "ıyordu",
        -7.952145569786221
      ],
      [
        "lıyor",
        -7.95226073020858
      ],
      [
        "tik",
        -7.956771613005997
      ],
      [
        "larla",
        -7.959254845354249
      ],
      [
        "▁yemekler",
        -7.963365515289282
      ],
      [
        "▁yon",
        -7.96487559443314
      ],
      [
        "▁pazar",
        -7.966794679563137
      ],
      [
        "▁turk",
        -7.967692344860511
      ],
      [
        "▁yaz",
        -7.967847077609275
      ],
      [
        "▁gecen",
        -7.968627990919478
      ],
      [
        "▁he",
        -7.968702373297032
      ],
      [
        "▁uygun",
        -7.969814567161382
      ],
      [
        "miz",
        -7.971259990811794
      ],
      [
        "st",
        -7.973591954544359
      ],
      [
        "▁hem",
        -7.974132852050709
      ],
      [
        "▁erken",
        -7.978079860043957
      ],
      [
        "▁onlar",
        -7.978758577969118
      ],
      [
        "▁denver'de",
        -7.981431627363845
      ],
      [
        "▁vardı",
        -7.9895674548207944
      ],
      [
        "ut",
        -7.993885977225803
      ],
      [
        "▁kan",
        -7.9955496741039855
      ],
      [
        "▁sahip",
        -7.995868375191932
      ],
      [
        "▁ek",
        -7.999512686935798
      ],
      [
        "▁bul",
        -8.001189668536673
      ],
      [
        "▁tas",
        -8.001284104449688
      ],
      [
        "hi",
        -8.001325614218635
      ],
      [
        "▁devam",
        -8.00338203936668
      ],
      [
        "▁kat",
        -8.005426773435591
      ],
      [
        "▁tanı",
        -8.007856555663064
      ],
      [
        "▁kara",
        -8.00785794523174
      ],
      [
        "▁el",
        -8.008585140949853
      ],
      [
        "▁ter",
        -8.009883811687056
      ],
      [
        "misti",
        -8.013976052756767
      ],
      [
        "▁karar",
        -8.014369975863946
      ],
      [
        "▁yemekleri",
        -8.015019343663312
      ],
      [
        "es",
        -8.016903621504747
      ],
      [
        "ıl",
        -8.017241755464042
      ],
      [
        "▁6",
        -8.018052294388491
      ],
      [
        "tur",
        -8.018276492420334
      ],
      [
        "▁bugun",
        -8.01905225707424
      ],
      [
        "▁ona",
        -8.020122996187698
      ],
      [
        "▁hareket",
        -8.020634567517266
      ],
      [
        "▁gelen",
        -8.025421605695868
      ],
      [
        "▁koy",
        -8.0256371798083
      ],
      [
        "dik",
        -8.029644790368604
      ],
      [
        "▁yuz",
        -8.035253802703188
      ],
      [
        "▁birkac",
        -8.035412477836548
      ],
      [
        "nden",
        -8.035480357346557
      ],
      [
        "▁li",
        -8.038632877586387
      ],
      [
        "▁giden",
        -8.039426912241057
      ],
      [
        "▁genc",
        -8.041328021879373
      ],
      [
        "'nın",
        -8.043546809638432
      ],
      [
        "▁kisi",
        -8.043957067708948
      ],
      [
        "▁olur",
        -8.044250815893303
      ],
      [
        "lerle",
        -8.045680250027154
      ],
      [
        "▁b",
        -8.04585516211776
      ],
      [
        "▁verdi",
        -8.046285666410498
      ],
      [
        "▁gul",
        -8.049796204032354
      ],
      [
        "▁yine",
        -8.053838711415485
      ],
      [
        "▁soz",
        -8.058388910202366
      ],
      [
        "▁konu",
        -8.060179488685161
      ],
      [
        "mayı",
        -8.060837482463278
      ],
      [
        "▁denizi",
        -8.064409256623085
      ],
      [
        "ydı",
        -8.065536233773006
      ],
      [
        "▁pa",
        -8.067115907595939
      ],
      [
        "▁yaklası",
        -8.068436765082755
      ],
      [
        "▁der",
        -8.069950344305916
      ],
      [
        "▁yemek",
        -8.071068028359015
      ],
      [
        "▁hemen",
        -8.073795398235141
      ],
      [
        "bu",
        -8.078481816678776
      ],
      [
        "▁ilgiliydi",
        -8.079682893441309
      ],
      [
        "▁lutfe",
        -8.080622131121778
      ],
      [
        "▁8",
        -8.081286961155733
      ],
      [
        "▁yaptı",
        -8.082737482644333
      ],
      [
        "▁ar",
        -8.083104443959769
      ],
      [
        "▁bunun",
        -8.08482602302192
      ],
      [
        "lo",
        -8.084889589836852
      ],
      [
        "vi",
        -8.085001501180756
      ],
      [
        "ol",
        -8.085542619092468
      ],
      [
        "san",
        -8.091512181676084
      ],
      [
        "▁hep",
        -8.092158996419993
      ],
      [
        "▁nasıl",
        -8.093259168683808
      ],
      [
        "▁ayrıca",
        -8.097506283186071
      ],
      [
        "▁kotu",
        -8.100680214071172
      ],
      [
        "▁kalitesi",
        -8.104365626711811
      ],
      [
        "▁alan",
        -8.107248019347331
      ],
      [
        "ık",
        -8.110426842936562
      ],
      [
        "▁ucuz",
        -8.111828723680429
      ],
      [
        "rken",
        -8.112816482273548
      ],
      [
        "▁yazı",
        -8.114531591968094
      ],
      [
        "▁personeller",
        -8.11528733552733
      ],
      [
        "▁oyle",
        -8.116445681095332
      ],
      [
        "▁denver'",
        -8.118469550532867
      ],
      [
        "lerinden",
        -8.120512365506112
      ],
      [
        "sının",
        -8.121589465715587
      ],
      [
        "it",
        -8.122022978084058
      ],
      [
        "▁kalkan",
        -8.12202474849504
      ],
      [
        "▁tamam",
        -8.122489896330517
      ],
      [
        "inden",
        -8.125623728410936
      ],
      [
        "▁bunu",
        -8.127654476154431
      ],
      [
        "kan",
        -8.12795020467406
      ],
      [
        "▁hakkında",
        -8.130452410880853
      ],
      [
        "j",
        -8.131587770152784
      ],
      [
        "▁dus",
        -8.13488673108569
      ],
      [
        "sın",
        -8.136202829446471
      ],
      [
        "maz",
        -8.136835392908718
      ],
      [
        "▁sal",
        -8.137243705880165
      ],
      [
        "▁alın",
        -8.138173716048081
      ],
      [
        "▁ba",
        -8.138636221257986
      ],
      [
        "zi",
        -8.141766196181305
      ],
      [
        "unun",
        -8.143158136076426
      ],
      [
        "▁kullan",
        -8.143658673545524
      ],
      [
        "▁islem",
        -8.14375844589373
      ],
      [
        "▁et",
        -8.144989353124124
      ],
      [
        "0",
        -8.147904418926766
      ],
      [
        "▁bircok",
        -8.147921868109055
      ],
      [
        "▁hak",
        -8.148450580141086
      ],
      [
        "ch",
        -8.151171281615586
      ],
      [
        "▁dustu",
        -8.152093778159127
      ],
      [
        "ederim",
        -8.15221324809567
      ],
      [
        "mez",
        -8.15305840773746
      ],
      [
        "▁ucuslarını",
        -8.154349459804884
      ],
      [
        "daki",
        -8.155598293718452
      ],
      [
        "dıgını",
        -8.155784621426527
      ],
      [
        "▁kabul",
        -8.157711678721146
      ],
      [
        "▁sev",
        -8.158029139224883
      ],
      [
        "deki",
        -8.159076859964689
      ],
      [
        "meye",
        -8.16188508731587
      ],
      [
        "▁hazır",
        -8.162091502948357
      ],
      [
        "▁gel",
        -8.164154998830133
      ],
      [
        "▁dur",
        -8.164177423180146
      ],
      [
        "▁herkes",
        -8.165051157151005
      ],
      [
        "▁deger",
        -8.16609033782478
      ],
      [
        "▁plan",
        -8.167524517506928
      ],
      [
        "▁yukseldi",
        -8.168114121048555
      ],
      [
        "▁dil",
        -8.169227388280103
      ],
      [
        "▁dusuk",
        -8.171452385193218
      ],
      [
        "▁siz",
        -8.171472597102333
      ],
      [
        "▁yuksel",
        -8.171895223921444
      ],
      [
        "▁kimse",
        -8.172505662193704
      ],
      [
        "▁fi",
        -8.17939908118877
      ],
      [
        "▁kal",
        -8.182393636137151
      ],
      [
        "up",
        -8.18595414272243
      ],
      [
        "▁olmak",
        -8.187699411940617
      ],
      [
        "▁art",
        -8.190267965931529
      ],
      [
        "digi",
        -8.19237824073089
      ],
      [
        "▁oz",
        -8.196871432076104
      ],
      [
        "▁mar",
        -8.198666559228705
      ],
      [
        "▁carsamba",
        -8.202082611507311
      ],
      [
        "▁ses",
        -8.20650489288095
      ],
      [
        "▁bag",
        -8.20755496877105
      ],
      [
        "▁dı",
        -8.208605169082992
      ],
      [
        "lay",
        -8.209100992964057
      ],
      [
        "fi",
        -8.209673302129747
      ],
      [
        "isi",
        -8.209954091169944
      ],
      [
        "ıldı",
        -8.210334849647028
      ],
      [
        "co",
        -8.210560425411384
      ],
      [
        "▁dun",
        -8.215083977144152
      ],
      [
        "▁h",
        -8.215618504090951
      ],
      [
        "▁listeley",
        -8.216742624734696
      ],
      [
        "▁burada",
        -8.216970961615592
      ],
      [
        "▁altında",
        -8.219044919717843
      ],
      [
        "▁eden",
        -8.219918579608748
      ],
      [
        "▁etme",
        -8.220059293742509
      ],
      [
        "ver",
        -8.222933219684538
      ],
      [
        "gını",
        -8.22697022636548
      ],
      [
        "▁gorun",
        -8.227454334012851
      ],
      [
        "▁personelleri",
        -8.229072319794753
      ],
      [
        "▁s",
        -8.229577354068997
      ],
      [
        "▁bizim",
        -8.230329990604892
      ],
      [
        "▁dort",
        -8.237679055310032
      ],
      [
        "▁har",
        -8.237941919878782
      ],
      [
        "▁atlanta'",
        -8.23943708849194
      ],
      [
        "w",
        -8.240784420396553
      ],
      [
        "nu",
        -8.24104146261964
      ],
      [
        "▁masa",
        -8.24137173140992
      ],
      [
        "▁getir",
        -8.24272109583021
      ],
      [
        "larından",
        -8.243333193502025
      ],
      [
        "nuz",
        -8.247187733608818
      ],
      [
        "▁olacak",
        -8.249059603662985
      ],
      [
        "▁baltimore'",
        -8.250209916801044
      ],
      [
        "kar",
        -8.251426302897393
      ],
      [
        "▁ed",
        -8.251635330257637
      ],
      [
        "▁araba",
        -8.255289251545612
      ],
      [
        "miyor",
        -8.257302427616365
      ],
      [
        "▁ser",
        -8.259385224224932
      ],
      [
        "medi",
        -8.26010109339865
      ],
      [
        "▁gordu",
        -8.261148017092921
      ],
      [
        "▁gaye",
        -8.262747494996283
      ],
      [
        "▁gec",
        -8.262830750389728
      ],
      [
        "▁onemli",
        -8.26510470828874
      ],
      [
        "▁ana",
        -8.26624370482767
      ],
      [
        "▁uzerine",
        -8.267228579662433
      ],
      [
        "▁atlanta'da",
        -8.267475261176456
      ],
      [
        "mı",
        -8.268145091356264
      ],
      [
        "cak",
        -8.269051692296653
      ],
      [
        "▁abd",
        -8.27040421207888
      ],
      [
        "mesi",
        -8.270732815654801
      ],
      [
        "▁9",
        -8.283057819065203
      ],
      [
        "▁gosterin",
        -8.283487099729314
      ],
      [
        "▁yakın",
        -8.284405581944988
      ],
      [
        "▁alma",
        -8.285884213432574
      ],
      [
        "▁po",
        -8.286069363377795
      ],
      [
        "▁kazan",
        -8.2867136762971
      ],
      [
        "▁basın",
        -8.289250247976845
      ],
      [
        "▁tası",
        -8.293341385825464
      ],
      [
        "ildi",
        -8.295562291229594
      ],
      [
        "ktan",
        -8.296306578206483
      ],
      [
        "▁kıs",
        -8.296391806724309
      ],
      [
        "▁fakat",
        -8.297218397968145
      ],
      [
        "▁ince",
        -8.298494785626865
      ],
      [
        "▁kon",
        -8.30251222578131
      ],
      [
        "▁'",
        -8.303156367041804
      ],
      [
        "min",
        -8.304267293886596
      ],
      [
        "▁sorun",
        -8.305457384183697
      ],
      [
        "▁kır",
        -8.305791800644968
      ],
      [
        "▁birlikte",
        -8.305903975198635
      ],
      [
        "gan",
        -8.310775993972225
      ],
      [
        "▁va",
        -8.310784655046636
      ],
      [
        "mıyor",
        -8.311266660633486
      ],
      [
        "▁sar",
        -8.314795865404989
      ],
      [
        "lugu",
        -8.31978564599294
      ],
      [
        "▁gerek",
        -8.320658842147537
      ],
      [
        "▁d",
        -8.326738188561114
      ],
      [
        "▁si",
        -8.327183307820476
      ],
      [
        "▁zor",
        -8.330614662968443
      ],
      [
        "nun",
        -8.332985921674524
      ],
      [
        "▁tı",
        -8.333238105009821
      ],
      [
        "▁satın",
        -8.333327323308412
      ],
      [
        "▁sık",
        -8.335300690166948
      ],
      [
        "▁dava",
        -8.335588715403091
      ],
      [
        "▁so",
        -8.336752329362733
      ],
      [
        "▁vardi",
        -8.337538235095517
      ],
      [
        "▁yas",
        -8.338385189146656
      ],
      [
        "mustu",
        -8.339017077911524
      ],
      [
        "digini",
        -8.339463691302132
      ],
      [
        "▁calısma",
        -8.339483482307468
      ],
      [
        "to",
        -8.34081155600883
      ],
      [
        "▁boston'",
        -8.343897707621984
      ],
      [
        "▁kısa",
        -8.344133987669627
      ],
      [
        "gini",
        -8.35052574086007
      ],
      [
        "▁temizligi",
        -8.35120854863731
      ],
      [
        "▁cek",
        -8.351277242345386
      ],
      [
        "▁pittsburgh'ta",
        -8.354684710085223
      ],
      [
        "▁haber",
        -8.356200700864933
      ],
      [
        "▁gorev",
        -8.35780164750292
      ],
      [
        "ıyla",
        -8.363842573294383
      ],
      [
        "▁yanı",
        -8.363953787724526
      ],
      [
        "▁kim",
        -8.364075319906396
      ],
      [
        "▁york",
        -8.364853866129952
      ],
      [
        "▁ulke",
        -8.368048501200835
      ],
      [
        "▁listele",
        -8.368642610846479
      ],
      [
        "▁tatil",
        -8.36917771828396
      ],
      [
        "mu",
        -8.370792957830945
      ],
      [
        "▁us",
        -8.37267753595075
      ],
      [
        "▁ro",
        -8.372895051719002
      ],
      [
        "▁tercih",
        -8.37295398651155
      ],
      [
        "▁kor",
        -8.374848272874353
      ],
      [
        "▁tekrar",
        -8.377135619778347
      ],
      [
        "siniz",
        -8.377613396865401
      ],
      [
        "▁inan",
        -8.37971938935178
      ],
      [
        "▁gir",
        -8.380486283087704
      ],
      [
        "▁ozellikle",
        -8.382452232452167
      ],
      [
        "▁gidis",
        -8.38401602974249
      ],
      [
        "▁ken",
        -8.384272678213597
      ],
      [
        "▁bos",
        -8.385058944494293
      ],
      [
        "x",
        -8.385451377859074
      ],
      [
        "▁geliyor",
        -8.38716581444033
      ],
      [
        "las",
        -8.387270205346137
      ],
      [
        "▁aileler",
        -8.387697242685437
      ],
      [
        "▁gitti",
        -8.388321566524171
      ],
      [
        "▁sıra",
        -8.389588202860036
      ],
      [
        "▁insanlar",
        -8.390170155691823
      ],
      [
        "▁bekle",
        -8.390367882932486
      ],
      [
        "▁konusunda",
        -8.39149784978385
      ],
      [
        "▁oku",
        -8.392680209654586
      ],
      [
        "▁hala",
        -8.393961175760763
      ],
      [
        "agı",
        -8.39511509747853
      ],
      [
        "▁yonelik",
        -8.39847993930055
      ],
      [
        "▁yuru",
        -8.400202627085442
      ],
      [
        "sal",
        -8.400207508187105
      ],
      [
        "▁ag",
        -8.400988119507051
      ],
      [
        "lastı",
        -8.402539026638244
      ],
      [
        "niz",
        -8.403020607185418
      ],
      [
        "▁gecti",
        -8.404488281205296
      ],
      [
        "▁philadelphia'",
        -8.404770991264336
      ],
      [
        "▁teklif",
        -8.406108827452318
      ],
      [
        "▁genis",
        -8.406338442863055
      ],
      [
        "▁animasyon",
        -8.406639263710494
      ],
      [
        "▁salı",
        -8.409044054201864
      ],
      [
        "maktadır",
        -8.410935282984974
      ],
      [
        "ız",
        -8.411134905041335
      ],
      [
        "▁tahmin",
        -8.411288506799167
      ],
      [
        "▁ho",
        -8.412105018721107
      ],
      [
        "▁agır",
        -8.412887686881035
      ],
      [
        "▁don",
        -8.41381358413398
      ],
      [
        "▁sene",
        -8.41406205749983
      ],
      [
        "▁bulun",
        -8.414485689010347
      ],
      [
        "▁kuru",
        -8.416640234931833
      ],
      [
        "▁devlet",
        -8.416741220918077
      ],
      [
        "▁oyna",
        -8.416986637417164
      ],
      [
        "▁kazanc",
        -8.4189522873822
      ],
      [
        "▁rahat",
        -8.418970529725733
      ],
      [
        "uk",
        -8.41947263895775
      ],
      [
        "▁cuma",
        -8.419908145463525
      ],
      [
        "▁yorum",
        -8.420962929566308
      ],
      [
        "▁ozel",
        -8.421890977022736
      ],
      [
        "▁sehir",
        -8.42392635525147
      ],
      [
        "iyordu",
        -8.424662393714984
      ],
      [
        "lendi",
        -8.425701169253555
      ],
      [
        "bo",
        -8.425828341803527
      ],
      [
        "▁cogu",
        -8.42589431709178
      ],
      [
        "▁boston",
        -8.426465959582305
      ],
      [
        "▁pay",
        -8.426859739938482
      ],
      [
        "▁beyaz",
        -8.428504334825224
      ],
      [
        "▁bunlar",
        -8.42918998930342
      ],
      [
        "▁alım",
        -8.430683636568466
      ],
      [
        "ret",
        -8.430842337554756
      ],
      [
        "▁olduk",
        -8.432111202543249
      ],
      [
        "▁onları",
        -8.432205963723554
      ],
      [
        "▁gercek",
        -8.432344050729176
      ],
      [
        "lanma",
        -8.43300799829742
      ],
      [
        "▁yana",
        -8.434608951951883
      ],
      [
        "▁or",
        -8.434680618783766
      ],
      [
        "▁baskan",
        -8.43576453706999
      ],
      [
        "▁cam",
        -8.436511959243315
      ],
      [
        "▁pazartesi",
        -8.437083792628776
      ],
      [
        "▁anda",
        -8.437961880568238
      ],
      [
        "▁etmek",
        -8.438578760583416
      ],
      [
        "imi",
        -8.439399392430488
      ],
      [
        "▁cocuklar",
        -8.44080068753054
      ],
      [
        "▁pe",
        -8.443432766612645
      ],
      [
        "ılmıs",
        -8.445258816641143
      ],
      [
        "ey",
        -8.44761875550986
      ],
      [
        "▁il",
        -8.451812533135945
      ],
      [
        "▁dallas'",
        -8.452811510542947
      ],
      [
        "▁12",
        -8.45391718109005
      ],
      [
        "▁car",
        -8.455942518245408
      ],
      [
        "ıcı",
        -8.456776165054494
      ],
      [
        "▁fe",
        -8.45688861503357
      ],
      [
        "dum",
        -8.458495495571407
      ],
      [
        "▁kredi",
        -8.459398344739014
      ],
      [
        "▁borc",
        -8.459778583325336
      ],
      [
        "yorum",
        -8.460476193221524
      ],
      [
        "▁kol",
        -8.46142243528763
      ],
      [
        "▁altın",
        -8.462966699809336
      ],
      [
        "▁arkadas",
        -8.463998684655223
      ],
      [
        "▁elinde",
        -8.464892234327678
      ],
      [
        "▁yapılan",
        -8.465011822027265
      ],
      [
        "▁banka",
        -8.46636724078098
      ],
      [
        "▁ga",
        -8.4669372295096
      ],
      [
        "▁kay",
        -8.469742713713979
      ],
      [
        "ton",
        -8.46975336530086
      ],
      [
        "▁cocuklu",
        -8.47013666742896
      ],
      [
        "▁orada",
        -8.4742172747036
      ],
      [
        "▁gor",
        -8.474728739206189
      ],
      [
        "▁vi",
        -8.476507702429519
      ],
      [
        "▁yavas",
        -8.477633155111517
      ],
      [
        "▁derece",
        -8.477661276928622
      ],
      [
        "▁dik",
        -8.480306663629843
      ],
      [
        "sından",
        -8.484002299542173
      ],
      [
        "▁ceki",
        -8.486199043429357
      ],
      [
        "▁mevcut",
        -8.486861081853585
      ],
      [
        "rek",
        -8.487267289474115
      ],
      [
        "▁ucak",
        -8.487912740354297
      ],
      [
        "▁yapmak",
        -8.488442001548503
      ],
      [
        "▁y",
        -8.490812041560712
      ],
      [
        "▁yetersiz",
        -8.492512549247541
      ],
      [
        "▁sonunda",
        -8.492966340023525
      ],
      [
        "uyordu",
        -8.493703598349931
      ],
      [
        "lerdi",
        -8.494829916791325
      ],
      [
        "▁man",
        -8.49555643814693
      ],
      [
        "▁boyun",
        -8.496445453668759
      ],
      [
        "▁kas",
        -8.496895821014306
      ],
      [
        "dım",
        -8.498094505434638
      ],
      [
        "▁bar",
        -8.50026177843025
      ],
      [
        "▁destek",
        -8.500881044652726
      ],
      [
        "▁soyluyor",
        -8.501017294908149
      ],
      [
        "hane",
        -8.50157470601088
      ],
      [
        "▁belki",
        -8.502559894961799
      ],
      [
        "▁olsun",
        -8.502809554448405
      ],
      [
        "▁bırak",
        -8.502961694535928
      ],
      [
        "▁din",
        -8.503189559161877
      ],
      [
        "ledi",
        -8.506509408809553
      ],
      [
        "▁duzen",
        -8.50665273780616
      ],
      [
        "▁bil",
        -8.50866063940958
      ],
      [
        "▁pittsburgh'",
        -8.508716041809931
      ],
      [
        "▁dallas'ta",
        -8.51001656293981
      ],
      [
        "▁guc",
        -8.511129670677828
      ],
      [
        "▁konusma",
        -8.512910423798864
      ],
      [
        "▁guler",
        -8.515469583134532
      ],
      [
        "▁havayolları",
        -8.516752705419936
      ],
      [
        "▁kez",
        -8.516817032136327
      ],
      [
        "▁baba",
        -8.517084434237589
      ],
      [
        "ah",
        -8.517603633060904
      ],
      [
        "▁kes",
        -8.522284848717552
      ],
      [
        "▁top",
        -8.523567069328115
      ],
      [
        "▁kul",
        -8.523951388763695
      ],
      [
        "gin",
        -8.524067403413325
      ],
      [
        "▁cift",
        -8.524730873872894
      ],
      [
        "▁ikinci",
        -8.524968369958778
      ],
      [
        "▁anlat",
        -8.52606138568562
      ],
      [
        "do",
        -8.526883194766175
      ],
      [
        "▁tarih",
        -8.527296502353957
      ],
      [
        "▁ad",
        -8.527439124029545
      ],
      [
        "▁almak",
        -8.529681668509937
      ],
      [
        "unku",
        -8.53006087282698
      ],
      [
        "gun",
        -8.530582186737568
      ],
      [
        "▁veriyoru",
        -8.531366087952875
      ],
      [
        "00",
        -8.53212387810848
      ],
      [
        "iyet",
        -8.532653783497839
      ],
      [
        "▁isi",
        -8.532930640126814
      ],
      [
        "▁baskanı",
        -8.532932624121795
      ],
      [
        "▁tak",
        -8.533634727809696
      ],
      [
        "▁lo",
        -8.533946348507339
      ],
      [
        "ından",
        -8.534050183025204
      ],
      [
        "▁yatırım",
        -8.534834724102662
      ],
      [
        "▁altı",
        -8.534869581923111
      ],
      [
        "▁washington",
        -8.535358238331932
      ],
      [
        "▁ilgi",
        -8.53606298966691
      ],
      [
        "▁adet",
        -8.53617224364348
      ],
      [
        "▁ekonomi",
        -8.537703109917977
      ],
      [
        "rak",
        -8.540090810219152
      ],
      [
        "▁kolay",
        -8.540542767983954
      ],
      [
        "liydi",
        -8.541362121395263
      ],
      [
        "lenme",
        -8.54195728794805
      ],
      [
        "▁dogu",
        -8.542070835362356
      ],
      [
        "▁menkul",
        -8.54415497936774
      ],
      [
        "▁duygu",
        -8.544159115206295
      ],
      [
        "▁verme",
        -8.546551941404733
      ],
      [
        "go",
        -8.546612869326886
      ],
      [
        "mektedir",
        -8.547750587783804
      ],
      [
        "▁denver",
        -8.547868562543965
      ],
      [
        "▁anlasma",
        -8.549494295245434
      ],
      [
        "imiz",
        -8.549996383658957
      ],
      [
        "▁ti",
        -8.550851353162086
      ],
      [
        "▁olması",
        -8.551450844022103
      ],
      [
        "ciler",
        -8.55225277545976
      ],
      [
        "▁oyun",
        -8.553143760626066
      ],
      [
        "▁yuzde",
        -8.55435627017726
      ],
      [
        "▁istemiyoru",
        -8.554518604376954
      ],
      [
        "▁yıllık",
        -8.554560582562942
      ],
      [
        "ko",
        -8.555798397001222
      ],
      [
        "▁cık",
        -8.556290274717414
      ],
      [
        "der",
        -8.557206358516204
      ],
      [
        "▁ogren",
        -8.557515474374082
      ],
      [
        "▁ayrı",
        -8.558433103045129
      ],
      [
        "▁faiz",
        -8.559033059046428
      ],
      [
        "if",
        -8.559694448431626
      ],
      [
        "▁yolu",
        -8.559892405657827
      ],
      [
        "▁etki",
        -8.560033371811953
      ],
      [
        "▁kızı",
        -8.562456893569884
      ],
      [
        "▁satıs",
        -8.563448516199209
      ],
      [
        "ttı",
        -8.563901694971324
      ],
      [
        "▁tut",
        -8.564523220801496
      ],
      [
        "kten",
        -8.567759268309178
      ],
      [
        "lanan",
        -8.568064393300794
      ],
      [
        "ucu",
        -8.56892485304596
      ],
      [
        "▁kalmadi",
        -8.570072852869611
      ],
      [
        "▁yara",
        -8.57249637550564
      ],
      [
        "▁vergi",
        -8.576246593401038
      ],
      [
        ".6",
        -8.577537289564528
      ],
      [
        "▁ge",
        -8.579563230971912
      ],
      [
        "ince",
        -8.579779021769232
      ],
      [
        "dugu",
        -8.580274441703835
      ],
      [
        "▁yerde",
        -8.582154162286301
      ],
      [
        "▁eve",
        -8.582826761019087
      ],
      [
        "likle",
        -8.5834304860692
      ],
      [
        "▁hos",
        -8.584111802800964
      ],
      [
        "▁vur",
        -8.584663510111628
      ],
      [
        "van",
        -8.58738117362278
      ],
      [
        "▁hale",
        -8.587716032897928
      ],
      [
        "▁ihtiyacım",
        -8.588076173184863
      ],
      [
        "▁ustun",
        -8.588288166298351
      ],
      [
        "▁sol",
        -8.588770950148229
      ],
      [
        "▁kos",
        -8.588903313290437
      ],
      [
        "ilmis",
        -8.589362222994207
      ],
      [
        "▁uzere",
        -8.58939004608483
      ],
      [
        "▁dikkat",
        -8.589403829532692
      ],
      [
        "▁havuzu",
        -8.58952957673473
      ],
      [
        "amaz",
        -8.589793492713529
      ],
      [
        "▁basında",
        -8.589987483745315
      ],
      [
        "'te",
        -8.590858081804118
      ],
      [
        ".8",
        -8.591387606207796
      ],
      [
        "men",
        -8.591653160573022
      ],
      [
        "▁pi",
        -8.5928923817211
      ],
      [
        "lak",
        -8.592939545289843
      ],
      [
        "▁arası",
        -8.593075830198257
      ],
      [
        "dar",
        -8.594094135333771
      ],
      [
        "hangi",
        -8.595092378164455
      ],
      [
        "▁kahve",
        -8.595217524532817
      ],
      [
        "▁guven",
        -8.596692429740626
      ],
      [
        "▁parca",
        -8.59884458097821
      ],
      [
        "eri",
        -8.599709891305814
      ],
      [
        "▁dolayi",
        -8.599747937368615
      ],
      [
        "▁bolge",
        -8.60024171842096
      ],
      [
        "▁beri",
        -8.601451814741408
      ],
      [
        "▁neler",
        -8.602032637948934
      ],
      [
        "▁giy",
        -8.602296966362172
      ],
      [
        "▁yedi",
        -8.602665977362829
      ],
      [
        "gim",
        -8.603593477256439
      ],
      [
        "▁suru",
        -8.604191606867431
      ],
      [
        "▁istiyor",
        -8.60522417407842
      ],
      [
        "layan",
        -8.605417962117897
      ],
      [
        "▁iliski",
        -8.605888341818378
      ],
      [
        "▁kus",
        -8.606667656195768
      ],
      [
        "▁gozleri",
        -8.608900542358313
      ],
      [
        "acagını",
        -8.609706743839523
      ],
      [
        "▁kalite",
        -8.609878222296487
      ],
      [
        "▁kitap",
        -8.610225788584247
      ],
      [
        "una",
        -8.61057643736698
      ],
      [
        "▁sayı",
        -8.611520318648243
      ],
      [
        "ist",
        -8.612075155261861
      ],
      [
        "▁hal",
        -8.61216375107964
      ],
      [
        "▁kapandı",
        -8.612391294710651
      ],
      [
        "▁yarı",
        -8.614080316908344
      ],
      [
        "▁bit",
        -8.61503623156262
      ],
      [
        "yim",
        -8.61550263913075
      ],
      [
        "▁uzak",
        -8.619701244474204
      ],
      [
        "▁yaka",
        -8.62001975906053
      ],
      [
        "▁seyler",
        -8.620671133822137
      ],
      [
        "▁mal",
        -8.620818685235715
      ],
      [
        "ter",
        -8.621057619544153
      ],
      [
        "▁temizlik",
        -8.622113783590898
      ],
      [
        "ley",
        -8.623620792773732
      ],
      [
        "▁uza",
        -8.624911068421358
      ],
      [
        "▁buyu",
        -8.629192665250002
      ],
      [
        "▁getiri",
        -8.629340755722671
      ],
      [
        "▁ust",
        -8.629684583151153
      ],
      [
        "mız",
        -8.630243600533657
      ],
      [
        "▁gider",
        -8.631000800246449
      ],
      [
        "▁ifade",
        -8.631389753441576
      ],
      [
        "▁kafa",
        -8.63147829911412
      ],
      [
        "▁doku",
        -8.634036385579364
      ],
      [
        "▁sur",
        -8.634143217205631
      ],
      [
        "▁20",
        -8.635735592529961
      ],
      [
        "▁ala",
        -8.636469351427252
      ],
      [
        "▁ab",
        -8.636926247698263
      ],
      [
        "▁cal",
        -8.637100001553073
      ],
      [
        "▁fiyatları",
        -8.638119420874027
      ],
      [
        "▁sabahı",
        -8.639028214916848
      ],
      [
        "▁soru",
        -8.639876274272037
      ],
      [
        "▁duvar",
        -8.642535858345335
      ],
      [
        "▁em",
        -8.643369731992646
      ],
      [
        "▁oluyor",
        -8.643506548990965
      ],
      [
        "▁gid",
        -8.644247910602314
      ],
      [
        "liyor",
        -8.644453202758186
      ],
      [
        "▁belir",
        -8.645053943648925
      ],
      [
        "▁varan",
        -8.645831705171377
      ],
      [
        "▁francisco",
        -8.646385884135402
      ],
      [
        "ydu",
        -8.646760237218311
      ],
      [
        "▁hatta",
        -8.648209485563886
      ],
      [
        "▁sarı",
        -8.648856987115646
      ],
      [
        "▁otelin",
        -8.649045161581212
      ],
      [
        "▁yapma",
        -8.650235752185221
      ],
      [
        "▁kalma",
        -8.650334915599386
      ],
      [
        "▁sınıf",
        -8.650473575033937
      ],
      [
        "▁yardım",
        -8.651453748542167
      ],
      [
        "▁olsa",
        -8.652562841616298
      ],
      [
        "▁arka",
        -8.653865991442023
      ],
      [
        "▁hi",
        -8.654339865048005
      ],
      [
        "luyor",
        -8.65439635555931
      ],
      [
        "▁senedi",
        -8.654472599661199
      ],
      [
        "▁mah",
        -8.654864111309095
      ],
      [
        "▁yerin",
        -8.655089142025787
      ],
      [
        "▁sun",
        -8.656544794819665
      ],
      [
        "ligini",
        -8.660701138345033
      ],
      [
        ".9",
        -8.661346701166202
      ],
      [
        "▁baz",
        -8.66171144765704
      ],
      [
        "▁ister",
        -8.662208330822903
      ],
      [
        "▁hizmeti",
        -8.6630508070381
      ],
      [
        "▁nokta",
        -8.664104119074743
      ],
      [
        "▁koca",
        -8.664387209596448
      ],
      [
        "▁hayat",
        -8.666263748152367
      ],
      [
        "alım",
        -8.66636998877527
      ],
      [
        "lıgını",
        -8.66669135950719
      ],
      [
        "▁bilgisayar",
        -8.66964518453816
      ],
      [
        "▁am",
        -8.669824056649132
      ],
      [
        "dık",
        -8.670642290229132
      ],
      [
        "▁azal",
        -8.672121012827539
      ],
      [
        "▁havuz",
        -8.673982032216799
      ],
      [
        "▁yuzu",
        -8.674090863736328
      ],
      [
        "▁tahvil",
        -8.674668746949138
      ],
      [
        "kları",
        -8.675815293138154
      ],
      [
        "yordu",
        -8.675944819963398
      ],
      [
        "▁gidiyor",
        -8.67655142310282
      ],
      [
        "cılar",
        -8.676947703655355
      ],
      [
        "han",
        -8.677880653848987
      ],
      [
        "▁olmus",
        -8.678031744622839
      ],
      [
        "▁yere",
        -8.678934268645044
      ],
      [
        "▁ucreti",
        -8.679359414415075
      ],
      [
        "▁persembe",
        -8.680849668120889
      ],
      [
        "yon",
        -8.681368043830428
      ],
      [
        "▁gecmis",
        -8.683184059332746
      ],
      [
        "▁ortalama",
        -8.683239636500616
      ],
      [
        "▁hukumet",
        -8.684898300383285
      ],
      [
        "▁hepsi",
        -8.685511076180386
      ],
      [
        "▁ustunde",
        -8.685934623671164
      ],
      [
        "▁hafif",
        -8.68650133418387
      ],
      [
        "ck",
        -8.686592788390048
      ],
      [
        "▁av",
        -8.686676019605528
      ],
      [
        "▁pat",
        -8.689486339215344
      ],
      [
        "▁gelecek",
        -8.690695706473235
      ],
      [
        "son",
        -8.692268204876182
      ],
      [
        "leme",
        -8.694259918888141
      ],
      [
        "▁dusus",
        -8.694413138314006
      ],
      [
        "muz",
        -8.696286403058664
      ],
      [
        "uldu",
        -8.697349714257133
      ],
      [
        "▁yonetim",
        -8.698328764404756
      ],
      [
        "▁konum",
        -8.699863546375587
      ],
      [
        "▁farklı",
        -8.700438372548131
      ],
      [
        "▁kaldı",
        -8.701253971040224
      ],
      [
        "▁sozcu",
        -8.701489995458596
      ],
      [
        "▁okul",
        -8.702495035852506
      ],
      [
        "▁telefon",
        -8.704004645148824
      ],
      [
        "▁merkezi",
        -8.70428942112996
      ],
      [
        "mda",
        -8.708007625181825
      ],
      [
        "▁philadelphia'da",
        -8.708591077944948
      ],
      [
        "▁sak",
        -8.709256606917911
      ],
      [
        "bil",
        -8.709397262149736
      ],
      [
        "▁gu",
        -8.710174637298554
      ],
      [
        "gmen",
        -8.710817374206979
      ],
      [
        "▁gunes",
        -8.71135910957034
      ],
      [
        "▁bilme",
        -8.713532928575063
      ],
      [
        "ber",
        -8.71405710781191
      ],
      [
        "▁dis",
        -8.714153596168462
      ],
      [
        "▁par",
        -8.714806090557826
      ],
      [
        "▁kaldır",
        -8.716857955494866
      ],
      [
        "▁edil",
        -8.717899661970783
      ],
      [
        "ınca",
        -8.718768886162774
      ],
      [
        "▁sır",
        -8.718904093000567
      ],
      [
        "▁sonuc",
        -8.719691108964733
      ],
      [
        "▁gazete",
        -8.72067252722687
      ],
      [
        "▁elde",
        -8.721453465553981
      ],
      [
        "▁durum",
        -8.72152545962266
      ],
      [
        "▁bur",
        -8.721565288254038
      ],
      [
        "▁kendini",
        -8.723483066490415
      ],
      [
        ".1",
        -8.725360719691887
      ],
      [
        "▁ates",
        -8.726218105500436
      ],
      [
        "madı",
        -8.726221659434522
      ],
      [
        "▁guleryuzlu",
        -8.726783692388107
      ],
      [
        "▁bahce",
        -8.7280718219817
      ],
      [
        "▁w",
        -8.728399399242207
      ],
      [
        "ilen",
        -8.728804698221658
      ],
      [
        "mıstır",
        -8.730614293558684
      ],
      [
        "iyorum",
        -8.730892714867498
      ],
      [
        "▁yapıyor",
        -8.731161201883317
      ],
      [
        "▁ayında",
        -8.732009551648634
      ],
      [
        "▁kav",
        -8.733836358623293
      ],
      [
        "▁korku",
        -8.734557436151468
      ],
      [
        "▁mo",
        -8.73505439482742
      ],
      [
        "▁dag",
        -8.735877283707511
      ],
      [
        "ay",
        -8.738036551870728
      ],
      [
        "▁kullanıl",
        -8.740598782048732
      ],
      [
        "▁gozu",
        -8.741746889461428
      ],
      [
        "▁sirketin",
        -8.742065891206918
      ],
      [
        "▁yarat",
        -8.742297498751594
      ],
      [
        "▁aklı",
        -8.742982089009569
      ],
      [
        "▁oran",
        -8.743364106587489
      ],
      [
        "▁yayın",
        -8.743462762226471
      ],
      [
        "▁demir",
        -8.745276353473873
      ],
      [
        "▁doları",
        -8.747078447828223
      ],
      [
        "▁gecir",
        -8.749207422537104
      ],
      [
        "▁buna",
        -8.749317945627402
      ],
      [
        "sen",
        -8.74962302623343
      ],
      [
        "▁dayan",
        -8.74981416114727
      ],
      [
        "as",
        -8.750457781898419
      ],
      [
        "▁iceri",
        -8.750529945345924
      ],
      [
        "oglu",
        -8.750818900079746
      ],
      [
        "▁mahkeme",
        -8.750852001188946
      ],
      [
        "▁kotuy",
        -8.750958783080074
      ],
      [
        "▁annem",
        -8.75097337739523
      ],
      [
        "▁yabancı",
        -8.751473385692474
      ],
      [
        "▁tesekkur",
        -8.751753233632131
      ],
      [
        "▁uyu",
        -8.751941274627875
      ],
      [
        "les",
        -8.752808052768085
      ],
      [
        "▁ticaret",
        -8.753713788768518
      ],
      [
        "▁pis",
        -8.754174135238879
      ],
      [
        "▁muh",
        -8.754639846405194
      ],
      [
        "sunuz",
        -8.754796283762104
      ],
      [
        "▁servis",
        -8.756072434730065
      ],
      [
        "▁cevre",
        -8.75690948636931
      ],
      [
        "▁bunları",
        -8.757730131917864
      ],
      [
        "▁dolara",
        -8.758466434366998
      ],
      [
        "▁dolu",
        -8.761165384561924
      ],
      [
        "▁yapan",
        -8.763864907163283
      ],
      [
        "▁mer",
        -8.765405506041832
      ],
      [
        "▁dallas",
        -8.766489869266131
      ],
      [
        "▁ici",
        -8.767428441962174
      ],
      [
        "▁yazar",
        -8.767798012345816
      ],
      [
        "▁kıymetler",
        -8.769184013943041
      ],
      [
        "▁calısan",
        -8.769868595746045
      ],
      [
        "▁onunde",
        -8.771087544345388
      ],
      [
        "▁parti",
        -8.771501762201378
      ],
      [
        "cık",
        -8.772546250982629
      ],
      [
        "yıp",
        -8.772816126426413
      ],
      [
        "muyor",
        -8.774249113602696
      ],
      [
        "mistir",
        -8.775305472127856
      ],
      [
        "▁ihtiyac",
        -8.777027756892512
      ],
      [
        "\"",
        -8.779169055959152
      ],
      [
        "▁vardır",
        -8.781076833492671
      ],
      [
        "ed",
        -8.781815509607213
      ],
      [
        "ger",
        -8.784202514730115
      ],
      [
        "▁sav",
        -8.78454598159884
      ],
      [
        "▁gunluk",
        -8.786102313354323
      ],
      [
        "ici",
        -8.786549260112078
      ],
      [
        "▁performans",
        -8.787776076933941
      ],
      [
        "▁onceki",
        -8.789182905946479
      ],
      [
        "▁belirt",
        -8.789586104833472
      ],
      [
        "▁program",
        -8.789604549049109
      ],
      [
        "▁kesi",
        -8.790168562718716
      ],
      [
        "▁30",
        -8.790570671328577
      ],
      [
        "▁merkez",
        -8.790970121989165
      ],
      [
        "meyi",
        -8.791868300027838
      ],
      [
        "▁15",
        -8.792096040866218
      ],
      [
        "▁gitme",
        -8.793653996331384
      ],
      [
        "nız",
        -8.794246920845513
      ],
      [
        "▁boy",
        -8.794932942658427
      ],
      [
        "▁kaynak",
        -8.79547419993155
      ],
      [
        "▁birinci",
        -8.795490174644804
      ],
      [
        "▁girdi",
        -8.796148035420181
      ],
      [
        "▁calıs",
        -8.796182360653066
      ],
      [
        "▁vadeli",
        -8.796389912299924
      ],
      [
        "▁edilen",
        -8.79644215172453
      ],
      [
        "▁cesitli",
        -8.798677705030915
      ],
      [
        "'ta",
        -8.799693263694582
      ],
      [
        "▁actı",
        -8.800613767762052
      ],
      [
        "▁sanat",
        -8.80083948265995
      ],
      [
        "ing",
        -8.803867907486389
      ],
      [
        "▁kurulu",
        -8.80472214996502
      ],
      [
        "▁alaka",
        -8.806955081398083
      ],
      [
        "▁yeterli",
        -8.808269861736363
      ],
      [
        "▁turlu",
        -8.812850430109274
      ],
      [
        "▁gercekte",
        -8.81513244616071
      ],
      [
        "'i",
        -8.816157381555184
      ],
      [
        "▁say",
        -8.816560356452193
      ],
      [
        "▁batı",
        -8.817821726516158
      ],
      [
        "'nun",
        -8.818613575578908
      ],
      [
        "&",
        -8.819624447354826
      ],
      [
        "▁begendi",
        -8.819659050762617
      ],
      [
        "▁yanında",
        -8.820945865420292
      ],
      [
        "▁arada",
        -8.821679284245503
      ],
      [
        "▁lezzetli",
        -8.821745858598451
      ],
      [
        "▁bizi",
        -8.824180182018381
      ],
      [
        "lıgın",
        -8.825163561726068
      ],
      [
        "▁suyu",
        -8.827510924339155
      ],
      [
        "ecegi",
        -8.827661271086807
      ],
      [
        "▁yasında",
        -8.829145022624427
      ],
      [
        "▁yat",
        -8.829592706645574
      ],
      [
        "▁ham",
        -8.829800468821592
      ],
      [
        "▁baltimore'de",
        -8.83068388060694
      ],
      [
        "▁gelme",
        -8.83182032898957
      ],
      [
        "▁ugra",
        -8.832290520619967
      ],
      [
        "▁bilim",
        -8.832620780047913
      ],
      [
        "▁american",
        -8.832655197082541
      ],
      [
        "▁bel",
        -8.834106043624079
      ],
      [
        "▁degis",
        -8.834244124804888
      ],
      [
        "▁adım",
        -8.834283122819599
      ],
      [
        "▁uye",
        -8.835692575652555
      ],
      [
        "gar",
        -8.83760036435472
      ],
      [
        "sunu",
        -8.838844475291353
      ],
      [
        "ımı",
        -8.840127538766225
      ],
      [
        "▁derin",
        -8.84043993594343
      ],
      [
        "▁dondu",
        -8.84333395122858
      ],
      [
        "▁ah",
        -8.843647173011739
      ],
      [
        "sıyla",
        -8.843659241982692
      ],
      [
        "amadı",
        -8.845802092235438
      ],
      [
        "▁icer",
        -8.845862319152548
      ],
      [
        "▁hisseleri",
        -8.846336498413994
      ],
      [
        "▁hasta",
        -8.848965110876058
      ],
      [
        "▁arttı",
        -8.849979120725795
      ],
      [
        "▁tesisin",
        -8.850087538775743
      ],
      [
        "▁guclu",
        -8.850549356855044
      ],
      [
        "acagı",
        -8.851399284854534
      ],
      [
        "▁kere",
        -8.852141686827498
      ],
      [
        "▁baglı",
        -8.85424884725605
      ],
      [
        "▁cıkma",
        -8.858042613616533
      ],
      [
        "▁olay",
        -8.858865790204824
      ],
      [
        "▁cumartesi",
        -8.859234775863289
      ],
      [
        "▁iddia",
        -8.859235181724461
      ],
      [
        "▁yasam",
        -8.859281563842321
      ],
      [
        "▁mus",
        -8.86008468671583
      ],
      [
        "▁sac",
        -8.861693534812227
      ],
      [
        "madan",
        -8.86170395322053
      ],
      [
        "▁adı",
        -8.862110257684012
      ],
      [
        "▁sus",
        -8.862617628298947
      ],
      [
        "▁kose",
        -8.865014366692662
      ],
      [
        "▁sok",
        -8.865735900937281
      ],
      [
        "▁faaliyet",
        -8.865991589401911
      ],
      [
        "▁dakika",
        -8.866004336206206
      ],
      [
        "▁kendisi",
        -8.867754359153153
      ],
      [
        "▁buldu",
        -8.868530779995766
      ],
      [
        "▁dal",
        -8.868876846266435
      ],
      [
        "▁anlam",
        -8.869849060196788
      ],
      [
        "▁kucuktu",
        -8.870074760010812
      ],
      [
        "▁eger",
        -8.870113929400578
      ],
      [
        "▁las",
        -8.870391535696083
      ],
      [
        "▁uret",
        -8.870902735859998
      ],
      [
        "▁gorul",
        -8.87108925376089
      ],
      [
        "▁sakin",
        -8.871517778319554
      ],
      [
        "▁karayolu",
        -8.87279421876347
      ],
      [
        "▁borsa",
        -8.873506188427346
      ],
      [
        "▁g",
        -8.876645786313537
      ],
      [
        "▁japon",
        -8.878477369001534
      ],
      [
        "▁bası",
        -8.879078108295314
      ],
      [
        "▁onumuzde",
        -8.879782107949229
      ],
      [
        "▁aktarmasız",
        -8.879862362919875
      ],
      [
        "▁benzer",
        -8.879907486124086
      ],
      [
        "▁yag",
        -8.880771206510651
      ],
      [
        "▁dusun",
        -8.881221654561404
      ],
      [
        "makta",
        -8.881268572330354
      ],
      [
        "▁seyi",
        -8.881353693568986
      ],
      [
        "▁kesinlik",
        -8.881380482238779
      ],
      [
        "▁sap",
        -8.88147576313245
      ],
      [
        "▁hatır",
        -8.881520938870342
      ],
      [
        "bilecegi",
        -8.884091707094196
      ],
      [
        "▁temel",
        -8.88500028562467
      ],
      [
        "▁j",
        -8.885514869048784
      ],
      [
        "ndaki",
        -8.885676885710666
      ],
      [
        "▁hayal",
        -8.885742075460481
      ],
      [
        "▁cevir",
        -8.886559824521571
      ],
      [
        "▁ulas",
        -8.88805790737381
      ],
      [
        "▁mac",
        -8.888650478512329
      ],
      [
        "▁halde",
        -8.888851203496774
      ],
      [
        "os",
        -8.89059913637576
      ],
      [
        "▁konusu",
        -8.89080901427987
      ],
      [
        "▁ata",
        -8.890815395448701
      ],
      [
        "▁izle",
        -8.893064811886994
      ],
      [
        "▁veril",
        -8.893509419328673
      ],
      [
        "▁11",
        -8.89452483201383
      ],
      [
        "▁erkek",
        -8.896637651415553
      ],
      [
        "▁evin",
        -8.897653079960104
      ],
      [
        "▁koru",
        -8.899033054329367
      ],
      [
        "▁calısıyor",
        -8.899074353498609
      ],
      [
        "gen",
        -8.899282751628387
      ],
      [
        "▁sigorta",
        -8.900477527612283
      ],
      [
        "▁zengin",
        -8.900479309220026
      ],
      [
        "▁gemi",
        -8.902530311229809
      ],
      [
        "▁politika",
        -8.903596109175057
      ],
      [
        "▁babam",
        -8.904054160311142
      ],
      [
        "▁secim",
        -8.904795446672988
      ],
      [
        "sınız",
        -8.905709392216924
      ],
      [
        "▁fon",
        -8.907008000218397
      ],
      [
        "▁musteri",
        -8.90740701672624
      ],
      [
        "▁reklam",
        -8.907555326200455
      ],
      [
        "▁yani",
        -8.907902728785349
      ],
      [
        "▁veriyor",
        -8.908945870297796
      ],
      [
        "▁sat",
        -8.909652269928952
      ],
      [
        "▁sıkı",
        -8.911852136297863
      ],
      [
        "▁tane",
        -8.91288563262895
      ],
      [
        "▁ucmak",
        -8.913232398301444
      ],
      [
        "masını",
        -8.913355354601787
      ],
      [
        "tti",
        -8.913890122590022
      ],
      [
        "▁bol",
        -8.914301416305157
      ],
      [
        "▁amac",
        -8.914448043038629
      ],
      [
        "▁defa",
        -8.916156876190446
      ],
      [
        "▁hanım",
        -8.916509004431482
      ],
      [
        "lanmıs",
        -8.917187644268115
      ],
      [
        "▁verdigi",
        -8.918125004199867
      ],
      [
        "▁seni",
        -8.918581666745071
      ],
      [
        "▁avrupa",
        -8.92130017776281
      ],
      [
        "▁isletme",
        -8.921700108695827
      ],
      [
        "▁eylul",
        -8.92175499296814
      ],
      [
        "▁surekli",
        -8.921904023445219
      ],
      [
        "▁gaz",
        -8.92212104150358
      ],
      [
        "ustu",
        -8.92296528141146
      ],
      [
        "▁odeme",
        -8.923146430786344
      ],
      [
        "tar",
        -8.924208256685407
      ],
      [
        "▁has",
        -8.92489512427754
      ],
      [
        "▁kaba",
        -8.926460115975862
      ],
      [
        "▁ortak",
        -8.927934880445871
      ],
      [
        "▁toplum",
        -8.928128501827743
      ],
      [
        "▁kapat",
        -8.928848442120483
      ],
      [
        "▁anket",
        -8.929040161578012
      ],
      [
        "▁to",
        -8.929181627059554
      ],
      [
        "▁doldur",
        -8.929466539451516
      ],
      [
        "▁yaptıgı",
        -8.93007022603108
      ],
      [
        "gimiz",
        -8.93085680998825
      ],
      [
        "▁eg",
        -8.932237992893437
      ],
      [
        "malı",
        -8.932913754792061
      ],
      [
        "▁yatırımcılar",
        -8.935716586958343
      ],
      [
        "▁kuvvet",
        -8.936195612162244
      ],
      [
        "▁harika",
        -8.936209062338008
      ],
      [
        "ulmus",
        -8.93706674973199
      ],
      [
        "▁fark",
        -8.9382938365886
      ],
      [
        "▁yıllar",
        -8.93915165703459
      ],
      [
        "▁agac",
        -8.940542752329527
      ],
      [
        "▁olmayan",
        -8.94065429862917
      ],
      [
        "▁degistir",
        -8.941043995265524
      ],
      [
        "▁yılında",
        -8.941840227697906
      ],
      [
        "▁numara",
        -8.943494890439764
      ],
      [
        "▁ceza",
        -8.943512095664744
      ],
      [
        "▁ısı",
        -8.943717614909616
      ],
      [
        "▁mukemmel",
        -8.94454638059797
      ],
      [
        "▁vermek",
        -8.945715738859631
      ],
      [
        "▁satıslar",
        -8.946479345337622
      ],
      [
        "▁ele",
        -8.946886778199412
      ],
      [
        "rdı",
        -8.947120222739432
      ],
      [
        "▁hali",
        -8.94749868469028
      ],
      [
        "▁anlama",
        -8.948145583032634
      ],
      [
        "▁bal",
        -8.948960519287429
      ],
      [
        "▁united",
        -8.950847676386257
      ],
      [
        "▁taraf",
        -8.950995139598515
      ],
      [
        "ligin",
        -8.951277319091894
      ],
      [
        "▁sınır",
        -8.95144144545455
      ],
      [
        "kleri",
        -8.952078452773877
      ],
      [
        "▁ayak",
        -8.953033700571819
      ],
      [
        "klarını",
        -8.9556609066633
      ],
      [
        "▁senin",
        -8.957814198754457
      ],
      [
        "▁dalga",
        -8.959171268825873
      ],
      [
        "▁suc",
        -8.960584191612547
      ],
      [
        "▁karsısında",
        -8.961273444955335
      ],
      [
        "'daki",
        -8.9628081817465
      ],
      [
        "gunu",
        -8.963103129636046
      ],
      [
        "▁sirketi",
        -8.96461973122965
      ],
      [
        "iyeti",
        -8.96612339922213
      ],
      [
        "▁belli",
        -8.96760734058542
      ],
      [
        "▁yarın",
        -8.96852008044354
      ],
      [
        "▁yet",
        -8.969138429619585
      ],
      [
        "▁cin",
        -8.969204196350983
      ],
      [
        "▁toplam",
        -8.970260363405961
      ],
      [
        "▁aradi",
        -8.971451198893128
      ],
      [
        "mesini",
        -8.972343387138675
      ],
      [
        "▁kalan",
        -8.972778718038281
      ],
      [
        "▁egitim",
        -8.973239448645824
      ],
      [
        "▁doktor",
        -8.973388002823336
      ],
      [
        "▁sıcak",
        -8.97357685273026
      ],
      [
        "lesti",
        -8.975803498919404
      ],
      [
        "▁dusunce",
        -8.975899011020228
      ],
      [
        "▁sis",
        -8.976259946594608
      ],
      [
        "▁aslın",
        -8.97647388124409
      ],
      [
        "▁sec",
        -8.976722705796647
      ],
      [
        "ecegini",
        -8.976778287571456
      ],
      [
        "▁fır",
        -8.979541858510832
      ],
      [
        "▁ali",
        -8.979594225754482
      ],
      [
        "▁arastırma",
        -8.979704665181373
      ],
      [
        "▁soy",
        -8.980598549015568
      ],
      [
        "▁urun",
        -8.980617337639954
      ],
      [
        "▁pahali",
        -8.980914638262625
      ],
      [
        "▁yapar",
        -8.984592916664441
      ],
      [
        "yip",
        -8.986013574015292
      ],
      [
        "▁dar",
        -8.986299732008717
      ],
      [
        "▁rapor",
        -8.987003963127787
      ],
      [
        "elim",
        -8.987551755117622
      ],
      [
        "▁yuzunde",
        -8.987994493471202
      ],
      [
        "▁cevap",
        -8.98844652806017
      ],
      [
        "▁hesap",
        -8.98845740881136
      ],
      [
        "▁siyah",
        -8.988503515195276
      ],
      [
        "▁olmaz",
        -8.988608473605122
      ],
      [
        "▁kimi",
        -8.98951933034068
      ],
      [
        "▁attı",
        -8.990835429808016
      ],
      [
        "▁yiyecek",
        -8.992057818922476
      ],
      [
        "meli",
        -8.992390230210408
      ],
      [
        "▁olus",
        -8.992401925594072
      ],
      [
        "▁yeter",
        -8.992751878860211
      ],
      [
        "▁pro",
        -8.996144646233034
      ],
      [
        "▁eli",
        -8.996205862712603
      ],
      [
        "▁sektor",
        -8.996319703754127
      ],
      [
        "▁tah",
        -8.996514242730441
      ],
      [
        "bilir",
        -8.996912453390749
      ],
      [
        "▁gorme",
        -8.99695343930926
      ],
      [
        "▁sahi",
        -9.001514911649807
      ],
      [
        "▁baktı",
        -9.003197000688969
      ],
      [
        "▁odedigim",
        -9.0039011063372
      ],
      [
        "▁mutlu",
        -9.00394417079033
      ],
      [
        "▁bekliyor",
        -9.004090763585102
      ],
      [
        "▁kalk",
        -9.004262153513189
      ],
      [
        "▁seri",
        -9.004510911688305
      ],
      [
        "▁gorusme",
        -9.004532099684402
      ],
      [
        "▁yanlıs",
        -9.004816009324376
      ],
      [
        "▁yen",
        -9.006192061650015
      ],
      [
        "▁yuzlu",
        -9.00895371854755
      ],
      [
        "▁kum",
        -9.01126656088218
      ],
      [
        "ılması",
        -9.011385380631264
      ],
      [
        "▁duyu",
        -9.011590746570338
      ],
      [
        "▁federal",
        -9.011703003439669
      ],
      [
        "▁kelime",
        -9.011973517433098
      ],
      [
        "▁corp.",
        -9.01229483171596
      ],
      [
        "asyon",
        -9.012391295835878
      ],
      [
        "▁air",
        -9.012986327918231
      ],
      [
        "▁kurtul",
        -9.013182578726452
      ],
      [
        "▁yuk",
        -9.01338341810903
      ],
      [
        "ac",
        -9.013509496325327
      ],
      [
        "▁savas",
        -9.01370176373419
      ],
      [
        "▁endeksi",
        -9.013962315650486
      ],
      [
        "▁demek",
        -9.014149683564039
      ],
      [
        "abı",
        -9.017940482796007
      ],
      [
        "▁mali",
        -9.018843279273455
      ],
      [
        "ılır",
        -9.019162770583746
      ],
      [
        "▁durumda",
        -9.02155551041582
      ],
      [
        "▁lira",
        -9.022611628009368
      ],
      [
        "dugunu",
        -9.022932756143668
      ],
      [
        "▁edecek",
        -9.023008607193859
      ],
      [
        "'ı",
        -9.02324290523185
      ],
      [
        "▁onem",
        -9.02596355235267
      ],
      [
        "▁zamanda",
        -9.02645317789499
      ],
      [
        "▁geli",
        -9.027443644116357
      ],
      [
        "▁kagıt",
        -9.02754029501508
      ],
      [
        "▁zarar",
        -9.027551896688855
      ],
      [
        "mizi",
        -9.028414627363176
      ],
      [
        "▁atlanta",
        -9.030391137065077
      ],
      [
        "lugun",
        -9.031608521112537
      ],
      [
        "▁doga",
        -9.032937533412554
      ],
      [
        "▁katı",
        -9.03302994383283
      ],
      [
        "▁roman",
        -9.033465077976675
      ],
      [
        "▁calıstı",
        -9.033684703593796
      ],
      [
        "▁cat",
        -9.03423446665376
      ],
      [
        "cuk",
        -9.03477689922514
      ],
      [
        "▁asagı",
        -9.035142915081265
      ],
      [
        "▁olmadi",
        -9.035298224221625
      ],
      [
        "▁beraber",
        -9.035515508223385
      ],
      [
        "▁sana",
        -9.035667118903437
      ],
      [
        "▁ru",
        -9.03615438609638
      ],
      [
        "▁artısla",
        -9.03670633769695
      ],
      [
        "▁yakin",
        -9.036710705745534
      ],
      [
        "▁los",
        -9.0400009260104
      ],
      [
        "▁hay",
        -9.041865887442984
      ],
      [
        "▁esi",
        -9.042058345646588
      ],
      [
        "▁halk",
        -9.04300519624261
      ],
      [
        "▁pencere",
        -9.043577693169503
      ],
      [
        "▁dısarı",
        -9.04358618211775
      ],
      [
        "lenmis",
        -9.043639964321926
      ],
      [
        "▁hazine",
        -9.043931914028033
      ],
      [
        "▁kenar",
        -9.046249820396916
      ],
      [
        "▁isci",
        -9.047041766633024
      ],
      [
        "▁isle",
        -9.047069746781121
      ],
      [
        "▁edildi",
        -9.050566182533164
      ],
      [
        "▁anne",
        -9.050751247896102
      ],
      [
        "▁inc",
        -9.051055033749739
      ],
      [
        "▁tır",
        -9.05112929366501
      ],
      [
        "▁firma",
        -9.051609802963545
      ],
      [
        "▁cay",
        -9.052201232793873
      ],
      [
        "▁etmem",
        -9.052293090475228
      ],
      [
        "▁cekti",
        -9.052395869985261
      ],
      [
        "▁baskı",
        -9.054565899578897
      ],
      [
        "▁francisco'da",
        -9.054748637203607
      ],
      [
        "▁bayan",
        -9.054899388259393
      ],
      [
        "umuz",
        -9.05631885351223
      ],
      [
        "th",
        -9.056778957777878
      ],
      [
        "▁uy",
        -9.057430213732676
      ],
      [
        "meyen",
        -9.057523326927676
      ],
      [
        "▁pittsburgh",
        -9.058202316020406
      ],
      [
        "▁turkiye",
        -9.059753116394798
      ],
      [
        "▁sozlesme",
        -9.060227468401319
      ],
      [
        "▁100",
        -9.060302456052472
      ],
      [
        "lamıs",
        -9.0603987353721
      ],
      [
        "mızı",
        -9.060882289356085
      ],
      [
        "▁tar",
        -9.063519797873568
      ],
      [
        "mayacak",
        -9.063873080854208
      ],
      [
        "▁ileri",
        -9.066501192857961
      ],
      [
        "▁odalar",
        -9.06698350679013
      ],
      [
        "▁oy",
        -9.067395721095627
      ],
      [
        "▁ingiliz",
        -9.068168965944796
      ],
      [
        "▁madde",
        -9.06818931975403
      ],
      [
        "▁toplantı",
        -9.068199767531604
      ],
      [
        "▁gunde",
        -9.07055790664307
      ],
      [
        "▁isti",
        -9.072068257686052
      ],
      [
        "ilir",
        -9.073093219340588
      ],
      [
        "▁kayna",
        -9.074093741565637
      ],
      [
        "▁alt",
        -9.075781853659429
      ],
      [
        "▁ayı",
        -9.076156562992004
      ],
      [
        "▁deprem",
        -9.076502519762599
      ],
      [
        "▁begenmedi",
        -9.07650258213533
      ],
      [
        "▁ucuncu",
        -9.076516819608418
      ],
      [
        "▁yesil",
        -9.076548357850708
      ],
      [
        "▁gelmis",
        -9.076821484609095
      ],
      [
        "▁veren",
        -9.076981577210052
      ],
      [
        "▁sas",
        -9.077207299254834
      ],
      [
        "▁duru",
        -9.07739918659333
      ],
      [
        "▁tutu",
        -9.078334502384184
      ],
      [
        "▁alıs",
        -9.078535722569335
      ],
      [
        "▁25",
        -9.079009229875922
      ],
      [
        "▁kaliteli",
        -9.08046486824098
      ],
      [
        "tif",
        -9.082408734707421
      ],
      [
        "▁no",
        -9.082870300461575
      ],
      [
        "lamak",
        -9.082940991426824
      ],
      [
        "▁otomobil",
        -9.084905647138573
      ],
      [
        "▁millet",
        -9.084908859522525
      ],
      [
        "▁ufak",
        -9.084999411909253
      ],
      [
        "▁gorus",
        -9.085208901350276
      ],
      [
        "▁sahibi",
        -9.085418249641151
      ],
      [
        "▁caba",
        -9.086175587988206
      ],
      [
        "▁salt",
        -9.086683908867396
      ],
      [
        "▁dahil",
        -9.091034381145956
      ],
      [
        "▁saglık",
        -9.091111976517663
      ],
      [
        "▁ote",
        -9.093025215051043
      ],
      [
        "digim",
        -9.094177399618765
      ],
      [
        "▁cent",
        -9.094609296712699
      ],
      [
        "▁film",
        -9.094983001578662
      ],
      [
        "▁olum",
        -9.095401035037735
      ],
      [
        "▁geci",
        -9.096933165404604
      ],
      [
        "lanıyor",
        -9.097352364633949
      ],
      [
        "▁goruyor",
        -9.097837394525719
      ],
      [
        "▁ruh",
        -9.098254601769224
      ],
      [
        "▁misin",
        -9.100907005656985
      ],
      [
        "lesme",
        -9.101055340524212
      ],
      [
        "▁sefer",
        -9.1019573304653
      ],
      [
        "▁kırmızı",
        -9.102189559901932
      ],
      [
        "▁city'",
        -9.103716090176373
      ],
      [
        "▁tabi",
        -9.10378185468852
      ],
      [
        "ad",
        -9.104223222688699
      ],
      [
        "cik",
        -9.105368641036018
      ],
      [
        "▁kadınlar",
        -9.10638881784373
      ],
      [
        "▁topla",
        -9.106548212526695
      ],
      [
        "▁ekim",
        -9.106742310640175
      ],
      [
        "▁olmasi",
        -9.10690038940255
      ],
      [
        "▁gecme",
        -9.106943255361855
      ],
      [
        "lasma",
        -9.108611364901678
      ],
      [
        "ımız",
        -9.110033930271648
      ],
      [
        "▁sor",
        -9.11027027204426
      ],
      [
        "bur",
        -9.11318042341006
      ],
      [
        "▁ez",
        -9.113306961642676
      ],
      [
        "▁donem",
        -9.11332630086089
      ],
      [
        "▁olmadıgını",
        -9.113834802866368
      ],
      [
        "▁dusunuyor",
        -9.115129888545377
      ],
      [
        "▁birbirin",
        -9.115243893198308
      ],
      [
        "▁sam",
        -9.115462350607158
      ],
      [
        "75",
        -9.115842646415679
      ],
      [
        "mayan",
        -9.116272429402354
      ],
      [
        "▁evde",
        -9.11795263770492
      ],
      [
        "urdu",
        -9.119023221980958
      ],
      [
        "▁kontrol",
        -9.119243605714223
      ],
      [
        "▁hedef",
        -9.119336521915091
      ],
      [
        "▁delta",
        -9.119420335625929
      ],
      [
        "leyen",
        -9.124239938651657
      ],
      [
        "▁gol",
        -9.124287503284021
      ],
      [
        "▁yeme",
        -9.124378318235888
      ],
      [
        "▁fena",
        -9.125059176735302
      ],
      [
        "▁ib",
        -9.12523148024375
      ],
      [
        "▁tuttu",
        -9.125506221467521
      ],
      [
        "▁bilir",
        -9.126088153197614
      ],
      [
        "▁saka",
        -9.127188229173305
      ],
      [
        "▁dısında",
        -9.127302620217698
      ],
      [
        "▁$",
        -9.127345850016127
      ],
      [
        "▁endustri",
        -9.12801551676175
      ],
      [
        "▁ciddi",
        -9.128021607848577
      ],
      [
        "▁milli",
        -9.12810945614038
      ],
      [
        "▁ustu",
        -9.1297452581642
      ],
      [
        "▁fo",
        -9.130926287873589
      ],
      [
        "▁mes",
        -9.13168143279726
      ],
      [
        "ırdı",
        -9.132251376537042
      ],
      [
        "manın",
        -9.134035439603327
      ],
      [
        "ilme",
        -9.134925061968241
      ],
      [
        "▁kira",
        -9.135704667630833
      ],
      [
        "▁artıs",
        -9.136287432174491
      ],
      [
        "▁zayıf",
        -9.136871432372192
      ],
      [
        "▁nisan",
        -9.136919697915642
      ],
      [
        "▁yapılacak",
        -9.137176679152216
      ],
      [
        "▁lake",
        -9.13727712978864
      ],
      [
        "▁edin",
        -9.137324500535241
      ],
      [
        "80",
        -9.137940724529084
      ],
      [
        "▁bıraktı",
        -9.140107570548338
      ],
      [
        "▁dost",
        -9.140261038064708
      ],
      [
        "▁biliyor",
        -9.140772937090336
      ],
      [
        "▁dile",
        -9.141138352402741
      ],
      [
        "▁13",
        -9.141884637222702
      ],
      [
        "▁airlines",
        -9.142138650708205
      ],
      [
        "yse",
        -9.142378874521587
      ],
      [
        "▁yık",
        -9.14259289269147
      ],
      [
        "▁veriri",
        -9.142687037894163
      ],
      [
        "gında",
        -9.142786736550852
      ],
      [
        "sam",
        -9.143229399880202
      ],
      [
        "▁boz",
        -9.14351510889146
      ],
      [
        "▁sessiz",
        -9.143555335975625
      ],
      [
        "▁istedigi",
        -9.14425601421254
      ],
      [
        "▁siir",
        -9.14468533079432
      ],
      [
        "▁zorunda",
        -9.145808631490336
      ],
      [
        "▁ulasım",
        -9.148919504035872
      ],
      [
        "dılar",
        -9.149914521082511
      ],
      [
        "▁verir",
        -9.15169830014571
      ],
      [
        "▁mor",
        -9.152005474393155
      ],
      [
        "▁ettigi",
        -9.152183670675452
      ],
      [
        "▁istedi",
        -9.153029098048023
      ],
      [
        "▁birden",
        -9.153725339833738
      ],
      [
        "▁borsası",
        -9.153787764465534
      ],
      [
        "oz",
        -9.153922019035774
      ],
      [
        "▁agustos",
        -9.154643873876157
      ],
      [
        "▁duruyor",
        -9.15468835035665
      ],
      [
        "▁sosyal",
        -9.154802877089573
      ],
      [
        "▁avukat",
        -9.154803306316598
      ],
      [
        "▁kent",
        -9.154956807464458
      ],
      [
        "▁etmis",
        -9.155045047238055
      ],
      [
        "▁alamadi",
        -9.155121234840081
      ],
      [
        "▁kullanmadi",
        -9.156096944284295
      ],
      [
        "▁gorunuyor",
        -9.156310119475467
      ],
      [
        "▁oturu",
        -9.157741099787195
      ],
      [
        "▁cem",
        -9.161326351118205
      ],
      [
        "▁sistem",
        -9.161805688511357
      ],
      [
        "▁atı",
        -9.16271435754769
      ],
      [
        "tim",
        -9.163342458493382
      ],
      [
        "▁makine",
        -9.164083579279282
      ],
      [
        "▁net",
        -9.164241339802857
      ],
      [
        "▁olmustu",
        -9.164399518145768
      ],
      [
        "▁firs",
        -9.16543505806826
      ],
      [
        "▁eksik",
        -9.165953622463938
      ],
      [
        "▁otur",
        -9.166985508935586
      ],
      [
        "▁bildir",
        -9.167442942753919
      ],
      [
        "▁hoca",
        -9.168379909098238
      ],
      [
        "▁yetkilileri",
        -9.168879587392189
      ],
      [
        "▁acıklama",
        -9.169931594224547
      ],
      [
        "▁analistler",
        -9.170740972280907
      ],
      [
        "▁verdigim",
        -9.172639118490242
      ],
      [
        "a'nın",
        -9.172908510290046
      ],
      [
        "▁cumhuriyet",
        -9.173067860978442
      ],
      [
        "▁yardimci",
        -9.173067910655918
      ],
      [
        "▁kansas",
        -9.173085884013775
      ],
      [
        "▁sert",
        -9.173413803158875
      ],
      [
        "▁dolas",
        -9.173521128283149
      ],
      [
        "▁york'ta",
        -9.173545998104128
      ],
      [
        "ot",
        -9.174029711698545
      ],
      [
        "▁kanun",
        -9.174039282110295
      ],
      [
        "▁dusman",
        -9.174753442477908
      ],
      [
        "▁cıkmıs",
        -9.175587207495235
      ],
      [
        ",",
        -9.176777883018584
      ],
      [
        "▁diz",
        -9.177460619372113
      ],
      [
        "▁asla",
        -9.178651960863942
      ],
      [
        "▁ulasımı",
        -9.179912797718746
      ],
      [
        "▁yonetici",
        -9.180923306020073
      ],
      [
        "▁fer",
        -9.181105038111946
      ],
      [
        "acagım",
        -9.182031254911344
      ],
      [
        "▁petrol",
        -9.182327146496839
      ],
      [
        "▁sermaye",
        -9.182347145805466
      ],
      [
        "ıyorlar",
        -9.182636659606231
      ],
      [
        "▁14",
        -9.182700373981387
      ],
      [
        "▁gecer",
        -9.182714009715674
      ],
      [
        "istan",
        -9.182764167184274
      ],
      [
        "▁izin",
        -9.184656200924836
      ],
      [
        "▁onay",
        -9.186757627395984
      ],
      [
        "▁olursa",
        -9.188067120588315
      ],
      [
        "▁ardında",
        -9.18861738150088
      ],
      [
        "▁insanın",
        -9.188876514726282
      ],
      [
        "▁davran",
        -9.191001031222033
      ],
      [
        "▁rakam",
        -9.19169146855353
      ],
      [
        "▁meydan",
        -9.191701763401575
      ],
      [
        "▁grup",
        -9.191935764088983
      ],
      [
        "▁soguk",
        -9.192429581810732
      ],
      [
        "var",
        -9.192528446964328
      ],
      [
        "▁sinir",
        -9.192685511497327
      ],
      [
        "▁konustu",
        -9.193468954208313
      ],
      [
        "▁18",
        -9.195296930829825
      ],
      [
        "▁faturam",
        -9.19607149744818
      ],
      [
        "▁gonder",
        -9.196686055744527
      ],
      [
        "▁alır",
        -9.19699547421343
      ],
      [
        "▁bi",
        -9.19779007815129
      ],
      [
        "▁tel",
        -9.197809595334217
      ],
      [
        "▁3.",
        -9.198275025942287
      ],
      [
        "▁asker",
        -9.198426396893947
      ],
      [
        "▁0",
        -9.198827434127125
      ],
      [
        "▁renk",
        -9.198832098212113
      ],
      [
        "▁park",
        -9.199511735980284
      ],
      [
        "▁yay",
        -9.200251302816124
      ],
      [
        "▁toprak",
        -9.20156543373011
      ],
      [
        "▁oyuncu",
        -9.202336766771339
      ],
      [
        "dikleri",
        -9.202517622440258
      ],
      [
        "▁aylık",
        -9.203044715957219
      ],
      [
        "▁gosterdi",
        -9.204031129666852
      ],
      [
        "▁yardımcı",
        -9.2040433235106
      ],
      [
        "▁kaza",
        -9.204420398539497
      ],
      [
        "▁kazandı",
        -9.204774206784053
      ],
      [
        "lıkla",
        -9.206618195544937
      ],
      [
        "yum",
        -9.206839586835269
      ],
      [
        "▁ilac",
        -9.20850160078928
      ],
      [
        "▁dagıt",
        -9.208959018598335
      ],
      [
        "▁cıkardı",
        -9.209088863171573
      ],
      [
        "▁sorunu",
        -9.209501334601239
      ],
      [
        "▁kıl",
        -9.210003292759437
      ],
      [
        "▁dol",
        -9.210155011126137
      ],
      [
        "▁efendi",
        -9.210630764388345
      ],
      [
        "▁evvel",
        -9.2107943432153
      ],
      [
        "▁merak",
        -9.211889029623087
      ],
      [
        "▁aralık",
        -9.212900494820515
      ],
      [
        "▁anlattı",
        -9.213510768129368
      ],
      [
        "▁kok",
        -9.21394731166016
      ],
      [
        "▁isin",
        -9.214556321603443
      ],
      [
        "emez",
        -9.215513500317426
      ],
      [
        "▁unut",
        -9.216438169586546
      ],
      [
        "lugunu",
        -9.216873906333557
      ],
      [
        "50",
        -9.21816585626225
      ],
      [
        "▁durumu",
        -9.218173789363696
      ],
      [
        "▁class",
        -9.220293564056707
      ],
      [
        "▁sorumlu",
        -9.220345650406548
      ],
      [
        "▁endise",
        -9.220357255143883
      ],
      [
        "▁sordu",
        -9.22093234180342
      ],
      [
        "▁kultur",
        -9.220941573853803
      ],
      [
        "▁eglence",
        -9.221319255999003
      ],
      [
        "▁af",
        -9.221321856964614
      ],
      [
        "▁go",
        -9.221470160110329
      ],
      [
        "▁bakıs",
        -9.221695735751673
      ],
      [
        "▁yuzme",
        -9.221775891117428
      ],
      [
        "▁yerinde",
        -9.223889946531155
      ],
      [
        "▁hakkı",
        -9.224697550854472
      ],
      [
        "▁karı",
        -9.225464583000724
      ],
      [
        "▁tuz",
        -9.225634168146257
      ],
      [
        "▁evi",
        -9.227100235556284
      ],
      [
        "▁fiyati",
        -9.228794921903276
      ],
      [
        "lige",
        -9.228956550974722
      ],
      [
        "▁takım",
        -9.229238170585369
      ],
      [
        "ss",
        -9.230164280550607
      ],
      [
        "▁ulusal",
        -9.230431916572698
      ],
      [
        "▁bulunan",
        -9.23054996517113
      ],
      [
        "▁idi",
        -9.230775475876015
      ],
      [
        "▁kurul",
        -9.231778267111949
      ],
      [
        "▁mavi",
        -9.231952379163959
      ],
      [
        "▁hızlı",
        -9.23224376599574
      ],
      [
        "▁ogrenci",
        -9.232877870885986
      ],
      [
        "▁fiyatı",
        -9.23627187723393
      ],
      [
        "▁satım",
        -9.236378997562976
      ],
      [
        "▁iliskin",
        -9.237962106462014
      ],
      [
        "▁gene",
        -9.23840191236332
      ],
      [
        "gım",
        -9.238637461614822
      ],
      [
        "▁asıl",
        -9.239016960815821
      ],
      [
        "ris",
        -9.239351575351058
      ],
      [
        "▁musait",
        -9.239945582103736
      ],
      [
        "▁silah",
        -9.239993445775038
      ],
      [
        "▁cel",
        -9.240665425917344
      ],
      [
        "▁gotur",
        -9.24316629198789
      ],
      [
        "▁tartısma",
        -9.243585916604506
      ],
      [
        "▁gerekiyor",
        -9.24366135218624
      ],
      [
        "▁oakland'",
        -9.243711713278554
      ],
      [
        "30",
        -9.24491517229401
      ],
      [
        "'u",
        -9.244946613001389
      ],
      [
        "mekte",
        -9.246428458712014
      ],
      [
        "gına",
        -9.247000970544994
      ],
      [
        "iyorlar",
        -9.247544206469145
      ],
      [
        "▁yılın",
        -9.247993164209898
      ],
      [
        "▁bagır",
        -9.248242818759618
      ],
      [
        "▁ders",
        -9.24916221224896
      ],
      [
        "▁cicek",
        -9.249671194440428
      ],
      [
        "▁tatlı",
        -9.249775413037444
      ],
      [
        "▁kemal",
        -9.24979094029364
      ],
      [
        "▁ydı",
        -9.249914116431128
      ],
      [
        "▁basını",
        -9.251391394485413
      ],
      [
        "▁washington'",
        -9.253271957817052
      ],
      [
        "aj",
        -9.25343771739803
      ],
      [
        "▁engel",
        -9.253825129222932
      ],
      [
        "sar",
        -9.255145319310955
      ],
      [
        "▁hızla",
        -9.256312221538852
      ],
      [
        "▁insanların",
        -9.258970710980497
      ],
      [
        "▁basa",
        -9.259323815003139
      ],
      [
        "▁seattle'",
        -9.259659721265315
      ],
      [
        "▁mumkun",
        -9.259661504133046
      ],
      [
        "sak",
        -9.26009388782664
      ],
      [
        "▁sahne",
        -9.261002603843641
      ],
      [
        "▁kırı",
        -9.262705197305456
      ],
      [
        "▁donu",
        -9.263069732954225
      ],
      [
        "▁finans",
        -9.266095259928267
      ],
      [
        "▁ceyrek",
        -9.266916313955933
      ],
      [
        "▁21",
        -9.268190361491346
      ],
      [
        "▁yemegi",
        -9.268640148662971
      ],
      [
        "▁etmeye",
        -9.2694577849064
      ],
      [
        "▁universite",
        -9.26973857767741
      ],
      [
        "▁heyecan",
        -9.269762098266636
      ],
      [
        "▁yirmi",
        -9.269767900436756
      ],
      [
        "▁gormedi",
        -9.271617200349919
      ],
      [
        "▁gecirdi",
        -9.271642275982817
      ],
      [
        "▁bulundu",
        -9.272834135246649
      ],
      [
        "▁dinle",
        -9.273918769351543
      ],
      [
        "▁tarihi",
        -9.275859667848772
      ],
      [
        "rıl",
        -9.276618548976899
      ],
      [
        "meyecegi",
        -9.277157732668432
      ],
      [
        "▁duz",
        -9.278770022567532
      ],
      [
        "yım",
        -9.2795939218608
      ],
      [
        "▁continental",
        -9.279964812211391
      ],
      [
        "▁tiyatro",
        -9.279964814675342
      ],
      [
        "▁proje",
        -9.279968980250777
      ],
      [
        "▁alıyor",
        -9.280572957538775
      ],
      [
        "lemek",
        -9.281308673467233
      ],
      [
        "▁orlando'",
        -9.281682953794116
      ],
      [
        "larımız",
        -9.283235504836554
      ],
      [
        "▁resmi",
        -9.283336894351851
      ],
      [
        "▁yapacak",
        -9.283578261920937
      ],
      [
        "▁olcu",
        -9.284440258093174
      ],
      [
        "▁yetkili",
        -9.284659383713358
      ],
      [
        "▁geldigi",
        -9.286196708033456
      ],
      [
        "▁eser",
        -9.286731620261778
      ],
      [
        "▁olcude",
        -9.286746331254264
      ],
      [
        "▁sevgi",
        -9.288449558289038
      ],
      [
        "▁personeli",
        -9.289268640173987
      ],
      [
        "▁seyahat",
        -9.290278837442104
      ],
      [
        "▁talep",
        -9.29035170679532
      ],
      [
        "▁girme",
        -9.2916049300052
      ],
      [
        "▁servisi",
        -9.291726973068538
      ],
      [
        "▁ekmek",
        -9.292136136213752
      ],
      [
        "▁halinde",
        -9.292583267732443
      ],
      [
        "▁turkiye'",
        -9.292821735061828
      ],
      [
        "▁rezervasyonu",
        -9.29463937667325
      ],
      [
        "cagız",
        -9.294688522461902
      ],
      [
        "▁sırada",
        -9.294704501203956
      ],
      [
        "▁kaya",
        -9.295000501906223
      ],
      [
        "▁gozlerini",
        -9.29659727650054
      ],
      [
        "▁co.",
        -9.297864215507978
      ],
      [
        "▁sut",
        -9.298078283729504
      ],
      [
        "lıkta",
        -9.299030243012606
      ],
      [
        "▁savunma",
        -9.300406466884803
      ],
      [
        "▁fabrika",
        -9.300690757562418
      ],
      [
        "▁idare",
        -9.300693101680032
      ],
      [
        "▁yukarı",
        -9.300695708496722
      ],
      [
        "▁ogretmen",
        -9.300802183645025
      ],
      [
        "▁uyku",
        -9.300980486527973
      ],
      [
        "▁aydın",
        -9.301088691387225
      ],
      [
        "▁bilet",
        -9.302355877168079
      ],
      [
        "▁inc.",
        -9.302801706732701
      ],
      [
        "▁ekonomik",
        -9.304018142371707
      ],
      [
        "▁yapti",
        -9.305444078687515
      ],
      [
        "sizlik",
        -9.305707115619928
      ],
      [
        "▁seviye",
        -9.305761704762936
      ],
      [
        "ırım",
        -9.305792195373108
      ],
      [
        "▁tra",
        -9.30588838703359
      ],
      [
        "lup",
        -9.305953980195122
      ],
      [
        "har",
        -9.306429014352616
      ],
      [
        "▁girisim",
        -9.306973623486353
      ],
      [
        "▁isteme",
        -9.307502794565021
      ],
      [
        "▁50",
        -9.308053910252418
      ],
      [
        "▁sil",
        -9.308733098535349
      ],
      [
        "▁ucuyor",
        -9.309143843141872
      ],
      [
        "▁yun",
        -9.309259549004707
      ],
      [
        "▁siddet",
        -9.311217339616146
      ],
      [
        "▁problem",
        -9.31121750176186
      ],
      [
        "▁cocukları",
        -9.31165660849571
      ],
      [
        "▁risk",
        -9.312259633913417
      ],
      [
        "▁kurtar",
        -9.312476127242116
      ],
      [
        "▁oner",
        -9.313973928571933
      ],
      [
        "▁olmadıgı",
        -9.314689612542036
      ],
      [
        "▁guney",
        -9.31526164394299
      ],
      [
        "▁salon",
        -9.315884159176074
      ],
      [
        "yuz",
        -9.316128152342198
      ],
      [
        "▁sınıfı",
        -9.316441693004112
      ],
      [
        "▁dıs",
        -9.317914826107387
      ],
      [
        "▁fu",
        -9.318714808306142
      ],
      [
        "▁dergi",
        -9.319384400520333
      ],
      [
        "▁kamu",
        -9.320186265812374
      ],
      [
        "▁misafir",
        -9.321638774691987
      ],
      [
        "▁lazım",
        -9.321856158286666
      ],
      [
        "▁gizli",
        -9.321862215052427
      ],
      [
        "▁sebep",
        -9.321870881941127
      ],
      [
        "▁isaret",
        -9.321897382961897
      ],
      [
        "▁gitmek",
        -9.322824344404495
      ],
      [
        "▁yatak",
        -9.32328586393625
      ],
      [
        "▁uyar",
        -9.323949562244366
      ],
      [
        "▁bro",
        -9.324483077603325
      ],
      [
        "cıları",
        -9.325187248638732
      ],
      [
        "▁17",
        -9.3252653042228
      ],
      [
        "mamıs",
        -9.32529442792554
      ],
      [
        "▁saglam",
        -9.325350625730776
      ],
      [
        "▁dusur",
        -9.32554003976213
      ],
      [
        "▁sozu",
        -9.32679820574486
      ],
      [
        "▁soyley",
        -9.328082342558993
      ],
      [
        "▁sarkı",
        -9.32820150442345
      ],
      [
        "▁sesi",
        -9.328521614634669
      ],
      [
        "lenen",
        -9.329910000180648
      ],
      [
        "▁ber",
        -9.330926061833889
      ],
      [
        "▁tir",
        -9.332126053669395
      ],
      [
        "▁gonul",
        -9.332627706912778
      ],
      [
        "▁gerektigin",
        -9.33277026774628
      ],
      [
        "▁gr",
        -9.332965877081442
      ],
      [
        "▁ait",
        -9.333332536264834
      ],
      [
        "▁ofis",
        -9.335296373104658
      ],
      [
        "▁karsiligi",
        -9.33546608437202
      ],
      [
        "▁kendisini",
        -9.335986230976161
      ],
      [
        "70",
        -9.336108668113551
      ],
      [
        "▁aldıgı",
        -9.336148945642776
      ],
      [
        "▁kut",
        -9.336582559867237
      ],
      [
        "▁vade",
        -9.336631344398905
      ],
      [
        "▁cekme",
        -9.337175913819031
      ],
      [
        "▁ulastı",
        -9.338186235757085
      ],
      [
        "▁rezervasyon",
        -9.338948398445298
      ],
      [
        "meyecek",
        -9.341395463376848
      ],
      [
        "▁fiyatlar",
        -9.341558118404297
      ],
      [
        "▁26",
        -9.341651135264271
      ],
      [
        "▁bitir",
        -9.342365425310398
      ],
      [
        "▁kahvalti",
        -9.343477626397714
      ],
      [
        "▁havayolu",
        -9.343478115819519
      ],
      [
        "▁fayda",
        -9.34348342547905
      ],
      [
        "▁dukkan",
        -9.343501552351405
      ],
      [
        "▁fikir",
        -9.343565787509581
      ],
      [
        "▁sekiz",
        -9.34361589067564
      ],
      [
        "▁beklenti",
        -9.343637242175909
      ],
      [
        "▁uzman",
        -9.34366565091742
      ],
      [
        "▁tepe",
        -9.343898805426223
      ],
      [
        "▁oranı",
        -9.34442980485549
      ],
      [
        "▁esya",
        -9.346527491901105
      ],
      [
        "▁hayatı",
        -9.347363194656722
      ],
      [
        "▁ordu",
        -9.349088512516555
      ],
      [
        "▁tabii",
        -9.349523635280903
      ],
      [
        "▁agzı",
        -9.349754308493356
      ],
      [
        "▁uygulama",
        -9.350244760571776
      ],
      [
        "mde",
        -9.350253191375774
      ],
      [
        "▁kutu",
        -9.350984053403636
      ],
      [
        "▁arac",
        -9.35106298235367
      ],
      [
        "izm",
        -9.352720977939233
      ],
      [
        "etti",
        -9.353222516500226
      ],
      [
        "▁ocak",
        -9.353304531349458
      ],
      [
        "▁bina",
        -9.354135621383325
      ],
      [
        "▁yatırımcı",
        -9.354332962053896
      ],
      [
        "▁yurt",
        -9.354353343854338
      ],
      [
        "▁mehmet",
        -9.35446670115244
      ],
      [
        "▁teknoloji",
        -9.354474273296674
      ],
      [
        "▁imkanlari",
        -9.354599490442341
      ],
      [
        "▁cıkan",
        -9.355099241455626
      ],
      [
        "▁200",
        -9.35612068009431
      ],
      [
        "▁karıs",
        -9.357775754837242
      ],
      [
        "lendirme",
        -9.357816811158155
      ],
      [
        "west",
        -9.35863731011946
      ],
      [
        "▁ediyordu",
        -9.360904702896196
      ],
      [
        "▁ısık",
        -9.361337036847528
      ],
      [
        "▁dusunme",
        -9.36245993834751
      ],
      [
        "▁sp",
        -9.362769608569952
      ],
      [
        "▁bicim",
        -9.36462803561901
      ],
      [
        "▁gormek",
        -9.364667016636092
      ],
      [
        "lanır",
        -9.364917612316997
      ],
      [
        "▁isim",
        -9.365211253679673
      ],
      [
        "▁reddetti",
        -9.365577749641634
      ],
      [
        "▁olanaklari",
        -9.36557877866499
      ],
      [
        "▁katkı",
        -9.365754739366153
      ],
      [
        "▁hayvan",
        -9.365889905296095
      ],
      [
        "▁bazıları",
        -9.366409566549397
      ],
      [
        "▁diego'",
        -9.366651708246096
      ],
      [
        "▁cap",
        -9.367037426131173
      ],
      [
        "▁oteli",
        -9.367772334730521
      ],
      [
        "▁duydu",
        -9.368159918220538
      ],
      [
        "▁pan",
        -9.368773069670532
      ],
      [
        "▁ilgilen",
        -9.369347656294758
      ],
      [
        "mizde",
        -9.370066588492811
      ],
      [
        "leniyor",
        -9.372442141639954
      ],
      [
        "ilmesi",
        -9.37354599965392
      ],
      [
        "abilecek",
        -9.374088642939629
      ],
      [
        "▁cag",
        -9.374118623731563
      ],
      [
        "▁soyleme",
        -9.375900628093483
      ],
      [
        "▁ihtiyar",
        -9.376848274942827
      ],
      [
        "▁allah",
        -9.377018388388725
      ],
      [
        "▁olası",
        -9.378095439273125
      ],
      [
        "▁mini",
        -9.378411414037616
      ],
      [
        "ans",
        -9.37844199477917
      ],
      [
        "▁lider",
        -9.37852985578125
      ],
      [
        "▁calis",
        -9.380191028166212
      ],
      [
        "▁yılda",
        -9.380227538468052
      ],
      [
        "▁buyume",
        -9.380249021964659
      ],
      [
        "▁emin",
        -9.381410784365908
      ],
      [
        "▁alacak",
        -9.38240492785894
      ],
      [
        "misler",
        -9.385321546788145
      ],
      [
        "▁karıstı",
        -9.385616154034922
      ],
      [
        "▁ucu",
        -9.385938012959862
      ],
      [
        "▁alman",
        -9.387192260797239
      ],
      [
        "▁rehber",
        -9.387966494342603
      ],
      [
        "▁hukuk",
        -9.388177693528913
      ],
      [
        "▁1988",
        -9.388178701181609
      ],
      [
        "▁yaptirdi",
        -9.38833829376949
      ],
      [
        "cileri",
        -9.38894283091556
      ],
      [
        "▁test",
        -9.388992763354828
      ],
      [
        "▁varlık",
        -9.389262026311515
      ],
      [
        "▁polis",
        -9.389304062032654
      ],
      [
        "▁boya",
        -9.38940592075968
      ],
      [
        "▁tahta",
        -9.390462774087299
      ],
      [
        "▁parmak",
        -9.390556124638291
      ],
      [
        "evi",
        -9.391714062657815
      ],
      [
        "▁belirtti",
        -9.392260433547225
      ],
      [
        "▁dum",
        -9.392409873176595
      ],
      [
        "▁dusundu",
        -9.393313884086897
      ],
      [
        "▁nerede",
        -9.393381881142256
      ],
      [
        "▁urunleri",
        -9.394793715261198
      ],
      [
        "▁senetleri",
        -9.39507701252846
      ],
      [
        "▁ets",
        -9.395957266521812
      ],
      [
        "biliyor",
        -9.396740612174726
      ],
      [
        "liginde",
        -9.39768416078359
      ],
      [
        "▁deli",
        -9.397907392938258
      ],
      [
        "▁halin",
        -9.398409488019084
      ],
      [
        "▁satısları",
        -9.398834285311715
      ],
      [
        "▁kongre",
        -9.399671838935546
      ],
      [
        "▁hikaye",
        -9.399672778875779
      ],
      [
        "▁ticari",
        -9.39967761203469
      ],
      [
        "▁kitabı",
        -9.399693261414612
      ],
      [
        "▁ankara",
        -9.399765549971528
      ],
      [
        "▁icecekler",
        -9.400230839455045
      ],
      [
        "▁vermis",
        -9.402173461122795
      ],
      [
        "layacak",
        -9.404059145158923
      ],
      [
        "▁babası",
        -9.404099629086051
      ],
      [
        "▁yasama",
        -9.405287472194733
      ],
      [
        "ator",
        -9.407417136738294
      ],
      [
        "▁22",
        -9.407514913083
      ],
      [
        "▁ayır",
        -9.407845223850087
      ],
      [
        "▁bolum",
        -9.409868818323815
      ],
      [
        "▁uyan",
        -9.410551848492563
      ],
      [
        "yiz",
        -9.410813404094258
      ],
      [
        "▁sokak",
        -9.411098575636917
      ],
      [
        "▁ruzgar",
        -9.411300368449254
      ],
      [
        "▁sıkıntı",
        -9.411357566834237
      ],
      [
        "▁kıyı",
        -9.411405493846885
      ],
      [
        "lamaya",
        -9.411472007088143
      ],
      [
        "▁memur",
        -9.411479930525719
      ],
      [
        "ecegim",
        -9.412624056075348
      ],
      [
        "▁teklifi",
        -9.412813709158423
      ],
      [
        "▁rast",
        -9.413282340714362
      ],
      [
        "▁acıkladı",
        -9.41348435858121
      ],
      [
        "▁ima",
        -9.41363998296103
      ],
      [
        "▁gosteriyor",
        -9.414207461791099
      ],
      [
        "emiyor",
        -9.41595627053231
      ],
      [
        "▁saf",
        -9.416354404822034
      ],
      [
        "▁yaslı",
        -9.41710889597491
      ],
      [
        "▁mart",
        -9.418637517222676
      ],
      [
        "▁rus",
        -9.419085095933983
      ],
      [
        "▁olacagını",
        -9.420347261111168
      ],
      [
        "▁degisik",
        -9.420924165052948
      ],
      [
        "▁kasım",
        -9.421374901291607
      ],
      [
        "▁sart",
        -9.421733952912568
      ],
      [
        "▁yarım",
        -9.422165407789244
      ],
      [
        "▁grubu",
        -9.423065771154079
      ],
      [
        "▁meclis",
        -9.42306978900555
      ],
      [
        "▁pasa",
        -9.423385924972814
      ],
      [
        "▁birim",
        -9.424147406665377
      ],
      [
        "▁resim",
        -9.424875630818587
      ],
      [
        "▁aktarmalı",
        -9.426099901498244
      ],
      [
        "ladıgı",
        -9.426568469842362
      ],
      [
        "▁gordugu",
        -9.427252307295543
      ],
      [
        "▁seker",
        -9.427840594032418
      ],
      [
        "▁piyasası",
        -9.428013497736654
      ],
      [
        "▁koku",
        -9.430463008470312
      ],
      [
        "▁islemler",
        -9.43079652810615
      ],
      [
        "▁cleveland'",
        -9.434968965437431
      ],
      [
        "▁elektrik",
        -9.434968967013674
      ],
      [
        "▁mustafa",
        -9.434969117440051
      ],
      [
        "▁mucadele",
        -9.434969149286482
      ],
      [
        "▁ataturk",
        -9.434975985740813
      ],
      [
        "▁kapalı",
        -9.435182298022262
      ],
      [
        "▁gok",
        -9.435646147997172
      ],
      [
        "▁yogun",
        -9.435913656527239
      ],
      [
        "▁sona",
        -9.437009560188137
      ],
      [
        "▁kusur",
        -9.437516743856456
      ],
      [
        "▁beyle",
        -9.437695523095623
      ],
      [
        "▁$'",
        -9.438321284268161
      ],
      [
        "▁27",
        -9.438715214530017
      ],
      [
        "▁cil",
        -9.43965061050287
      ],
      [
        "60",
        -9.44015920662763
      ],
      [
        "▁sez",
        -9.440546917536228
      ],
      [
        "▁komisyon",
        -9.44076153577494
      ],
      [
        "▁kurulus",
        -9.442830658977329
      ],
      [
        "▁koyu",
        -9.443010086162015
      ],
      [
        "▁hap",
        -9.443043734440042
      ],
      [
        "▁super",
        -9.443428121010367
      ],
      [
        "▁koydu",
        -9.443494749963802
      ],
      [
        "▁tor",
        -9.44402257178723
      ],
      [
        "▁surdu",
        -9.44469959201254
      ],
      [
        "▁sirketler",
        -9.445178863986229
      ],
      [
        "▁kararı",
        -9.445294846735326
      ],
      [
        "▁etmiyor",
        -9.445626958968813
      ],
      [
        "▁arkasında",
        -9.44601169657198
      ],
      [
        "▁muhtemel",
        -9.447017183037051
      ],
      [
        "▁sigara",
        -9.447026671568072
      ],
      [
        "▁motor",
        -9.447027206538692
      ],
      [
        "▁kendimi",
        -9.447502362846205
      ],
      [
        "▁res",
        -9.451816738305777
      ],
      [
        "▁gidi",
        -9.451901812254828
      ],
      [
        "▁yolda",
        -9.45292902755598
      ],
      [
        "▁ekledi",
        -9.453211292090753
      ],
      [
        "lmaz",
        -9.454353924114471
      ],
      [
        "dıkları",
        -9.455231183994245
      ],
      [
        "▁getirdi",
        -9.456579834988052
      ],
      [
        "▁tahviller",
        -9.457731582688108
      ],
      [
        "▁abd'",
        -9.45778818467747
      ],
      [
        "ediyorum",
        -9.457988985843336
      ],
      [
        "▁usta",
        -9.458045754642942
      ],
      [
        "▁dizi",
        -9.458932860721305
      ],
      [
        "▁memleket",
        -9.459212283260511
      ],
      [
        "▁sikinti",
        -9.45921310813064
      ],
      [
        "▁umut",
        -9.459311647321098
      ],
      [
        "▁misafirimiz",
        -9.459460911919564
      ],
      [
        "cilik",
        -9.45965880558876
      ],
      [
        "▁tık",
        -9.45985936216243
      ],
      [
        "▁otelde",
        -9.460397807163822
      ],
      [
        "▁bırakı",
        -9.460496836113997
      ],
      [
        "▁kayıp",
        -9.461756995749742
      ],
      [
        "▁perde",
        -9.461952474748069
      ],
      [
        "▁bakan",
        -9.461999781887815
      ],
      [
        "▁varsa",
        -9.462945696575051
      ],
      [
        "▁konus",
        -9.462986609986466
      ],
      [
        "▁verilen",
        -9.463769761986711
      ],
      [
        "▁gezi",
        -9.464535025750413
      ],
      [
        "▁mev",
        -9.464937769886475
      ],
      [
        "▁kırk",
        -9.465053939347172
      ],
      [
        "lıyordu",
        -9.46512521185982
      ],
      [
        "▁sunu",
        -9.46562303816355
      ],
      [
        "▁git",
        -9.465920496827898
      ],
      [
        "cılık",
        -9.466240628733768
      ],
      [
        "miyordu",
        -9.466938484801354
      ],
      [
        "▁oteldi",
        -9.46716333856366
      ],
      [
        "▁pas",
        -9.46872805058276
      ],
      [
        "▁basarı",
        -9.469869615771266
      ],
      [
        "▁degisim",
        -9.47000061357474
      ],
      [
        "▁sh",
        -9.470234766303314
      ],
      [
        "lanması",
        -9.470834424582222
      ],
      [
        "▁indi",
        -9.471021781895463
      ],
      [
        "▁manzara",
        -9.471558178730541
      ],
      [
        "▁fotograf",
        -9.471558234706736
      ],
      [
        "▁mesele",
        -9.471661089654752
      ],
      [
        "▁golge",
        -9.472345270535595
      ],
      [
        "▁elini",
        -9.473438009320528
      ],
      [
        "▁sizin",
        -9.473949670908109
      ],
      [
        "▁cagır",
        -9.475021585266425
      ],
      [
        "▁asırı",
        -9.475151799331075
      ],
      [
        "▁sent",
        -9.475596759302569
      ],
      [
        "▁bolumu",
        -9.475883720341454
      ],
      [
        "▁zamanlar",
        -9.475963553705963
      ],
      [
        "▁washington'da",
        -9.476983433126957
      ],
      [
        "▁bog",
        -9.477139531486152
      ],
      [
        "▁elleri",
        -9.477473364658117
      ],
      [
        "▁cocugu",
        -9.477577326587308
      ],
      [
        "▁sir",
        -9.477751003215516
      ],
      [
        "▁araya",
        -9.47858669978445
      ],
      [
        "▁ayrılı",
        -9.480525278216462
      ],
      [
        "▁16",
        -9.480599474472491
      ],
      [
        "cisi",
        -9.481450748967958
      ],
      [
        "▁isler",
        -9.482872923685136
      ],
      [
        "▁tehlike",
        -9.48405811920395
      ],
      [
        "▁magaza",
        -9.48405819248687
      ],
      [
        "▁zevk",
        -9.484061079083167
      ],
      [
        "▁elbet",
        -9.484074987076854
      ],
      [
        "▁fort",
        -9.484177277592622
      ],
      [
        "▁ziyaret",
        -9.484260321800077
      ],
      [
        "▁duyar",
        -9.484697403215353
      ],
      [
        "▁hayır",
        -9.485565805609266
      ],
      [
        "▁dow",
        -9.48604169512308
      ],
      [
        "▁saha",
        -9.48703443839338
      ],
      [
        "▁almıs",
        -9.487894162750052
      ],
      [
        "▁temmuz",
        -9.491701984382491
      ],
      [
        "▁harcama",
        -9.494052565603951
      ],
      [
        "▁satıl",
        -9.494114335802779
      ],
      [
        "▁kural",
        -9.495456283876461
      ],
      [
        "▁dısı",
        -9.496379315265013
      ],
      [
        "▁imza",
        -9.496728582546247
      ],
      [
        "▁jones",
        -9.496729178962406
      ],
      [
        "▁wall",
        -9.496730177007503
      ],
      [
        "▁istifa",
        -9.496767700813374
      ],
      [
        "▁ornek",
        -9.496802668636846
      ],
      [
        "▁bayram",
        -9.49727760737867
      ],
      [
        "▁uf",
        -9.497593426997653
      ],
      [
        "▁naz",
        -9.498004701114109
      ],
      [
        "▁insaat",
        -9.498089801936894
      ],
      [
        "▁yuksekti",
        -9.498098717052573
      ],
      [
        "▁edip",
        -9.498551209758567
      ],
      [
        "larımızı",
        -9.49906256702188
      ],
      [
        "▁tok",
        -9.501484351717007
      ],
      [
        "▁yetis",
        -9.502340737164541
      ],
      [
        "▁uretim",
        -9.502772423554372
      ],
      [
        "0000",
        -9.50571375644132
      ],
      [
        "▁tesekkurler",
        -9.507608174952802
      ],
      [
        "▁televizyon",
        -9.509536700171367
      ],
      [
        "▁strateji",
        -9.509536700447622
      ],
      [
        "▁street",
        -9.509537014489947
      ],
      [
        "▁hacmi",
        -9.509566874144575
      ],
      [
        "▁operasyon",
        -9.509591333958765
      ],
      [
        "▁duzey",
        -9.510213496605383
      ],
      [
        "▁yalan",
        -9.510867288746883
      ],
      [
        "▁oyku",
        -9.510921143817939
      ],
      [
        "▁durdu",
        -9.51101487463561
      ],
      [
        "▁giris",
        -9.511370058087671
      ],
      [
        "▁arı",
        -9.511625397995473
      ],
      [
        "▁metr",
        -9.51175335433511
      ],
      [
        "leyici",
        -9.512564275404193
      ],
      [
        "abilecegini",
        -9.512754025493326
      ],
      [
        "▁basarılı",
        -9.51291004439391
      ],
      [
        "▁yel",
        -9.5134049535537
      ],
      [
        "▁annesi",
        -9.513761194911721
      ],
      [
        "▁kardes",
        -9.514030110511428
      ],
      [
        "bir",
        -9.515202106923503
      ],
      [
        "▁philadelphia",
        -9.51704966786274
      ],
      [
        "▁miami'",
        -9.518231453770792
      ],
      [
        "lerimizi",
        -9.518384658995252
      ],
      [
        "▁milwaukee'",
        -9.518975677638482
      ],
      [
        "▁bakıyor",
        -9.519058081653451
      ],
      [
        "▁balık",
        -9.519427684348848
      ],
      [
        "▁sacları",
        -9.519716959824699
      ],
      [
        "▁tutar",
        -9.519737292851852
      ],
      [
        "▁spor",
        -9.51995968105103
      ],
      [
        "▁yılı",
        -9.520456224937508
      ],
      [
        "lerimiz",
        -9.520663044830002
      ],
      [
        "▁niyet",
        -9.522289769142162
      ],
      [
        "q",
        -9.522412576756558
      ],
      [
        "▁yardımcısı",
        -9.522420858447578
      ],
      [
        "▁enerji",
        -9.522527333666435
      ],
      [
        "▁guleryuzluydu",
        -9.522930809809079
      ],
      [
        "▁cıkarma",
        -9.523456897356603
      ],
      [
        "▁laf",
        -9.523622610021937
      ],
      [
        "▁istanbul",
        -9.525330834589356
      ],
      [
        "lıgında",
        -9.525588609721282
      ],
      [
        "▁bulundugu",
        -9.525808915612922
      ],
      [
        "▁degisiklikler",
        -9.52589562680416
      ],
      [
        "'yi",
        -9.52622289023319
      ],
      [
        "likte",
        -9.526337136378647
      ],
      [
        "▁kalkı",
        -9.527792737032039
      ],
      [
        "▁ucretin",
        -9.528169462633766
      ],
      [
        "▁dc'",
        -9.5283100950879
      ],
      [
        "▁cıkı",
        -9.528913827103565
      ],
      [
        "▁saygı",
        -9.529350728240145
      ],
      [
        "▁bilmiyoru",
        -9.529935636944622
      ],
      [
        "▁40",
        -9.53031034422223
      ],
      [
        "▁tim",
        -9.531360068162984
      ],
      [
        "▁sirketleri",
        -9.531473277447795
      ],
      [
        "▁doları'n",
        -9.531910146759836
      ],
      [
        "dıgında",
        -9.532021231909063
      ],
      [
        "▁gerceklestir",
        -9.532435896385271
      ],
      [
        "'yı",
        -9.532857737609252
      ],
      [
        "/",
        -9.534145946872878
      ],
      [
        "▁neredey",
        -9.534973235770934
      ],
      [
        "▁aktivite",
        -9.53568161395717
      ],
      [
        "▁futbol",
        -9.535681643543942
      ],
      [
        "▁yagmur",
        -9.535708884661796
      ],
      [
        "▁kuzey",
        -9.53571892050553
      ],
      [
        "▁vakit",
        -9.535735039164509
      ],
      [
        "▁kriz",
        -9.535741997610867
      ],
      [
        "▁bekleniyor",
        -9.536767833717516
      ],
      [
        "memis",
        -9.536872530567297
      ],
      [
        "▁takip",
        -9.537197572251523
      ],
      [
        "▁mayıs",
        -9.537995271336463
      ],
      [
        "▁amerika",
        -9.538686831557754
      ],
      [
        "▁gur",
        -9.539084182185992
      ],
      [
        "▁cıkıyor",
        -9.540126982624283
      ],
      [
        "▁bah",
        -9.540204268660936
      ],
      [
        "wa",
        -9.542132930473754
      ],
      [
        "▁mudur",
        -9.542600679105057
      ],
      [
        "nizi",
        -9.543685980452539
      ],
      [
        "▁konuda",
        -9.544663343775145
      ],
      [
        "▁merkezin",
        -9.545610646236206
      ],
      [
        "▁yerel",
        -9.546836164936295
      ],
      [
        "▁ap",
        -9.548710856625991
      ],
      [
        "▁1989",
        -9.549016479696004
      ],
      [
        "▁mahalle",
        -9.54902329422545
      ],
      [
        "▁eylem",
        -9.549687419207453
      ],
      [
        "▁durgun",
        -9.549889062498107
      ],
      [
        "▁itibaren",
        -9.550042866576234
      ],
      [
        "▁anlay",
        -9.550745731226744
      ],
      [
        "altı",
        -9.551223810017888
      ],
      [
        "▁sanayi",
        -9.55135821390461
      ],
      [
        "▁kulak",
        -9.551361560941366
      ],
      [
        "▁sistemi",
        -9.55214108042853
      ],
      [
        "▁ilan",
        -9.554456082540224
      ],
      [
        "▁bulunuyor",
        -9.554695522526416
      ],
      [
        "▁per",
        -9.554747081760635
      ],
      [
        "▁askeri",
        -9.555089451305564
      ],
      [
        "▁normal",
        -9.555374362846585
      ],
      [
        "▁karsılık",
        -9.555485138773637
      ],
      [
        "▁oturdu",
        -9.555912355428575
      ],
      [
        "▁yiyecekler",
        -9.556165336499383
      ],
      [
        "▁gereken",
        -9.556361366736258
      ],
      [
        "▁icme",
        -9.556884468591143
      ],
      [
        "▁not",
        -9.557943633562044
      ],
      [
        "▁yeri",
        -9.558149879111909
      ],
      [
        "▁gucu",
        -9.558527632607108
      ],
      [
        "ff",
        -9.559725085271824
      ],
      [
        "▁programı",
        -9.560509549447726
      ],
      [
        "▁ayni",
        -9.560528007909124
      ],
      [
        "▁bat",
        -9.560826425996027
      ],
      [
        "▁kalem",
        -9.561785708367015
      ],
      [
        "▁rekabet",
        -9.562528488501389
      ],
      [
        "▁fransız",
        -9.562530352013244
      ],
      [
        "▁kurumsal",
        -9.56253913309041
      ],
      [
        "▁yorgun",
        -9.56255249413126
      ],
      [
        "▁komsu",
        -9.563298917214304
      ],
      [
        "▁gunku",
        -9.563435363249443
      ],
      [
        "▁aktif",
        -9.563448008183322
      ],
      [
        "▁hele",
        -9.563528106788883
      ],
      [
        "▁kup",
        -9.564212178755973
      ],
      [
        "▁hız",
        -9.564854208631635
      ],
      [
        "▁calisanlar",
        -9.565484297307583
      ],
      [
        "▁gelisme",
        -9.565814198234197
      ],
      [
        "▁deneme",
        -9.565924697735479
      ],
      [
        "meden",
        -9.56610978759065
      ],
      [
        "▁yansıt",
        -9.566992127830495
      ],
      [
        "▁obur",
        -9.56722482978208
      ],
      [
        "▁dogal",
        -9.56789826522985
      ],
      [
        "▁tarla",
        -9.56857311559672
      ],
      [
        "▁halkı",
        -9.56890635568695
      ],
      [
        "▁geciyor",
        -9.569218535467176
      ],
      [
        "i'nde",
        -9.571339278419181
      ],
      [
        "▁ayagı",
        -9.571381594435119
      ],
      [
        "▁endeks",
        -9.572303135717728
      ],
      [
        "▁insa",
        -9.57231762346704
      ],
      [
        "▁cana",
        -9.57355291994486
      ],
      [
        "▁kumas",
        -9.573642187780969
      ],
      [
        "▁mukemmeldi",
        -9.574250084981681
      ],
      [
        "▁mc",
        -9.575270725104502
      ],
      [
        "▁kapsam",
        -9.575517354551636
      ],
      [
        "▁memphis'",
        -9.576227084560921
      ],
      [
        "▁yaptirmadi",
        -9.57623062792626
      ],
      [
        "▁miktar",
        -9.576247838351874
      ],
      [
        "▁general",
        -9.576275271560839
      ],
      [
        "▁fırsat",
        -9.576409036429064
      ],
      [
        "saydı",
        -9.576491632064133
      ],
      [
        "▁hata",
        -9.577477920958799
      ],
      [
        "▁seviyesin",
        -9.578782308779562
      ],
      [
        "▁sehrin",
        -9.57914930276414
      ],
      [
        "▁rengi",
        -9.579830553297535
      ],
      [
        "▁gunleri",
        -9.579942041936608
      ],
      [
        "▁angeles'",
        -9.58024543918139
      ],
      [
        "▁koyun",
        -9.580456846291618
      ],
      [
        "▁kart",
        -9.581253487898156
      ],
      [
        "▁vegas'",
        -9.581363331105461
      ],
      [
        "▁mute",
        -9.582088771956666
      ],
      [
        "▁atıl",
        -9.582819275609431
      ],
      [
        "▁hastalık",
        -9.58286440054141
      ],
      [
        "▁ilgisi",
        -9.583340059834871
      ],
      [
        "▁hizmetleri",
        -9.58657642282629
      ],
      [
        "bire",
        -9.587114234850267
      ],
      [
        "▁ada",
        -9.589240995916281
      ],
      [
        "bası",
        -9.589263274437094
      ],
      [
        "000",
        -9.589553859833071
      ],
      [
        "▁suphe",
        -9.590116956014592
      ],
      [
        "▁huzur",
        -9.590120034807793
      ],
      [
        "▁ornegin",
        -9.590124896277025
      ],
      [
        "▁sabit",
        -9.590139701863752
      ],
      [
        "▁tanrı",
        -9.590190188644932
      ],
      [
        "▁ziya",
        -9.59022741296386
      ],
      [
        "▁yahu",
        -9.590733355083975
      ],
      [
        "▁bildirdi",
        -9.590864453837497
      ],
      [
        "▁city'de",
        -9.591387812403873
      ],
      [
        "▁ilgisiz",
        -9.594662707847764
      ],
      [
        "mesine",
        -9.595519715394612
      ],
      [
        "▁ettigini",
        -9.595936125753884
      ],
      [
        "▁artır",
        -9.597124018891634
      ],
      [
        "▁ila",
        -9.598384123333044
      ],
      [
        "▁rol",
        -9.599670867067577
      ],
      [
        "▁daire",
        -9.600500276277659
      ],
      [
        "▁odamiz",
        -9.600928066769027
      ],
      [
        "▁yargı",
        -9.602307185909272
      ],
      [
        "irdi",
        -9.603259982484635
      ],
      [
        "▁tuketici",
        -9.604200506497643
      ],
      [
        "▁peynir",
        -9.604200935083014
      ],
      [
        "▁anadolu",
        -9.604201784266134
      ],
      [
        "▁kopek",
        -9.604205070129503
      ],
      [
        "▁kasaba",
        -9.604304065442513
      ],
      [
        "▁nite",
        -9.604597672066628
      ],
      [
        "▁sorunları",
        -9.604651661991259
      ],
      [
        "▁sim",
        -9.604829577471977
      ],
      [
        "▁uzerindeki",
        -9.604926016538567
      ],
      [
        "▁saray",
        -9.606304188432052
      ],
      [
        "▁alıcı",
        -9.60734612230024
      ],
      [
        "▁31",
        -9.607887652050435
      ],
      [
        "▁hepsini",
        -9.608807088520889
      ],
      [
        "▁milwaukee'de",
        -9.608940649373281
      ],
      [
        "▁kacır",
        -9.609361536196168
      ],
      [
        "▁bulma",
        -9.610660296451943
      ],
      [
        "▁sah",
        -9.612294608734109
      ],
      [
        "▁bakım",
        -9.612486500981875
      ],
      [
        "▁kalkıyor",
        -9.613169221009048
      ],
      [
        "▁carpı",
        -9.613232230472091
      ],
      [
        "▁fiyatlarını",
        -9.615175804712893
      ],
      [
        "▁hat",
        -9.61607940166562
      ],
      [
        "▁soyler",
        -9.61618718157819
      ],
      [
        "▁ort",
        -9.617389239929778
      ],
      [
        "▁imkan",
        -9.618418096694123
      ],
      [
        "▁muhtesem",
        -9.618486556834695
      ],
      [
        "▁elbise",
        -9.618496540347653
      ],
      [
        "▁edebiyat",
        -9.618588208277417
      ],
      [
        "▁bogaz",
        -9.618642794206
      ],
      [
        "▁vakti",
        -9.618713167132869
      ],
      [
        "▁adi",
        -9.618839386957411
      ],
      [
        "▁akıl",
        -9.619535525546109
      ],
      [
        "▁yakı",
        -9.619794015473783
      ],
      [
        "▁kampanyalar",
        -9.620000514395159
      ],
      [
        "▁bank",
        -9.620344456359117
      ],
      [
        "▁aksamı",
        -9.620847977058506
      ],
      [
        "▁adina",
        -9.621189712710102
      ],
      [
        "▁bulmak",
        -9.621523348005901
      ],
      [
        "▁buray",
        -9.622439425184107
      ],
      [
        "diginde",
        -9.622578214688044
      ],
      [
        "▁sergi",
        -9.623427958234123
      ],
      [
        "▁alabilir",
        -9.623866385363115
      ],
      [
        "▁kalın",
        -9.62531648325352
      ],
      [
        "▁tasarı",
        -9.625452599187701
      ],
      [
        "malıdır",
        -9.62891064052657
      ],
      [
        "▁han",
        -9.629145359445483
      ],
      [
        "▁tutma",
        -9.630261449251165
      ],
      [
        "▁kucu",
        -9.632340865578087
      ],
      [
        "▁olacaktı",
        -9.632459270122878
      ],
      [
        "▁oto",
        -9.632610436311625
      ],
      [
        "▁ozgur",
        -9.633012353117731
      ],
      [
        "▁okuma",
        -9.633089391624488
      ],
      [
        "▁ugras",
        -9.63379241021373
      ],
      [
        "▁hamam",
        -9.634236441908397
      ],
      [
        "▁belge",
        -9.634241757167437
      ],
      [
        "mayacagı",
        -9.63467806061469
      ],
      [
        "▁yapmaya",
        -9.635011398614783
      ],
      [
        "▁dusme",
        -9.635809425724805
      ],
      [
        "▁yasıyor",
        -9.636961800998655
      ],
      [
        "▁hır",
        -9.637006348540623
      ],
      [
        "▁oldugum",
        -9.63736209146181
      ],
      [
        "▁taze",
        -9.637676052328594
      ],
      [
        "▁sozleri",
        -9.637720254894514
      ],
      [
        "▁arkadasları",
        -9.639087945565805
      ],
      [
        "▁cocugun",
        -9.639963429523894
      ],
      [
        "▁jo",
        -9.640846557467704
      ],
      [
        "▁dokuz",
        -9.641754178057468
      ],
      [
        "▁hadi",
        -9.642066546033927
      ],
      [
        "▁sıg",
        -9.642768376391238
      ],
      [
        "▁haziran",
        -9.643352810210406
      ],
      [
        "irim",
        -9.643688191155384
      ],
      [
        "▁ayna",
        -9.644916630869982
      ],
      [
        "▁herkesin",
        -9.645200640377652
      ],
      [
        "▁ucag",
        -9.645857208541688
      ],
      [
        "▁tutun",
        -9.646078492914206
      ],
      [
        "▁hukum",
        -9.646170375821713
      ],
      [
        "▁maliyet",
        -9.646653152473212
      ],
      [
        "▁telefonla",
        -9.64675925511155
      ],
      [
        "*",
        -9.647684830740921
      ],
      [
        "▁danısman",
        -9.647684891565273
      ],
      [
        "▁baslangıc",
        -9.64768559538913
      ],
      [
        "▁banyo",
        -9.647686460313343
      ],
      [
        "▁yildiz",
        -9.647696757088347
      ],
      [
        "tay",
        -9.647868176238365
      ],
      [
        "▁cizgi",
        -9.648580568975277
      ],
      [
        "▁ker",
        -9.648805453547396
      ],
      [
        "▁kalp",
        -9.649633236179058
      ],
      [
        "▁duzenleme",
        -9.650453317007184
      ],
      [
        "▁davet",
        -9.651694862089045
      ],
      [
        "▁arama",
        -9.653237830965674
      ],
      [
        "lenir",
        -9.653776375637417
      ],
      [
        "▁gelistir",
        -9.655094608084063
      ],
      [
        "▁erkekler",
        -9.6558406491474
      ],
      [
        "▁muduru",
        -9.660185017337838
      ],
      [
        "▁kirli",
        -9.660928848369911
      ],
      [
        "▁tezgah",
        -9.662610257580543
      ],
      [
        "▁yumusa",
        -9.662613133294755
      ],
      [
        "▁ideal",
        -9.662614039959324
      ],
      [
        "▁sovyet",
        -9.662622019519421
      ],
      [
        "▁cozum",
        -9.662644790201494
      ],
      [
        "▁koltuk",
        -9.662689226358397
      ],
      [
        "▁nefes",
        -9.662884001191237
      ],
      [
        "▁agız",
        -9.663613809672079
      ],
      [
        "▁radyo",
        -9.663671616284638
      ],
      [
        "▁kaybed",
        -9.66371629399962
      ],
      [
        "▁oyunu",
        -9.663946361131394
      ],
      [
        "▁konforlu",
        -9.664054951664756
      ],
      [
        "lasmıs",
        -9.664286938801391
      ],
      [
        "▁askı",
        -9.664645044201716
      ],
      [
        "▁yaklas",
        -9.664881550562392
      ],
      [
        "▁peki",
        -9.665299466356364
      ],
      [
        "▁olumlu",
        -9.665396534779308
      ],
      [
        "▁yolcu",
        -9.66572630522262
      ],
      [
        "mızda",
        -9.66579654047765
      ],
      [
        "▁tahvilleri",
        -9.665997358942477
      ],
      [
        "syon",
        -9.666457819155001
      ],
      [
        "▁ciz",
        -9.668803295291042
      ],
      [
        "▁olacagı",
        -9.673132711735924
      ],
      [
        "▁personellerin",
        -9.673664226322728
      ],
      [
        "▁gerekir",
        -9.67414812964062
      ],
      [
        "▁hangisi",
        -9.674787738726101
      ],
      [
        "tmek",
        -9.67486191898131
      ],
      [
        "▁sair",
        -9.675642561105311
      ],
      [
        "▁tarafı",
        -9.676179248219004
      ],
      [
        "▁oakland",
        -9.67670709270481
      ],
      [
        "▁dunyada",
        -9.676997687746372
      ],
      [
        "ho",
        -9.677143158296854
      ],
      [
        "▁vazgec",
        -9.677761769409019
      ],
      [
        "▁tren",
        -9.677782169575263
      ],
      [
        "▁kayıt",
        -9.677890803354053
      ],
      [
        "▁wa",
        -9.678155468806587
      ],
      [
        "▁barıs",
        -9.678989702916397
      ],
      [
        "▁butce",
        -9.679083754606356
      ],
      [
        "▁chicago'",
        -9.680375405974589
      ],
      [
        "▁kalmıs",
        -9.682556003754257
      ],
      [
        "▁seviyesinde",
        -9.682948801413099
      ],
      [
        "▁bulus",
        -9.683744352735246
      ],
      [
        "an'ın",
        -9.683778093572068
      ],
      [
        "▁fre",
        -9.684008174627145
      ],
      [
        "▁duman",
        -9.684084841846051
      ],
      [
        "▁oteki",
        -9.686031529276656
      ],
      [
        "▁denge",
        -9.686362875406317
      ],
      [
        "▁sizi",
        -9.687417007968195
      ],
      [
        "▁yo",
        -9.688842587048267
      ],
      [
        "▁kapan",
        -9.68913894761145
      ],
      [
        "▁isleri",
        -9.689961833065084
      ],
      [
        "▁baltimore",
        -9.690652657092311
      ],
      [
        "▁etmedi",
        -9.691826155356374
      ],
      [
        "▁planı",
        -9.692403671999786
      ],
      [
        "▁ju",
        -9.69276501464158
      ],
      [
        "▁uluslararası",
        -9.693146336235438
      ],
      [
        "▁pilot",
        -9.693169976182752
      ],
      [
        "▁tepki",
        -9.693259982256246
      ],
      [
        "▁davranıs",
        -9.694276857411527
      ],
      [
        "▁kalkıs",
        -9.695092272804219
      ],
      [
        "▁odun",
        -9.695522420377248
      ],
      [
        "▁bekleme",
        -9.695547154335536
      ],
      [
        "alıp",
        -9.695769709680714
      ],
      [
        "▁cıkarı",
        -9.69631978468001
      ],
      [
        "▁indir",
        -9.696848551233291
      ],
      [
        "lendirdi",
        -9.697452242536523
      ],
      [
        "▁ceyrekte",
        -9.697506781705211
      ],
      [
        "▁hastane",
        -9.697681029532362
      ],
      [
        "▁mana",
        -9.697939940741731
      ],
      [
        "▁ton",
        -9.700663213369996
      ],
      [
        "▁arkadası",
        -9.702840742445307
      ],
      [
        "▁uygula",
        -9.703498824483725
      ],
      [
        "▁tarafta",
        -9.70579900198554
      ],
      [
        "▁kısmı",
        -9.705944902236512
      ],
      [
        "▁yerini",
        -9.706599864103705
      ],
      [
        "▁kendisin",
        -9.706836510008504
      ],
      [
        "▁aday",
        -9.706882479062457
      ],
      [
        "ecektir",
        -9.707115390017425
      ],
      [
        "lamıstı",
        -9.70754927178703
      ],
      [
        "▁dostu",
        -9.707627200416166
      ],
      [
        "▁havayollarını",
        -9.707765733893094
      ],
      [
        "▁donemde",
        -9.707862705816732
      ],
      [
        "▁orman",
        -9.708171410301215
      ],
      [
        "lesmis",
        -9.708277800262483
      ],
      [
        "▁siparis",
        -9.708771584744525
      ],
      [
        "▁1990",
        -9.708772288095965
      ],
      [
        "▁delikanlı",
        -9.70877304614654
      ],
      [
        "▁ayakkabı",
        -9.708774308338052
      ],
      [
        "▁zayif",
        -9.708784177318275
      ],
      [
        "▁gitmis",
        -9.708800311564517
      ],
      [
        "▁fikri",
        -9.708943225045113
      ],
      [
        "▁corba",
        -9.709016692887323
      ],
      [
        "▁stok",
        -9.709112395894419
      ],
      [
        "▁bush",
        -9.70931443687584
      ],
      [
        "▁zı",
        -9.71018434235204
      ],
      [
        "▁konak",
        -9.710251820005668
      ],
      [
        "▁birbirlerin",
        -9.710560561357482
      ],
      [
        "▁devri",
        -9.710678695026012
      ],
      [
        "▁tipi",
        -9.710716708744288
      ],
      [
        "▁kisisel",
        -9.710757559321287
      ],
      [
        "▁gorur",
        -9.711091849871512
      ],
      [
        "nızı",
        -9.711728044902113
      ],
      [
        "▁oranları",
        -9.71211714892976
      ],
      [
        "▁canlı",
        -9.712718114271883
      ],
      [
        "▁oray",
        -9.713623291629599
      ],
      [
        "▁durma",
        -9.713782753865303
      ],
      [
        "▁edeme",
        -9.71383476952948
      ],
      [
        "mazdı",
        -9.713979160262138
      ],
      [
        "▁agrı",
        -9.715243164587093
      ],
      [
        "diklerini",
        -9.7153172992766
      ],
      [
        "▁acıldı",
        -9.716426835182272
      ],
      [
        "▁bulunma",
        -9.71682991335058
      ],
      [
        "▁normaldi",
        -9.717116691807133
      ],
      [
        "▁parcası",
        -9.717356180816239
      ],
      [
        "▁hamle",
        -9.717358072863593
      ],
      [
        "meleri",
        -9.718034818712022
      ],
      [
        "▁guvenlik",
        -9.71805915389018
      ],
      [
        "▁ruya",
        -9.718492814869794
      ],
      [
        "▁gelisi",
        -9.718752653109378
      ],
      [
        "lestirme",
        -9.719793112855895
      ],
      [
        "'nda",
        -9.720002226408662
      ],
      [
        "▁tele",
        -9.720922654888568
      ],
      [
        "▁nere",
        -9.721143887394906
      ],
      [
        "▁turkiye'de",
        -9.721212296678999
      ],
      [
        "▁aktar",
        -9.72130065291222
      ],
      [
        "▁personelin",
        -9.721950471279019
      ],
      [
        "▁edilme",
        -9.722198478502886
      ],
      [
        "onu",
        -9.722902987002541
      ],
      [
        "▁konfor",
        -9.723113634585562
      ],
      [
        "▁senato",
        -9.723612791410257
      ],
      [
        "▁dolayı",
        -9.724624928575693
      ],
      [
        "▁teslim",
        -9.724650127328967
      ],
      [
        "▁dusmus",
        -9.724718761300956
      ],
      [
        "▁siyasi",
        -9.724724264324948
      ],
      [
        "▁cumle",
        -9.72474245243081
      ],
      [
        "▁indianapolis'te",
        -9.724850304447497
      ],
      [
        "▁devir",
        -9.724976721869497
      ],
      [
        "▁karanlık",
        -9.725934150271065
      ],
      [
        "▁marka",
        -9.72600619172243
      ],
      [
        "▁otuz",
        -9.72614883905321
      ],
      [
        "▁karısı",
        -9.726761458899846
      ],
      [
        "▁edilmis",
        -9.727334196436864
      ],
      [
        "▁cep",
        -9.727683798245383
      ],
      [
        "▁gercekles",
        -9.727787837730041
      ],
      [
        "▁kalktı",
        -9.727798217333609
      ],
      [
        "▁ucretleri",
        -9.728289055197623
      ],
      [
        "imizi",
        -9.729050092932857
      ],
      [
        "llah",
        -9.729804543121642
      ],
      [
        "▁zamanı",
        -9.730129738301985
      ],
      [
        "▁yuvarla",
        -9.730172746224175
      ],
      [
        "▁nas",
        -9.73056556730344
      ],
      [
        "▁sevgili",
        -9.73112732593368
      ],
      [
        "▁23",
        -9.731320180260742
      ],
      [
        "▁secil",
        -9.732147676941132
      ],
      [
        "▁ismi",
        -9.733464290295354
      ],
      [
        "▁calı",
        -9.734860745265403
      ],
      [
        "▁bekley",
        -9.735351174787228
      ],
      [
        "ılacak",
        -9.736324439632796
      ],
      [
        "ji",
        -9.736351470407657
      ],
      [
        "ron",
        -9.736817221277636
      ],
      [
        "madıgı",
        -9.737259539396293
      ],
      [
        "▁liste",
        -9.737714227017875
      ],
      [
        "▁bizimle",
        -9.737943735125874
      ],
      [
        "▁katilma",
        -9.737944519537423
      ],
      [
        "dıklarını",
        -9.740137754363372
      ],
      [
        "▁kaliforniya",
        -9.740773382545925
      ],
      [
        "▁hacim",
        -9.740878617678176
      ],
      [
        "▁isteyen",
        -9.741416623266776
      ],
      [
        "▁utan",
        -9.741645224169826
      ],
      [
        "▁bırakma",
        -9.742230799204972
      ],
      [
        "▁kıyasla",
        -9.744538104069662
      ],
      [
        "▁basit",
        -9.744781246231177
      ],
      [
        "▁superdi",
        -9.745803305404841
      ],
      [
        "▁yapmayı",
        -9.746776230091156
      ],
      [
        "▁temmuz'da",
        -9.747235117004319
      ],
      [
        "▁kopu",
        -9.748376989395185
      ],
      [
        "▁donme",
        -9.749016190838837
      ],
      [
        "▁avuc",
        -9.749433364238172
      ],
      [
        "▁hepimiz",
        -9.74960620297349
      ],
      [
        "▁tav",
        -9.750369006884512
      ],
      [
        "ow",
        -9.750462158966574
      ],
      [
        "▁koylu",
        -9.750782313621075
      ],
      [
        "▁oakland'da",
        -9.751705482995952
      ],
      [
        "▁aracı",
        -9.752099965600355
      ],
      [
        "▁verim",
        -9.753973079336738
      ],
      [
        "▁uygundu",
        -9.756305816441104
      ],
      [
        "port",
        -9.756579460570812
      ],
      [
        "▁enflasyon",
        -9.757166860510258
      ],
      [
        "▁sikayet",
        -9.757166925364027
      ],
      [
        "▁merdiven",
        -9.757167219908915
      ],
      [
        "▁sofra",
        -9.757181981641832
      ],
      [
        "▁nakit",
        -9.757183527963576
      ],
      [
        "▁ekibi",
        -9.75718777688731
      ],
      [
        "▁far",
        -9.757210340707886
      ],
      [
        "▁yıldız",
        -9.757234028196946
      ],
      [
        "▁paket",
        -9.757236959157094
      ],
      [
        "▁muzik",
        -9.757263622312607
      ],
      [
        "▁irak",
        -9.757528222339552
      ],
      [
        "rah",
        -9.757812594130426
      ],
      [
        "▁kral",
        -9.757941687058931
      ],
      [
        "▁vurdu",
        -9.758735287846514
      ],
      [
        "▁tesiste",
        -9.759530038669062
      ],
      [
        "▁asagıda",
        -9.759927507239727
      ],
      [
        "▁cıkıs",
        -9.760001923767815
      ],
      [
        "▁mulk",
        -9.76012536653799
      ],
      [
        "▁kesti",
        -9.761057288362828
      ],
      [
        "▁eris",
        -9.761245248465329
      ],
      [
        "▁tekne",
        -9.761387956194294
      ],
      [
        "▁%1",
        -9.762497903723515
      ],
      [
        "▁ters",
        -9.762802296669665
      ],
      [
        "▁odalari",
        -9.7652723051598
      ],
      [
        "▁basım",
        -9.765997826553374
      ],
      [
        "▁sayısı",
        -9.766427090134513
      ],
      [
        "▁yarar",
        -9.768081583642118
      ],
      [
        "▁sonucu",
        -9.770110187075051
      ],
      [
        "▁temsilci",
        -9.77211188398482
      ],
      [
        "▁baslama",
        -9.772205113938474
      ],
      [
        "▁international",
        -9.773833491832079
      ],
      [
        "▁tuccar",
        -9.773833631049317
      ],
      [
        "▁mektup",
        -9.77383448235406
      ],
      [
        "▁belediye",
        -9.773840012615171
      ],
      [
        "▁mutlak",
        -9.773850570667342
      ],
      [
        "▁john",
        -9.773861637378563
      ],
      [
        "▁defter",
        -9.773862362343973
      ],
      [
        "▁savası",
        -9.773962630562481
      ],
      [
        "▁agustos'ta",
        -9.774128409396036
      ],
      [
        "▁taban",
        -9.774779544023069
      ],
      [
        "▁yıllarda",
        -9.774783681506957
      ],
      [
        "▁elma",
        -9.774807739920664
      ],
      [
        "▁oysa",
        -9.776070403661272
      ],
      [
        "▁kalbi",
        -9.77729811842333
      ],
      [
        "▁taksi",
        -9.777632155323722
      ],
      [
        "▁gerekli",
        -9.780860783053832
      ],
      [
        "▁zorlu",
        -9.781755035351521
      ],
      [
        "▁chicago'da",
        -9.781813086300513
      ],
      [
        "▁olmaya",
        -9.783999041198918
      ],
      [
        "▁konusuyor",
        -9.78454664300864
      ],
      [
        "▁paylas",
        -9.78607044003934
      ],
      [
        "▁degisme",
        -9.78760076313485
      ],
      [
        "▁durdur",
        -9.78768175271429
      ],
      [
        "▁ihti",
        -9.78979103294761
      ],
      [
        "▁ayakları",
        -9.790121208510982
      ],
      [
        "▁kaybetti",
        -9.790783295261875
      ],
      [
        "▁eyalet",
        -9.790783939173227
      ],
      [
        "▁yuregi",
        -9.790784558333009
      ],
      [
        "▁sayfa",
        -9.790838271708424
      ],
      [
        "▁tokyo",
        -9.790849770203653
      ],
      [
        "▁titre",
        -9.790884232726256
      ],
      [
        "▁sendika",
        -9.790906572432258
      ],
      [
        "▁yuzyıl",
        -9.790962128724068
      ],
      [
        "▁olumsuz",
        -9.791707486507107
      ],
      [
        "▁zamanlarda",
        -9.791786825736047
      ],
      [
        "▁sureci",
        -9.792370614292565
      ],
      [
        "▁icerisinde",
        -9.792461327578444
      ],
      [
        "▁egili",
        -9.793161189629426
      ],
      [
        "▁hakkin",
        -9.793273328987112
      ],
      [
        "▁japonya'",
        -9.793689049011714
      ],
      [
        "▁gunlerde",
        -9.794101564193898
      ],
      [
        "▁gelince",
        -9.794456276758831
      ],
      [
        "▁degillerdi",
        -9.795221115492478
      ],
      [
        "▁yapmıs",
        -9.795955929169434
      ],
      [
        "▁basta",
        -9.798743112662748
      ],
      [
        "▁degerlendirme",
        -9.799097602587654
      ],
      [
        "▁ihrac",
        -9.799688649798947
      ],
      [
        "ov",
        -9.79981025448263
      ],
      [
        "▁mat",
        -9.799889392040015
      ],
      [
        "ebilecek",
        -9.801197627659416
      ],
      [
        "▁girer",
        -9.801371196330075
      ],
      [
        "▁karısık",
        -9.80368874075652
      ],
      [
        "▁turku",
        -9.804550352443682
      ],
      [
        "arım",
        -9.80481011966334
      ],
      [
        "▁louis'",
        -9.805828606990067
      ],
      [
        "▁35",
        -9.806018569461857
      ],
      [
        "▁koruma",
        -9.806126137728203
      ],
      [
        "▁28",
        -9.807306634346705
      ],
      [
        "▁ulus",
        -9.80740858358083
      ],
      [
        "▁tasarruf",
        -9.80802402394357
      ],
      [
        "▁bagımsız",
        -9.808025804142884
      ],
      [
        "▁alısveris",
        -9.808026196724942
      ],
      [
        "▁kopru",
        -9.808061156594219
      ],
      [
        "▁ardı",
        -9.80806485274568
      ],
      [
        "▁garip",
        -9.808075024468778
      ],
      [
        "▁icki",
        -9.808265709212279
      ],
      [
        "▁teknik",
        -9.808294274907833
      ],
      [
        "bb",
        -9.808299512672384
      ],
      [
        "▁bilesik",
        -9.808600422826622
      ],
      [
        "▁anlatı",
        -9.808946775756407
      ],
      [
        "▁kanıt",
        -9.80948356661911
      ],
      [
        "▁edebilir",
        -9.810110083999522
      ],
      [
        "▁yonet",
        -9.810293148626641
      ],
      [
        "▁adamları",
        -9.810941086440566
      ],
      [
        "▁sonucları",
        -9.811014424940758
      ],
      [
        "▁civarında",
        -9.81136271321536
      ],
      [
        "▁hasar",
        -9.811602879758603
      ],
      [
        "▁iri",
        -9.811765714832315
      ],
      [
        "▁amerikalı",
        -9.81228504023911
      ],
      [
        "▁adını",
        -9.813319539306452
      ],
      [
        "▁toplu",
        -9.813880947744149
      ],
      [
        "▁anı",
        -9.81425832498666
      ],
      [
        "▁etkisi",
        -9.815012395994305
      ],
      [
        "▁renkli",
        -9.815367104935355
      ],
      [
        "▁olanakları",
        -9.817323678319234
      ],
      [
        "seniz",
        -9.81813652091234
      ],
      [
        "▁dusen",
        -9.821018295729655
      ],
      [
        "▁24",
        -9.82104452352699
      ],
      [
        "▁takı",
        -9.821297521671475
      ],
      [
        "▁tutul",
        -9.822416301267868
      ],
      [
        "▁baslıyor",
        -9.822671213995097
      ],
      [
        "▁sayıl",
        -9.824530434004465
      ],
      [
        "▁boyu",
        -9.824637662845854
      ],
      [
        "▁vurgu",
        -9.825026507101093
      ],
      [
        "▁196",
        -9.82537954561845
      ],
      [
        "20",
        -9.825562318473132
      ],
      [
        "▁restoran",
        -9.825568070182598
      ],
      [
        "▁vucudu",
        -9.825569188997312
      ],
      [
        "▁garanti",
        -9.825570887620742
      ],
      [
        "▁basbakan",
        -9.825571297584093
      ],
      [
        "▁tarife",
        -9.825572921981724
      ],
      [
        "▁plaj",
        -9.82558991711127
      ],
      [
        "▁kasıgı",
        -9.82560849698013
      ],
      [
        "▁nihayet",
        -9.825610828505607
      ],
      [
        "▁mezar",
        -9.825680091238713
      ],
      [
        "▁gunduz",
        -9.825691843359827
      ],
      [
        "▁anayasa",
        -9.82578439456545
      ],
      [
        "▁devre",
        -9.825814834086902
      ],
      [
        "▁yonetimi",
        -9.826294592787967
      ],
      [
        "▁baglantı",
        -9.826571783376089
      ],
      [
        "▁darbe",
        -9.827284256311295
      ],
      [
        "▁arz",
        -9.827775828568178
      ],
      [
        "▁kavga",
        -9.827921737706397
      ],
      [
        "▁rahatsız",
        -9.82809181004939
      ],
      [
        "▁hakim",
        -9.828354656885683
      ],
      [
        "▁emir",
        -9.828392240084609
      ],
      [
        "▁mekan",
        -9.828537162005723
      ],
      [
        "▁alay",
        -9.82922747762049
      ],
      [
        "▁29",
        -9.829557425743443
      ],
      [
        "▁ilgilenmedi",
        -9.830113759954141
      ],
      [
        "▁verin",
        -9.83097180556992
      ],
      [
        "▁yakında",
        -9.83136958749429
      ],
      [
        "▁dususle",
        -9.831517281726896
      ],
      [
        "o'nun",
        -9.83316291009903
      ],
      [
        "▁montreal'",
        -9.83519734118658
      ],
      [
        "▁his",
        -9.837763232875481
      ],
      [
        "▁cagrı",
        -9.838599660587146
      ],
      [
        "abilmek",
        -9.838799269486582
      ],
      [
        "gımız",
        -9.839920443292174
      ],
      [
        "▁satısı",
        -9.841523535231058
      ],
      [
        "▁kodu",
        -9.842192414026314
      ],
      [
        "ster",
        -9.842450998491202
      ],
      [
        "▁kalır",
        -9.842805299591017
      ],
      [
        "▁perakende",
        -9.843425071730582
      ],
      [
        "▁yumurta",
        -9.843425083591775
      ],
      [
        "▁gurultu",
        -9.843425733282276
      ],
      [
        "▁cabuk",
        -9.843428044999463
      ],
      [
        "▁tampa'",
        -9.843430537420444
      ],
      [
        "▁vapur",
        -9.843460611303481
      ],
      [
        "▁posta",
        -9.84350977194481
      ],
      [
        "▁dusunmuyor",
        -9.843978523304534
      ],
      [
        "▁birbiri",
        -9.844085795700122
      ],
      [
        "▁bahseder",
        -9.844636392773939
      ],
      [
        "▁hijyenik",
        -9.845641072011297
      ],
      [
        "lendiril",
        -9.846549450174182
      ],
      [
        "▁cig",
        -9.849571697660835
      ],
      [
        "▁sinema",
        -9.851028221131312
      ],
      [
        "▁toz",
        -9.851719999214655
      ],
      [
        "▁sevdigi",
        -9.852420446565727
      ],
      [
        "▁yemeklerde",
        -9.852665330856528
      ],
      [
        "▁yerlesti",
        -9.853108600952709
      ],
      [
        "▁gozlem",
        -9.856540360326342
      ],
      [
        "▁sevin",
        -9.856717921045039
      ],
      [
        "▁sogu",
        -9.857600140361512
      ],
      [
        "▁gormus",
        -9.857742851106792
      ],
      [
        "▁donuyor",
        -9.858596732178082
      ],
      [
        "▁anladı",
        -9.859795010234574
      ],
      [
        "▁standart",
        -9.861606875697683
      ],
      [
        "▁londra",
        -9.861606974605325
      ],
      [
        "▁zincir",
        -9.861607015820418
      ],
      [
        "▁serbest",
        -9.861608062657183
      ],
      [
        "▁cadde",
        -9.861619619560443
      ],
      [
        "▁mantık",
        -9.86171360998916
      ],
      [
        "▁analiz",
        -9.86181352399694
      ],
      [
        "▁dosya",
        -9.861816234200793
      ],
      [
        "▁niha",
        -9.861863076100446
      ],
      [
        "▁kurdu",
        -9.862524166598664
      ],
      [
        "▁takımı",
        -9.863756656935422
      ],
      [
        "▁gorustu",
        -9.864316964406305
      ],
      [
        "▁kosulları",
        -9.864761533356864
      ],
      [
        "▁usul",
        -9.865417315803478
      ],
      [
        "▁basar",
        -9.866763104817048
      ],
      [
        "▁duran",
        -9.867462132734842
      ],
      [
        "medigi",
        -9.86804614875339
      ],
      [
        "▁yarısı",
        -9.868985274786166
      ],
      [
        "bre",
        -9.869161762993041
      ],
      [
        "▁ilerle",
        -9.869975732104962
      ],
      [
        "▁toronto'da",
        -9.870479822670205
      ],
      [
        "▁komisyonu",
        -9.871153201930266
      ],
      [
        "▁duyma",
        -9.871350061810695
      ],
      [
        "▁mola",
        -9.871828934955833
      ],
      [
        "caktır",
        -9.87186399571447
      ],
      [
        "▁yapılma",
        -9.87314238054333
      ],
      [
        "▁bri",
        -9.873431568900005
      ],
      [
        "▁ellerinde",
        -9.876572254887034
      ],
      [
        "▁verecek",
        -9.877985807018252
      ],
      [
        "▁nashville'",
        -9.880125363923767
      ],
      [
        "▁tesvik",
        -9.88012612157458
      ],
      [
        "▁meyve",
        -9.88013215770415
      ],
      [
        "▁kamyon",
        -9.880152944403475
      ],
      [
        "▁ureticisi",
        -9.880155691244498
      ],
      [
        "▁kesinti",
        -9.880259971814091
      ],
      [
        "ertesi",
        -9.88031347069266
      ],
      [
        "▁yapacagı",
        -9.880461052061047
      ],
      [
        "▁yuzunu",
        -9.88078441533931
      ],
      [
        "▁yazma",
        -9.880789118755942
      ],
      [
        "▁seyred",
        -9.881816016474668
      ],
      [
        "▁saldırı",
        -9.882308215292694
      ],
      [
        "▁baslayan",
        -9.88276336802393
      ],
      [
        "▁yoneticileri",
        -9.88322930067524
      ],
      [
        "▁tv",
        -9.883580186037628
      ],
      [
        "▁kolu",
        -9.884061361989158
      ],
      [
        "▁yapılmıs",
        -9.884817892289801
      ],
      [
        "▁yemeklerinde",
        -9.885021505701365
      ],
      [
        "▁vatan",
        -9.886107407879337
      ],
      [
        "▁kursun",
        -9.88677659809073
      ],
      [
        "▁ediliyor",
        -9.88819192064097
      ],
      [
        "▁istanbul'da",
        -9.888233705299152
      ],
      [
        "▁olmadı",
        -9.889270373824225
      ],
      [
        "▁dogrusu",
        -9.88970504599244
      ],
      [
        "▁bosal",
        -9.889934802673718
      ],
      [
        "takım",
        -9.890806629723325
      ],
      [
        "▁kızar",
        -9.890959378903666
      ],
      [
        "▁etmekte",
        -9.891941761452658
      ],
      [
        "▁kadının",
        -9.89426690911613
      ],
      [
        "▁olurdu",
        -9.89490069557014
      ],
      [
        "▁kavram",
        -9.895600034500378
      ],
      [
        "▁tarihinde",
        -9.896387689127957
      ],
      [
        "▁piyasada",
        -9.89667271391245
      ],
      [
        "▁emekli",
        -9.897043930930472
      ],
      [
        "▁ayakta",
        -9.897816613873994
      ],
      [
        "oloji",
        -9.898279711402486
      ],
      [
        "▁petersburg'",
        -9.898993287429228
      ],
      [
        "▁kalabalık",
        -9.898993792129657
      ],
      [
        "▁north",
        -9.898995588245523
      ],
      [
        "▁komite",
        -9.899002591580185
      ],
      [
        "▁ofke",
        -9.899009333721619
      ],
      [
        "▁acıklanmadı",
        -9.899029716599218
      ],
      [
        "▁keskin",
        -9.899299131942259
      ],
      [
        "▁prens",
        -9.899875847640605
      ],
      [
        "▁kocaman",
        -9.900457005964359
      ],
      [
        "▁sırasında",
        -9.901166582624292
      ],
      [
        "▁oturma",
        -9.90132090519925
      ],
      [
        "▁ucan",
        -9.902560860190267
      ],
      [
        "▁bankası",
        -9.902619720039997
      ],
      [
        "▁sokag",
        -9.902953757927527
      ],
      [
        "▁kalacak",
        -9.905039984802334
      ],
      [
        "▁gittigi",
        -9.906788898223745
      ],
      [
        "▁sezon",
        -9.90704100469957
      ],
      [
        "▁havaalanı",
        -9.90713641728422
      ],
      [
        "▁boyut",
        -9.907517014777802
      ],
      [
        "▁indirim",
        -9.908473334487176
      ],
      [
        "▁gelistirme",
        -9.908606863317154
      ],
      [
        "▁odul",
        -9.910329056284027
      ],
      [
        "▁esas",
        -9.911557698524955
      ],
      [
        "▁haric",
        -9.91360905113579
      ],
      [
        "▁phoenix'de",
        -9.914094473265338
      ],
      [
        "sanız",
        -9.914229047579273
      ],
      [
        "▁masraf",
        -9.918224138891645
      ],
      [
        "▁yavru",
        -9.91822929346382
      ],
      [
        "▁ugur",
        -9.918230075818606
      ],
      [
        "▁havalimanı",
        -9.918233763241448
      ],
      [
        "▁gonlu",
        -9.918349160537812
      ],
      [
        "▁mevsim",
        -9.918393419771556
      ],
      [
        "▁mesaj",
        -9.918460107447912
      ],
      [
        "▁ilave",
        -9.918795698473414
      ],
      [
        "▁curu",
        -9.918851821766165
      ],
      [
        "▁aktarma",
        -9.919224923907269
      ],
      [
        "▁firması",
        -9.919416640834921
      ],
      [
        "10",
        -9.919898739135466
      ],
      [
        "▁osmanlı",
        -9.92021128990819
      ],
      [
        "▁yaprak",
        -9.920500821348062
      ],
      [
        "▁celik",
        -9.921505551638258
      ],
      [
        "▁bardak",
        -9.921838226828735
      ],
      [
        "▁fonları",
        -9.92238773932953
      ],
      [
        "▁etrafı",
        -9.922913483705276
      ],
      [
        "▁bakma",
        -9.926140950047122
      ],
      [
        "▁iti",
        -9.930434992774872
      ],
      [
        "▁ogret",
        -9.931018040543336
      ],
      [
        "▁etmisti",
        -9.931502869426064
      ],
      [
        "▁yetisti",
        -9.93222840481318
      ],
      [
        "▁sevinc",
        -9.934302351322657
      ],
      [
        "▁cakı",
        -9.93667585438386
      ],
      [
        "▁tedavulde",
        -9.937831901261799
      ],
      [
        "▁zeytin",
        -9.937832031852357
      ],
      [
        "▁pırıl",
        -9.937832899206706
      ],
      [
        "▁galiba",
        -9.937848099799782
      ],
      [
        "▁evren",
        -9.938130430492908
      ],
      [
        "▁kanada",
        -9.938297215914623
      ],
      [
        "▁mısır",
        -9.938358673587924
      ],
      [
        "▁basarısız",
        -9.938822559812639
      ],
      [
        "▁arzu",
        -9.939553720795121
      ],
      [
        "▁verici",
        -9.939680408915601
      ],
      [
        "▁kusku",
        -9.942523821179153
      ],
      [
        "▁sever",
        -9.943212993540754
      ],
      [
        "▁kese",
        -9.944236596889684
      ],
      [
        "mayacagını",
        -9.945019114534622
      ],
      [
        "koy",
        -9.945143985025071
      ],
      [
        "▁saatlerde",
        -9.945191401574066
      ],
      [
        "▁saglaya",
        -9.945514069689848
      ],
      [
        "▁yen'",
        -9.946025019931268
      ],
      [
        "▁donemi",
        -9.946078816172562
      ],
      [
        "▁burnu",
        -9.947012946337296
      ],
      [
        "▁okudu",
        -9.947584644971212
      ],
      [
        "▁omuz",
        -9.948630333550597
      ],
      [
        "▁gelecegi",
        -9.94884325695044
      ],
      [
        "▁yerles",
        -9.95140026979913
      ],
      [
        "▁deney",
        -9.953721173449571
      ],
      [
        "▁goc",
        -9.956259123363877
      ],
      [
        "▁yemis",
        -9.957631498520499
      ],
      [
        "▁uyusturucu",
        -9.957831901416169
      ],
      [
        "▁sebebi",
        -9.957837933379219
      ],
      [
        "▁yitir",
        -9.957993855409557
      ],
      [
        "lastırma",
        -9.958595705992483
      ],
      [
        "▁unlu",
        -9.958624937641307
      ],
      [
        "▁ual",
        -9.958650873286476
      ],
      [
        "▁ortasında",
        -9.958802481006988
      ],
      [
        "▁gozlu",
        -9.958922239405746
      ],
      [
        "▁oglum",
        -9.95894777003005
      ],
      [
        "▁malzemeler",
        -9.95911119299684
      ],
      [
        "▁tırman",
        -9.959238547277511
      ],
      [
        "▁bilinc",
        -9.959555119542765
      ],
      [
        "▁kabil",
        -9.960663336975703
      ],
      [
        "▁giriste",
        -9.962961124247396
      ],
      [
        "▁anlamın",
        -9.965820717227434
      ],
      [
        "▁geriledi",
        -9.96766219747434
      ],
      [
        "▁bulut",
        -9.968829179480567
      ],
      [
        "▁gecirme",
        -9.971759503922428
      ],
      [
        "▁inceleme",
        -9.971759792589328
      ],
      [
        "▁getirme",
        -9.972184322032456
      ],
      [
        "▁dc'de",
        -9.972288081695066
      ],
      [
        "▁yukselis",
        -9.972772149089149
      ],
      [
        "▁unutma",
        -9.973934750872441
      ],
      [
        "medigini",
        -9.975339689829418
      ],
      [
        "▁bakın",
        -9.976285008777564
      ],
      [
        "5'te",
        -9.977757497044948
      ],
      [
        ".000",
        -9.977827405587387
      ],
      [
        "▁a.b.d",
        -9.978240063064034
      ],
      [
        "▁husus",
        -9.978247239513973
      ],
      [
        "▁keyif",
        -9.978258546935832
      ],
      [
        "▁koltug",
        -9.978649266561455
      ],
      [
        "▁ithalat",
        -9.979138690638191
      ],
      [
        "▁bilimsel",
        -9.979400018903462
      ],
      [
        "▁ahlak",
        -9.979720913787348
      ],
      [
        "▁houston'",
        -9.98002628357755
      ],
      [
        "▁bahse",
        -9.980320316668879
      ],
      [
        "▁temsil",
        -9.980377252954726
      ],
      [
        "▁vol",
        -9.980678047472129
      ],
      [
        "▁inanıyor",
        -9.980703540387434
      ],
      [
        "▁yaygın",
        -9.98134889762833
      ],
      [
        "▁bankacı",
        -9.983306883353007
      ],
      [
        "▁savcı",
        -9.983676203215959
      ],
      [
        "▁surat",
        -9.986868331318217
      ],
      [
        "▁fan",
        -9.987498649997843
      ],
      [
        "▁newark'",
        -9.988765039756585
      ],
      [
        "▁baslamıs",
        -9.988825747745109
      ],
      [
        "▁burun",
        -9.989076088724724
      ],
      [
        "▁elestiri",
        -9.990231119712448
      ],
      [
        "▁yapıldı",
        -9.990883626067726
      ],
      [
        "▁isini",
        -9.991016062015456
      ],
      [
        "▁kokusu",
        -9.993220058514526
      ],
      [
        "▁vah",
        -9.993713709747116
      ],
      [
        "▁yil",
        -9.993733961061203
      ],
      [
        "▁indianapolis",
        -9.998802472898275
      ],
      [
        "▁italya",
        -9.999073889393221
      ],
      [
        "▁karsiladi",
        -9.999073890122002
      ],
      [
        "▁direkt",
        -9.999178007952876
      ],
      [
        "▁ulasılama",
        -9.999181578579746
      ],
      [
        "▁ihtimal",
        -9.999388779462777
      ],
      [
        "▁kurban",
        -9.999442292762495
      ],
      [
        "▁yuzluydu",
        -9.999572118769322
      ],
      [
        "▁model",
        -10.00010154544528
      ],
      [
        ".25",
        -10.000200250433767
      ],
      [
        "▁gazeteci",
        -10.000634529081465
      ],
      [
        "▁almanya'",
        -10.000730148257407
      ],
      [
        "▁organ",
        -10.001003388445252
      ],
      [
        "▁gecici",
        -10.002629929823067
      ],
      [
        "▁maas",
        -10.003052342482334
      ],
      [
        "▁oldugunda",
        -10.003358170140064
      ],
      [
        "▁ucagın",
        -10.005999743925416
      ],
      [
        "▁acab",
        -10.006037956250747
      ],
      [
        "7.5",
        -10.006108509894506
      ],
      [
        "▁hur",
        -10.006212986326574
      ],
      [
        "▁degerlendirir",
        -10.007828206188933
      ],
      [
        "▁olmasını",
        -10.008597575107359
      ],
      [
        "▁ticarette",
        -10.010222084638277
      ],
      [
        "▁sanatcı",
        -10.010667484373649
      ],
      [
        "▁sandal",
        -10.011481452901785
      ],
      [
        "▁etrafında",
        -10.011642611902118
      ],
      [
        "▁bozul",
        -10.01251023776101
      ],
      [
        "2.5",
        -10.012550374455108
      ],
      [
        "▁goturdu",
        -10.013730602273583
      ],
      [
        "▁alem",
        -10.015498817984401
      ],
      [
        "▁yasamadi",
        -10.016876687718238
      ],
      [
        "▁toronto'",
        -10.017113386695604
      ],
      [
        "▁elestir",
        -10.018893557089523
      ],
      [
        "▁1987",
        -10.020352607385266
      ],
      [
        "▁ihale",
        -10.020352800534482
      ],
      [
        "▁elektronik",
        -10.020355995801575
      ],
      [
        "▁pahalı",
        -10.020359879534201
      ],
      [
        "▁zafer",
        -10.02043341083887
      ],
      [
        "▁dibin",
        -10.020565078482342
      ],
      [
        "▁toprag",
        -10.021441252417324
      ],
      [
        "▁gelenek",
        -10.021587830298545
      ],
      [
        "▁artısı",
        -10.02229685923718
      ],
      [
        "▁bahar",
        -10.022715678597407
      ],
      [
        "▁bakanı",
        -10.023401366298888
      ],
      [
        "▁uzakta",
        -10.024888633144437
      ],
      [
        "▁tavan",
        -10.026244498819327
      ],
      [
        "▁rakı",
        -10.026545362581016
      ],
      [
        "▁deneyim",
        -10.027229726467606
      ],
      [
        "▁bacak",
        -10.027483513442922
      ],
      [
        "▁edilmesi",
        -10.027837570407122
      ],
      [
        "▁newark'ta",
        -10.030994603414804
      ],
      [
        "▁fatura",
        -10.031869858721544
      ],
      [
        "▁baslamıstı",
        -10.033815286990745
      ],
      [
        "▁iceriyor",
        -10.034638602832656
      ],
      [
        "▁edecegi",
        -10.036499831367701
      ],
      [
        "▁kullanma",
        -10.037182949175957
      ],
      [
        "▁kullanıyor",
        -10.037434450139683
      ],
      [
        "▁yaban",
        -10.041532705574639
      ],
      [
        "▁sohbet",
        -10.042089196111966
      ],
      [
        "▁pozisyon",
        -10.042089246081517
      ],
      [
        "▁felaket",
        -10.04209045181869
      ],
      [
        "▁tedbir",
        -10.042090971345822
      ],
      [
        "▁ajans",
        -10.042094731421132
      ],
      [
        "▁teminat",
        -10.042095640324478
      ],
      [
        "▁iletisim",
        -10.042100562403615
      ],
      [
        "▁israil",
        -10.042102582180874
      ],
      [
        "▁camasır",
        -10.042102832468498
      ],
      [
        "▁katılım",
        -10.042277958040355
      ],
      [
        "▁bakımından",
        -10.042417113687812
      ],
      [
        "ebilmek",
        -10.042469203515749
      ],
      [
        "▁yontem",
        -10.042509085112881
      ],
      [
        "▁vatandas",
        -10.042549218769546
      ],
      [
        "▁gezdi",
        -10.044896517557932
      ],
      [
        "▁dusunuyoru",
        -10.047236289913982
      ],
      [
        "▁olayı",
        -10.047857385169287
      ],
      [
        "ebilecegini",
        -10.04915528478648
      ],
      [
        "▁dusunur",
        -10.050424004714234
      ],
      [
        "▁phoenix'",
        -10.05058066881806
      ],
      [
        "▁catı",
        -10.056108961225437
      ],
      [
        "lasıyor",
        -10.059147043440612
      ],
      [
        "▁gerceklesti",
        -10.06026493627453
      ],
      [
        "▁ingiltere",
        -10.064311344866343
      ],
      [
        "▁holding",
        -10.064311360642012
      ],
      [
        "▁cerceve",
        -10.064311396259635
      ],
      [
        "▁zavallı",
        -10.064311404219444
      ],
      [
        "▁kahvaltı",
        -10.06431142465879
      ],
      [
        "▁kalabalik",
        -10.064311502642276
      ],
      [
        "▁epey",
        -10.064314990484904
      ],
      [
        "▁1/2",
        -10.064323072489236
      ],
      [
        "▁ahmet",
        -10.064347407318845
      ],
      [
        "▁ustelik",
        -10.064379264872379
      ],
      [
        "▁bonolar",
        -10.064415932105632
      ],
      [
        "▁gogsu",
        -10.064505567094992
      ],
      [
        "▁kaybı",
        -10.064845047296533
      ],
      [
        "▁1.5",
        -10.064997216729532
      ],
      [
        "▁satıcı",
        -10.065365466911263
      ],
      [
        "▁istanbul'",
        -10.066158040219578
      ],
      [
        "▁mimar",
        -10.067053530214789
      ],
      [
        "▁gumus",
        -10.06707347170682
      ],
      [
        "▁sahiptir",
        -10.067558150428376
      ],
      [
        "▁eglen",
        -10.068261795219245
      ],
      [
        "▁ayrıldı",
        -10.068388069034087
      ],
      [
        "▁toren",
        -10.069151101314668
      ],
      [
        "▁gunah",
        -10.069174106474883
      ],
      [
        "▁hissetti",
        -10.069244883345851
      ],
      [
        "▁hasan",
        -10.069967830720216
      ],
      [
        "40",
        -10.070469126513991
      ],
      [
        "▁agacı",
        -10.075162658469706
      ],
      [
        "▁oturmus",
        -10.077165634715314
      ],
      [
        "▁yonel",
        -10.078460990772157
      ],
      [
        "▁birlesi",
        -10.080225700513509
      ],
      [
        "▁burası",
        -10.080964753659472
      ],
      [
        "malıydı",
        -10.081496648552362
      ],
      [
        "▁asama",
        -10.08522995262367
      ],
      [
        "▁gayrimenkul",
        -10.087038618242229
      ],
      [
        "▁internet",
        -10.087038624131715
      ],
      [
        "▁burbank'",
        -10.087038640180058
      ],
      [
        "▁sorusturma",
        -10.087039053741995
      ],
      [
        "▁seklinde",
        -10.087039229312676
      ],
      [
        "▁kaydetti",
        -10.087041218292319
      ],
      [
        "▁itiraz",
        -10.08704226177415
      ],
      [
        "▁karsilama",
        -10.08706246880083
      ],
      [
        "▁ayrıntı",
        -10.087167952859927
      ],
      [
        "▁twa",
        -10.087178370258997
      ],
      [
        "▁reform",
        -10.087561104302708
      ],
      [
        "▁farkında",
        -10.088302813673522
      ],
      [
        "▁tavır",
        -10.08842817767568
      ],
      [
        "▁listesini",
        -10.088586363031542
      ],
      [
        "▁korkunc",
        -10.088608544961925
      ],
      [
        "▁ihracat",
        -10.089517689761447
      ],
      [
        "▁haziran'da",
        -10.093802813782432
      ],
      [
        "▁ocagı",
        -10.094721794715763
      ],
      [
        "▁calısır",
        -10.094738546090623
      ],
      [
        "ımızda",
        -10.095565855508541
      ],
      [
        "halde",
        -10.095928631411605
      ],
      [
        "▁yolunu",
        -10.100095300099031
      ],
      [
        "▁gelmisti",
        -10.10160111986157
      ],
      [
        "▁tartıs",
        -10.102326475426118
      ],
      [
[...]
