{
  "version": "1.0",
  "truncation": null,
  "padding": null,
  "added_tokens": [
    {
      "id": 0,
      "content": "[UNK]",
      "single_word": false,
      "lstrip": false,
      "rstrip": false,
      "normalized": false,
      "special": true
    },
    {
      "id": 1,
      "content": "[PAD]",
      "single_word": false,
      "lstrip": false,
      "rstrip": false,
      "normalized": false,
      "special": true
    },
    {
      "id": 2,
      "content": "[CLS]",
      "single_word": false,
      "lstrip": false,
      "rstrip": false,
      "normalized": false,
      "special": true
    },
    {
      "id": 3,
      "content": "[SEP]",
      "single_word": false,
      "lstrip": false,
      "rstrip": false,
      "normalized": false,
      "special": true
    },
    {
      "id": 4,
      "content": "[MASK]",
      "single_word": false,
      "lstrip": false,
      "rstrip": false,
      "normalized": false,
      "special": true
    }
  ],
  "normalizer": {
    "type": "Sequence",
    "normalizers": [
      {
        "type": "NFD"
      },
      {
        "type": "Lowercase"
      },
      {
        "type": "StripAccents"
      }
    ]
  },
  "pre_tokenizer": {
    "type": "Sequence",
    "pretokenizers": [
      {
        "type": "Metaspace",
        "replacement": "▁",
        "prepend_scheme": "always",
        "split": true
      }
    ]
  },
  "post_processor": {
    "type": "TemplateProcessing",
    "single": [
      {
        "SpecialToken": {
          "id": "[CLS]",
          "type_id": 0
        }
      },
      {
        "Sequence": {
          "id": "A",
          "type_id": 0
        }
      },
      {
        "SpecialToken": {
          "id": "[SEP]",
          "type_id": 0
        }
      }
    ],
    "pair": [
      {
        "SpecialToken": {
          "id": "[CLS]",
          "type_id": 0
        }
      },
      {
        "Sequence": {
          "id": "A",
          "type_id": 0
        }
      },
      {
        "SpecialToken": {
          "id": "[SEP]",
          "type_id": 0
        }
      },
      {
        "Sequence": {
          "id": "B",
          "type_id": 1
        }
      },
      {
        "SpecialToken": {
          "id": "[SEP]",
          "type_id": 1
        }
      }
    ],
    "special_tokens": {
      "[CLS]": {
        "id": "[CLS]",
        "ids": [
          2
        ],
        "tokens": [
          "[CLS]"
        ]
      },
      "[SEP]": {
        "id": "[SEP]",
        "ids": [
          3
        ],
        "tokens": [
          "[SEP]"
        ]
      }
    }
  },
  "decoder": {
    "type": "Metaspace",
    "replacement": "▁",
    "prepend_scheme": "always",
    "split": true
  },
  "model": {
    "type": "WordPiece",
    "unk_token": "[UNK]",
    "continuing_subword_prefix": "##",
    "max_input_chars_per_word": 100,
    "vocab": {
      "[UNK]": 0,
      "[PAD]": 1,
      "[CLS]": 2,
      "[SEP]": 3,
      "[MASK]": 4,
      "!": 5,
      "\"": 6,
      "#": 7,
      "$": 8,
      "%": 9,
      "&": 10,
      "'": 11,
      "(": 12,
      ")": 13,
      "*": 14,
      "+": 15,
      ",": 16,
      "-": 17,
      ".": 18,
      "/": 19,
      "0": 20,
      "1": 21,
      "2": 22,
      "3": 23,
      "4": 24,
      "5": 25,
      "6": 26,
      "7": 27,
      "8": 28,
      "9": 29,
      ":": 30,
      ";": 31,
      "=": 32,
      ">": 33,
      "?": 34,
      "@": 35,
      "\\": 36,
      "_": 37,
      "`": 38,
      "a": 39,
      "b": 40,
      "c": 41,
      "d": 42,
      "e": 43,
      "f": 44,
      "g": 45,
      "h": 46,
      "i": 47,
      "j": 48,
      "k": 49,
      "l": 50,
      "m": 51,
      "n": 52,
      "o": 53,
      "p": 54,
      "q": 55,
      "r": 56,
      "s": 57,
      "t": 58,
      "u": 59,
      "v": 60,
      "w": 61,
      "x": 62,
      "y": 63,
      "z": 64,
      "|": 65,
      "°": 66,
      "ı": 67,
      "​": 68,
      "–": 69,
      "—": 70,
      "‘": 71,
      "’": 72,
      "“": 73,
      "”": 74,
      "…": 75,
      "▁": 76,
      "■": 77,
      "##d": 78,
      "##u": 79,
      "##s": 80,
      "##r": 81,
      "##y": 82,
      "##z": 83,
      "##l": 84,
      "##e": 85,
      "##m": 86,
      "##c": 87,
      "##t": 88,
      "##v": 89,
      "##i": 90,
      "##o": 91,
      "##n": 92,
      "##g": 93,
      "##k": 94,
      "##ı": 95,
      "##a": 96,
      "##p": 97,
      "##w": 98,
      "##'": 99,
      "##h": 100,
      "##b": 101,
      "##f": 102,
      "##/": 103,
      "##0": 104,
      "##.": 105,
      "##3": 106,
      "##7": 107,
      "##4": 108,
      "##2": 109,
      "##8": 110,
      "##q": 111,
      "##1": 112,
      "##5": 113,
      "##j": 114,
      "##9": 115,
      "##-": 116,
      "##%": 117,
      "##6": 118,
      "##$": 119,
      "##”": 120,
      "##x": 121,
      "##“": 122,
      "##,": 123,
      "##:": 124,
      "##\"": 125,
      "##!": 126,
      "##\\": 127,
      "##&": 128,
      "##—": 129,
      "##>": 130,
      "##(": 131,
      "##‘": 132,
      "##’": 133,
      "##)": 134,
      "##@": 135,
      "##;": 136,
      "##`": 137,
      "##?": 138,
      "##■": 139,
      "##​": 140,
      "##°": 141,
      "##–": 142,
      "##+": 143,
      "##=": 144,
      "###": 145,
      "##…": 146,
      "##*": 147,
      "##_": 148,
      "##|": 149,
      "##ar": 150,
      "▁b": 151,
      "▁.": 152,
      "##er": 153,
      "##an": 154,
      "##in": 155,
      "▁k": 156,
      "▁s": 157,
      "▁d": 158,
      "##en": 159,
      "##ir": 160,
      "▁g": 161,
      "▁o": 162,
      "▁y": 163,
      "##il": 164,
      "##ın": 165,
      "##al": 166,
      "##as": 167,
      "▁,": 168,
      "##or": 169,
      "##un": 170,
      "##lar": 171,
      "##ak": 172,
      "##el": 173,
      "##di": 174,
      "▁t": 175,
      "##is": 176,
      "▁h": 177,
      "▁c": 178,
      "##iy": 179,
      "##ek": 180,
      "##et": 181,
      "▁bir": 182,
      "##ay": 183,
      "##on": 184,
      "▁m": 185,
      "##es": 186,
      "▁v": 187,
      "##am": 188,
      "##ur": 189,
      "##us": 190,
      "##at": 191,
      "##ler": 192,
      "##em": 193,
      "##im": 194,
      "##ad": 195,
      "▁p": 196,
      "▁u": 197,
      "##um": 198,
      "##iz": 199,
      "##ik": 200,
      "##ır": 201,
      "▁ol": 202,
      "##ey": 203,
      "##da": 204,
      "▁bu": 205,
      "##ıs": 206,
      "##de": 207,
      "##ic": 208,
      "##az": 209,
      "##uz": 210,
      "##ık": 211,
      "##uk": 212,
      "##ac": 213,
      "▁de": 214,
      "##ok": 215,
      "##ah": 216,
      "##den": 217,
      "▁ve": 218,
      "▁f": 219,
      "##le": 220,
      "##ıl": 221,
      "##yor": 222,
      "##du": 223,
      "##ım": 224,
      "##ec": 225,
      "##it": 226,
      "▁n": 227,
      "##dan": 228,
      "##ap": 229,
      "##ul": 230,
      "##ag": 231,
      "##ab": 232,
      "##ol": 233,
      "##ist": 234,
      "▁uc": 235,
      "▁e": 236,
      "##ını": 237,
      "▁il": 238,
      "▁ic": 239,
      "##ları": 240,
      "▁al": 241,
      "▁ar": 242,
      "##ini": 243,
      "##iyor": 244,
      "##os": 245,
      "▁on": 246,
      "##av": 247,
      "##li": 248,
      "▁cok": 249,
      "##dı": 250,
      "▁r": 251,
      "##lan": 252,
      "▁an": 253,
      "▁icin": 254,
      "##gil": 255,
      "##la": 256,
      "##oy": 257,
      "##ında": 258,
      "▁kal": 259,
      "▁bas": 260,
      "##ine": 261,
      "##ız": 262,
      "▁\"": 263,
      "##lı": 264,
      "##gi": 265,
      "▁gor": 266,
      "##tı": 267,
      "##ası": 268,
      "##lu": 269,
      "##unu": 270,
      "▁kar": 271,
      "▁ucus": 272,
      "##ti": 273,
      "▁z": 274,
      "▁1": 275,
      "##leri": 276,
      "▁yap": 277,
      "▁son": 278,
      "##eler": 279,
      "▁ne": 280,
      "##ta": 281,
      "▁is": 282,
      "▁iy": 283,
      "##tu": 284,
      "▁gel": 285,
      "▁var": 286,
      "##alar": 287,
      "##ların": 288,
      "▁gi": 289,
      "▁ay": 290,
      "▁in": 291,
      "▁et": 292,
      "▁ver": 293,
      "##ev": 294,
      "##af": 295,
      "##iler": 296,
      "▁ist": 297,
      "##dir": 298,
      "##ost": 299,
      "##las": 300,
      "▁bil": 301,
      "##esi": 302,
      "##ıyor": 303,
      "##og": 304,
      "##ya": 305,
      "▁en": 306,
      "▁da": 307,
      "▁kon": 308,
      "##ut": 309,
      "##me": 310,
      "##ce": 311,
      "##inde": 312,
      "##uzel": 313,
      "##mak": 314,
      "##oz": 315,
      "##ına": 316,
      "##ers": 317,
      "▁or": 318,
      "##uc": 319,
      "##adı": 320,
      "▁guzel": 321,
      "▁l": 322,
      "▁dah": 323,
      "##ma": 324,
      "▁her": 325,
      "▁am": 326,
      "▁dus": 327,
      "▁ben": 328,
      "▁gec": 329,
      "##tan": 330,
      "▁kad": 331,
      "##dim": 332,
      "▁daha": 333,
      "▁degil": 334,
      "##inin": 335,
      "##lam": 336,
      "##yon": 337,
      "##aya": 338,
      "▁uz": 339,
      "▁den": 340,
      "##iydi": 341,
      "##lik": 342,
      "##ez": 343,
      "##mıs": 344,
      "##ust": 345,
      "##bi": 346,
      "▁i": 347,
      "▁ac": 348,
      "▁san": 349,
      "▁ile": 350,
      "##'dan": 351,
      "##iye": 352,
      "▁oldu": 353,
      "▁olan": 354,
      "##gı": 355,
      "##te": 356,
      "##larak": 357,
      "▁mil": 358,
      "▁soy": 359,
      "##uyor": 360,
      "▁at": 361,
      "##mek": 362,
      "▁ak": 363,
      "##ca": 364,
      "##acak": 365,
      "▁ot": 366,
      "▁olarak": 367,
      "▁el": 368,
      "##ra": 369,
      "▁ger": 370,
      "##dır": 371,
      "##ana": 372,
      "▁ken": 373,
      "▁gun": 374,
      "##'n": 375,
      "##lık": 376,
      "▁ko": 377,
      "▁tem": 378,
      "▁olm": 379,
      "##len": 380,
      "▁cık": 381,
      "▁ik": 382,
      "##gun": 383,
      "##eye": 384,
      "##mis": 385,
      "▁tes": 386,
      "##ayı": 387,
      "▁gibi": 388,
      "##emek": 389,
      "##uy": 390,
      "▁ed": 391,
      "▁iyi": 392,
      "##ilir": 393,
      "▁yıl": 394,
      "##alı": 395,
      "##eg": 396,
      "##ip": 397,
      "##inden": 398,
      "▁sey": 399,
      "##met": 400,
      "▁kur": 401,
      "##oster": 402,
      "▁par": 403,
      "▁goster": 404,
      "##ından": 405,
      "▁yer": 406,
      "▁ki": 407,
      "▁ad": 408,
      "##iyorum": 409,
      "##'a": 410,
      "▁yar": 411,
      "##onel": 412,
      "##se": 413,
      "##dik": 414,
      "##isi": 415,
      "▁sonra": 416,
      "##larını": 417,
      "▁yas": 418,
      "##man": 419,
      "##ecek": 420,
      "▁tar": 421,
      "##aki": 422,
      "▁do": 423,
      "##eni": 424,
      "▁kadar": 425,
      "▁tur": 426,
      "▁as": 427,
      "##ının": 428,
      "##tır": 429,
      "##cı": 430,
      "▁mem": 431,
      "▁co": 432,
      "▁yok": 433,
      "▁pers": 434,
      "▁kap": 435,
      "▁tek": 436,
      "▁hav": 437,
      "▁2": 438,
      "▁gen": 439,
      "▁bay": 440,
      "##ran": 441,
      "▁?": 442,
      "▁a": 443,
      "##'ya": 444,
      "##iyat": 445,
      "##'den": 446,
      "▁han": 447,
      "##dig": 448,
      "▁uy": 449,
      "##gu": 450,
      "▁bul": 451,
      "##erk": 452,
      "▁ev": 453,
      "▁ilgil": 454,
      "▁guzeldi": 455,
      "##lem": 456,
      "##ep": 457,
      "##ig": 458,
      "▁yan": 459,
      "▁don": 460,
      "▁hal": 461,
      "▁es": 462,
      "▁buy": 463,
      "##op": 464,
      "▁bey": 465,
      "▁sur": 466,
      "▁cal": 467,
      "▁yuk": 468,
      "##ten": 469,
      "▁dur": 470,
      "##ed": 471,
      "▁bana": 472,
      "##ada": 473,
      "▁su": 474,
      "##eki": 475,
      "##eb": 476,
      "▁kars": 477,
      "##if": 478,
      "▁ama": 479,
      "##aman": 480,
      "▁personel": 481,
      "▁bak": 482,
      "##kan": 483,
      "##nun": 484,
      "▁sen": 485,
      "##ret": 486,
      "▁oy": 487,
      "▁sat": 488,
      "▁yuz": 489,
      "##ci": 490,
      "▁mu": 491,
      "▁deg": 492,
      "▁yak": 493,
      "##ver": 494,
      "##00": 495,
      "▁memnun": 496,
      "▁his": 497,
      "##san": 498,
      "▁temiz": 499,
      "##daki": 500,
      "▁ucusları": 501,
      "▁ag": 502,
      "▁bel": 503,
      "##ket": 504,
      "▁ek": 505,
      "##cak": 506,
      "▁hiz": 507,
      "##ıy": 508,
      "▁boy": 509,
      "▁iyiydi": 510,
      "##tir": 511,
      "▁biz": 512,
      "▁kul": 513,
      "▁hizmet": 514,
      "▁yemek": 515,
      "▁zaman": 516,
      "▁iki": 517,
      "##eli": 518,
      "##eri": 519,
      "##imiz": 520,
      "▁fiyat": 521,
      "##ki": 522,
      "▁aras": 523,
      "▁:": 524,
      "##ru": 525,
      "▁yuks": 526,
      "▁art": 527,
      "▁og": 528,
      "##diyor": 529,
      "▁soyle": 530,
      "▁bun": 531,
      "▁coc": 532,
      "▁3": 533,
      "▁dog": 534,
      "##dur": 535,
      "##lara": 536,
      "##sa": 537,
      "##sam": 538,
      "▁buyuk": 539,
      "##ye": 540,
      "▁sir": 541,
      "##lerini": 542,
      "▁degildi": 543,
      "▁od": 544,
      "▁hic": 545,
      "▁%": 546,
      "##lerin": 547,
      "▁top": 548,
      "▁yeni": 549,
      "▁dev": 550,
      "▁goz": 551,
      "##mus": 552,
      "▁sor": 553,
      "▁uzer": 554,
      "▁fran": 555,
      "##eh": 556,
      "##'e": 557,
      "▁yet": 558,
      "▁az": 559,
      "##les": 560,
      "##edi": 561,
      "##iyet": 562,
      "▁sa": 563,
      "▁tum": 564,
      "##ot": 565,
      "##agı": 566,
      "##om": 567,
      "▁-": 568,
      "##ısı": 569,
      "▁ser": 570,
      "##ladı": 571,
      "▁bost": 572,
      "▁sirket": 573,
      "▁'": 574,
      "##arak": 575,
      "▁dol": 576,
      "▁boston": 577,
      "▁sev": 578,
      "▁kay": 579,
      "##gunu": 580,
      "▁har": 581,
      "▁dal": 582,
      "▁insan": 583,
      "▁ort": 584,
      "▁sah": 585,
      "▁w": 586,
      "##abilir": 587,
      "▁hak": 588,
      "##isti": 589,
      "##ayan": 590,
      "▁yol": 591,
      "▁cocuk": 592,
      "##co": 593,
      "▁milyon": 594,
      "▁onun": 595,
      "▁oz": 596,
      "▁hay": 597,
      "▁yon": 598,
      "##iyle": 599,
      "▁yaz": 600,
      "▁otel": 601,
      "▁kat": 602,
      "▁sek": 603,
      "##tim": 604,
      "##gını": 605,
      "▁gu": 606,
      "##ih": 607,
      "##ıp": 608,
      "▁calıs": 609,
      "##'da": 610,
      "▁denver": 611,
      "##dis": 612,
      "▁ces": 613,
      "##let": 614,
      "##usu": 615,
      "▁j": 616,
      "##cis": 617,
      "▁bur": 618,
      "##ark": 619,
      "##unda": 620,
      "##bir": 621,
      "##mas": 622,
      "##adan": 623,
      "▁ih": 624,
      "##'in": 625,
      "##ece": 626,
      "▁der": 627,
      "##umu": 628,
      "▁ucret": 629,
      "##cek": 630,
      "##luk": 631,
      "▁bal": 632,
      "▁cek": 633,
      "▁sab": 634,
      "▁once": 635,
      "##bur": 636,
      "##cisco": 637,
      "▁yat": 638,
      "##imi": 639,
      "▁francisco": 640,
      "▁dun": 641,
      "▁tah": 642,
      "##'ye": 643,
      "▁istiyorum": 644,
      "▁gir": 645,
      "##art": 646,
      "▁bek": 647,
      "▁pu": 648,
      "▁le": 649,
      "▁ancak": 650,
      "▁kaz": 651,
      "▁5": 652,
      "##erek": 653,
      "▁19": 654,
      "▁pr": 655,
      "▁faz": 656,
      "##deki": 657,
      "##ef": 658,
      "##maya": 659,
      "##uldu": 660,
      "▁gore": 661,
      "▁baz": 662,
      "▁soz": 663,
      "##ort": 664,
      "▁deniz": 665,
      "▁kuc": 666,
      "▁ayr": 667,
      "▁tut": 668,
      "▁soyledi": 669,
      "▁kes": 670,
      "▁tam": 671,
      "▁ediyor": 672,
      "▁konus": 673,
      "▁..": 674,
      "▁gorus": 675,
      "##cu": 676,
      "▁dolar": 677,
      "##asyon": 678,
      "▁turk": 679,
      "##dum": 680,
      "▁bag": 681,
      "##acag": 682,
      "##sun": 683,
      "##siz": 684,
      "▁puan": 685,
      "▁yor": 686,
      "▁cesit": 687,
      "▁sag": 688,
      "##tr": 689,
      "##ması": 690,
      "▁du": 691,
      "##tar": 692,
      "▁ok": 693,
      "▁diye": 694,
      "##eleri": 695,
      "▁ust": 696,
      "▁ilk": 697,
      "##itt": 698,
      "▁...": 699,
      "▁kullan": 700,
      "##eyi": 701,
      "##enin": 702,
      "##unun": 703,
      "▁!": 704,
      "##ka": 705,
      "▁kan": 706,
      "##ama": 707,
      "▁4": 708,
      "▁hem": 709,
      "##arı": 710,
      "▁biraz": 711,
      "##dım": 712,
      "▁but": 713,
      "▁kor": 714,
      "▁etti": 715,
      "##ilm": 716,
      "##anın": 717,
      "▁dedi": 718,
      "▁alt": 719,
      "▁taraf": 720,
      "##'tan": 721,
      "▁car": 722,
      "##ılı": 723,
      "##ph": 724,
      "▁atlan": 725,
      "▁saat": 726,
      "##ing": 727,
      "▁duy": 728,
      "▁kız": 729,
      "▁tav": 730,
      "##sız": 731,
      "▁amer": 732,
      "▁ur": 733,
      "##lat": 734,
      "▁icinde": 735,
      "▁''": 736,
      "##iyas": 737,
      "##aları": 738,
      "▁atlanta": 739,
      "▁kucuk": 740,
      "▁sal": 741,
      "▁gerek": 742,
      "▁ph": 743,
      "##larının": 744,
      "▁koy": 745,
      "##iniz": 746,
      "##burg": 747,
      "##zet": 748,
      "▁tan": 749,
      "▁sim": 750,
      "▁ucuslar": 751,
      "▁hisse": 752,
      "▁tas": 753,
      "▁adam": 754,
      "▁sabah": 755,
      "##etir": 756,
      "##ımız": 757,
      "▁acık": 758,
      "▁genel": 759,
      "##ildi": 760,
      "▁oldugunu": 761,
      "##duk": 762,
      "##est": 763,
      "##eceg": 764,
      "▁lez": 765,
      "▁bor": 766,
      "▁getir": 767,
      "▁kim": 768,
      "▁list": 769,
      "▁hep": 770,
      "▁fazla": 771,
      "##'de": 772,
      "▁tesis": 773,
      "▁erk": 774,
      "▁kazan": 775,
      "▁kol": 776,
      "▁haz": 777,
      "▁kalit": 778,
      "##ındaki": 779,
      "##eme": 780,
      "##ılan": 781,
      "##ley": 782,
      "##istir": 783,
      "▁has": 784,
      "▁git": 785,
      "▁er": 786,
      "▁lezzet": 787,
      "▁eder": 788,
      "##'ın": 789,
      "▁kıs": 790,
      "##esini": 791,
      "▁butun": 792,
      "##ia": 793,
      "▁tak": 794,
      "▁hangi": 795,
      "▁cum": 796,
      "▁ab": 797,
      "▁ail": 798,
      "▁kab": 799,
      "##ilen": 800,
      "##up": 801,
      "▁sır": 802,
      "▁dallas": 803,
      "▁bazı": 804,
      "▁haf": 805,
      "▁gunu": 806,
      "▁`": 807,
      "▁paz": 808,
      "▁cıkar": 809,
      "▁say": 810,
      "▁pitt": 811,
      "▁muh": 812,
      "▁pitts": 813,
      "▁kır": 814,
      "▁arasında": 815,
      "▁bile": 816,
      "▁av": 817,
      "▁eg": 818,
      "▁mal": 819,
      "##burgh": 820,
      "##adel": 821,
      "▁aksam": 822,
      "##ken": 823,
      "▁pittsburgh": 824,
      "##lay": 825,
      "▁ark": 826,
      "▁ter": 827,
      "##ıldı": 828,
      "##ımı": 829,
      "##ede": 830,
      "▁etm": 831,
      "##ileri": 832,
      "▁hat": 833,
      "▁yuksel": 834,
      "▁;": 835,
      "▁cev": 836,
      "▁``": 837,
      "▁yur": 838,
      "##iyordu": 839,
      "##'nin": 840,
      "##der": 841,
      "##ton": 842,
      "##ligi": 843,
      "▁gercek": 844,
      "▁yal": 845,
      "▁bulun": 846,
      "▁ayn": 847,
      "##yar": 848,
      "##esine": 849,
      "##ku": 850,
      "##larda": 851,
      "▁bol": 852,
      "▁dusun": 853,
      "▁dav": 854,
      "##ayol": 855,
      "##ob": 856,
      "##ib": 857,
      "▁tel": 858,
      "▁sad": 859,
      "▁hiss": 860,
      "▁/": 861,
      "▁boyle": 862,
      "##ore": 863,
      "▁ul": 864,
      "▁neden": 865,
      "▁piyas": 866,
      "▁milyar": 867,
      "##digim": 868,
      "▁ulas": 869,
      "##ırım": 870,
      "##acı": 871,
      "▁new": 872,
      "▁yoktu": 873,
      "▁im": 874,
      "##diler": 875,
      "▁ilgilen": 876,
      "##aret": 877,
      "##digi": 878,
      "##lere": 879,
      "▁belir": 880,
      "##si": 881,
      "▁ban": 882,
      "▁mi": 883,
      "▁phil": 884,
      "##alık": 885,
      "▁simdi": 886,
      "▁listel": 887,
      "##ram": 888,
      "##yla": 889,
      "▁dig": 890,
      "▁iht": 891,
      "▁kendi": 892,
      "▁amerik": 893,
      "##han": 894,
      "▁it": 895,
      "##anı": 896,
      "▁sık": 897,
      "##re": 898,
      "▁dok": 899,
      "##lig": 900,
      "▁ilgili": 901,
      "▁7": 902,
      "▁olur": 903,
      "##larına": 904,
      "##'nın": 905,
      "▁boston'dan": 906,
      "▁sav": 907,
      "▁duz": 908,
      "▁mı": 909,
      "##ili": 910,
      "▁kadın": 911,
      "▁karsı": 912,
      "▁kos": 913,
      "##asını": 914,
      "##timore": 915,
      "▁baltimore": 916,
      "▁gorusuldu": 917,
      "##'un": 918,
      "##ırak": 919,
      "##men": 920,
      "##likle": 921,
      "##ustur": 922,
      "▁yonet": 923,
      "##phia": 924,
      "##ren": 925,
      "▁sak": 926,
      "▁merk": 927,
      "##adelphia": 928,
      "▁philadelphia": 929,
      "##gın": 930,
      "▁sar": 931,
      "▁uzun": 932,
      "##ilik": 933,
      "##mez": 934,
      "▁ya": 935,
      "▁deger": 936,
      "▁yuksek": 937,
      "▁gelir": 938,
      "▁yemekler": 939,
      "▁hakk": 940,
      "▁un": 941,
      "##maz": 942,
      "##lerine": 943,
      "##enk": 944,
      "##lardan": 945,
      "▁diger": 946,
      "▁kac": 947,
      "▁dogru": 948,
      "▁ozel": 949,
      "##una": 950,
      "▁can": 951,
      "▁bırak": 952,
      "▁tavs": 953,
      "▁nas": 954,
      "▁tat": 955,
      "##abil": 956,
      "▁otur": 957,
      "▁kr": 958,
      "##ulu": 959,
      "▁10": 960,
      "▁guler": 961,
      "▁mah": 962,
      "▁bah": 963,
      "▁zor": 964,
      "▁sec": 965,
      "▁dem": 966,
      "##elik": 967,
      "▁konumu": 968,
      "▁ch": 969,
      "▁merkez": 970,
      "▁siz": 971,
      "▁islem": 972,
      "▁iz": 973,
      "##ıyordu": 974,
      "▁bes": 975,
      "▁kas": 976,
      "▁benim": 977,
      "▁man": 978,
      "▁(": 979,
      "##fen": 980,
      "##ter": 981,
      "##tık": 982,
      "▁tavsiye": 983,
      "▁bin": 984,
      "##lerinin": 985,
      "##mam": 986,
      "▁kah": 987,
      "▁sadece": 988,
      "##umuz": 989,
      "▁francisco'ya": 990,
      "▁ihtiy": 991,
      "▁6": 992,
      "##meye": 993,
      "##asında": 994,
      "##ayet": 995,
      "▁)": 996,
      "##tor": 997,
      "▁bab": 998,
      "▁baskan": 999,
      "##isk": 1000,
      "▁satıs": 1001,
      "##unuyor": 1002,
      "▁oldugu": 1003,
      "▁lu": 1004,
      "##inc": 1005,
      "▁plan": 1006,
      "▁mus": 1007,
      "##id": 1008,
      "▁ede": 1009,
      "▁ise": 1010,
      "▁hanim": 1011,
      "▁kotu": 1012,
      "##madim": 1013,
      "##asına": 1014,
      "##vil": 1015,
      "▁kıy": 1016,
      "▁guc": 1017,
      "##ahat": 1018,
      "▁mas": 1019,
      "▁pek": 1020,
      "##ba": 1021,
      "▁mes": 1022,
      "▁huk": 1023,
      "▁mis": 1024,
      "##suz": 1025,
      "##eket": 1026,
      "▁havuz": 1027,
      "▁yatırım": 1028,
      "▁ses": 1029,
      "▁dik": 1030,
      "▁uygun": 1031,
      "##lerde": 1032,
      "▁yaklas": 1033,
      "##tik": 1034,
      "▁baska": 1035,
      "▁degis": 1036,
      "▁artık": 1037,
      "##madı": 1038,
      "##alan": 1039,
      "##esinde": 1040,
      "▁vey": 1041,
      "▁hicbir": 1042,
      "▁tarafından": 1043,
      "##ans": 1044,
      "▁tab": 1045,
      "##adır": 1046,
      "▁onu": 1047,
      "▁geldi": 1048,
      "▁sekil": 1049,
      "▁ayrı": 1050,
      "##digini": 1051,
      "▁em": 1052,
      "##land": 1053,
      "▁us": 1054,
      "▁kalk": 1055,
      "▁mut": 1056,
      "##eyin": 1057,
      "##ington": 1058,
      "▁veya": 1059,
      "▁mer": 1060,
      "▁per": 1061,
      "▁bit": 1062,
      "▁nedir": 1063,
      "##lıgı": 1064,
      "▁seh": 1065,
      "##tım": 1066,
      "▁aldı": 1067,
      "▁havayol": 1068,
      "##var": 1069,
      "▁olabilir": 1070,
      "▁anlam": 1071,
      "▁yay": 1072,
      "##larında": 1073,
      "##lerden": 1074,
      "##raf": 1075,
      "##ga": 1076,
      "##ici": 1077,
      "▁sahip": 1078,
      "##ash": 1079,
      "▁onem": 1080,
      "▁beni": 1081,
      "▁hayat": 1082,
      "##mayı": 1083,
      "▁wash": 1084,
      "▁kis": 1085,
      "##lardı": 1086,
      "▁washington": 1087,
      "▁aynı": 1088,
      "▁kam": 1089,
      "▁mev": 1090,
      "##may": 1091,
      "##nız": 1092,
      "##lendir": 1093,
      "▁eski": 1094,
      "##medi": 1095,
      "▁dıs": 1096,
      "##aber": 1097,
      "##yuz": 1098,
      "##malar": 1099,
      "##ılık": 1100,
      "##ılmıs": 1101,
      "▁ustun": 1102,
      "▁amerikan": 1103,
      "##'ten": 1104,
      "##for": 1105,
      "▁yalnız": 1106,
      "##ydu": 1107,
      "##kes": 1108,
      "▁kaldik": 1109,
      "▁iste": 1110,
      "▁sok": 1111,
      "##gis": 1112,
      "##kac": 1113,
      "▁bugun": 1114,
      "▁karar": 1115,
      "▁istem": 1116,
      "▁tesisti": 1117,
      "▁fa": 1118,
      "▁ann": 1119,
      "▁anlat": 1120,
      "##artesi": 1121,
      "▁sekilde": 1122,
      "▁st": 1123,
      "▁durum": 1124,
      "▁bar": 1125,
      "▁sı": 1126,
      "##ınız": 1127,
      "##lak": 1128,
      "▁yardım": 1129,
      "▁dir": 1130,
      "##ent": 1131,
      "▁gaz": 1132,
      "▁fak": 1133,
      "▁uret": 1134,
      "##mem": 1135,
      "▁gelen": 1136,
      "▁ku": 1137,
      "▁tarih": 1138,
      "▁donus": 1139,
      "▁erken": 1140,
      "▁8": 1141,
      "##lerinde": 1142,
      "▁inc": 1143,
      "▁biri": 1144,
      "▁yaptı": 1145,
      "▁vardı": 1146,
      "▁gecen": 1147,
      "##larla": 1148,
      "▁arkad": 1149,
      "▁oda": 1150,
      "▁kendis": 1151,
      "▁dil": 1152,
      "▁denver'den": 1153,
      "▁york": 1154,
      "##ebilir": 1155,
      "▁fark": 1156,
      "##lıyor": 1157,
      "▁para": 1158,
      "##dık": 1159,
      "▁devam": 1160,
      "##inci": 1161,
      "##lif": 1162,
      "▁herkes": 1163,
      "▁ogle": 1164,
      "##ara": 1165,
      "▁so": 1166,
      "▁diyor": 1167,
      "▁aktar": 1168,
      "##egen": 1169,
      "##ıyla": 1170,
      "▁pol": 1171,
      "▁olacak": 1172,
      "▁din": 1173,
      "▁bizim": 1174,
      "▁hareket": 1175,
      "##ri": 1176,
      "##lari": 1177,
      "##ven": 1178,
      "▁cog": 1179,
      "##be": 1180,
      "▁basladı": 1181,
      "##per": 1182,
      "##atı": 1183,
      "▁kend": 1184,
      "##gin": 1185,
      "##tur": 1186,
      "▁mak": 1187,
      "▁giden": 1188,
      "▁ederim": 1189,
      "##rar": 1190,
      "▁gorun": 1191,
      "▁ıs": 1192,
      "▁kom": 1193,
      "▁kus": 1194,
      "▁kaldim": 1195,
      "▁pazar": 1196,
      "▁hazır": 1197,
      "▁lut": 1198,
      "▁birkac": 1199,
      "▁genc": 1200,
      "##luyor": 1201,
      "▁bunun": 1202,
      "##mesi": 1203,
      "##uyordu": 1204,
      "##sel": 1205,
      "▁di": 1206,
      "▁ug": 1207,
      "##ucu": 1208,
      "▁kop": 1209,
      "▁sorun": 1210,
      "▁ona": 1211,
      "▁geri": 1212,
      "▁hemen": 1213,
      "##gel": 1214,
      "##.5": 1215,
      "▁duny": 1216,
      "##dar": 1217,
      "##bet": 1218,
      "▁kit": 1219,
      "▁res": 1220,
      "▁ey": 1221,
      "▁yine": 1222,
      "▁birc": 1223,
      "▁end": 1224,
      "▁198": 1225,
      "▁ask": 1226,
      "▁serv": 1227,
      "▁olmak": 1228,
      "▁ihtiyac": 1229,
      "▁teklif": 1230,
      "▁abd": 1231,
      "##acagını": 1232,
      "▁nasıl": 1233,
      "##ciler": 1234,
      "▁kahv": 1235,
      "▁lutfen": 1236,
      "▁tu": 1237,
      "▁fir": 1238,
      "▁gecir": 1239,
      "▁yen": 1240,
      "▁ucuz": 1241,
      "▁cor": 1242,
      "##ayi": 1243,
      "▁vur": 1244,
      "▁icer": 1245,
      "▁ayak": 1246,
      "▁ayrıca": 1247,
      "▁gon": 1248,
      "▁kalkan": 1249,
      "▁ucusu": 1250,
      "▁ilgiliydi": 1251,
      "▁tamam": 1252,
      "##det": 1253,
      "▁begen": 1254,
      "▁um": 1255,
      "▁gul": 1256,
      "▁personeller": 1257,
      "▁yav": 1258,
      "##tig": 1259,
      "▁arkadas": 1260,
      "##ıt": 1261,
      "##mıstı": 1262,
      "##ro": 1263,
      "▁tahvil": 1264,
      "##malı": 1265,
      "▁bunu": 1266,
      "▁anlas": 1267,
      "▁uzerinde": 1268,
      "##eyen": 1269,
      "▁inan": 1270,
      "##fa": 1271,
      "▁onc": 1272,
      "▁etk": 1273,
      "▁bircok": 1274,
      "▁ekon": 1275,
      "▁tic": 1276,
      "##ıcı": 1277,
      "▁cıktı": 1278,
      "##sin": 1279,
      "##eden": 1280,
      "##oj": 1281,
      "▁ham": 1282,
      "▁kabul": 1283,
      "##min": 1284,
      "##anlar": 1285,
      "▁alın": 1286,
      "##mi": 1287,
      "##adım": 1288,
      "▁dusuk": 1289,
      "▁ogren": 1290,
      "▁bos": 1291,
      "##kur": 1292,
      "##ika": 1293,
      "▁etmek": 1294,
      "▁ho": 1295,
      "▁kav": 1296,
      "▁edil": 1297,
      "##rup": 1298,
      "▁cam": 1299,
      "##ont": 1300,
      "▁yemekleri": 1301,
      "▁kayn": 1302,
      "▁hukum": 1303,
      "▁arab": 1304,
      "##likte": 1305,
      "▁denizi": 1306,
      "▁rahat": 1307,
      "▁ogleden": 1308,
      "##ali": 1309,
      "##esinin": 1310,
      "##samba": 1311,
      "▁carsamba": 1312,
      "##ade": 1313,
      "##landı": 1314,
      "##gul": 1315,
      "▁kum": 1316,
      "##larından": 1317,
      "▁kapan": 1318,
      "▁hava": 1319,
      "▁duzen": 1320,
      "##amaz": 1321,
      "▁karıs": 1322,
      "▁eden": 1323,
      "▁oyle": 1324,
      "▁kir": 1325,
      "▁sin": 1326,
      "▁ucuslarını": 1327,
      "##ersiz": 1328,
      "▁yonel": 1329,
      "▁yapıl": 1330,
      "##erv": 1331,
      "##atur": 1332,
      "##'ta": 1333,
      "▁sını": 1334,
      "▁muk": 1335,
      "##ati": 1336,
      "▁yukseldi": 1337,
      "##adi": 1338,
      "##elim": 1339,
      "▁beklen": 1340,
      "##lum": 1341,
      "▁kok": 1342,
      "▁dort": 1343,
      "▁hız": 1344,
      "▁dustu": 1345,
      "##ecegini": 1346,
      "##iv": 1347,
      "▁devlet": 1348,
      "▁denver'e": 1349,
      "▁hakkında": 1350,
      "▁ir": 1351,
      "▁turkiye": 1352,
      "▁atlanta'dan": 1353,
      "▁benz": 1354,
      "▁oyun": 1355,
      "▁9": 1356,
      "##lama": 1357,
      "##lerinden": 1358,
      "▁air": 1359,
      "▁oyn": 1360,
      "##ch": 1361,
      "##ber": 1362,
      "##asi": 1363,
      "▁if": 1364,
      "▁personelleri": 1365,
      "▁ulk": 1366,
      "▁sun": 1367,
      "##adık": 1368,
      "▁alan": 1369,
      "▁uzerine": 1370,
      "▁ilgilendi": 1371,
      "▁ekonom": 1372,
      "▁fır": 1373,
      "▁1.": 1374,
      "##ıyorum": 1375,
      "##rak": 1376,
      "##ge": 1377,
      "▁gosterin": 1378,
      "▁sınıf": 1379,
      "##mel": 1380,
      "##irim": 1381,
      "▁mar": 1382,
      "##bilir": 1383,
      "▁yeter": 1384,
      "▁ilisk": 1385,
      "▁kurul": 1386,
      "▁listeleyin": 1387,
      "##ina": 1388,
      "##asının": 1389,
      "▁yasam": 1390,
      "▁donem": 1391,
      "▁arasındaki": 1392,
      "##bul": 1393,
      "##ince": 1394,
      "▁gayet": 1395,
      "▁rek": 1396,
      "▁oran": 1397,
      "▁pat": 1398,
      "##elerin": 1399,
      "▁doları": 1400,
      "▁fakat": 1401,
      "##kı": 1402,
      "##lamıs": 1403,
      "▁yaklasık": 1404,
      "▁kaf": 1405,
      "▁cag": 1406,
      "▁rez": 1407,
      "▁vardi": 1408,
      "##ayıp": 1409,
      "▁genis": 1410,
      "##elen": 1411,
      "##ekli": 1412,
      "##aydi": 1413,
      "▁pay": 1414,
      "▁olduk": 1415,
      "▁konu": 1416,
      "▁dı": 1417,
      "▁cit": 1418,
      "▁guleryuz": 1419,
      "▁sol": 1420,
      "##dugu": 1421,
      "▁kesin": 1422,
      "▁bank": 1423,
      "##gım": 1424,
      "▁birlikte": 1425,
      "▁bilgi": 1426,
      "▁gece": 1427,
      "▁artıs": 1428,
      "▁li": 1429,
      "##liyor": 1430,
      "▁ber": 1431,
      "▁basar": 1432,
      "##lul": 1433,
      "##tadır": 1434,
      "▁gorev": 1435,
      "▁12": 1436,
      "▁olmadı": 1437,
      "▁satın": 1438,
      "▁guven": 1439,
      "▁onemli": 1440,
      "##lin": 1441,
      "▁yiy": 1442,
      "▁basına": 1443,
      "##od": 1444,
      "##gum": 1445,
      "▁tor": 1446,
      "▁kalitesi": 1447,
      "▁ah": 1448,
      "▁haber": 1449,
      "##lerle": 1450,
      "▁ner": 1451,
      "▁anim": 1452,
      "▁yetk": 1453,
      "▁sonuc": 1454,
      "##wa": 1455,
      "▁se": 1456,
      "##ogram": 1457,
      "▁tesek": 1458,
      "##lestir": 1459,
      "##enkul": 1460,
      "▁guleryuzlu": 1461,
      "▁telef": 1462,
      "##cih": 1463,
      "▁pittsburgh'tan": 1464,
      "▁tesekkur": 1465,
      "##eti": 1466,
      "▁sog": 1467,
      "▁birbir": 1468,
      "▁yakın": 1469,
      "▁tercih": 1470,
      "▁telefon": 1471,
      "▁tekrar": 1472,
      "▁gidis": 1473,
      "##o'ya": 1474,
      "▁vak": 1475,
      "▁alım": 1476,
      "▁uzak": 1477,
      "▁atlanta'ya": 1478,
      "##madan": 1479,
      "##kun": 1480,
      "▁sac": 1481,
      "▁konum": 1482,
      "▁hafta": 1483,
      "▁sonr": 1484,
      "▁aileler": 1485,
      "##son": 1486,
      "##orm": 1487,
      "▁yeniden": 1488,
      "▁yonelik": 1489,
      "##sın": 1490,
      "##'y": 1491,
      "▁dar": 1492,
      "##alt": 1493,
      "▁tal": 1494,
      "##layan": 1495,
      "##misti": 1496,
      "▁yag": 1497,
      "▁yapmak": 1498,
      "▁animasyon": 1499,
      "▁agır": 1500,
      "▁baltimore'ye": 1501,
      "##sal": 1502,
      "▁oak": 1503,
      "▁pet": 1504,
      "##asıyor": 1505,
      "##tedir": 1506,
      "▁sig": 1507,
      "▁del": 1508,
      "▁must": 1509,
      "##esinden": 1510,
      "▁olmus": 1511,
      "▁program": 1512,
      "##aga": 1513,
      "▁burada": 1514,
      "▁sehir": 1515,
      "▁rezerv": 1516,
      "##rek": 1517,
      "##ne": 1518,
      "▁olum": 1519,
      "▁beyaz": 1520,
      "▁eks": 1521,
      "▁belirt": 1522,
      "▁oakland": 1523,
      "##lerdi": 1524,
      "##dıgı": 1525,
      "##uyu": 1526,
      "▁konusunda": 1527,
      "##pr": 1528,
      "##asa": 1529,
      "##ısında": 1530,
      "##ledi": 1531,
      "▁onlar": 1532,
      "##cut": 1533,
      "##tiler": 1534,
      "##ov": 1535,
      "▁sil": 1536,
      "▁mad": 1537,
      "##ice": 1538,
      "##aban": 1539,
      "▁cuma": 1540,
      "▁pazartesi": 1541,
      "▁muz": 1542,
      "▁yapılan": 1543,
      "▁mek": 1544,
      "▁veriyorum": 1545,
      "##'nun": 1546,
      "##000": 1547,
      "▁bors": 1548,
      "##kat": 1549,
      "▁gelecek": 1550,
      "▁city": 1551,
      "##miyor": 1552,
      "▁almak": 1553,
      "▁temizligi": 1554,
      "▁yorum": 1555,
      "▁cin": 1556,
      "▁cey": 1557,
      "▁boston'a": 1558,
      "##unca": 1559,
      "▁altında": 1560,
      "▁gazet": 1561,
      "▁vad": 1562,
      "##tıgı": 1563,
      "##medim": 1564,
      "▁dallas'a": 1565,
      "▁listele": 1566,
      "▁yavas": 1567,
      "##liydi": 1568,
      "▁te": 1569,
      "▁kaldır": 1570,
      "##anbul": 1571,
      "##une": 1572,
      "▁ucak": 1573,
      "▁istanbul": 1574,
      "▁mevcut": 1575,
      "##eral": 1576,
      "▁ip": 1577,
      "▁yetersiz": 1578,
      "▁dest": 1579,
      "##amak": 1580,
      "▁olsun": 1581,
      "▁anda": 1582,
      "▁ulus": 1583,
      "##0.": 1584,
      "▁salı": 1585,
      "##ime": 1586,
      "##meden": 1587,
      "▁soyluyor": 1588,
      "▁karsil": 1589,
      "▁cocuklu": 1590,
      "▁ticaret": 1591,
      "##vel": 1592,
      "▁verdi": 1593,
      "▁belki": 1594,
      "▁odalar": 1595,
      "##siy": 1596,
      "##muz": 1597,
      "▁kez": 1598,
      "##emmel": 1599,
      "▁tatil": 1600,
      "▁gez": 1601,
      "▁yatırımcı": 1602,
      "▁mukemmel": 1603,
      "▁yaban": 1604,
      "##ele": 1605,
      "▁cif": 1606,
      "##emi": 1607,
      "##manın": 1608,
      "▁kazanc": 1609,
      "▁neler": 1610,
      "##apon": 1611,
      "##elerini": 1612,
      "▁erkek": 1613,
      "##gına": 1614,
      "##hal": 1615,
      "▁ker": 1616,
      "▁fin": 1617,
      "▁tekn": 1618,
      "▁kıymet": 1619,
      "##tıs": 1620,
      "##indeki": 1621,
      "▁gar": 1622,
      "▁kapı": 1623,
      "▁bize": 1624,
      "▁japon": 1625,
      "▁ozellikle": 1626,
      "▁mahk": 1627,
      "▁yiyecek": 1628,
      "##lemek": 1629,
      "▁sef": 1630,
      "##enc": 1631,
      "##ilmis": 1632,
      "▁met": 1633,
      "▁mey": 1634,
      "▁menkul": 1635,
      "##embe": 1636,
      "▁rak": 1637,
      "▁ucrete": 1638,
      "▁kem": 1639,
      "▁sın": 1640,
      "▁dag": 1641,
      "▁gur": 1642,
      "▁yum": 1643,
      "▁yıllık": 1644,
      "▁yerine": 1645,
      "▁kısa": 1646,
      "▁ugr": 1647,
      "##o'dan": 1648,
      "▁anal": 1649,
      "▁geliyor": 1650,
      "▁adet": 1651,
      "▁philadelphia'ya": 1652,
      "##ınca": 1653,
      "▁fon": 1654,
      "##ıma": 1655,
      "▁havayolları": 1656,
      "▁faiz": 1657,
      "▁endek": 1658,
      "▁boz": 1659,
      "▁ro": 1660,
      "##landır": 1661,
      "▁dusus": 1662,
      "▁sanat": 1663,
      "▁hala": 1664,
      "##gında": 1665,
      "##isini": 1666,
      "▁zar": 1667,
      "▁sonunda": 1668,
      "▁$": 1669,
      "##'daki": 1670,
      "▁seb": 1671,
      "##iyi": 1672,
      "▁uf": 1673,
      "▁calis": 1674,
      "##iyeti": 1675,
      "▁pittsburgh'a": 1676,
      "▁yem": 1677,
      "▁ru": 1678,
      "▁gol": 1679,
      "##asır": 1680,
      "▁bilgis": 1681,
      "▁parc": 1682,
      "##gisi": 1683,
      "▁kisi": 1684,
      "##alım": 1685,
      "##ami": 1686,
      "##imin": 1687,
      "▁seviy": 1688,
      "▁kolay": 1689,
      "▁kotuydu": 1690,
      "##ee": 1691,
      "##pan": 1692,
      "##'te": 1693,
      "▁hen": 1694,
      "▁min": 1695,
      "##ılır": 1696,
      "##ebil": 1697,
      "▁devr": 1698,
      "▁istemiyorum": 1699,
      "##st": 1700,
      "##gan": 1701,
      "▁cab": 1702,
      "▁kurum": 1703,
      "▁sp": 1704,
      "▁tep": 1705,
      "▁pah": 1706,
      "##ılıyor": 1707,
      "▁sure": 1708,
      "##su": 1709,
      "##hur": 1710,
      "##arlar": 1711,
      "▁diz": 1712,
      "▁hes": 1713,
      "▁hey": 1714,
      "▁herhan": 1715,
      "##masını": 1716,
      "▁borc": 1717,
      "▁dikkat": 1718,
      "▁kitap": 1719,
      "▁ihtiyacım": 1720,
      "▁herhangi": 1721,
      "▁sap": 1722,
      "▁oluyor": 1723,
      "▁azdi": 1724,
      "▁dolayi": 1725,
      "▁tahmin": 1726,
      "▁urun": 1727,
      "▁la": 1728,
      "▁sist": 1729,
      "▁hos": 1730,
      "▁nok": 1731,
      "##agıt": 1732,
      "▁philadelphia'dan": 1733,
      "▁hukumet": 1734,
      "▁rezervasyon": 1735,
      "##dak": 1736,
      "▁fen": 1737,
      "▁id": 1738,
      "▁halk": 1739,
      "▁toplan": 1740,
      "▁si": 1741,
      "▁str": 1742,
      "▁gidiyor": 1743,
      "▁dallas'tan": 1744,
      "##tul": 1745,
      "##unden": 1746,
      "##oloj": 1747,
      "▁bask": 1748,
      "▁gid": 1749,
      "▁baskanı": 1750,
      "▁polit": 1751,
      "##and": 1752,
      "▁of": 1753,
      "##abı": 1754,
      "▁199": 1755,
      "##van": 1756,
      "##vet": 1757,
      "▁tır": 1758,
      "##ilerin": 1759,
      "▁uzere": 1760,
      "▁hast": 1761,
      "▁baltimore'den": 1762,
      "##meyi": 1763,
      "▁br": 1764,
      "▁beri": 1765,
      "##all": 1766,
      "##unde": 1767,
      "##amadı": 1768,
      "##imde": 1769,
      "▁varan": 1770,
      "##lamak": 1771,
      "▁ikinci": 1772,
      "▁tabi": 1773,
      "##osy": 1774,
      "▁islet": 1775,
      "▁bildir": 1776,
      "▁ortal": 1777,
      "▁muht": 1778,
      "▁avrup": 1779,
      "▁kapandı": 1780,
      "##alet": 1781,
      "▁tuk": 1782,
      "▁cat": 1783,
      "##amıs": 1784,
      "▁rap": 1785,
      "▁15": 1786,
      "▁acı": 1787,
      "▁insanlar": 1788,
      "▁kı": 1789,
      "▁suc": 1790,
      "▁dayan": 1791,
      "▁cun": 1792,
      "▁yere": 1793,
      "▁temizlik": 1794,
      "▁ortaya": 1795,
      "▁otelin": 1796,
      "▁aile": 1797,
      "▁hatta": 1798,
      "▁cift": 1799,
      "▁bilgisay": 1800,
      "##.2": 1801,
      "▁bic": 1802,
      "##undan": 1803,
      "▁coz": 1804,
      "##aten": 1805,
      "▁fed": 1806,
      "▁oldugun": 1807,
      "▁st.": 1808,
      "##urdu": 1809,
      "▁gelis": 1810,
      "##erken": 1811,
      "##sas": 1812,
      "##yo": 1813,
      "##meler": 1814,
      "##muyor": 1815,
      "##kin": 1816,
      "##.3": 1817,
      "▁alıs": 1818,
      "##ıyorlar": 1819,
      "▁degildir": 1820,
      "▁persembe": 1821,
      "▁karsıl": 1822,
      "▁hafif": 1823,
      "▁yonetim": 1824,
      "▁dır": 1825,
      "▁altı": 1826,
      "▁yaptir": 1827,
      "##aların": 1828,
      "##afir": 1829,
      "▁francisco'dan": 1830,
      "▁misafir": 1831,
      "▁diy": 1832,
      "▁giy": 1833,
      "▁olanak": 1834,
      "▁cocu": 1835,
      "▁hatır": 1836,
      "▁cogu": 1837,
      "▁yetkil": 1838,
      "▁rapor": 1839,
      "##ukee": 1840,
      "##iyorlar": 1841,
      "▁milwa": 1842,
      "▁dolara": 1843,
      "▁degistir": 1844,
      "▁corp": 1845,
      "▁cunku": 1846,
      "##.6": 1847,
      "##apol": 1848,
      "▁yuzlu": 1849,
      "##mustu": 1850,
      "▁dunya": 1851,
      "▁kork": 1852,
      "▁havuzu": 1853,
      "▁milwaukee": 1854,
      "##bol": 1855,
      "▁koc": 1856,
      "▁cocuklar": 1857,
      "▁duvar": 1858,
      "▁okul": 1859,
      "▁davran": 1860,
      "##mamıs": 1861,
      "▁ode": 1862,
      "##tif": 1863,
      "##ustos": 1864,
      "▁agustos": 1865,
      "▁destek": 1866,
      "▁henuz": 1867,
      "##apolis": 1868,
      "▁dum": 1869,
      "▁demek": 1870,
      "##esiz": 1871,
      "▁tı": 1872,
      "▁hizmeti": 1873,
      "##imizi": 1874,
      "▁degerlendir": 1875,
      "##.7": 1876,
      "##ırdı": 1877,
      "▁olma": 1878,
      "▁bilim": 1879,
      "▁ib": 1880,
      "▁ucreti": 1881,
      "▁dc": 1882,
      "▁ma": 1883,
      "▁fik": 1884,
      "##larıyla": 1885,
      "▁indi": 1886,
      "▁20": 1887,
      "▁demir": 1888,
      "▁unu": 1889,
      "##gar": 1890,
      "##ant": 1891,
      "##emez": 1892,
      "▁olay": 1893,
      "▁olsa": 1894,
      "▁nis": 1895,
      "▁kard": 1896,
      "▁vardır": 1897,
      "▁ingil": 1898,
      "▁ince": 1899,
      "▁seyler": 1900,
      "▁bunlar": 1901,
      "▁bog": 1902,
      "##asından": 1903,
      "##uncu": 1904,
      "▁hac": 1905,
      "▁cez": 1906,
      "##alarını": 1907,
      "##ecegi": 1908,
      "▁americ": 1909,
      "▁cevr": 1910,
      "▁bolg": 1911,
      "##eydi": 1912,
      "▁renk": 1913,
      "▁dusunuyor": 1914,
      "▁arastır": 1915,
      "##forman": 1916,
      "▁ceyrek": 1917,
      "▁sik": 1918,
      "▁birden": 1919,
      "▁zaten": 1920,
      "▁lak": 1921,
      "▁uygul": 1922,
      "▁esk": 1923,
      "▁olabilirdi": 1924,
      "##gini": 1925,
      "▁red": 1926,
      "##ızı": 1927,
      "▁orta": 1928,
      "▁yarat": 1929,
      "▁agac": 1930,
      "##leyen": 1931,
      "▁degisik": 1932,
      "##.8": 1933,
      "▁sez": 1934,
      "▁rag": 1935,
      "▁kalmadim": 1936,
      "▁gunluk": 1937,
      "▁asagı": 1938,
      "▁buna": 1939,
      "▁imkan": 1940,
      "▁kredi": 1941,
      "▁kaynak": 1942,
      "▁bilgisayar": 1943,
      "##'i": 1944,
      "▁dis": 1945,
      "##irdi": 1946,
      "▁tr": 1947,
      "▁kara": 1948,
      "▁yapan": 1949,
      "##maktadır": 1950,
      "##igini": 1951,
      "▁agz": 1952,
      "▁30": 1953,
      "▁derece": 1954,
      "▁tasar": 1955,
      "▁sabahı": 1956,
      "▁performan": 1957,
      "▁onceki": 1958,
      "▁dak": 1959,
      "##ayacak": 1960,
      "##esil": 1961,
      "##eyim": 1962,
      "▁net": 1963,
      "▁edilen": 1964,
      "##.9": 1965,
      "▁cen": 1966,
      "##olu": 1967,
      "▁fiyatları": 1968,
      "▁harc": 1969,
      "##encer": 1970,
      "##\\/": 1971,
      "##ektr": 1972,
      "▁alak": 1973,
      "▁gordu": 1974,
      "##mektedir": 1975,
      "##uyla": 1976,
      "▁giris": 1977,
      "▁piyasa": 1978,
      "▁vadeli": 1979,
      "##mer": 1980,
      "▁yu": 1981,
      "##ısını": 1982,
      "▁re": 1983,
      "▁bizi": 1984,
      "▁gercekten": 1985,
      "▁ragmen": 1986,
      "▁sus": 1987,
      "▁yık": 1988,
      "##ast": 1989,
      "▁arası": 1990,
      "▁olması": 1991,
      "##masız": 1992,
      "▁cumhur": 1993,
      "##aj": 1994,
      "##bil": 1995,
      "##acagı": 1996,
      "▁turlu": 1997,
      "▁dolardan": 1998,
      "▁chic": 1999,
      "▁yalnızca": 2000,
      "##udu": 2001,
      "▁cap": 2002,
      "##ate": 2003,
      "▁fatur": 2004,
      "▁ilgi": 2005,
      "▁ana": 2006,
      "▁gunes": 2007,
      "##digimiz": 2008,
      "##masına": 2009,
      "##ilmesi": 2010,
      "▁yayın": 2011,
      "▁american": 2012,
      "▁chicag": 2013,
      "##ban": 2014,
      "##unuz": 2015,
      "##dip": 2016,
      "##okr": 2017,
      "▁onumuz": 2018,
      "▁ziy": 2019,
      "▁millet": 2020,
      "▁beydi": 2021,
      "▁ogret": 2022,
      "▁las": 2023,
      "▁mec": 2024,
      "▁zen": 2025,
      "▁orn": 2026,
      "▁otom": 2027,
      "▁yanl": 2028,
      "▁senedi": 2029,
      "##ibar": 2030,
      "▁servis": 2031,
      "##day": 2032,
      "##sı": 2033,
      "▁got": 2034,
      "▁mag": 2035,
      "▁11": 2036,
      "▁isi": 2037,
      "▁kims": 2038,
      "▁faal": 2039,
      "▁kendini": 2040,
      "▁yabancı": 2041,
      "##sil": 2042,
      "##rı": 2043,
      "##lah": 2044,
      "▁giz": 2045,
      "##larımız": 2046,
      "▁karayol": 2047,
      "▁elektr": 2048,
      "▁yerde": 2049,
      "▁ortak": 2050,
      "▁egit": 2051,
      "▁annem": 2052,
      "▁oldukca": 2053,
      "▁iddi": 2054,
      "▁avrupa": 2055,
      "##siniz": 2056,
      "▁bat": 2057,
      "##anlı": 2058,
      "##indan": 2059,
      "##ilar": 2060,
      "▁mac": 2061,
      "##lugu": 2062,
      "▁soguk": 2063,
      "##uru": 2064,
      "▁arac": 2065,
      "▁ister": 2066,
      "▁orada": 2067,
      "##'na": 2068,
      "▁dogr": 2069,
      "▁kucuktu": 2070,
      "▁eger": 2071,
      "##obil": 2072,
      "▁itibar": 2073,
      "▁unit": 2074,
      "##.4": 2075,
      "▁dam": 2076,
      "##leriyle": 2077,
      "▁amac": 2078,
      "##leme": 2079,
      "##sunuz": 2080,
      "▁kimse": 2081,
      "▁cumartesi": 2082,
      "▁ustune": 2083,
      "▁aktarmasız": 2084,
      "##ation": 2085,
      "##oh": 2086,
      "##ıc": 2087,
      "▁sam": 2088,
      "##ell": 2089,
      "##ator": 2090,
      "▁arada": 2091,
      "▁reh": 2092,
      "▁kaldı": 2093,
      "▁basında": 2094,
      "▁komis": 2095,
      "▁artarak": 2096,
      "▁hepsi": 2097,
      "##lilik": 2098,
      "##gas": 2099,
      "##.1": 2100,
      "##arl": 2101,
      "▁may": 2102,
      "▁num": 2103,
      "▁alman": 2104,
      "##tılar": 2105,
      "▁ates": 2106,
      "▁super": 2107,
      "▁boyunca": 2108,
      "▁tesisin": 2109,
      "▁gitti": 2110,
      "▁sakin": 2111,
      "##tern": 2112,
      "▁kuv": 2113,
      "▁airlin": 2114,
      "##ormal": 2115,
      "▁karayolu": 2116,
      "▁airlines": 2117,
      "▁pis": 2118,
      "▁olustur": 2119,
      "▁onların": 2120,
      "▁ayında": 2121,
      "▁adım": 2122,
      "▁tartıs": 2123,
      "▁mudur": 2124,
      "▁etmem": 2125,
      "▁eksik": 2126,
      "▁nokt": 2127,
      "▁col": 2128,
      "▁mum": 2129,
      "▁ucmak": 2130,
      "▁oner": 2131,
      "▁100": 2132,
      "▁etraf": 2133,
      "▁istiyor": 2134,
      "▁ihr": 2135,
      "▁eglen": 2136,
      "▁gonder": 2137,
      "▁gal": 2138,
      "▁mıs": 2139,
      "##eyecek": 2140,
      "##lanan": 2141,
      "##asıyla": 2142,
      "▁vermek": 2143,
      "▁engel": 2144,
      "▁sanki": 2145,
      "▁temmuz": 2146,
      "▁kesinlikle": 2147,
      "##tin": 2148,
      "▁tok": 2149,
      "##lanmıs": 2150,
      "▁elde": 2151,
      "▁yani": 2152,
      "▁senin": 2153,
      "##ılıgı": 2154,
      "▁farklı": 2155,
      "▁eylul": 2156,
      "▁reklam": 2157,
      "▁politik": 2158,
      "##dın": 2159,
      "##egi": 2160,
      "##orn": 2161,
      "▁teh": 2162,
      "##estir": 2163,
      "##eci": 2164,
      "▁nak": 2165,
      "▁anket": 2166,
      "▁bilgil": 2167,
      "▁olmayan": 2168,
      "▁kapat": 2169,
      "▁surekli": 2170,
      "▁doldur": 2171,
      "▁merkezi": 2172,
      "▁zengin": 2173,
      "##of": 2174,
      "▁normal": 2175,
      "##iste": 2176,
      "▁akl": 2177,
      "▁odam": 2178,
      "▁toplam": 2179,
      "▁uzerinden": 2180,
      "▁ustunde": 2181,
      "▁komisyon": 2182,
      "##inda": 2183,
      "##ise": 2184,
      "##ulmus": 2185,
      "▁aralık": 2186,
      "▁gecmis": 2187,
      "▁temel": 2188,
      "▁olmaz": 2189,
      "▁katil": 2190,
      "▁altın": 2191,
      "##tigini": 2192,
      "▁ifade": 2193,
      "▁seni": 2194,
      "##irler": 2195,
      "▁ciz": 2196,
      "▁dolarlık": 2197,
      "▁borsası": 2198,
      "▁sınır": 2199,
      "▁united": 2200,
      "▁af": 2201,
      "##mesini": 2202,
      "▁yapıyor": 2203,
      "▁dair": 2204,
      "▁duserek": 2205,
      "▁degilim": 2206,
      "##'nda": 2207,
      "▁asl": 2208,
      "▁sirketin": 2209,
      "▁onunde": 2210,
      "▁analist": 2211,
      "▁sistem": 2212,
      "##ladım": 2213,
      "##cusu": 2214,
      "▁bus": 2215,
      "▁kut": 2216,
      "▁siy": 2217,
      "▁nef": 2218,
      "##orth": 2219,
      "▁guclu": 2220,
      "▁yetersizdi": 2221,
      "##siyon": 2222,
      "▁nelerdir": 2223,
      "▁kıymetler": 2224,
      "##dem": 2225,
      "▁kil": 2226,
      "▁ders": 2227,
      "▁tası": 2228,
      "##atik": 2229,
      "▁derin": 2230,
      "##ecegim": 2231,
      "▁doktor": 2232,
      "▁savun": 2233,
      "▁sıcak": 2234,
      "▁yeterli": 2235,
      "▁kuvvet": 2236,
      "▁ap": 2237,
      "##ydı": 2238,
      "##maları": 2239,
      "▁elinde": 2240,
      "▁halde": 2241,
      "▁yuzde": 2242,
      "▁toplum": 2243,
      "▁kontr": 2244,
      "▁lir": 2245,
      "▁sana": 2246,
      "▁kendim": 2247,
      "▁hanım": 2248,
      "▁temizdi": 2249,
      "▁carp": 2250,
      "▁cevap": 2251,
      "▁hesap": 2252,
      "▁faaliyet": 2253,
      "▁siyah": 2254,
      "##lek": 2255,
      "##mıyor": 2256,
      "▁dan": 2257,
      "▁birinci": 2258,
      "##emiz": 2259,
      "##ite": 2260,
      "▁ard": 2261,
      "▁konfor": 2262,
      "▁belli": 2263,
      "▁yazar": 2264,
      "▁baglı": 2265,
      "▁bolum": 2266,
      "▁miami": 2267,
      "▁babam": 2268,
      "▁edecek": 2269,
      "▁toront": 2270,
      "▁sosy": 2271,
      "▁yana": 2272,
      "▁13": 2273,
      "▁ulasım": 2274,
      "▁onumuzdeki": 2275,
      "▁kelim": 2276,
      "▁ti": 2277,
      "▁olcu": 2278,
      "##ısına": 2279,
      "▁vegas": 2280,
      "##tiv": 2281,
      "▁veririm": 2282,
      "▁lo": 2283,
      "▁gecti": 2284,
      "##dikleri": 2285,
      "▁sene": 2286,
      "▁calısan": 2287,
      "▁ediyorum": 2288,
      "▁yonetic": 2289,
      "▁federal": 2290,
      "▁corp.": 2291,
      "##oeni": 2292,
      "▁sem": 2293,
      "▁siyas": 2294,
      "▁dost": 2295,
      "##ustu": 2296,
      "▁depr": 2297,
      "##ımda": 2298,
      "▁onları": 2299,
      "▁kalab": 2300,
      "▁gider": 2301,
      "▁vergi": 2302,
      "▁duygu": 2303,
      "▁phoeni": 2304,
      "▁phoenix": 2305,
      "##rik": 2306,
      "##gımız": 2307,
      "▁kagıt": 2308,
      "▁det": 2309,
      "▁day": 2310,
      "##lerce": 2311,
      "▁los": 2312,
      "▁25": 2313,
      "##he": 2314,
      "▁yedi": 2315,
      "##ume": 2316,
      "▁nes": 2317,
      "▁insa": 2318,
      "▁yıllar": 2319,
      "##iforn": 2320,
      "▁sokak": 2321,
      "▁benzer": 2322,
      "▁beraber": 2323,
      "##sat": 2324,
      "##rol": 2325,
      "##cısı": 2326,
      "##'ı": 2327,
      "##iran": 2328,
      "##ess": 2329,
      "▁pencer": 2330,
      "▁icine": 2331,
      "##lendi": 2332,
      "##ayıf": 2333,
      "▁uyan": 2334,
      "▁evet": 2335,
      "##ıyı": 2336,
      "▁sirketi": 2337,
      "▁sozles": 2338,
      "▁size": 2339,
      "##detti": 2340,
      "##meyen": 2341,
      "##arlan": 2342,
      "▁bon": 2343,
      "▁hır": 2344,
      "▁mik": 2345,
      "##att": 2346,
      "▁fil": 2347,
      "▁icecek": 2348,
      "##ustr": 2349,
      "▁dolu": 2350,
      "▁sektor": 2351,
      "▁takım": 2352,
      "##layacak": 2353,
      "##edef": 2354,
      "▁emek": 2355,
      "##sen": 2356,
      "▁bo": 2357,
      "▁kuz": 2358,
      "▁sul": 2359,
      "▁ydi": 2360,
      "▁mon": 2361,
      "##ırı": 2362,
      "##ısından": 2363,
      "▁iler": 2364,
      "▁a.": 2365,
      "▁yanında": 2366,
      "▁musa": 2367,
      "##qu": 2368,
      "▁gok": 2369,
      "##aliydi": 2370,
      "##agın": 2371,
      "##oglu": 2372,
      "▁kong": 2373,
      "▁orland": 2374,
      "▁yarın": 2375,
      "▁--": 2376,
      "▁katıl": 2377,
      "▁haft": 2378,
      "▁ingiliz": 2379,
      "▁aslında": 2380,
      "##mistir": 2381,
      "▁duk": 2382,
      "▁mo": 2383,
      "▁gelistir": 2384,
      "▁maliyet": 2385,
      "▁artısla": 2386,
      "▁odedigim": 2387,
      "▁rehber": 2388,
      "##'s": 2389,
      "▁mez": 2390,
      "##amay": 2391,
      "##imli": 2392,
      "##uyorum": 2393,
      "▁yılında": 2394,
      "##egin": 2395,
      "▁balık": 2396,
      "▁saglık": 2397,
      "▁kırm": 2398,
      "▁cevir": 2399,
      "▁savas": 2400,
      "▁bahc": 2401,
      "▁kasım": 2402,
      "▁roman": 2403,
      "▁ufak": 2404,
      "##yen": 2405,
      "▁be": 2406,
      "▁yog": 2407,
      "▁yesil": 2408,
      "▁cid": 2409,
      "▁muc": 2410,
      "▁vaz": 2411,
      "##uma": 2412,
      "##eyse": 2413,
      "##aba": 2414,
      "▁gorunuyor": 2415,
      "▁14": 2416,
      "▁gelmis": 2417,
      "▁indir": 2418,
      "▁veren": 2419,
      "▁kurtul": 2420,
      "▁bakan": 2421,
      "▁salt": 2422,
      "▁lezzetli": 2423,
      "▁sıra": 2424,
      "▁dısarı": 2425,
      "▁&": 2426,
      "##yan": 2427,
      "##mur": 2428,
      "##'u": 2429,
      "##bu": 2430,
      "##asız": 2431,
      "##isinin": 2432,
      "##eyle": 2433,
      "▁defa": 2434,
      "▁ez": 2435,
      "▁ren": 2436,
      "▁yardim": 2437,
      "▁hale": 2438,
      "▁yakin": 2439,
      "▁zamanda": 2440,
      "##amadim": 2441,
      "▁kalite": 2442,
      "▁hisseleri": 2443,
      "▁nedeniyle": 2444,
      "▁endeksi": 2445,
      "##set": 2446,
      "##kar": 2447,
      "▁op": 2448,
      "▁yeme": 2449,
      "▁tit": 2450,
      "▁cak": 2451,
      "▁birer": 2452,
      "##usunu": 2453,
      "##elere": 2454,
      "##taj": 2455,
      "##alarına": 2456,
      "▁veriyor": 2457,
      "##uston": 2458,
      "▁bayan": 2459,
      "▁univ": 2460,
      "▁asker": 2461,
      "▁ruh": 2462,
      "▁tuket": 2463,
      "▁unut": 2464,
      "▁univers": 2465,
      "##25": 2466,
      "▁hedef": 2467,
      "##azım": 2468,
      "▁fel": 2469,
      "▁film": 2470,
      "▁nih": 2471,
      "▁lim": 2472,
      "##acagım": 2473,
      "▁heps": 2474,
      "▁houston": 2475,
      "▁ekonomi": 2476,
      "▁delta": 2477,
      "▁kardes": 2478,
      "▁performans": 2479,
      "▁cic": 2480,
      "▁mav": 2481,
      "##dav": 2482,
      "##ılması": 2483,
      "▁ucuncu": 2484,
      "▁artır": 2485,
      "▁bilet": 2486,
      "▁karsısında": 2487,
      "▁bazen": 2488,
      "▁denize": 2489,
      "▁yurt": 2490,
      "▁sessiz": 2491,
      "▁yanlıs": 2492,
      "##tuk": 2493,
      "##a'nın": 2494,
      "##ji": 2495,
      "▁sel": 2496,
      "▁gay": 2497,
      "▁oper": 2498,
      "▁men": 2499,
      "▁kalan": 2500,
      "##lugun": 2501,
      "▁zayıf": 2502,
      "▁1/": 2503,
      "▁seyi": 2504,
      "▁ekim": 2505,
      "##otte": 2506,
      "##arken": 2507,
      "▁charl": 2508,
      "▁yapılacak": 2509,
      "▁olmadıgını": 2510,
      "▁otomobil": 2511,
      "▁charlotte": 2512,
      "##lim": 2513,
      "▁sark": 2514,
      "##aket": 2515,
      "▁cem": 2516,
      "▁mat": 2517,
      "##adaki": 2518,
      "##osu": 2519,
      "##lass": 2520,
      "▁haziran": 2521,
      "▁newark": 2522,
      "##ligini": 2523,
      "▁muster": 2524,
      "▁indian": 2525,
      "▁ihrac": 2526,
      "▁adı": 2527,
      "##leye": 2528,
      "##cuk": 2529,
      "▁cay": 2530,
      "##alarda": 2531,
      "##alarının": 2532,
      "▁edildi": 2533,
      "▁sert": 2534,
      "▁avuk": 2535,
      "▁kampan": 2536,
      "▁numar": 2537,
      "▁sosyal": 2538,
      "▁deprem": 2539,
      "▁indianapolis": 2540,
      "##uf": 2541,
      "##ari": 2542,
      "▁tac": 2543,
      "##urt": 2544,
      "##eyn": 2545,
      "▁18": 2546,
      "##elerde": 2547,
      "▁actı": 2548,
      "▁yarı": 2549,
      "▁dalg": 2550,
      "▁yazı": 2551,
      "▁tanım": 2552,
      "▁gercekles": 2553,
      "▁secim": 2554,
      "▁finans": 2555,
      "▁lake": 2556,
      "▁gotur": 2557,
      "▁ciddi": 2558,
      "▁sis": 2559,
      "▁meh": 2560,
      "▁pa": 2561,
      "▁ali": 2562,
      "▁onay": 2563,
      "▁angel": 2564,
      "##lıgını": 2565,
      "▁etmis": 2566,
      "##mıstır": 2567,
      "▁sorum": 2568,
      "▁ayrıl": 2569,
      "▁tutar": 2570,
      "▁kansas": 2571,
      "▁sefer": 2572,
      "▁nisan": 2573,
      "▁degisiklik": 2574,
      "##ser": 2575,
      "##ij": 2576,
      "▁saf": 2577,
      "##ong": 2578,
      "▁arz": 2579,
      "▁gide": 2580,
      "##gıc": 2581,
      "▁milli": 2582,
      "▁kurulu": 2583,
      "##cılar": 2584,
      "▁sermay": 2585,
      "##iddet": 2586,
      "▁kendisi": 2587,
      "▁begendim": 2588,
      "▁ortalama": 2589,
      "##dal": 2590,
      "##yalar": 2591,
      "▁dos": 2592,
      "##iri": 2593,
      "▁grup": 2594,
      "▁tez": 2595,
      "▁oldur": 2596,
      "▁ucusların": 2597,
      "▁aylık": 2598,
      "▁dahil": 2599,
      "▁temsil": 2600,
      "▁sub": 2601,
      "▁yuzunden": 2602,
      "▁hayal": 2603,
      "▁satıslar": 2604,
      "▁dieg": 2605,
      "▁first": 2606,
      "▁meydan": 2607,
      "▁zarar": 2608,
      "▁karsılas": 2609,
      "▁0.": 2610,
      "##sınız": 2611,
      "##ord": 2612,
      "##ekler": 2613,
      "▁def": 2614,
      "▁yapar": 2615,
      "▁idar": 2616,
      "▁haline": 2617,
      "▁toprak": 2618,
      "▁sahi": 2619,
      "▁bekle": 2620,
      "▁mali": 2621,
      "▁uretic": 2622,
      "▁kendisine": 2623,
      "▁sov": 2624,
      "▁seatt": 2625,
      "▁seattle": 2626,
      "▁gom": 2627,
      "▁pil": 2628,
      "▁buz": 2629,
      "▁fer": 2630,
      "▁naz": 2631,
      "##uluk": 2632,
      "▁efen": 2633,
      "▁ici": 2634,
      "▁anlay": 2635,
      "▁intern": 2636,
      "▁bilm": 2637,
      "##medik": 2638,
      "▁senet": 2639,
      "▁gozleri": 2640,
      "▁dusunc": 2641,
      "▁merak": 2642,
      "▁rakam": 2643,
      "▁kırmızı": 2644,
      "##yet": 2645,
      "##bar": 2646,
      "▁.\"": 2647,
      "##ıntı": 2648,
      "##larım": 2649,
      "▁birim": 2650,
      "##esiyle": 2651,
      "##ize": 2652,
      "▁ileri": 2653,
      "▁ara": 2654,
      "▁gorul": 2655,
      "▁17": 2656,
      "▁verdigi": 2657,
      "##lastır": 2658,
      "▁soylem": 2659,
      "▁ele": 2660,
      "▁dov": 2661,
      "▁eve": 2662,
      "▁evvel": 2663,
      "▁kultur": 2664,
      "▁soru": 2665,
      "▁insanın": 2666,
      "▁bekliyor": 2667,
      "▁demokr": 2668,
      "##luluk": 2669,
      "▁angeles": 2670,
      "##mayan": 2671,
      "##gumuz": 2672,
      "##bak": 2673,
      "▁batı": 2674,
      "▁sut": 2675,
      "▁gitt": 2676,
      "▁taz": 2677,
      "▁hik": 2678,
      "▁cont": 2679,
      "▁vat": 2680,
      "▁pan": 2681,
      "##tigi": 2682,
      "##tup": 2683,
      "▁bundan": 2684,
      "▁kaybet": 2685,
      "▁hazine": 2686,
      "▁hızlı": 2687,
      "▁iliskin": 2688,
      "▁ulusal": 2689,
      "▁olmadi": 2690,
      "▁yardimci": 2691,
      "##anlık": 2692,
      "▁ten": 2693,
      "▁tuz": 2694,
      "▁cı": 2695,
      "▁class": 2696,
      "▁fay": 2697,
      "##abet": 2698,
      "##isten": 2699,
      "▁aradi": 2700,
      "##imize": 2701,
      "##imizin": 2702,
      "▁onune": 2703,
      "▁bulunan": 2704,
      "▁misin": 2705,
      "▁araba": 2706,
      "▁silah": 2707,
      "▁musait": 2708,
      "▁lı": 2709,
      "##teki": 2710,
      "##kal": 2711,
      "##pa": 2712,
      "##inent": 2713,
      "▁dek": 2714,
      "▁tir": 2715,
      "▁huz": 2716,
      "##ıstır": 2717,
      "##lanıyor": 2718,
      "▁istedi": 2719,
      "##ograf": 2720,
      "##lenen": 2721,
      "▁21": 2722,
      "▁surdur": 2723,
      "▁dolas": 2724,
      "▁saglam": 2725,
      "▁mahkem": 2726,
      "##tal": 2727,
      "▁ters": 2728,
      "##iyim": 2729,
      "▁mor": 2730,
      "##alara": 2731,
      "▁dusman": 2732,
      "▁bence": 2733,
      "▁acıl": 2734,
      "▁olmasi": 2735,
      "▁bagım": 2736,
      "▁bahse": 2737,
      "▁durumda": 2738,
      "▁mumkun": 2739,
      "▁continent": 2740,
      "##oc": 2741,
      "##inn": 2742,
      "▁des": 2743,
      "▁delik": 2744,
      "▁yir": 2745,
      "##izi": 2746,
      "##ich": 2747,
      "##acık": 2748,
      "▁fab": 2749,
      "▁ilgis": 2750,
      "▁iceri": 2751,
      "▁alır": 2752,
      "##elerinin": 2753,
      "▁insanların": 2754,
      "▁kısm": 2755,
      "▁heyec": 2756,
      "▁egitim": 2757,
      "##din": 2758,
      "##sak": 2759,
      "##ane": 2760,
      "▁tiyat": 2761,
      "##isinde": 2762,
      "▁birles": 2763,
      "▁mur": 2764,
      "##lerim": 2765,
      "▁ilac": 2766,
      "##tıgını": 2767,
      "▁yapacak": 2768,
      "▁gecer": 2769,
      "▁geril": 2770,
      "▁bunları": 2771,
      "▁prob": 2772,
      "▁proj": 2773,
      "▁kaliteli": 2774,
      "▁kosul": 2775,
      "▁dısında": 2776,
      "##memis": 2777,
      "▁dunyanın": 2778,
      "▁begenmedim": 2779,
      "▁ekonomik": 2780,
      "##'yi": 2781,
      "▁petrol": 2782,
      "▁city'e": 2783,
      "▁kere": 2784,
      "▁kemal": 2785,
      "▁fena": 2786,
      "▁continental": 2787,
      "##gah": 2788,
      "##'deki": 2789,
      "▁kimi": 2790,
      "▁os": 2791,
      "▁yel": 2792,
      "▁cik": 2793,
      "▁mark": 2794,
      "▁onlara": 2795,
      "▁verdigim": 2796,
      "▁ide": 2797,
      "▁elestir": 2798,
      "▁edin": 2799,
      "▁seyahat": 2800,
      "▁co.": 2801,
      "▁bakım": 2802,
      "▁ekmek": 2803,
      "▁gitmek": 2804,
      "▁bulundu": 2805,
      "▁olursa": 2806,
      "▁talep": 2807,
      "##ational": 2808,
      "▁kontrol": 2809,
      "##ladık": 2810,
      "##gor": 2811,
      "▁tık": 2812,
      "▁isk": 2813,
      "▁kenar": 2814,
      "▁yuzme": 2815,
      "▁salon": 2816,
      "▁genellikle": 2817,
      "▁inc.": 2818,
      "▁yaptıgı": 2819,
      "▁sinir": 2820,
      "▁eskiydi": 2821,
      "▁avukat": 2822,
      "##meli": 2823,
      "▁siddet": 2824,
      "##isine": 2825,
      "▁cle": 2826,
      "##izyon": 2827,
      "##istan": 2828,
      "▁baslamıs": 2829,
      "▁gordum": 2830,
      "▁aydın": 2831,
      "▁ettim": 2832,
      "▁kurtar": 2833,
      "▁azal": 2834,
      "▁zorunda": 2835,
      "▁olcude": 2836,
      "▁ısı": 2837,
      "▁gru": 2838,
      "▁hus": 2839,
      "##aydı": 2840,
      "▁olup": 2841,
      "▁sona": 2842,
      "▁isaret": 2843,
      "##ilere": 2844,
      "▁lazım": 2845,
      "▁kendiler": 2846,
      "▁part": 2847,
      "▁26": 2848,
      "▁evde": 2849,
      "▁personeli": 2850,
      "▁yatak": 2851,
      "▁ert": 2852,
      "##iligi": 2853,
      "▁hanimdi": 2854,
      "▁yardımcı": 2855,
      "▁servisi": 2856,
      "▁sebep": 2857,
      "##mesine": 2858,
      "##gec": 2859,
      "##kın": 2860,
      "▁yun": 2861,
      "##ilig": 2862,
      "▁tip": 2863,
      "▁cer": 2864,
      "▁cep": 2865,
      "▁cent": 2866,
      "▁mot": 2867,
      "▁port": 2868,
      "▁olus": 2869,
      "▁gormek": 2870,
      "▁istif": 2871,
      "▁gund": 2872,
      "▁ait": 2873,
      "▁calısıyor": 2874,
      "▁tatlı": 2875,
      "▁izin": 2876,
      "▁ısık": 2877,
      "▁dakika": 2878,
      "▁magaz": 2879,
      "▁universit": 2880,
      "▁problem": 2881,
      "##dun": 2882,
      "##kara": 2883,
      "##ind": 2884,
      "▁sip": 2885,
      "▁ocak": 2886,
      "##ayla": 2887,
      "##amız": 2888,
      "##urlu": 2889,
      "##ates": 2890,
      "▁ucuyor": 2891,
      "▁ilet": 2892,
      "##dıgını": 2893,
      "▁dusur": 2894,
      "▁gosterdi": 2895,
      "▁50": 2896,
      "▁gerekiyor": 2897,
      "▁manz": 2898,
      "▁faturam": 2899,
      "▁pas": 2900,
      "▁fot": 2901,
      "##ılmaz": 2902,
      "##agan": 2903,
      "▁zev": 2904,
      "▁varlık": 2905,
      "▁etme": 2906,
      "▁biliyor": 2907,
      "▁200": 2908,
      "▁bakıs": 2909,
      "▁ulasımı": 2910,
      "▁makin": 2911,
      "▁kahval": 2912,
      "▁gonul": 2913,
      "▁oakland'a": 2914,
      "##veland": 2915,
      "▁teknoloj": 2916,
      "▁tabii": 2917,
      "▁dukkan": 2918,
      "▁mehmet": 2919,
      "▁sahibi": 2920,
      "▁cleveland": 2921,
      "##bas": 2922,
      "##ırıl": 2923,
      "▁olabil": 2924,
      "##aca": 2925,
      "▁alacak": 2926,
      "▁uzman": 2927,
      "▁akıl": 2928,
      "▁yasan": 2929,
      "▁yukarı": 2930,
      "▁kullanmadim": 2931,
      "▁altına": 2932,
      "▁saldır": 2933,
      "▁malz": 2934,
      "▁washington'a": 2935,
      "▁direk": 2936,
      "▁incel": 2937,
      "▁sof": 2938,
      "▁tedav": 2939,
      "▁ardından": 2940,
      "##sek": 2941,
      "##gından": 2942,
      "##gının": 2943,
      "##ke": 2944,
      "##ill": 2945,
      "##ata": 2946,
      "▁dedim": 2947,
      "▁allah": 2948,
      "▁ruz": 2949,
      "▁bilin": 2950,
      "▁olmalı": 2951,
      "##lenmis": 2952,
      "▁cıkan": 2953,
      "▁27": 2954,
      "▁yandan": 2955,
      "▁duruyor": 2956,
      "▁fiyatı": 2957,
      "▁acıklam": 2958,
      "▁siir": 2959,
      "##menin": 2960,
      "##na": 2961,
      "##fer": 2962,
      "##ard": 2963,
      "##ırlar": 2964,
      "▁ref": 2965,
      "▁bası": 2966,
      "##alarında": 2967,
      "▁ettik": 2968,
      "▁guney": 2969,
      "▁yılın": 2970,
      "▁parmak": 2971,
      "▁yarım": 2972,
      "▁odem": 2973,
      "▁sekiz": 2974,
      "▁bagır": 2975,
      "▁cesitli": 2976,
      "▁banka": 2977,
      "▁hukuk": 2978,
      "▁1988": 2979,
      "▁city'den": 2980,
      "▁rezervasyonu": 2981,
      "▁stan": 2982,
      "▁ydı": 2983,
      "▁hol": 2984,
      "▁cil": 2985,
      "##iya": 2986,
      "▁iyice": 2987,
      "▁lok": 2988,
      "▁dogu": 2989,
      "▁yolu": 2990,
      "##ville": 2991,
      "▁mesel": 2992,
      "▁mutlu": 2993,
      "##aturk": 2994,
      "▁yatırımcılar": 2995,
      "▁kıv": 2996,
      "▁gittik": 2997,
      "##eet": 2998,
      "##kır": 2999,
      "##erler": 3000,
      "▁ge": 3001,
      "▁gem": 3002,
      "▁ov": 3003,
      "##ayım": 3004,
      "▁mart": 3005,
      "▁bulam": 3006,
      "##ach": 3007,
      "##istim": 3008,
      "▁alamadim": 3009,
      "##lıga": 3010,
      "▁16": 3011,
      "##'nde": 3012,
      "▁cıkmıs": 3013,
      "▁beyle": 3014,
      "▁fiyati": 3015,
      "▁sozcusu": 3016,
      "##acagız": 3017,
      "▁okum": 3018,
      "▁boylece": 3019,
      "▁musta": 3020,
      "▁endustr": 3021,
      "▁ticari": 3022,
      "▁cumhuriyet": 3023,
      "▁hikay": 3024,
      "▁yirmi": 3025,
      "##lis": 3026,
      "##net": 3027,
      "##arası": 3028,
      "▁gog": 3029,
      "▁hap": 3030,
      "##dular": 3031,
      "▁almıs": 3032,
      "▁rad": 3033,
      "▁ayır": 3034,
      "▁deng": 3035,
      "▁yasında": 3036,
      "▁yaslı": 3037,
      "▁tarif": 3038,
      "▁halinde": 3039,
      "▁jon": 3040,
      "▁baglan": 3041,
      "▁tane": 3042,
      "▁washington'dan": 3043,
      "▁aktarmalı": 3044,
      "▁tamamen": 3045,
      "▁anlasma": 3046,
      "▁nered": 3047,
      "##fet": 3048,
      "▁sarı": 3049,
      "▁cel": 3050,
      "▁mun": 3051,
      "##ima": 3052,
      "##izm": 3053,
      "##ult": 3054,
      "▁egil": 3055,
      "▁risk": 3056,
      "▁basını": 3057,
      "##tuyor": 3058,
      "##evizyon": 3059,
      "▁bilir": 3060,
      "▁enf": 3061,
      "##madik": 3062,
      "▁uzat": 3063,
      "▁ataturk": 3064,
      "▁kent": 3065,
      "▁evin": 3066,
      "▁fiyata": 3067,
      "▁girdi": 3068,
      "▁ediyordu": 3069,
      "▁ilgilendiler": 3070,
      "##mayacak": 3071,
      "▁karsiligini": 3072,
      "▁yetkilileri": 3073,
      "▁elektrik": 3074,
      "▁danıs": 3075,
      "▁mucadel": 3076,
      "▁mustafa": 3077,
      "##0'": 3078,
      "▁sas": 3079,
      "▁sayı": 3080,
      "▁sart": 3081,
      "▁yah": 3082,
      "##imden": 3083,
      "##ulan": 3084,
      "▁ondan": 3085,
      "##dız": 3086,
      "▁idi": 3087,
      "▁oteli": 3088,
      "▁edilm": 3089,
      "▁sent": 3090,
      "▁satım": 3091,
      "▁oteldi": 3092,
      "▁okuy": 3093,
      "▁acıkladı": 3094,
      "▁sırt": 3095,
      "▁dava": 3096,
      "▁sizin": 3097,
      "▁edece": 3098,
      "▁kahve": 3099,
      "▁japonya": 3100,
      "▁muhtem": 3101,
      "▁olanaklari": 3102,
      "▁osman": 3103,
      "▁motor": 3104,
      "##leket": 3105,
      "##gur": 3106,
      "▁kayıp": 3107,
      "▁sh": 3108,
      "##enler": 3109,
      "▁oden": 3110,
      "##iliyor": 3111,
      "▁ta": 3112,
      "▁ha": 3113,
      "▁mit": 3114,
      "##emem": 3115,
      "▁olacagını": 3116,
      "▁rast": 3117,
      "▁ankara": 3118,
      "##elerek": 3119,
      "▁verilen": 3120,
      "##makta": 3121,
      "▁soyley": 3122,
      "▁memleket": 3123,
      "▁22": 3124,
      "▁yanı": 3125,
      "##ıydı": 3126,
      "▁zamanlar": 3127,
      "▁kayb": 3128,
      "▁cıkardı": 3129,
      "##layarak": 3130,
      "▁etmeye": 3131,
      "▁kadınlar": 3132,
      "▁umut": 3133,
      "▁hızla": 3134,
      "▁sikin": 3135,
      "▁gizli": 3136,
      "▁yogun": 3137,
      "▁neredeyse": 3138,
      "##tak": 3139,
      "▁suy": 3140,
      "▁verir": 3141,
      "▁aktiv": 3142,
      "▁memph": 3143,
      "▁kapalı": 3144,
      "▁gene": 3145,
      "▁surec": 3146,
      "▁arttı": 3147,
      "##sizlik": 3148,
      "##tre": 3149,
      "▁dokun": 3150,
      "▁ihtiyar": 3151,
      "▁sehr": 3152,
      "▁olduguna": 3153,
      "▁reddetti": 3154,
      "▁fotograf": 3155,
      "▁memphis": 3156,
      "▁gum": 3157,
      "##ori": 3158,
      "##ısız": 3159,
      "▁fut": 3160,
      "▁alıp": 3161,
      "▁goruyor": 3162,
      "▁isin": 3163,
      "▁ener": 3164,
      "▁sans": 3165,
      "▁elbet": 3166,
      "▁yasadı": 3167,
      "▁dow": 3168,
      "▁kapsam": 3169,
      "▁bulunuyor": 3170,
      "▁gozlerini": 3171,
      "▁hayır": 3172,
      "▁kanun": 3173,
      "▁sırada": 3174,
      "▁kendine": 3175,
      "##'yı": 3176,
      "▁ziyaret": 3177,
      "▁tehlik": 3178,
      "▁lou": 3179,
      "##taki": 3180,
      "▁sasır": 3181,
      "▁duzel": 3182,
      "##onu": 3183,
      "▁po": 3184,
      "##dugunu": 3185,
      "▁edip": 3186,
      "##tıyor": 3187,
      "▁ets": 3188,
      "▁isten": 3189,
      "##alıgı": 3190,
      "▁bunların": 3191,
      "▁wall": 3192,
      "▁prof": 3193,
      "▁konustu": 3194,
      "▁imz": 3195,
      "▁merkezine": 3196,
      "▁kamu": 3197,
      "▁resim": 3198,
      "▁tesekkurler": 3199,
      "▁endeks": 3200,
      "▁calisanlar": 3201,
      "▁fikir": 3202,
      "▁imkanlari": 3203,
      "▁analistler": 3204,
      "▁cicek": 3205,
      "▁jones": 3206,
      "##bah": 3207,
      "##75": 3208,
      "▁suz": 3209,
      "▁gr": 3210,
      "▁tec": 3211,
      "▁ted": 3212,
      "▁cinc": 3213,
      "##aması": 3214,
      "##elerine": 3215,
      "▁koca": 3216,
      "▁seyden": 3217,
      "▁yasa": 3218,
      "▁haval": 3219,
      "▁ekledi": 3220,
      "▁katkı": 3221,
      "▁tanı": 3222,
      "▁kırk": 3223,
      "▁gerceklestir": 3224,
      "▁televizyon": 3225,
      "▁edeb": 3226,
      "▁ustu": 3227,
      "▁bitir": 3228,
      "▁karıstır": 3229,
      "▁peters": 3230,
      "▁toplantı": 3231,
      "▁strate": 3232,
      "▁street": 3233,
      "▁mavi": 3234,
      "▁operasyon": 3235,
      "##can": 3236,
      "▁key": 3237,
      "▁kayı": 3238,
      "##ile": 3239,
      "##ınc": 3240,
      "##aklı": 3241,
      "##isindan": 3242,
      "▁hij": 3243,
      "▁mul": 3244,
      "##atif": 3245,
      "##ısının": 3246,
      "▁fort": 3247,
      "##agına": 3248,
      "▁alıyor": 3249,
      "▁isim": 3250,
      "▁yılda": 3251,
      "▁worth": 3252,
      "▁uretim": 3253,
      "▁kendisini": 3254,
      "▁resmi": 3255,
      "▁guleryuzluydu": 3256,
      "▁milwaukee'den": 3257,
      "##innati": 3258,
      "▁cincinnati": 3259,
      "##sim": 3260,
      "##fi": 3261,
      "##ardı": 3262,
      "▁kup": 3263,
      "▁suyu": 3264,
      "▁om": 3265,
      "▁tay": 3266,
      "##emey": 3267,
      "##agını": 3268,
      "▁endis": 3269,
      "▁kov": 3270,
      "##uyle": 3271,
      "▁kural": 3272,
      "▁gosteriyor": 3273,
      "▁yerel": 3274,
      "▁asla": 3275,
      "▁bayram": 3276,
      "▁karsılık": 3277,
      "▁yuzu": 3278,
      "▁odaydi": 3279,
      "▁sahn": 3280,
      "▁otelden": 3281,
      "▁ediyoruz": 3282,
      "▁kızı": 3283,
      "▁hastan": 3284,
      "▁takip": 3285,
      "▁itir": 3286,
      "▁basarılı": 3287,
      "▁vakit": 3288,
      "##\\/8": 3289,
      "▁girisim": 3290,
      "▁montre": 3291,
      "▁heyecan": 3292,
      "▁futbol": 3293,
      "▁montreal": 3294,
      "##sem": 3295,
      "##layıp": 3296,
      "##ni": 3297,
      "##bus": 3298,
      "##unc": 3299,
      "##isler": 3300,
      "▁ci": 3301,
      "##esem": 3302,
      "##amaya": 3303,
      "##urken": 3304,
      "▁fi": 3305,
      "##ılacak": 3306,
      "▁soylen": 3307,
      "##uyorlar": 3308,
      "▁durgun": 3309,
      "▁jos": 3310,
      "▁gerektigini": 3311,
      "▁yuksekti": 3312,
      "▁havayolu": 3313,
      "▁1989": 3314,
      "▁birbirine": 3315,
      "▁ailelere": 3316,
      "▁sigort": 3317,
      "▁madd": 3318,
      "▁yaptirdi": 3319,
      "▁ogretmen": 3320,
      "▁itibaren": 3321,
      "▁louis": 3322,
      "▁hijyen": 3323,
      "##mini": 3324,
      "▁doy": 3325,
      "##ens": 3326,
      "▁obur": 3327,
      "##ıklı": 3328,
      "▁yapı": 3329,
      "▁aktif": 3330,
      "▁dondu": 3331,
      "▁durumu": 3332,
      "▁yuzden": 3333,
      "▁dogal": 3334,
      "▁fransız": 3335,
      "▁yolc": 3336,
      "##ihaz": 3337,
      "▁yorgun": 3338,
      "▁kazandı": 3339,
      "▁yalan": 3340,
      "▁sıkı": 3341,
      "▁uluslar": 3342,
      "▁kurumsal": 3343,
      "▁pahaliydi": 3344,
      "▁mayıs": 3345,
      "▁sermaye": 3346,
      "##ug": 3347,
      "##lulu": 3348,
      "##mal": 3349,
      "##isel": 3350,
      "##ond": 3351,
      "##amıyor": 3352,
      "##iki": 3353,
      "▁dep": 3354,
      "##dul": 3355,
      "▁nit": 3356,
      "▁ilan": 3357,
      "▁baslan": 3358,
      "▁ucusa": 3359,
      "##elerinde": 3360,
      "▁ettiler": 3361,
      "▁vermis": 3362,
      "##ilerini": 3363,
      "##maktan": 3364,
      "▁oranı": 3365,
      "▁acisindan": 3366,
      "▁gunku": 3367,
      "##lıkla": 3368,
      "▁ederek": 3369,
      "▁yerinde": 3370,
      "▁asırı": 3371,
      "▁seker": 3372,
      "##abilecek": 3373,
      "▁soh": 3374,
      "▁tahviller": 3375,
      "▁dusuktu": 3376,
      "▁mukemmeldi": 3377,
      "▁hastalık": 3378,
      "▁misafirimiz": 3379,
      "▁miktar": 3380,
      "▁kuzey": 3381,
      "▁fayd": 3382,
      "▁ilgisiz": 3383,
      "▁zevk": 3384,
      "##meleri": 3385,
      "▁beb": 3386,
      "▁yasıyor": 3387,
      "##orta": 3388,
      "▁ton": 3389,
      "##isim": 3390,
      "▁yaptık": 3391,
      "▁gidip": 3392,
      "##mıslar": 3393,
      "##manı": 3394,
      "▁uyum": 3395,
      "▁eser": 3396,
      "▁suph": 3397,
      "▁sordu": 3398,
      "▁harika": 3399,
      "▁milyondan": 3400,
      "▁cekti": 3401,
      "▁sabit": 3402,
      "▁bazıları": 3403,
      "▁bıraktı": 3404,
      "▁konuda": 3405,
      "▁spor": 3406,
      "▁laf": 3407,
      "▁ornek": 3408,
      "##yıl": 3409,
      "##lo": 3410,
      "##tum": 3411,
      "##tılı": 3412,
      "##ide": 3413,
      "▁sesi": 3414,
      "##ene": 3415,
      "▁hur": 3416,
      "##ursuz": 3417,
      "▁peyn": 3418,
      "▁niyet": 3419,
      "▁rus": 3420,
      "▁rec": 3421,
      "▁anad": 3422,
      "▁soyler": 3423,
      "##'ndan": 3424,
      "▁test": 3425,
      "▁memur": 3426,
      "▁23": 3427,
      "▁general": 3428,
      "▁bulmak": 3429,
      "▁esn": 3430,
      "▁31": 3431,
      "▁35": 3432,
      "▁yola": 3433,
      "▁korku": 3434,
      "▁gereken": 3435,
      "##lige": 3436,
      "##ligin": 3437,
      "▁baba": 3438,
      "▁emin": 3439,
      "▁york'tan": 3440,
      "▁kurulus": 3441,
      "▁olmadıgı": 3442,
      "▁yagmur": 3443,
      "▁isletme": 3444,
      "▁iddia": 3445,
      "▁paul": 3446,
      "▁civar": 3447,
      "##ub": 3448,
      "##cisi": 3449,
      "▁kası": 3450,
      "##ende": 3451,
      "##alanı": 3452,
      "▁cir": 3453,
      "▁olc": 3454,
      "▁alabilir": 3455,
      "▁kalmıs": 3456,
      "▁elb": 3457,
      "▁tesisten": 3458,
      "▁asıl": 3459,
      "▁yans": 3460,
      "▁memnunum": 3461,
      "▁hizmetleri": 3462,
      "▁uzerindeki": 3463,
      "▁196": 3464,
      "▁duyg": 3465,
      "##inizi": 3466,
      "▁hasta": 3467,
      "▁yukselt": 3468,
      "▁ithal": 3469,
      "▁yemeklerinden": 3470,
      "▁dogrudan": 3471,
      "▁sınıfı": 3472,
      "▁muhtesem": 3473,
      "##bank": 3474,
      "▁almanya": 3475,
      "▁odamiz": 3476,
      "▁insaat": 3477,
      "▁bilmiyorum": 3478,
      "▁malzem": 3479,
      "▁edebiyat": 3480,
      "▁eki": 3481,
      "##das": 3482,
      "##yn": 3483,
      "##.0": 3484,
      "▁gev": 3485,
      "▁tim": 3486,
      "▁mol": 3487,
      "##ısın": 3488,
      "##uluyor": 3489,
      "##dılar": 3490,
      "▁kalp": 3491,
      "▁basv": 3492,
      "▁verim": 3493,
      "##evi": 3494,
      "##lastı": 3495,
      "▁biles": 3496,
      "##laması": 3497,
      "▁yerles": 3498,
      "▁baktı": 3499,
      "▁ekip": 3500,
      "▁kulak": 3501,
      "▁fiyatlar": 3502,
      "▁sorunu": 3503,
      "##ediye": 3504,
      "##bire": 3505,
      "▁onceden": 3506,
      "##acılar": 3507,
      "▁dokuz": 3508,
      "▁duzey": 3509,
      "▁kalkıyor": 3510,
      "▁anlamda": 3511,
      "▁herkesin": 3512,
      "▁komp": 3513,
      "▁havaalanı": 3514,
      "▁oyuncu": 3515,
      "▁sonraki": 3516,
      "▁musteri": 3517,
      "▁adeta": 3518,
      "▁birdenbire": 3519,
      "▁ornegin": 3520,
      "▁titr": 3521,
      "▁kampanyalar": 3522,
      "▁ruzgar": 3523,
      "▁*": 3524,
      "##tas": 3525,
      "▁kıl": 3526,
      "▁sız": 3527,
      "▁dısı": 3528,
      "▁yı": 3529,
      "▁yildi": 3530,
      "##isyon": 3531,
      "▁civ": 3532,
      "▁poz": 3533,
      "▁bulu": 3534,
      "▁fas": 3535,
      "##ital": 3536,
      "▁not": 3537,
      "▁ongor": 3538,
      "##lanır": 3539,
      "##lıgın": 3540,
      "▁gelip": 3541,
      "▁ins": 3542,
      "▁uzan": 3543,
      "▁sevgil": 3544,
      "▁beklem": 3545,
      "▁ayni": 3546,
      "▁hisset": 3547,
      "▁herkese": 3548,
      "▁eylem": 3549,
      "##roit": 3550,
      "▁vegas'a": 3551,
      "▁detroit": 3552,
      "▁anadolu": 3553,
      "▁yildiz": 3554,
      "##dil": 3555,
      "##lisi": 3556,
      "##ve": 3557,
      "##ha": 3558,
      "##ham": 3559,
      "▁th": 3560,
      "▁hele": 3561,
      "▁cıl": 3562,
      "##emiyor": 3563,
      "▁alk": 3564,
      "▁baskı": 3565,
      "▁kapas": 3566,
      "▁hangisi": 3567,
      "▁agız": 3568,
      "▁%1": 3569,
      "▁ortam": 3570,
      "▁west": 3571,
      "▁onunla": 3572,
      "▁buraya": 3573,
      "▁197": 3574,
      "▁koltuk": 3575,
      "▁aksamı": 3576,
      "▁kacın": 3577,
      "▁kıyas": 3578,
      "▁bekleniyor": 3579,
      "▁rekabet": 3580,
      "▁telefonla": 3581,
      "▁olumlu": 3582,
      "▁yumus": 3583,
      "▁bildirdi": 3584,
      "▁kendimi": 3585,
      "▁konforlu": 3586,
      "▁kongre": 3587,
      "▁orlando'ya": 3588,
      "▁tezgah": 3589,
      "▁sovyet": 3590,
      "▁seattle'ye": 3591,
      "▁fabrik": 3592,
      "▁ideal": 3593,
      "##dam": 3594,
      "##ruk": 3595,
      "##'le": 3596,
      "▁tuc": 3597,
      "▁hab": 3598,
      "##esin": 3599,
      "▁vucu": 3600,
      "▁pasa": 3601,
      "▁far": 3602,
      "▁rest": 3603,
      "▁isler": 3604,
      "##alarla": 3605,
      "▁istik": 3606,
      "▁konusu": 3607,
      "▁gecik": 3608,
      "##ustuk": 3609,
      "▁attı": 3610,
      "▁yılı": 3611,
      "▁yukselerek": 3612,
      "▁sirketler": 3613,
      "▁harik": 3614,
      "##asyonu": 3615,
      "##sizdi": 3616,
      "▁ettigi": 3617,
      "##sızlık": 3618,
      "▁borsa": 3619,
      "▁davet": 3620,
      "▁sizi": 3621,
      "▁yardımcısı": 3622,
      "▁tarihi": 3623,
      "▁bununla": 3624,
      "▁doları'na": 3625,
      "▁sigorta": 3626,
      "▁oakland'dan": 3627,
      "▁milwaukee'ye": 3628,
      "▁vazgec": 3629,
      "▁kayıt": 3630,
      "##mustur": 3631,
      "##cileri": 3632,
      "##br": 3633,
      "##ern": 3634,
      "▁kısı": 3635,
      "▁ye": 3636,
      "##alle": 3637,
      "▁ceb": 3638,
      "▁mc": 3639,
      "▁nik": 3640,
      "▁rol": 3641,
      "▁zay": 3642,
      "##elerden": 3643,
      "▁lis": 3644,
      "##lamaya": 3645,
      "▁oldugum": 3646,
      "▁ikisi": 3647,
      "##egini": 3648,
      "##dikten": 3649,
      "▁yasama": 3650,
      "##diginde": 3651,
      "▁evi": 3652,
      "##ediler": 3653,
      "▁bakıyor": 3654,
      "##0000": 3655,
      "▁3/": 3656,
      "▁hayvan": 3657,
      "##masının": 3658,
      "▁acıklan": 3659,
      "▁ederiz": 3660,
      "##ıldıgını": 3661,
      "▁yuruy": 3662,
      "▁saray": 3663,
      "▁askeri": 3664,
      "▁kumas": 3665,
      "▁mahkeme": 3666,
      "▁cocugun": 3667,
      "▁dc'ye": 3668,
      "▁bogaz": 3669,
      "▁yuvar": 3670,
      "▁galib": 3671,
      "▁miami'ye": 3672,
      "▁havalim": 3673,
      "▁petersburg": 3674,
      "##rum": 3675,
      "##gim": 3676,
      "##ire": 3677,
      "▁oc": 3678,
      "▁ote": 3679,
      "##ale": 3680,
      "##onik": 3681,
      "▁oldum": 3682,
      "##ısıyla": 3683,
      "▁alıcı": 3684,
      "▁varsa": 3685,
      "▁istih": 3686,
      "▁konak": 3687,
      "▁yasak": 3688,
      "▁tuttu": 3689,
      "▁40": 3690,
      "▁duyar": 3691,
      "▁amerika": 3692,
      "▁kalkıs": 3693,
      "▁kisisel": 3694,
      "▁stok": 3695,
      "▁ayakk": 3696,
      "▁havaalan": 3697,
      "##ebilecek": 3698,
      "▁bush": 3699,
      "▁efendi": 3700,
      "▁sipar": 3701,
      "▁zayif": 3702,
      "##cılık": 3703,
      "##ere": 3704,
      "▁kel": 3705,
      "##aladı": 3706,
      "▁tıp": 3707,
      "▁cır": 3708,
      "##etin": 3709,
      "##emin": 3710,
      "▁fıs": 3711,
      "▁karanlık": 3712,
      "##alardan": 3713,
      "▁gib": 3714,
      "##medigini": 3715,
      "▁organ": 3716,
      "▁ig": 3717,
      "▁otuz": 3718,
      "▁californ": 3719,
      "▁tutun": 3720,
      "▁ettigini": 3721,
      "▁nash": 3722,
      "▁anne": 3723,
      "▁bizimle": 3724,
      "▁kopek": 3725,
      "▁etkil": 3726,
      "▁seviyesine": 3727,
      "▁bicim": 3728,
      "▁normaldi": 3729,
      "▁uluslararası": 3730,
      "##uv": 3731,
      "##oma": 3732,
      "##gen": 3733,
      "##kel": 3734,
      "##west": 3735,
      "##bat": 3736,
      "▁bl": 3737,
      "▁beye": 3738,
      "##anda": 3739,
      "▁sm": 3740,
      "▁dagıt": 3741,
      "▁utan": 3742,
      "##istik": 3743,
      "▁alma": 3744,
      "##gileri": 3745,
      "▁kaliforn": 3746,
      "▁basit": 3747,
      "▁gorur": 3748,
      "▁isteyen": 3749,
      "##lasyon": 3750,
      "▁geciyor": 3751,
      "##ustri": 3752,
      "▁park": 3753,
      "▁parti": 3754,
      "##diklerini": 3755,
      "▁aj": 3756,
      "▁halen": 3757,
      "▁tampa": 3758,
      "▁lezzeti": 3759,
      "##ıldıgı": 3760,
      "▁kalkıp": 3761,
      "##laka": 3762,
      "▁gorunce": 3763,
      "▁cagır": 3764,
      "▁guvenlik": 3765,
      "▁finan": 3766,
      "##ohn": 3767,
      "▁siyasi": 3768,
      "▁stratej": 3769,
      "▁california": 3770,
      "##dog": 3771,
      "##uar": 3772,
      "##rim": 3773,
      "##tis": 3774,
      "##bası": 3775,
      "▁bed": 3776,
      "##iski": 3777,
      "▁hin": 3778,
      "▁cur": 3779,
      "▁mir": 3780,
      "▁piy": 3781,
      "▁pac": 3782,
      "##ılım": 3783,
      "##apur": 3784,
      "▁karak": 3785,
      "▁verecek": 3786,
      "▁konut": 3787,
      "▁yıldız": 3788,
      "▁parca": 3789,
      "▁24": 3790,
      "▁sendik": 3791,
      "▁yetis": 3792,
      "▁azından": 3793,
      "▁dolayı": 3794,
      "▁ozgur": 3795,
      "▁koyun": 3796,
      "▁avuc": 3797,
      "▁simdiye": 3798,
      "##tere": 3799,
      "▁merdi": 3800,
      "▁hamam": 3801,
      "▁muzik": 3802,
      "▁yaptirmadim": 3803,
      "▁sikayet": 3804,
      "▁superdi": 3805,
      "▁nakit": 3806,
      "▁yemegi": 3807,
      "▁indianapolis'ten": 3808,
      "▁enflasyon": 3809,
      "▁profes": 3810,
      "▁kısıt": 3811,
      "▁nashville": 3812,
      "##ule": 3813,
      "##lası": 3814,
      "##lılık": 3815,
      "##aat": 3816,
      "▁kuy": 3817,
      "##asın": 3818,
      "##isik": 3819,
      "▁birik": 3820,
      "##ese": 3821,
      "##lerdir": 3822,
      "▁peki": 3823,
      "▁edi": 3824,
      "▁ilg": 3825,
      "▁kalın": 3826,
      "▁baslıyor": 3827,
      "▁gormedim": 3828,
      "▁yapmaya": 3829,
      "▁ayı": 3830,
      "▁oraya": 3831,
      "▁lond": 3832,
      "▁gunleri": 3833,
      "▁teslim": 3834,
      "▁kurt": 3835,
      "▁buldum": 3836,
      "▁durdur": 3837,
      "##veris": 3838,
      "▁azalt": 3839,
      "▁dolay": 3840,
      "▁insanları": 3841,
      "▁john": 3842,
      "▁ucretin": 3843,
      "▁hisseler": 3844,
      "▁ulastı": 3845,
      "▁aldıgı": 3846,
      "▁olacaktır": 3847,
      "▁cogun": 3848,
      "▁lider": 3849,
      "##neapolis": 3850,
      "▁mektup": 3851,
      "▁minneapolis": 3852,
      "▁chicago'dan": 3853,
      "▁pilot": 3854,
      "▁international": 3855,
      "▁stand": 3856,
      "▁elbette": 3857,
      "▁jose": 3858,
      "▁tucc": 3859,
      "▁restor": 3860,
      "##dek": 3861,
      "##yı": 3862,
      "##yas": 3863,
      "##30": 3864,
      "▁dib": 3865,
      "##eniz": 3866,
      "##endir": 3867,
      "##allı": 3868,
      "▁tef": 3869,
      "▁tren": 3870,
      "▁con": 3871,
      "▁cad": 3872,
      "▁mod": 3873,
      "##esel": 3874,
      "▁nam": 3875,
      "▁goren": 3876,
      "▁kart": 3877,
      "##mekten": 3878,
      "▁yerini": 3879,
      "▁28": 3880,
      "▁personellerin": 3881,
      "▁oysa": 3882,
      "▁yuzyıl": 3883,
      "▁boyu": 3884,
      "▁fiyatina": 3885,
      "▁gozu": 3886,
      "▁derec": 3887,
      "▁gerekir": 3888,
      "▁adamı": 3889,
      "##ımıza": 3890,
      "▁kasab": 3891,
      "▁satısları": 3892,
      "##madıgını": 3893,
      "▁teklifi": 3894,
      "##cilerin": 3895,
      "▁karısık": 3896,
      "▁sinem": 3897,
      "▁olumsuz": 3898,
      "▁urunleri": 3899,
      "▁cocugu": 3900,
      "▁hacim": 3901,
      "▁savunma": 3902,
      "▁manzar": 3903,
      "▁muhtemelen": 3904,
      "▁ec": 3905,
      "##d.": 3906,
      "##dat": 3907,
      "##cilik": 3908,
      "##o'nun": 3909,
      "##his": 3910,
      "▁bez": 3911,
      "▁gemi": 3912,
      "▁odan": 3913,
      "▁terk": 3914,
      "▁birini": 3915,
      "##use": 3916,
      "▁anay": 3917,
      "▁gorduk": 3918,
      "▁zam": 3919,
      "##elerle": 3920,
      "▁degillerdi": 3921,
      "##ustum": 3922,
      "▁eli": 3923,
      "▁temin": 3924,
      "▁yerden": 3925,
      "▁buyum": 3926,
      "▁sozcu": 3927,
      "▁edebilir": 3928,
      "▁uygundu": 3929,
      "▁mutf": 3930,
      "▁etkin": 3931,
      "▁irak": 3932,
      "▁donemde": 3933,
      "▁teknik": 3934,
      "▁garip": 3935,
      "▁tasarru": 3936,
      "▁colum": 3937,
      "▁tokyo": 3938,
      "▁toronto'dan": 3939,
      "▁bilesik": 3940,
      "▁harikaydi": 3941,
      "##our": 3942,
      "##gır": 3943,
      "##'lik": 3944,
      "##hi": 3945,
      "##bin": 3946,
      "##fe": 3947,
      "▁sif": 3948,
      "▁som": 3949,
      "▁yit": 3950,
      "##und": 3951,
      "▁cig": 3952,
      "▁birligi": 3953,
      "##atlar": 3954,
      "▁pla": 3955,
      "##ulur": 3956,
      "▁ep": 3957,
      "▁ex": 3958,
      "##dıgım": 3959,
      "▁basın": 3960,
      "▁basbak": 3961,
      "▁zir": 3962,
      "▁yapmayı": 3963,
      "▁veril": 3964,
      "▁aks": 3965,
      "▁kuru": 3966,
      "▁paraya": 3967,
      "▁yeri": 3968,
      "▁29": 3969,
      "▁yanına": 3970,
      "▁dondur": 3971,
      "▁adamın": 3972,
      "##ecegiz": 3973,
      "▁piyasası": 3974,
      "▁amerikalı": 3975,
      "▁mutlaka": 3976,
      "▁hoc": 3977,
      "▁fırsat": 3978,
      "▁pahali": 3979,
      "▁dakik": 3980,
      "▁nihayet": 3981,
      "##leyebilir": 3982,
      "▁gunduz": 3983,
      "▁kapasit": 3984,
      "▁ayakkabı": 3985,
      "##mey": 3986,
      "##par": 3987,
      "▁seye": 3988,
      "##akende": 3989,
      "▁tad": 3990,
      "▁toz": 3991,
      "##isleri": 3992,
      "▁cos": 3993,
      "▁val": 3994,
      "▁vası": 3995,
      "##usunun": 3996,
      "##adir": 3997,
      "##ıstı": 3998,
      "##aci": 3999,
      "▁ilgisi": 4000,
      "▁kalem": 4001,
      "▁karı": 4002,
      "▁kararı": 4003,
      "▁zey": 4004,
      "##ilerdi": 4005,
      "▁bilg": 4006,
      "##ucuk": 4007,
      "▁dusen": 4008,
      "▁acıldı": 4009,
      "##tep": 4010,
      "##acaktır": 4011,
      "▁elini": 4012,
      "##lıktan": 4013,
      "▁tesv": 4014,
      "▁yasındaki": 4015,
      "##lemeye": 4016,
      "##eder": 4017,
      "▁belg": 4018,
      "▁zamanlarda": 4019,
      "▁calısma": 4020,
      "▁fazlay": 4021,
      "▁oks": 4022,
      "▁tasım": 4023,
      "▁secen": 4024,
      "##dıktan": 4025,
      "▁dunyada": 4026,
      "▁turkiye'de": 4027,
      "▁turkiye'nin": 4028,
      "▁parcası": 4029,
      "▁cabuk": 4030,
      "▁renkli": 4031,
      "▁muduru": 4032,
      "▁temmuz'da": 4033,
      "▁lira": 4034,
      "▁diego'ya": 4035,
      "▁idare": 4036,
      "▁tiyatro": 4037,
      "▁kahvalti": 4038,
      "▁duzelt": 4039,
      "▁hijyenik": 4040,
      "▁kasıgı": 4041,
      "▁tasarruf": 4042,
      "▁0": 4043,
      "##ugu": 4044,
      "##ry": 4045,
      "##cılı": 4046,
      "##har": 4047,
      "▁bet": 4048,
      "▁huc": 4049,
      "##iyon": 4050,
      "▁mim": 4051,
      "##urlar": 4052,
      "▁paket": 4053,
      "##ımın": 4054,
      "##oyu": 4055,
      "▁zinc": 4056,
      "▁yaptır": 4057,
      "##elerinden": 4058,
      "##larındaki": 4059,
      "▁kadının": 4060,
      "▁elinden": 4061,
      "▁olmadan": 4062,
      "▁olmustur": 4063,
      "▁cıkıyor": 4064,
      "▁tesisi": 4065,
      "▁yıldır": 4066,
      "▁yoksa": 4067,
      "▁adi": 4068,
      "▁duran": 4069,
      "▁gozlem": 4070,
      "▁sair": 4071,
      "▁serb": 4072,
      "▁sevin": 4073,
      "▁ediyorlar": 4074,
      "##acagına": 4075,
      "▁45": 4076,
      "▁gerekli": 4077,
      "▁gerektir": 4078,
      "▁tasın": 4079,
      "##ımızı": 4080,
      "##ecegine": 4081,
      "▁bulundugu": 4082,
      "▁hakkinda": 4083,
      "▁canlı": 4084,
      "▁mantık": 4085,
      "▁perakende": 4086,
      "▁kavram": 4087,
      "▁olmustu": 4088,
      "▁1990": 4089,
      "▁chicago'ya": 4090,
      "▁phoenix'den": 4091,
      "▁bono": 4092,
      "▁bahseder": 4093,
      "▁delikanlı": 4094,
      "▁mulk": 4095
    }
  }
}