{
  "version": "1.0",
  "truncation": null,
  "padding": null,
  "added_tokens": [
    {
      "id": 0,
      "content": "[UNK]",
      "single_word": false,
      "lstrip": false,
      "rstrip": false,
      "normalized": false,
      "special": true
    },
    {
      "id": 1,
      "content": "[PAD]",
      "single_word": false,
      "lstrip": false,
      "rstrip": false,
      "normalized": false,
      "special": true
    },
    {
      "id": 2,
      "content": "[CLS]",
      "single_word": false,
      "lstrip": false,
      "rstrip": false,
      "normalized": false,
      "special": true
    },
    {
      "id": 3,
      "content": "[SEP]",
      "single_word": false,
      "lstrip": false,
      "rstrip": false,
      "normalized": false,
      "special": true
    },
    {
      "id": 4,
      "content": "[MASK]",
      "single_word": false,
      "lstrip": false,
      "rstrip": false,
      "normalized": false,
      "special": true
    }
  ],
  "normalizer": {
    "type": "Sequence",
    "normalizers": [
      {
        "type": "NFD"
      },
      {
        "type": "Lowercase"
      },
      {
        "type": "StripAccents"
      }
    ]
  },
  "pre_tokenizer": {
    "type": "Sequence",
    "pretokenizers": [
      {
        "type": "Metaspace",
        "replacement": "▁",
        "prepend_scheme": "always",
        "split": true
      }
    ]
  },
  "post_processor": {
    "type": "TemplateProcessing",
    "single": [
      {
        "SpecialToken": {
          "id": "[CLS]",
          "type_id": 0
        }
      },
      {
        "Sequence": {
          "id": "A",
          "type_id": 0
        }
      },
      {
        "SpecialToken": {
          "id": "[SEP]",
          "type_id": 0
        }
      }
    ],
    "pair": [
      {
        "SpecialToken": {
          "id": "[CLS]",
          "type_id": 0
        }
      },
      {
        "Sequence": {
          "id": "A",
          "type_id": 0
        }
      },
      {
        "SpecialToken": {
          "id": "[SEP]",
          "type_id": 0
        }
      },
      {
        "Sequence": {
          "id": "B",
          "type_id": 1
        }
      },
      {
        "SpecialToken": {
          "id": "[SEP]",
          "type_id": 1
        }
      }
    ],
    "special_tokens": {
      "[CLS]": {
        "id": "[CLS]",
        "ids": [
          2
        ],
        "tokens": [
          "[CLS]"
        ]
      },
      "[SEP]": {
        "id": "[SEP]",
        "ids": [
          3
        ],
        "tokens": [
          "[SEP]"
        ]
      }
    }
  },
  "decoder": {
    "type": "Metaspace",
    "replacement": "▁",
    "prepend_scheme": "always",
    "split": true
  },
  "model": {
    "type": "Unigram",
    "unk_id": 0,
    "vocab": [
      [
        "[UNK]",
        0.0
      ],
      [
        "[PAD]",
        0.0
      ],
      [
        "[CLS]",
        0.0
      ],
      [
        "[SEP]",
        0.0
      ],
      [
        "[MASK]",
        0.0
      ],
      [
        "▁.",
        -2.7192832038924344
      ],
      [
        "▁,",
        -3.5933140305226487
      ],
      [
        "n",
        -3.8413709005187133
      ],
      [
        "▁bir",
        -4.071897693067255
      ],
      [
        "▁",
        -4.47928319758174
      ],
      [
        "a",
        -4.48464493309084
      ],
      [
        "m",
        -4.548236543661211
      ],
      [
        "e",
        -4.656699973326695
      ],
      [
        "▁ve",
        -4.729759460690291
      ],
      [
        "k",
        -4.73422792017891
      ],
      [
        "▁bu",
        -5.0001115442520625
      ],
      [
        "lar",
        -5.165319043804473
      ],
      [
        "▁cok",
        -5.286500306205664
      ],
      [
        "ler",
        -5.3664320712014195
      ],
      [
        "ya",
        -5.388659547467956
      ],
      [
        "i",
        -5.389742056097223
      ],
      [
        "▁\"",
        -5.43626424085482
      ],
      [
        "r",
        -5.48362734192815
      ],
      [
        "▁icin",
        -5.5491457316152655
      ],
      [
        "▁de",
        -5.607421771444784
      ],
      [
        "t",
        -5.685612397948725
      ],
      [
        "ye",
        -5.701547560925041
      ],
      [
        "den",
        -5.747189180449048
      ],
      [
        "di",
        -5.75333952569796
      ],
      [
        "arak",
        -5.764263597294607
      ],
      [
        "▁da",
        -5.779827930100683
      ],
      [
        "ları",
        -5.81633033955128
      ],
      [
        "li",
        -5.83545060781919
      ],
      [
        "dan",
        -5.835975424312722
      ],
      [
        "da",
        -5.871850032498073
      ],
      [
        "▁o",
        -5.903880748410634
      ],
      [
        "lı",
        -5.906634511058705
      ],
      [
        "p",
        -5.916590011176563
      ],
      [
        "leri",
        -5.926982981028599
      ],
      [
        "ı",
        -5.937087112232155
      ],
      [
        "▁ol",
        -5.953919944022857
      ],
      [
        "la",
        -5.98203040969064
      ],
      [
        "▁daha",
        -6.00311843545763
      ],
      [
        "si",
        -6.007708073946563
      ],
      [
        "s",
        -6.010968829087066
      ],
      [
        "▁ne",
        -6.05273365873926
      ],
      [
        "▁ile",
        -6.0588257281404605
      ],
      [
        "z",
        -6.0772087085514945
      ],
      [
        "le",
        -6.084951024019404
      ],
      [
        "ki",
        -6.114677181967827
      ],
      [
        "▁her",
        -6.132690167771753
      ],
      [
        "▁iyi",
        -6.16133448189762
      ],
      [
        "ce",
        -6.165179347441764
      ],
      [
        "in",
        -6.1817321891272305
      ],
      [
        "de",
        -6.186938505378891
      ],
      [
        "▁en",
        -6.193333662010303
      ],
      [
        "▁olan",
        -6.200329008580904
      ],
      [
        "▁var",
        -6.207992215887624
      ],
      [
        "dir",
        -6.211010007979386
      ],
      [
        "u",
        -6.220964033645992
      ],
      [
        "na",
        -6.224855392626024
      ],
      [
        "▁ki",
        -6.238532821878806
      ],
      [
        "▁gibi",
        -6.258769346440641
      ],
      [
        "▁sonra",
        -6.314889588369092
      ],
      [
        "nin",
        -6.333245468623343
      ],
      [
        "sı",
        -6.378121429451473
      ],
      [
        "ca",
        -6.3899388339837415
      ],
      [
        "nın",
        -6.391317444535404
      ],
      [
        "l",
        -6.394509033325825
      ],
      [
        "ne",
        -6.41109129240368
      ],
      [
        "▁kadar",
        -6.413477976136215
      ],
      [
        "▁san",
        -6.438923250082013
      ],
      [
        "▁?",
        -6.4841748545549756
      ],
      [
        "▁guzeldi",
        -6.5018794987239685
      ],
      [
        "▁ama",
        -6.528178160095247
      ],
      [
        "▁bana",
        -6.538856608806438
      ],
      [
        "en",
        -6.606862952072674
      ],
      [
        "ların",
        -6.613587632284331
      ],
      [
        "▁iki",
        -6.622897577397682
      ],
      [
        "'",
        -6.626056512713251
      ],
      [
        "larını",
        -6.634186018175902
      ],
      [
        "▁ucusları",
        -6.635920949175286
      ],
      [
        "du",
        -6.636083952945655
      ],
      [
        "ma",
        -6.649074132607868
      ],
      [
        "ydi",
        -6.657435448758933
      ],
      [
        ":",
        -6.664005663125759
      ],
      [
        "▁degildi",
        -6.665016933374448
      ],
      [
        "ti",
        -6.6816357322637625
      ],
      [
        "▁ben",
        -6.68197682926122
      ],
      [
        "▁memnun",
        -6.682251875252976
      ],
      [
        "▁yeni",
        -6.685414637187757
      ],
      [
        "▁iyiydi",
        -6.695003218351506
      ],
      [
        "er",
        -6.696333499081096
      ],
      [
        "um",
        -6.7112412215136565
      ],
      [
        "yı",
        -6.7114351466483715
      ],
      [
        "▁bay",
        -6.718428677906643
      ],
      [
        "dı",
        -6.723319771318506
      ],
      [
        "▁sey",
        -6.7302499255212345
      ],
      [
        "lerin",
        -6.734729013070993
      ],
      [
        "▁guzel",
        -6.740213860837946
      ],
      [
        "dır",
        -6.746644719486911
      ],
      [
        "▁su",
        -6.74928480542573
      ],
      [
        "ın",
        -6.777956131247663
      ],
      [
        "▁buyuk",
        -6.779940983291996
      ],
      [
        "lık",
        -6.7927355320811955
      ],
      [
        "im",
        -6.803329304482196
      ],
      [
        "▁degil",
        -6.824548498014262
      ],
      [
        "lik",
        -6.827034021694342
      ],
      [
        "lu",
        -6.830679831046481
      ],
      [
        "ni",
        -6.859634155923366
      ],
      [
        "▁-",
        -6.859866218193786
      ],
      [
        "▁goster",
        -6.874345808232741
      ],
      [
        "ta",
        -6.874620292704694
      ],
      [
        "▁tum",
        -6.883915626182208
      ],
      [
        "▁bey",
        -6.892952638919463
      ],
      [
        "▁%",
        -6.894341670453612
      ],
      [
        "yi",
        -6.895285077920808
      ],
      [
        ".",
        -6.901356182864598
      ],
      [
        "▁oldu",
        -6.913444962161461
      ],
      [
        "▁milyon",
        -6.924914864621866
      ],
      [
        "mıs",
        -6.931727689699792
      ],
      [
        "y",
        -6.932115938567608
      ],
      [
        "▁once",
        -6.944416618322792
      ],
      [
        "un",
        -6.957611409442544
      ],
      [
        "▁arasında",
        -6.962884615649088
      ],
      [
        "▁gore",
        -6.9641074777286285
      ],
      [
        "tı",
        -6.966504465022508
      ],
      [
        "lerini",
        -6.971725750052657
      ],
      [
        "o",
        -6.998687535537197
      ],
      [
        "▁soyledi",
        -7.004718919491397
      ],
      [
        "▁yok",
        -7.013650549719172
      ],
      [
        "▁diye",
        -7.014664128816522
      ],
      [
        "f",
        -7.0290312007399685
      ],
      [
        "▁hizmet",
        -7.034427254451267
      ],
      [
        "▁istiyoru",
        -7.037284320654025
      ],
      [
        "yla",
        -7.043108031223236
      ],
      [
        "te",
        -7.059122613889922
      ],
      [
        "yle",
        -7.061328243142008
      ],
      [
        "▁anca",
        -7.06141825757706
      ],
      [
        "▁dedi",
        -7.06423782308365
      ],
      [
        "▁son",
        -7.072190841200481
      ],
      [
        "▁ucus",
        -7.076838367016732
      ],
      [
        "▁gun",
        -7.0878778131673
      ],
      [
        "▁zaman",
        -7.0881241200059115
      ],
      [
        "▁dolar",
        -7.097476002762802
      ],
      [
        "▁etti",
        -7.114866965124622
      ],
      [
        "▁az",
        -7.115443215114522
      ],
      [
        "▁hisse",
        -7.124521239021649
      ],
      [
        "▁temiz",
        -7.125895540887594
      ],
      [
        "▁ya",
        -7.131730099458166
      ],
      [
        "'in",
        -7.136162174904574
      ],
      [
        "▁puan",
        -7.1422425834060475
      ],
      [
        "▁onun",
        -7.148120983901691
      ],
      [
        "▁fazla",
        -7.1501327900232985
      ],
      [
        "erek",
        -7.151922683042288
      ],
      [
        "▁oda",
        -7.158498294241512
      ],
      [
        "▁...",
        -7.161095569475709
      ],
      [
        "▁icinde",
        -7.161252629244581
      ],
      [
        "uz",
        -7.164842399766845
      ],
      [
        "▁kaldi",
        -7.166197349378612
      ],
      [
        "ci",
        -7.172632215030011
      ],
      [
        "c",
        -7.175986018981951
      ],
      [
        "▁bile",
        -7.178385439378997
      ],
      [
        "sa",
        -7.1789550487780645
      ],
      [
        "▁!",
        -7.179015341485486
      ],
      [
        "▁karsı",
        -7.179724253521753
      ],
      [
        "tan",
        -7.182671249687528
      ],
      [
        "▁c",
        -7.190920392355211
      ],
      [
        "▁biraz",
        -7.197945503482309
      ],
      [
        "d",
        -7.199771774378343
      ],
      [
        "▁yıl",
        -7.2047356002085206
      ],
      [
        "▁ilk",
        -7.21160544522415
      ],
      [
        "ten",
        -7.219088141607317
      ],
      [
        "ini",
        -7.2278384006253225
      ],
      [
        "▁''",
        -7.237117867325084
      ],
      [
        "▁para",
        -7.245782215616289
      ],
      [
        "cı",
        -7.246129215440314
      ],
      [
        "▁oldugunu",
        -7.252656157593572
      ],
      [
        "▁kendi",
        -7.260646332899588
      ],
      [
        "▁is",
        -7.261005328414189
      ],
      [
        "mis",
        -7.270092226530122
      ],
      [
        "▁uc",
        -7.271051541884161
      ],
      [
        "▁ucuslar",
        -7.2714237732871725
      ],
      [
        "h",
        -7.281329375052572
      ],
      [
        "se",
        -7.292898989747289
      ],
      [
        "▁hic",
        -7.29787404153534
      ],
      [
        "su",
        -7.299164836299729
      ],
      [
        "lara",
        -7.302236593532909
      ],
      [
        "▁gunu",
        -7.3027617783272465
      ],
      [
        "▁butun",
        -7.307856717546706
      ],
      [
        "▁genel",
        -7.310906184987868
      ],
      [
        "ndan",
        -7.317758665018115
      ],
      [
        "lere",
        -7.318642221022652
      ],
      [
        "▁hangi",
        -7.323958040457237
      ],
      [
        "▁1",
        -7.326425048461017
      ],
      [
        "▁orta",
        -7.328123314408675
      ],
      [
        "sini",
        -7.333588069848108
      ],
      [
        "▁tek",
        -7.344869909835836
      ],
      [
        "▁biz",
        -7.34571772136788
      ],
      [
        "ken",
        -7.34993727230408
      ],
      [
        "sine",
        -7.353766041233696
      ],
      [
        "mak",
        -7.358990957475528
      ],
      [
        "▁on",
        -7.3590569368210215
      ],
      [
        "ını",
        -7.371449112333601
      ],
      [
        "▁`",
        -7.378813527718369
      ],
      [
        "▁mi",
        -7.380505540091747
      ],
      [
        "ine",
        -7.381072942993724
      ],
      [
        "▁boyle",
        -7.381886843360856
      ],
      [
        "`",
        -7.390556372128957
      ],
      [
        "▁yoktu",
        -7.39292759079841
      ],
      [
        ";",
        -7.400238958213551
      ],
      [
        "g",
        -7.400332888657621
      ],
      [
        "▁simdi",
        -7.400482936657496
      ],
      [
        "▁mı",
        -7.411202362996535
      ],
      [
        "iz",
        -7.427250082716534
      ],
      [
        "siz",
        -7.433165424298436
      ],
      [
        "▁ediyor",
        -7.4333107722075
      ],
      [
        "▁oldugu",
        -7.443143681397107
      ],
      [
        "sına",
        -7.444463564764383
      ],
      [
        "▁cesit",
        -7.448136844406058
      ],
      [
        "▁ilgili",
        -7.450095625558846
      ],
      [
        "▁baska",
        -7.458121386598264
      ],
      [
        "▁/",
        -7.458683842495755
      ],
      [
        "'ın",
        -7.463984411534339
      ],
      [
        "▁eski",
        -7.466145343024957
      ],
      [
        "▁al",
        -7.466330149441179
      ],
      [
        "▁milyar",
        -7.466932436791117
      ],
      [
        "gı",
        -7.476011911543359
      ],
      [
        "'da",
        -7.477219217438322
      ],
      [
        "-",
        -7.481948221633806
      ],
      [
        "▁kucuk",
        -7.497283248629553
      ],
      [
        "sını",
        -7.49916121245228
      ],
      [
        "▁francisco'",
        -7.504899406942519
      ],
      [
        "▁dogru",
        -7.506001654443547
      ],
      [
        "▁bazı",
        -7.506551775525377
      ],
      [
        "acak",
        -7.507923616058313
      ],
      [
        "sız",
        -7.509853817039996
      ],
      [
        "'de",
        -7.522345998394428
      ],
      [
        "▁geldi",
        -7.525038329072143
      ],
      [
        "ına",
        -7.529159479078428
      ],
      [
        "gi",
        -7.533622813431529
      ],
      [
        "▁ay",
        -7.535696577671442
      ],
      [
        "ir",
        -7.537826342117962
      ],
      [
        "ar",
        -7.540372812347128
      ],
      [
        "▁tesis",
        -7.544009646087534
      ],
      [
        "ır",
        -7.549726030467646
      ],
      [
        "▁otel",
        -7.55023461952509
      ],
      [
        "tu",
        -7.550316619691447
      ],
      [
        "ga",
        -7.55206002774893
      ],
      [
        "ıyor",
        -7.552866186267267
      ],
      [
        "▁gorusuldu",
        -7.55658656894056
      ],
      [
        "▁personel",
        -7.560215217283307
      ],
      [
        "▁boston'da",
        -7.562238448858257
      ],
      [
        "▁sade",
        -7.576459056558276
      ],
      [
        "▁fiyat",
        -7.579429268170875
      ],
      [
        "▁adam",
        -7.581204922572184
      ],
      [
        "▁konumu",
        -7.582724319062025
      ],
      [
        "▁mu",
        -7.583943224511227
      ],
      [
        "lıgı",
        -7.5870336498130335
      ],
      [
        "▁ucret",
        -7.593072785982156
      ],
      [
        "ur",
        -7.593718553413807
      ],
      [
        "lan",
        -7.6007224564415194
      ],
      [
        "▁du",
        -7.602148071847245
      ],
      [
        "luk",
        -7.606158992177015
      ],
      [
        "▁aksam",
        -7.61233392734606
      ],
      [
        "▁sabah",
        -7.612789342214712
      ],
      [
        "▁yer",
        -7.612991537070305
      ],
      [
        "▁tavsiye",
        -7.613191271580578
      ],
      [
        "sinde",
        -7.615375092340915
      ],
      [
        "▁tur",
        -7.618824276296764
      ],
      [
        "at",
        -7.625120803047206
      ],
      [
        "▁onu",
        -7.626292007534999
      ],
      [
        "▁uzerinde",
        -7.626582818985295
      ],
      [
        "▁sirket",
        -7.62929665647852
      ],
      [
        ")",
        -7.630601103944781
      ],
      [
        "▁uzun",
        -7.63669070695069
      ],
      [
        "▁(",
        -7.637223306517176
      ],
      [
        "▁diger",
        -7.6402517980017866
      ],
      [
        "▁benim",
        -7.642792915398658
      ],
      [
        "ri",
        -7.643383931895031
      ],
      [
        "▁5",
        -7.643999487372519
      ],
      [
        "mus",
        -7.644219417099772
      ],
      [
        "▁deniz",
        -7.645569170728915
      ],
      [
        "▁bes",
        -7.645921456013643
      ],
      [
        "▁saat",
        -7.659020411379999
      ],
      [
        "▁ev",
        -7.66595359966293
      ],
      [
        "▁ise",
        -7.672437472225785
      ],
      [
        "larda",
        -7.684574587589009
      ],
      [
        "▁tarafında",
        -7.688034901388991
      ],
      [
        "nı",
        -7.691025597967476
      ],
      [
        "nda",
        -7.706716555756187
      ],
      [
        "ra",
        -7.712089634426496
      ],
      [
        "▁new",
        -7.713998028864988
      ],
      [
        "▁10",
        -7.714774822302915
      ],
      [
        "▁insan",
        -7.715150789005715
      ],
      [
        "▁artık",
        -7.717849199472848
      ],
      [
        "▁pek",
        -7.7202993032167315
      ],
      [
        "▁geri",
        -7.721870653102912
      ],
      [
        "▁bas",
        -7.728688405014088
      ],
      [
        "cu",
        -7.732340837926372
      ],
      [
        "▁dunya",
        -7.744124868029777
      ],
      [
        "▁gece",
        -7.744622788263684
      ],
      [
        "ması",
        -7.75707603061478
      ],
      [
        "gu",
        -7.757722454697832
      ],
      [
        "▁hanim",
        -7.758331955662914
      ],
      [
        "▁gelir",
        -7.765126229142901
      ],
      [
        "▁yuksek",
        -7.765747166469018
      ],
      [
        "▁sen",
        -7.768369034640663
      ],
      [
        "▁bilgi",
        -7.7694403578715345
      ],
      [
        "lerden",
        -7.769763181999884
      ],
      [
        "▁aynı",
        -7.770008186715898
      ],
      [
        "▁2",
        -7.772999534248116
      ],
      [
        "▁beni",
        -7.78285294466178
      ],
      [
        "larında",
        -7.78723986959385
      ],
      [
        "ba",
        -7.789754262461483
      ],
      [
        "lerinin",
        -7.79250594397464
      ],
      [
        "▁ka",
        -7.7964437208944615
      ],
      [
        "▁an",
        -7.798773834860994
      ],
      [
        "▁olabilir",
        -7.799308394194197
      ],
      [
        "lerde",
        -7.802949740141719
      ],
      [
        "al",
        -7.803496372525375
      ],
      [
        "▁kadın",
        -7.810717442882479
      ],
      [
        "▁aldı",
        -7.812665104617642
      ],
      [
        "▁biri",
        -7.815407352386238
      ],
      [
        "▁neden",
        -7.816469467941199
      ],
      [
        "▁basladı",
        -7.8178427448598
      ],
      [
        "v",
        -7.818215511093589
      ],
      [
        "ıp",
        -7.819024090755146
      ],
      [
        "▁amerikan",
        -7.820899868488528
      ],
      [
        "▁ilgilendi",
        -7.828157518431455
      ],
      [
        "▁ogle",
        -7.830650367588612
      ],
      [
        "▁tam",
        -7.833716836325037
      ],
      [
        "▁tesisti",
        -7.8337516032517955
      ],
      [
        "lardı",
        -7.8339412290639245
      ],
      [
        "▁veya",
        -7.834530402946528
      ],
      [
        "▁hicbir",
        -7.836547432683163
      ],
      [
        "▁sekilde",
        -7.837426198251318
      ],
      [
        "▁diyor",
        -7.854971735306676
      ],
      [
        "▁cocuk",
        -7.855797268977363
      ],
      [
        "sında",
        -7.857318743027359
      ],
      [
        "'e",
        -7.8607276475428565
      ],
      [
        "▁uygun",
        -7.861261326481719
      ],
      [
        "▁kapı",
        -7.861728452121577
      ],
      [
        "▁hem",
        -7.864243686776449
      ],
      [
        "▁gecen",
        -7.864961043619705
      ],
      [
        "▁at",
        -7.865398068755855
      ],
      [
        "b",
        -7.866255578468635
      ],
      [
        "▁denver'de",
        -7.868328351721333
      ],
      [
        "▁onlar",
        -7.869640288145239
      ],
      [
        "▁erken",
        -7.870154811421526
      ],
      [
        "▁3",
        -7.8709430307573625
      ],
      [
        "tir",
        -7.871782515419106
      ],
      [
        "▁yalnız",
        -7.875402526925436
      ],
      [
        "▁hafta",
        -7.877263775528516
      ],
      [
        "sin",
        -7.877598398428525
      ],
      [
        "▁vardı",
        -7.880457980675724
      ],
      [
        "ligi",
        -7.882149743813184
      ],
      [
        "unu",
        -7.884603550566808
      ],
      [
        "▁donus",
        -7.887246242162508
      ],
      [
        "inde",
        -7.887671286686512
      ],
      [
        "il",
        -7.890063305679307
      ],
      [
        "ip",
        -7.890553861039468
      ],
      [
        "lardan",
        -7.890984618241968
      ],
      [
        "tır",
        -7.892086462804347
      ],
      [
        "'nın",
        -7.892285168954323
      ],
      [
        "mi",
        -7.893150801242673
      ],
      [
        "▁yemekler",
        -7.894624926814484
      ],
      [
        "▁ona",
        -7.895473127650607
      ],
      [
        "▁devam",
        -7.895538420968061
      ],
      [
        "▁ak",
        -7.903587079367604
      ],
      [
        "▁bak",
        -7.904628728779324
      ],
      [
        "ecek",
        -7.905844450971239
      ],
      [
        "el",
        -7.9087162409347895
      ],
      [
        "▁bugun",
        -7.910092714270774
      ],
      [
        "maya",
        -7.9104895574788765
      ],
      [
        "'un",
        -7.9121801612161455
      ],
      [
        "▁kar",
        -7.914729025581809
      ],
      [
        "et",
        -7.9177345488945114
      ],
      [
        "larla",
        -7.920682498237354
      ],
      [
        "ge",
        -7.923482317001548
      ],
      [
        "dur",
        -7.926113368860031
      ],
      [
        "▁cıktı",
        -7.926936444073381
      ],
      [
        "▁birkac",
        -7.9275461906381395
      ],
      [
        "▁ucusu",
        -7.930525801621408
      ],
      [
        "ının",
        -7.930837580966079
      ],
      [
        "▁st",
        -7.931556030410493
      ],
      [
        "▁olur",
        -7.933514899820744
      ],
      [
        "▁giden",
        -7.934005037997208
      ],
      [
        "▁cıkar",
        -7.942429089900073
      ],
      [
        "▁ara",
        -7.943813361307012
      ],
      [
        "▁acık",
        -7.944346129856876
      ],
      [
        "▁yine",
        -7.945685139685393
      ],
      [
        "'a",
        -7.9517180863264025
      ],
      [
        "▁turk",
        -7.954167798347518
      ],
      [
        "dim",
        -7.9556432726752115
      ],
      [
        "▁hemen",
        -7.9654016537769134
      ],
      [
        "▁kotu",
        -7.9674076235172535
      ],
      [
        "▁ilgiliydi",
        -7.97196892397672
      ],
      [
        "▁lutfe",
        -7.972797561181189
      ],
      [
        "▁lezzet",
        -7.9734955749966785
      ],
      [
        "▁bunun",
        -7.978000116867402
      ],
      [
        "sun",
        -7.981547759869962
      ],
      [
        "suz",
        -7.981850214021942
      ],
      [
        "yor",
        -7.983272554758327
      ],
      [
        "▁nasıl",
        -7.985345414158743
      ],
      [
        "▁ayrıca",
        -7.98905573295528
      ],
      [
        "▁bin",
        -7.990859666261471
      ],
      [
        "▁soyle",
        -7.991051425657741
      ],
      [
        "▁hep",
        -7.99260678470758
      ],
      [
        "iyle",
        -7.993450671396455
      ],
      [
        "▁eder",
        -7.995405146487232
      ],
      [
        "▁el",
        -7.997434127806922
      ],
      [
        "▁gelen",
        -7.998519502606674
      ],
      [
        "▁ac",
        -8.001702344172053
      ],
      [
        "▁iste",
        -8.002554976141866
      ],
      [
        "▁ucuz",
        -8.003267945997361
      ],
      [
        "be",
        -8.006109643449783
      ],
      [
        "lerle",
        -8.006273212773262
      ],
      [
        "▁oyle",
        -8.008746737165188
      ],
      [
        "▁yol",
        -8.00921641631485
      ],
      [
        "▁personeller",
        -8.01056532615718
      ],
      [
        "▁yaklası",
        -8.012504181845895
      ],
      [
        "iyor",
        -8.012914796312428
      ],
      [
        "▁kalkan",
        -8.013970382877524
      ],
      [
        "▁denver'",
        -8.014176000300237
      ],
      [
        "▁bunu",
        -8.015268818053151
      ],
      [
        "ederim",
        -8.018710907322184
      ],
      [
        "▁sa",
        -8.022932674775365
      ],
      [
        "▁hareket",
        -8.024766329382125
      ],
      [
        "▁f",
        -8.03236592609853
      ],
      [
        "sın",
        -8.03259017593699
      ],
      [
        "inin",
        -8.033633937211555
      ],
      [
        "sinin",
        -8.035000939124163
      ],
      [
        "▁denizi",
        -8.036354321421506
      ],
      [
        "▁yemekleri",
        -8.036621297020723
      ],
      [
        "▁siz",
        -8.03977529339003
      ],
      [
        "▁bircok",
        -8.040018615628506
      ],
      [
        "▁yuz",
        -8.041710599113806
      ],
      [
        "▁yukseldi",
        -8.047799827046244
      ],
      [
        "▁dı",
        -8.04838787041287
      ],
      [
        "▁he",
        -8.048602119093271
      ],
      [
        "▁yemek",
        -8.048782937376814
      ],
      [
        "▁ucuslarını",
        -8.049635901440327
      ],
      [
        "▁kabul",
        -8.0498831028454
      ],
      [
        "8",
        -8.055684994944333
      ],
      [
        "▁sure",
        -8.056634251394506
      ],
      [
        "▁herkes",
        -8.057839260107931
      ],
      [
        "yu",
        -8.058460536817208
      ],
      [
        "ladı",
        -8.058602005175068
      ],
      [
        "▁goz",
        -8.062807628533559
      ],
      [
        "▁dusuk",
        -8.063480195090303
      ],
      [
        "▁kimse",
        -8.06397194523209
      ],
      [
        "ydı",
        -8.067185551166528
      ],
      [
        "landı",
        -8.075485871315317
      ],
      [
        "▁hava",
        -8.07733308914514
      ],
      [
        "▁yan",
        -8.078438216767388
      ],
      [
        "▁kara",
        -8.078566035529754
      ],
      [
        "lerinde",
        -8.079294651775736
      ],
      [
        "us",
        -8.089312714470516
      ],
      [
        "nde",
        -8.091781744461233
      ],
      [
        "▁ra",
        -8.091838748062713
      ],
      [
        "▁konu",
        -8.092087187808257
      ],
      [
        "mek",
        -8.093261858780027
      ],
      [
        "▁pazar",
        -8.0933352683467
      ],
      [
        "▁carsamba",
        -8.094257995298141
      ],
      [
        "▁art",
        -8.094404141731442
      ],
      [
        "▁yon",
        -8.09718645923513
      ],
      [
        "9",
        -8.102861529187727
      ],
      [
        "▁dun",
        -8.10307200535279
      ],
      [
        "ul",
        -8.104704539899059
      ],
      [
        "4",
        -8.108456295553243
      ],
      [
        "▁altında",
        -8.108905821079528
      ],
      [
        "'ni",
        -8.10936104884125
      ],
      [
        "▁eden",
        -8.110377895432407
      ],
      [
        "lerinden",
        -8.110408904484142
      ],
      [
        "▁listeley",
        -8.11101437949661
      ],
      [
        "▁burada",
        -8.113773750441023
      ],
      [
        "3",
        -8.11548807337965
      ],
      [
        "▁basın",
        -8.115665833259566
      ],
      [
        "▁kisi",
        -8.115670718381953
      ],
      [
        "up",
        -8.116232869297558
      ],
      [
        "▁genc",
        -8.119339596594909
      ],
      [
        "▁personelleri",
        -8.11976613219026
      ],
      [
        "▁hakkında",
        -8.120543620893336
      ],
      [
        "▁bizim",
        -8.121509191956637
      ],
      [
        "▁acı",
        -8.122568631923368
      ],
      [
        "▁olacak",
        -8.122601725961415
      ],
      [
        "▁kat",
        -8.123038461385898
      ],
      [
        "▁verdi",
        -8.123160783408046
      ],
      [
        "▁kalitesi",
        -8.125020459957284
      ],
      [
        "▁piyasa",
        -8.12910500738899
      ],
      [
        "▁tu",
        -8.131688974366371
      ],
      [
        "▁atlanta'",
        -8.134726100611314
      ],
      [
        "▁aile",
        -8.13549118658704
      ],
      [
        "nden",
        -8.136946807691452
      ],
      [
        "sel",
        -8.137516683319339
      ],
      [
        "▁olmak",
        -8.138757654087726
      ],
      [
        "▁karar",
        -8.138787321377471
      ],
      [
        "▁ana",
        -8.138979398281194
      ],
      [
        "▁sahip",
        -8.139224941518954
      ],
      [
        "▁'",
        -8.145383806311143
      ],
      [
        "mıstı",
        -8.146238298301295
      ],
      [
        "2",
        -8.14784299642989
      ],
      [
        "or",
        -8.148685158119125
      ],
      [
        "▁baltimore'",
        -8.148699137962897
      ],
      [
        "▁yap",
        -8.150154828992966
      ],
      [
        "▁gaye",
        -8.153845753122663
      ],
      [
        "▁atlanta'da",
        -8.156155705144899
      ],
      [
        "▁onemli",
        -8.156580036770722
      ],
      [
        "▁7",
        -8.158595844680402
      ],
      [
        "▁uzerine",
        -8.15940501336582
      ],
      [
        "▁dustu",
        -8.17183078951879
      ],
      [
        "▁yakın",
        -8.175117629125932
      ],
      [
        "▁gosterin",
        -8.176271908179553
      ],
      [
        "▁ic",
        -8.176332301933918
      ],
      [
        "▁6",
        -8.179199097618898
      ],
      [
        "misti",
        -8.179461157675963
      ],
      [
        "▁4",
        -8.180002627980738
      ],
      [
        "abilir",
        -8.181461851077225
      ],
      [
        "▁tamam",
        -8.188844691350212
      ],
      [
        "▁fakat",
        -8.189393611529102
      ],
      [
        "▁dus",
        -8.190201955357686
      ],
      [
        "▁kac",
        -8.191622272296232
      ],
      [
        "▁birlikte",
        -8.197479583586212
      ],
      [
        "▁koy",
        -8.198503147048246
      ],
      [
        "miz",
        -8.200304128032393
      ],
      [
        "▁gec",
        -8.203239483419914
      ],
      [
        "6",
        -8.20522269701215
      ],
      [
        "nuz",
        -8.206379364436462
      ],
      [
        "ktan",
        -8.208270934961273
      ],
      [
        "mı",
        -8.210473200376764
      ],
      [
        "lama",
        -8.214881844609025
      ],
      [
        "▁kız",
        -8.220667455946117
      ],
      [
        "▁es",
        -8.221499701239438
      ],
      [
        "▁vardi",
        -8.223755019095684
      ],
      [
        "▁satın",
        -8.225066547615697
      ],
      [
        "▁can",
        -8.225783125579655
      ],
      [
        "▁yaptı",
        -8.230909916726198
      ],
      [
        "lıyor",
        -8.232449714056802
      ],
      [
        "▁ma",
        -8.23320473072662
      ],
      [
        "▁pittsburgh'ta",
        -8.233266546600621
      ],
      [
        "inden",
        -8.233288880761506
      ],
      [
        "bi",
        -8.233597542532458
      ],
      [
        "▁dort",
        -8.2365632301046
      ],
      [
        "▁boston'",
        -8.237455807902656
      ],
      [
        "▁sag",
        -8.23852342916569
      ],
      [
        "7",
        -8.240792662950119
      ],
      [
        "▁yasa",
        -8.24144234907158
      ],
      [
        "▁abd",
        -8.242900611850278
      ],
      [
        "▁masa",
        -8.244891412010286
      ],
      [
        "larından",
        -8.249493167065609
      ],
      [
        "▁sık",
        -8.249800397654623
      ],
      [
        "nun",
        -8.252968272239556
      ],
      [
        "▁ince",
        -8.255894808663935
      ],
      [
        "▁dur",
        -8.258463381678535
      ],
      [
        "▁geliyor",
        -8.25969297589379
      ],
      [
        "▁tercih",
        -8.265127453712967
      ],
      [
        "niz",
        -8.26539817644355
      ],
      [
        "▁listele",
        -8.265932080446008
      ],
      [
        "▁soz",
        -8.26762555472111
      ],
      [
        "▁tas",
        -8.268856565794625
      ],
      [
        "▁tekrar",
        -8.269286956302857
      ],
      [
        "▁se",
        -8.270966912703631
      ],
      [
        "ında",
        -8.271692295324494
      ],
      [
        "▁araba",
        -8.273584006025848
      ],
      [
        "▁gidis",
        -8.275816532675096
      ],
      [
        "▁sıra",
        -8.275932190797853
      ],
      [
        "▁insanlar",
        -8.278424220821702
      ],
      [
        "▁onları",
        -8.279035247255358
      ],
      [
        "▁konusunda",
        -8.283185376544019
      ],
      [
        "▁me",
        -8.29004723672971
      ],
      [
        "▁yonelik",
        -8.29067029593979
      ],
      [
        "▁sene",
        -8.290997792579216
      ],
      [
        "▁kısa",
        -8.295868919105722
      ],
      [
        "▁salı",
        -8.296817139062169
      ],
      [
        "▁as",
        -8.300420187185505
      ],
      [
        "▁philadelphia'",
        -8.300439238143204
      ],
      [
        "siniz",
        -8.301792738598799
      ],
      [
        "dıgı",
        -8.303226796705882
      ],
      [
        "5",
        -8.303677913341073
      ],
      [
        "▁yorum",
        -8.304020210976786
      ],
      [
        "ran",
        -8.306137134668838
      ],
      [
        "▁rahat",
        -8.306694939655465
      ],
      [
        "▁devlet",
        -8.309526255038621
      ],
      [
        "▁gercek",
        -8.311127169201065
      ],
      [
        "▁8",
        -8.311533803257205
      ],
      [
        "▁cuma",
        -8.31187108138846
      ],
      [
        "▁anda",
        -8.316927865753998
      ],
      [
        "▁ken",
        -8.31697896263244
      ],
      [
        "▁temizligi",
        -8.317237923438052
      ],
      [
        "▁tatil",
        -8.318695269296342
      ],
      [
        "▁aileler",
        -8.320194423682976
      ],
      [
        "▁beyaz",
        -8.320578889019076
      ],
      [
        "▁boston",
        -8.320590781416648
      ],
      [
        "▁kap",
        -8.322403241740965
      ],
      [
        "it",
        -8.324687263166286
      ],
      [
        "▁etmek",
        -8.326471674301782
      ],
      [
        "ıyordu",
        -8.326624966106852
      ],
      [
        "▁bunlar",
        -8.328509391894666
      ],
      [
        "▁pazartesi",
        -8.329254073421614
      ],
      [
        "▁alan",
        -8.330140265811504
      ],
      [
        "1",
        -8.338113878634033
      ],
      [
        "▁kim",
        -8.343888067761165
      ],
      [
        "▁yaz",
        -8.345732829205843
      ],
      [
        "maktadır",
        -8.347136891196017
      ],
      [
        "sının",
        -8.350732403073746
      ],
      [
        "▁dava",
        -8.35213242547747
      ],
      [
        "▁dallas'",
        -8.357674437568274
      ],
      [
        "▁altın",
        -8.359393277485045
      ],
      [
        "ebilir",
        -8.360175301171697
      ],
      [
        "▁haber",
        -8.36326466549109
      ],
      [
        "▁hala",
        -8.364881027906542
      ],
      [
        "▁orada",
        -8.365701578075157
      ],
      [
        "▁b",
        -8.368519290805486
      ],
      [
        "ik",
        -8.371539053000594
      ],
      [
        "mesi",
        -8.374107330708284
      ],
      [
        "▁genis",
        -8.374735260704215
      ],
      [
        "ze",
        -8.37609979544024
      ],
      [
        "▁york",
        -8.377387799629652
      ],
      [
        "▁ucak",
        -8.379754395512833
      ],
      [
        "▁19",
        -8.380808254106345
      ],
      [
        "mız",
        -8.380936320926882
      ],
      [
        "▁yazı",
        -8.383582767865192
      ],
      [
        "▁gordu",
        -8.384807597410553
      ],
      [
        "▁yapı",
        -8.385117162407973
      ],
      [
        "ledi",
        -8.386067120933074
      ],
      [
        "▁yetersiz",
        -8.386261086829705
      ],
      [
        "▁te",
        -8.386319117367844
      ],
      [
        "▁sonunda",
        -8.386798894396087
      ],
      [
        "▁dallas'ta",
        -8.387407068063204
      ],
      [
        "lerdi",
        -8.387744225832808
      ],
      [
        "daki",
        -8.387972908501913
      ],
      [
        "meye",
        -8.389725106388628
      ],
      [
        "▁olsun",
        -8.392504605137713
      ],
      [
        "▁boyun",
        -8.392511070155237
      ],
      [
        "▁cocuklar",
        -8.392948235541105
      ],
      [
        "▁soyluyor",
        -8.39312631286882
      ],
      [
        "mez",
        -8.39368698888431
      ],
      [
        "▁belki",
        -8.393714330930777
      ],
      [
        "▁kır",
        -8.397318107273534
      ],
      [
        "▁be",
        -8.397626967635027
      ],
      [
        "▁sorun",
        -8.399716913938214
      ],
      [
        "▁veriyoru",
        -8.401552943977293
      ],
      [
        "▁yanı",
        -8.401794716799497
      ],
      [
        "▁guler",
        -8.402887728501216
      ],
      [
        "▁olma",
        -8.403982705481106
      ],
      [
        "▁kez",
        -8.4044726792041
      ],
      [
        "▁cogu",
        -8.405615690454237
      ],
      [
        "▁ozellikle",
        -8.40577991114683
      ],
      [
        "▁sehir",
        -8.406407280093001
      ],
      [
        "▁cocuklu",
        -8.408969885597607
      ],
      [
        "▁zor",
        -8.409063686413532
      ],
      [
        "gını",
        -8.409398070778828
      ],
      [
        "▁agır",
        -8.410838722702527
      ],
      [
        "▁almak",
        -8.412739275458497
      ],
      [
        "ydu",
        -8.413640714799365
      ],
      [
        "▁yana",
        -8.415136568385641
      ],
      [
        "▁ver",
        -8.415910351087675
      ],
      [
        "unku",
        -8.416262362500852
      ],
      [
        "▁pittsburgh'",
        -8.416376905014403
      ],
      [
        "▁ozel",
        -8.416652959522464
      ],
      [
        "▁ikinci",
        -8.41713437025182
      ],
      [
        "▁altı",
        -8.417436304970213
      ],
      [
        "▁et",
        -8.418467073716876
      ],
      [
        "▁baskanı",
        -8.420336173347064
      ],
      [
        "man",
        -8.420762466596731
      ],
      [
        "rken",
        -8.421778503435416
      ],
      [
        "▁yatırım",
        -8.427227337311663
      ],
      [
        "▁washington",
        -8.427390851130298
      ],
      [
        "▁adet",
        -8.42746843909811
      ],
      [
        "▁ar",
        -8.428141070415641
      ],
      [
        "▁9",
        -8.43046314283826
      ],
      [
        "mayı",
        -8.431896484705803
      ],
      [
        "▁ekonomi",
        -8.432387001288957
      ],
      [
        "▁li",
        -8.432860303030637
      ],
      [
        "▁bul",
        -8.433967186875432
      ],
      [
        "▁yuzde",
        -8.436077858546188
      ],
      [
        "▁menkul",
        -8.43633009461331
      ],
      [
        "▁ilgi",
        -8.437471589360914
      ],
      [
        "▁alma",
        -8.439290226004026
      ],
      [
        "▁havayolları",
        -8.441092097038714
      ],
      [
        "ıldı",
        -8.443278263034319
      ],
      [
        "▁denver",
        -8.443886703132335
      ],
      [
        "▁yıllık",
        -8.445309920651383
      ],
      [
        "st",
        -8.446297732438973
      ],
      [
        "▁ter",
        -8.44765574448817
      ],
      [
        "▁baskan",
        -8.447881834005315
      ],
      [
        "▁sal",
        -8.450505829525074
      ],
      [
        "▁faiz",
        -8.45119333236627
      ],
      [
        "▁hazır",
        -8.452384053516138
      ],
      [
        "▁yerde",
        -8.455018360142326
      ],
      [
        "▁yavas",
        -8.455171591025845
      ],
      [
        "▁mevcut",
        -8.4569315450143
      ],
      [
        "▁islem",
        -8.457964542398246
      ],
      [
        "tik",
        -8.459840754490685
      ],
      [
        "▁hale",
        -8.46031950863424
      ],
      [
        "▁arası",
        -8.460923579955171
      ],
      [
        "▁istemiyoru",
        -8.465629939750965
      ],
      [
        "▁pay",
        -8.468391679959593
      ],
      [
        "▁yapmak",
        -8.468702194100652
      ],
      [
        "▁alım",
        -8.473336040375525
      ],
      [
        "▁top",
        -8.475754910025723
      ],
      [
        "is",
        -8.475759295090661
      ],
      [
        "▁basında",
        -8.476590319533635
      ],
      [
        "▁gul",
        -8.478745019726365
      ],
      [
        "▁havuzu",
        -8.47919321399517
      ],
      [
        "ıl",
        -8.480553607118908
      ],
      [
        "▁co",
        -8.481057573148725
      ],
      [
        "▁neler",
        -8.481130527866666
      ],
      [
        "▁uzere",
        -8.481564477792482
      ],
      [
        "▁kredi",
        -8.482244156128932
      ],
      [
        "▁ihtiyacım",
        -8.482810200202179
      ],
      [
        "0",
        -8.483387461787355
      ],
      [
        "▁calısma",
        -8.484292881488965
      ],
      [
        "vi",
        -8.485383041883978
      ],
      [
        "▁guc",
        -8.48667067560878
      ],
      [
        "ım",
        -8.48689641911906
      ],
      [
        "▁ustun",
        -8.488725867007261
      ],
      [
        "▁us",
        -8.489066277690757
      ],
      [
        "▁yedi",
        -8.489491250896108
      ],
      [
        "▁beri",
        -8.489705247667903
      ],
      [
        "hangi",
        -8.490480754025887
      ],
      [
        "▁dolayi",
        -8.492498805799439
      ],
      [
        "mektedir",
        -8.494965959907748
      ],
      [
        "▁satıs",
        -8.496449694864356
      ],
      [
        "co",
        -8.497574579022155
      ],
      [
        "▁yas",
        -8.49811234620891
      ],
      [
        "▁tahmin",
        -8.499124287181267
      ],
      [
        "▁konusma",
        -8.502142890253385
      ],
      [
        "maz",
        -8.503536486875902
      ],
      [
        "▁kapandı",
        -8.504128453653294
      ],
      [
        "miyor",
        -8.50627318158503
      ],
      [
        "▁yerin",
        -8.506491668649495
      ],
      [
        "▁gitti",
        -8.50681827334871
      ],
      [
        "w",
        -8.511074874648672
      ],
      [
        "▁uzak",
        -8.511088850482011
      ],
      [
        "tur",
        -8.51122155375078
      ],
      [
        "ve",
        -8.51194855051056
      ],
      [
        "gini",
        -8.512772972632003
      ],
      [
        "▁ku",
        -8.515221735273068
      ],
      [
        "deki",
        -8.516892049127387
      ],
      [
        "▁isi",
        -8.517608676630173
      ],
      [
        "▁sabahı",
        -8.519210442205104
      ],
      [
        "▁elinde",
        -8.520156329299276
      ],
      [
        "▁ifade",
        -8.52356470873892
      ],
      [
        "▁kalmadi",
        -8.52368212619142
      ],
      [
        "▁kal",
        -8.5319463420083
      ],
      [
        "▁oluyor",
        -8.53237045684449
      ],
      [
        "▁dil",
        -8.534270958361123
      ],
      [
        "ız",
        -8.534982421816663
      ],
      [
        "▁tanı",
        -8.536335097420345
      ],
      [
        "▁hizmeti",
        -8.537922413795066
      ],
      [
        "▁varan",
        -8.538460151783969
      ],
      [
        "▁francisco",
        -8.539161329529769
      ],
      [
        "▁teklif",
        -8.539388577282
      ],
      [
        "▁hatta",
        -8.540097256778385
      ],
      [
        "▁otelin",
        -8.540302409406019
      ],
      [
        "▁ha",
        -8.54161035292929
      ],
      [
        "▁animasyon",
        -8.543456837774418
      ],
      [
        "▁baba",
        -8.544135606751722
      ],
      [
        "▁kahve",
        -8.545298943275014
      ],
      [
        "▁mal",
        -8.547334406555088
      ],
      [
        "▁kalite",
        -8.54797426053109
      ],
      [
        "unun",
        -8.554857400093702
      ],
      [
        "dıgını",
        -8.5557267599599
      ],
      [
        "▁senedi",
        -8.55651708315604
      ],
      [
        "▁gider",
        -8.55860465607906
      ],
      [
        "▁seyler",
        -8.56066419888079
      ],
      [
        "ıyla",
        -8.561613136049477
      ],
      [
        "▁bilgisayar",
        -8.561820560162904
      ],
      [
        "▁deger",
        -8.561857052548476
      ],
      [
        "on",
        -8.562665441186027
      ],
      [
        "ından",
        -8.563347795997785
      ],
      [
        "▁fiyatları",
        -8.564394299243265
      ],
      [
        "▁yere",
        -8.565226545533964
      ],
      [
        "▁gelecek",
        -8.566622357450967
      ],
      [
        "▁olmus",
        -8.567518535635212
      ],
      [
        "▁havuz",
        -8.569825782805491
      ],
      [
        "▁yapılan",
        -8.57292271734541
      ],
      [
        "▁persembe",
        -8.573025097543068
      ],
      [
        "▁kolay",
        -8.57374397888498
      ],
      [
        "ligini",
        -8.573904400190496
      ],
      [
        "▁ustunde",
        -8.573910930101318
      ],
      [
        "▁ad",
        -8.57479783099058
      ],
      [
        "▁ek",
        -8.574979665703626
      ],
      [
        "ol",
        -8.575827068664523
      ],
      [
        "▁olsa",
        -8.57700861714611
      ],
      [
        "lugu",
        -8.58081104208727
      ],
      [
        "▁20",
        -8.582861261555962
      ],
      [
        "likle",
        -8.583297401251674
      ],
      [
        "ver",
        -8.583610218156679
      ],
      [
        "▁derece",
        -8.584042049667874
      ],
      [
        "ut",
        -8.585940865726919
      ],
      [
        "▁ucreti",
        -8.586116730316835
      ],
      [
        "▁gerek",
        -8.592870997222088
      ],
      [
        "ch",
        -8.593423895461012
      ],
      [
        "▁tak",
        -8.595387100961823
      ],
      [
        "▁philadelphia'da",
        -8.595727702056788
      ],
      [
        "▁sarı",
        -8.597532697396897
      ],
      [
        "▁yuksel",
        -8.598930034596378
      ],
      [
        "▁olması",
        -8.598993558611836
      ],
      [
        "▁ag",
        -8.599296349135265
      ],
      [
        "alım",
        -8.604883114302107
      ],
      [
        "▁elde",
        -8.605631970791856
      ],
      [
        "▁bulun",
        -8.606614880990637
      ],
      [
        "▁yonetim",
        -8.60718698725887
      ],
      [
        "▁vergi",
        -8.609550432982031
      ],
      [
        "00",
        -8.612169694689555
      ],
      [
        "▁ti",
        -8.612250558443517
      ],
      [
        "▁kan",
        -8.614350798405459
      ],
      [
        "▁merkezi",
        -8.614403670497694
      ],
      [
        "▁yara",
        -8.61472240624345
      ],
      [
        "▁plan",
        -8.614775520331026
      ],
      [
        "ton",
        -8.615662338459696
      ],
      [
        "▁guleryuzlu",
        -8.618916177726115
      ],
      [
        "x",
        -8.619136270658277
      ],
      [
        "▁bahce",
        -8.619601842828317
      ],
      [
        "▁ta",
        -8.619618177577415
      ],
      [
        "va",
        -8.621077673311085
      ],
      [
        "▁12",
        -8.62221089541298
      ],
      [
        "▁anlasma",
        -8.62261062162747
      ],
      [
        "▁ayında",
        -8.624875785086811
      ],
      [
        "▁ke",
        -8.62585000048697
      ],
      [
        "▁sozcu",
        -8.629920328934205
      ],
      [
        "▁temizlik",
        -8.630779777935661
      ],
      [
        "▁dolu",
        -8.631111277810213
      ],
      [
        "mustu",
        -8.631807966936588
      ],
      [
        "ılmıs",
        -8.633295863499864
      ],
      [
        "▁bunları",
        -8.63453607744496
      ],
      [
        "▁eve",
        -8.634823349051755
      ],
      [
        "es",
        -8.634876584540237
      ],
      [
        "▁buna",
        -8.635088152918861
      ],
      [
        "▁tesekkur",
        -8.641718949663614
      ],
      [
        "▁dolara",
        -8.643264706727898
      ],
      [
        "▁yabancı",
        -8.643507587590607
      ],
      [
        "dik",
        -8.645170938132187
      ],
      [
        "j",
        -8.645644368535601
      ],
      [
        "▁onunde",
        -8.64813068550011
      ],
      [
        "▁tı",
        -8.64933904433913
      ],
      [
        "digini",
        -8.649656504914839
      ],
      [
        "▁konum",
        -8.65346315300653
      ],
      [
        "▁servis",
        -8.654478447734595
      ],
      [
        "▁bırak",
        -8.654681885775407
      ],
      [
        "lay",
        -8.655587418644188
      ],
      [
        "▁yapan",
        -8.655628997342388
      ],
      [
        "lastı",
        -8.657144653470198
      ],
      [
        "▁yazar",
        -8.658053743406487
      ],
      [
        "layan",
        -8.658369627109295
      ],
      [
        "▁gozleri",
        -8.658552200339413
      ],
      [
        "ha",
        -8.660428299693871
      ],
      [
        "▁dallas",
        -8.660543300261127
      ],
      [
        "lıgını",
        -8.661735645728072
      ],
      [
        "sal",
        -8.662865449045018
      ],
      [
        "▁kıymetler",
        -8.663781217585573
      ],
      [
        "▁s",
        -8.663931743816388
      ],
      [
        "▁re",
        -8.664988767971462
      ],
      [
        "▁hepsi",
        -8.665303422042545
      ],
      [
        "▁vardır",
        -8.665742237258385
      ],
      [
        "fi",
        -8.66606251161561
      ],
      [
        "▁kendini",
        -8.66632665859061
      ],
      [
        "▁gel",
        -8.668526094551542
      ],
      [
        "kten",
        -8.668578455796506
      ],
      [
        "▁lezzetli",
        -8.66863551765773
      ],
      [
        "▁gecti",
        -8.66879018905186
      ],
      [
        "\"",
        -8.674821725919593
      ],
      [
        "▁gunluk",
        -8.676200636216477
      ],
      [
        "▁do",
        -8.676501698719779
      ],
      [
        "▁30",
        -8.677076819550807
      ],
      [
        "▁sol",
        -8.677208485981815
      ],
      [
        "▁performans",
        -8.67995149463713
      ],
      [
        "mu",
        -8.680003731127062
      ],
      [
        "▁demir",
        -8.680331308440824
      ],
      [
        "▁onceki",
        -8.680358273201545
      ],
      [
        "▁yaka",
        -8.683803973495985
      ],
      [
        "▁sanat",
        -8.684032325050268
      ],
      [
        "▁ko",
        -8.684724018598327
      ],
      [
        "▁edilen",
        -8.686714294388612
      ],
      [
        "▁vadeli",
        -8.687108219116293
      ],
      [
        "▁oz",
        -8.68733616735501
      ],
      [
        "▁birinci",
        -8.687381496621665
      ],
      [
        "▁hayat",
        -8.688039075563363
      ],
      [
        "▁ga",
        -8.689465460647673
      ],
      [
        "▁gercekte",
        -8.689891682316084
      ],
      [
        "▁hafif",
        -8.690622105697717
      ],
      [
        "lendi",
        -8.690786931678215
      ],
      [
        "▁yeterli",
        -8.691088822416596
      ],
      [
        "ık",
        -8.691588792697946
      ],
      [
        "gmen",
        -8.69298312893983
      ],
      [
        "to",
        -8.696541705841213
      ],
      [
        "▁kıs",
        -8.696710655303391
      ],
      [
        "san",
        -8.698334634051287
      ],
      [
        "lanma",
        -8.699474308086788
      ],
      [
        "▁sirketin",
        -8.700767066391286
      ],
      [
        "▁yapıyor",
        -8.701844080100788
      ],
      [
        "▁arada",
        -8.701877110054527
      ],
      [
        "▁turlu",
        -8.702168046370053
      ],
      [
        "▁batı",
        -8.70252491712466
      ],
      [
        "▁yardım",
        -8.70413627666914
      ],
      [
        "dım",
        -8.704220893400233
      ],
      [
        "▁kafa",
        -8.704463871605522
      ],
      [
        "▁etme",
        -8.705523160420348
      ],
      [
        "▁bizi",
        -8.709281278012387
      ],
      [
        "▁yanında",
        -8.709471624792691
      ],
      [
        "▁cift",
        -8.710358057660983
      ],
      [
        "▁din",
        -8.711222657704345
      ],
      [
        "▁baltimore'de",
        -8.711414405009744
      ],
      [
        "▁gazete",
        -8.71147535450232
      ],
      [
        "rak",
        -8.712892132198071
      ],
      [
        "▁ortalama",
        -8.713933053650972
      ],
      [
        "▁bar",
        -8.714014428454785
      ],
      [
        "▁ed",
        -8.714163638344594
      ],
      [
        "uyor",
        -8.714355627714372
      ],
      [
        "▁bo",
        -8.716470265241062
      ],
      [
        "▁d",
        -8.717919740011173
      ],
      [
        "▁adı",
        -8.720781540078242
      ],
      [
        "sunuz",
        -8.72085115211624
      ],
      [
        "'te",
        -8.721118421352081
      ],
      [
        "dar",
        -8.721804387530998
      ],
      [
        "▁yasında",
        -8.721825708274705
      ],
      [
        "der",
        -8.722223160917714
      ],
      [
        "▁ba",
        -8.722651398408573
      ],
      [
        "▁baz",
        -8.723815459871467
      ],
      [
        "▁adım",
        -8.724691482231552
      ],
      [
        "▁derin",
        -8.72485989722891
      ],
      [
        "zi",
        -8.725581738316663
      ],
      [
        "▁american",
        -8.726496510021661
      ],
      [
        "lenme",
        -8.728922220731217
      ],
      [
        "▁ust",
        -8.73174448084232
      ],
      [
        "'i",
        -8.732815060700386
      ],
      [
        "▁buldu",
        -8.733975027565144
      ],
      [
        "digi",
        -8.734204877045844
      ],
      [
        "▁sınıf",
        -8.734694073349583
      ],
      [
        "▁doları",
        -8.734897240724159
      ],
      [
        "▁fe",
        -8.7390759301489
      ],
      [
        "▁hasta",
        -8.739323418950184
      ],
      [
        "▁kendisi",
        -8.74050595087888
      ],
      [
        "▁guclu",
        -8.741002074260901
      ],
      [
        "▁suru",
        -8.741884362097345
      ],
      [
        "▁tahvil",
        -8.743666110058307
      ],
      [
        "kar",
        -8.7439026916005
      ],
      [
        "▁kaldı",
        -8.744143439266635
      ],
      [
        "▁merkez",
        -8.748457213240627
      ],
      [
        "▁farklı",
        -8.749110181886891
      ],
      [
        "▁cumartesi",
        -8.751410188116349
      ],
      [
        "▁dikkat",
        -8.752986795358442
      ],
      [
        "▁bol",
        -8.753526526679146
      ],
      [
        "▁sar",
        -8.754048155701561
      ],
      [
        "▁tesisin",
        -8.754357077273509
      ],
      [
        "▁alın",
        -8.75579396120009
      ],
      [
        "▁gunes",
        -8.75635593018048
      ],
      [
        "▁eger",
        -8.758425374629697
      ],
      [
        "▁kucuktu",
        -8.7610610989365
      ],
      [
        "▁sakin",
        -8.76140603054773
      ],
      [
        "▁15",
        -8.761781599331957
      ],
      [
        "▁karayolu",
        -8.764969765679862
      ],
      [
        "▁gecmis",
        -8.765460280981026
      ],
      [
        "▁kullan",
        -8.765616218833989
      ],
      [
        "▁olduk",
        -8.766252964681618
      ],
      [
        "▁hali",
        -8.769939236991597
      ],
      [
        "▁kotuy",
        -8.771039807124783
      ],
      [
        "sından",
        -8.771216092333237
      ],
      [
        "▁onumuzde",
        -8.77187100272168
      ],
      [
        "▁benzer",
        -8.771936651802903
      ],
      [
        "▁aktarmasız",
        -8.772016559770085
      ],
      [
        "bu",
        -8.775682716757997
      ],
      [
        "▁halde",
        -8.776008441647008
      ],
      [
        "▁ates",
        -8.77661923142113
      ],
      [
        "▁kuru",
        -8.777236341396918
      ],
      [
        "▁erkek",
        -8.779914179368294
      ],
      [
        "yordu",
        -8.782054486265483
      ],
      [
        "mıstır",
        -8.783600434323185
      ],
      [
        "rek",
        -8.783692156582113
      ],
      [
        "▁cevre",
        -8.783967198306176
      ],
      [
        "▁hukumet",
        -8.785151141381434
      ],
      [
        "▁yani",
        -8.785422411549504
      ],
      [
        "▁si",
        -8.78582653816402
      ],
      [
        "▁hisseleri",
        -8.786631271632064
      ],
      [
        "▁ici",
        -8.786830035926307
      ],
      [
        "▁ses",
        -8.787016956009243
      ],
      [
        "▁veriyor",
        -8.787430054693308
      ],
      [
        "▁har",
        -8.787782980207737
      ],
      [
        "▁pe",
        -8.789302178593138
      ],
      [
        "▁durum",
        -8.792627285543219
      ],
      [
        "▁zengin",
        -8.792653655787934
      ],
      [
        "▁gemi",
        -8.793374798840667
      ],
      [
        "▁iceri",
        -8.793802583125238
      ],
      [
        "son",
        -8.7947569105152
      ],
      [
        "▁h",
        -8.795038393296275
      ],
      [
        "▁cık",
        -8.79563842927589
      ],
      [
        "▁secim",
        -8.796078708075143
      ],
      [
        "▁bası",
        -8.796421899775538
      ],
      [
        "yıp",
        -8.796520954996206
      ],
      [
        "▁sıkı",
        -8.797120053887511
      ],
      [
        "'nun",
        -8.79745926458995
      ],
      [
        "▁sun",
        -8.798049298149959
      ],
      [
        "▁sev",
        -8.79834061536331
      ],
      [
        "▁seni",
        -8.799681330916195
      ],
      [
        "nız",
        -8.80045053348195
      ],
      [
        "imiz",
        -8.800724103125447
      ],
      [
        "▁telefon",
        -8.80142290286189
      ],
      [
        "▁yaptıgı",
        -8.803430724882672
      ],
      [
        "▁ulke",
        -8.803569560211363
      ],
      [
        "isi",
        -8.803662937949248
      ],
      [
        "▁ucmak",
        -8.803766555284497
      ],
      [
        "▁kesinlik",
        -8.806140600196366
      ],
      [
        "▁dusus",
        -8.807459826439597
      ],
      [
        "▁defa",
        -8.807475887460615
      ],
      [
        "▁yarı",
        -8.80765681015438
      ],
      [
        "lanmıs",
        -8.809965082781583
      ],
      [
        "sınız",
        -8.810680347390619
      ],
      [
        "▁hal",
        -8.811763944830627
      ],
      [
        "▁kurulu",
        -8.813211219601193
      ],
      [
        "▁isletme",
        -8.81378354009464
      ],
      [
        "▁surekli",
        -8.813989219488278
      ],
      [
        "yim",
        -8.815298847278129
      ],
      [
        "▁odeme",
        -8.815481675431606
      ],
      [
        "sıyla",
        -8.816662727365436
      ],
      [
        "▁pi",
        -8.817500583253674
      ],
      [
        "▁annem",
        -8.821032939943455
      ],
      [
        "▁anket",
        -8.821154546801372
      ],
      [
        "nu",
        -8.822469345572715
      ],
      [
        "▁actı",
        -8.82285021298383
      ],
      [
        "mıyor",
        -8.823793805937925
      ],
      [
        "▁vermek",
        -8.824283583413251
      ],
      [
        "▁bos",
        -8.825466084296608
      ],
      [
        "medi",
        -8.826308200224197
      ],
      [
        "▁yıllar",
        -8.827250399561343
      ],
      [
        "ko",
        -8.827815190452139
      ],
      [
        "▁harika",
        -8.828374974890844
      ],
      [
        "▁yolu",
        -8.82984398751929
      ],
      [
        "▁yılında",
        -8.831040644334006
      ],
      [
        "▁olmayan",
        -8.831079303194022
      ],
      [
        "▁banka",
        -8.831136888079474
      ],
      [
        "▁ali",
        -8.832209849412575
      ],
      [
        "▁anlam",
        -8.832378815165868
      ],
      [
        "▁ro",
        -8.835209963649916
      ],
      [
        "▁numara",
        -8.835671336467499
      ],
      [
        "▁mukemmel",
        -8.836322954741572
      ],
      [
        "iyet",
        -8.836569281989224
      ],
      [
        "▁united",
        -8.843023114570407
      ],
      [
        "▁toplam",
        -8.843572482821626
      ],
      [
        "ndaki",
        -8.844461151078827
      ],
      [
        "▁senin",
        -8.845845232928717
      ],
      [
        "▁zat",
        -8.84635348949686
      ],
      [
        "▁guven",
        -8.846805432371246
      ],
      [
        "nca",
        -8.84847893818915
      ],
      [
        "▁getiri",
        -8.849663827472874
      ],
      [
        "▁baglı",
        -8.849902235845757
      ],
      [
        "&",
        -8.850428560476455
      ],
      [
        "▁aradi",
        -8.850873208643659
      ],
      [
        "acagını",
        -8.851985332216241
      ],
      [
        "▁karsısında",
        -8.852593569748644
      ],
      [
        "▁parca",
        -8.85308325282689
      ],
      [
        "▁kimi",
        -8.853104457460017
      ],
      [
        "▁belli",
        -8.854328832834707
      ],
      [
        "▁ala",
        -8.85501515879777
      ],
      [
        "▁yarın",
        -8.855064958632479
      ],
      [
        "ince",
        -8.855118201613372
      ],
      [
        "▁gidiyor",
        -8.855282053321766
      ],
      [
        "▁11",
        -8.855738468971799
      ],
      [
        "▁gorev",
        -8.857098627351128
      ],
      [
        "mistir",
        -8.858115326312152
      ],
      [
        "ıcı",
        -8.859635055821155
      ],
      [
        "▁kalan",
        -8.860252647194379
      ],
      [
        "▁oyna",
        -8.861317518721414
      ],
      [
        "▁sirketi",
        -8.861859712626757
      ],
      [
        "▁sec",
        -8.86354775372289
      ],
      [
        "▁mar",
        -8.864139720678578
      ],
      [
        "▁egitim",
        -8.86543940884749
      ],
      [
        "▁sıcak",
        -8.865571281296573
      ],
      [
        "▁kazan",
        -8.865659752229373
      ],
      [
        "▁yayın",
        -8.865848942208736
      ],
      [
        "▁taraf",
        -8.866128546608955
      ],
      [
        "▁aslın",
        -8.866564504948098
      ],
      [
        "▁dondu",
        -8.868080302122912
      ],
      [
        "▁kur",
        -8.869791299901426
      ],
      [
        "▁sur",
        -8.86982817939871
      ],
      [
        "madı",
        -8.871499758446795
      ],
      [
        "▁yiyecek",
        -8.872180601971259
      ],
      [
        "▁bilim",
        -8.875762609253766
      ],
      [
        "liyor",
        -8.876363198943405
      ],
      [
        "gim",
        -8.877785126977031
      ],
      [
        "▁parti",
        -8.878824901360677
      ],
      [
        "▁pahali",
        -8.879195290099322
      ],
      [
        "mızı",
        -8.87933532444018
      ],
      [
        "▁demek",
        -8.879568115886912
      ],
      [
        "▁cevap",
        -8.880621460083018
      ],
      [
        "▁siyah",
        -8.880638006934682
      ],
      [
        "▁satıslar",
        -8.881485652016142
      ],
      [
        "▁duvar",
        -8.883095023265184
      ],
      [
        "as",
        -8.883443961437226
      ],
      [
        "▁ele",
        -8.883561717760667
      ],
      [
        "▁kazanc",
        -8.883804745860402
      ],
      [
        "▁mali",
        -8.88617894657462
      ],
      [
        "bil",
        -8.890981376766725
      ],
      [
        "hi",
        -8.891287652899617
      ],
      [
        "▁sana",
        -8.89234218258224
      ],
      [
        "gun",
        -8.89242945786934
      ],
      [
        "▁ayrı",
        -8.894303381275616
      ],
      [
        "▁olmadi",
        -8.894528321909233
      ],
      [
        "▁bolge",
        -8.896352067084065
      ],
      [
        "▁yanlıs",
        -8.896612603803614
      ],
      [
        "▁hanım",
        -8.897188126696985
      ],
      [
        "lıgın",
        -8.897787807298542
      ],
      [
        "▁odedigim",
        -8.898024272251503
      ],
      [
        "▁yuzlu",
        -8.899320735816513
      ],
      [
        "kca",
        -8.900213967841427
      ],
      [
        "▁kay",
        -8.900316084341064
      ],
      [
        "▁dal",
        -8.901235650620775
      ],
      [
        "▁y",
        -8.901615236423085
      ],
      [
        ".9",
        -8.9019377093361
      ],
      [
        "uk",
        -8.902150676067288
      ],
      [
        "▁sak",
        -8.902595707927293
      ],
      [
        "▁temel",
        -8.903007233404459
      ],
      [
        "os",
        -8.903543742838382
      ],
      [
        "▁yuzunde",
        -8.903732131596694
      ],
      [
        "▁federal",
        -8.903878284983488
      ],
      [
        "▁iddia",
        -8.904088830462449
      ],
      [
        "ey",
        -8.904166229620698
      ],
      [
        "▁air",
        -8.904402895322097
      ],
      [
        "▁tarih",
        -8.904765406555224
      ],
      [
        "▁las",
        -8.907137071505591
      ],
      [
        "▁durumda",
        -8.907905679009545
      ],
      [
        "cak",
        -8.908226566700062
      ],
      [
        "lo",
        -8.90824172173362
      ],
      [
        "▁zamanda",
        -8.908871121879193
      ],
      [
        "kan",
        -8.909873729537399
      ],
      [
        "▁seyi",
        -8.910127892047363
      ],
      [
        "▁mer",
        -8.910412659143372
      ],
      [
        "▁savas",
        -8.910459620562877
      ],
      [
        "do",
        -8.911098670917204
      ],
      [
        "▁lira",
        -8.912723833665678
      ],
      [
        "▁endeksi",
        -8.914172738580598
      ],
      [
        "bo",
        -8.914196672143643
      ],
      [
        "▁ser",
        -8.916081875598419
      ],
      [
        "▁borc",
        -8.91610566048104
      ],
      [
        "▁kon",
        -8.917393521201458
      ],
      [
        "dum",
        -8.917556280266304
      ],
      [
        "mizi",
        -8.9177713234807
      ],
      [
        "cılar",
        -8.918392988944353
      ],
      [
        "▁verme",
        -8.919207662734095
      ],
      [
        "▁zarar",
        -8.919797053524583
      ],
      [
        "iyordu",
        -8.920721777606516
      ],
      [
        "liydi",
        -8.921172268648451
      ],
      [
        "▁atlanta",
        -8.92321290171693
      ],
      [
        "▁g",
        -8.923521674768459
      ],
      [
        "▁ticaret",
        -8.923574701717763
      ],
      [
        "▁cam",
        -8.924416841581081
      ],
      [
        "▁los",
        -8.924907290645164
      ],
      [
        "▁koca",
        -8.926259833441915
      ],
      [
        "▁beraber",
        -8.927689440932244
      ],
      [
        "▁etmem",
        -8.927817814073206
      ],
      [
        "▁kas",
        -8.931325863187345
      ],
      [
        "▁kus",
        -8.935130865158218
      ],
      [
        "▁olmaz",
        -8.935357683550528
      ],
      [
        "▁pencere",
        -8.935759761741076
      ],
      [
        "▁artısla",
        -8.936105805933467
      ],
      [
        "lenmis",
        -8.936124207106857
      ],
      [
        "▁cekti",
        -8.936434257672396
      ],
      [
        "▁istiyor",
        -8.936473366039465
      ],
      [
        "▁francisco'da",
        -8.936767547442972
      ],
      [
        "▁oyun",
        -8.937011985703315
      ],
      [
        "▁dogu",
        -8.937194103805226
      ],
      [
        "min",
        -8.938073632924585
      ],
      [
        "han",
        -8.9385343065801
      ],
      [
        "▁etki",
        -8.938615084270776
      ],
      [
        "▁ayak",
        -8.938845836554652
      ],
      [
        "▁yuzu",
        -8.941345794768292
      ],
      [
        "▁begendi",
        -8.942178261271383
      ],
      [
        "ulmus",
        -8.94429468554606
      ],
      [
        "▁yapma",
        -8.944413993373711
      ],
      [
        "▁bayan",
        -8.946592002105145
      ],
      [
        "▁girdi",
        -8.947367079133592
      ],
      [
        "makta",
        -8.950038606013091
      ],
      [
        "▁pittsburgh",
        -8.951416772763306
      ],
      [
        "▁turkiye",
        -8.951608387774153
      ],
      [
        "imi",
        -8.953285866805137
      ],
      [
        "▁kaliteli",
        -8.954463693675992
      ],
      [
        "▁oran",
        -8.955360484423295
      ],
      [
        "▁tut",
        -8.956722664148224
      ],
      [
        "las",
        -8.95751785648749
      ],
      [
        "▁dakika",
        -8.958211364188518
      ],
      [
        "▁gelmis",
        -8.958420815865079
      ],
      [
        "▁asagı",
        -8.959307274662589
      ],
      [
        "▁evde",
        -8.959756294474435
      ],
      [
        "iyorum",
        -8.960207107401452
      ],
      [
        "▁madde",
        -8.960348207486941
      ],
      [
        "▁va",
        -8.961402364679163
      ],
      [
        "▁japon",
        -8.963300830521186
      ],
      [
        "▁veren",
        -8.963912944715904
      ],
      [
        "bilir",
        -8.964311110182273
      ],
      [
        "▁pa",
        -8.965423364182094
      ],
      [
        "▁begenmedi",
        -8.968677815968608
      ],
      [
        "▁yesil",
        -8.968697286796125
      ],
      [
        "▁ucuncu",
        -8.968745401185096
      ],
      [
        "eri",
        -8.969161857532695
      ],
      [
        "▁reklam",
        -8.972342044449974
      ],
      [
        "▁dar",
        -8.973546490591012
      ],
      [
        "▁edildi",
        -8.974152446889377
      ],
      [
        "▁ister",
        -8.975567897918838
      ],
      [
        "lak",
        -8.97586106123807
      ],
      [
        "▁otomobil",
        -8.977081094106765
      ],
      [
        "▁ufak",
        -8.977129614672501
      ],
      [
        "▁veriri",
        -8.979143637883178
      ],
      [
        "▁don",
        -8.97958319645721
      ],
      [
        "▁say",
        -8.979926470947609
      ],
      [
        "▁kav",
        -8.979955399242945
      ],
      [
        "▁salt",
        -8.981211585587042
      ],
      [
        "▁evin",
        -8.981300712720763
      ],
      [
        "▁misin",
        -8.982328833015643
      ],
      [
        "'ı",
        -8.986841122799785
      ],
      [
        "luyor",
        -8.989009548046731
      ],
      [
        "▁olmasi",
        -8.989224399809688
      ],
      [
        "ter",
        -8.989906279796694
      ],
      [
        "▁boz",
        -8.990813674972369
      ],
      [
        "lanan",
        -8.991373787715442
      ],
      [
        "▁kor",
        -8.991830406105294
      ],
      [
        "▁film",
        -8.992914342698635
      ],
      [
        "▁cin",
        -8.993029337549885
      ],
      [
        "▁alt",
        -8.993132026393155
      ],
      [
        "ck",
        -8.993384007723336
      ],
      [
        "▁em",
        -8.993735407433793
      ],
      [
        "▁kırmızı",
        -8.994358180075087
      ],
      [
        "▁ustu",
        -8.995325978000317
      ],
      [
        "▁pat",
        -8.995782383878886
      ],
      [
        "▁bur",
        -8.998290090307552
      ],
      [
        "▁or",
        -8.999900763713436
      ],
      [
        "▁halk",
        -9.00085045512283
      ],
      [
        "▁city'",
        -9.001509004617695
      ],
      [
        "▁sonuc",
        -9.002520215224607
      ],
      [
        "▁net",
        -9.002663064617455
      ],
      [
        "▁po",
        -9.003160067403574
      ],
      [
        "▁kul",
        -9.003480178313751
      ],
      [
        "▁corp.",
        -9.003905141296485
      ],
      [
        "▁dik",
        -9.004346711110633
      ],
      [
        "ilen",
        -9.004540596442565
      ],
      [
        "▁icer",
        -9.004790114852012
      ],
      [
        "▁gorun",
        -9.004924143870294
      ],
      [
        "mayacak",
        -9.005061481955103
      ],
      [
        "▁bilir",
        -9.005597386810337
      ],
      [
        "▁yapar",
        -9.005776342655182
      ],
      [
        "▁olmadıgını",
        -9.0066790337073
      ],
      [
        "acagı",
        -9.007260735236187
      ],
      [
        "▁arastırma",
        -9.007984018576451
      ],
      [
        "cık",
        -9.008010901753256
      ],
      [
        "▁fark",
        -9.008627729471328
      ],
      [
        "madan",
        -9.008754901065341
      ],
      [
        "▁delta",
        -9.011476823039809
      ],
      [
        "▁tane",
        -9.012309103753083
      ],
      [
        "▁nokta",
        -9.012615616692791
      ],
      [
        "▁lo",
        -9.012710532329452
      ],
      [
        "▁car",
        -9.0137795770925
      ],
      [
        "▁fena",
        -9.014894842776378
      ],
      [
        "▁okul",
        -9.015024726798856
      ],
      [
        "▁duzen",
        -9.015382296369253
      ],
      [
        "▁gozu",
        -9.016331013809639
      ],
      [
        "ustu",
        -9.016843353538519
      ],
      [
        "▁dısında",
        -9.01898588036572
      ],
      [
        "leme",
        -9.019710538084164
      ],
      [
        "▁$",
        -9.020072953198811
      ],
      [
        "▁ciddi",
        -9.020193213504596
      ],
      [
        "▁calıs",
        -9.020414753315245
      ],
      [
        "▁milli",
        -9.022092709668495
      ],
      [
        "▁dis",
        -9.022375291658118
      ],
      [
        "▁dahil",
        -9.024273249986908
      ],
      [
        "▁verdigi",
        -9.024462543528088
      ],
      [
        "▁eli",
        -9.025273190411546
      ],
      [
        "▁yeme",
        -9.025614132997633
      ],
      [
        "▁program",
        -9.02573485214224
      ],
      [
        "▁odalar",
        -9.027078526049756
      ],
      [
        "▁bil",
        -9.028306254933614
      ],
      [
        "▁zayıf",
        -9.02904146891317
      ],
      [
        "▁lake",
        -9.029221155419364
      ],
      [
        "▁calısıyor",
        -9.029310546624801
      ],
      [
        "▁yapılacak",
        -9.029633965336245
      ],
      [
        "▁hesap",
        -9.029868652533978
      ],
      [
        "▁toplum",
        -9.030731557530597
      ],
      [
        "ici",
        -9.031924706489356
      ],
      [
        "▁sessiz",
        -9.033083475111095
      ],
      [
        "▁etmis",
        -9.033369664981048
      ],
      [
        "▁kullanmadi",
        -9.035449368645633
      ],
      [
        "▁25",
        -9.035705814098506
      ],
      [
        "▁artıs",
        -9.036494635351339
      ],
      [
        "▁hak",
        -9.037166944263138
      ],
      [
        "▁airlines",
        -9.037167564914876
      ],
      [
        "▁arka",
        -9.037461684721688
      ],
      [
        "▁cal",
        -9.037585830767814
      ],
      [
        "▁doktor",
        -9.037623703726762
      ],
      [
        "▁zorunda",
        -9.03797607491285
      ],
      [
        "▁anne",
        -9.039801606493768
      ],
      [
        "agı",
        -9.040420931889793
      ],
      [
        "▁av",
        -9.042784570741627
      ],
      [
        "▁babam",
        -9.0438134662623
      ],
      [
        "▁agustos",
        -9.046857701296688
      ],
      [
        "▁birden",
        -9.047047392228873
      ],
      [
        "▁alamadi",
        -9.047066674750024
      ],
      [
        "▁arttı",
        -9.048383289945372
      ],
      [
        "▁kere",
        -9.05043047072145
      ],
      [
        "▁kazandı",
        -9.051066239797903
      ],
      [
        "▁olmustu",
        -9.052460815979643
      ],
      [
        "▁kadınlar",
        -9.052655508793519
      ],
      [
        "▁sert",
        -9.053229212971184
      ],
      [
        "▁mac",
        -9.055111911917997
      ],
      [
        "▁eylul",
        -9.05547891013314
      ],
      [
        "▁der",
        -9.055935612797885
      ],
      [
        "▁doku",
        -9.056463389647462
      ],
      [
        "▁inan",
        -9.056734840521097
      ],
      [
        "▁cent",
        -9.05684476288091
      ],
      [
        "▁hoca",
        -9.057197782029252
      ],
      [
        "▁sus",
        -9.057918847460583
      ],
      [
        "▁ders",
        -9.059480899973504
      ],
      [
        "▁belir",
        -9.060133961339556
      ],
      [
        "'ta",
        -9.060344242817369
      ],
      [
        "▁arkadas",
        -9.060811040088016
      ],
      [
        "▁kızı",
        -9.061788271981058
      ],
      [
        "▁koru",
        -9.064260380205868
      ],
      [
        "▁yardimci",
        -9.065243491803827
      ],
      [
        "▁kansas",
        -9.065247104446051
      ],
      [
        "▁mus",
        -9.066011282243867
      ],
      [
        "▁kos",
        -9.066159803239767
      ],
      [
        "▁sahibi",
        -9.066385292045025
      ],
      [
        "▁kaynak",
        -9.067211337535017
      ],
      [
        "▁ulas",
        -9.06781457874398
      ],
      [
        "▁yetkilileri",
        -9.068194224144992
      ],
      [
        "▁rapor",
        -9.069534047087284
      ],
      [
        "▁hazine",
        -9.069955223862895
      ],
      [
        "▁gorus",
        -9.071439718240377
      ],
      [
        "▁edecek",
        -9.071457516210181
      ],
      [
        "ligin",
        -9.07171644783754
      ],
      [
        "▁york'ta",
        -9.071738385759433
      ],
      [
        ",",
        -9.072430536903187
      ],
      [
        "▁hos",
        -9.07319889515129
      ],
      [
        "▁yuru",
        -9.074358348088731
      ],
      [
        "▁petrol",
        -9.074502776642138
      ],
      [
        "ley",
        -9.074552249619252
      ],
      [
        "▁firs",
        -9.074899795507573
      ],
      [
        "ılır",
        -9.074976609191346
      ],
      [
        "▁calısan",
        -9.075281234620352
      ],
      [
        "▁alır",
        -9.075495093082399
      ],
      [
        "yorum",
        -9.078726273662685
      ],
      [
        "▁olursa",
        -9.07958013486858
      ],
      [
        "▁ardında",
        -9.081001967629593
      ],
      [
        "▁kaza",
        -9.082282805355874
      ],
      [
        "▁izin",
        -9.08268488034868
      ],
      [
        "▁kıl",
        -9.082764589241613
      ],
      [
        "hane",
        -9.083891938855249
      ],
      [
        "▁mo",
        -9.08399394277349
      ],
      [
        "▁meydan",
        -9.084387557068695
      ],
      [
        "una",
        -9.084831128942865
      ],
      [
        "▁yen",
        -9.085599880630019
      ],
      [
        "▁dalga",
        -9.087973950953153
      ],
      [
        "▁gormedi",
        -9.088144542361036
      ],
      [
        "masını",
        -9.088851956649552
      ],
      [
        "ing",
        -9.089068813371416
      ],
      [
        "▁konustu",
        -9.09039507598833
      ],
      [
        "ah",
        -9.091803090801736
      ],
      [
        "▁insanın",
        -9.093427392238933
      ],
      [
        "▁aylık",
        -9.093597257729854
      ],
      [
        "▁toprak",
        -9.093625112977914
      ],
      [
        "▁nedeni",
        -9.093647050605831
      ],
      [
        "▁yag",
        -9.09540017136048
      ],
      [
        "▁yardımcı",
        -9.09556175399395
      ],
      [
        "▁vur",
        -9.095587327610053
      ],
      [
        "▁ilac",
        -9.096995797034939
      ],
      [
        "'daki",
        -9.098758996930133
      ],
      [
        "▁bekliyor",
        -9.098872263059942
      ],
      [
        "▁onem",
        -9.099840425946535
      ],
      [
        "▁kitap",
        -9.100521554122604
      ],
      [
        "▁sermaye",
        -9.102811931575705
      ],
      [
        "▁evvel",
        -9.102850345266962
      ],
      [
        "▁aralık",
        -9.10320200274229
      ],
      [
        "▁merak",
        -9.103366457924139
      ],
      [
        "▁attı",
        -9.103502665697988
      ],
      [
        "▁konusu",
        -9.104179096681138
      ],
      [
        "▁soy",
        -9.105121044715053
      ],
      [
        "▁iliskin",
        -9.105356471397752
      ],
      [
        "▁kagıt",
        -9.10574680646417
      ],
      [
        "ed",
        -9.107025452679721
      ],
      [
        "▁yerinde",
        -9.107086111914914
      ],
      [
        "▁cek",
        -9.107116411958998
      ],
      [
        "▁sordu",
        -9.107333523021385
      ],
      [
        "▁tuz",
        -9.10939868487796
      ],
      [
        "▁yeter",
        -9.112207846573881
      ],
      [
        "▁class",
        -9.112437361366668
      ],
      [
        "▁endise",
        -9.112472140790056
      ],
      [
        "▁kol",
        -9.114322047443547
      ],
      [
        "▁yuzme",
        -9.115056773538267
      ],
      [
        "▁fiyati",
        -9.116200745677764
      ],
      [
        "▁getir",
        -9.116502945427335
      ],
      [
        "gan",
        -9.116823425393884
      ],
      [
        "▁idi",
        -9.117120844395577
      ],
      [
        "▁avrupa",
        -9.119412321353227
      ],
      [
        "▁ydı",
        -9.120830287049596
      ],
      [
        "▁has",
        -9.121025900816836
      ],
      [
        "▁gerekiyor",
        -9.121643751881653
      ],
      [
        "▁engel",
        -9.122261074766381
      ],
      [
        "▁ulusal",
        -9.12240235388343
      ],
      [
        "▁bulunan",
        -9.122549188590721
      ],
      [
        "▁mavi",
        -9.122682620863465
      ],
      [
        "▁hızlı",
        -9.123261099753044
      ],
      [
        "▁w",
        -9.123332745270815
      ],
      [
        "▁ham",
        -9.12389446739682
      ],
      [
        "▁soru",
        -9.124773433009121
      ],
      [
        "▁satım",
        -9.12547724520627
      ],
      [
        "yon",
        -9.125739181746823
      ],
      [
        "▁sat",
        -9.126409006689322
      ],
      [
        "ss",
        -9.126531765990435
      ],
      [
        "ınca",
        -9.127162727233628
      ],
      [
        "▁basını",
        -9.128661875799366
      ],
      [
        "▁baskı",
        -9.128897907964292
      ],
      [
        "klarını",
        -9.129057583160256
      ],
      [
        "mayan",
        -9.129985235292551
      ],
      [
        "▁sefer",
        -9.130739168204174
      ],
      [
        "▁atı",
        -9.130767985503532
      ],
      [
        "▁musait",
        -9.132049982692234
      ],
      [
        "▁silah",
        -9.13205930906705
      ],
      [
        "▁za",
        -9.132197134480839
      ],
      [
        "▁18",
        -9.132549925634311
      ],
      [
        "▁baktı",
        -9.132884030292518
      ],
      [
        "▁gene",
        -9.133004021403632
      ],
      [
        "▁ortak",
        -9.133526757959268
      ],
      [
        "▁kes",
        -9.133557706057232
      ],
      [
        "ucu",
        -9.13478229412161
      ],
      [
        "▁gosterdi",
        -9.135745218474018
      ],
      [
        "▁borsası",
        -9.136059974861697
      ],
      [
        "▁oakland'",
        -9.136578696283356
      ],
      [
        "yse",
        -9.136596763654914
      ],
      [
        "▁hayal",
        -9.139918690459481
      ],
      [
        "▁fiyatı",
        -9.140371494970635
      ],
      [
        "▁man",
        -9.141025670357665
      ],
      [
        "▁bal",
        -9.141309234411462
      ],
      [
        "kları",
        -9.141734740759349
      ],
      [
        "▁tatlı",
        -9.1425000560052
      ],
      [
        "▁anlama",
        -9.143963825485239
      ],
      [
        "▁ettigi",
        -9.144133235293381
      ],
      [
        "meyi",
        -9.14448601568901
      ],
      [
        "▁musteri",
        -9.144685770151217
      ],
      [
        "▁13",
        -9.146232698751113
      ],
      [
        "▁ileri",
        -9.147230101143805
      ],
      [
        "▁isin",
        -9.147241606683544
      ],
      [
        "▁yılın",
        -9.147441621429135
      ],
      [
        "▁uret",
        -9.147687357622472
      ],
      [
        "lige",
        -9.147953116664828
      ],
      [
        "▁buyu",
        -9.14796194297736
      ],
      [
        "▁vi",
        -9.148429812934058
      ],
      [
        "▁washington'",
        -9.1492342629137
      ],
      [
        "men",
        -9.150726147973486
      ],
      [
        "▁dile",
        -9.151267262781412
      ],
      [
        "▁insanların",
        -9.151468637147387
      ],
      [
        "▁uyu",
        -9.15160423522401
      ],
      [
        "▁sesi",
        -9.151757905568044
      ],
      [
        "▁mah",
        -9.151817900747828
      ],
      [
        "▁borsa",
        -9.151836382965431
      ],
      [
        "▁mumkun",
        -9.151839048635846
      ],
      [
        "▁ulasımı",
        -9.152208783861727
      ],
      [
        "▁mahkeme",
        -9.152536069623634
      ],
      [
        "▁sahne",
        -9.15279335945202
      ],
      [
        "▁cay",
        -9.154292807605913
      ],
      [
        "▁durumu",
        -9.154835628515102
      ],
      [
        "▁suc",
        -9.155209805972243
      ],
      [
        "gen",
        -9.155363782185905
      ],
      [
        "▁yemegi",
        -9.155848537507577
      ],
      [
        "▁ceyrek",
        -9.156909625648531
      ],
      [
        "▁100",
        -9.157257548937508
      ],
      [
        "ttı",
        -9.157535509645236
      ],
      [
        "▁finans",
        -9.158736175475713
      ],
      [
        "▁ulasım",
        -9.16126822007443
      ],
      [
        "▁yirmi",
        -9.16193713996595
      ],
      [
        "▁personeli",
        -9.164575248338245
      ],
      [
        "▁caba",
        -9.165539647019619
      ],
      [
        "▁pis",
        -9.165754784983008
      ],
      [
        "▁yatırımcılar",
        -9.168046891601442
      ],
      [
        "▁bag",
        -9.170089995225535
      ],
      [
        "th",
        -9.170356685849718
      ],
      [
        "▁cesitli",
        -9.171154846179338
      ],
      [
        "▁continental",
        -9.172140260462744
      ],
      [
        "▁proje",
        -9.17214122599103
      ],
      [
        "▁resmi",
        -9.172974709115806
      ],
      [
        "▁ekim",
        -9.173753882987278
      ],
      [
        "▁sevgi",
        -9.173902396683616
      ],
      [
        "▁dusun",
        -9.174053056688885
      ],
      [
        "▁boy",
        -9.175308619418892
      ],
      [
        "▁gu",
        -9.175508402354165
      ],
      [
        "▁olcude",
        -9.177546437986617
      ],
      [
        "sunu",
        -9.178252070571137
      ],
      [
        "▁servisi",
        -9.178819352878758
      ],
      [
        "▁sil",
        -9.179146383077487
      ],
      [
        "▁yapacak",
        -9.179312548765285
      ],
      [
        "▁dayan",
        -9.179995998174231
      ],
      [
        "▁gecme",
        -9.180347096799823
      ],
      [
        "▁gidi",
        -9.182009695218877
      ],
      [
        "▁bilet",
        -9.182031865743703
      ],
      [
        "▁gozlerini",
        -9.182387772365772
      ],
      [
        "▁seyahat",
        -9.1824551317677
      ],
      [
        "▁talep",
        -9.182461265324722
      ],
      [
        "▁halinde",
        -9.183073768685524
      ],
      [
        "▁seri",
        -9.183628429629263
      ],
      [
        "▁gaz",
        -9.183817874608208
      ],
      [
        "▁cıkardı",
        -9.183898522969148
      ],
      [
        "▁sırada",
        -9.18421064100056
      ],
      [
        "'u",
        -9.184351197454143
      ],
      [
        "▁co.",
        -9.184523479892661
      ],
      [
        "▁rezervasyonu",
        -9.184913521417105
      ],
      [
        "▁bulundu",
        -9.185544425272399
      ],
      [
        "▁ekmek",
        -9.185558902992852
      ],
      [
        "oglu",
        -9.185661291488648
      ],
      [
        "▁sınıfı",
        -9.18611479480165
      ],
      [
        "▁ah",
        -9.18709235304734
      ],
      [
        "▁evi",
        -9.187419737208744
      ],
      [
        "▁turkiye'",
        -9.187888093154685
      ],
      [
        "▁soguk",
        -9.190764460732648
      ],
      [
        "▁ekonomik",
        -9.190816333070567
      ],
      [
        "▁savunma",
        -9.192316341774092
      ],
      [
        "▁anlat",
        -9.192980900954423
      ],
      [
        "▁tir",
        -9.193418245283041
      ],
      [
        "ecegi",
        -9.193438820134933
      ],
      [
        "▁sok",
        -9.193576897872013
      ],
      [
        "ildi",
        -9.193785114208467
      ],
      [
        "▁inc.",
        -9.193816253626835
      ],
      [
        "ber",
        -9.194605898791377
      ],
      [
        "▁ucuyor",
        -9.194952417993782
      ],
      [
        "▁verdigim",
        -9.194963614684546
      ],
      [
        "▁degistir",
        -9.195000037326302
      ],
      [
        "▁50",
        -9.195630351942675
      ],
      [
        "▁nerede",
        -9.195728760319117
      ],
      [
        "▁olmadıgı",
        -9.195884805407587
      ],
      [
        "▁gitmek",
        -9.196797656600046
      ],
      [
        "▁edin",
        -9.199073488733209
      ],
      [
        "ciler",
        -9.19910691929719
      ],
      [
        "▁donem",
        -9.199820734100538
      ],
      [
        "▁dergi",
        -9.199902493570068
      ],
      [
        ".6",
        -9.200537989173043
      ],
      [
        "▁bıraktı",
        -9.200665139744894
      ],
      [
        "uyordu",
        -9.201495852040317
      ],
      [
        "▁takım",
        -9.20163766930173
      ],
      [
        "▁etmeye",
        -9.203109504738478
      ],
      [
        "▁problem",
        -9.203392589206203
      ],
      [
        "▁acıklama",
        -9.203582962984854
      ],
      [
        "▁risk",
        -9.204087592960775
      ],
      [
        "▁ceza",
        -9.204385023993105
      ],
      [
        "▁kalk",
        -9.204391373653063
      ],
      [
        "lesti",
        -9.20477372905408
      ],
      [
        "ırım",
        -9.207352306137464
      ],
      [
        "▁il",
        -9.20832578219257
      ],
      [
        "▁dıs",
        -9.208489023045091
      ],
      [
        "ılması",
        -9.208640726851236
      ],
      [
        "van",
        -9.210566006872366
      ],
      [
        "▁sap",
        -9.211392294423081
      ],
      [
        "▁misafir",
        -9.213859236887876
      ],
      [
        "▁lazım",
        -9.214030977499835
      ],
      [
        "▁gizli",
        -9.214033752155835
      ],
      [
        "▁isaret",
        -9.214040829264608
      ],
      [
        "▁asıl",
        -9.2158905609807
      ],
      [
        "▁sarkı",
        -9.216297998528272
      ],
      [
        "▁olcu",
        -9.216849352603258
      ],
      [
        "lugun",
        -9.217105227299594
      ],
      [
        "mde",
        -9.217826117433656
      ],
      [
        "▁kendisini",
        -9.218273004649841
      ],
      [
        "▁17",
        -9.218285616317383
      ],
      [
        "▁millet",
        -9.219726659972425
      ],
      [
        "▁dusunce",
        -9.22076824722306
      ],
      [
        "abı",
        -9.221948480740734
      ],
      [
        "tim",
        -9.222418806390104
      ],
      [
        "ac",
        -9.223310158553543
      ],
      [
        "▁dum",
        -9.223987834218772
      ],
      [
        "▁endustri",
        -9.224777432115658
      ],
      [
        "▁ait",
        -9.225133737358505
      ],
      [
        "▁kaldır",
        -9.225228383734585
      ],
      [
        "▁otur",
        -9.225332320274163
      ],
      [
        "▁kontrol",
        -9.225710636371335
      ],
      [
        "▁idare",
        -9.225894501518493
      ],
      [
        "▁esya",
        -9.227247963287722
      ],
      [
        "▁21",
        -9.228832139276426
      ],
      [
        "▁tel",
        -9.229626276356772
      ],
      [
        "▁kanun",
        -9.230725559952475
      ],
      [
        "gin",
        -9.230775319709203
      ],
      [
        "mesini",
        -9.230790016282105
      ],
      [
        "▁buyume",
        -9.232258891602298
      ],
      [
        "▁isle",
        -9.23284056069245
      ],
      [
        "▁bina",
        -9.233037074772879
      ],
      [
        "▁kayna",
        -9.233738700816428
      ],
      [
        "▁fikir",
        -9.23566770976129
      ],
      [
        "▁tabii",
        -9.235880873538505
      ],
      [
        "▁sigorta",
        -9.236392960638419
      ],
      [
        "▁birbirin",
        -9.237506847371229
      ],
      [
        "▁ısık",
        -9.237953673053712
      ],
      [
        "▁analistler",
        -9.23806804326804
      ],
      [
        "▁faaliyet",
        -9.238408083894583
      ],
      [
        "▁sekiz",
        -9.23876861130436
      ],
      [
        "▁gormek",
        -9.23912088458157
      ],
      [
        "▁dusunme",
        -9.239492565907174
      ],
      [
        "▁destek",
        -9.239629595921613
      ],
      [
        "▁firma",
        -9.239794180489795
      ],
      [
        "▁tuttu",
        -9.240624206579419
      ],
      [
        "▁ocak",
        -9.24074606342245
      ],
      [
        "▁ata",
        -9.243982187605766
      ],
      [
        "sam",
        -9.245086998286473
      ],
      [
        "▁kira",
        -9.245126844676681
      ],
      [
        "go",
        -9.245876721095595
      ],
      [
        "▁mehmet",
        -9.246642091087123
      ],
      [
        "▁teknoloji",
        -9.246646654835775
      ],
      [
        "▁imkanlari",
        -9.246709141029315
      ],
      [
        "▁cıkan",
        -9.24704018413982
      ],
      [
        "▁ediyordu",
        -9.24790662384801
      ],
      [
        "▁siir",
        -9.24867412945732
      ],
      [
        "▁kok",
        -9.249298984863383
      ],
      [
        "▁yılda",
        -9.24960101330413
      ],
      [
        "sen",
        -9.249769095313319
      ],
      [
        "▁bazıları",
        -9.250429096073145
      ],
      [
        "▁sozu",
        -9.250967117071948
      ],
      [
        "▁oteli",
        -9.253824312935354
      ],
      [
        "larımız",
        -9.254491073817455
      ],
      [
        "▁alıyor",
        -9.254908401078342
      ],
      [
        "▁emin",
        -9.25750729986635
      ],
      [
        "▁reddetti",
        -9.257753198535486
      ],
      [
        "▁olanaklari",
        -9.257753692017562
      ],
      [
        "▁katkı",
        -9.257832042572135
      ],
      [
        "▁bit",
        -9.258129912973224
      ],
      [
        "▁verir",
        -9.25886969302621
      ],
      [
        "▁dusunuyor",
        -9.259128175149215
      ],
      [
        "▁dusman",
        -9.259149299199166
      ],
      [
        "▁inc",
        -9.259152887875684
      ],
      [
        "▁200",
        -9.259725443195546
      ],
      [
        "▁boya",
        -9.259857702875287
      ],
      [
        "ilmis",
        -9.260536342067006
      ],
      [
        "▁ugra",
        -9.262255154220696
      ],
      [
        "▁mutlu",
        -9.263860455060573
      ],
      [
        "▁fiyatlar",
        -9.264679833756178
      ],
      [
        "▁suyu",
        -9.2647620607655
      ],
      [
        "▁ayı",
        -9.265245866995492
      ],
      [
        "▁halin",
        -9.265746472040494
      ],
      [
        "lıkta",
        -9.267407992852645
      ],
      [
        "▁kemal",
        -9.267425889971703
      ],
      [
        "▁kararı",
        -9.26757162047457
      ],
      [
        "lamak",
        -9.267673944175066
      ],
      [
        "▁renk",
        -9.267860625005945
      ],
      [
        "▁gerektigin",
        -9.268149643771697
      ],
      [
        "lanıyor",
        -9.268226257977535
      ],
      [
        "▁nisan",
        -9.268425994512315
      ],
      [
        "▁ihtiyar",
        -9.268995726424084
      ],
      [
        "▁calis",
        -9.269837200459957
      ],
      [
        "▁aldıgı",
        -9.270689276307232
      ],
      [
        "▁geci",
        -9.27561561624844
      ],
      [
        "▁kelime",
        -9.279177328806426
      ],
      [
        "▁rehber",
        -9.28018692766843
      ],
      [
        "ecegini",
        -9.280266121924264
      ],
      [
        "▁hukuk",
        -9.280352861471286
      ],
      [
        "▁yaptirdi",
        -9.280441205374034
      ],
      [
        "yım",
        -9.280994157315746
      ],
      [
        "▁tahta",
        -9.281110805947634
      ],
      [
        "yip",
        -9.281626275941491
      ],
      [
        "ay",
        -9.281716526389546
      ],
      [
        "gunu",
        -9.282080041240109
      ],
      [
        "▁sut",
        -9.28229533039303
      ],
      [
        "▁gosteriyor",
        -9.28338144988588
      ],
      [
        "▁dost",
        -9.286246637188597
      ],
      [
        "▁korku",
        -9.288323182562344
      ],
      [
        "▁hızla",
        -9.288380004675796
      ],
      [
        "▁gorunuyor",
        -9.288427701603343
      ],
      [
        "lesme",
        -9.28919281153194
      ],
      [
        "▁ab",
        -9.290110867669462
      ],
      [
        "▁pasa",
        -9.290302594700249
      ],
      [
        "▁yasam",
        -9.290659731323252
      ],
      [
        "▁isim",
        -9.29137937428045
      ],
      [
        "▁dısarı",
        -9.291409254121941
      ],
      [
        "▁sozlesme",
        -9.291735512731087
      ],
      [
        "▁hikaye",
        -9.291847341851039
      ],
      [
        "▁ticari",
        -9.291848833705043
      ],
      [
        "▁kitabı",
        -9.29185612673927
      ],
      [
        "▁kongre",
        -9.291856754792239
      ],
      [
        "▁gunde",
        -9.29216136006917
      ],
      [
        "▁kose",
        -9.29252972404544
      ],
      [
        "▁oner",
        -9.292714884493012
      ],
      [
        "▁ulastı",
        -9.293329279291456
      ],
      [
        "malı",
        -9.293404990501756
      ],
      [
        "kleri",
        -9.293640927510296
      ],
      [
        "▁kaba",
        -9.296577593738004
      ],
      [
        "▁cıkmıs",
        -9.29729800496144
      ],
      [
        "▁oranı",
        -9.298831276543698
      ],
      [
        "▁ucu",
        -9.300217093348158
      ],
      [
        "▁yarım",
        -9.300325416369517
      ],
      [
        "asyon",
        -9.300657348567679
      ],
      [
        "▁basa",
        -9.301082083252723
      ],
      [
        "▁sona",
        -9.30192066527817
      ],
      [
        "▁iliski",
        -9.302356957393723
      ],
      [
        "▁acıkladı",
        -9.303105992100836
      ],
      [
        "▁ruzgar",
        -9.303475011265503
      ],
      [
        "▁kıyı",
        -9.303513243397692
      ],
      [
        "▁gorusme",
        -9.304800996383852
      ],
      [
        "▁saglık",
        -9.305027726490971
      ],
      [
        "meyen",
        -9.305263511504311
      ],
      [
        "▁topla",
        -9.305684190897658
      ],
      [
        "▁yaslı",
        -9.305778593468649
      ],
      [
        "amaz",
        -9.307127480054211
      ],
      [
        "▁politika",
        -9.308295210445216
      ],
      [
        "▁dag",
        -9.308488026789295
      ],
      [
        "▁makine",
        -9.308962598953716
      ],
      [
        "▁otelde",
        -9.310224960667412
      ],
      [
        "▁olacagını",
        -9.310759853736114
      ],
      [
        "▁yolda",
        -9.311263262955745
      ],
      [
        "▁faturam",
        -9.311303617276932
      ],
      [
        "▁duruyor",
        -9.314083578017586
      ],
      [
        "▁kasım",
        -9.31539972952259
      ],
      [
        "▁resim",
        -9.315674491899696
      ],
      [
        "▁14",
        -9.315983389519811
      ],
      [
        "▁yay",
        -9.316055528564597
      ],
      [
        "▁koyu",
        -9.316318643075467
      ],
      [
        "lanır",
        -9.31647832299971
      ],
      [
        "▁amac",
        -9.316573090467642
      ],
      [
        "▁kamu",
        -9.317085325532727
      ],
      [
        "▁aktarmalı",
        -9.318040892726971
      ],
      [
        "mda",
        -9.318691824601787
      ],
      [
        "▁to",
        -9.319573091837949
      ],
      [
        "▁diz",
        -9.319839604309902
      ],
      [
        "▁deli",
        -9.320001072385391
      ],
      [
        "▁beyle",
        -9.32019066657369
      ],
      [
        "▁dizi",
        -9.32021869231868
      ],
      [
        "▁cicek",
        -9.320382845969851
      ],
      [
        "▁karsiligi",
        -9.320719280543802
      ],
      [
        "▁sayı",
        -9.321234045559372
      ],
      [
        "▁doga",
        -9.322858629702111
      ],
      [
        "▁gok",
        -9.323804403872046
      ],
      [
        "▁go",
        -9.324736165735754
      ],
      [
        "▁seker",
        -9.326592390913039
      ],
      [
        "▁elektrik",
        -9.327144416194876
      ],
      [
        "▁mustafa",
        -9.327144454308378
      ],
      [
        "▁mucadele",
        -9.327144461345645
      ],
      [
        "▁kapalı",
        -9.327232469831223
      ],
      [
        "ist",
        -9.327848466052682
      ],
      [
        "▁cleveland'",
        -9.328666863774078
      ],
      [
        "▁$'",
        -9.329172369677437
      ],
      [
        "▁yakin",
        -9.329628579310281
      ],
      [
        "▁hakkı",
        -9.33027269023203
      ],
      [
        "muyor",
        -9.331320419654698
      ],
      [
        "▁hay",
        -9.332068101802413
      ],
      [
        "▁grup",
        -9.335744661262451
      ],
      [
        "▁sınır",
        -9.336371607634316
      ],
      [
        "▁araya",
        -9.337693296579042
      ],
      [
        "▁usta",
        -9.33819652434772
      ],
      [
        "▁muhtemel",
        -9.339192610086773
      ],
      [
        "▁sigara",
        -9.33919481941617
      ],
      [
        "▁motor",
        -9.33946737463867
      ],
      [
        "amadı",
        -9.339603147481256
      ],
      [
        "▁sent",
        -9.341284538451879
      ],
      [
        "▁deprem",
        -9.341723347804665
      ],
      [
        "▁varsa",
        -9.34209988354289
      ],
      [
        "▁kullanıl",
        -9.343685387020155
      ],
      [
        "▁ekledi",
        -9.344225800627086
      ],
      [
        "▁bakıs",
        -9.345113602342423
      ],
      [
        "ot",
        -9.34555773944346
      ],
      [
        "▁kultur",
        -9.345839717077979
      ],
      [
        "▁ayrılı",
        -9.346504975031827
      ],
      [
        "lup",
        -9.347548909431694
      ],
      [
        "▁dusundu",
        -9.34874571021496
      ],
      [
        "▁ingiliz",
        -9.349249765795633
      ],
      [
        "▁kent",
        -9.350713828291497
      ],
      [
        "▁guney",
        -9.350733184389844
      ],
      [
        "▁27",
        -9.351232160482143
      ],
      [
        "▁sikinti",
        -9.35138804006324
      ],
      [
        "▁misafirimiz",
        -9.351584627470219
      ],
      [
        "▁gezi",
        -9.352096207732657
      ],
      [
        "▁perde",
        -9.352903911967925
      ],
      [
        "▁bakan",
        -9.35316740243435
      ],
      [
        "▁verilen",
        -9.353175500920175
      ],
      [
        "▁uza",
        -9.353584818868107
      ],
      [
        "▁ot",
        -9.3547024268727
      ],
      [
        "▁oteldi",
        -9.355321685854612
      ],
      [
        "▁indi",
        -9.356324541712716
      ],
      [
        "▁basarı",
        -9.356723349840408
      ],
      [
        "▁oy",
        -9.357560094823647
      ],
      [
        "▁tahviller",
        -9.357701853204258
      ],
      [
        "▁22",
        -9.35814203309703
      ],
      [
        "▁arkasında",
        -9.359107734722375
      ],
      [
        "▁ge",
        -9.35951038256422
      ],
      [
        "muz",
        -9.361622762405936
      ],
      [
        "▁elini",
        -9.362216175809346
      ],
      [
        "▁efendi",
        -9.362781717087387
      ],
      [
        "▁sosyal",
        -9.363557220107243
      ],
      [
        "▁fotograf",
        -9.363733467030388
      ],
      [
        "▁manzara",
        -9.363734663798146
      ],
      [
        "▁zamanlar",
        -9.36404666317059
      ],
      [
        "▁golge",
        -9.364419091405063
      ],
      [
        "▁washington'da",
        -9.364807345831352
      ],
      [
        "▁sizin",
        -9.364874415230652
      ],
      [
        "▁gecir",
        -9.364984702895342
      ],
      [
        ".1",
        -9.365661458396763
      ],
      [
        "▁olum",
        -9.365689626513163
      ],
      [
        "▁satısları",
        -9.365724200889716
      ],
      [
        "▁davran",
        -9.366459145156782
      ],
      [
        "▁fayda",
        -9.36700406812908
      ],
      [
        "▁istedi",
        -9.368662992086204
      ],
      [
        "ret",
        -9.368919679783513
      ],
      [
        "▁asla",
        -9.369616011528123
      ],
      [
        "mıslar",
        -9.37026431466575
      ],
      [
        "▁isti",
        -9.370625485903778
      ],
      [
        "▁sunu",
        -9.372299884001132
      ],
      [
        "dugunu",
        -9.372330784409247
      ],
      [
        "rdı",
        -9.372656152484417
      ],
      [
        "▁sorunu",
        -9.3735441073108
      ],
      [
        "▁tarihi",
        -9.374021819959765
      ],
      [
        "ad",
        -9.374887830557947
      ],
      [
        "▁magaza",
        -9.376233453301268
      ],
      [
        "▁zevk",
        -9.376233943684735
      ],
      [
        "▁ziyaret",
        -9.376263059229174
      ],
      [
        "▁elbet",
        -9.376271517553274
      ],
      [
        "▁dow",
        -9.376738002362574
      ],
      [
        "▁hayır",
        -9.376813250110228
      ],
      [
        "▁tartısma",
        -9.37699244008748
      ],
      [
        "▁ucusların",
        -9.377122441184321
      ],
      [
        "▁test",
        -9.377339744060805
      ],
      [
        "▁asırı",
        -9.379135215320229
      ],
      [
        "▁fort",
        -9.380280903494445
      ],
      [
        "lamıs",
        -9.38141767381677
      ],
      [
        "▁ihtiyac",
        -9.381545201025505
      ],
      [
        "▁elleri",
        -9.382757495755406
      ],
      [
        ".8",
        -9.383944409639959
      ],
      [
        "▁par",
        -9.384217565540947
      ],
      [
        "▁urunleri",
        -9.384295668784151
      ],
      [
        "▁temmuz",
        -9.384489414522294
      ],
      [
        "▁girme",
        -9.38460718879389
      ],
      [
        "▁olay",
        -9.384879795347556
      ],
      [
        "ris",
        -9.385162092645096
      ],
      [
        "▁dısı",
        -9.386289175578558
      ],
      [
        "▁so",
        -9.388347804176185
      ],
      [
        "▁wall",
        -9.388894121072067
      ],
      [
        "▁jones",
        -9.38889582318448
      ],
      [
        "▁ornek",
        -9.388926352330541
      ],
      [
        "▁bayram",
        -9.389140864329768
      ],
      [
        "▁cocugu",
        -9.389326433640973
      ],
      [
        "▁edip",
        -9.389670341594975
      ],
      [
        "▁insaat",
        -9.389689742317064
      ],
      [
        "▁git",
        -9.390313569060941
      ],
      [
        "▁3.",
        -9.390406256205742
      ],
      [
        "▁istifa",
        -9.390896618848743
      ],
      [
        "▁yalan",
        -9.391134491793565
      ],
      [
        "▁yılı",
        -9.391616024297175
      ],
      [
        "▁oku",
        -9.391895239405738
      ],
      [
        "▁bilmiyoru",
        -9.392240361134292
      ],
      [
        "▁fi",
        -9.393605005848748
      ],
      [
        "▁sav",
        -9.393708027892318
      ],
      [
        "▁40",
        -9.393959387093204
      ],
      [
        "▁tepe",
        -9.394249459315521
      ],
      [
        "▁yuksekti",
        -9.394295205330383
      ],
      [
        "a'nın",
        -9.396876774306282
      ],
      [
        "lugunu",
        -9.397138468807837
      ],
      [
        "meyecek",
        -9.397568355350344
      ],
      [
        "aj",
        -9.397686253736829
      ],
      [
        "▁super",
        -9.398349610510571
      ],
      [
        "▁durdu",
        -9.399103711966731
      ],
      [
        "▁kalkı",
        -9.399190376107066
      ],
      [
        "▁havayolu",
        -9.39980010189016
      ],
      [
        "cıları",
        -9.400476744725427
      ],
      [
        "▁teklifi",
        -9.400743259146704
      ],
      [
        "cuk",
        -9.400767404144517
      ],
      [
        "▁televizyon",
        -9.401712148171649
      ],
      [
        "▁strateji",
        -9.40171215816606
      ],
      [
        "▁operasyon",
        -9.401737780565881
      ],
      [
        "▁orlando'",
        -9.402061829539988
      ],
      [
        "▁oyku",
        -9.402360411623238
      ],
      [
        "▁hacmi",
        -9.402499608109164
      ],
      [
        "ediyorum",
        -9.402681044257168
      ],
      [
        "▁sirketler",
        -9.403356214901546
      ],
      [
        "▁yeri",
        -9.403550861090487
      ],
      [
        "if",
        -9.403728013372227
      ],
      [
        "▁tesekkurler",
        -9.404505411636471
      ],
      [
        "▁basarılı",
        -9.404589737055375
      ],
      [
        "▁gor",
        -9.407395587037009
      ],
      [
        "▁spor",
        -9.40745633861664
      ],
      [
        "▁tutar",
        -9.408814597846623
      ],
      [
        "▁seattle'",
        -9.40895823750008
      ],
      [
        "▁cıkıyor",
        -9.409632831331653
      ],
      [
        "▁philadelphia",
        -9.409959245086442
      ],
      [
        "gimiz",
        -9.410396488357872
      ],
      [
        "▁balık",
        -9.410922565787553
      ],
      [
        "▁bakıyor",
        -9.411162286478984
      ],
      [
        "mizde",
        -9.41128817847195
      ],
      [
        "▁kaya",
        -9.411666255089388
      ],
      [
        "▁giy",
        -9.412299708003616
      ],
      [
        "▁yardımcısı",
        -9.414488307643415
      ],
      [
        "▁enerji",
        -9.414701189879711
      ],
      [
        "▁laf",
        -9.415014576311357
      ],
      [
        "▁guleryuzluydu",
        -9.415201310322836
      ],
      [
        "larımızı",
        -9.415926317434185
      ],
      [
        "▁ber",
        -9.416633051605057
      ],
      [
        "▁miami'",
        -9.416960897236677
      ],
      [
        "▁milwaukee'",
        -9.417306881468594
      ],
      [
        "oz",
        -9.418021634605518
      ],
      [
        "▁saygı",
        -9.418550108174255
      ],
      [
        "▁yasama",
        -9.418780416036409
      ],
      [
        "▁universite",
        -9.41931670285328
      ],
      [
        "▁uretim",
        -9.419503562920944
      ],
      [
        "▁sinir",
        -9.42006285219171
      ],
      [
        "▁not",
        -9.420253805611598
      ],
      [
        "▁istanbul",
        -9.421062940464507
      ],
      [
        "▁fabrika",
        -9.421813610267357
      ],
      [
        "▁fer",
        -9.423501909838937
      ],
      [
        "▁icme",
        -9.424046702871362
      ],
      [
        "▁heyecan",
        -9.424196556634836
      ],
      [
        "dugu",
        -9.424327480311732
      ],
      [
        "▁tiyatro",
        -9.425053405556515
      ],
      [
        "▁isler",
        -9.42635549080845
      ],
      [
        "▁doları'n",
        -9.426477660356706
      ],
      [
        "▁dc'",
        -9.426737828168434
      ],
      [
        "▁konuda",
        -9.427041631348157
      ],
      [
        "▁koku",
        -9.427251198759777
      ],
      [
        "▁eglence",
        -9.427384807834791
      ],
      [
        "▁yagmur",
        -9.427865695388112
      ],
      [
        "▁vakit",
        -9.42787307698422
      ],
      [
        "▁takip",
        -9.428770105573815
      ],
      [
        "ımız",
        -9.429256558860184
      ],
      [
        "▁16",
        -9.43060594096
      ],
      [
        "▁askeri",
        -9.43173306059251
      ],
      [
        "acagım",
        -9.432201335529873
      ],
      [
        "▁toplantı",
        -9.433029801872255
      ],
      [
        "▁bekleniyor",
        -9.433877112771079
      ],
      [
        "▁yerel",
        -9.43421949947794
      ],
      [
        "▁park",
        -9.434337370917238
      ],
      [
        "▁sistem",
        -9.435120733619556
      ],
      [
        "dılar",
        -9.436519107452636
      ],
      [
        "▁cıkma",
        -9.436939522171006
      ],
      [
        "▁getirdi",
        -9.437074290537524
      ],
      [
        "▁rezervasyon",
        -9.437357295165487
      ],
      [
        "▁saglam",
        -9.439831413744624
      ],
      [
        "▁olası",
        -9.440450627478608
      ],
      [
        "▁goruyor",
        -9.440884418936665
      ],
      [
        "▁1989",
        -9.441190668980234
      ],
      [
        "▁mahalle",
        -9.441191739742335
      ],
      [
        "▁sam",
        -9.441418011985675
      ],
      [
        "▁itibaren",
        -9.44200086607578
      ],
      [
        "▁karı",
        -9.442539195654149
      ],
      [
        "▁ilan",
        -9.442876147581709
      ],
      [
        "▁kalem",
        -9.443044460935967
      ],
      [
        "▁sanayi",
        -9.44328791579802
      ],
      [
        "▁cat",
        -9.443746593652772
      ],
      [
        "▁agac",
        -9.444083451377587
      ],
      [
        "▁girisim",
        -9.44494614221167
      ],
      [
        "▁yat",
        -9.445289867671486
      ],
      [
        "▁gereken",
        -9.44533261209873
      ],
      [
        "▁karsılık",
        -9.445640318498548
      ],
      [
        "▁roman",
        -9.446476845155352
      ],
      [
        "▁kırk",
        -9.446568697059831
      ],
      [
        "▁normal",
        -9.446604189262743
      ],
      [
        "▁eylem",
        -9.446852730013315
      ],
      [
        "▁alaka",
        -9.4472519186705
      ],
      [
        "▁sebep",
        -9.447408167142775
      ],
      [
        "▁kumas",
        -9.447644662179044
      ],
      [
        "▁veril",
        -9.44781769523408
      ],
      [
        "▁mart",
        -9.447953014936477
      ],
      [
        "elim",
        -9.448974622119499
      ],
      [
        "▁ayni",
        -9.44897824889114
      ],
      [
        "▁geldigi",
        -9.44987073634239
      ],
      [
        "▁kuvvet",
        -9.450439419442818
      ],
      [
        "▁seviyesin",
        -9.45049653492561
      ],
      [
        "▁endeks",
        -9.450576267030643
      ],
      [
        "▁hele",
        -9.45060186104869
      ],
      [
        "▁rekabet",
        -9.45470390848035
      ],
      [
        "▁kurumsal",
        -9.454791654629506
      ],
      [
        "▁aktif",
        -9.454991490789524
      ],
      [
        "▁komsu",
        -9.455174329133268
      ],
      [
        "▁gunku",
        -9.455298815179015
      ],
      [
        "▁siddet",
        -9.455654665322406
      ],
      [
        "▁vermis",
        -9.45620987930794
      ],
      [
        "▁dogal",
        -9.45662063056552
      ],
      [
        "▁tarla",
        -9.456970894499275
      ],
      [
        "▁hata",
        -9.457058753686116
      ],
      [
        "▁deneme",
        -9.45747035775577
      ],
      [
        "▁tası",
        -9.457672685220007
      ],
      [
        "▁bolum",
        -9.45839005077891
      ],
      [
        "▁sektor",
        -9.458768394538565
      ],
      [
        "'yi",
        -9.459807453564501
      ],
      [
        "▁ask",
        -9.461010073699509
      ],
      [
        "▁yapti",
        -9.46154165516873
      ],
      [
        "▁doldur",
        -9.462099831991061
      ],
      [
        "▁bildirdi",
        -9.464526556050092
      ],
      [
        "▁hizmetleri",
        -9.466019664388112
      ],
      [
        "▁giris",
        -9.466716475782306
      ],
      [
        "▁mukemmeldi",
        -9.467174667056732
      ],
      [
        "▁koyun",
        -9.467329788600104
      ],
      [
        "▁babası",
        -9.467336399688254
      ],
      [
        "▁katı",
        -9.467689926297467
      ],
      [
        "▁yaptirmadi",
        -9.468403287467975
      ],
      [
        "▁general",
        -9.468424254862212
      ],
      [
        "▁koydu",
        -9.468713685470979
      ],
      [
        "▁yiyecekler",
        -9.469877517354288
      ],
      [
        "meli",
        -9.470034913416285
      ],
      [
        "▁arama",
        -9.4701575620769
      ],
      [
        "▁memphis'",
        -9.4703961943193
      ],
      [
        "▁ilgisi",
        -9.470590220206553
      ],
      [
        "▁calisanlar",
        -9.470650021539129
      ],
      [
        "▁soyler",
        -9.471484632141642
      ],
      [
        "▁konus",
        -9.471608210717989
      ],
      [
        "cılık",
        -9.471992560661644
      ],
      [
        "▁isten",
        -9.472044238805893
      ],
      [
        "▁eksik",
        -9.472165815840498
      ],
      [
        "▁programı",
        -9.472549282403893
      ],
      [
        "▁city'de",
        -9.472748817784751
      ],
      [
        "cagız",
        -9.47346243867307
      ],
      [
        "▁ho",
        -9.473890838579116
      ],
      [
        "▁ısı",
        -9.47394501217891
      ],
      [
        "▁duygu",
        -9.474049167223393
      ],
      [
        "bire",
        -9.475358735691072
      ],
      [
        "lasma",
        -9.476738069333
      ],
      [
        "ize",
        -9.47735265718564
      ],
      [
        "▁bog",
        -9.477796831814256
      ],
      [
        "▁gunleri",
        -9.478520741091053
      ],
      [
        "▁sonu",
        -9.479096217286695
      ],
      [
        "ımı",
        -9.479109234879106
      ],
      [
        "▁yogun",
        -9.481968084819671
      ],
      [
        "▁yurt",
        -9.482187199686607
      ],
      [
        "▁ornegin",
        -9.482295958925821
      ],
      [
        "▁sabit",
        -9.482296831362294
      ],
      [
        "▁yukarı",
        -9.484005574899601
      ],
      [
        "▁kapat",
        -9.485080770857426
      ],
      [
        "manın",
        -9.486745880157654
      ],
      [
        "emez",
        -9.487841749656901
      ],
      [
        "▁tutun",
        -9.488421734678013
      ],
      [
        "gına",
        -9.488795193442773
      ],
      [
        "▁eser",
        -9.48983019354727
      ],
      [
        "▁ugras",
        -9.490658806419997
      ],
      [
        "▁ets",
        -9.491037077856447
      ],
      [
        "lıyordu",
        -9.491410780440571
      ],
      [
        "▁ettigini",
        -9.492149947832184
      ],
      [
        "▁yargı",
        -9.492437927553922
      ],
      [
        "▁uygulama",
        -9.493646478296546
      ],
      [
        "▁gotur",
        -9.493757400120106
      ],
      [
        "▁sis",
        -9.493945006943918
      ],
      [
        "▁odamiz",
        -9.494020110357777
      ],
      [
        "▁milwaukee'de",
        -9.494205547585622
      ],
      [
        "▁uye",
        -9.494964899979191
      ],
      [
        "▁isci",
        -9.495172308141122
      ],
      [
        "▁kalma",
        -9.495278954531317
      ],
      [
        "▁bakım",
        -9.496083763150114
      ],
      [
        "▁tuketici",
        -9.496417055283219
      ],
      [
        "▁kopek",
        -9.496431607444855
      ],
      [
        "▁bekleme",
        -9.496627153278066
      ],
      [
        "▁26",
        -9.49670282396913
      ],
      [
        "▁hepsini",
        -9.496871178195363
      ],
      [
        "▁uzerindeki",
        -9.496915133529594
      ],
      [
        "▁cag",
        -9.496921495788552
      ],
      [
        "▁saray",
        -9.497609699907795
      ],
      [
        "▁gol",
        -9.497619589777003
      ],
      [
        "▁aksamı",
        -9.49805281073224
      ],
      [
        "▁baslar",
        -9.498983332375417
      ],
      [
        "▁vegas'",
        -9.499579560993524
      ],
      [
        "▁buz",
        -9.500320452421246
      ],
      [
        "▁cana",
        -9.501435922279445
      ],
      [
        "▁gecer",
        -9.502016799026416
      ],
      [
        "▁gelisme",
        -9.50249821407845
      ],
      [
        "▁kalkıyor",
        -9.502716965816557
      ],
      [
        "▁tır",
        -9.503037623545143
      ],
      [
        "▁bulmak",
        -9.503319940421864
      ],
      [
        "▁kalın",
        -9.503724780425928
      ],
      [
        "▁bekle",
        -9.504177042702054
      ],
      [
        "▁almıs",
        -9.504201130200212
      ],
      [
        "lemek",
        -9.505017836131133
      ],
      [
        "▁rus",
        -9.50530613096649
      ],
      [
        "▁fiyatlarını",
        -9.50553678538442
      ],
      [
        "umuz",
        -9.506672524021834
      ],
      [
        "ger",
        -9.507042380891047
      ],
      [
        "▁yapmaya",
        -9.507883625497659
      ],
      [
        "▁agzı",
        -9.508328330454848
      ],
      [
        "▁ote",
        -9.5084442948387
      ],
      [
        "yiz",
        -9.509944382386944
      ],
      [
        "▁muhtesem",
        -9.51066169001869
      ],
      [
        "▁elbise",
        -9.510666024388783
      ],
      [
        "▁vakti",
        -9.510720782535376
      ],
      [
        "▁hi",
        -9.511669975921752
      ],
      [
        "▁sergi",
        -9.51208873643671
      ],
      [
        "▁adina",
        -9.512610648293396
      ],
      [
        "▁rengi",
        -9.513544447911649
      ],
      [
        "▁mor",
        -9.516543247926958
      ],
      [
        "▁alabilir",
        -9.516573408954319
      ],
      [
        "▁tık",
        -9.517067760542755
      ],
      [
        "lenen",
        -9.517214316685685
      ],
      [
        "▁bank",
        -9.517638949309895
      ],
      [
        "▁bulundugu",
        -9.518746392900868
      ],
      [
        "▁sıkıntı",
        -9.518820007268282
      ],
      [
        "cilik",
        -9.518989195149771
      ],
      [
        "▁yola",
        -9.519698842895956
      ],
      [
        "ry",
        -9.520516685473083
      ],
      [
        "▁saha",
        -9.52249112437713
      ],
      [
        "▁ettik",
        -9.523025631236633
      ],
      [
        "▁sistemi",
        -9.524207791250593
      ],
      [
        "ilme",
        -9.524317459616697
      ],
      [
        "bası",
        -9.524397673395871
      ],
      [
        "▁ayır",
        -9.524523218727616
      ],
      [
        "▁yasıyor",
        -9.525148714832014
      ],
      [
        "sizlik",
        -9.525658732587786
      ],
      [
        "▁hamam",
        -9.525701909308715
      ],
      [
        "▁taze",
        -9.525826684741043
      ],
      [
        "▁gucu",
        -9.52582999083868
      ],
      [
        "▁mudur",
        -9.525832775632896
      ],
      [
        "▁ayna",
        -9.526883253830036
      ],
      [
        "▁tahvilleri",
        -9.527026265452392
      ],
      [
        "▁durma",
        -9.52721587769021
      ],
      [
        "▁saf",
        -9.527552004973934
      ],
      [
        "▁sokak",
        -9.527671073287546
      ],
      [
        "▁uyku",
        -9.52924850350663
      ],
      [
        "ime",
        -9.52942618761799
      ],
      [
        "▁cıkı",
        -9.529780713613347
      ],
      [
        "id",
        -9.530927735940335
      ],
      [
        "▁dokuz",
        -9.531366094770355
      ],
      [
        "▁ada",
        -9.531498429725056
      ],
      [
        "▁ton",
        -9.531677168551923
      ],
      [
        "▁kalp",
        -9.532548708743946
      ],
      [
        "▁azal",
        -9.533836831730897
      ],
      [
        "▁dagıt",
        -9.534037425889458
      ],
      [
        "▁street",
        -9.534152466740029
      ],
      [
        "▁kendisin",
        -9.534211829675144
      ],
      [
        "lerimiz",
        -9.534237420177934
      ],
      [
        "▁herkesin",
        -9.534645617799265
      ],
      [
        "▁ordu",
        -9.534777986947429
      ],
      [
        "leniyor",
        -9.53529543371837
      ],
      [
        "▁haziran",
        -9.536071831573182
      ],
      [
        "▁neredey",
        -9.536188114361089
      ],
      [
        "▁tarafı",
        -9.537535474221439
      ],
      [
        "▁belirtti",
        -9.537710360113245
      ],
      [
        "▁cıkarma",
        -9.53848996228622
      ],
      [
        "tar",
        -9.538689143554759
      ],
      [
        "altı",
        -9.539213178349083
      ],
      [
        "▁donme",
        -9.53969502764808
      ],
      [
        "*",
        -9.539860278992258
      ],
      [
        "▁yildiz",
        -9.539866400292748
      ],
      [
        "▁telefonla",
        -9.53988754692749
      ],
      [
        "les",
        -9.53998669391618
      ],
      [
        "▁cizgi",
        -9.540332130387487
      ],
      [
        "▁muduru",
        -9.541788138264028
      ],
      [
        "▁memur",
        -9.543201114667136
      ],
      [
        "▁etmedi",
        -9.544561545132748
      ],
      [
        "nızı",
        -9.544829241402882
      ],
      [
        "▁kirli",
        -9.545121371644825
      ],
      [
        "▁kendimi",
        -9.54534036144554
      ],
      [
        "ıyorlar",
        -9.546347536522212
      ],
      [
        "▁dunyada",
        -9.548804178174228
      ],
      [
        "▁hedef",
        -9.548860466769515
      ],
      [
        "▁hayvan",
        -9.550845438020474
      ],
      [
        "▁tesiste",
        -9.551072568812696
      ],
      [
        "ell",
        -9.551461614002235
      ],
      [
        "▁gelme",
        -9.55164304282275
      ],
      [
        "▁sacları",
        -9.552417936787688
      ],
      [
        "▁anlattı",
        -9.552596992390107
      ],
      [
        "▁sonraki",
        -9.552627341932297
      ],
      [
        "▁duz",
        -9.553619320338743
      ],
      [
        "▁personellerin",
        -9.553876402334804
      ],
      [
        "▁hangisi",
        -9.55459250533177
      ],
      [
        "▁tabi",
        -9.55463179339647
      ],
      [
        "▁tezgah",
        -9.55478588808215
      ],
      [
        "▁ideal",
        -9.554786434815394
      ],
      [
        "▁nefes",
        -9.55482297666638
      ],
      [
        "▁olacagı",
        -9.555068341046969
      ],
      [
        "▁konforlu",
        -9.555240073503183
      ],
      [
        "▁agız",
        -9.555362881832599
      ],
      [
        "▁cozum",
        -9.555603361719859
      ],
      [
        "▁seviye",
        -9.55576327916379
      ],
      [
        "▁olumlu",
        -9.556162300888255
      ],
      [
        "▁ayagı",
        -9.55643768748498
      ],
      [
        "▁geli",
        -9.557345923179064
      ],
      [
        "▁polis",
        -9.558441932179733
      ],
      [
        "dık",
        -9.558737413519044
      ],
      [
        "▁gur",
        -9.559188041188122
      ],
      [
        "lıkla",
        -9.559705053916154
      ],
      [
        "▁ikisi",
        -9.560320067332153
      ],
      [
        "▁sair",
        -9.560430227302398
      ],
      [
        "000",
        -9.561282504099365
      ],
      [
        "▁gerekir",
        -9.561746032863896
      ],
      [
        "west",
        -9.562915681675173
      ],
      [
        "tti",
        -9.563694730232001
      ],
      [
        "▁peki",
        -9.56442289390569
      ],
      [
        "▁aklı",
        -9.565016241455577
      ],
      [
        "▁31",
        -9.565185953995815
      ],
      [
        "gım",
        -9.566221957637724
      ],
      [
        "▁erkekler",
        -9.567298144340981
      ],
      [
        "▁uzman",
        -9.567354661659579
      ],
      [
        "▁ez",
        -9.56776606849281
      ],
      [
        "alıp",
        -9.568426812538549
      ],
      [
        "▁biliyor",
        -9.56873348691898
      ],
      [
        "▁bırakma",
        -9.5687509302061
      ],
      [
        "▁1988",
        -9.56935650538475
      ],
      [
        "▁asker",
        -9.569875494266991
      ],
      [
        "▁tren",
        -9.569942089290159
      ],
      [
        "▁sizi",
        -9.569976193876432
      ],
      [
        "▁kayıt",
        -9.56997937112007
      ],
      [
        "▁barıs",
        -9.570554196842632
      ],
      [
        "▁butce",
        -9.570634165668494
      ],
      [
        "▁oakland",
        -9.571293094918488
      ],
      [
        "▁kalmıs",
        -9.572183639131882
      ],
      [
        "▁seviyesinde",
        -9.573082027179481
      ],
      [
        "sak",
        -9.57332428902496
      ],
      [
        "▁degis",
        -9.573358991236852
      ],
      [
        "▁duydu",
        -9.573612400304356
      ],
      [
        "▁ruh",
        -9.573725067214788
      ],
      [
        "▁duman",
        -9.573777340613088
      ],
      [
        "▁sir",
        -9.574402541613377
      ],
      [
        "▁alacak",
        -9.574599459440009
      ],
      [
        "layacak",
        -9.575839760908938
      ],
      [
        "▁chicago'",
        -9.575959882620143
      ],
      [
        "▁oteki",
        -9.576030229026873
      ],
      [
        "▁yetis",
        -9.57603201606856
      ],
      [
        "▁ofis",
        -9.576296549553662
      ],
      [
        "▁lu",
        -9.576831135644746
      ],
      [
        "▁yuk",
        -9.576901592677789
      ],
      [
        "▁dostu",
        -9.577589300621595
      ],
      [
        "▁fu",
        -9.578166157460085
      ],
      [
        "▁insa",
        -9.579159831489672
      ],
      [
        "▁ucretin",
        -9.579421341356667
      ],
      [
        "▁piyasası",
        -9.579523482262957
      ],
      [
        "▁istedigi",
        -9.580264298301923
      ],
      [
        "▁ceki",
        -9.580326510528923
      ],
      [
        "mayacagı",
        -9.580768704711463
      ],
      [
        "▁af",
        -9.581264936698078
      ],
      [
        "lıgında",
        -9.583003452377685
      ],
      [
        "▁bulunma",
        -9.583061823131214
      ],
      [
        "▁baltimore",
        -9.58345271013142
      ],
      [
        "▁sır",
        -9.58365849482307
      ],
      [
        "▁kalkıs",
        -9.583822838013667
      ],
      [
        "▁orman",
        -9.584836146658091
      ],
      [
        "▁umut",
        -9.58500646966711
      ],
      [
        "▁senetleri",
        -9.585295362414138
      ],
      [
        "▁uluslararası",
        -9.585321849040586
      ],
      [
        "▁pilot",
        -9.585328462531937
      ],
      [
        "▁tepki",
        -9.58534508596988
      ],
      [
        "▁cap",
        -9.585724231120427
      ],
      [
        "▁davranıs",
        -9.586007380731301
      ],
      [
        "biliyor",
        -9.586111314482178
      ],
      [
        "▁cekme",
        -9.586402451022987
      ],
      [
        "▁kart",
        -9.587589374228806
      ],
      [
        "▁sahi",
        -9.587991925345104
      ],
      [
        "▁oray",
        -9.588085209648385
      ],
      [
        "▁diego'",
        -9.588902248358867
      ],
      [
        "▁gosteri",
        -9.58940421794429
      ],
      [
        "▁fon",
        -9.590987155252584
      ],
      [
        "▁karıstı",
        -9.59110074737979
      ],
      [
        "bilecegi",
        -9.591317434846795
      ],
      [
        "▁kum",
        -9.591840597943072
      ],
      [
        "▁ima",
        -9.591863541967008
      ],
      [
        "▁odada",
        -9.591933225878591
      ],
      [
        "▁gorur",
        -9.592061752875022
      ],
      [
        "▁donemde",
        -9.592192263037763
      ],
      [
        "▁duyu",
        -9.592769829357753
      ],
      [
        "▁ceyrekte",
        -9.593047295263517
      ],
      [
        "dikleri",
        -9.59331962256115
      ],
      [
        "▁kısmı",
        -9.593420012600209
      ],
      [
        "▁tutul",
        -9.593514252688754
      ],
      [
        "▁beklenti",
        -9.595745477351237
      ],
      [
        "▁canlı",
        -9.5961275490442
      ],
      [
        "▁olacaktı",
        -9.596654790185978
      ],
      [
        "evet",
        -9.59833608834304
      ],
      [
        "▁yar",
        -9.600398702447537
      ],
      [
        "▁mini",
        -9.600524990162949
      ],
      [
        "▁liste",
        -9.600676251153388
      ],
      [
        "▁bagır",
        -9.60084714417653
      ],
      [
        "▁siparis",
        -9.600946828299357
      ],
      [
        "▁delikanlı",
        -9.600947657590655
      ],
      [
        "▁zayif",
        -9.600948335084421
      ],
      [
        "▁ayakkabı",
        -9.600948482381563
      ],
      [
        "▁fikri",
        -9.600973277123344
      ],
      [
        "▁karısı",
        -9.60162602998745
      ],
      [
        "▁kisisel",
        -9.602281279636971
      ],
      [
        "▁ruya",
        -9.603273157858212
      ],
      [
        "▁bat",
        -9.603438570194344
      ],
      [
        "▁havayollarını",
        -9.603901163109672
      ],
      [
        "▁hamle",
        -9.605139091538803
      ],
      [
        "▁corba",
        -9.605249036220894
      ],
      [
        "▁no",
        -9.606304548806584
      ],
      [
        "▁yerini",
        -9.607709324719739
      ],
      [
        "▁turkiye'de",
        -9.609526527462943
      ],
      [
        "▁planı",
        -9.6095343326768
      ],
      [
        "▁parmak",
        -9.610009695485706
      ],
      [
        "'yı",
        -9.610156746315841
      ],
      [
        "▁normaldi",
        -9.610428945897922
      ],
      [
        "▁kale",
        -9.61056688313079
      ],
      [
        "▁zamanı",
        -9.610701990692956
      ],
      [
        "likte",
        -9.611094173030141
      ],
      [
        "▁geciyor",
        -9.612921821312447
      ],
      [
        "▁aracı",
        -9.613740347000643
      ],
      [
        "▁personelin",
        -9.613803719853902
      ],
      [
        "▁guvenlik",
        -9.613964355783535
      ],
      [
        "▁alman",
        -9.615125072956104
      ],
      [
        "▁agrı",
        -9.615548375632777
      ],
      [
        "▁gonul",
        -9.615731607717855
      ],
      [
        "▁sor",
        -9.616363282536323
      ],
      [
        "▁aktar",
        -9.616475202713113
      ],
      [
        "lendirme",
        -9.616839091941483
      ],
      [
        "▁teslim",
        -9.616848316314723
      ],
      [
        "▁siyasi",
        -9.616850968701325
      ],
      [
        "▁cumle",
        -9.616859058110572
      ],
      [
        "▁carpı",
        -9.617404626806266
      ],
      [
        "▁onay",
        -9.617468707322757
      ],
      [
        "▁lezzeti",
        -9.617769420974602
      ],
      [
        "▁nere",
        -9.617933968423888
      ],
      [
        "▁otuz",
        -9.618023510093344
      ],
      [
        "▁cep",
        -9.618085047716864
      ],
      [
        "▁radyo",
        -9.618285821740406
      ],
      [
        "▁karanlık",
        -9.61842205385908
      ],
      [
        "▁gelin",
        -9.618786919749535
      ],
      [
        "▁devir",
        -9.619181297357478
      ],
      [
        "▁verim",
        -9.61925602773712
      ],
      [
        "▁kalktı",
        -9.619723151557373
      ],
      [
        "▁0",
        -9.62033364673016
      ],
      [
        "▁rast",
        -9.621242308465543
      ],
      [
        "var",
        -9.621597228997544
      ],
      [
        "▁sevgili",
        -9.621937396508335
      ],
      [
        "▁yazma",
        -9.62212809757354
      ],
      [
        "▁dolayı",
        -9.62223216108481
      ],
      [
        "▁dok",
        -9.623071582042787
      ],
      [
        "▁tok",
        -9.623271347678948
      ],
      [
        "▁allah",
        -9.62425938509955
      ],
      [
        "▁kutu",
        -9.624411403156703
      ],
      [
        "▁care",
        -9.624548861017184
      ],
      [
        "▁marka",
        -9.624622833545352
      ],
      [
        "▁adamı",
        -9.625257914430868
      ],
      [
        "mamıs",
        -9.626582660815881
      ],
      [
        "▁bizimle",
        -9.627306927814953
      ],
      [
        "▁devri",
        -9.62732190652594
      ],
      [
        "'le",
        -9.628847324518851
      ],
      [
        "gine",
        -9.628987667489024
      ],
      [
        "▁ters",
        -9.630585174895348
      ],
      [
        "▁kuzey",
        -9.6306646870284
      ],
      [
        "▁okur",
        -9.630723978240239
      ],
      [
        "▁cocukları",
        -9.631361154306052
      ],
      [
        "▁gunler",
        -9.631776355876248
      ],
      [
        "▁indianapolis'te",
        -9.632052394007108
      ],
      [
        "iyorlar",
        -9.632386722023032
      ],
      [
        "cisi",
        -9.632496177778487
      ],
      [
        "▁kaliforniya",
        -9.632948830794334
      ],
      [
        "▁gecirdi",
        -9.633005494978136
      ],
      [
        "▁dair",
        -9.633190154595896
      ],
      [
        "▁isteyen",
        -9.633375425874785
      ],
      [
        "▁hacim",
        -9.633405341771107
      ],
      [
        "▁23",
        -9.634728748281095
      ],
      [
        "▁basit",
        -9.634822943770871
      ],
      [
        "▁yapmayı",
        -9.636386002540654
      ],
      [
        "▁odalari",
        -9.636405869393288
      ],
      [
        "▁superdi",
        -9.63728463199821
      ],
      [
        "▁sh",
        -9.637539655060834
      ],
      [
        "▁koylu",
        -9.63787398343966
      ],
      [
        "▁temmuz'da",
        -9.638599909173308
      ],
      [
        "▁avuc",
        -9.6386215420547
      ],
      [
        "cik",
        -9.63884639881512
      ],
      [
        "uldu",
        -9.639031274164187
      ],
      [
        "▁dili",
        -9.639378616414819
      ],
      [
        "lestirme",
        -9.639535682443078
      ],
      [
        "▁akıl",
        -9.639956497945862
      ],
      [
        "▁oakland'da",
        -9.640144022194278
      ],
      [
        "▁islemler",
        -9.641111677463575
      ],
      [
        "▁sart",
        -9.64136178899524
      ],
      [
        "▁bel",
        -9.642018094960381
      ],
      [
        "▁zorlu",
        -9.642418243078154
      ],
      [
        "▁cıkıs",
        -9.642896637103306
      ],
      [
        "▁yasak",
        -9.643485745069746
      ],
      [
        "▁sonucu",
        -9.64427480475188
      ],
      [
        "▁tipi",
        -9.644486158667267
      ],
      [
        "▁ogrenci",
        -9.644635495991476
      ],
      [
        "▁tar",
        -9.645675956783911
      ],
      [
        "bir",
        -9.646278819842744
      ],
      [
        "▁kut",
        -9.646377895902912
      ],
      [
        "▁urun",
        -9.646895409837537
      ],
      [
        "▁oturu",
        -9.647493909478484
      ],
      [
        "▁cil",
        -9.647756131424341
      ],
      [
        "▁imza",
        -9.648368201930811
      ],
      [
        "▁enflasyon",
        -9.649342281049565
      ],
      [
        "▁sikayet",
        -9.649342307952391
      ],
      [
        "▁merdiven",
        -9.649342452321138
      ],
      [
        "▁sofra",
        -9.649344898560459
      ],
      [
        "▁nakit",
        -9.649350092954945
      ],
      [
        "▁ekibi",
        -9.649357718360811
      ],
      [
        "▁paket",
        -9.649362405797442
      ],
      [
        "▁gittik",
        -9.649391712265546
      ],
      [
        "▁muzik",
        -9.649503181123919
      ],
      [
        "▁okuma",
        -9.650433086195756
      ],
      [
        "▁acıldı",
        -9.650556871237164
      ],
      [
        "▁tekne",
        -9.651546015151771
      ],
      [
        "▁uygundu",
        -9.652401775533022
      ],
      [
        "diler",
        -9.652432716355806
      ],
      [
        "▁savası",
        -9.653602131473953
      ],
      [
        "▁gitme",
        -9.653780303424453
      ],
      [
        "▁birligi",
        -9.654984295938375
      ],
      [
        "▁insanları",
        -9.655127219734005
      ],
      [
        "▁adamın",
        -9.65517925661735
      ],
      [
        "▁far",
        -9.655320125188803
      ],
      [
        "▁yıllarda",
        -9.656967695014394
      ],
      [
        "▁mc",
        -9.657378762565346
      ],
      [
        "50",
        -9.659697109285375
      ],
      [
        "▁konusuyor",
        -9.659713446256212
      ],
      [
        "▁hatır",
        -9.660008558837376
      ],
      [
        "▁meclis",
        -9.6606899992329
      ],
      [
        "▁parcası",
        -9.660981995309388
      ],
      [
        "▁ogretmen",
        -9.661070399950649
      ],
      [
        "likleri",
        -9.661498612246358
      ],
      [
        "▁gerekli",
        -9.661725751730522
      ],
      [
        "▁kesin",
        -9.662230572388317
      ],
      [
        "▁tah",
        -9.662478708511154
      ],
      [
        "▁kahvalti",
        -9.662712243624846
      ],
      [
        "gında",
        -9.66273857910091
      ],
      [
        "▁v",
        -9.663231337360392
      ],
      [
        "▁tehlike",
        -9.663657042627612
      ],
      [
        "▁duzey",
        -9.664510150833737
      ],
      [
        "▁bırakı",
        -9.665084315607118
      ],
      [
        "▁sorumlu",
        -9.665556599887884
      ],
      [
        "▁mektup",
        -9.666009160948173
      ],
      [
        "▁belediye",
        -9.66601193836145
      ],
      [
        "▁mutlak",
        -9.666013085148633
      ],
      [
        "▁agustos'ta",
        -9.66623255156152
      ],
      [
        "▁donu",
        -9.666260000149261
      ],
      [
        "▁takı",
        -9.666792554411366
      ],
      [
        "▁uyan",
        -9.666796561616781
      ],
      [
        "▁eg",
        -9.66703914727288
      ],
      [
        "▁kalbi",
        -9.667230536566699
      ],
      [
        "▁konut",
        -9.66802109921867
      ],
      [
        "▁yonetimi",
        -9.668104636668673
      ],
      [
        "lis",
        -9.66833458772884
      ],
      [
        "▁oysa",
        -9.668452545918246
      ],
      [
        "leyen",
        -9.668764762299265
      ],
      [
        "▁arac",
        -9.669545899017223
      ],
      [
        "evi",
        -9.669963279273256
      ],
      [
        "▁chicago'da",
        -9.670014339447432
      ],
      [
        "▁halka",
        -9.67189881850479
      ],
      [
        "abilecek",
        -9.672935308656164
      ],
      [
        "yuz",
        -9.674444843040625
      ],
      [
        "▁hayatı",
        -9.674533894873214
      ],
      [
        "▁sp",
        -9.674542041873236
      ],
      [
        "▁hayatın",
        -9.674552386403546
      ],
      [
        "▁gir",
        -9.674581872209185
      ],
      [
        "▁kenar",
        -9.675536560570357
      ],
      [
        "▁sac",
        -9.677300045953723
      ],
      [
        "▁j",
        -9.677436574454669
      ],
      [
        "▁oldugum",
        -9.677902097946896
      ],
      [
        "▁goze",
        -9.677968139704042
      ],
      [
        "▁girer",
        -9.680141272369044
      ],
      [
        "miyordu",
        -9.680498139152277
      ],
      [
        "▁bulunuyor",
        -9.680897181384108
      ],
      [
        "▁turku",
        -9.681426804495242
      ],
      [
        "▁adamları",
        -9.681547421954098
      ],
      [
        "▁calı",
        -9.682336889757597
      ],
      [
        "▁yet",
        -9.682670865076432
      ],
      [
        "▁yuregi",
        -9.682959188238065
      ],
      [
        "▁eyalet",
        -9.682960258686776
      ],
      [
        "▁kaybetti",
        -9.682963900996686
      ],
      [
        "▁sayfa",
        -9.682978531687523
      ],
      [
        "▁sendika",
        -9.683038968349697
      ],
      [
        "▁yuzyıl",
        -9.683116460276999
      ],
      [
        "▁bura",
        -9.68314041690737
      ],
      [
        "▁zamanlarda",
        -9.683781810662929
      ],
      [
        "▁hakkin",
        -9.68396552030454
      ],
      [
        "▁ataturk",
        -9.68462386002258
      ],
      [
        "▁verin",
        -9.685439822476763
      ],
      [
        "▁degerlendirme",
        -9.68557015214022
      ],
      [
        "▁belirt",
        -9.685681687068843
      ],
      [
        "▁gelince",
        -9.685687782082354
      ],
      [
        "▁am",
        -9.686009755616837
      ],
      [
        "▁boyu",
        -9.686216386515998
      ],
      [
        "▁icerisinde",
        -9.686301664593202
      ],
      [
        "▁kopu",
        -9.68631282523566
      ],
      [
        "▁degillerdi",
        -9.687882521245122
      ],
      [
        "▁gercekles",
        -9.688614405095816
      ],
      [
        "▁kurdu",
        -9.690713855655181
      ],
      [
        "▁ib",
        -9.690993385592492
      ],
      [
        "ecegim",
        -9.69187207176247
      ],
      [
        "▁kesi",
        -9.69262751502352
      ],
      [
        "▁satısı",
        -9.69279263191288
      ],
      [
        "▁karısık",
        -9.692841143900472
      ],
      [
        "▁icki",
        -9.693633441077498
      ],
      [
        "liginde",
        -9.693933845873126
      ],
      [
        "▁ardı",
        -9.693981793645799
      ],
      [
        "▁annesi",
        -9.694066817240502
      ],
      [
        "▁vurdu",
        -9.694414470861467
      ],
      [
        "▁ucretleri",
        -9.694887461203761
      ],
      [
        "▁sem",
        -9.69531523415325
      ],
      [
        "sem",
        -9.697384368719046
      ],
      [
        "▁adi",
        -9.697840883574635
      ],
      [
        "▁mana",
        -9.69794189888511
      ],
      [
        "▁gunlerde",
        -9.697951112821912
      ],
      [
        "▁arta",
        -9.698443270575137
      ],
      [
        "▁ila",
        -9.699272590539966
      ],
      [
        "lenir",
        -9.6996642731002
      ],
      [
        "▁tasarruf",
        -9.700199471969274
      ],
      [
        "▁alısveris",
        -9.700199917257983
      ],
      [
        "▁bagımsız",
        -9.700220627707296
      ],
      [
        "▁bogaz",
        -9.70023519226802
      ],
      [
        "▁uf",
        -9.700252255602807
      ],
      [
        "▁teknik",
        -9.700367671911668
      ],
      [
        "▁kopru",
        -9.700438347828975
      ],
      [
        "▁bilesik",
        -9.700517872171023
      ],
      [
        "▁garip",
        -9.700714677665786
      ],
      [
        "izm",
        -9.70123947336446
      ],
      [
        "▁iri",
        -9.70128585652366
      ],
      [
        "ınız",
        -9.701810197316163
      ],
      [
        "▁mayıs",
        -9.701889290753051
      ],
      [
        "▁amerikalı",
        -9.70227377408819
      ],
      [
        "▁edebilir",
        -9.702280856703606
      ],
      [
        "▁oyuncu",
        -9.702828331732729
      ],
      [
        "▁kusur",
        -9.703070693935707
      ],
      [
        "▁baslıyor",
        -9.70338615834362
      ],
      [
        "▁civarında",
        -9.703579756428176
      ],
      [
        "▁hisseler",
        -9.704686050016697
      ],
      [
        "▁renkli",
        -9.704765314285986
      ],
      [
        "▁saye",
        -9.704807908992958
      ],
      [
        "▁yel",
        -9.706038416389607
      ],
      [
        "▁kalır",
        -9.706350531363803
      ],
      [
        "mekte",
        -9.7064553806051
      ],
      [
        "▁hakim",
        -9.706555150489073
      ],
      [
        "▁adını",
        -9.706946396873782
      ],
      [
        "mazdı",
        -9.707822385391836
      ],
      [
        "▁dusen",
        -9.708496859038778
      ],
      [
        "sar",
        -9.709825180611652
      ],
      [
        "lerimizi",
        -9.710058067715345
      ],
      [
        "ilir",
        -9.710481353659898
      ],
      [
        "ron",
        -9.71127831690368
      ],
      [
        "▁tele",
        -9.711756159244255
      ],
      [
        "▁paylas",
        -9.71234256752454
      ],
      [
        "▁arz",
        -9.712365073017576
      ],
      [
        "▁etmekte",
        -9.71352656758961
      ],
      [
        "▁mesele",
        -9.714030914986669
      ],
      [
        "▁verecek",
        -9.714287908400372
      ],
      [
        "▁yakında",
        -9.714710498907873
      ],
      [
        "ov",
        -9.714924392941747
      ],
      [
        "yalı",
        -9.715359233134812
      ],
      [
        "▁donuyor",
        -9.71651919151262
      ],
      [
        "▁yemeklerde",
        -9.71665833341007
      ],
      [
        "▁suphe",
        -9.717124874272617
      ],
      [
        "istan",
        -9.717464974140476
      ],
      [
        "iyeti",
        -9.717496313847946
      ],
      [
        "▁restoran",
        -9.717743358626464
      ],
      [
        "▁basbakan",
        -9.7177438245739
      ],
      [
        "▁garanti",
        -9.717745111423167
      ],
      [
        "▁plaj",
        -9.717753954899933
      ],
      [
        "▁nihayet",
        -9.717762167274673
      ],
      [
        "▁kasıgı",
        -9.717946658151028
      ],
      [
        "▁anayasa",
        -9.718012756520318
      ],
      [
        "▁gunduz",
        -9.718172598213567
      ],
      [
        "▁darbe",
        -9.718560336454031
      ],
      [
        "▁kavga",
        -9.718853944974757
      ],
      [
        "▁emir",
        -9.71890590733948
      ],
      [
        "▁kese",
        -9.71915451231457
      ],
      [
        "▁uyar",
        -9.719259109523197
      ],
      [
        "▁ilgilenmedi",
        -9.720018165448039
      ],
      [
        "▁kanıt",
        -9.720157690410124
      ],
      [
        "▁per",
        -9.720357500793924
      ],
      [
        "▁piyasada",
        -9.72077606309768
      ],
      [
        "▁sas",
        -9.721171237853135
      ],
      [
        "▁kodu",
        -9.721936597998218
      ],
      [
        "▁yonet",
        -9.722219161662103
      ],
      [
        "▁tarife",
        -9.722604043069575
      ],
      [
        "▁5'te",
        -9.724039693186603
      ],
      [
        "▁dev",
        -9.724040068481962
      ],
      [
        "▁arkadasları",
        -9.72466198798765
      ],
      [
        "▁cagrı",
        -9.725824607672536
      ],
      [
        "▁basar",
        -9.726533490215417
      ],
      [
        "▁dususle",
        -9.72797955895591
      ],
      [
        "▁sayısı",
        -9.728047906077512
      ],
      [
        "30",
        -9.728423341850405
      ],
      [
        "▁abd'",
        -9.729977326730811
      ],
      [
        "digim",
        -9.730272329291752
      ],
      [
        "▁kurul",
        -9.731202035040425
      ],
      [
        "▁naz",
        -9.731497244789391
      ],
      [
        "▁bez",
        -9.732629725308051
      ],
      [
        "▁deri",
        -9.733500122220516
      ],
      [
        "▁sevin",
        -9.733680324647537
      ],
      [
        "▁gar",
        -9.733722482729132
      ],
      [
        "▁ulus",
        -9.734250032868617
      ],
      [
        "▁anladı",
        -9.734439107785962
      ],
      [
        "▁sehrin",
        -9.73477942481037
      ],
      [
        "▁anlay",
        -9.734865910303974
      ],
      [
        "lanması",
        -9.735311649454069
      ],
      [
        "▁gurultu",
        -9.735600672255938
      ],
      [
        "▁cabuk",
        -9.735601359046036
      ],
      [
        "▁yumurta",
        -9.735601815041138
      ],
      [
        "▁vapur",
        -9.735606730234558
      ],
      [
        "▁dusunmuyor",
        -9.735818496560109
      ],
      [
        "▁bahseder",
        -9.736153437721072
      ],
      [
        "▁gelistir",
        -9.736164244733207
      ],
      [
        "▁hastane",
        -9.736352310353428
      ],
      [
        "▁yanda",
        -9.73639199650224
      ],
      [
        "▁hijyenik",
        -9.738257845110532
      ],
      [
        "▁rahatsız",
        -9.738789785368692
      ],
      [
        "tif",
        -9.738901679138081
      ],
      [
        "▁28",
        -9.73910448167177
      ],
      [
        "▁toz",
        -9.739246252741449
      ],
      [
        "▁sinema",
        -9.739687798078592
      ],
      [
        "▁olmadı",
        -9.741388758813468
      ],
      [
        "▁yık",
        -9.741733712689708
      ],
      [
        "etti",
        -9.742544798939498
      ],
      [
        "ers",
        -9.743627397628888
      ],
      [
        "▁kosulları",
        -9.743711015167182
      ],
      [
        "▁arkadaslar",
        -9.744093448542166
      ],
      [
        "▁29",
        -9.744453131965727
      ],
      [
        "▁esi",
        -9.744779411452214
      ],
      [
        "▁bitir",
        -9.745155120382996
      ],
      [
        "▁verdik",
        -9.745182165085062
      ],
      [
        "lamaya",
        -9.7459360598654
      ],
      [
        "ayım",
        -9.74636744631568
      ],
      [
        "▁ediyorlar",
        -9.746375327336054
      ],
      [
        "▁posta",
        -9.746895219515302
      ],
      [
        "▁kisiler",
        -9.746920555000573
      ],
      [
        "▁terk",
        -9.74692296854575
      ],
      [
        "▁fırsat",
        -9.747505605739292
      ],
      [
        "▁harcama",
        -9.74751547597155
      ],
      [
        "▁gonder",
        -9.748890414414099
      ],
      [
        "▁vazgec",
        -9.74958986956856
      ],
      [
        "▁kasaba",
        -9.749683053171697
      ],
      [
        "mızda",
        -9.750846617801784
      ],
      [
        "ji",
        -9.751581925330939
      ],
      [
        "▁fransız",
        -9.752053155775975
      ],
      [
        "▁standart",
        -9.75378230267987
      ],
      [
        "▁londra",
        -9.753782314479992
      ],
      [
        "▁serbest",
        -9.753783444174157
      ],
      [
        "▁dosya",
        -9.753817647845583
      ],
      [
        "▁gozlem",
        -9.75403120834369
      ],
      [
        "▁satıl",
        -9.754999540264219
      ],
      [
        "▁usul",
        -9.75547622564303
      ],
      [
        "▁yıla",
        -9.755557201220299
      ],
      [
        "▁davet",
        -9.756111070263472
      ],
      [
        "▁unutma",
        -9.756606660584819
      ],
      [
        "▁dukkan",
        -9.75701615904225
      ],
      [
        "▁duran",
        -9.757197827724703
      ],
      [
        "▁ucag",
        -9.758098856787768
      ],
      [
        "▁gorustu",
        -9.758452062387196
      ],
      [
        "▁mola",
        -9.758851903851221
      ],
      [
        "lesmis",
        -9.759057984893348
      ],
      [
        "▁tesisi",
        -9.759101081478168
      ],
      [
        "▁ediliyor",
        -9.759115839791685
      ],
      [
        "▁toronto'da",
        -9.759624511495861
      ],
      [
        "▁duyma",
        -9.7597364398557
      ],
      [
        "▁gorme",
        -9.75987799332077
      ],
      [
        "▁yanıt",
        -9.761058615315427
      ],
      [
        "misler",
        -9.76172129125562
      ],
      [
        "▁edebiyat",
        -9.762307510981902
      ],
      [
        "▁ellerinde",
        -9.762348044750038
      ],
      [
        "▁rol",
        -9.763225952004035
      ],
      [
        "▁gittigi",
        -9.763818374057264
      ],
      [
        "▁dinle",
        -9.764049690830632
      ],
      [
        "▁futbol",
        -9.764810157859342
      ],
      [
        "▁maliyeti",
        -9.76499200002048
      ],
      [
        "▁oranları",
        -9.765170303216754
      ],
      [
        "▁duser",
        -9.765367255507497
      ],
      [
        "▁hastalık",
        -9.765994223577367
      ],
      [
        "▁icecekler",
        -9.766977978415518
      ],
      [
        "▁pro",
        -9.767347335210676
      ],
      [
        "▁birisi",
        -9.767406417645942
      ],
      [
        "▁tara",
        -9.767407967461121
      ],
      [
        "▁tadi",
        -9.767726448414496
      ],
      [
        "▁bankası",
        -9.76887849078528
      ],
      [
        "▁yuzunu",
        -9.768948926139316
      ],
      [
        "irdi",
        -9.770595845497944
      ],
      [
        "▁topu",
        -9.77102677213805
      ],
      [
        "▁gorduk",
        -9.771420260285383
      ],
      [
        "▁yorgun",
        -9.771539667812752
      ],
      [
        "▁ogren",
        -9.77222868698124
      ],
      [
        "▁tesvik",
        -9.772305536056992
      ],
      [
        "▁kamyon",
        -9.772309391343084
      ],
      [
        "▁ureticisi",
        -9.77231466444428
      ],
      [
        "▁meyve",
        -9.77236659359956
      ],
      [
        "▁devrim",
        -9.772534616148015
      ],
      [
        "▁tv",
        -9.773185372907426
      ],
      [
        "meyecegi",
        -9.773441517968886
      ],
      [
        "▁baslayan",
        -9.77388240404467
      ],
      [
        "▁vatan",
        -9.774335871883546
      ],
      [
        "▁tim",
        -9.775168837241498
      ],
      [
        "▁kurt",
        -9.776041980502796
      ],
      [
        "▁istanbul'da",
        -9.776656765822995
      ],
      [
        "▁olurdu",
        -9.776977114799774
      ],
      [
        "▁firması",
        -9.777301405174018
      ],
      [
        "tay",
        -9.778234799830031
      ],
      [
        "▁oturma",
        -9.778251599445078
      ],
      [
        "▁dusur",
        -9.778405109288038
      ],
      [
        "▁bileti",
        -9.778444522448037
      ],
      [
        "lmaz",
        -9.778589630336974
      ],
      [
        "takım",
        -9.779361365749919
      ],
      [
        "▁dogrusu",
        -9.779828675616587
      ],
      [
        "▁yoneticileri",
        -9.779997622112928
      ],
      [
        "▁alıs",
        -9.780165280147585
      ],
      [
        "▁24",
        -9.78047105832933
      ],
      [
        "▁kulak",
        -9.780814495976154
      ],
      [
        "▁kursun",
        -9.781176346294856
      ],
      [
        "lasmıs",
        -9.781936957503087
      ],
      [
        "▁sokag",
        -9.78307941375921
      ],
      [
        "▁asık",
        -9.783260168253594
      ],
      [
        "▁saldırı",
        -9.783613367110803
      ],
      [
        "▁dusme",
        -9.783849298681133
      ],
      [
        "▁birini",
        -9.784431122180537
      ],
      [
        "▁degeri",
        -9.785024567400502
      ],
      [
        "▁yatırımcı",
        -9.786654113596056
      ],
      [
        "10",
        -9.786926888970429
      ],
      [
        "▁anlamın",
        -9.787807442938266
      ],
      [
        "▁dusmus",
        -9.788701271246318
      ],
      [
        "▁sez",
        -9.788758830074773
      ],
      [
        "i'ni",
        -9.789158959337295
      ],
      [
        "▁hat",
        -9.789192611818695
      ],
      [
        "▁35",
        -9.789586374938715
      ],
      [
        "▁daim",
        -9.789958824748606
      ],
      [
        "▁turkce",
        -9.79030346364353
      ],
      [
        "▁obur",
        -9.790368913366045
      ],
      [
        "▁sirketleri",
        -9.790707065082778
      ],
      [
        "▁kalabalık",
        -9.791168872496634
      ],
      [
        "▁acıklanmadı",
        -9.791202091057368
      ],
      [
        "▁north",
        -9.791225732790522
      ],
      [
        "▁ofke",
        -9.79125221136402
      ],
      [
        "▁keskin",
        -9.791297632809345
      ],
      [
        "▁kocaman",
        -9.791772919872404
      ],
      [
        "▁gelistirme",
        -9.792144659642403
      ],
      [
        "▁tarihinde",
        -9.792414377273394
      ],
      [
        "▁elli",
        -9.79296932162384
      ],
      [
        "▁sırasında",
        -9.792990259026464
      ],
      [
        "▁muh",
        -9.79313132439961
      ],
      [
        "▁gelmedi",
        -9.793311698334975
      ],
      [
        "▁birim",
        -9.793478892332503
      ],
      [
        "▁emekli",
        -9.793553674431307
      ],
      [
        "urdu",
        -9.79376289181573
      ],
      [
        "▁belirli",
        -9.79420023507178
      ],
      [
        "▁ucan",
        -9.794245668397686
      ],
      [
        "ladıgı",
        -9.794910820812067
      ],
      [
        "▁oturdu",
        -9.795165508640707
      ],
      [
        "▁petersburg'",
        -9.795361544003956
      ],
      [
        "▁kayıp",
        -9.79542980247887
      ],
      [
        "▁boyut",
        -9.795463304137055
      ],
      [
        "▁edilme",
        -9.796081599400763
      ],
      [
        "▁ayakta",
        -9.796375560180369
      ],
      [
        "▁han",
        -9.797007194499834
      ],
      [
        "▁indirim",
        -9.797352483513247
      ],
      [
        "mesine",
        -9.797413952193914
      ],
      [
        "▁kalacak",
        -9.797753184603478
      ],
      [
        "▁esas",
        -9.797799645313356
      ],
      [
        "▁havaalanı",
        -9.79892403047126
      ],
      [
        "▁fonları",
        -9.79921474260356
      ],
      [
        "▁haric",
        -9.799224417603579
      ],
      [
        "▁kızar",
        -9.799308589280036
      ],
      [
        "▁phoenix'de",
        -9.800238553067675
      ],
      [
        "▁indir",
        -9.800522471069874
      ],
      [
        "ledigi",
        -9.801042823286101
      ],
      [
        "▁ciz",
        -9.801645778040575
      ],
      [
        "▁kadının",
        -9.802281548305888
      ],
      [
        "dıkları",
        -9.80432199706861
      ],
      [
        "▁duyar",
        -9.805586300606631
      ],
      [
        "▁artır",
        -9.805969940188145
      ],
      [
        "▁etkisi",
        -9.806110754393679
      ],
      [
        "▁cocugun",
        -9.80645186826693
      ],
      [
        "▁aktarma",
        -9.806509559483406
      ],
      [
        "▁uretimi",
        -9.807345947243547
      ],
      [
        "▁oneri",
        -9.80831100920579
      ],
      [
        "▁hukum",
        -9.809732776429092
      ],
      [
        "▁belge",
        -9.81010271657962
      ],
      [
        "▁masraf",
        -9.810399510533754
      ],
      [
        "▁ugur",
        -9.81040037391167
      ],
      [
        "▁mevsim",
        -9.810434410504676
      ],
      [
        "▁mesaj",
        -9.810556903658217
      ],
      [
        "▁ilave",
        -9.810637455818895
      ],
      [
        "▁kral",
        -9.810733064377024
      ],
      [
        "▁olumsuz",
        -9.81095785860175
      ],
      [
        "sanız",
        -9.811222837299377
      ],
      [
        "▁yaprak",
        -9.811355477721047
      ],
      [
        "▁havuzlar",
        -9.811444849042887
      ],
      [
        "▁celik",
        -9.81198681315291
      ],
      [
        "▁sonucları",
        -9.81205043252594
      ],
      [
        "▁osmanlı",
        -9.812086911332493
      ],
      [
        "▁iti",
        -9.812849164871677
      ],
      [
        "ılacak",
        -9.81302454684491
      ],
      [
        "▁bardak",
        -9.813262128044272
      ],
      [
        "tım",
        -9.816448735637472
      ],
      [
        "▁esit",
        -9.816621369701354
      ],
      [
        "▁grubu",
        -9.817490278780777
      ],
      [
        "yorlar",
        -9.817555508467535
      ],
      [
        "ff",
        -9.817726876986946
      ],
      [
        "verdi",
        -9.818004554821705
      ],
      [
        "▁kapan",
        -9.81989464844123
      ],
      [
        "▁cel",
        -9.819929642593594
      ],
      [
        "▁sah",
        -9.819965545014695
      ],
      [
        "▁yen'",
        -9.820672462191956
      ],
      [
        "irim",
        -9.820889652418815
      ],
      [
        "▁merkezli",
        -9.820919541325143
      ],
      [
        "▁olun",
        -9.821293808907814
      ],
      [
        "▁sever",
        -9.822386216846251
      ],
      [
        "madıgı",
        -9.823054767110476
      ],
      [
        "▁birimi",
        -9.823269831387707
      ],
      [
        "▁dede",
        -9.82331269723859
      ],
      [
        "▁ayse",
        -9.823394549267617
      ],
      [
        "▁yapmıs",
        -9.824424114747256
      ],
      [
        "▁pan",
        -9.824544256392633
      ],
      [
        "▁sevinc",
        -9.824896744950925
      ],
      [
        "▁gerceklestir",
        -9.825310543207983
      ],
      [
        "▁gorul",
        -9.825718574295605
      ],
      [
        "▁acısın",
        -9.825915338824647
      ],
      [
        "▁insanı",
        -9.827366236833196
      ],
      [
        "▁imkan",
        -9.828297916332168
      ],
      [
        "ly",
        -9.828616935803108
      ],
      [
        "▁dahi",
        -9.829127061765252
      ],
      [
        "▁etmiyor",
        -9.82913254815201
      ],
      [
        "▁tedavulde",
        -9.830007348099926
      ],
      [
        "▁galiba",
        -9.830011413702582
      ],
      [
        "▁kanada",
        -9.830178023803
      ],
      [
        "▁mısır",
        -9.830249885225644
      ],
      [
        "lıklar",
        -9.830327444391088
      ],
      [
        "▁burnu",
        -9.83042398006555
      ],
      [
        "▁verici",
        -9.830706882299223
      ],
      [
        "▁pırıl",
        -9.831548038821897
      ],
      [
        "▁geceleri",
        -9.831836841975884
      ],
      [
        "▁peynir",
        -9.831852043683
      ],
      [
        "▁kusku",
        -9.832435115624122
      ],
      [
        "▁aga",
        -9.833678405275803
      ],
      [
        "▁fo",
        -9.833713124018537
      ],
      [
        "▁tor",
        -9.83431348349906
      ],
      [
        "▁yerler",
        -9.836006706958434
      ],
      [
        "▁mes",
        -9.836117559687994
      ],
      [
        "▁animasyonlar",
        -9.83650004043267
      ],
      [
        "▁kardes",
        -9.837405579669188
      ],
      [
        "▁goc",
        -9.837634662808966
      ],
      [
        "▁fre",
        -9.838598159579679
      ],
      [
        "▁yemeklerinde",
        -9.838780091217702
      ],
      [
        "▁tutma",
        -9.838849038891585
      ],
      [
        "▁etmisti",
        -9.839397099161014
      ],
      [
        "▁verildi",
        -9.83962589854158
      ],
      [
        "▁saatler",
        -9.84086154622056
      ],
      [
        "sta",
        -9.840994314562966
      ],
      [
        "▁daire",
        -9.841061216865153
      ],
      [
        "▁aktivite",
        -9.842160579612926
      ],
      [
        "▁bakın",
        -9.842868043397191
      ],
      [
        "▁bicim",
        -9.843218565884587
      ],
      [
        "▁yemis",
        -9.84354162635558
      ],
      [
        "▁kedi",
        -9.844391709728725
      ],
      [
        "▁gide",
        -9.84454677270228
      ],
      [
        "▁omuz",
        -9.84455973162639
      ],
      [
        "▁ortasında",
        -9.84485143230716
      ],
      [
        "▁sahipleri",
        -9.8450708221812
      ],
      [
        "▁deney",
        -9.847051846907592
      ],
      [
        "▁cins",
        -9.84707043959228
      ],
      [
        "▁damak",
        -9.848423834261396
      ],
      [
        "maları",
        -9.84972770308611
      ],
      [
        "▁uyusturucu",
        -9.850007355655972
      ],
      [
        "▁sebebi",
        -9.850008100321693
      ],
      [
        "▁unlu",
        -9.850250326824906
      ],
      [
        "▁haberi",
        -9.850451261804132
      ],
      [
        "▁bilinc",
        -9.850747396789583
      ],
      [
        "▁ual",
        -9.85088137879675
      ],
      [
        "▁tanrı",
        -9.851416548155717
      ],
      [
        "▁uzan",
        -9.852100952606467
      ],
      [
        "mayacagını",
        -9.85309432742654
      ],
      [
        "▁giriste",
        -9.853268807066886
      ],
      [
        "▁elestiri",
        -9.853279508046173
      ],
      [
        "har",
        -9.853927487445603
      ],
      [
        "▁kendilerini",
        -9.85413040627802
      ],
      [
        "▁detay",
        -9.854174434115038
      ],
      [
        "▁dc'de",
        -9.854201281975
      ],
      [
        "▁saatlerde",
        -9.854622829403358
      ],
      [
        "ham",
        -9.855196906004096
      ],
      [
        "▁merkezin",
        -9.855738993128424
      ],
      [
        "▁bulut",
        -9.8559996412734
      ],
      [
        "▁savcı",
        -9.857316987517429
      ],
      [
        "▁kullanıla",
        -9.857366054220662
      ],
      [
        "▁isini",
        -9.857554905072924
      ],
      [
        "/",
        -9.85896392765019
      ],
      [
        "▁inceleme",
        -9.860066030791412
      ],
      [
        "▁ası",
        -9.860207487183786
      ],
      [
        "▁takımı",
        -9.86032712927859
      ],
      [
        "▁uy",
        -9.860365753753587
      ],
      [
        "▁cıkarı",
        -9.860498777304896
      ],
      [
        "malıdır",
        -9.860513217527188
      ],
      [
        "▁aday",
        -9.86092150155067
      ],
      [
        "▁geriledi",
        -9.861790250026942
      ],
      [
        "▁beyin",
        -9.861887615929133
      ],
      [
        "▁ilgilen",
        -9.862548129531248
      ],
      [
        "▁cevir",
        -9.86270884548415
      ],
      [
        "▁dusunuyoru",
        -9.864380591915786
      ],
      [
        "ırdı",
        -9.864455773907197
      ],
      [
        "▁olmalı",
        -9.864627839843592
      ],
      [
        "▁yil",
        -9.865589295975223
      ],
      [
        "▁olmaya",
        -9.865774046795906
      ],
      [
        "▁ailesi",
        -9.865835049619344
      ],
      [
        "teki",
        -9.867244218189938
      ],
      [
        "▁dilim",
        -9.867265414143887
      ],
      [
        "▁inanıyor",
        -9.867288610138043
      ],
      [
        "▁pas",
        -9.867871485464295
      ],
      [
        "▁isleri",
        -9.868467949013164
      ],
      [
        "▁yerles",
        -9.869223483097514
      ],
      [
        "▁tasıya",
        -9.86932900957721
      ],
      [
        "▁1990",
        -9.86981404324621
      ],
      [
        ".000",
        -9.87007367807249
      ],
      [
        "▁alay",
        -9.87067518753656
      ],
      [
        "▁ithalat",
        -9.87104636861286
      ],
      [
        "▁denk",
        -9.871153341183488
      ],
      [
        "▁bilimsel",
        -9.871220923743294
      ],
      [
        "▁ahlak",
        -9.871225603628524
      ],
      [
        "▁kavram",
        -9.8718839555571
      ],
      [
        "▁edilmesi",
        -9.872275071496615
      ],
      [
        "▁ker",
        -9.872863063244735
      ],
      [
        "▁houston'",
        -9.873779072400092
      ],
      [
        "▁kalıyor",
        -9.873938051615545
      ],
      [
        "▁edilmis",
        -9.874155651301948
      ],
      [
        "▁surat",
        -9.87445835247601
      ],
      [
        "bes",
        -9.87468144193765
      ],
      [
        "▁yasamadi",
        -9.874770779987433
      ],
      [
        "▁ap",
        -9.87494940653764
      ],
      [
        "▁artısı",
        -9.875132264085616
      ],
      [
        "▁burun",
        -9.875221807681775
      ],
      [
        "▁duzenleme",
        -9.87619435720967
      ],
      [
        "▁yapmadı",
        -9.87692078042167
      ],
      [
        "▁abla",
        -9.877005931737948
      ],
      [
        "▁baslamıs",
        -9.87720823551735
      ],
      [
        "▁lezzetleri",
        -9.877297299831305
      ],
      [
        "▁bi",
        -9.8784870796427
      ],
      [
        "▁temsil",
        -9.879064108057676
      ],
      [
        "▁bulus",
        -9.87980878980024
      ],
      [
        "▁degisim",
        -9.87987787539895
      ],
      [
        "▁vah",
        -9.880319565421843
      ],
      [
        "▁uzakta",
        -9.881198960010448
      ],
      [
        "▁goturdu",
        -9.881844107125719
      ],
      [
        "▁oglum",
        -9.88310768092767
      ],
      [
        "lendiril",
        -9.88317850494579
      ],
      [
        "▁oluyordu",
        -9.883700590741187
      ],
      [
        "▁bilmem",
        -9.885064079900921
      ],
      [
        "▁hissesi",
        -9.885428509742656
      ],
      [
        "▁arzu",
        -9.886791864551347
      ],
      [
        "▁acab",
        -9.886793395033031
      ],
      [
        "▁cadde",
        -9.887525566483415
      ],
      [
        "▁durdur",
        -9.88858202399738
      ],
      [
        "cileri",
        -9.889252169453767
      ],
      [
        "▁basım",
        -9.890019250660618
      ],
      [
        "▁dol",
        -9.890774379805265
      ],
      [
        "▁karsiladi",
        -9.891255166102967
      ],
      [
        "▁ulasılama",
        -9.891298012932625
      ],
      [
        "▁kurban",
        -9.891317537808499
      ],
      [
        "▁ihtimal",
        -9.891326114012758
      ],
      [
        "▁kokusu",
        -9.89134964974221
      ],
      [
        "ertesi",
        -9.891638085266962
      ],
      [
        "▁model",
        -9.89171842279872
      ],
      [
        "▁yuzluydu",
        -9.89186383282916
      ],
      [
        "nizi",
        -9.892330822942178
      ],
      [
        "▁olmasını",
        -9.892519945556696
      ],
      [
        "▁gecici",
        -9.893368951685586
      ],
      [
        "▁oldugunda",
        -9.894174019136674
      ],
      [
        "▁izle",
        -9.895628249847757
      ],
      [
        "acaktı",
        -9.895743424189014
      ],
      [
        "▁catı",
        -9.895851192701542
      ],
      [
        "▁bolumu",
        -9.895995034580068
      ],
      [
        "▁arı",
        -9.896039664454165
      ],
      [
        "▁harca",
        -9.89652857866043
      ],
      [
        "▁satma",
        -9.896708173875892
      ],
      [
        "▁gitmis",
        -9.897291317415922
      ],
      [
        "▁cagır",
        -9.897301852794618
      ],
      [
        "emiyor",
        -9.898149953287357
      ],
      [
        "▁kah",
        -9.898460771166398
      ],
      [
        "▁alıcı",
        -9.898533333671127
      ],
      [
        "▁buray",
        -9.898930805843886
      ],
      [
        "▁soyu",
        -9.899055000865859
      ],
      [
        "▁alem",
        -9.899361894448774
      ],
      [
        "▁ticarette",
        -9.89953519660807
      ],
      [
        "▁koltuk",
        -9.89959966308348
      ],
      [
        "▁birinde",
        -9.900206823172159
      ],
      [
        "0000",
        -9.900651013818301
      ],
      [
        "▁degerlendirir",
        -9.900964824389824
      ],
      [
        "▁bizde",
        -9.90108996955976
      ],
      [
        "▁kriz",
        -9.901151385675732
      ],
      [
        "diginde",
        -9.901358873547803
      ],
      [
        "ilmesi",
        -9.902078997353122
      ],
      [
        "▁etrafında",
        -9.902200743706993
      ],
      [
        "▁cor",
        -9.903004067419847
      ],
      [
        "dıgında",
        -9.903186339261744
      ],
      [
        "lıkları",
        -9.903470423531992
      ],
      [
        "▁ankara",
        -9.903526239120117
      ],
      [
        "dıklarını",
        -9.903868564064526
      ],
      [
        "▁geliri",
        -9.904366677636755
      ],
      [
        "sıdır",
        -9.904803768164557
      ],
      [
        "▁iceriyor",
        -9.905558663330861
      ],
      [
        "▁newark'ta",
        -9.90559506984191
      ],
      [
        "▁yonetici",
        -9.905635574386624
      ],
      [
        "▁plani",
        -9.906065967010857
      ],
      [
        "▁varacak",
        -9.906321768395204
      ],
      [
        "▁45",
        -9.906518790094157
      ],
      [
        "▁je",
        -9.906872402071134
      ],
      [
        "▁icti",
        -9.90704181469841
      ],
      [
        "▁sanatcı",
        -9.907054939362833
      ],
      [
        "▁yarat",
        -9.907100880234214
      ],
      [
        "▁anadolu",
        -9.908433761691445
      ],
      [
        "▁seyin",
        -9.909019664268914
      ],
      [
        "▁calisanlari",
        -9.909045097923252
      ],
      [
        "▁yahu",
        -9.909104710660408
      ],
      [
        "'s",
        -9.90917021887018
      ],
      [
        "▁newark'",
        -9.909588372252445
      ],
      [
        "▁yapıl",
        -9.910185463785295
      ],
      [
        "meden",
        -9.91043662084184
      ],
      [
        "▁bakanı",
        -9.910571489659363
      ],
      [
        "▁aydın",
        -9.910825597465218
      ],
      [
        "▁doner",
        -9.911946530753111
      ],
      [
        "▁nedenle",
        -9.912076243809125
      ],
      [
        "▁vade",
        -9.912405212583943
      ],
      [
        "▁calıstı",
        -9.912423208374541
      ],
      [
        "▁toronto'",
        -9.91247755772495
      ],
      [
        "▁ihale",
        -9.912525890949716
      ],
      [
        "▁zafer",
        -9.912535193710756
      ],
      [
        "▁kendim",
        -9.913058420171774
      ],
      [
        "▁bahar",
        -9.913172123946921
      ],
      [
        "▁pahalı",
        -9.913315576460343
      ],
      [
        "o'nun",
        -9.913334397228613
      ],
      [
        "▁elektronik",
        -9.913406591858152
      ],
      [
        "▁gelenek",
        -9.913468157089682
      ],
      [
        "▁olmasa",
        -9.913525043094705
      ],
      [
        "▁amca",
        -9.914699130984204
      ],
      [
        "kce",
        -9.91479583298425
      ],
      [
        "mıyordu",
        -9.914895446771418
      ],
      [
        "▁rakı",
        -9.914938563824027
      ],
      [
        "▁esim",
        -9.915189694140578
      ],
      [
        "▁surec",
        -9.91592098713005
      ],
      [
        "▁verimli",
        -9.916532043619851
      ],
      [
        "▁herif",
        -9.916967017853475
      ],
      [
        "▁yapacagı",
        -9.917175570348576
      ],
      [
        "▁bitki",
        -9.917502607487496
      ],
      [
        "▁sise",
        -9.917569714949307
      ],
      [
        "▁varlık",
        -9.917765357880853
      ],
      [
        "▁deneyim",
        -9.918179396636347
      ],
      [
        "▁yasadıgı",
        -9.91887371817654
      ],
      [
        "▁196",
        -9.919502319124181
      ],
      [
        "▁aksama",
        -9.919543848294467
      ],
      [
        "▁metre",
        -9.919663144355464
      ],
      [
        "▁tav",
        -9.920093859042924
      ],
      [
        "▁etmez",
        -9.920593934807131
      ],
      [
        "▁ceker",
        -9.92180654752831
      ],
      [
        "▁kullanıyor",
        -9.923930149218755
      ],
      [
        "▁kisilik",
        -9.924232838314783
      ],
      [
        "▁avukat",
        -9.926136845183581
      ],
      [
        "koy",
        -9.926183707350328
      ],
      [
        "▁fır",
        -9.926445998780657
      ],
      [
        "▁ellerini",
        -9.926826139368972
      ],
      [
        "seniz",
        -9.927656459239287
      ],
      [
        "▁yatak",
        -9.928193162858717
      ],
      [
        "▁bacak",
        -9.928312278132589
      ],
      [
        "▁danısman",
        -9.930197912281695
      ],
      [
        "▁mat",
        -9.930612544607332
      ],
      [
        "▁tasarı",
        -9.931798045619814
      ],
      [
        "▁islemi",
        -9.931805610026512
      ],
      [
        "▁kucu",
        -9.932542850094464
      ],
      [
        "▁baslamıstı",
        -9.932648857821613
      ],
      [
        "lerindeki",
        -9.933637846560206
      ],
      [
        "▁ey",
        -9.934051528848405
      ],
      [
        "▁sohbet",
        -9.934264577042388
      ],
      [
        "▁pozisyon",
        -9.934264588608826
      ],
      [
        "▁tedbir",
        -9.934264834727454
      ],
      [
        "▁felaket",
        -9.934265222442784
      ],
      [
        "▁iletisim",
        -9.93426910541612
      ],
      [
        "▁katılım",
        -9.934352573800918
      ],
      [
        "▁yontem",
        -9.93444723605997
      ],
      [
        "▁teminat",
        -9.934519050620011
      ],
      [
        "▁bakar",
        -9.93453631677018
      ],
      [
        "▁bakımından",
        -9.934582524650272
      ],
      [
        "▁vatandas",
        -9.934636904161987
      ],
      [
        "▁camasır",
        -9.934786960420162
      ],
      [
        "▁pes",
        -9.935122347062578
      ],
      [
        "▁gezdi",
        -9.935326902502913
      ],
      [
        "▁olmayacak",
        -9.935367015410895
      ],
      [
        "lerimi",
        -9.93734000584333
      ],
      [
        "'la",
        -9.93770569539413
      ],
      [
        "▁yerlesti",
        -9.938385082578282
      ],
      [
        "▁ani",
        -9.939655575691202
      ],
      [
        "caktır",
        -9.939818556703162
      ],
      [
        "rıl",
        -9.939892818509819
      ],
      [
        "▁icim",
        -9.940392270850019
      ],
      [
        "▁ozen",
        -9.940861008158802
      ],
      [
        "▁yakı",
        -9.941083842516896
      ],
      [
        "▁algı",
        -9.941084215547399
      ],
      [
        "wa",
        -9.941106116296728
      ],
      [
        "▁binler",
        -9.94154239003277
      ],
      [
        "▁gibiydi",
        -9.941783172997916
      ],
      [
        "▁tutu",
        -9.941893601439551
      ],
      [
        "▁yerli",
        -9.942596559035193
      ],
      [
        "▁soku",
        -9.942989690173945
      ],
      [
        "▁havada",
        -9.943101079890962
      ],
      [
        "▁yasar",
        -9.943320832885728
      ],
      [
        "▁fatura",
        -9.943556379765425
      ],
      [
        "▁raporu",
        -9.945541032943488
      ],
      [
        "▁mute",
        -9.946346518808825
      ],
      [
        "port",
        -9.946461548050447
      ],
      [
        "▁amacı",
        -9.946467125975065
      ],
      [
        "▁bush",
        -9.946579574296015
      ],
      [
        "landıgı",
        -9.946645419050885
      ],
      [
        "▁dogan",
        -9.946659086135437
      ],
      [
        "▁hadi",
        -9.94678666015402
      ],
      [
        "▁dusunur",
        -9.946973852337928
      ],
      [
        "▁phoenix'",
        -9.947202886624712
      ],
      [
        "▁nese",
        -9.947366627749338
      ],
      [
        "▁col",
        -9.947813463829055
      ],
      [
        "▁hasan",
        -9.947826748884403
      ],
      [
        "▁duzenli",
        -9.948260371348717
      ],
      [
        "▁anı",
        -9.948634174232254
      ],
      [
        "▁demis",
        -9.949436809991676
      ],
      [
        "▁karıs",
        -9.950185928503247
      ],
      [
        "▁etrafı",
        -9.95138799946604
      ],
      [
        "gar",
        -9.9516902004674
      ],
      [
        "▁alına",
        -9.954058639249054
      ],
      [
        "▁gerceklesti",
        -9.954283615668789
      ],
      [
        "▁cami",
        -9.95453928102707
      ],
      [
        "▁kaybed",
        -9.954928314238735
      ],
      [
        "▁yasayan",
        -9.955051599957493
      ],
      [
        "'nda",
        -9.955974732790823
      ],
      [
        "▁durgun",
        -9.956070064734796
      ],
      [
        "bel",
        -9.95629836837834
      ],
      [
        "▁holding",
        -9.956486795183007
      ],
      [
        "▁cerceve",
        -9.956486802892748
      ],
      [
        "▁kalabalik",
        -9.956486826394702
      ],
      [
        "▁kahvaltı",
        -9.956486852190661
      ],
      [
        "▁zavallı",
        -9.956486950633373
      ],
      [
        "▁epey",
        -9.956487988953164
      ],
      [
        "▁ahmet",
        -9.95649603970179
      ],
      [
        "▁1/2",
        -9.956496193856372
      ],
      [
        "▁kaybı",
        -9.956610858096367
      ],
      [
        "po",
        -9.956705580102163
      ],
      [
        "▁satıcı",
        -9.957021400167346
      ],
      [
        "▁sesleri",
        -9.957297037828683
      ],
      [
        "ladım",
        -9.957336081418994
      ],
      [
        "▁mekan",
        -9.957343430053841
      ],
      [
        "▁asagıda",
        -9.957539488122286
      ],
      [
        "▁ustelik",
        -9.957555465783734
      ],
      [
        "▁gumus",
        -9.957617870047132
      ],
      [
        "▁ayrıldı",
        -9.95825306905444
      ],
      [
        "▁gunah",
        -9.958781281326162
      ],
      [
        "▁suren",
        -9.960522012169527
      ],
      [
        "▁6'da",
        -9.960981171262276
      ],
      [
        "▁kızın",
        -9.960996899088126
      ],
      [
        "▁sahiptir",
        -9.961559841912303
      ],
      [
        "abilirdi",
        -9.961808130940609
      ],
      [
        "▁bicimde",
        -9.96204384393742
      ],
      [
        "▁yemeklerin",
        -9.962377316139325
      ],
      [
        "▁hicbiri",
        -9.962411919870625
      ],
      [
        "mal",
        -9.96270801401395
      ],
      [
        "sh",
        -9.963024738621307
      ],
      [
        "▁10'da",
        -9.963581468187328
      ],
      [
        "eyim",
        -9.964923620762839
      ],
      [
        "▁taksi",
        -9.966229953807257
      ],
      [
        "▁yonel",
        -9.966471880041194
      ],
      [
        "▁ayakları",
        -9.96678559767824
      ],
      [
        "▁mani",
        -9.96707944700212
      ],
      [
        "▁devletin",
        -9.968129013429856
      ],
      [
        "▁oturmus",
        -9.969137460752535
      ],
      [
        "▁yapıldı",
        -9.969324818009515
      ],
      [
        "▁etmesi",
        -9.97028377063874
      ],
      [
        "▁ucagın",
        -9.970774079408764
      ],
      [
        "▁temsilci",
        -9.970802250960185
      ],
      [
        "madıgını",
        -9.970831049309197
      ],
      [
        "▁askı",
        -9.970911107117557
      ],
      [
        "▁yıldız",
        -9.97126654503126
      ],
      [
        "▁gorusu",
        -9.971320656993353
      ],
      [
        "▁bulur",
        -9.972590316658394
      ],
      [
        "▁olanlar",
        -9.972878668710067
      ],
      [
        "▁halkı",
        -9.973227419159377
      ],
      [
        "▁serin",
        -9.973621725749302
      ],
      [
        "▁cumhuriyet",
        -9.974879247750604
      ],
      [
        "▁kaldıgı",
        -9.975762598066842
      ],
      [
        "▁hizmette",
        -9.97608895242951
      ],
      [
        "rik",
        -9.97638198101152
      ],
      [
        "▁nas",
        -9.976677124507638
      ],
      [
        "▁musa",
        -9.976893564100436
      ],
      [
        "▁kampanyalar",
        -9.977266942683057
      ],
      [
        "▁gayrimenkul",
        -9.979214065949936
      ],
      [
        "▁sorusturma",
        -9.979214143912351
      ],
      [
        "▁itiraz",
        -9.979215428551193
      ],
      [
        "▁kaydetti",
        -9.979223657274169
      ],
      [
        "▁twa",
        -9.979256391814687
      ],
      [
        "▁ayrıntı",
        -9.9792754824839
      ],
      [
        "▁reform",
        -9.979364522399077
      ],
      [
        "▁seklinde",
        -9.97942149384349
      ],
      [
        "▁karsilama",
        -9.979448961463227
      ],
      [
        "▁yo",
        -9.97955497235736
      ],
      [
        "▁istanbul'",
        -9.979666733649
      ],
      [
        "▁sorunları",
        -9.97973095091067
      ],
      [
        "▁banyo",
        -9.979788565781961
      ],
      [
        "lasıyor",
        -9.979961319641177
      ],
      [
        "▁piyasaları",
        -9.980109999998298
      ],
      [
        "▁farkında",
        -9.980171248483597
      ],
      [
        "▁korkunc",
        -9.980176604200338
      ],
      [
        "▁ihracat",
        -9.980300434301629
      ],
      [
        "imizi",
        -9.980370987113115
      ],
      [
        "▁tavır",
        -9.980517285420206
      ],
      [
        "▁listesini",
        -9.980693020756474
      ],
      [
        "▁gosterir",
        -9.980876890326767
      ],
      [
        "▁ihtiyacı",
        -9.981442933299295
      ],
      [
        "▁mail",
        -9.981565944024698
      ],
      [
        "▁ozgur",
        -9.982408545394035
      ],
      [
        "▁bosa",
        -9.982965994694856
      ],
      [
        "▁kardesim",
        -9.983750751925884
      ],
      [
        "▁sevk",
        -9.984123652305971
      ],
      [
        "▁amerika",
        -9.984170722499105
      ],
      [
        "▁mil",
        -9.98426186188017
      ],
      [
        "▁saka",
        -9.984868058525295
      ],
      [
        "▁haziran'da",
        -9.985122672630292
      ],
      [
        "▁olaylar",
        -9.986672746195218
      ],
      [
        "▁otele",
        -9.986920647747965
      ],
      [
        "40",
        -9.986937415760885
      ],
      [
        "▁nur",
        -9.987243059042893
      ],
      [
        "▁takdir",
        -9.98750176812584
      ],
      [
        "ja",
        -9.988074653659398
      ],
      [
        "ladık",
        -9.98871511420289
      ],
      [
        "▁hissetti",
        -9.989403532661154
      ],
      [
        "▁tavan",
        -9.98977087400988
      ],
      [
        "▁odun",
        -9.989778113080705
      ],
      [
        "▁soyledikleri",
        -9.990431601681596
      ],
      [
        "ho",
        -9.990815195082055
      ],
      [
        "▁basta",
        -9.990825548835703
      ],
      [
        "▁kalmadı",
        -9.991000727549997
      ],
      [
        "▁olus",
        -9.991149080304206
      ],
      [
        "▁alev",
        -9.991259286461935
      ],
      [
        "halde",
        -9.991302382476938
      ],
      [
        "▁mezar",
        -9.991589146468804
      ],
      [
        "▁birlesi",
        -9.991904012026472
      ],
      [
        "▁yolunu",
        -9.991968513130757
      ],
      [
        "▁soluk",
        -9.992665927321958
      ],
      [
        "▁musteriler",
        -9.992923562956303
      ],
      [
        "sek",
        -9.992945055145647
      ],
      [
        "▁kıymet",
[...]
