{
  "version": "1.0",
  "truncation": null,
  "padding": null,
  "added_tokens": [
    {
      "id": 0,
      "content": "[UNK]",
      "single_word": false,
      "lstrip": false,
      "rstrip": false,
      "normalized": false,
      "special": true
    },
    {
      "id": 1,
      "content": "[PAD]",
      "single_word": false,
      "lstrip": false,
      "rstrip": false,
      "normalized": false,
      "special": true
    },
    {
      "id": 2,
      "content": "[CLS]",
      "single_word": false,
      "lstrip": false,
      "rstrip": false,
      "normalized": false,
      "special": true
    },
    {
      "id": 3,
      "content": "[SEP]",
      "single_word": false,
      "lstrip": false,
      "rstrip": false,
      "normalized": false,
      "special": true
    },
    {
      "id": 4,
      "content": "[MASK]",
      "single_word": false,
      "lstrip": false,
      "rstrip": false,
      "normalized": false,
      "special": true
    }
  ],
  "normalizer": {
    "type": "Sequence",
    "normalizers": [
      {
        "type": "NFD"
      },
      {
        "type": "Lowercase"
      },
      {
        "type": "StripAccents"
      }
    ]
  },
  "pre_tokenizer": {
    "type": "Sequence",
    "pretokenizers": [
      {
        "type": "Metaspace",
        "replacement": "▁",
        "prepend_scheme": "always",
        "split": true
      }
    ]
  },
  "post_processor": {
    "type": "TemplateProcessing",
    "single": [
      {
        "SpecialToken": {
          "id": "[CLS]",
          "type_id": 0
        }
      },
      {
        "Sequence": {
          "id": "A",
          "type_id": 0
        }
      },
      {
        "SpecialToken": {
          "id": "[SEP]",
          "type_id": 0
        }
      }
    ],
    "pair": [
      {
        "SpecialToken": {
          "id": "[CLS]",
          "type_id": 0
        }
      },
      {
        "Sequence": {
          "id": "A",
          "type_id": 0
        }
      },
      {
        "SpecialToken": {
          "id": "[SEP]",
          "type_id": 0
        }
      },
      {
        "Sequence": {
          "id": "B",
          "type_id": 1
        }
      },
      {
        "SpecialToken": {
          "id": "[SEP]",
          "type_id": 1
        }
      }
    ],
    "special_tokens": {
      "[CLS]": {
        "id": "[CLS]",
        "ids": [
          2
        ],
        "tokens": [
          "[CLS]"
        ]
      },
      "[SEP]": {
        "id": "[SEP]",
        "ids": [
          3
        ],
        "tokens": [
          "[SEP]"
        ]
      }
    }
  },
  "decoder": {
    "type": "Metaspace",
    "replacement": "▁",
    "prepend_scheme": "always",
    "split": true
  },
  "model": {
    "type": "BPE",
    "dropout": null,
    "unk_token": "[UNK]",
    "continuing_subword_prefix": null,
    "end_of_word_suffix": null,
    "fuse_unk": false,
    "byte_fallback": false,
    "ignore_merges": false,
    "vocab": {
      "[UNK]": 0,
      "[PAD]": 1,
      "[CLS]": 2,
      "[SEP]": 3,
      "[MASK]": 4,
      "!": 5,
      "\"": 6,
      "#": 7,
      "$": 8,
      "%": 9,
      "&": 10,
      "'": 11,
      "(": 12,
      ")": 13,
      "*": 14,
      "+": 15,
      ",": 16,
      "-": 17,
      ".": 18,
      "/": 19,
      "0": 20,
      "1": 21,
      "2": 22,
      "3": 23,
      "4": 24,
      "5": 25,
      "6": 26,
      "7": 27,
      "8": 28,
      "9": 29,
      ":": 30,
      ";": 31,
      "=": 32,
      ">": 33,
      "?": 34,
      "@": 35,
      "\\": 36,
      "_": 37,
      "`": 38,
      "a": 39,
      "b": 40,
      "c": 41,
      "d": 42,
      "e": 43,
      "f": 44,
      "g": 45,
      "h": 46,
      "i": 47,
      "j": 48,
      "k": 49,
      "l": 50,
      "m": 51,
      "n": 52,
      "o": 53,
      "p": 54,
      "q": 55,
      "r": 56,
      "s": 57,
      "t": 58,
      "u": 59,
      "v": 60,
      "w": 61,
      "x": 62,
      "y": 63,
      "z": 64,
      "|": 65,
      "°": 66,
      "ı": 67,
      "​": 68,
      "–": 69,
      "—": 70,
      "‘": 71,
      "’": 72,
      "“": 73,
      "”": 74,
      "…": 75,
      "▁": 76,
      "■": 77,
      "ar": 78,
      "▁b": 79,
      "▁.": 80,
      "er": 81,
      "an": 82,
      "in": 83,
      "▁k": 84,
      "▁s": 85,
      "▁d": 86,
      "en": 87,
      "ir": 88,
      "▁g": 89,
      "▁o": 90,
      "▁y": 91,
      "il": 92,
      "ın": 93,
      "al": 94,
      "as": 95,
      "▁,": 96,
      "or": 97,
      "un": 98,
      "lar": 99,
      "ak": 100,
      "el": 101,
      "di": 102,
      "▁t": 103,
      "is": 104,
      "▁h": 105,
      "▁c": 106,
      "iy": 107,
      "ek": 108,
      "et": 109,
      "▁bir": 110,
      "ay": 111,
      "on": 112,
      "▁m": 113,
      "es": 114,
      "▁v": 115,
      "am": 116,
      "ur": 117,
      "us": 118,
      "at": 119,
      "ler": 120,
      "em": 121,
      "im": 122,
      "ad": 123,
      "▁p": 124,
      "▁u": 125,
      "um": 126,
      "iz": 127,
      "ik": 128,
      "ır": 129,
      "▁ol": 130,
      "ey": 131,
      "da": 132,
      "▁bu": 133,
      "ıs": 134,
      "de": 135,
      "ic": 136,
      "az": 137,
      "uz": 138,
      "ık": 139,
      "uk": 140,
      "ac": 141,
      "▁de": 142,
      "ok": 143,
      "ah": 144,
      "den": 145,
      "▁ve": 146,
      "▁f": 147,
      "le": 148,
      "ıl": 149,
      "yor": 150,
      "du": 151,
      "ım": 152,
      "ec": 153,
      "it": 154,
      "▁n": 155,
      "dan": 156,
      "ap": 157,
      "ul": 158,
      "ag": 159,
      "ab": 160,
      "ol": 161,
      "ist": 162,
      "▁uc": 163,
      "▁e": 164,
      "ını": 165,
      "▁il": 166,
      "▁ic": 167,
      "ları": 168,
      "▁al": 169,
      "▁ar": 170,
      "ini": 171,
      "iyor": 172,
      "os": 173,
      "▁on": 174,
      "av": 175,
      "li": 176,
      "▁cok": 177,
      "dı": 178,
      "▁r": 179,
      "lan": 180,
      "▁an": 181,
      "▁icin": 182,
      "gil": 183,
      "la": 184,
      "oy": 185,
      "ında": 186,
      "▁kal": 187,
      "▁bas": 188,
      "ine": 189,
      "ız": 190,
      "▁\"": 191,
      "lı": 192,
      "gi": 193,
      "▁gor": 194,
      "tı": 195,
      "ası": 196,
      "lu": 197,
      "unu": 198,
      "▁kar": 199,
      "▁ucus": 200,
      "ti": 201,
      "▁z": 202,
      "▁1": 203,
      "leri": 204,
      "▁yap": 205,
      "▁son": 206,
      "eler": 207,
      "▁ne": 208,
      "ta": 209,
      "▁is": 210,
      "▁iy": 211,
      "tu": 212,
      "▁gel": 213,
      "▁var": 214,
      "alar": 215,
      "ların": 216,
      "▁gi": 217,
      "▁ay": 218,
      "▁in": 219,
      "▁et": 220,
      "▁ver": 221,
      "ev": 222,
      "af": 223,
      "iler": 224,
      "▁ist": 225,
      "dir": 226,
      "ost": 227,
      "las": 228,
      "▁bil": 229,
      "esi": 230,
      "ıyor": 231,
      "og": 232,
      "ya": 233,
      "▁en": 234,
      "▁da": 235,
      "▁kon": 236,
      "ut": 237,
      "me": 238,
      "ce": 239,
      "inde": 240,
      "uzel": 241,
      "mak": 242,
      "oz": 243,
      "ına": 244,
      "ers": 245,
      "▁or": 246,
      "uc": 247,
      "adı": 248,
      "▁guzel": 249,
      "▁l": 250,
      "▁dah": 251,
      "ma": 252,
      "▁her": 253,
      "▁am": 254,
      "▁dus": 255,
      "▁ben": 256,
      "▁gec": 257,
      "tan": 258,
      "▁kad": 259,
      "dim": 260,
      "▁daha": 261,
      "▁degil": 262,
      "inin": 263,
      "lam": 264,
      "yon": 265,
      "aya": 266,
      "▁uz": 267,
      "▁den": 268,
      "iydi": 269,
      "lik": 270,
      "ez": 271,
      "mıs": 272,
      "ust": 273,
      "bi": 274,
      "▁i": 275,
      "▁ac": 276,
      "▁san": 277,
      "▁ile": 278,
      "'dan": 279,
      "iye": 280,
      "▁oldu": 281,
      "▁olan": 282,
      "gı": 283,
      "te": 284,
      "larak": 285,
      "▁mil": 286,
      "▁soy": 287,
      "uyor": 288,
      "▁at": 289,
      "mek": 290,
      "▁ak": 291,
      "ca": 292,
      "acak": 293,
      "▁ot": 294,
      "▁olarak": 295,
      "ra": 296,
      "▁el": 297,
      "▁ger": 298,
      "dır": 299,
      "ana": 300,
      "▁ken": 301,
      "▁gun": 302,
      "'n": 303,
      "lık": 304,
      "▁ko": 305,
      "▁tem": 306,
      "▁olm": 307,
      "len": 308,
      "▁cık": 309,
      "▁ik": 310,
      "gun": 311,
      "eye": 312,
      "mis": 313,
      "▁tes": 314,
      "ayı": 315,
      "▁gibi": 316,
      "emek": 317,
      "uy": 318,
      "▁ed": 319,
      "▁iyi": 320,
      "ilir": 321,
      "▁yıl": 322,
      "alı": 323,
      "eg": 324,
      "ip": 325,
      "inden": 326,
      "▁sey": 327,
      "met": 328,
      "▁kur": 329,
      "oster": 330,
      "▁par": 331,
      "▁goster": 332,
      "ından": 333,
      "▁yer": 334,
      "▁ki": 335,
      "▁ad": 336,
      "iyorum": 337,
      "'a": 338,
      "▁yar": 339,
      "onel": 340,
      "se": 341,
      "dik": 342,
      "isi": 343,
      "▁sonra": 344,
      "larını": 345,
      "▁yas": 346,
      "man": 347,
      "ecek": 348,
      "▁tar": 349,
      "aki": 350,
      "▁do": 351,
      "eni": 352,
      "▁kadar": 353,
      "▁tur": 354,
      "▁as": 355,
      "ının": 356,
      "tır": 357,
      "cı": 358,
      "▁mem": 359,
      "▁co": 360,
      "▁yok": 361,
      "▁pers": 362,
      "▁kap": 363,
      "▁tek": 364,
      "▁hav": 365,
      "▁2": 366,
      "▁gen": 367,
      "▁bay": 368,
      "ran": 369,
      "▁?": 370,
      "'ya": 371,
      "▁a": 372,
      "iyat": 373,
      "'den": 374,
      "▁han": 375,
      "dig": 376,
      "▁uy": 377,
      "gu": 378,
      "▁bul": 379,
      "erk": 380,
      "▁ev": 381,
      "▁ilgil": 382,
      "▁guzeldi": 383,
      "ep": 384,
      "lem": 385,
      "ig": 386,
      "▁yan": 387,
      "▁don": 388,
      "▁hal": 389,
      "▁es": 390,
      "▁buy": 391,
      "op": 392,
      "▁bey": 393,
      "▁sur": 394,
      "▁cal": 395,
      "▁yuk": 396,
      "ten": 397,
      "▁dur": 398,
      "ed": 399,
      "▁bana": 400,
      "ada": 401,
      "▁su": 402,
      "eki": 403,
      "eb": 404,
      "▁kars": 405,
      "if": 406,
      "▁ama": 407,
      "aman": 408,
      "▁personel": 409,
      "▁bak": 410,
      "kan": 411,
      "nun": 412,
      "▁sen": 413,
      "ret": 414,
      "▁oy": 415,
      "▁sat": 416,
      "▁yuz": 417,
      "ci": 418,
      "▁mu": 419,
      "▁deg": 420,
      "▁yak": 421,
      "00": 422,
      "ver": 423,
      "▁memnun": 424,
      "▁his": 425,
      "san": 426,
      "▁temiz": 427,
      "daki": 428,
      "▁ucusları": 429,
      "▁ag": 430,
      "▁bel": 431,
      "ket": 432,
      "▁ek": 433,
      "cak": 434,
      "▁hiz": 435,
      "ıy": 436,
      "▁boy": 437,
      "▁iyiydi": 438,
      "tir": 439,
      "▁biz": 440,
      "▁kul": 441,
      "▁hizmet": 442,
      "▁yemek": 443,
      "▁zaman": 444,
      "▁iki": 445,
      "eli": 446,
      "eri": 447,
      "imiz": 448,
      "▁fiyat": 449,
      "ki": 450,
      "▁aras": 451,
      "▁:": 452,
      "ru": 453,
      "▁yuks": 454,
      "▁art": 455,
      "▁og": 456,
      "diyor": 457,
      "▁soyle": 458,
      "▁bun": 459,
      "▁coc": 460,
      "▁3": 461,
      "▁dog": 462,
      "dur": 463,
      "lara": 464,
      "sa": 465,
      "sam": 466,
      "▁buyuk": 467,
      "ye": 468,
      "▁sir": 469,
      "lerini": 470,
      "▁degildi": 471,
      "▁od": 472,
      "▁hic": 473,
      "▁%": 474,
      "lerin": 475,
      "▁top": 476,
      "▁yeni": 477,
      "▁dev": 478,
      "▁goz": 479,
      "mus": 480,
      "▁sor": 481,
      "▁uzer": 482,
      "▁fran": 483,
      "eh": 484,
      "'e": 485,
      "▁yet": 486,
      "▁az": 487,
      "les": 488,
      "edi": 489,
      "iyet": 490,
      "▁sa": 491,
      "▁tum": 492,
      "ot": 493,
      "agı": 494,
      "om": 495,
      "▁-": 496,
      "ısı": 497,
      "▁ser": 498,
      "ladı": 499,
      "▁bost": 500,
      "▁sirket": 501,
      "▁'": 502,
      "arak": 503,
      "▁dol": 504,
      "▁boston": 505,
      "▁sev": 506,
      "▁kay": 507,
      "gunu": 508,
      "▁har": 509,
      "▁dal": 510,
      "▁insan": 511,
      "▁ort": 512,
      "▁sah": 513,
      "▁w": 514,
      "abilir": 515,
      "▁hak": 516,
      "isti": 517,
      "ayan": 518,
      "▁yol": 519,
      "▁cocuk": 520,
      "co": 521,
      "▁milyon": 522,
      "▁onun": 523,
      "▁oz": 524,
      "▁hay": 525,
      "▁yon": 526,
      "iyle": 527,
      "▁yaz": 528,
      "▁otel": 529,
      "▁kat": 530,
      "▁sek": 531,
      "tim": 532,
      "gını": 533,
      "▁gu": 534,
      "ih": 535,
      "ıp": 536,
      "▁calıs": 537,
      "'da": 538,
      "▁denver": 539,
      "dis": 540,
      "▁ces": 541,
      "let": 542,
      "usu": 543,
      "cis": 544,
      "▁j": 545,
      "▁bur": 546,
      "ark": 547,
      "unda": 548,
      "bir": 549,
      "mas": 550,
      "adan": 551,
      "▁ih": 552,
      "'in": 553,
      "ece": 554,
      "▁der": 555,
      "umu": 556,
      "▁ucret": 557,
      "cek": 558,
      "luk": 559,
      "▁bal": 560,
      "▁cek": 561,
      "▁sab": 562,
      "▁once": 563,
      "bur": 564,
      "cisco": 565,
      "▁yat": 566,
      "imi": 567,
      "▁francisco": 568,
      "▁dun": 569,
      "▁tah": 570,
      "'ye": 571,
      "▁istiyorum": 572,
      "▁gir": 573,
      "art": 574,
      "▁bek": 575,
      "▁pu": 576,
      "▁le": 577,
      "▁ancak": 578,
      "▁kaz": 579,
      "▁5": 580,
      "erek": 581,
      "▁19": 582,
      "▁pr": 583,
      "▁faz": 584,
      "deki": 585,
      "ef": 586,
      "maya": 587,
      "uldu": 588,
      "▁gore": 589,
      "▁baz": 590,
      "▁soz": 591,
      "ort": 592,
      "▁deniz": 593,
      "▁kuc": 594,
      "▁ayr": 595,
      "▁tut": 596,
      "▁soyledi": 597,
      "▁kes": 598,
      "▁tam": 599,
      "▁ediyor": 600,
      "▁konus": 601,
      "▁..": 602,
      "▁gorus": 603,
      "cu": 604,
      "▁dolar": 605,
      "asyon": 606,
      "▁turk": 607,
      "dum": 608,
      "▁bag": 609,
      "acag": 610,
      "sun": 611,
      "siz": 612,
      "▁puan": 613,
      "▁yor": 614,
      "▁cesit": 615,
      "▁sag": 616,
      "tr": 617,
      "ması": 618,
      "▁du": 619,
      "tar": 620,
      "▁ok": 621,
      "▁diye": 622,
      "eleri": 623,
      "▁ust": 624,
      "▁ilk": 625,
      "itt": 626,
      "▁...": 627,
      "▁kullan": 628,
      "eyi": 629,
      "enin": 630,
      "unun": 631,
      "▁!": 632,
      "ka": 633,
      "▁kan": 634,
      "ama": 635,
      "▁4": 636,
      "▁hem": 637,
      "arı": 638,
      "▁biraz": 639,
      "dım": 640,
      "▁but": 641,
      "▁kor": 642,
      "▁etti": 643,
      "ilm": 644,
      "anın": 645,
      "▁dedi": 646,
      "▁alt": 647,
      "▁taraf": 648,
      "'tan": 649,
      "▁car": 650,
      "ılı": 651,
      "ph": 652,
      "▁atlan": 653,
      "▁saat": 654,
      "ing": 655,
      "▁duy": 656,
      "▁kız": 657,
      "▁tav": 658,
      "sız": 659,
      "▁amer": 660,
      "lat": 661,
      "▁ur": 662,
      "▁icinde": 663,
      "▁''": 664,
      "iyas": 665,
      "aları": 666,
      "▁atlanta": 667,
      "▁kucuk": 668,
      "▁sal": 669,
      "▁gerek": 670,
      "▁ph": 671,
      "larının": 672,
      "▁koy": 673,
      "iniz": 674,
      "burg": 675,
      "zet": 676,
      "▁tan": 677,
      "▁sim": 678,
      "▁ucuslar": 679,
      "▁hisse": 680,
      "▁tas": 681,
      "▁adam": 682,
      "▁sabah": 683,
      "etir": 684,
      "ımız": 685,
      "▁acık": 686,
      "▁genel": 687,
      "ildi": 688,
      "▁oldugunu": 689,
      "duk": 690,
      "est": 691,
      "eceg": 692,
      "▁lez": 693,
      "▁bor": 694,
      "▁getir": 695,
      "▁kim": 696,
      "▁list": 697,
      "▁hep": 698,
      "▁fazla": 699,
      "'de": 700,
      "▁tesis": 701,
      "▁erk": 702,
      "▁kazan": 703,
      "▁kol": 704,
      "▁haz": 705,
      "▁kalit": 706,
      "ındaki": 707,
      "eme": 708,
      "ılan": 709,
      "ley": 710,
      "istir": 711,
      "▁has": 712,
      "▁git": 713,
      "▁er": 714,
      "▁lezzet": 715,
      "▁eder": 716,
      "'ın": 717,
      "▁kıs": 718,
      "esini": 719,
      "▁butun": 720,
      "ia": 721,
      "▁tak": 722,
      "▁hangi": 723,
      "▁cum": 724,
      "▁ab": 725,
      "▁ail": 726,
      "▁kab": 727,
      "ilen": 728,
      "up": 729,
      "▁sır": 730,
      "▁dallas": 731,
      "▁bazı": 732,
      "▁haf": 733,
      "▁gunu": 734,
      "▁`": 735,
      "▁paz": 736,
      "▁cıkar": 737,
      "▁say": 738,
      "▁pitt": 739,
      "▁muh": 740,
      "▁pitts": 741,
      "▁kır": 742,
      "▁arasında": 743,
      "▁bile": 744,
      "▁av": 745,
      "▁eg": 746,
      "▁mal": 747,
      "burgh": 748,
      "adel": 749,
      "▁aksam": 750,
      "ken": 751,
      "▁pittsburgh": 752,
      "lay": 753,
      "▁ark": 754,
      "▁ter": 755,
      "ıldı": 756,
      "ımı": 757,
      "ede": 758,
      "▁etm": 759,
      "ileri": 760,
      "▁hat": 761,
      "▁yuksel": 762,
      "▁;": 763,
      "▁cev": 764,
      "▁``": 765,
      "▁yur": 766,
      "iyordu": 767,
      "'nin": 768,
      "der": 769,
      "ton": 770,
      "ligi": 771,
      "▁gercek": 772,
      "▁yal": 773,
      "▁bulun": 774,
      "▁ayn": 775,
      "yar": 776,
      "esine": 777,
      "ku": 778,
      "larda": 779,
      "▁bol": 780,
      "▁dusun": 781,
      "▁dav": 782,
      "ayol": 783,
      "ob": 784,
      "ib": 785,
      "▁tel": 786,
      "▁sad": 787,
      "▁hiss": 788,
      "▁/": 789,
      "▁boyle": 790,
      "ore": 791,
      "▁ul": 792,
      "▁neden": 793,
      "▁piyas": 794,
      "▁milyar": 795,
      "digim": 796,
      "▁ulas": 797,
      "ırım": 798,
      "acı": 799,
      "▁new": 800,
      "▁yoktu": 801,
      "▁im": 802,
      "diler": 803,
      "▁ilgilen": 804,
      "aret": 805,
      "digi": 806,
      "lere": 807,
      "▁belir": 808,
      "si": 809,
      "▁ban": 810,
      "▁mi": 811,
      "▁phil": 812,
      "alık": 813,
      "▁simdi": 814,
      "▁listel": 815,
      "ram": 816,
      "yla": 817,
      "▁dig": 818,
      "▁iht": 819,
      "▁kendi": 820,
      "▁amerik": 821,
      "han": 822,
      "▁it": 823,
      "anı": 824,
      "▁sık": 825,
      "re": 826,
      "▁dok": 827,
      "lig": 828,
      "▁ilgili": 829,
      "▁7": 830,
      "▁olur": 831,
      "larına": 832,
      "'nın": 833,
      "▁boston'dan": 834,
      "▁sav": 835,
      "▁duz": 836,
      "▁mı": 837,
      "ili": 838,
      "▁kadın": 839,
      "▁karsı": 840,
      "▁kos": 841,
      "asını": 842,
      "timore": 843,
      "▁baltimore": 844,
      "▁gorusuldu": 845,
      "'un": 846,
      "ırak": 847,
      "men": 848,
      "likle": 849,
      "ustur": 850,
      "▁yonet": 851,
      "phia": 852,
      "ren": 853,
      "▁sak": 854,
      "▁merk": 855,
      "adelphia": 856,
      "▁philadelphia": 857,
      "gın": 858,
      "▁sar": 859,
      "▁uzun": 860,
      "ilik": 861,
      "mez": 862,
      "▁ya": 863,
      "▁deger": 864,
      "▁yuksek": 865,
      "▁gelir": 866,
      "▁yemekler": 867,
      "▁hakk": 868,
      "▁un": 869,
      "maz": 870,
      "lerine": 871,
      "enk": 872,
      "lardan": 873,
      "▁diger": 874,
      "▁kac": 875,
      "▁dogru": 876,
      "▁ozel": 877,
      "una": 878,
      "▁can": 879,
      "▁bırak": 880,
      "▁tavs": 881,
      "▁nas": 882,
      "▁tat": 883,
      "abil": 884,
      "▁otur": 885,
      "▁kr": 886,
      "ulu": 887,
      "▁10": 888,
      "▁guler": 889,
      "▁mah": 890,
      "▁bah": 891,
      "▁zor": 892,
      "▁sec": 893,
      "▁dem": 894,
      "elik": 895,
      "▁konumu": 896,
      "▁ch": 897,
      "▁merkez": 898,
      "▁siz": 899,
      "▁islem": 900,
      "▁iz": 901,
      "ıyordu": 902,
      "▁bes": 903,
      "▁kas": 904,
      "▁benim": 905,
      "▁man": 906,
      "▁(": 907,
      "fen": 908,
      "ter": 909,
      "tık": 910,
      "▁tavsiye": 911,
      "▁bin": 912,
      "lerinin": 913,
      "mam": 914,
      "▁kah": 915,
      "▁sadece": 916,
      "umuz": 917,
      "▁francisco'ya": 918,
      "▁ihtiy": 919,
      "meye": 920,
      "▁6": 921,
      "asında": 922,
      "ayet": 923,
      "tor": 924,
      "▁)": 925,
      "▁bab": 926,
      "▁baskan": 927,
      "isk": 928,
      "▁satıs": 929,
      "unuyor": 930,
      "▁oldugu": 931,
      "▁lu": 932,
      "inc": 933,
      "▁plan": 934,
      "▁mus": 935,
      "id": 936,
      "▁ede": 937,
      "▁ise": 938,
      "▁hanim": 939,
      "▁kotu": 940,
      "madim": 941,
      "asına": 942,
      "vil": 943,
      "▁kıy": 944,
      "▁guc": 945,
      "ahat": 946,
      "▁mas": 947,
      "▁pek": 948,
      "ba": 949,
      "▁mes": 950,
      "▁huk": 951,
      "▁mis": 952,
      "suz": 953,
      "eket": 954,
      "▁havuz": 955,
      "▁yatırım": 956,
      "▁ses": 957,
      "▁dik": 958,
      "▁uygun": 959,
      "lerde": 960,
      "▁yaklas": 961,
      "tik": 962,
      "▁baska": 963,
      "▁degis": 964,
      "▁artık": 965,
      "madı": 966,
      "alan": 967,
      "esinde": 968,
      "▁vey": 969,
      "▁hicbir": 970,
      "▁tarafından": 971,
      "ans": 972,
      "▁tab": 973,
      "adır": 974,
      "▁onu": 975,
      "▁geldi": 976,
      "▁sekil": 977,
      "▁ayrı": 978,
      "digini": 979,
      "▁em": 980,
      "land": 981,
      "▁us": 982,
      "▁kalk": 983,
      "▁mut": 984,
      "eyin": 985,
      "ington": 986,
      "▁veya": 987,
      "▁mer": 988,
      "▁per": 989,
      "▁bit": 990,
      "▁nedir": 991,
      "lıgı": 992,
      "▁seh": 993,
      "tım": 994,
      "▁aldı": 995,
      "▁havayol": 996,
      "var": 997,
      "▁olabilir": 998,
      "▁anlam": 999,
      "▁yay": 1000,
      "larında": 1001,
      "lerden": 1002,
      "ga": 1003,
      "raf": 1004,
      "ici": 1005,
      "▁sahip": 1006,
      "ash": 1007,
      "▁onem": 1008,
      "▁beni": 1009,
      "▁hayat": 1010,
      "mayı": 1011,
      "▁wash": 1012,
      "▁kis": 1013,
      "lardı": 1014,
      "▁washington": 1015,
      "▁aynı": 1016,
      "▁kam": 1017,
      "▁mev": 1018,
      "may": 1019,
      "nız": 1020,
      "lendir": 1021,
      "▁eski": 1022,
      "medi": 1023,
      "▁dıs": 1024,
      "aber": 1025,
      "malar": 1026,
      "yuz": 1027,
      "ılık": 1028,
      "ılmıs": 1029,
      "▁ustun": 1030,
      "▁amerikan": 1031,
      "'ten": 1032,
      "for": 1033,
      "▁yalnız": 1034,
      "kes": 1035,
      "ydu": 1036,
      "▁kaldik": 1037,
      "▁iste": 1038,
      "▁sok": 1039,
      "gis": 1040,
      "kac": 1041,
      "▁bugun": 1042,
      "▁karar": 1043,
      "▁istem": 1044,
      "▁tesisti": 1045,
      "▁fa": 1046,
      "▁ann": 1047,
      "▁anlat": 1048,
      "artesi": 1049,
      "▁sekilde": 1050,
      "▁st": 1051,
      "▁durum": 1052,
      "▁bar": 1053,
      "▁sı": 1054,
      "ınız": 1055,
      "lak": 1056,
      "▁yardım": 1057,
      "▁dir": 1058,
      "ent": 1059,
      "▁gaz": 1060,
      "▁fak": 1061,
      "▁uret": 1062,
      "mem": 1063,
      "▁gelen": 1064,
      "▁ku": 1065,
      "▁tarih": 1066,
      "▁donus": 1067,
      "▁erken": 1068,
      "▁8": 1069,
      "lerinde": 1070,
      "▁inc": 1071,
      "▁biri": 1072,
      "▁yaptı": 1073,
      "▁vardı": 1074,
      "▁gecen": 1075,
      "larla": 1076,
      "▁arkad": 1077,
      "▁oda": 1078,
      "▁kendis": 1079,
      "▁dil": 1080,
      "▁denver'den": 1081,
      "▁york": 1082,
      "ebilir": 1083,
      "▁fark": 1084,
      "lıyor": 1085,
      "▁para": 1086,
      "dık": 1087,
      "▁devam": 1088,
      "inci": 1089,
      "lif": 1090,
      "▁herkes": 1091,
      "▁ogle": 1092,
      "ara": 1093,
      "▁so": 1094,
      "▁diyor": 1095,
      "▁aktar": 1096,
      "egen": 1097,
      "ıyla": 1098,
      "▁pol": 1099,
      "▁olacak": 1100,
      "▁din": 1101,
      "▁bizim": 1102,
      "▁hareket": 1103,
      "ri": 1104,
      "lari": 1105,
      "ven": 1106,
      "▁cog": 1107,
      "be": 1108,
      "▁basladı": 1109,
      "per": 1110,
      "atı": 1111,
      "▁kend": 1112,
      "gin": 1113,
      "tur": 1114,
      "▁mak": 1115,
      "▁giden": 1116,
      "▁ederim": 1117,
      "rar": 1118,
      "▁gorun": 1119,
      "▁ıs": 1120,
      "▁kom": 1121,
      "▁kus": 1122,
      "▁kaldim": 1123,
      "▁pazar": 1124,
      "▁hazır": 1125,
      "▁lut": 1126,
      "▁birkac": 1127,
      "▁genc": 1128,
      "luyor": 1129,
      "▁bunun": 1130,
      "mesi": 1131,
      "uyordu": 1132,
      "sel": 1133,
      "▁di": 1134,
      "▁ug": 1135,
      "ucu": 1136,
      "▁kop": 1137,
      "▁sorun": 1138,
      "▁ona": 1139,
      "▁geri": 1140,
      "▁hemen": 1141,
      ".5": 1142,
      "gel": 1143,
      "▁duny": 1144,
      "bet": 1145,
      "dar": 1146,
      "▁kit": 1147,
      "▁res": 1148,
      "▁ey": 1149,
      "▁yine": 1150,
      "▁birc": 1151,
      "▁end": 1152,
      "▁198": 1153,
      "▁ask": 1154,
      "▁serv": 1155,
      "▁olmak": 1156,
      "▁ihtiyac": 1157,
      "▁teklif": 1158,
      "▁abd": 1159,
      "acagını": 1160,
      "▁nasıl": 1161,
      "ciler": 1162,
      "▁kahv": 1163,
      "▁lutfen": 1164,
      "▁tu": 1165,
      "▁fir": 1166,
      "▁gecir": 1167,
      "▁yen": 1168,
      "▁ucuz": 1169,
      "▁cor": 1170,
      "ayi": 1171,
      "▁vur": 1172,
      "▁icer": 1173,
      "▁ayak": 1174,
      "▁ayrıca": 1175,
      "▁gon": 1176,
      "▁kalkan": 1177,
      "▁ucusu": 1178,
      "▁ilgiliydi": 1179,
      "▁tamam": 1180,
      "det": 1181,
      "▁begen": 1182,
      "▁um": 1183,
      "▁gul": 1184,
      "▁personeller": 1185,
      "▁yav": 1186,
      "tig": 1187,
      "▁arkadas": 1188,
      "ıt": 1189,
      "mıstı": 1190,
      "ro": 1191,
      "▁tahvil": 1192,
      "malı": 1193,
      "▁bunu": 1194,
      "▁anlas": 1195,
      "▁uzerinde": 1196,
      "eyen": 1197,
      "▁inan": 1198,
      "fa": 1199,
      "▁onc": 1200,
      "▁etk": 1201,
      "▁bircok": 1202,
      "▁ekon": 1203,
      "▁tic": 1204,
      "ıcı": 1205,
      "▁cıktı": 1206,
      "eden": 1207,
      "oj": 1208,
      "sin": 1209,
      "▁ham": 1210,
      "▁kabul": 1211,
      "min": 1212,
      "anlar": 1213,
      "▁alın": 1214,
      "mi": 1215,
      "adım": 1216,
      "▁dusuk": 1217,
      "▁ogren": 1218,
      "▁bos": 1219,
      "kur": 1220,
      "ika": 1221,
      "▁etmek": 1222,
      "▁ho": 1223,
      "▁kav": 1224,
      "▁edil": 1225,
      "rup": 1226,
      "▁cam": 1227,
      "ont": 1228,
      "▁yemekleri": 1229,
      "▁kayn": 1230,
      "▁hukum": 1231,
      "▁arab": 1232,
      "likte": 1233,
      "▁denizi": 1234,
      "▁rahat": 1235,
      "▁ogleden": 1236,
      "ali": 1237,
      "esinin": 1238,
      "samba": 1239,
      "▁carsamba": 1240,
      "ade": 1241,
      "landı": 1242,
      "gul": 1243,
      "▁kum": 1244,
      "larından": 1245,
      "▁kapan": 1246,
      "▁hava": 1247,
      "▁duzen": 1248,
      "amaz": 1249,
      "▁karıs": 1250,
      "▁eden": 1251,
      "▁oyle": 1252,
      "▁kir": 1253,
      "▁sin": 1254,
      "▁ucuslarını": 1255,
      "ersiz": 1256,
      "▁yonel": 1257,
      "▁yapıl": 1258,
      "erv": 1259,
      "atur": 1260,
      "'ta": 1261,
      "▁sını": 1262,
      "▁muk": 1263,
      "ati": 1264,
      "▁yukseldi": 1265,
      "adi": 1266,
      "elim": 1267,
      "▁beklen": 1268,
      "lum": 1269,
      "▁kok": 1270,
      "▁dort": 1271,
      "▁hız": 1272,
      "▁dustu": 1273,
      "ecegini": 1274,
      "iv": 1275,
      "▁devlet": 1276,
      "▁denver'e": 1277,
      "▁hakkında": 1278,
      "▁ir": 1279,
      "▁turkiye": 1280,
      "▁atlanta'dan": 1281,
      "▁benz": 1282,
      "▁oyun": 1283,
      "▁9": 1284,
      "lama": 1285,
      "lerinden": 1286,
      "▁air": 1287,
      "▁oyn": 1288,
      "ber": 1289,
      "ch": 1290,
      "asi": 1291,
      "▁if": 1292,
      "▁personelleri": 1293,
      "▁ulk": 1294,
      "▁sun": 1295,
      "adık": 1296,
      "▁alan": 1297,
      "▁uzerine": 1298,
      "▁ilgilendi": 1299,
      "▁ekonom": 1300,
      "▁fır": 1301,
      "▁1.": 1302,
      "ıyorum": 1303,
      "ge": 1304,
      "rak": 1305,
      "▁gosterin": 1306,
      "▁sınıf": 1307,
      "mel": 1308,
      "irim": 1309,
      "▁mar": 1310,
      "bilir": 1311,
      "▁yeter": 1312,
      "▁ilisk": 1313,
      "▁kurul": 1314,
      "▁listeleyin": 1315,
      "ina": 1316,
      "asının": 1317,
      "▁yasam": 1318,
      "▁donem": 1319,
      "▁arasındaki": 1320,
      "bul": 1321,
      "ince": 1322,
      "▁gayet": 1323,
      "▁rek": 1324,
      "▁oran": 1325,
      "▁pat": 1326,
      "elerin": 1327,
      "▁doları": 1328,
      "▁fakat": 1329,
      "kı": 1330,
      "lamıs": 1331,
      "▁yaklasık": 1332,
      "▁kaf": 1333,
      "▁cag": 1334,
      "▁rez": 1335,
      "▁vardi": 1336,
      "ayıp": 1337,
      "▁genis": 1338,
      "elen": 1339,
      "ekli": 1340,
      "aydi": 1341,
      "▁pay": 1342,
      "▁olduk": 1343,
      "▁konu": 1344,
      "▁dı": 1345,
      "▁cit": 1346,
      "▁guleryuz": 1347,
      "▁sol": 1348,
      "dugu": 1349,
      "▁kesin": 1350,
      "▁bank": 1351,
      "gım": 1352,
      "▁birlikte": 1353,
      "▁bilgi": 1354,
      "▁gece": 1355,
      "▁artıs": 1356,
      "liyor": 1357,
      "▁li": 1358,
      "▁ber": 1359,
      "▁basar": 1360,
      "lul": 1361,
      "tadır": 1362,
      "▁gorev": 1363,
      "▁12": 1364,
      "▁olmadı": 1365,
      "▁satın": 1366,
      "▁guven": 1367,
      "▁onemli": 1368,
      "lin": 1369,
      "▁yiy": 1370,
      "▁basına": 1371,
      "gum": 1372,
      "od": 1373,
      "▁tor": 1374,
      "▁kalitesi": 1375,
      "▁ah": 1376,
      "▁haber": 1377,
      "lerle": 1378,
      "▁ner": 1379,
      "▁anim": 1380,
      "▁yetk": 1381,
      "▁sonuc": 1382,
      "wa": 1383,
      "▁se": 1384,
      "ogram": 1385,
      "▁tesek": 1386,
      "lestir": 1387,
      "enkul": 1388,
      "▁guleryuzlu": 1389,
      "▁telef": 1390,
      "cih": 1391,
      "▁pittsburgh'tan": 1392,
      "▁tesekkur": 1393,
      "eti": 1394,
      "▁sog": 1395,
      "▁birbir": 1396,
      "▁yakın": 1397,
      "▁tercih": 1398,
      "▁telefon": 1399,
      "▁tekrar": 1400,
      "▁gidis": 1401,
      "o'ya": 1402,
      "▁vak": 1403,
      "▁alım": 1404,
      "▁uzak": 1405,
      "▁atlanta'ya": 1406,
      "kun": 1407,
      "madan": 1408,
      "▁sac": 1409,
      "▁konum": 1410,
      "▁hafta": 1411,
      "▁sonr": 1412,
      "▁aileler": 1413,
      "son": 1414,
      "orm": 1415,
      "▁yeniden": 1416,
      "▁yonelik": 1417,
      "'y": 1418,
      "sın": 1419,
      "▁dar": 1420,
      "alt": 1421,
      "▁tal": 1422,
      "layan": 1423,
      "misti": 1424,
      "▁yag": 1425,
      "▁yapmak": 1426,
      "▁animasyon": 1427,
      "▁agır": 1428,
      "▁baltimore'ye": 1429,
      "sal": 1430,
      "▁oak": 1431,
      "▁pet": 1432,
      "asıyor": 1433,
      "tedir": 1434,
      "▁sig": 1435,
      "▁del": 1436,
      "▁must": 1437,
      "esinden": 1438,
      "▁olmus": 1439,
      "▁program": 1440,
      "aga": 1441,
      "▁burada": 1442,
      "▁sehir": 1443,
      "▁rezerv": 1444,
      "ne": 1445,
      "rek": 1446,
      "▁olum": 1447,
      "▁beyaz": 1448,
      "▁eks": 1449,
      "▁belirt": 1450,
      "▁oakland": 1451,
      "lerdi": 1452,
      "dıgı": 1453,
      "uyu": 1454,
      "▁konusunda": 1455,
      "pr": 1456,
      "asa": 1457,
      "ısında": 1458,
      "ledi": 1459,
      "▁onlar": 1460,
      "cut": 1461,
      "ov": 1462,
      "tiler": 1463,
      "▁sil": 1464,
      "▁mad": 1465,
      "ice": 1466,
      "aban": 1467,
      "▁cuma": 1468,
      "▁pazartesi": 1469,
      "▁muz": 1470,
      "▁yapılan": 1471,
      "▁mek": 1472,
      "▁veriyorum": 1473,
      "'nun": 1474,
      "000": 1475,
      "▁bors": 1476,
      "kat": 1477,
      "▁gelecek": 1478,
      "▁city": 1479,
      "miyor": 1480,
      "▁almak": 1481,
      "▁temizligi": 1482,
      "▁yorum": 1483,
      "▁cin": 1484,
      "▁cey": 1485,
      "▁boston'a": 1486,
      "unca": 1487,
      "▁altında": 1488,
      "▁gazet": 1489,
      "▁vad": 1490,
      "tıgı": 1491,
      "medim": 1492,
      "▁dallas'a": 1493,
      "▁listele": 1494,
      "▁yavas": 1495,
      "liydi": 1496,
      "▁te": 1497,
      "▁kaldır": 1498,
      "anbul": 1499,
      "une": 1500,
      "▁ucak": 1501,
      "▁istanbul": 1502,
      "▁mevcut": 1503,
      "eral": 1504,
      "▁ip": 1505,
      "▁yetersiz": 1506,
      "▁dest": 1507,
      "amak": 1508,
      "▁olsun": 1509,
      "▁anda": 1510,
      "▁ulus": 1511,
      "0.": 1512,
      "▁salı": 1513,
      "ime": 1514,
      "meden": 1515,
      "▁soyluyor": 1516,
      "▁karsil": 1517,
      "▁cocuklu": 1518,
      "▁ticaret": 1519,
      "vel": 1520,
      "▁verdi": 1521,
      "▁belki": 1522,
      "▁odalar": 1523,
      "muz": 1524,
      "siy": 1525,
      "▁kez": 1526,
      "emmel": 1527,
      "▁tatil": 1528,
      "▁gez": 1529,
      "▁yatırımcı": 1530,
      "▁mukemmel": 1531,
      "▁yaban": 1532,
      "ele": 1533,
      "▁cif": 1534,
      "emi": 1535,
      "manın": 1536,
      "▁kazanc": 1537,
      "▁neler": 1538,
      "apon": 1539,
      "elerini": 1540,
      "▁erkek": 1541,
      "gına": 1542,
      "hal": 1543,
      "▁ker": 1544,
      "▁fin": 1545,
      "▁tekn": 1546,
      "▁kıymet": 1547,
      "tıs": 1548,
      "indeki": 1549,
      "▁gar": 1550,
      "▁kapı": 1551,
      "▁bize": 1552,
      "▁japon": 1553,
      "▁ozellikle": 1554,
      "▁mahk": 1555,
      "▁yiyecek": 1556,
      "lemek": 1557,
      "▁sef": 1558,
      "enc": 1559,
      "ilmis": 1560,
      "▁met": 1561,
      "▁mey": 1562,
      "▁menkul": 1563,
      "embe": 1564,
      "▁rak": 1565,
      "▁ucrete": 1566,
      "▁kem": 1567,
      "▁sın": 1568,
      "▁dag": 1569,
      "▁gur": 1570,
      "▁yum": 1571,
      "▁yıllık": 1572,
      "▁yerine": 1573,
      "▁kısa": 1574,
      "▁ugr": 1575,
      "o'dan": 1576,
      "▁anal": 1577,
      "▁geliyor": 1578,
      "▁adet": 1579,
      "▁philadelphia'ya": 1580,
      "ınca": 1581,
      "▁fon": 1582,
      "ıma": 1583,
      "▁havayolları": 1584,
      "▁faiz": 1585,
      "▁endek": 1586,
      "▁boz": 1587,
      "▁ro": 1588,
      "landır": 1589,
      "▁dusus": 1590,
      "▁sanat": 1591,
      "▁hala": 1592,
      "gında": 1593,
      "isini": 1594,
      "▁zar": 1595,
      "▁sonunda": 1596,
      "'daki": 1597,
      "▁$": 1598,
      "▁seb": 1599,
      "iyi": 1600,
      "▁uf": 1601,
      "▁calis": 1602,
      "iyeti": 1603,
      "▁pittsburgh'a": 1604,
      "▁yem": 1605,
      "▁ru": 1606,
      "▁gol": 1607,
      "asır": 1608,
      "▁bilgis": 1609,
      "▁parc": 1610,
      "gisi": 1611,
      "▁kisi": 1612,
      "alım": 1613,
      "ami": 1614,
      "imin": 1615,
      "▁seviy": 1616,
      "▁kolay": 1617,
      "▁kotuydu": 1618,
      "'te": 1619,
      "ee": 1620,
      "pan": 1621,
      "▁hen": 1622,
      "▁min": 1623,
      "ılır": 1624,
      "ebil": 1625,
      "▁devr": 1626,
      "▁istemiyorum": 1627,
      "gan": 1628,
      "st": 1629,
      "▁cab": 1630,
      "▁kurum": 1631,
      "▁sp": 1632,
      "▁tep": 1633,
      "▁pah": 1634,
      "ılıyor": 1635,
      "▁sure": 1636,
      "hur": 1637,
      "su": 1638,
      "arlar": 1639,
      "▁diz": 1640,
      "▁hes": 1641,
      "▁hey": 1642,
      "▁herhan": 1643,
      "masını": 1644,
      "▁borc": 1645,
      "▁dikkat": 1646,
      "▁kitap": 1647,
      "▁ihtiyacım": 1648,
      "▁herhangi": 1649,
      "▁sap": 1650,
      "▁oluyor": 1651,
      "▁azdi": 1652,
      "▁dolayi": 1653,
      "▁tahmin": 1654,
      "▁urun": 1655,
      "▁la": 1656,
      "▁sist": 1657,
      "▁hos": 1658,
      "▁nok": 1659,
      "agıt": 1660,
      "▁philadelphia'dan": 1661,
      "▁hukumet": 1662,
      "▁rezervasyon": 1663,
      "dak": 1664,
      "▁fen": 1665,
      "▁id": 1666,
      "▁halk": 1667,
      "▁toplan": 1668,
      "▁si": 1669,
      "▁str": 1670,
      "▁gidiyor": 1671,
      "▁dallas'tan": 1672,
      "tul": 1673,
      "unden": 1674,
      "oloj": 1675,
      "▁bask": 1676,
      "▁gid": 1677,
      "▁baskanı": 1678,
      "▁polit": 1679,
      "and": 1680,
      "▁of": 1681,
      "abı": 1682,
      "▁199": 1683,
      "van": 1684,
      "vet": 1685,
      "▁tır": 1686,
      "ilerin": 1687,
      "▁uzere": 1688,
      "▁hast": 1689,
      "▁baltimore'den": 1690,
      "meyi": 1691,
      "▁br": 1692,
      "▁beri": 1693,
      "all": 1694,
      "unde": 1695,
      "amadı": 1696,
      "imde": 1697,
      "▁varan": 1698,
      "lamak": 1699,
      "▁ikinci": 1700,
      "▁tabi": 1701,
      "osy": 1702,
      "▁islet": 1703,
      "▁bildir": 1704,
      "▁ortal": 1705,
      "▁muht": 1706,
      "▁avrup": 1707,
      "▁kapandı": 1708,
      "alet": 1709,
      "▁tuk": 1710,
      "▁cat": 1711,
      "amıs": 1712,
      "▁rap": 1713,
      "▁15": 1714,
      "▁acı": 1715,
      "▁insanlar": 1716,
      "▁kı": 1717,
      "▁suc": 1718,
      "▁dayan": 1719,
      "▁cun": 1720,
      "▁yere": 1721,
      "▁temizlik": 1722,
      "▁ortaya": 1723,
      "▁otelin": 1724,
      "▁aile": 1725,
      "▁hatta": 1726,
      "▁cift": 1727,
      "▁bilgisay": 1728,
      ".2": 1729,
      "▁bic": 1730,
      "undan": 1731,
      "▁coz": 1732,
      "aten": 1733,
      "▁fed": 1734,
      "▁oldugun": 1735,
      "▁st.": 1736,
      "urdu": 1737,
      "▁gelis": 1738,
      "erken": 1739,
      ".3": 1740,
      "kin": 1741,
      "meler": 1742,
      "muyor": 1743,
      "sas": 1744,
      "yo": 1745,
      "▁alıs": 1746,
      "ıyorlar": 1747,
      "▁degildir": 1748,
      "▁persembe": 1749,
      "▁karsıl": 1750,
      "▁hafif": 1751,
      "▁yonetim": 1752,
      "▁dır": 1753,
      "▁altı": 1754,
      "▁yaptir": 1755,
      "aların": 1756,
      "afir": 1757,
      "▁francisco'dan": 1758,
      "▁misafir": 1759,
      "▁diy": 1760,
      "▁giy": 1761,
      "▁olanak": 1762,
      "▁cocu": 1763,
      "▁hatır": 1764,
      "▁cogu": 1765,
      "▁yetkil": 1766,
      "▁rapor": 1767,
      "ukee": 1768,
      "iyorlar": 1769,
      "▁milwa": 1770,
      "▁dolara": 1771,
      "▁degistir": 1772,
      "▁corp": 1773,
      "▁cunku": 1774,
      ".6": 1775,
      "apol": 1776,
      "▁yuzlu": 1777,
      "mustu": 1778,
      "▁dunya": 1779,
      "▁kork": 1780,
      "▁havuzu": 1781,
      "▁milwaukee": 1782,
      "bol": 1783,
      "▁koc": 1784,
      "▁cocuklar": 1785,
      "▁duvar": 1786,
      "▁okul": 1787,
      "▁davran": 1788,
      "mamıs": 1789,
      "▁ode": 1790,
      "tif": 1791,
      "ustos": 1792,
      "▁agustos": 1793,
      "▁destek": 1794,
      "▁henuz": 1795,
      "apolis": 1796,
      "▁dum": 1797,
      "▁demek": 1798,
      "esiz": 1799,
      "▁tı": 1800,
      "▁hizmeti": 1801,
      "imizi": 1802,
      "▁degerlendir": 1803,
      ".7": 1804,
      "ırdı": 1805,
      "▁olma": 1806,
      "▁bilim": 1807,
      "▁ib": 1808,
      "▁ucreti": 1809,
      "▁dc": 1810,
      "▁ma": 1811,
      "▁fik": 1812,
      "larıyla": 1813,
      "▁indi": 1814,
      "▁20": 1815,
      "▁demir": 1816,
      "gar": 1817,
      "▁unu": 1818,
      "ant": 1819,
      "emez": 1820,
      "▁olay": 1821,
      "▁olsa": 1822,
      "▁nis": 1823,
      "▁kard": 1824,
      "▁vardır": 1825,
      "▁ingil": 1826,
      "▁ince": 1827,
      "▁seyler": 1828,
      "▁bunlar": 1829,
      "▁bog": 1830,
      "asından": 1831,
      "uncu": 1832,
      "▁hac": 1833,
      "▁cez": 1834,
      "alarını": 1835,
      "ecegi": 1836,
      "▁americ": 1837,
      "▁cevr": 1838,
      "▁bolg": 1839,
      "eydi": 1840,
      "▁renk": 1841,
      "▁dusunuyor": 1842,
      "▁arastır": 1843,
      "forman": 1844,
      "▁ceyrek": 1845,
      "▁sik": 1846,
      "▁birden": 1847,
      "▁zaten": 1848,
      "▁lak": 1849,
      "▁uygul": 1850,
      "▁esk": 1851,
      "▁olabilirdi": 1852,
      "gini": 1853,
      "▁red": 1854,
      "ızı": 1855,
      "▁orta": 1856,
      "▁yarat": 1857,
      "▁agac": 1858,
      "leyen": 1859,
      "▁degisik": 1860,
      ".8": 1861,
      "▁sez": 1862,
      "▁rag": 1863,
      "▁kalmadim": 1864,
      "▁gunluk": 1865,
      "▁asagı": 1866,
      "▁buna": 1867,
      "▁imkan": 1868,
      "▁kredi": 1869,
      "▁kaynak": 1870,
      "▁bilgisayar": 1871,
      "'i": 1872,
      "▁dis": 1873,
      "irdi": 1874,
      "▁tr": 1875,
      "▁kara": 1876,
      "▁yapan": 1877,
      "maktadır": 1878,
      "igini": 1879,
      "▁agz": 1880,
      "▁30": 1881,
      "▁derece": 1882,
      "▁tasar": 1883,
      "▁sabahı": 1884,
      "▁performan": 1885,
      "▁onceki": 1886,
      "▁dak": 1887,
      "ayacak": 1888,
      "esil": 1889,
      "eyim": 1890,
      "▁net": 1891,
      "▁edilen": 1892,
      ".9": 1893,
      "▁cen": 1894,
      "olu": 1895,
      "▁fiyatları": 1896,
      "▁harc": 1897,
      "encer": 1898,
      "\\/": 1899,
      "ektr": 1900,
      "▁alak": 1901,
      "▁gordu": 1902,
      "mektedir": 1903,
      "uyla": 1904,
      "▁giris": 1905,
      "▁piyasa": 1906,
      "▁vadeli": 1907,
      "mer": 1908,
      "▁yu": 1909,
      "ısını": 1910,
      "▁re": 1911,
      "▁bizi": 1912,
      "▁gercekten": 1913,
      "▁ragmen": 1914,
      "▁sus": 1915,
      "▁yık": 1916,
      "ast": 1917,
      "▁arası": 1918,
      "▁olması": 1919,
      "masız": 1920,
      "▁cumhur": 1921,
      "aj": 1922,
      "bil": 1923,
      "acagı": 1924,
      "▁turlu": 1925,
      "▁dolardan": 1926,
      "▁chic": 1927,
      "▁yalnızca": 1928,
      "udu": 1929,
      "▁cap": 1930,
      "ate": 1931,
      "▁fatur": 1932,
      "▁ilgi": 1933,
      "▁ana": 1934,
      "▁gunes": 1935,
      "digimiz": 1936,
      "masına": 1937,
      "ilmesi": 1938,
      "▁yayın": 1939,
      "▁american": 1940,
      "▁chicag": 1941,
      "ban": 1942,
      "unuz": 1943,
      "dip": 1944,
      "okr": 1945,
      "▁onumuz": 1946,
      "▁ziy": 1947,
      "▁millet": 1948,
      "▁beydi": 1949,
      "▁ogret": 1950,
      "▁las": 1951,
      "▁mec": 1952,
      "▁zen": 1953,
      "▁orn": 1954,
      "▁otom": 1955,
      "▁yanl": 1956,
      "▁senedi": 1957,
      "ibar": 1958,
      "▁servis": 1959,
      "day": 1960,
      "sı": 1961,
      "▁got": 1962,
      "▁mag": 1963,
      "▁11": 1964,
      "▁isi": 1965,
      "▁kims": 1966,
      "▁faal": 1967,
      "▁kendini": 1968,
      "▁yabancı": 1969,
      "lah": 1970,
      "rı": 1971,
      "sil": 1972,
      "▁giz": 1973,
      "larımız": 1974,
      "▁karayol": 1975,
      "▁elektr": 1976,
      "▁yerde": 1977,
      "▁ortak": 1978,
      "▁egit": 1979,
      "▁annem": 1980,
      "▁oldukca": 1981,
      "▁iddi": 1982,
      "▁avrupa": 1983,
      "siniz": 1984,
      "▁bat": 1985,
      "anlı": 1986,
      "indan": 1987,
      "ilar": 1988,
      "▁mac": 1989,
      "lugu": 1990,
      "▁soguk": 1991,
      "uru": 1992,
      "▁arac": 1993,
      "▁ister": 1994,
      "▁orada": 1995,
      "'na": 1996,
      "▁dogr": 1997,
      "▁kucuktu": 1998,
      "▁eger": 1999,
      "obil": 2000,
      "▁itibar": 2001,
      "▁unit": 2002,
      ".4": 2003,
      "▁dam": 2004,
      "leriyle": 2005,
      "▁amac": 2006,
      "leme": 2007,
      "sunuz": 2008,
      "▁kimse": 2009,
      "▁cumartesi": 2010,
      "▁ustune": 2011,
      "▁aktarmasız": 2012,
      "ation": 2013,
      "oh": 2014,
      "ıc": 2015,
      "▁sam": 2016,
      "ell": 2017,
      "ator": 2018,
      "▁arada": 2019,
      "▁reh": 2020,
      "▁kaldı": 2021,
      "▁basında": 2022,
      "▁komis": 2023,
      "▁artarak": 2024,
      "▁hepsi": 2025,
      ".1": 2026,
      "gas": 2027,
      "lilik": 2028,
      "arl": 2029,
      "▁may": 2030,
      "▁num": 2031,
      "▁alman": 2032,
      "tılar": 2033,
      "▁ates": 2034,
      "▁super": 2035,
      "▁boyunca": 2036,
      "▁tesisin": 2037,
      "▁gitti": 2038,
      "▁sakin": 2039,
      "tern": 2040,
      "▁kuv": 2041,
      "▁airlin": 2042,
      "ormal": 2043,
      "▁karayolu": 2044,
      "▁airlines": 2045,
      "▁pis": 2046,
      "▁olustur": 2047,
      "▁onların": 2048,
      "▁ayında": 2049,
      "▁adım": 2050,
      "▁tartıs": 2051,
      "▁mudur": 2052,
      "▁etmem": 2053,
      "▁eksik": 2054,
      "▁nokt": 2055,
      "▁col": 2056,
      "▁mum": 2057,
      "▁ucmak": 2058,
      "▁oner": 2059,
      "▁100": 2060,
      "▁etraf": 2061,
      "▁istiyor": 2062,
      "▁ihr": 2063,
      "▁eglen": 2064,
      "▁gonder": 2065,
      "▁gal": 2066,
      "▁mıs": 2067,
      "eyecek": 2068,
      "lanan": 2069,
      "asıyla": 2070,
      "▁vermek": 2071,
      "▁engel": 2072,
      "▁sanki": 2073,
      "▁temmuz": 2074,
      "▁kesinlikle": 2075,
      "tin": 2076,
      "▁tok": 2077,
      "lanmıs": 2078,
      "▁elde": 2079,
      "▁yani": 2080,
      "▁senin": 2081,
      "ılıgı": 2082,
      "▁farklı": 2083,
      "▁eylul": 2084,
      "▁reklam": 2085,
      "▁politik": 2086,
      "dın": 2087,
      "egi": 2088,
      "orn": 2089,
      "▁teh": 2090,
      "estir": 2091,
      "eci": 2092,
      "▁nak": 2093,
      "▁anket": 2094,
      "▁bilgil": 2095,
      "▁olmayan": 2096,
      "▁kapat": 2097,
      "▁surekli": 2098,
      "▁doldur": 2099,
      "▁merkezi": 2100,
      "▁zengin": 2101,
      "of": 2102,
      "▁normal": 2103,
      "iste": 2104,
      "▁akl": 2105,
      "▁odam": 2106,
      "▁toplam": 2107,
      "▁uzerinden": 2108,
      "▁ustunde": 2109,
      "▁komisyon": 2110,
      "inda": 2111,
      "ise": 2112,
      "ulmus": 2113,
      "▁aralık": 2114,
      "▁gecmis": 2115,
      "▁temel": 2116,
      "▁olmaz": 2117,
      "▁katil": 2118,
      "▁altın": 2119,
      "tigini": 2120,
      "▁ifade": 2121,
      "▁seni": 2122,
      "irler": 2123,
      "▁ciz": 2124,
      "▁dolarlık": 2125,
      "▁borsası": 2126,
      "▁sınır": 2127,
      "▁united": 2128,
      "mesini": 2129,
      "▁af": 2130,
      "▁yapıyor": 2131,
      "▁dair": 2132,
      "▁duserek": 2133,
      "▁degilim": 2134,
      "'nda": 2135,
      "▁asl": 2136,
      "▁sirketin": 2137,
      "▁onunde": 2138,
      "▁analist": 2139,
      "▁sistem": 2140,
      "cusu": 2141,
      "ladım": 2142,
      "▁bus": 2143,
      "▁kut": 2144,
      "▁siy": 2145,
      "▁nef": 2146,
      "orth": 2147,
      "▁guclu": 2148,
      "▁yetersizdi": 2149,
      "siyon": 2150,
      "▁nelerdir": 2151,
      "▁kıymetler": 2152,
      "dem": 2153,
      "▁kil": 2154,
      "▁ders": 2155,
      "▁tası": 2156,
      "atik": 2157,
      "▁derin": 2158,
      "ecegim": 2159,
      "▁doktor": 2160,
      "▁savun": 2161,
      "▁sıcak": 2162,
      "▁yeterli": 2163,
      "▁kuvvet": 2164,
      "maları": 2165,
      "ydı": 2166,
      "▁ap": 2167,
      "▁elinde": 2168,
      "▁halde": 2169,
      "▁yuzde": 2170,
      "▁toplum": 2171,
      "▁kontr": 2172,
      "▁lir": 2173,
      "▁sana": 2174,
      "▁kendim": 2175,
      "▁hanım": 2176,
      "▁temizdi": 2177,
      "▁carp": 2178,
      "▁cevap": 2179,
      "▁hesap": 2180,
      "▁faaliyet": 2181,
      "▁siyah": 2182,
      "lek": 2183,
      "mıyor": 2184,
      "▁dan": 2185,
      "▁birinci": 2186,
      "emiz": 2187,
      "ite": 2188,
      "▁ard": 2189,
      "▁konfor": 2190,
      "▁belli": 2191,
      "▁yazar": 2192,
      "▁baglı": 2193,
      "▁bolum": 2194,
      "▁miami": 2195,
      "▁babam": 2196,
      "▁edecek": 2197,
      "▁toront": 2198,
      "▁sosy": 2199,
      "▁yana": 2200,
      "▁13": 2201,
      "▁ulasım": 2202,
      "▁onumuzdeki": 2203,
      "▁kelim": 2204,
      "▁ti": 2205,
      "▁olcu": 2206,
      "ısına": 2207,
      "▁vegas": 2208,
      "tiv": 2209,
      "▁veririm": 2210,
      "▁lo": 2211,
      "▁gecti": 2212,
      "dikleri": 2213,
      "▁sene": 2214,
      "▁calısan": 2215,
      "▁ediyorum": 2216,
      "▁yonetic": 2217,
      "▁federal": 2218,
      "▁corp.": 2219,
      "oeni": 2220,
      "▁sem": 2221,
      "▁siyas": 2222,
      "▁dost": 2223,
      "ustu": 2224,
      "▁depr": 2225,
      "ımda": 2226,
      "▁onları": 2227,
      "▁kalab": 2228,
      "▁gider": 2229,
      "▁vergi": 2230,
      "▁duygu": 2231,
      "▁phoeni": 2232,
      "▁phoenix": 2233,
      "gımız": 2234,
      "rik": 2235,
      "▁kagıt": 2236,
      "▁det": 2237,
      "▁day": 2238,
      "lerce": 2239,
      "▁los": 2240,
      "▁25": 2241,
      "he": 2242,
      "▁yedi": 2243,
      "ume": 2244,
      "▁nes": 2245,
      "▁insa": 2246,
      "▁yıllar": 2247,
      "iforn": 2248,
      "▁sokak": 2249,
      "▁benzer": 2250,
      "▁beraber": 2251,
      "'ı": 2252,
      "cısı": 2253,
      "rol": 2254,
      "sat": 2255,
      "iran": 2256,
      "ess": 2257,
      "▁pencer": 2258,
      "▁icine": 2259,
      "lendi": 2260,
      "ayıf": 2261,
      "▁uyan": 2262,
      "▁evet": 2263,
      "ıyı": 2264,
      "▁sirketi": 2265,
      "▁sozles": 2266,
      "▁size": 2267,
      "detti": 2268,
      "meyen": 2269,
      "arlan": 2270,
      "▁bon": 2271,
      "▁hır": 2272,
      "▁mik": 2273,
      "att": 2274,
      "▁fil": 2275,
      "▁icecek": 2276,
      "ustr": 2277,
      "▁dolu": 2278,
      "▁sektor": 2279,
      "▁takım": 2280,
      "layacak": 2281,
      "edef": 2282,
      "sen": 2283,
      "▁emek": 2284,
      "▁bo": 2285,
      "▁kuz": 2286,
      "▁sul": 2287,
      "▁ydi": 2288,
      "▁mon": 2289,
      "ırı": 2290,
      "ısından": 2291,
      "▁iler": 2292,
      "▁a.": 2293,
      "▁yanında": 2294,
      "▁musa": 2295,
      "qu": 2296,
      "▁gok": 2297,
      "aliydi": 2298,
      "agın": 2299,
      "oglu": 2300,
      "▁kong": 2301,
      "▁orland": 2302,
      "▁yarın": 2303,
      "▁--": 2304,
      "▁katıl": 2305,
      "▁haft": 2306,
      "▁ingiliz": 2307,
      "▁aslında": 2308,
      "mistir": 2309,
      "▁duk": 2310,
      "▁mo": 2311,
      "▁gelistir": 2312,
      "▁maliyet": 2313,
      "▁artısla": 2314,
      "▁odedigim": 2315,
      "▁rehber": 2316,
      "'s": 2317,
      "▁mez": 2318,
      "amay": 2319,
      "imli": 2320,
      "uyorum": 2321,
      "▁yılında": 2322,
      "egin": 2323,
      "▁balık": 2324,
      "▁saglık": 2325,
      "▁kırm": 2326,
      "▁cevir": 2327,
      "▁savas": 2328,
      "▁bahc": 2329,
      "▁kasım": 2330,
      "▁roman": 2331,
      "▁ufak": 2332,
      "yen": 2333,
      "▁be": 2334,
      "▁yog": 2335,
      "▁yesil": 2336,
      "▁cid": 2337,
      "▁muc": 2338,
      "▁vaz": 2339,
      "uma": 2340,
      "eyse": 2341,
      "aba": 2342,
      "▁gorunuyor": 2343,
      "▁14": 2344,
      "▁gelmis": 2345,
      "▁indir": 2346,
      "▁veren": 2347,
      "▁kurtul": 2348,
      "▁bakan": 2349,
      "▁salt": 2350,
      "▁lezzetli": 2351,
      "▁sıra": 2352,
      "▁dısarı": 2353,
      "'u": 2354,
      "bu": 2355,
      "mur": 2356,
      "yan": 2357,
      "▁&": 2358,
      "asız": 2359,
      "isinin": 2360,
      "eyle": 2361,
      "▁defa": 2362,
      "▁ez": 2363,
      "▁ren": 2364,
      "▁yardim": 2365,
      "▁hale": 2366,
      "▁yakin": 2367,
      "▁zamanda": 2368,
      "amadim": 2369,
      "▁kalite": 2370,
      "▁hisseleri": 2371,
      "▁nedeniyle": 2372,
      "▁endeksi": 2373,
      "kar": 2374,
      "set": 2375,
      "▁op": 2376,
      "▁yeme": 2377,
      "▁tit": 2378,
      "▁cak": 2379,
      "▁birer": 2380,
      "usunu": 2381,
      "elere": 2382,
      "taj": 2383,
      "alarına": 2384,
      "▁veriyor": 2385,
      "uston": 2386,
      "▁bayan": 2387,
      "▁univ": 2388,
      "▁asker": 2389,
      "▁ruh": 2390,
      "▁tuket": 2391,
      "▁unut": 2392,
      "▁univers": 2393,
      "25": 2394,
      "▁hedef": 2395,
      "azım": 2396,
      "▁fel": 2397,
      "▁film": 2398,
      "▁nih": 2399,
      "▁lim": 2400,
      "acagım": 2401,
      "▁heps": 2402,
      "▁houston": 2403,
      "▁ekonomi": 2404,
      "▁delta": 2405,
      "▁kardes": 2406,
      "▁performans": 2407,
      "▁cic": 2408,
      "▁mav": 2409,
      "dav": 2410,
      "ılması": 2411,
      "▁ucuncu": 2412,
      "▁artır": 2413,
      "▁bilet": 2414,
      "▁karsısında": 2415,
      "▁bazen": 2416,
      "▁denize": 2417,
      "▁yurt": 2418,
      "▁sessiz": 2419,
      "▁yanlıs": 2420,
      "a'nın": 2421,
      "ji": 2422,
      "tuk": 2423,
      "▁sel": 2424,
      "▁gay": 2425,
      "▁oper": 2426,
      "▁men": 2427,
      "▁kalan": 2428,
      "lugun": 2429,
      "▁zayıf": 2430,
      "▁1/": 2431,
      "▁seyi": 2432,
      "▁ekim": 2433,
      "otte": 2434,
      "arken": 2435,
      "▁charl": 2436,
      "▁yapılacak": 2437,
      "▁olmadıgını": 2438,
      "▁otomobil": 2439,
      "▁charlotte": 2440,
      "lim": 2441,
      "▁sark": 2442,
      "aket": 2443,
      "▁cem": 2444,
      "▁mat": 2445,
      "adaki": 2446,
      "osu": 2447,
      "lass": 2448,
      "▁haziran": 2449,
      "▁newark": 2450,
      "ligini": 2451,
      "▁muster": 2452,
      "▁indian": 2453,
      "▁ihrac": 2454,
      "cuk": 2455,
      "leye": 2456,
      "▁adı": 2457,
      "▁cay": 2458,
      "alarda": 2459,
      "alarının": 2460,
      "▁edildi": 2461,
      "▁sert": 2462,
      "▁avuk": 2463,
      "▁kampan": 2464,
      "▁numar": 2465,
      "▁sosyal": 2466,
      "▁deprem": 2467,
      "▁indianapolis": 2468,
      "uf": 2469,
      "ari": 2470,
      "▁tac": 2471,
      "urt": 2472,
      "eyn": 2473,
      "▁18": 2474,
      "elerde": 2475,
      "▁actı": 2476,
      "▁yarı": 2477,
      "▁dalg": 2478,
      "▁yazı": 2479,
      "▁tanım": 2480,
      "▁gercekles": 2481,
      "▁secim": 2482,
      "▁finans": 2483,
      "▁lake": 2484,
      "▁gotur": 2485,
      "▁ciddi": 2486,
      "▁sis": 2487,
      "▁meh": 2488,
      "▁pa": 2489,
      "▁ali": 2490,
      "▁onay": 2491,
      "▁angel": 2492,
      "lıgını": 2493,
      "▁etmis": 2494,
      "mıstır": 2495,
      "▁sorum": 2496,
      "▁ayrıl": 2497,
      "▁tutar": 2498,
      "▁kansas": 2499,
      "▁sefer": 2500,
      "▁nisan": 2501,
      "▁degisiklik": 2502,
      "ij": 2503,
      "ser": 2504,
      "▁saf": 2505,
      "ong": 2506,
      "▁arz": 2507,
      "▁gide": 2508,
      "gıc": 2509,
      "▁milli": 2510,
      "▁kurulu": 2511,
      "cılar": 2512,
      "▁sermay": 2513,
      "iddet": 2514,
      "▁kendisi": 2515,
      "▁begendim": 2516,
      "▁ortalama": 2517,
      "dal": 2518,
      "yalar": 2519,
      "▁dos": 2520,
      "iri": 2521,
      "▁grup": 2522,
      "▁tez": 2523,
      "▁oldur": 2524,
      "▁ucusların": 2525,
      "▁aylık": 2526,
      "▁dahil": 2527,
      "▁temsil": 2528,
      "▁sub": 2529,
      "▁yuzunden": 2530,
      "▁hayal": 2531,
      "▁satıslar": 2532,
      "▁dieg": 2533,
      "▁first": 2534,
      "▁meydan": 2535,
      "▁zarar": 2536,
      "▁karsılas": 2537,
      "sınız": 2538,
      "▁0.": 2539,
      "ord": 2540,
      "ekler": 2541,
      "▁def": 2542,
      "▁yapar": 2543,
      "▁idar": 2544,
      "▁haline": 2545,
      "▁toprak": 2546,
      "▁sahi": 2547,
      "▁bekle": 2548,
      "▁mali": 2549,
      "▁uretic": 2550,
      "▁kendisine": 2551,
      "▁sov": 2552,
      "▁seatt": 2553,
      "▁seattle": 2554,
      "▁gom": 2555,
      "▁pil": 2556,
      "▁buz": 2557,
      "▁fer": 2558,
      "▁naz": 2559,
      "uluk": 2560,
      "▁efen": 2561,
      "▁ici": 2562,
      "▁anlay": 2563,
      "▁intern": 2564,
      "▁bilm": 2565,
      "medik": 2566,
      "▁senet": 2567,
      "▁gozleri": 2568,
      "▁dusunc": 2569,
      "▁merak": 2570,
      "▁rakam": 2571,
      "▁kırmızı": 2572,
      "bar": 2573,
      "yet": 2574,
      "▁.\"": 2575,
      "ıntı": 2576,
      "larım": 2577,
      "▁birim": 2578,
      "esiyle": 2579,
      "ize": 2580,
      "▁ileri": 2581,
      "▁ara": 2582,
      "▁gorul": 2583,
      "▁17": 2584,
      "▁verdigi": 2585,
      "lastır": 2586,
      "▁soylem": 2587,
      "▁ele": 2588,
      "▁dov": 2589,
      "▁eve": 2590,
      "▁evvel": 2591,
      "▁kultur": 2592,
      "▁soru": 2593,
      "▁insanın": 2594,
      "▁bekliyor": 2595,
      "▁demokr": 2596,
      "luluk": 2597,
      "▁angeles": 2598,
      "bak": 2599,
      "gumuz": 2600,
      "mayan": 2601,
      "▁batı": 2602,
      "▁sut": 2603,
      "▁gitt": 2604,
      "▁taz": 2605,
      "▁hik": 2606,
      "▁cont": 2607,
      "▁vat": 2608,
      "▁pan": 2609,
      "tigi": 2610,
      "tup": 2611,
      "▁bundan": 2612,
      "▁kaybet": 2613,
      "▁hazine": 2614,
      "▁hızlı": 2615,
      "▁iliskin": 2616,
      "▁ulusal": 2617,
      "▁olmadi": 2618,
      "▁yardimci": 2619,
      "anlık": 2620,
      "▁ten": 2621,
      "▁tuz": 2622,
      "▁cı": 2623,
      "▁class": 2624,
      "▁fay": 2625,
      "abet": 2626,
      "isten": 2627,
      "▁aradi": 2628,
      "imize": 2629,
      "imizin": 2630,
      "▁onune": 2631,
      "▁bulunan": 2632,
      "▁misin": 2633,
      "▁araba": 2634,
      "▁silah": 2635,
      "▁musait": 2636,
      "kal": 2637,
      "pa": 2638,
      "teki": 2639,
      "▁lı": 2640,
      "inent": 2641,
      "▁dek": 2642,
      "▁tir": 2643,
      "▁huz": 2644,
      "ıstır": 2645,
      "lanıyor": 2646,
      "▁istedi": 2647,
      "ograf": 2648,
      "lenen": 2649,
      "▁21": 2650,
      "▁surdur": 2651,
      "▁dolas": 2652,
      "▁saglam": 2653,
      "▁mahkem": 2654,
      "tal": 2655,
      "▁ters": 2656,
      "iyim": 2657,
      "▁mor": 2658,
      "alara": 2659,
      "▁dusman": 2660,
      "▁bence": 2661,
      "▁acıl": 2662,
      "▁olmasi": 2663,
      "▁bagım": 2664,
      "▁bahse": 2665,
      "▁durumda": 2666,
      "▁mumkun": 2667,
      "▁continent": 2668,
      "oc": 2669,
      "inn": 2670,
      "▁des": 2671,
      "▁delik": 2672,
      "▁yir": 2673,
      "izi": 2674,
      "ich": 2675,
      "acık": 2676,
      "▁fab": 2677,
      "▁ilgis": 2678,
      "▁iceri": 2679,
      "▁alır": 2680,
      "elerinin": 2681,
      "▁insanların": 2682,
      "▁kısm": 2683,
      "▁heyec": 2684,
      "▁egitim": 2685,
      "din": 2686,
      "sak": 2687,
      "ane": 2688,
      "▁tiyat": 2689,
      "isinde": 2690,
      "▁birles": 2691,
      "▁mur": 2692,
      "lerim": 2693,
      "▁ilac": 2694,
      "tıgını": 2695,
      "▁yapacak": 2696,
      "▁gecer": 2697,
      "▁geril": 2698,
      "▁bunları": 2699,
      "▁prob": 2700,
      "▁proj": 2701,
      "▁kaliteli": 2702,
      "▁kosul": 2703,
      "▁dısında": 2704,
      "memis": 2705,
      "▁dunyanın": 2706,
      "▁begenmedim": 2707,
      "▁ekonomik": 2708,
      "'yi": 2709,
      "▁petrol": 2710,
      "▁city'e": 2711,
      "▁kere": 2712,
      "▁kemal": 2713,
      "▁fena": 2714,
      "▁continental": 2715,
      "'deki": 2716,
      "gah": 2717,
      "▁kimi": 2718,
      "▁os": 2719,
      "▁yel": 2720,
      "▁cik": 2721,
      "▁mark": 2722,
      "▁onlara": 2723,
      "▁verdigim": 2724,
      "▁ide": 2725,
      "▁elestir": 2726,
      "▁edin": 2727,
      "▁seyahat": 2728,
      "▁co.": 2729,
      "▁bakım": 2730,
      "▁ekmek": 2731,
      "▁gitmek": 2732,
      "▁bulundu": 2733,
      "▁olursa": 2734,
      "▁talep": 2735,
      "ational": 2736,
      "▁kontrol": 2737,
      "gor": 2738,
      "ladık": 2739,
      "▁tık": 2740,
      "▁isk": 2741,
      "▁kenar": 2742,
      "▁yuzme": 2743,
      "▁salon": 2744,
      "▁genellikle": 2745,
      "▁inc.": 2746,
      "▁yaptıgı": 2747,
      "▁sinir": 2748,
      "▁eskiydi": 2749,
      "▁avukat": 2750,
      "meli": 2751,
      "▁siddet": 2752,
      "isine": 2753,
      "▁cle": 2754,
      "izyon": 2755,
      "istan": 2756,
      "▁baslamıs": 2757,
      "▁gordum": 2758,
      "▁aydın": 2759,
      "▁ettim": 2760,
      "▁kurtar": 2761,
      "▁azal": 2762,
      "▁zorunda": 2763,
      "▁olcude": 2764,
      "▁ısı": 2765,
      "▁gru": 2766,
      "▁hus": 2767,
      "aydı": 2768,
      "▁olup": 2769,
      "▁sona": 2770,
      "▁isaret": 2771,
      "ilere": 2772,
      "▁lazım": 2773,
      "▁kendiler": 2774,
      "▁part": 2775,
      "▁26": 2776,
      "▁evde": 2777,
      "▁personeli": 2778,
      "▁yatak": 2779,
      "▁ert": 2780,
      "iligi": 2781,
      "▁hanimdi": 2782,
      "▁yardımcı": 2783,
      "▁servisi": 2784,
      "▁sebep": 2785,
      "gec": 2786,
      "kın": 2787,
      "mesine": 2788,
      "▁yun": 2789,
      "ilig": 2790,
      "▁tip": 2791,
      "▁cer": 2792,
      "▁cep": 2793,
      "▁cent": 2794,
      "▁mot": 2795,
      "▁port": 2796,
      "▁olus": 2797,
      "▁gormek": 2798,
      "▁istif": 2799,
      "▁gund": 2800,
      "▁ait": 2801,
      "▁calısıyor": 2802,
      "▁tatlı": 2803,
      "▁izin": 2804,
      "▁ısık": 2805,
      "▁dakika": 2806,
      "▁magaz": 2807,
      "▁universit": 2808,
      "▁problem": 2809,
      "dun": 2810,
      "kara": 2811,
      "ind": 2812,
      "▁sip": 2813,
      "▁ocak": 2814,
      "ayla": 2815,
      "amız": 2816,
      "urlu": 2817,
      "ates": 2818,
      "▁ucuyor": 2819,
      "▁ilet": 2820,
      "dıgını": 2821,
      "▁dusur": 2822,
      "▁gosterdi": 2823,
      "▁50": 2824,
      "▁gerekiyor": 2825,
      "▁manz": 2826,
      "▁faturam": 2827,
      "▁pas": 2828,
      "▁fot": 2829,
      "ılmaz": 2830,
      "agan": 2831,
      "▁zev": 2832,
      "▁varlık": 2833,
      "▁etme": 2834,
      "▁biliyor": 2835,
      "▁200": 2836,
      "▁bakıs": 2837,
      "▁ulasımı": 2838,
      "▁makin": 2839,
      "▁kahval": 2840,
      "▁gonul": 2841,
      "▁oakland'a": 2842,
      "veland": 2843,
      "▁teknoloj": 2844,
      "▁tabii": 2845,
      "▁dukkan": 2846,
      "▁mehmet": 2847,
      "▁sahibi": 2848,
      "▁cleveland": 2849,
      "bas": 2850,
      "ırıl": 2851,
      "▁olabil": 2852,
      "aca": 2853,
      "▁alacak": 2854,
      "▁uzman": 2855,
      "▁akıl": 2856,
      "▁yasan": 2857,
      "▁yukarı": 2858,
      "▁kullanmadim": 2859,
      "▁altına": 2860,
      "▁saldır": 2861,
      "▁malz": 2862,
      "▁washington'a": 2863,
      "▁direk": 2864,
      "▁incel": 2865,
      "▁sof": 2866,
      "▁tedav": 2867,
      "▁ardından": 2868,
      "gından": 2869,
      "gının": 2870,
      "ke": 2871,
      "sek": 2872,
      "ill": 2873,
      "ata": 2874,
      "▁dedim": 2875,
      "▁allah": 2876,
      "▁ruz": 2877,
      "▁bilin": 2878,
      "▁olmalı": 2879,
      "lenmis": 2880,
      "▁cıkan": 2881,
      "▁27": 2882,
      "▁yandan": 2883,
      "▁duruyor": 2884,
      "▁fiyatı": 2885,
      "▁acıklam": 2886,
      "▁siir": 2887,
      "fer": 2888,
      "menin": 2889,
      "na": 2890,
      "ard": 2891,
      "ırlar": 2892,
      "▁ref": 2893,
      "▁bası": 2894,
      "alarında": 2895,
      "▁ettik": 2896,
      "▁guney": 2897,
      "▁yılın": 2898,
      "▁parmak": 2899,
      "▁yarım": 2900,
      "▁odem": 2901,
      "▁sekiz": 2902,
      "▁bagır": 2903,
      "▁cesitli": 2904,
      "▁banka": 2905,
      "▁hukuk": 2906,
      "▁1988": 2907,
      "▁city'den": 2908,
      "▁rezervasyonu": 2909,
      "▁stan": 2910,
      "▁ydı": 2911,
      "▁hol": 2912,
      "▁cil": 2913,
      "iya": 2914,
      "▁iyice": 2915,
      "▁lok": 2916,
      "▁dogu": 2917,
      "▁yolu": 2918,
      "ville": 2919,
      "▁mesel": 2920,
      "▁mutlu": 2921,
      "aturk": 2922,
      "▁yatırımcılar": 2923,
      "▁kıv": 2924,
      "▁gittik": 2925,
      "eet": 2926,
      "kır": 2927,
      "erler": 2928,
      "▁ge": 2929,
      "▁gem": 2930,
      "▁ov": 2931,
      "ayım": 2932,
      "▁mart": 2933,
      "▁bulam": 2934,
      "ach": 2935,
      "istim": 2936,
      "▁alamadim": 2937,
      "lıga": 2938,
      "▁16": 2939,
      "'nde": 2940,
      "▁cıkmıs": 2941,
      "▁beyle": 2942,
      "▁fiyati": 2943,
      "▁sozcusu": 2944,
      "acagız": 2945,
      "▁okum": 2946,
      "▁boylece": 2947,
      "▁musta": 2948,
      "▁endustr": 2949,
      "▁ticari": 2950,
      "▁cumhuriyet": 2951,
      "▁hikay": 2952,
      "▁yirmi": 2953,
      "lis": 2954,
      "net": 2955,
      "arası": 2956,
      "▁gog": 2957,
      "▁hap": 2958,
      "dular": 2959,
      "▁almıs": 2960,
      "▁rad": 2961,
      "▁ayır": 2962,
      "▁deng": 2963,
      "▁yasında": 2964,
      "▁yaslı": 2965,
      "▁tarif": 2966,
      "▁halinde": 2967,
      "▁jon": 2968,
      "▁baglan": 2969,
      "▁tane": 2970,
      "▁washington'dan": 2971,
      "▁aktarmalı": 2972,
      "▁tamamen": 2973,
      "▁anlasma": 2974,
      "▁nered": 2975,
      "fet": 2976,
      "▁sarı": 2977,
      "▁cel": 2978,
      "▁mun": 2979,
      "ima": 2980,
      "izm": 2981,
      "ult": 2982,
      "▁egil": 2983,
      "▁risk": 2984,
      "▁basını": 2985,
      "tuyor": 2986,
      "evizyon": 2987,
      "▁bilir": 2988,
      "▁enf": 2989,
      "madik": 2990,
      "▁uzat": 2991,
      "▁ataturk": 2992,
      "▁kent": 2993,
      "▁evin": 2994,
      "▁fiyata": 2995,
      "▁girdi": 2996,
      "▁ediyordu": 2997,
      "▁ilgilendiler": 2998,
      "mayacak": 2999,
      "▁karsiligini": 3000,
      "▁yetkilileri": 3001,
      "▁elektrik": 3002,
      "▁danıs": 3003,
      "▁mucadel": 3004,
      "▁mustafa": 3005,
      "0'": 3006,
      "▁sas": 3007,
      "▁sayı": 3008,
      "▁sart": 3009,
      "▁yah": 3010,
      "imden": 3011,
      "ulan": 3012,
      "▁ondan": 3013,
      "dız": 3014,
      "▁idi": 3015,
      "▁oteli": 3016,
      "▁edilm": 3017,
      "▁sent": 3018,
      "▁satım": 3019,
      "▁oteldi": 3020,
      "▁okuy": 3021,
      "▁acıkladı": 3022,
      "▁sırt": 3023,
      "▁dava": 3024,
      "▁sizin": 3025,
      "▁edece": 3026,
      "▁kahve": 3027,
      "▁japonya": 3028,
      "▁muhtem": 3029,
      "▁olanaklari": 3030,
      "▁osman": 3031,
      "▁motor": 3032,
      "gur": 3033,
      "leket": 3034,
      "▁kayıp": 3035,
      "▁sh": 3036,
      "enler": 3037,
      "▁oden": 3038,
      "iliyor": 3039,
      "▁ta": 3040,
      "▁ha": 3041,
      "▁mit": 3042,
      "emem": 3043,
      "▁olacagını": 3044,
      "▁rast": 3045,
      "▁ankara": 3046,
      "elerek": 3047,
      "▁verilen": 3048,
      "makta": 3049,
      "▁soyley": 3050,
      "▁memleket": 3051,
      "▁22": 3052,
      "▁yanı": 3053,
      "ıydı": 3054,
      "▁zamanlar": 3055,
      "▁kayb": 3056,
      "▁cıkardı": 3057,
      "layarak": 3058,
      "▁etmeye": 3059,
      "▁kadınlar": 3060,
      "▁umut": 3061,
      "▁hızla": 3062,
      "▁sikin": 3063,
      "▁gizli": 3064,
      "▁yogun": 3065,
      "▁neredeyse": 3066,
      "tak": 3067,
      "▁suy": 3068,
      "▁verir": 3069,
      "▁aktiv": 3070,
      "▁memph": 3071,
      "▁kapalı": 3072,
      "▁gene": 3073,
      "▁surec": 3074,
      "▁arttı": 3075,
      "sizlik": 3076,
      "tre": 3077,
      "▁dokun": 3078,
      "▁ihtiyar": 3079,
      "▁sehr": 3080,
      "▁olduguna": 3081,
      "▁reddetti": 3082,
      "▁fotograf": 3083,
      "▁memphis": 3084,
      "▁gum": 3085,
      "ori": 3086,
      "ısız": 3087,
      "▁fut": 3088,
      "▁alıp": 3089,
      "▁goruyor": 3090,
      "▁isin": 3091,
      "▁ener": 3092,
      "▁sans": 3093,
      "▁elbet": 3094,
      "▁yasadı": 3095,
      "▁dow": 3096,
      "▁kapsam": 3097,
      "▁bulunuyor": 3098,
      "▁gozlerini": 3099,
      "▁hayır": 3100,
      "▁kanun": 3101,
      "▁sırada": 3102,
      "▁kendine": 3103,
      "'yı": 3104,
      "▁ziyaret": 3105,
      "▁tehlik": 3106,
      "▁lou": 3107,
      "taki": 3108,
      "▁sasır": 3109,
      "▁duzel": 3110,
      "onu": 3111,
      "▁po": 3112,
      "dugunu": 3113,
      "▁edip": 3114,
      "tıyor": 3115,
      "▁ets": 3116,
      "▁isten": 3117,
      "alıgı": 3118,
      "▁bunların": 3119,
      "▁wall": 3120,
      "▁prof": 3121,
      "▁konustu": 3122,
      "▁imz": 3123,
      "▁merkezine": 3124,
      "▁kamu": 3125,
      "▁resim": 3126,
      "▁tesekkurler": 3127,
      "▁endeks": 3128,
      "▁calisanlar": 3129,
      "▁fikir": 3130,
      "▁imkanlari": 3131,
      "▁analistler": 3132,
      "▁cicek": 3133,
      "▁jones": 3134,
      "75": 3135,
      "bah": 3136,
      "▁suz": 3137,
      "▁gr": 3138,
      "▁tec": 3139,
      "▁ted": 3140,
      "▁cinc": 3141,
      "aması": 3142,
      "elerine": 3143,
      "▁koca": 3144,
      "▁seyden": 3145,
      "▁yasa": 3146,
      "▁haval": 3147,
      "▁ekledi": 3148,
      "▁katkı": 3149,
      "▁tanı": 3150,
      "▁kırk": 3151,
      "▁gerceklestir": 3152,
      "▁televizyon": 3153,
      "▁edeb": 3154,
      "▁ustu": 3155,
      "▁bitir": 3156,
      "▁karıstır": 3157,
      "▁peters": 3158,
      "▁toplantı": 3159,
      "▁strate": 3160,
      "▁street": 3161,
      "▁mavi": 3162,
      "▁operasyon": 3163,
      "can": 3164,
      "▁key": 3165,
      "▁kayı": 3166,
      "ile": 3167,
      "ınc": 3168,
      "aklı": 3169,
      "isindan": 3170,
      "▁hij": 3171,
      "▁mul": 3172,
      "atif": 3173,
      "ısının": 3174,
      "▁fort": 3175,
      "agına": 3176,
      "▁alıyor": 3177,
      "▁isim": 3178,
      "▁yılda": 3179,
      "▁worth": 3180,
      "▁uretim": 3181,
      "▁kendisini": 3182,
      "▁resmi": 3183,
      "▁guleryuzluydu": 3184,
      "▁milwaukee'den": 3185,
      "innati": 3186,
      "▁cincinnati": 3187,
      "fi": 3188,
      "sim": 3189,
      "ardı": 3190,
      "▁kup": 3191,
      "▁suyu": 3192,
      "▁om": 3193,
      "▁tay": 3194,
      "emey": 3195,
      "agını": 3196,
      "▁endis": 3197,
      "▁kov": 3198,
      "uyle": 3199,
      "▁kural": 3200,
      "▁gosteriyor": 3201,
      "▁yerel": 3202,
      "▁asla": 3203,
      "▁bayram": 3204,
      "▁karsılık": 3205,
      "▁yuzu": 3206,
      "▁odaydi": 3207,
      "▁sahn": 3208,
      "▁otelden": 3209,
      "▁ediyoruz": 3210,
      "▁kızı": 3211,
      "▁hastan": 3212,
      "▁takip": 3213,
      "▁itir": 3214,
      "▁basarılı": 3215,
      "▁vakit": 3216,
      "\\/8": 3217,
      "▁girisim": 3218,
      "▁montre": 3219,
      "▁heyecan": 3220,
      "▁futbol": 3221,
      "▁montreal": 3222,
      "bus": 3223,
      "layıp": 3224,
      "ni": 3225,
      "sem": 3226,
      "unc": 3227,
      "isler": 3228,
      "▁ci": 3229,
      "esem": 3230,
      "amaya": 3231,
      "urken": 3232,
      "▁fi": 3233,
      "ılacak": 3234,
      "▁soylen": 3235,
      "uyorlar": 3236,
      "▁durgun": 3237,
      "▁jos": 3238,
      "▁gerektigini": 3239,
      "▁yuksekti": 3240,
      "▁havayolu": 3241,
      "▁1989": 3242,
      "▁birbirine": 3243,
      "▁ailelere": 3244,
      "▁sigort": 3245,
      "▁madd": 3246,
      "▁yaptirdi": 3247,
      "▁ogretmen": 3248,
      "▁itibaren": 3249,
      "▁louis": 3250,
      "▁hijyen": 3251,
      "mini": 3252,
      "▁doy": 3253,
      "ens": 3254,
      "▁obur": 3255,
      "ıklı": 3256,
      "▁yapı": 3257,
      "▁aktif": 3258,
      "▁dondu": 3259,
      "▁durumu": 3260,
      "▁yuzden": 3261,
      "▁dogal": 3262,
      "▁fransız": 3263,
      "▁yolc": 3264,
      "ihaz": 3265,
      "▁yorgun": 3266,
      "▁kazandı": 3267,
      "▁yalan": 3268,
      "▁sıkı": 3269,
      "▁uluslar": 3270,
      "▁kurumsal": 3271,
      "▁pahaliydi": 3272,
      "▁mayıs": 3273,
      "▁sermaye": 3274,
      "lulu": 3275,
      "mal": 3276,
      "ug": 3277,
      "isel": 3278,
      "ond": 3279,
      "amıyor": 3280,
      "iki": 3281,
      "▁dep": 3282,
      "dul": 3283,
      "▁nit": 3284,
      "▁ilan": 3285,
      "▁baslan": 3286,
      "▁ucusa": 3287,
      "elerinde": 3288,
      "▁ettiler": 3289,
      "▁vermis": 3290,
      "ilerini": 3291,
      "maktan": 3292,
      "▁oranı": 3293,
      "▁acisindan": 3294,
      "▁gunku": 3295,
      "lıkla": 3296,
      "▁ederek": 3297,
      "▁yerinde": 3298,
      "▁asırı": 3299,
      "▁seker": 3300,
      "abilecek": 3301,
      "▁soh": 3302,
      "▁tahviller": 3303,
      "▁dusuktu": 3304,
      "▁mukemmeldi": 3305,
      "▁hastalık": 3306,
      "▁misafirimiz": 3307,
      "▁miktar": 3308,
      "▁kuzey": 3309,
      "▁fayd": 3310,
      "▁ilgisiz": 3311,
      "▁zevk": 3312,
      "meleri": 3313,
      "▁beb": 3314,
      "▁yasıyor": 3315,
      "orta": 3316,
      "▁ton": 3317,
      "isim": 3318,
      "▁yaptık": 3319,
      "▁gidip": 3320,
      "mıslar": 3321,
      "manı": 3322,
      "▁uyum": 3323,
      "▁eser": 3324,
      "▁suph": 3325,
      "▁sordu": 3326,
      "▁harika": 3327,
      "▁milyondan": 3328,
      "▁cekti": 3329,
      "▁sabit": 3330,
      "▁bazıları": 3331,
      "▁bıraktı": 3332,
      "▁konuda": 3333,
      "▁spor": 3334,
      "▁laf": 3335,
      "▁ornek": 3336,
      "ide": 3337,
      "lo": 3338,
      "tum": 3339,
      "tılı": 3340,
      "yıl": 3341,
      "▁sesi": 3342,
      "ene": 3343,
      "▁hur": 3344,
      "ursuz": 3345,
      "▁peyn": 3346,
      "▁niyet": 3347,
      "▁rus": 3348,
      "▁rec": 3349,
      "▁anad": 3350,
      "▁soyler": 3351,
      "'ndan": 3352,
      "▁test": 3353,
      "▁memur": 3354,
      "▁23": 3355,
      "▁general": 3356,
      "▁bulmak": 3357,
      "▁esn": 3358,
      "▁31": 3359,
      "▁35": 3360,
      "▁yola": 3361,
      "▁korku": 3362,
      "▁gereken": 3363,
      "lige": 3364,
      "ligin": 3365,
      "▁baba": 3366,
      "▁emin": 3367,
      "▁york'tan": 3368,
      "▁kurulus": 3369,
      "▁olmadıgı": 3370,
      "▁yagmur": 3371,
      "▁isletme": 3372,
      "▁iddia": 3373,
      "▁paul": 3374,
      "▁civar": 3375,
      "cisi": 3376,
      "ub": 3377,
      "▁kası": 3378,
      "ende": 3379,
      "alanı": 3380,
      "▁cir": 3381,
      "▁olc": 3382,
      "▁alabilir": 3383,
      "▁kalmıs": 3384,
      "▁elb": 3385,
      "▁tesisten": 3386,
      "▁asıl": 3387,
      "▁yans": 3388,
      "▁memnunum": 3389,
      "▁hizmetleri": 3390,
      "▁uzerindeki": 3391,
      "▁196": 3392,
      "▁duyg": 3393,
      "inizi": 3394,
      "▁hasta": 3395,
      "▁yukselt": 3396,
      "▁ithal": 3397,
      "▁yemeklerinden": 3398,
      "▁dogrudan": 3399,
      "▁sınıfı": 3400,
      "▁muhtesem": 3401,
      "bank": 3402,
      "▁almanya": 3403,
      "▁odamiz": 3404,
      "▁insaat": 3405,
      "▁bilmiyorum": 3406,
      "▁malzem": 3407,
      "▁edebiyat": 3408,
      ".0": 3409,
      "das": 3410,
      "yn": 3411,
      "▁eki": 3412,
      "▁gev": 3413,
      "▁tim": 3414,
      "▁mol": 3415,
      "ısın": 3416,
      "uluyor": 3417,
      "dılar": 3418,
      "▁kalp": 3419,
      "▁basv": 3420,
      "▁verim": 3421,
      "evi": 3422,
      "lastı": 3423,
      "▁biles": 3424,
      "laması": 3425,
      "▁yerles": 3426,
      "▁baktı": 3427,
      "▁ekip": 3428,
      "▁kulak": 3429,
      "▁fiyatlar": 3430,
      "▁sorunu": 3431,
      "ediye": 3432,
      "bire": 3433,
      "▁onceden": 3434,
      "acılar": 3435,
      "▁dokuz": 3436,
      "▁duzey": 3437,
      "▁kalkıyor": 3438,
      "▁anlamda": 3439,
      "▁herkesin": 3440,
      "▁komp": 3441,
      "▁havaalanı": 3442,
      "▁oyuncu": 3443,
      "▁sonraki": 3444,
      "▁musteri": 3445,
      "▁adeta": 3446,
      "▁birdenbire": 3447,
      "▁ornegin": 3448,
      "▁titr": 3449,
      "▁kampanyalar": 3450,
      "▁ruzgar": 3451,
      "tas": 3452,
      "▁*": 3453,
      "▁kıl": 3454,
      "▁sız": 3455,
      "▁dısı": 3456,
      "▁yı": 3457,
      "▁yildi": 3458,
      "isyon": 3459,
      "▁civ": 3460,
      "▁poz": 3461,
      "▁bulu": 3462,
      "▁fas": 3463,
      "ital": 3464,
      "▁not": 3465,
      "▁ongor": 3466,
      "lanır": 3467,
      "lıgın": 3468,
      "▁gelip": 3469,
      "▁ins": 3470,
      "▁uzan": 3471,
      "▁sevgil": 3472,
      "▁beklem": 3473,
      "▁ayni": 3474,
      "▁hisset": 3475,
      "▁herkese": 3476,
      "▁eylem": 3477,
      "roit": 3478,
      "▁vegas'a": 3479,
      "▁detroit": 3480,
      "▁anadolu": 3481,
      "▁yildiz": 3482,
      "dil": 3483,
      "ha": 3484,
      "ham": 3485,
      "lisi": 3486,
      "ve": 3487,
      "▁th": 3488,
      "▁hele": 3489,
      "▁cıl": 3490,
      "emiyor": 3491,
      "▁alk": 3492,
      "▁baskı": 3493,
      "▁kapas": 3494,
      "▁hangisi": 3495,
      "▁agız": 3496,
      "▁%1": 3497,
      "▁ortam": 3498,
      "▁west": 3499,
      "▁onunla": 3500,
      "▁buraya": 3501,
      "▁197": 3502,
      "▁koltuk": 3503,
      "▁aksamı": 3504,
      "▁kacın": 3505,
      "▁kıyas": 3506,
      "▁bekleniyor": 3507,
      "▁rekabet": 3508,
      "▁telefonla": 3509,
      "▁olumlu": 3510,
      "▁yumus": 3511,
      "▁bildirdi": 3512,
      "▁kendimi": 3513,
      "▁konforlu": 3514,
      "▁kongre": 3515,
      "▁orlando'ya": 3516,
      "▁tezgah": 3517,
      "▁sovyet": 3518,
      "▁seattle'ye": 3519,
      "▁fabrik": 3520,
      "▁ideal": 3521,
      "'le": 3522,
      "br": 3523,
      "dam": 3524,
      "▁tuc": 3525,
      "▁hab": 3526,
      "esin": 3527,
      "▁vucu": 3528,
      "▁pasa": 3529,
      "▁far": 3530,
      "▁rest": 3531,
      "▁isler": 3532,
      "alarla": 3533,
      "▁istik": 3534,
      "▁konusu": 3535,
      "▁gecik": 3536,
      "ustuk": 3537,
      "▁attı": 3538,
      "▁yılı": 3539,
      "▁yukselerek": 3540,
      "▁sirketler": 3541,
      "▁harik": 3542,
      "asyonu": 3543,
      "sizdi": 3544,
      "▁ettigi": 3545,
      "sızlık": 3546,
      "▁borsa": 3547,
      "▁davet": 3548,
      "▁sizi": 3549,
      "▁yardımcısı": 3550,
      "▁tarihi": 3551,
      "▁bununla": 3552,
      "▁doları'na": 3553,
      "▁sigorta": 3554,
      "▁oakland'dan": 3555,
      "▁milwaukee'ye": 3556,
      "▁vazgec": 3557,
      "▁kayıt": 3558,
      "cileri": 3559,
      "mustur": 3560,
      "ruk": 3561,
      "ern": 3562,
      "▁kısı": 3563,
      "▁ye": 3564,
      "alle": 3565,
      "▁ceb": 3566,
      "▁mc": 3567,
      "▁nik": 3568,
      "▁rol": 3569,
      "▁zay": 3570,
      "elerden": 3571,
      "▁lis": 3572,
      "lamaya": 3573,
      "▁oldugum": 3574,
      "▁ikisi": 3575,
      "egini": 3576,
      "dikten": 3577,
      "▁yasama": 3578,
      "diginde": 3579,
      "▁evi": 3580,
      "ediler": 3581,
      "▁bakıyor": 3582,
      "0000": 3583,
      "▁3/": 3584,
      "▁hayvan": 3585,
      "masının": 3586,
      "▁acıklan": 3587,
      "▁ederiz": 3588,
      "ıldıgını": 3589,
      "▁yuruy": 3590,
      "▁saray": 3591,
      "▁askeri": 3592,
      "▁kumas": 3593,
      "▁mahkeme": 3594,
      "▁cocugun": 3595,
      "▁dc'ye": 3596,
      "▁bogaz": 3597,
      "▁yuvar": 3598,
      "▁galib": 3599,
      "▁miami'ye": 3600,
      "▁havalim": 3601,
      "▁petersburg": 3602,
      "gim": 3603,
      "rum": 3604,
      "ire": 3605,
      "▁oc": 3606,
      "▁ote": 3607,
      "ale": 3608,
      "onik": 3609,
      "▁oldum": 3610,
      "ısıyla": 3611,
      "▁alıcı": 3612,
      "▁varsa": 3613,
      "▁istih": 3614,
      "▁konak": 3615,
      "▁yasak": 3616,
      "▁tuttu": 3617,
      "▁40": 3618,
      "▁duyar": 3619,
      "▁amerika": 3620,
      "▁kalkıs": 3621,
      "▁kisisel": 3622,
      "▁stok": 3623,
      "▁ayakk": 3624,
      "▁havaalan": 3625,
      "ebilecek": 3626,
      "▁bush": 3627,
      "▁efendi": 3628,
      "▁sipar": 3629,
      "▁zayif": 3630,
      "cılık": 3631,
      "ere": 3632,
      "▁kel": 3633,
      "aladı": 3634,
      "▁tıp": 3635,
      "▁cır": 3636,
      "etin": 3637,
      "emin": 3638,
      "▁fıs": 3639,
      "▁karanlık": 3640,
      "alardan": 3641,
      "▁gib": 3642,
      "medigini": 3643,
      "▁organ": 3644,
      "▁ig": 3645,
      "▁otuz": 3646,
      "▁californ": 3647,
      "▁tutun": 3648,
      "▁ettigini": 3649,
      "▁nash": 3650,
      "▁anne": 3651,
      "▁bizimle": 3652,
      "▁kopek": 3653,
      "▁etkil": 3654,
      "▁seviyesine": 3655,
      "▁bicim": 3656,
      "▁normaldi": 3657,
      "▁uluslararası": 3658,
      "bat": 3659,
      "gen": 3660,
      "kel": 3661,
      "oma": 3662,
      "uv": 3663,
      "west": 3664,
      "▁bl": 3665,
      "▁beye": 3666,
      "anda": 3667,
      "▁sm": 3668,
      "▁dagıt": 3669,
      "▁utan": 3670,
      "istik": 3671,
      "▁alma": 3672,
      "gileri": 3673,
      "▁kaliforn": 3674,
      "▁basit": 3675,
      "▁gorur": 3676,
      "▁isteyen": 3677,
      "lasyon": 3678,
      "▁geciyor": 3679,
      "ustri": 3680,
      "▁park": 3681,
      "▁parti": 3682,
      "diklerini": 3683,
      "▁aj": 3684,
      "▁halen": 3685,
      "▁tampa": 3686,
      "▁lezzeti": 3687,
      "ıldıgı": 3688,
      "▁kalkıp": 3689,
      "laka": 3690,
      "▁gorunce": 3691,
      "▁cagır": 3692,
      "▁guvenlik": 3693,
      "▁finan": 3694,
      "ohn": 3695,
      "▁siyasi": 3696,
      "▁stratej": 3697,
      "▁california": 3698,
      "bası": 3699,
      "dog": 3700,
      "rim": 3701,
      "tis": 3702,
      "uar": 3703,
      "▁bed": 3704,
      "iski": 3705,
      "▁hin": 3706,
      "▁cur": 3707,
      "▁mir": 3708,
      "▁piy": 3709,
      "▁pac": 3710,
      "ılım": 3711,
      "apur": 3712,
      "▁karak": 3713,
      "▁verecek": 3714,
      "▁konut": 3715,
      "▁yıldız": 3716,
      "▁parca": 3717,
      "▁24": 3718,
      "▁sendik": 3719,
      "▁yetis": 3720,
      "▁azından": 3721,
      "▁dolayı": 3722,
      "▁ozgur": 3723,
      "▁koyun": 3724,
      "▁avuc": 3725,
      "▁simdiye": 3726,
      "tere": 3727,
      "▁merdi": 3728,
      "▁hamam": 3729,
      "▁muzik": 3730,
      "▁yaptirmadim": 3731,
      "▁sikayet": 3732,
      "▁superdi": 3733,
      "▁nakit": 3734,
      "▁yemegi": 3735,
      "▁indianapolis'ten": 3736,
      "▁enflasyon": 3737,
      "▁profes": 3738,
      "▁kısıt": 3739,
      "▁nashville": 3740,
      "aat": 3741,
      "lası": 3742,
      "lılık": 3743,
      "ule": 3744,
      "▁kuy": 3745,
      "asın": 3746,
      "isik": 3747,
      "▁birik": 3748,
      "ese": 3749,
      "lerdir": 3750,
      "▁peki": 3751,
      "▁edi": 3752,
      "▁ilg": 3753,
      "▁kalın": 3754,
      "▁baslıyor": 3755,
      "▁gormedim": 3756,
      "▁yapmaya": 3757,
      "▁ayı": 3758,
      "▁oraya": 3759,
      "▁lond": 3760,
      "▁gunleri": 3761,
      "▁teslim": 3762,
      "▁kurt": 3763,
      "▁buldum": 3764,
      "▁durdur": 3765,
      "veris": 3766,
      "▁azalt": 3767,
      "▁dolay": 3768,
      "▁insanları": 3769,
      "▁john": 3770,
      "▁ucretin": 3771,
      "▁hisseler": 3772,
      "▁ulastı": 3773,
      "▁aldıgı": 3774,
      "▁olacaktır": 3775,
      "▁cogun": 3776,
      "▁lider": 3777,
      "neapolis": 3778,
      "▁mektup": 3779,
      "▁minneapolis": 3780,
      "▁chicago'dan": 3781,
      "▁pilot": 3782,
      "▁international": 3783,
      "▁stand": 3784,
      "▁elbette": 3785,
      "▁jose": 3786,
      "▁tucc": 3787,
      "▁restor": 3788,
      "30": 3789,
      "dek": 3790,
      "yı": 3791,
      "yas": 3792,
      "▁dib": 3793,
      "eniz": 3794,
      "endir": 3795,
      "allı": 3796,
      "▁tef": 3797,
      "▁tren": 3798,
      "▁con": 3799,
      "▁cad": 3800,
      "▁mod": 3801,
      "esel": 3802,
      "▁nam": 3803,
      "▁goren": 3804,
      "▁kart": 3805,
      "mekten": 3806,
      "▁yerini": 3807,
      "▁28": 3808,
      "▁personellerin": 3809,
      "▁oysa": 3810,
      "▁yuzyıl": 3811,
      "▁boyu": 3812,
      "▁fiyatina": 3813,
      "▁gozu": 3814,
      "▁derec": 3815,
      "▁gerekir": 3816,
      "▁adamı": 3817,
      "ımıza": 3818,
      "▁kasab": 3819,
      "▁satısları": 3820,
      "madıgını": 3821,
      "▁teklifi": 3822,
      "cilerin": 3823,
      "▁karısık": 3824,
      "▁sinem": 3825,
      "▁olumsuz": 3826,
      "▁urunleri": 3827,
      "▁cocugu": 3828,
      "▁hacim": 3829,
      "▁savunma": 3830,
      "▁manzar": 3831,
      "▁muhtemelen": 3832,
      "cilik": 3833,
      "d.": 3834,
      "dat": 3835,
      "his": 3836,
      "o'nun": 3837,
      "▁ec": 3838,
      "▁bez": 3839,
      "▁gemi": 3840,
      "▁odan": 3841,
      "▁terk": 3842,
      "▁birini": 3843,
      "use": 3844,
      "▁anay": 3845,
      "▁gorduk": 3846,
      "▁zam": 3847,
      "elerle": 3848,
      "▁degillerdi": 3849,
      "ustum": 3850,
      "▁eli": 3851,
      "▁temin": 3852,
      "▁yerden": 3853,
      "▁buyum": 3854,
      "▁sozcu": 3855,
      "▁edebilir": 3856,
      "▁uygundu": 3857,
      "▁mutf": 3858,
      "▁etkin": 3859,
      "▁irak": 3860,
      "▁donemde": 3861,
      "▁teknik": 3862,
      "▁garip": 3863,
      "▁tasarru": 3864,
      "▁colum": 3865,
      "▁tokyo": 3866,
      "▁toronto'dan": 3867,
      "▁bilesik": 3868,
      "▁harikaydi": 3869,
      "'lik": 3870,
      "bin": 3871,
      "fe": 3872,
      "gır": 3873,
      "hi": 3874,
      "our": 3875,
      "▁sif": 3876,
      "▁som": 3877,
      "▁yit": 3878,
      "und": 3879,
      "▁cig": 3880,
      "▁birligi": 3881,
      "atlar": 3882,
      "▁pla": 3883,
      "ulur": 3884,
      "▁ep": 3885,
      "▁ex": 3886,
      "dıgım": 3887,
      "▁basın": 3888,
      "▁basbak": 3889,
      "▁zir": 3890,
      "▁yapmayı": 3891,
      "▁veril": 3892,
      "▁aks": 3893,
      "▁kuru": 3894,
      "▁paraya": 3895,
      "▁yeri": 3896,
      "▁29": 3897,
      "▁yanına": 3898,
      "▁dondur": 3899,
      "▁adamın": 3900,
      "ecegiz": 3901,
      "▁piyasası": 3902,
      "▁amerikalı": 3903,
      "▁mutlaka": 3904,
      "▁hoc": 3905,
      "▁fırsat": 3906,
      "▁pahali": 3907,
      "▁dakik": 3908,
      "▁nihayet": 3909,
      "leyebilir": 3910,
      "▁gunduz": 3911,
      "▁kapasit": 3912,
      "▁ayakkabı": 3913,
      "mey": 3914,
      "par": 3915,
      "▁seye": 3916,
      "akende": 3917,
      "▁tad": 3918,
      "▁toz": 3919,
      "isleri": 3920,
      "▁cos": 3921,
      "▁val": 3922,
      "▁vası": 3923,
      "usunun": 3924,
      "adir": 3925,
      "ıstı": 3926,
      "aci": 3927,
      "▁ilgisi": 3928,
      "▁kalem": 3929,
      "▁karı": 3930,
      "▁kararı": 3931,
      "▁zey": 3932,
      "ilerdi": 3933,
      "▁bilg": 3934,
      "ucuk": 3935,
      "▁dusen": 3936,
      "▁acıldı": 3937,
      "tep": 3938,
      "acaktır": 3939,
      "▁elini": 3940,
      "lıktan": 3941,
      "▁tesv": 3942,
      "▁yasındaki": 3943,
      "lemeye": 3944,
      "eder": 3945,
      "▁belg": 3946,
      "▁zamanlarda": 3947,
      "▁calısma": 3948,
      "▁fazlay": 3949,
      "▁oks": 3950,
      "▁tasım": 3951,
      "▁secen": 3952,
      "dıktan": 3953,
      "▁dunyada": 3954,
      "▁turkiye'de": 3955,
      "▁turkiye'nin": 3956,
      "▁parcası": 3957,
      "▁cabuk": 3958,
      "▁renkli": 3959,
      "▁muduru": 3960,
      "▁temmuz'da": 3961,
      "▁lira": 3962,
      "▁diego'ya": 3963,
      "▁idare": 3964,
      "▁tiyatro": 3965,
      "▁kahvalti": 3966,
      "▁duzelt": 3967,
      "▁hijyenik": 3968,
      "▁kasıgı": 3969,
      "▁tasarruf": 3970,
      "cılı": 3971,
      "har": 3972,
      "ry": 3973,
      "ugu": 3974,
      "▁0": 3975,
      "▁bet": 3976,
      "▁huc": 3977,
      "iyon": 3978,
      "▁mim": 3979,
      "urlar": 3980,
      "▁paket": 3981,
      "ımın": 3982,
      "oyu": 3983,
      "▁zinc": 3984,
      "▁yaptır": 3985,
      "elerinden": 3986,
      "larındaki": 3987,
      "▁kadının": 3988,
      "▁elinden": 3989,
      "▁olmadan": 3990,
      "▁olmustur": 3991,
      "▁cıkıyor": 3992,
      "▁tesisi": 3993,
      "▁yıldır": 3994,
      "▁yoksa": 3995,
      "▁adi": 3996,
      "▁duran": 3997,
      "▁gozlem": 3998,
      "▁sair": 3999,
      "▁serb": 4000,
      "▁sevin": 4001,
      "▁ediyorlar": 4002,
      "acagına": 4003,
      "▁45": 4004,
      "▁gerekli": 4005,
      "▁gerektir": 4006,
      "▁tasın": 4007,
      "ımızı": 4008,
      "ecegine": 4009,
      "▁bulundugu": 4010,
      "▁hakkinda": 4011,
      "▁canlı": 4012,
      "▁mantık": 4013,
      "▁perakende": 4014,
      "▁kavram": 4015,
      "▁olmustu": 4016,
      "▁1990": 4017,
      "▁chicago'ya": 4018,
      "▁phoenix'den": 4019,
      "▁bono": 4020,
      "▁bahseder": 4021,
      "▁delikanlı": 4022,
      "▁mulk": 4023,
      "▁standart": 4024,
      "ow": 4025,
      "tın": 4026,
      "ala": 4027,
      "▁tv": 4028,
      "amb": 4029,
      "amet": 4030,
      "▁nuf": 4031,
      "ulen": 4032,
      "▁ila": 4033,
      "▁rob": 4034,
      "▁kalma": 4035,
      "lıgına": 4036,
      "▁zeh": 4037,
      "▁yapılmıs": 4038,
      "▁gelin": 4039,
      "▁verin": 4040,
      "ilerine": 4041,
      "ilerinin": 4042,
      "▁ordu": 4043,
      "▁acısından": 4044,
      "▁yarar": 4045,
      "▁com": 4046,
      "▁bulus": 4047,
      "▁buldu": 4048,
      "▁personelin": 4049,
      "▁yakal": 4050,
      "▁fiyatlarını": 4051,
      "▁devir": 4052,
      "▁yolda": 4053,
      "▁yonlendir": 4054,
      "▁sekl": 4055,
      "▁korum": 4056,
      "▁koylu": 4057,
      "▁lezzetliydi": 4058,
      "▁muhaf": 4059,
      "▁dusundu": 4060,
      "▁dusunmuyor": 4061,
      "▁milyardan": 4062,
      "▁ulasıl": 4063,
      "▁kamyon": 4064,
      "▁barıs": 4065,
      "▁polis": 4066,
      "▁makal": 4067,
      "▁eyalet": 4068,
      "tigim": 4069,
      "▁hoca": 4070,
      "▁belirtti": 4071,
      "▁dususle": 4072,
      "▁ceyrekte": 4073,
      "▁nefes": 4074,
      "▁tacoma": 4075,
      "▁ertesi": 4076,
      "▁zayifti": 4077,
      "'la": 4078,
      "tısı": 4079,
      "erin": 4080,
      "▁kılı": 4081,
      "▁suk": 4082,
      "alik": 4083,
      "aseb": 4084,
      "lardır": 4085,
      "eld": 4086,
      "▁hel": 4087,
      "▁ceh": 4088,
      "▁fat": 4089,
      "ımdan": 4090,
      "▁nic": 4091,
      "▁north": 4092,
      "agında": 4093,
      "▁ucan": 4094,
      "iyoruz": 4095
    },
    "merges": [
      [
        "a",
        "r"
      ],
      [
        "▁",
        "b"
      ],
      [
        "▁",
        "."
      ],
      [
        "e",
        "r"
      ],
      [
        "a",
        "n"
      ],
      [
        "i",
        "n"
      ],
      [
        "▁",
        "k"
      ],
      [
        "▁",
        "s"
      ],
      [
        "▁",
        "d"
      ],
      [
        "e",
        "n"
      ],
      [
        "i",
        "r"
      ],
      [
        "▁",
        "g"
      ],
      [
        "▁",
        "o"
      ],
      [
        "▁",
        "y"
      ],
      [
        "i",
        "l"
      ],
      [
        "ı",
        "n"
      ],
      [
        "a",
        "l"
      ],
      [
        "a",
        "s"
      ],
      [
        "▁",
        ","
      ],
      [
        "o",
        "r"
      ],
      [
        "u",
        "n"
      ],
      [
        "l",
        "ar"
      ],
      [
        "a",
        "k"
      ],
      [
        "e",
        "l"
      ],
      [
        "d",
        "i"
      ],
      [
        "▁",
        "t"
      ],
      [
        "i",
        "s"
      ],
      [
        "▁",
        "h"
      ],
      [
        "▁",
        "c"
      ],
      [
        "i",
        "y"
      ],
      [
        "e",
        "k"
      ],
      [
        "e",
        "t"
      ],
      [
        "▁b",
        "ir"
      ],
      [
        "a",
        "y"
      ],
      [
        "o",
        "n"
      ],
      [
        "▁",
        "m"
      ],
      [
        "e",
        "s"
      ],
      [
        "▁",
        "v"
      ],
      [
        "a",
        "m"
      ],
      [
        "u",
        "r"
      ],
      [
        "u",
        "s"
      ],
      [
        "a",
        "t"
      ],
      [
        "l",
        "er"
      ],
      [
        "e",
        "m"
      ],
      [
        "i",
        "m"
      ],
      [
        "a",
        "d"
      ],
      [
        "▁",
        "p"
      ],
      [
        "▁",
        "u"
      ],
      [
        "u",
        "m"
      ],
      [
        "i",
        "z"
      ],
      [
        "i",
        "k"
      ],
      [
        "ı",
        "r"
      ],
      [
        "▁o",
        "l"
      ],
      [
        "e",
        "y"
      ],
      [
        "d",
        "a"
      ],
      [
        "▁b",
        "u"
      ],
      [
        "ı",
        "s"
      ],
      [
        "d",
        "e"
      ],
      [
        "i",
        "c"
      ],
      [
        "a",
        "z"
      ],
      [
        "u",
        "z"
      ],
      [
        "ı",
        "k"
      ],
      [
        "u",
        "k"
      ],
      [
        "a",
        "c"
      ],
      [
        "▁d",
        "e"
      ],
      [
        "o",
        "k"
      ],
      [
        "a",
        "h"
      ],
      [
        "d",
        "en"
      ],
      [
        "▁v",
        "e"
      ],
      [
        "▁",
        "f"
      ],
      [
        "l",
        "e"
      ],
      [
        "ı",
        "l"
      ],
      [
        "y",
        "or"
      ],
      [
        "d",
        "u"
      ],
      [
        "ı",
        "m"
      ],
      [
        "e",
        "c"
      ],
      [
        "i",
        "t"
      ],
      [
        "▁",
        "n"
      ],
      [
        "d",
        "an"
      ],
      [
        "a",
        "p"
      ],
      [
        "u",
        "l"
      ],
      [
        "a",
        "g"
      ],
      [
        "a",
        "b"
      ],
      [
        "o",
        "l"
      ],
      [
        "is",
        "t"
      ],
      [
        "▁u",
        "c"
      ],
      [
        "▁",
        "e"
      ],
      [
        "ın",
        "ı"
      ],
      [
        "▁",
        "il"
      ],
      [
        "▁",
        "ic"
      ],
      [
        "lar",
        "ı"
      ],
      [
        "▁",
        "al"
      ],
      [
        "▁",
        "ar"
      ],
      [
        "in",
        "i"
      ],
      [
        "iy",
        "or"
      ],
      [
        "o",
        "s"
      ],
      [
        "▁o",
        "n"
      ],
      [
        "a",
        "v"
      ],
      [
        "l",
        "i"
      ],
      [
        "▁c",
        "ok"
      ],
      [
        "d",
        "ı"
      ],
      [
        "▁",
        "r"
      ],
      [
        "l",
        "an"
      ],
      [
        "▁",
        "an"
      ],
      [
        "▁ic",
        "in"
      ],
      [
        "g",
        "il"
      ],
      [
        "l",
        "a"
      ],
      [
        "o",
        "y"
      ],
      [
        "ın",
        "da"
      ],
      [
        "▁k",
        "al"
      ],
      [
        "▁b",
        "as"
      ],
      [
        "in",
        "e"
      ],
      [
        "ı",
        "z"
      ],
      [
        "▁",
        "\""
      ],
      [
        "l",
        "ı"
      ],
      [
        "g",
        "i"
      ],
      [
        "▁g",
        "or"
      ],
      [
        "t",
        "ı"
      ],
      [
        "as",
        "ı"
      ],
      [
        "l",
        "u"
      ],
      [
        "un",
        "u"
      ],
      [
        "▁k",
        "ar"
      ],
      [
        "▁uc",
        "us"
      ],
      [
        "t",
        "i"
      ],
      [
        "▁",
        "z"
      ],
      [
        "▁",
        "1"
      ],
      [
        "ler",
        "i"
      ],
      [
        "▁y",
        "ap"
      ],
      [
        "▁s",
        "on"
      ],
      [
        "el",
        "er"
      ],
      [
        "▁n",
        "e"
      ],
      [
        "t",
        "a"
      ],
      [
        "▁",
        "is"
      ],
      [
        "▁",
        "iy"
      ],
      [
        "t",
        "u"
      ],
      [
        "▁g",
        "el"
      ],
      [
        "▁v",
        "ar"
      ],
      [
        "al",
        "ar"
      ],
      [
        "lar",
        "ın"
      ],
      [
        "▁g",
        "i"
      ],
      [
        "▁",
        "ay"
      ],
      [
        "▁",
        "in"
      ],
      [
        "▁",
        "et"
      ],
      [
        "▁v",
        "er"
      ],
      [
        "e",
        "v"
      ],
      [
        "a",
        "f"
      ],
      [
        "il",
        "er"
      ],
      [
        "▁",
        "ist"
      ],
      [
        "d",
        "ir"
      ],
      [
        "os",
        "t"
      ],
      [
        "l",
        "as"
      ],
      [
        "▁b",
        "il"
      ],
      [
        "es",
        "i"
      ],
      [
        "ı",
        "yor"
      ],
      [
        "o",
        "g"
      ],
      [
        "y",
        "a"
      ],
      [
        "▁",
        "en"
      ],
      [
        "▁d",
        "a"
      ],
      [
        "▁k",
        "on"
      ],
      [
        "u",
        "t"
      ],
      [
        "m",
        "e"
      ],
      [
        "c",
        "e"
      ],
      [
        "in",
        "de"
      ],
      [
        "uz",
        "el"
      ],
      [
        "m",
        "ak"
      ],
      [
        "o",
        "z"
      ],
      [
        "ın",
        "a"
      ],
      [
        "er",
        "s"
      ],
      [
        "▁o",
        "r"
      ],
      [
        "u",
        "c"
      ],
      [
        "ad",
        "ı"
      ],
      [
        "▁g",
        "uzel"
      ],
      [
        "▁",
        "l"
      ],
      [
        "▁d",
        "ah"
      ],
      [
        "m",
        "a"
      ],
      [
        "▁h",
        "er"
      ],
      [
        "▁",
        "am"
      ],
      [
        "▁d",
        "us"
      ],
      [
        "▁b",
        "en"
      ],
      [
        "▁g",
        "ec"
      ],
      [
        "t",
        "an"
      ],
      [
        "▁k",
        "ad"
      ],
      [
        "di",
        "m"
      ],
      [
        "▁dah",
        "a"
      ],
      [
        "▁de",
        "gil"
      ],
      [
        "in",
        "in"
      ],
      [
        "l",
        "am"
      ],
      [
        "y",
        "on"
      ],
      [
        "ay",
        "a"
      ],
      [
        "▁u",
        "z"
      ],
      [
        "▁d",
        "en"
      ],
      [
        "iy",
        "di"
      ],
      [
        "l",
        "ik"
      ],
      [
        "e",
        "z"
      ],
      [
        "m",
        "ıs"
      ],
      [
        "us",
        "t"
      ],
      [
        "b",
        "i"
      ],
      [
        "▁",
        "i"
      ],
      [
        "▁",
        "ac"
      ],
      [
        "▁s",
        "an"
      ],
      [
        "▁il",
        "e"
      ],
      [
        "'",
        "dan"
      ],
      [
        "iy",
        "e"
      ],
      [
        "▁ol",
        "du"
      ],
      [
        "▁ol",
        "an"
      ],
      [
        "g",
        "ı"
      ],
      [
        "t",
        "e"
      ],
      [
        "lar",
        "ak"
      ],
      [
        "▁m",
        "il"
      ],
      [
        "▁s",
        "oy"
      ],
      [
        "u",
        "yor"
      ],
      [
        "▁",
        "at"
      ],
      [
        "m",
        "ek"
      ],
      [
        "▁",
        "ak"
      ],
      [
        "c",
        "a"
      ],
      [
        "ac",
        "ak"
      ],
      [
        "▁o",
        "t"
      ],
      [
        "▁o",
        "larak"
      ],
      [
        "r",
        "a"
      ],
      [
        "▁",
        "el"
      ],
      [
        "▁g",
        "er"
      ],
      [
        "d",
        "ır"
      ],
      [
        "an",
        "a"
      ],
      [
        "▁k",
        "en"
      ],
      [
        "▁g",
        "un"
      ],
      [
        "'",
        "n"
      ],
      [
        "l",
        "ık"
      ],
      [
        "▁k",
        "o"
      ],
      [
        "▁t",
        "em"
      ],
      [
        "▁ol",
        "m"
      ],
      [
        "l",
        "en"
      ],
      [
        "▁c",
        "ık"
      ],
      [
        "▁",
        "ik"
      ],
      [
        "g",
        "un"
      ],
      [
        "ey",
        "e"
      ],
      [
        "m",
        "is"
      ],
      [
        "▁t",
        "es"
      ],
      [
        "ay",
        "ı"
      ],
      [
        "▁gi",
        "bi"
      ],
      [
        "em",
        "ek"
      ],
      [
        "u",
        "y"
      ],
      [
        "▁e",
        "d"
      ],
      [
        "▁iy",
        "i"
      ],
      [
        "il",
        "ir"
      ],
      [
        "▁y",
        "ıl"
      ],
      [
        "al",
        "ı"
      ],
      [
        "e",
        "g"
      ],
      [
        "i",
        "p"
      ],
      [
        "in",
        "den"
      ],
      [
        "▁s",
        "ey"
      ],
      [
        "m",
        "et"
      ],
      [
        "▁k",
        "ur"
      ],
      [
        "ost",
        "er"
      ],
      [
        "▁p",
        "ar"
      ],
      [
        "▁g",
        "oster"
      ],
      [
        "ın",
        "dan"
      ],
      [
        "▁y",
        "er"
      ],
      [
        "▁k",
        "i"
      ],
      [
        "▁",
        "ad"
      ],
      [
        "iyor",
        "um"
      ],
      [
        "'",
        "a"
      ],
      [
        "▁y",
        "ar"
      ],
      [
        "on",
        "el"
      ],
      [
        "s",
        "e"
      ],
      [
        "di",
        "k"
      ],
      [
        "is",
        "i"
      ],
      [
        "▁son",
        "ra"
      ],
      [
        "lar",
        "ını"
      ],
      [
        "▁y",
        "as"
      ],
      [
        "m",
        "an"
      ],
      [
        "ec",
        "ek"
      ],
      [
        "▁t",
        "ar"
      ],
      [
        "ak",
        "i"
      ],
      [
        "▁d",
        "o"
      ],
      [
        "en",
        "i"
      ],
      [
        "▁kad",
        "ar"
      ],
      [
        "▁t",
        "ur"
      ],
      [
        "▁",
        "as"
      ],
      [
        "ın",
        "ın"
      ],
      [
        "t",
        "ır"
      ],
      [
        "c",
        "ı"
      ],
      [
        "▁m",
        "em"
      ],
      [
        "▁c",
        "o"
      ],
      [
        "▁y",
        "ok"
      ],
      [
        "▁p",
        "ers"
      ],
      [
        "▁k",
        "ap"
      ],
      [
        "▁t",
        "ek"
      ],
      [
        "▁h",
        "av"
      ],
      [
        "▁",
        "2"
      ],
      [
        "▁g",
        "en"
      ],
      [
        "▁b",
        "ay"
      ],
      [
        "r",
        "an"
      ],
      [
        "▁",
        "?"
      ],
      [
        "'",
        "ya"
      ],
      [
        "▁",
        "a"
      ],
      [
        "iy",
        "at"
      ],
      [
        "'",
        "den"
      ],
      [
        "▁h",
        "an"
      ],
      [
        "di",
        "g"
      ],
      [
        "▁u",
        "y"
      ],
      [
        "g",
        "u"
      ],
      [
        "▁bu",
        "l"
      ],
      [
        "er",
        "k"
      ],
      [
        "▁e",
        "v"
      ],
      [
        "▁il",
        "gil"
      ],
      [
        "▁guzel",
        "di"
      ],
      [
        "e",
        "p"
      ],
      [
        "l",
        "em"
      ],
      [
        "i",
        "g"
      ],
      [
        "▁y",
        "an"
      ],
      [
        "▁d",
        "on"
      ],
      [
        "▁h",
        "al"
      ],
      [
        "▁",
        "es"
      ],
      [
        "▁bu",
        "y"
      ],
      [
        "o",
        "p"
      ],
      [
        "▁b",
        "ey"
      ],
      [
        "▁s",
        "ur"
      ],
      [
        "▁c",
        "al"
      ],
      [
        "▁y",
        "uk"
      ],
      [
        "t",
        "en"
      ],
      [
        "▁d",
        "ur"
      ],
      [
        "e",
        "d"
      ],
      [
        "▁b",
        "ana"
      ],
      [
        "ad",
        "a"
      ],
      [
        "▁s",
        "u"
      ],
      [
        "ek",
        "i"
      ],
      [
        "e",
        "b"
      ],
      [
        "▁kar",
        "s"
      ],
      [
        "i",
        "f"
      ],
      [
        "▁am",
        "a"
      ],
      [
        "am",
        "an"
      ],
      [
        "▁pers",
        "onel"
      ],
      [
        "▁b",
        "ak"
      ],
      [
        "k",
        "an"
      ],
      [
        "n",
        "un"
      ],
      [
        "▁s",
        "en"
      ],
      [
        "r",
        "et"
      ],
      [
        "▁o",
        "y"
      ],
      [
        "▁s",
        "at"
      ],
      [
        "▁y",
        "uz"
      ],
      [
        "c",
        "i"
      ],
      [
        "▁m",
        "u"
      ],
      [
        "▁de",
        "g"
      ],
      [
        "▁y",
        "ak"
      ],
      [
        "0",
        "0"
      ],
      [
        "v",
        "er"
      ],
      [
        "▁mem",
        "nun"
      ],
      [
        "▁h",
        "is"
      ],
      [
        "s",
        "an"
      ],
      [
        "▁tem",
        "iz"
      ],
      [
        "d",
        "aki"
      ],
      [
        "▁ucus",
        "ları"
      ],
      [
        "▁",
        "ag"
      ],
      [
        "▁b",
        "el"
      ],
      [
        "k",
        "et"
      ],
      [
        "▁",
        "ek"
      ],
      [
        "c",
        "ak"
      ],
      [
        "▁h",
        "iz"
      ],
      [
        "ı",
        "y"
      ],
      [
        "▁b",
        "oy"
      ],
      [
        "▁iy",
        "iydi"
      ],
      [
        "t",
        "ir"
      ],
      [
        "▁b",
        "iz"
      ],
      [
        "▁k",
        "ul"
      ],
      [
        "▁hiz",
        "met"
      ],
      [
        "▁y",
        "emek"
      ],
      [
        "▁z",
        "aman"
      ],
      [
        "▁ik",
        "i"
      ],
      [
        "el",
        "i"
      ],
      [
        "er",
        "i"
      ],
      [
        "im",
        "iz"
      ],
      [
        "▁f",
        "iyat"
      ],
      [
        "k",
        "i"
      ],
      [
        "▁ar",
        "as"
      ],
      [
        "▁",
        ":"
      ],
      [
        "r",
        "u"
      ],
      [
        "▁yuk",
        "s"
      ],
      [
        "▁ar",
        "t"
      ],
      [
        "▁o",
        "g"
      ],
      [
        "di",
        "yor"
      ],
      [
        "▁soy",
        "le"
      ],
      [
        "▁b",
        "un"
      ],
      [
        "▁co",
        "c"
      ],
      [
        "▁",
        "3"
      ],
      [
        "▁d",
        "og"
      ],
      [
        "d",
        "ur"
      ],
      [
        "lar",
        "a"
      ],
      [
        "s",
        "a"
      ],
      [
        "s",
        "am"
      ],
      [
        "▁buy",
        "uk"
      ],
      [
        "y",
        "e"
      ],
      [
        "▁s",
        "ir"
      ],
      [
        "ler",
        "ini"
      ],
      [
        "▁degil",
        "di"
      ],
      [
        "▁o",
        "d"
      ],
      [
        "▁h",
        "ic"
      ],
      [
        "▁",
        "%"
      ],
      [
        "ler",
        "in"
      ],
      [
        "▁t",
        "op"
      ],
      [
        "▁y",
        "eni"
      ],
      [
        "▁de",
        "v"
      ],
      [
        "▁g",
        "oz"
      ],
      [
        "m",
        "us"
      ],
      [
        "▁s",
        "or"
      ],
      [
        "▁uz",
        "er"
      ],
      [
        "▁f",
        "ran"
      ],
      [
        "e",
        "h"
      ],
      [
        "'",
        "e"
      ],
      [
        "▁y",
        "et"
      ],
      [
        "▁",
        "az"
      ],
      [
        "l",
        "es"
      ],
      [
        "e",
        "di"
      ],
      [
        "iy",
        "et"
      ],
      [
        "▁s",
        "a"
      ],
      [
        "▁t",
        "um"
      ],
      [
        "o",
        "t"
      ],
      [
        "ag",
        "ı"
      ],
      [
        "o",
        "m"
      ],
      [
        "▁",
        "-"
      ],
      [
        "ıs",
        "ı"
      ],
      [
        "▁s",
        "er"
      ],
      [
        "l",
        "adı"
      ],
      [
        "▁b",
        "ost"
      ],
      [
        "▁sir",
        "ket"
      ],
      [
        "▁",
        "'"
      ],
      [
        "ar",
        "ak"
      ],
      [
        "▁d",
        "ol"
      ],
      [
        "▁bost",
        "on"
      ],
      [
        "▁s",
        "ev"
      ],
      [
        "▁k",
        "ay"
      ],
      [
        "g",
        "unu"
      ],
      [
        "▁h",
        "ar"
      ],
      [
        "▁d",
        "al"
      ],
      [
        "▁in",
        "san"
      ],
      [
        "▁or",
        "t"
      ],
      [
        "▁s",
        "ah"
      ],
      [
        "▁",
        "w"
      ],
      [
        "ab",
        "ilir"
      ],
      [
        "▁h",
        "ak"
      ],
      [
        "ist",
        "i"
      ],
      [
        "ay",
        "an"
      ],
      [
        "▁y",
        "ol"
      ],
      [
        "▁coc",
        "uk"
      ],
      [
        "c",
        "o"
      ],
      [
        "▁mil",
        "yon"
      ],
      [
        "▁on",
        "un"
      ],
      [
        "▁o",
        "z"
      ],
      [
        "▁h",
        "ay"
      ],
      [
        "▁y",
        "on"
      ],
      [
        "iy",
        "le"
      ],
      [
        "▁y",
        "az"
      ],
      [
        "▁ot",
        "el"
      ],
      [
        "▁k",
        "at"
      ],
      [
        "▁s",
        "ek"
      ],
      [
        "t",
        "im"
      ],
      [
        "g",
        "ını"
      ],
      [
        "▁g",
        "u"
      ],
      [
        "i",
        "h"
      ],
      [
        "ı",
        "p"
      ],
      [
        "▁cal",
        "ıs"
      ],
      [
        "'",
        "da"
      ],
      [
        "▁den",
        "ver"
      ],
      [
        "di",
        "s"
      ],
      [
        "▁c",
        "es"
      ],
      [
        "l",
        "et"
      ],
      [
        "us",
        "u"
      ],
      [
        "c",
        "is"
      ],
      [
        "▁",
        "j"
      ],
      [
        "▁b",
        "ur"
      ],
      [
        "ar",
        "k"
      ],
      [
        "un",
        "da"
      ],
      [
        "b",
        "ir"
      ],
      [
        "m",
        "as"
      ],
      [
        "ad",
        "an"
      ],
      [
        "▁i",
        "h"
      ],
      [
        "'",
        "in"
      ],
      [
        "ec",
        "e"
      ],
      [
        "▁d",
        "er"
      ],
      [
        "um",
        "u"
      ],
      [
        "▁uc",
        "ret"
      ],
      [
        "c",
        "ek"
      ],
      [
        "l",
        "uk"
      ],
      [
        "▁b",
        "al"
      ],
      [
        "▁c",
        "ek"
      ],
      [
        "▁s",
        "ab"
      ],
      [
        "▁on",
        "ce"
      ],
      [
        "b",
        "ur"
      ],
      [
        "cis",
        "co"
      ],
      [
        "▁y",
        "at"
      ],
      [
        "im",
        "i"
      ],
      [
        "▁fran",
        "cisco"
      ],
      [
        "▁d",
        "un"
      ],
      [
        "▁t",
        "ah"
      ],
      [
        "'",
        "ye"
      ],
      [
        "▁ist",
        "iyorum"
      ],
      [
        "▁g",
        "ir"
      ],
      [
        "ar",
        "t"
      ],
      [
        "▁b",
        "ek"
      ],
      [
        "▁p",
        "u"
      ],
      [
        "▁",
        "le"
      ],
      [
        "▁an",
        "cak"
      ],
      [
        "▁k",
        "az"
      ],
      [
        "▁",
        "5"
      ],
      [
        "er",
        "ek"
      ],
      [
        "▁1",
        "9"
      ],
      [
        "▁p",
        "r"
      ],
      [
        "▁f",
        "az"
      ],
      [
        "d",
        "eki"
      ],
      [
        "e",
        "f"
      ],
      [
        "m",
        "aya"
      ],
      [
        "ul",
        "du"
      ],
      [
        "▁gor",
        "e"
      ],
      [
        "▁b",
        "az"
      ],
      [
        "▁s",
        "oz"
      ],
      [
        "or",
        "t"
      ],
      [
        "▁den",
        "iz"
      ],
      [
        "▁k",
        "uc"
      ],
      [
        "▁ay",
        "r"
      ],
      [
        "▁t",
        "ut"
      ],
      [
        "▁soyle",
        "di"
      ],
      [
        "▁k",
        "es"
      ],
      [
        "▁t",
        "am"
      ],
      [
        "▁e",
        "diyor"
      ],
      [
        "▁kon",
        "us"
      ],
      [
        "▁.",
        "."
      ],
      [
        "▁gor",
        "us"
      ],
      [
        "c",
        "u"
      ],
      [
        "▁do",
        "lar"
      ],
      [
        "as",
        "yon"
      ],
      [
        "▁tur",
        "k"
      ],
      [
        "d",
        "um"
      ],
      [
        "▁b",
        "ag"
      ],
      [
        "ac",
        "ag"
      ],
      [
        "s",
        "un"
      ],
      [
        "s",
        "iz"
      ],
      [
        "▁pu",
        "an"
      ],
      [
        "▁y",
        "or"
      ],
      [
        "▁ces",
        "it"
      ],
      [
        "▁s",
        "ag"
      ],
      [
        "t",
        "r"
      ],
      [
        "m",
        "ası"
      ],
      [
        "▁d",
        "u"
      ],
      [
        "t",
        "ar"
      ],
      [
        "▁o",
        "k"
      ],
      [
        "▁d",
        "iye"
      ],
      [
        "eler",
        "i"
      ],
      [
        "▁",
        "ust"
      ],
      [
        "▁il",
        "k"
      ],
      [
        "it",
        "t"
      ],
      [
        "▁..",
        "."
      ],
      [
        "▁kul",
        "lan"
      ],
      [
        "ey",
        "i"
      ],
      [
        "en",
        "in"
      ],
      [
        "un",
        "un"
      ],
      [
        "▁",
        "!"
      ],
      [
        "k",
        "a"
      ],
      [
        "▁k",
        "an"
      ],
      [
        "am",
        "a"
      ],
      [
        "▁",
        "4"
      ],
      [
        "▁h",
        "em"
      ],
      [
        "ar",
        "ı"
      ],
      [
        "▁bir",
        "az"
      ],
      [
        "d",
        "ım"
      ],
      [
        "▁bu",
        "t"
      ],
      [
        "▁k",
        "or"
      ],
      [
        "▁et",
        "ti"
      ],
      [
        "il",
        "m"
      ],
      [
        "an",
        "ın"
      ],
      [
        "▁de",
        "di"
      ],
      [
        "▁al",
        "t"
      ],
      [
        "▁tar",
        "af"
      ],
      [
        "'",
        "tan"
      ],
      [
        "▁c",
        "ar"
      ],
      [
        "ıl",
        "ı"
      ],
      [
        "p",
        "h"
      ],
      [
        "▁at",
        "lan"
      ],
      [
        "▁sa",
        "at"
      ],
      [
        "in",
        "g"
      ],
      [
        "▁d",
        "uy"
      ],
      [
        "▁k",
        "ız"
      ],
      [
        "▁t",
        "av"
      ],
      [
        "s",
        "ız"
      ],
      [
        "▁am",
        "er"
      ],
      [
        "l",
        "at"
      ],
      [
        "▁",
        "ur"
      ],
      [
        "▁icin",
        "de"
      ],
      [
        "▁'",
        "'"
      ],
      [
        "iy",
        "as"
      ],
      [
        "alar",
        "ı"
      ],
      [
        "▁atlan",
        "ta"
      ],
      [
        "▁kuc",
        "uk"
      ],
      [
        "▁s",
        "al"
      ],
      [
        "▁ger",
        "ek"
      ],
      [
        "▁p",
        "h"
      ],
      [
        "ların",
        "ın"
      ],
      [
        "▁k",
        "oy"
      ],
      [
        "in",
        "iz"
      ],
      [
        "bur",
        "g"
      ],
      [
        "z",
        "et"
      ],
      [
        "▁t",
        "an"
      ],
      [
        "▁s",
        "im"
      ],
      [
        "▁ucus",
        "lar"
      ],
      [
        "▁his",
        "se"
      ],
      [
        "▁t",
        "as"
      ],
      [
        "▁ad",
        "am"
      ],
      [
        "▁sab",
        "ah"
      ],
      [
        "et",
        "ir"
      ],
      [
        "ım",
        "ız"
      ],
      [
        "▁ac",
        "ık"
      ],
      [
        "▁gen",
        "el"
      ],
      [
        "il",
        "di"
      ],
      [
        "▁oldu",
        "gunu"
      ],
      [
        "d",
        "uk"
      ],
      [
        "es",
        "t"
      ],
      [
        "ec",
        "eg"
      ],
      [
        "▁le",
        "z"
      ],
      [
        "▁b",
        "or"
      ],
      [
        "▁g",
        "etir"
      ],
      [
        "▁k",
        "im"
      ],
      [
        "▁l",
        "ist"
      ],
      [
        "▁h",
        "ep"
      ],
      [
        "▁faz",
        "la"
      ],
      [
        "'",
        "de"
      ],
      [
        "▁tes",
        "is"
      ],
      [
        "▁",
        "erk"
      ],
      [
        "▁kaz",
        "an"
      ],
      [
        "▁k",
        "ol"
      ],
      [
        "▁h",
        "az"
      ],
      [
        "▁kal",
        "it"
      ],
      [
        "ın",
        "daki"
      ],
      [
        "em",
        "e"
      ],
      [
        "ıl",
        "an"
      ],
      [
        "l",
        "ey"
      ],
      [
        "ist",
        "ir"
      ],
      [
        "▁h",
        "as"
      ],
      [
        "▁g",
        "it"
      ],
      [
        "▁",
        "er"
      ],
      [
        "▁lez",
        "zet"
      ],
      [
        "▁ed",
        "er"
      ],
      [
        "'",
        "ın"
      ],
      [
        "▁k",
        "ıs"
      ],
      [
        "es",
        "ini"
      ],
      [
        "▁but",
        "un"
      ],
      [
        "i",
        "a"
      ],
      [
        "▁t",
        "ak"
      ],
      [
        "▁han",
        "gi"
      ],
      [
        "▁c",
        "um"
      ],
      [
        "▁",
        "ab"
      ],
      [
        "▁a",
        "il"
      ],
      [
        "▁k",
        "ab"
      ],
      [
        "il",
        "en"
      ],
      [
        "u",
        "p"
      ],
      [
        "▁s",
        "ır"
      ],
      [
        "▁dal",
        "las"
      ],
      [
        "▁baz",
        "ı"
      ],
      [
        "▁h",
        "af"
      ],
      [
        "▁g",
        "unu"
      ],
      [
        "▁",
        "`"
      ],
      [
        "▁p",
        "az"
      ],
      [
        "▁cık",
        "ar"
      ],
      [
        "▁s",
        "ay"
      ],
      [
        "▁p",
        "itt"
      ],
      [
        "▁mu",
        "h"
      ],
      [
        "▁pitt",
        "s"
      ],
      [
        "▁k",
        "ır"
      ],
      [
        "▁aras",
        "ında"
      ],
      [
        "▁bil",
        "e"
      ],
      [
        "▁",
        "av"
      ],
      [
        "▁e",
        "g"
      ],
      [
        "▁m",
        "al"
      ],
      [
        "burg",
        "h"
      ],
      [
        "ad",
        "el"
      ],
      [
        "▁ak",
        "sam"
      ],
      [
        "k",
        "en"
      ],
      [
        "▁pitts",
        "burgh"
      ],
      [
        "l",
        "ay"
      ],
      [
        "▁ar",
        "k"
      ],
      [
        "▁t",
        "er"
      ],
      [
        "ıl",
        "dı"
      ],
      [
        "ım",
        "ı"
      ],
      [
        "e",
        "de"
      ],
      [
        "▁et",
        "m"
      ],
      [
        "iler",
        "i"
      ],
      [
        "▁h",
        "at"
      ],
      [
        "▁yuks",
        "el"
      ],
      [
        "▁",
        ";"
      ],
      [
        "▁c",
        "ev"
      ],
      [
        "▁`",
        "`"
      ],
      [
        "▁y",
        "ur"
      ],
      [
        "iyor",
        "du"
      ],
      [
        "'n",
        "in"
      ],
      [
        "d",
        "er"
      ],
      [
        "t",
        "on"
      ],
      [
        "li",
        "gi"
      ],
      [
        "▁ger",
        "cek"
      ],
      [
        "▁y",
        "al"
      ],
      [
        "▁bul",
        "un"
      ],
      [
        "▁ay",
        "n"
      ],
      [
        "y",
        "ar"
      ],
      [
        "es",
        "ine"
      ],
      [
        "k",
        "u"
      ],
      [
        "lar",
        "da"
      ],
      [
        "▁b",
        "ol"
      ],
      [
        "▁dus",
        "un"
      ],
      [
        "▁d",
        "av"
      ],
      [
        "ay",
        "ol"
      ],
      [
        "o",
        "b"
      ],
      [
        "i",
        "b"
      ],
      [
        "▁t",
        "el"
      ],
      [
        "▁s",
        "ad"
      ],
      [
        "▁his",
        "s"
      ],
      [
        "▁",
        "/"
      ],
      [
        "▁boy",
        "le"
      ],
      [
        "or",
        "e"
      ],
      [
        "▁u",
        "l"
      ],
      [
        "▁ne",
        "den"
      ],
      [
        "▁p",
        "iyas"
      ],
      [
        "▁mil",
        "yar"
      ],
      [
        "dig",
        "im"
      ],
      [
        "▁u",
        "las"
      ],
      [
        "ır",
        "ım"
      ],
      [
        "ac",
        "ı"
      ],
      [
        "▁ne",
        "w"
      ],
      [
        "▁yok",
        "tu"
      ],
      [
        "▁",
        "im"
      ],
      [
        "d",
        "iler"
      ],
      [
        "▁ilgil",
        "en"
      ],
      [
        "ar",
        "et"
      ],
      [
        "di",
        "gi"
      ],
      [
        "ler",
        "e"
      ],
      [
        "▁bel",
        "ir"
      ],
      [
        "s",
        "i"
      ],
      [
        "▁b",
        "an"
      ],
      [
        "▁m",
        "i"
      ],
      [
        "▁ph",
        "il"
      ],
      [
        "al",
        "ık"
      ],
      [
        "▁sim",
        "di"
      ],
      [
        "▁list",
        "el"
      ],
      [
        "r",
        "am"
      ],
      [
        "y",
        "la"
      ],
      [
        "▁d",
        "ig"
      ],
      [
        "▁ih",
        "t"
      ],
      [
        "▁ken",
        "di"
      ],
      [
        "▁amer",
        "ik"
      ],
      [
        "h",
        "an"
      ],
      [
        "▁",
        "it"
      ],
      [
        "an",
        "ı"
      ],
      [
        "▁s",
        "ık"
      ],
      [
        "r",
        "e"
      ],
      [
        "▁d",
        "ok"
      ],
      [
        "li",
        "g"
      ],
      [
        "▁ilgil",
        "i"
      ],
      [
        "▁",
        "7"
      ],
      [
        "▁ol",
        "ur"
      ],
      [
        "ların",
        "a"
      ],
      [
        "'n",
        "ın"
      ],
      [
        "▁boston",
        "'dan"
      ],
      [
        "▁s",
        "av"
      ],
      [
        "▁d",
        "uz"
      ],
      [
        "▁m",
        "ı"
      ],
      [
        "il",
        "i"
      ],
      [
        "▁kad",
        "ın"
      ],
      [
        "▁kars",
        "ı"
      ],
      [
        "▁k",
        "os"
      ],
      [
        "as",
        "ını"
      ],
      [
        "tim",
        "ore"
      ],
      [
        "▁bal",
        "timore"
      ],
      [
        "▁gorus",
        "uldu"
      ],
      [
        "'",
        "un"
      ],
      [
        "ır",
        "ak"
      ],
      [
        "m",
        "en"
      ],
      [
        "lik",
        "le"
      ],
      [
        "ust",
        "ur"
      ],
      [
        "▁yon",
        "et"
      ],
      [
        "ph",
        "ia"
      ],
      [
        "r",
        "en"
      ],
      [
        "▁s",
        "ak"
      ],
      [
        "▁m",
        "erk"
      ],
      [
        "adel",
        "phia"
      ],
      [
        "▁phil",
        "adelphia"
      ],
      [
        "g",
        "ın"
      ],
      [
        "▁s",
        "ar"
      ],
      [
        "▁uz",
        "un"
      ],
      [
        "il",
        "ik"
      ],
      [
        "me",
        "z"
      ],
      [
        "▁y",
        "a"
      ],
      [
        "▁deg",
        "er"
      ],
      [
        "▁yuks",
        "ek"
      ],
      [
        "▁gel",
        "ir"
      ],
      [
        "▁yemek",
        "ler"
      ],
      [
        "▁hak",
        "k"
      ],
      [
        "▁",
        "un"
      ],
      [
        "m",
        "az"
      ],
      [
        "ler",
        "ine"
      ],
      [
        "en",
        "k"
      ],
      [
        "lar",
        "dan"
      ],
      [
        "▁dig",
        "er"
      ],
      [
        "▁k",
        "ac"
      ],
      [
        "▁dog",
        "ru"
      ],
      [
        "▁oz",
        "el"
      ],
      [
        "un",
        "a"
      ],
      [
        "▁c",
        "an"
      ],
      [
        "▁b",
        "ırak"
      ],
      [
        "▁tav",
        "s"
      ],
      [
        "▁n",
        "as"
      ],
      [
        "▁t",
        "at"
      ],
      [
        "ab",
        "il"
      ],
      [
        "▁ot",
        "ur"
      ],
      [
        "▁k",
        "r"
      ],
      [
        "ul",
        "u"
      ],
      [
        "▁1",
        "0"
      ],
      [
        "▁gu",
        "ler"
      ],
      [
        "▁m",
        "ah"
      ],
      [
        "▁b",
        "ah"
      ],
      [
        "▁z",
        "or"
      ],
      [
        "▁s",
        "ec"
      ],
      [
        "▁d",
        "em"
      ],
      [
        "el",
        "ik"
      ],
      [
        "▁kon",
        "umu"
      ],
      [
        "▁c",
        "h"
      ],
      [
        "▁merk",
        "ez"
      ],
      [
        "▁s",
        "iz"
      ],
      [
        "▁is",
        "lem"
      ],
      [
        "▁",
        "iz"
      ],
      [
        "ıyor",
        "du"
      ],
      [
        "▁b",
        "es"
      ],
      [
        "▁k",
        "as"
      ],
      [
        "▁ben",
        "im"
      ],
      [
        "▁m",
        "an"
      ],
      [
        "▁",
        "("
      ],
      [
        "f",
        "en"
      ],
      [
        "t",
        "er"
      ],
      [
        "t",
        "ık"
      ],
      [
        "▁tavs",
        "iye"
      ],
      [
        "▁b",
        "in"
      ],
      [
        "ler",
        "inin"
      ],
      [
        "m",
        "am"
      ],
      [
        "▁k",
        "ah"
      ],
      [
        "▁sad",
        "ece"
      ],
      [
        "um",
        "uz"
      ],
      [
        "▁francisco",
        "'ya"
      ],
      [
        "▁iht",
        "iy"
      ],
      [
        "m",
        "eye"
      ],
      [
        "▁",
        "6"
      ],
      [
        "as",
        "ında"
      ],
      [
        "ay",
        "et"
      ],
      [
        "t",
        "or"
      ],
      [
        "▁",
        ")"
      ],
      [
        "▁b",
        "ab"
      ],
      [
        "▁bas",
        "kan"
      ],
      [
        "is",
        "k"
      ],
      [
        "▁sat",
        "ıs"
      ],
      [
        "unu",
        "yor"
      ],
      [
        "▁oldu",
        "gu"
      ],
      [
        "▁",
        "lu"
      ],
      [
        "in",
        "c"
      ],
      [
        "▁p",
        "lan"
      ],
      [
        "▁m",
        "us"
      ],
      [
        "i",
        "d"
      ],
      [
        "▁e",
        "de"
      ],
      [
        "▁is",
        "e"
      ],
      [
        "▁han",
        "im"
      ],
      [
        "▁ko",
        "tu"
      ],
      [
        "ma",
        "dim"
      ],
      [
        "as",
        "ına"
      ],
      [
        "v",
        "il"
      ],
      [
        "▁k",
        "ıy"
      ],
      [
        "▁g",
        "uc"
      ],
      [
        "ah",
        "at"
      ],
      [
        "▁m",
        "as"
      ],
      [
        "▁p",
        "ek"
      ],
      [
        "b",
        "a"
      ],
      [
        "▁m",
        "es"
      ],
      [
        "▁h",
        "uk"
      ],
      [
        "▁m",
        "is"
      ],
      [
        "s",
        "uz"
      ],
      [
        "ek",
        "et"
      ],
      [
        "▁hav",
        "uz"
      ],
      [
        "▁yat",
        "ırım"
      ],
      [
        "▁s",
        "es"
      ],
      [
        "▁d",
        "ik"
      ],
      [
        "▁uy",
        "gun"
      ],
      [
        "ler",
        "de"
      ],
      [
        "▁yak",
        "las"
      ],
      [
        "t",
        "ik"
      ],
      [
        "▁bas",
        "ka"
      ],
      [
        "▁deg",
        "is"
      ],
      [
        "▁art",
        "ık"
      ],
      [
        "m",
        "adı"
      ],
      [
        "al",
        "an"
      ],
      [
        "es",
        "inde"
      ],
      [
        "▁v",
        "ey"
      ],
      [
        "▁hic",
        "bir"
      ],
      [
        "▁taraf",
        "ından"
      ],
      [
        "an",
        "s"
      ],
      [
        "▁t",
        "ab"
      ],
      [
        "ad",
        "ır"
      ],
      [
        "▁on",
        "u"
      ],
      [
        "▁gel",
        "di"
      ],
      [
        "▁sek",
        "il"
      ],
      [
        "▁ayr",
        "ı"
      ],
      [
        "dig",
        "ini"
      ],
      [
        "▁",
        "em"
      ],
      [
        "lan",
        "d"
      ],
      [
        "▁",
        "us"
      ],
      [
        "▁kal",
        "k"
      ],
      [
        "▁m",
        "ut"
      ],
      [
        "ey",
        "in"
      ],
      [
        "ing",
        "ton"
      ],
      [
        "▁vey",
        "a"
      ],
      [
        "▁m",
        "er"
      ],
      [
        "▁p",
        "er"
      ],
      [
        "▁b",
        "it"
      ],
      [
        "▁ne",
        "dir"
      ],
      [
        "lı",
        "gı"
      ],
      [
        "▁s",
        "eh"
      ],
      [
        "t",
        "ım"
      ],
      [
        "▁al",
        "dı"
      ],
      [
        "▁hav",
        "ayol"
      ],
      [
        "v",
        "ar"
      ],
      [
        "▁ol",
        "abilir"
      ],
      [
        "▁an",
        "lam"
      ],
      [
        "▁y",
        "ay"
      ],
      [
        "lar",
        "ında"
      ],
      [
        "ler",
        "den"
      ],
      [
        "g",
        "a"
      ],
      [
        "r",
        "af"
      ],
      [
        "ic",
        "i"
      ],
      [
        "▁sah",
        "ip"
      ],
      [
        "as",
        "h"
      ],
      [
        "▁on",
        "em"
      ],
      [
        "▁ben",
        "i"
      ],
      [
        "▁hay",
        "at"
      ],
      [
        "m",
        "ayı"
      ],
      [
        "▁w",
        "ash"
      ],
      [
        "▁k",
        "is"
      ],
      [
        "lar",
        "dı"
      ],
      [
        "▁wash",
        "ington"
      ],
      [
        "▁ayn",
        "ı"
      ],
      [
        "▁k",
        "am"
      ],
      [
        "▁m",
        "ev"
      ],
      [
        "m",
        "ay"
      ],
      [
        "n",
        "ız"
      ],
      [
        "len",
        "dir"
      ],
      [
        "▁es",
        "ki"
      ],
      [
        "me",
        "di"
      ],
      [
        "▁d",
        "ıs"
      ],
      [
        "ab",
        "er"
      ],
      [
        "m",
        "alar"
      ],
      [
        "y",
        "uz"
      ],
      [
        "ıl",
        "ık"
      ],
      [
        "ıl",
        "mıs"
      ],
      [
        "▁ust",
        "un"
      ],
      [
        "▁amerik",
        "an"
      ],
      [
        "'",
        "ten"
      ],
      [
        "f",
        "or"
      ],
      [
        "▁yal",
        "nız"
      ],
      [
        "k",
        "es"
      ],
      [
        "y",
        "du"
      ],
      [
        "▁kal",
        "dik"
      ],
      [
        "▁ist",
        "e"
      ],
      [
        "▁s",
        "ok"
      ],
      [
        "g",
        "is"
      ],
      [
        "k",
        "ac"
      ],
      [
        "▁bu",
        "gun"
      ],
      [
        "▁kar",
        "ar"
      ],
      [
        "▁ist",
        "em"
      ],
      [
        "▁tes",
        "isti"
      ],
      [
        "▁f",
        "a"
      ],
      [
        "▁an",
        "n"
      ],
      [
        "▁an",
        "lat"
      ],
      [
        "art",
        "esi"
      ],
      [
        "▁sekil",
        "de"
      ],
      [
        "▁s",
        "t"
      ],
      [
        "▁dur",
        "um"
      ],
      [
        "▁b",
        "ar"
      ],
      [
        "▁s",
        "ı"
      ],
      [
        "ını",
        "z"
      ],
      [
        "l",
        "ak"
      ],
      [
        "▁yar",
        "dım"
      ],
      [
        "▁d",
        "ir"
      ],
      [
        "en",
        "t"
      ],
      [
        "▁g",
        "az"
      ],
      [
        "▁f",
        "ak"
      ],
      [
        "▁ur",
        "et"
      ],
      [
        "m",
        "em"
      ],
      [
        "▁gel",
        "en"
      ],
      [
        "▁k",
        "u"
      ],
      [
        "▁tar",
        "ih"
      ],
      [
        "▁don",
        "us"
      ],
      [
        "▁erk",
        "en"
      ],
      [
        "▁",
        "8"
      ],
      [
        "ler",
        "inde"
      ],
      [
        "▁in",
        "c"
      ],
      [
        "▁bir",
        "i"
      ],
      [
        "▁yap",
        "tı"
      ],
      [
        "▁var",
        "dı"
      ],
      [
        "▁gec",
        "en"
      ],
      [
        "lar",
        "la"
      ],
      [
        "▁ark",
        "ad"
      ],
      [
        "▁o",
        "da"
      ],
      [
        "▁ken",
        "dis"
      ],
      [
        "▁d",
        "il"
      ],
      [
        "▁denver",
        "'den"
      ],
      [
        "▁yor",
        "k"
      ],
      [
        "eb",
        "ilir"
      ],
      [
        "▁f",
        "ark"
      ],
      [
        "lı",
        "yor"
      ],
      [
        "▁par",
        "a"
      ],
      [
        "d",
        "ık"
      ],
      [
        "▁dev",
        "am"
      ],
      [
        "in",
        "ci"
      ],
      [
        "li",
        "f"
      ],
      [
        "▁her",
        "kes"
      ],
      [
        "▁og",
        "le"
      ],
      [
        "ar",
        "a"
      ],
      [
        "▁s",
        "o"
      ],
      [
        "▁d",
        "iyor"
      ],
      [
        "▁ak",
        "tar"
      ],
      [
        "eg",
        "en"
      ],
      [
        "ıy",
        "la"
      ],
      [
        "▁p",
        "ol"
      ],
      [
        "▁ol",
        "acak"
      ],
      [
        "▁d",
        "in"
      ],
      [
        "▁biz",
        "im"
      ],
      [
        "▁har",
        "eket"
      ],
      [
        "r",
        "i"
      ],
      [
        "lar",
        "i"
      ],
      [
        "v",
        "en"
      ],
      [
        "▁c",
        "og"
      ],
      [
        "b",
        "e"
      ],
      [
        "▁bas",
        "ladı"
      ],
      [
        "p",
        "er"
      ],
      [
        "at",
        "ı"
      ],
      [
        "▁ken",
        "d"
      ],
      [
        "g",
        "in"
      ],
      [
        "t",
        "ur"
      ],
      [
        "▁m",
        "ak"
      ],
      [
        "▁gi",
        "den"
      ],
      [
        "▁eder",
        "im"
      ],
      [
        "r",
        "ar"
      ],
      [
        "▁gor",
        "un"
      ],
      [
        "▁",
        "ıs"
      ],
      [
        "▁ko",
        "m"
      ],
      [
        "▁k",
        "us"
      ],
      [
        "▁kal",
        "dim"
      ],
      [
        "▁paz",
        "ar"
      ],
      [
        "▁haz",
        "ır"
      ],
      [
        "▁lu",
        "t"
      ],
      [
        "▁bir",
        "kac"
      ],
      [
        "▁gen",
        "c"
      ],
      [
        "lu",
        "yor"
      ],
      [
        "▁bun",
        "un"
      ],
      [
        "m",
        "esi"
      ],
      [
        "uyor",
        "du"
      ],
      [
        "s",
        "el"
      ],
      [
        "▁d",
        "i"
      ],
      [
        "▁u",
        "g"
      ],
      [
        "uc",
        "u"
      ],
      [
        "▁ko",
        "p"
      ],
      [
        "▁sor",
        "un"
      ],
      [
        "▁on",
        "a"
      ],
      [
        "▁ger",
        "i"
      ],
      [
        "▁hem",
        "en"
      ],
      [
        ".",
        "5"
      ],
      [
        "g",
        "el"
      ],
      [
        "▁dun",
        "y"
      ],
      [
        "b",
        "et"
      ],
      [
        "d",
        "ar"
      ],
      [
        "▁k",
        "it"
      ],
      [
        "▁r",
        "es"
      ],
      [
        "▁",
        "ey"
      ],
      [
        "▁y",
        "ine"
      ],
      [
        "▁bir",
        "c"
      ],
      [
        "▁en",
        "d"
      ],
      [
        "▁19",
        "8"
      ],
      [
        "▁as",
        "k"
      ],
      [
        "▁ser",
        "v"
      ],
      [
        "▁ol",
        "mak"
      ],
      [
        "▁ihtiy",
        "ac"
      ],
      [
        "▁tek",
        "lif"
      ],
      [
        "▁ab",
        "d"
      ],
      [
        "acag",
        "ını"
      ],
      [
        "▁nas",
        "ıl"
      ],
      [
        "c",
        "iler"
      ],
      [
        "▁kah",
        "v"
      ],
      [
        "▁lut",
        "fen"
      ],
      [
        "▁t",
        "u"
      ],
      [
        "▁f",
        "ir"
      ],
      [
        "▁gec",
        "ir"
      ],
      [
        "▁y",
        "en"
      ],
      [
        "▁uc",
        "uz"
      ],
      [
        "▁c",
        "or"
      ],
      [
        "ay",
        "i"
      ],
      [
        "▁v",
        "ur"
      ],
      [
        "▁ic",
        "er"
      ],
      [
        "▁ay",
        "ak"
      ],
      [
        "▁ayrı",
        "ca"
      ],
      [
        "▁g",
        "on"
      ],
      [
        "▁kal",
        "kan"
      ],
      [
        "▁ucus",
        "u"
      ],
      [
        "▁ilgil",
        "iydi"
      ],
      [
        "▁tam",
        "am"
      ],
      [
        "d",
        "et"
      ],
      [
        "▁b",
        "egen"
      ],
      [
        "▁u",
        "m"
      ],
      [
        "▁g",
        "ul"
      ],
      [
        "▁personel",
        "ler"
      ],
      [
        "▁y",
        "av"
      ],
      [
        "ti",
        "g"
      ],
      [
        "▁arkad",
        "as"
      ],
      [
        "ı",
        "t"
      ],
      [
        "mıs",
        "tı"
      ],
      [
        "r",
        "o"
      ],
      [
        "▁tah",
        "vil"
      ],
      [
        "m",
        "alı"
      ],
      [
        "▁b",
        "unu"
      ],
      [
        "▁an",
        "las"
      ],
      [
        "▁uzer",
        "inde"
      ],
      [
        "ey",
        "en"
      ],
      [
        "▁in",
        "an"
      ],
      [
        "f",
        "a"
      ],
      [
        "▁on",
        "c"
      ],
      [
        "▁et",
        "k"
      ],
      [
        "▁birc",
        "ok"
      ],
      [
        "▁ek",
        "on"
      ],
      [
        "▁t",
        "ic"
      ],
      [
        "ı",
        "cı"
      ],
      [
        "▁cık",
        "tı"
      ],
      [
        "e",
        "den"
      ],
      [
        "o",
        "j"
      ],
      [
        "s",
        "in"
      ],
      [
        "▁h",
        "am"
      ],
      [
        "▁kab",
        "ul"
      ],
      [
        "m",
        "in"
      ],
      [
        "an",
        "lar"
      ],
      [
        "▁al",
        "ın"
      ],
      [
        "m",
        "i"
      ],
      [
        "ad",
        "ım"
      ],
      [
        "▁dus",
        "uk"
      ],
      [
        "▁og",
        "ren"
      ],
      [
        "▁b",
        "os"
      ],
      [
        "k",
        "ur"
      ],
      [
        "ik",
        "a"
      ],
      [
        "▁et",
        "mek"
      ],
      [
        "▁h",
        "o"
      ],
      [
        "▁k",
        "av"
      ],
      [
        "▁ed",
        "il"
      ],
      [
        "ru",
        "p"
      ],
      [
        "▁c",
        "am"
      ],
      [
        "on",
        "t"
      ],
      [
        "▁yemek",
        "leri"
      ],
      [
        "▁kay",
        "n"
      ],
      [
        "▁huk",
        "um"
      ],
      [
        "▁ar",
        "ab"
      ],
      [
        "lik",
        "te"
      ],
      [
        "▁deniz",
        "i"
      ],
      [
        "▁r",
        "ahat"
      ],
      [
        "▁ogle",
        "den"
      ],
      [
        "al",
        "i"
      ],
      [
        "es",
        "inin"
      ],
      [
        "sam",
        "ba"
      ],
      [
        "▁car",
        "samba"
      ],
      [
        "ad",
        "e"
      ],
      [
        "lan",
        "dı"
      ],
      [
        "g",
        "ul"
      ],
      [
        "▁k",
        "um"
      ],
      [
        "ların",
        "dan"
      ],
      [
        "▁kap",
        "an"
      ],
      [
        "▁hav",
        "a"
      ],
      [
        "▁duz",
        "en"
      ],
      [
        "am",
        "az"
      ],
      [
        "▁kar",
        "ıs"
      ],
      [
        "▁e",
        "den"
      ],
      [
        "▁oy",
        "le"
      ],
      [
        "▁k",
        "ir"
      ],
      [
        "▁s",
        "in"
      ],
      [
        "▁ucus",
        "larını"
      ],
      [
        "ers",
        "iz"
      ],
      [
        "▁y",
        "onel"
      ],
      [
        "▁yap",
        "ıl"
      ],
      [
        "er",
        "v"
      ],
      [
        "at",
        "ur"
      ],
      [
        "'",
        "ta"
      ],
      [
        "▁s",
        "ını"
      ],
      [
        "▁m",
        "uk"
      ],
      [
        "at",
        "i"
      ],
      [
        "▁yuksel",
        "di"
      ],
      [
        "a",
        "di"
      ],
      [
        "el",
        "im"
      ],
      [
        "▁bek",
        "len"
      ],
      [
        "l",
        "um"
      ],
      [
        "▁k",
        "ok"
      ],
      [
        "▁d",
        "ort"
      ],
      [
        "▁h",
        "ız"
      ],
      [
        "▁dus",
        "tu"
      ],
      [
        "eceg",
        "ini"
      ],
      [
        "i",
        "v"
      ],
      [
        "▁dev",
        "let"
      ],
      [
        "▁denver",
        "'e"
      ],
      [
        "▁hakk",
        "ında"
      ],
      [
        "▁",
        "ir"
      ],
      [
        "▁turk",
        "iye"
      ],
      [
        "▁atlanta",
        "'dan"
      ],
      [
        "▁ben",
        "z"
      ],
      [
        "▁oy",
        "un"
      ],
      [
        "▁",
        "9"
      ],
      [
        "lam",
        "a"
      ],
      [
        "ler",
        "inden"
      ],
      [
        "▁a",
        "ir"
      ],
      [
        "▁oy",
        "n"
      ],
      [
        "b",
        "er"
      ],
      [
        "c",
        "h"
      ],
      [
        "as",
        "i"
      ],
      [
        "▁i",
        "f"
      ],
      [
        "▁personel",
        "leri"
      ],
      [
        "▁ul",
        "k"
      ],
      [
        "▁s",
        "un"
      ],
      [
        "ad",
        "ık"
      ],
      [
        "▁al",
        "an"
      ],
      [
        "▁uzer",
        "ine"
      ],
      [
        "▁ilgilen",
        "di"
      ],
      [
        "▁ekon",
        "om"
      ],
      [
        "▁f",
        "ır"
      ],
      [
        "▁1",
        "."
      ],
      [
        "ıyor",
        "um"
      ],
      [
        "g",
        "e"
      ],
      [
        "r",
        "ak"
      ],
      [
        "▁goster",
        "in"
      ],
      [
        "▁sını",
        "f"
      ],
      [
        "m",
        "el"
      ],
      [
        "ir",
        "im"
      ],
      [
        "▁m",
        "ar"
      ],
      [
        "b",
        "ilir"
      ],
      [
        "▁yet",
        "er"
      ],
      [
        "▁il",
        "isk"
      ],
      [
        "▁kur",
        "ul"
      ],
      [
        "▁listel",
        "eyin"
      ],
      [
        "in",
        "a"
      ],
      [
        "as",
        "ının"
      ],
      [
        "▁yas",
        "am"
      ],
      [
        "▁don",
        "em"
      ],
      [
        "▁aras",
        "ındaki"
      ],
      [
        "b",
        "ul"
      ],
      [
        "in",
        "ce"
      ],
      [
        "▁g",
        "ayet"
      ],
      [
        "▁r",
        "ek"
      ],
      [
        "▁or",
        "an"
      ],
      [
        "▁p",
        "at"
      ],
      [
        "eler",
        "in"
      ],
      [
        "▁do",
        "ları"
      ],
      [
        "▁fak",
        "at"
      ],
      [
        "k",
        "ı"
      ],
      [
        "lam",
        "ıs"
      ],
      [
        "▁yaklas",
        "ık"
      ],
      [
        "▁k",
        "af"
      ],
      [
        "▁c",
        "ag"
      ],
      [
        "▁r",
        "ez"
      ],
      [
        "▁var",
        "di"
      ],
      [
        "ayı",
        "p"
      ],
      [
        "▁gen",
        "is"
      ],
      [
        "el",
        "en"
      ],
      [
        "ek",
        "li"
      ],
      [
        "ay",
        "di"
      ],
      [
        "▁p",
        "ay"
      ],
      [
        "▁ol",
        "duk"
      ],
      [
        "▁kon",
        "u"
      ],
      [
        "▁d",
        "ı"
      ],
      [
        "▁c",
        "it"
      ],
      [
        "▁guler",
        "yuz"
      ],
      [
        "▁s",
        "ol"
      ],
      [
        "du",
        "gu"
      ],
      [
        "▁kes",
        "in"
      ],
      [
        "▁ban",
        "k"
      ],
      [
        "g",
        "ım"
      ],
      [
        "▁bir",
        "likte"
      ],
      [
        "▁bil",
        "gi"
      ],
      [
        "▁gec",
        "e"
      ],
      [
        "▁art",
        "ıs"
      ],
      [
        "l",
        "iyor"
      ],
      [
        "▁",
        "li"
      ],
      [
        "▁b",
        "er"
      ],
      [
        "▁bas",
        "ar"
      ],
      [
        "l",
        "ul"
      ],
      [
        "t",
        "adır"
      ],
      [
        "▁gor",
        "ev"
      ],
      [
        "▁1",
        "2"
      ],
      [
        "▁olm",
        "adı"
      ],
      [
        "▁sat",
        "ın"
      ],
      [
        "▁gu",
        "ven"
      ],
      [
        "▁onem",
        "li"
      ],
      [
        "l",
        "in"
      ],
      [
        "▁y",
        "iy"
      ],
      [
        "▁bas",
        "ına"
      ],
      [
        "g",
        "um"
      ],
      [
        "o",
        "d"
      ],
      [
        "▁t",
        "or"
      ],
      [
        "▁kalit",
        "esi"
      ],
      [
        "▁",
        "ah"
      ],
      [
        "▁h",
        "aber"
      ],
      [
        "ler",
        "le"
      ],
      [
        "▁n",
        "er"
      ],
      [
        "▁an",
        "im"
      ],
      [
        "▁yet",
        "k"
      ],
      [
        "▁son",
        "uc"
      ],
      [
        "w",
        "a"
      ],
      [
        "▁s",
        "e"
      ],
      [
        "og",
        "ram"
      ],
      [
        "▁tes",
        "ek"
      ],
      [
        "les",
        "tir"
      ],
      [
        "enk",
        "ul"
      ],
      [
        "▁guleryuz",
        "lu"
      ],
      [
        "▁tel",
        "ef"
      ],
      [
        "ci",
        "h"
      ],
      [
        "▁pittsburgh",
        "'tan"
      ],
      [
        "▁tesek",
        "kur"
      ],
      [
        "et",
        "i"
      ],
      [
        "▁s",
        "og"
      ],
      [
        "▁bir",
        "bir"
      ],
      [
        "▁yak",
        "ın"
      ],
      [
        "▁ter",
        "cih"
      ],
      [
        "▁telef",
        "on"
      ],
      [
        "▁tek",
        "rar"
      ],
      [
        "▁gi",
        "dis"
      ],
      [
        "o",
        "'ya"
      ],
      [
        "▁v",
        "ak"
      ],
      [
        "▁al",
        "ım"
      ],
      [
        "▁uz",
        "ak"
      ],
      [
        "▁atlanta",
        "'ya"
      ],
      [
        "k",
        "un"
      ],
      [
        "m",
        "adan"
      ],
      [
        "▁s",
        "ac"
      ],
      [
        "▁kon",
        "um"
      ],
      [
        "▁haf",
        "ta"
      ],
      [
        "▁son",
        "r"
      ],
      [
        "▁ail",
        "eler"
      ],
      [
        "s",
        "on"
      ],
      [
        "or",
        "m"
      ],
      [
        "▁yeni",
        "den"
      ],
      [
        "▁yonel",
        "ik"
      ],
      [
        "'",
        "y"
      ],
      [
        "s",
        "ın"
      ],
      [
        "▁d",
        "ar"
      ],
      [
        "al",
        "t"
      ],
      [
        "▁t",
        "al"
      ],
      [
        "l",
        "ayan"
      ],
      [
        "m",
        "isti"
      ],
      [
        "▁y",
        "ag"
      ],
      [
        "▁yap",
        "mak"
      ],
      [
        "▁anim",
        "asyon"
      ],
      [
        "▁ag",
        "ır"
      ],
      [
        "▁baltimore",
        "'ye"
      ],
      [
        "s",
        "al"
      ],
      [
        "▁o",
        "ak"
      ],
      [
        "▁p",
        "et"
      ],
      [
        "ası",
        "yor"
      ],
      [
        "te",
        "dir"
      ],
      [
        "▁s",
        "ig"
      ],
      [
        "▁d",
        "el"
      ],
      [
        "▁m",
        "ust"
      ],
      [
        "es",
        "inden"
      ],
      [
        "▁olm",
        "us"
      ],
      [
        "▁pr",
        "ogram"
      ],
      [
        "ag",
        "a"
      ],
      [
        "▁bur",
        "ada"
      ],
      [
        "▁seh",
        "ir"
      ],
      [
        "▁rez",
        "erv"
      ],
      [
        "n",
        "e"
      ],
      [
        "r",
        "ek"
      ],
      [
        "▁ol",
        "um"
      ],
      [
        "▁bey",
        "az"
      ],
      [
        "▁ek",
        "s"
      ],
      [
        "▁belir",
        "t"
      ],
      [
        "▁oak",
        "land"
      ],
      [
        "ler",
        "di"
      ],
      [
        "dı",
        "gı"
      ],
      [
        "uy",
        "u"
      ],
      [
        "▁konus",
        "unda"
      ],
      [
        "p",
        "r"
      ],
      [
        "as",
        "a"
      ],
      [
        "ıs",
        "ında"
      ],
      [
        "le",
        "di"
      ],
      [
        "▁on",
        "lar"
      ],
      [
        "c",
        "ut"
      ],
      [
        "o",
        "v"
      ],
      [
        "t",
        "iler"
      ],
      [
        "▁s",
        "il"
      ],
      [
        "▁m",
        "ad"
      ],
      [
        "ic",
        "e"
      ],
      [
        "ab",
        "an"
      ],
      [
        "▁cum",
        "a"
      ],
      [
        "▁paz",
        "artesi"
      ],
      [
        "▁m",
        "uz"
      ],
      [
        "▁yap",
        "ılan"
      ],
      [
        "▁m",
        "ek"
      ],
      [
        "▁ver",
        "iyorum"
      ],
      [
        "'n",
        "un"
      ],
      [
        "00",
        "0"
      ],
      [
        "▁bor",
        "s"
      ],
      [
        "k",
        "at"
      ],
      [
        "▁gel",
        "ecek"
      ],
      [
        "▁cit",
        "y"
      ],
      [
        "m",
        "iyor"
      ],
      [
        "▁al",
        "mak"
      ],
      [
        "▁temiz",
        "ligi"
      ],
      [
        "▁yor",
        "um"
      ],
      [
        "▁c",
        "in"
      ],
      [
        "▁c",
        "ey"
      ],
      [
        "▁boston",
        "'a"
      ],
      [
        "un",
        "ca"
      ],
      [
        "▁alt",
        "ında"
      ],
      [
        "▁gaz",
        "et"
      ],
      [
        "▁v",
        "ad"
      ],
      [
        "tı",
        "gı"
      ],
      [
        "me",
        "dim"
      ],
      [
        "▁dallas",
        "'a"
      ],
      [
        "▁listel",
        "e"
      ],
      [
        "▁yav",
        "as"
      ],
      [
        "l",
        "iydi"
      ],
      [
        "▁t",
        "e"
      ],
      [
        "▁kal",
        "dır"
      ],
      [
        "an",
        "bul"
      ],
      [
        "un",
        "e"
      ],
      [
        "▁uc",
        "ak"
      ],
      [
        "▁ist",
        "anbul"
      ],
      [
        "▁mev",
        "cut"
      ],
      [
        "er",
        "al"
      ],
      [
        "▁i",
        "p"
      ],
      [
        "▁yet",
        "ersiz"
      ],
      [
        "▁d",
        "est"
      ],
      [
        "am",
        "ak"
      ],
      [
        "▁ol",
        "sun"
      ],
      [
        "▁an",
        "da"
      ],
      [
        "▁ul",
        "us"
      ],
      [
        "0",
        "."
      ],
      [
        "▁s",
        "alı"
      ],
      [
        "im",
        "e"
      ],
      [
        "me",
        "den"
      ],
      [
        "▁soy",
        "luyor"
      ],
      [
        "▁kars",
        "il"
      ],
      [
        "▁cocuk",
        "lu"
      ],
      [
        "▁tic",
        "aret"
      ],
      [
        "v",
        "el"
      ],
      [
        "▁ver",
        "di"
      ],
      [
        "▁bel",
        "ki"
      ],
      [
        "▁od",
        "alar"
      ],
      [
        "m",
        "uz"
      ],
      [
        "s",
        "iy"
      ],
      [
        "▁k",
        "ez"
      ],
      [
        "em",
        "mel"
      ],
      [
        "▁tat",
        "il"
      ],
      [
        "▁g",
        "ez"
      ],
      [
        "▁yatırım",
        "cı"
      ],
      [
        "▁muk",
        "emmel"
      ],
      [
        "▁y",
        "aban"
      ],
      [
        "el",
        "e"
      ],
      [
        "▁c",
        "if"
      ],
      [
        "em",
        "i"
      ],
      [
        "man",
        "ın"
      ],
      [
        "▁kazan",
        "c"
      ],
      [
        "▁n",
        "eler"
      ],
      [
        "ap",
        "on"
      ],
      [
        "eler",
        "ini"
      ],
      [
        "▁erk",
        "ek"
      ],
      [
        "g",
        "ına"
      ],
      [
        "h",
        "al"
      ],
      [
        "▁k",
        "er"
      ],
      [
        "▁f",
        "in"
      ],
      [
        "▁tek",
        "n"
      ],
      [
        "▁kıy",
        "met"
      ],
      [
        "t",
        "ıs"
      ],
      [
        "in",
        "deki"
      ],
      [
        "▁g",
        "ar"
      ],
      [
        "▁kap",
        "ı"
      ],
      [
        "▁biz",
        "e"
      ],
      [
        "▁j",
        "apon"
      ],
      [
        "▁ozel",
        "likle"
      ],
      [
        "▁mah",
        "k"
      ],
      [
        "▁yiy",
        "ecek"
      ],
      [
        "l",
        "emek"
      ],
      [
        "▁s",
        "ef"
      ],
      [
        "en",
        "c"
      ],
      [
        "il",
        "mis"
      ],
      [
        "▁m",
        "et"
      ],
      [
        "▁m",
        "ey"
      ],
      [
        "▁m",
        "enkul"
      ],
      [
        "em",
        "be"
      ],
      [
        "▁r",
        "ak"
      ],
      [
        "▁ucret",
        "e"
      ],
      [
        "▁k",
        "em"
      ],
      [
        "▁s",
        "ın"
      ],
      [
        "▁d",
        "ag"
      ],
      [
        "▁g",
        "ur"
      ],
      [
        "▁y",
        "um"
      ],
      [
        "▁yıl",
        "lık"
      ],
      [
        "▁yer",
        "ine"
      ],
      [
        "▁kıs",
        "a"
      ],
      [
        "▁ug",
        "r"
      ],
      [
        "o",
        "'dan"
      ],
      [
        "▁an",
        "al"
      ],
      [
        "▁gel",
        "iyor"
      ],
      [
        "▁ad",
        "et"
      ],
      [
        "▁philadelphia",
        "'ya"
      ],
      [
        "ın",
        "ca"
      ],
      [
        "▁f",
        "on"
      ],
      [
        "ım",
        "a"
      ],
      [
        "▁havayol",
        "ları"
      ],
      [
        "▁fa",
        "iz"
      ],
      [
        "▁end",
        "ek"
      ],
      [
        "▁b",
        "oz"
      ],
      [
        "▁r",
        "o"
      ],
      [
        "lan",
        "dır"
      ],
      [
        "▁dus",
        "us"
      ],
      [
        "▁san",
        "at"
      ],
      [
        "▁hal",
        "a"
      ],
      [
        "g",
        "ında"
      ],
      [
        "is",
        "ini"
      ],
      [
        "▁z",
        "ar"
      ],
      [
        "▁son",
        "unda"
      ],
      [
        "'",
        "daki"
      ],
      [
        "▁",
        "$"
      ],
      [
        "▁s",
        "eb"
      ],
      [
        "iy",
        "i"
      ],
      [
        "▁u",
        "f"
      ],
      [
        "▁cal",
        "is"
      ],
      [
        "iyet",
        "i"
      ],
      [
        "▁pittsburgh",
        "'a"
      ],
      [
        "▁y",
        "em"
      ],
      [
        "▁r",
        "u"
      ],
      [
        "▁g",
        "ol"
      ],
      [
        "as",
        "ır"
      ],
      [
        "▁bil",
        "gis"
      ],
      [
        "▁par",
        "c"
      ],
      [
        "g",
        "isi"
      ],
      [
        "▁k",
        "isi"
      ],
      [
        "al",
        "ım"
      ],
      [
        "am",
        "i"
      ],
      [
        "im",
        "in"
      ],
      [
        "▁sev",
        "iy"
      ],
      [
        "▁kol",
        "ay"
      ],
      [
        "▁kotu",
        "ydu"
      ],
      [
        "'",
        "te"
      ],
      [
        "e",
        "e"
      ],
      [
        "p",
        "an"
      ],
      [
        "▁h",
        "en"
      ],
      [
        "▁m",
        "in"
      ],
      [
        "ıl",
        "ır"
      ],
      [
        "eb",
        "il"
      ],
      [
        "▁dev",
        "r"
      ],
      [
        "▁istem",
        "iyorum"
      ],
      [
        "g",
        "an"
      ],
      [
        "s",
        "t"
      ],
      [
        "▁c",
        "ab"
      ],
      [
        "▁kur",
        "um"
      ],
      [
        "▁s",
        "p"
      ],
      [
        "▁t",
        "ep"
      ],
      [
        "▁p",
        "ah"
      ],
      [
        "ıl",
        "ıyor"
      ],
      [
        "▁sur",
        "e"
      ],
      [
        "h",
        "ur"
      ],
      [
        "s",
        "u"
      ],
      [
        "ar",
        "lar"
      ],
      [
        "▁d",
        "iz"
      ],
      [
        "▁h",
        "es"
      ],
      [
        "▁h",
        "ey"
      ],
      [
        "▁her",
        "han"
      ],
      [
        "mas",
        "ını"
      ],
      [
        "▁bor",
        "c"
      ],
      [
        "▁dik",
        "kat"
      ],
      [
        "▁kit",
        "ap"
      ],
      [
        "▁ihtiyac",
        "ım"
      ],
      [
        "▁herhan",
        "gi"
      ],
      [
        "▁s",
        "ap"
      ],
      [
        "▁ol",
        "uyor"
      ],
      [
        "▁az",
        "di"
      ],
      [
        "▁dol",
        "ayi"
      ],
      [
        "▁tah",
        "min"
      ],
      [
        "▁ur",
        "un"
      ],
      [
        "▁",
        "la"
      ],
      [
        "▁s",
        "ist"
      ],
      [
        "▁h",
        "os"
      ],
      [
        "▁n",
        "ok"
      ],
      [
        "agı",
        "t"
      ],
      [
        "▁philadelphia",
        "'dan"
      ],
      [
        "▁hukum",
        "et"
      ],
      [
        "▁rezerv",
        "asyon"
      ],
      [
        "d",
        "ak"
      ],
      [
        "▁f",
        "en"
      ],
      [
        "▁i",
        "d"
      ],
      [
        "▁hal",
        "k"
      ],
      [
        "▁top",
        "lan"
      ],
      [
        "▁s",
        "i"
      ],
      [
        "▁s",
        "tr"
      ],
      [
        "▁gi",
        "diyor"
      ],
      [
        "▁dallas",
        "'tan"
      ],
      [
        "t",
        "ul"
      ],
      [
        "un",
        "den"
      ],
      [
        "ol",
        "oj"
      ],
      [
        "▁bas",
        "k"
      ],
      [
        "▁gi",
        "d"
      ],
      [
        "▁baskan",
        "ı"
      ],
      [
        "▁pol",
        "it"
      ],
      [
        "an",
        "d"
      ],
      [
        "▁o",
        "f"
      ],
      [
        "ab",
        "ı"
      ],
      [
        "▁19",
        "9"
      ],
      [
        "v",
        "an"
      ],
      [
        "v",
        "et"
      ],
      [
        "▁t",
        "ır"
      ],
      [
        "iler",
        "in"
      ],
      [
        "▁uzer",
        "e"
      ],
      [
        "▁has",
        "t"
      ],
      [
        "▁baltimore",
        "'den"
      ],
      [
        "m",
        "eyi"
      ],
      [
        "▁b",
        "r"
      ],
      [
        "▁b",
        "eri"
      ],
      [
        "al",
        "l"
      ],
      [
        "un",
        "de"
      ],
      [
        "am",
        "adı"
      ],
      [
        "im",
        "de"
      ],
      [
        "▁var",
        "an"
      ],
      [
        "lam",
        "ak"
      ],
      [
        "▁ik",
        "inci"
      ],
      [
        "▁tab",
        "i"
      ],
      [
        "os",
        "y"
      ],
      [
        "▁is",
        "let"
      ],
      [
        "▁bil",
        "dir"
      ],
      [
        "▁ort",
        "al"
      ],
      [
        "▁muh",
        "t"
      ],
      [
        "▁av",
        "rup"
      ],
      [
        "▁kapan",
        "dı"
      ],
      [
        "al",
        "et"
      ],
      [
        "▁t",
        "uk"
      ],
      [
        "▁c",
        "at"
      ],
      [
        "am",
        "ıs"
      ],
      [
        "▁r",
        "ap"
      ],
      [
        "▁1",
        "5"
      ],
      [
        "▁ac",
        "ı"
      ],
      [
        "▁insan",
        "lar"
      ],
      [
        "▁k",
        "ı"
      ],
      [
        "▁s",
        "uc"
      ],
      [
        "▁d",
        "ayan"
      ],
      [
        "▁c",
        "un"
      ],
      [
        "▁yer",
        "e"
      ],
      [
        "▁temiz",
        "lik"
      ],
      [
        "▁ort",
        "aya"
      ],
      [
        "▁otel",
        "in"
      ],
      [
        "▁ail",
        "e"
      ],
      [
        "▁hat",
        "ta"
      ],
      [
        "▁cif",
        "t"
      ],
      [
        "▁bilgis",
        "ay"
      ],
      [
        ".",
        "2"
      ],
      [
        "▁b",
        "ic"
      ],
      [
        "un",
        "dan"
      ],
      [
        "▁c",
        "oz"
      ],
      [
        "at",
        "en"
      ],
      [
        "▁f",
        "ed"
      ],
      [
        "▁oldu",
        "gun"
      ],
      [
        "▁st",
        "."
      ],
      [
        "ur",
        "du"
      ],
      [
        "▁gel",
        "is"
      ],
      [
        "erk",
        "en"
      ],
      [
        ".",
        "3"
      ],
      [
        "k",
        "in"
      ],
      [
        "m",
        "eler"
      ],
      [
        "m",
        "uyor"
      ],
      [
        "s",
        "as"
      ],
      [
        "y",
        "o"
      ],
      [
        "▁al",
        "ıs"
      ],
      [
        "ıyor",
        "lar"
      ],
      [
        "▁degil",
        "dir"
      ],
      [
        "▁pers",
        "embe"
      ],
      [
        "▁kars",
        "ıl"
      ],
      [
        "▁haf",
        "if"
      ],
      [
        "▁yonet",
        "im"
      ],
      [
        "▁d",
        "ır"
      ],
      [
        "▁al",
        "tı"
      ],
      [
        "▁yap",
        "tir"
      ],
      [
        "alar",
        "ın"
      ],
      [
        "af",
        "ir"
      ],
      [
        "▁francisco",
        "'dan"
      ],
      [
        "▁mis",
        "afir"
      ],
      [
        "▁d",
        "iy"
      ],
      [
        "▁g",
        "iy"
      ],
      [
        "▁olan",
        "ak"
      ],
      [
        "▁coc",
        "u"
      ],
      [
        "▁hat",
        "ır"
      ],
      [
        "▁cog",
        "u"
      ],
      [
        "▁yetk",
        "il"
      ],
      [
        "▁rap",
        "or"
      ],
      [
        "uk",
        "ee"
      ],
      [
        "iyor",
        "lar"
      ],
      [
        "▁mil",
        "wa"
      ],
      [
        "▁do",
        "lara"
      ],
      [
        "▁deg",
        "istir"
      ],
      [
        "▁cor",
        "p"
      ],
      [
        "▁cun",
        "ku"
      ],
      [
        ".",
        "6"
      ],
      [
        "ap",
        "ol"
      ],
      [
        "▁yuz",
        "lu"
      ],
      [
        "mus",
        "tu"
      ],
      [
        "▁dun",
        "ya"
      ],
      [
        "▁kor",
        "k"
      ],
      [
        "▁havuz",
        "u"
      ],
      [
        "▁milwa",
        "ukee"
      ],
      [
        "b",
        "ol"
      ],
      [
        "▁ko",
        "c"
      ],
      [
        "▁cocuk",
        "lar"
      ],
      [
        "▁du",
        "var"
      ],
      [
        "▁ok",
        "ul"
      ],
      [
        "▁dav",
        "ran"
      ],
      [
        "mam",
        "ıs"
      ],
      [
        "▁o",
        "de"
      ],
      [
        "ti",
        "f"
      ],
      [
        "ust",
        "os"
      ],
      [
        "▁ag",
        "ustos"
      ],
      [
        "▁dest",
        "ek"
      ],
      [
        "▁hen",
        "uz"
      ],
      [
        "apol",
        "is"
      ],
      [
        "▁d",
        "um"
      ],
      [
        "▁d",
        "emek"
      ],
      [
        "es",
        "iz"
      ],
      [
        "▁t",
        "ı"
      ],
      [
        "▁hizmet",
        "i"
      ],
      [
        "imiz",
        "i"
      ],
      [
        "▁deger",
        "lendir"
      ],
      [
        ".",
        "7"
      ],
      [
        "ır",
        "dı"
      ],
      [
        "▁ol",
        "ma"
      ],
      [
        "▁bil",
        "im"
      ],
      [
        "▁i",
        "b"
      ],
      [
        "▁ucret",
        "i"
      ],
      [
        "▁d",
        "c"
      ],
      [
        "▁m",
        "a"
      ],
      [
        "▁f",
        "ik"
      ],
      [
        "ları",
        "yla"
      ],
      [
        "▁in",
        "di"
      ],
      [
        "▁2",
        "0"
      ],
      [
        "▁dem",
        "ir"
      ],
      [
        "g",
        "ar"
      ],
      [
        "▁",
        "unu"
      ],
      [
        "an",
        "t"
      ],
      [
        "em",
        "ez"
      ],
      [
        "▁ol",
        "ay"
      ],
      [
        "▁ol",
        "sa"
      ],
      [
        "▁n",
        "is"
      ],
      [
        "▁kar",
        "d"
      ],
      [
        "▁var",
        "dır"
      ],
      [
        "▁in",
        "gil"
      ],
      [
        "▁in",
        "ce"
      ],
      [
        "▁sey",
        "ler"
      ],
      [
        "▁bun",
        "lar"
      ],
      [
        "▁b",
        "og"
      ],
      [
        "as",
        "ından"
      ],
      [
        "un",
        "cu"
      ],
      [
        "▁h",
        "ac"
      ],
      [
        "▁c",
        "ez"
      ],
      [
        "alar",
        "ını"
      ],
      [
        "ece",
        "gi"
      ],
      [
        "▁amer",
        "ic"
      ],
      [
        "▁cev",
        "r"
      ],
      [
        "▁bol",
        "g"
      ],
      [
        "ey",
        "di"
      ],
      [
        "▁r",
        "enk"
      ],
      [
        "▁dus",
        "unuyor"
      ],
      [
        "▁aras",
        "tır"
      ],
      [
        "for",
        "man"
      ],
      [
        "▁cey",
        "rek"
      ],
      [
        "▁s",
        "ik"
      ],
      [
        "▁bir",
        "den"
      ],
      [
        "▁z",
        "aten"
      ],
      [
        "▁l",
        "ak"
      ],
      [
        "▁uy",
        "gul"
      ],
      [
        "▁es",
        "k"
      ],
      [
        "▁olabilir",
        "di"
      ],
      [
        "g",
        "ini"
      ],
      [
        "▁r",
        "ed"
      ],
      [
        "ız",
        "ı"
      ],
      [
        "▁or",
        "ta"
      ],
      [
        "▁yar",
        "at"
      ],
      [
        "▁ag",
        "ac"
      ],
      [
        "ley",
        "en"
      ],
      [
        "▁degis",
        "ik"
      ],
      [
        ".",
        "8"
      ],
      [
        "▁s",
        "ez"
      ],
      [
        "▁r",
        "ag"
      ],
      [
        "▁kal",
        "madim"
      ],
      [
        "▁gun",
        "luk"
      ],
      [
        "▁as",
        "agı"
      ],
      [
        "▁bun",
        "a"
      ],
      [
        "▁im",
        "kan"
      ],
      [
        "▁kr",
        "edi"
      ],
      [
        "▁kayn",
        "ak"
      ],
      [
        "▁bilgisay",
        "ar"
      ],
      [
        "'",
        "i"
      ],
      [
        "▁d",
        "is"
      ],
      [
        "ir",
        "di"
      ],
      [
        "▁t",
        "r"
      ],
      [
        "▁kar",
        "a"
      ],
      [
        "▁yap",
        "an"
      ],
      [
        "mak",
        "tadır"
      ],
      [
        "ig",
        "ini"
      ],
      [
        "▁ag",
        "z"
      ],
      [
        "▁3",
        "0"
      ],
      [
        "▁der",
        "ece"
      ],
      [
        "▁tas",
        "ar"
      ],
      [
        "▁sabah",
        "ı"
      ],
      [
        "▁per",
        "forman"
      ],
      [
        "▁onc",
        "eki"
      ],
      [
        "▁d",
        "ak"
      ],
      [
        "ay",
        "acak"
      ],
      [
        "es",
        "il"
      ],
      [
        "ey",
        "im"
      ],
      [
        "▁n",
        "et"
      ],
      [
        "▁ed",
        "ilen"
      ],
      [
        ".",
        "9"
      ],
      [
        "▁c",
        "en"
      ],
      [
        "ol",
        "u"
      ],
      [
        "▁fiyat",
        "ları"
      ],
      [
        "▁har",
        "c"
      ],
      [
        "enc",
        "er"
      ],
      [
        "\\",
        "/"
      ],
      [
        "ek",
        "tr"
      ],
      [
        "▁al",
        "ak"
      ],
      [
        "▁gor",
        "du"
      ],
      [
        "mek",
        "tedir"
      ],
      [
        "uy",
        "la"
      ],
      [
        "▁gir",
        "is"
      ],
      [
        "▁piyas",
        "a"
      ],
      [
        "▁vad",
        "eli"
      ],
      [
        "m",
        "er"
      ],
      [
        "▁y",
        "u"
      ],
      [
        "ıs",
        "ını"
      ],
      [
        "▁r",
        "e"
      ],
      [
        "▁biz",
        "i"
      ],
      [
        "▁gercek",
        "ten"
      ],
      [
        "▁rag",
        "men"
      ],
      [
        "▁s",
        "us"
      ],
      [
        "▁y",
        "ık"
      ],
      [
        "as",
        "t"
      ],
      [
        "▁ar",
        "ası"
      ],
      [
        "▁olm",
        "ası"
      ],
      [
        "mas",
        "ız"
      ],
      [
        "▁cum",
        "hur"
      ],
      [
        "a",
        "j"
      ],
      [
        "b",
        "il"
      ],
      [
        "ac",
        "agı"
      ],
      [
        "▁tur",
        "lu"
      ],
      [
        "▁dolar",
        "dan"
      ],
      [
        "▁ch",
        "ic"
      ],
      [
        "▁yalnız",
        "ca"
      ],
      [
        "u",
        "du"
      ],
      [
        "▁c",
        "ap"
      ],
      [
        "at",
        "e"
      ],
      [
        "▁f",
        "atur"
      ],
      [
        "▁il",
        "gi"
      ],
      [
        "▁an",
        "a"
      ],
      [
        "▁gun",
        "es"
      ],
      [
        "dig",
        "imiz"
      ],
      [
        "mas",
        "ına"
      ],
      [
        "ilm",
        "esi"
      ],
      [
        "▁yay",
        "ın"
      ],
      [
        "▁americ",
        "an"
      ],
      [
        "▁chic",
        "ag"
      ],
      [
        "b",
        "an"
      ],
      [
        "un",
        "uz"
      ],
      [
        "di",
        "p"
      ],
      [
        "ok",
        "r"
      ],
      [
        "▁on",
        "umuz"
      ],
      [
        "▁z",
        "iy"
      ],
      [
        "▁mil",
        "let"
      ],
      [
        "▁bey",
        "di"
      ],
      [
        "▁og",
        "ret"
      ],
      [
        "▁",
        "las"
      ],
      [
        "▁m",
        "ec"
      ],
      [
        "▁z",
        "en"
      ],
      [
        "▁or",
        "n"
      ],
      [
        "▁ot",
        "om"
      ],
      [
        "▁yan",
        "l"
      ],
      [
        "▁sen",
        "edi"
      ],
      [
        "ib",
        "ar"
      ],
      [
        "▁serv",
        "is"
      ],
      [
        "d",
        "ay"
      ],
      [
        "s",
        "ı"
      ],
      [
        "▁g",
        "ot"
      ],
      [
        "▁m",
        "ag"
      ],
      [
        "▁1",
        "1"
      ],
      [
        "▁is",
        "i"
      ],
      [
        "▁kim",
        "s"
      ],
      [
        "▁fa",
        "al"
      ],
      [
        "▁kend",
        "ini"
      ],
      [
        "▁yaban",
        "cı"
      ],
      [
        "l",
        "ah"
      ],
      [
        "r",
        "ı"
      ],
      [
        "s",
        "il"
      ],
      [
        "▁g",
        "iz"
      ],
      [
        "lar",
        "ımız"
      ],
      [
        "▁kar",
        "ayol"
      ],
      [
        "▁el",
        "ektr"
      ],
      [
        "▁yer",
        "de"
      ],
      [
        "▁ort",
        "ak"
      ],
      [
        "▁eg",
        "it"
      ],
      [
        "▁ann",
        "em"
      ],
      [
        "▁olduk",
        "ca"
      ],
      [
        "▁id",
        "di"
      ],
      [
        "▁avrup",
        "a"
      ],
      [
        "s",
        "iniz"
      ],
      [
        "▁b",
        "at"
      ],
      [
        "an",
        "lı"
      ],
      [
        "in",
        "dan"
      ],
      [
        "il",
        "ar"
      ],
      [
        "▁m",
        "ac"
      ],
      [
        "lu",
        "gu"
      ],
      [
        "▁sog",
        "uk"
      ],
      [
        "ur",
        "u"
      ],
      [
        "▁ar",
        "ac"
      ],
      [
        "▁ist",
        "er"
      ],
      [
        "▁or",
        "ada"
      ],
      [
        "'n",
        "a"
      ],
      [
        "▁dog",
        "r"
      ],
      [
        "▁kucuk",
        "tu"
      ],
      [
        "▁eg",
        "er"
      ],
      [
        "ob",
        "il"
      ],
      [
        "▁it",
        "ibar"
      ],
      [
        "▁un",
        "it"
      ],
      [
        ".",
        "4"
      ],
      [
        "▁d",
        "am"
      ],
      [
        "ler",
        "iyle"
      ],
      [
        "▁am",
        "ac"
      ],
      [
        "lem",
        "e"
      ],
      [
        "sun",
        "uz"
      ],
      [
        "▁kim",
        "se"
      ],
      [
        "▁cum",
        "artesi"
      ],
      [
        "▁ustun",
        "e"
      ],
      [
        "▁aktar",
        "masız"
      ],
      [
        "ati",
        "on"
      ],
      [
        "o",
        "h"
      ],
      [
        "ı",
        "c"
      ],
      [
        "▁s",
        "am"
      ],
      [
        "el",
        "l"
      ],
      [
        "at",
        "or"
      ],
      [
        "▁ar",
        "ada"
      ],
      [
        "▁r",
        "eh"
      ],
      [
        "▁kal",
        "dı"
      ],
      [
        "▁bas",
        "ında"
      ],
      [
        "▁ko",
        "mis"
      ],
      [
        "▁art",
        "arak"
      ],
      [
        "▁hep",
        "si"
      ],
      [
        ".",
        "1"
      ],
      [
        "g",
        "as"
      ],
      [
        "l",
        "ilik"
      ],
      [
        "ar",
        "l"
      ],
      [
        "▁m",
        "ay"
      ],
      [
        "▁n",
        "um"
      ],
      [
        "▁al",
        "man"
      ],
      [
        "tı",
        "lar"
      ],
      [
        "▁at",
        "es"
      ],
      [
        "▁su",
        "per"
      ],
      [
        "▁boy",
        "unca"
      ],
      [
        "▁tesis",
        "in"
      ],
      [
        "▁git",
        "ti"
      ],
      [
        "▁sak",
        "in"
      ],
      [
        "ter",
        "n"
      ],
      [
        "▁ku",
        "v"
      ],
      [
        "▁air",
        "lin"
      ],
      [
        "orm",
        "al"
      ],
      [
        "▁karayol",
        "u"
      ],
      [
        "▁airlin",
        "es"
      ],
      [
        "▁p",
        "is"
      ],
      [
        "▁ol",
        "ustur"
      ],
      [
        "▁on",
        "ların"
      ],
      [
        "▁ay",
        "ında"
      ],
      [
        "▁ad",
        "ım"
      ],
      [
        "▁tar",
        "tıs"
      ],
      [
        "▁mu",
        "dur"
      ],
      [
        "▁etm",
        "em"
      ],
      [
        "▁eks",
        "ik"
      ],
      [
        "▁nok",
        "t"
      ],
      [
        "▁c",
        "ol"
      ],
      [
        "▁m",
        "um"
      ],
      [
        "▁uc",
        "mak"
      ],
      [
        "▁on",
        "er"
      ],
      [
        "▁1",
        "00"
      ],
      [
        "▁et",
        "raf"
      ],
      [
        "▁ist",
        "iyor"
      ],
      [
        "▁ih",
        "r"
      ],
      [
        "▁eg",
        "len"
      ],
      [
        "▁gon",
        "der"
      ],
      [
        "▁g",
        "al"
      ],
      [
        "▁m",
        "ıs"
      ],
      [
        "ey",
        "ecek"
      ],
      [
        "lan",
        "an"
      ],
      [
        "ası",
        "yla"
      ],
      [
        "▁ver",
        "mek"
      ],
      [
        "▁en",
        "gel"
      ],
      [
        "▁san",
        "ki"
      ],
      [
        "▁tem",
        "muz"
      ],
      [
        "▁kesin",
        "likle"
      ],
      [
        "t",
        "in"
      ],
      [
        "▁t",
        "ok"
      ],
      [
        "lan",
        "mıs"
      ],
      [
        "▁el",
        "de"
      ],
      [
        "▁yan",
        "i"
      ],
      [
        "▁sen",
        "in"
      ],
      [
        "ılı",
        "gı"
      ],
      [
        "▁fark",
        "lı"
      ],
      [
        "▁ey",
        "lul"
      ],
      [
        "▁rek",
        "lam"
      ],
      [
        "▁polit",
        "ik"
      ],
      [
        "d",
        "ın"
      ],
      [
        "e",
        "gi"
      ],
      [
        "or",
        "n"
      ],
      [
        "▁t",
        "eh"
      ],
      [
        "es",
        "tir"
      ],
      [
        "ec",
        "i"
      ],
      [
        "▁n",
        "ak"
      ],
      [
        "▁an",
        "ket"
      ],
      [
        "▁bil",
        "gil"
      ],
      [
        "▁olm",
        "ayan"
      ],
      [
        "▁kap",
        "at"
      ],
      [
        "▁sur",
        "ekli"
      ],
      [
        "▁dol",
        "dur"
      ],
      [
        "▁merkez",
        "i"
      ],
      [
        "▁zen",
        "gin"
      ],
      [
        "o",
        "f"
      ],
      [
        "▁n",
        "ormal"
      ],
      [
        "ist",
        "e"
      ],
      [
        "▁ak",
        "l"
      ],
      [
        "▁od",
        "am"
      ],
      [
        "▁top",
        "lam"
      ],
      [
        "▁uzer",
        "inden"
      ],
      [
        "▁ustun",
        "de"
      ],
      [
        "▁komis",
        "yon"
      ],
      [
        "in",
        "da"
      ],
      [
        "is",
        "e"
      ],
      [
        "ul",
        "mus"
      ],
      [
        "▁ar",
        "alık"
      ],
      [
        "▁gec",
        "mis"
      ],
      [
        "▁tem",
        "el"
      ],
      [
        "▁olm",
        "az"
      ],
      [
        "▁kat",
        "il"
      ],
      [
        "▁alt",
        "ın"
      ],
      [
        "tig",
        "ini"
      ],
      [
        "▁if",
        "ade"
      ],
      [
        "▁s",
        "eni"
      ],
      [
        "ir",
        "ler"
      ],
      [
        "▁c",
        "iz"
      ],
      [
        "▁dolar",
        "lık"
      ],
      [
        "▁bors",
        "ası"
      ],
      [
        "▁sın",
        "ır"
      ],
      [
        "▁unit",
        "ed"
      ],
      [
        "m",
        "esini"
      ],
      [
        "▁",
        "af"
      ],
      [
        "▁yap",
        "ıyor"
      ],
      [
        "▁da",
        "ir"
      ],
      [
        "▁dus",
        "erek"
      ],
      [
        "▁degil",
        "im"
      ],
      [
        "'n",
        "da"
      ],
      [
        "▁as",
        "l"
      ],
      [
        "▁sirket",
        "in"
      ],
      [
        "▁onun",
        "de"
      ],
      [
        "▁anal",
        "ist"
      ],
      [
        "▁sist",
        "em"
      ],
      [
        "c",
        "usu"
      ],
      [
        "l",
        "adım"
      ],
      [
        "▁b",
        "us"
      ],
      [
        "▁k",
        "ut"
      ],
      [
        "▁s",
        "iy"
      ],
      [
        "▁ne",
        "f"
      ],
      [
        "ort",
        "h"
      ],
      [
        "▁guc",
        "lu"
      ],
      [
        "▁yetersiz",
        "di"
      ],
      [
        "siy",
        "on"
      ],
      [
        "▁neler",
        "dir"
      ],
      [
        "▁kıymet",
        "ler"
      ],
      [
        "d",
        "em"
      ],
      [
        "▁k",
        "il"
      ],
      [
        "▁d",
        "ers"
      ],
      [
        "▁t",
        "ası"
      ],
      [
        "at",
        "ik"
      ],
      [
        "▁der",
        "in"
      ],
      [
        "eceg",
        "im"
      ],
      [
        "▁dok",
        "tor"
      ],
      [
        "▁sav",
        "un"
      ],
      [
        "▁sı",
        "cak"
      ],
      [
        "▁yeter",
        "li"
      ],
      [
        "▁kuv",
        "vet"
      ],
      [
        "m",
        "aları"
      ],
      [
        "y",
        "dı"
      ],
      [
        "▁",
        "ap"
      ],
      [
        "▁el",
        "inde"
      ],
      [
        "▁hal",
        "de"
      ],
      [
        "▁yuz",
        "de"
      ],
      [
        "▁top",
        "lum"
      ],
      [
        "▁kon",
        "tr"
      ],
      [
        "▁l",
        "ir"
      ],
      [
        "▁san",
        "a"
      ],
      [
        "▁ken",
        "dim"
      ],
      [
        "▁han",
        "ım"
      ],
      [
        "▁temiz",
        "di"
      ],
      [
        "▁car",
        "p"
      ],
      [
        "▁cev",
        "ap"
      ],
      [
        "▁hes",
        "ap"
      ],
      [
        "▁faal",
        "iyet"
      ],
      [
        "▁siy",
        "ah"
      ],
      [
        "l",
        "ek"
      ],
      [
        "m",
        "ıyor"
      ],
      [
        "▁d",
        "an"
      ],
      [
        "▁bir",
        "inci"
      ],
      [
        "em",
        "iz"
      ],
      [
        "it",
        "e"
      ],
      [
        "▁ar",
        "d"
      ],
      [
        "▁kon",
        "for"
      ],
      [
        "▁bel",
        "li"
      ],
      [
        "▁yaz",
        "ar"
      ],
      [
        "▁bag",
        "lı"
      ],
      [
        "▁bol",
        "um"
      ],
      [
        "▁mi",
        "ami"
      ],
      [
        "▁bab",
        "am"
      ],
      [
        "▁ede",
        "cek"
      ],
      [
        "▁tor",
        "ont"
      ],
      [
        "▁s",
        "osy"
      ],
      [
        "▁y",
        "ana"
      ],
      [
        "▁1",
        "3"
      ],
      [
        "▁ulas",
        "ım"
      ],
      [
        "▁onumuz",
        "deki"
      ],
      [
        "▁k",
        "elim"
      ],
      [
        "▁t",
        "i"
      ],
      [
        "▁ol",
        "cu"
      ],
      [
        "ıs",
        "ına"
      ],
      [
        "▁ve",
        "gas"
      ],
      [
        "ti",
        "v"
      ],
      [
        "▁ver",
        "irim"
      ],
      [
        "▁l",
        "o"
      ],
      [
        "▁gec",
        "ti"
      ],
      [
        "dik",
        "leri"
      ],
      [
        "▁sen",
        "e"
      ],
      [
        "▁calıs",
        "an"
      ],
      [
        "▁ediyor",
        "um"
      ],
      [
        "▁yonet",
        "ic"
      ],
      [
        "▁fed",
        "eral"
      ],
      [
        "▁corp",
        "."
      ],
      [
        "o",
        "eni"
      ],
      [
        "▁s",
        "em"
      ],
      [
        "▁s",
        "iyas"
      ],
      [
        "▁d",
        "ost"
      ],
      [
        "us",
        "tu"
      ],
      [
        "▁de",
        "pr"
      ],
      [
        "ım",
        "da"
      ],
      [
        "▁on",
        "ları"
      ],
      [
        "▁kal",
        "ab"
      ],
      [
        "▁gi",
        "der"
      ],
      [
        "▁ver",
        "gi"
      ],
      [
        "▁duy",
        "gu"
      ],
      [
        "▁ph",
        "oeni"
      ],
      [
        "▁phoeni",
        "x"
      ],
      [
        "g",
        "ımız"
      ],
      [
        "r",
        "ik"
      ],
      [
        "▁k",
        "agıt"
      ],
      [
        "▁d",
        "et"
      ],
      [
        "▁d",
        "ay"
      ],
      [
        "ler",
        "ce"
      ],
      [
        "▁l",
        "os"
      ],
      [
        "▁2",
        "5"
      ],
      [
        "h",
        "e"
      ],
      [
        "▁y",
        "edi"
      ],
      [
        "um",
        "e"
      ],
      [
        "▁n",
        "es"
      ],
      [
        "▁in",
        "sa"
      ],
      [
        "▁yıl",
        "lar"
      ],
      [
        "if",
        "orn"
      ],
      [
        "▁sok",
        "ak"
      ],
      [
        "▁benz",
        "er"
      ],
      [
        "▁ber",
        "aber"
      ],
      [
        "'",
        "ı"
      ],
      [
        "c",
        "ısı"
      ],
      [
        "r",
        "ol"
      ],
      [
        "s",
        "at"
      ],
      [
        "ir",
        "an"
      ],
      [
        "es",
        "s"
      ],
      [
        "▁p",
        "encer"
      ],
      [
        "▁icin",
        "e"
      ],
      [
        "len",
        "di"
      ],
      [
        "ayı",
        "f"
      ],
      [
        "▁uy",
        "an"
      ],
      [
        "▁ev",
        "et"
      ],
      [
        "ıy",
        "ı"
      ],
      [
        "▁sirket",
        "i"
      ],
      [
        "▁soz",
        "les"
      ],
      [
        "▁siz",
        "e"
      ],
      [
        "det",
        "ti"
      ],
      [
        "m",
        "eyen"
      ],
      [
        "ar",
        "lan"
      ],
      [
        "▁b",
        "on"
      ],
      [
        "▁h",
        "ır"
      ],
      [
        "▁m",
        "ik"
      ],
      [
        "at",
        "t"
      ],
      [
        "▁f",
        "il"
      ],
      [
        "▁ic",
        "ecek"
      ],
      [
        "ust",
        "r"
      ],
      [
        "▁dol",
        "u"
      ],
      [
        "▁sek",
        "tor"
      ],
      [
        "▁tak",
        "ım"
      ],
      [
        "lay",
        "acak"
      ],
      [
        "ede",
        "f"
      ],
      [
        "s",
        "en"
      ],
      [
        "▁",
        "emek"
      ],
      [
        "▁b",
        "o"
      ],
      [
        "▁k",
        "uz"
      ],
      [
        "▁s",
        "ul"
      ],
      [
        "▁y",
        "di"
      ],
      [
        "▁m",
        "on"
      ],
      [
        "ır",
        "ı"
      ],
      [
        "ıs",
        "ından"
      ],
      [
        "▁il",
        "er"
      ],
      [
        "▁a",
        "."
      ],
      [
        "▁yan",
        "ında"
      ],
      [
        "▁mus",
        "a"
      ],
      [
        "q",
        "u"
      ],
      [
        "▁g",
        "ok"
      ],
      [
        "al",
        "iydi"
      ],
      [
        "ag",
        "ın"
      ],
      [
        "og",
        "lu"
      ],
      [
        "▁kon",
        "g"
      ],
      [
        "▁or",
        "land"
      ],
      [
        "▁yar",
        "ın"
      ],
      [
        "▁-",
        "-"
      ],
      [
        "▁kat",
        "ıl"
      ],
      [
        "▁haf",
        "t"
      ],
      [
        "▁ingil",
        "iz"
      ],
      [
        "▁asl",
        "ında"
      ],
      [
        "m",
        "istir"
      ],
      [
        "▁d",
        "uk"
      ],
      [
        "▁m",
        "o"
      ],
      [
        "▁gel",
        "istir"
      ],
      [
        "▁mal",
        "iyet"
      ],
      [
        "▁artıs",
        "la"
      ],
      [
        "▁ode",
        "digim"
      ],
      [
        "▁reh",
        "ber"
      ],
      [
        "'",
        "s"
      ],
      [
        "▁m",
        "ez"
      ],
      [
        "am",
        "ay"
      ],
      [
        "im",
        "li"
      ],
      [
        "uyor",
        "um"
      ],
      [
        "▁yıl",
        "ında"
      ],
      [
        "eg",
        "in"
      ],
      [
        "▁bal",
        "ık"
      ],
      [
        "▁sag",
        "lık"
      ],
      [
        "▁kır",
        "m"
      ],
      [
        "▁cev",
        "ir"
      ],
      [
        "▁sav",
        "as"
      ],
      [
        "▁bah",
        "c"
      ],
      [
        "▁kas",
        "ım"
      ],
      [
        "▁ro",
        "man"
      ],
      [
        "▁uf",
        "ak"
      ],
      [
        "y",
        "en"
      ],
      [
        "▁b",
        "e"
      ],
      [
        "▁y",
        "og"
      ],
      [
        "▁y",
        "esil"
      ],
      [
        "▁c",
        "id"
      ],
      [
        "▁m",
        "uc"
      ],
      [
        "▁v",
        "az"
      ],
      [
        "um",
        "a"
      ],
      [
        "ey",
        "se"
      ],
      [
        "ab",
        "a"
      ],
      [
        "▁gor",
        "unuyor"
      ],
      [
        "▁1",
        "4"
      ],
      [
        "▁gel",
        "mis"
      ],
      [
        "▁in",
        "dir"
      ],
      [
        "▁ver",
        "en"
      ],
      [
        "▁kur",
        "tul"
      ],
      [
        "▁bak",
        "an"
      ],
      [
        "▁sal",
        "t"
      ],
      [
        "▁lezzet",
        "li"
      ],
      [
        "▁sır",
        "a"
      ],
      [
        "▁dıs",
        "arı"
      ],
      [
        "'",
        "u"
      ],
      [
        "b",
        "u"
      ],
      [
        "m",
        "ur"
      ],
      [
        "y",
        "an"
      ],
      [
        "▁",
        "&"
      ],
      [
        "as",
        "ız"
      ],
      [
        "is",
        "inin"
      ],
      [
        "ey",
        "le"
      ],
      [
        "▁de",
        "fa"
      ],
      [
        "▁e",
        "z"
      ],
      [
        "▁r",
        "en"
      ],
      [
        "▁yar",
        "dim"
      ],
      [
        "▁hal",
        "e"
      ],
      [
        "▁yak",
        "in"
      ],
      [
        "▁zaman",
        "da"
      ],
      [
        "ama",
        "dim"
      ],
      [
        "▁kalit",
        "e"
      ],
      [
        "▁hiss",
        "eleri"
      ],
      [
        "▁neden",
        "iyle"
      ],
      [
        "▁endek",
        "si"
      ],
      [
        "k",
        "ar"
      ],
      [
        "s",
        "et"
      ],
      [
        "▁o",
        "p"
      ],
      [
        "▁y",
        "eme"
      ],
      [
        "▁t",
        "it"
      ],
      [
        "▁c",
        "ak"
      ],
      [
        "▁bir",
        "er"
      ],
      [
        "us",
        "unu"
      ],
      [
        "eler",
        "e"
      ],
      [
        "ta",
        "j"
      ],
      [
        "alar",
        "ına"
      ],
      [
        "▁ver",
        "iyor"
      ],
      [
        "ust",
        "on"
      ],
      [
        "▁bay",
        "an"
      ],
      [
        "▁un",
        "iv"
      ],
      [
        "▁ask",
        "er"
      ],
      [
        "▁ru",
        "h"
      ],
      [
        "▁tuk",
        "et"
      ],
      [
        "▁unu",
        "t"
      ],
      [
        "▁univ",
        "ers"
      ],
      [
        "2",
        "5"
      ],
      [
        "▁h",
        "edef"
      ],
      [
        "az",
        "ım"
      ],
      [
        "▁f",
        "el"
      ],
      [
        "▁f",
        "ilm"
      ],
      [
        "▁n",
        "ih"
      ],
      [
        "▁l",
        "im"
      ],
      [
        "acag",
        "ım"
      ],
      [
        "▁hep",
        "s"
      ],
      [
        "▁ho",
        "uston"
      ],
      [
        "▁ekonom",
        "i"
      ],
      [
        "▁del",
        "ta"
      ],
      [
        "▁kard",
        "es"
      ],
      [
        "▁performan",
        "s"
      ],
      [
        "▁c",
        "ic"
      ],
      [
        "▁m",
        "av"
      ],
      [
        "da",
        "v"
      ],
      [
        "ıl",
        "ması"
      ],
      [
        "▁uc",
        "uncu"
      ],
      [
        "▁ar",
        "tır"
      ],
      [
        "▁bil",
        "et"
      ],
      [
        "▁kars",
        "ısında"
      ],
      [
        "▁baz",
        "en"
      ],
      [
        "▁deniz",
        "e"
      ],
      [
        "▁yur",
        "t"
      ],
      [
        "▁ses",
        "siz"
      ],
      [
        "▁yanl",
        "ıs"
      ],
      [
        "a",
        "'nın"
      ],
      [
        "j",
        "i"
      ],
      [
        "t",
        "uk"
      ],
      [
        "▁s",
        "el"
      ],
      [
        "▁g",
        "ay"
      ],
      [
        "▁o",
        "per"
      ],
      [
        "▁m",
        "en"
      ],
      [
        "▁kal",
        "an"
      ],
      [
        "lu",
        "gun"
      ],
      [
        "▁z",
        "ayıf"
      ],
      [
        "▁1",
        "/"
      ],
      [
        "▁sey",
        "i"
      ],
      [
        "▁ek",
        "im"
      ],
      [
        "ot",
        "te"
      ],
      [
        "ark",
        "en"
      ],
      [
        "▁ch",
        "arl"
      ],
      [
        "▁yapıl",
        "acak"
      ],
      [
        "▁olmadı",
        "gını"
      ],
      [
        "▁otom",
        "obil"
      ],
      [
        "▁charl",
        "otte"
      ],
      [
        "l",
        "im"
      ],
      [
        "▁s",
        "ark"
      ],
      [
        "ak",
        "et"
      ],
      [
        "▁c",
        "em"
      ],
      [
        "▁m",
        "at"
      ],
      [
        "ad",
        "aki"
      ],
      [
        "os",
        "u"
      ],
      [
        "las",
        "s"
      ],
      [
        "▁haz",
        "iran"
      ],
      [
        "▁new",
        "ark"
      ],
      [
        "lig",
        "ini"
      ],
      [
        "▁must",
        "er"
      ],
      [
        "▁indi",
        "an"
      ],
      [
        "▁ihr",
        "ac"
      ],
      [
        "c",
        "uk"
      ],
      [
        "l",
        "eye"
      ],
      [
        "▁",
        "adı"
      ],
      [
        "▁c",
        "ay"
      ],
      [
        "alar",
        "da"
      ],
      [
        "alar",
        "ının"
      ],
      [
        "▁ed",
        "ildi"
      ],
      [
        "▁ser",
        "t"
      ],
      [
        "▁av",
        "uk"
      ],
      [
        "▁kam",
        "pan"
      ],
      [
        "▁num",
        "ar"
      ],
      [
        "▁sosy",
        "al"
      ],
      [
        "▁depr",
        "em"
      ],
      [
        "▁indian",
        "apolis"
      ],
      [
        "u",
        "f"
      ],
      [
        "ar",
        "i"
      ],
      [
        "▁t",
        "ac"
      ],
      [
        "ur",
        "t"
      ],
      [
        "ey",
        "n"
      ],
      [
        "▁1",
        "8"
      ],
      [
        "eler",
        "de"
      ],
      [
        "▁ac",
        "tı"
      ],
      [
        "▁yar",
        "ı"
      ],
      [
        "▁dal",
        "g"
      ],
      [
        "▁yaz",
        "ı"
      ],
      [
        "▁tan",
        "ım"
      ],
      [
        "▁gercek",
        "les"
      ],
      [
        "▁sec",
        "im"
      ],
      [
        "▁fin",
        "ans"
      ],
      [
        "▁lak",
        "e"
      ],
      [
        "▁got",
        "ur"
      ],
      [
        "▁cid",
        "di"
      ],
      [
        "▁s",
        "is"
      ],
      [
        "▁m",
        "eh"
      ],
      [
        "▁p",
        "a"
      ],
      [
        "▁al",
        "i"
      ],
      [
        "▁on",
        "ay"
      ],
      [
        "▁an",
        "gel"
      ],
      [
        "lı",
        "gını"
      ],
      [
        "▁et",
        "mis"
      ],
      [
        "mıs",
        "tır"
      ],
      [
        "▁sor",
        "um"
      ],
      [
        "▁ayr",
        "ıl"
      ],
      [
        "▁tut",
        "ar"
      ],
      [
        "▁kan",
        "sas"
      ],
      [
        "▁sef",
        "er"
      ],
      [
        "▁nis",
        "an"
      ],
      [
        "▁degisik",
        "lik"
      ],
      [
        "i",
        "j"
      ],
      [
        "s",
        "er"
      ],
      [
        "▁s",
        "af"
      ],
      [
        "on",
        "g"
      ],
      [
        "▁ar",
        "z"
      ],
      [
        "▁gi",
        "de"
      ],
      [
        "gı",
        "c"
      ],
      [
        "▁mil",
        "li"
      ],
      [
        "▁kur",
        "ulu"
      ],
      [
        "cı",
        "lar"
      ],
      [
        "▁ser",
        "may"
      ],
      [
        "id",
        "det"
      ],
      [
        "▁kendis",
        "i"
      ],
      [
        "▁begen",
        "dim"
      ],
      [
        "▁ortal",
        "ama"
      ],
      [
        "d",
        "al"
      ],
      [
        "y",
        "alar"
      ],
      [
        "▁d",
        "os"
      ],
      [
        "ir",
        "i"
      ],
      [
        "▁g",
        "rup"
      ],
      [
        "▁t",
        "ez"
      ],
      [
        "▁ol",
        "dur"
      ],
      [
        "▁ucus",
        "ların"
      ],
      [
        "▁ay",
        "lık"
      ],
      [
        "▁dah",
        "il"
      ],
      [
        "▁tem",
        "sil"
      ],
      [
        "▁su",
        "b"
      ],
      [
        "▁yuz",
        "unden"
      ],
      [
        "▁hay",
        "al"
      ],
      [
        "▁satıs",
        "lar"
      ],
      [
        "▁di",
        "eg"
      ],
      [
        "▁fir",
        "st"
      ],
      [
        "▁mey",
        "dan"
      ],
      [
        "▁zar",
        "ar"
      ],
      [
        "▁karsıl",
        "as"
      ],
      [
        "s",
        "ınız"
      ],
      [
        "▁",
        "0."
      ],
      [
        "or",
        "d"
      ],
      [
        "ek",
        "ler"
      ],
      [
        "▁de",
        "f"
      ],
      [
        "▁yap",
        "ar"
      ],
      [
        "▁i",
        "dar"
      ],
      [
        "▁hal",
        "ine"
      ],
      [
        "▁top",
        "rak"
      ],
      [
        "▁sah",
        "i"
      ],
      [
        "▁bek",
        "le"
      ],
      [
        "▁mal",
        "i"
      ],
      [
        "▁uret",
        "ic"
      ],
      [
        "▁kendis",
        "ine"
      ],
      [
        "▁so",
        "v"
      ],
      [
        "▁se",
        "att"
      ],
      [
        "▁seatt",
        "le"
      ],
      [
        "▁g",
        "om"
      ],
      [
        "▁p",
        "il"
      ],
      [
        "▁bu",
        "z"
      ],
      [
        "▁f",
        "er"
      ],
      [
        "▁n",
        "az"
      ],
      [
        "ul",
        "uk"
      ],
      [
        "▁e",
        "fen"
      ],
      [
        "▁ic",
        "i"
      ],
      [
        "▁an",
        "lay"
      ],
      [
        "▁in",
        "tern"
      ],
      [
        "▁bil",
        "m"
      ],
      [
        "me",
        "dik"
      ],
      [
        "▁sen",
        "et"
      ],
[...]
