{
  "version": "1.0",
  "truncation": null,
  "padding": null,
  "added_tokens": [
    {
      "id": 0,
      "content": "[UNK]",
      "single_word": false,
      "lstrip": false,
      "rstrip": false,
      "normalized": false,
      "special": true
    },
    {
      "id": 1,
      "content": "[PAD]",
      "single_word": false,
      "lstrip": false,
      "rstrip": false,
      "normalized": false,
      "special": true
    },
    {
      "id": 2,
      "content": "[CLS]",
      "single_word": false,
      "lstrip": false,
      "rstrip": false,
      "normalized": false,
      "special": true
    },
    {
      "id": 3,
      "content": "[SEP]",
      "single_word": false,
      "lstrip": false,
      "rstrip": false,
      "normalized": false,
      "special": true
    },
    {
      "id": 4,
      "content": "[MASK]",
      "single_word": false,
      "lstrip": false,
      "rstrip": false,
      "normalized": false,
      "special": true
    }
  ],
  "normalizer": {
    "type": "Sequence",
    "normalizers": [
      {
        "type": "NFD"
      },
      {
        "type": "Lowercase"
      },
      {
        "type": "StripAccents"
      }
    ]
  },
  "pre_tokenizer": {
    "type": "Sequence",
    "pretokenizers": [
      {
        "type": "Metaspace",
        "replacement": "▁",
        "prepend_scheme": "always",
        "split": true
      }
    ]
  },
  "post_processor": {
    "type": "TemplateProcessing",
    "single": [
      {
        "SpecialToken": {
          "id": "[CLS]",
          "type_id": 0
        }
      },
      {
        "Sequence": {
          "id": "A",
          "type_id": 0
        }
      },
      {
        "SpecialToken": {
          "id": "[SEP]",
          "type_id": 0
        }
      }
    ],
    "pair": [
      {
        "SpecialToken": {
          "id": "[CLS]",
          "type_id": 0
        }
      },
      {
        "Sequence": {
          "id": "A",
          "type_id": 0
        }
      },
      {
        "SpecialToken": {
          "id": "[SEP]",
          "type_id": 0
        }
      },
      {
        "Sequence": {
          "id": "B",
          "type_id": 1
        }
      },
      {
        "SpecialToken": {
          "id": "[SEP]",
          "type_id": 1
        }
      }
    ],
    "special_tokens": {
      "[CLS]": {
        "id": "[CLS]",
        "ids": [
          2
        ],
        "tokens": [
          "[CLS]"
        ]
      },
      "[SEP]": {
        "id": "[SEP]",
        "ids": [
          3
        ],
        "tokens": [
          "[SEP]"
        ]
      }
    }
  },
  "decoder": {
    "type": "Metaspace",
    "replacement": "▁",
    "prepend_scheme": "always",
    "split": true
  },
  "model": {
    "type": "BPE",
    "dropout": null,
    "unk_token": "[UNK]",
    "continuing_subword_prefix": null,
    "end_of_word_suffix": null,
    "fuse_unk": false,
    "byte_fallback": false,
    "ignore_merges": false,
    "vocab": {
      "[UNK]": 0,
      "[PAD]": 1,
      "[CLS]": 2,
      "[SEP]": 3,
      "[MASK]": 4,
      "!": 5,
      "\"": 6,
      "#": 7,
      "$": 8,
      "%": 9,
      "&": 10,
      "'": 11,
      "(": 12,
      ")": 13,
      "*": 14,
      "+": 15,
      ",": 16,
      "-": 17,
      ".": 18,
      "/": 19,
      "0": 20,
      "1": 21,
      "2": 22,
      "3": 23,
      "4": 24,
      "5": 25,
      "6": 26,
      "7": 27,
      "8": 28,
      "9": 29,
      ":": 30,
      ";": 31,
      "=": 32,
      ">": 33,
      "?": 34,
      "@": 35,
      "\\": 36,
      "_": 37,
      "`": 38,
      "a": 39,
      "b": 40,
      "c": 41,
      "d": 42,
      "e": 43,
      "f": 44,
      "g": 45,
      "h": 46,
      "i": 47,
      "j": 48,
      "k": 49,
      "l": 50,
      "m": 51,
      "n": 52,
      "o": 53,
      "p": 54,
      "q": 55,
      "r": 56,
      "s": 57,
      "t": 58,
      "u": 59,
      "v": 60,
      "w": 61,
      "x": 62,
      "y": 63,
      "z": 64,
      "|": 65,
      "°": 66,
      "ı": 67,
      "​": 68,
      "–": 69,
      "—": 70,
      "‘": 71,
      "’": 72,
      "“": 73,
      "”": 74,
      "…": 75,
      "▁": 76,
      "■": 77,
      "ar": 78,
      "▁b": 79,
      "▁.": 80,
      "er": 81,
      "an": 82,
      "in": 83,
      "▁k": 84,
      "▁s": 85,
      "▁d": 86,
      "en": 87,
      "ir": 88,
      "▁g": 89,
      "▁o": 90,
      "▁y": 91,
      "il": 92,
      "ın": 93,
      "al": 94,
      "as": 95,
      "▁,": 96,
      "or": 97,
      "un": 98,
      "lar": 99,
      "ak": 100,
      "el": 101,
      "di": 102,
      "▁t": 103,
      "is": 104,
      "▁h": 105,
      "▁c": 106,
      "iy": 107,
      "ek": 108,
      "et": 109,
      "▁bir": 110,
      "ay": 111,
      "on": 112,
      "▁m": 113,
      "es": 114,
      "▁v": 115,
      "am": 116,
      "ur": 117,
      "us": 118,
      "at": 119,
      "ler": 120,
      "em": 121,
      "im": 122,
      "ad": 123,
      "▁p": 124,
      "▁u": 125,
      "um": 126,
      "iz": 127,
      "ik": 128,
      "ır": 129,
      "▁ol": 130,
      "ey": 131,
      "da": 132,
      "▁bu": 133,
      "ıs": 134,
      "de": 135,
      "ic": 136,
      "az": 137,
      "uz": 138,
      "ık": 139,
      "uk": 140,
      "ac": 141,
      "▁de": 142,
      "ok": 143,
      "ah": 144,
      "den": 145,
      "▁ve": 146,
      "▁f": 147,
      "le": 148,
      "ıl": 149,
      "yor": 150,
      "du": 151,
      "ım": 152,
      "ec": 153,
      "it": 154,
      "▁n": 155,
      "dan": 156,
      "ap": 157,
      "ul": 158,
      "ag": 159,
      "ab": 160,
      "ol": 161,
      "ist": 162,
      "▁uc": 163,
      "▁e": 164,
      "ını": 165,
      "▁il": 166,
      "▁ic": 167,
      "ları": 168,
      "▁al": 169,
      "▁ar": 170,
      "ini": 171,
      "iyor": 172,
      "os": 173,
      "▁on": 174,
      "av": 175,
      "li": 176,
      "▁cok": 177,
      "dı": 178,
      "▁r": 179,
      "lan": 180,
      "▁an": 181,
      "▁icin": 182,
      "gil": 183,
      "la": 184,
      "oy": 185,
      "ında": 186,
      "▁kal": 187,
      "▁bas": 188,
      "ine": 189,
      "ız": 190,
      "▁\"": 191,
      "lı": 192,
      "gi": 193,
      "▁gor": 194,
      "tı": 195,
      "ası": 196,
      "lu": 197,
      "unu": 198,
      "▁kar": 199,
      "▁ucus": 200,
      "ti": 201,
      "▁z": 202,
      "▁1": 203,
      "leri": 204,
      "▁yap": 205,
      "▁son": 206,
      "eler": 207,
      "▁ne": 208,
      "ta": 209,
      "▁is": 210,
      "▁iy": 211,
      "tu": 212,
      "▁gel": 213,
      "▁var": 214,
      "alar": 215,
      "ların": 216,
      "▁gi": 217,
      "▁ay": 218,
      "▁in": 219,
      "▁et": 220,
      "▁ver": 221,
      "ev": 222,
      "af": 223,
      "iler": 224,
      "▁ist": 225,
      "dir": 226,
      "ost": 227,
      "las": 228,
      "▁bil": 229,
      "esi": 230,
      "ıyor": 231,
      "og": 232,
      "ya": 233,
      "▁en": 234,
      "▁da": 235,
      "▁kon": 236,
      "ut": 237,
      "me": 238,
      "ce": 239,
      "inde": 240,
      "uzel": 241,
      "mak": 242,
      "oz": 243,
      "ına": 244,
      "ers": 245,
      "▁or": 246,
      "uc": 247,
      "adı": 248,
      "▁guzel": 249,
      "▁l": 250,
      "▁dah": 251,
      "ma": 252,
      "▁her": 253,
      "▁am": 254,
      "▁dus": 255,
      "▁ben": 256,
      "▁gec": 257,
      "tan": 258,
      "▁kad": 259,
      "dim": 260,
      "▁daha": 261,
      "▁degil": 262,
      "inin": 263,
      "lam": 264,
      "yon": 265,
      "aya": 266,
      "▁uz": 267,
      "▁den": 268,
      "iydi": 269,
      "lik": 270,
      "ez": 271,
      "mıs": 272,
      "ust": 273,
      "bi": 274,
      "▁i": 275,
      "▁ac": 276,
      "▁san": 277,
      "▁ile": 278,
      "'dan": 279,
      "iye": 280,
      "▁oldu": 281,
      "▁olan": 282,
      "gı": 283,
      "te": 284,
      "larak": 285,
      "▁mil": 286,
      "▁soy": 287,
      "uyor": 288,
      "▁at": 289,
      "mek": 290,
      "▁ak": 291,
      "ca": 292,
      "acak": 293,
      "▁ot": 294,
      "▁olarak": 295,
      "ra": 296,
      "▁el": 297,
      "▁ger": 298,
      "dır": 299,
      "ana": 300,
      "▁ken": 301,
      "▁gun": 302,
      "'n": 303,
      "lık": 304,
      "▁ko": 305,
      "▁tem": 306,
      "▁olm": 307,
      "len": 308,
      "▁cık": 309,
      "▁ik": 310,
      "gun": 311,
      "eye": 312,
      "mis": 313,
      "▁tes": 314,
      "ayı": 315,
      "▁gibi": 316,
      "emek": 317,
      "uy": 318,
      "▁ed": 319,
      "▁iyi": 320,
      "ilir": 321,
      "▁yıl": 322,
      "alı": 323,
      "eg": 324,
      "ip": 325,
      "inden": 326,
      "▁sey": 327,
      "met": 328,
      "▁kur": 329,
      "oster": 330,
      "▁par": 331,
      "▁goster": 332,
      "ından": 333,
      "▁yer": 334,
      "▁ki": 335,
      "▁ad": 336,
      "iyorum": 337,
      "'a": 338,
      "▁yar": 339,
      "onel": 340,
      "se": 341,
      "dik": 342,
      "isi": 343,
      "▁sonra": 344,
      "larını": 345,
      "▁yas": 346,
      "man": 347,
      "ecek": 348,
      "▁tar": 349,
      "aki": 350,
      "▁do": 351,
      "eni": 352,
      "▁kadar": 353,
      "▁tur": 354,
      "▁as": 355,
      "ının": 356,
      "tır": 357,
      "cı": 358,
      "▁mem": 359,
      "▁co": 360,
      "▁yok": 361,
      "▁pers": 362,
      "▁kap": 363,
      "▁tek": 364,
      "▁hav": 365,
      "▁2": 366,
      "▁gen": 367,
      "▁bay": 368,
      "ran": 369,
      "▁?": 370,
      "'ya": 371,
      "▁a": 372,
      "iyat": 373,
      "'den": 374,
      "▁han": 375,
      "dig": 376,
      "▁uy": 377,
      "gu": 378,
      "▁bul": 379,
      "erk": 380,
      "▁ev": 381,
      "▁ilgil": 382,
      "▁guzeldi": 383,
      "ep": 384,
      "lem": 385,
      "ig": 386,
      "▁yan": 387,
      "▁don": 388,
      "▁hal": 389,
      "▁es": 390,
      "▁buy": 391,
      "op": 392,
      "▁bey": 393,
      "▁sur": 394,
      "▁cal": 395,
      "▁yuk": 396,
      "ten": 397,
      "▁dur": 398,
      "ed": 399,
      "▁bana": 400,
      "ada": 401,
      "▁su": 402,
      "eki": 403,
      "eb": 404,
      "▁kars": 405,
      "if": 406,
      "▁ama": 407,
      "aman": 408,
      "▁personel": 409,
      "▁bak": 410,
      "kan": 411,
      "nun": 412,
      "▁sen": 413,
      "ret": 414,
      "▁oy": 415,
      "▁sat": 416,
      "▁yuz": 417,
      "ci": 418,
      "▁mu": 419,
      "▁deg": 420,
      "▁yak": 421,
      "00": 422,
      "ver": 423,
      "▁memnun": 424,
      "▁his": 425,
      "san": 426,
      "▁temiz": 427,
      "daki": 428,
      "▁ucusları": 429,
      "▁ag": 430,
      "▁bel": 431,
      "ket": 432,
      "▁ek": 433,
      "cak": 434,
      "▁hiz": 435,
      "ıy": 436,
      "▁boy": 437,
      "▁iyiydi": 438,
      "tir": 439,
      "▁biz": 440,
      "▁kul": 441,
      "▁hizmet": 442,
      "▁yemek": 443,
      "▁zaman": 444,
      "▁iki": 445,
      "eli": 446,
      "eri": 447,
      "imiz": 448,
      "▁fiyat": 449,
      "ki": 450,
      "▁aras": 451,
      "▁:": 452,
      "ru": 453,
      "▁yuks": 454,
      "▁art": 455,
      "▁og": 456,
      "diyor": 457,
      "▁soyle": 458,
      "▁bun": 459,
      "▁coc": 460,
      "▁3": 461,
      "▁dog": 462,
      "dur": 463,
      "lara": 464,
      "sa": 465,
      "sam": 466,
      "▁buyuk": 467,
      "ye": 468,
      "▁sir": 469,
      "lerini": 470,
      "▁degildi": 471,
      "▁od": 472,
      "▁hic": 473,
      "▁%": 474,
      "lerin": 475,
      "▁top": 476,
      "▁yeni": 477,
      "▁dev": 478,
      "▁goz": 479,
      "mus": 480,
      "▁sor": 481,
      "▁uzer": 482,
      "▁fran": 483,
      "eh": 484,
      "'e": 485,
      "▁yet": 486,
      "▁az": 487,
      "les": 488,
      "edi": 489,
      "iyet": 490,
      "▁sa": 491,
      "▁tum": 492,
      "ot": 493,
      "agı": 494,
      "om": 495,
      "▁-": 496,
      "ısı": 497,
      "▁ser": 498,
      "ladı": 499,
      "▁bost": 500,
      "▁sirket": 501,
      "▁'": 502,
      "arak": 503,
      "▁dol": 504,
      "▁boston": 505,
      "▁sev": 506,
      "▁kay": 507,
      "gunu": 508,
      "▁har": 509,
      "▁dal": 510,
      "▁insan": 511,
      "▁ort": 512,
      "▁sah": 513,
      "▁w": 514,
      "abilir": 515,
      "▁hak": 516,
      "isti": 517,
      "ayan": 518,
      "▁yol": 519,
      "▁cocuk": 520,
      "co": 521,
      "▁milyon": 522,
      "▁onun": 523,
      "▁oz": 524,
      "▁hay": 525,
      "▁yon": 526,
      "iyle": 527,
      "▁yaz": 528,
      "▁otel": 529,
      "▁kat": 530,
      "▁sek": 531,
      "tim": 532,
      "gını": 533,
      "▁gu": 534,
      "ih": 535,
      "ıp": 536,
      "▁calıs": 537,
      "'da": 538,
      "▁denver": 539,
      "dis": 540,
      "▁ces": 541,
      "let": 542,
      "usu": 543,
      "cis": 544,
      "▁j": 545,
      "▁bur": 546,
      "ark": 547,
      "unda": 548,
      "bir": 549,
      "mas": 550,
      "adan": 551,
      "▁ih": 552,
      "'in": 553,
      "ece": 554,
      "▁der": 555,
      "umu": 556,
      "▁ucret": 557,
      "cek": 558,
      "luk": 559,
      "▁bal": 560,
      "▁cek": 561,
      "▁sab": 562,
      "▁once": 563,
      "bur": 564,
      "cisco": 565,
      "▁yat": 566,
      "imi": 567,
      "▁francisco": 568,
      "▁dun": 569,
      "▁tah": 570,
      "'ye": 571,
      "▁istiyorum": 572,
      "▁gir": 573,
      "art": 574,
      "▁bek": 575,
      "▁pu": 576,
      "▁le": 577,
      "▁ancak": 578,
      "▁kaz": 579,
      "▁5": 580,
      "erek": 581,
      "▁19": 582,
      "▁pr": 583,
      "▁faz": 584,
      "deki": 585,
      "ef": 586,
      "maya": 587,
      "uldu": 588,
      "▁gore": 589,
      "▁baz": 590,
      "▁soz": 591,
      "ort": 592,
      "▁deniz": 593,
      "▁kuc": 594,
      "▁ayr": 595,
      "▁tut": 596,
      "▁soyledi": 597,
      "▁kes": 598,
      "▁tam": 599,
      "▁ediyor": 600,
      "▁konus": 601,
      "▁..": 602,
      "▁gorus": 603,
      "cu": 604,
      "▁dolar": 605,
      "asyon": 606,
      "▁turk": 607,
      "dum": 608,
      "▁bag": 609,
      "acag": 610,
      "sun": 611,
      "siz": 612,
      "▁puan": 613,
      "▁yor": 614,
      "▁cesit": 615,
      "▁sag": 616,
      "tr": 617,
      "ması": 618,
      "▁du": 619,
      "tar": 620,
      "▁ok": 621,
      "▁diye": 622,
      "eleri": 623,
      "▁ust": 624,
      "▁ilk": 625,
      "itt": 626,
      "▁...": 627,
      "▁kullan": 628,
      "eyi": 629,
      "enin": 630,
      "unun": 631,
      "▁!": 632,
      "ka": 633,
      "▁kan": 634,
      "ama": 635,
      "▁4": 636,
      "▁hem": 637,
      "arı": 638,
      "▁biraz": 639,
      "dım": 640,
      "▁but": 641,
      "▁kor": 642,
      "▁etti": 643,
      "ilm": 644,
      "anın": 645,
      "▁dedi": 646,
      "▁alt": 647,
      "▁taraf": 648,
      "'tan": 649,
      "▁car": 650,
      "ılı": 651,
      "ph": 652,
      "▁atlan": 653,
      "▁saat": 654,
      "ing": 655,
      "▁duy": 656,
      "▁kız": 657,
      "▁tav": 658,
      "sız": 659,
      "▁amer": 660,
      "lat": 661,
      "▁ur": 662,
      "▁icinde": 663,
      "▁''": 664,
      "iyas": 665,
      "aları": 666,
      "▁atlanta": 667,
      "▁kucuk": 668,
      "▁sal": 669,
      "▁gerek": 670,
      "▁ph": 671,
      "larının": 672,
      "▁koy": 673,
      "iniz": 674,
      "burg": 675,
      "zet": 676,
      "▁tan": 677,
      "▁sim": 678,
      "▁ucuslar": 679,
      "▁hisse": 680,
      "▁tas": 681,
      "▁adam": 682,
      "▁sabah": 683,
      "etir": 684,
      "ımız": 685,
      "▁acık": 686,
      "▁genel": 687,
      "ildi": 688,
      "▁oldugunu": 689,
      "duk": 690,
      "est": 691,
      "eceg": 692,
      "▁lez": 693,
      "▁bor": 694,
      "▁getir": 695,
      "▁kim": 696,
      "▁list": 697,
      "▁hep": 698,
      "▁fazla": 699,
      "'de": 700,
      "▁tesis": 701,
      "▁erk": 702,
      "▁kazan": 703,
      "▁kol": 704,
      "▁haz": 705,
      "▁kalit": 706,
      "ındaki": 707,
      "eme": 708,
      "ılan": 709,
      "ley": 710,
      "istir": 711,
      "▁has": 712,
      "▁git": 713,
      "▁er": 714,
      "▁lezzet": 715,
      "▁eder": 716,
      "'ın": 717,
      "▁kıs": 718,
      "esini": 719,
      "▁butun": 720,
      "ia": 721,
      "▁tak": 722,
      "▁hangi": 723,
      "▁cum": 724,
      "▁ab": 725,
      "▁ail": 726,
      "▁kab": 727,
      "ilen": 728,
      "up": 729,
      "▁sır": 730,
      "▁dallas": 731,
      "▁bazı": 732,
      "▁haf": 733,
      "▁gunu": 734,
      "▁`": 735,
      "▁paz": 736,
      "▁cıkar": 737,
      "▁say": 738,
      "▁pitt": 739,
      "▁muh": 740,
      "▁pitts": 741,
      "▁kır": 742,
      "▁arasında": 743,
      "▁bile": 744,
      "▁av": 745,
      "▁eg": 746,
      "▁mal": 747,
      "burgh": 748,
      "adel": 749,
      "▁aksam": 750,
      "ken": 751,
      "▁pittsburgh": 752,
      "lay": 753,
      "▁ark": 754,
      "▁ter": 755,
      "ıldı": 756,
      "ımı": 757,
      "ede": 758,
      "▁etm": 759,
      "ileri": 760,
      "▁hat": 761,
      "▁yuksel": 762,
      "▁;": 763,
      "▁cev": 764,
      "▁``": 765,
      "▁yur": 766,
      "iyordu": 767,
      "'nin": 768,
      "der": 769,
      "ton": 770,
      "ligi": 771,
      "▁gercek": 772,
      "▁yal": 773,
      "▁bulun": 774,
      "▁ayn": 775,
      "yar": 776,
      "esine": 777,
      "ku": 778,
      "larda": 779,
      "▁bol": 780,
      "▁dusun": 781,
      "▁dav": 782,
      "ayol": 783,
      "ob": 784,
      "ib": 785,
      "▁tel": 786,
      "▁sad": 787,
      "▁hiss": 788,
      "▁/": 789,
      "▁boyle": 790,
      "ore": 791,
      "▁ul": 792,
      "▁neden": 793,
      "▁piyas": 794,
      "▁milyar": 795,
      "digim": 796,
      "▁ulas": 797,
      "ırım": 798,
      "acı": 799,
      "▁new": 800,
      "▁yoktu": 801,
      "▁im": 802,
      "diler": 803,
      "▁ilgilen": 804,
      "aret": 805,
      "digi": 806,
      "lere": 807,
      "▁belir": 808,
      "si": 809,
      "▁ban": 810,
      "▁mi": 811,
      "▁phil": 812,
      "alık": 813,
      "▁simdi": 814,
      "▁listel": 815,
      "ram": 816,
      "yla": 817,
      "▁dig": 818,
      "▁iht": 819,
      "▁kendi": 820,
      "▁amerik": 821,
      "han": 822,
      "▁it": 823,
      "anı": 824,
      "▁sık": 825,
      "re": 826,
      "▁dok": 827,
      "lig": 828,
      "▁ilgili": 829,
      "▁7": 830,
      "▁olur": 831,
      "larına": 832,
      "'nın": 833,
      "▁boston'dan": 834,
      "▁sav": 835,
      "▁duz": 836,
      "▁mı": 837,
      "ili": 838,
      "▁kadın": 839,
      "▁karsı": 840,
      "▁kos": 841,
      "asını": 842,
      "timore": 843,
      "▁baltimore": 844,
      "▁gorusuldu": 845,
      "'un": 846,
      "ırak": 847,
      "men": 848,
      "likle": 849,
      "ustur": 850,
      "▁yonet": 851,
      "phia": 852,
      "ren": 853,
      "▁sak": 854,
      "▁merk": 855,
      "adelphia": 856,
      "▁philadelphia": 857,
      "gın": 858,
      "▁sar": 859,
      "▁uzun": 860,
      "ilik": 861,
      "mez": 862,
      "▁ya": 863,
      "▁deger": 864,
      "▁yuksek": 865,
      "▁gelir": 866,
      "▁yemekler": 867,
      "▁hakk": 868,
      "▁un": 869,
      "maz": 870,
      "lerine": 871,
      "enk": 872,
      "lardan": 873,
      "▁diger": 874,
      "▁kac": 875,
      "▁dogru": 876,
      "▁ozel": 877,
      "una": 878,
      "▁can": 879,
      "▁bırak": 880,
      "▁tavs": 881,
      "▁nas": 882,
      "▁tat": 883,
      "abil": 884,
      "▁otur": 885,
      "▁kr": 886,
      "ulu": 887,
      "▁10": 888,
      "▁guler": 889,
      "▁mah": 890,
      "▁bah": 891,
      "▁zor": 892,
      "▁sec": 893,
      "▁dem": 894,
      "elik": 895,
      "▁konumu": 896,
      "▁ch": 897,
      "▁merkez": 898,
      "▁siz": 899,
      "▁islem": 900,
      "▁iz": 901,
      "ıyordu": 902,
      "▁bes": 903,
      "▁kas": 904,
      "▁benim": 905,
      "▁man": 906,
      "▁(": 907,
      "fen": 908,
      "ter": 909,
      "tık": 910,
      "▁tavsiye": 911,
      "▁bin": 912,
      "lerinin": 913,
      "mam": 914,
      "▁kah": 915,
      "▁sadece": 916,
      "umuz": 917,
      "▁francisco'ya": 918,
      "▁ihtiy": 919,
      "meye": 920,
      "▁6": 921,
      "asında": 922,
      "ayet": 923,
      "tor": 924,
      "▁)": 925,
      "▁bab": 926,
      "▁baskan": 927,
      "isk": 928,
      "▁satıs": 929,
      "unuyor": 930,
      "▁oldugu": 931,
      "▁lu": 932,
      "inc": 933,
      "▁plan": 934,
      "▁mus": 935,
      "id": 936,
      "▁ede": 937,
      "▁ise": 938,
      "▁hanim": 939,
      "▁kotu": 940,
      "madim": 941,
      "asına": 942,
      "vil": 943,
      "▁kıy": 944,
      "▁guc": 945,
      "ahat": 946,
      "▁mas": 947,
      "▁pek": 948,
      "ba": 949,
      "▁mes": 950,
      "▁huk": 951,
      "▁mis": 952,
      "suz": 953,
      "eket": 954,
      "▁havuz": 955,
      "▁yatırım": 956,
      "▁ses": 957,
      "▁dik": 958,
      "▁uygun": 959,
      "lerde": 960,
      "▁yaklas": 961,
      "tik": 962,
      "▁baska": 963,
      "▁degis": 964,
      "▁artık": 965,
      "madı": 966,
      "alan": 967,
      "esinde": 968,
      "▁vey": 969,
      "▁hicbir": 970,
      "▁tarafından": 971,
      "ans": 972,
      "▁tab": 973,
      "adır": 974,
      "▁onu": 975,
      "▁geldi": 976,
      "▁sekil": 977,
      "▁ayrı": 978,
      "digini": 979,
      "▁em": 980,
      "land": 981,
      "▁us": 982,
      "▁kalk": 983,
      "▁mut": 984,
      "eyin": 985,
      "ington": 986,
      "▁veya": 987,
      "▁mer": 988,
      "▁per": 989,
      "▁bit": 990,
      "▁nedir": 991,
      "lıgı": 992,
      "▁seh": 993,
      "tım": 994,
      "▁aldı": 995,
      "▁havayol": 996,
      "var": 997,
      "▁olabilir": 998,
      "▁anlam": 999,
      "▁yay": 1000,
      "larında": 1001,
      "lerden": 1002,
      "ga": 1003,
      "raf": 1004,
      "ici": 1005,
      "▁sahip": 1006,
      "ash": 1007,
      "▁onem": 1008,
      "▁beni": 1009,
      "▁hayat": 1010,
      "mayı": 1011,
      "▁wash": 1012,
      "▁kis": 1013,
      "lardı": 1014,
      "▁washington": 1015,
      "▁aynı": 1016,
      "▁kam": 1017,
      "▁mev": 1018,
      "may": 1019,
      "nız": 1020,
      "lendir": 1021,
      "▁eski": 1022,
      "medi": 1023,
      "▁dıs": 1024,
      "aber": 1025,
      "malar": 1026,
      "yuz": 1027,
      "ılık": 1028,
      "ılmıs": 1029,
      "▁ustun": 1030,
      "▁amerikan": 1031,
      "'ten": 1032,
      "for": 1033,
      "▁yalnız": 1034,
      "kes": 1035,
      "ydu": 1036,
      "▁kaldik": 1037,
      "▁iste": 1038,
      "▁sok": 1039,
      "gis": 1040,
      "kac": 1041,
      "▁bugun": 1042,
      "▁karar": 1043,
      "▁istem": 1044,
      "▁tesisti": 1045,
      "▁fa": 1046,
      "▁ann": 1047,
      "▁anlat": 1048,
      "artesi": 1049,
      "▁sekilde": 1050,
      "▁st": 1051,
      "▁durum": 1052,
      "▁bar": 1053,
      "▁sı": 1054,
      "ınız": 1055,
      "lak": 1056,
      "▁yardım": 1057,
      "▁dir": 1058,
      "ent": 1059,
      "▁gaz": 1060,
      "▁fak": 1061,
      "▁uret": 1062,
      "mem": 1063,
      "▁gelen": 1064,
      "▁ku": 1065,
      "▁tarih": 1066,
      "▁donus": 1067,
      "▁erken": 1068,
      "▁8": 1069,
      "lerinde": 1070,
      "▁inc": 1071,
      "▁biri": 1072,
      "▁yaptı": 1073,
      "▁vardı": 1074,
      "▁gecen": 1075,
      "larla": 1076,
      "▁arkad": 1077,
      "▁oda": 1078,
      "▁kendis": 1079,
      "▁dil": 1080,
      "▁denver'den": 1081,
      "▁york": 1082,
      "ebilir": 1083,
      "▁fark": 1084,
      "lıyor": 1085,
      "▁para": 1086,
      "dık": 1087,
      "▁devam": 1088,
      "inci": 1089,
      "lif": 1090,
      "▁herkes": 1091,
      "▁ogle": 1092,
      "ara": 1093,
      "▁so": 1094,
      "▁diyor": 1095,
      "▁aktar": 1096,
      "egen": 1097,
      "ıyla": 1098,
      "▁pol": 1099,
      "▁olacak": 1100,
      "▁din": 1101,
      "▁bizim": 1102,
      "▁hareket": 1103,
      "ri": 1104,
      "lari": 1105,
      "ven": 1106,
      "▁cog": 1107,
      "be": 1108,
      "▁basladı": 1109,
      "per": 1110,
      "atı": 1111,
      "▁kend": 1112,
      "gin": 1113,
      "tur": 1114,
      "▁mak": 1115,
      "▁giden": 1116,
      "▁ederim": 1117,
      "rar": 1118,
      "▁gorun": 1119,
      "▁ıs": 1120,
      "▁kom": 1121,
      "▁kus": 1122,
      "▁kaldim": 1123,
      "▁pazar": 1124,
      "▁hazır": 1125,
      "▁lut": 1126,
      "▁birkac": 1127,
      "▁genc": 1128,
      "luyor": 1129,
      "▁bunun": 1130,
      "mesi": 1131,
      "uyordu": 1132,
      "sel": 1133,
      "▁di": 1134,
      "▁ug": 1135,
      "ucu": 1136,
      "▁kop": 1137,
      "▁sorun": 1138,
      "▁ona": 1139,
      "▁geri": 1140,
      "▁hemen": 1141,
      ".5": 1142,
      "gel": 1143,
      "▁duny": 1144,
      "bet": 1145,
      "dar": 1146,
      "▁kit": 1147,
      "▁res": 1148,
      "▁ey": 1149,
      "▁yine": 1150,
      "▁birc": 1151,
      "▁end": 1152,
      "▁198": 1153,
      "▁ask": 1154,
      "▁serv": 1155,
      "▁olmak": 1156,
      "▁ihtiyac": 1157,
      "▁teklif": 1158,
      "▁abd": 1159,
      "acagını": 1160,
      "▁nasıl": 1161,
      "ciler": 1162,
      "▁kahv": 1163,
      "▁lutfen": 1164,
      "▁tu": 1165,
      "▁fir": 1166,
      "▁gecir": 1167,
      "▁yen": 1168,
      "▁ucuz": 1169,
      "▁cor": 1170,
      "ayi": 1171,
      "▁vur": 1172,
      "▁icer": 1173,
      "▁ayak": 1174,
      "▁ayrıca": 1175,
      "▁gon": 1176,
      "▁kalkan": 1177,
      "▁ucusu": 1178,
      "▁ilgiliydi": 1179,
      "▁tamam": 1180,
      "det": 1181,
      "▁begen": 1182,
      "▁um": 1183,
      "▁gul": 1184,
      "▁personeller": 1185,
      "▁yav": 1186,
      "tig": 1187,
      "▁arkadas": 1188,
      "ıt": 1189,
      "mıstı": 1190,
      "ro": 1191,
      "▁tahvil": 1192,
      "malı": 1193,
      "▁bunu": 1194,
      "▁anlas": 1195,
      "▁uzerinde": 1196,
      "eyen": 1197,
      "▁inan": 1198,
      "fa": 1199,
      "▁onc": 1200,
      "▁etk": 1201,
      "▁bircok": 1202,
      "▁ekon": 1203,
      "▁tic": 1204,
      "ıcı": 1205,
      "▁cıktı": 1206,
      "eden": 1207,
      "oj": 1208,
      "sin": 1209,
      "▁ham": 1210,
      "▁kabul": 1211,
      "min": 1212,
      "anlar": 1213,
      "▁alın": 1214,
      "mi": 1215,
      "adım": 1216,
      "▁dusuk": 1217,
      "▁ogren": 1218,
      "▁bos": 1219,
      "kur": 1220,
      "ika": 1221,
      "▁etmek": 1222,
      "▁ho": 1223,
      "▁kav": 1224,
      "▁edil": 1225,
      "rup": 1226,
      "▁cam": 1227,
      "ont": 1228,
      "▁yemekleri": 1229,
      "▁kayn": 1230,
      "▁hukum": 1231,
      "▁arab": 1232,
      "likte": 1233,
      "▁denizi": 1234,
      "▁rahat": 1235,
      "▁ogleden": 1236,
      "ali": 1237,
      "esinin": 1238,
      "samba": 1239,
      "▁carsamba": 1240,
      "ade": 1241,
      "landı": 1242,
      "gul": 1243,
      "▁kum": 1244,
      "larından": 1245,
      "▁kapan": 1246,
      "▁hava": 1247,
      "▁duzen": 1248,
      "amaz": 1249,
      "▁karıs": 1250,
      "▁eden": 1251,
      "▁oyle": 1252,
      "▁kir": 1253,
      "▁sin": 1254,
      "▁ucuslarını": 1255,
      "ersiz": 1256,
      "▁yonel": 1257,
      "▁yapıl": 1258,
      "erv": 1259,
      "atur": 1260,
      "'ta": 1261,
      "▁sını": 1262,
      "▁muk": 1263,
      "ati": 1264,
      "▁yukseldi": 1265,
      "adi": 1266,
      "elim": 1267,
      "▁beklen": 1268,
      "lum": 1269,
      "▁kok": 1270,
      "▁dort": 1271,
      "▁hız": 1272,
      "▁dustu": 1273,
      "ecegini": 1274,
      "iv": 1275,
      "▁devlet": 1276,
      "▁denver'e": 1277,
      "▁hakkında": 1278,
      "▁ir": 1279,
      "▁turkiye": 1280,
      "▁atlanta'dan": 1281,
      "▁benz": 1282,
      "▁oyun": 1283,
      "▁9": 1284,
      "lama": 1285,
      "lerinden": 1286,
      "▁air": 1287,
      "▁oyn": 1288,
      "ber": 1289,
      "ch": 1290,
      "asi": 1291,
      "▁if": 1292,
      "▁personelleri": 1293,
      "▁ulk": 1294,
      "▁sun": 1295,
      "adık": 1296,
      "▁alan": 1297,
      "▁uzerine": 1298,
      "▁ilgilendi": 1299,
      "▁ekonom": 1300,
      "▁fır": 1301,
      "▁1.": 1302,
      "ıyorum": 1303,
      "ge": 1304,
      "rak": 1305,
      "▁gosterin": 1306,
      "▁sınıf": 1307,
      "mel": 1308,
      "irim": 1309,
      "▁mar": 1310,
      "bilir": 1311,
      "▁yeter": 1312,
      "▁ilisk": 1313,
      "▁kurul": 1314,
      "▁listeleyin": 1315,
      "ina": 1316,
      "asının": 1317,
      "▁yasam": 1318,
      "▁donem": 1319,
      "▁arasındaki": 1320,
      "bul": 1321,
      "ince": 1322,
      "▁gayet": 1323,
      "▁rek": 1324,
      "▁oran": 1325,
      "▁pat": 1326,
      "elerin": 1327,
      "▁doları": 1328,
      "▁fakat": 1329,
      "kı": 1330,
      "lamıs": 1331,
      "▁yaklasık": 1332,
      "▁kaf": 1333,
      "▁cag": 1334,
      "▁rez": 1335,
      "▁vardi": 1336,
      "ayıp": 1337,
      "▁genis": 1338,
      "elen": 1339,
      "ekli": 1340,
      "aydi": 1341,
      "▁pay": 1342,
      "▁olduk": 1343,
      "▁konu": 1344,
      "▁dı": 1345,
      "▁cit": 1346,
      "▁guleryuz": 1347,
      "▁sol": 1348,
      "dugu": 1349,
      "▁kesin": 1350,
      "▁bank": 1351,
      "gım": 1352,
      "▁birlikte": 1353,
      "▁bilgi": 1354,
      "▁gece": 1355,
      "▁artıs": 1356,
      "liyor": 1357,
      "▁li": 1358,
      "▁ber": 1359,
      "▁basar": 1360,
      "lul": 1361,
      "tadır": 1362,
      "▁gorev": 1363,
      "▁12": 1364,
      "▁olmadı": 1365,
      "▁satın": 1366,
      "▁guven": 1367,
      "▁onemli": 1368,
      "lin": 1369,
      "▁yiy": 1370,
      "▁basına": 1371,
      "gum": 1372,
      "od": 1373,
      "▁tor": 1374,
      "▁kalitesi": 1375,
      "▁ah": 1376,
      "▁haber": 1377,
      "lerle": 1378,
      "▁ner": 1379,
      "▁anim": 1380,
      "▁yetk": 1381,
      "▁sonuc": 1382,
      "wa": 1383,
      "▁se": 1384,
      "ogram": 1385,
      "▁tesek": 1386,
      "lestir": 1387,
      "enkul": 1388,
      "▁guleryuzlu": 1389,
      "▁telef": 1390,
      "cih": 1391,
      "▁pittsburgh'tan": 1392,
      "▁tesekkur": 1393,
      "eti": 1394,
      "▁sog": 1395,
      "▁birbir": 1396,
      "▁yakın": 1397,
      "▁tercih": 1398,
      "▁telefon": 1399,
      "▁tekrar": 1400,
      "▁gidis": 1401,
      "o'ya": 1402,
      "▁vak": 1403,
      "▁alım": 1404,
      "▁uzak": 1405,
      "▁atlanta'ya": 1406,
      "kun": 1407,
      "madan": 1408,
      "▁sac": 1409,
      "▁konum": 1410,
      "▁hafta": 1411,
      "▁sonr": 1412,
      "▁aileler": 1413,
      "son": 1414,
      "orm": 1415,
      "▁yeniden": 1416,
      "▁yonelik": 1417,
      "'y": 1418,
      "sın": 1419,
      "▁dar": 1420,
      "alt": 1421,
      "▁tal": 1422,
      "layan": 1423,
      "misti": 1424,
      "▁yag": 1425,
      "▁yapmak": 1426,
      "▁animasyon": 1427,
      "▁agır": 1428,
      "▁baltimore'ye": 1429,
      "sal": 1430,
      "▁oak": 1431,
      "▁pet": 1432,
      "asıyor": 1433,
      "tedir": 1434,
      "▁sig": 1435,
      "▁del": 1436,
      "▁must": 1437,
      "esinden": 1438,
      "▁olmus": 1439,
      "▁program": 1440,
      "aga": 1441,
      "▁burada": 1442,
      "▁sehir": 1443,
      "▁rezerv": 1444,
      "ne": 1445,
      "rek": 1446,
      "▁olum": 1447,
      "▁beyaz": 1448,
      "▁eks": 1449,
      "▁belirt": 1450,
      "▁oakland": 1451,
      "lerdi": 1452,
      "dıgı": 1453,
      "uyu": 1454,
      "▁konusunda": 1455,
      "pr": 1456,
      "asa": 1457,
      "ısında": 1458,
      "ledi": 1459,
      "▁onlar": 1460,
      "cut": 1461,
      "ov": 1462,
      "tiler": 1463,
      "▁sil": 1464,
      "▁mad": 1465,
      "ice": 1466,
      "aban": 1467,
      "▁cuma": 1468,
      "▁pazartesi": 1469,
      "▁muz": 1470,
      "▁yapılan": 1471,
      "▁mek": 1472,
      "▁veriyorum": 1473,
      "'nun": 1474,
      "000": 1475,
      "▁bors": 1476,
      "kat": 1477,
      "▁gelecek": 1478,
      "▁city": 1479,
      "miyor": 1480,
      "▁almak": 1481,
      "▁temizligi": 1482,
      "▁yorum": 1483,
      "▁cin": 1484,
      "▁cey": 1485,
      "▁boston'a": 1486,
      "unca": 1487,
      "▁altında": 1488,
      "▁gazet": 1489,
      "▁vad": 1490,
      "tıgı": 1491,
      "medim": 1492,
      "▁dallas'a": 1493,
      "▁listele": 1494,
      "▁yavas": 1495,
      "liydi": 1496,
      "▁te": 1497,
      "▁kaldır": 1498,
      "anbul": 1499,
      "une": 1500,
      "▁ucak": 1501,
      "▁istanbul": 1502,
      "▁mevcut": 1503,
      "eral": 1504,
      "▁ip": 1505,
      "▁yetersiz": 1506,
      "▁dest": 1507,
      "amak": 1508,
      "▁olsun": 1509,
      "▁anda": 1510,
      "▁ulus": 1511,
      "0.": 1512,
      "▁salı": 1513,
      "ime": 1514,
      "meden": 1515,
      "▁soyluyor": 1516,
      "▁karsil": 1517,
      "▁cocuklu": 1518,
      "▁ticaret": 1519,
      "vel": 1520,
      "▁verdi": 1521,
      "▁belki": 1522,
      "▁odalar": 1523,
      "muz": 1524,
      "siy": 1525,
      "▁kez": 1526,
      "emmel": 1527,
      "▁tatil": 1528,
      "▁gez": 1529,
      "▁yatırımcı": 1530,
      "▁mukemmel": 1531,
      "▁yaban": 1532,
      "ele": 1533,
      "▁cif": 1534,
      "emi": 1535,
      "manın": 1536,
      "▁kazanc": 1537,
      "▁neler": 1538,
      "apon": 1539,
      "elerini": 1540,
      "▁erkek": 1541,
      "gına": 1542,
      "hal": 1543,
      "▁ker": 1544,
      "▁fin": 1545,
      "▁tekn": 1546,
      "▁kıymet": 1547,
      "tıs": 1548,
      "indeki": 1549,
      "▁gar": 1550,
      "▁kapı": 1551,
      "▁bize": 1552,
      "▁japon": 1553,
      "▁ozellikle": 1554,
      "▁mahk": 1555,
      "▁yiyecek": 1556,
      "lemek": 1557,
      "▁sef": 1558,
      "enc": 1559,
      "ilmis": 1560,
      "▁met": 1561,
      "▁mey": 1562,
      "▁menkul": 1563,
      "embe": 1564,
      "▁rak": 1565,
      "▁ucrete": 1566,
      "▁kem": 1567,
      "▁sın": 1568,
      "▁dag": 1569,
      "▁gur": 1570,
      "▁yum": 1571,
      "▁yıllık": 1572,
      "▁yerine": 1573,
      "▁kısa": 1574,
      "▁ugr": 1575,
      "o'dan": 1576,
      "▁anal": 1577,
      "▁geliyor": 1578,
      "▁adet": 1579,
      "▁philadelphia'ya": 1580,
      "ınca": 1581,
      "▁fon": 1582,
      "ıma": 1583,
      "▁havayolları": 1584,
      "▁faiz": 1585,
      "▁endek": 1586,
      "▁boz": 1587,
      "▁ro": 1588,
      "landır": 1589,
      "▁dusus": 1590,
      "▁sanat": 1591,
      "▁hala": 1592,
      "gında": 1593,
      "isini": 1594,
      "▁zar": 1595,
      "▁sonunda": 1596,
      "'daki": 1597,
      "▁$": 1598,
      "▁seb": 1599,
      "iyi": 1600,
      "▁uf": 1601,
      "▁calis": 1602,
      "iyeti": 1603,
      "▁pittsburgh'a": 1604,
      "▁yem": 1605,
      "▁ru": 1606,
      "▁gol": 1607,
      "asır": 1608,
      "▁bilgis": 1609,
      "▁parc": 1610,
      "gisi": 1611,
      "▁kisi": 1612,
      "alım": 1613,
      "ami": 1614,
      "imin": 1615,
      "▁seviy": 1616,
      "▁kolay": 1617,
      "▁kotuydu": 1618,
      "'te": 1619,
      "ee": 1620,
      "pan": 1621,
      "▁hen": 1622,
      "▁min": 1623,
      "ılır": 1624,
      "ebil": 1625,
      "▁devr": 1626,
      "▁istemiyorum": 1627,
      "gan": 1628,
      "st": 1629,
      "▁cab": 1630,
      "▁kurum": 1631,
      "▁sp": 1632,
      "▁tep": 1633,
      "▁pah": 1634,
      "ılıyor": 1635,
      "▁sure": 1636,
      "hur": 1637,
      "su": 1638,
      "arlar": 1639,
      "▁diz": 1640,
      "▁hes": 1641,
      "▁hey": 1642,
      "▁herhan": 1643,
      "masını": 1644,
      "▁borc": 1645,
      "▁dikkat": 1646,
      "▁kitap": 1647,
      "▁ihtiyacım": 1648,
      "▁herhangi": 1649,
      "▁sap": 1650,
      "▁oluyor": 1651,
      "▁azdi": 1652,
      "▁dolayi": 1653,
      "▁tahmin": 1654,
      "▁urun": 1655,
      "▁la": 1656,
      "▁sist": 1657,
      "▁hos": 1658,
      "▁nok": 1659,
      "agıt": 1660,
      "▁philadelphia'dan": 1661,
      "▁hukumet": 1662,
      "▁rezervasyon": 1663,
      "dak": 1664,
      "▁fen": 1665,
      "▁id": 1666,
      "▁halk": 1667,
      "▁toplan": 1668,
      "▁si": 1669,
      "▁str": 1670,
      "▁gidiyor": 1671,
      "▁dallas'tan": 1672,
      "tul": 1673,
      "unden": 1674,
      "oloj": 1675,
      "▁bask": 1676,
      "▁gid": 1677,
      "▁baskanı": 1678,
      "▁polit": 1679,
      "and": 1680,
      "▁of": 1681,
      "abı": 1682,
      "▁199": 1683,
      "van": 1684,
      "vet": 1685,
      "▁tır": 1686,
      "ilerin": 1687,
      "▁uzere": 1688,
      "▁hast": 1689,
      "▁baltimore'den": 1690,
      "meyi": 1691,
      "▁br": 1692,
      "▁beri": 1693,
      "all": 1694,
      "unde": 1695,
      "amadı": 1696,
      "imde": 1697,
      "▁varan": 1698,
      "lamak": 1699,
      "▁ikinci": 1700,
      "▁tabi": 1701,
      "osy": 1702,
      "▁islet": 1703,
      "▁bildir": 1704,
      "▁ortal": 1705,
      "▁muht": 1706,
      "▁avrup": 1707,
      "▁kapandı": 1708,
      "alet": 1709,
      "▁tuk": 1710,
      "▁cat": 1711,
      "amıs": 1712,
      "▁rap": 1713,
      "▁15": 1714,
      "▁acı": 1715,
      "▁insanlar": 1716,
      "▁kı": 1717,
      "▁suc": 1718,
      "▁dayan": 1719,
      "▁cun": 1720,
      "▁yere": 1721,
      "▁temizlik": 1722,
      "▁ortaya": 1723,
      "▁otelin": 1724,
      "▁aile": 1725,
      "▁hatta": 1726,
      "▁cift": 1727,
      "▁bilgisay": 1728,
      ".2": 1729,
      "▁bic": 1730,
      "undan": 1731,
      "▁coz": 1732,
      "aten": 1733,
      "▁fed": 1734,
      "▁oldugun": 1735,
      "▁st.": 1736,
      "urdu": 1737,
      "▁gelis": 1738,
      "erken": 1739,
      ".3": 1740,
      "kin": 1741,
      "meler": 1742,
      "muyor": 1743,
      "sas": 1744,
      "yo": 1745,
      "▁alıs": 1746,
      "ıyorlar": 1747,
      "▁degildir": 1748,
      "▁persembe": 1749,
      "▁karsıl": 1750,
      "▁hafif": 1751,
      "▁yonetim": 1752,
      "▁dır": 1753,
      "▁altı": 1754,
      "▁yaptir": 1755,
      "aların": 1756,
      "afir": 1757,
      "▁francisco'dan": 1758,
      "▁misafir": 1759,
      "▁diy": 1760,
      "▁giy": 1761,
      "▁olanak": 1762,
      "▁cocu": 1763,
      "▁hatır": 1764,
      "▁cogu": 1765,
      "▁yetkil": 1766,
      "▁rapor": 1767,
      "ukee": 1768,
      "iyorlar": 1769,
      "▁milwa": 1770,
      "▁dolara": 1771,
      "▁degistir": 1772,
      "▁corp": 1773,
      "▁cunku": 1774,
      ".6": 1775,
      "apol": 1776,
      "▁yuzlu": 1777,
      "mustu": 1778,
      "▁dunya": 1779,
      "▁kork": 1780,
      "▁havuzu": 1781,
      "▁milwaukee": 1782,
      "bol": 1783,
      "▁koc": 1784,
      "▁cocuklar": 1785,
      "▁duvar": 1786,
      "▁okul": 1787,
      "▁davran": 1788,
      "mamıs": 1789,
      "▁ode": 1790,
      "tif": 1791,
      "ustos": 1792,
      "▁agustos": 1793,
      "▁destek": 1794,
      "▁henuz": 1795,
      "apolis": 1796,
      "▁dum": 1797,
      "▁demek": 1798,
      "esiz": 1799,
      "▁tı": 1800,
      "▁hizmeti": 1801,
      "imizi": 1802,
      "▁degerlendir": 1803,
      ".7": 1804,
      "ırdı": 1805,
      "▁olma": 1806,
      "▁bilim": 1807,
      "▁ib": 1808,
      "▁ucreti": 1809,
      "▁dc": 1810,
      "▁ma": 1811,
      "▁fik": 1812,
      "larıyla": 1813,
      "▁indi": 1814,
      "▁20": 1815,
      "▁demir": 1816,
      "gar": 1817,
      "▁unu": 1818,
      "ant": 1819,
      "emez": 1820,
      "▁olay": 1821,
      "▁olsa": 1822,
      "▁nis": 1823,
      "▁kard": 1824,
      "▁vardır": 1825,
      "▁ingil": 1826,
      "▁ince": 1827,
      "▁seyler": 1828,
      "▁bunlar": 1829,
      "▁bog": 1830,
      "asından": 1831,
      "uncu": 1832,
      "▁hac": 1833,
      "▁cez": 1834,
      "alarını": 1835,
      "ecegi": 1836,
      "▁americ": 1837,
      "▁cevr": 1838,
      "▁bolg": 1839,
      "eydi": 1840,
      "▁renk": 1841,
      "▁dusunuyor": 1842,
      "▁arastır": 1843,
      "forman": 1844,
      "▁ceyrek": 1845,
      "▁sik": 1846,
      "▁birden": 1847,
      "▁zaten": 1848,
      "▁lak": 1849,
      "▁uygul": 1850,
      "▁esk": 1851,
      "▁olabilirdi": 1852,
      "gini": 1853,
      "▁red": 1854,
      "ızı": 1855,
      "▁orta": 1856,
      "▁yarat": 1857,
      "▁agac": 1858,
      "leyen": 1859,
      "▁degisik": 1860,
      ".8": 1861,
      "▁sez": 1862,
      "▁rag": 1863,
      "▁kalmadim": 1864,
      "▁gunluk": 1865,
      "▁asagı": 1866,
      "▁buna": 1867,
      "▁imkan": 1868,
      "▁kredi": 1869,
      "▁kaynak": 1870,
      "▁bilgisayar": 1871,
      "'i": 1872,
      "▁dis": 1873,
      "irdi": 1874,
      "▁tr": 1875,
      "▁kara": 1876,
      "▁yapan": 1877,
      "maktadır": 1878,
      "igini": 1879,
      "▁agz": 1880,
      "▁30": 1881,
      "▁derece": 1882,
      "▁tasar": 1883,
      "▁sabahı": 1884,
      "▁performan": 1885,
      "▁onceki": 1886,
      "▁dak": 1887,
      "ayacak": 1888,
      "esil": 1889,
      "eyim": 1890,
      "▁net": 1891,
      "▁edilen": 1892,
      ".9": 1893,
      "▁cen": 1894,
      "olu": 1895,
      "▁fiyatları": 1896,
      "▁harc": 1897,
      "encer": 1898,
      "\\/": 1899,
      "ektr": 1900,
      "▁alak": 1901,
      "▁gordu": 1902,
      "mektedir": 1903,
      "uyla": 1904,
      "▁giris": 1905,
      "▁piyasa": 1906,
      "▁vadeli": 1907,
      "mer": 1908,
      "▁yu": 1909,
      "ısını": 1910,
      "▁re": 1911,
      "▁bizi": 1912,
      "▁gercekten": 1913,
      "▁ragmen": 1914,
      "▁sus": 1915,
      "▁yık": 1916,
      "ast": 1917,
      "▁arası": 1918,
      "▁olması": 1919,
      "masız": 1920,
      "▁cumhur": 1921,
      "aj": 1922,
      "bil": 1923,
      "acagı": 1924,
      "▁turlu": 1925,
      "▁dolardan": 1926,
      "▁chic": 1927,
      "▁yalnızca": 1928,
      "udu": 1929,
      "▁cap": 1930,
      "ate": 1931,
      "▁fatur": 1932,
      "▁ilgi": 1933,
      "▁ana": 1934,
      "▁gunes": 1935,
      "digimiz": 1936,
      "masına": 1937,
      "ilmesi": 1938,
      "▁yayın": 1939,
      "▁american": 1940,
      "▁chicag": 1941,
      "ban": 1942,
      "unuz": 1943,
      "dip": 1944,
      "okr": 1945,
      "▁onumuz": 1946,
      "▁ziy": 1947,
      "▁millet": 1948,
      "▁beydi": 1949,
      "▁ogret": 1950,
      "▁las": 1951,
      "▁mec": 1952,
      "▁zen": 1953,
      "▁orn": 1954,
      "▁otom": 1955,
      "▁yanl": 1956,
      "▁senedi": 1957,
      "ibar": 1958,
      "▁servis": 1959,
      "day": 1960,
      "sı": 1961,
      "▁got": 1962,
      "▁mag": 1963,
      "▁11": 1964,
      "▁isi": 1965,
      "▁kims": 1966,
      "▁faal": 1967,
      "▁kendini": 1968,
      "▁yabancı": 1969,
      "lah": 1970,
      "rı": 1971,
      "sil": 1972,
      "▁giz": 1973,
      "larımız": 1974,
      "▁karayol": 1975,
      "▁elektr": 1976,
      "▁yerde": 1977,
      "▁ortak": 1978,
      "▁egit": 1979,
      "▁annem": 1980,
      "▁oldukca": 1981,
      "▁iddi": 1982,
      "▁avrupa": 1983,
      "siniz": 1984,
      "▁bat": 1985,
      "anlı": 1986,
      "indan": 1987,
      "ilar": 1988,
      "▁mac": 1989,
      "lugu": 1990,
      "▁soguk": 1991,
      "uru": 1992,
      "▁arac": 1993,
      "▁ister": 1994,
      "▁orada": 1995,
      "'na": 1996,
      "▁dogr": 1997,
      "▁kucuktu": 1998,
      "▁eger": 1999,
      "obil": 2000,
      "▁itibar": 2001,
      "▁unit": 2002,
      ".4": 2003,
      "▁dam": 2004,
      "leriyle": 2005,
      "▁amac": 2006,
      "leme": 2007,
      "sunuz": 2008,
      "▁kimse": 2009,
      "▁cumartesi": 2010,
      "▁ustune": 2011,
      "▁aktarmasız": 2012,
      "ation": 2013,
      "oh": 2014,
      "ıc": 2015,
      "▁sam": 2016,
      "ell": 2017,
      "ator": 2018,
      "▁arada": 2019,
      "▁reh": 2020,
      "▁kaldı": 2021,
      "▁basında": 2022,
      "▁komis": 2023,
      "▁artarak": 2024,
      "▁hepsi": 2025,
      ".1": 2026,
      "gas": 2027,
      "lilik": 2028,
      "arl": 2029,
      "▁may": 2030,
      "▁num": 2031,
      "▁alman": 2032,
      "tılar": 2033,
      "▁ates": 2034,
      "▁super": 2035,
      "▁boyunca": 2036,
      "▁tesisin": 2037,
      "▁gitti": 2038,
      "▁sakin": 2039,
      "tern": 2040,
      "▁kuv": 2041,
      "▁airlin": 2042,
      "ormal": 2043,
      "▁karayolu": 2044,
      "▁airlines": 2045,
      "▁pis": 2046,
      "▁olustur": 2047,
      "▁onların": 2048,
      "▁ayında": 2049,
      "▁adım": 2050,
      "▁tartıs": 2051,
      "▁mudur": 2052,
      "▁etmem": 2053,
      "▁eksik": 2054,
      "▁nokt": 2055,
      "▁col": 2056,
      "▁mum": 2057,
      "▁ucmak": 2058,
      "▁oner": 2059,
      "▁100": 2060,
      "▁etraf": 2061,
      "▁istiyor": 2062,
      "▁ihr": 2063,
      "▁eglen": 2064,
      "▁gonder": 2065,
      "▁gal": 2066,
      "▁mıs": 2067,
      "eyecek": 2068,
      "lanan": 2069,
      "asıyla": 2070,
      "▁vermek": 2071,
      "▁engel": 2072,
      "▁sanki": 2073,
      "▁temmuz": 2074,
      "▁kesinlikle": 2075,
      "tin": 2076,
      "▁tok": 2077,
      "lanmıs": 2078,
      "▁elde": 2079,
      "▁yani": 2080,
      "▁senin": 2081,
      "ılıgı": 2082,
      "▁farklı": 2083,
      "▁eylul": 2084,
      "▁reklam": 2085,
      "▁politik": 2086,
      "dın": 2087,
      "egi": 2088,
      "orn": 2089,
      "▁teh": 2090,
      "estir": 2091,
      "eci": 2092,
      "▁nak": 2093,
      "▁anket": 2094,
      "▁bilgil": 2095,
      "▁olmayan": 2096,
      "▁kapat": 2097,
      "▁surekli": 2098,
      "▁doldur": 2099,
      "▁merkezi": 2100,
      "▁zengin": 2101,
      "of": 2102,
      "▁normal": 2103,
      "iste": 2104,
      "▁akl": 2105,
      "▁odam": 2106,
      "▁toplam": 2107,
      "▁uzerinden": 2108,
      "▁ustunde": 2109,
      "▁komisyon": 2110,
      "inda": 2111,
      "ise": 2112,
      "ulmus": 2113,
      "▁aralık": 2114,
      "▁gecmis": 2115,
      "▁temel": 2116,
      "▁olmaz": 2117,
      "▁katil": 2118,
      "▁altın": 2119,
      "tigini": 2120,
      "▁ifade": 2121,
      "▁seni": 2122,
      "irler": 2123,
      "▁ciz": 2124,
      "▁dolarlık": 2125,
      "▁borsası": 2126,
      "▁sınır": 2127,
      "▁united": 2128,
      "mesini": 2129,
      "▁af": 2130,
      "▁yapıyor": 2131,
      "▁dair": 2132,
      "▁duserek": 2133,
      "▁degilim": 2134,
      "'nda": 2135,
      "▁asl": 2136,
      "▁sirketin": 2137,
      "▁onunde": 2138,
      "▁analist": 2139,
      "▁sistem": 2140,
      "cusu": 2141,
      "ladım": 2142,
      "▁bus": 2143,
      "▁kut": 2144,
      "▁siy": 2145,
      "▁nef": 2146,
      "orth": 2147,
      "▁guclu": 2148,
      "▁yetersizdi": 2149,
      "siyon": 2150,
      "▁nelerdir": 2151,
      "▁kıymetler": 2152,
      "dem": 2153,
      "▁kil": 2154,
      "▁ders": 2155,
      "▁tası": 2156,
      "atik": 2157,
      "▁derin": 2158,
      "ecegim": 2159,
      "▁doktor": 2160,
      "▁savun": 2161,
      "▁sıcak": 2162,
      "▁yeterli": 2163,
      "▁kuvvet": 2164,
      "maları": 2165,
      "ydı": 2166,
      "▁ap": 2167,
      "▁elinde": 2168,
      "▁halde": 2169,
      "▁yuzde": 2170,
      "▁toplum": 2171,
      "▁kontr": 2172,
      "▁lir": 2173,
      "▁sana": 2174,
      "▁kendim": 2175,
      "▁hanım": 2176,
      "▁temizdi": 2177,
      "▁carp": 2178,
      "▁cevap": 2179,
      "▁hesap": 2180,
      "▁faaliyet": 2181,
      "▁siyah": 2182,
      "lek": 2183,
      "mıyor": 2184,
      "▁dan": 2185,
      "▁birinci": 2186,
      "emiz": 2187,
      "ite": 2188,
      "▁ard": 2189,
      "▁konfor": 2190,
      "▁belli": 2191,
      "▁yazar": 2192,
      "▁baglı": 2193,
      "▁bolum": 2194,
      "▁miami": 2195,
      "▁babam": 2196,
      "▁edecek": 2197,
      "▁toront": 2198,
      "▁sosy": 2199,
      "▁yana": 2200,
      "▁13": 2201,
      "▁ulasım": 2202,
      "▁onumuzdeki": 2203,
      "▁kelim": 2204,
      "▁ti": 2205,
      "▁olcu": 2206,
      "ısına": 2207,
      "▁vegas": 2208,
      "tiv": 2209,
      "▁veririm": 2210,
      "▁lo": 2211,
      "▁gecti": 2212,
      "dikleri": 2213,
      "▁sene": 2214,
      "▁calısan": 2215,
      "▁ediyorum": 2216,
      "▁yonetic": 2217,
      "▁federal": 2218,
      "▁corp.": 2219,
      "oeni": 2220,
      "▁sem": 2221,
      "▁siyas": 2222,
      "▁dost": 2223,
      "ustu": 2224,
      "▁depr": 2225,
      "ımda": 2226,
      "▁onları": 2227,
      "▁kalab": 2228,
      "▁gider": 2229,
      "▁vergi": 2230,
      "▁duygu": 2231,
      "▁phoeni": 2232,
      "▁phoenix": 2233,
      "gımız": 2234,
      "rik": 2235,
      "▁kagıt": 2236,
      "▁det": 2237,
      "▁day": 2238,
      "lerce": 2239,
      "▁los": 2240,
      "▁25": 2241,
      "he": 2242,
      "▁yedi": 2243,
      "ume": 2244,
      "▁nes": 2245,
      "▁insa": 2246,
      "▁yıllar": 2247,
      "iforn": 2248,
      "▁sokak": 2249,
      "▁benzer": 2250,
      "▁beraber": 2251,
      "'ı": 2252,
      "cısı": 2253,
      "rol": 2254,
      "sat": 2255,
      "iran": 2256,
      "ess": 2257,
      "▁pencer": 2258,
      "▁icine": 2259,
      "lendi": 2260,
      "ayıf": 2261,
      "▁uyan": 2262,
      "▁evet": 2263,
      "ıyı": 2264,
      "▁sirketi": 2265,
      "▁sozles": 2266,
      "▁size": 2267,
      "detti": 2268,
      "meyen": 2269,
      "arlan": 2270,
      "▁bon": 2271,
      "▁hır": 2272,
      "▁mik": 2273,
      "att": 2274,
      "▁fil": 2275,
      "▁icecek": 2276,
      "ustr": 2277,
      "▁dolu": 2278,
      "▁sektor": 2279,
      "▁takım": 2280,
      "layacak": 2281,
      "edef": 2282,
      "sen": 2283,
      "▁emek": 2284,
      "▁bo": 2285,
      "▁kuz": 2286,
      "▁sul": 2287,
      "▁ydi": 2288,
      "▁mon": 2289,
      "ırı": 2290,
      "ısından": 2291,
      "▁iler": 2292,
      "▁a.": 2293,
      "▁yanında": 2294,
      "▁musa": 2295,
      "qu": 2296,
      "▁gok": 2297,
      "aliydi": 2298,
      "agın": 2299,
      "oglu": 2300,
      "▁kong": 2301,
      "▁orland": 2302,
      "▁yarın": 2303,
      "▁--": 2304,
      "▁katıl": 2305,
      "▁haft": 2306,
      "▁ingiliz": 2307,
      "▁aslında": 2308,
      "mistir": 2309,
      "▁duk": 2310,
      "▁mo": 2311,
      "▁gelistir": 2312,
      "▁maliyet": 2313,
      "▁artısla": 2314,
      "▁odedigim": 2315,
      "▁rehber": 2316,
      "'s": 2317,
      "▁mez": 2318,
      "amay": 2319,
      "imli": 2320,
      "uyorum": 2321,
      "▁yılında": 2322,
      "egin": 2323,
      "▁balık": 2324,
      "▁saglık": 2325,
      "▁kırm": 2326,
      "▁cevir": 2327,
      "▁savas": 2328,
      "▁bahc": 2329,
      "▁kasım": 2330,
      "▁roman": 2331,
      "▁ufak": 2332,
      "yen": 2333,
      "▁be": 2334,
      "▁yog": 2335,
      "▁yesil": 2336,
      "▁cid": 2337,
      "▁muc": 2338,
      "▁vaz": 2339,
      "uma": 2340,
      "eyse": 2341,
      "aba": 2342,
      "▁gorunuyor": 2343,
      "▁14": 2344,
      "▁gelmis": 2345,
      "▁indir": 2346,
      "▁veren": 2347,
      "▁kurtul": 2348,
      "▁bakan": 2349,
      "▁salt": 2350,
      "▁lezzetli": 2351,
      "▁sıra": 2352,
      "▁dısarı": 2353,
      "'u": 2354,
      "bu": 2355,
      "mur": 2356,
      "yan": 2357,
      "▁&": 2358,
      "asız": 2359,
      "isinin": 2360,
      "eyle": 2361,
      "▁defa": 2362,
      "▁ez": 2363,
      "▁ren": 2364,
      "▁yardim": 2365,
      "▁hale": 2366,
      "▁yakin": 2367,
      "▁zamanda": 2368,
      "amadim": 2369,
      "▁kalite": 2370,
      "▁hisseleri": 2371,
      "▁nedeniyle": 2372,
      "▁endeksi": 2373,
      "kar": 2374,
      "set": 2375,
      "▁op": 2376,
      "▁yeme": 2377,
      "▁tit": 2378,
      "▁cak": 2379,
      "▁birer": 2380,
      "usunu": 2381,
      "elere": 2382,
      "taj": 2383,
      "alarına": 2384,
      "▁veriyor": 2385,
      "uston": 2386,
      "▁bayan": 2387,
      "▁univ": 2388,
      "▁asker": 2389,
      "▁ruh": 2390,
      "▁tuket": 2391,
      "▁unut": 2392,
      "▁univers": 2393,
      "25": 2394,
      "▁hedef": 2395,
      "azım": 2396,
      "▁fel": 2397,
      "▁film": 2398,
      "▁nih": 2399,
      "▁lim": 2400,
      "acagım": 2401,
      "▁heps": 2402,
      "▁houston": 2403,
      "▁ekonomi": 2404,
      "▁delta": 2405,
      "▁kardes": 2406,
      "▁performans": 2407,
      "▁cic": 2408,
      "▁mav": 2409,
      "dav": 2410,
      "ılması": 2411,
      "▁ucuncu": 2412,
      "▁artır": 2413,
      "▁bilet": 2414,
      "▁karsısında": 2415,
      "▁bazen": 2416,
      "▁denize": 2417,
      "▁yurt": 2418,
      "▁sessiz": 2419,
      "▁yanlıs": 2420,
      "a'nın": 2421,
      "ji": 2422,
      "tuk": 2423,
      "▁sel": 2424,
      "▁gay": 2425,
      "▁oper": 2426,
      "▁men": 2427,
      "▁kalan": 2428,
      "lugun": 2429,
      "▁zayıf": 2430,
      "▁1/": 2431,
      "▁seyi": 2432,
      "▁ekim": 2433,
      "otte": 2434,
      "arken": 2435,
      "▁charl": 2436,
      "▁yapılacak": 2437,
      "▁olmadıgını": 2438,
      "▁otomobil": 2439,
      "▁charlotte": 2440,
      "lim": 2441,
      "▁sark": 2442,
      "aket": 2443,
      "▁cem": 2444,
      "▁mat": 2445,
      "adaki": 2446,
      "osu": 2447,
      "lass": 2448,
      "▁haziran": 2449,
      "▁newark": 2450,
      "ligini": 2451,
      "▁muster": 2452,
      "▁indian": 2453,
      "▁ihrac": 2454,
      "cuk": 2455,
      "leye": 2456,
      "▁adı": 2457,
      "▁cay": 2458,
      "alarda": 2459,
      "alarının": 2460,
      "▁edildi": 2461,
      "▁sert": 2462,
      "▁avuk": 2463,
      "▁kampan": 2464,
      "▁numar": 2465,
      "▁sosyal": 2466,
      "▁deprem": 2467,
      "▁indianapolis": 2468,
      "uf": 2469,
      "ari": 2470,
      "▁tac": 2471,
      "urt": 2472,
      "eyn": 2473,
      "▁18": 2474,
      "elerde": 2475,
      "▁actı": 2476,
      "▁yarı": 2477,
      "▁dalg": 2478,
      "▁yazı": 2479,
      "▁tanım": 2480,
      "▁gercekles": 2481,
      "▁secim": 2482,
      "▁finans": 2483,
      "▁lake": 2484,
      "▁gotur": 2485,
      "▁ciddi": 2486,
      "▁sis": 2487,
      "▁meh": 2488,
      "▁pa": 2489,
      "▁ali": 2490,
      "▁onay": 2491,
      "▁angel": 2492,
      "lıgını": 2493,
      "▁etmis": 2494,
      "mıstır": 2495,
      "▁sorum": 2496,
      "▁ayrıl": 2497,
      "▁tutar": 2498,
      "▁kansas": 2499,
      "▁sefer": 2500,
      "▁nisan": 2501,
      "▁degisiklik": 2502,
      "ij": 2503,
      "ser": 2504,
      "▁saf": 2505,
      "ong": 2506,
      "▁arz": 2507,
      "▁gide": 2508,
      "gıc": 2509,
      "▁milli": 2510,
      "▁kurulu": 2511,
      "cılar": 2512,
      "▁sermay": 2513,
      "iddet": 2514,
      "▁kendisi": 2515,
      "▁begendim": 2516,
      "▁ortalama": 2517,
      "dal": 2518,
      "yalar": 2519,
      "▁dos": 2520,
      "iri": 2521,
      "▁grup": 2522,
      "▁tez": 2523,
      "▁oldur": 2524,
      "▁ucusların": 2525,
      "▁aylık": 2526,
      "▁dahil": 2527,
      "▁temsil": 2528,
      "▁sub": 2529,
      "▁yuzunden": 2530,
      "▁hayal": 2531,
      "▁satıslar": 2532,
      "▁dieg": 2533,
      "▁first": 2534,
      "▁meydan": 2535,
      "▁zarar": 2536,
      "▁karsılas": 2537,
      "sınız": 2538,
      "▁0.": 2539,
      "ord": 2540,
      "ekler": 2541,
      "▁def": 2542,
      "▁yapar": 2543,
      "▁idar": 2544,
      "▁haline": 2545,
      "▁toprak": 2546,
      "▁sahi": 2547,
      "▁bekle": 2548,
      "▁mali": 2549,
      "▁uretic": 2550,
      "▁kendisine": 2551,
      "▁sov": 2552,
      "▁seatt": 2553,
      "▁seattle": 2554,
      "▁gom": 2555,
      "▁pil": 2556,
      "▁buz": 2557,
      "▁fer": 2558,
      "▁naz": 2559,
      "uluk": 2560,
      "▁efen": 2561,
      "▁ici": 2562,
      "▁anlay": 2563,
      "▁intern": 2564,
      "▁bilm": 2565,
      "medik": 2566,
      "▁senet": 2567,
      "▁gozleri": 2568,
      "▁dusunc": 2569,
      "▁merak": 2570,
      "▁rakam": 2571,
      "▁kırmızı": 2572,
      "bar": 2573,
      "yet": 2574,
      "▁.\"": 2575,
      "ıntı": 2576,
      "larım": 2577,
      "▁birim": 2578,
      "esiyle": 2579,
      "ize": 2580,
      "▁ileri": 2581,
      "▁ara": 2582,
      "▁gorul": 2583,
      "▁17": 2584,
      "▁verdigi": 2585,
      "lastır": 2586,
      "▁soylem": 2587,
      "▁ele": 2588,
      "▁dov": 2589,
      "▁eve": 2590,
      "▁evvel": 2591,
      "▁kultur": 2592,
      "▁soru": 2593,
      "▁insanın": 2594,
      "▁bekliyor": 2595,
      "▁demokr": 2596,
      "luluk": 2597,
      "▁angeles": 2598,
      "bak": 2599,
      "gumuz": 2600,
      "mayan": 2601,
      "▁batı": 2602,
      "▁sut": 2603,
      "▁gitt": 2604,
      "▁taz": 2605,
      "▁hik": 2606,
      "▁cont": 2607,
      "▁vat": 2608,
      "▁pan": 2609,
      "tigi": 2610,
      "tup": 2611,
      "▁bundan": 2612,
      "▁kaybet": 2613,
      "▁hazine": 2614,
      "▁hızlı": 2615,
      "▁iliskin": 2616,
      "▁ulusal": 2617,
      "▁olmadi": 2618,
      "▁yardimci": 2619,
      "anlık": 2620,
      "▁ten": 2621,
      "▁tuz": 2622,
      "▁cı": 2623,
      "▁class": 2624,
      "▁fay": 2625,
      "abet": 2626,
      "isten": 2627,
      "▁aradi": 2628,
      "imize": 2629,
      "imizin": 2630,
      "▁onune": 2631,
      "▁bulunan": 2632,
      "▁misin": 2633,
      "▁araba": 2634,
      "▁silah": 2635,
      "▁musait": 2636,
      "kal": 2637,
      "pa": 2638,
      "teki": 2639,
      "▁lı": 2640,
      "inent": 2641,
      "▁dek": 2642,
      "▁tir": 2643,
      "▁huz": 2644,
      "ıstır": 2645,
      "lanıyor": 2646,
      "▁istedi": 2647,
      "ograf": 2648,
      "lenen": 2649,
      "▁21": 2650,
      "▁surdur": 2651,
      "▁dolas": 2652,
      "▁saglam": 2653,
      "▁mahkem": 2654,
      "tal": 2655,
      "▁ters": 2656,
      "iyim": 2657,
      "▁mor": 2658,
      "alara": 2659,
      "▁dusman": 2660,
      "▁bence": 2661,
      "▁acıl": 2662,
      "▁olmasi": 2663,
      "▁bagım": 2664,
      "▁bahse": 2665,
      "▁durumda": 2666,
      "▁mumkun": 2667,
      "▁continent": 2668,
      "oc": 2669,
      "inn": 2670,
      "▁des": 2671,
      "▁delik": 2672,
      "▁yir": 2673,
      "izi": 2674,
      "ich": 2675,
      "acık": 2676,
      "▁fab": 2677,
      "▁ilgis": 2678,
      "▁iceri": 2679,
      "▁alır": 2680,
      "elerinin": 2681,
      "▁insanların": 2682,
      "▁kısm": 2683,
      "▁heyec": 2684,
      "▁egitim": 2685,
      "din": 2686,
      "sak": 2687,
      "ane": 2688,
      "▁tiyat": 2689,
      "isinde": 2690,
      "▁birles": 2691,
      "▁mur": 2692,
      "lerim": 2693,
      "▁ilac": 2694,
      "tıgını": 2695,
      "▁yapacak": 2696,
      "▁gecer": 2697,
      "▁geril": 2698,
      "▁bunları": 2699,
      "▁prob": 2700,
      "▁proj": 2701,
      "▁kaliteli": 2702,
      "▁kosul": 2703,
      "▁dısında": 2704,
      "memis": 2705,
      "▁dunyanın": 2706,
      "▁begenmedim": 2707,
      "▁ekonomik": 2708,
      "'yi": 2709,
      "▁petrol": 2710,
      "▁city'e": 2711,
      "▁kere": 2712,
      "▁kemal": 2713,
      "▁fena": 2714,
      "▁continental": 2715,
      "'deki": 2716,
      "gah": 2717,
      "▁kimi": 2718,
      "▁os": 2719,
      "▁yel": 2720,
      "▁cik": 2721,
      "▁mark": 2722,
      "▁onlara": 2723,
      "▁verdigim": 2724,
      "▁ide": 2725,
      "▁elestir": 2726,
      "▁edin": 2727,
      "▁seyahat": 2728,
      "▁co.": 2729,
      "▁bakım": 2730,
      "▁ekmek": 2731,
      "▁gitmek": 2732,
      "▁bulundu": 2733,
      "▁olursa": 2734,
      "▁talep": 2735,
      "ational": 2736,
      "▁kontrol": 2737,
      "gor": 2738,
      "ladık": 2739,
      "▁tık": 2740,
      "▁isk": 2741,
      "▁kenar": 2742,
      "▁yuzme": 2743,
      "▁salon": 2744,
      "▁genellikle": 2745,
      "▁inc.": 2746,
      "▁yaptıgı": 2747,
      "▁sinir": 2748,
      "▁eskiydi": 2749,
      "▁avukat": 2750,
      "meli": 2751,
      "▁siddet": 2752,
      "isine": 2753,
      "▁cle": 2754,
      "izyon": 2755,
      "istan": 2756,
      "▁baslamıs": 2757,
      "▁gordum": 2758,
      "▁aydın": 2759,
      "▁ettim": 2760,
      "▁kurtar": 2761,
      "▁azal": 2762,
      "▁zorunda": 2763,
      "▁olcude": 2764,
      "▁ısı": 2765,
      "▁gru": 2766,
      "▁hus": 2767,
      "aydı": 2768,
      "▁olup": 2769,
      "▁sona": 2770,
      "▁isaret": 2771,
      "ilere": 2772,
      "▁lazım": 2773,
      "▁kendiler": 2774,
      "▁part": 2775,
      "▁26": 2776,
      "▁evde": 2777,
      "▁personeli": 2778,
      "▁yatak": 2779,
      "▁ert": 2780,
      "iligi": 2781,
      "▁hanimdi": 2782,
      "▁yardımcı": 2783,
      "▁servisi": 2784,
      "▁sebep": 2785,
      "gec": 2786,
      "kın": 2787,
      "mesine": 2788,
      "▁yun": 2789,
      "ilig": 2790,
      "▁tip": 2791,
      "▁cer": 2792,
      "▁cep": 2793,
      "▁cent": 2794,
      "▁mot": 2795,
      "▁port": 2796,
      "▁olus": 2797,
      "▁gormek": 2798,
      "▁istif": 2799,
      "▁gund": 2800,
      "▁ait": 2801,
      "▁calısıyor": 2802,
      "▁tatlı": 2803,
      "▁izin": 2804,
      "▁ısık": 2805,
      "▁dakika": 2806,
      "▁magaz": 2807,
      "▁universit": 2808,
      "▁problem": 2809,
      "dun": 2810,
      "kara": 2811,
      "ind": 2812,
      "▁sip": 2813,
      "▁ocak": 2814,
      "ayla": 2815,
      "amız": 2816,
      "urlu": 2817,
      "ates": 2818,
      "▁ucuyor": 2819,
      "▁ilet": 2820,
      "dıgını": 2821,
      "▁dusur": 2822,
      "▁gosterdi": 2823,
      "▁50": 2824,
      "▁gerekiyor": 2825,
      "▁manz": 2826,
      "▁faturam": 2827,
      "▁pas": 2828,
      "▁fot": 2829,
      "ılmaz": 2830,
      "agan": 2831,
      "▁zev": 2832,
      "▁varlık": 2833,
      "▁etme": 2834,
      "▁biliyor": 2835,
      "▁200": 2836,
      "▁bakıs": 2837,
      "▁ulasımı": 2838,
      "▁makin": 2839,
      "▁kahval": 2840,
      "▁gonul": 2841,
      "▁oakland'a": 2842,
      "veland": 2843,
      "▁teknoloj": 2844,
      "▁tabii": 2845,
      "▁dukkan": 2846,
      "▁mehmet": 2847,
      "▁sahibi": 2848,
      "▁cleveland": 2849,
      "bas": 2850,
      "ırıl": 2851,
      "▁olabil": 2852,
      "aca": 2853,
      "▁alacak": 2854,
      "▁uzman": 2855,
      "▁akıl": 2856,
      "▁yasan": 2857,
      "▁yukarı": 2858,
      "▁kullanmadim": 2859,
      "▁altına": 2860,
      "▁saldır": 2861,
      "▁malz": 2862,
      "▁washington'a": 2863,
      "▁direk": 2864,
      "▁incel": 2865,
      "▁sof": 2866,
      "▁tedav": 2867,
      "▁ardından": 2868,
      "gından": 2869,
      "gının": 2870,
      "ke": 2871,
      "sek": 2872,
      "ill": 2873,
      "ata": 2874,
      "▁dedim": 2875,
      "▁allah": 2876,
      "▁ruz": 2877,
      "▁bilin": 2878,
      "▁olmalı": 2879,
      "lenmis": 2880,
      "▁cıkan": 2881,
      "▁27": 2882,
      "▁yandan": 2883,
      "▁duruyor": 2884,
      "▁fiyatı": 2885,
      "▁acıklam": 2886,
      "▁siir": 2887,
      "fer": 2888,
      "menin": 2889,
      "na": 2890,
      "ard": 2891,
      "ırlar": 2892,
      "▁ref": 2893,
      "▁bası": 2894,
      "alarında": 2895,
      "▁ettik": 2896,
      "▁guney": 2897,
      "▁yılın": 2898,
      "▁parmak": 2899,
      "▁yarım": 2900,
      "▁odem": 2901,
      "▁sekiz": 2902,
      "▁bagır": 2903,
      "▁cesitli": 2904,
      "▁banka": 2905,
      "▁hukuk": 2906,
      "▁1988": 2907,
      "▁city'den": 2908,
      "▁rezervasyonu": 2909,
      "▁stan": 2910,
      "▁ydı": 2911,
      "▁hol": 2912,
      "▁cil": 2913,
      "iya": 2914,
      "▁iyice": 2915,
      "▁lok": 2916,
      "▁dogu": 2917,
      "▁yolu": 2918,
      "ville": 2919,
      "▁mesel": 2920,
      "▁mutlu": 2921,
      "aturk": 2922,
      "▁yatırımcılar": 2923,
      "▁kıv": 2924,
      "▁gittik": 2925,
      "eet": 2926,
      "kır": 2927,
      "erler": 2928,
      "▁ge": 2929,
      "▁gem": 2930,
      "▁ov": 2931,
      "ayım": 2932,
      "▁mart": 2933,
      "▁bulam": 2934,
      "ach": 2935,
      "istim": 2936,
      "▁alamadim": 2937,
      "lıga": 2938,
      "▁16": 2939,
      "'nde": 2940,
      "▁cıkmıs": 2941,
      "▁beyle": 2942,
      "▁fiyati": 2943,
      "▁sozcusu": 2944,
      "acagız": 2945,
      "▁okum": 2946,
      "▁boylece": 2947,
      "▁musta": 2948,
      "▁endustr": 2949,
      "▁ticari": 2950,
      "▁cumhuriyet": 2951,
      "▁hikay": 2952,
      "▁yirmi": 2953,
      "lis": 2954,
      "net": 2955,
      "arası": 2956,
      "▁gog": 2957,
      "▁hap": 2958,
      "dular": 2959,
      "▁almıs": 2960,
      "▁rad": 2961,
      "▁ayır": 2962,
      "▁deng": 2963,
      "▁yasında": 2964,
      "▁yaslı": 2965,
      "▁tarif": 2966,
      "▁halinde": 2967,
      "▁jon": 2968,
      "▁baglan": 2969,
      "▁tane": 2970,
      "▁washington'dan": 2971,
      "▁aktarmalı": 2972,
      "▁tamamen": 2973,
      "▁anlasma": 2974,
      "▁nered": 2975,
      "fet": 2976,
      "▁sarı": 2977,
      "▁cel": 2978,
      "▁mun": 2979,
      "ima": 2980,
      "izm": 2981,
      "ult": 2982,
      "▁egil": 2983,
      "▁risk": 2984,
      "▁basını": 2985,
      "tuyor": 2986,
      "evizyon": 2987,
      "▁bilir": 2988,
      "▁enf": 2989,
      "madik": 2990,
      "▁uzat": 2991,
      "▁ataturk": 2992,
      "▁kent": 2993,
      "▁evin": 2994,
      "▁fiyata": 2995,
      "▁girdi": 2996,
      "▁ediyordu": 2997,
      "▁ilgilendiler": 2998,
      "mayacak": 2999,
      "▁karsiligini": 3000,
      "▁yetkilileri": 3001,
      "▁elektrik": 3002,
      "▁danıs": 3003,
      "▁mucadel": 3004,
      "▁mustafa": 3005,
      "0'": 3006,
      "▁sas": 3007,
      "▁sayı": 3008,
      "▁sart": 3009,
      "▁yah": 3010,
      "imden": 3011,
      "ulan": 3012,
      "▁ondan": 3013,
      "dız": 3014,
      "▁idi": 3015,
      "▁oteli": 3016,
      "▁edilm": 3017,
      "▁sent": 3018,
      "▁satım": 3019,
      "▁oteldi": 3020,
      "▁okuy": 3021,
      "▁acıkladı": 3022,
      "▁sırt": 3023,
      "▁dava": 3024,
      "▁sizin": 3025,
      "▁edece": 3026,
      "▁kahve": 3027,
      "▁japonya": 3028,
      "▁muhtem": 3029,
      "▁olanaklari": 3030,
      "▁osman": 3031,
      "▁motor": 3032,
      "gur": 3033,
      "leket": 3034,
      "▁kayıp": 3035,
      "▁sh": 3036,
      "enler": 3037,
      "▁oden": 3038,
      "iliyor": 3039,
      "▁ta": 3040,
      "▁ha": 3041,
      "▁mit": 3042,
      "emem": 3043,
      "▁olacagını": 3044,
      "▁rast": 3045,
      "▁ankara": 3046,
      "elerek": 3047,
      "▁verilen": 3048,
      "makta": 3049,
      "▁soyley": 3050,
      "▁memleket": 3051,
      "▁22": 3052,
      "▁yanı": 3053,
      "ıydı": 3054,
      "▁zamanlar": 3055,
      "▁kayb": 3056,
      "▁cıkardı": 3057,
      "layarak": 3058,
      "▁etmeye": 3059,
      "▁kadınlar": 3060,
      "▁umut": 3061,
      "▁hızla": 3062,
      "▁sikin": 3063,
      "▁gizli": 3064,
      "▁yogun": 3065,
      "▁neredeyse": 3066,
      "tak": 3067,
      "▁suy": 3068,
      "▁verir": 3069,
      "▁aktiv": 3070,
      "▁memph": 3071,
      "▁kapalı": 3072,
      "▁gene": 3073,
      "▁surec": 3074,
      "▁arttı": 3075,
      "sizlik": 3076,
      "tre": 3077,
      "▁dokun": 3078,
      "▁ihtiyar": 3079,
      "▁sehr": 3080,
      "▁olduguna": 3081,
      "▁reddetti": 3082,
      "▁fotograf": 3083,
      "▁memphis": 3084,
      "▁gum": 3085,
      "ori": 3086,
      "ısız": 3087,
      "▁fut": 3088,
      "▁alıp": 3089,
      "▁goruyor": 3090,
      "▁isin": 3091,
      "▁ener": 3092,
      "▁sans": 3093,
      "▁elbet": 3094,
      "▁yasadı": 3095,
      "▁dow": 3096,
      "▁kapsam": 3097,
      "▁bulunuyor": 3098,
      "▁gozlerini": 3099,
      "▁hayır": 3100,
      "▁kanun": 3101,
      "▁sırada": 3102,
      "▁kendine": 3103,
      "'yı": 3104,
      "▁ziyaret": 3105,
      "▁tehlik": 3106,
      "▁lou": 3107,
      "taki": 3108,
      "▁sasır": 3109,
      "▁duzel": 3110,
      "onu": 3111,
      "▁po": 3112,
      "dugunu": 3113,
      "▁edip": 3114,
      "tıyor": 3115,
      "▁ets": 3116,
      "▁isten": 3117,
      "alıgı": 3118,
      "▁bunların": 3119,
      "▁wall": 3120,
      "▁prof": 3121,
      "▁konustu": 3122,
      "▁imz": 3123,
      "▁merkezine": 3124,
      "▁kamu": 3125,
      "▁resim": 3126,
      "▁tesekkurler": 3127,
      "▁endeks": 3128,
      "▁calisanlar": 3129,
      "▁fikir": 3130,
      "▁imkanlari": 3131,
      "▁analistler": 3132,
      "▁cicek": 3133,
      "▁jones": 3134,
      "75": 3135,
      "bah": 3136,
      "▁suz": 3137,
      "▁gr": 3138,
      "▁tec": 3139,
      "▁ted": 3140,
      "▁cinc": 3141,
      "aması": 3142,
      "elerine": 3143,
      "▁koca": 3144,
      "▁seyden": 3145,
      "▁yasa": 3146,
      "▁haval": 3147,
      "▁ekledi": 3148,
      "▁katkı": 3149,
      "▁tanı": 3150,
      "▁kırk": 3151,
      "▁gerceklestir": 3152,
      "▁televizyon": 3153,
      "▁edeb": 3154,
      "▁ustu": 3155,
      "▁bitir": 3156,
      "▁karıstır": 3157,
      "▁peters": 3158,
      "▁toplantı": 3159,
      "▁strate": 3160,
      "▁street": 3161,
      "▁mavi": 3162,
      "▁operasyon": 3163,
      "can": 3164,
      "▁key": 3165,
      "▁kayı": 3166,
      "ile": 3167,
      "ınc": 3168,
      "aklı": 3169,
      "isindan": 3170,
      "▁hij": 3171,
      "▁mul": 3172,
      "atif": 3173,
      "ısının": 3174,
      "▁fort": 3175,
      "agına": 3176,
      "▁alıyor": 3177,
      "▁isim": 3178,
      "▁yılda": 3179,
      "▁worth": 3180,
      "▁uretim": 3181,
      "▁kendisini": 3182,
      "▁resmi": 3183,
      "▁guleryuzluydu": 3184,
      "▁milwaukee'den": 3185,
      "innati": 3186,
      "▁cincinnati": 3187,
      "fi": 3188,
      "sim": 3189,
      "ardı": 3190,
      "▁kup": 3191,
      "▁suyu": 3192,
      "▁om": 3193,
      "▁tay": 3194,
      "emey": 3195,
      "agını": 3196,
      "▁endis": 3197,
      "▁kov": 3198,
      "uyle": 3199,
      "▁kural": 3200,
      "▁gosteriyor": 3201,
      "▁yerel": 3202,
      "▁asla": 3203,
      "▁bayram": 3204,
      "▁karsılık": 3205,
      "▁yuzu": 3206,
      "▁odaydi": 3207,
      "▁sahn": 3208,
      "▁otelden": 3209,
      "▁ediyoruz": 3210,
      "▁kızı": 3211,
      "▁hastan": 3212,
      "▁takip": 3213,
      "▁itir": 3214,
      "▁basarılı": 3215,
      "▁vakit": 3216,
      "\\/8": 3217,
      "▁girisim": 3218,
      "▁montre": 3219,
      "▁heyecan": 3220,
      "▁futbol": 3221,
      "▁montreal": 3222,
      "bus": 3223,
      "layıp": 3224,
      "ni": 3225,
      "sem": 3226,
      "unc": 3227,
      "isler": 3228,
      "▁ci": 3229,
      "esem": 3230,
      "amaya": 3231,
      "urken": 3232,
      "▁fi": 3233,
      "ılacak": 3234,
      "▁soylen": 3235,
      "uyorlar": 3236,
      "▁durgun": 3237,
      "▁jos": 3238,
      "▁gerektigini": 3239,
      "▁yuksekti": 3240,
      "▁havayolu": 3241,
      "▁1989": 3242,
      "▁birbirine": 3243,
      "▁ailelere": 3244,
      "▁sigort": 3245,
      "▁madd": 3246,
      "▁yaptirdi": 3247,
      "▁ogretmen": 3248,
      "▁itibaren": 3249,
      "▁louis": 3250,
      "▁hijyen": 3251,
      "mini": 3252,
      "▁doy": 3253,
      "ens": 3254,
      "▁obur": 3255,
      "ıklı": 3256,
      "▁yapı": 3257,
      "▁aktif": 3258,
      "▁dondu": 3259,
      "▁durumu": 3260,
      "▁yuzden": 3261,
      "▁dogal": 3262,
      "▁fransız": 3263,
      "▁yolc": 3264,
      "ihaz": 3265,
      "▁yorgun": 3266,
      "▁kazandı": 3267,
      "▁yalan": 3268,
      "▁sıkı": 3269,
      "▁uluslar": 3270,
      "▁kurumsal": 3271,
      "▁pahaliydi": 3272,
      "▁mayıs": 3273,
      "▁sermaye": 3274,
      "lulu": 3275,
      "mal": 3276,
      "ug": 3277,
      "isel": 3278,
      "ond": 3279,
      "amıyor": 3280,
      "iki": 3281,
      "▁dep": 3282,
      "dul": 3283,
      "▁nit": 3284,
      "▁ilan": 3285,
      "▁baslan": 3286,
      "▁ucusa": 3287,
      "elerinde": 3288,
      "▁ettiler": 3289,
      "▁vermis": 3290,
      "ilerini": 3291,
      "maktan": 3292,
      "▁oranı": 3293,
      "▁acisindan": 3294,
      "▁gunku": 3295,
      "lıkla": 3296,
      "▁ederek": 3297,
      "▁yerinde": 3298,
      "▁asırı": 3299,
      "▁seker": 3300,
      "abilecek": 3301,
      "▁soh": 3302,
      "▁tahviller": 3303,
      "▁dusuktu": 3304,
      "▁mukemmeldi": 3305,
      "▁hastalık": 3306,
      "▁misafirimiz": 3307,
      "▁miktar": 3308,
      "▁kuzey": 3309,
      "▁fayd": 3310,
      "▁ilgisiz": 3311,
      "▁zevk": 3312,
      "meleri": 3313,
      "▁beb": 3314,
      "▁yasıyor": 3315,
      "orta": 3316,
      "▁ton": 3317,
      "isim": 3318,
      "▁yaptık": 3319,
      "▁gidip": 3320,
      "mıslar": 3321,
      "manı": 3322,
      "▁uyum": 3323,
      "▁eser": 3324,
      "▁suph": 3325,
      "▁sordu": 3326,
      "▁harika": 3327,
      "▁milyondan": 3328,
      "▁cekti": 3329,
      "▁sabit": 3330,
      "▁bazıları": 3331,
      "▁bıraktı": 3332,
      "▁konuda": 3333,
      "▁spor": 3334,
      "▁laf": 3335,
      "▁ornek": 3336,
      "ide": 3337,
      "lo": 3338,
      "tum": 3339,
      "tılı": 3340,
      "yıl": 3341,
      "▁sesi": 3342,
      "ene": 3343,
      "▁hur": 3344,
      "ursuz": 3345,
      "▁peyn": 3346,
      "▁niyet": 3347,
      "▁rus": 3348,
      "▁rec": 3349,
      "▁anad": 3350,
      "▁soyler": 3351,
      "'ndan": 3352,
      "▁test": 3353,
      "▁memur": 3354,
      "▁23": 3355,
      "▁general": 3356,
      "▁bulmak": 3357,
      "▁esn": 3358,
      "▁31": 3359,
      "▁35": 3360,
      "▁yola": 3361,
      "▁korku": 3362,
      "▁gereken": 3363,
      "lige": 3364,
      "ligin": 3365,
      "▁baba": 3366,
      "▁emin": 3367,
      "▁york'tan": 3368,
      "▁kurulus": 3369,
      "▁olmadıgı": 3370,
      "▁yagmur": 3371,
      "▁isletme": 3372,
      "▁iddia": 3373,
      "▁paul": 3374,
      "▁civar": 3375,
      "cisi": 3376,
      "ub": 3377,
      "▁kası": 3378,
      "ende": 3379,
      "alanı": 3380,
      "▁cir": 3381,
      "▁olc": 3382,
      "▁alabilir": 3383,
      "▁kalmıs": 3384,
      "▁elb": 3385,
      "▁tesisten": 3386,
      "▁asıl": 3387,
      "▁yans": 3388,
      "▁memnunum": 3389,
      "▁hizmetleri": 3390,
      "▁uzerindeki": 3391,
      "▁196": 3392,
      "▁duyg": 3393,
      "inizi": 3394,
      "▁hasta": 3395,
      "▁yukselt": 3396,
      "▁ithal": 3397,
      "▁yemeklerinden": 3398,
      "▁dogrudan": 3399,
      "▁sınıfı": 3400,
      "▁muhtesem": 3401,
      "bank": 3402,
      "▁almanya": 3403,
      "▁odamiz": 3404,
      "▁insaat": 3405,
      "▁bilmiyorum": 3406,
      "▁malzem": 3407,
      "▁edebiyat": 3408,
      ".0": 3409,
      "das": 3410,
      "yn": 3411,
      "▁eki": 3412,
      "▁gev": 3413,
      "▁tim": 3414,
      "▁mol": 3415,
      "ısın": 3416,
      "uluyor": 3417,
      "dılar": 3418,
      "▁kalp": 3419,
      "▁basv": 3420,
      "▁verim": 3421,
      "evi": 3422,
      "lastı": 3423,
      "▁biles": 3424,
      "laması": 3425,
      "▁yerles": 3426,
      "▁baktı": 3427,
      "▁ekip": 3428,
      "▁kulak": 3429,
      "▁fiyatlar": 3430,
      "▁sorunu": 3431,
      "ediye": 3432,
      "bire": 3433,
      "▁onceden": 3434,
      "acılar": 3435,
      "▁dokuz": 3436,
      "▁duzey": 3437,
      "▁kalkıyor": 3438,
      "▁anlamda": 3439,
      "▁herkesin": 3440,
      "▁komp": 3441,
      "▁havaalanı": 3442,
      "▁oyuncu": 3443,
      "▁sonraki": 3444,
      "▁musteri": 3445,
      "▁adeta": 3446,
      "▁birdenbire": 3447,
      "▁ornegin": 3448,
      "▁titr": 3449,
      "▁kampanyalar": 3450,
      "▁ruzgar": 3451,
      "tas": 3452,
      "▁*": 3453,
      "▁kıl": 3454,
      "▁sız": 3455,
      "▁dısı": 3456,
      "▁yı": 3457,
      "▁yildi": 3458,
      "isyon": 3459,
      "▁civ": 3460,
      "▁poz": 3461,
      "▁bulu": 3462,
      "▁fas": 3463,
      "ital": 3464,
      "▁not": 3465,
      "▁ongor": 3466,
      "lanır": 3467,
      "lıgın": 3468,
      "▁gelip": 3469,
      "▁ins": 3470,
      "▁uzan": 3471,
      "▁sevgil": 3472,
      "▁beklem": 3473,
      "▁ayni": 3474,
      "▁hisset": 3475,
      "▁herkese": 3476,
      "▁eylem": 3477,
      "roit": 3478,
      "▁vegas'a": 3479,
      "▁detroit": 3480,
      "▁anadolu": 3481,
      "▁yildiz": 3482,
      "dil": 3483,
      "ha": 3484,
      "ham": 3485,
      "lisi": 3486,
      "ve": 3487,
      "▁th": 3488,
      "▁hele": 3489,
      "▁cıl": 3490,
      "emiyor": 3491,
      "▁alk": 3492,
      "▁baskı": 3493,
      "▁kapas": 3494,
      "▁hangisi": 3495,
      "▁agız": 3496,
      "▁%1": 3497,
      "▁ortam": 3498,
      "▁west": 3499,
      "▁onunla": 3500,
      "▁buraya": 3501,
      "▁197": 3502,
      "▁koltuk": 3503,
      "▁aksamı": 3504,
      "▁kacın": 3505,
      "▁kıyas": 3506,
      "▁bekleniyor": 3507,
      "▁rekabet": 3508,
      "▁telefonla": 3509,
      "▁olumlu": 3510,
      "▁yumus": 3511,
      "▁bildirdi": 3512,
      "▁kendimi": 3513,
      "▁konforlu": 3514,
      "▁kongre": 3515,
      "▁orlando'ya": 3516,
      "▁tezgah": 3517,
      "▁sovyet": 3518,
      "▁seattle'ye": 3519,
      "▁fabrik": 3520,
      "▁ideal": 3521,
      "'le": 3522,
      "br": 3523,
      "dam": 3524,
      "▁tuc": 3525,
      "▁hab": 3526,
      "esin": 3527,
      "▁vucu": 3528,
      "▁pasa": 3529,
      "▁far": 3530,
      "▁rest": 3531,
      "▁isler": 3532,
      "alarla": 3533,
      "▁istik": 3534,
      "▁konusu": 3535,
      "▁gecik": 3536,
      "ustuk": 3537,
      "▁attı": 3538,
      "▁yılı": 3539,
      "▁yukselerek": 3540,
      "▁sirketler": 3541,
      "▁harik": 3542,
      "asyonu": 3543,
      "sizdi": 3544,
      "▁ettigi": 3545,
      "sızlık": 3546,
      "▁borsa": 3547,
      "▁davet": 3548,
      "▁sizi": 3549,
      "▁yardımcısı": 3550,
      "▁tarihi": 3551,
      "▁bununla": 3552,
      "▁doları'na": 3553,
      "▁sigorta": 3554,
      "▁oakland'dan": 3555,
      "▁milwaukee'ye": 3556,
      "▁vazgec": 3557,
      "▁kayıt": 3558,
      "cileri": 3559,
      "mustur": 3560,
      "ruk": 3561,
      "ern": 3562,
      "▁kısı": 3563,
      "▁ye": 3564,
      "alle": 3565,
      "▁ceb": 3566,
      "▁mc": 3567,
      "▁nik": 3568,
      "▁rol": 3569,
      "▁zay": 3570,
      "elerden": 3571,
      "▁lis": 3572,
      "lamaya": 3573,
      "▁oldugum": 3574,
      "▁ikisi": 3575,
      "egini": 3576,
      "dikten": 3577,
      "▁yasama": 3578,
      "diginde": 3579,
      "▁evi": 3580,
      "ediler": 3581,
      "▁bakıyor": 3582,
      "0000": 3583,
      "▁3/": 3584,
      "▁hayvan": 3585,
      "masının": 3586,
      "▁acıklan": 3587,
      "▁ederiz": 3588,
      "ıldıgını": 3589,
      "▁yuruy": 3590,
      "▁saray": 3591,
      "▁askeri": 3592,
      "▁kumas": 3593,
      "▁mahkeme": 3594,
      "▁cocugun": 3595,
      "▁dc'ye": 3596,
      "▁bogaz": 3597,
      "▁yuvar": 3598,
      "▁galib": 3599,
      "▁miami'ye": 3600,
      "▁havalim": 3601,
      "▁petersburg": 3602,
      "gim": 3603,
      "rum": 3604,
      "ire": 3605,
      "▁oc": 3606,
      "▁ote": 3607,
      "ale": 3608,
      "onik": 3609,
      "▁oldum": 3610,
      "ısıyla": 3611,
      "▁alıcı": 3612,
      "▁varsa": 3613,
      "▁istih": 3614,
      "▁konak": 3615,
      "▁yasak": 3616,
      "▁tuttu": 3617,
      "▁40": 3618,
      "▁duyar": 3619,
      "▁amerika": 3620,
      "▁kalkıs": 3621,
      "▁kisisel": 3622,
      "▁stok": 3623,
      "▁ayakk": 3624,
      "▁havaalan": 3625,
      "ebilecek": 3626,
      "▁bush": 3627,
      "▁efendi": 3628,
      "▁sipar": 3629,
      "▁zayif": 3630,
      "cılık": 3631,
      "ere": 3632,
      "▁kel": 3633,
      "aladı": 3634,
      "▁tıp": 3635,
      "▁cır": 3636,
      "etin": 3637,
      "emin": 3638,
      "▁fıs": 3639,
      "▁karanlık": 3640,
      "alardan": 3641,
      "▁gib": 3642,
      "medigini": 3643,
      "▁organ": 3644,
      "▁ig": 3645,
      "▁otuz": 3646,
      "▁californ": 3647,
      "▁tutun": 3648,
      "▁ettigini": 3649,
      "▁nash": 3650,
      "▁anne": 3651,
      "▁bizimle": 3652,
      "▁kopek": 3653,
      "▁etkil": 3654,
      "▁seviyesine": 3655,
      "▁bicim": 3656,
      "▁normaldi": 3657,
      "▁uluslararası": 3658,
      "bat": 3659,
      "gen": 3660,
      "kel": 3661,
      "oma": 3662,
      "uv": 3663,
      "west": 3664,
      "▁bl": 3665,
      "▁beye": 3666,
      "anda": 3667,
      "▁sm": 3668,
      "▁dagıt": 3669,
      "▁utan": 3670,
      "istik": 3671,
      "▁alma": 3672,
      "gileri": 3673,
      "▁kaliforn": 3674,
      "▁basit": 3675,
      "▁gorur": 3676,
      "▁isteyen": 3677,
      "lasyon": 3678,
      "▁geciyor": 3679,
      "ustri": 3680,
      "▁park": 3681,
      "▁parti": 3682,
      "diklerini": 3683,
      "▁aj": 3684,
      "▁halen": 3685,
      "▁tampa": 3686,
      "▁lezzeti": 3687,
      "ıldıgı": 3688,
      "▁kalkıp": 3689,
      "laka": 3690,
      "▁gorunce": 3691,
      "▁cagır": 3692,
      "▁guvenlik": 3693,
      "▁finan": 3694,
      "ohn": 3695,
      "▁siyasi": 3696,
      "▁stratej": 3697,
      "▁california": 3698,
      "bası": 3699,
      "dog": 3700,
      "rim": 3701,
      "tis": 3702,
      "uar": 3703,
      "▁bed": 3704,
      "iski": 3705,
      "▁hin": 3706,
      "▁cur": 3707,
      "▁mir": 3708,
      "▁piy": 3709,
      "▁pac": 3710,
      "ılım": 3711,
      "apur": 3712,
      "▁karak": 3713,
      "▁verecek": 3714,
      "▁konut": 3715,
      "▁yıldız": 3716,
      "▁parca": 3717,
      "▁24": 3718,
      "▁sendik": 3719,
      "▁yetis": 3720,
      "▁azından": 3721,
      "▁dolayı": 3722,
      "▁ozgur": 3723,
      "▁koyun": 3724,
      "▁avuc": 3725,
      "▁simdiye": 3726,
      "tere": 3727,
      "▁merdi": 3728,
      "▁hamam": 3729,
      "▁muzik": 3730,
      "▁yaptirmadim": 3731,
      "▁sikayet": 3732,
      "▁superdi": 3733,
      "▁nakit": 3734,
      "▁yemegi": 3735,
      "▁indianapolis'ten": 3736,
      "▁enflasyon": 3737,
      "▁profes": 3738,
      "▁kısıt": 3739,
      "▁nashville": 3740,
      "aat": 3741,
      "lası": 3742,
      "lılık": 3743,
      "ule": 3744,
      "▁kuy": 3745,
      "asın": 3746,
      "isik": 3747,
      "▁birik": 3748,
      "ese": 3749,
      "lerdir": 3750,
      "▁peki": 3751,
      "▁edi": 3752,
      "▁ilg": 3753,
      "▁kalın": 3754,
      "▁baslıyor": 3755,
      "▁gormedim": 3756,
      "▁yapmaya": 3757,
      "▁ayı": 3758,
      "▁oraya": 3759,
      "▁lond": 3760,
      "▁gunleri": 3761,
      "▁teslim": 3762,
      "▁kurt": 3763,
      "▁buldum": 3764,
      "▁durdur": 3765,
      "veris": 3766,
      "▁azalt": 3767,
      "▁dolay": 3768,
      "▁insanları": 3769,
      "▁john": 3770,
      "▁ucretin": 3771,
      "▁hisseler": 3772,
      "▁ulastı": 3773,
      "▁aldıgı": 3774,
      "▁olacaktır": 3775,
      "▁cogun": 3776,
      "▁lider": 3777,
      "neapolis": 3778,
      "▁mektup": 3779,
      "▁minneapolis": 3780,
      "▁chicago'dan": 3781,
      "▁pilot": 3782,
      "▁international": 3783,
      "▁stand": 3784,
      "▁elbette": 3785,
      "▁jose": 3786,
      "▁tucc": 3787,
      "▁restor": 3788,
      "30": 3789,
      "dek": 3790,
      "yı": 3791,
      "yas": 3792,
      "▁dib": 3793,
      "eniz": 3794,
      "endir": 3795,
      "allı": 3796,
      "▁tef": 3797,
      "▁tren": 3798,
      "▁con": 3799,
      "▁cad": 3800,
      "▁mod": 3801,
      "esel": 3802,
      "▁nam": 3803,
      "▁goren": 3804,
      "▁kart": 3805,
      "mekten": 3806,
      "▁yerini": 3807,
      "▁28": 3808,
      "▁personellerin": 3809,
      "▁oysa": 3810,
      "▁yuzyıl": 3811,
      "▁boyu": 3812,
      "▁fiyatina": 3813,
      "▁gozu": 3814,
      "▁derec": 3815,
      "▁gerekir": 3816,
      "▁adamı": 3817,
      "ımıza": 3818,
      "▁kasab": 3819,
      "▁satısları": 3820,
      "madıgını": 3821,
      "▁teklifi": 3822,
      "cilerin": 3823,
      "▁karısık": 3824,
      "▁sinem": 3825,
      "▁olumsuz": 3826,
      "▁urunleri": 3827,
      "▁cocugu": 3828,
      "▁hacim": 3829,
      "▁savunma": 3830,
      "▁manzar": 3831,
      "▁muhtemelen": 3832,
      "cilik": 3833,
      "d.": 3834,
      "dat": 3835,
      "his": 3836,
      "o'nun": 3837,
      "▁ec": 3838,
      "▁bez": 3839,
      "▁gemi": 3840,
      "▁odan": 3841,
      "▁terk": 3842,
      "▁birini": 3843,
      "use": 3844,
      "▁anay": 3845,
      "▁gorduk": 3846,
      "▁zam": 3847,
      "elerle": 3848,
      "▁degillerdi": 3849,
      "ustum": 3850,
      "▁eli": 3851,
      "▁temin": 3852,
      "▁yerden": 3853,
      "▁buyum": 3854,
      "▁sozcu": 3855,
      "▁edebilir": 3856,
      "▁uygundu": 3857,
      "▁mutf": 3858,
      "▁etkin": 3859,
      "▁irak": 3860,
      "▁donemde": 3861,
      "▁teknik": 3862,
      "▁garip": 3863,
      "▁tasarru": 3864,
      "▁colum": 3865,
      "▁tokyo": 3866,
      "▁toronto'dan": 3867,
      "▁bilesik": 3868,
      "▁harikaydi": 3869,
      "'lik": 3870,
      "bin": 3871,
      "fe": 3872,
      "gır": 3873,
      "hi": 3874,
      "our": 3875,
      "▁sif": 3876,
      "▁som": 3877,
      "▁yit": 3878,
      "und": 3879,
      "▁cig": 3880,
      "▁birligi": 3881,
      "atlar": 3882,
      "▁pla": 3883,
      "ulur": 3884,
      "▁ep": 3885,
      "▁ex": 3886,
      "dıgım": 3887,
      "▁basın": 3888,
      "▁basbak": 3889,
      "▁zir": 3890,
      "▁yapmayı": 3891,
      "▁veril": 3892,
      "▁aks": 3893,
      "▁kuru": 3894,
      "▁paraya": 3895,
      "▁yeri": 3896,
      "▁29": 3897,
      "▁yanına": 3898,
      "▁dondur": 3899,
      "▁adamın": 3900,
      "ecegiz": 3901,
      "▁piyasası": 3902,
      "▁amerikalı": 3903,
      "▁mutlaka": 3904,
      "▁hoc": 3905,
      "▁fırsat": 3906,
      "▁pahali": 3907,
      "▁dakik": 3908,
      "▁nihayet": 3909,
      "leyebilir": 3910,
      "▁gunduz": 3911,
      "▁kapasit": 3912,
      "▁ayakkabı": 3913,
      "mey": 3914,
      "par": 3915,
      "▁seye": 3916,
      "akende": 3917,
      "▁tad": 3918,
      "▁toz": 3919,
      "isleri": 3920,
      "▁cos": 3921,
      "▁val": 3922,
      "▁vası": 3923,
      "usunun": 3924,
      "adir": 3925,
      "ıstı": 3926,
      "aci": 3927,
      "▁ilgisi": 3928,
      "▁kalem": 3929,
      "▁karı": 3930,
      "▁kararı": 3931,
      "▁zey": 3932,
      "ilerdi": 3933,
      "▁bilg": 3934,
      "ucuk": 3935,
      "▁dusen": 3936,
      "▁acıldı": 3937,
      "tep": 3938,
      "acaktır": 3939,
      "▁elini": 3940,
      "lıktan": 3941,
      "▁tesv": 3942,
      "▁yasındaki": 3943,
      "lemeye": 3944,
      "eder": 3945,
      "▁belg": 3946,
      "▁zamanlarda": 3947,
      "▁calısma": 3948,
      "▁fazlay": 3949,
      "▁oks": 3950,
      "▁tasım": 3951,
      "▁secen": 3952,
      "dıktan": 3953,
      "▁dunyada": 3954,
      "▁turkiye'de": 3955,
      "▁turkiye'nin": 3956,
      "▁parcası": 3957,
      "▁cabuk": 3958,
      "▁renkli": 3959,
      "▁muduru": 3960,
      "▁temmuz'da": 3961,
      "▁lira": 3962,
      "▁diego'ya": 3963,
      "▁idare": 3964,
      "▁tiyatro": 3965,
      "▁kahvalti": 3966,
      "▁duzelt": 3967,
      "▁hijyenik": 3968,
      "▁kasıgı": 3969,
      "▁tasarruf": 3970,
      "cılı": 3971,
      "har": 3972,
      "ry": 3973,
      "ugu": 3974,
      "▁0": 3975,
      "▁bet": 3976,
      "▁huc": 3977,
      "iyon": 3978,
      "▁mim": 3979,
      "urlar": 3980,
      "▁paket": 3981,
      "ımın": 3982,
      "oyu": 3983,
      "▁zinc": 3984,
      "▁yaptır": 3985,
      "elerinden": 3986,
      "larındaki": 3987,
      "▁kadının": 3988,
      "▁elinden": 3989,
      "▁olmadan": 3990,
      "▁olmustur": 3991,
      "▁cıkıyor": 3992,
      "▁tesisi": 3993,
      "▁yıldır": 3994,
      "▁yoksa": 3995,
      "▁adi": 3996,
      "▁duran": 3997,
      "▁gozlem": 3998,
      "▁sair": 3999,
      "▁serb": 4000,
      "▁sevin": 4001,
      "▁ediyorlar": 4002,
      "acagına": 4003,
      "▁45": 4004,
      "▁gerekli": 4005,
      "▁gerektir": 4006,
      "▁tasın": 4007,
      "ımızı": 4008,
      "ecegine": 4009,
      "▁bulundugu": 4010,
      "▁hakkinda": 4011,
      "▁canlı": 4012,
      "▁mantık": 4013,
      "▁perakende": 4014,
      "▁kavram": 4015,
      "▁olmustu": 4016,
      "▁1990": 4017,
      "▁chicago'ya": 4018,
      "▁phoenix'den": 4019,
      "▁bono": 4020,
      "▁bahseder": 4021,
      "▁delikanlı": 4022,
      "▁mulk": 4023,
      "▁standart": 4024,
      "ow": 4025,
      "tın": 4026,
      "ala": 4027,
      "▁tv": 4028,
      "amb": 4029,
      "amet": 4030,
      "▁nuf": 4031,
      "ulen": 4032,
      "▁ila": 4033,
      "▁rob": 4034,
      "▁kalma": 4035,
      "lıgına": 4036,
      "▁zeh": 4037,
      "▁yapılmıs": 4038,
      "▁gelin": 4039,
      "▁verin": 4040,
      "ilerine": 4041,
      "ilerinin": 4042,
      "▁ordu": 4043,
      "▁acısından": 4044,
      "▁yarar": 4045,
      "▁com": 4046,
      "▁bulus": 4047,
      "▁buldu": 4048,
      "▁personelin": 4049,
      "▁yakal": 4050,
      "▁fiyatlarını": 4051,
      "▁devir": 4052,
      "▁yolda": 4053,
      "▁yonlendir": 4054,
      "▁sekl": 4055,
      "▁korum": 4056,
      "▁koylu": 4057,
      "▁lezzetliydi": 4058,
      "▁muhaf": 4059,
      "▁dusundu": 4060,
      "▁dusunmuyor": 4061,
      "▁milyardan": 4062,
      "▁ulasıl": 4063,
      "▁kamyon": 4064,
      "▁barıs": 4065,
      "▁polis": 4066,
      "▁makal": 4067,
      "▁eyalet": 4068,
      "tigim": 4069,
      "▁hoca": 4070,
      "▁belirtti": 4071,
      "▁dususle": 4072,
      "▁ceyrekte": 4073,
      "▁nefes": 4074,
      "▁tacoma": 4075,
      "▁ertesi": 4076,
      "▁zayifti": 4077,
      "'la": 4078,
      "tısı": 4079,
      "erin": 4080,
      "▁kılı": 4081,
      "▁suk": 4082,
      "alik": 4083,
      "aseb": 4084,
      "lardır": 4085,
      "eld": 4086,
      "▁hel": 4087,
      "▁ceh": 4088,
      "▁fat": 4089,
      "ımdan": 4090,
      "▁nic": 4091,
      "▁north": 4092,
      "agında": 4093,
      "▁ucan": 4094,
      "iyoruz": 4095,
      "▁baslayan": 4096,
      "▁iyil": 4097,
      "ilerden": 4098,
      "▁dusmus": 4099,
      "▁adını": 4100,
      "▁adina": 4101,
      "▁asık": 4102,
      "▁suru": 4103,
      "▁arasına": 4104,
      "▁frank": 4105,
      "ladıgı": 4106,
      "▁keskin": 4107,
      "▁dudak": 4108,
      "▁koyu": 4109,
      "▁kacır": 4110,
      "▁edebil": 4111,
      "▁emir": 4112,
      "▁kisinin": 4113,
      "▁arkadaslar": 4114,
      "▁cozum": 4115,
      "▁kocaman": 4116,
      "▁ceza": 4117,
      "▁dogrusu": 4118,
      "▁eglenc": 4119,
      "▁tehdi": 4120,
      "▁kalabalık": 4121,
      "▁baslangıc": 4122,
      "▁yildizli": 4123,
      "▁kaliforniya": 4124,
      "▁serbest": 4125,
      "ck": 4126,
      "meyecek": 4127,
      "arım": 4128,
      "▁bro": 4129,
      "an'ın": 4130,
      "▁dip": 4131,
      "▁damak": 4132,
      "akar": 4133,
      "▁hul": 4134,
      "▁celik": 4135,
      "▁birtak": 4136,
      "▁mel": 4137,
      "▁vapur": 4138,
      "usuz": 4139,
      "emedi": 4140,
      "ırken": 4141,
      "iti": 4142,
      "▁ef": 4143,
      "▁ilav": 4144,
      "▁icinden": 4145,
      "▁yaprak": 4146,
      "'ne": 4147,
      "▁yarıs": 4148,
      "▁uyar": 4149,
      "▁uyku": 4150,
      "▁evlen": 4151,
      "▁yanıt": 4152,
      "▁esit": 4153,
      "▁zamanı": 4154,
      "▁hakim": 4155,
      "masından": 4156,
      "▁tanrı": 4157,
      "▁yemeklerden": 4158,
      "▁hakkı": 4159,
      "▁kral": 4160,
      "▁merkezli": 4161,
      "▁babası": 4162,
      "▁masraf": 4163,
      "▁mesaj": 4164,
      "▁gulum": 4165,
      "▁harcam": 4166,
      "▁geor": 4167,
      "▁osmanlı": 4168,
      "▁civarında": 4169,
      "▁acıklanmadı": 4170,
      "▁londra": 4171,
      "▁birtakım": 4172,
      "b.": 4173,
      "cık": 4174,
      "cev": 4175,
      "lasıyor": 4176,
      "nam": 4177,
      "rika": 4178,
      "yal": 4179,
      "▁lan": 4180,
      "ert": 4181,
      "anları": 4182,
      "▁omuz": 4183,
      "alya": 4184,
      "unlu": 4185,
      "akal": 4186,
      "▁tul": 4187,
      "▁hadi": 4188,
      "▁birinde": 4189,
      "▁med": 4190,
      "▁pir": 4191,
      "▁olun": 4192,
      "▁olası": 4193,
      "agi": 4194,
      "▁ucaga": 4195,
      "▁alay": 4196,
      "▁raf": 4197,
      "▁1\\/": 4198,
      "▁sonu": 4199,
      "▁nev": 4200,
      "▁gelince": 4201,
      "▁ayar": 4202,
      "ersin": 4203,
      "▁oradan": 4204,
      "▁deney": 4205,
      "▁oldular": 4206,
      "▁gunun": 4207,
      "▁gunde": 4208,
      "▁kodu": 4209,
      "▁kursun": 4210,
      "cıları": 4211,
      "▁beyin": 4212,
      "imizde": 4213,
      "▁odeme": 4214,
      "▁cocukları": 4215,
      "▁ihtim": 4216,
      "▁tahta": 4217,
      "▁kanıt": 4218,
      "▁koydu": 4219,
      "▁sırasında": 4220,
      "▁kırık": 4221,
      "▁yurut": 4222,
      "▁belirli": 4223,
      "abilmek": 4224,
      "▁bahce": 4225,
      "▁bahset": 4226,
      "▁misiniz": 4227,
      "▁perd": 4228,
      "▁anlamına": 4229,
      "▁bardak": 4230,
      "▁icerisinde": 4231,
      "▁tahvilleri": 4232,
      "▁iri": 4233,
      "▁yeterince": 4234,
      "▁paylas": 4235,
      "▁basarısız": 4236,
      "▁sigara": 4237,
      "▁calisan": 4238,
      "▁devral": 4239,
      "▁brit": 4240,
      "▁davranıs": 4241,
      "▁agustos'ta": 4242,
      "▁arastırma": 4243,
      "▁meclis": 4244,
      "▁eglence": 4245,
      "▁mezar": 4246,
      "▁bagımsız": 4247,
      "▁tedavul": 4248,
      "▁enerji": 4249,
      "▁basvur": 4250,
      "▁merdiven": 4251,
      "ron": 4252,
      "sik": 4253,
      "yası": 4254,
      "eliydi": 4255,
      "▁birisi": 4256,
      "▁vah": 4257,
      "emis": 4258,
      "▁ual": 4259,
      "iciler": 4260,
      "ultu": 4261,
      "▁aldım": 4262,
      "▁aray": 4263,
      "▁artan": 4264,
      "▁basarı": 4265,
      "▁daima": 4266,
      "adıgı": 4267,
      "▁denk": 4268,
      "▁eline": 4269,
      "▁gunlerde": 4270,
      "▁seyir": 4271,
      "▁aday": 4272,
      "▁yoktur": 4273,
      "▁kapıyı": 4274,
      "▁uyustur": 4275,
      "▁suren": 4276,
      "▁durdu": 4277,
      "▁belediye": 4278,
      "▁3.": 4279,
      "▁sirketleri": 4280,
      "▁haric": 4281,
      "▁prot": 4282,
      "▁sozu": 4283,
      "▁kisiler": 4284,
      "▁ayakta": 4285,
      "▁ifad": 4286,
      "▁bankası": 4287,
      "▁sonrasında": 4288,
      "▁hacmi": 4289,
      "▁kimsenin": 4290,
      "▁ankete": 4291,
      "▁komisyonu": 4292,
      "▁detay": 4293,
      "▁dostu": 4294,
      "▁sikinti": 4295,
      "▁katkıda": 4296,
      "▁galiba": 4297,
      "▁tesvik": 4298,
      "▁bahsederim": 4299,
      "diniz": 4300,
      "gımı": 4301,
      "layı": 4302,
      "rah": 4303,
      "sey": 4304,
      "erdi": 4305,
      "enn": 4306,
      "unt": 4307,
      "ons": 4308,
      "atın": 4309,
      "▁pal": 4310,
      "▁pırıl": 4311,
      "▁buk": 4312,
      "▁aran": 4313,
      "▁basa": 4314,
      "▁baslar": 4315,
      "▁basladım": 4316,
      "tıcı": 4317,
      "▁zaf": 4318,
      "▁yapmıs": 4319,
      "▁sonuna": 4320,
      "▁gelmedi": 4321,
      "▁varacak": 4322,
      "▁verildi": 4323,
      "▁bilmem": 4324,
      "ıyoruz": 4325,
      "▁org": 4326,
      "likler": 4327,
      "▁cıkıs": 4328,
      "ege": 4329,
      "eginde": 4330,
      "▁yerlestir": 4331,
      "▁yararlan": 4332,
      "larınız": 4333,
      "diginiz": 4334,
      "▁durus": 4335,
      "▁oglen": 4336,
      "▁oglum": 4337,
      "▁insanı": 4338,
      "▁burbank": 4339,
      "▁ucretleri": 4340,
      "lattı": 4341,
      "▁koltu": 4342,
      "▁lezzetleri": 4343,
      "iber": 4344,
      "▁nedeni": 4345,
      "▁unlu": 4346,
      "▁kriz": 4347,
      "▁barda": 4348,
      "▁sıc": 4349,
      "▁dile": 4350,
      "▁komsu": 4351,
      "▁duzenlem": 4352,
      "▁iliskiler": 4353,
      "▁haberdar": 4354,
      "▁nerede": 4355,
      "▁cins": 4356,
      "▁golg": 4357,
      "▁tırman": 4358,
      "▁bilimsel": 4359,
      "▁pisir": 4360,
      "▁a.b.": 4361,
      "▁beach": 4362,
      "▁keyif": 4363,
      "▁fazlaydi": 4364,
      "cag": 4365,
      "ner": 4366,
      "ood": 4367,
      "ze": 4368,
      "▁seri": 4369,
      "▁deli": 4370,
      "▁tey": 4371,
      "▁cim": 4372,
      "▁birey": 4373,
      "▁vol": 4374,
      "▁pop": 4375,
      "▁bug": 4376,
      "ica": 4377,
      "uklu": 4378,
      "▁eh": 4379,
      "▁rah": 4380,
      "▁zih": 4381,
      "▁etmez": 4382,
      "▁orman": 4383,
      "▁geceleri": 4384,
      "▁gecici": 4385,
      "▁acaba": 4386,
      "▁sanayi": 4387,
      "▁olanlar": 4388,
      "▁elli": 4389,
      "▁olmay": 4390,
      "▁yıllarda": 4391,
      "ecektir": 4392,
      "▁buyume": 4393,
      "▁hizmetten": 4394,
      "▁arttır": 4395,
      "▁sorustur": 4396,
      "ladılar": 4397,
      "▁sevinc": 4398,
      "▁yont": 4399,
      "▁calısmalar": 4400,
      "▁giriste": 4401,
      "▁500": 4402,
      "▁korkun": 4403,
      "ımızda": 4404,
      "▁hissesi": 4405,
      "▁merkeze": 4406,
      "▁yaygın": 4407,
      "▁ediliyor": 4408,
      "▁ulke": 4409,
      "▁darb": 4410,
      "▁programı": 4411,
      "▁yiyecekler": 4412,
      "▁ugras": 4413,
      "▁analiz": 4414,
      "▁fener": 4415,
      "▁yuzluydu": 4416,
      "▁degerlendiririm": 4417,
      "▁bakanlıgı": 4418,
      "▁charlotte'den": 4419,
      "▁newark'tan": 4420,
      "▁defter": 4421,
      "▁taze": 4422,
      "▁geriledi": 4423,
      "▁ilave": 4424,
      "cının": 4425,
      "ebi": 4426,
      "liligi": 4427,
      "ris": 4428,
      "yum": 4429,
      "▁bacak": 4430,
      "inal": 4431,
      "oru": 4432,
      "elle": 4433,
      "▁miyim": 4434,
      "adilar": 4435,
      "▁pos": 4436,
      "eyip": 4437,
      "▁dedik": 4438,
      "▁arka": 4439,
      "▁coktan": 4440,
      "▁zav": 4441,
      "▁ettir": 4442,
      "▁bilinc": 4443,
      "erse": 4444,
      "▁herif": 4445,
      "tanın": 4446,
      "▁olmayacak": 4447,
      "▁seyin": 4448,
      "▁adlı": 4449,
      "digine": 4450,
      "▁donan": 4451,
      "▁esas": 4452,
      "▁oyku": 4453,
      "▁degeri": 4454,
      "▁hizmete": 4455,
      "▁yemeklerin": 4456,
      "▁topr": 4457,
      "▁yetistir": 4458,
      "▁kaybol": 4459,
      "▁ortadan": 4460,
      "▁otele": 4461,
      "lukla": 4462,
      "▁5'ten": 4463,
      "▁getiri": 4464,
      "▁getirdi": 4465,
      "▁gitmis": 4466,
      "▁sayf": 4467,
      "▁sayesinde": 4468,
      "▁yurum": 4469,
      "▁nedenle": 4470,
      "▁sıkın": 4471,
      "ligine": 4472,
      "▁masanın": 4473,
      "▁kisilik": 4474,
      "▁eskiden": 4475,
      "dıkları": 4476,
      "▁1987": 4477,
      "▁edilmis": 4478,
      "elendir": 4479,
      "▁sistemi": 4480,
      "▁alısveris": 4481,
      "▁dc'den": 4482,
      "▁alaka": 4483,
      "▁elektronik": 4484,
      "▁meydana": 4485,
      "▁radyo": 4486,
      "▁memphis'ten": 4487,
      "▁peynir": 4488,
      "▁yansıt": 4489,
      "biy": 4490,
      "ding": 4491,
      "gıl": 4492,
      "mada": 4493,
      "madık": 4494,
      "red": 4495,
      "sar": 4496,
      "▁dagı": 4497,
      "ilebilir": 4498,
      "elig": 4499,
      "ona": 4500,
      "▁maz": 4501,
      "amam": 4502,
      "ırda": 4503,
      "azı": 4504,
      "ledigi": 4505,
      "▁alarak": 4506,
      "▁ruy": 4507,
      "▁basından": 4508,
      "▁nez": 4509,
      "▁isra": 4510,
      "▁verici": 4511,
      "▁denet": 4512,
      "▁mill": 4513,
      "▁otob": 4514,
      "uydu": 4515,
      "▁yıla": 4516,
      "▁yasay": 4517,
      "▁yasayan": 4518,
      "▁tarz": 4519,
      "▁donuyor": 4520,
      "▁yuzune": 4521,
      "▁soylediler": 4522,
      "▁odada": 4523,
      "▁odadan": 4524,
      "lerindeki": 4525,
      "▁serin": 4526,
      "masında": 4527,
      "▁genelde": 4528,
      "▁muhal": 4529,
      "▁aksama": 4530,
      "▁savası": 4531,
      "mamak": 4532,
      "toru": 4533,
      "mayın": 4534,
      "▁anlattı": 4535,
      "▁kutu": 4536,
      "▁kahvalt": 4537,
      "▁rahatsız": 4538,
      "▁koku": 4539,
      "▁cagr": 4540,
      "▁sonradan": 4541,
      "ova": 4542,
      "▁gazete": 4543,
      "▁mısır": 4544,
      "▁rengi": 4545,
      "▁hepsini": 4546,
      "▁gayrim": 4547,
      "▁newark'a": 4548,
      "▁numaralı": 4549,
      "▁vatand": 4550,
      "▁istedigi": 4551,
      "▁bakımından": 4552,
      "▁istifa": 4553,
      "▁danısman": 4554,
      "▁tedbir": 4555,
      "▁sohbet": 4556,
      "▁pozisyon": 4557,
      "▁yitir": 4558,
      "▁ulasılamadı": 4559,
      "▁uyusturucu": 4560,
      "say": 4561,
      "▁q": 4562,
      "▁bec": 4563,
      "ang": 4564,
      "▁kagı": 4565,
      "▁dosy": 4566,
      "astır": 4567,
      "larımı": 4568,
      "eledi": 4569,
      "ete": 4570,
      "amiz": 4571,
      "ato": 4572,
      "lerimi": 4573,
      "adem": 4574,
      "▁post": 4575,
      "ırtı": 4576,
      "▁oluyordu": 4577,
      "▁bulan": 4578,
      "aguar": 4579,
      "▁eb": 4580,
      "▁aracı": 4581,
      "▁rum": 4582,
      "giler": 4583,
      "▁kalb": 4584,
      "▁kalır": 4585,
      "▁zek": 4586,
      "▁1.5": 4587,
      "▁yapmadı": 4588,
      "▁isv": 4589,
      "▁isleri": 4590,
      "▁geldigi": 4591,
      "▁dahi": 4592,
      "▁benden": 4593,
      "likleri": 4594,
      "▁elem": 4595,
      "▁gunah": 4596,
      "lıklar": 4597,
      "▁olmaya": 4598,
      "▁ikti": 4599,
      "guna": 4600,
      "digimi": 4601,
      "▁esim": 4602,
      "omb": 4603,
      "▁sevgi": 4604,
      "▁ustelik": 4605,
      "▁44": 4606,
      "▁cars": 4607,
      "ımızın": 4608,
      "ildigi": 4609,
      "▁kabil": 4610,
      "▁sayısı": 4611,
      "elikle": 4612,
      "▁degisim": 4613,
      "▁sahiptir": 4614,
      "▁kitabı": 4615,
      "▁camasır": 4616,
      "▁ahmet": 4617,
      "▁sacları": 4618,
      "▁erkekler": 4619,
      "▁devrim": 4620,
      "▁ortalam": 4621,
      "▁ingiltere": 4622,
      "▁dusunuyorum": 4623,
      "▁kalabalik": 4624,
      "▁icecekler": 4625,
      "▁1/2": 4626,
      "▁sorumlu": 4627,
      "▁senetleri": 4628,
      "▁cercev": 4629,
      "▁holding": 4630,
      "▁mucadele": 4631,
      "▁ekibi": 4632,
      "▁cırp": 4633,
      "▁israil": 4634,
      "gal": 4635,
      "memek": 4636,
      "uler": 4637,
      "▁kost": 4638,
      "▁sic": 4639,
      "endis": 4640,
      "asındaki": 4641,
      "▁tım": 4642,
      "▁twa": 4643,
      "ekleri": 4644,
      "ırt": 4645,
      "▁olagan": 4646,
      "ısık": 4647,
      "ack": 4648,
      "▁ny": 4649,
      "▁araya": 4650,
      "▁coktu": 4651,
      "▁kalacak": 4652,
      "▁bastır": 4653,
      "ıza": 4654,
      "▁verdik": 4655,
      "▁lyn": 4656,
      "▁deneme": 4657,
      "▁gunler": 4658,
      "▁gunden": 4659,
      "eyebilir": 4660,
      "▁bakalım": 4661,
      "▁37": 4662,
      "▁dogan": 4663,
      "▁toparlan": 4664,
      "▁yeten": 4665,
      "▁wil": 4666,
      "▁leh": 4667,
      "▁prens": 4668,
      "▁kanada": 4669,
      "▁ettig": 4670,
      "ester": 4671,
      "▁takdir": 4672,
      "▁hisseye": 4673,
      "▁olurdu": 4674,
      "▁kred": 4675,
      "▁binlerce": 4676,
      "▁planı": 4677,
      "▁usul": 4678,
      "▁hayatın": 4679,
      "▁mevz": 4680,
      "▁gelenek": 4681,
      "▁aktarma": 4682,
      "▁kitab": 4683,
      "malıdır": 4684,
      "▁ticarette": 4685,
      "▁odalari": 4686,
      "▁bicimde": 4687,
      "▁ibm": 4688,
      "▁mail": 4689,
      "▁kimseye": 4690,
      "▁felaket": 4691,
      "▁houston'a": 4692,
      "▁husus": 4693,
      "▁kendilerini": 4694,
      "▁teknoloji": 4695,
      "▁gumus": 4696,
      "▁bulut": 4697,
      "▁ajans": 4698,
      "▁epey": 4699,
      "32": 4700,
      "45": 4701,
      "80": 4702,
      "ai": 4703,
      "deydi": 4704,
      "igi": 4705,
      "rill": 4706,
      "ud": 4707,
      "ıda": 4708,
      "▁ste": 4709,
      "▁teb": 4710,
      "▁ca": 4711,
      "etik": 4712,
      "amı": 4713,
      "amadım": 4714,
      "emiyorum": 4715,
      "▁pap": 4716,
      "▁pant": 4717,
      "▁fl": 4718,
      "▁ford": 4719,
      "ılabilir": 4720,
      "▁ucu": 4721,
      "▁icme": 4722,
      "lugunu": 4723,
      "▁ucusun": 4724,
      "▁sonucu": 4725,
      "▁isit": 4726,
      "▁ayse": 4727,
      "▁bileti": 4728,
      "medigi": 4729,
      "▁herhal": 4730,
      "▁sanırım": 4731,
      "▁soylemek": 4732,
      "mekte": 4733,
      "▁aklı": 4734,
      "▁yerinden": 4735,
      "▁cop": 4736,
      "▁otelde": 4737,
      "distan": 4738,
      "▁jaguar": 4739,
      "▁konusuyor": 4740,
      "▁kullanılan": 4741,
      "▁hissedar": 4742,
      "▁adamları": 4743,
      "▁listesini": 4744,
      "leyerek": 4745,
      "▁muhendis": 4746,
      "▁maliyeti": 4747,
      "▁imal": 4748,
      "hane": 4749,
      "▁degerli": 4750,
      "▁10'dan": 4751,
      "▁6'dan": 4752,
      "▁anlama": 4753,
      "▁sıv": 4754,
      "▁tarihinde": 4755,
      "▁harekete": 4756,
      "▁komit": 4757,
      "▁yenil": 4758,
      "▁alındı": 4759,
      "▁muzak": 4760,
      "▁$'dan": 4761,
      "▁pahalı": 4762,
      "▁oldugundan": 4763,
      "▁uygulan": 4764,
      "▁sezon": 4765,
      "▁miami'den": 4766,
      "▁finansal": 4767,
      "▁kısmı": 4768,
      "▁grubu": 4769,
      "▁reform": 4770,
      "▁yolculuk": 4771,
      "▁teminat": 4772,
      "▁zehir": 4773,
      "▁seklinde": 4774,
      "▁herhalde": 4775,
      "dadır": 4776,
      "ger": 4777,
      "hat": 4778,
      "sul": 4779,
      "vek": 4780,
      "ıcak": 4781,
      "▁qu": 4782,
      "▁bıcak": 4783,
      "anti": 4784,
      "▁sch": 4785,
      "▁dans": 4786,
      "altı": 4787,
      "▁hit": 4788,
      "agının": 4789,
      "▁one": 4790,
      "lanması": 4791,
      "▁karn": 4792,
      "▁karab": 4793,
      "▁etmedi": 4794,
      "▁verebilir": 4795,
      "afet": 4796,
      "lasmıs": 4797,
      "▁kadını": 4798,
      "▁sandal": 4799,
      "▁elden": 4800,
      "▁elleri": 4801,
      "▁ellerini": 4802,
      "▁olmasını": 4803,
      "misler": 4804,
      "▁parayı": 4805,
      "▁parlak": 4806,
      "▁uyk": 4807,
      "▁esy": 4808,
      "▁yuzunu": 4809,
      "▁boyut": 4810,
      "▁gozden": 4811,
      "▁dolan": 4812,
      "▁kayde": 4813,
      "▁ortaydi": 4814,
      "▁cesaret": 4815,
      "▁burun": 4816,
      "masın": 4817,
      "▁ucretlerini": 4818,
      "▁fazlas": 4819,
      "▁cesitleri": 4820,
      "▁dugun": 4821,
      "▁41": 4822,
      "▁tanık": 4823,
      "leyip": 4824,
      "▁hasar": 4825,
      "▁hasan": 4826,
      "▁kaba": 4827,
      "▁dusunur": 4828,
      "▁piyasada": 4829,
      "▁oturmus": 4830,
      "▁gucu": 4831,
      "▁tabak": 4832,
      "▁mevsim": 4833,
      "▁dilim": 4834,
      "▁komut": 4835,
      "▁kusur": 4836,
      "▁ulkenin": 4837,
      "▁kafa": 4838,
      "▁bankalar": 4839,
      "▁taleb": 4840,
      "▁istanbul'a": 4841,
      "▁ipot": 4842,
      "▁destekli": 4843,
      "▁garson": 4844,
      "▁seviyesinden": 4845,
      "▁1991": 4846,
      "▁uygulam": 4847,
      "▁asagıda": 4848,
      "larımızı": 4849,
      "ılıgıyla": 4850,
      "▁kelime": 4851,
      "▁sultan": 4852,
      "▁matem": 4853,
      "▁ureticisi": 4854,
      "▁internet": 4855,
      "▁grub": 4856,
      "▁cleveland'dan": 4857,
      "▁mola": 4858,
      "▁yumusak": 4859,
      "▁gibiydi": 4860,
      "▁columbus": 4861,
      "▁zeytin": 4862,
      "▁muhafaz": 4863,
      "▁korkunc": 4864,
      "▁gayrimenkul": 4865,
      "▁becer": 4866,
      "▁pantol": 4867,
      "50": 4868,
      "gumu": 4869,
      "haf": 4870,
      "kil": 4871,
      "laya": 4872,
      "▁siv": 4873,
      "▁dr": 4874,
      "▁dim": 4875,
      "▁goc": 4876,
      "▁traf": 4877,
      "▁vir": 4878,
      "lerimiz": 4879,
      "ems": 4880,
      "umun": 4881,
      "ledim": 4882,
      "▁nob": 4883,
      "▁arm": 4884,
      "▁araz": 4885,
      "▁arap": 4886,
      "▁ani": 4887,
      "▁kalmadı": 4888,
      "▁basta": 4889,
      "▁gormus": 4890,
      "▁karmas": 4891,
      "▁isini": 4892,
      "▁verilm": 4893,
      "▁kons": 4894,
      "ersey": 4895,
      "adıgını": 4896,
      "▁lt": 4897,
      "▁cıkıp": 4898,
      "▁parasını": 4899,
      "▁teker": 4900,
      "▁halka": 4901,
      "▁halihaz": 4902,
      "▁surat": 4903,
      "▁bakır": 4904,
      "▁bakanı": 4905,
      "▁muam": 4906,
      "▁agr": 4907,
      "▁ogl": 4908,
      "▁dogur": 4909,
      "▁dogum": 4910,
      "▁%7": 4911,
      "▁fransa": 4912,
      "▁sever": 4913,
      "▁kaydetti": 4914,
      "▁ortasında": 4915,
      "▁burn": 4916,
      "▁dert": 4917,
      "▁taht": 4918,
      "▁lev": 4919,
      "inize": 4920,
      "▁tanıs": 4921,
      "▁gittim": 4922,
      "▁yuru": 4923,
      "▁sıkıntı": 4924,
      "ment": 4925,
      "▁bahar": 4926,
      "▁chp": 4927,
      "▁taban": 4928,
      "▁firma": 4929,
      "▁firması": 4930,
      "▁umit": 4931,
      "▁devletin": 4932,
      "▁iflas": 4933,
      "▁soluk": 4934,
      "▁karsiladi": 4935,
      "▁dizi": 4936,
      "▁bilgiler": 4937,
      "▁bilgilendir": 4938,
      "▁katılım": 4939,
      "▁tuketici": 4940,
      "▁sarkı": 4941,
      "▁cleveland'a": 4942,
      "baskan": 4943,
      "▁sofr": 4944,
      "▁elbis": 4945,
      "▁insana": 4946,
      "▁hindistan": 4947,
      "▁zincir": 4948,
      "▁lynch": 4949,
      "liler": 4950,
      "nal": 4951,
      "ros": 4952,
      "y's": 4953,
      "▁derken": 4954,
      "▁odul": 4955,
      "▁ce": 4956,
      "▁vet": 4957,
      "usun": 4958,
      "▁isciler": 4959,
      "▁geliyordu": 4960,
      "alarından": 4961,
      "▁konuyu": 4962,
      "cegi": 4963,
      "▁ord": 4964,
      "▁long": 4965,
      "▁acent": 4966,
      "▁geriye": 4967,
      "lıkları": 4968,
      "▁adalet": 4969,
      "▁yargı": 4970,
      "ecekti": 4971,
      "▁aslan": 4972,
      "▁hangileri": 4973,
      "▁uydur": 4974,
      "edeki": 4975,
      "▁personellerden": 4976,
      "▁bakın": 4977,
      "▁odun": 4978,
      "▁sorunun": 4979,
      "ediy": 4980,
      "▁ozen": 4981,
      "▁burası": 4982,
      "▁burokr": 4983,
      "▁tarafı": 4984,
      "▁saatlerde": 4985,
      "▁tavır": 4986,
      "▁etmiyor": 4987,
      "liginden": 4988,
      "▁yonetimi": 4989,
      "▁oturdu": 4990,
      "▁mahalle": 4991,
      "▁demis": 4992,
      "▁60": 4993,
      "▁yaklasimi": 4994,
      "▁merrill": 4995,
      "▁hayatı": 4996,
      "▁barın": 4997,
      "▁kuf": 4998,
      "▁basladılar": 4999,
      "▁vurgul": 5000,
      "▁iceren": 5001,
      "tigimiz": 5002,
      "▁etkilen": 5003,
      "▁alınan": 5004,
      "▁beklenen": 5005,
      "▁karsilama": 5006,
      "olojik": 5007,
      "▁phoenix'e": 5008,
      "▁rehberimiz": 5009,
      "▁felse": 5010,
      "▁dalgalan": 5011,
      "▁portf": 5012,
      "▁yahu": 5013,
      "▁cılgın": 5014,
      "'luk": 5015,
      "bel": 5016,
      "fik": 5017,
      "her": 5018,
      "ker": 5019,
      "lal": 5020,
      "tay": 5021,
      "▁esi": 5022,
      "▁saz": 5023,
      "▁sunu": 5024,
      "▁omer": 5025,
      "▁tev": 5026,
      "amayacak": 5027,
      "▁pam": 5028,
      "▁fe": 5029,
      "▁fiz": 5030,
      "istler": 5031,
      "iyordum": 5032,
      "▁anım": 5033,
      "▁geldim": 5034,
      "▁bilmek": 5035,
      "▁biliyorum": 5036,
      "tansiy": 5037,
      "▁atan": 5038,
      "▁akr": 5039,
      "▁oteki": 5040,
      "lenir": 5041,
      "leniyor": 5042,
      "▁yerli": 5043,
      "▁dom": 5044,
      "rans": 5045,
      "diginden": 5046,
      "▁bulur": 5047,
      "▁donustur": 5048,
      "▁suruk": 5049,
      "▁oyunu": 5050,
      "▁muda": 5051,
      "▁memnunuz": 5052,
      "sanız": 5053,
      "▁ekme": 5054,
      "▁boyun": 5055,
      "▁fiyatlandır": 5056,
      "▁300": 5057,
      "▁odak": 5058,
      "▁seviye": 5059,
      "▁haklı": 5060,
      "▁yolunu": 5061,
      "▁cocuklara": 5062,
      "▁denver'de": 5063,
      "▁yatır": 5064,
      "▁dunku": 5065,
      "acagim": 5066,
      "▁saglamak": 5067,
      "tari": 5068,
      "▁butce": 5069,
      "▁kaliteye": 5070,
      "▁ailesi": 5071,
      "▁saygı": 5072,
      "▁banyo": 5073,
      "tıktan": 5074,
      "▁kahr": 5075,
      "▁planlıyor": 5076,
      "madıgı": 5077,
      "▁yayım": 5078,
      "▁diren": 5079,
      "▁ısrar": 5080,
      "▁ugur": 5081,
      "▁iceriyor": 5082,
      "▁ogrenmek": 5083,
      "▁kavg": 5084,
      "▁kumar": 5085,
      "▁oranları": 5086,
      "▁uzakti": 5087,
      "press": 5088,
      "▁madde": 5089,
      "▁gazetec": 5090,
      "▁garanti": 5091,
      "▁sınav": 5092,
      "▁yumur": 5093,
      "▁yemis": 5094,
      "▁ofis": 5095,
      "▁demektir": 5096,
      "▁201": 5097,
      "▁etrafında": 5098,
      "▁toronto'ya": 5099,
      "▁vegas'tan": 5100,
      "▁uyandır": 5101,
      "▁limon": 5102,
      "▁1/4": 5103,
      "▁haziran'da": 5104,
      "▁gerceklesti": 5105,
      "▁doviz": 5106,
      "▁cıg": 5107,
      "▁mahkemesi": 5108,
      "▁iletisim": 5109,
      "▁aktivite": 5110,
      "▁potansiy": 5111,
      "▁cincinnati'den": 5112,
      "▁itiraz": 5113,
      "▁bebek": 5114,
      "▁alkol": 5115,
      "▁3/4": 5116,
      "▁vasıt": 5117,
      "▁halihazırda": 5118,
      "'li": 5119,
      "au": 5120,
      "liyordu": 5121,
      "yol": 5122,
      "▁sy": 5123,
      "▁gey": 5124,
      "▁birinin": 5125,
      "▁mini": 5126,
      "▁vas": 5127,
      "izasyon": 5128,
      "▁olas": 5129,
      "▁olamaz": 5130,
      "ahi": 5131,
      "ecik": 5132,
      "▁nur": 5133,
      "▁eas": 5134,
      "ınıyor": 5135,
      "▁icra": 5136,
      "▁rev": 5137,
      "▁baslay": 5138,
      "▁ind": 5139,
      "lasma": 5140,
      "▁amc": 5141,
      "▁deneyim": 5142,
      "▁oldugumuz": 5143,
      "▁soyleyebilir": 5144,
      "lıkta": 5145,
      "▁seyre": 5146,
      "▁yargıc": 5147,
      "▁yasal": 5148,
      "▁havada": 5149,
      "▁evine": 5150,
      "▁suya": 5151,
      "ific": 5152,
      "▁yakıs": 5153,
      "▁yakında": 5154,
      "▁hizmetinden": 5155,
      "▁bunlardan": 5156,
      "oth": 5157,
      "ladıgını": 5158,
      "▁sevk": 5159,
      "▁42": 5160,
      "▁kızın": 5161,
      "▁hissediyor": 5162,
      "▁hepimiz": 5163,
      "▁muhab": 5164,
      "▁arkasından": 5165,
      "▁bolun": 5166,
      "▁mesaf": 5167,
      "▁hicbiri": 5168,
      "▁anlamak": 5169,
      "▁yaptıgını": 5170,
      "▁hazırlan": 5171,
      "▁kopar": 5172,
      "▁tutuyor": 5173,
      "▁tuhaf": 5174,
      "▁etkisi": 5175,
      "▁duzenli": 5176,
      "▁doneminde": 5177,
      "▁sonrası": 5178,
      "▁tex": 5179,
      "▁rakip": 5180,
      "▁tepki": 5181,
      "▁politika": 5182,
      "▁duman": 5183,
      "▁derecede": 5184,
      "▁cumhurbaskan": 5185,
      "daydı": 5186,
      "▁goturdu": 5187,
      "▁soguktu": 5188,
      "▁isterim": 5189,
      "▁kilit": 5190,
      "▁emekli": 5191,
      "▁emeklilik": 5192,
      "▁selam": 5193,
      "▁angeles'e": 5194,
      "▁vatan": 5195,
      "▁kosulları": 5196,
      "bahar": 5197,
      "▁hulya": 5198,
      "▁zavallı": 5199,
      "'taki": 5200,
      "liye": 5201,
      "mustum": 5202,
      "yız": 5203,
      "ıya": 5204,
      "▁ır": 5205,
      "▁bisik": 5206,
      "▁ka": 5207,
      "▁yil": 5208,
      "akat": 5209,
      "▁hev": 5210,
      "▁hong": 5211,
      "▁caz": 5212,
      "ekim": 5213,
      "imser": 5214,
      "▁payı": 5215,
      "▁ut": 5216,
      "ulup": 5217,
      "▁aln": 5218,
      "▁alev": 5219,
      "▁almaya": 5220,
      "▁onur": 5221,
      "▁isci": 5222,
      "▁islerini": 5223,
      "▁verme": 5224,
      "ya'da": 5225,
      "▁luk": 5226,
      "madi": 5227,
      "▁gectik": 5228,
      "▁edilir": 5229,
      "▁yılının": 5230,
      "egine": 5231,
      "▁kurban": 5232,
      "▁kurtaj": 5233,
      "▁paris": 5234,
      "▁evren": 5235,
      "▁ilgililerdi": 5236,
      "▁donup": 5237,
      "▁satısı": 5238,
      "verdi": 5239,
      "▁bizde": 5240,
      "▁hayran": 5241,
      "▁ceken": 5242,
      "▁konusmalar": 5243,
      "▁dug": 5244,
      "▁okur": 5245,
      "▁kullanıyor": 5246,
      "▁saatlerinde": 5247,
      "▁kızıl": 5248,
      "▁bolumu": 5249,
      "▁piyasaya": 5250,
      "liginde": 5251,
      "▁kosk": 5252,
      "▁sars": 5253,
      "▁geliri": 5254,
      "▁benimle": 5255,
      "▁annesi": 5256,
      "▁8'den": 5257,
      "lıyordu": 5258,
      "▁sorunları": 5259,
      "▁gecirdi": 5260,
      "▁kokusu": 5261,
      "chester": 5262,
      "▁alanda": 5263,
      "▁1.2": 5264,
      "▁istanbul'da": 5265,
      "▁gurultu": 5266,
      "▁hukumetin": 5267,
      "▁ofk": 5268,
      "▁diyerek": 5269,
      "▁redde": 5270,
      "▁milletvek": 5271,
      "▁dayalı": 5272,
      "▁houston'dan": 5273,
      "▁gecerli": 5274,
      "▁aktivit": 5275,
      "▁montreal'a": 5276,
      "▁model": 5277,
      "▁manzarasi": 5278,
      "▁potansiyel": 5279,
      "▁bisiklet": 5280,
      "lor": 5281,
      "omet": 5282,
      "ıf": 5283,
      "are": 5284,
      "ani": 5285,
      "int": 5286,
      "▁sep": 5287,
      "▁she": 5288,
      "▁yed": 5289,
      "ilecek": 5290,
      "ilmez": 5291,
      "larca": 5292,
      "isinden": 5293,
      "▁meden": 5294,
      "▁vade": 5295,
      "▁pus": 5296,
      "▁fes": 5297,
      "▁national": 5298,
      "▁aralarında": 5299,
      "lanma": 5300,
      "▁kalıyor": 5301,
      "▁baslayacak": 5302,
      "▁bilmiyor": 5303,
      "▁gecesi": 5304,
      "likten": 5305,
      "▁acar": 5306,
      "▁gune": 5307,
      "▁olmuyor": 5308,
      "▁olmasına": 5309,
      "▁olmasa": 5310,
      "▁cıkacak": 5311,
      "▁ikram": 5312,
      "▁tesp": 5313,
      "▁gosteren": 5314,
      "▁yerler": 5315,
      "▁asam": 5316,
      "▁aqu": 5317,
      "▁boylu": 5318,
      "▁oglan": 5319,
      "▁goze": 5320,
      "▁serp": 5321,
      "▁kanat": 5322,
      "▁saatlerce": 5323,
      "▁tavuk": 5324,
      "▁cevre": 5325,
      "▁piyasanın": 5326,
      "▁belirsiz": 5327,
      "abilecegini": 5328,
      "▁islemler": 5329,
      "▁islemlerinde": 5330,
      "tıkları": 5331,
      "▁ihtiyacı": 5332,
      "▁hanimla": 5333,
      "▁kalktı": 5334,
      "▁aldılar": 5335,
      "▁aldıgını": 5336,
      "▁havayollarını": 5337,
      "▁istedim": 5338,
      "▁sıf": 5339,
      "▁fakir": 5340,
      "▁farkında": 5341,
      "▁personellerinden": 5342,
      "▁kiral": 5343,
      "▁oranında": 5344,
      "▁doları'ndan": 5345,
      "▁genislet": 5346,
      "▁ahlak": 5347,
      "▁kerem": 5348,
      "▁bozuk": 5349,
      "stems": 5350,
      "amıstı": 5351,
      "▁ziyade": 5352,
      "▁aracılıgıyla": 5353,
      "▁yoneticileri": 5354,
      "▁charlotte'ye": 5355,
      "▁ayrılıp": 5356,
      "▁gidecek": 5357,
      "▁hapis": 5358,
      "▁civarı": 5359,
      "▁cadd": 5360,
      "▁robert": 5361,
      "▁nicin": 5362,
      "▁milliyet": 5363,
      "▁kahraman": 5364,
      "▁geyik": 5365,
      "deri": 5366,
      "dunuz": 5367,
      "ft": 5368,
      "meni": 5369,
      "mesinden": 5370,
      "mistim": 5371,
      "ole": 5372,
      "▁sunuyor": 5373,
      "▁omur": 5374,
      "▁ydu": 5375,
      "▁toh": 5376,
      "▁the": 5377,
      "isli": 5378,
      "▁birimi": 5379,
      "▁vuc": 5380,
      "usal": 5381,
      "▁pes": 5382,
      "▁psik": 5383,
      "ıld": 5384,
      "▁niye": 5385,
      "▁nice": 5386,
      "▁nadir": 5387,
      "▁icki": 5388,
      "▁aldigim": 5389,
      "iyorlardı": 5390,
      "oya": 5391,
      "▁ucuslarının": 5392,
      "▁yapma": 5393,
      "esi'nde": 5394,
      "uth": 5395,
      "utun": 5396,
      "▁aman": 5397,
      "▁acik": 5398,
      "▁eliyle": 5399,
      "gunuz": 5400,
      "▁kurus": 5401,
      "▁gosterir": 5402,
      "▁yasar": 5403,
      "eceksin": 5404,
      "▁kapının": 5405,
      "▁doner": 5406,
      "▁surdu": 5407,
      "▁suruyor": 5408,
      "▁bakıyordu": 5409,
      "▁36": 5410,
      "▁odaya": 5411,
      "▁insanlara": 5412,
      "▁ortalık": 5413,
      "▁yolcu": 5414,
      "▁sekret": 5415,
      "▁derler": 5416,
      "▁tahmini": 5417,
      "▁turku": 5418,
      "sizim": 5419,
      "▁okudu": 5420,
      "▁46": 5421,
      "▁korun": 5422,
      "ilmisti": 5423,
      "▁duydu": 5424,
      "▁kızgın": 5425,
      "leyin": 5426,
      "▁hassas": 5427,
      "dern": 5428,
      "▁ilgilenmedi": 5429,
      "▁mid": 5430,
      "▁plani": 5431,
      "▁sesleri": 5432,
      "▁havayollarının": 5433,
      "▁tarihli": 5434,
      "▁dunyaya": 5435,
      "▁firmalar": 5436,
      "▁vurdu": 5437,
      "▁ogrenciler": 5438,
      "▁yasamak": 5439,
      "▁vakt": 5440,
      "▁nokta": 5441,
      "▁giderek": 5442,
      "▁chicago": 5443,
      "▁itibariyle": 5444,
      "▁airlines'in": 5445,
      "▁katilmak": 5446,
      "▁filan": 5447,
      "▁gokyuz": 5448,
      "▁karsılastır": 5449,
      "▁huzur": 5450,
      "▁kahvaltı": 5451,
      "▁gittikce": 5452,
      "▁sehrin": 5453,
      "▁havaalanından": 5454,
      "▁plaji": 5455,
      "▁express": 5456,
      "▁kılıc": 5457,
      "▁devralma": 5458,
      "▁mevzu": 5459,
      "▁yumurta": 5460,
      "▁vucut": 5461,
      "cal": 5462,
      "cesine": 5463,
      "dilik": 5464,
      "ly": 5465,
      "mun": 5466,
      "miyordu": 5467,
      "pe": 5468,
      "por": 5469,
      "ıh": 5470,
      "arson": 5471,
      "▁bod": 5472,
      "er'in": 5473,
      "ann": 5474,
      "andan": 5475,
      "anmıs": 5476,
      "▁kep": 5477,
      "▁dili": 5478,
      "▁dord": 5479,
      "▁trans": 5480,
      "▁birine": 5481,
      "ayın": 5482,
      "adın": 5483,
      "ick": 5484,
      "▁form": 5485,
      "ith": 5486,
      "▁no": 5487,
      "▁alet": 5488,
      "▁ariz": 5489,
      "▁onde": 5490,
      "▁rich": 5491,
      "▁yapım": 5492,
      "▁yaparak": 5493,
      "mediler": 5494,
      "▁lamb": 5495,
      "▁denilen": 5496,
      "▁ellerinde": 5497,
      "▁gunumuz": 5498,
      "▁olmas": 5499,
      "▁paran": 5500,
      "▁kaptan": 5501,
      "▁hali": 5502,
      "▁sular": 5503,
      "▁karsın": 5504,
      "▁bakar": 5505,
      "▁bakim": 5506,
      "▁satıcı": 5507,
      "▁agrı": 5508,
      "▁soyledik": 5509,
      "▁war": 5510,
      "▁yolun": 5511,
      "▁cocukların": 5512,
      "▁sabır": 5513,
      "▁girer": 5514,
      "▁oku": 5515,
      "▁altından": 5516,
      "▁urk": 5517,
      "▁arkasında": 5518,
      "▁etmeyi": 5519,
      "▁nedenlerden": 5520,
      "▁yonetici": 5521,
      "▁digerleri": 5522,
      "▁cant": 5523,
      "▁izm": 5524,
      "▁meslek": 5525,
      "alandır": 5526,
      "▁sahipleri": 5527,
      "▁mevdu": 5528,
      "ılmıstı": 5529,
      "▁rekor": 5530,
      "▁patates": 5531,
      "lamıstı": 5532,
      "▁konumunu": 5533,
      "▁ipek": 5534,
      "▁yatırımcıların": 5535,
      "▁$'a": 5536,
      "▁suredir": 5537,
      "▁cennet": 5538,
      "▁rej": 5539,
      "siyonu": 5540,
      "▁yoneticisi": 5541,
      "▁haftalık": 5542,
      "▁modern": 5543,
      "▁kasım'da": 5544,
      "▁baslamıstı": 5545,
      "▁yunan": 5546,
      "▁olabilecegini": 5547,
      "▁sayıda": 5548,
      "▁edecegini": 5549,
      "▁recep": 5550,
      "▁tıpkı": 5551,
      "▁profesyon": 5552,
      "▁basbakan": 5553,
      "▁fatih": 5554,
      "▁bardagı": 5555,
      "▁vatandas": 5556,
      "▁carsaf": 5557,
      "▁sicak": 5558,
      "▁portfoy": 5559,
      "▁domates": 5560,
      "▁eastern": 5561,
      "▁industri": 5562,
      "-p": 5563,
      "20": 5564,
      "bs": 5565,
      "ew": 5566,
      "giz": 5567,
      "gılan": 5568,
      "kah": 5569,
      "meyin": 5570,
      "ote": 5571,
      "ps": 5572,
      "rat": 5573,
      "raz": 5574,
      "yalı": 5575,
      "▁kak": 5576,
      "▁klas": 5577,
      "▁koz": 5578,
      "▁kaya": 5579,
      "▁sers": 5580,
      "▁gob": 5581,
      "▁gov": 5582,
      "akk": 5583,
      "▁tom": 5584,
      "isle": 5585,
      "▁cın": 5586,
      "▁cihaz": 5587,
      "eten": 5588,
      "▁mich": 5589,
      "amın": 5590,
      "imini": 5591,
      "▁pisti": 5592,
      "eyerek": 5593,
      "▁fu": 5594,
      "agon": 5595,
      "▁ala": 5596,
      "▁aley": 5597,
      "▁aldır": 5598,
      "▁aram": 5599,
      "▁ardı": 5600,
      "▁andır": 5601,
      "▁baslı": 5602,
      "lıdır": 5603,
      "▁ucusunuz": 5604,
      "▁yapıs": 5605,
      "▁yapıldı": 5606,
      "▁isle": 5607,
      "▁verdim": 5608,
      "makla": 5609,
      "▁uzay": 5610,
      "uyorlardı": 5611,
      "▁gergin": 5612,
      "▁seyleri": 5613,
      "▁adına": 5614,
      "cıların": 5615,
      "▁uyesi": 5616,
      "▁evden": 5617,
      "▁yanak": 5618,
      "▁buyuy": 5619,
      "▁duruyordu": 5620,
      "▁sup": 5621,
      "▁yakından": 5622,
      "▁yakalan": 5623,
      "eligi": 5624,
      "▁arasından": 5625,
      "▁odasına": 5626,
      "▁hakik": 5627,
      "▁katı": 5628,
      "▁buradan": 5629,
      "▁balk": 5630,
      "▁ceker": 5631,
      "▁cekil": 5632,
      "▁57": 5633,
      "▁ayrılan": 5634,
      "▁turkce": 5635,
      "▁kullanıl": 5636,
      "▁kızar": 5637,
      "▁getirir": 5638,
      "▁ero": 5639,
      "▁etmesi": 5640,
      "▁piyasalar": 5641,
      "▁75": 5642,
      "iskin": 5643,
      "▁masal": 5644,
      "▁mermer": 5645,
      "▁havayollarında": 5646,
      "▁kararsizim": 5647,
      "▁istemez": 5648,
      "▁york'a": 5649,
      "▁makine": 5650,
      "▁komur": 5651,
      "▁kusk": 5652,
      "▁ugram": 5653,
      "▁kopr": 5654,
      "▁olmaktan": 5655,
      "▁hukumeti": 5656,
      "▁patlı": 5657,
      "▁berbat": 5658,
      "▁nereye": 5659,
      "▁nereden": 5660,
      "▁sonuclar": 5661,
      "'yu": 5662,
      "▁olanakları": 5663,
      "▁mecbur": 5664,
      "▁tasıy": 5665,
      "▁kuvvetli": 5666,
      "▁sozlesme": 5667,
      "▁ingilizce": 5668,
      "▁musteriler": 5669,
      "▁degisiklikler": 5670,
      "▁diego'dan": 5671,
      "▁nazik": 5672,
      "▁rakamlar": 5673,
      "▁kaybetti": 5674,
      "▁dekor": 5675,
      "▁murat": 5676,
      "indeydi": 5677,
      "▁direkt": 5678,
      "▁saskın": 5679,
      "▁louis'e": 5680,
      "▁kampanyalardan": 5681,
      "▁haberi": 5682,
      "▁havaliman": 5683,
      "▁istihdam": 5684,
      "▁ilginc": 5685,
      "▁dolayısıyla": 5686,
      "yasal": 5687,
      "▁anayasa": 5688,
      "▁makaleye": 5689,
      "▁bugday": 5690,
      "▁yontem": 5691,
      "▁systems": 5692,
      "baz": 5693,
      "macı": 5694,
      "madım": 5695,
      "omis": 5696,
      "tiy": 5697,
      "vey": 5698,
      "yu": 5699,
      "▁beden": 5700,
      "▁kıp": 5701,
      "▁s&": 5702,
      "▁yusu": 5703,
      "▁tuy": 5704,
      "▁tencer": 5705,
      "▁cet": 5706,
      "▁cuk": 5707,
      "▁cıp": 5708,
      "iyiz": 5709,
      "▁mos": 5710,
      "▁meg": 5711,
      "▁mobil": 5712,
      "▁mırıl": 5713,
      "imleri": 5714,
      "▁pur": 5715,
      "oks": 5716,
      "▁alb": 5717,
      "▁onlem": 5718,
      "▁ontari": 5719,
      "lanabilir": 5720,
      "▁baslat": 5721,
      "▁yapıp": 5722,
      "▁iyimser": 5723,
      "▁ayda": 5724,
      "▁bende": 5725,
      "▁gecm": 5726,
      "lamalar": 5727,
      "gunda": 5728,
      "▁tesad": 5729,
      "▁edilmesi": 5730,
      "▁gosterg": 5731,
      "▁yarısı": 5732,
      "▁hani": 5733,
      "▁yansı": 5734,
      "▁oyunun": 5735,
      "lesine": 5736,
      "▁sergil": 5737,
      "▁dolap": 5738,
      "▁yoluyla": 5739,
      "▁yazık": 5740,
      "▁calıstı": 5741,
      "▁derhal": 5742,
      "▁cekmek": 5743,
      "▁bagıs": 5744,
      "amadik": 5745,
      "ılıgını": 5746,
      "▁simdilik": 5747,
      "▁kimyasal": 5748,
      "leyici": 5749,
      "▁erdog": 5750,
      "▁yukselen": 5751,
      "liginin": 5752,
      "▁karsıya": 5753,
      "▁yemeklerde": 5754,
      "abiliyor": 5755,
      "▁oturan": 5756,
      "▁oturup": 5757,
      "▁bina": 5758,
      "▁kahkah": 5759,
      "▁muslum": 5760,
      "▁bugune": 5761,
      "▁durumunda": 5762,
      "▁tuf": 5763,
      "▁corba": 5764,
      "▁begendik": 5765,
      "▁ekonomis": 5766,
      "landıgını": 5767,
      "▁beklentiler": 5768,
      "▁oynat": 5769,
      "▁1.1": 5770,
      "▁1.3": 5771,
      "▁yetkili": 5772,
      "▁sonucları": 5773,
      "▁darbe": 5774,
      "▁tırn": 5775,
      ".25": 5776,
      "▁ibaret": 5777,
      "▁maas": 5778,
      "▁tartısmalar": 5779,
      "▁yıllardır": 5780,
      "▁hırsız": 5781,
      "▁saglıklı": 5782,
      "▁hepsinin": 5783,
      "▁kardesim": 5784,
      "▁sorumluluk": 5785,
      "▁arzu": 5786,
      "▁kendilerine": 5787,
      "▁olusan": 5788,
      "▁yasanan": 5789,
      "▁itiraf": 5790,
      "▁ilgisizdi": 5791,
      "▁ithalat": 5792,
      "▁havalimanı": 5793,
      "▁tehdit": 5794,
      "▁efsan": 5795,
      "▁1\\/2": 5796,
      "▁a.b.d.": 5797,
      "▁imalat": 5798,
      "▁pantolon": 5799,
      "▁vasıtasıyla": 5800,
      "▁luks": 5801,
      "▁shearson": 5802,
      "▁profesyonel": 5803,
      "▁yusuf": 5804,
      "▁cıplak": 5805,
      ".000": 5806,
      "ginin": 5807,
      "mu": 5808,
      "mesinin": 5809,
      "nan": 5810,
      "saydı": 5811,
      "tel": 5812,
      "tra": 5813,
      "▁ız": 5814,
      "▁b.": 5815,
      "▁bıy": 5816,
      "▁sım": 5817,
      "diy": 5818,
      "▁tasıyor": 5819,
      "ish": 5820,
      "▁huy": 5821,
      "▁hacı": 5822,
      "▁calar": 5823,
      "▁cadır": 5824,
      "▁birlestir": 5825,
      "onun": 5826,
      "amayan": 5827,
      "▁pul": 5828,
      "▁olgun": 5829,
      "▁fal": 5830,
      "▁falan": 5831,
      "ledik": 5832,
      "ılıp": 5833,
      "ulması": 5834,
      "age": 5835,
      "istin": 5836,
      "▁alem": 5837,
      "avuz": 5838,
      "▁gorustuk": 5839,
      "▁karın": 5840,
      "▁zeki": 5841,
      "▁gelmez": 5842,
      "▁geldigini": 5843,
      "▁ayhan": 5844,
      "▁istek": 5845,
      "▁istasyon": 5846,
      "ıyorsun": 5847,
      "ogu": 5848,
      "med": 5849,
      "▁lik": 5850,
      "▁duser": 5851,
      "uyoruz": 5852,
      "▁akın": 5853,
      "▁cıkmak": 5854,
      "▁iken": 5855,
      "▁kurdu": 5856,
      "▁parm": 5857,
      "▁paranın": 5858,
      "▁kibar": 5859,
      "▁adlandır": 5860,
      "▁bayrak": 5861,
      "lemis": 5862,
      "ige": 5863,
      "▁donuk": 5864,
      "▁halkı": 5865,
      "▁senato": 5866,
      "vert": 5867,
      "▁agab": 5868,
      "▁boynun": 5869,
      "▁bizden": 5870,
      "▁artısı": 5871,
      "▁topu": 5872,
      "lesmis": 5873,
      "▁harp": 5874,
      "▁wh": 5875,
      "▁jour": 5876,
      "▁giren": 5877,
      "▁fazl": 5878,
      "▁sozleri": 5879,
      "▁tutum": 5880,
      "▁saati": 5881,
      "▁acıkca": 5882,
      "▁ederdi": 5883,
      "▁dallas'ta": 5884,
      "▁yurudu": 5885,
      "▁bankac": 5886,
      "▁ihtiyat": 5887,
      "▁canım": 5888,
      "▁bırakıp": 5889,
      "▁tatl": 5890,
      "▁zorunlu": 5891,
      "▁kıyafet": 5892,
      "▁hayata": 5893,
      "▁hayatta": 5894,
      "ılmıstır": 5895,
      "▁uretimi": 5896,
      "dıklarını": 5897,
      "▁dinlen": 5898,
      "▁gonl": 5899,
      "▁arkadasim": 5900,
      "▁inanc": 5901,
      "▁hamle": 5902,
      "▁kavr": 5903,
      "▁yapılır": 5904,
      "chell": 5905,
      "▁animasyonlar": 5906,
      "▁cinsel": 5907,
      "▁ceyr": 5908,
      "▁teor": 5909,
      "▁metal": 5910,
      "▁fonlar": 5911,
      "▁sapk": 5912,
      "▁sivil": 5913,
      "▁giderken": 5914,
      "▁hastalı": 5915,
      "▁tuken": 5916,
      "mamıstı": 5917,
      "▁fikri": 5918,
      "▁annemin": 5919,
      "▁katildim": 5920,
      "▁konforu": 5921,
      "▁toronto": 5922,
      "▁siyaset": 5923,
      "▁haftada": 5924,
      "▁bekledigim": 5925,
      "▁demokratik": 5926,
      "▁birlesik": 5927,
      "▁siddetli": 5928,
      "▁dengesi": 5929,
      "▁cirkin": 5930,
      "▁malzemeler": 5931,
      "▁yasamadik": 5932,
      "▁tampa'dan": 5933,
      "▁financi": 5934,
      "▁sendika": 5935,
      "▁nashville'den": 5936,
      "▁restoran": 5937,
      "▁zamana": 5938,
      "▁mimar": 5939,
      "▁ihtimal": 5940,
      "▁tedavulde": 5941,
      "▁zafer": 5942,
      "cil": 5943,
      "cel": 5944,
      "casına": 5945,
      "miyorum": 5946,
      "muyordu": 5947,
      "rut": 5948,
      "s.": 5949,
      "▁lar": 5950,
      "▁kedi": 5951,
      "▁tanın": 5952,
      "▁hor": 5953,
      "ekul": 5954,
      "▁birlik": 5955,
      "onya": 5956,
      "▁vi": 5957,
      "▁vic": 5958,
      "amıyorum": 5959,
      "lerimizi": 5960,
      "▁olunca": 5961,
      "ahh": 5962,
      "▁for": 5963,
      "▁finc": 5964,
      "▁nor": 5965,
      "▁nuk": 5966,
      "olog": 5967,
      "▁ucagın": 5968,
      "▁iliski": 5969,
      "▁aldim": 5970,
      "▁kalmaya": 5971,
      "▁kaldıgı": 5972,
      "▁baslam": 5973,
      "luga": 5974,
      "unup": 5975,
      "▁yapti": 5976,
      "▁geldik": 5977,
      "▁varmıs": 5978,
      "ever": 5979,
      "ilerek": 5980,
      "esif": 5981,
      "▁kadeh": 5982,
      "liklerini": 5983,
      "raj": 5984,
      "▁elindeki": 5985,
      "▁olmayı": 5986,
      "▁cıkmıstı": 5987,
      "▁doların": 5988,
      "▁yoksul": 5989,
      "▁havlu": 5990,
      "▁bulabilir": 5991,
      "▁esir": 5992,
      "▁esya": 5993,
      "▁ikibin": 5994,
      "▁ogul": 5995,
      "▁39": 5996,
      "▁kaybe": 5997,
      "▁sahib": 5998,
      "▁jur": 5999,
      "▁51": 6000,
      "▁denizin": 6001,
      "▁tuttur": 6002,
      "▁puanlama": 6003,
      "▁cesitlilik": 6004,
      "▁43": 6005,
      "▁koruy": 6006,
      "▁altındaki": 6007,
      "▁altern": 6008,
      "▁kızlar": 6009,
      "emedim": 6010,
      "▁ederler": 6011,
      "▁kıskan": 6012,
      "▁takımı": 6013,
      "▁piyasaları": 6014,
      "▁duzgun": 6015,
      "▁kadınların": 6016,
      "▁sakın": 6017,
      "▁uns": 6018,
      "▁oturma": 6019,
      "▁krav": 6020,
      "mamız": 6021,
      "maması": 6022,
      "▁merh": 6023,
      "malarını": 6024,
      "▁istedigim": 6025,
      "▁gorunen": 6026,
      "▁ısın": 6027,
      "▁dunyayı": 6028,
      "▁iceriye": 6029,
      "▁oncesi": 6030,
      "▁ogrenci": 6031,
      "▁1.8": 6032,
      "▁marj": 6033,
      "▁olduklarını": 6034,
      "▁talih": 6035,
      "▁istanbul'un": 6036,
      "▁kapıya": 6037,
      "▁rakı": 6038,
      "▁yumurt": 6039,
      "▁urunler": 6040,
      "oloji": 6041,
      "▁acıdan": 6042,
      "▁kıbr": 6043,
      "▁diyar": 6044,
      "▁raporu": 6045,
      "▁fikr": 6046,
      "▁uygulama": 6047,
      "▁netic": 6048,
      "▁alakali": 6049,
      "▁tasıyan": 6050,
      "▁apart": 6051,
      "▁icecekleri": 6052,
      "▁orlando'dan": 6053,
      "▁gorunuyordu": 6054,
      "▁gayret": 6055,
      "▁ihracat": 6056,
      "▁finansman": 6057,
      "▁gomlek": 6058,
      "▁kısmını": 6059,
      "▁yahut": 6060,
      "▁mitchell": 6061,
      "▁kaybı": 6062,
      "▁tecru": 6063,
      "▁durgunluk": 6064,
      "ugh": 6065,
      "▁westchester": 6066,
      "▁pacific": 6067,
      "▁karakter": 6068,
      "▁nufus": 6069,
      "▁kahvaltisi": 6070,
      "▁flori": 6071,
      "▁nobet": 6072,
      "▁karsilamadi": 6073,
      "▁cumhurbaskanı": 6074,
      "▁sepet": 6075,
      "▁mevduat": 6076,
      "▁mırıldan": 6077,
      "▁financial": 6078,
      "▁alternatif": 6079,
      "▁kıbrıs": 6080,
      "-sat": 6081,
      "bal": 6082,
      "i'nin": 6083,
      "liyorum": 6084,
      "mıyordu": 6085,
      "niyet": 6086,
      "tek": 6087,
      "iness": 6088,
      "▁kacak": 6089,
      "▁sit": 6090,
      "undaki": 6091,
      "dise": 6092,
      "▁tun": 6093,
      "▁tap": 6094,
      "isin": 6095,
      "isiyle": 6096,
      "▁birinc": 6097,
      "one": 6098,
      "usuna": 6099,
      "▁plas": 6100,
      "▁namaz": 6101,
      "inip": 6102,
      "▁rot": 6103,
      "▁rolu": 6104,
      "▁and": 6105,
      "▁icindeki": 6106,
      "▁basım": 6107,
      "▁yapması": 6108,
      "▁isp": 6109,
      "▁ispan": 6110,
      "▁inti": 6111,
      "▁etken": 6112,
      "▁verdigimiz": 6113,
      "▁atıyor": 6114,
      "▁aksi": 6115,
      "gunde": 6116,
      "▁yaratı": 6117,
      "▁tarl": 6118,
      "▁turu": 6119,
      "▁donen": 6120,
      "▁donmus": 6121,
      "▁suresi": 6122,
      "▁durur": 6123,
      "▁34": 6124,
      "▁%8": 6125,
      "▁sirketinin": 6126,
      "▁sirketlerin": 6127,
      "▁ozlem": 6128,
      "▁calıstır": 6129,
      "▁calısmaya": 6130,
      "▁ihal": 6131,
      "▁cekildi": 6132,
      "▁denizinden": 6133,
      "▁cesitliligi": 6134,
      "▁saglayacak": 6135,
      "▁kanal": 6136,
      "▁saatte": 6137,
      "▁duyur": 6138,
      "▁salat": 6139,
      "▁sallan": 6140,
      "▁sabaha": 6141,
      "▁kazancı": 6142,
      "emedik": 6143,
      "leyecek": 6144,
      "▁gitmem": 6145,
      "▁eris": 6146,
      "▁abdul": 6147,
      "▁sayın": 6148,
      "▁sayisi": 6149,
      "▁hisselerini": 6150,
      "▁impar": 6151,
      "▁kose": 6152,
      "▁hakkındaki": 6153,
      "mazdı": 6154,
      "▁zorluk": 6155,
      "tıkca": 6156,
      "▁lub": 6157,
      "▁perde": 6158,
      "lıgıyla": 6159,
      "▁hayatını": 6160,
      "▁istedigini": 6161,
      "▁sokaga": 6162,
      "ınızı": 6163,
      "▁faktor": 6164,
      "▁biridir": 6165,
      "▁york'ta": 6166,
      "▁bosal": 6167,
      "▁donemi": 6168,
      "▁lideri": 6169,
      "▁toren": 6170,
      "▁birbirlerine": 6171,
      "▁alım-sat": 6172,
      "▁mekan": 6173,
      "▁cinayet": 6174,
      "▁iptal": 6175,
      "▁kapıdan": 6176,
      "▁mahkum": 6177,
      "▁gurur": 6178,
      "▁zarf": 6179,
      "▁heykel": 6180,
      "▁kıdem": 6181,
      "▁giyin": 6182,
      "▁yetkililer": 6183,
      "▁duvara": 6184,
      "▁agzına": 6185,
      "▁avrupa'da": 6186,
      "▁business": 6187,
      "▁maliyetleri": 6188,
      "▁indirim": 6189,
      "▁subay": 6190,
      "▁seattle'den": 6191,
      "▁anlayıs": 6192,
      "▁fabrika": 6193,
      "▁iskel": 6194,
      "▁aydınlık": 6195,
      "▁huseyin": 6196,
      "▁faydalan": 6197,
      "▁elbise": 6198,
      "▁fasul": 6199,
      "▁blok": 6200,
      "▁finanse": 6201,
      "▁bilgiye": 6202,
      "▁northwest": 6203,
      "▁george": 6204,
      "▁britan": 6205,
      "▁posta": 6206,
      "▁hitap": 6207,
      "▁matematik": 6208,
      "▁pamuk": 6209,
      "▁bodrum": 6210,
      "▁s&p": 6211,
      "▁journal": 6212,
      "▁imparator": 6213,
      "cesi": 6214,
      "duz": 6215,
      "kırı": 6216,
      "lil": 6217,
      "liy": 6218,
      "lit": 6219,
      "lom": 6220,
      "mac": 6221,
      "melerini": 6222,
      "sis": 6223,
      "to": 6224,
      "va": 6225,
      "yosu": 6226,
      "zi": 6227,
      "▁kım": 6228,
      "▁seg": 6229,
      "▁dor": 6230,
      "▁gıda": 6231,
      "▁yut": 6232,
      "ilyon": 6233,
      "▁teler": 6234,
      "▁hop": 6235,
      "▁cih": 6236,
      "iyer": 6237,
      "ayarak": 6238,
      "▁miydi": 6239,
      "▁van": 6240,
      "amdan": 6241,
      "usunda": 6242,
      "▁olu": 6243,
      "▁olacagı": 6244,
      "▁bucuk": 6245,
      "ıkoy": 6246,
      "▁deh": 6247,
      "▁dediler": 6248,
      "▁fık": 6249,
      "▁fev": 6250,
      "▁aradilar": 6251,
      "▁ra": 6252,
      "▁rop": 6253,
      "▁anı": 6254,
      "▁kalmak": 6255,
      "▁gormez": 6256,
      "▁gordugu": 6257,
      "▁karg": 6258,
      "▁karısı": 6259,
      "eleriyle": 6260,
      "▁isine": 6261,
      "▁isbir": 6262,
      "▁isyan": 6263,
      "▁iyisi": 6264,
      "▁gelmisti": 6265,
      "▁varıyor": 6266,
      "▁ayın": 6267,
      "▁istiyordu": 6268,
      "lasan": 6269,
      "▁bilen": 6270,
      "▁endise": 6271,
      "▁duskun": 6272,
      "▁gecenin": 6273,
      "▁acılan": 6274,
      "▁atıl": 6275,
      "▁temet": 6276,
      "gunun": 6277,
      "▁kurk": 6278,
      "▁yerleri": 6279,
      "▁yeryuz": 6280,
      "▁yoksun": 6281,
      "▁teksas": 6282,
      "▁havası": 6283,
      "digin": 6284,
      "▁sureci": 6285,
      "▁karsısına": 6286,
      "▁personelden": 6287,
      "▁oyk": 6288,
      "▁satan": 6289,
      "▁bell": 6290,
      "▁oglu": 6291,
      "▁buny": 6292,
      "▁32": 6293,
      "▁%6": 6294,
      "▁gozlu": 6295,
      "▁gozunu": 6296,
      "▁azın": 6297,
      "▁seref": 6298,
      "▁sahil": 6299,
      "▁haksız": 6300,
      "▁hayret": 6301,
      "▁katıldı": 6302,
      "▁kucucuk": 6303,
      "▁ayrıntı": 6304,
      "▁kesildi": 6305,
      "▁tamir": 6306,
      "▁saglıyor": 6307,
      "▁okun": 6308,
      "▁kullanım": 6309,
      "▁49": 6310,
      "▁sabahın": 6311,
      "▁getiriyor": 6312,
      "▁hazin": 6313,
      "▁kaliteliydi": 6314,
      "▁erdi": 6315,
      "▁bulunmaktadır": 6316,
      "▁bolge": 6317,
      "▁dusunce": 6318,
      "▁kendime": 6319,
      "▁savur": 6320,
      "▁nasda": 6321,
      "▁mahs": 6322,
      "▁zorlu": 6323,
      "▁masa": 6324,
      "▁masaya": 6325,
      "▁havuzlari": 6326,
      "ansiyon": 6327,
      "▁bitk": 6328,
      "▁kamp": 6329,
      "gisini": 6330,
      "▁sıgın": 6331,
      "▁sofor": 6332,
      "▁endustri": 6333,
      "▁gecirdik": 6334,
      "▁yen'e": 6335,
      "▁inanıyor": 6336,
      "▁bosluk": 6337,
      "▁edilebilir": 6338,
      "▁kirliydi": 6339,
      "▁cagdas": 6340,
      "▁12'den": 6341,
      "▁konumundan": 6342,
      "▁sigar": 6343,
      "▁yatırımcıları": 6344,
      "▁kazancları": 6345,
      "▁meyve": 6346,
      "▁dagın": 6347,
      "▁fonları": 6348,
      "▁sebebi": 6349,
      "▁gold": 6350,
      "ebilecegini": 6351,
      ".75": 6352,
      "▁disip": 6353,
      "▁performansi": 6354,
      "▁amacıyla": 6355,
      "▁samp": 6356,
      "▁noktası": 6357,
      "▁ihracı": 6358,
      "▁busb": 6359,
      "▁aptal": 6360,
      "▁babamın": 6361,
      "▁sozlesmesi": 6362,
      "▁mood": 6363,
      "▁indianapolis'e": 6364,
      "▁tutarında": 6365,
      "▁subat": 6366,
      "▁tazmin": 6367,
      "▁marka": 6368,
      "▁tipik": 6369,
      "▁portakal": 6370,
      "▁gonullu": 6371,
      "▁bilinen": 6372,
      "▁sırtında": 6373,
      "▁suyun": 6374,
      "▁thom": 6375,
      "▁cogunlukla": 6376,
      "▁minneapolis'ten": 6377,
      "▁tuccar": 6378,
      "▁tefek": 6379,
      "▁ecz": 6380,
      "▁diplom": 6381,
      "cagız": 6382,
      "▁ipotek": 6383,
      "▁trafik": 6384,
      "▁mudahal": 6385,
      "▁seyrediyor": 6386,
      "▁texas": 6387,
      "▁dorduncu": 6388,
      "▁aleyh": 6389,
      "▁supur": 6390,
      "▁telerate": 6391,
      "cıl": 6392,
      "cinin": 6393,
      "hos": 6394,
      "lav": 6395,
      "mar": 6396,
      "so": 6397,
      "▁bık": 6398,
      "▁biber": 6399,
      "antaj": 6400,
      "▁kun": 6401,
      "▁sob": 6402,
      "▁gre": 6403,
      "ald": 6404,
      "▁hil": 6405,
      "▁had": 6406,
      "▁cr": 6407,
      "▁cas": 6408,
      "iydiler": 6409,
      "esti": 6410,
      "esindeki": 6411,
      "▁vit": 6412,
      "lerdeki": 6413,
      "▁pesinde": 6414,
      "ikler": 6415,
      "ahtar": 6416,
      "▁fan": 6417,
      "▁nec": 6418,
      "▁aramız": 6419,
      "▁ons": 6420,
      "▁anahtar": 6421,
      "▁kalmıstı": 6422,
      "▁kalmadik": 6423,
      "▁yapabilir": 6424,
      "▁yapildi": 6425,
      "▁yapabil": 6426,
      "▁yaptik": 6427,
      "▁geleni": 6428,
      "▁ayaga": 6429,
      "▁verdiler": 6430,
      "▁vermedi": 6431,
      "▁verimli": 6432,
      "▁konuk": 6433,
      "adılar": 6434,
      "▁amel": 6435,
      "▁dusurdu": 6436,
      "lamaları": 6437,
      "▁uzum": 6438,
      "▁acıp": 6439,
      "▁sanay": 6440,
      "▁otek": 6441,
      "'ndaki": 6442,
      "▁kot": 6443,
      "▁teskil": 6444,
      "uye": 6445,
      "▁kid": 6446,
      "▁adama": 6447,
      "▁yaralan": 6448,
      "▁coban": 6449,
      "▁bulmaya": 6450,
      "igin": 6451,
      "amanın": 6452,
      "kanın": 6453,
      "▁satır": 6454,
      "▁satıl": 6455,
      "▁aga": 6456,
      "ıyım": 6457,
      "▁boyn": 6458,
      "▁38": 6459,
      "▁gozler": 6460,
      "▁gozuk": 6461,
      "▁hakları": 6462,
      "▁onunden": 6463,
      "▁haydi": 6464,
      "▁hayli": 6465,
      "▁ceket": 6466,
      "▁bekleyen": 6467,
      "▁sozler": 6468,
      "▁sozcuk": 6469,
      "▁konusur": 6470,
      "cular": 6471,
      "▁turkler": 6472,
      "acagımı": 6473,
      "masıyla": 6474,
      "▁uste": 6475,
      "ilmesini": 6476,
      "▁tarafa": 6477,
      "▁taraftar": 6478,
      "▁care": 6479,
      "dukları": 6480,
      "▁taks": 6481,
      "▁cumle": 6482,
      "▁kabar": 6483,
      "▁cıkarıp": 6484,
      "▁muhar": 6485,
      "▁egem": 6486,
      "ıldıgında": 6487,
      "▁ihtil": 6488,
      "▁70": 6489,
      "▁gelirler": 6490,
      "▁mahall": 6491,
      "▁islemi": 6492,
      "▁kasır": 6493,
      "▁kasık": 6494,
      "▁diken": 6495,
      "▁sehri": 6496,
      "▁bugunku": 6497,
      "▁kendileri": 6498,
      "▁hazırlık": 6499,
      "▁geride": 6500,
      "▁tamamlan": 6501,
      "▁etkili": 6502,
      "▁alınması": 6503,
      "▁etmektedir": 6504,
      "▁kavus": 6505,
      "▁arabalar": 6506,
      "landıgı": 6507,
      "▁kirp": 6508,
      "▁beklent": 6509,
      "▁maruz": 6510,
      "▁orani": 6511,
      "▁basarili": 6512,
      "▁guvenilir": 6513,
      "▁uzakta": 6514,
      "▁maden": 6515,
      "▁mektep": 6516,
      "▁gelecekteki": 6517,
      "▁metre": 6518,
      "▁spekul": 6519,
      "▁tepk": 6520,
      "▁avrupalı": 6521,
      "▁diyen": 6522,
      "▁nisp": 6523,
      "▁capında": 6524,
      "▁aklına": 6525,
      "▁aralık'ta": 6526,
      "▁yıllarca": 6527,
      "seniz": 6528,
      "▁moda": 6529,
      "amayacagını": 6530,
      "▁gomle": 6531,
      "▁cıv": 6532,
      "▁tersine": 6533,
      "▁deste": 6534,
      "▁partisi": 6535,
      "▁direktoru": 6536,
      "▁baglantı": 6537,
      "▁japonya'nın": 6538,
      "lulugu": 6539,
      "▁yıgın": 6540,
      "▁petersburg'dan": 6541,
      "▁smith": 6542,
      "▁odanin": 6543,
      "▁hucr": 6544,
      "▁korumak": 6545,
      "▁bireysel": 6546,
      "▁otobus": 6547,
      "▁kayded": 6548,
      "▁karmasık": 6549,
      "▁veto": 6550,
      "▁tespit": 6551,
      "▁klasik": 6552,
      "▁nasdaq": 6553,
      "/8": 6554,
      "2'de": 6555,
      "bac": 6556,
      "ex": 6557,
      "gine": 6558,
      "gılı": 6559,
      "nel": 6560,
      "sk": 6561,
      "▁“": 6562,
      "▁ası": 6563,
      "ano": 6564,
      "▁kek": 6565,
      "▁kıt": 6566,
      "▁sos": 6567,
      "▁sıy": 6568,
      "▁ster": 6569,
      "irken": 6570,
      "▁ob": 6571,
      "▁yam": 6572,
      "lardaki": 6573,
      "▁hut": 6574,
      "▁cd": 6575,
      "▁cana": 6576,
      "▁canı": 6577,
      "▁vek": 6578,
      "ames": 6579,
      "amda": 6580,
      "emb": 6581,
      "adet": 6582,
      "eyiz": 6583,
      "icileri": 6584,
      "▁nar": 6585,
      "▁ice": 6586,
      "▁icten": 6587,
      "▁arıyor": 6588,
      "liam": 6589,
      "▁anlıyor": 6590,
      "▁bastan": 6591,
      "▁baslarında": 6592,
      "lıgından": 6593,
      "▁gorusu": 6594,
      "▁yapın": 6595,
      "▁sonbahar": 6596,
      "▁gelsin": 6597,
      "▁aykırı": 6598,
      "ilerle": 6599,
      "▁isters": 6600,
      "▁bilmez": 6601,
      "▁konfer": 6602,
      "▁lek": 6603,
      "▁acil": 6604,
      "▁soyleyen": 6605,
      "▁elma": 6606,
      "▁cıkart": 6607,
      "▁parlam": 6608,
      "▁yerlerde": 6609,
      "▁yasası": 6610,
      "▁asil": 6611,
      "▁evinde": 6612,
      "▁yanıl": 6613,
      "▁buyudu": 6614,
      "▁durak": 6615,
      "▁durmadan": 6616,
      "▁senar": 6617,
      "▁senden": 6618,
      "▁sattı": 6619,
      "▁yuzlerce": 6620,
      "▁muay": 6621,
      "▁kulub": 6622,
      "▁zamanla": 6623,
      "elidir": 6624,
      "▁sorgul": 6625,
      "▁sevdigi": 6626,
      "▁kaymak": 6627,
      "▁ozgu": 6628,
      "▁balayi": 6629,
      "▁tahk": 6630,
      "▁giriyor": 6631,
      "▁52": 6632,
      "▁fazlası": 6633,
      "uldugu": 6634,
      "▁bazi": 6635,
      "▁kucak": 6636,
      "▁ayrım": 6637,
      "▁ayrıldı": 6638,
      "▁4'ten": 6639,
      "▁saatleri": 6640,
      "▁borcu": 6641,
      "▁kalitesinden": 6642,
      "▁ailenin": 6643,
      "▁cıkarıyor": 6644,
      "▁muhaseb": 6645,
      "▁avustr": 6646,
      "▁cevirdi": 6647,
      "▁sakat": 6648,
      "tıklarını": 6649,
      "▁satısa": 6650,
      "▁tablo": 6651,
      "▁yaptılar": 6652,
      "▁arkadası": 6653,
      "▁farklılık": 6654,
      "▁diyorlar": 6655,
      "▁kusursuz": 6656,
      "▁resmen": 6657,
      "▁teklifini": 6658,
      "▁camur": 6659,
      "▁arabayı": 6660,
      "▁kirli": 6661,
      "▁benzin": 6662,
      "▁oyuncak": 6663,
      "▁sunları": 6664,
      "▁1.6": 6665,
      "▁mektu": 6666,
      "▁ticareti": 6667,
      "▁meyv": 6668,
      "▁kemik": 6669,
      "▁caba": 6670,
      "▁catıs": 6671,
      "▁unutul": 6672,
      "▁agzını": 6673,
      "▁yudum": 6674,
      "▁capital": 6675,
      "▁numara": 6676,
      "▁kapattı": 6677,
      "▁borsası'nda": 6678,
      "▁nefret": 6679,
      "▁bocek": 6680,
      "karta": 6681,
      "▁yurtd": 6682,
      "▁mendil": 6683,
      "▁gidebilir": 6684,
      "▁ferah": 6685,
      "▁angeles'ten": 6686,
      "▁sinirli": 6687,
      "▁akıllı": 6688,
      "▁saldırı": 6689,
      "▁lokant": 6690,
      "▁gogsun": 6691,
      "▁sikint": 6692,
      "▁memphis'e": 6693,
      "▁enerj": 6694,
      "▁toplantıda": 6695,
      "▁karsılıklı": 6696,
      "▁miktarda": 6697,
      "▁yuvarlak": 6698,
      "▁petersburg'a": 6699,
      "▁sms": 6700,
      "▁aksine": 6701,
      "▁tacoma'ya": 6702,
      "▁pirinc": 6703,
      "▁calisanlari": 6704,
      "▁kalabalikti": 6705,
      "▁sıfır": 6706,
      "▁arizona": 6707,
      "▁izmir": 6708,
      "▁gecmiste": 6709,
      "▁bıyık": 6710,
      "▁tecrub": 6711,
      "▁busbutun": 6712,
      "▁konferans": 6713,
      "'si": 6714,
      "-1": 6715,
      "bes": 6716,
      "ble": 6717,
      "biye": 6718,
      "don": 6719,
      "dol": 6720,
      "mana": 6721,
      "paz": 6722,
      "rop": 6723,
      "s'in": 6724,
      "wood": 6725,
      "y'nin": 6726,
      "▁ler": 6727,
      "arik": 6728,
      "▁biy": 6729,
      "▁big": 6730,
      "▁bıc": 6731,
      "anet": 6732,
      "▁skan": 6733,
      "▁sesini": 6734,
      "▁deri": 6735,
      "ence": 6736,
      "▁gam": 6737,
      "▁yırt": 6738,
      "ila": 6739,
      "orp": 6740,
      "unce": 6741,
      "▁tik": 6742,
      "▁hun": 6743,
      "on'un": 6744,
      "emli": 6745,
      "▁palt": 6746,
      "▁pembe": 6747,
      "umda": 6748,
      "▁olayı": 6749,
      "▁fet": 6750,
      "dut": 6751,
      "agından": 6752,
      "abz": 6753,
      "▁icim": 6754,
      "▁alımı": 6755,
      "▁almayı": 6756,
      "▁arayan": 6757,
      "▁arıyorum": 6758,
      "lıgının": 6759,
      "tia": 6760,
      "▁yapacagını": 6761,
      "tugu": 6762,
      "▁verdigini": 6763,
      "▁gectigimiz": 6764,
      "▁degilse": 6765,
      "▁denem": 6766,
      "▁acele": 6767,
      "▁atar": 6768,
      "▁yıldan": 6769,
      "▁gosterebilir": 6770,
      "▁yasadık": 6771,
      "▁asag": 6772,
      "▁bulmus": 6773,
      "▁beyan": 6774,
      "▁suret": 6775,
      "▁bakkal": 6776,
      "▁senator": 6777,
      "veren": 6778,
      "▁soyledim": 6779,
      "▁3.5": 6780,
      "lesti": 6781,
      "▁dolasır": 6782,
      "▁sahne": 6783,
      "▁hayv": 6784,
      "▁kateg": 6785,
      "▁calısır": 6786,
      "▁j.": 6787,
      "▁james": 6788,
      "▁dergi": 6789,
      "▁ucretini": 6790,
      "luktan": 6791,
      "▁cekir": 6792,
      "▁55": 6793,
      "uldugunu": 6794,
      "▁sozunu": 6795,
      "▁tutul": 6796,
      "▁saga": 6797,
      "ilmistir": 6798,
      "▁dedigi": 6799,
      "▁taraftan": 6800,
      "▁gerekc": 6801,
      "▁kısmen": 6802,
      "▁sayılı": 6803,
      "▁arkasına": 6804,
      "▁termal": 6805,
      "▁yurek": 6806,
      "▁hisselerin": 6807,
      "▁ital": 6808,
      "▁sakal": 6809,
      "▁sarhos": 6810,
      "▁kactı": 6811,
      "▁izlen": 6812,
      "▁besik": 6813,
      "▁babasının": 6814,
      "▁planlam": 6815,
      "▁havuzlar": 6816,
      "▁sesle": 6817,
      "▁mutluluk": 6818,
      "▁kisiyi": 6819,
      "▁duruma": 6820,
      "▁gazi": 6821,
      "memiz": 6822,
      "▁dinliyor": 6823,
      "▁hareketi": 6824,
      "▁kopru": 6825,
      "▁resep": 6826,
      "▁tug": 6827,
      "▁yen'den": 6828,
      "▁corb": 6829,
      "▁gulus": 6830,
      "▁yavr": 6831,
      "tigine": 6832,
      "▁cami": 6833,
      "▁beklentim": 6834,
      "▁ulkede": 6835,
      "▁fırladı": 6836,
      "▁1.0": 6837,
      "▁kurulan": 6838,
      "▁kesint": 6839,
      "▁gorevl": 6840,
      "ove": 6841,
      "▁yapılandır": 6842,
      "▁gezin": 6843,
      "▁gures": 6844,
      "▁sanatcı": 6845,
      "ebilmek": 6846,
      "▁dikkatli": 6847,
      "▁law": 6848,
      "▁halkın": 6849,
      "▁trust": 6850,
      "▁gordugum": 6851,
      "ıcılık": 6852,
      "▁eksikligi": 6853,
      "▁dısarıda": 6854,
      "▁1/8": 6855,
      "▁efendim": 6856,
      "bakır": 6857,
      "▁incelem": 6858,
      "▁omr": 6859,
      "▁fiili": 6860,
      "▁yolculu": 6861,
      "▁hurr": 6862,
      "▁duygusal": 6863,
      "▁yukseltti": 6864,
      "▁detroit'ten": 6865,
      "▁istikrar": 6866,
      "▁siparis": 6867,
      "▁organizasyon": 6868,
      "▁bedel": 6869,
      "▁ozgurluk": 6870,
      "▁jose'ye": 6871,
      "▁odanın": 6872,
      "▁sifir": 6873,
      "▁zirv": 6874,
      "▁kapasitesi": 6875,
      "▁kalmadigim": 6876,
      "▁isvic": 6877,
      "▁iktidar": 6878,
      "▁olaganustu": 6879,
      "▁geleneksel": 6880,
      "▁ltd.": 6881,
      "▁aqua": 6882,
      "▁diyarbakır": 6883,
      "▁ameliyat": 6884,
      "▁egemen": 6885,
      "-m": 6886,
      "ho": 6887,
      "kesi": 6888,
      "mec": 6889,
      "mıyorum": 6890,
      "mesin": 6891,
      "uh": 6892,
      "vi": 6893,
      "yım": 6894,
      "▁beh": 6895,
      "▁bomb": 6896,
      "▁kiz": 6897,
      "▁stu": 6898,
      "▁diler": 6899,
      "▁diyorum": 6900,
      "▁yım": 6901,
      "▁yuc": 6902,
      "▁yeg": 6903,
      "ortaj": 6904,
      "▁cesi": 6905,
      "▁calı": 6906,
      "iyel": 6907,
      "ektif": 6908,
      "▁mıydı": 6909,
      "emeyecek": 6910,
      "imet": 6911,
      "ady": 6912,
      "▁pe": 6913,
      "▁pır": 6914,
      "▁uvey": 6915,
      "umlu": 6916,
      "eyman": 6917,
      "ahmet": 6918,
      "▁fit": 6919,
      "▁fren": 6920,
      "▁nesil": 6921,
      "▁ick": 6922,
      "▁icini": 6923,
      "▁almadim": 6924,
      "▁onlardan": 6925,
      "▁ant": 6926,
      "▁anladı": 6927,
      "▁antr": 6928,
      "lıgım": 6929,
      "lıgında": 6930,
      "▁gormuyor": 6931,
      "▁goruyorum": 6932,
      "▁karlı": 6933,
      "▁zır": 6934,
      "▁isken": 6935,
      "▁vermeye": 6936,
      "▁vergisi": 6937,
      "▁konser": 6938,
      "▁laci": 6939,
      "▁love": 6940,
      "uste": 6941,
      "▁soyles": 6942,
      "▁olmam": 6943,
      "▁olmamıs": 6944,
      "▁iktis": 6945,
      "▁ederken": 6946,
      "▁seyret": 6947,
      "▁turist": 6948,
      "▁asır": 6949,
      "▁count": 6950,
      "▁kaps": 6951,
      "▁buyur": 6952,
      "▁yuklen": 6953,
      "▁karsılan": 6954,
      "▁bakarak": 6955,
      "▁baktım": 6956,
      "▁seneye": 6957,
      "▁yuzunde": 6958,
      "▁temizlen": 6959,
      "▁boya": 6960,
      "▁yemeklerini": 6961,
      "▁%2": 6962,
      "▁%3": 6963,
      "▁gozet": 6964,
      "▁dalgın": 6965,
      "▁dalga": 6966,
      "▁haket": 6967,
      "▁yoldan": 6968,
      "▁milyona": 6969,
      "▁haykır": 6970,
      "▁yazdı": 6971,
      "▁guver": 6972,
      "▁cekiyor": 6973,
      "▁cekici": 6974,
      "▁bekler": 6975,
      "▁tutan": 6976,
      "▁tutmak": 6977,
      "▁gorusmeler": 6978,
      "▁47": 6979,
      "ilmaz": 6980,
      "▁carol": 6981,
      "▁caresiz": 6982,
      "▁carsı": 6983,
      "▁tanıt": 6984,
      "ecegimiz": 6985,
      "▁boru": 6986,
      "▁getirmek": 6987,
      "▁kazanan": 6988,
      "▁muhim": 6989,
      "▁etmisti": 6990,
      "▁dusundum": 6991,
      "ibe": 6992,
      "▁7'den": 6993,
      "▁degerinde": 6994,
      "▁islemlerde": 6995,
      "▁izliyor": 6996,
      "mamalı": 6997,
      "▁guclendir": 6998,
      "▁degisimi": 6999,
      "▁degismedi": 7000,
      "▁emre": 7001,
      "▁emniyet": 7002,
      "▁emtia": 7003,
      "▁uslu": 7004,
      "▁usta": 7005,
      "▁muthis": 7006,
      "eyince": 7007,
      "▁sahipti": 7008,
      "▁annesinin": 7009,
      "▁sıg": 7010,
      "▁dilek": 7011,
      ".50": 7012,
      "▁tuv": 7013,
      "▁yenilen": 7014,
      "▁umuyor": 7015,
      "▁rahatti": 7016,
      "▁yapılıyor": 7017,
      "▁99": 7018,
      "▁oynuyor": 7019,
      "▁1.7": 7020,
      "▁iliskileri": 7021,
      "▁sogan": 7022,
      "▁uzaktan": 7023,
      "▁yaglı": 7024,
      "▁yapmaktan": 7025,
      "negi": 7026,
      "▁silin": 7027,
      "▁ugradı": 7028,
      "▁calismas": 7029,
      "sub": 7030,
      "▁hosuma": 7031,
      "▁fedakar": 7032,
      "▁alıskan": 7033,
      "▁cocuga": 7034,
      "▁bolgede": 7035,
      "▁lakırtı": 7036,
      "▁trilyon": 7037,
      "▁damar": 7038,
      "lanmıstır": 7039,
      "▁eylul'de": 7040,
      "▁suleyman": 7041,
      "▁orlando": 7042,
      "▁ufakti": 7043,
      "▁yakindi": 7044,
      "▁sisman": 7045,
      "▁morgan": 7046,
      "▁tiyatr": 7047,
      "▁iskont": 7048,
      "▁azaldı": 7049,
      "▁kıvr": 7050,
      "▁gogus": 7051,
      "▁munaseb": 7052,
      "▁muhtemel": 7053,
      "▁suyunu": 7054,
      "▁sasırtıcı": 7055,
      "▁omz": 7056,
      "▁nitelik": 7057,
      "▁uyumlu": 7058,
      "▁times": 7059,
      "▁ekipman": 7060,
      "▁vucud": 7061,
      "▁nikah": 7062,
      "▁california'ya": 7063,
      "▁miras": 7064,
      "▁anayas": 7065,
      "▁dakikada": 7066,
      "▁oksur": 7067,
      "▁tulum": 7068,
      "▁protest": 7069,
      "▁teyz": 7070,
      "▁lehman": 7071,
      "▁komitesi": 7072,
      "▁dolandır": 7073,
      "▁fazlasını": 7074,
      "▁columbus'tan": 7075,
      "▁fizik": 7076,
      "▁yedek": 7077,
      "▁paranin": 7078,
      "▁govd": 7079,
      "▁eroin": 7080,
      "▁mosk": 7081,
      "▁tesaduf": 7082,
      "▁florida": 7083,
      "▁plastik": 7084,
      "▁roportaj": 7085,
      "▁kidder": 7086,
      "▁lacivert": 7087,
      "▁county": 7088,
      "cik": 7089,
      "fez": 7090,
      "has": 7091,
      "kul": 7092,
      "line": 7093,
      "lesi": 7094,
      "lilig": 7095,
      "melerin": 7096,
      "odu": 7097,
      "sir": 7098,
      "temiz": 7099,
      "vili": 7100,
      "yeni": 7101,
      "▁lif": 7102,
      "▁kuyu": 7103,
      "▁sum": 7104,
      "▁saman": 7105,
      "▁dım": 7106,
      "▁diyordu": 7107,
      "enen": 7108,
      "▁gm": 7109,
      "▁odu": 7110,
      "iliyordu": 7111,
      "undeki": 7112,
      "larken": 7113,
      "▁halı": 7114,
      "▁hot": 7115,
      "▁hug": 7116,
      "▁cav": 7117,
      "▁cbs": 7118,
      "▁biriydi": 7119,
      "▁miz": 7120,
      "▁ves": 7121,
      "▁pey": 7122,
      "▁olsaydı": 7123,
      "oker": 7124,
      "denin": 7125,
      "ımları": 7126,
      "ita": 7127,
      "▁nori": 7128,
      "▁naci": 7129,
      "agım": 7130,
      "abi": 7131,
      "abını": 7132,
      "abilmesi": 7133,
      "▁icimde": 7134,
      "▁rey": 7135,
      "▁raki": 7136,
      "▁ramiz": 7137,
      "▁rıh": 7138,
      "asıdır": 7139,
      "▁ucusunu": 7140,
      "▁1\\/8": 7141,
      "▁sonsuz": 7142,
      "▁ismini": 7143,
      "▁etek": 7144,
      "▁istiyorlar": 7145,
      "▁engin": 7146,
      "▁orgu": 7147,
      "▁les": 7148,
      "▁dusuyor": 7149,
      "▁gecip": 7150,
      "▁atmak": 7151,
      "acaklar": 7152,
      "▁elimi": 7153,
      "▁gerci": 7154,
      "▁cıkmaz": 7155,
      "▁cıkınca": 7156,
      "▁ikiye": 7157,
      "▁ikna": 7158,
      "▁partiler": 7159,
      "▁yasat": 7160,
      "▁buyut": 7161,
      "▁satılan": 7162,
      "▁mud": 7163,
      "▁zamandan": 7164,
      "▁33": 7165,
      "▁%9": 7166,
      "▁toplu": 7167,
      "▁gozluk": 7168,
      "▁yeteri": 7169,
      "iyetini": 7170,
      "▁kayak": 7171,
      "▁kayık": 7172,
      "▁hakan": 7173,
      "▁milyonluk": 7174,
      "▁katlı": 7175,
      "▁calısmak": 7176,
      "▁calısıyordu": 7177,
      "▁jersey": 7178,
      "▁cekin": 7179,
      "▁cekip": 7180,
      "▁girmek": 7181,
      "▁girmis": 7182,
      "▁sozlerine": 7183,
      "▁tutuk": 7184,
      "▁kestir": 7185,
      "▁konusma": 7186,
      "▁saglayan": 7187,
      "▁kullanılıyor": 7188,
      "▁48": 7189,
      "▁atlanta'da": 7190,
      "▁kısın": 7191,
      "▁terbiy": 7192,
      "▁etmistir": 7193,
      "▁yuregi": 7194,
      "▁david": 7195,
      "▁telas": 7196,
      "▁sade": 7197,
      "▁italya": 7198,
      "▁7\\/8": 7199,
      "mazlar": 7200,
      "▁krizi": 7201,
      "▁secildi": 7202,
      "▁62": 7203,
      "▁musun": 7204,
      "▁tabur": 7205,
      "▁dısına": 7206,
      "malarına": 7207,
      "▁ustunden": 7208,
      "▁80": 7209,
      "▁kendisinin": 7210,
      "▁dinlem": 7211,
      "▁dinlemek": 7212,
      "▁makam": 7213,
      "▁goruntu": 7214,
      "▁ıskarta": 7215,
      "▁komun": 7216,
      "▁genclik": 7217,
      "▁servet": 7218,
      "▁abd'nin": 7219,
      "▁tamamladı": 7220,
      "▁kaynagı": 7221,
      "▁ulkemiz": 7222,
      "▁mars": 7223,
      "▁yeterliydi": 7224,
      "▁oldukları": 7225,
      "▁vakti": 7226,
      "▁saclarını": 7227,
      "▁mekte": 7228,
      "▁fonu": 7229,
      "▁golge": 7230,
      "▁parcaları": 7231,
      "stit": 7232,
      "▁borclu": 7233,
      "▁gidiyoruz": 7234,
      "▁isletmeler": 7235,
      "▁olanaklarını": 7236,
      "▁kocası": 7237,
      "▁agzı": 7238,
      "▁cumhuriyeti": 7239,
      "▁istiyoruz": 7240,
      "▁sokakta": 7241,
      "▁kuzu": 7242,
      "▁titiz": 7243,
      "▁universite": 7244,
      "▁nisan'da": 7245,
      "▁bekledigini": 7246,
      "▁sorular": 7247,
      "▁demokrat": 7248,
      "▁universitesi": 7249,
      "▁olmalıydı": 7250,
      "▁mesela": 7251,
      "▁ataturk'un": 7252,
      "▁edecegim": 7253,
      "▁sohret": 7254,
      "▁detroit'e": 7255,
      "▁lisans": 7256,
      "▁kalkıslı": 7257,
      "▁ign": 7258,
      "▁curuk": 7259,
      "▁edici": 7260,
      "▁tuccarlar": 7261,
      "▁mutfak": 7262,
      "▁zira": 7263,
      "▁eglenceli": 7264,
      "rahim": 7265,
      "▁orgut": 7266,
      "▁burbank'a": 7267,
      "▁sıcr": 7268,
      "▁zihn": 7269,
      "▁muhalef": 7270,
      "▁william": 7271,
      "▁vasat": 7272,
      "▁tohum": 7273,
      "▁patlıcan": 7274,
      "▁cukur": 7275,
      "▁temettu": 7276,
      "▁azınlık": 7277,
      "▁disiplin": 7278,
      "▁avustralya": 7279,
      "▁italyan": 7280,
      "▁resepsiyon": 7281,
      "▁isvicre": 7282,
      "▁norieg": 7283,
      "'teki": 7284,
      "40": 7285,
      "a.": 7286,
      "aa": 7287,
      "ael": 7288,
      "buk": 7289,
      "cum": 7290,
      "dini": 7291,
      "fed": 7292,
      "hen": 7293,
      "loy": 7294,
      "nik": 7295,
      "ota": 7296,
      "ubu": 7297,
      "wn": 7298,
      "yle": 7299,
      "▁sise": 7300,
      "▁go": 7301,
      "▁gro": 7302,
      "ildik": 7303,
      "▁he": 7304,
      "▁cetin": 7305,
      "etti": 7306,
      "atin": 7307,
      "iza": 7308,
      "▁bufe": 7309,
      "▁ded": 7310,
      "▁nus": 7311,
      "ista": 7312,
      "▁alcak": 7313,
      "▁alıyordu": 7314,
      "▁alamadik": 7315,
      "▁arb": 7316,
      "▁rut": 7317,
      "▁antik": 7318,
      "▁baslık": 7319,
      "▁basladık": 7320,
      "lılar": 7321,
      "gide": 7322,
      "▁gorme": 7323,
      "▁ucusta": 7324,
      "▁zan": 7325,
      "▁yaptim": 7326,
      "▁neh": 7327,
      "▁ismi": 7328,
      "▁eti": 7329,
      "▁vererek": 7330,
      "▁istir": 7331,
      "▁bilgisi": 7332,
      "ıyordum": 7333,
      "ıyorlardı": 7334,
      "▁lab": 7335,
      "madigim": 7336,
      "▁denen": 7337,
      "tex": 7338,
      "▁atesi": 7339,
      "▁attıgı": 7340,
      "▁elim": 7341,
      "dırdı": 7342,
      "▁kenara": 7343,
      "'nı": 7344,
      "▁temp": 7345,
      "▁cıktım": 7346,
      "▁yara": 7347,
      "▁kapali": 7348,
      "▁kapısını": 7349,
      "▁havaya": 7350,
      "rand": 7351,
      "▁uyuy": 7352,
      "▁uyarı": 7353,
      "▁bulmadim": 7354,
      "▁bulbul": 7355,
      "iger": 7356,
      "igit": 7357,
      "▁yangın": 7358,
      "▁est": 7359,
      "▁yuklu": 7360,
      "▁baker": 7361,
      "▁yuzey": 7362,
      "▁doga": 7363,
      "▁topar": 7364,
      "▁gozlerim": 7365,
      "▁yetmis": 7366,
      "lesme": 7367,
      "▁sauna": 7368,
      "▁kaydı": 7369,
      "▁ortada": 7370,
      "▁sahin": 7371,
      "abilirdi": 7372,
      "abiliriz": 7373,
      "▁yolunda": 7374,
      "▁ozet": 7375,
      "▁yazılım": 7376,
      "▁oteller": 7377,
      "▁calısması": 7378,
      "▁tahsil": 7379,
      "▁tahvili": 7380,
      "▁girip": 7381,
      "▁puana": 7382,
      "▁sagladı": 7383,
      "▁ustlen": 7384,
      "▁kullandı": 7385,
      "▁korfez": 7386,
      "▁duydum": 7387,
      "sızın": 7388,
      "▁tanesi": 7389,
      "▁taslar": 7390,
      "▁tasır": 7391,
      "ımızdan": 7392,
      "▁acıklama": 7393,
      "▁getiren": 7394,
      "▁gitmeyi": 7395,
      "▁takv": 7396,
      "▁aileye": 7397,
      "▁sayılır": 7398,
      "▁avantaj": 7399,
      "▁egz": 7400,
      "▁aksamları": 7401,
      "▁tertemiz": 7402,
      "▁hata": 7403,
      "▁ceviz": 7404,
      "▁davası": 7405,
      "▁listeleyebilir": 7406,
      "▁ittif": 7407,
      "▁sıkıstır": 7408,
      "▁tatildi": 7409,
      "▁oturuyor": 7410,
      "▁mesut": 7411,
      "▁kalkar": 7412,
      "▁sehre": 7413,
      "▁kisiye": 7414,
      "▁kisilerin": 7415,
      "▁kararlı": 7416,
      "ınıza": 7417,
      "ento": 7418,
      "memisti": 7419,
      "▁kub": 7420,
      "▁erkenden": 7421,
      "▁south": 7422,
      "▁cogal": 7423,
      "▁cogunu": 7424,
      "▁abd'de": 7425,
      "▁corap": 7426,
      "▁umur": 7427,
      "▁arkadasım": 7428,
      "▁bosalt": 7429,
      "▁duzenlenen": 7430,
      "erve": 7431,
      "▁kokulu": 7432,
      "▁iran": 7433,
      "▁benziyor": 7434,
      "▁market": 7435,
      "▁gorevi": 7436,
      "▁gorevlisi": 7437,
      "▁guvenli": 7438,
      "▁birbirini": 7439,
      "▁vakıf": 7440,
      "▁agırlık": 7441,
      "▁soyluyorlar": 7442,
      "tısını": 7443,
      "▁zarif": 7444,
      "▁sebeb": 7445,
      "▁seviyesinde": 7446,
      "▁minim": 7447,
      "▁kitaplar": 7448,
      "▁hoslan": 7449,
      "▁gidiyorum": 7450,
      "▁catlak": 7451,
      "▁150": 7452,
      "▁ciftlik": 7453,
      "▁ibrahim": 7454,
      "▁kardesi": 7455,
      "▁reddet": 7456,
      "▁agacın": 7457,
      "▁sezl": 7458,
      "▁lastik": 7459,
      "larımızın": 7460,
      "ıcık": 7461,
      "▁atese": 7462,
      "▁komisyonlar": 7463,
      "▁afrika": 7464,
      "▁kuvvetleri": 7465,
      "▁vazif": 7466,
      "▁dısarıya": 7467,
      "▁hedefi": 7468,
      "▁kampanya": 7469,
      "ijinal": 7470,
      "▁nazar": 7471,
      "▁senetlerinin": 7472,
      "▁dusunceler": 7473,
      "▁gorulen": 7474,
      "▁panik": 7475,
      "ock": 7476,
      "▁yelpaz": 7477,
      "▁avukatlar": 7478,
      "▁yataklar": 7479,
      "▁ertelen": 7480,
      "▁tedavi": 7481,
      "kei": 7482,
      "▁okumak": 7483,
      "▁baglantılı": 7484,
      "▁yasadıgı": 7485,
      "▁kapsamlı": 7486,
      "▁grev": 7487,
      "▁tedarik": 7488,
      "▁worth'a": 7489,
      "▁cincinnati'ye": 7490,
      "▁sahneye": 7491,
      "▁kompoz": 7492,
      "▁alkıs": 7493,
      "▁sovyetler": 7494,
      "▁nikkei": 7495,
      "▁3/8": 7496,
      "▁tampa'ya": 7497,
      "▁minneapolis'e": 7498,
      "▁plaj": 7499,
      "▁yararlı": 7500,
      "▁iyilestir": 7501,
      "▁medya": 7502,
      "▁british": 7503,
      "▁populer": 7504,
      "▁muzakere": 7505,
      "▁verebilirim": 7506,
      "▁dr.": 7507,
      "▁hazırlanısı": 7508,
      "▁heves": 7509,
      "▁musluman": 7510,
      "▁agabey": 7511,
      "▁tatlilar": 7512,
      "▁kaybeden": 7513,
      "▁merhaba": 7514,
      "▁alım-satım": 7515,
      "▁sampiyon": 7516,
      "▁hurriyet": 7517,
      "▁iskonto": 7518,
      "▁munasebet": 7519,
      "▁rıhtım": 7520,
      "▁ittifak": 7521,
      "-s": 7522,
      "10": 7523,
      "47": 7524,
      "48": 7525,
      "cin": 7526,
      "dınız": 7527,
      "fı": 7528,
      "graf": 7529,
      "rin": 7530,
      "renin": 7531,
      "sık": 7532,
      "vest": 7533,
      "xel": 7534,
      "▁badem": 7535,
      "anla": 7536,
      "▁kef": 7537,
      "▁klim": 7538,
      "▁dey": 7539,
      "▁dalı": 7540,
      "▁dre": 7541,
      "▁deyip": 7542,
      "endi": 7543,
      "▁yagı": 7544,
      "ilmek": 7545,
      "ors": 7546,
      "▁tetik": 7547,
      "iser": 7548,
      "eksiyon": 7549,
      "atını": 7550,
      "imler": 7551,
      "▁olgu": 7552,
      "▁bulas": 7553,
      "▁buluyor": 7554,
      "ical": 7555,
      "▁vez": 7556,
      "▁fis": 7557,
      "ılmaya": 7558,
      "ıldım": 7559,
      "▁alanı": 7560,
      "▁aldık": 7561,
      "▁onlarla": 7562,
      "▁rab": 7563,
      "lanıp": 7564,
      "lanmaya": 7565,
      "▁basken": 7566,
      "▁gormemis": 7567,
      "▁ucusunun": 7568,
      "▁zil": 7569,
      "▁yapmadim": 7570,
      "▁isgal": 7571,
      "▁iyilik": 7572,
      "alarak": 7573,
      "▁ayagı": 7574,
      "▁isteme": 7575,
      "dirgin": 7576,
      "▁orhan": 7577,
      "▁orijinal": 7578,
      "▁l.": 7579,
      "▁lin": 7580,
      "▁lor": 7581,
      "▁ley": 7582,
      "▁luz": 7583,
      "▁benzet": 7584,
      "▁degiller": 7585,
      "▁degiliz": 7586,
      "lamayı": 7587,
      "mıstım": 7588,
      "▁acım": 7589,
      "▁acmak": 7590,
      "▁sansı": 7591,
      "▁atıp": 7592,
      "▁otesinde": 7593,
      "▁elinin": 7594,
      "▁olmasın": 7595,
      "▁edemez": 7596,
      "▁yılki": 7597,
      "eginden": 7598,
      "▁seydi": 7599,
      "▁kurumu": 7600,
      "▁paral": 7601,
      "▁tekne": 7602,
      "▁2.6": 7603,
      "▁bayagi": 7604,
      "▁esin": 7605,
      "▁bey'in": 7606,
      "▁beyoglu": 7607,
      "▁sened": 7608,
      "▁muv": 7609,
      "▁degisti": 7610,
      "00000": 7611,
      "▁memnuniyeti": 7612,
      "▁temizliginden": 7613,
      "▁eklem": 7614,
      "▁boyuna": 7615,
      "▁fiyatlarının": 7616,
      "▁bunal": 7617,
      "▁bunca": 7618,
      "▁gozle": 7619,
      "iyetle": 7620,
      "▁sirkette": 7621,
      "▁yollarını": 7622,
      "▁onundeki": 7623,
      "▁girdik": 7624,
      "▁195": 7625,
      "▁konusmak": 7626,
      "▁cesitler": 7627,
      "▁saglar": 7628,
      "▁kullanarak": 7629,
      "▁kanunu": 7630,
      "▁butc": 7631,
      "▁kore": 7632,
      "▁korid": 7633,
      "ilmesine": 7634,
      "▁kıza": 7635,
      "▁kızım": 7636,
      "▁eristi": 7637,
      "▁sıradan": 7638,
      "▁pazarı": 7639,
      "▁sayıl": 7640,
      "▁sayısını": 7641,
      "▁malum": 7642,
      "▁hatt": 7643,
      "▁bulundur": 7644,
      "▁telgraf": 7645,
      "▁belirlen": 7646,
      "▁kosede": 7647,
      "▁sarsın": 7648,
      "mezdi": 7649,
      "▁bırakır": 7650,
      "▁tatmin": 7651,
      "abilecegi": 7652,
      "▁krem": 7653,
      "▁babama": 7654,
      "inceye": 7655,
      "▁kıyı": 7656,
      "▁mesgul": 7657,
      "▁meshur": 7658,
      "suzluk": 7659,
      "alanmıs": 7660,
      "▁emlak": 7661,
      "landık": 7662,
      "maların": 7663,
      "▁fakult": 7664,
      "▁polonya": 7665,
      "▁kuslar": 7666,
      "▁pazarlama": 7667,
      "▁1986": 7668,
      "▁askın": 7669,
      "▁ihtiyacları": 7670,
      "▁teklifler": 7671,
      "▁inanilmaz": 7672,
      "▁oncelik": 7673,
      "▁oyunc": 7674,
      "▁sunul": 7675,
      "▁fırın": 7676,
      "▁kurulusu": 7677,
      "▁sola": 7678,
      "▁haberleri": 7679,
      "▁daral": 7680,
      "▁tedirgin": 7681,
      "▁karsilas": 7682,
      "▁bozul": 7683,
      "▁rock": 7684,
      "▁ufuk": 7685,
      "▁laik": 7686,
      "▁gidiyordu": 7687,
      "▁dayanır": 7688,
      "▁cozul": 7689,
      "▁giys": 7690,
      "▁okula": 7691,
      "▁olayın": 7692,
      "▁yarattı": 7693,
      "▁cenaz": 7694,
      "▁alakasi": 7695,
      "▁samim": 7696,
      "▁pisman": 7697,
      "▁adımlarla": 7698,
      "▁noktada": 7699,
      "▁coluk": 7700,
      "▁bilgileri": 7701,
      "▁toplumsal": 7702,
      "▁semp": 7703,
      "▁siyasal": 7704,
      "▁sektoru": 7705,
      "▁kurtulmak": 7706,
      "▁ezber": 7707,
      "leyebil": 7708,
      "▁ureticileri": 7709,
      "▁ileride": 7710,
      "▁huzurlu": 7711,
      "▁siddetle": 7712,
      "▁yunus": 7713,
      "▁ceph": 7714,
      "▁inceleme": 7715,
      "▁olmalıdır": 7716,
      "▁endustriyel": 7717,
      "▁hikaye": 7718,
      "▁sartları": 7719,
      "▁japonya'da": 7720,
      "emeyecegim": 7721,
      "▁kacındı": 7722,
      "▁tasımac": 7723,
      "▁dusundugum": 7724,
      "▁muhalif": 7725,
      "▁kagıdı": 7726,
      "▁takdirde": 7727,
      "▁akrab": 7728,
      "▁seviyede": 7729,
      "▁olasılık": 7730,
      "▁sekreter": 7731,
      "▁richard": 7732,
      "▁industries": 7733,
      "akkak": 7734,
      "▁balkon": 7735,
      "▁erdogan": 7736,
      "▁ceyreginde": 7737,
      "▁vicdan": 7738,
      "▁lubnan": 7739,
      "▁britanya": 7740,
      "▁moody's": 7741,
      "▁hutton": 7742,
      "▁skandal": 7743,
      "▁besiktas": 7744,
      "▁muddet": 7745,
      "▁group": 7746,
      "▁minimum": 7747,
      "▁drexel": 7748,
      "bab": 7749,
      "bine": 7750,
      "cın": 7751,
      "furt": 7752,
      "leleri": 7753,
      "mesiyle": 7754,
      "pal": 7755,
      "res": 7756,
      "rem": 7757,
      "ts": 7758,
      "zat": 7759,
      "intex": 7760,
      "▁kın": 7761,
      "▁sop": 7762,
      "▁sed": 7763,
      "iriz": 7764,
      "▁gas": 7765,
      "▁guz": 7766,
      "▁yalı": 7767,
      "ilip": 7768,
      "▁hekim": 7769,
      "▁cuz": 7770,
      "▁cuv": 7771,
      "iyla": 7772,
      "urum": 7773,
      "▁plak": 7774,
      "izdi": 7775,
      "ikli": 7776,
      "azi": 7777,
      "leer": 7778,
      "ılma": 7779,
      "▁niz": 7780,
      "▁nom": 7781,
      "▁neyse": 7782,
      "ola": 7783,
      "▁icat": 7784,
      "▁alana": 7785,
      "▁aldat": 7786,
      "▁aradı": 7787,
      "▁onda": 7788,
      "lidir": 7789,
      "▁ros": 7790,
      "▁rom": 7791,
      "landa": 7792,
      "▁kaldık": 7793,
      "▁baslamak": 7794,
      "gia": 7795,
      "▁gormedik": 7796,
      "▁gorule": 7797,
      "▁karad": 7798,
      "▁ucusunda": 7799,
      "tip": 7800,
      "▁1000": 7801,
      "▁yapıyordu": 7802,
      "▁yapıyorlar": 7803,
      "▁sondur": 7804,
      "▁islerin": 7805,
      "tubet": 7806,
      "▁gelmek": 7807,
      "▁geldiler": 7808,
      "▁varır": 7809,
      "▁verip": 7810,
      "▁vermiyor": 7811,
      "▁vermeyi": 7812,
      "dirdi": 7813,
      "▁bilimin": 7814,
      "esidir": 7815,
      "▁ens": 7816,
      "▁konuyla": 7817,
      "▁lloy": 7818,
      "▁gecis": 7819,
      "▁gecmek": 7820,
      "▁gecmeden": 7821,
      "▁sandık": 7822,
      "mekle": 7823,
      "▁akp": 7824,
      "acaktı": 7825,
      "▁gerce": 7826,
      "▁gercegi": 7827,
      "▁kentin": 7828,
      "'nden": 7829,
      "▁kotul": 7830,
      "lenin": 7831,
      "▁ikiser": 7832,
      "▁parası": 7833,
      "▁yerlere": 7834,
      "▁adil": 7835,
      "▁yasına": 7836,
      "▁yasamadim": 7837,
      "eceklerini": 7838,
      "▁turden": 7839,
      "▁2.7": 7840,
      "▁bayr": 7841,
      "▁uye": 7842,
      "▁bulgar": 7843,
      "▁evlilik": 7844,
      "eph": 7845,
      "▁yanık": 7846,
      "▁yandı": 7847,
      "▁yanından": 7848,
      "▁yanımda": 7849,
      "▁eseri": 7850,
      "▁surede": 7851,
      "▁durust": 7852,
      "▁suları": 7853,
      "▁bakmak": 7854,
      "▁oyuna": 7855,
      "▁agacı": 7856,
      "▁zamandır": 7857,
      "imizden": 7858,
      "▁odunc": 7859,
      "leriniz": 7860,
      "muslar": 7861,
      "▁sevg": 7862,
      "abilirler": 7863,
      "abilirsiniz": 7864,
      "▁yollar": 7865,
      "▁yolları": 7866,
      "▁hayalet": 7867,
      "▁calısmaları": 7868,
      "▁cesur": 7869,
      "lett": 7870,
      "▁bursa": 7871,
      "▁dergiler": 7872,
      "▁54": 7873,
      "eff": 7874,
      "▁sozde": 7875,
      "▁soyledigi": 7876,
      "▁kesti": 7877,
      "▁kesilmis": 7878,
      "▁diyebilir": 7879,
      "▁kullandim": 7880,
      "▁kullandıgı": 7881,
      "▁kullanmadik": 7882,
      "▁duyul": 7883,
      "▁duyuru": 7884,
      "▁tavan": 7885,
      "▁tanr": 7886,
      "▁kazanıyor": 7887,
      "▁eren": 7888,
      "▁erdem": 7889,
      "▁kısalt": 7890,
      "▁taksi": 7891,
      "▁taklit": 7892,
      "▁haftanın": 7893,
      "▁cıkardıgı": 7894,
      "▁muhakkak": 7895,
      "▁teror": 7896,
      "▁etmey": 7897,
      "▁etmiyorum": 7898,
      "▁bulunur": 7899,
      "▁piyasasında": 7900,
      "▁ulasan": 7901,
      "▁ulastır": 7902,
      "▁imaj": 7903,
      "▁digeri": 7904,
      "▁olurlar": 7905,
      "▁karsıtı": 7906,
      "▁sarf": 7907,
      "▁ozellik": 7908,
      "▁canlandır": 7909,
      "▁mahm": 7910,
      "▁merkezinde": 7911,
      "▁manev": 7912,
      "umuzun": 7913,
      "▁sesler": 7914,
      "▁yaklasım": 7915,
      "▁emine": 7916,
      "▁mute": 7917,
      "▁bitti": 7918,
      "▁anlamı": 7919,
      "▁onemsiz": 7920,
      "▁dısisleri": 7921,
      "▁olacaktı": 7922,
      "▁dinler": 7923,
      "▁basladıgı": 7924,
      "▁yenilik": 7925,
      "▁hamal": 7926,
      "▁bosan": 7927,
      "▁etmekte": 7928,
      "▁turkiye'ye": 7929,
      "▁9'dan": 7930,
      "adıkları": 7931,
      "▁alanında": 7932,
      "▁oranla": 7933,
      "▁cagırdı": 7934,
      "▁programları": 7935,
      "▁mevcuttur": 7936,
      "▁ticaretinde": 7937,
      "▁kazanclar": 7938,
      "▁kemer": 7939,
      "▁yumruk": 7940,
      "▁rutubet": 7941,
      "▁dikkatle": 7942,
      "▁tabiat": 7943,
      "▁muhtac": 7944,
      "▁acıga": 7945,
      "▁suclu": 7946,
      "▁hatırlat": 7947,
      "▁yetkilisi": 7948,
      "▁degistirdi": 7949,
      "▁dusunuyoruz": 7950,
      "▁agzından": 7951,
      "▁alakaliydi": 7952,
      "▁gunesin": 7953,
      "▁yanlis": 7954,
      "dayım": 7955,
      "▁gittigi": 7956,
      "▁sınırlı": 7957,
      "▁kilis": 7958,
      "▁yoneticiler": 7959,
      "▁dayak": 7960,
      "▁a.m": 7961,
      "▁bahceye": 7962,
      "▁tuketim": 7963,
      "▁nihai": 7964,
      "▁saffet": 7965,
      "▁gidece": 7966,
      "▁rakamları": 7967,
      "▁demokrasi": 7968,
      "▁yelken": 7969,
      "▁kenarında": 7970,
      "▁ısıgı": 7971,
      "▁tipi": 7972,
      "▁pasif": 7973,
      "▁malzeme": 7974,
      "sekiz": 7975,
      "▁kıvıl": 7976,
      "▁rady": 7977,
      "▁celal": 7978,
      "▁egilim": 7979,
      "▁danısmanı": 7980,
      "▁kaybed": 7981,
      "▁worth'dan": 7982,
      "▁kupon": 7983,
      "▁field": 7984,
      "▁doyur": 7985,
      "▁depo": 7986,
      "▁yaptıkları": 7987,
      "▁komplek": 7988,
      "▁oyuncular": 7989,
      "▁sevgili": 7990,
      "▁istiklal": 7991,
      "▁nashville'ye": 7992,
      "▁namus": 7993,
      "▁sinema": 7994,
      "▁cehenn": 7995,
      "▁baslangıcta": 7996,
      "▁burbank'tan": 7997,
      "▁beach'tan": 7998,
      "▁analizciler": 7999,
      "▁fenerbah": 8000,
      "▁qintex": 8001,
      "▁kredileri": 8002,
      "▁komutan": 8003,
      "▁zeytiny": 8004,
      "▁ceo": 8005,
      "▁milletvekili": 8006,
      "▁aktiviteler": 8007,
      "▁warner": 8008,
      "▁meger": 8009,
      "▁yansıtıyor": 8010,
      "▁bankacılık": 8011,
      "▁nukleer": 8012,
      "▁yucel": 8013,
      "▁cesidi": 8014,
      "▁tuvalet": 8015,
      "▁sezlong": 8016,
      "▁kompozit": 8017,
      "▁lloyd": 8018,
      "bre": 8019,
      "ginde": 8020,
      "ko": 8021,
      "sika": 8022,
      "uga": 8023,
      "ıver": 8024,
      "anız": 8025,
      "▁kadi": 8026,
      "▁keder": 8027,
      "▁s.": 8028,
      "▁dul": 8029,
      "irleri": 8030,
      "▁gri": 8031,
      "▁yse": 8032,
      "▁yep": 8033,
      "▁yken": 8034,
      "ildim": 8035,
      "ilebilecek": 8036,
      "larim": 8037,
      "aklar": 8038,
      "▁toy": 8039,
      "▁tram": 8040,
      "▁hip": 8041,
      "▁hediy": 8042,
      "▁cark": 8043,
      "iyesi": 8044,
      "▁vali": 8045,
      "amamıs": 8046,
      "attı": 8047,
      "▁plat": 8048,
      "▁past": 8049,
      "▁ua": 8050,
      "▁ulu": 8051,
      "▁olumu": 8052,
      "ısır": 8053,
      "azz": 8054,
      "uzu": 8055,
      "acan": 8056,
      "▁fah": 8057,
      "ectr": 8058,
      "ecilik": 8059,
      "▁ucte": 8060,
      "▁ucunda": 8061,
      "▁ilc": 8062,
      "▁alli": 8063,
      "▁alabil": 8064,
      "▁almıstı": 8065,
      "▁almadan": 8066,
      "▁artıyor": 8067,
      "iyorsun": 8068,
      "osunda": 8069,
      "▁ramaz": 8070,
      "▁razı": 8071,
      "▁anlar": 8072,
      "▁anladım": 8073,
      "▁gormeye": 8074,
      "▁karlar": 8075,
      "▁kariyer": 8076,
      "▁zemin": 8077,
      "▁zahmet": 8078,
      "▁yapıstır": 8079,
      "▁ism": 8080,
      "▁gelecegini": 8081,
      "▁varmak": 8082,
      "▁varlıgı": 8083,
      "alarıyla": 8084,
      "▁ayıp": 8085,
      "▁ayarlan": 8086,
      "▁inis": 8087,
      "▁etki": 8088,
      "▁veremem": 8089,
      "eveyn": 8090,
      "aff": 8091,
      "▁istat": 8092,
      "mail": 8093,
      "▁dususu": 8094,
      "▁gecmesi": 8095,
      "mısım": 8096,
      "▁ii": 8097,
      "▁iv": 8098,
      "▁acıyor": 8099,
      "▁akan": 8100,
      "▁gununun": 8101,
      "▁olmanın": 8102,
      "▁olmaması": 8103,
      "▁cıktık": 8104,
      "▁seytan": 8105,
      "▁seylerin": 8106,
      "▁kurs": 8107,
      "▁kuresel": 8108,
      "ecekler": 8109,
      "▁turb": 8110,
      "▁comer": 8111,
      "▁kapısı": 8112,
      "▁kapısından": 8113,
      "▁20.": 8114,
      "▁uyeleri": 8115,
      "▁yanan": 8116,
      "▁donusu": 8117,
      "▁halbuk": 8118,
      "▁esyalar": 8119,
      "▁beyn": 8120,
      "▁sureli": 8121,
      "▁calın": 8122,
      "ebec": 8123,
      "▁karsilik": 8124,
      "▁yuze": 8125,
      "▁bizler": 8126,
      "▁odası": 8127,
      "▁%4": 8128,
      "▁gozlerinin": 8129,
      "musum": 8130,
      "lesen": 8131,
      "edigi": 8132,
      "iyetin": 8133,
      "▁sevimli": 8134,
      "▁sahit": 8135,
      "▁hakem": 8136,
      "▁yazılı": 8137,
      "▁gule": 8138,
      "▁calısıyorlar": 8139,
      "▁jan": 8140,
      "▁burc": 8141,
      "▁cekic": 8142,
      "▁leble": 8143,
      "▁pros": 8144,
      "▁sozlerini": 8145,
      "▁denizde": 8146,
      "▁ayrica": 8147,
      "▁kesim": 8148,
      "▁konusmayı": 8149,
      "▁gorusmek": 8150,
      "▁bagladı": 8151,
      "▁saglay": 8152,
      "▁koruma": 8153,
      "▁ettigim": 8154,
      "▁saatlik": 8155,
      "▁salın": 8156,
      "▁gereksin": 8157,
      "▁koymak": 8158,
      "▁sabahtan": 8159,
      "▁kazanarak": 8160,
      "▁kalitesini": 8161,
      "leyic": 8162,
      "▁abart": 8163,
      "▁cıkarma": 8164,
      "layın": 8165,
      "▁tered": 8166,
      "▁aynen": 8167,
      "▁hisselerinin": 8168,
      "acıların": 8169,
      "▁belirten": 8170,
      "▁banyosu": 8171,
      "▁mide": 8172,
      "▁doksan": 8173,
      "▁72": 8174,
      "▁73": 8175,
      "▁duzeni": 8176,
      "▁koseye": 8177,
      "▁kosesinde": 8178,
      "▁sarar": 8179,
      "▁sarım": 8180,
      "▁uzuntu": 8181,
      "▁kacırdı": 8182,
      "▁bırakmıs": 8183,
      "▁secur": 8184,
      "▁isleme": 8185,
      "▁islemleri": 8186,
      "▁hanima": 8187,
      "▁mesele": 8188,
      "▁usak": 8189,
      "▁bitmis": 8190,
      "ford": 8191,
      "▁istemis": 8192,
      "▁89": 8193,
      "▁cograf": 8194,
      "▁gorundu": 8195,
      "▁koms": 8196,
      "▁gencler": 8197,
      "luyordu": 8198,
      "▁ressam": 8199,
      "▁gecirmek": 8200,
      "▁ayakları": 8201,
      "▁tamamıyla": 8202,
      "▁umum": 8203,
      "▁anlasması": 8204,
      "▁inanılmaz": 8205,
      "▁oncelikle": 8206,
      "▁cıktılar": 8207,
      "▁campe": 8208,
      "▁kapanıs": 8209,
      "▁sinan": 8210,
      "▁mukelle": 8211,
      "▁irad": 8212,
      "▁oyuncusu": 8213,
      "▁1.4": 8214,
      "▁donemin": 8215,
      "▁konularda": 8216,
      "▁gorevini": 8217,
      "▁torb": 8218,
      "▁sonucta": 8219,
      "▁birbirinden": 8220,
      "▁birbirlerini": 8221,
      "▁saclı": 8222,
      "▁mustes": 8223,
      "▁belirttigim": 8224,
      "▁meksika": 8225,
      "▁kaldırım": 8226,
      "▁kaldırdı": 8227,
      "▁metin": 8228,
      "▁meyhan": 8229,
      "▁toplant": 8230,
      "▁baskalarına": 8231,
      "▁bicimi": 8232,
      "▁gelisme": 8233,
      "▁gelismis": 8234,
      "melerine": 8235,
      "▁hafiflet": 8236,
      "▁giymis": 8237,
      "▁olaylar": 8238,
      "▁cezası": 8239,
      "▁dusunuyordu": 8240,
      ".875": 8241,
      "▁harcama": 8242,
      "▁reagan": 8243,
      "▁meclisi": 8244,
      "▁kimseyi": 8245,
      "▁dogrul": 8246,
      "ations": 8247,
      "▁aklıma": 8248,
      "▁cizgi": 8249,
      "▁daire": 8250,
      "▁analistlerin": 8251,
      "▁sistemleri": 8252,
      "▁liraya": 8253,
      "▁yazarın": 8254,
      "▁ulasımını": 8255,
      "▁sembol": 8256,
      "▁pencereden": 8257,
      "▁hırs": 8258,
      "▁filistin": 8259,
      "▁a.s": 8260,
      "▁balıkcı": 8261,
      "▁bedav": 8262,
      "▁yogurt": 8263,
      "▁opsiyon": 8264,
      "▁limuz": 8265,
      "▁gayri": 8266,
      "▁menfa": 8267,
      "▁evvela": 8268,
      "▁acılıs": 8269,
      "▁bahsediyor": 8270,
      "▁cikista": 8271,
      "▁kenarları": 8272,
      "melidir": 8273,
      "iliginden": 8274,
      "urluge": 8275,
      "▁makinesi": 8276,
      "▁1988'de": 8277,
      "▁hadis": 8278,
      "▁memleketin": 8279,
      "▁tehlike": 8280,
      "▁imza": 8281,
      "▁calisanlarin": 8282,
      "▁tanıtım": 8283,
      "▁keyf": 8284,
      "▁heyecanla": 8285,
      "▁montreal'dan": 8286,
      "lulugunu": 8287,
      "▁depart": 8288,
      "▁suphe": 8289,
      "▁esnasında": 8290,
      "▁paul'dan": 8291,
      "▁malzemeleri": 8292,
      "▁kılavuz": 8293,
      "▁cebinden": 8294,
      "▁stokları": 8295,
      "▁kelep": 8296,
      "▁utanc": 8297,
      "dogu": 8298,
      "▁profesor": 8299,
      "▁johnson": 8300,
      "▁derecelendir": 8301,
      "▁mantıklı": 8302,
      "▁bonolar": 8303,
      "▁frankfurt": 8304,
      "▁brown": 8305,
      "▁1\\/4": 8306,
      "▁protok": 8307,
      "▁keyifli": 8308,
      "▁darbuk": 8309,
      "▁dagıtım": 8310,
      "▁ebeveyn": 8311,
      "▁eleman": 8312,
      "▁quebec": 8313,
      "▁garsonlar": 8314,
      "▁arazi": 8315,
      "▁felsef": 8316,
      "▁cıglık": 8317,
      "▁michael": 8318,
      "▁unsur": 8319,
      "▁kıdemli": 8320,
      "▁isbirligi": 8321,
      "▁tazminat": 8322,
      "▁kategor": 8323,
      "▁stud": 8324,
      "▁koridor": 8325,
      "▁yepyeni": 8326,
      "▁halbuki": 8327,
      "▁campeau": 8328,
      "-k": 8329,
      "11": 8330,
      "1'de": 8331,
      "35": 8332,
      "8'de": 8333,
      "a'da": 8334,
      "bay": 8335,
      "beri": 8336,
      "con": 8337,
      "cım": 8338,
      "culuk": 8339,
      "del": 8340,
      "dok": 8341,
      "delen": 8342,
      "e'nin": 8343,
      "fil": 8344,
      "go": 8345,
      "hs": 8346,
      "kinden": 8347,
      "lon": 8348,
      "lusu": 8349,
      "lılıgı": 8350,
      "nes": 8351,
      "otu": 8352,
      "r.": 8353,
      "sap": 8354,
      "seri": 8355,
      "ster": 8356,
      "varı": 8357,
      "zer": 8358,
      "▁ı": 8359,
      "arn": 8360,
      "ardi": 8361,
      "aray": 8362,
      "▁bagı": 8363,
      "▁berek": 8364,
      "▁bre": 8365,
      "ino": 8366,
      "▁kuk": 8367,
      "▁kiler": 8368,
      "▁set": 8369,
      "▁selim": 8370,
      "▁doz": 8371,
      "enlerin": 8372,
      "▁gaf": 8373,
      "▁geb": 8374,
      "▁guldu": 8375,
      "▁yim": 8376,
      "▁yır": 8377,
      "▁yos": 8378,
      "iles": 8379,
      "▁tet": 8380,
      "▁tadi": 8381,
      "islari": 8382,
      "▁hom": 8383,
      "▁vide": 8384,
      "amin": 8385,
      "usuyla": 8386,
      "imp": 8387,
      "▁pak": 8388,
      "▁pot": 8389,
      "▁penn": 8390,
      "▁pansiyon": 8391,
      "▁bucak": 8392,
      "ısındaki": 8393,
      "dev": 8394,
      "ics": 8395,
      "ıla": 8396,
      "ıllı": 8397,
      "▁nah": 8398,
      "▁neyi": 8399,
      "▁neyin": 8400,
      "istiy": 8401,
      "▁ucagı": 8402,
      "▁ilham": 8403,
      "▁ictik": 8404,
      "▁onca": 8405,
      "▁rıza": 8406,
      "lanacak": 8407,
      "lanmıstı": 8408,
      "▁zul": 8409,
      "▁isg": 8410,
      "▁islam": 8411,
      "▁isabet": 8412,
      "▁ismail": 8413,
      "▁gelebilir": 8414,
      "▁gelmiyor": 8415,
      "▁inat": 8416,
      "▁vermez": 8417,
      "▁bill": 8418,
      "▁kondu": 8419,
      "ersiniz": 8420,
      "▁oranlar": 8421,
      "▁guzellik": 8422,
      "▁lam": 8423,
      "▁lah": 8424,
      "▁herkesi": 8425,
      "▁ambar": 8426,
      "▁kadir": 8427,
      "▁kadına": 8428,
      "▁acan": 8429,
      "▁santa": 8430,
      "gıcı": 8431,
      "▁atlar": 8432,
      "▁atlat": 8433,
      "▁atılım": 8434,
      "▁elif": 8435,
      "▁elmas": 8436,
      "▁ellerinden": 8437,
      "▁geregi": 8438,
      "'ni": 8439,
      "▁kod": 8440,
      "▁cıkması": 8441,
      "▁ikinc": 8442,
      "▁tesir": 8443,
      "ayıcı": 8444,
      "▁yılların": 8445,
      "▁yılmaz": 8446,
      "▁yıllardan": 8447,
      "alıga": 8448,
      "▁seyr": 8449,
      "▁parki": 8450,
      "▁gostererek": 8451,
      "sedi": 8452,
      "▁astı": 8453,
      "▁evleri": 8454,
      "▁evlerine": 8455,
      "▁dondum": 8456,
      "▁durup": 8457,
      "▁oyley": 8458,
      "00'den": 8459,
      "▁eklen": 8460,
      "▁kulag": 8461,
      "▁bunlara": 8462,
      "▁%5": 8463,
      "▁devri": 8464,
      "▁devasa": 8465,
      "▁saun": 8466,
      "▁sevim": 8467,
      "▁kaygı": 8468,
      "▁ortasına": 8469,
      "▁hakaret": 8470,
      "▁ozer": 8471,
      "▁yazan": 8472,
      "▁katılan": 8473,
      "▁calıstıgı": 8474,
      "▁burnun": 8475,
      "▁buradaki": 8476,
      "▁ihsan": 8477,
      "▁ihale": 8478,
      "▁derdi": 8479,
      "▁cekis": 8480,
      "▁tahsis": 8481,
      "▁beklemek": 8482,
      "▁keske": 8483,
      "▁konusmaya": 8484,
      "▁bagr": 8485,
      "▁baglar": 8486,
      "acagımız": 8487,
      "ilmeye": 8488,
      "ılıgında": 8489,
      "▁kızdır": 8490,
      "▁urunu": 8491,
      "▁gereksiz": 8492,
      "▁koye": 8493,
      "▁adamlar": 8494,
      "▁adamdı": 8495,
      "▁getirip": 8496,
      "▁getirdigi": 8497,
      "▁kimlik": 8498,
      "▁kazanmak": 8499,
      "▁kazanmıs": 8500,
      "▁hasıl": 8501,
      "▁hasret": 8502,
      "▁ailelerin": 8503,
      "▁hafız": 8504,
      "▁cıkarmak": 8505,
      "▁cıkarmaya": 8506,
      "▁yukseliyor": 8507,
      "▁yurur": 8508,
      "▁yureg": 8509,
      "▁yalın": 8510,
      "▁yalvar": 8511,
      "▁dusunmek": 8512,
      "▁davayı": 8513,
      "▁sadık": 8514,
      "▁sadakat": 8515,
      "▁hissenin": 8516,
      "acılara": 8517,
      "▁imam": 8518,
      "▁bankanın": 8519,
      "▁digital": 8520,
      "▁mıdır": 8521,
      "▁kostu": 8522,
      "▁kosarak": 8523,
      "▁sakallı": 8524,
      "▁hakkını": 8525,
      "▁canak": 8526,
      "▁tatli": 8527,
      "▁oturu": 8528,
      "▁chat": 8529,
      "▁61": 8530,
      "▁planimiz": 8531,
      "▁edep": 8532,
      "▁sesiyle": 8533,
      "▁yaklasımı": 8534,
      "▁biten": 8535,
      "▁anlatır": 8536,
      "▁anlatıyor": 8537,
      "▁anlatmaya": 8538,
      "▁tarihe": 8539,
      "▁incecik": 8540,
      "▁kendisinden": 8541,
      "lıyorum": 8542,
      "▁dinle": 8543,
      "▁kendinden": 8544,
      "▁makul": 8545,
      "▁gorunum": 8546,
      "▁ısıl": 8547,
      "▁hazırlanan": 8548,
      "▁1985": 8549,
      "tiginde": 8550,
      "▁arkadasları": 8551,
      "▁edilecek": 8552,
      "▁edilemez": 8553,
      "▁arabaya": 8554,
      "▁kumsal": 8555,
      "▁kumandan": 8556,
      "▁duzenleme": 8557,
      "▁yapılması": 8558,
      "▁dortluk": 8559,
      "▁turkiye'yi": 8560,
      "▁benzeyen": 8561,
      "▁oyunlar": 8562,
      "▁oynar": 8563,
      "cher": 8564,
      "▁sundu": 8565,
      "▁ekonominin": 8566,
      "▁fırtın": 8567,
      "▁sınıfta": 8568,
      "▁kafası": 8569,
      "▁129": 8570,
      "▁sogut": 8571,
      "▁animasyonlari": 8572,
      "▁peter": 8573,
      "▁ekstra": 8574,
      "▁belirtiyor": 8575,
      "▁vadede": 8576,
      "▁odalardan": 8577,
      "▁dagıl": 8578,
      "▁gurult": 8579,
      "▁ruya": 8580,
      "▁kurumlar": 8581,
      "▁tepeden": 8582,
      "▁hesabı": 8583,
      "▁dikkate": 8584,
      "▁ofisi": 8585,
      "▁1992": 8586,
      "▁ortalaması": 8587,
      "▁gelisen": 8588,
      "▁duvarlar": 8589,
      "▁hacm": 8590,
      "▁arastırmalar": 8591,
      "▁disinda": 8592,
      "▁yuv": 8593,
      "▁yıkan": 8594,
      "▁milletin": 8595,
      ".125": 8596,
      "▁gonderdi": 8597,
      "▁doldurdu": 8598,
      "▁odamdan": 8599,
      "▁toplamda": 8600,
      "demir": 8601,
      "▁app": 8602,
      "▁toplumun": 8603,
      "▁lirayı": 8604,
      "▁baglıdır": 8605,
      "▁bolumunde": 8606,
      "▁lobi": 8607,
      "▁calısanları": 8608,
      "▁dostluk": 8609,
      "▁kagıtları": 8610,
      "▁sirketidir": 8611,
      "▁sozlesmeler": 8612,
      "▁board": 8613,
      "▁kongr": 8614,
      "▁gelistirme": 8615,
      "▁yakinlar": 8616,
      "▁hepsinden": 8617,
      "▁sessizce": 8618,
      "▁musterileri": 8619,
      "▁diego": 8620,
      "larımın": 8621,
      "▁goruluyor": 8622,
      "▁kulturel": 8623,
      "▁tenek": 8624,
      "▁varlıklar": 8625,
      "▁uzmanları": 8626,
      "▁lokma": 8627,
      "▁gemiydi": 8628,
      "▁cumhuriyetci": 8629,
      "▁okuyan": 8630,
      "▁kayıplar": 8631,
      "▁show": 8632,
      "▁ankara'da": 8633,
      "▁bulunuyordu": 8634,
      "▁etstur": 8635,
      "▁tech": 8636,
      "▁sigortası": 8637,
      "▁louis'ten": 8638,
      "▁peyniri": 8639,
      "▁paul'a": 8640,
      "▁yedir": 8641,
      "▁mahkemede": 8642,
      "▁bush'un": 8643,
      "▁igne": 8644,
      "▁yonlendirdi": 8645,
      "▁iyiles": 8646,
      "ities": 8647,
      "▁georgia": 8648,
      "▁kırıklıgı": 8649,
      "▁tedavuldeki": 8650,
      "layıcı": 8651,
      "▁rahmet": 8652,
      "▁topraga": 8653,
      "▁bulanık": 8654,
      "▁iktid": 8655,
      "▁muzaker": 8656,
      "▁karabiber": 8657,
      "▁grubun": 8658,
      "▁yahudi": 8659,
      "▁yakısıklı": 8660,
      "▁muhabbet": 8661,
      "munic": 8662,
      "▁transfer": 8663,
      "▁buyuyen": 8664,
      "▁kıpır": 8665,
      "▁kıskanc": 8666,
      "▁cihan": 8667,
      "▁fevkal": 8668,
      "▁mahsus": 8669,
      "▁aramızda": 8670,
      "▁kirpik": 8671,
      "▁spekulasyon": 8672,
      "▁senaryo": 8673,
      "▁paralel": 8674,
      "▁fenerbahce": 8675,
      "▁tramv": 8676,
      "▁limuzin": 8677,
      "'dir": 8678,
      ":30": 8679,
      "ciyi": 8680,
      "des": 8681,
      "dort": 8682,
      "gam": 8683,
      "gısız": 8684,
      "iel": 8685,
      "lag": 8686,
      "lının": 8687,
      "mul": 8688,
      "ney": 8689,
      "naz": 8690,
      "satı": 8691,
      "sch": 8692,
      "tiniz": 8693,
      "wer": 8694,
      "well": 8695,
      "yak": 8696,
      "yiz": 8697,
      "yanın": 8698,
      "▁lig": 8699,
      "ars": 8700,
      "arya": 8701,
      "▁berk": 8702,
      "▁bob": 8703,
      "era": 8704,
      "anta": 8705,
      "anoz": 8706,
      "inaydi": 8707,
      "▁kin": 8708,
      "▁sc": 8709,
      "▁disk": 8710,
      "▁deyim": 8711,
      "▁ohi": 8712,
      "▁yiyor": 8713,
      "ilmedi": 8714,
      "elli": 8715,
      "▁tadı": 8716,
      "▁hersey": 8717,
      "▁cub": 8718,
      "ayip": 8719,
      "▁mam": 8720,
      "▁va": 8721,
      "amıyordu": 8722,
      "usundan": 8723,
      "ler'in": 8724,
      "emeli": 8725,
      "imat": 8726,
      "▁pab": 8727,
      "▁put": 8728,
      "uman": 8729,
      "umde": 8730,
      "ikat": 8731,
      "▁olen": 8732,
      "▁olacag": 8733,
      "▁olimp": 8734,
      "eyici": 8735,
      "▁buhar": 8736,
      "okul": 8737,
      "▁fig": 8738,
      "ılmasını": 8739,
      "▁nav": 8740,
      "▁neye": 8741,
      "uli": 8742,
      "abın": 8743,
      "abildi": 8744,
      "▁algıl": 8745,
      "▁onar": 8746,
      "▁ram": 8747,
      "▁antal": 8748,
      "▁icind": 8749,
      "▁kalıcı": 8750,
      "▁kalmamıs": 8751,
      "▁basamak": 8752,
      "▁gorebilir": 8753,
      "▁goruyordu": 8754,
      "▁zap": 8755,
      "▁yapısı": 8756,
      "▁yapmıstı": 8757,
      "▁yapamaz": 8758,
      "▁yapacagı": 8759,
      "elerce": 8760,
      "tucu": 8761,
      "▁gelecegi": 8762,
      "▁gelmistir": 8763,
      "evher": 8764,
      "afi": 8765,
      "esi'ne": 8766,
      "▁enist": 8767,
      "▁konustuk": 8768,
      "ucusu": 8769,
      "▁lık": 8770,
      "▁lob": 8771,
      "▁amma": 8772,
      "▁dusmustu": 8773,
      "▁uzul": 8774,
      "▁uzlasma": 8775,
      "▁dengel": 8776,
      "▁sanal": 8777,
      "▁sanız": 8778,
      "▁soyun": 8779,
      "▁aktor": 8780,
      "acaksın": 8781,
      "▁electr": 8782,
      "▁gerdan": 8783,
      "▁gundem": 8784,
      "▁kole": 8785,
      "▁cıkarak": 8786,
      "▁teseb": 8787,
      "▁gostermek": 8788,
      "▁gosterdigi": 8789,
      "▁adinaydi": 8790,
      "▁yastık": 8791,
      "man'ın": 8792,
      "▁turlar": 8793,
      "▁asya": 8794,
      "▁kapadı": 8795,
      "▁kaptır": 8796,
      "▁2.5": 8797,
      "▁uygar": 8798,
      "▁evler": 8799,
      "igine": 8800,
      "▁yanas": 8801,
      "▁halini": 8802,
      "▁esmer": 8803,
      "▁surer": 8804,
      "▁surecek": 8805,
      "▁surucu": 8806,
      "▁suda": 8807,
      "▁satıyor": 8808,
      "▁yuzuk": 8809,
      "▁mufet": 8810,
      "▁muazz": 8811,
      "▁degir": 8812,
      "▁boylesine": 8813,
      "▁yemekten": 8814,
      "▁arttıgını": 8815,
      "▁3\\/8": 8816,
      "▁odayı": 8817,
      "▁odasında": 8818,
      "▁aziz": 8819,
      "▁azalarak": 8820,
      "▁saadet": 8821,
      "▁tumu": 8822,
      "▁sahili": 8823,
      "▁yoluna": 8824,
      "▁hayali": 8825,
      "▁yazıyor": 8826,
      "▁calıskan": 8827,
      "▁dern": 8828,
      "▁derv": 8829,
      "▁ucretler": 8830,
      "▁cekilmis": 8831,
      "▁yatan": 8832,
      "▁bekley": 8833,
      "▁bekledi": 8834,
      "▁prov": 8835,
      "▁ayrılır": 8836,
      "▁kesfet": 8837,
      "▁konusan": 8838,
      "▁turkc": 8839,
      "▁cesitliydi": 8840,
      "▁dua": 8841,
      "▁okulu": 8842,
      "▁altını": 8843,
      "ings": 8844,
      "▁kızları": 8845,
      "▁koyuldu": 8846,
      "▁hissed": 8847,
      "duktan": 8848,
      "eceginden": 8849,
      "▁getirisi": 8850,
      "▁getirildi": 8851,
      "▁kimin": 8852,
      "▁kolu": 8853,
      "▁kollarını": 8854,
      "▁gitmeli": 8855,
      "▁kabuk": 8856,
      "▁sırf": 8857,
      "▁muham": 8858,
      "▁eglendir": 8859,
      "▁hatir": 8860,
      "▁hattı": 8861,
      "▁yukselisle": 8862,
      "▁yururluge": 8863,
      "▁dusundur": 8864,
      "▁piyasadaki": 8865,
      "▁milyara": 8866,
      "acıları": 8867,
      "▁ilgilenen": 8868,
      "▁simdiden": 8869,
      "▁sıkıl": 8870,
      "ligiyle": 8871,
      "▁76": 8872,
      "▁kadınlara": 8873,
      "menler": 8874,
      "▁sarap": 8875,
      "▁degerleri": 8876,
      "▁gelirleri": 8877,
      "▁ozelligi": 8878,
      "▁oturt": 8879,
      "▁oturdugu": 8880,
      "▁krediler": 8881,
      "▁planını": 8882,
      "▁planları": 8883,
      "▁gucluk": 8884,
      "▁masada": 8885,
      "▁mesle": 8886,
      "▁degismeden": 8887,
      "alandı": 8888,
      "▁soktu": 8889,
      "▁bugunun": 8890,
      "▁istemiyor": 8891,
      "▁anlattım": 8892,
      "▁durumlarda": 8893,
      "▁yardımı": 8894,
      "▁kud": 8895,
      "▁tarihte": 8896,
      "▁polisler": 8897,
      "▁gorunur": 8898,
      "▁kopuk": 8899,
      "▁sorunlar": 8900,
      "▁dunyası": 8901,
      "▁abd'li": 8902,
      "▁icermektedir": 8903,
      "malıyız": 8904,
      "▁hamur": 8905,
      "▁kavur": 8906,
      "landıgında": 8907,
      "amazdı": 8908,
      "▁kira": 8909,
      "adıklarını": 8910,
      "▁mary": 8911,
      "▁iliskisi": 8912,
      "▁yasamıs": 8913,
      "▁patron": 8914,
      "▁120": 8915,
      "▁12.5": 8916,
      "▁sehirde": 8917,
      "▁gelecekte": 8918,
      "▁odalarin": 8919,
      "▁garant": 8920,
      "▁daglar": 8921,
      "▁roma": 8922,
      "▁ufacık": 8923,
      "▁kolayca": 8924,
      "▁minik": 8925,
      "▁devred": 8926,
      "▁spot": 8927,
      "▁kitapları": 8928,
      "▁halkla": 8929,
      "▁baskısı": 8930,
      "▁tıras": 8931,
      "▁hastalıgı": 8932,
      "amadıgını": 8933,
      "▁catal": 8934,
      "▁oldugunda": 8935,
      "▁hafifce": 8936,
      "▁korkut": 8937,
      "mamıstır": 8938,
      "▁degerlendirmeye": 8939,
      "emezsiniz": 8940,
      "▁kardesinin": 8941,
      "▁cezalandır": 8942,
      "▁cevresinde": 8943,
      "▁tasarısı": 8944,
      "▁ogretmeni": 8945,
      "▁faaliyeti": 8946,
      "▁ortaklık": 8947,
      "▁tartısma": 8948,
      "▁eksikti": 8949,
      "▁etrafı": 8950,
      "▁mısın": 8951,
      "▁olmazsa": 8952,
      "▁sınırlandır": 8953,
      "▁kilo": 8954,
      "▁kilomet": 8955,
      "▁ardında": 8956,
      "▁duygularını": 8957,
      "gımızı": 8958,
      "▁maliyetli": 8959,
      "▁mucevher": 8960,
      "▁kurtulus": 8961,
      "▁nihat": 8962,
      "▁degisiklikleri": 8963,
      "▁safh": 8964,
      "▁temsilci": 8965,
      "▁pilav": 8966,
      "▁fery": 8967,
      "▁tenha": 8968,
      "▁silahlı": 8969,
      "▁bagımlı": 8970,
      "▁destan": 8971,
      "▁birlesme": 8972,
      "▁cikiyordu": 8973,
      "▁iskem": 8974,
      "▁magaza": 8975,
      "▁siper": 8976,
      "▁biliyorsun": 8977,
      "▁dukkanı": 8978,
      "▁alacaklı": 8979,
      "▁yukarıda": 8980,
      "▁direktor": 8981,
      "▁ruzg": 8982,
      "▁meselesi": 8983,
      "▁okumaya": 8984,
      "▁dengeli": 8985,
      "▁taahh": 8986,
      "▁sehrine": 8987,
      "▁kapsamında": 8988,
      "▁imzaladı": 8989,
      "▁fidan": 8990,
      "▁mayıs'ta": 8991,
      "▁bulup": 8992,
      "▁konforluydu": 8993,
      "▁ocagı": 8994,
      "▁beyefen": 8995,
      "▁stratejik": 8996,
      "▁biriktir": 8997,
      "▁dibine": 8998,
      "▁dibinde": 8999,
      "▁irak'ta": 9000,
      "▁tokyo'da": 9001,
      "▁a.b.d": 9002,
      "▁sorusturma": 9003,
      "▁isvec": 9004,
      "▁ortalamaydi": 9005,
      "▁uygulamaları": 9006,
      "▁muhafaza": 9007,
      "▁muhafazakar": 9008,
      "▁aniden": 9009,
      "▁muamel": 9010,
      "▁milletvekil": 9011,
      "▁kiralama": 9012,
      "▁bakimsizdi": 9013,
      "▁baslıca": 9014,
      "▁tırnak": 9015,
      "▁fincan": 9016,
      "▁birincisi": 9017,
[...]
