{
  "version": "1.0",
  "truncation": null,
  "padding": null,
  "added_tokens": [
    {
      "id": 0,
      "content": "[UNK]",
      "single_word": false,
      "lstrip": false,
      "rstrip": false,
      "normalized": false,
      "special": true
    },
    {
      "id": 1,
      "content": "[PAD]",
      "single_word": false,
      "lstrip": false,
      "rstrip": false,
      "normalized": false,
      "special": true
    },
    {
      "id": 2,
      "content": "[CLS]",
      "single_word": false,
      "lstrip": false,
      "rstrip": false,
      "normalized": false,
      "special": true
    },
    {
      "id": 3,
      "content": "[SEP]",
      "single_word": false,
      "lstrip": false,
      "rstrip": false,
      "normalized": false,
      "special": true
    },
    {
      "id": 4,
      "content": "[MASK]",
      "single_word": false,
      "lstrip": false,
      "rstrip": false,
      "normalized": false,
      "special": true
    }
  ],
  "normalizer": {
    "type": "Sequence",
    "normalizers": [
      {
        "type": "NFD"
      },
      {
        "type": "Lowercase"
      },
      {
        "type": "StripAccents"
      }
    ]
  },
  "pre_tokenizer": {
    "type": "Sequence",
    "pretokenizers": [
      {
        "type": "Metaspace",
        "replacement": "▁",
        "prepend_scheme": "always",
        "split": true
      }
    ]
  },
  "post_processor": {
    "type": "TemplateProcessing",
    "single": [
      {
        "SpecialToken": {
          "id": "[CLS]",
          "type_id": 0
        }
      },
      {
        "Sequence": {
          "id": "A",
          "type_id": 0
        }
      },
      {
        "SpecialToken": {
          "id": "[SEP]",
          "type_id": 0
        }
      }
    ],
    "pair": [
      {
        "SpecialToken": {
          "id": "[CLS]",
          "type_id": 0
        }
      },
      {
        "Sequence": {
          "id": "A",
          "type_id": 0
        }
      },
      {
        "SpecialToken": {
          "id": "[SEP]",
          "type_id": 0
        }
      },
      {
        "Sequence": {
          "id": "B",
          "type_id": 1
        }
      },
      {
        "SpecialToken": {
          "id": "[SEP]",
          "type_id": 1
        }
      }
    ],
    "special_tokens": {
      "[CLS]": {
        "id": "[CLS]",
        "ids": [
          2
        ],
        "tokens": [
          "[CLS]"
        ]
      },
      "[SEP]": {
        "id": "[SEP]",
        "ids": [
          3
        ],
        "tokens": [
          "[SEP]"
        ]
      }
    }
  },
  "decoder": {
    "type": "Metaspace",
    "replacement": "▁",
    "prepend_scheme": "always",
    "split": true
  },
  "model": {
    "type": "Unigram",
    "unk_id": 0,
    "vocab": [
      [
        "[UNK]",
        0.0
      ],
      [
        "[PAD]",
        0.0
      ],
      [
        "[CLS]",
        0.0
      ],
      [
        "[SEP]",
        0.0
      ],
      [
        "[MASK]",
        0.0
      ],
      [
        "▁.",
        -2.637757530921359
      ],
      [
        "▁,",
        -3.5118575902850573
      ],
      [
        "n",
        -3.7550222464273837
      ],
      [
        "▁bir",
        -3.9950092377543207
      ],
      [
        "a",
        -4.467377870814168
      ],
      [
        "▁",
        -4.5795000668418435
      ],
      [
        "m",
        -4.5868127846437385
      ],
      [
        "e",
        -4.64664110730415
      ],
      [
        "▁ve",
        -4.659182694976584
      ],
      [
        "▁bu",
        -4.963601141941453
      ],
      [
        "k",
        -4.966016234048645
      ],
      [
        "▁cok",
        -5.210140501158559
      ],
      [
        "▁\"",
        -5.3547641888037045
      ],
      [
        "lar",
        -5.40156924535102
      ],
      [
        "ya",
        -5.450392759596907
      ],
      [
        "▁icin",
        -5.46893925825599
      ],
      [
        "i",
        -5.496591855652213
      ],
      [
        "▁de",
        -5.6053627148137775
      ],
      [
        "ler",
        -5.636154788874293
      ],
      [
        "den",
        -5.646276844371744
      ],
      [
        "arak",
        -5.686607197189683
      ],
      [
        "dan",
        -5.70927748650971
      ],
      [
        "▁da",
        -5.757101362540082
      ],
      [
        "ye",
        -5.787497834387487
      ],
      [
        "di",
        -5.86703622601137
      ],
      [
        "▁ol",
        -5.91955491812459
      ],
      [
        "▁daha",
        -5.921560619876329
      ],
      [
        "▁o",
        -5.941156244740778
      ],
      [
        "da",
        -5.962821857274885
      ],
      [
        "r",
        -5.971432475187191
      ],
      [
        "▁ile",
        -5.983492429039694
      ],
      [
        "▁ne",
        -6.041044470859385
      ],
      [
        "▁her",
        -6.050980433146155
      ],
      [
        "p",
        -6.059897426640191
      ],
      [
        "ki",
        -6.062272833508739
      ],
      [
        "▁iyi",
        -6.112688426350603
      ],
      [
        "▁en",
        -6.146616011946844
      ],
      [
        "dir",
        -6.152283543789635
      ],
      [
        "▁olan",
        -6.154945139522842
      ],
      [
        "li",
        -6.157864917574058
      ],
      [
        "lı",
        -6.181309815670119
      ],
      [
        "▁gibi",
        -6.183916249412116
      ],
      [
        "▁var",
        -6.185714874030704
      ],
      [
        "nin",
        -6.213234779266498
      ],
      [
        "t",
        -6.216428572368885
      ],
      [
        "nın",
        -6.226755244147873
      ],
      [
        "▁ki",
        -6.226982216319902
      ],
      [
        "▁sonra",
        -6.241247250403468
      ],
      [
        "z",
        -6.242658359571421
      ],
      [
        "ce",
        -6.2557388290744695
      ],
      [
        "ları",
        -6.279734798061862
      ],
      [
        "le",
        -6.285658616715308
      ],
      [
        "la",
        -6.288781269894217
      ],
      [
        "▁kadar",
        -6.331991443930237
      ],
      [
        "ı",
        -6.354560354349719
      ],
      [
        "de",
        -6.358051677411746
      ],
      [
        "leri",
        -6.36095885566099
      ],
      [
        "▁?",
        -6.402719204218584
      ],
      [
        "▁guzeldi",
        -6.420478629037935
      ],
      [
        "in",
        -6.425172691212645
      ],
      [
        "na",
        -6.429470178103737
      ],
      [
        "▁ama",
        -6.4465360180096045
      ],
      [
        "▁bana",
        -6.457224169478212
      ],
      [
        "▁san",
        -6.459901868884829
      ],
      [
        "si",
        -6.504260751529105
      ],
      [
        "s",
        -6.528076004260358
      ],
      [
        "ne",
        -6.536148911305249
      ],
      [
        "▁ucusları",
        -6.553954353750357
      ],
      [
        "ydi",
        -6.568015502690804
      ],
      [
        "▁iki",
        -6.570536569794586
      ],
      [
        ":",
        -6.600549627237138
      ],
      [
        "▁degildi",
        -6.602434160628216
      ],
      [
        "▁memnun",
        -6.60764268411969
      ],
      [
        "▁iyiydi",
        -6.613674997133471
      ],
      [
        "▁ben",
        -6.61410349893907
      ],
      [
        "ca",
        -6.615022752818142
      ],
      [
        "▁yeni",
        -6.640471588696433
      ],
      [
        "▁bay",
        -6.666399125709191
      ],
      [
        "yı",
        -6.6956355754235695
      ],
      [
        "▁sey",
        -6.7051224908204015
      ],
      [
        "u",
        -6.707043453075557
      ],
      [
        "▁guzel",
        -6.714946469353217
      ],
      [
        "▁buyuk",
        -6.717163462652023
      ],
      [
        "▁degil",
        -6.738573799677179
      ],
      [
        "dır",
        -6.752732306554927
      ],
      [
        "du",
        -6.757572118864171
      ],
      [
        "▁-",
        -6.777490348167413
      ],
      [
        "um",
        -6.79063642257137
      ],
      [
        "▁su",
        -6.807950776572354
      ],
      [
        "sı",
        -6.816594014836286
      ],
      [
        "▁tum",
        -6.818578261963281
      ],
      [
        "▁oldu",
        -6.8313891106285505
      ],
      [
        "▁milyon",
        -6.854354097586768
      ],
      [
        "▁bey",
        -6.8601004174120055
      ],
      [
        "▁arasında",
        -6.880225640371985
      ],
      [
        "▁%",
        -6.883129459186231
      ],
      [
        "yla",
        -6.883983065030487
      ],
      [
        "larını",
        -6.885293836937041
      ],
      [
        "en",
        -6.886542262282489
      ],
      [
        "▁gore",
        -6.89194067822157
      ],
      [
        "yle",
        -6.893762212881529
      ],
      [
        "▁once",
        -6.90065823002946
      ],
      [
        "yi",
        -6.908980636887995
      ],
      [
        "▁goster",
        -6.923083539516467
      ],
      [
        "▁soyledi",
        -6.9280351761248005
      ],
      [
        "▁diye",
        -6.948076387887629
      ],
      [
        "▁istiyoru",
        -6.952308037532591
      ],
      [
        "lık",
        -6.953922896578746
      ],
      [
        "ların",
        -6.95419357229145
      ],
      [
        "▁yok",
        -6.972388565459711
      ],
      [
        "▁anca",
        -6.976708406388042
      ],
      [
        "▁dedi",
        -6.996621520974195
      ],
      [
        "▁hizmet",
        -7.000349217148106
      ],
      [
        "▁ucus",
        -7.002812613135898
      ],
      [
        ".",
        -7.014006239415599
      ],
      [
        "lerin",
        -7.0302514139835255
      ],
      [
        "▁dolar",
        -7.0305102022879975
      ],
      [
        "▁son",
        -7.035428602425063
      ],
      [
        "im",
        -7.035826431379666
      ],
      [
        "▁zaman",
        -7.053485354692288
      ],
      [
        "▁gun",
        -7.0548805414913796
      ],
      [
        "▁puan",
        -7.061024603313172
      ],
      [
        "lik",
        -7.062937901237684
      ],
      [
        "▁onun",
        -7.065759684407613
      ],
      [
        "dı",
        -7.068365716086004
      ],
      [
        "▁fazla",
        -7.071064787562804
      ],
      [
        "▁icinde",
        -7.078063343560248
      ],
      [
        "▁...",
        -7.079627480503783
      ],
      [
        "▁etti",
        -7.090249986658511
      ],
      [
        "ti",
        -7.090850547588517
      ],
      [
        "erek",
        -7.090910672262026
      ],
      [
        "▁kaldi",
        -7.090976964615374
      ],
      [
        "▁!",
        -7.097564569217753
      ],
      [
        "'",
        -7.098502301988388
      ],
      [
        "▁temiz",
        -7.1122548589526
      ],
      [
        "▁biraz",
        -7.116422122928218
      ],
      [
        "▁hisse",
        -7.141594954971106
      ],
      [
        "▁az",
        -7.1495730072791766
      ],
      [
        "▁bile",
        -7.151077395479166
      ],
      [
        "▁''",
        -7.155449947142472
      ],
      [
        "▁ilk",
        -7.161475576086147
      ],
      [
        "▁oda",
        -7.1648255767531195
      ],
      [
        "er",
        -7.183641052549321
      ],
      [
        "▁oldugunu",
        -7.18672939098073
      ],
      [
        "ni",
        -7.190812747289885
      ],
      [
        "▁ucuslar",
        -7.190879527421081
      ],
      [
        "'in",
        -7.201565355113901
      ],
      [
        "▁kendi",
        -7.207468914906249
      ],
      [
        "▁yıl",
        -7.210767389356884
      ],
      [
        "▁karsı",
        -7.214832058154324
      ],
      [
        "lerini",
        -7.214932095634489
      ],
      [
        "▁hic",
        -7.216207524459041
      ],
      [
        "▁gunu",
        -7.236780340527741
      ],
      [
        "▁hangi",
        -7.244610309555314
      ],
      [
        "▁butun",
        -7.2467330578203715
      ],
      [
        "▁genel",
        -7.24750487086721
      ],
      [
        "lu",
        -7.263185060230928
      ],
      [
        "▁1",
        -7.264202468161335
      ],
      [
        "ken",
        -7.265734113395173
      ],
      [
        "▁para",
        -7.2660495086110695
      ],
      [
        "ın",
        -7.276502048789976
      ],
      [
        "l",
        -7.2800563821045134
      ],
      [
        "▁`",
        -7.296312773715319
      ],
      [
        "▁boyle",
        -7.3001122742258024
      ],
      [
        "`",
        -7.310169107379199
      ],
      [
        "▁uc",
        -7.310310165080041
      ],
      [
        "uz",
        -7.310574577210782
      ],
      [
        "▁biz",
        -7.31183557049977
      ],
      [
        "▁yoktu",
        -7.312882275863679
      ],
      [
        "▁ya",
        -7.314960195179873
      ],
      [
        ";",
        -7.318788185983298
      ],
      [
        "▁simdi",
        -7.3189176836178795
      ],
      [
        "tan",
        -7.328987362829328
      ],
      [
        "▁is",
        -7.342056307834214
      ],
      [
        "▁tek",
        -7.3503691146496735
      ],
      [
        "▁ediyor",
        -7.35211818183403
      ],
      [
        "mıs",
        -7.36316094442819
      ],
      [
        "▁ilgili",
        -7.368176880994562
      ],
      [
        "▁oldugu",
        -7.369137372132331
      ],
      [
        "▁/",
        -7.376829560573773
      ],
      [
        "ten",
        -7.380961372782937
      ],
      [
        "▁milyar",
        -7.385480595716028
      ],
      [
        "▁eski",
        -7.391769355028087
      ],
      [
        "ta",
        -7.3927147862297105
      ],
      [
        "▁mı",
        -7.399601461252852
      ],
      [
        "▁kucuk",
        -7.415587410369327
      ],
      [
        "▁francisco'",
        -7.41987393965033
      ],
      [
        "▁cesit",
        -7.420158514065399
      ],
      [
        "▁bazı",
        -7.432750185228189
      ],
      [
        "▁dogru",
        -7.436461235146385
      ],
      [
        "tı",
        -7.442099788132134
      ],
      [
        "▁mi",
        -7.46534239984253
      ],
      [
        "▁geldi",
        -7.465485096998864
      ],
      [
        "▁orta",
        -7.473734492061506
      ],
      [
        "▁gorusuldu",
        -7.475168901509984
      ],
      [
        "▁boston'da",
        -7.483442556760503
      ],
      [
        "te",
        -7.485656528679708
      ],
      [
        "▁personel",
        -7.49322769147011
      ],
      [
        "▁sade",
        -7.494645461279155
      ],
      [
        "'ın",
        -7.4985353096721585
      ],
      [
        "▁tesis",
        -7.498778484655973
      ],
      [
        "▁fiyat",
        -7.504019292869543
      ],
      [
        "▁konumu",
        -7.507460083795599
      ],
      [
        "▁on",
        -7.510351289540974
      ],
      [
        "un",
        -7.512331240870261
      ],
      [
        "▁baska",
        -7.515031978395153
      ],
      [
        "mis",
        -7.518373550716276
      ],
      [
        "iz",
        -7.523314622898519
      ],
      [
        "-",
        -7.527122685354658
      ],
      [
        "▁tavsiye",
        -7.531739769132927
      ],
      [
        "▁aksam",
        -7.532528068891461
      ],
      [
        "sa",
        -7.535076146970269
      ],
      [
        "y",
        -7.541978674617915
      ],
      [
        "sına",
        -7.544087334235885
      ],
      [
        ")",
        -7.549150331714528
      ],
      [
        "▁otel",
        -7.5548886430094315
      ],
      [
        "▁(",
        -7.555771201929389
      ],
      [
        "lara",
        -7.566735857875573
      ],
      [
        "▁onu",
        -7.567676659848575
      ],
      [
        "▁uzerinde",
        -7.572218217467603
      ],
      [
        "▁sirket",
        -7.572621220727707
      ],
      [
        "ine",
        -7.573820931089658
      ],
      [
        "sine",
        -7.575094032476845
      ],
      [
        "▁c",
        -7.576506790142987
      ],
      [
        "ndan",
        -7.577316051274848
      ],
      [
        "lere",
        -7.577694556955026
      ],
      [
        "ini",
        -7.5800589737777
      ],
      [
        "▁benim",
        -7.58730855930579
      ],
      [
        "▁ucret",
        -7.588505316991144
      ],
      [
        "▁ise",
        -7.588826316327671
      ],
      [
        "▁uzun",
        -7.592327926325544
      ],
      [
        "▁tarafında",
        -7.609279482799966
      ],
      [
        "o",
        -7.613688684650121
      ],
      [
        "▁diger",
        -7.618032072124232
      ],
      [
        "ma",
        -7.628132758300395
      ],
      [
        "▁sabah",
        -7.632891930838319
      ],
      [
        "▁artık",
        -7.636544274902565
      ],
      [
        "▁new",
        -7.636789356307982
      ],
      [
        "▁ay",
        -7.643083885812734
      ],
      [
        "▁saat",
        -7.655855263654412
      ],
      [
        "▁deniz",
        -7.6770321859016954
      ],
      [
        "▁hanim",
        -7.677144553682001
      ],
      [
        "▁pek",
        -7.67991285401961
      ],
      [
        "▁yuksek",
        -7.682892165665557
      ],
      [
        "▁yer",
        -7.684742431029646
      ],
      [
        "▁adam",
        -7.686816442143441
      ],
      [
        "▁aynı",
        -7.68836342926307
      ],
      [
        "▁5",
        -7.695807616217854
      ],
      [
        "▁beni",
        -7.699897518549668
      ],
      [
        "ını",
        -7.702874058398148
      ],
      [
        "▁insan",
        -7.707606447962922
      ],
      [
        "ci",
        -7.710265523845237
      ],
      [
        "sini",
        -7.7109316590957375
      ],
      [
        "▁bes",
        -7.712892543576754
      ],
      [
        "▁mu",
        -7.716494892220127
      ],
      [
        "▁olabilir",
        -7.71722295853158
      ],
      [
        "▁du",
        -7.729865780632894
      ],
      [
        "▁geri",
        -7.737007785131434
      ],
      [
        "▁amerikan",
        -7.7396996638706606
      ],
      [
        "▁dunya",
        -7.740777270954306
      ],
      [
        "▁tur",
        -7.743540208940555
      ],
      [
        "▁veya",
        -7.745462917589868
      ],
      [
        "'de",
        -7.7460347276841945
      ],
      [
        "▁2",
        -7.747605776589334
      ],
      [
        "▁ogle",
        -7.7476269649071785
      ],
      [
        "▁10",
        -7.747998904547274
      ],
      [
        "▁tesisti",
        -7.751838826605007
      ],
      [
        "sını",
        -7.7553171437145165
      ],
      [
        "▁sekilde",
        -7.7558585581784225
      ],
      [
        "▁sen",
        -7.757667454913369
      ],
      [
        "▁ilgilendi",
        -7.764710591851328
      ],
      [
        "luk",
        -7.76541213264562
      ],
      [
        "▁tam",
        -7.76648794406729
      ],
      [
        "▁gece",
        -7.767258705631813
      ],
      [
        "lardı",
        -7.77332411045355
      ],
      [
        "▁uygun",
        -7.778238216797978
      ],
      [
        "▁onlar",
        -7.778829737324583
      ],
      [
        "▁hicbir",
        -7.781459994912678
      ],
      [
        "▁gelir",
        -7.782548403193671
      ],
      [
        "▁basladı",
        -7.786014021642363
      ],
      [
        "▁gecen",
        -7.786479794434858
      ],
      [
        "▁denver'de",
        -7.788711693521362
      ],
      [
        "▁erken",
        -7.789040730989953
      ],
      [
        "▁yalnız",
        -7.793943789544436
      ],
      [
        "▁vardı",
        -7.795305067404543
      ],
      [
        "▁biri",
        -7.797524039940258
      ],
      [
        "▁aldı",
        -7.808190289237134
      ],
      [
        "▁bilgi",
        -7.809195114582741
      ],
      [
        "▁hem",
        -7.81146859414432
      ],
      [
        "nı",
        -7.8126484300362655
      ],
      [
        "▁yemekler",
        -7.81594956142202
      ],
      [
        "'da",
        -7.816631970970272
      ],
      [
        "se",
        -7.819285414832063
      ],
      [
        "cı",
        -7.819471616605401
      ],
      [
        "sız",
        -7.826017660506199
      ],
      [
        "c",
        -7.835044298601195
      ],
      [
        "▁hafta",
        -7.838082506085205
      ],
      [
        "▁3",
        -7.840794227239498
      ],
      [
        "siz",
        -7.8414978765544046
      ],
      [
        "tir",
        -7.843916701491349
      ],
      [
        "▁birkac",
        -7.846058641072586
      ],
      [
        "▁ucusu",
        -7.846822897978038
      ],
      [
        "▁devam",
        -7.849822461388368
      ],
      [
        "▁giden",
        -7.851310132851073
      ],
      [
        "▁ona",
        -7.85412689510119
      ],
      [
        "'nın",
        -7.859202395438849
      ],
      [
        "▁bugun",
        -7.86089712585704
      ],
      [
        "su",
        -7.861575069575404
      ],
      [
        "▁yine",
        -7.8640715567208455
      ],
      [
        "▁cocuk",
        -7.8793869455200864
      ],
      [
        "▁donus",
        -7.880750332673372
      ],
      [
        "▁kotu",
        -7.881855578688746
      ],
      [
        "▁hemen",
        -7.883497389946684
      ],
      [
        "d",
        -7.886560193613201
      ],
      [
        "▁ilgiliydi",
        -7.890691028835387
      ],
      [
        "▁lutfe",
        -7.891346763866011
      ],
      [
        "▁diyor",
        -7.8965577441981
      ],
      [
        "▁bunun",
        -7.89818464301432
      ],
      [
        "▁nasıl",
        -7.903814580065228
      ],
      [
        "▁lezzet",
        -7.904648030228513
      ],
      [
        "▁ayrıca",
        -7.907405204243848
      ],
      [
        "ıp",
        -7.907681721652292
      ],
      [
        "dur",
        -7.907850575272838
      ],
      [
        "ederim",
        -7.918384560151582
      ],
      [
        "▁kadın",
        -7.918774032155587
      ],
      [
        "h",
        -7.919245514772677
      ],
      [
        "▁ucuz",
        -7.921268033221215
      ],
      [
        "tır",
        -7.922864769320617
      ],
      [
        "▁personeller",
        -7.9243608154233485
      ],
      [
        "▁oyle",
        -7.927378816515128
      ],
      [
        "▁denver'",
        -7.927477737665073
      ],
      [
        "▁bunu",
        -7.9299835336395725
      ],
      [
        "▁olur",
        -7.93137826099986
      ],
      [
        "▁hep",
        -7.931646885819468
      ],
      [
        "▁neden",
        -7.932203963718283
      ],
      [
        "▁kalkan",
        -7.932445117843951
      ],
      [
        "▁turk",
        -7.938620227118314
      ],
      [
        "f",
        -7.943179516216905
      ],
      [
        "'e",
        -7.944685523604444
      ],
      [
        "▁gelen",
        -7.9468285212952
      ],
      [
        "▁ev",
        -7.947770169623555
      ],
      [
        "▁al",
        -7.952707744041687
      ],
      [
        "▁denizi",
        -7.954698113627208
      ],
      [
        "▁yemekleri",
        -7.955026185092491
      ],
      [
        "▁dı",
        -7.955629614315632
      ],
      [
        "▁bircok",
        -7.958505421464668
      ],
      [
        "▁bas",
        -7.964079275337087
      ],
      [
        "▁yemek",
        -7.9802747776186065
      ],
      [
        "▁dusuk",
        -7.981943719288603
      ],
      [
        "▁yukseldi",
        -7.982133543073265
      ],
      [
        "▁cıktı",
        -7.985255972904088
      ],
      [
        "▁acık",
        -7.9871550332749
      ],
      [
        "▁kabul",
        -7.988603817511963
      ],
      [
        "lıgı",
        -7.99161842281079
      ],
      [
        "▁yol",
        -7.992346691280838
      ],
      [
        "▁ucuslarını",
        -7.994891617199756
      ],
      [
        "larla",
        -7.996717440958879
      ],
      [
        "▁olacak",
        -8.009645087272956
      ],
      [
        "ına",
        -8.010130029164138
      ],
      [
        "▁eder",
        -8.011149239554904
      ],
      [
        "▁yaklası",
        -8.012223161439332
      ],
      [
        "▁carsamba",
        -8.01280720738347
      ],
      [
        "▁siz",
        -8.013413550322497
      ],
      [
        "'a",
        -8.015041691476359
      ],
      [
        "▁basın",
        -8.015618018557692
      ],
      [
        "sinde",
        -8.021840905160818
      ],
      [
        "▁altında",
        -8.023134253154799
      ],
      [
        "▁dun",
        -8.0247704207546
      ],
      [
        "▁kimse",
        -8.024910822484433
      ],
      [
        "ip",
        -8.02830963050316
      ],
      [
        "▁listeley",
        -8.028921539134432
      ],
      [
        "▁burada",
        -8.030884586721331
      ],
      [
        "'un",
        -8.033220477327694
      ],
      [
        "▁personelleri",
        -8.036599763087015
      ],
      [
        "▁hakkında",
        -8.038873395476967
      ],
      [
        "▁kisi",
        -8.040762729130218
      ],
      [
        "▁verdi",
        -8.042671711926156
      ],
      [
        "▁atlanta'",
        -8.048681906523587
      ],
      [
        "mus",
        -8.050742874406726
      ],
      [
        "▁el",
        -8.050970745310547
      ],
      [
        "▁'",
        -8.052671400875616
      ],
      [
        "mak",
        -8.05437383813377
      ],
      [
        "▁bizim",
        -8.056690902849487
      ],
      [
        "▁olmak",
        -8.05689444336532
      ],
      [
        "▁baltimore'",
        -8.065137502436357
      ],
      [
        "▁bin",
        -8.067513209095328
      ],
      [
        "g",
        -8.068120489124967
      ],
      [
        "▁eden",
        -8.069900106902434
      ],
      [
        "▁herkes",
        -8.06991892997775
      ],
      [
        "▁aile",
        -8.071447989177683
      ],
      [
        "lerden",
        -8.07385460324841
      ],
      [
        "▁gaye",
        -8.074378616224486
      ],
      [
        "▁onemli",
        -8.074651416642574
      ],
      [
        "▁sahip",
        -8.077629284728621
      ],
      [
        "▁uzerine",
        -8.077830625643035
      ],
      [
        "▁atlanta'da",
        -8.078902461237956
      ],
      [
        "tu",
        -8.078914055672422
      ],
      [
        "▁an",
        -8.083550303712899
      ],
      [
        "nda",
        -8.083765828577569
      ],
      [
        "larında",
        -8.08647147337562
      ],
      [
        "▁gosterin",
        -8.089462585366974
      ],
      [
        "▁dustu",
        -8.09004483510224
      ],
      [
        "▁kapı",
        -8.090369157756204
      ],
      [
        "▁soyle",
        -8.09165041790947
      ],
      [
        "▁kalitesi",
        -8.094503782081004
      ],
      [
        "ydı",
        -8.096047764619215
      ],
      [
        "▁piyasa",
        -8.101423505659483
      ],
      [
        "▁hava",
        -8.105061094533038
      ],
      [
        "larda",
        -8.106037711582719
      ],
      [
        "▁fakat",
        -8.107947601777381
      ],
      [
        "▁sa",
        -8.109227825010997
      ],
      [
        "lerinin",
        -8.11298639159641
      ],
      [
        "▁4",
        -8.113623457646447
      ],
      [
        "▁birlikte",
        -8.115738328844994
      ],
      [
        "cu",
        -8.117792619148775
      ],
      [
        "yu",
        -8.124200546763257
      ],
      [
        "▁goz",
        -8.127790775728625
      ],
      [
        "nuz",
        -8.135138619942062
      ],
      [
        "▁dus",
        -8.135575452695946
      ],
      [
        "gı",
        -8.137497667478506
      ],
      [
        "ligi",
        -8.138502970393823
      ],
      [
        "▁vardi",
        -8.13879798673446
      ],
      [
        "▁genc",
        -8.139437965283776
      ],
      [
        "▁onları",
        -8.140353586641133
      ],
      [
        "▁satın",
        -8.143306267349203
      ],
      [
        "▁pittsburgh'ta",
        -8.145482352583091
      ],
      [
        "gi",
        -8.1467946601571
      ],
      [
        "▁bak",
        -8.147136850299074
      ],
      [
        "▁boston'",
        -8.147792124080905
      ],
      [
        "ir",
        -8.154917158385214
      ],
      [
        "▁abd",
        -8.155134449078734
      ],
      [
        "'ni",
        -8.162883831898437
      ],
      [
        "▁iste",
        -8.16297686410282
      ],
      [
        "lardan",
        -8.17057824981094
      ],
      [
        "lerle",
        -8.174550693504155
      ],
      [
        "lerde",
        -8.17814385341196
      ],
      [
        "▁ra",
        -8.180385463129763
      ],
      [
        "▁tercih",
        -8.18367637672274
      ],
      [
        "▁dort",
        -8.183854548614198
      ],
      [
        "sin",
        -8.18907680620711
      ],
      [
        "▁yakın",
        -8.189954180436212
      ],
      [
        "▁acı",
        -8.19221026157896
      ],
      [
        "▁insanlar",
        -8.192310944553917
      ],
      [
        "▁st",
        -8.196676141462468
      ],
      [
        "▁konusunda",
        -8.200973733550189
      ],
      [
        "▁kara",
        -8.204460479519707
      ],
      [
        "▁listele",
        -8.207574592072245
      ],
      [
        "▁sure",
        -8.21160948242835
      ],
      [
        "▁philadelphia'",
        -8.214534847026888
      ],
      [
        "▁soz",
        -8.214935914921288
      ],
      [
        "▁geliyor",
        -8.217184311515652
      ],
      [
        "al",
        -8.218683508770006
      ],
      [
        "iyle",
        -8.22375717757506
      ],
      [
        "▁ara",
        -8.227322195149881
      ],
      [
        "nun",
        -8.227645398328498
      ],
      [
        "sında",
        -8.228081148861374
      ],
      [
        "sun",
        -8.229102511705047
      ],
      [
        "▁anda",
        -8.229170953724616
      ],
      [
        "▁aileler",
        -8.230035656985244
      ],
      [
        "▁cuma",
        -8.230339973268315
      ],
      [
        "▁he",
        -8.236037544176991
      ],
      [
        "▁temizligi",
        -8.237817167241074
      ],
      [
        "▁ana",
        -8.240586163008516
      ],
      [
        "▁boston",
        -8.24241468540762
      ],
      [
        "▁gidis",
        -8.243302136209866
      ],
      [
        "▁pazartesi",
        -8.247801353307153
      ],
      [
        "▁beyaz",
        -8.248056752452248
      ],
      [
        "▁ince",
        -8.248286384278714
      ],
      [
        "ıyor",
        -8.248291836112928
      ],
      [
        "▁pazar",
        -8.250960498582359
      ],
      [
        "▁etmek",
        -8.251154027419224
      ],
      [
        "▁bunlar",
        -8.252745732751574
      ],
      [
        "▁konu",
        -8.253930325367847
      ],
      [
        "▁salı",
        -8.254008732121267
      ],
      [
        "ktan",
        -8.263194061264869
      ],
      [
        "sel",
        -8.263753192752901
      ],
      [
        "siniz",
        -8.265519878251649
      ],
      [
        "up",
        -8.267299238868006
      ],
      [
        "▁yuz",
        -8.268629694009352
      ],
      [
        "▁kız",
        -8.26973734173966
      ],
      [
        "nden",
        -8.271048006324211
      ],
      [
        "▁art",
        -8.271390791826553
      ],
      [
        "▁ken",
        -8.272479225021641
      ],
      [
        "lerinden",
        -8.27333601655425
      ],
      [
        "▁hareket",
        -8.274874276668804
      ],
      [
        "▁yonelik",
        -8.276578606783584
      ],
      [
        "▁dallas'",
        -8.280397191093417
      ],
      [
        "ır",
        -8.281082117504777
      ],
      [
        "▁kısa",
        -8.284797913497407
      ],
      [
        "▁tekrar",
        -8.28516149978292
      ],
      [
        "▁tatil",
        -8.290997274938443
      ],
      [
        "▁gordu",
        -8.298320268060744
      ],
      [
        "▁dallas'ta",
        -8.299026177841588
      ],
      [
        "▁york",
        -8.299289367263924
      ],
      [
        "▁devlet",
        -8.300542272856877
      ],
      [
        "▁sonunda",
        -8.305327864303658
      ],
      [
        "▁veriyoru",
        -8.306380476779289
      ],
      [
        "▁karar",
        -8.30871309908908
      ],
      [
        "▁boyun",
        -8.308756100286843
      ],
      [
        "▁hala",
        -8.309674063344714
      ],
      [
        "▁olsun",
        -8.310049238987261
      ],
      [
        "▁tamam",
        -8.310524992887075
      ],
      [
        "▁belki",
        -8.31200934212849
      ],
      [
        "sın",
        -8.312555474210193
      ],
      [
        "▁cocuklar",
        -8.313740634455058
      ],
      [
        "▁kar",
        -8.314020532769868
      ],
      [
        "ydu",
        -8.318144570289423
      ],
      [
        "▁kez",
        -8.321639130756274
      ],
      [
        "▁almak",
        -8.323348647936815
      ],
      [
        "unku",
        -8.324523513907451
      ],
      [
        "ur",
        -8.324589899485012
      ],
      [
        "▁altın",
        -8.324831644360085
      ],
      [
        "▁ozellikle",
        -8.325633193847247
      ],
      [
        "at",
        -8.328316201658673
      ],
      [
        "▁araba",
        -8.328447599184855
      ],
      [
        "acak",
        -8.328687389446428
      ],
      [
        "ar",
        -8.333086901068882
      ],
      [
        "▁yaptı",
        -8.33340140545625
      ],
      [
        "▁sık",
        -8.334718618599059
      ],
      [
        "▁yuzde",
        -8.33812166752261
      ],
      [
        "▁pittsburgh'",
        -8.341351855920827
      ],
      [
        "▁gercek",
        -8.342596068939546
      ],
      [
        "▁adet",
        -8.345447406848027
      ],
      [
        "▁washington",
        -8.346327381445036
      ],
      [
        "▁yan",
        -8.346844934667986
      ],
      [
        "▁gec",
        -8.34855196690842
      ],
      [
        "▁sag",
        -8.349170389712246
      ],
      [
        "▁7",
        -8.350374112193958
      ],
      [
        "▁orada",
        -8.353334165298884
      ],
      [
        "▁baskanı",
        -8.353557523629476
      ],
      [
        "lerinde",
        -8.353927917427233
      ],
      [
        "▁yetersiz",
        -8.354622161189603
      ],
      [
        "▁menkul",
        -8.354879249429736
      ],
      [
        "▁ak",
        -8.355129761814256
      ],
      [
        "▁6",
        -8.35700761477501
      ],
      [
        "▁yerin",
        -8.359198596799805
      ],
      [
        "▁havayolları",
        -8.359483330866667
      ],
      [
        "▁altı",
        -8.359988329097055
      ],
      [
        "▁guler",
        -8.362541677597005
      ],
      [
        "▁yerde",
        -8.362587958391142
      ],
      [
        "▁yon",
        -8.363522928268054
      ],
      [
        "▁mevcut",
        -8.365984297869407
      ],
      [
        "▁denver",
        -8.367214949012592
      ],
      [
        "▁genis",
        -8.367328160833548
      ],
      [
        "▁yıllık",
        -8.368061053735136
      ],
      [
        "▁cıkar",
        -8.374970877701795
      ],
      [
        "▁tu",
        -8.375943987022476
      ],
      [
        "dim",
        -8.377536747523926
      ],
      [
        "▁istemiyoru",
        -8.378182165715682
      ],
      [
        "▁neler",
        -8.37905837313044
      ],
      [
        "▁baskan",
        -8.380449932583211
      ],
      [
        "mız",
        -8.381522391828053
      ],
      [
        "▁can",
        -8.381744003831713
      ],
      [
        "▁ustun",
        -8.382915946983676
      ],
      [
        "daki",
        -8.384621439609695
      ],
      [
        "▁ikinci",
        -8.387581339234366
      ],
      [
        "gını",
        -8.389394662788305
      ],
      [
        "▁ozel",
        -8.38987291616426
      ],
      [
        "▁cocuklu",
        -8.391366232483156
      ],
      [
        "miz",
        -8.392385017914021
      ],
      [
        "▁cogu",
        -8.393640179513497
      ],
      [
        "niz",
        -8.3974853472209
      ],
      [
        "▁uzere",
        -8.400113403143333
      ],
      [
        "▁ihtiyacım",
        -8.400280574852637
      ],
      [
        "el",
        -8.40094648529435
      ],
      [
        "▁yorum",
        -8.4034227497831
      ],
      [
        "▁sorun",
        -8.405277271026872
      ],
      [
        "▁beri",
        -8.406943834555971
      ],
      [
        "▁agır",
        -8.40956552867583
      ],
      [
        "hangi",
        -8.4103495817754
      ],
      [
        "▁dolayi",
        -8.410964983685886
      ],
      [
        "▁ilgi",
        -8.411135524813242
      ],
      [
        "ması",
        -8.414547586976658
      ],
      [
        "inin",
        -8.421008351635624
      ],
      [
        "▁kapandı",
        -8.421669656254618
      ],
      [
        "▁hale",
        -8.42300449951771
      ],
      [
        "▁havuzu",
        -8.425748694133116
      ],
      [
        "▁sıra",
        -8.428037637019003
      ],
      [
        "▁yapmak",
        -8.428955770994282
      ],
      [
        "larından",
        -8.431332324721364
      ],
      [
        "▁kac",
        -8.431839939543266
      ],
      [
        "▁elinde",
        -8.435216276419492
      ],
      [
        "▁kalmadi",
        -8.438315457789468
      ],
      [
        "▁hizmeti",
        -8.439567582075451
      ],
      [
        "▁zor",
        -8.439764535108358
      ],
      [
        "▁basında",
        -8.44486474605404
      ],
      [
        "▁gitti",
        -8.445590389072855
      ],
      [
        "inde",
        -8.452894777675343
      ],
      [
        "▁sene",
        -8.455602673025052
      ],
      [
        "▁varan",
        -8.456719761954476
      ],
      [
        "▁francisco",
        -8.458376255802964
      ],
      [
        "▁hatta",
        -8.458471845573595
      ],
      [
        "▁faiz",
        -8.458871963708168
      ],
      [
        "unu",
        -8.45965827088354
      ],
      [
        "▁yavas",
        -8.460507638125893
      ],
      [
        "▁seyler",
        -8.463472290952168
      ],
      [
        "▁animasyon",
        -8.465265030578902
      ],
      [
        "ladı",
        -8.465888452123885
      ],
      [
        "▁haber",
        -8.466314100301346
      ],
      [
        "inden",
        -8.466479573390433
      ],
      [
        "▁yapı",
        -8.47158459753248
      ],
      [
        "▁otelin",
        -8.478734452854827
      ],
      [
        "abilir",
        -8.479499761165698
      ],
      [
        "▁senedi",
        -8.480209088728344
      ],
      [
        "▁yere",
        -8.480894733081087
      ],
      [
        "▁arası",
        -8.482591596627717
      ],
      [
        "▁ucak",
        -8.48489685405072
      ],
      [
        "▁kalite",
        -8.489069544857461
      ],
      [
        "▁fiyatları",
        -8.489074757379594
      ],
      [
        "▁rahat",
        -8.49016052316053
      ],
      [
        "▁olsa",
        -8.490185283589105
      ],
      [
        "▁ifade",
        -8.490367014399627
      ],
      [
        "▁ustunde",
        -8.49127752662054
      ],
      [
        "▁persembe",
        -8.491574319303304
      ],
      [
        "▁havuz",
        -8.491964624507263
      ],
      [
        "▁isi",
        -8.493352526511602
      ],
      [
        "ra",
        -8.493732163157489
      ],
      [
        "landı",
        -8.494242267022084
      ],
      [
        "▁yapılan",
        -8.495452782101761
      ],
      [
        "▁soyluyor",
        -8.498913599345597
      ],
      [
        "▁ucreti",
        -8.502944644482447
      ],
      [
        "▁at",
        -8.505609661950615
      ],
      [
        "mıstı",
        -8.50719121370997
      ],
      [
        "mi",
        -8.508391985500495
      ],
      [
        "▁oluyor",
        -8.510976215613363
      ],
      [
        "▁sehir",
        -8.513479584128323
      ],
      [
        "ga",
        -8.514314436592203
      ],
      [
        "▁elde",
        -8.517476490786173
      ],
      [
        "▁philadelphia'da",
        -8.519733767058405
      ],
      [
        "▁koy",
        -8.520967943818576
      ],
      [
        "▁yatırım",
        -8.521766047492289
      ],
      [
        "▁ic",
        -8.523853981615755
      ],
      [
        "▁alım",
        -8.525078006609567
      ],
      [
        "ım",
        -8.52764188343411
      ],
      [
        "▁olması",
        -8.529111473582951
      ],
      [
        "▁yana",
        -8.529687954403164
      ],
      [
        "▁bunları",
        -8.531516199609797
      ],
      [
        "▁kat",
        -8.532148956178279
      ],
      [
        "▁olmus",
        -8.532587405947163
      ],
      [
        "▁kredi",
        -8.536485105076594
      ],
      [
        "lan",
        -8.538902709347093
      ],
      [
        "▁ayında",
        -8.542099539582512
      ],
      [
        "▁masa",
        -8.543487847607238
      ],
      [
        "▁kim",
        -8.545566972805023
      ],
      [
        "▁yaz",
        -8.551462927408242
      ],
      [
        "▁buna",
        -8.552334148812076
      ],
      [
        "▁temizlik",
        -8.552868487957952
      ],
      [
        "▁satıs",
        -8.553178603853828
      ],
      [
        "▁vergi",
        -8.554481682718604
      ],
      [
        "▁gelecek",
        -8.554558971635295
      ],
      [
        "▁f",
        -8.555872861433087
      ],
      [
        "gu",
        -8.558272886172162
      ],
      [
        "▁sabahı",
        -8.558303710797237
      ],
      [
        "▁onunde",
        -8.559332794251354
      ],
      [
        "▁dava",
        -8.560806084292182
      ],
      [
        "▁tesekkur",
        -8.56111644379614
      ],
      [
        "▁8",
        -8.562007161855774
      ],
      [
        "▁yabancı",
        -8.562123066872282
      ],
      [
        "▁dolara",
        -8.562213000575063
      ],
      [
        "ız",
        -8.563315334893984
      ],
      [
        "▁merkezi",
        -8.567713191716194
      ],
      [
        "▁alan",
        -8.568071537686759
      ],
      [
        "▁lezzetli",
        -8.568193520101918
      ],
      [
        "yor",
        -8.568574826960745
      ],
      [
        "alım",
        -8.573980277834803
      ],
      [
        "▁yapan",
        -8.574062136314462
      ],
      [
        "suz",
        -8.574855127158322
      ],
      [
        "▁dolu",
        -8.576520616185073
      ],
      [
        "▁dur",
        -8.576551584709135
      ],
      [
        "▁yedi",
        -8.577100945189791
      ],
      [
        "ri",
        -8.57752812947616
      ],
      [
        "▁islem",
        -8.578198769280956
      ],
      [
        "▁vardır",
        -8.57999319357771
      ],
      [
        "▁hepsi",
        -8.58058960221905
      ],
      [
        "▁kolay",
        -8.581008172040509
      ],
      [
        "▁deger",
        -8.582152500947466
      ],
      [
        "▁dallas",
        -8.58251035153825
      ],
      [
        "▁yasa",
        -8.584053352334795
      ],
      [
        "likle",
        -8.586190456864701
      ],
      [
        "▁li",
        -8.58825822111699
      ],
      [
        "▁teklif",
        -8.592730458629745
      ],
      [
        "▁gercekte",
        -8.593522303377078
      ],
      [
        "▁gunluk",
        -8.594255000362963
      ],
      [
        "▁20",
        -8.595302906237544
      ],
      [
        "▁tı",
        -8.596100099008027
      ],
      [
        "il",
        -8.596803252071265
      ],
      [
        "ecek",
        -8.598644992183289
      ],
      [
        "nde",
        -8.598823398844473
      ],
      [
        "▁onceki",
        -8.59908432020039
      ],
      [
        "▁kahve",
        -8.602804885764384
      ],
      [
        "▁edilen",
        -8.60501714797391
      ],
      [
        "▁vadeli",
        -8.605394731393758
      ],
      [
        "▁birinci",
        -8.605852994452066
      ],
      [
        "▁yeterli",
        -8.606000596239365
      ],
      [
        "▁se",
        -8.606541534688807
      ],
      [
        "▁hafif",
        -8.608226660641614
      ],
      [
        "ebilir",
        -8.60840013020901
      ],
      [
        "▁30",
        -8.61060085890588
      ],
      [
        "gmen",
        -8.61120835324132
      ],
      [
        "▁kan",
        -8.612098037117075
      ],
      [
        "▁arada",
        -8.612407387081937
      ],
      [
        "▁zat",
        -8.613282293723763
      ],
      [
        "\"",
        -8.613478171153233
      ],
      [
        "ından",
        -8.618177037168778
      ],
      [
        "▁turlu",
        -8.619177076197984
      ],
      [
        "ının",
        -8.620018527306787
      ],
      [
        "lerdi",
        -8.620430886791222
      ],
      [
        "▁guleryuzlu",
        -8.620719883216779
      ],
      [
        "lıyor",
        -8.624102359284418
      ],
      [
        "▁gecti",
        -8.62519751449295
      ],
      [
        "▁ac",
        -8.625408290539976
      ],
      [
        "▁bizi",
        -8.6258381488365
      ],
      [
        "▁sirketin",
        -8.625976085454116
      ],
      [
        "tur",
        -8.629898560375793
      ],
      [
        "2",
        -8.631526756993214
      ],
      [
        "▁ti",
        -8.633103166306373
      ],
      [
        "▁baltimore'de",
        -8.633419946408917
      ],
      [
        "▁yardım",
        -8.633782328062356
      ],
      [
        "b",
        -8.634056900148988
      ],
      [
        "▁bilgisayar",
        -8.637263071794928
      ],
      [
        "▁kaldı",
        -8.638689977514595
      ],
      [
        "▁tas",
        -8.639542003737775
      ],
      [
        "'nun",
        -8.639622522103299
      ],
      [
        "▁kendini",
        -8.63964277177651
      ],
      [
        "▁baz",
        -8.640423828677152
      ],
      [
        "▁ekonomi",
        -8.641856990597589
      ],
      [
        "▁yonetim",
        -8.642878334286694
      ],
      [
        "v",
        -8.644305237135175
      ],
      [
        "▁es",
        -8.644910684828883
      ],
      [
        "▁american",
        -8.645088645711422
      ],
      [
        "▁yasında",
        -8.64621198988176
      ],
      [
        "iyor",
        -8.64752858111306
      ],
      [
        "maktadır",
        -8.648894955558388
      ],
      [
        "sinin",
        -8.651172974666459
      ],
      [
        "▁baba",
        -8.653277293171527
      ],
      [
        "deki",
        -8.655365557692875
      ],
      [
        "mı",
        -8.656767055806636
      ],
      [
        "sunuz",
        -8.656993775116518
      ],
      [
        "▁gul",
        -8.659800576845356
      ],
      [
        "▁anlasma",
        -8.661171265217646
      ],
      [
        "▁servis",
        -8.668363713810528
      ],
      [
        "▁tesisin",
        -8.66839514647102
      ],
      [
        "▁konum",
        -8.669071826546407
      ],
      [
        "▁12",
        -8.669141669918435
      ],
      [
        "▁adı",
        -8.669954297787033
      ],
      [
        "▁cumartesi",
        -8.669959405020041
      ],
      [
        "▁ortalama",
        -8.670515997952055
      ],
      [
        "▁yazı",
        -8.670635039574961
      ],
      [
        "▁eger",
        -8.675105233320945
      ],
      [
        "▁derece",
        -8.677504748180171
      ],
      [
        "▁kucuktu",
        -8.679117801966715
      ],
      [
        "gini",
        -8.679874868661923
      ],
      [
        "ge",
        -8.680272188057746
      ],
      [
        "▁olma",
        -8.681409757956175
      ],
      [
        "kca",
        -8.683445816509881
      ],
      [
        "▁karayolu",
        -8.683518934401782
      ],
      [
        "8",
        -8.684705508925433
      ],
      [
        "▁derin",
        -8.685548355857787
      ],
      [
        "▁tahvil",
        -8.688964109386042
      ],
      [
        "▁aktarmasız",
        -8.690513257305728
      ],
      [
        "▁kendisi",
        -8.690601607507173
      ],
      [
        "▁doları",
        -8.690722453207663
      ],
      [
        "▁halde",
        -8.691168362529062
      ],
      [
        "▁onumuzde",
        -8.693057870935274
      ],
      [
        "▁ust",
        -8.694319511337074
      ],
      [
        "▁tahmin",
        -8.694963008082116
      ],
      [
        "ba",
        -8.696084495553961
      ],
      [
        "▁guclu",
        -8.696783646094547
      ],
      [
        "▁kıymetler",
        -8.698797965961862
      ],
      [
        "▁yani",
        -8.703107178885842
      ],
      [
        "mektedir",
        -8.704234049006619
      ],
      [
        "▁calısma",
        -8.706620333566462
      ],
      [
        "▁farklı",
        -8.708119445641007
      ],
      [
        "▁hayat",
        -8.70863450878199
      ],
      [
        "▁hukumet",
        -8.70934246262345
      ],
      [
        "▁veriyor",
        -8.710668043197684
      ],
      [
        "ında",
        -8.711232180677133
      ],
      [
        "▁seni",
        -8.711489085989637
      ],
      [
        "1",
        -8.714161346240692
      ],
      [
        "sınız",
        -8.716315582398597
      ],
      [
        "▁ver",
        -8.717767450391088
      ],
      [
        "▁ucmak",
        -8.720605164123837
      ],
      [
        "▁performans",
        -8.722860391394923
      ],
      [
        "▁telefon",
        -8.724652922084584
      ],
      [
        "▁yanında",
        -8.72664082219967
      ],
      [
        "kten",
        -8.727057325503107
      ],
      [
        "▁surekli",
        -8.732506640091394
      ],
      [
        "'te",
        -8.732750190268955
      ],
      [
        "▁kesinlik",
        -8.733849314449643
      ],
      [
        "et",
        -8.734353023793862
      ],
      [
        "ıyla",
        -8.738846429111986
      ],
      [
        "▁actı",
        -8.739498030518902
      ],
      [
        "▁demek",
        -8.739996767638509
      ],
      [
        "maya",
        -8.740573075797911
      ],
      [
        "▁sınıf",
        -8.74170112227177
      ],
      [
        "▁harika",
        -8.74692097361008
      ],
      [
        "▁yılında",
        -8.748090458867953
      ],
      [
        "▁gozleri",
        -8.748791795149678
      ],
      [
        "▁olmayan",
        -8.749823177849134
      ],
      [
        "▁etme",
        -8.750254146631207
      ],
      [
        "▁yapıyor",
        -8.751813424380497
      ],
      [
        "▁eve",
        -8.752053550935827
      ],
      [
        "or",
        -8.75207676752552
      ],
      [
        "▁yolu",
        -8.753875843963044
      ],
      [
        "▁mukemmel",
        -8.754229516063695
      ],
      [
        "misti",
        -8.75563056300469
      ],
      [
        "▁yanı",
        -8.75645359076557
      ],
      [
        "▁batı",
        -8.757413091955454
      ],
      [
        "▁aradi",
        -8.75766423641149
      ],
      [
        "▁buldu",
        -8.759698319984544
      ],
      [
        "▁yarı",
        -8.762356018141748
      ],
      [
        "▁guc",
        -8.763774501467905
      ],
      [
        "▁15",
        -8.763951609863962
      ],
      [
        "▁senin",
        -8.76415914704951
      ],
      [
        "▁sirketi",
        -8.771382443919851
      ],
      [
        "▁belli",
        -8.771749350819341
      ],
      [
        "sal",
        -8.77377742652908
      ],
      [
        "▁d",
        -8.77413760892901
      ],
      [
        "▁kotuy",
        -8.77428275406805
      ],
      [
        "▁mal",
        -8.774475619589214
      ],
      [
        "us",
        -8.775402927461567
      ],
      [
        "▁united",
        -8.776802781716242
      ],
      [
        "▁demir",
        -8.778286919889545
      ],
      [
        "▁alma",
        -8.778306711801104
      ],
      [
        "▁yarın",
        -8.779520739694524
      ],
      [
        "▁et",
        -8.781222976774714
      ],
      [
        "▁aslın",
        -8.784267454824036
      ],
      [
        "▁b",
        -8.78643736715527
      ],
      [
        "▁gidiyor",
        -8.787091831294081
      ],
      [
        "▁bos",
        -8.787918161001713
      ],
      [
        "rken",
        -8.790632944107465
      ],
      [
        "▁durum",
        -8.790635440027078
      ],
      [
        "▁vermek",
        -8.790739352285996
      ],
      [
        "▁yıllar",
        -8.792751085587279
      ],
      [
        "▁defa",
        -8.79469821331254
      ],
      [
        "6",
        -8.794985519609746
      ],
      [
        "▁erkek",
        -8.795239049841586
      ],
      [
        "▁pahali",
        -8.795624239576858
      ],
      [
        "▁dikkat",
        -8.796938522822606
      ],
      [
        "▁siyah",
        -8.799696591643041
      ],
      [
        "▁yap",
        -8.800162179591823
      ],
      [
        "▁pay",
        -8.801908694850091
      ],
      [
        "dıgını",
        -8.804021412919447
      ],
      [
        "▁iceri",
        -8.806551578474856
      ],
      [
        "▁satıslar",
        -8.807030690858946
      ],
      [
        "▁us",
        -8.80794184004907
      ],
      [
        "▁baglı",
        -8.809874565625245
      ],
      [
        "▁sakin",
        -8.810604282178996
      ],
      [
        "ik",
        -8.811115564288627
      ],
      [
        "lama",
        -8.811383395470514
      ],
      [
        "yim",
        -8.81207198355747
      ],
      [
        "▁banka",
        -8.815872880725
      ],
      [
        "▁odedigim",
        -8.817077705986774
      ],
      [
        "▁las",
        -8.81951821869615
      ],
      [
        "▁benzer",
        -8.81954631898332
      ],
      [
        "▁hisseleri",
        -8.820113735061138
      ],
      [
        "▁co",
        -8.822294529667193
      ],
      [
        "yordu",
        -8.822397958704999
      ],
      [
        "▁federal",
        -8.822427374784757
      ],
      [
        "▁olmadi",
        -8.823860593671018
      ],
      [
        "mesi",
        -8.824222590007217
      ],
      [
        "▁zamanda",
        -8.824518826221944
      ],
      [
        "▁durumda",
        -8.824967699146544
      ],
      [
        "▁yuzunde",
        -8.825313630397565
      ],
      [
        "▁cevap",
        -8.826283136040995
      ],
      [
        "▁endeksi",
        -8.826507843156424
      ],
      [
        "▁merkez",
        -8.82749627670325
      ],
      [
        "▁gider",
        -8.827771403610475
      ],
      [
        "▁ele",
        -8.827978892790878
      ],
      [
        "▁bul",
        -8.829247594681771
      ],
      [
        "&",
        -8.830300335687674
      ],
      [
        "▁toplam",
        -8.830486919023524
      ],
      [
        "▁lira",
        -8.83065277757889
      ],
      [
        "▁yuzlu",
        -8.831126268186654
      ],
      [
        "▁hazır",
        -8.832012650338683
      ],
      [
        "mek",
        -8.83505353948949
      ],
      [
        "▁9",
        -8.837974536594732
      ],
      [
        "▁los",
        -8.840204010607923
      ],
      [
        "▁atlanta",
        -8.84287019803438
      ],
      [
        "▁borc",
        -8.846181565609065
      ],
      [
        "▁gorev",
        -8.847067366161905
      ],
      [
        "▁kimi",
        -8.8473875051839
      ],
      [
        "▁gemi",
        -8.848096635577019
      ],
      [
        "▁evde",
        -8.848284579379962
      ],
      [
        "▁s",
        -8.848995050327346
      ],
      [
        "▁etmem",
        -8.850123033102706
      ],
      [
        "▁kuru",
        -8.85070786070095
      ],
      [
        "man",
        -8.853536737091073
      ],
      [
        "▁kurulu",
        -8.854981040559677
      ],
      [
        "▁as",
        -8.859263286141084
      ],
      [
        "▁kaliteli",
        -8.86197083166104
      ],
      [
        "▁air",
        -8.862681855798684
      ],
      [
        "▁olmaz",
        -8.862728310483984
      ],
      [
        "▁seyi",
        -8.862773259615398
      ],
      [
        "▁sana",
        -8.864263631551157
      ],
      [
        "▁ad",
        -8.864684978302893
      ],
      [
        "ince",
        -8.865616579910803
      ],
      [
        "▁evin",
        -8.865686995025499
      ],
      [
        "▁bayan",
        -8.866520257848782
      ],
      [
        "4",
        -8.867729835829483
      ],
      [
        "3",
        -8.868037905974674
      ],
      [
        "▁veriri",
        -8.868604884190898
      ],
      [
        "▁dil",
        -8.869348098725961
      ],
      [
        "▁francisco'da",
        -8.869417574133465
      ],
      [
        "lıgını",
        -8.871124109799165
      ],
      [
        "▁pittsburgh",
        -8.872060095782912
      ],
      [
        "▁kafa",
        -8.873937010421015
      ],
      [
        "rak",
        -8.874967794868422
      ],
      [
        "▁nedeni",
        -8.875218929624946
      ],
      [
        "▁dakika",
        -8.876643997923356
      ],
      [
        "▁turkiye",
        -8.876686111210201
      ],
      [
        "▁asagı",
        -8.877769122125684
      ],
      [
        "▁anket",
        -8.880531973061633
      ],
      [
        "▁19",
        -8.881026271060364
      ],
      [
        "▁iddia",
        -8.881421041767606
      ],
      [
        "▁kıs",
        -8.885593614730366
      ],
      [
        "▁artısla",
        -8.885774852604577
      ],
      [
        "ton",
        -8.886628140429421
      ],
      [
        "▁bası",
        -8.887959636568075
      ],
      [
        "▁ucuncu",
        -8.88796834985185
      ],
      [
        "ligini",
        -8.888070234888655
      ],
      [
        "▁annem",
        -8.888514465604203
      ],
      [
        "▁begenmedi",
        -8.88870164195983
      ],
      [
        "▁yesil",
        -8.888905461540968
      ],
      [
        "rek",
        -8.889842563823795
      ],
      [
        "▁salt",
        -8.890212931539004
      ],
      [
        "▁ali",
        -8.89201891701643
      ],
      [
        "▁misin",
        -8.892365834137193
      ],
      [
        "▁gel",
        -8.892383347769382
      ],
      [
        "dıgı",
        -8.893251424920958
      ],
      [
        "▁ufak",
        -8.896325977511427
      ],
      [
        "▁girdi",
        -8.896620240115082
      ],
      [
        "▁ici",
        -8.897590248378243
      ],
      [
        "▁plan",
        -8.898413254334656
      ],
      [
        "▁temel",
        -8.89976956550396
      ],
      [
        "▁olmasi",
        -8.902254919815427
      ],
      [
        "▁net",
        -8.903247580931037
      ],
      [
        "▁ter",
        -8.903284893350717
      ],
      [
        "'i",
        -8.904539895158038
      ],
      [
        "▁kazanc",
        -8.906222623382124
      ],
      [
        "▁olduk",
        -8.906994636186566
      ],
      [
        "▁konusma",
        -8.9076312852287
      ],
      [
        "▁karsısında",
        -8.91081800793496
      ],
      [
        "▁beraber",
        -8.91105306032953
      ],
      [
        "▁hasta",
        -8.911585573108871
      ],
      [
        "miyor",
        -8.912867424399124
      ],
      [
        "▁ek",
        -8.913281430863883
      ],
      [
        "meye",
        -8.914322755903687
      ],
      [
        "▁begendi",
        -8.91575228362912
      ],
      [
        "▁city'",
        -8.916277059645175
      ],
      [
        "mez",
        -8.916377214466706
      ],
      [
        "▁yiyecek",
        -8.917558692689047
      ],
      [
        "▁11",
        -8.918526889052579
      ],
      [
        "▁mali",
        -8.919216262636933
      ],
      [
        "▁sozcu",
        -8.919257782785298
      ],
      [
        "be",
        -8.921649328674398
      ],
      [
        "▁gelmis",
        -8.922394940223707
      ],
      [
        "▁gunes",
        -8.923996243818669
      ],
      [
        "▁olmadıgını",
        -8.924728298743062
      ],
      [
        "▁suru",
        -8.925185819589906
      ],
      [
        "▁sol",
        -8.927453124093296
      ],
      [
        "▁sanat",
        -8.927531321524068
      ],
      [
        "▁zengin",
        -8.928795345285796
      ],
      [
        "▁delta",
        -8.929981018577655
      ],
      [
        "▁yaptıgı",
        -8.930672803073763
      ],
      [
        "▁ar",
        -8.930878587998002
      ],
      [
        "mizi",
        -8.932984972320629
      ],
      [
        "▁yanlıs",
        -8.937312121907937
      ],
      [
        "▁ayrı",
        -8.938732378092421
      ],
      [
        "▁$",
        -8.938998668851063
      ],
      [
        "▁milli",
        -8.940164688609492
      ],
      [
        "▁adım",
        -8.940400339251735
      ],
      [
        "ul",
        -8.940433047378185
      ],
      [
        "▁tarih",
        -8.943451931797174
      ],
      [
        "▁te",
        -8.945148034473474
      ],
      [
        "ran",
        -8.945240203283943
      ],
      [
        "▁nerede",
        -8.946295630977334
      ],
      [
        "x",
        -8.947325972235276
      ],
      [
        "▁kalan",
        -8.947383523147348
      ],
      [
        "▁lake",
        -8.947666698922106
      ],
      [
        "▁yapılacak",
        -8.94781786581348
      ],
      [
        "▁ticaret",
        -8.948918751338171
      ],
      [
        "▁kullanmadi",
        -8.949759213299458
      ],
      [
        "▁sarı",
        -8.951873133488927
      ],
      [
        "▁odalar",
        -8.95226777600045
      ],
      [
        "▁ta",
        -8.953857699992657
      ],
      [
        "lugu",
        -8.95409469803172
      ],
      [
        "▁gecmis",
        -8.954472875709527
      ],
      [
        "▁gerek",
        -8.95463491238809
      ],
      [
        "▁h",
        -8.95486975691809
      ],
      [
        "▁babam",
        -8.954924319298971
      ],
      [
        "▁koca",
        -8.955103407051535
      ],
      [
        "bilir",
        -8.957460933508475
      ],
      [
        "▁istiyor",
        -8.961655376904467
      ],
      [
        "▁airlines",
        -8.96187789377182
      ],
      [
        "▁numara",
        -8.96202724766093
      ],
      [
        "▁dar",
        -8.962249322496568
      ],
      [
        "▁yara",
        -8.96296513238051
      ],
      [
        "▁yuksel",
        -8.964218716047107
      ],
      [
        "▁agustos",
        -8.965451142577631
      ],
      [
        "▁alamadi",
        -8.9655376922422
      ],
      [
        "▁zarar",
        -8.965852899421478
      ],
      [
        "▁veren",
        -8.966408529112922
      ],
      [
        "▁fark",
        -8.96667272170467
      ],
      [
        "▁tane",
        -8.967448483831085
      ],
      [
        "▁verdigi",
        -8.96967475051488
      ],
      [
        "▁cevre",
        -8.973650254841338
      ],
      [
        "▁eylul",
        -8.974154513526816
      ],
      [
        "▁corp.",
        -8.975285980149415
      ],
      [
        "▁edecek",
        -8.979247003878573
      ],
      [
        "▁olmustu",
        -8.980143853117486
      ],
      [
        "▁kadınlar",
        -8.981018110841525
      ],
      [
        "▁kere",
        -8.981238242107562
      ],
      [
        "▁sıkı",
        -8.982840505424651
      ],
      [
        "▁firs",
        -8.983067767929036
      ],
      [
        "▁cekti",
        -8.983761909895318
      ],
      [
        "▁yardimci",
        -8.983792588256527
      ],
      [
        "▁sahibi",
        -8.98417581973527
      ],
      [
        "nca",
        -8.986205922240934
      ],
      [
        "▁york'ta",
        -8.989139018507032
      ],
      [
        "▁hazine",
        -8.989690103217919
      ],
      [
        "▁edildi",
        -8.989947665508902
      ],
      [
        "▁petrol",
        -8.994213026140624
      ],
      [
        "cık",
        -8.994372488013962
      ],
      [
        "▁parti",
        -8.994772802705421
      ],
      [
        "▁sert",
        -8.995197311314474
      ],
      [
        "▁yapma",
        -8.995983253075444
      ],
      [
        "▁fena",
        -8.996759820277994
      ],
      [
        "▁arttı",
        -8.997026024641402
      ],
      [
        "nız",
        -8.997048726341893
      ],
      [
        "▁olursa",
        -8.997327682631358
      ],
      [
        "▁ayak",
        -8.997406586510941
      ],
      [
        "▁savas",
        -8.99919969201095
      ],
      [
        "on",
        -8.99940128739296
      ],
      [
        "▁sonuc",
        -9.005158335236608
      ],
      [
        "sının",
        -9.005428307771744
      ],
      [
        "▁parca",
        -9.008515714525235
      ],
      [
        "▁aylık",
        -9.010128898606496
      ],
      [
        "mızı",
        -9.01052038967584
      ],
      [
        "▁japon",
        -9.010849190061148
      ],
      [
        "▁insanın",
        -9.010907419402201
      ],
      [
        "▁bilim",
        -9.011214960593149
      ],
      [
        "bi",
        -9.0116172210804
      ],
      [
        "9",
        -9.012807200482477
      ],
      [
        "▁ardında",
        -9.012958479368372
      ],
      [
        "▁yas",
        -9.013099563991045
      ],
      [
        "▁uzak",
        -9.01311491037216
      ],
      [
        "mustu",
        -9.014947343872707
      ],
      [
        "▁baktı",
        -9.015169001984912
      ],
      [
        "it",
        -9.015607074909749
      ],
      [
        "▁ses",
        -9.016923799985786
      ],
      [
        "▁attı",
        -9.017894872843414
      ],
      [
        "▁aralık",
        -9.018570985575796
      ],
      [
        ",",
        -9.020617761271101
      ],
      [
        "▁birden",
        -9.02071911273336
      ],
      [
        "▁iliskin",
        -9.021073231248057
      ],
      [
        "▁dik",
        -9.0219808753311
      ],
      [
        "▁sordu",
        -9.02435084304946
      ],
      [
        "▁yerinde",
        -9.024511768216545
      ],
      [
        "▁sıcak",
        -9.02815563720263
      ],
      [
        "▁yuzme",
        -9.028353757067874
      ],
      [
        "▁kansas",
        -9.030875021513143
      ],
      [
        "▁class",
        -9.030975324536763
      ],
      [
        "▁dısında",
        -9.031087419495982
      ],
      [
        "▁gerekiyor",
        -9.031254680700236
      ],
      [
        "▁ydı",
        -9.032085583083166
      ],
      [
        "▁dogu",
        -9.032288693198947
      ],
      [
        "lanmıs",
        -9.033105993096978
      ],
      [
        "▁ortak",
        -9.033349431672704
      ],
      [
        "▁idi",
        -9.034021509280116
      ],
      [
        "▁kırmızı",
        -9.034138811809997
      ],
      [
        "▁eli",
        -9.035123222837939
      ],
      [
        "▁ates",
        -9.035964783731368
      ],
      [
        "▁isin",
        -9.038159413334654
      ],
      [
        "▁oz",
        -9.038904960472093
      ],
      [
        "▁zorunda",
        -9.039433918869745
      ],
      [
        "▁ulusal",
        -9.040789685156255
      ],
      [
        "▁bulunan",
        -9.041096508195267
      ],
      [
        "▁hızlı",
        -9.041580939943268
      ],
      [
        "▁fiyatı",
        -9.042656960329971
      ],
      [
        "▁dusus",
        -9.04344311993058
      ],
      [
        "▁sesi",
        -9.043684998600447
      ],
      [
        "▁yeter",
        -9.04444383553923
      ],
      [
        "▁gosterdi",
        -9.045045105824599
      ],
      [
        "▁oakland'",
        -9.048173305488637
      ],
      [
        "▁sefer",
        -9.049822107720615
      ],
      [
        "▁musait",
        -9.05051095510623
      ],
      [
        "▁meydan",
        -9.050984587103049
      ],
      [
        "▁25",
        -9.05100637293858
      ],
      [
        "▁baskı",
        -9.05271863364819
      ],
      [
        "▁anlam",
        -9.053411151289986
      ],
      [
        "▁oyun",
        -9.05400745454071
      ],
      [
        "▁kazandı",
        -9.054099622772462
      ],
      [
        "vi",
        -9.056349515363333
      ],
      [
        "▁borsası",
        -9.056981258238533
      ],
      [
        "▁verme",
        -9.058211041087187
      ],
      [
        "▁ister",
        -9.060194385143316
      ],
      [
        "▁ed",
        -9.061007608177496
      ],
      [
        "▁tatlı",
        -9.06105088845555
      ],
      [
        "▁yuzu",
        -9.06229430994869
      ],
      [
        "▁washington'",
        -9.063077827556935
      ],
      [
        "▁yılın",
        -9.06696619797858
      ],
      [
        "▁cesitli",
        -9.067596622689653
      ],
      [
        "▁ulasımı",
        -9.068524288065692
      ],
      [
        "▁avrupa",
        -9.069990494227273
      ],
      [
        "▁insanların",
        -9.070300640425387
      ],
      [
        "▁mumkun",
        -9.070385393054718
      ],
      [
        "▁borsa",
        -9.07104289178037
      ],
      [
        "yıp",
        -9.07237846811811
      ],
      [
        "▁dondu",
        -9.07322297818823
      ],
      [
        "▁gozu",
        -9.073355656914256
      ],
      [
        "▁yardımcı",
        -9.073955460621296
      ],
      [
        "▁ustu",
        -9.074733009460061
      ],
      [
        "▁personeli",
        -9.076028585363495
      ],
      [
        "▁arka",
        -9.076762827859536
      ],
      [
        "▁ceyrek",
        -9.076794008185288
      ],
      [
        "▁ag",
        -9.078406747962383
      ],
      [
        "ledi",
        -9.078454573344684
      ],
      [
        "▁finans",
        -9.080086183612352
      ],
      [
        "acagını",
        -9.080407838669135
      ],
      [
        "▁yirmi",
        -9.08048560339337
      ],
      [
        "▁bahce",
        -9.0824480410587
      ],
      [
        "▁ulasım",
        -9.08256676968572
      ],
      [
        "▁cıkardı",
        -9.082721784191428
      ],
      [
        "▁hak",
        -9.084010794876797
      ],
      [
        "▁zayıf",
        -9.085436286278508
      ],
      [
        "▁hanım",
        -9.085603947336647
      ],
      [
        "▁getiri",
        -9.087134826473736
      ],
      [
        "00",
        -9.088804338989693
      ],
      [
        "▁servisi",
        -9.08896032910248
      ],
      [
        "▁izin",
        -9.08920190334869
      ],
      [
        "▁fiyati",
        -9.089440426509116
      ],
      [
        "▁arkadas",
        -9.090424821293357
      ],
      [
        "▁continental",
        -9.090693852833674
      ],
      [
        "▁resmi",
        -9.091114279764149
      ],
      [
        "▁din",
        -9.091277517361057
      ],
      [
        "▁etmis",
        -9.092301874220922
      ],
      [
        "▁yatırımcılar",
        -9.092327640731561
      ],
      [
        "▁gozlerini",
        -9.092591711642683
      ],
      [
        "▁olcude",
        -9.092701491769212
      ],
      [
        "▁ekim",
        -9.092946055450236
      ],
      [
        "▁egitim",
        -9.096187531442997
      ],
      [
        "▁basını",
        -9.099811378875767
      ],
      [
        "▁halinde",
        -9.100277696164571
      ],
      [
        "7",
        -9.100653082267598
      ],
      [
        "▁isletme",
        -9.100960154305834
      ],
      [
        "▁seyahat",
        -9.101002590386678
      ],
      [
        "is",
        -9.101370077293378
      ],
      [
        "▁ekonomik",
        -9.101762705683253
      ],
      [
        "▁yetkilileri",
        -9.10202305998245
      ],
      [
        "▁ekmek",
        -9.102983967268363
      ],
      [
        "▁rezervasyonu",
        -9.103132495000663
      ],
      [
        "▁kus",
        -9.104432030933426
      ],
      [
        "▁100",
        -9.105354362291504
      ],
      [
        "▁alır",
        -9.106951039161391
      ],
      [
        "▁kagıt",
        -9.107409583776388
      ],
      [
        "▁sessiz",
        -9.10830513204843
      ],
      [
        "▁sermaye",
        -9.108568016214875
      ],
      [
        "▁ucuyor",
        -9.110596470070941
      ],
      [
        "▁bıraktı",
        -9.111179590447772
      ],
      [
        "▁verdigim",
        -9.112531207995753
      ],
      [
        "▁savunma",
        -9.112972621572862
      ],
      [
        "klarını",
        -9.113958948580308
      ],
      [
        "▁ileri",
        -9.114467514264017
      ],
      [
        "ze",
        -9.115667508074441
      ],
      [
        "evet",
        -9.115675012753409
      ],
      [
        "maz",
        -9.115864769974854
      ],
      [
        "▁hos",
        -9.115979443612655
      ],
      [
        "ıcı",
        -9.117109734150912
      ],
      [
        "▁halin",
        -9.118293795698964
      ],
      [
        "▁bol",
        -9.120738161433849
      ],
      [
        "▁kızı",
        -9.120756577177406
      ],
      [
        "▁etmeye",
        -9.122584051733128
      ],
      [
        "sıyla",
        -9.123340846016621
      ],
      [
        "▁musteri",
        -9.123536458668795
      ],
      [
        "yse",
        -9.124309434406303
      ],
      [
        "▁kendisini",
        -9.124323398242613
      ],
      [
        "▁konusu",
        -9.126638889795554
      ],
      [
        "▁ulke",
        -9.129847120864557
      ],
      [
        "▁mavi",
        -9.131038515520551
      ],
      [
        "▁otomobil",
        -9.131441010637227
      ],
      [
        "▁nokta",
        -9.13183962451923
      ],
      [
        "▁gizli",
        -9.13258107299363
      ],
      [
        "▁kır",
        -9.13416330789277
      ],
      [
        "▁calısıyor",
        -9.137348043910517
      ],
      [
        "▁gidi",
        -9.137620290174805
      ],
      [
        "▁si",
        -9.141697232256828
      ],
      [
        "w",
        -9.141800134395307
      ],
      [
        "dım",
        -9.141836421271176
      ],
      [
        "unun",
        -9.142910665258114
      ],
      [
        "▁ait",
        -9.143487439770652
      ],
      [
        "▁soru",
        -9.144885773653026
      ],
      [
        "▁gitmek",
        -9.147298225816101
      ],
      [
        "▁oran",
        -9.147847038890522
      ],
      [
        "▁program",
        -9.148866886006374
      ],
      [
        "▁kontrol",
        -9.149212538494343
      ],
      [
        "▁evvel",
        -9.151605434652943
      ],
      [
        "▁birbirin",
        -9.153150351707446
      ],
      [
        "▁dahil",
        -9.153379955918648
      ],
      [
        "▁tabii",
        -9.153584621290706
      ],
      [
        "5",
        -9.154450091405666
      ],
      [
        "▁anne",
        -9.155241778916526
      ],
      [
        "▁sekiz",
        -9.155959482536614
      ],
      [
        "▁hayal",
        -9.156022850784606
      ],
      [
        "▁kazan",
        -9.15683377790744
      ],
      [
        "▁hoca",
        -9.157403753643118
      ],
      [
        "▁yılda",
        -9.157756793246389
      ],
      [
        "▁gorun",
        -9.157990307379684
      ],
      [
        "▁guven",
        -9.158144488059335
      ],
      [
        "▁olmadıgı",
        -9.159834112687363
      ],
      [
        "▁soguk",
        -9.160167745040873
      ],
      [
        "lastı",
        -9.16056835195932
      ],
      [
        "▁alıyor",
        -9.161666988172628
      ],
      [
        "es",
        -9.16177208336738
      ],
      [
        "▁artıs",
        -9.164088855687703
      ],
      [
        "▁sigorta",
        -9.164204711440085
      ],
      [
        "▁ediyordu",
        -9.164820323889092
      ],
      [
        "zi",
        -9.164921851618127
      ],
      [
        "▁mehmet",
        -9.165191311898656
      ],
      [
        "▁imkanlari",
        -9.16522159138847
      ],
      [
        "▁cıkan",
        -9.165434480461485
      ],
      [
        "▁yapar",
        -9.16623446165894
      ],
      [
        "▁dıs",
        -9.168751605792165
      ],
      [
        "mayı",
        -9.17151304849224
      ],
      [
        "ıyordu",
        -9.17291466246216
      ],
      [
        "lige",
        -9.173119495874513
      ],
      [
        "▁oteli",
        -9.173172528314304
      ],
      [
        "▁gerektigin",
        -9.17546234596372
      ],
      [
        "▁reddetti",
        -9.176306131822862
      ],
      [
        "▁katkı",
        -9.176329122109593
      ],
      [
        "▁olanaklari",
        -9.176332336256213
      ],
      [
        "▁kal",
        -9.1774527238065
      ],
      [
        "mistir",
        -9.179329221929333
      ],
      [
        "▁gosteriyor",
        -9.179369251908991
      ],
      [
        "▁cay",
        -9.179645327952773
      ],
      [
        "▁mutlu",
        -9.181107752983994
      ],
      [
        "dar",
        -9.181847113211704
      ],
      [
        "imiz",
        -9.182028070327672
      ],
      [
        "▁co.",
        -9.18483229882174
      ],
      [
        "▁suyu",
        -9.184982658322618
      ],
      [
        "▁dusunuyor",
        -9.186223495073481
      ],
      [
        "mıstır",
        -9.186618915183935
      ],
      [
        "▁nisan",
        -9.187156443295487
      ],
      [
        "to",
        -9.188015177632673
      ],
      [
        "▁halk",
        -9.192061556279857
      ],
      [
        "▁ka",
        -9.19233486905609
      ],
      [
        "▁bulun",
        -9.19295966042002
      ],
      [
        "▁cent",
        -9.193830119502657
      ],
      [
        "▁yapacak",
        -9.193983390257037
      ],
      [
        "▁cam",
        -9.196088156242334
      ],
      [
        "▁yaptirdi",
        -9.198945116136493
      ],
      [
        "▁tahta",
        -9.2003646451574
      ],
      [
        "▁kitap",
        -9.202814346932616
      ],
      [
        "▁arastırma",
        -9.203100620779011
      ],
      [
        "▁otelde",
        -9.204668854465835
      ],
      [
        "ha",
        -9.205222480329812
      ],
      [
        "▁gorunuyor",
        -9.205911725202274
      ],
      [
        "▁oranı",
        -9.207664252700106
      ],
      [
        "▁cıkmıs",
        -9.207990515115826
      ],
      [
        "▁yag",
        -9.208452477573235
      ],
      [
        "▁dısarı",
        -9.209312460968661
      ],
      [
        "▁ticari",
        -9.210396753957085
      ],
      [
        "▁yarım",
        -9.211678858873825
      ],
      [
        "▁cek",
        -9.213018276407336
      ],
      [
        "▁gormek",
        -9.213239698026596
      ],
      [
        "▁bilet",
        -9.214144158427377
      ],
      [
        "▁inc.",
        -9.216518027317377
      ],
      [
        "▁hızla",
        -9.216730341856852
      ],
      [
        "▁sona",
        -9.216872904877473
      ],
      [
        "▁mus",
        -9.216916203517066
      ],
      [
        "▁hal",
        -9.218759544154398
      ],
      [
        "▁ciddi",
        -9.218841562051825
      ],
      [
        "▁calısan",
        -9.219003562807263
      ],
      [
        "ve",
        -9.21947359036542
      ],
      [
        "▁yaslı",
        -9.22057905376835
      ],
      [
        "▁tir",
        -9.220960877195056
      ],
      [
        "▁onem",
        -9.221280912528218
      ],
      [
        "▁saglık",
        -9.22304649110569
      ],
      [
        "gunu",
        -9.224489975923788
      ],
      [
        "▁silah",
        -9.224575064521897
      ],
      [
        "▁gene",
        -9.224589865271884
      ],
      [
        "▁acıkladı",
        -9.224600554725656
      ],
      [
        "▁yolda",
        -9.22477810490619
      ],
      [
        "▁yayın",
        -9.22495985759883
      ],
      [
        "▁ayı",
        -9.225325813479145
      ],
      [
        "▁toplum",
        -9.225762260943682
      ],
      [
        "▁bekliyor",
        -9.226116486441656
      ],
      [
        "▁kamu",
        -9.226518060348067
      ],
      [
        "os",
        -9.227059365351458
      ],
      [
        "▁olacagını",
        -9.227801495566652
      ],
      [
        "▁top",
        -9.229479254781872
      ],
      [
        "sından",
        -9.230561484055666
      ],
      [
        "▁beyle",
        -9.233161424513847
      ],
      [
        "▁bulundu",
        -9.234214730221424
      ],
      [
        "▁kose",
        -9.23454570716979
      ],
      [
        "▁duruyor",
        -9.234609390615228
      ],
      [
        "▁faturam",
        -9.236026594309575
      ],
      [
        "▁aktarmalı",
        -9.236089555691219
      ],
      [
        "liydi",
        -9.236240091730085
      ],
      [
        "▁bazıları",
        -9.236494291203016
      ],
      [
        "co",
        -9.238154872583271
      ],
      [
        "lenmis",
        -9.238894515786047
      ],
      [
        "▁karsiligi",
        -9.239183180983273
      ],
      [
        "▁buyume",
        -9.240631253191907
      ],
      [
        "▁lazım",
        -9.240990243904257
      ],
      [
        "▁yen",
        -9.24195532246804
      ],
      [
        "nu",
        -9.242003994701836
      ],
      [
        "▁korku",
        -9.242016922243671
      ],
      [
        "▁mustafa",
        -9.245693647657788
      ],
      [
        "▁kapalı",
        -9.245765394120747
      ],
      [
        "▁elektrik",
        -9.24600923381888
      ],
      [
        "▁$'",
        -9.246973328575084
      ],
      [
        "▁cleveland'",
        -9.247003743559295
      ],
      [
        "▁yakin",
        -9.24753145718173
      ],
      [
        "▁bırak",
        -9.247677244120855
      ],
      [
        "▁satım",
        -9.250601241103698
      ],
      [
        "▁mahkeme",
        -9.25162583311594
      ],
      [
        "▁okul",
        -9.252579129690746
      ],
      [
        "▁rapor",
        -9.252671562101405
      ],
      [
        "▁alt",
        -9.25270917417241
      ],
      [
        "▁sırada",
        -9.253410952971125
      ],
      [
        "▁dum",
        -9.254086510504099
      ],
      [
        "▁durumu",
        -9.254624674294927
      ],
      [
        "▁kendisin",
        -9.25529641325452
      ],
      [
        "▁sahne",
        -9.256870923969899
      ],
      [
        "▁bilir",
        -9.257238888024336
      ],
      [
        "▁50",
        -9.257265756080471
      ],
      [
        "▁kanun",
        -9.257359087445103
      ],
      [
        "▁yasam",
        -9.257525844741817
      ],
      [
        "▁muhtemel",
        -9.257741835295457
      ],
      [
        "▁sevgi",
        -9.257889882395698
      ],
      [
        "▁ekledi",
        -9.262087313670733
      ],
      [
        "▁analistler",
        -9.26515064458999
      ],
      [
        "▁zamanlar",
        -9.26690097345718
      ],
      [
        "▁hesap",
        -9.267609518294316
      ],
      [
        "▁ingiliz",
        -9.267983409288238
      ],
      [
        "▁misafirimiz",
        -9.270038044495529
      ],
      [
        "lay",
        -9.270246820261246
      ],
      [
        "▁verilen",
        -9.270431252124046
      ],
      [
        "▁oteldi",
        -9.271311851098098
      ],
      [
        "▁21",
        -9.272520740619784
      ],
      [
        "iyordu",
        -9.273486208602943
      ],
      [
        "▁ilac",
        -9.274268485703413
      ],
      [
        "▁fiyatlar",
        -9.274888984699917
      ],
      [
        "▁kultur",
        -9.276508316568613
      ],
      [
        "ici",
        -9.276972100347379
      ],
      [
        "han",
        -9.277220334019102
      ],
      [
        "dum",
        -9.278138845343722
      ],
      [
        "▁asla",
        -9.278800129290108
      ],
      [
        "▁arkasında",
        -9.278881793060346
      ],
      [
        "▁me",
        -9.27900922665518
      ],
      [
        "▁sosyal",
        -9.28250548133617
      ],
      [
        "▁efendi",
        -9.283306651093568
      ],
      [
        "▁sizin",
        -9.284559086085714
      ],
      [
        "▁kol",
        -9.285551417871547
      ],
      [
        "▁yazar",
        -9.285624551346174
      ],
      [
        "▁ha",
        -9.287410818316982
      ],
      [
        "▁washington'da",
        -9.288231162715146
      ],
      [
        "▁ihtiyar",
        -9.288378385372024
      ],
      [
        "▁asırı",
        -9.288858330795144
      ],
      [
        "digi",
        -9.289696940137693
      ],
      [
        "▁sayı",
        -9.290120293553755
      ],
      [
        "▁guney",
        -9.29116409152683
      ],
      [
        "▁yeme",
        -9.291363780947275
      ],
      [
        "kları",
        -9.292020271023427
      ],
      [
        "cak",
        -9.292486844020875
      ],
      [
        "▁gazete",
        -9.293678298707878
      ],
      [
        "▁elbet",
        -9.294793295072882
      ],
      [
        "▁hayır",
        -9.294887524535167
      ],
      [
        "▁dow",
        -9.294919647756275
      ],
      [
        "▁koyu",
        -9.295810436219902
      ],
      [
        "▁fort",
        -9.297098129014472
      ],
      [
        "▁cift",
        -9.299633776488427
      ],
      [
        "'ı",
        -9.300569718806525
      ],
      [
        "st",
        -9.300598401883732
      ],
      [
        "▁turkiye'",
        -9.300635169138602
      ],
      [
        "▁kap",
        -9.301260146173977
      ],
      [
        "▁ceza",
        -9.301357889978004
      ],
      [
        "va",
        -9.302072555319615
      ],
      [
        "▁gormedi",
        -9.30228858321249
      ],
      [
        "▁takım",
        -9.302439671461428
      ],
      [
        "▁do",
        -9.304004804731855
      ],
      [
        "▁tahviller",
        -9.304049007609212
      ],
      [
        "▁taraf",
        -9.304071040421078
      ],
      [
        "▁temmuz",
        -9.304147213214883
      ],
      [
        "▁isler",
        -9.305608464587204
      ],
      [
        "▁konustu",
        -9.305751650309457
      ],
      [
        "▁yılı",
        -9.30611875029101
      ],
      [
        "▁dizi",
        -9.306438775763542
      ],
      [
        "▁wall",
        -9.307441144995742
      ],
      [
        "▁jones",
        -9.307443558384552
      ],
      [
        "▁edip",
        -9.307875688602003
      ],
      [
        "ol",
        -9.308082810635355
      ],
      [
        "▁bilmiyoru",
        -9.308513928993488
      ],
      [
        "bil",
        -9.309575497497615
      ],
      [
        "▁inc",
        -9.309662999987154
      ],
      [
        "▁bar",
        -9.309671355347628
      ],
      [
        "▁asıl",
        -9.309840645472171
      ],
      [
        "▁mac",
        -9.310631610226112
      ],
      [
        "▁dısı",
        -9.310651168153878
      ],
      [
        "▁sirketler",
        -9.31084158131703
      ],
      [
        "ut",
        -9.312143740516191
      ],
      [
        "▁sınıfı",
        -9.314584972424502
      ],
      [
        "mayacak",
        -9.315681603424274
      ],
      [
        "▁kemal",
        -9.315745881786023
      ],
      [
        "▁orlando'",
        -9.316376002403771
      ],
      [
        "▁havayolu",
        -9.318586401658491
      ],
      [
        "▁ulastı",
        -9.318979184577243
      ],
      [
        "▁yuksekti",
        -9.320159415828329
      ],
      [
        "▁secim",
        -9.32064987850466
      ],
      [
        "▁tesekkurler",
        -9.321289234892395
      ],
      [
        "▁ucusların",
        -9.321763686568701
      ],
      [
        "cılar",
        -9.322690141769208
      ],
      [
        "▁sorunu",
        -9.32309292025776
      ],
      [
        "lıgın",
        -9.323270261615166
      ],
      [
        "yorum",
        -9.323401700999147
      ],
      [
        "▁basarılı",
        -9.323448300412135
      ],
      [
        "▁verir",
        -9.323488791482973
      ],
      [
        "liyor",
        -9.323999536082209
      ],
      [
        "▁sent",
        -9.324095137759446
      ],
      [
        "▁evi",
        -9.325751053299317
      ],
      [
        "'daki",
        -9.326015234427032
      ],
      [
        "▁dile",
        -9.326525909154519
      ],
      [
        "▁seattle'",
        -9.326831869365474
      ],
      [
        "▁27",
        -9.327408128914383
      ],
      [
        "▁yardımcısı",
        -9.328054970370893
      ],
      [
        "▁odeme",
        -9.328953846299047
      ],
      [
        "▁philadelphia",
        -9.32976182116466
      ],
      [
        "▁17",
        -9.330171240576888
      ],
      [
        "▁cin",
        -9.330244499023825
      ],
      [
        "▁ku",
        -9.330942792932122
      ],
      [
        "layan",
        -9.331677712343705
      ],
      [
        "son",
        -9.332702744965307
      ],
      [
        "▁enerji",
        -9.333253313337483
      ],
      [
        "▁miami'",
        -9.333482077173853
      ],
      [
        "▁kelime",
        -9.333545616412007
      ],
      [
        "▁milwaukee'",
        -9.333667081958863
      ],
      [
        "▁guleryuzluydu",
        -9.333754493720013
      ],
      [
        "mıyor",
        -9.334614614524227
      ],
      [
        "▁hakkı",
        -9.336305343793349
      ],
      [
        "dik",
        -9.33692303176906
      ],
      [
        "▁tuz",
        -9.337321487527065
      ],
      [
        "▁film",
        -9.337522778061068
      ],
      [
        "▁konuda",
        -9.337533749802162
      ],
      [
        "▁kasım",
        -9.337595879283047
      ],
      [
        "▁karı",
        -9.338302597485104
      ],
      [
        "▁elini",
        -9.339546557671763
      ],
      [
        "lanır",
        -9.341167949371183
      ],
      [
        "▁babası",
        -9.343657347237485
      ],
      [
        "▁dc'",
        -9.344385623025165
      ],
      [
        "▁tarihi",
        -9.345553157378694
      ],
      [
        "▁mart",
        -9.345603574239671
      ],
      [
        "▁idare",
        -9.346083741581154
      ],
      [
        "▁askeri",
        -9.34609584913408
      ],
      [
        "▁kaynak",
        -9.346329562357814
      ],
      [
        "▁takip",
        -9.346586438976928
      ],
      [
        "▁vakit",
        -9.34659056301355
      ],
      [
        "tik",
        -9.347691782726073
      ],
      [
        "▁ucu",
        -9.347903126685743
      ],
      [
        "▁tiyatro",
        -9.348021445972307
      ],
      [
        "ch",
        -9.348651657348277
      ],
      [
        "ediyorum",
        -9.349083627232915
      ],
      [
        "▁yerel",
        -9.349254162432565
      ],
      [
        "▁inan",
        -9.349318100991542
      ],
      [
        "▁eglence",
        -9.349474199742954
      ],
      [
        "▁bekleniyor",
        -9.3502297061182
      ],
      [
        "▁kararı",
        -9.35028190664934
      ],
      [
        "▁merak",
        -9.350518963567838
      ],
      [
        "▁bolge",
        -9.350582154146874
      ],
      [
        "▁soyler",
        -9.35170698022667
      ],
      [
        "lendi",
        -9.354380309748482
      ],
      [
        "▁13",
        -9.356068446443203
      ],
      [
        "▁super",
        -9.356731917914228
      ],
      [
        "▁kullan",
        -9.356851885812473
      ],
      [
        "0",
        -9.356884026976994
      ],
      [
        "▁alın",
        -9.35693385841581
      ],
      [
        "▁saglam",
        -9.35701811524926
      ],
      [
        "▁doları'n",
        -9.357078779820787
      ],
      [
        "▁reklam",
        -9.35718049046121
      ],
      [
        "▁sikinti",
        -9.35742044972719
      ],
      [
        "▁tel",
        -9.357688999305282
      ],
      [
        "▁ettigi",
        -9.357923958954071
      ],
      [
        "▁usta",
        -9.35817653664369
      ],
      [
        "san",
        -9.359405102456833
      ],
      [
        "ley",
        -9.360028017536097
      ],
      [
        "▁itibaren",
        -9.360044702774843
      ],
      [
        "▁karsılık",
        -9.36071379224957
      ],
      [
        "▁ocak",
        -9.361213354348843
      ],
      [
        "▁gereken",
        -9.361952765581766
      ],
      [
        "▁kongre",
        -9.363409779491196
      ],
      [
        "▁normal",
        -9.363785237470687
      ],
      [
        "▁ayni",
        -9.364430633521655
      ],
      [
        "▁ilan",
        -9.364720512950461
      ],
      [
        "alıp",
        -9.365141387337847
      ],
      [
        "eri",
        -9.365366619700202
      ],
      [
        "▁hele",
        -9.365567726731598
      ],
      [
        "▁y",
        -9.366215644667072
      ],
      [
        "▁kırk",
        -9.367363314735275
      ],
      [
        "▁goruyor",
        -9.368455149741612
      ],
      [
        "▁ask",
        -9.368543941990438
      ],
      [
        "▁firma",
        -9.368777370652227
      ],
      [
        "▁18",
        -9.369910443935328
      ],
      [
        "▁teknoloji",
        -9.370875459664326
      ],
      [
        "▁rezervasyon",
        -9.37089926176558
      ],
      [
        "▁sigara",
        -9.371663403973692
      ],
      [
        "▁talep",
        -9.3731829240418
      ],
      [
        "▁koyun",
        -9.373247344040964
      ],
      [
        "▁kurumsal",
        -9.373323231749579
      ],
      [
        "▁gunku",
        -9.373585728414
      ],
      [
        "▁mucadele",
        -9.373657913496835
      ],
      [
        "▁aktif",
        -9.373813541210342
      ],
      [
        "▁bina",
        -9.374895437967044
      ],
      [
        "▁deneme",
        -9.375092564408952
      ],
      [
        "▁doga",
        -9.375906791244503
      ],
      [
        "▁bil",
        -9.378599152694346
      ],
      [
        "▁icer",
        -9.379611366387977
      ],
      [
        "▁bildirdi",
        -9.380104096547461
      ],
      [
        "▁fabrika",
        -9.380188950815906
      ],
      [
        "▁politika",
        -9.38205685317232
      ],
      [
        "▁gunde",
        -9.384059250108649
      ],
      [
        "▁madde",
        -9.384644189584387
      ],
      [
        "▁koydu",
        -9.384846561566153
      ],
      [
        "▁hali",
        -9.386291499760468
      ],
      [
        "▁mukemmeldi",
        -9.386932711916048
      ],
      [
        "▁yaptirmadi",
        -9.38695196684564
      ],
      [
        "▁re",
        -9.387038510963862
      ],
      [
        "▁general",
        -9.387755119923227
      ],
      [
        "▁ruzgar",
        -9.388032570494513
      ],
      [
        "▁memphis'",
        -9.388804088173824
      ],
      [
        "▁kur",
        -9.389195912081586
      ],
      [
        "bu",
        -9.38954963613716
      ],
      [
        "yip",
        -9.389741314420972
      ],
      [
        "▁indi",
        -9.391941733615504
      ],
      [
        "larımız",
        -9.39377871244011
      ],
      [
        "▁pasa",
        -9.393834786864584
      ],
      [
        "▁hizmetleri",
        -9.394941890660487
      ],
      [
        "▁city'de",
        -9.395244695025426
      ],
      [
        "▁kor",
        -9.396318822904124
      ],
      [
        "▁yanda",
        -9.39651654841605
      ],
      [
        "▁boya",
        -9.399227698305923
      ],
      [
        "uyor",
        -9.399237704549932
      ],
      [
        "▁deprem",
        -9.399484604766656
      ],
      [
        "▁destek",
        -9.39967883477571
      ],
      [
        "▁millet",
        -9.40035423721342
      ],
      [
        "▁sabit",
        -9.400841944002073
      ],
      [
        "madan",
        -9.401867369624249
      ],
      [
        "▁yukarı",
        -9.4028325543101
      ],
      [
        "▁aksamı",
        -9.403036128831442
      ],
      [
        "ırım",
        -9.403438360227328
      ],
      [
        "▁hepsini",
        -9.403458655134415
      ],
      [
        "▁ornegin",
        -9.403678206130483
      ],
      [
        "ecegini",
        -9.40382100157133
      ],
      [
        "der",
        -9.404255360537398
      ],
      [
        "▁ser",
        -9.404632093599968
      ],
      [
        "▁almıs",
        -9.40671345938922
      ],
      [
        "▁sut",
        -9.40673365147445
      ],
      [
        "▁duvar",
        -9.40711197080752
      ],
      [
        "▁hukuk",
        -9.407443505774111
      ],
      [
        "▁durdu",
        -9.408929899945456
      ],
      [
        "▁kalın",
        -9.409298742257882
      ],
      [
        "▁sarkı",
        -9.41004116350199
      ],
      [
        "▁ro",
        -9.410127843112834
      ],
      [
        "▁gunleri",
        -9.411532874651613
      ],
      [
        "▁odamiz",
        -9.412095248374833
      ],
      [
        "▁tesiste",
        -9.414258623330424
      ],
      [
        "▁pa",
        -9.414493790707139
      ],
      [
        "▁milwaukee'de",
        -9.414907213282495
      ],
      [
        "▁uzerindeki",
        -9.415869465672314
      ],
      [
        "digini",
        -9.416402568937247
      ],
      [
        "bire",
        -9.417276334916183
      ],
      [
        "▁em",
        -9.41733026095694
      ],
      [
        "▁yapmaya",
        -9.41861472705104
      ],
      [
        "▁bulmak",
        -9.419011399928399
      ],
      [
        "▁kalkıyor",
        -9.419968925720163
      ],
      [
        "▁fiyatlarını",
        -9.421034799691853
      ],
      [
        "▁bakıyor",
        -9.421354715369812
      ],
      [
        "▁tuttu",
        -9.422322170707211
      ],
      [
        "▁bo",
        -9.424638530934038
      ],
      [
        "▁sistem",
        -9.425525654869677
      ],
      [
        "▁vegas'",
        -9.425931460633123
      ],
      [
        "▁calisanlar",
        -9.426143022908509
      ],
      [
        "▁oy",
        -9.426145800219537
      ],
      [
        "▁anlama",
        -9.426178679884138
      ],
      [
        "ver",
        -9.426704585133056
      ],
      [
        "▁personellerin",
        -9.427650961725263
      ],
      [
        "▁muhtesem",
        -9.429210886339767
      ],
      [
        "'u",
        -9.429538723843688
      ],
      [
        "▁geli",
        -9.429662346631915
      ],
      [
        "▁dogal",
        -9.429955554041914
      ],
      [
        "▁seviyesin",
        -9.430149967407152
      ],
      [
        "▁adina",
        -9.430775602294569
      ],
      [
        "▁sonu",
        -9.431567647656346
      ],
      [
        "▁getirdi",
        -9.431582097372216
      ],
      [
        "▁istanbul",
        -9.431659872267948
      ],
      [
        "makta",
        -9.4323382217196
      ],
      [
        "▁yola",
        -9.433070564730574
      ],
      [
        "▁dusundu",
        -9.434038830235458
      ],
      [
        "lanıyor",
        -9.43484481521049
      ],
      [
        "▁katı",
        -9.435143819307747
      ],
      [
        "▁16",
        -9.435234921774285
      ],
      [
        "▁sozu",
        -9.437468035628285
      ],
      [
        "▁22",
        -9.438029171786859
      ],
      [
        "▁yeri",
        -9.43865514229322
      ],
      [
        "oglu",
        -9.440379894218827
      ],
      [
        "▁yalan",
        -9.440743498897124
      ],
      [
        "▁eylem",
        -9.440973313250327
      ],
      [
        "▁motor",
        -9.442531400517282
      ],
      [
        "ıl",
        -9.44372010353132
      ],
      [
        "▁14",
        -9.443755981583521
      ],
      [
        "▁hamam",
        -9.443917749722399
      ],
      [
        "▁dokuz",
        -9.446153990656981
      ],
      [
        "ligin",
        -9.446185480518928
      ],
      [
        "▁be",
        -9.446530291078961
      ],
      [
        "▁ikisi",
        -9.448104014487509
      ],
      [
        "▁sozlesme",
        -9.448325665170586
      ],
      [
        "▁urunleri",
        -9.4485616236474
      ],
      [
        "as",
        -9.448589664017344
      ],
      [
        "▁varsa",
        -9.44867997946802
      ],
      [
        "▁don",
        -9.449057878582401
      ],
      [
        "▁mahalle",
        -9.449108215415823
      ],
      [
        "▁uretim",
        -9.449801391088343
      ],
      [
        "▁muduru",
        -9.449939652534878
      ],
      [
        "▁test",
        -9.450106195850871
      ],
      [
        "▁dis",
        -9.450440274673346
      ],
      [
        "▁ilgisi",
        -9.452872743835965
      ],
      [
        "lanan",
        -9.453307451192227
      ],
      [
        "▁bakıs",
        -9.453356949872724
      ],
      [
        "▁ısık",
        -9.453488958277278
      ],
      [
        "▁mudur",
        -9.454247694024378
      ],
      [
        "▁haziran",
        -9.45559875774802
      ],
      [
        "▁belirtti",
        -9.455829256647089
      ],
      [
        "▁dunyada",
        -9.456246167090896
      ],
      [
        "▁herkesin",
        -9.456425212193196
      ],
      [
        "▁tutun",
        -9.456940017604385
      ],
      [
        "▁aldıgı",
        -9.457602727321362
      ],
      [
        "▁isci",
        -9.457813041443586
      ],
      [
        "*",
        -9.458409506762003
      ],
      [
        "▁yildiz",
        -9.458412837518559
      ],
      [
        "▁hangisi",
        -9.459646990605462
      ],
      [
        "▁kalkı",
        -9.460199658694734
      ],
      [
        "▁telefonla",
        -9.461782135606125
      ],
      [
        "▁ziyaret",
        -9.46197807254282
      ],
      [
        "▁renk",
        -9.462083988922656
      ],
      [
        "▁bakan",
        -9.462183414444251
      ],
      [
        "fi",
        -9.46244108047336
      ],
      [
        "▁misafir",
        -9.462799615081316
      ],
      [
        "▁siddet",
        -9.462917693126512
      ],
      [
        "acagı",
        -9.464474839151865
      ],
      [
        "▁g",
        -9.465086874878287
      ],
      [
        "▁sacları",
        -9.466339963593569
      ],
      [
        "▁cocugu",
        -9.466340281083571
      ],
      [
        "▁yapti",
        -9.467032605451074
      ],
      [
        "▁kendimi",
        -9.467837178501384
      ],
      [
        "▁av",
        -9.469295830242572
      ],
      [
        "▁cıkıyor",
        -9.469984706619599
      ],
      [
        "▁etmedi",
        -9.47021992750823
      ],
      [
        "▁konforlu",
        -9.47363098959624
      ],
      [
        "▁tabi",
        -9.473876458630503
      ],
      [
        "▁sonraki",
        -9.473941694382347
      ],
      [
        "▁nefes",
        -9.473999132379536
      ],
      [
        "▁olumlu",
        -9.474032885539877
      ],
      [
        "▁golge",
        -9.474316072010067
      ],
      [
        "▁spor",
        -9.475406614036274
      ],
      [
        "ciler",
        -9.476417030087415
      ],
      [
        "▁ihtiyac",
        -9.476988459819925
      ],
      [
        "larımızı",
        -9.477781647652165
      ],
      [
        "▁insaat",
        -9.477809349468272
      ],
      [
        "▁kalmıs",
        -9.478761389363784
      ],
      [
        "▁grup",
        -9.479210880861812
      ],
      [
        "▁endeks",
        -9.480984178358781
      ],
      [
        "▁ucretin",
        -9.481157703651773
      ],
      [
        "▁yemegi",
        -9.481869195938298
      ],
      [
        "▁gerekir",
        -9.482247951593271
      ],
      [
        "luyor",
        -9.482323642881159
      ],
      [
        "▁sizi",
        -9.482871273160972
      ],
      [
        "medi",
        -9.483449169645493
      ],
      [
        "▁kos",
        -9.486502578031985
      ],
      [
        "▁seviyesinde",
        -9.487149980993046
      ],
      [
        "▁1988",
        -9.488028410950207
      ],
      [
        "▁butce",
        -9.48884758482284
      ],
      [
        "▁31",
        -9.489253543193353
      ],
      [
        "▁deli",
        -9.489471063990019
      ],
      [
        "▁cıkı",
        -9.489628136090218
      ],
      [
        "mu",
        -9.489915922636555
      ],
      [
        "▁odada",
        -9.48995345596344
      ],
      [
        "▁yaka",
        -9.490243296940637
      ],
      [
        "▁okuma",
        -9.491054376273244
      ],
      [
        "▁emin",
        -9.491361655370262
      ],
      [
        "▁chicago'",
        -9.491665033252563
      ],
      [
        "▁teklifi",
        -9.49318580365104
      ],
      [
        "▁pencere",
        -9.49322380809923
      ],
      [
        "▁kumas",
        -9.493344949710654
      ],
      [
        "▁oakland",
        -9.49350249445219
      ],
      [
        "▁sap",
        -9.493861238536821
      ],
      [
        "▁toprak",
        -9.496028548439725
      ],
      [
        "▁peki",
        -9.496815216588132
      ],
      [
        "▁sat",
        -9.4969079840182
      ],
      [
        "▁satısları",
        -9.497164712767516
      ],
      [
        "▁bulundugu",
        -9.497212832067973
      ],
      [
        "▁proje",
        -9.49792096272449
      ],
      [
        "▁ma",
        -9.498006051317441
      ],
      [
        "▁giris",
        -9.499007763253198
      ],
      [
        "▁yogun",
        -9.500523298652324
      ],
      [
        "▁adamı",
        -9.501222880903036
      ],
      [
        "▁zamanı",
        -9.502096079851322
      ],
      [
        "▁diego'",
        -9.502547530902405
      ],
      [
        "▁baltimore",
        -9.502621686698117
      ],
      [
        "▁insa",
        -9.502646669772052
      ],
      [
        "▁kaya",
        -9.503017813247709
      ],
      [
        "▁donemde",
        -9.503064840920214
      ],
      [
        "▁seker",
        -9.503390636204474
      ],
      [
        "▁uluslararası",
        -9.503873008597909
      ],
      [
        "▁tepki",
        -9.503881008158354
      ],
      [
        "▁piyasası",
        -9.504170368263619
      ],
      [
        "▁anlattı",
        -9.505923839753883
      ],
      [
        "▁sanayi",
        -9.505958212536733
      ],
      [
        "▁olay",
        -9.506923095085025
      ],
      [
        "▁yasama",
        -9.507412730138284
      ],
      [
        "▁has",
        -9.508257010883558
      ],
      [
        "▁uygulama",
        -9.50945894442173
      ],
      [
        "▁ceyrekte",
        -9.509809130037002
      ],
      [
        "▁gucu",
        -9.51062575651525
      ],
      [
        "▁tarla",
        -9.511628202190797
      ],
      [
        "▁personelin",
        -9.511733603564243
      ],
      [
        "▁esya",
        -9.512464955750263
      ],
      [
        "▁alaka",
        -9.513892847529256
      ],
      [
        "▁1989",
        -9.514699899520972
      ],
      [
        "▁dusman",
        -9.514719361106259
      ],
      [
        "▁ordu",
        -9.51481205856107
      ],
      [
        "▁pi",
        -9.515101885545015
      ],
      [
        "▁sebep",
        -9.515524160273378
      ],
      [
        "▁canlı",
        -9.515727633950211
      ],
      [
        "▁gaz",
        -9.516755851216482
      ],
      [
        "▁kalk",
        -9.51771602004002
      ],
      [
        "▁zayif",
        -9.519496283898025
      ],
      [
        "▁delikanlı",
        -9.51949690119457
      ],
      [
        "▁taze",
        -9.519553841001295
      ],
      [
        "▁istifa",
        -9.520234973470737
      ],
      [
        "▁problem",
        -9.520267191331438
      ],
      [
        "▁kul",
        -9.520531347975055
      ],
      [
        "▁kisisel",
        -9.52066360986862
      ],
      [
        "▁donem",
        -9.521568375886886
      ],
      [
        "▁yerini",
        -9.522223941936785
      ],
      [
        "▁getir",
        -9.522366408530395
      ],
      [
        "▁gok",
        -9.522706062073476
      ],
      [
        "▁turkiye'de",
        -9.522770496537149
      ],
      [
        "▁sev",
        -9.523003368069986
      ],
      [
        "▁istedi",
        -9.523252565084999
      ],
      [
        "'ta",
        -9.524795086679521
      ],
      [
        "▁duygu",
        -9.52491383249341
      ],
      [
        "kleri",
        -9.525155696951678
      ],
      [
        "▁radyo",
        -9.526249811245105
      ],
      [
        "▁sal",
        -9.526358172751536
      ],
      [
        "▁geciyor",
        -9.527932391039279
      ],
      [
        "▁havayollarını",
        -9.528503148358979
      ],
      [
        "▁kaza",
        -9.528520224647115
      ],
      [
        "▁iliski",
        -9.528715136203079
      ],
      [
        "▁lezzeti",
        -9.529101089819333
      ],
      [
        "▁guvenlik",
        -9.529152073187944
      ],
      [
        "▁icme",
        -9.530162540021987
      ],
      [
        "▁kas",
        -9.530403689423103
      ],
      [
        "▁normaldi",
        -9.530675866222971
      ],
      [
        "▁oturu",
        -9.530836145192886
      ],
      [
        "▁edin",
        -9.531195073762715
      ],
      [
        "▁arta",
        -9.532390233100926
      ],
      [
        "▁olum",
        -9.533046902552854
      ],
      [
        "mesini",
        -9.533191270757897
      ],
      [
        "▁bakım",
        -9.533771933723703
      ],
      [
        "kar",
        -9.534647166100624
      ],
      [
        "▁resim",
        -9.53503674829244
      ],
      [
        "▁isim",
        -9.535205505046024
      ],
      [
        "▁siyasi",
        -9.53537951818808
      ],
      [
        "▁ettigini",
        -9.536324627477402
      ],
      [
        "imi",
        -9.536925416262639
      ],
      [
        "▁sus",
        -9.537504191843102
      ],
      [
        "▁kalktı",
        -9.537853599197357
      ],
      [
        "▁dair",
        -9.537882348681206
      ],
      [
        "elim",
        -9.539153276925383
      ],
      [
        "▁man",
        -9.539680292600718
      ],
      [
        "▁dolayı",
        -9.540181280934569
      ],
      [
        "▁bal",
        -9.540718632487472
      ],
      [
        "▁kalkıs",
        -9.541617011818591
      ],
      [
        "▁gol",
        -9.541972207484772
      ],
      [
        "lıg",
        -9.542190734126141
      ],
      [
        "▁der",
        -9.542494237265421
      ],
      [
        "▁kaba",
        -9.542754897081608
      ],
      [
        "▁w",
        -9.542886291987639
      ],
      [
        "▁bizimle",
        -9.543734306323607
      ],
      [
        "lo",
        -9.544012849995461
      ],
      [
        "▁kesin",
        -9.546654349274043
      ],
      [
        "ustu",
        -9.54700394514824
      ],
      [
        "▁indianapolis'te",
        -9.5470431908997
      ],
      [
        "▁kuzey",
        -9.547544465111185
      ],
      [
        "▁insanları",
        -9.547923991627133
      ],
      [
        "hi",
        -9.549434292152014
      ],
      [
        "▁tut",
        -9.549740320268493
      ],
      [
        "▁hacim",
        -9.551737330410486
      ],
      [
        "▁gecirdi",
        -9.551871430643494
      ],
      [
        "▁rehber",
        -9.551940850178031
      ],
      [
        "▁basit",
        -9.552185687926638
      ],
      [
        "▁akıl",
        -9.55223065703688
      ],
      [
        "▁gecme",
        -9.552868650509446
      ],
      [
        "▁bolum",
        -9.55312309039995
      ],
      [
        "▁yapmayı",
        -9.553873252163452
      ],
      [
        "▁kalp",
        -9.55483098710539
      ],
      [
        "▁elbise",
        -9.555042946388332
      ],
      [
        "▁superdi",
        -9.555193661680507
      ],
      [
        "▁temmuz'da",
        -9.555719237403313
      ],
      [
        "▁ot",
        -9.55574672459477
      ],
      [
        "▁durma",
        -9.556386117557789
      ],
      [
        "▁bayram",
        -9.556432943639354
      ],
      [
        "▁vermis",
        -9.556698552408177
      ],
      [
        "▁ber",
        -9.556699670059958
      ],
      [
        "sunu",
        -9.557004847497481
      ],
      [
        "▁kalma",
        -9.557635387362726
      ],
      [
        "▁yıllarda",
        -9.558541531742433
      ],
      [
        "yım",
        -9.560662660162762
      ],
      [
        "▁gunler",
        -9.56074946583917
      ],
      [
        "▁gelin",
        -9.561413872319385
      ],
      [
        "▁elleri",
        -9.56231502172955
      ],
      [
        "amaz",
        -9.564296927542483
      ],
      [
        "▁otuz",
        -9.564516031255005
      ],
      [
        "▁strateji",
        -9.564556599772153
      ],
      [
        "▁ala",
        -9.564716102596964
      ],
      [
        "▁sis",
        -9.564815787458972
      ],
      [
        "▁adamın",
        -9.565181532884164
      ],
      [
        "▁cocukları",
        -9.566104017166221
      ],
      [
        "▁26",
        -9.566177123860049
      ],
      [
        "▁oakland'da",
        -9.566355795981663
      ],
      [
        "iyet",
        -9.566395850824845
      ],
      [
        "▁tipi",
        -9.56655033856217
      ],
      [
        "▁40",
        -9.566588203091438
      ],
      [
        "▁laf",
        -9.567271911077711
      ],
      [
        "▁imza",
        -9.567298692020175
      ],
      [
        "▁yurt",
        -9.567823370938857
      ],
      [
        "▁nakit",
        -9.567895070199768
      ],
      [
        "▁ekibi",
        -9.567927094688553
      ],
      [
        "▁gorus",
        -9.567936459376053
      ],
      [
        "▁parcası",
        -9.569187722073686
      ],
      [
        "▁birini",
        -9.569317491090892
      ],
      [
        "▁lu",
        -9.569828391476342
      ],
      [
        "lanma",
        -9.5714156483089
      ],
      [
        "▁fikir",
        -9.571508935253842
      ],
      [
        "mayan",
        -9.571513514607945
      ],
      [
        "▁street",
        -9.57185070968175
      ],
      [
        "▁gerekli",
        -9.573707088221958
      ],
      [
        "las",
        -9.579296621011519
      ],
      [
        "▁uygundu",
        -9.580284213539215
      ],
      [
        "do",
        -9.581180565146742
      ],
      [
        "▁basa",
        -9.581608513084293
      ],
      [
        "▁siir",
        -9.58260194459401
      ],
      [
        "▁kahvalti",
        -9.583000089683289
      ],
      [
        "▁sair",
        -9.583841547683079
      ],
      [
        "▁ideal",
        -9.584513414245741
      ],
      [
        "▁belediye",
        -9.584558652620665
      ],
      [
        "▁mutlak",
        -9.58455915755878
      ],
      [
        "▁agustos'ta",
        -9.58469965563311
      ],
      [
        "▁doktor",
        -9.584705840646208
      ],
      [
        "▁halka",
        -9.585587981780428
      ],
      [
        "▁ornek",
        -9.586525647282443
      ],
      [
        "▁oysa",
        -9.586535768933727
      ],
      [
        "▁agac",
        -9.587098163958101
      ],
      [
        "▁anlat",
        -9.588095152530126
      ],
      [
        "ecegi",
        -9.588134129190196
      ],
      [
        "▁ham",
        -9.589622230036262
      ],
      [
        "▁kok",
        -9.591373106326802
      ],
      [
        "▁degerlendirme",
        -9.591803625702997
      ],
      [
        "▁acıldı",
        -9.592049762312229
      ],
      [
        "▁oldugum",
        -9.592486182450957
      ],
      [
        "▁chicago'da",
        -9.592558722150113
      ],
      [
        "▁aracı",
        -9.59366471814047
      ],
      [
        "go",
        -9.593735391410847
      ],
      [
        "▁merkezin",
        -9.593895534246693
      ],
      [
        "min",
        -9.594267000115027
      ],
      [
        "▁senetleri",
        -9.594566920323384
      ],
      [
        "▁dusunme",
        -9.59580053692346
      ],
      [
        "▁annesi",
        -9.595884576128718
      ],
      [
        "▁zamanlarda",
        -9.596148833933295
      ],
      [
        "▁girer",
        -9.59700154094751
      ],
      [
        "▁ke",
        -9.597550486939607
      ],
      [
        "▁allah",
        -9.599658099756393
      ],
      [
        "▁bulunuyor",
        -9.600041068663067
      ],
      [
        "▁roman",
        -9.600394165476978
      ],
      [
        "▁ton",
        -9.600789121035376
      ],
      [
        "▁sendika",
        -9.601548270275863
      ],
      [
        "▁asker",
        -9.601757597904417
      ],
      [
        "▁hakkin",
        -9.602189363058727
      ],
      [
        "▁gunlerde",
        -9.603361045798321
      ],
      [
        "▁icerisinde",
        -9.60367761753093
      ],
      [
        "▁gelince",
        -9.603861933577544
      ],
      [
        "▁alacak",
        -9.605820765443934
      ],
      [
        "▁hedef",
        -9.606889386699493
      ],
      [
        "▁ucretleri",
        -9.60694459577811
      ],
      [
        "▁ayna",
        -9.607624943675788
      ],
      [
        "▁kitabı",
        -9.607986087507717
      ],
      [
        "▁adi",
        -9.60845845827313
      ],
      [
        "▁icki",
        -9.608691545913665
      ],
      [
        "▁istedigi",
        -9.60873626932404
      ],
      [
        "▁bank",
        -9.60913847935177
      ],
      [
        "leme",
        -9.60971740883647
      ],
      [
        "▁degillerdi",
        -9.60972430207491
      ],
      [
        "▁ruh",
        -9.610797652004553
      ],
      [
        "ıldı",
        -9.61305965362159
      ],
      [
        "uyordu",
        -9.613100361035855
      ],
      [
        "▁suc",
        -9.614407104521707
      ],
      [
        "cisin",
        -9.61532892908297
      ],
      [
        "▁isaret",
        -9.615427791973303
      ],
      [
        "▁televizyon",
        -9.6166428602347
      ],
      [
        "▁yakında",
        -9.61674428868368
      ],
      [
        "ter",
        -9.616876890154431
      ],
      [
        "▁alısveris",
        -9.618750553557513
      ],
      [
        "▁teknik",
        -9.61884592931101
      ],
      [
        "▁bilesik",
        -9.618904113498049
      ],
      [
        "▁garip",
        -9.61892986045509
      ],
      [
        "▁iri",
        -9.619118115657187
      ],
      [
        "▁mayıs",
        -9.619298131181118
      ],
      [
        "▁civarında",
        -9.620290824745737
      ],
      [
        "▁renkli",
        -9.621238818422771
      ],
      [
        "▁adını",
        -9.622193802048553
      ],
      [
        "▁hacmi",
        -9.622233916641655
      ],
      [
        "▁otur",
        -9.622462059603162
      ],
      [
        "'le",
        -9.622610781459072
      ],
      [
        "ndaki",
        -9.622690337920432
      ],
      [
        "▁yagmur",
        -9.62319190668999
      ],
      [
        "▁ila",
        -9.623431756387308
      ],
      [
        "ılır",
        -9.623649841319146
      ],
      [
        "▁gittik",
        -9.623712284433505
      ],
      [
        "▁yemeklerde",
        -9.624794025252788
      ],
      [
        "▁dusen",
        -9.624794892252272
      ],
      [
        "iyorum",
        -9.625052706856794
      ],
      [
        "▁karısı",
        -9.625370246010917
      ],
      [
        "▁olası",
        -9.625955380161187
      ],
      [
        "▁tır",
        -9.627155034815136
      ],
      [
        "▁gecer",
        -9.627426980876464
      ],
      [
        "▁piyasada",
        -9.628307798347643
      ],
      [
        "▁rengi",
        -9.628308939668278
      ],
      [
        "▁dostu",
        -9.628449049716071
      ],
      [
        "▁kirli",
        -9.628931120096443
      ],
      [
        "una",
        -9.628996129796548
      ],
      [
        "▁tası",
        -9.632250123160855
      ],
      [
        "▁kum",
        -9.632675745266507
      ],
      [
        "▁alabilir",
        -9.632778882602807
      ],
      [
        "lerimiz",
        -9.6328494129811
      ],
      [
        "▁kıyı",
        -9.632936597426191
      ],
      [
        "▁basarı",
        -9.633012878887143
      ],
      [
        "▁manzara",
        -9.634882734214134
      ],
      [
        "▁garanti",
        -9.636292861601177
      ],
      [
        "▁nihayet",
        -9.636299163237851
      ],
      [
        "▁plaj",
        -9.636304633220199
      ],
      [
        "▁kasıgı",
        -9.636382249702478
      ],
      [
        "▁dayan",
        -9.636495412029653
      ],
      [
        "▁gunduz",
        -9.636604617709878
      ],
      [
        "▁darbe",
        -9.636611126587166
      ],
      [
        "▁olmadı",
        -9.636918835064867
      ],
      [
        "▁pat",
        -9.637770468561257
      ],
      [
        "▁sec",
        -9.637830177662245
      ],
      [
        "bo",
        -9.638195925672584
      ],
      [
        "▁kira",
        -9.638552256617244
      ],
      [
        "▁ilgilenmedi",
        -9.640409933646973
      ],
      [
        "▁erkekler",
        -9.640464999955267
      ],
      [
        "▁5'te",
        -9.640913659264395
      ],
      [
        "▁saray",
        -9.642423008406395
      ],
      [
        "▁3.",
        -9.643341145158027
      ],
      [
        "lesmis",
        -9.643347066750312
      ],
      [
        "▁polis",
        -9.644446418093512
      ],
      [
        "▁baslar",
        -9.644832780446734
      ],
      [
        "▁terk",
        -9.645272962265363
      ],
      [
        "▁23",
        -9.646228857737967
      ],
      [
        "▁pis",
        -9.646411488189777
      ],
      [
        "ımı",
        -9.646793659828411
      ],
      [
        "men",
        -9.647697679294271
      ],
      [
        "lak",
        -9.648177721621723
      ],
      [
        "▁tahvilleri",
        -9.648481529477573
      ],
      [
        "lamak",
        -9.65016178740516
      ],
      [
        "muz",
        -9.650257860877813
      ],
      [
        "likte",
        -9.650968654701586
      ],
      [
        "▁olacaktı",
        -9.651302877532409
      ],
      [
        "▁programı",
        -9.6515039876735
      ],
      [
        "▁sehrin",
        -9.651830849586547
      ],
      [
        "▁adamları",
        -9.653507367755557
      ],
      [
        "▁yumurta",
        -9.654150177799295
      ],
      [
        "sam",
        -9.654521533533174
      ],
      [
        "▁cabuk",
        -9.655382346231935
      ],
      [
        "▁daim",
        -9.655728597638984
      ],
      [
        "▁bahseder",
        -9.655819403170426
      ],
      [
        "▁endustri",
        -9.65622720677835
      ],
      [
        "▁hijyenik",
        -9.656658216930609
      ],
      [
        "lugunu",
        -9.656667626449597
      ],
      [
        "▁caba",
        -9.657579686652525
      ],
      [
        "▁rekabet",
        -9.658069748134194
      ],
      [
        "▁boyu",
        -9.658129660376643
      ],
      [
        "meyi",
        -9.65880195457706
      ],
      [
        "▁corba",
        -9.65892657321622
      ],
      [
        "▁duz",
        -9.659102290659753
      ],
      [
        "▁buray",
        -9.659387606780939
      ],
      [
        "▁urun",
        -9.659597402303431
      ],
      [
        ".6",
        -9.65976668072376
      ],
      [
        "▁git",
        -9.660074890323509
      ],
      [
        "▁duydu",
        -9.661105983834338
      ],
      [
        "▁boy",
        -9.662105680185345
      ],
      [
        "▁tren",
        -9.663207133331248
      ],
      [
        "▁koku",
        -9.66364104694331
      ],
      [
        "▁cicek",
        -9.664055403429188
      ],
      [
        "▁mo",
        -9.664742244973237
      ],
      [
        "'yi",
        -9.665260490523174
      ],
      [
        "▁tesisi",
        -9.6670183069859
      ],
      [
        "▁ba",
        -9.667053943538331
      ],
      [
        "▁kasaba",
        -9.66770006851893
      ],
      [
        "▁kalem",
        -9.668364356609217
      ],
      [
        "▁sistemi",
        -9.669617488131763
      ],
      [
        "▁kodu",
        -9.66994872172692
      ],
      [
        "▁ediyorlar",
        -9.670173107882267
      ],
      [
        "▁konut",
        -9.670797900335062
      ],
      [
        "▁cekme",
        -9.670898564960101
      ],
      [
        "▁fransız",
        -9.670942816156527
      ],
      [
        "▁gonul",
        -9.671422553945884
      ],
      [
        "▁ellerinde",
        -9.671733413209974
      ],
      [
        "▁serbest",
        -9.672331836949352
      ],
      [
        "▁standart",
        -9.672334960594691
      ],
      [
        "▁uyku",
        -9.672465439604442
      ],
      [
        "▁kısmı",
        -9.672603723644597
      ],
      [
        "▁abd'",
        -9.673577979921024
      ],
      [
        "▁sinema",
        -9.673995216892038
      ],
      [
        "▁duran",
        -9.674133506942061
      ],
      [
        "▁mola",
        -9.674248578306052
      ],
      [
        "▁makine",
        -9.675125286128296
      ],
      [
        "▁ediliyor",
        -9.675476917533357
      ],
      [
        "▁yuzunu",
        -9.675535547768341
      ],
      [
        "▁gorustu",
        -9.67573342374141
      ],
      [
        "lugun",
        -9.675901978689772
      ],
      [
        "▁birisi",
        -9.677902224473884
      ],
      [
        "▁zevk",
        -9.678383397574502
      ],
      [
        "▁hisseler",
        -9.678729961825542
      ],
      [
        "▁tutar",
        -9.679518025629
      ],
      [
        "▁futbol",
        -9.679902435039075
      ],
      [
        "▁or",
        -9.680313843104328
      ],
      [
        "▁ets",
        -9.680394467528412
      ],
      [
        "▁toronto'da",
        -9.68194993651625
      ],
      [
        "▁devrim",
        -9.682216688473801
      ],
      [
        "▁icecekler",
        -9.682310110787416
      ],
      [
        "▁ettik",
        -9.68242756750941
      ],
      [
        "▁seri",
        -9.682856629634177
      ],
      [
        "▁marka",
        -9.683835835766386
      ],
      [
        "▁sac",
        -9.68491319390387
      ],
      [
        "yiz",
        -9.68534085800475
      ],
      [
        "lenen",
        -9.685776466817945
      ],
      [
        "▁fon",
        -9.686134833408454
      ],
      [
        "▁biliyor",
        -9.686191358325708
      ],
      [
        "▁sak",
        -9.686964374588765
      ],
      [
        "▁savası",
        -9.687204093857734
      ],
      [
        "▁tepe",
        -9.688057601457109
      ],
      [
        "▁cizgi",
        -9.688257164074017
      ],
      [
        "▁olurdu",
        -9.688257809719646
      ],
      [
        "▁degeri",
        -9.68969576003688
      ],
      [
        "▁dususle",
        -9.689920907108421
      ],
      [
        "▁tesvik",
        -9.690851636461911
      ],
      [
        "▁belirli",
        -9.69085883443944
      ],
      [
        "▁meyve",
        -9.690876533748229
      ],
      [
        "▁baslayan",
        -9.691578944347848
      ],
      [
        "uk",
        -9.691993806827865
      ],
      [
        "▁oray",
        -9.692721358107642
      ],
      [
        "▁istanbul'da",
        -9.693346610202095
      ],
      [
        "▁ah",
        -9.693422560809202
      ],
      [
        "▁yemeklerinde",
        -9.693905382551726
      ],
      [
        "▁dergi",
        -9.69512545411466
      ],
      [
        "▁faaliyet",
        -9.69545093412722
      ],
      [
        "▁kuvvet",
        -9.695506507611181
      ],
      [
        "▁dogrusu",
        -9.696263095820985
      ],
      [
        "▁kursun",
        -9.696434400692151
      ],
      [
        "▁vi",
        -9.696921044844895
      ],
      [
        "▁gelmedi",
        -9.697278590326139
      ],
      [
        "▁bakın",
        -9.697669173940836
      ],
      [
        "▁alman",
        -9.69804304324709
      ],
      [
        "▁asık",
        -9.698638355549678
      ],
      [
        "takım",
        -9.69974380081014
      ],
      [
        "▁dag",
        -9.700104298129462
      ],
      [
        "▁sirketleri",
        -9.700443514392003
      ],
      [
        "▁kopek",
        -9.700760925607835
      ],
      [
        "▁etkisi",
        -9.701856882019765
      ],
      [
        "▁barıs",
        -9.70212444243908
      ],
      [
        "▁kisiler",
        -9.703105044811043
      ],
      [
        "▁saygı",
        -9.703221182956606
      ],
      [
        "▁araya",
        -9.70324919801017
      ],
      [
        "▁fikri",
        -9.70397066733842
      ],
      [
        "▁yatırımcı",
        -9.704446988116631
      ],
      [
        "layacak",
        -9.704507726049881
      ],
      [
        "▁elli",
        -9.704914344976455
      ],
      [
        "▁kurt",
        -9.705003243066313
      ],
      [
        "▁yerler",
        -9.705955209091172
      ],
      [
        "▁dusmus",
        -9.706194682304737
      ],
      [
        "▁heyecan",
        -9.706287359218658
      ],
      [
        "ayım",
        -9.706995524329072
      ],
      [
        "▁gorduk",
        -9.707711892809307
      ],
      [
        "▁tarihinde",
        -9.708041970673868
      ],
      [
        "▁boz",
        -9.708064139535686
      ],
      [
        "▁fotograf",
        -9.708082523673404
      ],
      [
        "▁karanlık",
        -9.709167032368082
      ],
      [
        "▁verin",
        -9.709243882062147
      ],
      [
        "▁kalabalık",
        -9.709718195054133
      ],
      [
        "▁acıklanmadı",
        -9.709747190061549
      ],
      [
        "▁kocaman",
        -9.710056264719187
      ],
      [
        "▁keskin",
        -9.710395039773726
      ],
      [
        "▁emekli",
        -9.71078009317871
      ],
      [
        "lup",
        -9.710830956086923
      ],
      [
        "▁amacı",
        -9.711275853338606
      ],
      [
        "▁aktarma",
        -9.711325828369027
      ],
      [
        "▁sırasında",
        -9.712043830745003
      ],
      [
        "▁ayakta",
        -9.712224660009998
      ],
      [
        "▁ote",
        -9.712338282184538
      ],
      [
        "amadı",
        -9.712495097588764
      ],
      [
        "▁ucan",
        -9.712794542813791
      ],
      [
        "▁kulak",
        -9.712806589317715
      ],
      [
        "ay",
        -9.712913496832826
      ],
      [
        "▁baslıyor",
        -9.712914716468832
      ],
      [
        "lıkta",
        -9.7131062616397
      ],
      [
        "▁petersburg'",
        -9.713294402059029
      ],
      [
        "▁balık",
        -9.71398997248512
      ],
      [
        "▁esas",
        -9.714210695050536
      ],
      [
        "▁obur",
        -9.714263387657546
      ],
      [
        "▁park",
        -9.7150376898149
      ],
      [
        "▁29",
        -9.716013553347198
      ],
      [
        "▁arkadaslar",
        -9.716135690331607
      ],
      [
        "▁sayısı",
        -9.718388384938766
      ],
      [
        "▁kalacak",
        -9.718501743351439
      ],
      [
        "meyecek",
        -9.718502865126654
      ],
      [
        "▁kadının",
        -9.719047468847712
      ],
      [
        "'yı",
        -9.719180843731838
      ],
      [
        "▁phoenix'de",
        -9.720673703456322
      ],
      [
        "▁eksik",
        -9.72073914832773
      ],
      [
        "▁rast",
        -9.720840551621341
      ],
      [
        "▁yiyecekler",
        -9.721232692935308
      ],
      [
        "▁edebilir",
        -9.721801768829373
      ],
      [
        "▁insanı",
        -9.721969087214402
      ],
      [
        "▁sok",
        -9.7222145915847
      ],
      [
        "les",
        -9.72257144313635
      ],
      [
        "▁ab",
        -9.723538146387838
      ],
      [
        "▁yen'",
        -9.723683983027893
      ],
      [
        "▁kurdu",
        -9.725048308814173
      ],
      [
        "▁havuzlar",
        -9.725313512446565
      ],
      [
        "madı",
        -9.725528081162139
      ],
      [
        "▁cep",
        -9.726414387840295
      ],
      [
        "ed",
        -9.726810018929967
      ],
      [
        "▁cocugun",
        -9.727049400090788
      ],
      [
        "▁neredey",
        -9.727284481771047
      ],
      [
        "▁teslim",
        -9.727823272762121
      ],
      [
        "▁sorumlu",
        -9.72844189294985
      ],
      [
        "▁kopru",
        -9.729011924931395
      ],
      [
        "▁ilave",
        -9.729063885585527
      ],
      [
        "leniyor",
        -9.729192790894427
      ],
      [
        "▁celik",
        -9.729931991769066
      ],
      [
        "▁osmanlı",
        -9.73022906239365
      ],
      [
        "lamıs",
        -9.730531435818618
      ],
      [
        "rdı",
        -9.731107632672376
      ],
      [
        "▁kullanıla",
        -9.731924346687142
      ],
      [
        "gim",
        -9.731982919146542
      ],
      [
        "lenme",
        -9.732482377631289
      ],
      [
        "▁ogrenci",
        -9.73422633340787
      ],
      [
        "ertesi",
        -9.735295522929182
      ],
      [
        "▁merkezli",
        -9.735916054583448
      ],
      [
        "▁28",
        -9.736730200435995
      ],
      [
        "▁24",
        -9.736827474342892
      ],
      [
        "▁tezgah",
        -9.737136105852215
      ],
      [
        "▁duman",
        -9.737159559899645
      ],
      [
        "lesti",
        -9.737211732786555
      ],
      [
        "ey",
        -9.737304857368406
      ],
      [
        "▁ucag",
        -9.738579704695981
      ],
      [
        "▁ayrılı",
        -9.73888064987528
      ],
      [
        "isi",
        -9.7391380135672
      ],
      [
        "▁bileti",
        -9.73970402330574
      ],
      [
        "▁yasıyor",
        -9.740739196678337
      ],
      [
        "▁birinde",
        -9.741814294476491
      ],
      [
        "▁hayatın",
        -9.742583674719542
      ],
      [
        "▁umut",
        -9.743137280556875
      ],
      [
        "▁animasyonlar",
        -9.743272921431576
      ],
      [
        "▁bag",
        -9.743403017932076
      ],
      [
        "▁kent",
        -9.74370739412262
      ],
      [
        "▁ders",
        -9.74531020772927
      ],
      [
        "▁cık",
        -9.745826344354402
      ],
      [
        "ko",
        -9.746079833599676
      ],
      [
        "ck",
        -9.746726088245591
      ],
      [
        "▁bagımsız",
        -9.74704923214919
      ],
      [
        "▁muzik",
        -9.747738392634288
      ],
      [
        "▁anayasa",
        -9.747983548249007
      ],
      [
        "▁hayatı",
        -9.748150481737799
      ],
      [
        "▁tedavulde",
        -9.748556575813003
      ],
      [
        "▁galiba",
        -9.748556922725028
      ],
      [
        "▁damak",
        -9.748619531213544
      ],
      [
        "▁mısır",
        -9.748636493449691
      ],
      [
        "▁geceleri",
        -9.748766337006128
      ],
      [
        "▁verici",
        -9.749264169705967
      ],
      [
        "▁han",
        -9.750359350363357
      ],
      [
        "▁oldugunda",
        -9.750941124691007
      ],
      [
        "▁olmaya",
        -9.75184916223606
      ],
      [
        "▁donuyor",
        -9.752249147039365
      ],
      [
        "▁kedi",
        -9.752897149340228
      ],
      [
        "ing",
        -9.753872570880564
      ],
      [
        "▁say",
        -9.755124942926718
      ],
      [
        "▁endise",
        -9.755166292729344
      ],
      [
        "▁bekleme",
        -9.756977155004924
      ],
      [
        "▁kendilerini",
        -9.757423304510633
      ],
      [
        "verdi",
        -9.757539180633561
      ],
      [
        "▁sektor",
        -9.75792221492429
      ],
      [
        "malı",
        -9.757970565501932
      ],
      [
        "▁etmiyor",
        -9.75824311671264
      ],
      [
        "▁isini",
        -9.7583662043323
      ],
      [
        "cuk",
        -9.758796956366623
      ],
      [
        "▁ortasında",
        -9.759381623427167
      ],
      [
        "▁oturma",
        -9.760106474455963
      ],
      [
        "▁dusun",
        -9.760212841784005
      ],
      [
        "000",
        -9.760511141233804
      ],
      [
        "▁bankası",
        -9.76148433692978
      ],
      [
        "gan",
        -9.761640435289253
      ],
      [
        "cılık",
        -9.761993762212054
      ],
      [
        "▁tehlike",
        -9.762607272981754
      ],
      [
        "▁uzakta",
        -9.762768874494178
      ],
      [
        "▁il",
        -9.763004888309679
      ],
      [
        "▁anladı",
        -9.76306263036654
      ],
      [
        "sanız",
        -9.764054114646592
      ],
      [
        "▁planı",
        -9.76446720389571
      ],
      [
        "▁sayfa",
        -9.764725063101144
      ],
      [
        "agı",
        -9.765084588677883
      ],
      [
        "▁saatler",
        -9.765131173287088
      ],
      [
        "ss",
        -9.765319692118897
      ],
      [
        "▁yapmadı",
        -9.765677210891608
      ],
      [
        "▁dilim",
        -9.766094369764726
      ],
      [
        "kan",
        -9.767650825938171
      ],
      [
        "▁beyin",
        -9.767680802957491
      ],
      [
        "▁etmisti",
        -9.767799418843747
      ],
      [
        "▁saatlerde",
        -9.767845508668312
      ],
      [
        "▁oranları",
        -9.76845741831856
      ],
      [
        "▁uyusturucu",
        -9.768556578295737
      ],
      [
        "▁sebebi",
        -9.768556660776692
      ],
      [
        "▁unlu",
        -9.768630743184389
      ],
      [
        "▁ual",
        -9.768902102846948
      ],
      [
        "lasmıs",
        -9.768977304997264
      ],
      [
        "▁dusunuyoru",
        -9.769031534618193
      ],
      [
        "▁giriste",
        -9.7706718196515
      ],
      [
        "▁konus",
        -9.77161025398312
      ],
      [
        "▁mar",
        -9.77176914178326
      ],
      [
        "▁tarafı",
        -9.771828013576133
      ],
      [
        "▁edilmis",
        -9.771883278446488
      ],
      [
        "▁devir",
        -9.772056359961747
      ],
      [
        "▁yasamadi",
        -9.772890186452743
      ],
      [
        "▁dc'de",
        -9.773515784996723
      ],
      [
        "▁atı",
        -9.773783452237
      ],
      [
        "▁gorur",
        -9.773790330325504
      ],
      [
        "a'nın",
        -9.77402332307978
      ],
      [
        "▁geldigi",
        -9.774285457720756
      ],
      [
        "▁tasıya",
        -9.776052552487217
      ],
      [
        "▁dusunmuyor",
        -9.776576228711672
      ],
      [
        "tim",
        -9.776578107842868
      ],
      [
        "acagım",
        -9.776916702590649
      ],
      [
        "▁tele",
        -9.777107508814154
      ],
      [
        "▁inceleme",
        -9.7774113241443
      ],
      [
        "▁hissesi",
        -9.7775521661719
      ],
      [
        "ılmıs",
        -9.777675527693177
      ],
      [
        "▁geriledi",
        -9.778444858134268
      ],
      [
        "▁rol",
        -9.778999440785979
      ],
      [
        "▁universite",
        -9.779255275655823
      ],
      [
        "▁arz",
        -9.780253650329183
      ],
      [
        "▁za",
        -9.780369901177895
      ],
      [
        "▁sır",
        -9.780664418231598
      ],
      [
        "▁isleri",
        -9.780859403936041
      ],
      [
        "▁seyin",
        -9.780889108407527
      ],
      [
        "▁tasarruf",
        -9.780929120058618
      ],
      [
        "▁yasar",
        -9.78158812107601
      ],
      [
        "▁sun",
        -9.782550766964132
      ],
      [
        "sem",
        -9.78270173399344
      ],
      [
        "▁kaliforniya",
        -9.782890786046721
      ],
      [
        "▁sunu",
        -9.782905323199152
      ],
      [
        "▁yasak",
        -9.78454376371801
      ],
      [
        "▁dal",
        -9.784604170683808
      ],
      [
        "▁sergi",
        -9.785089279133363
      ],
      [
        "ist",
        -9.78570462485689
      ],
      [
        "▁tuketici",
        -9.786120269443217
      ],
      [
        "▁houston'",
        -9.786337185049414
      ],
      [
        "▁onay",
        -9.78657440431389
      ],
      [
        "▁lezzetleri",
        -9.786876990500996
      ],
      [
        "▁baslamıs",
        -9.788601761627469
      ],
      [
        "▁lo",
        -9.788744069927922
      ],
      [
        "kce",
        -9.788912025096037
      ],
      [
        "▁sahipleri",
        -9.789096074649642
      ],
      [
        "▁hizmette",
        -9.789344828961388
      ],
      [
        "▁bilimsel",
        -9.789535206918336
      ],
      [
        "lesme",
        -9.789625299761429
      ],
      [
        "▁davet",
        -9.790004713793653
      ],
      [
        "▁burun",
        -9.79000830025225
      ],
      [
        "▁verecek",
        -9.790535229916765
      ],
      [
        "▁sart",
        -9.790599418724344
      ],
      [
        "▁ısı",
        -9.791358923865452
      ],
      [
        "masını",
        -9.79162622605469
      ],
      [
        "▁goc",
        -9.792051850925409
      ],
      [
        "▁verildi",
        -9.792614535035135
      ],
      [
        "▁cat",
        -9.793218664603737
      ],
      [
        "▁ataturk",
        -9.793811064467281
      ],
      [
        "▁yar",
        -9.795242149876245
      ],
      [
        "▁karısık",
        -9.795639140013343
      ],
      [
        "▁grubu",
        -9.795919477658096
      ],
      [
        "▁dosya",
        -9.795965233823066
      ],
      [
        "▁birim",
        -9.796070422579906
      ],
      [
        "▁fiyatin",
        -9.79613828359168
      ],
      [
        "▁sofra",
        -9.796336047705585
      ],
      [
        "▁bilmem",
        -9.796561781197962
      ],
      [
        "▁oglum",
        -9.796567244754929
      ],
      [
        "▁devri",
        -9.796913438441926
      ],
      [
        "cik",
        -9.797289133086503
      ],
      [
        "▁gelme",
        -9.797638266591102
      ],
      [
        "▁oluyordu",
        -9.798679780637686
      ],
      [
        "▁kale",
        -9.79892935048528
      ],
      [
        "▁duzenleme",
        -9.79912561245354
      ],
      [
        "▁gor",
        -9.799412121322046
      ],
      [
        "▁birligi",
        -9.799664080762339
      ],
      [
        "altı",
        -9.800969667805601
      ],
      [
        "ry",
        -9.80097729805246
      ],
      [
        "▁sonucu",
        -9.801313624493718
      ],
      [
        "▁kenar",
        -9.801660322325853
      ],
      [
        "▁temsil",
        -9.80173168231396
      ],
      [
        "▁olmasını",
        -9.802002876232542
      ],
      [
        "▁dahi",
        -9.802596286806367
      ],
      [
        "ınca",
        -9.802990189151195
      ],
      [
        "▁acısın",
        -9.803633418622423
      ],
      [
        "▁bizde",
        -9.80449834616142
      ],
      [
        "▁degerlendirir",
        -9.804547614323994
      ],
      [
        "▁seviye",
        -9.804701088408713
      ],
      [
        "▁olumsuz",
        -9.804898778752442
      ],
      [
        "▁geliri",
        -9.805107117824294
      ],
      [
        "▁cadde",
        -9.806445859675426
      ],
      [
        "▁acab",
        -9.806528296162554
      ],
      [
        "▁iceriyor",
        -9.807195795294117
      ],
      [
        "gine",
        -9.807472030254335
      ],
      [
        "▁turku",
        -9.808130690103427
      ],
      [
        "▁turkce",
        -9.808338190212204
      ],
      [
        "▁car",
        -9.808614800166058
      ],
      [
        "▁ters",
        -9.808807056053801
      ],
      [
        "▁north",
        -9.809522967124868
      ],
      [
        "▁engel",
        -9.809595793001433
      ],
      [
        "▁karsiladi",
        -9.809801519959779
      ],
      [
        "▁varacak",
        -9.809814988143142
      ],
      [
        "yon",
        -9.81015834578296
      ],
      [
        "▁yuzluydu",
        -9.810461340603124
      ],
      [
        "▁gecici",
        -9.81060277496361
      ],
      [
        "gun",
        -9.812176706703067
      ],
      [
        "▁firması",
        -9.812279420166057
      ],
      [
        "lerimizi",
        -9.812563225178678
      ],
      [
        "▁hastane",
        -9.812684140579128
      ],
      [
        "▁oteki",
        -9.813526488557965
      ],
      [
        "▁cıkma",
        -9.814181572412982
      ],
      [
        "lıgında",
        -9.814949917422075
      ],
      [
        "▁aklı",
        -9.815129464250372
      ],
      [
        "▁avuc",
        -9.815233643004387
      ],
      [
        "▁ticarette",
        -9.815247772422294
      ],
      [
        "▁newark'ta",
        -9.816139852670092
      ],
      [
        "▁hata",
        -9.816365483079775
      ],
      [
        "▁dalga",
        -9.81658481954875
      ],
      [
        "▁kaybetti",
        -9.816828922516795
      ],
      [
        "▁yorgun",
        -9.817687884014411
      ],
      [
        "▁ge",
        -9.818643549544543
      ],
      [
        "▁alına",
        -9.818722590629271
      ],
      [
        "▁no",
        -9.818725145003569
      ],
      [
        "▁yat",
        -9.819883322531963
      ],
      [
        "▁ankara",
        -9.821056815839853
      ],
      [
        "▁restoran",
        -9.82109361966857
      ],
      [
        "▁bakanı",
        -9.821151150248335
      ],
      [
        "▁posta",
        -9.821950043508956
      ],
      [
        "▁olanlar",
        -9.822016081857331
      ],
      [
        "▁sur",
        -9.822305489432807
      ],
      [
        "▁toplantı",
        -9.823937297814599
      ],
      [
        "yalı",
        -9.824418792221348
      ],
      [
        "▁ulasılama",
        -9.824644980040567
      ],
      [
        "▁sınır",
        -9.825310845037656
      ],
      [
        "ımız",
        -9.825568782018614
      ],
      [
        "▁esim",
        -9.82583186061587
      ],
      [
        "▁doner",
        -9.825961376024186
      ],
      [
        "mazdı",
        -9.826075641262044
      ],
      [
        "▁hamle",
        -9.826537343193955
      ],
      [
        "▁toronto'",
        -9.826790521273239
      ],
      [
        "▁anadolu",
        -9.828043977073703
      ],
      [
        "▁gozlem",
        -9.828912702399165
      ],
      [
        "▁ani",
        -9.829454561909072
      ],
      [
        "▁sise",
        -9.829515985249772
      ],
      [
        "▁kardes",
        -9.829561585829229
      ],
      [
        "▁ureticisi",
        -9.830469989410014
      ],
      [
        "▁saldırı",
        -9.830586240484514
      ],
      [
        "▁kon",
        -9.830935152036687
      ],
      [
        "ot",
        -9.8311445239999
      ],
      [
        "▁ga",
        -9.831791512509504
      ],
      [
        "▁goze",
        -9.83180193224975
      ],
      [
        "▁pahalı",
        -9.83181235958564
      ],
      [
        "▁elektronik",
        -9.831872186216412
      ],
      [
        "▁bakar",
        -9.83217385465937
      ],
      [
        "▁rakı",
        -9.832336211891267
      ],
      [
        "▁perde",
        -9.832469738730895
      ],
      [
        "▁yahu",
        -9.834411012791945
      ],
      [
        "▁etmekte",
        -9.834761356655479
      ],
      [
        "▁newark'",
        -9.8349550649299
      ],
      [
        "▁plani",
        -9.835379200570898
      ],
      [
        "▁kullanıyor",
        -9.835382881100461
      ],
      [
        "▁hakim",
        -9.835489621032224
      ],
      [
        "mda",
        -9.836104582641005
      ],
      [
        "▁kavga",
        -9.836525671811538
      ],
      [
        "▁ellerini",
        -9.837116035503565
      ],
      [
        "▁anlamın",
        -9.837323102366899
      ],
      [
        "▁nedenle",
        -9.839459470155642
      ],
      [
        "▁ceker",
        -9.839618274063035
      ],
      [
        "▁fe",
        -9.839972624850224
      ],
      [
        "▁risk",
        -9.840207874996167
      ],
      [
        "▁kaldır",
        -9.84042871935608
      ],
      [
        "▁kisilik",
        -9.840471454196312
      ],
      [
        "▁esi",
        -9.841191368862681
      ],
      [
        "▁aksama",
        -9.841882392235547
      ],
      [
        "▁sor",
        -9.842162803830824
      ],
      [
        "▁ada",
        -9.842481227939913
      ],
      [
        "▁maliyeti",
        -9.842687075131016
      ],
      [
        "▁binler",
        -9.844057537213061
      ],
      [
        "▁yonetici",
        -9.844845498760725
      ],
      [
        "▁kart",
        -9.845057740813742
      ],
      [
        "▁kızın",
        -9.845252578417538
      ],
      [
        "▁agız",
        -9.845433502223223
      ],
      [
        "muyor",
        -9.84594553477358
      ],
      [
        "▁degisim",
        -9.846217797197275
      ],
      [
        "▁dost",
        -9.846796772085185
      ],
      [
        "▁bura",
        -9.847369468219124
      ],
      [
        "▁kıl",
        -9.847710199540675
      ],
      [
        "▁yerli",
        -9.849388028082194
      ],
      [
        "▁kutu",
        -9.849511355150526
      ],
      [
        "▁cumle",
        -9.850044503189451
      ],
      [
        "▁vade",
        -9.850637833429467
      ],
      [
        "▁sav",
        -9.850879365749655
      ],
      [
        "▁olmayacak",
        -9.851391140401024
      ],
      [
        "▁yatak",
        -9.851688151690905
      ],
      [
        "▁havada",
        -9.851893239176693
      ],
      [
        "▁oyku",
        -9.851979665058161
      ],
      [
        "▁rahatsız",
        -9.852454419256684
      ],
      [
        "▁iletisim",
        -9.852815087882007
      ],
      [
        "▁sohbet",
        -9.85316747138496
      ],
      [
        "▁bakımından",
        -9.853183057034393
      ],
      [
        "▁gorme",
        -9.854722999668251
      ],
      [
        "▁hasan",
        -9.856486839049161
      ],
      [
        "▁baslamıstı",
        -9.857406448646461
      ],
      [
        "cagız",
        -9.857459080926795
      ],
      [
        "▁ofis",
        -9.857539642162724
      ],
      [
        "▁suren",
        -9.857993218578395
      ],
      [
        "▁gur",
        -9.858049224396279
      ],
      [
        "▁dusunur",
        -9.858079473363803
      ],
      [
        "▁aktivite",
        -9.85871039059284
      ],
      [
        "▁avukat",
        -9.859283673359467
      ],
      [
        "▁sevgili",
        -9.85972641924285
      ],
      [
        "ad",
        -9.859850016257157
      ],
      [
        "dıgında",
        -9.860346312104642
      ],
      [
        "▁odalari",
        -9.860483834156064
      ],
      [
        "▁phoenix'",
        -9.860487579754011
      ],
      [
        "lanması",
        -9.861343492277534
      ],
      [
        "▁gezi",
        -9.861952488754692
      ],
      [
        "▁yonetimi",
        -9.862223205237804
      ],
      [
        "▁emir",
        -9.863132561238404
      ],
      [
        "▁yasayan",
        -9.86329118348685
      ],
      [
        "▁sahi",
        -9.864175114171442
      ],
      [
        "▁saf",
        -9.864454596955792
      ],
      [
        "▁gibiydi",
        -9.864575498490069
      ],
      [
        "▁olu",
        -9.865494441103401
      ],
      [
        "▁hikaye",
        -9.866231999593287
      ],
      [
        "▁duser",
        -9.866359609044046
      ],
      [
        "▁bush",
        -9.866684696607582
      ],
      [
        "▁kese",
        -9.867322860074747
      ],
      [
        "▁kurul",
        -9.868027275436713
      ],
      [
        "lıkla",
        -9.86837494904565
      ],
      [
        "▁dusunce",
        -9.868601010288288
      ],
      [
        "▁paket",
        -9.869958855131532
      ],
      [
        "▁komsu",
        -9.8703518472821
      ],
      [
        "▁kusur",
        -9.870717430496732
      ],
      [
        "j",
        -9.871693209227455
      ],
      [
        "▁dogan",
        -9.872167803632141
      ],
      [
        "▁tok",
        -9.873448489468993
      ],
      [
        "▁45",
        -9.873581509672064
      ],
      [
        "▁arama",
        -9.873661651227366
      ],
      [
        "▁durgun",
        -9.873693186917922
      ],
      [
        "▁acıklama",
        -9.874402865976089
      ],
      [
        "▁kahvaltı",
        -9.875036029865583
      ],
      [
        "▁zavallı",
        -9.875036050787616
      ],
      [
        "▁epey",
        -9.875036548549408
      ],
      [
        "▁oturmus",
        -9.875192454510065
      ],
      [
        "▁mekan",
        -9.875203237213046
      ],
      [
        "▁gumus",
        -9.875388820491562
      ],
      [
        "▁kalabalik",
        -9.875439854801497
      ],
      [
        "▁hadi",
        -9.875509528572618
      ],
      [
        "▁asagıda",
        -9.875736449458527
      ],
      [
        "▁ustelik",
        -9.875876865083349
      ],
      [
        "▁mer",
        -9.87594149456024
      ],
      [
        "▁ailesi",
        -9.876020470104969
      ],
      [
        "▁haric",
        -9.876174124605985
      ],
      [
        "▁askı",
        -9.877640218496776
      ],
      [
        "▁bicimde",
        -9.87802379355919
      ],
      [
        "▁parmak",
        -9.878133674467719
      ],
      [
        "lis",
        -9.878470362754893
      ],
      [
        "▁sahiptir",
        -9.879136487560697
      ],
      [
        "▁vatan",
        -9.879449543450582
      ],
      [
        "▁10'da",
        -9.880576205541376
      ],
      [
        "▁6'da",
        -9.880827929073984
      ],
      [
        "▁elma",
        -9.881887617221299
      ],
      [
        "lasma",
        -9.882144577885155
      ],
      [
        "▁gerceklesti",
        -9.882200973272923
      ],
      [
        "▁gelisme",
        -9.884053836395701
      ],
      [
        "▁ihtiyacı",
        -9.88481386448472
      ],
      [
        "▁kaldıgı",
        -9.885093955437096
      ],
      [
        "▁yemeklerin",
        -9.88586688381161
      ],
      [
        "▁calıstı",
        -9.886241734352913
      ],
      [
        "▁arac",
        -9.886898837846509
      ],
      [
        "▁saha",
        -9.887205942665538
      ],
      [
        "▁kadını",
        -9.888189823390636
      ],
      [
        "▁devletin",
        -9.888830122384771
      ],
      [
        "▁kaybı",
        -9.8907366226508
      ],
      [
        "▁kriz",
        -9.891836763756764
      ],
      [
        "▁yurudu",
        -9.89218024127783
      ],
      [
        "▁cozum",
        -9.892771408060474
      ],
      [
        "▁calıs",
        -9.892825737296171
      ],
      [
        "▁kayıp",
        -9.894142156096757
      ],
      [
        "▁bit",
        -9.894501115526579
      ],
      [
        "▁cıkarma",
        -9.89575546865716
      ],
      [
        "▁ko",
        -9.896590427644613
      ],
      [
        "▁esit",
        -9.89726291134391
      ],
      [
        "▁islerini",
        -9.897756029085336
      ],
      [
        "▁gayrimenkul",
        -9.897763293574435
      ],
      [
        "▁kaydetti",
        -9.897856770185383
      ],
      [
        "▁karsilama",
        -9.897868708614759
      ],
      [
        "▁seklinde",
        -9.897903708049428
      ],
      [
        "▁mail",
        -9.898063301123
      ],
      [
        "▁korkunc",
        -9.898591598590121
      ],
      [
        "▁kalmadı",
        -9.898604905758134
      ],
      [
        "▁har",
        -9.898917582269437
      ],
      [
        "▁farkında",
        -9.89901915326308
      ],
      [
        "▁takdir",
        -9.89964796138485
      ],
      [
        "▁cocukların",
        -9.899675031362342
      ],
      [
        "▁listesini",
        -9.899865812909555
      ],
      [
        "▁amerika",
        -9.900228969649492
      ],
      [
        "▁buz",
        -9.90038756531056
      ],
      [
        "cilik",
        -9.900678838085708
      ],
      [
        "▁vapur",
        -9.900760474282292
      ],
      [
        "▁olacagı",
        -9.900941073458583
      ],
      [
        "▁demis",
        -9.90099668797139
      ],
      [
        "▁ayır",
        -9.901009047394187
      ],
      [
        "▁bardak",
        -9.901077565810214
      ],
      [
        "▁banyo",
        -9.90135735743059
      ],
      [
        "▁kalıyor",
        -9.90178465618595
      ],
      [
        "▁gosterir",
        -9.90192696528071
      ],
      [
        "▁haziran'da",
        -9.90218232575062
      ],
      [
        "▁yargı",
        -9.902386383205737
      ],
      [
        "▁oturdu",
        -9.902879104030065
      ],
      [
        "▁soluk",
        -9.903016171482857
      ],
      [
        "▁duzenli",
        -9.903029962785187
      ],
      [
        "▁coktan",
        -9.903059663016002
      ],
      [
        "▁ruya",
        -9.903201226316334
      ],
      [
        "▁basta",
        -9.903375872147976
      ],
      [
        "▁etrafında",
        -9.903646613099355
      ],
      [
        "▁kay",
        -9.903765013252478
      ],
      [
        "▁istanbul'",
        -9.903790209990671
      ],
      [
        "▁yuru",
        -9.903911149717121
      ],
      [
        "▁sorunları",
        -9.904214339395432
      ],
      [
        "▁konusuyor",
        -9.905531480695288
      ],
      [
        "▁donu",
        -9.905694572058348
      ],
      [
        "▁yolunu",
        -9.905778615474464
      ],
      [
        "▁sh",
        -9.906412450011805
      ],
      [
        "▁ap",
        -9.906576993901918
      ],
      [
        "▁yapmıs",
        -9.906751253224883
      ],
      [
        "ff",
        -9.90718154236518
      ],
      [
        "▁odun",
        -9.90723119391962
      ],
      [
        "▁otele",
        -9.907237416337203
      ],
      [
        "▁birimi",
        -9.9084370300162
      ],
      [
        "▁tartısma",
        -9.909512726946906
      ],
      [
        ".000",
        -9.909561248845332
      ],
      [
        "▁tık",
        -9.909952665251323
      ],
      [
        "▁miyi",
        -9.910218326325257
      ],
      [
        "bası",
        -9.910341217196612
      ],
      [
        "▁dev",
        -9.910455745711074
      ],
      [
        "▁goturdu",
        -9.910479218388433
      ],
      [
        "▁parasını",
        -9.910775545966242
      ],
      [
        "halde",
        -9.911343336846645
      ],
      [
        "▁bakanlıgı",
        -9.911615921163683
      ],
      [
        "▁ortada",
        -9.91195189809709
      ],
      [
        "▁olmasın",
        -9.912210647041816
      ],
      [
        "▁duzey",
        -9.91243771115281
      ],
      [
        "▁mesele",
        -9.912867363460466
      ],
      [
        "▁yuk",
        -9.914039962216611
      ],
      [
        "▁gelistirme",
        -9.91472940094622
      ],
      [
        "▁kosulları",
        -9.915436707999415
      ],
      [
        "▁vali",
        -9.916652768520281
      ],
      [
        "▁kut",
        -9.91681036716998
      ],
      [
        "▁yemis",
        -9.916840163476646
      ],
      [
        "▁coktu",
        -9.917304532067194
      ],
      [
        "▁gelecekte",
        -9.917809174479789
      ],
      [
        "▁geci",
        -9.918394933960732
      ],
      [
        "▁dili",
        -9.919447808890805
      ],
      [
        "cisi",
        -9.919487462480918
      ],
      [
        "▁kokusu",
        -9.920242624070799
      ],
      [
        "▁hukumetin",
        -9.920713233294904
      ],
      [
        "▁hulya",
        -9.921020908812764
      ],
      [
        "▁bebek",
        -9.921021602626176
      ],
      [
        "▁igne",
        -9.921034414765552
      ],
      [
        "▁yaklasimi",
        -9.921057281741248
      ],
      [
        "▁bardagı",
        -9.921196109455675
      ],
      [
        "▁yolculuk",
        -9.921874235642294
      ],
      [
        "▁biliyoru",
        -9.92200612901393
      ],
      [
        "▁cumhuriyet",
        -9.922155300581933
      ],
      [
        "▁hicbiri",
        -9.922250690877412
      ],
      [
        "▁suclama",
        -9.922544993287072
      ],
      [
        "▁burası",
        -9.923112053894195
      ],
      [
        "▁yumusak",
        -9.92342254673308
      ],
      [
        "▁hayvan",
        -9.92345899624668
      ],
      [
        "▁islemler",
        -9.92402574415984
      ],
      [
        "biliyor",
        -9.92446840941221
      ],
      [
        "▁onda",
        -9.924621571119495
      ],
      [
        "▁35",
        -9.924770812585042
      ],
      [
        "▁enflasyon",
        -9.924795139474663
      ],
      [
        "▁azal",
        -9.92500274911397
      ],
      [
        "▁bakıyordu",
        -9.925452307480088
      ],
      [
        "▁cıkıs",
        -9.925462102273373
      ],
      [
        "▁verim",
        -9.926044778502654
      ],
      [
        "▁tutarında",
        -9.926064255107901
      ],
      [
        "▁sesleri",
        -9.926151988726811
      ],
      [
        "▁mor",
        -9.9263840631244
      ],
      [
        "▁okudu",
        -9.926715101591395
      ],
      [
        "▁denile",
        -9.92678773477082
      ],
      [
        "▁maden",
        -9.927402050257275
      ],
      [
        "▁charlotte'de",
        -9.928019466713597
      ],
      [
        "▁cop",
        -9.928286451615808
      ],
      [
        "▁tanrı",
        -9.929050832532173
      ],
      [
        "▁degerli",
        -9.929169517504993
      ],
      [
        "▁500",
        -9.929268610042449
      ],
      [
        "▁angeles'",
        -9.929663571757432
      ],
      [
        "▁istanbul'u",
        -9.930063990178422
      ],
      [
        "▁pe",
        -9.930604422107006
      ],
      [
        "ger",
        -9.93087985700946
      ],
      [
        "meli",
        -9.931236368910293
      ],
      [
        "▁oyunu",
        -9.932264100404693
      ],
      [
        "▁sovyet",
        -9.932397988501029
      ],
      [
        "▁dc",
        -9.933149758266017
      ],
      [
        "▁avrupa'da",
        -9.93346054375549
      ],
      [
        "▁edilmesi",
        -9.934463295307548
      ],
      [
        "▁doneminde",
        -9.93459586770615
      ],
      [
        "▁ucretlerini",
        -9.934931317151756
      ],
      [
        "▁olmalı",
        -9.93493246709084
      ],
      [
        "▁sevk",
        -9.935193796732618
      ],
      [
        "▁gurultu",
        -9.936197992833243
      ],
      [
        "▁montreal'",
        -9.936848092541865
      ],
      [
        "▁kusku",
        -9.93831933317449
      ],
      [
        "▁charlotte'",
        -9.938540531965003
      ],
      [
        "▁gorusme",
        -9.939893089324556
      ],
      [
        "▁gu",
        -9.940693947456598
      ],
      [
        "▁pas",
        -9.940778141080736
      ],
      [
        "▁kamyon",
        -9.942261364317456
      ],
      [
        "▁ahlak",
        -9.943037503013315
      ],
      [
        "▁destekli",
        -9.943046836593702
      ],
      [
        "▁derecede",
        -9.943680868845988
      ],
      [
        "ık",
        -9.943732998598474
      ],
      [
        "▁acar",
        -9.94391775248776
      ],
      [
        "▁1990",
        -9.944062606124785
      ],
      [
        "▁isteyen",
        -9.944707026468572
      ],
      [
        "▁ipotek",
        -9.944828632277718
      ],
      [
        "▁po",
        -9.945059167041945
      ],
      [
        "▁basbakan",
        -9.94540445262995
      ],
      [
        "▁vakti",
        -9.945920404626495
      ],
      [
        "▁kral",
        -9.946026844605615
      ],
      [
        "▁beklenen",
        -9.946395428545841
      ],
      [
        "▁parlak",
        -9.947493189395463
      ],
      [
        "▁tekne",
        -9.947507218936684
      ],
      [
        "▁haklı",
        -9.947780137511558
      ],
      [
        "▁gunun",
        -9.948008897309988
      ],
      [
        "▁cesitleri",
        -9.948030858534205
      ],
      [
        "▁yoneticileri",
        -9.948088384593857
      ],
      [
        "nızı",
        -9.948308430022069
      ],
      [
        "▁ası",
        -9.94855749869559
      ],
      [
        "▁gelmisti",
        -9.94866197823815
      ],
      [
        "▁sikayet",
        -9.948941060352965
      ],
      [
        "▁hayatta",
        -9.94927104966847
      ],
      [
        "▁edebiyat",
        -9.95024438545212
      ],
      [
        "sen",
        -9.95027778294843
      ],
      [
        "▁8'de",
        -9.950343596035978
      ],
      [
        "▁hepimiz",
        -9.950906466425959
      ],
      [
        "▁gormus",
        -9.950984528835757
      ],
      [
        "▁olmuyor",
        -9.951684881536963
      ],
      [
        "▁duzen",
        -9.952165142732293
      ],
      [
        "ecegim",
        -9.952273292908078
      ],
      [
        "▁ulas",
        -9.952293523965022
      ],
      [
        "▁indirim",
        -9.952973011442912
      ],
      [
        "▁bogaz",
        -9.953023174021121
      ],
      [
        "▁calı",
        -9.953184589275955
      ],
      [
        "▁kendim",
        -9.953229116603366
      ],
      [
        "▁etki",
        -9.953418524981124
      ],
      [
        "▁nere",
        -9.953711057324021
      ],
      [
        "▁oner",
        -9.953874132364087
      ],
      [
        "▁aydın",
        -9.954130944695299
      ],
      [
        "▁halkı",
        -9.954349852173374
      ],
      [
        "▁sokak",
        -9.95442071149026
      ],
      [
        "▁sas",
        -9.95530013956216
      ],
      [
        "▁yuzun",
        -9.955468657456805
      ],
      [
        "▁ayakları",
        -9.956172126185248
      ],
      [
        "sıdır",
        -9.957533185687991
      ],
      [
        "gimiz",
        -9.9584161132702
      ],
      [
        "▁pesinde",
        -9.958606840075028
      ],
      [
        "▁uste",
        -9.959202534010778
      ],
      [
        "▁alanda",
        -9.959542275798235
      ],
      [
        "▁international",
        -9.95985248151474
      ],
      [
        "▁cal",
        -9.96002525019206
      ],
      [
        "▁musteriler",
        -9.960150112629403
      ],
      [
        "liginde",
        -9.960469232033965
      ],
      [
        "gen",
        -9.96053008519638
      ],
      [
        "▁azı",
        -9.960823867902711
      ],
      [
        "▁gir",
        -9.960878748301983
      ],
      [
        "▁verdik",
        -9.961152542200999
      ],
      [
        "▁sozleri",
        -9.961388587692818
      ],
      [
        "▁suruyor",
        -9.961926861572335
      ],
      [
        "▁ardı",
        -9.962217787501343
      ],
      [
        "▁sattı",
        -9.962686519962132
      ],
      [
        "lıyordu",
        -9.962780610246849
      ],
      [
        "▁ogretmen",
        -9.963022040960409
      ],
      [
        "▁islemlerinde",
        -9.963071373378291
      ],
      [
        "▁degistir",
        -9.9631140159312
      ],
      [
        "▁goren",
        -9.963122734935922
      ],
      [
        "▁ucusun",
        -9.964423299549473
      ],
      [
        "tar",
        -9.96473006685455
      ],
      [
        "▁tv",
        -9.965354112101153
      ],
      [
        "▁kapat",
        -9.965872158652804
      ],
      [
        "▁ayse",
        -9.966475159818614
      ],
      [
        "▁satısı",
        -9.96663776192351
      ],
      [
        "▁ahmet",
        -9.967182472900218
      ],
      [
        "▁almaya",
        -9.967306838999562
      ],
      [
        "▁ceki",
        -9.967445554772702
      ],
      [
        "▁yarısı",
        -9.967922160019675
      ],
      [
        "▁olmayı",
        -9.969117999477415
      ],
      [
        "▁john",
        -9.969120390378803
      ],
      [
        "▁lynch",
        -9.96921889502745
      ],
      [
        "▁doviz",
        -9.969219784632651
      ],
      [
        "▁iflas",
        -9.969219933372829
      ],
      [
        "▁teori",
        -9.969233210684866
      ],
      [
        "▁adalet",
        -9.96923879257444
      ],
      [
        "▁umit",
        -9.969251724552112
      ],
      [
        "errill",
        -9.969502037542748
      ],
      [
        "▁rehberimiz",
        -9.969579282531551
      ],
      [
        "▁nice",
        -9.969579775004735
      ],
      [
        "▁arazi",
        -9.970019188452719
      ],
      [
        "▁digerleri",
        -9.970330143535605
      ],
      [
        "▁par",
        -9.970413286038779
      ],
      [
        "▁gitmis",
        -9.970440137940638
      ],
      [
        "▁masraf",
        -9.971418756118592
      ],
      [
        "▁kaydı",
        -9.97144986463218
      ],
      [
        "gin",
        -9.971803411286874
      ],
      [
        "▁olmasa",
        -9.97197842788689
      ],
      [
        "▁sinir",
        -9.972280822255456
      ],
      [
        "▁icere",
        -9.972448716756865
      ],
      [
        "▁oyuncu",
        -9.972603333528625
      ],
      [
        "▁urunler",
        -9.973982369445867
      ],
      [
        "▁alıcı",
        -9.974167311446628
      ],
      [
        "▁eser",
        -9.974561179820574
      ],
      [
        "▁metre",
        -9.974936398167213
      ],
      [
        "cusu",
        -9.975350755292215
      ],
      [
        "▁komisyonu",
        -9.975786688166554
      ],
      [
        "▁aralarında",
        -9.975954813057314
      ],
      [
        "▁hisselerini",
        -9.97656485862709
      ],
      [
        "▁tahmini",
        -9.976805618399107
      ],
      [
        "▁basım",
        -9.977521905704865
      ],
      [
        "seniz",
        -9.977628189699873
      ],
      [
        "ber",
        -9.97860364016513
      ],
      [
        "▁degisiklikler",
        -9.98011145811104
      ],
      [
        "▁dugun",
        -9.980594564229925
      ],
      [
        "▁soy",
        -9.981398625046282
      ],
      [
        "▁sonun",
        -9.981702708775064
      ],
      [
        "▁girisim",
        -9.981769007160267
      ],
      [
        "▁cevirdi",
        -9.982775965454184
      ],
      [
        "▁vurdu",
        -9.983014264265709
      ],
      [
        "▁denizin",
        -9.983150856105546
      ],
      [
        "ladıgı",
        -9.98392022137186
      ],
      [
        "▁aksi",
        -9.98431299340091
      ],
      [
        "sak",
        -9.984486114003513
      ],
      [
        "ac",
        -9.984793039430242
      ],
      [
        "▁unutma",
        -9.986173567646164
      ],
      [
        "gına",
        -9.986294777451489
      ],
      [
        "▁duyar",
        -9.986717943104255
      ],
      [
        "▁suresi",
        -9.98690294588926
      ],
      [
        "▁kampanyalar",
        -9.987678399332543
      ],
      [
        "▁karın",
        -9.987766095101886
      ],
      [
        "▁kalmıstı",
        -9.987975761920605
      ],
      [
        "▁payı",
        -9.988416492354457
      ],
      [
        "▁zafer",
        -9.989541209216654
      ],
      [
        "mizde",
        -9.989548110200587
      ],
      [
        "▁davran",
        -9.990030320658592
      ],
      [
        "▁ucusunu",
        -9.990134632969543
      ],
      [
        "ucu",
        -9.990224309432197
      ],
      [
        "lıklar",
        -9.991344675925319
      ],
      [
        "▁civarı",
        -9.991991336207704
      ],
      [
        "▁felaket",
        -9.992537302432304
      ],
      [
        "lemek",
        -9.992656915677408
      ],
      [
        "▁halihazırda",
        -9.994218875202312
      ],
      [
        "▁ısrar",
        -9.994218880020274
      ],
      [
        "▁long",
        -9.99422791163455
      ],
      [
        "▁limon",
        -9.994246172701352
      ],
      [
        "▁uye",
        -9.994260573289656
      ],
      [
        "▁ipek",
        -9.994288582006142
      ],
      [
        "▁fakir",
        -9.994301284571828
      ],
      [
        "▁borsası'nda",
        -9.994323955332064
      ],
      [
        "▁oynuyor",
        -9.994558547053613
      ],
      [
        "▁sauna",
        -9.994726620836403
      ],
      [
        "▁gelenek",
        -9.995078367262943
      ],
      [
        "▁olun",
        -9.995265468206632
      ],
      [
        "▁devralma",
        -9.99544623740914
      ],
      [
        "▁yıla",
        -9.995622062250899
      ],
      [
        "▁benziyor",
        -9.996226573392056
      ],
      [
        "▁harcama",
        -9.996581121328596
      ],
      [
        "▁bur",
        -9.996586857436272
      ],
      [
        "▁irak",
        -9.9968060263728
      ],
      [
        "▁hasar",
        -9.99729869320982
      ],
      [
        "▁not",
        -9.997794839097322
      ],
      [
        "▁paul'",
        -9.998423922595478
      ],
      [
        "mesine",
        -9.999133214489937
      ],
      [
        "▁daire",
        -9.9992282415922
      ],
      [
        "▁yapılmıs",
        -9.999242978434173
      ],
      [
        "▁tarafta",
        -9.999804931385219
      ],
      [
        "▁dogum",
        -9.999991704148258
      ],
      [
        "▁topu",
        -10.000188801084
      ],
      [
        "▁sevinc",
        -10.000735457134274
      ],
      [
        "▁oranında",
        -10.000752310661777
      ],
      [
        "leyen",
        -10.001739485770145
      ],
      [
        "▁soguktu",
        -10.001860978390472
      ],
      [
        "▁ayrılma",
        -10.002387734472274
      ],
      [
        "▁isleme",
        -10.002461045081278
      ],
      [
        "▁kanada",
        -10.00258806523642
      ],
      [
        "▁hakları",
        -10.003655677029588
      ],
      [
        "▁yetkililer",
        -10.003994974760637
      ],
      [
        "▁sez",
        -10.00477336496561
      ],
      [
        "▁gozunu",
        -10.005082893824975
      ],
      [
        "▁yolun",
        -10.005425511920773
      ],
      [
        "▁ucagın",
        -10.00612310830659
      ],
      [
        "▁mil",
        -10.00687976000512
      ],
      [
        "▁inanıyor",
        -10.007526136308638
      ],
      [
        "▁derken",
        -10.007694252685216
      ],
      [
        "▁bilmek",
        -10.008421416854762
      ],
      [
        "malıdır",
        -10.008954507258796
      ],
      [
        "▁cami",
        -10.009002030993054
      ],
      [
        "▁tara",
        -10.009351294911255
      ],
      [
        "▁anı",
        -10.009413799634558
      ],
      [
        "▁saati",
        -10.009497896479585
      ],
      [
        "▁tutma",
        -10.009802350219239
      ],
      [
        "▁peynir",
        -10.010798207411337
      ],
      [
        "bes",
        -10.011055924591714
      ],
      [
        "ize",
        -10.011223327597255
      ],
      [
        "▁yanıt",
        -10.011376716422138
      ],
      [
        "▁diz",
        -10.012991643121214
      ],
      [
        "▁yıldır",
        -10.013415520395199
      ],
      [
        "caktır",
        -10.013790509864096
      ],
      [
        "▁cana",
        -10.014108225976193
      ],
      [
        "▁meclis",
        -10.015354281666696
      ],
      [
        "▁katil",
        -10.015405006417764
      ],
      [
        "▁sonuclar",
        -10.01546715673393
      ],
      [
        "▁houston'da",
        -10.015487283543713
      ],
      [
        "▁surdu",
        -10.015598879556576
      ],
      [
        "▁eg",
        -10.01589668409173
      ],
      [
        "▁bez",
        -10.016711649523005
      ],
      [
        "▁fırsat",
        -10.016869185290432
      ],
      [
        "▁kalır",
        -10.016921825521916
      ],
      [
        "▁uret",
        -10.017188857650059
      ],
      [
        "▁vegas'ta",
        -10.017271270355604
      ],
      [
        "mızda",
        -10.018060994367595
      ],
      [
        "▁benden",
        -10.01832264431597
      ],
      [
        "▁kurban",
        -10.019232436421794
      ],
      [
        "▁havaalanı",
        -10.019340869111037
      ],
      [
        "▁seyleri",
        -10.019344864463513
      ],
      [
        "▁potansiyel",
        -10.019859900962627
      ],
      [
        "▁muzakere",
        -10.019860803392685
      ],
      [
        "▁cennet",
        -10.019861519282635
      ],
      [
        "▁iskele",
        -10.019862185506975
      ],
      [
        "▁tedavi",
        -10.019865091417445
      ],
      [
        "▁bozuk",
        -10.019959366581185
      ],
      [
        "▁pırıl",
        -10.020176585931857
      ],
      [
        "▁defter",
        -10.020672954295618
      ],
      [
        "▁cene",
        -10.02116609715996
      ],
      [
        "▁ozen",
        -10.021435153017242
      ],
      [
        "▁hangileri",
        -10.02184208666954
      ],
      [
        "▁fer",
        -10.022223417700742
      ],
      [
        "▁gecikme",
        -10.02230898007901
      ],
      [
        "▁belir",
        -10.022863419020464
      ],
      [
        "▁gecerli",
        -10.023094412930051
      ],
      [
        "▁ogrenmek",
        -10.023646258924721
      ],
      [
        "▁sayi",
        -10.025780101424422
      ],
      [
        "irim",
        -10.026338881592878
      ],
      [
        "▁etmeyi",
        -10.026352960669547
      ],
      [
        "▁jo",
        -10.026828223460143
      ],
      [
        "▁planlıyor",
        -10.027455951056034
      ],
      [
        "▁kasım'da",
        -10.02799069604961
      ],
      [
        "▁tanı",
        -10.028333372706182
      ],
      [
        "▁hastalık",
        -10.02864969109399
      ],
      [
        "▁hareketi",
        -10.02926097402532
      ],
      [
        "▁camasır",
        -10.030857197050434
      ],
      [
        "▁olcu",
        -10.031402683407919
      ],
      [
        "▁amac",
        -10.03156647436636
      ],
      [
        "▁care",
        -10.032154457197146
      ],
      [
        "▁bagır",
        -10.032155685144867
      ],
      [
        "▁yaptıgını",
        -10.032258050714471
      ],
      [
        "▁amerikalı",
        -10.03364805250568
      ],
      [
        "▁deri",
        -10.033887919437833
      ],
      [
        "▁saz",
        -10.034286468570278
      ],
      [
        "▁yagı",
        -10.035400734102403
      ],
      [
        "▁kızlar",
        -10.035454954816261
      ],
      [
        "abilirdi",
        -10.035784698394673
      ],
      [
        "▁makale",
        -10.035912933262132
      ],
      [
        "▁bulur",
        -10.035931081802248
      ],
      [
        "▁mahkemesi",
        -10.036188380010236
      ],
      [
        "ilmis",
        -10.037608741847698
      ],
      [
        "▁derler",
        -10.037711561573909
      ],
      [
        "▁tavan",
        -10.038163580627032
      ],
      [
        "▁gecesi",
        -10.038448550824263
      ],
      [
        "▁holding",
        -10.038622007754418
      ],
      [
        "layıcı",
        -10.039526063792149
      ],
      [
        "▁sonrası",
        -10.039586630390218
      ],
      [
        "▁konusur",
        -10.039908923054865
      ],
      [
        "aj",
        -10.040556581855004
      ],
      [
        "▁hukum",
        -10.04069818883948
      ],
      [
        "▁44",
        -10.040881624851616
      ],
      [
        "▁saka",
        -10.040896282630467
      ],
      [
        "▁agzı",
        -10.041417928946766
      ],
      [
        "▁bahar",
        -10.04186325508999
      ],
      [
        "▁yoneticisi",
        -10.04247936731503
      ],
      [
        "▁yil",
        -10.042559995244787
      ],
      [
        "▁havaalanında",
        -10.042605139995464
      ],
      [
        "landıgı",
        -10.04281964592575
      ],
      [
        "▁icimde",
        -10.043600378864138
      ],
      [
        "▁deney",
        -10.044428684799495
      ],
      [
        "meyen",
        -10.0453596034718
      ],
      [
        "▁devre",
        -10.045838499155934
      ],
      [
        "▁bolumu",
        -10.045925510134346
      ],
      [
        "▁teminat",
        -10.045972401154515
      ],
      [
        "▁uyesi",
        -10.046116608121455
      ],
      [
        "▁tuhaf",
        -10.046176155197154
      ],
      [
        "▁mesafe",
        -10.046178026056571
      ],
      [
        "▁zorunlu",
        -10.04618227901866
      ],
      [
        "▁sultan",
        -10.04618902104648
      ],
      [
        "▁acele",
        -10.046273181948715
      ],
      [
        "▁soyleyebilir",
        -10.046330496052812
      ],
      [
        "▁oglen",
        -10.046362981464906
      ],
      [
        "▁coban",
        -10.046374178288492
      ],
      [
        "▁rekor",
        -10.046496191247742
      ],
      [
        "▁the",
        -10.046558285249507
      ],
      [
        "▁bugday",
        -10.046618805898985
      ],
      [
        "'li",
        -10.047205868993863
      ],
      [
        "▁hat",
        -10.047625874943737
      ],
      [
        "▁cıkacak",
        -10.047931426955818
      ],
      [
        "▁eti",
        -10.048026903792625
      ],
      [
        "▁kılıc",
        -10.048222396667558
      ],
      [
        "▁emeklilik",
        -10.048418527235476
      ],
      [
        "▁kesildi",
        -10.048513341344218
      ],
      [
        "▁gosteren",
        -10.048700991257565
      ],
      [
        "▁saatlerinde",
        -10.049250032367082
      ],
      [
        "▁getirir",
        -10.04952236979268
      ],
      [
        "▁tak",
        -10.049713769709099
      ],
      [
        "▁mide",
        -10.049845482981205
      ],
      [
        "▁oldugumuz",
        -10.049936580133043
      ],
      [
        "lmaz",
        -10.050224774319584
      ],
      [
        "▁koylu",
        -10.050774542062772
      ],
      [
        "▁sil",
        -10.0513866301601
      ],
      [
        "▁etmesi",
        -10.052195802930102
      ],
      [
        "id",
        -10.052628140008094
      ],
      [
        "▁saglamak",
        -10.054819724107725
      ],
      [
        "▁dere",
        -10.055506573096041
      ],
      [
        "dık",
        -10.055730599637538
      ],
      [
        "▁olamaz",
        -10.055793806050751
      ],
      [
        "ime",
        -10.05585375804462
      ],
      [
        "▁istiyordu",
        -10.056270847448475
      ],
      [
        "▁yapacagı",
        -10.05712990468474
      ],
      [
        "▁cag",
        -10.05736877276824
      ],
      [
        "▁aga",
        -10.057758627350337
      ],
      [
        "▁doları'nda",
        -10.057851656677252
      ],
      [
        "▁agrı",
        -10.058758564698394
      ],
      [
        "▁maliyetleri",
        -10.058803233021383
      ],
      [
        "▁yapılır",
        -10.059107099000503
      ],
      [
        "▁aday",
        -10.059684276176867
      ],
      [
        "mekte",
        -10.059696577001665
      ],
      [
        "likleri",
        -10.060578075144209
      ],
      [
        "▁toz",
        -10.061613481349603
      ],
      [
        "▁ucunda",
        -10.06202027373792
      ],
      [
        "'la",
        -10.062635438783474
      ],
      [
        "▁okur",
        -10.062693447946046
      ],
      [
        "▁vermeye",
        -10.062940099540644
      ],
      [
        "▁suphe",
        -10.06318696193857
      ],
      [
        "▁aldigim",
        -10.063564318975734
      ],
      [
        "▁anlamak",
        -10.064055168433118
      ],
      [
        "▁cincinnati'de",
        -10.064524116486023
      ],
      [
        "▁icecek",
        -10.065735997312323
      ],
      [
        "▁yuzyıl",
        -10.06579427902034
      ],
      [
        "▁ayın",
        -10.066154711808663
      ],
      [
        "▁ata",
        -10.066235464297957
      ],
      [
        "▁yaygın",
        -10.066267070091941
      ],
      [
        "▁itiraz",
        -10.066500249484868
      ],
      [
        "▁erdi",
        -10.066562203188354
      ],
      [
        "▁bel",
        -10.067183308279711
      ],
      [
        "▁bakır",
        -10.067359927240568
      ],
      [
        "▁300",
        -10.067420632765767
      ],
      [
        "▁isten",
        -10.068052829377063
      ],
      [
        "▁kabar",
        -10.06810002201469
      ],
      [
        "▁sırtında",
        -10.068641743920958
      ],
      [
        "abilecek",
        -10.068967563087597
      ],
      [
        "▁ey",
        -10.071436537238037
      ],
      [
        "▁ugras",
        -10.071469663643082
      ],
      [
        "▁bankalar",
        -10.071520094507305
      ],
      [
        "▁rakamlar",
        -10.07156399412034
      ],
      [
        "▁calısır",
        -10.071811372426941
      ],
      [
        "▁alkol",
        -10.073027104657143
      ],
      [
        "▁bisiklet",
        -10.073202717880323
      ],
      [
        "▁patates",
        -10.073203214152374
      ],
      [
        "▁nicin",
        -10.073219649910854
      ],
      [
        "▁kurtaj",
        -10.07326912817651
      ],
      [
        "▁sahte",
        -10.07355636115487
      ],
      [
        "▁aracılıgı",
        -10.073773588852323
      ],
      [
        "▁ziyade",
        -10.07384472250647
      ],
      [
        "▁yazma",
        -10.073849876610456
      ],
      [
        "▁sakal",
        -10.07459000781208
      ],
      [
        "▁capında",
        -10.074947365777925
      ],
      [
        "▁oglan",
        -10.075212996578315
      ],
      [
        "ly",
        -10.075342739678526
      ],
      [
        "▁mesaj",
        -10.075564879829287
      ],
      [
        "▁benzin",
        -10.075583969270824
      ],
      [
        "▁dısarıda",
        -10.075837585339757
      ],
      [
        "▁ceken",
        -10.076564753204877
      ],
      [
        "▁saglaya",
        -10.076576633238457
      ],
      [
        "▁dukkan",
        -10.076812253739282
      ],
      [
        "▁dert",
        -10.0771025710176
      ],
      [
        "▁duruyordu",
        -10.078063523129261
      ],
      [
        "▁yetkili",
        -10.078570569588223
      ],
      [
        "▁luks",
        -10.079114570409443
      ],
      [
        "▁vermedi",
        -10.079268185290939
      ],
      [
        "▁tutuyor",
        -10.079375115901305
      ],
      [
        "▁giriyor",
        -10.079818076610856
      ],
      [
        "▁sorusturma",
        -10.079922326458195
      ],
      [
        "▁odam",
        -10.080303856755883
      ],
      [
        "▁60",
        -10.080594310374526
      ],
      [
        "▁abd'de",
        -10.081430917028063
      ],
      [
        "▁sular",
        -10.081650385245139
      ],
      [
        "▁tarife",
        -10.081689648678916
      ],
      [
        "▁belge",
        -10.081973484070813
      ],
      [
        "▁kapattı",
        -10.082427325355546
      ],
      [
        "▁tavır",
        -10.082593578443303
      ],
      [
        "▁kav",
        -10.08285869082734
      ],
      [
        "▁uzman",
        -10.082988079316259
      ],
      [
        "▁canı",
        -10.083746649475916
      ],
      [
        "▁catı",
        -10.083978981729487
      ],
      [
        "malıydı",
        -10.084093146214261
      ],
      [
        "▁durumunda",
        -10.084277017275088
      ],
      [
        "ilir",
        -10.084632409926627
      ],
      [
        "▁one",
        -10.08486058308096
      ],
      [
        "▁kapısını",
        -10.085167643043157
      ],
      [
        "▁yasadıgı",
        -10.085341473474083
      ],
      [
        "mıyordu",
        -10.0855871711613
      ],
      [
        "▁bulma",
        -10.085737380980078
      ],
      [
        "▁canım",
        -10.08581751165823
      ],
      [
        "▁ora",
        -10.085951417894966
      ],
      [
        "▁uyarı",
        -10.085953507209611
      ],
      [
        "▁fonlar",
        -10.086612116421444
      ],
      [
        "ane",
        -10.08946484790263
      ],
      [
        "ig",
        -10.089535048869852
      ],
      [
        "▁bakma",
        -10.089568104778344
      ],
      [
        "▁saye",
        -10.08961329965202
      ],
      [
        "▁balıkcı",
        -10.089922166395292
      ],
      [
        "▁kopar",
        -10.090964663433887
      ],
      [
        "▁kazancı",
        -10.091402035785556
      ],
      [
        "▁katildi",
        -10.091927751222043
      ],
      [
        "klerini",
        -10.092171535479029
      ],
      [
        "▁degisiklik",
        -10.092193276383345
      ],
      [
        "digim",
        -10.092198131234294
      ],
      [
        "emiyor",
        -10.09222403506829
      ],
      [
        "amıyor",
        -10.092650917902915
      ],
      [
        "sizlik",
        -10.093015047245453
      ],
      [
        "▁olaylar",
        -10.093212256209926
      ],
      [
        "▁karıs",
        -10.093269565081844
      ],
      [
        "misler",
        -10.093358201341871
      ],
      [
        "▁sayıda",
        -10.09368102315296
      ],
      [
        "▁ingilizce",
        -10.093720567575689
      ],
      [
        "▁j",
        -10.093945773923794
      ],
      [
        "▁karsıya",
        -10.094233490923944
      ],
      [
        "▁yılını",
        -10.094361290901238
      ],
      [
        "memis",
        -10.094755716869358
      ],
      [
        "▁katilma",
        -10.095282493545541
      ],
      [
        "▁niye",
        -10.095927247927229
      ],
      [
        "▁1.2",
        -10.096149637791086
      ],
      [
        "▁fatura",
        -10.096679722604197
      ],
      [
        "▁giri",
        -10.097472948900124
      ],
      [
        "▁isti",
        -10.097815035699929
      ],
      [
        "▁ayrıldı",
        -10.098001531966666
      ],
      [
        "▁olanakları",
        -10.098214881559763
      ],
      [
        "▁mute",
        -10.100063664761581
      ],
      [
        "▁cekildi",
        -10.100338060152225
      ],
      [
        "▁icra",
        -10.100839582850584
      ],
      [
        "▁national",
        -10.100980501597256
      ],
      [
        "▁tavuk",
        -10.100999087278389
      ],
      [
        "▁mermer",
        -10.10101339092708
      ],
      [
        "▁haberi",
        -10.101025085658987
      ],
      [
        "▁mulk",
        -10.10143750810301
      ],
      [
        "▁kuyu",
        -10.101837999947083
      ],
      [
        "▁baslayacak",
        -10.101854869640407
      ],
      [
        "▁boylu",
        -10.10207935853406
      ],
      [
        "▁babamı",
        -10.102220227704988
      ],
      [
        "▁rolu",
        -10.102298605108054
      ],
      [
        "▁getiriyor",
        -10.102432433815991
      ],
      [
        "▁nadir",
        -10.102517116144103
      ],
      [
        "▁sozler",
        -10.102578679106117
      ],
      [
        "▁serin",
        -10.103106990494188
      ],
      [
        "▁memleket",
        -10.10361712540946
      ],
      [
        "▁birbirlerin",
        -10.10370393488212
      ],
      [
        "▁ofke",
        -10.103805108416658
      ],
      [
        "▁ihale",
        -10.104258216724032
      ],
      [
        "▁soylemek",
        -10.105370249063089
      ],
      [
        "▁kanat",
        -10.105602220074037
      ],
      [
        "mıslar",
        -10.105611909294101
      ],
      [
        "▁bitki",
        -10.10583535753565
      ],
      [
        "▁edecegini",
        -10.105870493075194
      ],
      [
        "▁hayatını",
        -10.106014379742767
      ],
      [
        "▁olabilecegini",
        -10.10623701808489
      ],
      [
        "umuz",
        -10.10673976818709
      ],
      [
        "▁beye",
        -10.106749493273858
      ],
      [
        "▁va",
        -10.107189755278773
      ],
      [
        "▁gidecek",
        -10.107722969005467
      ],
      [
        "▁yapması",
        -10.10785304287873
      ],
      [
        "▁artısı",
        -10.107897066443524
      ],
      [
        "cek",
        -10.108052157833752
      ],
      [
        "▁ho",
        -10.108078105923747
      ],
      [
        "▁takımı",
        -10.10857069279874
      ],
      [
        "▁hukumeti",
        -10.109099155899742
      ],
      [
        "▁topla",
        -10.109713868046475
      ],
      [
        "▁alındı",
        -10.109762403991624
      ],
      [
        "hane",
        -10.11025523201782
      ],
      [
        "▁calısıyordu",
        -10.110804580691628
      ],
      [
        "'s",
        -10.111098433141485
      ],
      [
        "▁ihracı",
        -10.111131002168971
      ],
      [
        "▁gordugu",
        -10.111841244393508
      ],
      [
        "teki",
        -10.112069266740834
      ],
      [
        "▁ihrac",
        -10.112712349945118
      ],
      [
        "▁memur",
        -10.112781778581027
      ],
      [
        "▁tarihli",
        -10.11292371909277
      ],
      [
        "▁havayollarında",
        -10.113929512489356
      ],
      [
        "▁sezon",
        -10.113977595437312
      ],
      [
        "▁gozlu",
        -10.115966501293752
      ],
      [
        "if",
        -10.116569344971499
      ],
      [
        "▁yatırımcıların",
        -10.117060713013437
      ],
      [
        "▁politik",
        -10.117660629187778
      ],
      [
        "▁perakende",
        -10.117927653940594
      ],
      [
        "ılması",
        -10.118026887841676
      ],
      [
        "▁iliskileri",
        -10.118233271951393
      ],
      [
        ".9",
        -10.118461730174412
      ],
      [
        "west",
        -10.118858463514762
      ],
      [
        "▁suyun",
        -10.120691094989041
      ],
      [
        "▁istedim",
        -10.121480146152546
      ],
      [
        "▁hanimla",
        -10.12156299520131
      ],
      [
        "▁sp",
        -10.12159370532832
      ],
      [
        "▁yasadı",
        -10.12280657159377
      ],
      [
        "cıları",
        -10.122904336250397
      ],
      [
        "▁twa",
        -10.122963512339048
      ],
      [
        "▁arkadası",
        -10.12323501943657
      ],
      [
        "▁sıkıntı",
        -10.123238429626692
      ],
      [
        "eyim",
        -10.123277603318352
      ],
      [
        "▁damla",
        -10.123300045350113
      ],
      [
        "▁yazdı",
        -10.124376785771519
      ],
      [
        "▁fayda",
        -10.124538865841265
      ],
      [
        "▁katılma",
        -10.12470274625654
      ],
      [
        "▁iliskiler",
        -10.124955843431763
      ],
      [
        "▁tim",
        -10.125364385360553
      ],
      [
        "▁onde",
        -10.126018368066587
      ],
      [
        "▁kardesi",
        -10.12645479212771
      ],
      [
        "▁baglantı",
        -10.126678868485229
      ],
      [
        "▁worth'da",
        -10.127175136259519
      ],
      [
        "▁kayıt",
        -10.12739695938861
      ],
      [
        "▁gorusu",
        -10.127617895620533
      ],
      [
        "▁kaygı",
        -10.127807433966474
      ],
      [
        "▁aklım",
        -10.127842645927146
      ],
      [
        "▁aslan",
        -10.128683550486972
      ],
      [
        "▁kurus",
        -10.128928571039514
      ],
      [
        "▁express",
        -10.129551925418308
      ],
      [
        "▁kıyafet",
        -10.129551974985361
      ],
      [
        "▁pembe",
        -10.129553747757326
      ],
      [
        "▁tıpkı",
        -10.129558786516766
      ],
      [
        "▁kitle",
        -10.129775212179434
      ],
      [
        "▁miami'de",
        -10.129802111638854
      ],
      [
        "▁filan",
        -10.129943638683663
      ],
      [
        "▁itibariyle",
        -10.130010000288301
      ],
      [
        "▁zeki",
        -10.13032318344725
      ],
      [
        "▁bufe",
        -10.13047414442445
      ],
      [
        "▁acik",
        -10.130499013497962
[...]
