{
  "version": "1.0",
  "truncation": null,
  "padding": null,
  "added_tokens": [
    {
      "id": 0,
      "content": "[UNK]",
      "single_word": false,
      "lstrip": false,
      "rstrip": false,
      "normalized": false,
      "special": true
    },
    {
      "id": 1,
      "content": "[PAD]",
      "single_word": false,
      "lstrip": false,
      "rstrip": false,
      "normalized": false,
      "special": true
    },
    {
      "id": 2,
      "content": "[CLS]",
      "single_word": false,
      "lstrip": false,
      "rstrip": false,
      "normalized": false,
      "special": true
    },
    {
      "id": 3,
      "content": "[SEP]",
      "single_word": false,
      "lstrip": false,
      "rstrip": false,
      "normalized": false,
      "special": true
    },
    {
      "id": 4,
      "content": "[MASK]",
      "single_word": false,
      "lstrip": false,
      "rstrip": false,
      "normalized": false,
      "special": true
    }
  ],
  "normalizer": {
    "type": "Sequence",
    "normalizers": [
      {
        "type": "NFD"
      },
      {
        "type": "Lowercase"
      },
      {
        "type": "StripAccents"
      }
    ]
  },
  "pre_tokenizer": {
    "type": "Sequence",
    "pretokenizers": [
      {
        "type": "Metaspace",
        "replacement": "▁",
        "prepend_scheme": "always",
        "split": true
      }
    ]
  },
  "post_processor": {
    "type": "TemplateProcessing",
    "single": [
      {
        "SpecialToken": {
          "id": "[CLS]",
          "type_id": 0
        }
      },
      {
        "Sequence": {
          "id": "A",
          "type_id": 0
        }
      },
      {
        "SpecialToken": {
          "id": "[SEP]",
          "type_id": 0
        }
      }
    ],
    "pair": [
      {
        "SpecialToken": {
          "id": "[CLS]",
          "type_id": 0
        }
      },
      {
        "Sequence": {
          "id": "A",
          "type_id": 0
        }
      },
      {
        "SpecialToken": {
          "id": "[SEP]",
          "type_id": 0
        }
      },
      {
        "Sequence": {
          "id": "B",
          "type_id": 1
        }
      },
      {
        "SpecialToken": {
          "id": "[SEP]",
          "type_id": 1
        }
      }
    ],
    "special_tokens": {
      "[CLS]": {
        "id": "[CLS]",
        "ids": [
          2
        ],
        "tokens": [
          "[CLS]"
        ]
      },
      "[SEP]": {
        "id": "[SEP]",
        "ids": [
          3
        ],
        "tokens": [
          "[SEP]"
        ]
      }
    }
  },
  "decoder": {
    "type": "Metaspace",
    "replacement": "▁",
    "prepend_scheme": "always",
    "split": true
  },
  "model": {
    "type": "WordPiece",
    "unk_token": "[UNK]",
    "continuing_subword_prefix": "##",
    "max_input_chars_per_word": 100,
    "vocab": {
      "[UNK]": 0,
      "[PAD]": 1,
      "[CLS]": 2,
      "[SEP]": 3,
      "[MASK]": 4,
      "!": 5,
      "\"": 6,
      "#": 7,
      "$": 8,
      "%": 9,
      "&": 10,
      "'": 11,
      "(": 12,
      ")": 13,
      "*": 14,
      "+": 15,
      ",": 16,
      "-": 17,
      ".": 18,
      "/": 19,
      "0": 20,
      "1": 21,
      "2": 22,
      "3": 23,
      "4": 24,
      "5": 25,
      "6": 26,
      "7": 27,
      "8": 28,
      "9": 29,
      ":": 30,
      ";": 31,
      "=": 32,
      ">": 33,
      "?": 34,
      "@": 35,
      "\\": 36,
      "_": 37,
      "`": 38,
      "a": 39,
      "b": 40,
      "c": 41,
      "d": 42,
      "e": 43,
      "f": 44,
      "g": 45,
      "h": 46,
      "i": 47,
      "j": 48,
      "k": 49,
      "l": 50,
      "m": 51,
      "n": 52,
      "o": 53,
      "p": 54,
      "q": 55,
      "r": 56,
      "s": 57,
      "t": 58,
      "u": 59,
      "v": 60,
      "w": 61,
      "x": 62,
      "y": 63,
      "z": 64,
      "|": 65,
      "°": 66,
      "ı": 67,
      "​": 68,
      "–": 69,
      "—": 70,
      "‘": 71,
      "’": 72,
      "“": 73,
      "”": 74,
      "…": 75,
      "▁": 76,
      "■": 77,
      "##k": 78,
      "##a": 79,
      "##r": 80,
      "##s": 81,
      "##ı": 82,
      "##l": 83,
      "##n": 84,
      "##u": 85,
      "##f": 86,
      "##t": 87,
      "##o": 88,
      "##g": 89,
      "##e": 90,
      "##i": 91,
      "##d": 92,
      "##c": 93,
      "##m": 94,
      "##z": 95,
      "##h": 96,
      "##'": 97,
      "##y": 98,
      "##p": 99,
      "##v": 100,
      "##1": 101,
      "##0": 102,
      "##8": 103,
      "##7": 104,
      "##3": 105,
      "##.": 106,
      "##6": 107,
      "##4": 108,
      "##b": 109,
      "##w": 110,
      "##5": 111,
      "##2": 112,
      "##9": 113,
      "##\\": 114,
      "##/": 115,
      "##j": 116,
      "##x": 117,
      "##\"": 118,
      "##-": 119,
      "##%": 120,
      "##:": 121,
      "##$": 122,
      "##&": 123,
      "##—": 124,
      "##,": 125,
      "##q": 126,
      "##`": 127,
      "##|": 128,
      "##’": 129,
      "##?": 130,
      "##)": 131,
      "##…": 132,
      "##‘": 133,
      "##​": 134,
      "##_": 135,
      "##>": 136,
      "##(": 137,
      "##!": 138,
      "##■": 139,
      "##@": 140,
      "##“": 141,
      "##+": 142,
      "##°": 143,
      "##”": 144,
      "##*": 145,
      "##–": 146,
      "###": 147,
      "##;": 148,
      "##=": 149,
      "##ar": 150,
      "▁b": 151,
      "▁.": 152,
      "##er": 153,
      "##an": 154,
      "##in": 155,
      "▁k": 156,
      "▁s": 157,
      "▁d": 158,
      "##en": 159,
      "##ir": 160,
      "▁g": 161,
      "▁o": 162,
      "▁y": 163,
      "##il": 164,
      "##ın": 165,
      "##al": 166,
      "##as": 167,
      "▁,": 168,
      "##or": 169,
      "##un": 170,
      "##lar": 171,
      "##ak": 172,
      "##el": 173,
      "##di": 174,
      "▁t": 175,
      "##is": 176,
      "▁h": 177,
      "▁c": 178,
      "##iy": 179,
      "##ek": 180,
      "##et": 181,
      "▁bir": 182,
      "##ay": 183,
      "##on": 184,
      "▁m": 185,
      "##es": 186,
      "▁v": 187,
      "##am": 188,
      "##ur": 189,
      "##us": 190,
      "##at": 191,
      "##ler": 192,
      "##em": 193,
      "##im": 194,
      "##ad": 195,
      "▁p": 196,
      "▁u": 197,
      "##um": 198,
      "##iz": 199,
      "##ik": 200,
      "##ır": 201,
      "▁ol": 202,
      "##ey": 203,
      "##da": 204,
      "▁bu": 205,
      "##ıs": 206,
      "##de": 207,
      "##ic": 208,
      "##az": 209,
      "##uz": 210,
      "##ık": 211,
      "##uk": 212,
      "##ac": 213,
      "▁de": 214,
      "##ok": 215,
      "##ah": 216,
      "##den": 217,
      "▁ve": 218,
      "▁f": 219,
      "##le": 220,
      "##ıl": 221,
      "##yor": 222,
      "##du": 223,
      "##ım": 224,
      "##ec": 225,
      "##it": 226,
      "▁n": 227,
      "##dan": 228,
      "##ap": 229,
      "##ul": 230,
      "##ag": 231,
      "##ab": 232,
      "##ol": 233,
      "##ist": 234,
      "▁uc": 235,
      "▁e": 236,
      "##ını": 237,
      "▁il": 238,
      "▁ic": 239,
      "##ları": 240,
      "▁al": 241,
      "▁ar": 242,
      "##ini": 243,
      "##iyor": 244,
      "##os": 245,
      "▁on": 246,
      "##av": 247,
      "##li": 248,
      "▁cok": 249,
      "##dı": 250,
      "▁r": 251,
      "##lan": 252,
      "▁an": 253,
      "▁icin": 254,
      "##gil": 255,
      "##la": 256,
      "##oy": 257,
      "##ında": 258,
      "▁kal": 259,
      "▁bas": 260,
      "##ine": 261,
      "##ız": 262,
      "▁\"": 263,
      "##lı": 264,
      "##gi": 265,
      "▁gor": 266,
      "##tı": 267,
      "##ası": 268,
      "##lu": 269,
      "##unu": 270,
      "▁kar": 271,
      "▁ucus": 272,
      "##ti": 273,
      "▁z": 274,
      "▁1": 275,
      "##leri": 276,
      "▁yap": 277,
      "▁son": 278,
      "##eler": 279,
      "▁ne": 280,
      "##ta": 281,
      "▁is": 282,
      "▁iy": 283,
      "##tu": 284,
      "▁gel": 285,
      "▁var": 286,
      "##alar": 287,
      "##ların": 288,
      "▁gi": 289,
      "▁ay": 290,
      "▁in": 291,
      "▁et": 292,
      "▁ver": 293,
      "##ev": 294,
      "##af": 295,
      "##iler": 296,
      "▁ist": 297,
      "##dir": 298,
      "##ost": 299,
      "##las": 300,
      "▁bil": 301,
      "##esi": 302,
      "##ıyor": 303,
      "##og": 304,
      "##ya": 305,
      "▁en": 306,
      "▁da": 307,
      "▁kon": 308,
      "##ut": 309,
      "##me": 310,
      "##ce": 311,
      "##inde": 312,
      "##uzel": 313,
      "##mak": 314,
      "##oz": 315,
      "##ına": 316,
      "##ers": 317,
      "▁or": 318,
      "##uc": 319,
      "##adı": 320,
      "▁guzel": 321,
      "▁l": 322,
      "▁dah": 323,
      "##ma": 324,
      "▁her": 325,
      "▁am": 326,
      "▁dus": 327,
      "▁ben": 328,
      "▁gec": 329,
      "##tan": 330,
      "▁kad": 331,
      "##dim": 332,
      "▁daha": 333,
      "▁degil": 334,
      "##inin": 335,
      "##lam": 336,
      "##yon": 337,
      "##aya": 338,
      "▁uz": 339,
      "▁den": 340,
      "##iydi": 341,
      "##lik": 342,
      "##ez": 343,
      "##mıs": 344,
      "##ust": 345,
      "##bi": 346,
      "▁i": 347,
      "▁ac": 348,
      "▁san": 349,
      "▁ile": 350,
      "##'dan": 351,
      "##iye": 352,
      "▁oldu": 353,
      "▁olan": 354,
      "##gı": 355,
      "##te": 356,
      "##larak": 357,
      "▁mil": 358,
      "▁soy": 359,
      "##uyor": 360,
      "▁at": 361,
      "##mek": 362,
      "▁ak": 363,
      "##ca": 364,
      "##acak": 365,
      "▁ot": 366,
      "▁olarak": 367,
      "▁el": 368,
      "##ra": 369,
      "▁ger": 370,
      "##dır": 371,
      "##ana": 372,
      "▁ken": 373,
      "▁gun": 374,
      "##'n": 375,
      "##lık": 376,
      "▁ko": 377,
      "▁tem": 378,
      "▁olm": 379,
      "##len": 380,
      "▁cık": 381,
      "▁ik": 382,
      "##gun": 383,
      "##eye": 384,
      "##mis": 385,
      "▁tes": 386,
      "##ayı": 387,
      "▁gibi": 388,
      "##emek": 389,
      "##uy": 390,
      "▁ed": 391,
      "▁iyi": 392,
      "##ilir": 393,
      "▁yıl": 394,
      "##alı": 395,
      "##eg": 396,
      "##ip": 397,
      "##inden": 398,
      "▁sey": 399,
      "##met": 400,
      "▁kur": 401,
      "##oster": 402,
      "▁par": 403,
      "▁goster": 404,
      "##ından": 405,
      "▁yer": 406,
      "▁ki": 407,
      "▁ad": 408,
      "##iyorum": 409,
      "##'a": 410,
      "▁yar": 411,
      "##onel": 412,
      "##se": 413,
      "##dik": 414,
      "##isi": 415,
      "▁sonra": 416,
      "##larını": 417,
      "▁yas": 418,
      "##man": 419,
      "##ecek": 420,
      "▁tar": 421,
      "##aki": 422,
      "▁do": 423,
      "##eni": 424,
      "▁kadar": 425,
      "▁tur": 426,
      "▁as": 427,
      "##ının": 428,
      "##tır": 429,
      "##cı": 430,
      "▁mem": 431,
      "▁co": 432,
      "▁yok": 433,
      "▁pers": 434,
      "▁kap": 435,
      "▁tek": 436,
      "▁hav": 437,
      "▁2": 438,
      "▁gen": 439,
      "▁bay": 440,
      "##ran": 441,
      "▁?": 442,
      "▁a": 443,
      "##'ya": 444,
      "##iyat": 445,
      "##'den": 446,
      "▁han": 447,
      "##dig": 448,
      "▁uy": 449,
      "##gu": 450,
      "▁bul": 451,
      "##erk": 452,
      "▁ev": 453,
      "▁ilgil": 454,
      "▁guzeldi": 455,
      "##lem": 456,
      "##ep": 457,
      "##ig": 458,
      "▁yan": 459,
      "▁don": 460,
      "▁hal": 461,
      "▁es": 462,
      "▁buy": 463,
      "##op": 464,
      "▁bey": 465,
      "▁sur": 466,
      "▁cal": 467,
      "▁yuk": 468,
      "##ten": 469,
      "▁dur": 470,
      "##ed": 471,
      "▁bana": 472,
      "##ada": 473,
      "▁su": 474,
      "##eki": 475,
      "##eb": 476,
      "▁kars": 477,
      "##if": 478,
      "▁ama": 479,
      "##aman": 480,
      "▁personel": 481,
      "▁bak": 482,
      "##kan": 483,
      "##nun": 484,
      "▁sen": 485,
      "##ret": 486,
      "▁oy": 487,
      "▁sat": 488,
      "▁yuz": 489,
      "##ci": 490,
      "▁mu": 491,
      "▁deg": 492,
      "▁yak": 493,
      "##ver": 494,
      "##00": 495,
      "▁memnun": 496,
      "▁his": 497,
      "##san": 498,
      "▁temiz": 499,
      "##daki": 500,
      "▁ucusları": 501,
      "▁ag": 502,
      "▁bel": 503,
      "##ket": 504,
      "▁ek": 505,
      "##cak": 506,
      "▁hiz": 507,
      "##ıy": 508,
      "▁boy": 509,
      "▁iyiydi": 510,
      "##tir": 511,
      "▁biz": 512,
      "▁kul": 513,
      "▁hizmet": 514,
      "▁yemek": 515,
      "▁zaman": 516,
      "▁iki": 517,
      "##eli": 518,
      "##eri": 519,
      "##imiz": 520,
      "▁fiyat": 521,
      "##ki": 522,
      "▁aras": 523,
      "▁:": 524,
      "##ru": 525,
      "▁yuks": 526,
      "▁art": 527,
      "▁og": 528,
      "##diyor": 529,
      "▁soyle": 530,
      "▁bun": 531,
      "▁coc": 532,
      "▁3": 533,
      "▁dog": 534,
      "##dur": 535,
      "##lara": 536,
      "##sa": 537,
      "##sam": 538,
      "▁buyuk": 539,
      "##ye": 540,
      "▁sir": 541,
      "##lerini": 542,
      "▁degildi": 543,
      "▁od": 544,
      "▁hic": 545,
      "▁%": 546,
      "##lerin": 547,
      "▁top": 548,
      "▁yeni": 549,
      "▁dev": 550,
      "▁goz": 551,
      "##mus": 552,
      "▁sor": 553,
      "▁uzer": 554,
      "▁fran": 555,
      "##eh": 556,
      "##'e": 557,
      "▁yet": 558,
      "▁az": 559,
      "##les": 560,
      "##edi": 561,
      "##iyet": 562,
      "▁sa": 563,
      "▁tum": 564,
      "##ot": 565,
      "##agı": 566,
      "##om": 567,
      "▁-": 568,
      "##ısı": 569,
      "▁ser": 570,
      "##ladı": 571,
      "▁bost": 572,
      "▁sirket": 573,
      "▁'": 574,
      "##arak": 575,
      "▁dol": 576,
      "▁boston": 577,
      "▁sev": 578,
      "▁kay": 579,
      "##gunu": 580,
      "▁har": 581,
      "▁dal": 582,
      "▁insan": 583,
      "▁ort": 584,
      "▁sah": 585,
      "▁w": 586,
      "##abilir": 587,
      "▁hak": 588,
      "##isti": 589,
      "##ayan": 590,
      "▁yol": 591,
      "▁cocuk": 592,
      "##co": 593,
      "▁milyon": 594,
      "▁onun": 595,
      "▁oz": 596,
      "▁hay": 597,
      "▁yon": 598,
      "##iyle": 599,
      "▁yaz": 600,
      "▁otel": 601,
      "▁kat": 602,
      "▁sek": 603,
      "##tim": 604,
      "##gını": 605,
      "▁gu": 606,
      "##ıp": 607,
      "##ih": 608,
      "▁calıs": 609,
      "##'da": 610,
      "▁denver": 611,
      "##dis": 612,
      "▁ces": 613,
      "##let": 614,
      "##usu": 615,
      "▁j": 616,
      "##cis": 617,
      "▁bur": 618,
      "##ark": 619,
      "##unda": 620,
      "##bir": 621,
      "##mas": 622,
      "##adan": 623,
      "▁ih": 624,
      "##'in": 625,
      "##ece": 626,
      "▁der": 627,
      "##umu": 628,
      "▁ucret": 629,
      "##cek": 630,
      "##luk": 631,
      "▁bal": 632,
      "▁cek": 633,
      "▁sab": 634,
      "▁once": 635,
      "##bur": 636,
      "##cisco": 637,
      "▁yat": 638,
      "##imi": 639,
      "▁francisco": 640,
      "▁dun": 641,
      "▁tah": 642,
      "##'ye": 643,
      "▁istiyorum": 644,
      "▁gir": 645,
      "##art": 646,
      "▁bek": 647,
      "▁pu": 648,
      "▁le": 649,
      "▁ancak": 650,
      "▁kaz": 651,
      "▁5": 652,
      "##erek": 653,
      "▁19": 654,
      "▁pr": 655,
      "▁faz": 656,
      "##ef": 657,
      "##deki": 658,
      "##maya": 659,
      "##uldu": 660,
      "▁gore": 661,
      "▁baz": 662,
      "▁soz": 663,
      "##ort": 664,
      "▁deniz": 665,
      "▁kuc": 666,
      "▁ayr": 667,
      "▁tut": 668,
      "▁soyledi": 669,
      "▁kes": 670,
      "▁tam": 671,
      "▁ediyor": 672,
      "▁konus": 673,
      "▁..": 674,
      "▁gorus": 675,
      "##cu": 676,
      "▁dolar": 677,
      "##asyon": 678,
      "▁turk": 679,
      "##dum": 680,
      "▁bag": 681,
      "##acag": 682,
      "##sun": 683,
      "##siz": 684,
      "▁puan": 685,
      "▁yor": 686,
      "▁cesit": 687,
      "▁sag": 688,
      "##tr": 689,
      "##ması": 690,
      "▁du": 691,
      "##tar": 692,
      "▁ok": 693,
      "▁diye": 694,
      "##eleri": 695,
      "▁ust": 696,
      "▁ilk": 697,
      "##itt": 698,
      "▁...": 699,
      "▁kullan": 700,
      "##eyi": 701,
      "##enin": 702,
      "##unun": 703,
      "▁!": 704,
      "##ka": 705,
      "▁kan": 706,
      "##ama": 707,
      "▁4": 708,
      "▁hem": 709,
      "##arı": 710,
      "▁biraz": 711,
      "##dım": 712,
      "▁but": 713,
      "▁kor": 714,
      "▁etti": 715,
      "##ilm": 716,
      "##anın": 717,
      "▁dedi": 718,
      "▁alt": 719,
      "▁taraf": 720,
      "##'tan": 721,
      "▁car": 722,
      "##ılı": 723,
      "##ph": 724,
      "▁atlan": 725,
      "▁saat": 726,
      "##ing": 727,
      "▁duy": 728,
      "▁kız": 729,
      "▁tav": 730,
      "##sız": 731,
      "▁amer": 732,
      "▁ur": 733,
      "##lat": 734,
      "▁icinde": 735,
      "▁''": 736,
      "##iyas": 737,
      "##aları": 738,
      "▁atlanta": 739,
      "▁kucuk": 740,
      "▁sal": 741,
      "▁gerek": 742,
      "▁ph": 743,
      "##larının": 744,
      "▁koy": 745,
      "##iniz": 746,
      "##burg": 747,
      "##zet": 748,
      "▁tan": 749,
      "▁sim": 750,
      "▁ucuslar": 751,
      "▁hisse": 752,
      "▁tas": 753,
      "▁adam": 754,
      "▁sabah": 755,
      "##etir": 756,
      "##ımız": 757,
      "▁acık": 758,
      "▁genel": 759,
      "##ildi": 760,
      "▁oldugunu": 761,
      "##duk": 762,
      "##est": 763,
      "##eceg": 764,
      "▁lez": 765,
      "▁bor": 766,
      "▁getir": 767,
      "▁kim": 768,
      "▁list": 769,
      "▁hep": 770,
      "▁fazla": 771,
      "##'de": 772,
      "▁tesis": 773,
      "▁erk": 774,
      "▁kazan": 775,
      "▁kol": 776,
      "▁haz": 777,
      "▁kalit": 778,
      "##ındaki": 779,
      "##eme": 780,
      "##ılan": 781,
      "##ley": 782,
      "##istir": 783,
      "▁has": 784,
      "▁git": 785,
      "▁er": 786,
      "▁lezzet": 787,
      "▁eder": 788,
      "##'ın": 789,
      "▁kıs": 790,
      "##esini": 791,
      "▁butun": 792,
      "##ia": 793,
      "▁tak": 794,
      "▁hangi": 795,
      "▁cum": 796,
      "▁ab": 797,
      "▁ail": 798,
      "▁kab": 799,
      "##ilen": 800,
      "##up": 801,
      "▁sır": 802,
      "▁dallas": 803,
      "▁bazı": 804,
      "▁haf": 805,
      "▁gunu": 806,
      "▁`": 807,
      "▁paz": 808,
      "▁cıkar": 809,
      "▁say": 810,
      "▁pitt": 811,
      "▁muh": 812,
      "▁pitts": 813,
      "▁kır": 814,
      "▁arasında": 815,
      "▁bile": 816,
      "▁av": 817,
      "▁eg": 818,
      "▁mal": 819,
      "##burgh": 820,
      "##adel": 821,
      "▁aksam": 822,
      "##ken": 823,
      "▁pittsburgh": 824,
      "##lay": 825,
      "▁ark": 826,
      "▁ter": 827,
      "##ıldı": 828,
      "##ımı": 829,
      "##ede": 830,
      "▁etm": 831,
      "##ileri": 832,
      "▁hat": 833,
      "▁yuksel": 834,
      "▁;": 835,
      "▁cev": 836,
      "▁``": 837,
      "▁yur": 838,
      "##iyordu": 839,
      "##'nin": 840,
      "##ton": 841,
      "##der": 842,
      "##ligi": 843,
      "▁gercek": 844,
      "▁yal": 845,
      "▁bulun": 846,
      "▁ayn": 847,
      "##yar": 848,
      "##esine": 849,
      "##ku": 850,
      "##larda": 851,
      "▁bol": 852,
      "▁dusun": 853,
      "▁dav": 854,
      "##ayol": 855,
      "##ob": 856,
      "##ib": 857,
      "▁tel": 858,
      "▁sad": 859,
      "▁hiss": 860,
      "▁/": 861,
      "▁boyle": 862,
      "##ore": 863,
      "▁ul": 864,
      "▁neden": 865,
      "▁piyas": 866,
      "▁milyar": 867,
      "##digim": 868,
      "▁ulas": 869,
      "##ırım": 870,
      "##acı": 871,
      "▁new": 872,
      "▁yoktu": 873,
      "▁im": 874,
      "##diler": 875,
      "▁ilgilen": 876,
      "##aret": 877,
      "##digi": 878,
      "##lere": 879,
      "▁belir": 880,
      "##si": 881,
      "▁ban": 882,
      "▁mi": 883,
      "▁phil": 884,
      "##alık": 885,
      "▁simdi": 886,
      "▁listel": 887,
      "##ram": 888,
      "##yla": 889,
      "▁dig": 890,
      "▁iht": 891,
      "▁kendi": 892,
      "▁amerik": 893,
      "##han": 894,
      "▁it": 895,
      "##anı": 896,
      "▁sık": 897,
      "##re": 898,
      "▁dok": 899,
      "##lig": 900,
      "▁ilgili": 901,
      "▁7": 902,
      "▁olur": 903,
      "##larına": 904,
      "##'nın": 905,
      "▁boston'dan": 906,
      "▁sav": 907,
      "▁duz": 908,
      "▁mı": 909,
      "##ili": 910,
      "▁kadın": 911,
      "▁karsı": 912,
      "▁kos": 913,
      "##asını": 914,
      "##timore": 915,
      "▁baltimore": 916,
      "▁gorusuldu": 917,
      "##'un": 918,
      "##ırak": 919,
      "##men": 920,
      "##likle": 921,
      "##ustur": 922,
      "▁yonet": 923,
      "##phia": 924,
      "##ren": 925,
      "▁sak": 926,
      "▁merk": 927,
      "##adelphia": 928,
      "▁philadelphia": 929,
      "##gın": 930,
      "▁sar": 931,
      "▁uzun": 932,
      "##ilik": 933,
      "##mez": 934,
      "▁ya": 935,
      "▁deger": 936,
      "▁yuksek": 937,
      "▁gelir": 938,
      "▁yemekler": 939,
      "▁hakk": 940,
      "▁un": 941,
      "##maz": 942,
      "##lerine": 943,
      "##enk": 944,
      "##lardan": 945,
      "▁diger": 946,
      "▁kac": 947,
      "▁dogru": 948,
      "▁ozel": 949,
      "##una": 950,
      "▁can": 951,
      "▁bırak": 952,
      "▁tavs": 953,
      "▁nas": 954,
      "▁tat": 955,
      "##abil": 956,
      "▁otur": 957,
      "▁kr": 958,
      "##ulu": 959,
      "▁10": 960,
      "▁guler": 961,
      "▁mah": 962,
      "▁bah": 963,
      "▁zor": 964,
      "▁sec": 965,
      "▁dem": 966,
      "##elik": 967,
      "▁konumu": 968,
      "▁ch": 969,
      "▁merkez": 970,
      "▁siz": 971,
      "▁islem": 972,
      "▁iz": 973,
      "##ıyordu": 974,
      "▁bes": 975,
      "▁kas": 976,
      "▁benim": 977,
      "▁man": 978,
      "▁(": 979,
      "##fen": 980,
      "##ter": 981,
      "##tık": 982,
      "▁tavsiye": 983,
      "▁bin": 984,
      "##lerinin": 985,
      "##mam": 986,
      "▁kah": 987,
      "▁sadece": 988,
      "##umuz": 989,
      "▁francisco'ya": 990,
      "▁ihtiy": 991,
      "▁6": 992,
      "##meye": 993,
      "##asında": 994,
      "##ayet": 995,
      "▁)": 996,
      "##tor": 997,
      "▁bab": 998,
      "▁baskan": 999,
      "##isk": 1000,
      "▁satıs": 1001,
      "##unuyor": 1002,
      "▁oldugu": 1003,
      "▁lu": 1004,
      "##inc": 1005,
      "▁plan": 1006,
      "▁mus": 1007,
      "##id": 1008,
      "▁ede": 1009,
      "▁ise": 1010,
      "▁hanim": 1011,
      "▁kotu": 1012,
      "##madim": 1013,
      "##asına": 1014,
      "##vil": 1015,
      "▁kıy": 1016,
      "▁guc": 1017,
      "##ahat": 1018,
      "▁mas": 1019,
      "▁pek": 1020,
      "##ba": 1021,
      "▁mes": 1022,
      "▁huk": 1023,
      "▁mis": 1024,
      "##suz": 1025,
      "##eket": 1026,
      "▁havuz": 1027,
      "▁yatırım": 1028,
      "▁ses": 1029,
      "▁dik": 1030,
      "▁uygun": 1031,
      "##lerde": 1032,
      "▁yaklas": 1033,
      "##tik": 1034,
      "▁baska": 1035,
      "▁degis": 1036,
      "▁artık": 1037,
      "##madı": 1038,
      "##alan": 1039,
      "##esinde": 1040,
      "▁vey": 1041,
      "▁hicbir": 1042,
      "▁tarafından": 1043,
      "##ans": 1044,
      "▁tab": 1045,
      "##adır": 1046,
      "▁onu": 1047,
      "▁geldi": 1048,
      "▁sekil": 1049,
      "▁ayrı": 1050,
      "##digini": 1051,
      "▁em": 1052,
      "##land": 1053,
      "▁us": 1054,
      "▁kalk": 1055,
      "▁mut": 1056,
      "##eyin": 1057,
      "##ington": 1058,
      "▁veya": 1059,
      "▁mer": 1060,
      "▁per": 1061,
      "▁bit": 1062,
      "▁nedir": 1063,
      "##lıgı": 1064,
      "▁seh": 1065,
      "##tım": 1066,
      "▁aldı": 1067,
      "▁havayol": 1068,
      "##var": 1069,
      "▁olabilir": 1070,
      "▁anlam": 1071,
      "▁yay": 1072,
      "##larında": 1073,
      "##lerden": 1074,
      "##raf": 1075,
      "##ga": 1076,
      "##ici": 1077,
      "▁sahip": 1078,
      "##ash": 1079,
      "▁onem": 1080,
      "▁beni": 1081,
      "▁hayat": 1082,
      "##mayı": 1083,
      "▁wash": 1084,
      "▁kis": 1085,
      "##lardı": 1086,
      "▁washington": 1087,
      "▁aynı": 1088,
      "▁kam": 1089,
      "▁mev": 1090,
      "##nız": 1091,
      "##may": 1092,
      "##lendir": 1093,
      "▁eski": 1094,
      "##medi": 1095,
      "▁dıs": 1096,
      "##aber": 1097,
      "##malar": 1098,
      "##yuz": 1099,
      "##ılık": 1100,
      "##ılmıs": 1101,
      "▁ustun": 1102,
      "▁amerikan": 1103,
      "##'ten": 1104,
      "##for": 1105,
      "▁yalnız": 1106,
      "##kes": 1107,
      "##ydu": 1108,
      "▁kaldik": 1109,
      "▁iste": 1110,
      "▁sok": 1111,
      "##kac": 1112,
      "##gis": 1113,
      "▁bugun": 1114,
      "▁karar": 1115,
      "▁istem": 1116,
      "▁tesisti": 1117,
      "▁fa": 1118,
      "▁ann": 1119,
      "▁anlat": 1120,
      "##artesi": 1121,
      "▁sekilde": 1122,
      "▁st": 1123,
      "▁durum": 1124,
      "▁bar": 1125,
      "▁sı": 1126,
      "##ınız": 1127,
      "##lak": 1128,
      "▁yardım": 1129,
      "▁dir": 1130,
      "##ent": 1131,
      "▁gaz": 1132,
      "▁fak": 1133,
      "▁uret": 1134,
      "##mem": 1135,
      "▁gelen": 1136,
      "▁ku": 1137,
      "▁tarih": 1138,
      "▁donus": 1139,
      "▁erken": 1140,
      "▁8": 1141,
      "##lerinde": 1142,
      "▁inc": 1143,
      "▁biri": 1144,
      "▁yaptı": 1145,
      "▁vardı": 1146,
      "▁gecen": 1147,
      "##larla": 1148,
      "▁arkad": 1149,
      "▁oda": 1150,
      "▁kendis": 1151,
      "▁dil": 1152,
      "▁denver'den": 1153,
      "▁york": 1154,
      "##ebilir": 1155,
      "▁fark": 1156,
      "##lıyor": 1157,
      "▁para": 1158,
      "##dık": 1159,
      "▁devam": 1160,
      "##inci": 1161,
      "##lif": 1162,
      "▁herkes": 1163,
      "▁ogle": 1164,
      "##ara": 1165,
      "▁so": 1166,
      "▁diyor": 1167,
      "▁aktar": 1168,
      "##egen": 1169,
      "##ıyla": 1170,
      "▁pol": 1171,
      "▁olacak": 1172,
      "▁din": 1173,
      "▁bizim": 1174,
      "▁hareket": 1175,
      "##ri": 1176,
      "##lari": 1177,
      "##ven": 1178,
      "▁cog": 1179,
      "##be": 1180,
      "▁basladı": 1181,
      "##per": 1182,
      "##atı": 1183,
      "▁kend": 1184,
      "##gin": 1185,
      "##tur": 1186,
      "▁mak": 1187,
      "▁giden": 1188,
      "▁ederim": 1189,
      "##rar": 1190,
      "▁gorun": 1191,
      "▁ıs": 1192,
      "▁kom": 1193,
      "▁kus": 1194,
      "▁kaldim": 1195,
      "▁pazar": 1196,
      "▁hazır": 1197,
      "▁lut": 1198,
      "▁birkac": 1199,
      "▁genc": 1200,
      "##luyor": 1201,
      "▁bunun": 1202,
      "##mesi": 1203,
      "##uyordu": 1204,
      "##sel": 1205,
      "▁di": 1206,
      "▁ug": 1207,
      "##ucu": 1208,
      "▁kop": 1209,
      "▁sorun": 1210,
      "▁ona": 1211,
      "▁geri": 1212,
      "▁hemen": 1213,
      "##gel": 1214,
      "##.5": 1215,
      "▁duny": 1216,
      "##dar": 1217,
      "##bet": 1218,
      "▁kit": 1219,
      "▁res": 1220,
      "▁ey": 1221,
      "▁yine": 1222,
      "▁birc": 1223,
      "▁end": 1224,
      "▁198": 1225,
      "▁ask": 1226,
      "▁serv": 1227,
      "▁olmak": 1228,
      "▁ihtiyac": 1229,
      "▁teklif": 1230,
      "▁abd": 1231,
      "##acagını": 1232,
      "▁nasıl": 1233,
      "##ciler": 1234,
      "▁kahv": 1235,
      "▁lutfen": 1236,
      "▁tu": 1237,
      "▁fir": 1238,
      "▁gecir": 1239,
      "▁yen": 1240,
      "▁ucuz": 1241,
      "▁cor": 1242,
      "##ayi": 1243,
      "▁vur": 1244,
      "▁icer": 1245,
      "▁ayak": 1246,
      "▁ayrıca": 1247,
      "▁gon": 1248,
      "▁kalkan": 1249,
      "▁ucusu": 1250,
      "▁ilgiliydi": 1251,
      "▁tamam": 1252,
      "##det": 1253,
      "▁begen": 1254,
      "▁um": 1255,
      "▁gul": 1256,
      "▁personeller": 1257,
      "▁yav": 1258,
      "##tig": 1259,
      "▁arkadas": 1260,
      "##ıt": 1261,
      "##mıstı": 1262,
      "##ro": 1263,
      "▁tahvil": 1264,
      "##malı": 1265,
      "▁bunu": 1266,
      "▁anlas": 1267,
      "▁uzerinde": 1268,
      "##eyen": 1269,
      "▁inan": 1270,
      "##fa": 1271,
      "▁onc": 1272,
      "▁etk": 1273,
      "▁bircok": 1274,
      "▁ekon": 1275,
      "▁tic": 1276,
      "##ıcı": 1277,
      "▁cıktı": 1278,
      "##sin": 1279,
      "##oj": 1280,
      "##eden": 1281,
      "▁ham": 1282,
      "▁kabul": 1283,
      "##min": 1284,
      "##anlar": 1285,
      "▁alın": 1286,
      "##mi": 1287,
      "##adım": 1288,
      "▁dusuk": 1289,
      "▁ogren": 1290,
      "▁bos": 1291,
      "##kur": 1292,
      "##ika": 1293,
      "▁etmek": 1294,
      "▁ho": 1295,
      "▁kav": 1296,
      "▁edil": 1297,
      "##rup": 1298,
      "▁cam": 1299,
      "##ont": 1300,
      "▁yemekleri": 1301,
      "▁kayn": 1302,
      "▁hukum": 1303,
      "▁arab": 1304,
      "##likte": 1305,
      "▁denizi": 1306,
      "▁rahat": 1307,
      "▁ogleden": 1308,
      "##ali": 1309,
      "##esinin": 1310,
      "##samba": 1311,
      "▁carsamba": 1312,
      "##ade": 1313,
      "##landı": 1314,
      "##gul": 1315,
      "▁kum": 1316,
      "##larından": 1317,
      "▁kapan": 1318,
      "▁hava": 1319,
      "▁duzen": 1320,
      "##amaz": 1321,
      "▁karıs": 1322,
      "▁eden": 1323,
      "▁oyle": 1324,
      "▁kir": 1325,
      "▁sin": 1326,
      "▁ucuslarını": 1327,
      "##ersiz": 1328,
      "▁yonel": 1329,
      "▁yapıl": 1330,
      "##erv": 1331,
      "##atur": 1332,
      "##'ta": 1333,
      "▁sını": 1334,
      "▁muk": 1335,
      "##ati": 1336,
      "▁yukseldi": 1337,
      "##adi": 1338,
      "##elim": 1339,
      "▁beklen": 1340,
      "##lum": 1341,
      "▁kok": 1342,
      "▁dort": 1343,
      "▁hız": 1344,
      "▁dustu": 1345,
      "##ecegini": 1346,
      "##iv": 1347,
      "▁devlet": 1348,
      "▁denver'e": 1349,
      "▁hakkında": 1350,
      "▁ir": 1351,
      "▁turkiye": 1352,
      "▁atlanta'dan": 1353,
      "▁benz": 1354,
      "▁oyun": 1355,
      "▁9": 1356,
      "##lama": 1357,
      "##lerinden": 1358,
      "▁air": 1359,
      "▁oyn": 1360,
      "##ch": 1361,
      "##ber": 1362,
      "##asi": 1363,
      "▁if": 1364,
      "▁personelleri": 1365,
      "▁ulk": 1366,
      "▁sun": 1367,
      "##adık": 1368,
      "▁alan": 1369,
      "▁uzerine": 1370,
      "▁ilgilendi": 1371,
      "▁ekonom": 1372,
      "▁fır": 1373,
      "▁1.": 1374,
      "##ıyorum": 1375,
      "##rak": 1376,
      "##ge": 1377,
      "▁gosterin": 1378,
      "▁sınıf": 1379,
      "##mel": 1380,
      "##irim": 1381,
      "▁mar": 1382,
      "##bilir": 1383,
      "▁yeter": 1384,
      "▁ilisk": 1385,
      "▁kurul": 1386,
      "▁listeleyin": 1387,
      "##ina": 1388,
      "##asının": 1389,
      "▁yasam": 1390,
      "▁donem": 1391,
      "▁arasındaki": 1392,
      "##bul": 1393,
      "##ince": 1394,
      "▁gayet": 1395,
      "▁rek": 1396,
      "▁oran": 1397,
      "▁pat": 1398,
      "##elerin": 1399,
      "▁doları": 1400,
      "▁fakat": 1401,
      "##kı": 1402,
      "##lamıs": 1403,
      "▁yaklasık": 1404,
      "▁kaf": 1405,
      "▁cag": 1406,
      "▁rez": 1407,
      "▁vardi": 1408,
      "##ayıp": 1409,
      "▁genis": 1410,
      "##elen": 1411,
      "##ekli": 1412,
      "##aydi": 1413,
      "▁pay": 1414,
      "▁olduk": 1415,
      "▁konu": 1416,
      "▁dı": 1417,
      "▁cit": 1418,
      "▁guleryuz": 1419,
      "▁sol": 1420,
      "##dugu": 1421,
      "▁kesin": 1422,
      "▁bank": 1423,
      "##gım": 1424,
      "▁birlikte": 1425,
      "▁bilgi": 1426,
      "▁gece": 1427,
      "▁artıs": 1428,
      "▁li": 1429,
      "##liyor": 1430,
      "▁ber": 1431,
      "▁basar": 1432,
      "##lul": 1433,
      "##tadır": 1434,
      "▁gorev": 1435,
      "▁12": 1436,
      "▁olmadı": 1437,
      "▁satın": 1438,
      "▁guven": 1439,
      "▁onemli": 1440,
      "##lin": 1441,
      "▁yiy": 1442,
      "▁basına": 1443,
      "##od": 1444,
      "##gum": 1445,
      "▁tor": 1446,
      "▁kalitesi": 1447,
      "▁ah": 1448,
      "▁haber": 1449,
      "##lerle": 1450,
      "▁ner": 1451,
      "▁anim": 1452,
      "▁yetk": 1453,
      "▁sonuc": 1454,
      "##wa": 1455,
      "▁se": 1456,
      "##ogram": 1457,
      "▁tesek": 1458,
      "##lestir": 1459,
      "##enkul": 1460,
      "▁guleryuzlu": 1461,
      "▁telef": 1462,
      "##cih": 1463,
      "▁pittsburgh'tan": 1464,
      "▁tesekkur": 1465,
      "##eti": 1466,
      "▁sog": 1467,
      "▁birbir": 1468,
      "▁yakın": 1469,
      "▁tercih": 1470,
      "▁telefon": 1471,
      "▁tekrar": 1472,
      "▁gidis": 1473,
      "##o'ya": 1474,
      "▁vak": 1475,
      "▁alım": 1476,
      "▁uzak": 1477,
      "▁atlanta'ya": 1478,
      "##kun": 1479,
      "##madan": 1480,
      "▁sac": 1481,
      "▁konum": 1482,
      "▁hafta": 1483,
      "▁sonr": 1484,
      "▁aileler": 1485,
      "##son": 1486,
      "##orm": 1487,
      "▁yeniden": 1488,
      "▁yonelik": 1489,
      "##sın": 1490,
      "##'y": 1491,
      "▁dar": 1492,
      "##alt": 1493,
      "▁tal": 1494,
      "##layan": 1495,
      "##misti": 1496,
      "▁yag": 1497,
      "▁yapmak": 1498,
      "▁animasyon": 1499,
      "▁agır": 1500,
      "▁baltimore'ye": 1501,
      "##sal": 1502,
      "▁oak": 1503,
      "▁pet": 1504,
      "##asıyor": 1505,
      "##tedir": 1506,
      "▁sig": 1507,
      "▁del": 1508,
      "▁must": 1509,
      "##esinden": 1510,
      "▁olmus": 1511,
      "▁program": 1512,
      "##aga": 1513,
      "▁burada": 1514,
      "▁sehir": 1515,
      "▁rezerv": 1516,
      "##rek": 1517,
      "##ne": 1518,
      "▁olum": 1519,
      "▁beyaz": 1520,
      "▁eks": 1521,
      "▁belirt": 1522,
      "▁oakland": 1523,
      "##lerdi": 1524,
      "##dıgı": 1525,
      "##uyu": 1526,
      "▁konusunda": 1527,
      "##pr": 1528,
      "##asa": 1529,
      "##ısında": 1530,
      "##ledi": 1531,
      "▁onlar": 1532,
      "##tiler": 1533,
      "##ov": 1534,
      "##cut": 1535,
      "▁sil": 1536,
      "▁mad": 1537,
      "##ice": 1538,
      "##aban": 1539,
      "▁cuma": 1540,
      "▁pazartesi": 1541,
      "▁muz": 1542,
      "▁yapılan": 1543,
      "▁mek": 1544,
      "▁veriyorum": 1545,
      "##'nun": 1546,
      "##000": 1547,
      "▁bors": 1548,
      "##kat": 1549,
      "▁gelecek": 1550,
      "▁city": 1551,
      "##miyor": 1552,
      "▁almak": 1553,
      "▁temizligi": 1554,
      "▁yorum": 1555,
      "▁cin": 1556,
      "▁cey": 1557,
      "▁boston'a": 1558,
      "##unca": 1559,
      "▁altında": 1560,
      "▁gazet": 1561,
      "▁vad": 1562,
      "##tıgı": 1563,
      "##medim": 1564,
      "▁dallas'a": 1565,
      "▁listele": 1566,
      "▁yavas": 1567,
      "##liydi": 1568,
      "▁te": 1569,
      "▁kaldır": 1570,
      "##anbul": 1571,
      "##une": 1572,
      "▁ucak": 1573,
      "▁istanbul": 1574,
      "▁mevcut": 1575,
      "##eral": 1576,
      "▁ip": 1577,
      "▁yetersiz": 1578,
      "▁dest": 1579,
      "##amak": 1580,
      "▁olsun": 1581,
      "▁anda": 1582,
      "▁ulus": 1583,
      "##0.": 1584,
      "▁salı": 1585,
      "##ime": 1586,
      "##meden": 1587,
      "▁soyluyor": 1588,
      "▁karsil": 1589,
      "▁cocuklu": 1590,
      "▁ticaret": 1591,
      "##vel": 1592,
      "▁verdi": 1593,
      "▁belki": 1594,
      "▁odalar": 1595,
      "##siy": 1596,
      "##muz": 1597,
      "▁kez": 1598,
      "##emmel": 1599,
      "▁tatil": 1600,
      "▁gez": 1601,
      "▁yatırımcı": 1602,
      "▁mukemmel": 1603,
      "▁yaban": 1604,
      "##ele": 1605,
      "▁cif": 1606,
      "##emi": 1607,
      "##manın": 1608,
      "▁kazanc": 1609,
      "▁neler": 1610,
      "##apon": 1611,
      "##elerini": 1612,
      "▁erkek": 1613,
      "##gına": 1614,
      "##hal": 1615,
      "▁ker": 1616,
      "▁fin": 1617,
      "▁tekn": 1618,
      "▁kıymet": 1619,
      "##tıs": 1620,
      "##indeki": 1621,
      "▁gar": 1622,
      "▁kapı": 1623,
      "▁bize": 1624,
      "▁japon": 1625,
      "▁ozellikle": 1626,
      "▁mahk": 1627,
      "▁yiyecek": 1628,
      "##lemek": 1629,
      "▁sef": 1630,
      "##enc": 1631,
      "##ilmis": 1632,
      "▁met": 1633,
      "▁mey": 1634,
      "▁menkul": 1635,
      "##embe": 1636,
      "▁rak": 1637,
      "▁ucrete": 1638,
      "▁kem": 1639,
      "▁sın": 1640,
      "▁dag": 1641,
      "▁gur": 1642,
      "▁yum": 1643,
      "▁yıllık": 1644,
      "▁yerine": 1645,
      "▁kısa": 1646,
      "▁ugr": 1647,
      "##o'dan": 1648,
      "▁anal": 1649,
      "▁geliyor": 1650,
      "▁adet": 1651,
      "▁philadelphia'ya": 1652,
      "##ınca": 1653,
      "▁fon": 1654,
      "##ıma": 1655,
      "▁havayolları": 1656,
      "▁faiz": 1657,
      "▁endek": 1658,
      "▁boz": 1659,
      "▁ro": 1660,
      "##landır": 1661,
      "▁dusus": 1662,
      "▁sanat": 1663,
      "▁hala": 1664,
      "##gında": 1665,
      "##isini": 1666,
      "▁zar": 1667,
      "▁sonunda": 1668,
      "▁$": 1669,
      "##'daki": 1670,
      "▁seb": 1671,
      "##iyi": 1672,
      "▁uf": 1673,
      "▁calis": 1674,
      "##iyeti": 1675,
      "▁pittsburgh'a": 1676,
      "▁yem": 1677,
      "▁ru": 1678,
      "▁gol": 1679,
      "##asır": 1680,
      "▁bilgis": 1681,
      "▁parc": 1682,
      "##gisi": 1683,
      "▁kisi": 1684,
      "##alım": 1685,
      "##ami": 1686,
      "##imin": 1687,
      "▁seviy": 1688,
      "▁kolay": 1689,
      "▁kotuydu": 1690,
      "##ee": 1691,
      "##'te": 1692,
      "##pan": 1693,
      "▁hen": 1694,
      "▁min": 1695,
      "##ılır": 1696,
      "##ebil": 1697,
      "▁devr": 1698,
      "▁istemiyorum": 1699,
      "##st": 1700,
      "##gan": 1701,
      "▁cab": 1702,
      "▁kurum": 1703,
      "▁sp": 1704,
      "▁tep": 1705,
      "▁pah": 1706,
      "##ılıyor": 1707,
      "▁sure": 1708,
      "##su": 1709,
      "##hur": 1710,
      "##arlar": 1711,
      "▁diz": 1712,
      "▁hes": 1713,
      "▁hey": 1714,
      "▁herhan": 1715,
      "##masını": 1716,
      "▁borc": 1717,
      "▁dikkat": 1718,
      "▁kitap": 1719,
      "▁ihtiyacım": 1720,
      "▁herhangi": 1721,
      "▁sap": 1722,
      "▁oluyor": 1723,
      "▁azdi": 1724,
      "▁dolayi": 1725,
      "▁tahmin": 1726,
      "▁urun": 1727,
      "▁la": 1728,
      "▁sist": 1729,
      "▁hos": 1730,
      "▁nok": 1731,
      "##agıt": 1732,
      "▁philadelphia'dan": 1733,
      "▁hukumet": 1734,
      "▁rezervasyon": 1735,
      "##dak": 1736,
      "▁fen": 1737,
      "▁id": 1738,
      "▁halk": 1739,
      "▁toplan": 1740,
      "▁si": 1741,
      "▁str": 1742,
      "▁gidiyor": 1743,
      "▁dallas'tan": 1744,
      "##tul": 1745,
      "##unden": 1746,
      "##oloj": 1747,
      "▁bask": 1748,
      "▁gid": 1749,
      "▁baskanı": 1750,
      "▁polit": 1751,
      "##and": 1752,
      "▁of": 1753,
      "##abı": 1754,
      "▁199": 1755,
      "##van": 1756,
      "##vet": 1757,
      "▁tır": 1758,
      "##ilerin": 1759,
      "▁uzere": 1760,
      "▁hast": 1761,
      "▁baltimore'den": 1762,
      "##meyi": 1763,
      "▁br": 1764,
      "▁beri": 1765,
      "##all": 1766,
      "##unde": 1767,
      "##amadı": 1768,
      "##imde": 1769,
      "▁varan": 1770,
      "##lamak": 1771,
      "▁ikinci": 1772,
      "▁tabi": 1773,
      "##osy": 1774,
      "▁islet": 1775,
      "▁bildir": 1776,
      "▁ortal": 1777,
      "▁muht": 1778,
      "▁avrup": 1779,
      "▁kapandı": 1780,
      "##alet": 1781,
      "▁tuk": 1782,
      "▁cat": 1783,
      "##amıs": 1784,
      "▁rap": 1785,
      "▁15": 1786,
      "▁acı": 1787,
      "▁insanlar": 1788,
      "▁kı": 1789,
      "▁suc": 1790,
      "▁dayan": 1791,
      "▁cun": 1792,
      "▁yere": 1793,
      "▁temizlik": 1794,
      "▁ortaya": 1795,
      "▁otelin": 1796,
      "▁aile": 1797,
      "▁hatta": 1798,
      "▁cift": 1799,
      "▁bilgisay": 1800,
      "##.2": 1801,
      "▁bic": 1802,
      "##undan": 1803,
      "▁coz": 1804,
      "##aten": 1805,
      "▁fed": 1806,
      "▁oldugun": 1807,
      "▁st.": 1808,
      "##urdu": 1809,
      "▁gelis": 1810,
      "##erken": 1811,
      "##kin": 1812,
      "##sas": 1813,
      "##meler": 1814,
      "##muyor": 1815,
      "##yo": 1816,
      "##.3": 1817,
      "▁alıs": 1818,
      "##ıyorlar": 1819,
      "▁degildir": 1820,
      "▁persembe": 1821,
      "▁karsıl": 1822,
      "▁hafif": 1823,
      "▁yonetim": 1824,
      "▁dır": 1825,
      "▁altı": 1826,
      "▁yaptir": 1827,
      "##aların": 1828,
      "##afir": 1829,
      "▁francisco'dan": 1830,
      "▁misafir": 1831,
      "▁diy": 1832,
      "▁giy": 1833,
      "▁olanak": 1834,
      "▁cocu": 1835,
      "▁hatır": 1836,
      "▁cogu": 1837,
      "▁yetkil": 1838,
      "▁rapor": 1839,
      "##ukee": 1840,
      "##iyorlar": 1841,
      "▁milwa": 1842,
      "▁dolara": 1843,
      "▁degistir": 1844,
      "▁corp": 1845,
      "▁cunku": 1846,
      "##.6": 1847,
      "##apol": 1848,
      "▁yuzlu": 1849,
      "##mustu": 1850,
      "▁dunya": 1851,
      "▁kork": 1852,
      "▁havuzu": 1853,
      "▁milwaukee": 1854,
      "##bol": 1855,
      "▁koc": 1856,
      "▁cocuklar": 1857,
      "▁duvar": 1858,
      "▁okul": 1859,
      "▁davran": 1860,
      "##mamıs": 1861,
      "▁ode": 1862,
      "##tif": 1863,
      "##ustos": 1864,
      "▁agustos": 1865,
      "▁destek": 1866,
      "▁henuz": 1867,
      "##apolis": 1868,
      "▁dum": 1869,
      "▁demek": 1870,
      "##esiz": 1871,
      "▁tı": 1872,
      "▁hizmeti": 1873,
      "##imizi": 1874,
      "▁degerlendir": 1875,
      "##.7": 1876,
      "##ırdı": 1877,
      "▁olma": 1878,
      "▁bilim": 1879,
      "▁ib": 1880,
      "▁ucreti": 1881,
      "▁dc": 1882,
      "▁ma": 1883,
      "▁fik": 1884,
      "##larıyla": 1885,
      "▁indi": 1886,
      "▁20": 1887,
      "▁demir": 1888,
      "▁unu": 1889,
      "##gar": 1890,
      "##ant": 1891,
      "##emez": 1892,
      "▁olay": 1893,
      "▁olsa": 1894,
      "▁nis": 1895,
      "▁kard": 1896,
      "▁vardır": 1897,
      "▁ingil": 1898,
      "▁ince": 1899,
      "▁seyler": 1900,
      "▁bunlar": 1901,
      "▁bog": 1902,
      "##asından": 1903,
      "##uncu": 1904,
      "▁hac": 1905,
      "▁cez": 1906,
      "##alarını": 1907,
      "##ecegi": 1908,
      "▁americ": 1909,
      "▁cevr": 1910,
      "▁bolg": 1911,
      "##eydi": 1912,
      "▁renk": 1913,
      "▁dusunuyor": 1914,
      "▁arastır": 1915,
      "##forman": 1916,
      "▁ceyrek": 1917,
      "▁sik": 1918,
      "▁birden": 1919,
      "▁zaten": 1920,
      "▁lak": 1921,
      "▁uygul": 1922,
      "▁esk": 1923,
      "▁olabilirdi": 1924,
      "##gini": 1925,
      "▁red": 1926,
      "##ızı": 1927,
      "▁orta": 1928,
      "▁yarat": 1929,
      "▁agac": 1930,
      "##leyen": 1931,
      "▁degisik": 1932,
      "##.8": 1933,
      "▁sez": 1934,
      "▁rag": 1935,
      "▁kalmadim": 1936,
      "▁gunluk": 1937,
      "▁asagı": 1938,
      "▁buna": 1939,
      "▁imkan": 1940,
      "▁kredi": 1941,
      "▁kaynak": 1942,
      "▁bilgisayar": 1943,
      "##'i": 1944,
      "▁dis": 1945,
      "##irdi": 1946,
      "▁tr": 1947,
      "▁kara": 1948,
      "▁yapan": 1949,
      "##maktadır": 1950,
      "##igini": 1951,
      "▁agz": 1952,
      "▁30": 1953,
      "▁derece": 1954,
      "▁tasar": 1955,
      "▁sabahı": 1956,
      "▁performan": 1957,
      "▁onceki": 1958,
      "▁dak": 1959,
      "##ayacak": 1960,
      "##esil": 1961,
      "##eyim": 1962,
      "▁net": 1963,
      "▁edilen": 1964,
      "##.9": 1965,
      "▁cen": 1966,
      "##olu": 1967,
      "▁fiyatları": 1968,
      "▁harc": 1969,
      "##encer": 1970,
      "##\\/": 1971,
      "##ektr": 1972,
      "▁alak": 1973,
      "▁gordu": 1974,
      "##mektedir": 1975,
      "##uyla": 1976,
      "▁giris": 1977,
      "▁piyasa": 1978,
      "▁vadeli": 1979,
      "##mer": 1980,
      "▁yu": 1981,
      "##ısını": 1982,
      "▁re": 1983,
      "▁bizi": 1984,
      "▁gercekten": 1985,
      "▁ragmen": 1986,
      "▁sus": 1987,
      "▁yık": 1988,
      "##ast": 1989,
      "▁arası": 1990,
      "▁olması": 1991,
      "##masız": 1992,
      "▁cumhur": 1993,
      "##aj": 1994,
      "##bil": 1995,
      "##acagı": 1996,
      "▁turlu": 1997,
      "▁dolardan": 1998,
      "▁chic": 1999,
      "▁yalnızca": 2000,
      "##udu": 2001,
      "▁cap": 2002,
      "##ate": 2003,
      "▁fatur": 2004,
      "▁ilgi": 2005,
      "▁ana": 2006,
      "▁gunes": 2007,
      "##digimiz": 2008,
      "##masına": 2009,
      "##ilmesi": 2010,
      "▁yayın": 2011,
      "▁american": 2012,
      "▁chicag": 2013,
      "##ban": 2014,
      "##unuz": 2015,
      "##dip": 2016,
      "##okr": 2017,
      "▁onumuz": 2018,
      "▁ziy": 2019,
      "▁millet": 2020,
      "▁beydi": 2021,
      "▁ogret": 2022,
      "▁las": 2023,
      "▁mec": 2024,
      "▁zen": 2025,
      "▁orn": 2026,
      "▁otom": 2027,
      "▁yanl": 2028,
      "▁senedi": 2029,
      "##ibar": 2030,
      "▁servis": 2031,
      "##sı": 2032,
      "##day": 2033,
      "▁got": 2034,
      "▁mag": 2035,
      "▁11": 2036,
      "▁isi": 2037,
      "▁kims": 2038,
      "▁faal": 2039,
      "▁kendini": 2040,
      "▁yabancı": 2041,
      "##rı": 2042,
      "##sil": 2043,
      "##lah": 2044,
      "▁giz": 2045,
      "##larımız": 2046,
      "▁karayol": 2047,
      "▁elektr": 2048,
      "▁yerde": 2049,
      "▁ortak": 2050,
      "▁egit": 2051,
      "▁annem": 2052,
      "▁oldukca": 2053,
      "▁iddi": 2054,
      "▁avrupa": 2055,
      "##siniz": 2056,
      "▁bat": 2057,
      "##anlı": 2058,
      "##indan": 2059,
      "##ilar": 2060,
      "▁mac": 2061,
      "##lugu": 2062,
      "▁soguk": 2063,
      "##uru": 2064,
      "▁arac": 2065,
      "▁ister": 2066,
      "▁orada": 2067,
      "##'na": 2068,
      "▁dogr": 2069,
      "▁kucuktu": 2070,
      "▁eger": 2071,
      "##obil": 2072,
      "▁itibar": 2073,
      "▁unit": 2074,
      "##.4": 2075,
      "▁dam": 2076,
      "##leriyle": 2077,
      "▁amac": 2078,
      "##leme": 2079,
      "##sunuz": 2080,
      "▁kimse": 2081,
      "▁cumartesi": 2082,
      "▁ustune": 2083,
      "▁aktarmasız": 2084,
      "##ation": 2085,
      "##ıc": 2086,
      "##oh": 2087,
      "▁sam": 2088,
      "##ell": 2089,
      "##ator": 2090,
      "▁arada": 2091,
      "▁reh": 2092,
      "▁kaldı": 2093,
      "▁basında": 2094,
      "▁komis": 2095,
      "▁artarak": 2096,
      "▁hepsi": 2097,
      "##lilik": 2098,
      "##gas": 2099,
      "##.1": 2100,
      "##arl": 2101,
      "▁may": 2102,
      "▁num": 2103,
      "▁alman": 2104,
      "##tılar": 2105,
      "▁ates": 2106,
      "▁super": 2107,
      "▁boyunca": 2108,
      "▁tesisin": 2109,
      "▁gitti": 2110,
      "▁sakin": 2111,
      "##tern": 2112,
      "▁kuv": 2113,
      "▁airlin": 2114,
      "##ormal": 2115,
      "▁karayolu": 2116,
      "▁airlines": 2117,
      "▁pis": 2118,
      "▁olustur": 2119,
      "▁onların": 2120,
      "▁ayında": 2121,
      "▁adım": 2122,
      "▁tartıs": 2123,
      "▁mudur": 2124,
      "▁etmem": 2125,
      "▁eksik": 2126,
      "▁nokt": 2127,
      "▁col": 2128,
      "▁mum": 2129,
      "▁ucmak": 2130,
      "▁oner": 2131,
      "▁100": 2132,
      "▁etraf": 2133,
      "▁istiyor": 2134,
      "▁ihr": 2135,
      "▁eglen": 2136,
      "▁gonder": 2137,
      "▁gal": 2138,
      "▁mıs": 2139,
      "##eyecek": 2140,
      "##lanan": 2141,
      "##asıyla": 2142,
      "▁vermek": 2143,
      "▁engel": 2144,
      "▁sanki": 2145,
      "▁temmuz": 2146,
      "▁kesinlikle": 2147,
      "##tin": 2148,
      "▁tok": 2149,
      "##lanmıs": 2150,
      "▁elde": 2151,
      "▁yani": 2152,
      "▁senin": 2153,
      "##ılıgı": 2154,
      "▁farklı": 2155,
      "▁eylul": 2156,
      "▁reklam": 2157,
      "▁politik": 2158,
      "##egi": 2159,
      "##dın": 2160,
      "##orn": 2161,
      "▁teh": 2162,
      "##estir": 2163,
      "##eci": 2164,
      "▁nak": 2165,
      "▁anket": 2166,
      "▁bilgil": 2167,
      "▁olmayan": 2168,
      "▁kapat": 2169,
      "▁surekli": 2170,
      "▁doldur": 2171,
      "▁merkezi": 2172,
      "▁zengin": 2173,
      "##of": 2174,
      "▁normal": 2175,
      "##iste": 2176,
      "▁akl": 2177,
      "▁odam": 2178,
      "▁toplam": 2179,
      "▁uzerinden": 2180,
      "▁ustunde": 2181,
      "▁komisyon": 2182,
      "##inda": 2183,
      "##ise": 2184,
      "##ulmus": 2185,
      "▁aralık": 2186,
      "▁gecmis": 2187,
      "▁temel": 2188,
      "▁olmaz": 2189,
      "▁katil": 2190,
      "▁altın": 2191,
      "##tigini": 2192,
      "▁ifade": 2193,
      "▁seni": 2194,
      "##irler": 2195,
      "▁ciz": 2196,
      "▁dolarlık": 2197,
      "▁borsası": 2198,
      "▁sınır": 2199,
      "▁united": 2200,
      "▁af": 2201,
      "##mesini": 2202,
      "▁yapıyor": 2203,
      "▁dair": 2204,
      "▁duserek": 2205,
      "▁degilim": 2206,
      "##'nda": 2207,
      "▁asl": 2208,
      "▁sirketin": 2209,
      "▁onunde": 2210,
      "▁analist": 2211,
      "▁sistem": 2212,
      "##ladım": 2213,
      "##cusu": 2214,
      "▁bus": 2215,
      "▁kut": 2216,
      "▁siy": 2217,
      "▁nef": 2218,
      "##orth": 2219,
      "▁guclu": 2220,
      "▁yetersizdi": 2221,
      "##siyon": 2222,
      "▁nelerdir": 2223,
      "▁kıymetler": 2224,
      "##dem": 2225,
      "▁kil": 2226,
      "▁ders": 2227,
      "▁tası": 2228,
      "##atik": 2229,
      "▁derin": 2230,
      "##ecegim": 2231,
      "▁doktor": 2232,
      "▁savun": 2233,
      "▁sıcak": 2234,
      "▁yeterli": 2235,
      "▁kuvvet": 2236,
      "▁ap": 2237,
      "##maları": 2238,
      "##ydı": 2239,
      "▁elinde": 2240,
      "▁halde": 2241,
      "▁yuzde": 2242,
      "▁toplum": 2243,
      "▁kontr": 2244,
      "▁lir": 2245,
      "▁sana": 2246,
      "▁kendim": 2247,
      "▁hanım": 2248,
      "▁temizdi": 2249,
      "▁carp": 2250,
      "▁cevap": 2251,
      "▁hesap": 2252,
      "▁faaliyet": 2253,
      "▁siyah": 2254,
      "##lek": 2255,
      "##mıyor": 2256,
      "▁dan": 2257,
      "▁birinci": 2258,
      "##emiz": 2259,
      "##ite": 2260,
      "▁ard": 2261,
      "▁konfor": 2262,
      "▁belli": 2263,
      "▁yazar": 2264,
      "▁baglı": 2265,
      "▁bolum": 2266,
      "▁miami": 2267,
      "▁babam": 2268,
      "▁edecek": 2269,
      "▁toront": 2270,
      "▁sosy": 2271,
      "▁yana": 2272,
      "▁13": 2273,
      "▁ulasım": 2274,
      "▁onumuzdeki": 2275,
      "▁kelim": 2276,
      "▁ti": 2277,
      "▁olcu": 2278,
      "##ısına": 2279,
      "▁vegas": 2280,
      "##tiv": 2281,
      "▁veririm": 2282,
      "▁lo": 2283,
      "▁gecti": 2284,
      "##dikleri": 2285,
      "▁sene": 2286,
      "▁calısan": 2287,
      "▁ediyorum": 2288,
      "▁yonetic": 2289,
      "▁federal": 2290,
      "▁corp.": 2291,
      "##oeni": 2292,
      "▁sem": 2293,
      "▁siyas": 2294,
      "▁dost": 2295,
      "##ustu": 2296,
      "▁depr": 2297,
      "##ımda": 2298,
      "▁onları": 2299,
      "▁kalab": 2300,
      "▁gider": 2301,
      "▁vergi": 2302,
      "▁duygu": 2303,
      "▁phoeni": 2304,
      "▁phoenix": 2305,
      "##rik": 2306,
      "##gımız": 2307,
      "▁kagıt": 2308,
      "▁det": 2309,
      "▁day": 2310,
      "##lerce": 2311,
      "▁los": 2312,
      "▁25": 2313,
      "##he": 2314,
      "▁yedi": 2315,
      "##ume": 2316,
      "▁nes": 2317,
      "▁insa": 2318,
      "▁yıllar": 2319,
      "##iforn": 2320,
      "▁sokak": 2321,
      "▁benzer": 2322,
      "▁beraber": 2323,
      "##rol": 2324,
      "##sat": 2325,
      "##cısı": 2326,
      "##'ı": 2327,
      "##iran": 2328,
      "##ess": 2329,
      "▁pencer": 2330,
      "▁icine": 2331,
      "##lendi": 2332,
      "##ayıf": 2333,
      "▁uyan": 2334,
      "▁evet": 2335,
      "##ıyı": 2336,
      "▁sirketi": 2337,
      "▁sozles": 2338,
      "▁size": 2339,
      "##detti": 2340,
      "##meyen": 2341,
      "##arlan": 2342,
      "▁bon": 2343,
      "▁hır": 2344,
      "▁mik": 2345,
      "##att": 2346,
      "▁fil": 2347,
      "▁icecek": 2348,
      "##ustr": 2349,
      "▁dolu": 2350,
      "▁sektor": 2351,
      "▁takım": 2352,
      "##layacak": 2353,
      "##edef": 2354,
      "▁emek": 2355,
      "##sen": 2356,
      "▁bo": 2357,
      "▁kuz": 2358,
      "▁sul": 2359,
      "▁ydi": 2360,
      "▁mon": 2361,
      "##ırı": 2362,
      "##ısından": 2363,
      "▁iler": 2364,
      "▁a.": 2365,
      "▁yanında": 2366,
      "▁musa": 2367,
      "##qu": 2368,
      "▁gok": 2369,
      "##aliydi": 2370,
      "##agın": 2371,
      "##oglu": 2372,
      "▁kong": 2373,
      "▁orland": 2374,
      "▁yarın": 2375,
      "▁--": 2376,
      "▁katıl": 2377,
      "▁haft": 2378,
      "▁ingiliz": 2379,
      "▁aslında": 2380,
      "##mistir": 2381,
      "▁duk": 2382,
      "▁mo": 2383,
      "▁gelistir": 2384,
      "▁maliyet": 2385,
      "▁artısla": 2386,
      "▁odedigim": 2387,
      "▁rehber": 2388,
      "##'s": 2389,
      "▁mez": 2390,
      "##amay": 2391,
      "##imli": 2392,
      "##uyorum": 2393,
      "▁yılında": 2394,
      "##egin": 2395,
      "▁balık": 2396,
      "▁saglık": 2397,
      "▁kırm": 2398,
      "▁cevir": 2399,
      "▁savas": 2400,
      "▁bahc": 2401,
      "▁kasım": 2402,
      "▁roman": 2403,
      "▁ufak": 2404,
      "##yen": 2405,
      "▁be": 2406,
      "▁yog": 2407,
      "▁yesil": 2408,
      "▁cid": 2409,
      "▁muc": 2410,
      "▁vaz": 2411,
      "##uma": 2412,
      "##eyse": 2413,
      "##aba": 2414,
      "▁gorunuyor": 2415,
      "▁14": 2416,
      "▁gelmis": 2417,
      "▁indir": 2418,
      "▁veren": 2419,
      "▁kurtul": 2420,
      "▁bakan": 2421,
      "▁salt": 2422,
      "▁lezzetli": 2423,
      "▁sıra": 2424,
      "▁dısarı": 2425,
      "▁&": 2426,
      "##mur": 2427,
      "##'u": 2428,
      "##yan": 2429,
      "##bu": 2430,
      "##asız": 2431,
      "##isinin": 2432,
      "##eyle": 2433,
      "▁defa": 2434,
      "▁ez": 2435,
      "▁ren": 2436,
      "▁yardim": 2437,
      "▁hale": 2438,
      "▁yakin": 2439,
      "▁zamanda": 2440,
      "##amadim": 2441,
      "▁kalite": 2442,
      "▁hisseleri": 2443,
      "▁nedeniyle": 2444,
      "▁endeksi": 2445,
      "##kar": 2446,
      "##set": 2447,
      "▁op": 2448,
      "▁yeme": 2449,
      "▁tit": 2450,
      "▁cak": 2451,
      "▁birer": 2452,
      "##usunu": 2453,
      "##elere": 2454,
      "##taj": 2455,
      "##alarına": 2456,
      "▁veriyor": 2457,
      "##uston": 2458,
      "▁bayan": 2459,
      "▁univ": 2460,
      "▁asker": 2461,
      "▁ruh": 2462,
      "▁tuket": 2463,
      "▁unut": 2464,
      "▁univers": 2465,
      "##25": 2466,
      "▁hedef": 2467,
      "##azım": 2468,
      "▁fel": 2469,
      "▁film": 2470,
      "▁nih": 2471,
      "▁lim": 2472,
      "##acagım": 2473,
      "▁heps": 2474,
      "▁houston": 2475,
      "▁ekonomi": 2476,
      "▁delta": 2477,
      "▁kardes": 2478,
      "▁performans": 2479,
      "▁cic": 2480,
      "▁mav": 2481,
      "##dav": 2482,
      "##ılması": 2483,
      "▁ucuncu": 2484,
      "▁artır": 2485,
      "▁bilet": 2486,
      "▁karsısında": 2487,
      "▁bazen": 2488,
      "▁denize": 2489,
      "▁yurt": 2490,
      "▁sessiz": 2491,
      "▁yanlıs": 2492,
      "##a'nın": 2493,
      "##tuk": 2494,
      "##ji": 2495,
      "▁sel": 2496,
      "▁gay": 2497,
      "▁oper": 2498,
      "▁men": 2499,
      "▁kalan": 2500,
      "##lugun": 2501,
      "▁zayıf": 2502,
      "▁1/": 2503,
      "▁seyi": 2504,
      "▁ekim": 2505,
      "##otte": 2506,
      "##arken": 2507,
      "▁charl": 2508,
      "▁yapılacak": 2509,
      "▁olmadıgını": 2510,
      "▁otomobil": 2511,
      "▁charlotte": 2512,
      "##lim": 2513,
      "▁sark": 2514,
      "##aket": 2515,
      "▁cem": 2516,
      "▁mat": 2517,
      "##adaki": 2518,
      "##osu": 2519,
      "##lass": 2520,
      "▁haziran": 2521,
      "▁newark": 2522,
      "##ligini": 2523,
      "▁muster": 2524,
      "▁indian": 2525,
      "▁ihrac": 2526,
      "▁adı": 2527,
      "##leye": 2528,
      "##cuk": 2529,
      "▁cay": 2530,
      "##alarda": 2531,
      "##alarının": 2532,
      "▁edildi": 2533,
      "▁sert": 2534,
      "▁avuk": 2535,
      "▁kampan": 2536,
      "▁numar": 2537,
      "▁sosyal": 2538,
      "▁deprem": 2539,
      "▁indianapolis": 2540,
      "##uf": 2541,
      "##ari": 2542,
      "▁tac": 2543,
      "##urt": 2544,
      "##eyn": 2545,
      "▁18": 2546,
      "##elerde": 2547,
      "▁actı": 2548,
      "▁yarı": 2549,
      "▁dalg": 2550,
      "▁yazı": 2551,
      "▁tanım": 2552,
      "▁gercekles": 2553,
      "▁secim": 2554,
      "▁finans": 2555,
      "▁lake": 2556,
      "▁gotur": 2557,
      "▁ciddi": 2558,
      "▁sis": 2559,
      "▁meh": 2560,
      "▁pa": 2561,
      "▁ali": 2562,
      "▁onay": 2563,
      "▁angel": 2564,
      "##lıgını": 2565,
      "▁etmis": 2566,
      "##mıstır": 2567,
      "▁sorum": 2568,
      "▁ayrıl": 2569,
      "▁tutar": 2570,
      "▁kansas": 2571,
      "▁sefer": 2572,
      "▁nisan": 2573,
      "▁degisiklik": 2574,
      "##ser": 2575,
      "##ij": 2576,
      "▁saf": 2577,
      "##ong": 2578,
      "▁arz": 2579,
      "▁gide": 2580,
      "##gıc": 2581,
      "▁milli": 2582,
      "▁kurulu": 2583,
      "##cılar": 2584,
      "▁sermay": 2585,
      "##iddet": 2586,
      "▁kendisi": 2587,
      "▁begendim": 2588,
      "▁ortalama": 2589,
      "##dal": 2590,
      "##yalar": 2591,
      "▁dos": 2592,
      "##iri": 2593,
      "▁grup": 2594,
      "▁tez": 2595,
      "▁oldur": 2596,
      "▁ucusların": 2597,
      "▁aylık": 2598,
      "▁dahil": 2599,
      "▁temsil": 2600,
      "▁sub": 2601,
      "▁yuzunden": 2602,
      "▁hayal": 2603,
      "▁satıslar": 2604,
      "▁dieg": 2605,
      "▁first": 2606,
      "▁meydan": 2607,
      "▁zarar": 2608,
      "▁karsılas": 2609,
      "▁0.": 2610,
      "##sınız": 2611,
      "##ord": 2612,
      "##ekler": 2613,
      "▁def": 2614,
      "▁yapar": 2615,
      "▁idar": 2616,
      "▁haline": 2617,
      "▁toprak": 2618,
      "▁sahi": 2619,
      "▁bekle": 2620,
      "▁mali": 2621,
      "▁uretic": 2622,
      "▁kendisine": 2623,
      "▁sov": 2624,
      "▁seatt": 2625,
      "▁seattle": 2626,
      "▁gom": 2627,
      "▁pil": 2628,
      "▁buz": 2629,
      "▁fer": 2630,
      "▁naz": 2631,
      "##uluk": 2632,
      "▁efen": 2633,
      "▁ici": 2634,
      "▁anlay": 2635,
      "▁intern": 2636,
      "▁bilm": 2637,
      "##medik": 2638,
      "▁senet": 2639,
      "▁gozleri": 2640,
      "▁dusunc": 2641,
      "▁merak": 2642,
      "▁rakam": 2643,
      "▁kırmızı": 2644,
      "##yet": 2645,
      "##bar": 2646,
      "▁.\"": 2647,
      "##ıntı": 2648,
      "##larım": 2649,
      "▁birim": 2650,
      "##esiyle": 2651,
      "##ize": 2652,
      "▁ileri": 2653,
      "▁ara": 2654,
      "▁gorul": 2655,
      "▁17": 2656,
      "▁verdigi": 2657,
      "##lastır": 2658,
      "▁soylem": 2659,
      "▁ele": 2660,
      "▁dov": 2661,
      "▁eve": 2662,
      "▁evvel": 2663,
      "▁kultur": 2664,
      "▁soru": 2665,
      "▁insanın": 2666,
      "▁bekliyor": 2667,
      "▁demokr": 2668,
      "##luluk": 2669,
      "▁angeles": 2670,
      "##gumuz": 2671,
      "##mayan": 2672,
      "##bak": 2673,
      "▁batı": 2674,
      "▁sut": 2675,
      "▁gitt": 2676,
      "▁taz": 2677,
      "▁hik": 2678,
      "▁cont": 2679,
      "▁vat": 2680,
      "▁pan": 2681,
      "##tigi": 2682,
      "##tup": 2683,
      "▁bundan": 2684,
      "▁kaybet": 2685,
      "▁hazine": 2686,
      "▁hızlı": 2687,
      "▁iliskin": 2688,
      "▁ulusal": 2689,
      "▁olmadi": 2690,
      "▁yardimci": 2691,
      "##anlık": 2692,
      "▁ten": 2693,
      "▁tuz": 2694,
      "▁cı": 2695,
      "▁class": 2696,
      "▁fay": 2697,
      "##abet": 2698,
      "##isten": 2699,
      "▁aradi": 2700,
      "##imize": 2701,
      "##imizin": 2702,
      "▁onune": 2703,
      "▁bulunan": 2704,
      "▁misin": 2705,
      "▁araba": 2706,
      "▁silah": 2707,
      "▁musait": 2708,
      "▁lı": 2709,
      "##kal": 2710,
      "##teki": 2711,
      "##pa": 2712,
      "##inent": 2713,
      "▁dek": 2714,
      "▁tir": 2715,
      "▁huz": 2716,
      "##ıstır": 2717,
      "##lanıyor": 2718,
      "▁istedi": 2719,
      "##ograf": 2720,
      "##lenen": 2721,
      "▁21": 2722,
      "▁surdur": 2723,
      "▁dolas": 2724,
      "▁saglam": 2725,
      "▁mahkem": 2726,
      "##tal": 2727,
      "▁ters": 2728,
      "##iyim": 2729,
      "▁mor": 2730,
      "##alara": 2731,
      "▁dusman": 2732,
      "▁bence": 2733,
      "▁acıl": 2734,
      "▁olmasi": 2735,
      "▁bagım": 2736,
      "▁bahse": 2737,
      "▁durumda": 2738,
      "▁mumkun": 2739,
      "▁continent": 2740,
      "##oc": 2741,
      "##inn": 2742,
      "▁des": 2743,
      "▁delik": 2744,
      "▁yir": 2745,
      "##izi": 2746,
      "##ich": 2747,
      "##acık": 2748,
      "▁fab": 2749,
      "▁ilgis": 2750,
      "▁iceri": 2751,
      "▁alır": 2752,
      "##elerinin": 2753,
      "▁insanların": 2754,
      "▁kısm": 2755,
      "▁heyec": 2756,
      "▁egitim": 2757,
      "##sak": 2758,
      "##din": 2759,
      "##ane": 2760,
      "▁tiyat": 2761,
      "##isinde": 2762,
      "▁birles": 2763,
      "▁mur": 2764,
      "##lerim": 2765,
      "▁ilac": 2766,
      "##tıgını": 2767,
      "▁yapacak": 2768,
      "▁gecer": 2769,
      "▁geril": 2770,
      "▁bunları": 2771,
      "▁prob": 2772,
      "▁proj": 2773,
      "▁kaliteli": 2774,
      "▁kosul": 2775,
      "▁dısında": 2776,
      "##memis": 2777,
      "▁dunyanın": 2778,
      "▁begenmedim": 2779,
      "▁ekonomik": 2780,
      "##'yi": 2781,
      "▁petrol": 2782,
      "▁city'e": 2783,
      "▁kere": 2784,
      "▁kemal": 2785,
      "▁fena": 2786,
      "▁continental": 2787,
      "##gah": 2788,
      "##'deki": 2789,
      "▁kimi": 2790,
      "▁os": 2791,
      "▁yel": 2792,
      "▁cik": 2793,
      "▁mark": 2794,
      "▁onlara": 2795,
      "▁verdigim": 2796,
      "▁ide": 2797,
      "▁elestir": 2798,
      "▁edin": 2799,
      "▁seyahat": 2800,
      "▁co.": 2801,
      "▁bakım": 2802,
      "▁ekmek": 2803,
      "▁gitmek": 2804,
      "▁bulundu": 2805,
      "▁olursa": 2806,
      "▁talep": 2807,
      "##ational": 2808,
      "▁kontrol": 2809,
      "##ladık": 2810,
      "##gor": 2811,
      "▁tık": 2812,
      "▁isk": 2813,
      "▁kenar": 2814,
      "▁yuzme": 2815,
      "▁salon": 2816,
      "▁genellikle": 2817,
      "▁inc.": 2818,
      "▁yaptıgı": 2819,
      "▁sinir": 2820,
      "▁eskiydi": 2821,
      "▁avukat": 2822,
      "##meli": 2823,
      "▁siddet": 2824,
      "##isine": 2825,
      "▁cle": 2826,
      "##izyon": 2827,
      "##istan": 2828,
      "▁baslamıs": 2829,
      "▁gordum": 2830,
      "▁aydın": 2831,
      "▁ettim": 2832,
      "▁kurtar": 2833,
      "▁azal": 2834,
      "▁zorunda": 2835,
      "▁olcude": 2836,
      "▁ısı": 2837,
      "▁gru": 2838,
      "▁hus": 2839,
      "##aydı": 2840,
      "▁olup": 2841,
      "▁sona": 2842,
      "▁isaret": 2843,
      "##ilere": 2844,
      "▁lazım": 2845,
      "▁kendiler": 2846,
      "▁part": 2847,
      "▁26": 2848,
      "▁evde": 2849,
      "▁personeli": 2850,
      "▁yatak": 2851,
      "▁ert": 2852,
      "##iligi": 2853,
      "▁hanimdi": 2854,
      "▁yardımcı": 2855,
      "▁servisi": 2856,
      "▁sebep": 2857,
      "##kın": 2858,
      "##gec": 2859,
      "##mesine": 2860,
      "▁yun": 2861,
      "##ilig": 2862,
      "▁tip": 2863,
      "▁cer": 2864,
      "▁cep": 2865,
      "▁cent": 2866,
      "▁mot": 2867,
      "▁port": 2868,
      "▁olus": 2869,
      "▁gormek": 2870,
      "▁istif": 2871,
      "▁gund": 2872,
      "▁ait": 2873,
      "▁calısıyor": 2874,
      "▁tatlı": 2875,
      "▁izin": 2876,
      "▁ısık": 2877,
      "▁dakika": 2878,
      "▁magaz": 2879,
      "▁universit": 2880,
      "▁problem": 2881,
      "##kara": 2882,
      "##dun": 2883,
      "##ind": 2884,
      "▁sip": 2885,
      "▁ocak": 2886,
      "##ayla": 2887,
      "##amız": 2888,
      "##urlu": 2889,
      "##ates": 2890,
      "▁ucuyor": 2891,
      "▁ilet": 2892,
      "##dıgını": 2893,
      "▁dusur": 2894,
      "▁gosterdi": 2895,
      "▁50": 2896,
      "▁gerekiyor": 2897,
      "▁manz": 2898,
      "▁faturam": 2899,
      "▁pas": 2900,
      "▁fot": 2901,
      "##ılmaz": 2902,
      "##agan": 2903,
      "▁zev": 2904,
      "▁varlık": 2905,
      "▁etme": 2906,
      "▁biliyor": 2907,
      "▁200": 2908,
      "▁bakıs": 2909,
      "▁ulasımı": 2910,
      "▁makin": 2911,
      "▁kahval": 2912,
      "▁gonul": 2913,
      "▁oakland'a": 2914,
      "##veland": 2915,
      "▁teknoloj": 2916,
      "▁tabii": 2917,
      "▁dukkan": 2918,
      "▁mehmet": 2919,
      "▁sahibi": 2920,
      "▁cleveland": 2921,
      "##bas": 2922,
      "##ırıl": 2923,
      "▁olabil": 2924,
      "##aca": 2925,
      "▁alacak": 2926,
      "▁uzman": 2927,
      "▁akıl": 2928,
      "▁yasan": 2929,
      "▁yukarı": 2930,
      "▁kullanmadim": 2931,
      "▁altına": 2932,
      "▁saldır": 2933,
      "▁malz": 2934,
      "▁washington'a": 2935,
      "▁direk": 2936,
      "▁incel": 2937,
      "▁sof": 2938,
      "▁tedav": 2939,
      "▁ardından": 2940,
      "##ke": 2941,
      "##sek": 2942,
      "##gından": 2943,
      "##gının": 2944,
      "##ill": 2945,
      "##ata": 2946,
      "▁dedim": 2947,
      "▁allah": 2948,
      "▁ruz": 2949,
      "▁bilin": 2950,
      "▁olmalı": 2951,
      "##lenmis": 2952,
      "▁cıkan": 2953,
      "▁27": 2954,
      "▁yandan": 2955,
      "▁duruyor": 2956,
      "▁fiyatı": 2957,
      "▁acıklam": 2958,
      "▁siir": 2959,
      "##na": 2960,
      "##fer": 2961,
      "##menin": 2962,
      "##ard": 2963,
      "##ırlar": 2964,
      "▁ref": 2965,
      "▁bası": 2966,
      "##alarında": 2967,
      "▁ettik": 2968,
      "▁guney": 2969,
      "▁yılın": 2970,
      "▁parmak": 2971,
      "▁yarım": 2972,
      "▁odem": 2973,
      "▁sekiz": 2974,
      "▁bagır": 2975,
      "▁cesitli": 2976,
      "▁banka": 2977,
      "▁hukuk": 2978,
      "▁1988": 2979,
      "▁city'den": 2980,
      "▁rezervasyonu": 2981,
      "▁stan": 2982,
      "▁ydı": 2983,
      "▁hol": 2984,
      "▁cil": 2985,
      "##iya": 2986,
      "▁iyice": 2987,
      "▁lok": 2988,
      "▁dogu": 2989,
      "▁yolu": 2990,
      "##ville": 2991,
      "▁mesel": 2992,
      "▁mutlu": 2993,
      "##aturk": 2994,
      "▁yatırımcılar": 2995,
      "▁kıv": 2996,
      "▁gittik": 2997,
      "##kır": 2998,
      "##eet": 2999,
      "##erler": 3000,
      "▁ge": 3001,
      "▁gem": 3002,
      "▁ov": 3003,
      "##ayım": 3004,
      "▁mart": 3005,
      "▁bulam": 3006,
      "##ach": 3007,
      "##istim": 3008,
      "▁alamadim": 3009,
      "##lıga": 3010,
      "▁16": 3011,
      "##'nde": 3012,
      "▁cıkmıs": 3013,
      "▁beyle": 3014,
      "▁fiyati": 3015,
      "▁sozcusu": 3016,
      "##acagız": 3017,
      "▁okum": 3018,
      "▁boylece": 3019,
      "▁musta": 3020,
      "▁endustr": 3021,
      "▁ticari": 3022,
      "▁cumhuriyet": 3023,
      "▁hikay": 3024,
      "▁yirmi": 3025,
      "##lis": 3026,
      "##net": 3027,
      "##arası": 3028,
      "▁gog": 3029,
      "▁hap": 3030,
      "##dular": 3031,
      "▁almıs": 3032,
      "▁rad": 3033,
      "▁ayır": 3034,
      "▁deng": 3035,
      "▁yasında": 3036,
      "▁yaslı": 3037,
      "▁tarif": 3038,
      "▁halinde": 3039,
      "▁jon": 3040,
      "▁baglan": 3041,
      "▁tane": 3042,
      "▁washington'dan": 3043,
      "▁aktarmalı": 3044,
      "▁tamamen": 3045,
      "▁anlasma": 3046,
      "▁nered": 3047,
      "##fet": 3048,
      "▁sarı": 3049,
      "▁cel": 3050,
      "▁mun": 3051,
      "##ima": 3052,
      "##izm": 3053,
      "##ult": 3054,
      "▁egil": 3055,
      "▁risk": 3056,
      "▁basını": 3057,
      "##tuyor": 3058,
      "##evizyon": 3059,
      "▁bilir": 3060,
      "▁enf": 3061,
      "##madik": 3062,
      "▁uzat": 3063,
      "▁ataturk": 3064,
      "▁kent": 3065,
      "▁evin": 3066,
      "▁fiyata": 3067,
      "▁girdi": 3068,
      "▁ediyordu": 3069,
      "▁ilgilendiler": 3070,
      "##mayacak": 3071,
      "▁karsiligini": 3072,
      "▁yetkilileri": 3073,
      "▁elektrik": 3074,
      "▁danıs": 3075,
      "▁mucadel": 3076,
      "▁mustafa": 3077,
      "##0'": 3078,
      "▁sas": 3079,
      "▁sayı": 3080,
      "▁sart": 3081,
      "▁yah": 3082,
      "##imden": 3083,
      "##ulan": 3084,
      "▁ondan": 3085,
      "##dız": 3086,
      "▁idi": 3087,
      "▁oteli": 3088,
      "▁edilm": 3089,
      "▁sent": 3090,
      "▁satım": 3091,
      "▁oteldi": 3092,
      "▁okuy": 3093,
      "▁acıkladı": 3094,
      "▁sırt": 3095,
      "▁dava": 3096,
      "▁sizin": 3097,
      "▁edece": 3098,
      "▁kahve": 3099,
      "▁japonya": 3100,
      "▁muhtem": 3101,
      "▁olanaklari": 3102,
      "▁osman": 3103,
      "▁motor": 3104,
      "##leket": 3105,
      "##gur": 3106,
      "▁kayıp": 3107,
      "▁sh": 3108,
      "##enler": 3109,
      "▁oden": 3110,
      "##iliyor": 3111,
      "▁ta": 3112,
      "▁ha": 3113,
      "▁mit": 3114,
      "##emem": 3115,
      "▁olacagını": 3116,
      "▁rast": 3117,
      "▁ankara": 3118,
      "##elerek": 3119,
      "▁verilen": 3120,
      "##makta": 3121,
      "▁soyley": 3122,
      "▁memleket": 3123,
      "▁22": 3124,
      "▁yanı": 3125,
      "##ıydı": 3126,
      "▁zamanlar": 3127,
      "▁kayb": 3128,
      "▁cıkardı": 3129,
      "##layarak": 3130,
      "▁etmeye": 3131,
      "▁kadınlar": 3132,
      "▁umut": 3133,
      "▁hızla": 3134,
      "▁sikin": 3135,
      "▁gizli": 3136,
      "▁yogun": 3137,
      "▁neredeyse": 3138,
      "##tak": 3139,
      "▁suy": 3140,
      "▁verir": 3141,
      "▁aktiv": 3142,
      "▁memph": 3143,
      "▁kapalı": 3144,
      "▁gene": 3145,
      "▁surec": 3146,
      "▁arttı": 3147,
      "##sizlik": 3148,
      "##tre": 3149,
      "▁dokun": 3150,
      "▁ihtiyar": 3151,
      "▁sehr": 3152,
      "▁olduguna": 3153,
      "▁reddetti": 3154,
      "▁fotograf": 3155,
      "▁memphis": 3156,
      "▁gum": 3157,
      "##ori": 3158,
      "##ısız": 3159,
      "▁fut": 3160,
      "▁alıp": 3161,
      "▁goruyor": 3162,
      "▁isin": 3163,
      "▁ener": 3164,
      "▁sans": 3165,
      "▁elbet": 3166,
      "▁yasadı": 3167,
      "▁dow": 3168,
      "▁kapsam": 3169,
      "▁bulunuyor": 3170,
      "▁gozlerini": 3171,
      "▁hayır": 3172,
      "▁kanun": 3173,
      "▁sırada": 3174,
      "▁kendine": 3175,
      "##'yı": 3176,
      "▁ziyaret": 3177,
      "▁tehlik": 3178,
      "▁lou": 3179,
      "##taki": 3180,
      "▁sasır": 3181,
      "▁duzel": 3182,
      "##onu": 3183,
      "▁po": 3184,
      "##dugunu": 3185,
      "▁edip": 3186,
      "##tıyor": 3187,
      "▁ets": 3188,
      "▁isten": 3189,
      "##alıgı": 3190,
      "▁bunların": 3191,
      "▁wall": 3192,
      "▁prof": 3193,
      "▁konustu": 3194,
      "▁imz": 3195,
      "▁merkezine": 3196,
      "▁kamu": 3197,
      "▁resim": 3198,
      "▁tesekkurler": 3199,
      "▁endeks": 3200,
      "▁calisanlar": 3201,
      "▁fikir": 3202,
      "▁imkanlari": 3203,
      "▁analistler": 3204,
      "▁cicek": 3205,
      "▁jones": 3206,
      "##75": 3207,
      "##bah": 3208,
      "▁suz": 3209,
      "▁gr": 3210,
      "▁tec": 3211,
      "▁ted": 3212,
      "▁cinc": 3213,
      "##aması": 3214,
      "##elerine": 3215,
      "▁koca": 3216,
      "▁seyden": 3217,
      "▁yasa": 3218,
      "▁haval": 3219,
      "▁ekledi": 3220,
      "▁katkı": 3221,
      "▁tanı": 3222,
      "▁kırk": 3223,
      "▁gerceklestir": 3224,
      "▁televizyon": 3225,
      "▁edeb": 3226,
      "▁ustu": 3227,
      "▁bitir": 3228,
      "▁karıstır": 3229,
      "▁peters": 3230,
      "▁toplantı": 3231,
      "▁strate": 3232,
      "▁street": 3233,
      "▁mavi": 3234,
      "▁operasyon": 3235,
      "##can": 3236,
      "▁key": 3237,
      "▁kayı": 3238,
      "##ile": 3239,
      "##ınc": 3240,
      "##aklı": 3241,
      "##isindan": 3242,
      "▁hij": 3243,
      "▁mul": 3244,
      "##atif": 3245,
      "##ısının": 3246,
      "▁fort": 3247,
      "##agına": 3248,
      "▁alıyor": 3249,
      "▁isim": 3250,
      "▁yılda": 3251,
      "▁worth": 3252,
      "▁uretim": 3253,
      "▁kendisini": 3254,
      "▁resmi": 3255,
      "▁guleryuzluydu": 3256,
      "▁milwaukee'den": 3257,
      "##innati": 3258,
      "▁cincinnati": 3259,
      "##sim": 3260,
      "##fi": 3261,
      "##ardı": 3262,
      "▁kup": 3263,
      "▁suyu": 3264,
      "▁om": 3265,
      "▁tay": 3266,
      "##emey": 3267,
      "##agını": 3268,
      "▁endis": 3269,
      "▁kov": 3270,
      "##uyle": 3271,
      "▁kural": 3272,
      "▁gosteriyor": 3273,
      "▁yerel": 3274,
      "▁asla": 3275,
      "▁bayram": 3276,
      "▁karsılık": 3277,
      "▁yuzu": 3278,
      "▁odaydi": 3279,
      "▁sahn": 3280,
      "▁otelden": 3281,
      "▁ediyoruz": 3282,
      "▁kızı": 3283,
      "▁hastan": 3284,
      "▁takip": 3285,
      "▁itir": 3286,
      "▁basarılı": 3287,
      "▁vakit": 3288,
      "##\\/8": 3289,
      "▁girisim": 3290,
      "▁montre": 3291,
      "▁heyecan": 3292,
      "▁futbol": 3293,
      "▁montreal": 3294,
      "##sem": 3295,
      "##layıp": 3296,
      "##ni": 3297,
      "##bus": 3298,
      "##unc": 3299,
      "##isler": 3300,
      "▁ci": 3301,
      "##esem": 3302,
      "##amaya": 3303,
      "##urken": 3304,
      "▁fi": 3305,
      "##ılacak": 3306,
      "▁soylen": 3307,
      "##uyorlar": 3308,
      "▁durgun": 3309,
      "▁jos": 3310,
      "▁gerektigini": 3311,
      "▁yuksekti": 3312,
      "▁havayolu": 3313,
      "▁1989": 3314,
      "▁birbirine": 3315,
      "▁ailelere": 3316,
      "▁sigort": 3317,
      "▁madd": 3318,
      "▁yaptirdi": 3319,
      "▁ogretmen": 3320,
      "▁itibaren": 3321,
      "▁louis": 3322,
      "▁hijyen": 3323,
      "##mini": 3324,
      "▁doy": 3325,
      "##ens": 3326,
      "▁obur": 3327,
      "##ıklı": 3328,
      "▁yapı": 3329,
      "▁aktif": 3330,
      "▁dondu": 3331,
      "▁durumu": 3332,
      "▁yuzden": 3333,
      "▁dogal": 3334,
      "▁fransız": 3335,
      "▁yolc": 3336,
      "##ihaz": 3337,
      "▁yorgun": 3338,
      "▁kazandı": 3339,
      "▁yalan": 3340,
      "▁sıkı": 3341,
      "▁uluslar": 3342,
      "▁kurumsal": 3343,
      "▁pahaliydi": 3344,
      "▁mayıs": 3345,
      "▁sermaye": 3346,
      "##lulu": 3347,
      "##ug": 3348,
      "##mal": 3349,
      "##isel": 3350,
      "##ond": 3351,
      "##amıyor": 3352,
      "##iki": 3353,
      "▁dep": 3354,
      "##dul": 3355,
      "▁nit": 3356,
      "▁ilan": 3357,
      "▁baslan": 3358,
      "▁ucusa": 3359,
      "##elerinde": 3360,
      "▁ettiler": 3361,
      "▁vermis": 3362,
      "##ilerini": 3363,
      "##maktan": 3364,
      "▁oranı": 3365,
      "▁acisindan": 3366,
      "▁gunku": 3367,
      "##lıkla": 3368,
      "▁ederek": 3369,
      "▁yerinde": 3370,
      "▁asırı": 3371,
      "▁seker": 3372,
      "##abilecek": 3373,
      "▁soh": 3374,
      "▁tahviller": 3375,
      "▁dusuktu": 3376,
      "▁mukemmeldi": 3377,
      "▁hastalık": 3378,
      "▁misafirimiz": 3379,
      "▁miktar": 3380,
      "▁kuzey": 3381,
      "▁fayd": 3382,
      "▁ilgisiz": 3383,
      "▁zevk": 3384,
      "##meleri": 3385,
      "▁beb": 3386,
      "▁yasıyor": 3387,
      "##orta": 3388,
      "▁ton": 3389,
      "##isim": 3390,
      "▁yaptık": 3391,
      "▁gidip": 3392,
      "##mıslar": 3393,
      "##manı": 3394,
      "▁uyum": 3395,
      "▁eser": 3396,
      "▁suph": 3397,
      "▁sordu": 3398,
      "▁harika": 3399,
      "▁milyondan": 3400,
      "▁cekti": 3401,
      "▁sabit": 3402,
      "▁bazıları": 3403,
      "▁bıraktı": 3404,
      "▁konuda": 3405,
      "▁spor": 3406,
      "▁laf": 3407,
      "▁ornek": 3408,
      "##lo": 3409,
      "##tum": 3410,
      "##tılı": 3411,
      "##ide": 3412,
      "##yıl": 3413,
      "▁sesi": 3414,
      "##ene": 3415,
      "▁hur": 3416,
      "##ursuz": 3417,
      "▁peyn": 3418,
      "▁niyet": 3419,
      "▁rus": 3420,
      "▁rec": 3421,
      "▁anad": 3422,
      "▁soyler": 3423,
      "##'ndan": 3424,
      "▁test": 3425,
      "▁memur": 3426,
      "▁23": 3427,
      "▁general": 3428,
      "▁bulmak": 3429,
      "▁esn": 3430,
      "▁31": 3431,
      "▁35": 3432,
      "▁yola": 3433,
      "▁korku": 3434,
      "▁gereken": 3435,
      "##lige": 3436,
      "##ligin": 3437,
      "▁baba": 3438,
      "▁emin": 3439,
      "▁york'tan": 3440,
      "▁kurulus": 3441,
      "▁olmadıgı": 3442,
      "▁yagmur": 3443,
      "▁isletme": 3444,
      "▁iddia": 3445,
      "▁paul": 3446,
      "▁civar": 3447,
      "##ub": 3448,
      "##cisi": 3449,
      "▁kası": 3450,
      "##ende": 3451,
      "##alanı": 3452,
      "▁cir": 3453,
      "▁olc": 3454,
      "▁alabilir": 3455,
      "▁kalmıs": 3456,
      "▁elb": 3457,
      "▁tesisten": 3458,
      "▁asıl": 3459,
      "▁yans": 3460,
      "▁memnunum": 3461,
      "▁hizmetleri": 3462,
      "▁uzerindeki": 3463,
      "▁196": 3464,
      "▁duyg": 3465,
      "##inizi": 3466,
      "▁hasta": 3467,
      "▁yukselt": 3468,
      "▁ithal": 3469,
      "▁yemeklerinden": 3470,
      "▁dogrudan": 3471,
      "▁sınıfı": 3472,
      "▁muhtesem": 3473,
      "##bank": 3474,
      "▁almanya": 3475,
      "▁odamiz": 3476,
      "▁insaat": 3477,
      "▁bilmiyorum": 3478,
      "▁malzem": 3479,
      "▁edebiyat": 3480,
      "▁eki": 3481,
      "##das": 3482,
      "##yn": 3483,
      "##.0": 3484,
      "▁gev": 3485,
      "▁tim": 3486,
      "▁mol": 3487,
      "##ısın": 3488,
      "##uluyor": 3489,
      "##dılar": 3490,
      "▁kalp": 3491,
      "▁basv": 3492,
      "▁verim": 3493,
      "##evi": 3494,
      "##lastı": 3495,
      "▁biles": 3496,
      "##laması": 3497,
      "▁yerles": 3498,
      "▁baktı": 3499,
      "▁ekip": 3500,
      "▁kulak": 3501,
      "▁fiyatlar": 3502,
      "▁sorunu": 3503,
      "##ediye": 3504,
      "##bire": 3505,
      "▁onceden": 3506,
      "##acılar": 3507,
      "▁dokuz": 3508,
      "▁duzey": 3509,
      "▁kalkıyor": 3510,
      "▁anlamda": 3511,
      "▁herkesin": 3512,
      "▁komp": 3513,
      "▁havaalanı": 3514,
      "▁oyuncu": 3515,
      "▁sonraki": 3516,
      "▁musteri": 3517,
      "▁adeta": 3518,
      "▁birdenbire": 3519,
      "▁ornegin": 3520,
      "▁titr": 3521,
      "▁kampanyalar": 3522,
      "▁ruzgar": 3523,
      "▁*": 3524,
      "##tas": 3525,
      "▁kıl": 3526,
      "▁sız": 3527,
      "▁dısı": 3528,
      "▁yı": 3529,
      "▁yildi": 3530,
      "##isyon": 3531,
      "▁civ": 3532,
      "▁poz": 3533,
      "▁bulu": 3534,
      "▁fas": 3535,
      "##ital": 3536,
      "▁not": 3537,
      "▁ongor": 3538,
      "##lanır": 3539,
      "##lıgın": 3540,
      "▁gelip": 3541,
      "▁ins": 3542,
      "▁uzan": 3543,
      "▁sevgil": 3544,
      "▁beklem": 3545,
      "▁ayni": 3546,
      "▁hisset": 3547,
      "▁herkese": 3548,
      "▁eylem": 3549,
      "##roit": 3550,
      "▁vegas'a": 3551,
      "▁detroit": 3552,
      "▁anadolu": 3553,
      "▁yildiz": 3554,
      "##lisi": 3555,
      "##dil": 3556,
      "##ha": 3557,
      "##ham": 3558,
      "##ve": 3559,
      "▁th": 3560,
      "▁hele": 3561,
      "▁cıl": 3562,
      "##emiyor": 3563,
      "▁alk": 3564,
      "▁baskı": 3565,
      "▁kapas": 3566,
      "▁hangisi": 3567,
      "▁agız": 3568,
      "▁%1": 3569,
      "▁ortam": 3570,
      "▁west": 3571,
      "▁onunla": 3572,
      "▁buraya": 3573,
      "▁197": 3574,
      "▁koltuk": 3575,
      "▁aksamı": 3576,
      "▁kacın": 3577,
      "▁kıyas": 3578,
      "▁bekleniyor": 3579,
      "▁rekabet": 3580,
      "▁telefonla": 3581,
      "▁olumlu": 3582,
      "▁yumus": 3583,
      "▁bildirdi": 3584,
      "▁kendimi": 3585,
      "▁konforlu": 3586,
      "▁kongre": 3587,
      "▁orlando'ya": 3588,
      "▁tezgah": 3589,
      "▁sovyet": 3590,
      "▁seattle'ye": 3591,
      "▁fabrik": 3592,
      "▁ideal": 3593,
      "##ruk": 3594,
      "##dam": 3595,
      "##'le": 3596,
      "▁tuc": 3597,
      "▁hab": 3598,
      "##esin": 3599,
      "▁vucu": 3600,
      "▁pasa": 3601,
      "▁far": 3602,
      "▁rest": 3603,
      "▁isler": 3604,
      "##alarla": 3605,
      "▁istik": 3606,
      "▁konusu": 3607,
      "▁gecik": 3608,
      "##ustuk": 3609,
      "▁attı": 3610,
      "▁yılı": 3611,
      "▁yukselerek": 3612,
      "▁sirketler": 3613,
      "▁harik": 3614,
      "##asyonu": 3615,
      "##sizdi": 3616,
      "▁ettigi": 3617,
      "##sızlık": 3618,
      "▁borsa": 3619,
      "▁davet": 3620,
      "▁sizi": 3621,
      "▁yardımcısı": 3622,
      "▁tarihi": 3623,
      "▁bununla": 3624,
      "▁doları'na": 3625,
      "▁sigorta": 3626,
      "▁oakland'dan": 3627,
      "▁milwaukee'ye": 3628,
      "▁vazgec": 3629,
      "▁kayıt": 3630,
      "##cileri": 3631,
      "##mustur": 3632,
      "##br": 3633,
      "##ern": 3634,
      "▁kısı": 3635,
      "▁ye": 3636,
      "##alle": 3637,
      "▁ceb": 3638,
      "▁mc": 3639,
      "▁nik": 3640,
      "▁rol": 3641,
      "▁zay": 3642,
      "##elerden": 3643,
      "▁lis": 3644,
      "##lamaya": 3645,
      "▁oldugum": 3646,
      "▁ikisi": 3647,
      "##egini": 3648,
      "##dikten": 3649,
      "▁yasama": 3650,
      "##diginde": 3651,
      "▁evi": 3652,
      "##ediler": 3653,
      "▁bakıyor": 3654,
      "##0000": 3655,
      "▁3/": 3656,
      "▁hayvan": 3657,
      "##masının": 3658,
      "▁acıklan": 3659,
      "▁ederiz": 3660,
      "##ıldıgını": 3661,
      "▁yuruy": 3662,
      "▁saray": 3663,
      "▁askeri": 3664,
      "▁kumas": 3665,
      "▁mahkeme": 3666,
      "▁cocugun": 3667,
      "▁dc'ye": 3668,
      "▁bogaz": 3669,
      "▁yuvar": 3670,
      "▁galib": 3671,
      "▁miami'ye": 3672,
      "▁havalim": 3673,
      "▁petersburg": 3674,
      "##rum": 3675,
      "##gim": 3676,
      "##ire": 3677,
      "▁oc": 3678,
      "▁ote": 3679,
      "##ale": 3680,
      "##onik": 3681,
      "▁oldum": 3682,
      "##ısıyla": 3683,
      "▁alıcı": 3684,
      "▁varsa": 3685,
      "▁istih": 3686,
      "▁konak": 3687,
      "▁yasak": 3688,
      "▁tuttu": 3689,
      "▁40": 3690,
      "▁duyar": 3691,
      "▁amerika": 3692,
      "▁kalkıs": 3693,
      "▁kisisel": 3694,
      "▁stok": 3695,
      "▁ayakk": 3696,
      "▁havaalan": 3697,
      "##ebilecek": 3698,
      "▁bush": 3699,
      "▁efendi": 3700,
      "▁sipar": 3701,
      "▁zayif": 3702,
      "##cılık": 3703,
      "##ere": 3704,
      "▁kel": 3705,
      "##aladı": 3706,
      "▁tıp": 3707,
      "▁cır": 3708,
      "##etin": 3709,
      "##emin": 3710,
      "▁fıs": 3711,
      "▁karanlık": 3712,
      "##alardan": 3713,
      "▁gib": 3714,
      "##medigini": 3715,
      "▁organ": 3716,
      "▁ig": 3717,
      "▁otuz": 3718,
      "▁californ": 3719,
      "▁tutun": 3720,
      "▁ettigini": 3721,
      "▁nash": 3722,
      "▁anne": 3723,
      "▁bizimle": 3724,
      "▁kopek": 3725,
      "▁etkil": 3726,
      "▁seviyesine": 3727,
      "▁bicim": 3728,
      "▁normaldi": 3729,
      "▁uluslararası": 3730,
      "##kel": 3731,
      "##uv": 3732,
      "##oma": 3733,
      "##gen": 3734,
      "##bat": 3735,
      "##west": 3736,
      "▁bl": 3737,
      "▁beye": 3738,
      "##anda": 3739,
      "▁sm": 3740,
      "▁dagıt": 3741,
      "▁utan": 3742,
      "##istik": 3743,
      "▁alma": 3744,
      "##gileri": 3745,
      "▁kaliforn": 3746,
      "▁basit": 3747,
      "▁gorur": 3748,
      "▁isteyen": 3749,
      "##lasyon": 3750,
      "▁geciyor": 3751,
      "##ustri": 3752,
      "▁park": 3753,
      "▁parti": 3754,
      "##diklerini": 3755,
      "▁aj": 3756,
      "▁halen": 3757,
      "▁tampa": 3758,
      "▁lezzeti": 3759,
      "##ıldıgı": 3760,
      "▁kalkıp": 3761,
      "##laka": 3762,
      "▁gorunce": 3763,
      "▁cagır": 3764,
      "▁guvenlik": 3765,
      "▁finan": 3766,
      "##ohn": 3767,
      "▁siyasi": 3768,
      "▁stratej": 3769,
      "▁california": 3770,
      "##rim": 3771,
      "##uar": 3772,
      "##tis": 3773,
      "##dog": 3774,
      "##bası": 3775,
      "▁bed": 3776,
      "##iski": 3777,
      "▁hin": 3778,
      "▁cur": 3779,
      "▁mir": 3780,
      "▁piy": 3781,
      "▁pac": 3782,
      "##ılım": 3783,
      "##apur": 3784,
      "▁karak": 3785,
      "▁verecek": 3786,
      "▁konut": 3787,
      "▁yıldız": 3788,
      "▁parca": 3789,
      "▁24": 3790,
      "▁sendik": 3791,
      "▁yetis": 3792,
      "▁azından": 3793,
      "▁dolayı": 3794,
      "▁ozgur": 3795,
      "▁koyun": 3796,
      "▁avuc": 3797,
      "▁simdiye": 3798,
      "##tere": 3799,
      "▁merdi": 3800,
      "▁hamam": 3801,
      "▁muzik": 3802,
      "▁yaptirmadim": 3803,
      "▁sikayet": 3804,
      "▁superdi": 3805,
      "▁nakit": 3806,
      "▁yemegi": 3807,
      "▁indianapolis'ten": 3808,
      "▁enflasyon": 3809,
      "▁profes": 3810,
      "▁kısıt": 3811,
      "▁nashville": 3812,
      "##aat": 3813,
      "##lası": 3814,
      "##lılık": 3815,
      "##ule": 3816,
      "▁kuy": 3817,
      "##asın": 3818,
      "##isik": 3819,
      "▁birik": 3820,
      "##ese": 3821,
      "##lerdir": 3822,
      "▁peki": 3823,
      "▁edi": 3824,
      "▁ilg": 3825,
      "▁kalın": 3826,
      "▁baslıyor": 3827,
      "▁gormedim": 3828,
      "▁yapmaya": 3829,
      "▁ayı": 3830,
      "▁oraya": 3831,
      "▁lond": 3832,
      "▁gunleri": 3833,
      "▁teslim": 3834,
      "▁kurt": 3835,
      "▁buldum": 3836,
      "▁durdur": 3837,
      "##veris": 3838,
      "▁azalt": 3839,
      "▁dolay": 3840,
      "▁insanları": 3841,
      "▁john": 3842,
      "▁ucretin": 3843,
      "▁hisseler": 3844,
      "▁ulastı": 3845,
      "▁aldıgı": 3846,
      "▁olacaktır": 3847,
      "▁cogun": 3848,
      "▁lider": 3849,
      "##neapolis": 3850,
      "▁mektup": 3851,
      "▁minneapolis": 3852,
      "▁chicago'dan": 3853,
      "▁pilot": 3854,
      "▁international": 3855,
      "▁stand": 3856,
      "▁elbette": 3857,
      "▁jose": 3858,
      "▁tucc": 3859,
      "▁restor": 3860,
      "##dek": 3861,
      "##yı": 3862,
      "##yas": 3863,
      "##30": 3864,
      "▁dib": 3865,
      "##eniz": 3866,
      "##endir": 3867,
      "##allı": 3868,
      "▁tef": 3869,
      "▁tren": 3870,
      "▁con": 3871,
      "▁cad": 3872,
      "▁mod": 3873,
      "##esel": 3874,
      "▁nam": 3875,
      "▁goren": 3876,
      "▁kart": 3877,
      "##mekten": 3878,
      "▁yerini": 3879,
      "▁28": 3880,
      "▁personellerin": 3881,
      "▁oysa": 3882,
      "▁yuzyıl": 3883,
      "▁boyu": 3884,
      "▁fiyatina": 3885,
      "▁gozu": 3886,
      "▁derec": 3887,
      "▁gerekir": 3888,
      "▁adamı": 3889,
      "##ımıza": 3890,
      "▁kasab": 3891,
      "▁satısları": 3892,
      "##madıgını": 3893,
      "▁teklifi": 3894,
      "##cilerin": 3895,
      "▁karısık": 3896,
      "▁sinem": 3897,
      "▁olumsuz": 3898,
      "▁urunleri": 3899,
      "▁cocugu": 3900,
      "▁hacim": 3901,
      "▁savunma": 3902,
      "▁manzar": 3903,
      "▁muhtemelen": 3904,
      "▁ec": 3905,
      "##o'nun": 3906,
      "##d.": 3907,
      "##dat": 3908,
      "##cilik": 3909,
      "##his": 3910,
      "▁bez": 3911,
      "▁gemi": 3912,
      "▁odan": 3913,
      "▁terk": 3914,
      "▁birini": 3915,
      "##use": 3916,
      "▁anay": 3917,
      "▁gorduk": 3918,
      "▁zam": 3919,
      "##elerle": 3920,
      "▁degillerdi": 3921,
      "##ustum": 3922,
      "▁eli": 3923,
      "▁temin": 3924,
      "▁yerden": 3925,
      "▁buyum": 3926,
      "▁sozcu": 3927,
      "▁edebilir": 3928,
      "▁uygundu": 3929,
      "▁mutf": 3930,
      "▁etkin": 3931,
      "▁irak": 3932,
      "▁donemde": 3933,
      "▁teknik": 3934,
      "▁garip": 3935,
      "▁tasarru": 3936,
      "▁colum": 3937,
      "▁tokyo": 3938,
      "▁toronto'dan": 3939,
      "▁bilesik": 3940,
      "▁harikaydi": 3941,
      "##fe": 3942,
      "##our": 3943,
      "##gır": 3944,
      "##hi": 3945,
      "##'lik": 3946,
      "##bin": 3947,
      "▁sif": 3948,
      "▁som": 3949,
      "▁yit": 3950,
      "##und": 3951,
      "▁cig": 3952,
      "▁birligi": 3953,
      "##atlar": 3954,
      "▁pla": 3955,
      "##ulur": 3956,
      "▁ep": 3957,
      "▁ex": 3958,
      "##dıgım": 3959,
      "▁basın": 3960,
      "▁basbak": 3961,
      "▁zir": 3962,
      "▁yapmayı": 3963,
      "▁veril": 3964,
      "▁aks": 3965,
      "▁kuru": 3966,
      "▁paraya": 3967,
      "▁yeri": 3968,
      "▁29": 3969,
      "▁yanına": 3970,
      "▁dondur": 3971,
      "▁adamın": 3972,
      "##ecegiz": 3973,
      "▁piyasası": 3974,
      "▁amerikalı": 3975,
      "▁mutlaka": 3976,
      "▁hoc": 3977,
      "▁fırsat": 3978,
      "▁pahali": 3979,
      "▁dakik": 3980,
      "▁nihayet": 3981,
      "##leyebilir": 3982,
      "▁gunduz": 3983,
      "▁kapasit": 3984,
      "▁ayakkabı": 3985,
      "##mey": 3986,
      "##par": 3987,
      "▁seye": 3988,
      "##akende": 3989,
      "▁tad": 3990,
      "▁toz": 3991,
      "##isleri": 3992,
      "▁cos": 3993,
      "▁val": 3994,
      "▁vası": 3995,
      "##usunun": 3996,
      "##adir": 3997,
      "##ıstı": 3998,
      "##aci": 3999,
      "▁ilgisi": 4000,
      "▁kalem": 4001,
      "▁karı": 4002,
      "▁kararı": 4003,
      "▁zey": 4004,
      "##ilerdi": 4005,
      "▁bilg": 4006,
      "##ucuk": 4007,
      "▁dusen": 4008,
      "▁acıldı": 4009,
      "##tep": 4010,
      "##acaktır": 4011,
      "▁elini": 4012,
      "##lıktan": 4013,
      "▁tesv": 4014,
      "▁yasındaki": 4015,
      "##lemeye": 4016,
      "##eder": 4017,
      "▁belg": 4018,
      "▁zamanlarda": 4019,
      "▁calısma": 4020,
      "▁fazlay": 4021,
      "▁oks": 4022,
      "▁tasım": 4023,
      "▁secen": 4024,
      "##dıktan": 4025,
      "▁dunyada": 4026,
      "▁turkiye'de": 4027,
      "▁turkiye'nin": 4028,
      "▁parcası": 4029,
      "▁cabuk": 4030,
      "▁renkli": 4031,
      "▁muduru": 4032,
      "▁temmuz'da": 4033,
      "▁lira": 4034,
      "▁diego'ya": 4035,
      "▁idare": 4036,
      "▁tiyatro": 4037,
      "▁kahvalti": 4038,
      "▁duzelt": 4039,
      "▁hijyenik": 4040,
      "▁kasıgı": 4041,
      "▁tasarruf": 4042,
      "▁0": 4043,
      "##ry": 4044,
      "##ugu": 4045,
      "##cılı": 4046,
      "##har": 4047,
      "▁bet": 4048,
      "▁huc": 4049,
      "##iyon": 4050,
      "▁mim": 4051,
      "##urlar": 4052,
      "▁paket": 4053,
      "##ımın": 4054,
      "##oyu": 4055,
      "▁zinc": 4056,
      "▁yaptır": 4057,
      "##elerinden": 4058,
      "##larındaki": 4059,
      "▁kadının": 4060,
      "▁elinden": 4061,
      "▁olmadan": 4062,
      "▁olmustur": 4063,
      "▁cıkıyor": 4064,
      "▁tesisi": 4065,
      "▁yıldır": 4066,
      "▁yoksa": 4067,
      "▁adi": 4068,
      "▁duran": 4069,
      "▁gozlem": 4070,
      "▁sair": 4071,
      "▁serb": 4072,
      "▁sevin": 4073,
      "▁ediyorlar": 4074,
      "##acagına": 4075,
      "▁45": 4076,
      "▁gerekli": 4077,
      "▁gerektir": 4078,
      "▁tasın": 4079,
      "##ımızı": 4080,
      "##ecegine": 4081,
      "▁bulundugu": 4082,
      "▁hakkinda": 4083,
      "▁canlı": 4084,
      "▁mantık": 4085,
      "▁perakende": 4086,
      "▁kavram": 4087,
      "▁olmustu": 4088,
      "▁1990": 4089,
      "▁chicago'ya": 4090,
      "▁phoenix'den": 4091,
      "▁bono": 4092,
      "▁bahseder": 4093,
      "▁delikanlı": 4094,
      "▁mulk": 4095,
      "▁standart": 4096,
      "##tın": 4097,
      "##ow": 4098,
      "##ala": 4099,
      "▁tv": 4100,
      "##amb": 4101,
      "##amet": 4102,
      "▁nuf": 4103,
      "##ulen": 4104,
      "▁ila": 4105,
      "▁rob": 4106,
      "▁kalma": 4107,
      "##lıgına": 4108,
      "▁zeh": 4109,
      "▁yapılmıs": 4110,
      "▁gelin": 4111,
      "▁verin": 4112,
      "##ilerine": 4113,
      "##ilerinin": 4114,
      "▁ordu": 4115,
      "▁acısından": 4116,
      "▁yarar": 4117,
      "▁com": 4118,
      "▁bulus": 4119,
      "▁buldu": 4120,
      "▁personelin": 4121,
      "▁yakal": 4122,
      "▁fiyatlarını": 4123,
      "▁devir": 4124,
      "▁yolda": 4125,
      "▁yonlendir": 4126,
      "▁sekl": 4127,
      "▁korum": 4128,
      "▁koylu": 4129,
      "▁lezzetliydi": 4130,
      "▁muhaf": 4131,
      "▁dusundu": 4132,
      "▁dusunmuyor": 4133,
      "▁milyardan": 4134,
      "▁ulasıl": 4135,
      "▁kamyon": 4136,
      "▁barıs": 4137,
      "▁polis": 4138,
      "▁makal": 4139,
      "▁eyalet": 4140,
      "##tigim": 4141,
      "▁hoca": 4142,
      "▁belirtti": 4143,
      "▁dususle": 4144,
      "▁ceyrekte": 4145,
      "▁nefes": 4146,
      "▁tacoma": 4147,
      "▁ertesi": 4148,
      "▁zayifti": 4149,
      "##tısı": 4150,
      "##'la": 4151,
      "##erin": 4152,
      "▁kılı": 4153,
      "▁suk": 4154,
      "##alik": 4155,
      "##aseb": 4156,
      "##lardır": 4157,
      "##eld": 4158,
      "▁hel": 4159,
      "▁ceh": 4160,
      "▁fat": 4161,
      "##ımdan": 4162,
      "▁nic": 4163,
      "▁north": 4164,
      "##agında": 4165,
      "▁ucan": 4166,
      "##iyoruz": 4167,
      "▁baslayan": 4168,
      "▁iyil": 4169,
      "##ilerden": 4170,
      "▁dusmus": 4171,
      "▁adını": 4172,
      "▁adina": 4173,
      "▁asık": 4174,
      "▁suru": 4175,
      "▁arasına": 4176,
      "▁frank": 4177,
      "##ladıgı": 4178,
      "▁keskin": 4179,
      "▁dudak": 4180,
      "▁koyu": 4181,
      "▁kacır": 4182,
      "▁edebil": 4183,
      "▁emir": 4184,
      "▁kisinin": 4185,
      "▁arkadaslar": 4186,
      "▁cozum": 4187,
      "▁kocaman": 4188,
      "▁ceza": 4189,
      "▁dogrusu": 4190,
      "▁eglenc": 4191,
      "▁tehdi": 4192,
      "▁kalabalık": 4193,
      "▁baslangıc": 4194,
      "▁yildizli": 4195,
      "▁kaliforniya": 4196,
      "▁serbest": 4197,
      "##ck": 4198,
      "##meyecek": 4199,
      "##arım": 4200,
      "▁bro": 4201,
      "##an'ın": 4202,
      "▁dip": 4203,
      "▁damak": 4204,
      "##akar": 4205,
      "▁hul": 4206,
      "▁celik": 4207,
      "▁birtak": 4208,
      "▁mel": 4209,
      "▁vapur": 4210,
      "##usuz": 4211,
      "##emedi": 4212,
      "##ırken": 4213,
      "##iti": 4214,
      "▁ef": 4215,
      "▁ilav": 4216,
      "▁icinden": 4217,
      "▁yaprak": 4218,
      "##'ne": 4219,
      "▁yarıs": 4220,
      "▁uyar": 4221,
      "▁uyku": 4222,
      "▁evlen": 4223,
      "▁yanıt": 4224,
      "▁esit": 4225,
      "▁zamanı": 4226,
      "▁hakim": 4227,
      "##masından": 4228,
      "▁tanrı": 4229,
      "▁yemeklerden": 4230,
      "▁hakkı": 4231,
      "▁kral": 4232,
      "▁merkezli": 4233,
      "▁babası": 4234,
      "▁masraf": 4235,
      "▁mesaj": 4236,
      "▁gulum": 4237,
      "▁harcam": 4238,
      "▁geor": 4239,
      "▁osmanlı": 4240,
      "▁civarında": 4241,
      "▁acıklanmadı": 4242,
      "▁londra": 4243,
      "▁birtakım": 4244,
      "▁lan": 4245,
      "##rika": 4246,
      "##lasıyor": 4247,
      "##nam": 4248,
      "##cık": 4249,
      "##cev": 4250,
      "##yal": 4251,
      "##b.": 4252,
      "##ert": 4253,
      "##anları": 4254,
      "▁omuz": 4255,
      "##alya": 4256,
      "##unlu": 4257,
      "##akal": 4258,
      "▁tul": 4259,
      "▁hadi": 4260,
      "▁birinde": 4261,
      "▁med": 4262,
      "▁pir": 4263,
      "▁olun": 4264,
      "▁olası": 4265,
      "##agi": 4266,
      "▁ucaga": 4267,
      "▁alay": 4268,
      "▁raf": 4269,
      "▁1\\/": 4270,
      "▁sonu": 4271,
      "▁nev": 4272,
      "▁gelince": 4273,
      "▁ayar": 4274,
      "##ersin": 4275,
      "▁oradan": 4276,
      "▁deney": 4277,
      "▁oldular": 4278,
      "▁gunun": 4279,
      "▁gunde": 4280,
      "▁kodu": 4281,
      "▁kursun": 4282,
      "##cıları": 4283,
      "▁beyin": 4284,
      "##imizde": 4285,
      "▁odeme": 4286,
      "▁cocukları": 4287,
      "▁ihtim": 4288,
      "▁tahta": 4289,
      "▁kanıt": 4290,
      "▁koydu": 4291,
      "▁sırasında": 4292,
      "▁kırık": 4293,
      "▁yurut": 4294,
      "▁belirli": 4295,
      "##abilmek": 4296,
      "▁bahce": 4297,
      "▁bahset": 4298,
      "▁misiniz": 4299,
      "▁perd": 4300,
      "▁anlamına": 4301,
      "▁bardak": 4302,
      "▁icerisinde": 4303,
      "▁tahvilleri": 4304,
      "▁iri": 4305,
      "▁yeterince": 4306,
      "▁paylas": 4307,
      "▁basarısız": 4308,
      "▁sigara": 4309,
      "▁calisan": 4310,
      "▁devral": 4311,
      "▁brit": 4312,
      "▁davranıs": 4313,
      "▁agustos'ta": 4314,
      "▁arastırma": 4315,
      "▁meclis": 4316,
      "▁eglence": 4317,
      "▁mezar": 4318,
      "▁bagımsız": 4319,
      "▁tedavul": 4320,
      "▁enerji": 4321,
      "▁basvur": 4322,
      "▁merdiven": 4323,
      "##ron": 4324,
      "##sik": 4325,
      "##yası": 4326,
      "##eliydi": 4327,
      "▁birisi": 4328,
      "▁vah": 4329,
      "##emis": 4330,
      "▁ual": 4331,
      "##iciler": 4332,
      "##ultu": 4333,
      "▁aldım": 4334,
      "▁aray": 4335,
      "▁artan": 4336,
      "▁basarı": 4337,
      "▁daima": 4338,
      "##adıgı": 4339,
      "▁denk": 4340,
      "▁eline": 4341,
      "▁gunlerde": 4342,
      "▁seyir": 4343,
      "▁aday": 4344,
      "▁yoktur": 4345,
      "▁kapıyı": 4346,
      "▁uyustur": 4347,
      "▁suren": 4348,
      "▁durdu": 4349,
      "▁belediye": 4350,
      "▁3.": 4351,
      "▁sirketleri": 4352,
      "▁haric": 4353,
      "▁prot": 4354,
      "▁sozu": 4355,
      "▁kisiler": 4356,
      "▁ayakta": 4357,
      "▁ifad": 4358,
      "▁bankası": 4359,
      "▁sonrasında": 4360,
      "▁hacmi": 4361,
      "▁kimsenin": 4362,
      "▁ankete": 4363,
      "▁komisyonu": 4364,
      "▁detay": 4365,
      "▁dostu": 4366,
      "▁sikinti": 4367,
      "▁katkıda": 4368,
      "▁galiba": 4369,
      "▁tesvik": 4370,
      "▁bahsederim": 4371,
      "##rah": 4372,
      "##sey": 4373,
      "##layı": 4374,
      "##gımı": 4375,
      "##diniz": 4376,
      "##erdi": 4377,
      "##enn": 4378,
      "##unt": 4379,
      "##ons": 4380,
      "##atın": 4381,
      "▁pal": 4382,
      "▁pırıl": 4383,
      "▁buk": 4384,
      "▁aran": 4385,
      "▁basa": 4386,
      "▁baslar": 4387,
      "▁basladım": 4388,
      "##tıcı": 4389,
      "▁zaf": 4390,
      "▁yapmıs": 4391,
      "▁sonuna": 4392,
      "▁gelmedi": 4393,
      "▁varacak": 4394,
      "▁verildi": 4395,
      "▁bilmem": 4396,
      "##ıyoruz": 4397,
      "▁org": 4398,
      "##likler": 4399,
      "▁cıkıs": 4400,
      "##ege": 4401,
      "##eginde": 4402,
      "▁yerlestir": 4403,
      "▁yararlan": 4404,
      "##larınız": 4405,
      "##diginiz": 4406,
      "▁durus": 4407,
      "▁oglen": 4408,
      "▁oglum": 4409,
      "▁insanı": 4410,
      "▁burbank": 4411,
      "▁ucretleri": 4412,
      "##lattı": 4413,
      "▁koltu": 4414,
      "▁lezzetleri": 4415,
      "##iber": 4416,
      "▁nedeni": 4417,
      "▁unlu": 4418,
      "▁kriz": 4419,
      "▁barda": 4420,
      "▁sıc": 4421,
      "▁dile": 4422,
      "▁komsu": 4423,
      "▁duzenlem": 4424,
      "▁iliskiler": 4425,
      "▁haberdar": 4426,
      "▁nerede": 4427,
      "▁cins": 4428,
      "▁golg": 4429,
      "▁tırman": 4430,
      "▁bilimsel": 4431,
      "▁pisir": 4432,
      "▁a.b.": 4433,
      "▁beach": 4434,
      "▁keyif": 4435,
      "▁fazlaydi": 4436,
      "##ner": 4437,
      "##ood": 4438,
      "##cag": 4439,
      "##ze": 4440,
      "▁seri": 4441,
      "▁deli": 4442,
      "▁tey": 4443,
      "▁cim": 4444,
      "▁birey": 4445,
      "▁vol": 4446,
      "▁pop": 4447,
      "▁bug": 4448,
      "##ica": 4449,
      "▁eh": 4450,
      "▁rah": 4451,
      "▁zih": 4452,
      "▁etmez": 4453,
      "▁orman": 4454,
      "▁geceleri": 4455,
      "▁gecici": 4456,
      "▁acaba": 4457,
      "▁sanayi": 4458,
      "▁olanlar": 4459,
      "▁elli": 4460,
      "▁olmay": 4461,
      "▁yıllarda": 4462,
      "##ecektir": 4463,
      "▁buyume": 4464,
      "▁hizmetten": 4465,
      "▁arttır": 4466,
      "▁sorustur": 4467,
      "##ladılar": 4468,
      "▁sevinc": 4469,
      "▁yont": 4470,
      "▁calısmalar": 4471,
      "▁giriste": 4472,
      "▁500": 4473,
      "▁korkun": 4474,
      "##ımızda": 4475,
      "▁hissesi": 4476,
      "▁merkeze": 4477,
      "▁yaygın": 4478,
      "▁ediliyor": 4479,
      "▁ulke": 4480,
      "▁darb": 4481,
      "▁programı": 4482,
      "▁yiyecekler": 4483,
      "▁ugras": 4484,
      "▁analiz": 4485,
      "▁fener": 4486,
      "▁yuzluydu": 4487,
      "▁degerlendiririm": 4488,
      "▁bakanlıgı": 4489,
      "▁charlotte'den": 4490,
      "▁newark'tan": 4491,
      "▁defter": 4492,
      "▁taze": 4493,
      "▁geriledi": 4494,
      "▁ilave": 4495,
      "##ris": 4496,
      "##liligi": 4497,
      "##ebi": 4498,
      "##cının": 4499,
      "##yum": 4500,
      "▁bacak": 4501,
      "##inal": 4502,
      "##oru": 4503,
      "##elle": 4504,
      "▁miyim": 4505,
      "##adilar": 4506,
      "▁pos": 4507,
      "##eyip": 4508,
      "##uklu": 4509,
      "▁dedik": 4510,
      "▁arka": 4511,
      "▁coktan": 4512,
      "▁zav": 4513,
      "▁ettir": 4514,
      "▁bilinc": 4515,
      "##erse": 4516,
      "▁herif": 4517,
      "##tanın": 4518,
      "▁olmayacak": 4519,
      "▁seyin": 4520,
      "▁adlı": 4521,
      "##digine": 4522,
      "▁donan": 4523,
      "▁esas": 4524,
      "▁oyku": 4525,
      "▁degeri": 4526,
      "▁hizmete": 4527,
      "▁yemeklerin": 4528,
      "▁topr": 4529,
      "▁yetistir": 4530,
      "▁kaybol": 4531,
      "▁ortadan": 4532,
      "▁otele": 4533,
      "##lukla": 4534,
      "▁5'ten": 4535,
      "▁getiri": 4536,
      "▁getirdi": 4537,
      "▁gitmis": 4538,
      "▁sayf": 4539,
      "▁sayesinde": 4540,
      "▁yurum": 4541,
      "▁nedenle": 4542,
      "▁sıkın": 4543,
      "##ligine": 4544,
      "▁masanın": 4545,
      "▁kisilik": 4546,
      "▁eskiden": 4547,
      "##dıkları": 4548,
      "▁1987": 4549,
      "▁edilmis": 4550,
      "##elendir": 4551,
      "▁sistemi": 4552,
      "▁alısveris": 4553,
      "▁dc'den": 4554,
      "▁alaka": 4555,
      "▁elektronik": 4556,
      "▁meydana": 4557,
      "▁radyo": 4558,
      "▁memphis'ten": 4559,
      "▁peynir": 4560,
      "▁yansıt": 4561,
      "##red": 4562,
      "##sar": 4563,
      "##gıl": 4564,
      "##ding": 4565,
      "##mada": 4566,
      "##madık": 4567,
      "##biy": 4568,
      "▁dagı": 4569,
      "##ilebilir": 4570,
      "##elig": 4571,
      "##ona": 4572,
      "▁maz": 4573,
      "##amam": 4574,
      "##ırda": 4575,
      "##azı": 4576,
      "##ledigi": 4577,
      "▁alarak": 4578,
      "▁ruy": 4579,
      "▁basından": 4580,
      "▁nez": 4581,
      "▁isra": 4582,
      "▁verici": 4583,
      "▁denet": 4584,
      "▁mill": 4585,
      "▁otob": 4586,
      "##uydu": 4587,
      "▁yıla": 4588,
      "▁yasay": 4589,
      "▁yasayan": 4590,
      "▁tarz": 4591,
      "▁donuyor": 4592,
      "▁yuzune": 4593,
      "▁soylediler": 4594,
      "▁odada": 4595,
      "▁odadan": 4596,
      "##lerindeki": 4597,
      "▁serin": 4598,
      "##masında": 4599,
      "▁genelde": 4600,
      "▁muhal": 4601,
      "▁aksama": 4602,
      "▁savası": 4603,
      "##mamak": 4604,
      "##toru": 4605,
      "##mayın": 4606,
      "▁anlattı": 4607,
      "▁kutu": 4608,
      "▁kahvalt": 4609,
      "▁rahatsız": 4610,
      "▁koku": 4611,
      "▁cagr": 4612,
      "▁sonradan": 4613,
      "##ova": 4614,
      "▁gazete": 4615,
      "▁mısır": 4616,
      "▁rengi": 4617,
      "▁hepsini": 4618,
      "▁gayrim": 4619,
      "▁newark'a": 4620,
      "▁numaralı": 4621,
      "▁vatand": 4622,
      "▁istedigi": 4623,
      "▁bakımından": 4624,
      "▁istifa": 4625,
      "▁danısman": 4626,
      "▁tedbir": 4627,
      "▁sohbet": 4628,
      "▁pozisyon": 4629,
      "▁yitir": 4630,
      "▁ulasılamadı": 4631,
      "▁uyusturucu": 4632,
      "▁q": 4633,
      "##say": 4634,
      "▁bec": 4635,
      "##ang": 4636,
      "▁kagı": 4637,
      "▁dosy": 4638,
      "##astır": 4639,
      "##larımı": 4640,
      "##eledi": 4641,
      "##ete": 4642,
      "##amiz": 4643,
      "##ato": 4644,
      "##lerimi": 4645,
      "##adem": 4646,
      "▁post": 4647,
      "##ırtı": 4648,
      "▁oluyordu": 4649,
      "▁bulan": 4650,
      "##aguar": 4651,
      "▁eb": 4652,
      "▁aracı": 4653,
      "▁rum": 4654,
      "##giler": 4655,
      "▁kalb": 4656,
      "▁kalır": 4657,
      "▁zek": 4658,
      "▁1.5": 4659,
      "▁yapmadı": 4660,
      "▁isv": 4661,
      "▁isleri": 4662,
      "▁geldigi": 4663,
      "▁dahi": 4664,
      "▁benden": 4665,
      "##likleri": 4666,
      "▁elem": 4667,
      "▁gunah": 4668,
      "##lıklar": 4669,
      "▁olmaya": 4670,
      "▁ikti": 4671,
      "##guna": 4672,
      "##digimi": 4673,
      "▁esim": 4674,
      "##omb": 4675,
      "▁sevgi": 4676,
      "▁ustelik": 4677,
      "▁44": 4678,
      "▁cars": 4679,
      "##ımızın": 4680,
      "##ildigi": 4681,
      "▁kabil": 4682,
      "▁sayısı": 4683,
      "##elikle": 4684,
      "▁degisim": 4685,
      "▁sahiptir": 4686,
      "▁kitabı": 4687,
      "▁camasır": 4688,
      "▁ahmet": 4689,
      "▁sacları": 4690,
      "▁erkekler": 4691,
      "▁devrim": 4692,
      "▁ortalam": 4693,
      "▁ingiltere": 4694,
      "▁dusunuyorum": 4695,
      "▁kalabalik": 4696,
      "▁icecekler": 4697,
      "▁1/2": 4698,
      "▁sorumlu": 4699,
      "▁senetleri": 4700,
      "▁cercev": 4701,
      "▁holding": 4702,
      "▁mucadele": 4703,
      "▁ekibi": 4704,
      "▁cırp": 4705,
      "▁israil": 4706,
      "##uler": 4707,
      "##gal": 4708,
      "##memek": 4709,
      "▁kost": 4710,
      "▁sic": 4711,
      "##endis": 4712,
      "##asındaki": 4713,
      "▁tım": 4714,
      "▁twa": 4715,
      "##ekleri": 4716,
      "##ırt": 4717,
      "▁olagan": 4718,
      "##ısık": 4719,
      "##ack": 4720,
      "▁ny": 4721,
      "▁araya": 4722,
      "▁coktu": 4723,
      "▁kalacak": 4724,
      "▁bastır": 4725,
      "##ıza": 4726,
      "▁verdik": 4727,
      "▁lyn": 4728,
      "▁deneme": 4729,
      "▁gunler": 4730,
      "▁gunden": 4731,
      "##eyebilir": 4732,
      "▁bakalım": 4733,
      "▁37": 4734,
      "▁dogan": 4735,
      "▁toparlan": 4736,
      "▁yeten": 4737,
      "▁wil": 4738,
      "▁leh": 4739,
      "▁prens": 4740,
      "▁kanada": 4741,
      "▁ettig": 4742,
      "##ester": 4743,
      "▁takdir": 4744,
      "▁hisseye": 4745,
      "▁olurdu": 4746,
      "▁kred": 4747,
      "▁binlerce": 4748,
      "▁planı": 4749,
      "▁usul": 4750,
      "▁hayatın": 4751,
      "▁mevz": 4752,
      "▁gelenek": 4753,
      "▁aktarma": 4754,
      "▁kitab": 4755,
      "##malıdır": 4756,
      "▁ticarette": 4757,
      "▁odalari": 4758,
      "▁bicimde": 4759,
      "▁ibm": 4760,
      "▁mail": 4761,
      "▁kimseye": 4762,
      "▁felaket": 4763,
      "▁houston'a": 4764,
      "▁husus": 4765,
      "▁kendilerini": 4766,
      "▁teknoloji": 4767,
      "▁gumus": 4768,
      "▁bulut": 4769,
      "▁ajans": 4770,
      "▁epey": 4771,
      "##ai": 4772,
      "##rill": 4773,
      "##ıda": 4774,
      "##ud": 4775,
      "##igi": 4776,
      "##deydi": 4777,
      "##80": 4778,
      "##32": 4779,
      "##45": 4780,
      "▁ste": 4781,
      "▁teb": 4782,
      "▁ca": 4783,
      "##etik": 4784,
      "##amı": 4785,
      "##amadım": 4786,
      "##emiyorum": 4787,
      "▁pap": 4788,
      "▁pant": 4789,
      "▁fl": 4790,
      "▁ford": 4791,
      "##ılabilir": 4792,
      "▁ucu": 4793,
      "▁icme": 4794,
      "##lugunu": 4795,
      "▁ucusun": 4796,
      "▁sonucu": 4797,
      "▁isit": 4798,
      "▁ayse": 4799,
      "▁bileti": 4800,
      "##medigi": 4801,
      "▁herhal": 4802,
      "▁sanırım": 4803,
      "▁soylemek": 4804,
      "##mekte": 4805,
      "▁aklı": 4806,
      "▁yerinden": 4807,
      "▁cop": 4808,
      "▁otelde": 4809,
      "##distan": 4810,
      "▁jaguar": 4811,
      "▁konusuyor": 4812,
      "▁kullanılan": 4813,
      "▁hissedar": 4814,
      "▁adamları": 4815,
      "▁listesini": 4816,
      "##leyerek": 4817,
      "▁muhendis": 4818,
      "▁maliyeti": 4819,
      "▁imal": 4820,
      "##hane": 4821,
      "▁degerli": 4822,
      "▁10'dan": 4823,
      "▁6'dan": 4824,
      "▁anlama": 4825,
      "▁sıv": 4826,
      "▁tarihinde": 4827,
      "▁harekete": 4828,
      "▁komit": 4829,
      "▁yenil": 4830,
      "▁alındı": 4831,
      "▁muzak": 4832,
      "▁$'dan": 4833,
      "▁pahalı": 4834,
      "▁oldugundan": 4835,
      "▁uygulan": 4836,
      "▁sezon": 4837,
      "▁miami'den": 4838,
      "▁finansal": 4839,
      "▁kısmı": 4840,
      "▁grubu": 4841,
      "▁reform": 4842,
      "▁yolculuk": 4843,
      "▁teminat": 4844,
      "▁zehir": 4845,
      "▁seklinde": 4846,
      "▁herhalde": 4847,
      "▁qu": 4848,
      "##sul": 4849,
      "##ıcak": 4850,
      "##ger": 4851,
      "##dadır": 4852,
      "##hat": 4853,
      "##vek": 4854,
      "▁bıcak": 4855,
      "##anti": 4856,
      "▁sch": 4857,
      "▁dans": 4858,
      "##altı": 4859,
      "▁hit": 4860,
      "##agının": 4861,
      "▁one": 4862,
      "##lanması": 4863,
      "▁karn": 4864,
      "▁karab": 4865,
      "▁etmedi": 4866,
      "▁verebilir": 4867,
      "##afet": 4868,
      "##lasmıs": 4869,
      "▁kadını": 4870,
      "▁sandal": 4871,
      "▁elden": 4872,
      "▁elleri": 4873,
      "▁ellerini": 4874,
      "▁olmasını": 4875,
      "##misler": 4876,
      "▁parayı": 4877,
      "▁parlak": 4878,
      "▁uyk": 4879,
      "▁esy": 4880,
      "▁yuzunu": 4881,
      "▁boyut": 4882,
      "▁gozden": 4883,
      "▁dolan": 4884,
      "▁kayde": 4885,
      "▁ortaydi": 4886,
      "▁cesaret": 4887,
      "▁burun": 4888,
      "##masın": 4889,
      "▁ucretlerini": 4890,
      "▁fazlas": 4891,
      "▁cesitleri": 4892,
      "▁dugun": 4893,
      "▁41": 4894,
      "▁tanık": 4895,
      "##leyip": 4896,
      "▁hasar": 4897,
      "▁hasan": 4898,
      "▁kaba": 4899,
      "▁dusunur": 4900,
      "▁piyasada": 4901,
      "▁oturmus": 4902,
      "▁gucu": 4903,
      "▁tabak": 4904,
      "▁mevsim": 4905,
      "▁dilim": 4906,
      "▁komut": 4907,
      "▁kusur": 4908,
      "▁ulkenin": 4909,
      "▁kafa": 4910,
      "▁bankalar": 4911,
      "▁taleb": 4912,
      "▁istanbul'a": 4913,
      "▁ipot": 4914,
      "▁destekli": 4915,
      "▁garson": 4916,
      "▁seviyesinden": 4917,
      "▁1991": 4918,
      "▁uygulam": 4919,
      "▁asagıda": 4920,
      "##larımızı": 4921,
      "##ılıgıyla": 4922,
      "▁kelime": 4923,
      "▁sultan": 4924,
      "▁matem": 4925,
      "▁ureticisi": 4926,
      "▁internet": 4927,
      "▁grub": 4928,
      "▁cleveland'dan": 4929,
      "▁mola": 4930,
      "▁yumusak": 4931,
      "▁gibiydi": 4932,
      "▁columbus": 4933,
      "▁zeytin": 4934,
      "▁muhafaz": 4935,
      "▁korkunc": 4936,
      "▁gayrimenkul": 4937,
      "▁becer": 4938,
      "▁pantol": 4939,
      "##kil": 4940,
      "##laya": 4941,
      "##gumu": 4942,
      "##haf": 4943,
      "##50": 4944,
      "▁siv": 4945,
      "▁dr": 4946,
      "▁dim": 4947,
      "▁goc": 4948,
      "▁traf": 4949,
      "▁vir": 4950,
      "##lerimiz": 4951,
      "##ems": 4952,
      "##umun": 4953,
      "##ledim": 4954,
      "▁nob": 4955,
      "▁arm": 4956,
      "▁araz": 4957,
      "▁arap": 4958,
      "▁ani": 4959,
      "▁kalmadı": 4960,
      "▁basta": 4961,
      "▁gormus": 4962,
      "▁karmas": 4963,
      "▁isini": 4964,
      "▁verilm": 4965,
      "▁kons": 4966,
      "##ersey": 4967,
      "##adıgını": 4968,
      "▁lt": 4969,
      "▁cıkıp": 4970,
      "▁parasını": 4971,
      "▁teker": 4972,
      "▁halka": 4973,
      "▁halihaz": 4974,
      "▁surat": 4975,
      "▁bakır": 4976,
      "▁bakanı": 4977,
      "▁muam": 4978,
      "▁agr": 4979,
      "▁ogl": 4980,
      "▁dogur": 4981,
      "▁dogum": 4982,
      "▁%7": 4983,
      "▁fransa": 4984,
      "▁sever": 4985,
      "▁kaydetti": 4986,
      "▁ortasında": 4987,
      "▁burn": 4988,
      "▁dert": 4989,
      "▁taht": 4990,
      "▁lev": 4991,
      "##inize": 4992,
      "▁tanıs": 4993,
      "▁gittim": 4994,
      "▁yuru": 4995,
      "▁sıkıntı": 4996,
      "##ment": 4997,
      "▁bahar": 4998,
      "▁chp": 4999,
      "▁taban": 5000,
      "▁firma": 5001,
      "▁firması": 5002,
      "▁umit": 5003,
      "▁devletin": 5004,
      "▁iflas": 5005,
      "▁soluk": 5006,
      "▁karsiladi": 5007,
      "▁dizi": 5008,
      "▁bilgiler": 5009,
      "▁bilgilendir": 5010,
      "▁katılım": 5011,
      "▁tuketici": 5012,
      "▁sarkı": 5013,
      "▁cleveland'a": 5014,
      "##baskan": 5015,
      "▁sofr": 5016,
      "▁elbis": 5017,
      "▁insana": 5018,
      "▁hindistan": 5019,
      "▁zincir": 5020,
      "▁lynch": 5021,
      "##ros": 5022,
      "##liler": 5023,
      "##nal": 5024,
      "##y's": 5025,
      "▁derken": 5026,
      "▁odul": 5027,
      "▁ce": 5028,
      "▁vet": 5029,
      "##usun": 5030,
      "▁isciler": 5031,
      "▁geliyordu": 5032,
      "##alarından": 5033,
      "▁konuyu": 5034,
      "##cegi": 5035,
      "▁ord": 5036,
      "▁long": 5037,
      "▁acent": 5038,
      "▁geriye": 5039,
      "##lıkları": 5040,
      "▁adalet": 5041,
      "▁yargı": 5042,
      "##ecekti": 5043,
      "▁aslan": 5044,
      "▁hangileri": 5045,
      "▁uydur": 5046,
      "##edeki": 5047,
      "▁personellerden": 5048,
      "▁bakın": 5049,
      "▁odun": 5050,
      "▁sorunun": 5051,
      "##ediy": 5052,
      "▁ozen": 5053,
      "▁burası": 5054,
      "▁burokr": 5055,
      "▁tarafı": 5056,
      "▁saatlerde": 5057,
      "▁tavır": 5058,
      "▁etmiyor": 5059,
      "##liginden": 5060,
      "▁yonetimi": 5061,
      "▁oturdu": 5062,
      "▁mahalle": 5063,
      "▁demis": 5064,
      "▁60": 5065,
      "▁yaklasimi": 5066,
      "▁merrill": 5067,
      "▁hayatı": 5068,
      "▁barın": 5069,
      "▁kuf": 5070,
      "▁basladılar": 5071,
      "▁vurgul": 5072,
      "▁iceren": 5073,
      "##tigimiz": 5074,
      "▁etkilen": 5075,
      "▁alınan": 5076,
      "▁beklenen": 5077,
      "▁karsilama": 5078,
      "##olojik": 5079,
      "▁phoenix'e": 5080,
      "▁rehberimiz": 5081,
      "▁felse": 5082,
      "▁dalgalan": 5083,
      "▁portf": 5084,
      "▁yahu": 5085,
      "▁cılgın": 5086,
      "▁esi": 5087,
      "##ker": 5088,
      "##lal": 5089,
      "##fik": 5090,
      "##tay": 5091,
      "##her": 5092,
      "##'luk": 5093,
      "##bel": 5094,
      "▁saz": 5095,
      "▁sunu": 5096,
      "▁omer": 5097,
      "▁tev": 5098,
      "##amayacak": 5099,
      "▁pam": 5100,
      "▁fe": 5101,
      "▁fiz": 5102,
      "##istler": 5103,
      "##iyordum": 5104,
      "▁anım": 5105,
      "▁geldim": 5106,
      "▁bilmek": 5107,
      "▁biliyorum": 5108,
      "##tansiy": 5109,
      "▁atan": 5110,
      "▁akr": 5111,
      "▁oteki": 5112,
      "##lenir": 5113,
      "##leniyor": 5114,
      "▁yerli": 5115,
      "▁dom": 5116,
      "##rans": 5117,
      "##diginden": 5118,
      "▁bulur": 5119,
      "▁donustur": 5120,
      "▁suruk": 5121,
      "▁oyunu": 5122,
      "▁muda": 5123,
      "▁memnunuz": 5124,
      "##sanız": 5125,
      "▁ekme": 5126,
      "▁boyun": 5127,
      "▁fiyatlandır": 5128,
      "▁300": 5129,
      "▁odak": 5130,
      "▁seviye": 5131,
      "▁haklı": 5132,
      "▁yolunu": 5133,
      "▁cocuklara": 5134,
      "▁denver'de": 5135,
      "▁yatır": 5136,
      "▁dunku": 5137,
      "##acagim": 5138,
      "▁saglamak": 5139,
      "##tari": 5140,
      "▁butce": 5141,
      "▁kaliteye": 5142,
      "▁ailesi": 5143,
      "▁saygı": 5144,
      "▁banyo": 5145,
      "##tıktan": 5146,
      "▁kahr": 5147,
      "▁planlıyor": 5148,
      "##madıgı": 5149,
      "▁yayım": 5150,
      "▁diren": 5151,
      "▁ısrar": 5152,
      "▁ugur": 5153,
      "▁iceriyor": 5154,
      "▁ogrenmek": 5155,
      "▁kavg": 5156,
      "▁kumar": 5157,
      "▁oranları": 5158,
      "▁uzakti": 5159,
      "##press": 5160,
      "▁madde": 5161,
      "▁gazetec": 5162,
      "▁garanti": 5163,
      "▁sınav": 5164,
      "▁yumur": 5165,
      "▁yemis": 5166,
      "▁ofis": 5167,
      "▁demektir": 5168,
      "▁201": 5169,
      "▁etrafında": 5170,
      "▁toronto'ya": 5171,
      "▁vegas'tan": 5172,
      "▁uyandır": 5173,
      "▁limon": 5174,
      "▁1/4": 5175,
      "▁haziran'da": 5176,
      "▁gerceklesti": 5177,
      "▁doviz": 5178,
      "▁cıg": 5179,
      "▁mahkemesi": 5180,
      "▁iletisim": 5181,
      "▁aktivite": 5182,
      "▁potansiy": 5183,
      "▁cincinnati'den": 5184,
      "▁itiraz": 5185,
      "▁bebek": 5186,
      "▁alkol": 5187,
      "▁3/4": 5188,
      "▁vasıt": 5189,
      "▁halihazırda": 5190,
      "##au": 5191,
      "##liyordu": 5192,
      "##'li": 5193,
      "##yol": 5194,
      "▁sy": 5195,
      "▁gey": 5196,
      "▁birinin": 5197,
      "▁mini": 5198,
      "▁vas": 5199,
      "##izasyon": 5200,
      "▁olas": 5201,
      "▁olamaz": 5202,
      "##ahi": 5203,
      "##ecik": 5204,
      "▁nur": 5205,
      "▁eas": 5206,
      "##ınıyor": 5207,
      "▁icra": 5208,
      "▁rev": 5209,
      "▁baslay": 5210,
      "▁ind": 5211,
      "##lasma": 5212,
      "▁amc": 5213,
      "▁deneyim": 5214,
      "▁oldugumuz": 5215,
      "▁soyleyebilir": 5216,
      "##lıkta": 5217,
      "▁seyre": 5218,
      "▁yargıc": 5219,
      "▁yasal": 5220,
      "▁havada": 5221,
      "▁evine": 5222,
      "▁suya": 5223,
      "##ific": 5224,
      "▁yakıs": 5225,
      "▁yakında": 5226,
      "▁hizmetinden": 5227,
      "▁bunlardan": 5228,
      "##oth": 5229,
      "##ladıgını": 5230,
      "▁sevk": 5231,
      "▁42": 5232,
      "▁kızın": 5233,
      "▁hissediyor": 5234,
      "▁hepimiz": 5235,
      "▁muhab": 5236,
      "▁arkasından": 5237,
      "▁bolun": 5238,
      "▁mesaf": 5239,
      "▁hicbiri": 5240,
      "▁anlamak": 5241,
      "▁yaptıgını": 5242,
      "▁hazırlan": 5243,
      "▁kopar": 5244,
      "▁tutuyor": 5245,
      "▁tuhaf": 5246,
      "▁etkisi": 5247,
      "▁duzenli": 5248,
      "▁doneminde": 5249,
      "▁sonrası": 5250,
      "▁tex": 5251,
      "▁rakip": 5252,
      "▁tepki": 5253,
      "▁politika": 5254,
      "▁duman": 5255,
      "▁derecede": 5256,
      "▁cumhurbaskan": 5257,
      "##daydı": 5258,
      "▁goturdu": 5259,
      "▁soguktu": 5260,
      "▁isterim": 5261,
      "▁kilit": 5262,
      "▁emekli": 5263,
      "▁emeklilik": 5264,
      "▁selam": 5265,
      "▁angeles'e": 5266,
      "▁vatan": 5267,
      "▁kosulları": 5268,
      "##bahar": 5269,
      "▁hulya": 5270,
      "▁zavallı": 5271,
      "▁ır": 5272,
      "##ıya": 5273,
      "##liye": 5274,
      "##mustum": 5275,
      "##'taki": 5276,
      "##yız": 5277,
      "▁bisik": 5278,
      "▁ka": 5279,
      "▁yil": 5280,
      "##akat": 5281,
      "▁hev": 5282,
      "▁hong": 5283,
      "▁caz": 5284,
      "##ekim": 5285,
      "##imser": 5286,
      "▁payı": 5287,
      "▁ut": 5288,
      "##ulup": 5289,
      "▁aln": 5290,
      "▁alev": 5291,
      "▁almaya": 5292,
      "▁onur": 5293,
      "▁isci": 5294,
      "▁islerini": 5295,
      "▁verme": 5296,
      "##ya'da": 5297,
      "▁luk": 5298,
      "##madi": 5299,
      "▁gectik": 5300,
      "▁edilir": 5301,
      "▁yılının": 5302,
      "##egine": 5303,
      "▁kurban": 5304,
      "▁kurtaj": 5305,
      "▁paris": 5306,
      "▁evren": 5307,
      "▁ilgililerdi": 5308,
      "▁donup": 5309,
      "▁satısı": 5310,
      "##verdi": 5311,
      "▁bizde": 5312,
      "▁hayran": 5313,
      "▁ceken": 5314,
      "▁konusmalar": 5315,
      "▁dug": 5316,
      "▁okur": 5317,
      "▁kullanıyor": 5318,
      "▁saatlerinde": 5319,
      "▁kızıl": 5320,
      "▁bolumu": 5321,
      "▁piyasaya": 5322,
      "##liginde": 5323,
      "▁kosk": 5324,
      "▁sars": 5325,
      "▁geliri": 5326,
      "▁benimle": 5327,
      "▁annesi": 5328,
      "▁8'den": 5329,
      "##lıyordu": 5330,
      "▁sorunları": 5331,
      "▁gecirdi": 5332,
      "▁kokusu": 5333,
      "##chester": 5334,
      "▁alanda": 5335,
      "▁1.2": 5336,
      "▁istanbul'da": 5337,
      "▁gurultu": 5338,
      "▁hukumetin": 5339,
      "▁ofk": 5340,
      "▁diyerek": 5341,
      "▁redde": 5342,
      "▁milletvek": 5343,
      "▁dayalı": 5344,
      "▁houston'dan": 5345,
      "▁gecerli": 5346,
      "▁aktivit": 5347,
      "▁montreal'a": 5348,
      "▁model": 5349,
      "▁manzarasi": 5350,
      "▁potansiyel": 5351,
      "▁bisiklet": 5352,
      "##ıf": 5353,
      "##lor": 5354,
      "##omet": 5355,
      "##are": 5356,
      "##ani": 5357,
      "##int": 5358,
      "▁sep": 5359,
      "▁she": 5360,
      "▁yed": 5361,
      "##ilecek": 5362,
      "##ilmez": 5363,
      "##larca": 5364,
      "##isinden": 5365,
      "▁meden": 5366,
      "▁vade": 5367,
      "▁pus": 5368,
      "▁fes": 5369,
      "▁national": 5370,
      "▁aralarında": 5371,
      "##lanma": 5372,
      "▁kalıyor": 5373,
      "▁baslayacak": 5374,
      "▁bilmiyor": 5375,
      "▁gecesi": 5376,
      "##likten": 5377,
      "▁acar": 5378,
      "▁gune": 5379,
      "▁olmuyor": 5380,
      "▁olmasına": 5381,
      "▁olmasa": 5382,
      "▁cıkacak": 5383,
      "▁ikram": 5384,
      "▁tesp": 5385,
      "▁gosteren": 5386,
      "▁yerler": 5387,
      "▁asam": 5388,
      "▁aqu": 5389,
      "▁boylu": 5390,
      "▁oglan": 5391,
      "▁goze": 5392,
      "▁serp": 5393,
      "▁kanat": 5394,
      "▁saatlerce": 5395,
      "▁tavuk": 5396,
      "▁cevre": 5397,
      "▁piyasanın": 5398,
      "▁belirsiz": 5399,
      "##abilecegini": 5400,
      "▁islemler": 5401,
      "▁islemlerinde": 5402,
      "##tıkları": 5403,
      "▁ihtiyacı": 5404,
      "▁hanimla": 5405,
      "▁kalktı": 5406,
      "▁aldılar": 5407,
      "▁aldıgını": 5408,
      "▁havayollarını": 5409,
      "▁istedim": 5410,
      "▁sıf": 5411,
      "▁fakir": 5412,
      "▁farkında": 5413,
      "▁personellerinden": 5414,
      "▁kiral": 5415,
      "▁oranında": 5416,
      "▁doları'ndan": 5417,
      "▁genislet": 5418,
      "▁ahlak": 5419,
      "▁kerem": 5420,
      "▁bozuk": 5421,
      "##stems": 5422,
      "##amıstı": 5423,
      "▁ziyade": 5424,
      "▁aracılıgıyla": 5425,
      "▁yoneticileri": 5426,
      "▁charlotte'ye": 5427,
      "▁ayrılıp": 5428,
      "▁gidecek": 5429,
      "▁hapis": 5430,
      "▁civarı": 5431,
      "▁cadd": 5432,
      "▁robert": 5433,
      "▁nicin": 5434,
      "▁milliyet": 5435,
      "▁kahraman": 5436,
      "▁geyik": 5437,
      "##ft": 5438,
      "##ole": 5439,
      "##deri": 5440,
      "##dunuz": 5441,
      "##meni": 5442,
      "##mesinden": 5443,
      "##mistim": 5444,
      "▁sunuyor": 5445,
      "▁omur": 5446,
      "▁ydu": 5447,
      "▁toh": 5448,
      "▁the": 5449,
      "##isli": 5450,
      "▁birimi": 5451,
      "▁vuc": 5452,
      "##usal": 5453,
      "▁pes": 5454,
      "▁psik": 5455,
      "##ıld": 5456,
      "▁niye": 5457,
      "▁nice": 5458,
      "▁nadir": 5459,
      "▁icki": 5460,
      "▁aldigim": 5461,
      "##iyorlardı": 5462,
      "##oya": 5463,
      "▁ucuslarının": 5464,
      "▁yapma": 5465,
      "##esi'nde": 5466,
      "##uth": 5467,
      "##utun": 5468,
      "▁aman": 5469,
      "▁acik": 5470,
      "▁eliyle": 5471,
      "##gunuz": 5472,
      "▁kurus": 5473,
      "▁gosterir": 5474,
      "▁yasar": 5475,
      "##eceksin": 5476,
      "▁kapının": 5477,
      "▁doner": 5478,
      "▁surdu": 5479,
      "▁suruyor": 5480,
      "▁bakıyordu": 5481,
      "▁36": 5482,
      "▁odaya": 5483,
      "▁insanlara": 5484,
      "▁ortalık": 5485,
      "▁yolcu": 5486,
      "▁sekret": 5487,
      "▁derler": 5488,
      "▁tahmini": 5489,
      "▁turku": 5490,
      "##sizim": 5491,
      "▁okudu": 5492,
      "▁46": 5493,
      "▁korun": 5494,
      "##ilmisti": 5495,
      "▁duydu": 5496,
      "▁kızgın": 5497,
      "##leyin": 5498,
      "▁hassas": 5499,
      "##dern": 5500,
      "▁ilgilenmedi": 5501,
      "▁mid": 5502,
      "▁plani": 5503,
      "▁sesleri": 5504,
      "▁havayollarının": 5505,
      "▁tarihli": 5506,
      "▁dunyaya": 5507,
      "▁firmalar": 5508,
      "▁vurdu": 5509,
      "▁ogrenciler": 5510,
      "▁yasamak": 5511,
      "▁vakt": 5512,
      "▁nokta": 5513,
      "▁giderek": 5514,
      "▁chicago": 5515,
      "▁itibariyle": 5516,
      "▁airlines'in": 5517,
      "▁katilmak": 5518,
      "▁filan": 5519,
      "▁gokyuz": 5520,
      "▁karsılastır": 5521,
      "▁huzur": 5522,
      "▁kahvaltı": 5523,
      "▁gittikce": 5524,
      "▁sehrin": 5525,
      "▁havaalanından": 5526,
      "▁plaji": 5527,
      "▁express": 5528,
      "▁kılıc": 5529,
      "▁devralma": 5530,
      "▁mevzu": 5531,
      "▁yumurta": 5532,
      "▁vucut": 5533,
      "##ıh": 5534,
      "##ly": 5535,
      "##dilik": 5536,
      "##cal": 5537,
      "##cesine": 5538,
      "##mun": 5539,
      "##miyordu": 5540,
      "##pe": 5541,
      "##por": 5542,
      "##arson": 5543,
      "▁bod": 5544,
      "##er'in": 5545,
      "##ann": 5546,
      "##andan": 5547,
      "##anmıs": 5548,
      "▁kep": 5549,
      "▁dili": 5550,
      "▁dord": 5551,
      "▁trans": 5552,
      "▁birine": 5553,
      "##ayın": 5554,
      "##adın": 5555,
      "##ick": 5556,
      "▁form": 5557,
      "##ith": 5558,
      "▁no": 5559,
      "▁alet": 5560,
      "▁ariz": 5561,
      "▁onde": 5562,
      "▁rich": 5563,
      "▁yapım": 5564,
      "▁yaparak": 5565,
      "##mediler": 5566,
      "▁lamb": 5567,
      "▁denilen": 5568,
      "▁ellerinde": 5569,
      "▁gunumuz": 5570,
      "▁olmas": 5571,
      "▁paran": 5572,
      "▁kaptan": 5573,
      "▁hali": 5574,
      "▁sular": 5575,
      "▁karsın": 5576,
      "▁bakar": 5577,
      "▁bakim": 5578,
      "▁satıcı": 5579,
      "▁agrı": 5580,
      "▁soyledik": 5581,
      "▁war": 5582,
      "▁yolun": 5583,
      "▁cocukların": 5584,
      "▁sabır": 5585,
      "▁girer": 5586,
      "▁oku": 5587,
      "▁altından": 5588,
      "▁urk": 5589,
      "▁arkasında": 5590,
      "▁etmeyi": 5591,
      "▁nedenlerden": 5592,
      "▁yonetici": 5593,
      "▁digerleri": 5594,
      "▁cant": 5595,
      "▁izm": 5596,
      "▁meslek": 5597,
      "##alandır": 5598,
      "▁sahipleri": 5599,
      "▁mevdu": 5600,
      "##ılmıstı": 5601,
      "▁rekor": 5602,
      "▁patates": 5603,
      "##lamıstı": 5604,
      "▁konumunu": 5605,
      "▁ipek": 5606,
      "▁yatırımcıların": 5607,
      "▁$'a": 5608,
      "▁suredir": 5609,
      "▁cennet": 5610,
      "▁rej": 5611,
      "##siyonu": 5612,
      "▁yoneticisi": 5613,
      "▁haftalık": 5614,
      "▁modern": 5615,
      "▁kasım'da": 5616,
      "▁baslamıstı": 5617,
      "▁yunan": 5618,
      "▁olabilecegini": 5619,
      "▁sayıda": 5620,
      "▁edecegini": 5621,
      "▁recep": 5622,
      "▁tıpkı": 5623,
      "▁profesyon": 5624,
      "▁basbakan": 5625,
      "▁fatih": 5626,
      "▁bardagı": 5627,
      "▁vatandas": 5628,
      "▁carsaf": 5629,
      "▁sicak": 5630,
      "▁portfoy": 5631,
      "▁domates": 5632,
      "▁eastern": 5633,
      "▁industri": 5634,
      "##kah": 5635,
      "##rat": 5636,
      "##raz": 5637,
      "##ote": 5638,
      "##giz": 5639,
      "##gılan": 5640,
      "##ew": 5641,
      "##meyin": 5642,
      "##yalı": 5643,
      "##ps": 5644,
      "##bs": 5645,
      "##20": 5646,
      "##-p": 5647,
      "▁kak": 5648,
      "▁klas": 5649,
      "▁koz": 5650,
      "▁kaya": 5651,
      "▁sers": 5652,
      "▁gob": 5653,
      "▁gov": 5654,
      "##akk": 5655,
      "▁tom": 5656,
      "##isle": 5657,
      "▁cın": 5658,
      "▁cihaz": 5659,
      "##eten": 5660,
      "▁mich": 5661,
      "##amın": 5662,
      "##imini": 5663,
      "▁pisti": 5664,
      "##eyerek": 5665,
      "▁fu": 5666,
      "##agon": 5667,
      "▁ala": 5668,
      "▁aley": 5669,
      "▁aldır": 5670,
      "▁aram": 5671,
      "▁ardı": 5672,
      "▁andır": 5673,
      "▁baslı": 5674,
      "##lıdır": 5675,
      "▁ucusunuz": 5676,
      "▁yapıs": 5677,
      "▁yapıldı": 5678,
      "▁isle": 5679,
      "▁verdim": 5680,
      "##makla": 5681,
      "▁uzay": 5682,
      "##uyorlardı": 5683,
      "▁gergin": 5684,
      "▁seyleri": 5685,
      "▁adına": 5686,
      "##cıların": 5687,
      "▁uyesi": 5688,
      "▁evden": 5689,
      "▁yanak": 5690,
      "▁buyuy": 5691,
      "▁duruyordu": 5692,
      "▁sup": 5693,
      "▁yakından": 5694,
      "▁yakalan": 5695,
      "##eligi": 5696,
      "▁arasından": 5697,
      "▁odasına": 5698,
      "▁hakik": 5699,
      "▁katı": 5700,
      "▁buradan": 5701,
      "▁balk": 5702,
      "▁ceker": 5703,
      "▁cekil": 5704,
      "▁57": 5705,
      "▁ayrılan": 5706,
      "▁turkce": 5707,
      "▁kullanıl": 5708,
      "▁kızar": 5709,
      "▁getirir": 5710,
      "▁ero": 5711,
      "▁etmesi": 5712,
      "▁piyasalar": 5713,
      "▁75": 5714,
      "##iskin": 5715,
      "▁masal": 5716,
      "▁mermer": 5717,
      "▁havayollarında": 5718,
      "▁kararsizim": 5719,
      "▁istemez": 5720,
      "▁york'a": 5721,
      "▁makine": 5722,
      "▁komur": 5723,
      "▁kusk": 5724,
      "▁ugram": 5725,
      "▁kopr": 5726,
      "▁olmaktan": 5727,
      "▁hukumeti": 5728,
      "▁patlı": 5729,
      "▁berbat": 5730,
      "▁nereye": 5731,
      "▁nereden": 5732,
      "▁sonuclar": 5733,
      "##'yu": 5734,
      "▁olanakları": 5735,
      "▁mecbur": 5736,
      "▁tasıy": 5737,
      "▁kuvvetli": 5738,
      "▁sozlesme": 5739,
      "▁ingilizce": 5740,
      "▁musteriler": 5741,
      "▁degisiklikler": 5742,
      "▁diego'dan": 5743,
      "▁nazik": 5744,
      "▁rakamlar": 5745,
      "▁kaybetti": 5746,
      "▁dekor": 5747,
      "▁murat": 5748,
      "##indeydi": 5749,
      "▁direkt": 5750,
      "▁saskın": 5751,
      "▁louis'e": 5752,
      "▁kampanyalardan": 5753,
      "▁haberi": 5754,
      "▁havaliman": 5755,
      "▁istihdam": 5756,
      "▁ilginc": 5757,
      "▁dolayısıyla": 5758,
      "##yasal": 5759,
      "▁anayasa": 5760,
      "▁makaleye": 5761,
      "▁bugday": 5762,
      "▁yontem": 5763,
      "▁systems": 5764,
      "##tiy": 5765,
      "##omis": 5766,
      "##macı": 5767,
      "##madım": 5768,
      "##yu": 5769,
      "##vey": 5770,
      "##baz": 5771,
      "▁beden": 5772,
      "▁kıp": 5773,
      "▁s&": 5774,
      "▁yusu": 5775,
      "▁tuy": 5776,
      "▁tencer": 5777,
      "▁cet": 5778,
      "▁cuk": 5779,
      "▁cıp": 5780,
      "##iyiz": 5781,
      "▁mos": 5782,
      "▁meg": 5783,
      "▁mobil": 5784,
      "▁mırıl": 5785,
      "##imleri": 5786,
      "▁pur": 5787,
      "##oks": 5788,
      "▁alb": 5789,
      "▁onlem": 5790,
      "▁ontari": 5791,
      "##lanabilir": 5792,
      "▁baslat": 5793,
      "▁yapıp": 5794,
      "▁iyimser": 5795,
      "▁ayda": 5796,
      "▁bende": 5797,
      "▁gecm": 5798,
      "##lamalar": 5799,
      "##gunda": 5800,
      "▁tesad": 5801,
      "▁edilmesi": 5802,
      "▁gosterg": 5803,
      "▁yarısı": 5804,
      "▁hani": 5805,
      "▁yansı": 5806,
      "▁oyunun": 5807,
      "##lesine": 5808,
      "▁sergil": 5809,
      "▁dolap": 5810,
      "▁yoluyla": 5811,
      "▁yazık": 5812,
      "▁calıstı": 5813,
      "▁derhal": 5814,
      "▁cekmek": 5815,
      "▁bagıs": 5816,
      "##amadik": 5817,
      "##ılıgını": 5818,
      "▁simdilik": 5819,
      "▁kimyasal": 5820,
      "##leyici": 5821,
      "▁erdog": 5822,
      "▁yukselen": 5823,
      "##liginin": 5824,
      "▁karsıya": 5825,
      "▁yemeklerde": 5826,
      "##abiliyor": 5827,
      "▁oturan": 5828,
      "▁oturup": 5829,
      "▁bina": 5830,
      "▁kahkah": 5831,
      "▁muslum": 5832,
      "▁bugune": 5833,
      "▁durumunda": 5834,
      "▁tuf": 5835,
      "▁corba": 5836,
      "▁begendik": 5837,
      "▁ekonomis": 5838,
      "##landıgını": 5839,
      "▁beklentiler": 5840,
      "▁oynat": 5841,
      "▁1.1": 5842,
      "▁1.3": 5843,
      "▁yetkili": 5844,
      "▁sonucları": 5845,
      "▁darbe": 5846,
      "▁tırn": 5847,
      "##.25": 5848,
      "▁ibaret": 5849,
      "▁maas": 5850,
      "▁tartısmalar": 5851,
      "▁yıllardır": 5852,
      "▁hırsız": 5853,
      "▁saglıklı": 5854,
      "▁hepsinin": 5855,
      "▁kardesim": 5856,
      "▁sorumluluk": 5857,
      "▁arzu": 5858,
      "▁kendilerine": 5859,
      "▁olusan": 5860,
      "▁yasanan": 5861,
      "▁itiraf": 5862,
      "▁ilgisizdi": 5863,
      "▁ithalat": 5864,
      "▁havalimanı": 5865,
      "▁tehdit": 5866,
      "▁efsan": 5867,
      "▁1\\/2": 5868,
      "▁a.b.d.": 5869,
      "▁imalat": 5870,
      "▁pantolon": 5871,
      "▁vasıtasıyla": 5872,
      "▁luks": 5873,
      "▁shearson": 5874,
      "▁profesyonel": 5875,
      "▁yusuf": 5876,
      "▁cıplak": 5877,
      "▁ız": 5878,
      "##saydı": 5879,
      "##nan": 5880,
      "##tel": 5881,
      "##tra": 5882,
      "##ginin": 5883,
      "##mu": 5884,
      "##mesinin": 5885,
      "##.000": 5886,
      "▁b.": 5887,
      "▁bıy": 5888,
      "▁sım": 5889,
      "##diy": 5890,
      "▁tasıyor": 5891,
      "##ish": 5892,
      "▁huy": 5893,
      "▁hacı": 5894,
      "▁calar": 5895,
      "▁cadır": 5896,
      "▁birlestir": 5897,
      "##onun": 5898,
      "##amayan": 5899,
      "▁pul": 5900,
      "▁olgun": 5901,
      "▁fal": 5902,
      "▁falan": 5903,
      "##ledik": 5904,
      "##ılıp": 5905,
      "##ulması": 5906,
      "##age": 5907,
      "##istin": 5908,
      "▁alem": 5909,
      "##avuz": 5910,
      "▁gorustuk": 5911,
      "▁karın": 5912,
      "▁zeki": 5913,
      "▁gelmez": 5914,
      "▁geldigini": 5915,
      "▁ayhan": 5916,
      "▁istek": 5917,
      "▁istasyon": 5918,
      "##ıyorsun": 5919,
      "##ogu": 5920,
      "##med": 5921,
      "▁lik": 5922,
      "▁duser": 5923,
      "##uyoruz": 5924,
      "▁akın": 5925,
      "▁cıkmak": 5926,
      "▁iken": 5927,
      "▁kurdu": 5928,
      "▁parm": 5929,
      "▁paranın": 5930,
      "▁kibar": 5931,
      "▁adlandır": 5932,
      "▁bayrak": 5933,
      "##lemis": 5934,
      "##ige": 5935,
      "▁donuk": 5936,
      "▁halkı": 5937,
      "▁senato": 5938,
      "##vert": 5939,
      "▁agab": 5940,
      "▁boynun": 5941,
      "▁bizden": 5942,
      "▁artısı": 5943,
      "▁topu": 5944,
      "##lesmis": 5945,
      "▁harp": 5946,
      "▁wh": 5947,
      "▁jour": 5948,
      "▁giren": 5949,
      "▁fazl": 5950,
      "▁sozleri": 5951,
      "▁tutum": 5952,
      "▁saati": 5953,
      "▁acıkca": 5954,
      "▁ederdi": 5955,
      "▁dallas'ta": 5956,
      "▁yurudu": 5957,
      "▁bankac": 5958,
      "▁ihtiyat": 5959,
      "▁canım": 5960,
      "▁bırakıp": 5961,
      "▁tatl": 5962,
      "▁zorunlu": 5963,
      "▁kıyafet": 5964,
      "▁hayata": 5965,
      "▁hayatta": 5966,
      "##ılmıstır": 5967,
      "▁uretimi": 5968,
      "##dıklarını": 5969,
      "▁dinlen": 5970,
      "▁gonl": 5971,
      "▁arkadasim": 5972,
      "▁inanc": 5973,
      "▁hamle": 5974,
      "▁kavr": 5975,
      "▁yapılır": 5976,
      "##chell": 5977,
      "▁animasyonlar": 5978,
      "▁cinsel": 5979,
      "▁ceyr": 5980,
      "▁teor": 5981,
      "▁metal": 5982,
      "▁fonlar": 5983,
      "▁sapk": 5984,
      "▁sivil": 5985,
      "▁giderken": 5986,
      "▁hastalı": 5987,
      "▁tuken": 5988,
      "##mamıstı": 5989,
      "▁fikri": 5990,
      "▁annemin": 5991,
      "▁katildim": 5992,
      "▁konforu": 5993,
      "▁toronto": 5994,
      "▁siyaset": 5995,
      "▁haftada": 5996,
      "▁bekledigim": 5997,
      "▁demokratik": 5998,
      "▁birlesik": 5999,
      "▁siddetli": 6000,
      "▁dengesi": 6001,
      "▁cirkin": 6002,
      "▁malzemeler": 6003,
      "▁yasamadik": 6004,
      "▁tampa'dan": 6005,
      "▁financi": 6006,
      "▁sendika": 6007,
      "▁nashville'den": 6008,
      "▁restoran": 6009,
      "▁zamana": 6010,
      "▁mimar": 6011,
      "▁ihtimal": 6012,
      "▁tedavulde": 6013,
      "▁zafer": 6014,
      "▁lar": 6015,
      "##rut": 6016,
      "##s.": 6017,
      "##cil": 6018,
      "##cel": 6019,
      "##casına": 6020,
      "##miyorum": 6021,
      "##muyordu": 6022,
      "▁kedi": 6023,
      "▁tanın": 6024,
      "▁hor": 6025,
      "##ekul": 6026,
      "▁birlik": 6027,
      "##onya": 6028,
      "▁vi": 6029,
      "▁vic": 6030,
      "##amıyorum": 6031,
      "##lerimizi": 6032,
      "▁olunca": 6033,
      "##ahh": 6034,
      "▁for": 6035,
      "▁finc": 6036,
      "▁nor": 6037,
      "▁nuk": 6038,
      "##olog": 6039,
      "▁ucagın": 6040,
      "▁iliski": 6041,
      "▁aldim": 6042,
      "▁kalmaya": 6043,
      "▁kaldıgı": 6044,
      "▁baslam": 6045,
      "##luga": 6046,
      "##unup": 6047,
      "▁yapti": 6048,
      "▁geldik": 6049,
      "▁varmıs": 6050,
      "##ever": 6051,
      "##ilerek": 6052,
      "##esif": 6053,
      "▁kadeh": 6054,
      "##liklerini": 6055,
      "▁elindeki": 6056,
      "##raj": 6057,
      "▁olmayı": 6058,
      "▁cıkmıstı": 6059,
      "▁doların": 6060,
      "▁yoksul": 6061,
      "▁havlu": 6062,
      "▁bulabilir": 6063,
      "▁esir": 6064,
      "▁esya": 6065,
      "▁ikibin": 6066,
      "▁ogul": 6067,
      "▁39": 6068,
      "▁kaybe": 6069,
      "▁sahib": 6070,
      "▁jur": 6071,
      "▁51": 6072,
      "▁denizin": 6073,
      "▁tuttur": 6074,
      "▁puanlama": 6075,
      "▁cesitlilik": 6076,
      "▁43": 6077,
      "▁koruy": 6078,
      "▁altındaki": 6079,
      "▁altern": 6080,
      "▁kızlar": 6081,
      "##emedim": 6082,
      "▁ederler": 6083,
      "▁kıskan": 6084,
      "▁takımı": 6085,
      "▁piyasaları": 6086,
      "▁duzgun": 6087,
      "▁kadınların": 6088,
      "▁sakın": 6089,
      "▁uns": 6090,
      "▁oturma": 6091,
      "▁krav": 6092,
      "##mamız": 6093,
      "##maması": 6094,
      "▁merh": 6095,
      "##malarını": 6096,
      "▁istedigim": 6097,
      "▁gorunen": 6098,
      "▁ısın": 6099,
      "▁dunyayı": 6100,
      "▁iceriye": 6101,
      "▁oncesi": 6102,
      "▁ogrenci": 6103,
      "▁1.8": 6104,
      "▁marj": 6105,
      "▁olduklarını": 6106,
      "▁talih": 6107,
      "▁istanbul'un": 6108,
      "▁kapıya": 6109,
      "▁rakı": 6110,
      "▁yumurt": 6111,
      "▁urunler": 6112,
      "##oloji": 6113,
      "▁acıdan": 6114,
      "▁kıbr": 6115,
      "▁diyar": 6116,
      "▁raporu": 6117,
      "▁fikr": 6118,
      "▁uygulama": 6119,
      "▁netic": 6120,
      "▁alakali": 6121,
      "▁tasıyan": 6122,
      "▁apart": 6123,
      "▁icecekleri": 6124,
      "▁orlando'dan": 6125,
      "▁gorunuyordu": 6126,
      "▁gayret": 6127,
      "▁ihracat": 6128,
      "▁finansman": 6129,
      "▁gomlek": 6130,
      "▁kısmını": 6131,
      "▁yahut": 6132,
      "▁mitchell": 6133,
      "▁kaybı": 6134,
      "▁tecru": 6135,
      "▁durgunluk": 6136,
      "##ugh": 6137,
      "▁westchester": 6138,
      "▁pacific": 6139,
      "▁karakter": 6140,
      "▁nufus": 6141,
      "▁kahvaltisi": 6142,
      "▁flori": 6143,
      "▁nobet": 6144,
      "▁karsilamadi": 6145,
      "▁cumhurbaskanı": 6146,
      "▁sepet": 6147,
      "▁mevduat": 6148,
      "▁mırıldan": 6149,
      "▁financial": 6150,
      "▁alternatif": 6151,
      "▁kıbrıs": 6152,
      "##liyorum": 6153,
      "##niyet": 6154,
      "##tek": 6155,
      "##i'nin": 6156,
      "##mıyordu": 6157,
      "##bal": 6158,
      "##-sat": 6159,
      "##iness": 6160,
      "▁kacak": 6161,
      "▁sit": 6162,
      "##undaki": 6163,
      "##dise": 6164,
      "▁tun": 6165,
      "▁tap": 6166,
      "##isin": 6167,
      "##isiyle": 6168,
      "▁birinc": 6169,
      "##one": 6170,
      "##usuna": 6171,
      "▁plas": 6172,
      "▁namaz": 6173,
      "##inip": 6174,
      "▁rot": 6175,
      "▁rolu": 6176,
      "▁and": 6177,
      "▁icindeki": 6178,
      "▁basım": 6179,
      "▁yapması": 6180,
      "▁isp": 6181,
      "▁ispan": 6182,
      "▁inti": 6183,
      "▁etken": 6184,
      "▁verdigimiz": 6185,
      "▁atıyor": 6186,
      "▁aksi": 6187,
      "##gunde": 6188,
      "▁yaratı": 6189,
      "▁tarl": 6190,
      "▁turu": 6191,
      "▁donen": 6192,
      "▁donmus": 6193,
      "▁suresi": 6194,
      "▁durur": 6195,
      "▁34": 6196,
      "▁%8": 6197,
      "▁sirketinin": 6198,
      "▁sirketlerin": 6199,
      "▁ozlem": 6200,
      "▁calıstır": 6201,
      "▁calısmaya": 6202,
      "▁ihal": 6203,
      "▁cekildi": 6204,
      "▁denizinden": 6205,
      "▁cesitliligi": 6206,
      "▁saglayacak": 6207,
      "▁kanal": 6208,
      "▁saatte": 6209,
      "▁duyur": 6210,
      "▁salat": 6211,
      "▁sallan": 6212,
      "▁sabaha": 6213,
      "▁kazancı": 6214,
      "##emedik": 6215,
      "##leyecek": 6216,
      "▁gitmem": 6217,
      "▁eris": 6218,
      "▁abdul": 6219,
      "▁sayın": 6220,
      "▁sayisi": 6221,
      "▁hisselerini": 6222,
      "▁impar": 6223,
      "▁kose": 6224,
      "▁hakkındaki": 6225,
      "##mazdı": 6226,
      "▁zorluk": 6227,
      "##tıkca": 6228,
      "▁lub": 6229,
      "▁perde": 6230,
      "##lıgıyla": 6231,
      "▁hayatını": 6232,
      "▁istedigini": 6233,
      "▁sokaga": 6234,
      "##ınızı": 6235,
      "▁faktor": 6236,
      "▁biridir": 6237,
      "▁york'ta": 6238,
      "▁bosal": 6239,
      "▁donemi": 6240,
      "▁lideri": 6241,
      "▁toren": 6242,
      "▁birbirlerine": 6243,
      "▁alım-sat": 6244,
      "▁mekan": 6245,
      "▁cinayet": 6246,
      "▁iptal": 6247,
      "▁kapıdan": 6248,
      "▁mahkum": 6249,
      "▁gurur": 6250,
      "▁zarf": 6251,
      "▁heykel": 6252,
      "▁kıdem": 6253,
      "▁giyin": 6254,
      "▁yetkililer": 6255,
      "▁duvara": 6256,
      "▁agzına": 6257,
      "▁avrupa'da": 6258,
      "▁business": 6259,
      "▁maliyetleri": 6260,
      "▁indirim": 6261,
      "▁subay": 6262,
      "▁seattle'den": 6263,
      "▁anlayıs": 6264,
      "▁fabrika": 6265,
      "▁iskel": 6266,
      "▁aydınlık": 6267,
      "▁huseyin": 6268,
      "▁faydalan": 6269,
      "▁elbise": 6270,
      "▁fasul": 6271,
      "▁blok": 6272,
      "▁finanse": 6273,
      "▁bilgiye": 6274,
      "▁northwest": 6275,
      "▁george": 6276,
      "▁britan": 6277,
      "▁posta": 6278,
      "▁hitap": 6279,
      "▁matematik": 6280,
      "▁pamuk": 6281,
      "▁bodrum": 6282,
      "▁s&p": 6283,
      "▁journal": 6284,
      "▁imparator": 6285,
      "##kırı": 6286,
      "##sis": 6287,
      "##lil": 6288,
      "##liy": 6289,
      "##lit": 6290,
      "##lom": 6291,
      "##to": 6292,
      "##duz": 6293,
      "##cesi": 6294,
      "##mac": 6295,
      "##melerini": 6296,
      "##zi": 6297,
      "##yosu": 6298,
      "##va": 6299,
      "▁kım": 6300,
      "▁seg": 6301,
      "▁dor": 6302,
      "▁gıda": 6303,
      "▁yut": 6304,
      "##ilyon": 6305,
      "▁teler": 6306,
      "▁hop": 6307,
      "▁cih": 6308,
      "##iyer": 6309,
      "##ayarak": 6310,
      "▁miydi": 6311,
      "▁van": 6312,
      "##amdan": 6313,
      "##usunda": 6314,
      "▁olu": 6315,
      "▁olacagı": 6316,
      "▁bucuk": 6317,
      "##ıkoy": 6318,
      "▁deh": 6319,
      "▁dediler": 6320,
      "▁fık": 6321,
      "▁fev": 6322,
      "▁aradilar": 6323,
      "▁ra": 6324,
      "▁rop": 6325,
      "▁anı": 6326,
      "▁kalmak": 6327,
      "▁gormez": 6328,
      "▁gordugu": 6329,
      "▁karg": 6330,
      "▁karısı": 6331,
      "##eleriyle": 6332,
      "▁isine": 6333,
      "▁isbir": 6334,
      "▁isyan": 6335,
      "▁iyisi": 6336,
      "▁gelmisti": 6337,
      "▁varıyor": 6338,
      "▁ayın": 6339,
      "▁istiyordu": 6340,
      "##lasan": 6341,
      "▁bilen": 6342,
      "▁endise": 6343,
      "▁duskun": 6344,
      "▁gecenin": 6345,
      "▁acılan": 6346,
      "▁atıl": 6347,
      "▁temet": 6348,
      "##gunun": 6349,
      "▁kurk": 6350,
      "▁yerleri": 6351,
      "▁yeryuz": 6352,
      "▁yoksun": 6353,
      "▁teksas": 6354,
      "▁havası": 6355,
      "##digin": 6356,
      "▁sureci": 6357,
      "▁karsısına": 6358,
      "▁personelden": 6359,
      "▁oyk": 6360,
      "▁satan": 6361,
      "▁bell": 6362,
      "▁oglu": 6363,
      "▁buny": 6364,
      "▁32": 6365,
      "▁%6": 6366,
      "▁gozlu": 6367,
      "▁gozunu": 6368,
      "▁azın": 6369,
      "▁seref": 6370,
      "▁sahil": 6371,
      "▁haksız": 6372,
      "▁hayret": 6373,
      "▁katıldı": 6374,
      "▁kucucuk": 6375,
      "▁ayrıntı": 6376,
      "▁kesildi": 6377,
      "▁tamir": 6378,
      "▁saglıyor": 6379,
      "▁okun": 6380,
      "▁kullanım": 6381,
      "▁49": 6382,
      "▁sabahın": 6383,
      "▁getiriyor": 6384,
      "▁hazin": 6385,
      "▁kaliteliydi": 6386,
      "▁erdi": 6387,
      "▁bulunmaktadır": 6388,
      "▁bolge": 6389,
      "▁dusunce": 6390,
      "▁kendime": 6391,
      "▁savur": 6392,
      "▁nasda": 6393,
      "▁mahs": 6394,
      "▁zorlu": 6395,
      "▁masa": 6396,
      "▁masaya": 6397,
      "▁havuzlari": 6398,
      "##ansiyon": 6399,
      "▁bitk": 6400,
      "▁kamp": 6401,
      "##gisini": 6402,
      "▁sıgın": 6403,
      "▁sofor": 6404,
      "▁endustri": 6405,
      "▁gecirdik": 6406,
      "▁yen'e": 6407,
      "▁inanıyor": 6408,
      "▁bosluk": 6409,
      "▁edilebilir": 6410,
      "▁kirliydi": 6411,
      "▁cagdas": 6412,
      "▁12'den": 6413,
      "▁konumundan": 6414,
      "▁sigar": 6415,
      "▁yatırımcıları": 6416,
      "▁kazancları": 6417,
      "▁meyve": 6418,
      "▁dagın": 6419,
      "▁fonları": 6420,
      "▁sebebi": 6421,
      "▁gold": 6422,
      "##ebilecegini": 6423,
      "##.75": 6424,
      "▁disip": 6425,
      "▁performansi": 6426,
      "▁amacıyla": 6427,
      "▁samp": 6428,
      "▁noktası": 6429,
      "▁ihracı": 6430,
      "▁busb": 6431,
      "▁aptal": 6432,
      "▁babamın": 6433,
      "▁sozlesmesi": 6434,
      "▁mood": 6435,
      "▁indianapolis'e": 6436,
      "▁tutarında": 6437,
      "▁subat": 6438,
      "▁tazmin": 6439,
      "▁marka": 6440,
      "▁tipik": 6441,
      "▁portakal": 6442,
      "▁gonullu": 6443,
      "▁bilinen": 6444,
      "▁sırtında": 6445,
      "▁suyun": 6446,
      "▁thom": 6447,
      "▁cogunlukla": 6448,
      "▁minneapolis'ten": 6449,
      "▁tuccar": 6450,
      "▁tefek": 6451,
      "▁ecz": 6452,
      "▁diplom": 6453,
      "##cagız": 6454,
      "▁ipotek": 6455,
      "▁trafik": 6456,
      "▁mudahal": 6457,
      "▁seyrediyor": 6458,
      "▁texas": 6459,
      "▁dorduncu": 6460,
      "▁aleyh": 6461,
      "▁supur": 6462,
      "▁telerate": 6463,
      "##so": 6464,
      "##lav": 6465,
      "##cıl": 6466,
      "##cinin": 6467,
      "##mar": 6468,
      "##hos": 6469,
      "▁bık": 6470,
      "▁biber": 6471,
      "##antaj": 6472,
      "▁kun": 6473,
      "▁sob": 6474,
      "▁gre": 6475,
      "▁ob": 6476,
      "##ald": 6477,
      "▁hil": 6478,
      "▁had": 6479,
      "▁cr": 6480,
      "▁cas": 6481,
      "##iydiler": 6482,
      "##esti": 6483,
      "##esindeki": 6484,
      "▁vit": 6485,
      "##lerdeki": 6486,
      "▁pesinde": 6487,
      "##ikler": 6488,
      "##ahtar": 6489,
      "▁fan": 6490,
      "▁nec": 6491,
      "▁aramız": 6492,
      "▁ons": 6493,
      "▁anahtar": 6494,
      "▁kalmıstı": 6495,
      "▁kalmadik": 6496,
      "▁yapabilir": 6497,
      "▁yapildi": 6498,
      "▁yapabil": 6499,
      "▁yaptik": 6500,
      "▁geleni": 6501,
      "▁ayaga": 6502,
      "▁verdiler": 6503,
      "▁vermedi": 6504,
      "▁verimli": 6505,
      "▁konuk": 6506,
      "##adılar": 6507,
      "▁amel": 6508,
      "▁dusurdu": 6509,
      "##lamaları": 6510,
      "▁uzum": 6511,
      "▁acıp": 6512,
      "▁sanay": 6513,
      "▁otek": 6514,
      "##'ndaki": 6515,
      "▁kot": 6516,
      "▁teskil": 6517,
      "##uye": 6518,
      "▁kid": 6519,
      "▁adama": 6520,
      "▁yaralan": 6521,
      "▁coban": 6522,
      "▁bulmaya": 6523,
      "##igin": 6524,
      "##amanın": 6525,
      "##kanın": 6526,
      "▁satır": 6527,
      "▁satıl": 6528,
      "▁aga": 6529,
      "##ıyım": 6530,
      "▁boyn": 6531,
      "▁38": 6532,
      "▁gozler": 6533,
      "▁gozuk": 6534,
      "▁hakları": 6535,
      "▁onunden": 6536,
      "▁haydi": 6537,
      "▁hayli": 6538,
      "▁ceket": 6539,
      "▁bekleyen": 6540,
      "▁sozler": 6541,
      "▁sozcuk": 6542,
      "▁konusur": 6543,
      "##cular": 6544,
      "▁turkler": 6545,
      "##acagımı": 6546,
      "##masıyla": 6547,
      "▁uste": 6548,
      "##ilmesini": 6549,
      "▁tarafa": 6550,
      "▁taraftar": 6551,
      "▁care": 6552,
      "##dukları": 6553,
      "▁taks": 6554,
      "▁cumle": 6555,
      "▁kabar": 6556,
      "▁cıkarıp": 6557,
      "▁muhar": 6558,
      "▁egem": 6559,
      "##ıldıgında": 6560,
      "▁ihtil": 6561,
      "▁70": 6562,
      "▁gelirler": 6563,
      "▁mahall": 6564,
      "▁islemi": 6565,
      "▁kasır": 6566,
      "▁kasık": 6567,
      "▁diken": 6568,
      "▁sehri": 6569,
      "▁bugunku": 6570,
      "▁kendileri": 6571,
      "▁hazırlık": 6572,
      "▁geride": 6573,
      "▁tamamlan": 6574,
      "▁etkili": 6575,
      "▁alınması": 6576,
      "▁etmektedir": 6577,
      "▁kavus": 6578,
      "▁arabalar": 6579,
      "##landıgı": 6580,
      "▁kirp": 6581,
      "▁beklent": 6582,
      "▁maruz": 6583,
      "▁orani": 6584,
      "▁basarili": 6585,
      "▁guvenilir": 6586,
      "▁uzakta": 6587,
      "▁maden": 6588,
      "▁mektep": 6589,
      "▁gelecekteki": 6590,
      "▁metre": 6591,
      "▁spekul": 6592,
      "▁tepk": 6593,
      "▁avrupalı": 6594,
      "▁diyen": 6595,
      "▁nisp": 6596,
      "▁capında": 6597,
      "▁aklına": 6598,
      "▁aralık'ta": 6599,
      "▁yıllarca": 6600,
      "##seniz": 6601,
      "▁moda": 6602,
      "##amayacagını": 6603,
      "▁gomle": 6604,
      "▁cıv": 6605,
      "▁tersine": 6606,
      "▁deste": 6607,
      "▁partisi": 6608,
      "▁direktoru": 6609,
      "▁baglantı": 6610,
      "▁japonya'nın": 6611,
      "##lulugu": 6612,
      "▁yıgın": 6613,
      "▁petersburg'dan": 6614,
      "▁smith": 6615,
      "▁odanin": 6616,
      "▁hucr": 6617,
      "▁korumak": 6618,
      "▁bireysel": 6619,
      "▁otobus": 6620,
      "▁kayded": 6621,
      "▁karmasık": 6622,
      "▁veto": 6623,
      "▁tespit": 6624,
      "▁klasik": 6625,
      "▁nasdaq": 6626,
      "▁“": 6627,
      "▁ası": 6628,
      "##sk": 6629,
      "##nel": 6630,
      "##gine": 6631,
      "##gılı": 6632,
      "##ex": 6633,
      "##bac": 6634,
      "##2'de": 6635,
      "##/8": 6636,
      "##ano": 6637,
      "▁kek": 6638,
      "▁kıt": 6639,
      "▁sos": 6640,
      "▁sıy": 6641,
      "▁ster": 6642,
      "##irken": 6643,
      "▁yam": 6644,
      "##lardaki": 6645,
      "▁hut": 6646,
      "▁cd": 6647,
      "▁cana": 6648,
      "▁canı": 6649,
      "▁vek": 6650,
      "##ames": 6651,
      "##amda": 6652,
      "##emb": 6653,
      "##adet": 6654,
      "##eyiz": 6655,
      "##icileri": 6656,
      "▁nar": 6657,
      "▁ice": 6658,
      "▁icten": 6659,
      "▁arıyor": 6660,
      "##liam": 6661,
      "▁anlıyor": 6662,
      "▁bastan": 6663,
      "▁baslarında": 6664,
      "##lıgından": 6665,
      "▁gorusu": 6666,
      "▁yapın": 6667,
      "▁sonbahar": 6668,
      "▁gelsin": 6669,
      "▁aykırı": 6670,
      "##ilerle": 6671,
      "▁isters": 6672,
      "▁bilmez": 6673,
      "▁konfer": 6674,
      "▁lek": 6675,
      "▁acil": 6676,
      "▁soyleyen": 6677,
      "▁elma": 6678,
      "▁cıkart": 6679,
      "▁parlam": 6680,
      "▁yerlerde": 6681,
      "▁yasası": 6682,
      "▁asil": 6683,
      "▁evinde": 6684,
      "▁yanıl": 6685,
      "▁buyudu": 6686,
      "▁durak": 6687,
      "▁durmadan": 6688,
      "▁senar": 6689,
      "▁senden": 6690,
      "▁sattı": 6691,
      "▁yuzlerce": 6692,
      "▁muay": 6693,
      "▁kulub": 6694,
      "▁zamanla": 6695,
      "##elidir": 6696,
      "▁sorgul": 6697,
      "▁sevdigi": 6698,
      "▁kaymak": 6699,
      "▁ozgu": 6700,
      "▁balayi": 6701,
      "▁tahk": 6702,
      "▁giriyor": 6703,
      "▁52": 6704,
      "▁fazlası": 6705,
      "##uldugu": 6706,
      "▁bazi": 6707,
      "▁kucak": 6708,
      "▁ayrım": 6709,
      "▁ayrıldı": 6710,
      "▁4'ten": 6711,
      "▁saatleri": 6712,
      "▁borcu": 6713,
      "▁kalitesinden": 6714,
      "▁ailenin": 6715,
      "▁cıkarıyor": 6716,
      "▁muhaseb": 6717,
      "▁avustr": 6718,
      "▁cevirdi": 6719,
      "▁sakat": 6720,
      "##tıklarını": 6721,
      "▁satısa": 6722,
      "▁tablo": 6723,
      "▁yaptılar": 6724,
      "▁arkadası": 6725,
      "▁farklılık": 6726,
      "▁diyorlar": 6727,
      "▁kusursuz": 6728,
      "▁resmen": 6729,
      "▁teklifini": 6730,
      "▁camur": 6731,
      "▁arabayı": 6732,
      "▁kirli": 6733,
      "▁benzin": 6734,
      "▁oyuncak": 6735,
      "▁sunları": 6736,
      "▁1.6": 6737,
      "▁mektu": 6738,
      "▁ticareti": 6739,
      "▁meyv": 6740,
      "▁kemik": 6741,
      "▁caba": 6742,
      "▁catıs": 6743,
      "▁unutul": 6744,
      "▁agzını": 6745,
      "▁yudum": 6746,
      "▁capital": 6747,
      "▁numara": 6748,
      "▁kapattı": 6749,
      "▁borsası'nda": 6750,
      "▁nefret": 6751,
      "▁bocek": 6752,
      "##karta": 6753,
      "▁yurtd": 6754,
      "▁mendil": 6755,
      "▁gidebilir": 6756,
      "▁ferah": 6757,
      "▁angeles'ten": 6758,
      "▁sinirli": 6759,
      "▁akıllı": 6760,
      "▁saldırı": 6761,
      "▁lokant": 6762,
      "▁gogsun": 6763,
      "▁sikint": 6764,
      "▁memphis'e": 6765,
      "▁enerj": 6766,
      "▁toplantıda": 6767,
      "▁karsılıklı": 6768,
      "▁miktarda": 6769,
      "▁yuvarlak": 6770,
      "▁petersburg'a": 6771,
      "▁sms": 6772,
      "▁aksine": 6773,
      "▁tacoma'ya": 6774,
      "▁pirinc": 6775,
      "▁calisanlari": 6776,
      "▁kalabalikti": 6777,
      "▁sıfır": 6778,
      "▁arizona": 6779,
      "▁izmir": 6780,
      "▁gecmiste": 6781,
      "▁bıyık": 6782,
      "▁tecrub": 6783,
      "▁busbutun": 6784,
      "▁konferans": 6785,
      "▁ler": 6786,
      "##rop": 6787,
      "##s'in": 6788,
      "##don": 6789,
      "##dol": 6790,
      "##mana": 6791,
      "##'si": 6792,
      "##y'nin": 6793,
      "##paz": 6794,
      "##bes": 6795,
      "##ble": 6796,
      "##biye": 6797,
      "##wood": 6798,
      "##-1": 6799,
      "##arik": 6800,
      "▁biy": 6801,
      "▁big": 6802,
      "▁bıc": 6803,
      "##anet": 6804,
      "▁skan": 6805,
      "▁sesini": 6806,
      "▁deri": 6807,
      "##ence": 6808,
      "▁gam": 6809,
      "▁yırt": 6810,
      "##ila": 6811,
      "##orp": 6812,
      "##unce": 6813,
      "▁tik": 6814,
      "▁hun": 6815,
      "##on'un": 6816,
      "##emli": 6817,
      "▁palt": 6818,
      "▁pembe": 6819,
      "##umda": 6820,
      "▁olayı": 6821,
      "▁fet": 6822,
      "##dut": 6823,
      "##agından": 6824,
      "##abz": 6825,
      "▁icim": 6826,
      "▁alımı": 6827,
      "▁almayı": 6828,
      "▁arayan": 6829,
      "▁arıyorum": 6830,
      "##lıgının": 6831,
      "##tia": 6832,
      "▁yapacagını": 6833,
      "##tugu": 6834,
      "▁verdigini": 6835,
      "▁gectigimiz": 6836,
      "▁degilse": 6837,
      "▁denem": 6838,
      "▁acele": 6839,
      "▁atar": 6840,
      "▁yıldan": 6841,
      "▁gosterebilir": 6842,
      "▁yasadık": 6843,
      "▁asag": 6844,
      "▁bulmus": 6845,
      "▁beyan": 6846,
      "▁suret": 6847,
      "▁bakkal": 6848,
      "▁senator": 6849,
      "##veren": 6850,
      "▁soyledim": 6851,
      "▁3.5": 6852,
      "##lesti": 6853,
      "▁dolasır": 6854,
      "▁sahne": 6855,
      "▁hayv": 6856,
      "▁kateg": 6857,
      "▁calısır": 6858,
      "▁j.": 6859,
      "▁james": 6860,
      "▁dergi": 6861,
      "▁ucretini": 6862,
      "##luktan": 6863,
      "▁cekir": 6864,
      "▁55": 6865,
      "##uldugunu": 6866,
      "▁sozunu": 6867,
      "▁tutul": 6868,
      "▁saga": 6869,
      "##ilmistir": 6870,
      "▁dedigi": 6871,
      "▁taraftan": 6872,
      "▁gerekc": 6873,
      "▁kısmen": 6874,
      "▁sayılı": 6875,
      "▁arkasına": 6876,
      "▁termal": 6877,
      "▁yurek": 6878,
      "▁hisselerin": 6879,
      "▁ital": 6880,
      "▁sakal": 6881,
      "▁sarhos": 6882,
      "▁kactı": 6883,
      "▁izlen": 6884,
      "▁besik": 6885,
      "▁babasının": 6886,
      "▁planlam": 6887,
      "▁havuzlar": 6888,
      "▁sesle": 6889,
      "▁mutluluk": 6890,
      "▁kisiyi": 6891,
      "▁duruma": 6892,
      "▁gazi": 6893,
      "##memiz": 6894,
      "▁dinliyor": 6895,
      "▁hareketi": 6896,
      "▁kopru": 6897,
      "▁resep": 6898,
      "▁tug": 6899,
      "▁yen'den": 6900,
      "▁corb": 6901,
      "▁gulus": 6902,
      "▁yavr": 6903,
      "##tigine": 6904,
      "▁cami": 6905,
      "▁beklentim": 6906,
      "▁ulkede": 6907,
      "▁fırladı": 6908,
      "▁1.0": 6909,
      "▁kurulan": 6910,
      "▁kesint": 6911,
      "▁gorevl": 6912,
      "##ove": 6913,
      "▁yapılandır": 6914,
      "▁gezin": 6915,
      "▁gures": 6916,
      "▁sanatcı": 6917,
      "##ebilmek": 6918,
      "▁dikkatli": 6919,
      "▁law": 6920,
      "▁halkın": 6921,
      "▁trust": 6922,
      "▁gordugum": 6923,
      "##ıcılık": 6924,
      "▁eksikligi": 6925,
      "▁dısarıda": 6926,
      "▁1/8": 6927,
      "▁efendim": 6928,
      "##bakır": 6929,
      "▁incelem": 6930,
      "▁omr": 6931,
      "▁fiili": 6932,
      "▁yolculu": 6933,
      "▁hurr": 6934,
      "▁duygusal": 6935,
      "▁yukseltti": 6936,
      "▁detroit'ten": 6937,
      "▁istikrar": 6938,
      "▁siparis": 6939,
      "▁organizasyon": 6940,
      "▁bedel": 6941,
      "▁ozgurluk": 6942,
      "▁jose'ye": 6943,
      "▁odanın": 6944,
      "▁sifir": 6945,
      "▁zirv": 6946,
      "▁kapasitesi": 6947,
      "▁kalmadigim": 6948,
      "▁isvic": 6949,
      "▁iktidar": 6950,
      "▁olaganustu": 6951,
      "▁geleneksel": 6952,
      "▁ltd.": 6953,
      "▁aqua": 6954,
      "▁diyarbakır": 6955,
      "▁ameliyat": 6956,
      "▁egemen": 6957,
      "##kesi": 6958,
      "##uh": 6959,
      "##mec": 6960,
      "##mıyorum": 6961,
      "##mesin": 6962,
      "##ho": 6963,
      "##yım": 6964,
      "##vi": 6965,
      "##-m": 6966,
      "▁beh": 6967,
      "▁bomb": 6968,
      "▁kiz": 6969,
      "▁stu": 6970,
      "▁diler": 6971,
      "▁diyorum": 6972,
      "▁yım": 6973,
      "▁yuc": 6974,
      "▁yeg": 6975,
      "##ortaj": 6976,
      "▁cesi": 6977,
      "▁calı": 6978,
      "##iyel": 6979,
      "##ektif": 6980,
      "▁mıydı": 6981,
      "##emeyecek": 6982,
      "##imet": 6983,
      "##ady": 6984,
      "▁pe": 6985,
      "▁pır": 6986,
      "▁uvey": 6987,
      "##umlu": 6988,
      "##eyman": 6989,
      "##ahmet": 6990,
      "▁fit": 6991,
      "▁fren": 6992,
      "▁nesil": 6993,
      "▁ick": 6994,
      "▁icini": 6995,
      "▁almadim": 6996,
      "▁onlardan": 6997,
      "▁ant": 6998,
      "▁anladı": 6999,
      "▁antr": 7000,
      "##lıgım": 7001,
      "##lıgında": 7002,
      "▁gormuyor": 7003,
      "▁goruyorum": 7004,
      "▁karlı": 7005,
      "▁zır": 7006,
      "▁isken": 7007,
      "▁vermeye": 7008,
      "▁vergisi": 7009,
      "▁konser": 7010,
      "▁laci": 7011,
      "▁love": 7012,
      "##uste": 7013,
      "▁soyles": 7014,
      "▁olmam": 7015,
      "▁olmamıs": 7016,
      "▁iktis": 7017,
      "▁ederken": 7018,
      "▁seyret": 7019,
      "▁turist": 7020,
      "▁asır": 7021,
      "▁count": 7022,
      "▁kaps": 7023,
      "▁buyur": 7024,
      "▁yuklen": 7025,
      "▁karsılan": 7026,
      "▁bakarak": 7027,
      "▁baktım": 7028,
      "▁seneye": 7029,
      "▁yuzunde": 7030,
      "▁temizlen": 7031,
      "▁boya": 7032,
      "▁yemeklerini": 7033,
      "▁%3": 7034,
      "▁%2": 7035,
      "▁gozet": 7036,
      "▁dalgın": 7037,
      "▁dalga": 7038,
      "▁haket": 7039,
      "▁yoldan": 7040,
      "▁milyona": 7041,
      "▁haykır": 7042,
      "▁yazdı": 7043,
      "▁guver": 7044,
      "▁cekiyor": 7045,
      "▁cekici": 7046,
      "▁bekler": 7047,
      "▁tutan": 7048,
      "▁tutmak": 7049,
      "▁gorusmeler": 7050,
      "▁47": 7051,
      "##ilmaz": 7052,
      "▁carol": 7053,
      "▁caresiz": 7054,
      "▁carsı": 7055,
      "▁tanıt": 7056,
      "##ecegimiz": 7057,
      "▁boru": 7058,
      "▁getirmek": 7059,
      "▁kazanan": 7060,
      "▁muhim": 7061,
      "▁etmisti": 7062,
      "▁dusundum": 7063,
      "##ibe": 7064,
      "▁7'den": 7065,
      "▁degerinde": 7066,
      "▁islemlerde": 7067,
      "▁izliyor": 7068,
      "##mamalı": 7069,
      "▁guclendir": 7070,
      "▁degisimi": 7071,
      "▁degismedi": 7072,
      "▁emre": 7073,
      "▁emniyet": 7074,
      "▁emtia": 7075,
      "▁uslu": 7076,
      "▁usta": 7077,
      "▁muthis": 7078,
      "##eyince": 7079,
      "▁sahipti": 7080,
      "▁annesinin": 7081,
      "▁sıg": 7082,
      "▁dilek": 7083,
      "##.50": 7084,
      "▁tuv": 7085,
      "▁yenilen": 7086,
      "▁umuyor": 7087,
      "▁rahatti": 7088,
      "▁yapılıyor": 7089,
      "▁99": 7090,
      "▁oynuyor": 7091,
      "▁1.7": 7092,
      "▁iliskileri": 7093,
      "▁sogan": 7094,
      "▁uzaktan": 7095,
      "▁yaglı": 7096,
      "▁yapmaktan": 7097,
      "##negi": 7098,
      "▁silin": 7099,
      "▁ugradı": 7100,
      "▁calismas": 7101,
      "##sub": 7102,
      "▁hosuma": 7103,
      "▁fedakar": 7104,
      "▁alıskan": 7105,
      "▁cocuga": 7106,
      "▁bolgede": 7107,
      "▁lakırtı": 7108,
      "▁trilyon": 7109,
      "▁damar": 7110,
      "##lanmıstır": 7111,
      "▁eylul'de": 7112,
      "▁suleyman": 7113,
      "▁orlando": 7114,
      "▁ufakti": 7115,
      "▁yakindi": 7116,
      "▁sisman": 7117,
      "▁morgan": 7118,
      "▁tiyatr": 7119,
      "▁iskont": 7120,
      "▁azaldı": 7121,
      "▁kıvr": 7122,
      "▁gogus": 7123,
      "▁munaseb": 7124,
      "▁muhtemel": 7125,
      "▁suyunu": 7126,
      "▁sasırtıcı": 7127,
      "▁omz": 7128,
      "▁nitelik": 7129,
      "▁uyumlu": 7130,
      "▁times": 7131,
      "▁ekipman": 7132,
      "▁vucud": 7133,
      "▁nikah": 7134,
      "▁california'ya": 7135,
      "▁miras": 7136,
      "▁anayas": 7137,
      "▁dakikada": 7138,
      "▁oksur": 7139,
      "▁tulum": 7140,
      "▁protest": 7141,
      "▁teyz": 7142,
      "▁lehman": 7143,
      "▁komitesi": 7144,
      "▁dolandır": 7145,
      "▁fazlasını": 7146,
      "▁columbus'tan": 7147,
      "▁fizik": 7148,
      "▁yedek": 7149,
      "▁paranin": 7150,
      "▁govd": 7151,
      "▁eroin": 7152,
      "▁mosk": 7153,
      "▁tesaduf": 7154,
      "▁florida": 7155,
      "▁plastik": 7156,
      "▁roportaj": 7157,
      "▁kidder": 7158,
      "▁lacivert": 7159,
      "▁county": 7160,
      "▁lif": 7161,
      "##kul": 7162,
      "##sir": 7163,
      "##line": 7164,
      "##lesi": 7165,
      "##lilig": 7166,
      "##fez": 7167,
      "##temiz": 7168,
      "##odu": 7169,
      "##cik": 7170,
      "##melerin": 7171,
      "##has": 7172,
      "##yeni": 7173,
      "##vili": 7174,
      "▁kuyu": 7175,
      "▁sum": 7176,
      "▁saman": 7177,
      "▁dım": 7178,
      "▁diyordu": 7179,
      "##enen": 7180,
      "▁gm": 7181,
      "▁odu": 7182,
      "##iliyordu": 7183,
      "##undeki": 7184,
      "##larken": 7185,
      "▁halı": 7186,
      "▁hot": 7187,
      "▁hug": 7188,
      "▁cav": 7189,
      "▁cbs": 7190,
      "▁biriydi": 7191,
      "▁miz": 7192,
      "▁ves": 7193,
      "▁pey": 7194,
      "▁olsaydı": 7195,
      "##oker": 7196,
      "##denin": 7197,
      "##ımları": 7198,
      "##ita": 7199,
      "▁nori": 7200,
      "▁naci": 7201,
      "##agım": 7202,
      "##abi": 7203,
      "##abını": 7204,
      "##abilmesi": 7205,
      "▁icimde": 7206,
      "▁rey": 7207,
      "▁raki": 7208,
      "▁ramiz": 7209,
      "▁rıh": 7210,
      "##asıdır": 7211,
      "▁ucusunu": 7212,
      "▁1\\/8": 7213,
      "▁sonsuz": 7214,
      "▁ismini": 7215,
      "▁etek": 7216,
      "▁istiyorlar": 7217,
      "▁engin": 7218,
      "▁orgu": 7219,
      "▁les": 7220,
      "▁dusuyor": 7221,
      "▁gecip": 7222,
      "▁atmak": 7223,
      "##acaklar": 7224,
      "▁elimi": 7225,
      "▁gerci": 7226,
      "▁cıkmaz": 7227,
      "▁cıkınca": 7228,
      "▁ikiye": 7229,
      "▁ikna": 7230,
      "▁partiler": 7231,
      "▁yasat": 7232,
      "▁buyut": 7233,
      "▁satılan": 7234,
      "▁mud": 7235,
      "▁zamandan": 7236,
      "▁33": 7237,
      "▁%9": 7238,
      "▁toplu": 7239,
      "▁gozluk": 7240,
      "▁yeteri": 7241,
      "##iyetini": 7242,
      "▁kayak": 7243,
      "▁kayık": 7244,
      "▁hakan": 7245,
      "▁milyonluk": 7246,
      "▁katlı": 7247,
      "▁calısmak": 7248,
      "▁calısıyordu": 7249,
      "▁jersey": 7250,
      "▁cekin": 7251,
      "▁cekip": 7252,
      "▁girmek": 7253,
      "▁girmis": 7254,
      "▁sozlerine": 7255,
      "▁tutuk": 7256,
      "▁kestir": 7257,
      "▁konusma": 7258,
      "▁saglayan": 7259,
      "▁kullanılıyor": 7260,
      "▁48": 7261,
      "▁atlanta'da": 7262,
      "▁kısın": 7263,
      "▁terbiy": 7264,
      "▁etmistir": 7265,
      "▁yuregi": 7266,
      "▁david": 7267,
      "▁telas": 7268,
      "▁sade": 7269,
      "▁italya": 7270,
      "▁7\\/8": 7271,
      "##mazlar": 7272,
      "▁krizi": 7273,
      "▁secildi": 7274,
      "▁62": 7275,
      "▁musun": 7276,
      "▁tabur": 7277,
      "▁dısına": 7278,
      "##malarına": 7279,
      "▁ustunden": 7280,
      "▁80": 7281,
      "▁kendisinin": 7282,
      "▁dinlem": 7283,
      "▁dinlemek": 7284,
      "▁makam": 7285,
      "▁goruntu": 7286,
      "▁ıskarta": 7287,
      "▁komun": 7288,
      "▁genclik": 7289,
      "▁servet": 7290,
      "▁abd'nin": 7291,
      "▁tamamladı": 7292,
      "▁kaynagı": 7293,
      "▁ulkemiz": 7294,
      "▁mars": 7295,
      "▁yeterliydi": 7296,
      "▁oldukları": 7297,
      "▁vakti": 7298,
      "▁saclarını": 7299,
      "▁mekte": 7300,
      "▁fonu": 7301,
      "▁golge": 7302,
      "▁parcaları": 7303,
      "##stit": 7304,
      "▁borclu": 7305,
      "▁gidiyoruz": 7306,
      "▁isletmeler": 7307,
      "▁olanaklarını": 7308,
      "▁kocası": 7309,
      "▁agzı": 7310,
      "▁cumhuriyeti": 7311,
      "▁istiyoruz": 7312,
      "▁sokakta": 7313,
      "▁kuzu": 7314,
      "▁titiz": 7315,
      "▁universite": 7316,
      "▁nisan'da": 7317,
      "▁bekledigini": 7318,
      "▁sorular": 7319,
      "▁demokrat": 7320,
      "▁universitesi": 7321,
      "▁olmalıydı": 7322,
      "▁mesela": 7323,
      "▁ataturk'un": 7324,
      "▁edecegim": 7325,
      "▁sohret": 7326,
      "▁detroit'e": 7327,
      "▁lisans": 7328,
      "▁kalkıslı": 7329,
      "▁ign": 7330,
      "▁curuk": 7331,
      "▁edici": 7332,
      "▁tuccarlar": 7333,
      "▁mutfak": 7334,
      "▁zira": 7335,
      "▁eglenceli": 7336,
      "##rahim": 7337,
      "▁orgut": 7338,
      "▁burbank'a": 7339,
      "▁sıcr": 7340,
      "▁zihn": 7341,
      "▁muhalef": 7342,
      "▁william": 7343,
      "▁vasat": 7344,
      "▁tohum": 7345,
      "▁patlıcan": 7346,
      "▁cukur": 7347,
      "▁temettu": 7348,
      "▁azınlık": 7349,
      "▁disiplin": 7350,
      "▁avustralya": 7351,
      "▁italyan": 7352,
      "▁resepsiyon": 7353,
      "▁isvicre": 7354,
      "▁norieg": 7355,
      "##aa": 7356,
      "##a.": 7357,
      "##ael": 7358,
      "##loy": 7359,
      "##nik": 7360,
      "##ubu": 7361,
      "##fed": 7362,
      "##ota": 7363,
      "##dini": 7364,
      "##cum": 7365,
      "##hen": 7366,
      "##'teki": 7367,
      "##yle": 7368,
      "##40": 7369,
      "##buk": 7370,
      "##wn": 7371,
      "▁sise": 7372,
      "▁go": 7373,
      "▁gro": 7374,
      "##ildik": 7375,
      "▁he": 7376,
      "▁cetin": 7377,
      "##etti": 7378,
      "##atin": 7379,
      "##iza": 7380,
      "▁bufe": 7381,
      "▁ded": 7382,
      "▁nus": 7383,
      "##ista": 7384,
      "▁alcak": 7385,
      "▁alıyordu": 7386,
      "▁alamadik": 7387,
      "▁arb": 7388,
      "▁rut": 7389,
      "▁antik": 7390,
      "▁baslık": 7391,
      "▁basladık": 7392,
      "##lılar": 7393,
      "##gide": 7394,
      "▁gorme": 7395,
      "▁ucusta": 7396,
      "▁zan": 7397,
      "▁yaptim": 7398,
      "▁neh": 7399,
      "▁ismi": 7400,
      "▁eti": 7401,
      "▁vererek": 7402,
      "▁istir": 7403,
      "▁bilgisi": 7404,
      "##ıyordum": 7405,
      "##ıyorlardı": 7406,
      "▁lab": 7407,
      "##madigim": 7408,
      "▁denen": 7409,
      "##tex": 7410,
      "▁atesi": 7411,
      "▁attıgı": 7412,
      "▁elim": 7413,
      "##dırdı": 7414,
      "▁kenara": 7415,
      "##'nı": 7416,
      "▁temp": 7417,
      "▁cıktım": 7418,
      "▁yara": 7419,
      "▁kapali": 7420,
      "▁kapısını": 7421,
      "▁havaya": 7422,
      "##rand": 7423,
      "▁uyuy": 7424,
      "▁uyarı": 7425,
      "▁bulmadim": 7426,
      "▁bulbul": 7427,
      "##iger": 7428,
      "##igit": 7429,
      "▁yangın": 7430,
      "▁est": 7431,
      "▁yuklu": 7432,
      "▁baker": 7433,
      "▁yuzey": 7434,
      "▁doga": 7435,
      "▁topar": 7436,
      "▁gozlerim": 7437,
      "▁yetmis": 7438,
      "##lesme": 7439,
      "▁sauna": 7440,
      "▁kaydı": 7441,
      "▁ortada": 7442,
      "▁sahin": 7443,
      "##abilirdi": 7444,
      "##abiliriz": 7445,
      "▁yolunda": 7446,
      "▁ozet": 7447,
      "▁yazılım": 7448,
      "▁oteller": 7449,
      "▁calısması": 7450,
      "▁tahsil": 7451,
      "▁tahvili": 7452,
      "▁girip": 7453,
      "▁puana": 7454,
      "▁sagladı": 7455,
      "▁ustlen": 7456,
      "▁kullandı": 7457,
      "▁korfez": 7458,
      "▁duydum": 7459,
      "##sızın": 7460,
      "▁tanesi": 7461,
      "▁taslar": 7462,
      "▁tasır": 7463,
      "##ımızdan": 7464,
      "▁acıklama": 7465,
      "▁getiren": 7466,
      "▁gitmeyi": 7467,
      "▁takv": 7468,
      "▁aileye": 7469,
      "▁sayılır": 7470,
      "▁avantaj": 7471,
      "▁egz": 7472,
      "▁aksamları": 7473,
      "▁tertemiz": 7474,
      "▁hata": 7475,
      "▁ceviz": 7476,
      "▁davası": 7477,
      "▁listeleyebilir": 7478,
      "▁ittif": 7479,
      "▁sıkıstır": 7480,
      "▁tatildi": 7481,
      "▁oturuyor": 7482,
      "▁mesut": 7483,
      "▁kalkar": 7484,
      "▁sehre": 7485,
      "▁kisiye": 7486,
      "▁kisilerin": 7487,
      "▁kararlı": 7488,
      "##ınıza": 7489,
      "##ento": 7490,
      "##memisti": 7491,
      "▁kub": 7492,
      "▁erkenden": 7493,
      "▁south": 7494,
      "▁cogal": 7495,
      "▁cogunu": 7496,
      "▁abd'de": 7497,
      "▁corap": 7498,
      "▁umur": 7499,
      "▁arkadasım": 7500,
      "▁bosalt": 7501,
      "▁duzenlenen": 7502,
      "##erve": 7503,
      "▁kokulu": 7504,
      "▁iran": 7505,
      "▁benziyor": 7506,
      "▁market": 7507,
      "▁gorevi": 7508,
      "▁gorevlisi": 7509,
      "▁guvenli": 7510,
      "▁birbirini": 7511,
      "▁vakıf": 7512,
      "▁agırlık": 7513,
      "▁soyluyorlar": 7514,
      "##tısını": 7515,
      "▁zarif": 7516,
      "▁sebeb": 7517,
      "▁seviyesinde": 7518,
      "▁minim": 7519,
      "▁kitaplar": 7520,
      "▁hoslan": 7521,
      "▁gidiyorum": 7522,
      "▁catlak": 7523,
      "▁150": 7524,
      "▁ciftlik": 7525,
      "▁ibrahim": 7526,
      "▁kardesi": 7527,
      "▁reddet": 7528,
      "▁agacın": 7529,
      "▁sezl": 7530,
      "▁lastik": 7531,
      "##larımızın": 7532,
      "##ıcık": 7533,
      "▁atese": 7534,
      "▁komisyonlar": 7535,
      "▁afrika": 7536,
      "▁kuvvetleri": 7537,
      "▁vazif": 7538,
      "▁dısarıya": 7539,
      "▁hedefi": 7540,
      "▁kampanya": 7541,
      "##ijinal": 7542,
      "▁nazar": 7543,
      "▁senetlerinin": 7544,
      "▁dusunceler": 7545,
      "▁gorulen": 7546,
      "▁panik": 7547,
      "##ock": 7548,
      "▁yelpaz": 7549,
      "▁avukatlar": 7550,
      "▁yataklar": 7551,
      "▁ertelen": 7552,
      "▁tedavi": 7553,
      "##kei": 7554,
      "▁okumak": 7555,
      "▁baglantılı": 7556,
      "▁yasadıgı": 7557,
      "▁kapsamlı": 7558,
      "▁grev": 7559,
      "▁tedarik": 7560,
      "▁worth'a": 7561,
      "▁cincinnati'ye": 7562,
      "▁sahneye": 7563,
      "▁kompoz": 7564,
      "▁alkıs": 7565,
      "▁sovyetler": 7566,
      "▁nikkei": 7567,
      "▁3/8": 7568,
      "▁tampa'ya": 7569,
      "▁minneapolis'e": 7570,
      "▁plaj": 7571,
      "▁yararlı": 7572,
      "▁iyilestir": 7573,
      "▁medya": 7574,
      "▁british": 7575,
      "▁populer": 7576,
      "▁muzakere": 7577,
      "▁verebilirim": 7578,
      "▁dr.": 7579,
      "▁hazırlanısı": 7580,
      "▁heves": 7581,
      "▁musluman": 7582,
      "▁agabey": 7583,
      "▁tatlilar": 7584,
      "▁kaybeden": 7585,
      "▁merhaba": 7586,
      "▁alım-satım": 7587,
      "▁sampiyon": 7588,
      "▁hurriyet": 7589,
      "▁iskonto": 7590,
      "▁munasebet": 7591,
      "▁rıhtım": 7592,
      "▁ittifak": 7593,
      "##rin": 7594,
      "##renin": 7595,
      "##sık": 7596,
      "##fı": 7597,
      "##graf": 7598,
      "##dınız": 7599,
      "##cin": 7600,
      "##vest": 7601,
      "##10": 7602,
      "##48": 7603,
      "##47": 7604,
      "##xel": 7605,
      "##-s": 7606,
      "▁badem": 7607,
      "##anla": 7608,
      "▁kef": 7609,
      "▁klim": 7610,
      "▁dey": 7611,
      "▁dalı": 7612,
      "▁dre": 7613,
      "▁deyip": 7614,
      "##endi": 7615,
      "▁yagı": 7616,
      "##ilmek": 7617,
      "##ors": 7618,
      "▁tetik": 7619,
      "##iser": 7620,
      "##eksiyon": 7621,
      "##atını": 7622,
      "##imler": 7623,
      "▁olgu": 7624,
      "▁bulas": 7625,
      "▁buluyor": 7626,
      "##ical": 7627,
      "▁vez": 7628,
      "▁fis": 7629,
      "##ılmaya": 7630,
      "##ıldım": 7631,
      "▁alanı": 7632,
      "▁aldık": 7633,
      "▁onlarla": 7634,
      "▁rab": 7635,
      "##lanıp": 7636,
      "##lanmaya": 7637,
      "▁basken": 7638,
      "▁gormemis": 7639,
      "▁ucusunun": 7640,
      "▁zil": 7641,
      "▁yapmadim": 7642,
      "▁isgal": 7643,
      "▁iyilik": 7644,
      "##alarak": 7645,
      "▁ayagı": 7646,
      "▁isteme": 7647,
      "##dirgin": 7648,
      "▁orhan": 7649,
      "▁orijinal": 7650,
      "▁l.": 7651,
      "▁lin": 7652,
      "▁lor": 7653,
      "▁ley": 7654,
      "▁luz": 7655,
      "▁benzet": 7656,
      "▁degiller": 7657,
      "▁degiliz": 7658,
      "##lamayı": 7659,
      "##mıstım": 7660,
      "▁acım": 7661,
      "▁acmak": 7662,
      "▁sansı": 7663,
      "▁atıp": 7664,
      "▁otesinde": 7665,
      "▁elinin": 7666,
      "▁olmasın": 7667,
      "▁edemez": 7668,
      "▁yılki": 7669,
      "##eginden": 7670,
      "▁seydi": 7671,
      "▁kurumu": 7672,
      "▁paral": 7673,
      "▁tekne": 7674,
      "▁2.6": 7675,
      "▁bayagi": 7676,
      "▁esin": 7677,
      "▁bey'in": 7678,
      "▁beyoglu": 7679,
      "▁sened": 7680,
      "▁muv": 7681,
      "▁degisti": 7682,
      "##00000": 7683,
      "▁memnuniyeti": 7684,
      "▁temizliginden": 7685,
      "▁eklem": 7686,
      "▁boyuna": 7687,
      "▁fiyatlarının": 7688,
      "▁bunal": 7689,
      "▁bunca": 7690,
      "▁gozle": 7691,
      "##iyetle": 7692,
      "▁sirkette": 7693,
      "▁yollarını": 7694,
      "▁onundeki": 7695,
      "▁girdik": 7696,
      "▁195": 7697,
      "▁konusmak": 7698,
      "▁cesitler": 7699,
      "▁saglar": 7700,
      "▁kullanarak": 7701,
      "▁kanunu": 7702,
      "▁butc": 7703,
      "▁kore": 7704,
      "▁korid": 7705,
      "##ilmesine": 7706,
      "▁kıza": 7707,
      "▁kızım": 7708,
      "▁eristi": 7709,
      "▁sıradan": 7710,
      "▁pazarı": 7711,
      "▁sayıl": 7712,
      "▁sayısını": 7713,
      "▁malum": 7714,
      "▁hatt": 7715,
      "▁bulundur": 7716,
      "▁telgraf": 7717,
      "▁belirlen": 7718,
      "▁kosede": 7719,
      "▁sarsın": 7720,
      "##mezdi": 7721,
      "▁bırakır": 7722,
      "▁tatmin": 7723,
      "##abilecegi": 7724,
      "▁krem": 7725,
      "▁babama": 7726,
      "##inceye": 7727,
      "▁kıyı": 7728,
      "▁mesgul": 7729,
      "▁meshur": 7730,
      "##suzluk": 7731,
      "##alanmıs": 7732,
      "▁emlak": 7733,
      "##landık": 7734,
      "##maların": 7735,
      "▁fakult": 7736,
      "▁polonya": 7737,
      "▁kuslar": 7738,
      "▁pazarlama": 7739,
      "▁1986": 7740,
      "▁askın": 7741,
      "▁ihtiyacları": 7742,
      "▁teklifler": 7743,
      "▁inanilmaz": 7744,
      "▁oncelik": 7745,
      "▁oyunc": 7746,
      "▁sunul": 7747,
      "▁fırın": 7748,
      "▁kurulusu": 7749,
      "▁sola": 7750,
      "▁haberleri": 7751,
      "▁daral": 7752,
      "▁tedirgin": 7753,
      "▁karsilas": 7754,
      "▁bozul": 7755,
      "▁rock": 7756,
      "▁ufuk": 7757,
      "▁laik": 7758,
      "▁gidiyordu": 7759,
      "▁dayanır": 7760,
      "▁cozul": 7761,
      "▁giys": 7762,
      "▁okula": 7763,
      "▁olayın": 7764,
      "▁yarattı": 7765,
      "▁cenaz": 7766,
      "▁alakasi": 7767,
      "▁samim": 7768,
      "▁pisman": 7769,
      "▁adımlarla": 7770,
      "▁noktada": 7771,
      "▁coluk": 7772,
      "▁bilgileri": 7773,
      "▁toplumsal": 7774,
      "▁semp": 7775,
      "▁siyasal": 7776,
      "▁sektoru": 7777,
      "▁kurtulmak": 7778,
      "▁ezber": 7779,
      "##leyebil": 7780,
      "▁ureticileri": 7781,
      "▁ileride": 7782,
      "▁huzurlu": 7783,
      "▁siddetle": 7784,
      "▁yunus": 7785,
      "▁ceph": 7786,
      "▁inceleme": 7787,
      "▁olmalıdır": 7788,
      "▁endustriyel": 7789,
      "▁hikaye": 7790,
      "▁sartları": 7791,
      "▁japonya'da": 7792,
      "##emeyecegim": 7793,
      "▁kacındı": 7794,
      "▁tasımac": 7795,
      "▁dusundugum": 7796,
      "▁muhalif": 7797,
      "▁kagıdı": 7798,
      "▁takdirde": 7799,
      "▁akrab": 7800,
      "▁seviyede": 7801,
      "▁olasılık": 7802,
      "▁sekreter": 7803,
      "▁richard": 7804,
      "▁industries": 7805,
      "##akkak": 7806,
      "▁balkon": 7807,
      "▁erdogan": 7808,
      "▁ceyreginde": 7809,
      "▁vicdan": 7810,
      "▁lubnan": 7811,
      "▁britanya": 7812,
      "▁moody's": 7813,
      "▁hutton": 7814,
      "▁skandal": 7815,
      "▁besiktas": 7816,
      "▁muddet": 7817,
      "▁group": 7818,
      "▁minimum": 7819,
      "▁drexel": 7820,
      "##res": 7821,
      "##rem": 7822,
      "##leleri": 7823,
      "##furt": 7824,
      "##ts": 7825,
      "##cın": 7826,
      "##mesiyle": 7827,
      "##zat": 7828,
      "##pal": 7829,
      "##bab": 7830,
      "##bine": 7831,
      "##intex": 7832,
      "▁kın": 7833,
      "▁sop": 7834,
      "▁sed": 7835,
      "##iriz": 7836,
      "▁gas": 7837,
      "▁guz": 7838,
      "▁yalı": 7839,
      "##ilip": 7840,
      "▁hekim": 7841,
      "▁cuz": 7842,
      "▁cuv": 7843,
      "##iyla": 7844,
      "##urum": 7845,
      "▁plak": 7846,
      "##izdi": 7847,
      "##ikli": 7848,
      "##azi": 7849,
      "##leer": 7850,
      "##ılma": 7851,
      "▁niz": 7852,
      "▁nom": 7853,
      "▁neyse": 7854,
      "##ola": 7855,
      "▁icat": 7856,
      "▁alana": 7857,
      "▁aldat": 7858,
      "▁aradı": 7859,
      "▁onda": 7860,
      "##lidir": 7861,
      "▁ros": 7862,
      "▁rom": 7863,
      "##landa": 7864,
      "▁kaldık": 7865,
      "▁baslamak": 7866,
      "##gia": 7867,
      "▁gormedik": 7868,
      "▁gorule": 7869,
      "▁karad": 7870,
      "▁ucusunda": 7871,
      "##tip": 7872,
      "▁1000": 7873,
      "▁yapıyordu": 7874,
      "▁yapıyorlar": 7875,
      "▁sondur": 7876,
      "▁islerin": 7877,
      "##tubet": 7878,
      "▁gelmek": 7879,
      "▁geldiler": 7880,
      "▁varır": 7881,
      "▁verip": 7882,
      "▁vermiyor": 7883,
      "▁vermeyi": 7884,
      "##dirdi": 7885,
      "▁bilimin": 7886,
      "##esidir": 7887,
      "▁ens": 7888,
      "▁konuyla": 7889,
      "▁lloy": 7890,
      "▁gecis": 7891,
      "▁gecmek": 7892,
      "▁gecmeden": 7893,
      "▁sandık": 7894,
      "##mekle": 7895,
      "▁akp": 7896,
      "##acaktı": 7897,
      "▁gerce": 7898,
      "▁gercegi": 7899,
      "▁kentin": 7900,
      "##'nden": 7901,
      "▁kotul": 7902,
      "##lenin": 7903,
      "▁ikiser": 7904,
      "▁parası": 7905,
      "▁yerlere": 7906,
      "▁adil": 7907,
      "▁yasına": 7908,
      "▁yasamadim": 7909,
      "##eceklerini": 7910,
      "▁turden": 7911,
      "▁2.7": 7912,
      "▁bayr": 7913,
      "▁uye": 7914,
      "▁bulgar": 7915,
      "▁evlilik": 7916,
      "##eph": 7917,
      "▁yanık": 7918,
      "▁yandı": 7919,
      "▁yanından": 7920,
      "▁yanımda": 7921,
      "▁eseri": 7922,
      "▁surede": 7923,
      "▁durust": 7924,
      "▁suları": 7925,
      "▁bakmak": 7926,
      "▁oyuna": 7927,
      "▁agacı": 7928,
      "▁zamandır": 7929,
      "##imizden": 7930,
      "▁odunc": 7931,
      "##leriniz": 7932,
      "##muslar": 7933,
      "▁sevg": 7934,
      "##abilirler": 7935,
      "##abilirsiniz": 7936,
      "▁yollar": 7937,
      "▁yolları": 7938,
      "▁hayalet": 7939,
      "▁calısmaları": 7940,
      "▁cesur": 7941,
      "##lett": 7942,
      "▁bursa": 7943,
      "▁dergiler": 7944,
      "▁54": 7945,
      "##eff": 7946,
      "▁sozde": 7947,
      "▁soyledigi": 7948,
      "▁kesti": 7949,
      "▁kesilmis": 7950,
      "▁diyebilir": 7951,
      "▁kullandim": 7952,
      "▁kullandıgı": 7953,
      "▁kullanmadik": 7954,
      "▁duyul": 7955,
      "▁duyuru": 7956,
      "▁tavan": 7957,
      "▁tanr": 7958,
      "▁kazanıyor": 7959,
      "▁eren": 7960,
      "▁erdem": 7961,
      "▁kısalt": 7962,
      "▁taksi": 7963,
      "▁taklit": 7964,
      "▁haftanın": 7965,
      "▁cıkardıgı": 7966,
      "▁muhakkak": 7967,
      "▁teror": 7968,
      "▁etmey": 7969,
      "▁etmiyorum": 7970,
      "▁bulunur": 7971,
      "▁piyasasında": 7972,
      "▁ulasan": 7973,
      "▁ulastır": 7974,
      "▁imaj": 7975,
      "▁digeri": 7976,
      "▁olurlar": 7977,
      "▁karsıtı": 7978,
      "▁sarf": 7979,
      "▁ozellik": 7980,
      "▁canlandır": 7981,
      "▁mahm": 7982,
      "▁merkezinde": 7983,
      "▁manev": 7984,
      "##umuzun": 7985,
      "▁sesler": 7986,
      "▁yaklasım": 7987,
      "▁emine": 7988,
      "▁mute": 7989,
      "▁bitti": 7990,
      "▁anlamı": 7991,
      "▁onemsiz": 7992,
      "▁dısisleri": 7993,
      "▁olacaktı": 7994,
      "▁dinler": 7995,
      "▁basladıgı": 7996,
      "▁yenilik": 7997,
      "▁hamal": 7998,
      "▁bosan": 7999,
      "▁etmekte": 8000,
      "▁turkiye'ye": 8001,
      "▁9'dan": 8002,
      "##adıkları": 8003,
      "▁alanında": 8004,
      "▁oranla": 8005,
      "▁cagırdı": 8006,
      "▁programları": 8007,
      "▁mevcuttur": 8008,
      "▁ticaretinde": 8009,
      "▁kazanclar": 8010,
      "▁kemer": 8011,
      "▁yumruk": 8012,
      "▁rutubet": 8013,
      "▁dikkatle": 8014,
      "▁tabiat": 8015,
      "▁muhtac": 8016,
      "▁acıga": 8017,
      "▁suclu": 8018,
      "▁hatırlat": 8019,
      "▁yetkilisi": 8020,
      "▁degistirdi": 8021,
      "▁dusunuyoruz": 8022,
      "▁agzından": 8023,
      "▁alakaliydi": 8024,
      "▁gunesin": 8025,
      "▁yanlis": 8026,
      "##dayım": 8027,
      "▁gittigi": 8028,
      "▁sınırlı": 8029,
      "▁kilis": 8030,
      "▁yoneticiler": 8031,
      "▁dayak": 8032,
      "▁a.m": 8033,
      "▁bahceye": 8034,
      "▁tuketim": 8035,
      "▁nihai": 8036,
      "▁saffet": 8037,
      "▁gidece": 8038,
      "▁rakamları": 8039,
      "▁demokrasi": 8040,
      "▁yelken": 8041,
      "▁kenarında": 8042,
      "▁ısıgı": 8043,
      "▁tipi": 8044,
      "▁pasif": 8045,
      "▁malzeme": 8046,
      "##sekiz": 8047,
      "▁kıvıl": 8048,
      "▁rady": 8049,
      "▁celal": 8050,
      "▁egilim": 8051,
      "▁danısmanı": 8052,
      "▁kaybed": 8053,
      "▁worth'dan": 8054,
      "▁kupon": 8055,
      "▁field": 8056,
      "▁doyur": 8057,
      "▁depo": 8058,
      "▁yaptıkları": 8059,
      "▁komplek": 8060,
      "▁oyuncular": 8061,
      "▁sevgili": 8062,
      "▁istiklal": 8063,
      "▁nashville'ye": 8064,
      "▁namus": 8065,
      "▁sinema": 8066,
      "▁cehenn": 8067,
      "▁baslangıcta": 8068,
      "▁burbank'tan": 8069,
      "▁beach'tan": 8070,
      "▁analizciler": 8071,
      "▁fenerbah": 8072,
      "▁qintex": 8073,
      "▁kredileri": 8074,
      "▁komutan": 8075,
      "▁zeytiny": 8076,
      "▁ceo": 8077,
      "▁milletvekili": 8078,
      "▁aktiviteler": 8079,
      "▁warner": 8080,
      "▁meger": 8081,
      "▁yansıtıyor": 8082,
      "▁bankacılık": 8083,
      "▁nukleer": 8084,
      "▁yucel": 8085,
      "▁cesidi": 8086,
      "▁tuvalet": 8087,
      "▁sezlong": 8088,
      "▁kompozit": 8089,
      "▁lloyd": 8090,
      "##ko": 8091,
      "##sika": 8092,
      "##ıver": 8093,
      "##uga": 8094,
      "##ginde": 8095,
      "##bre": 8096,
      "##anız": 8097,
      "▁kadi": 8098,
      "▁keder": 8099,
      "▁s.": 8100,
      "▁dul": 8101,
      "##irleri": 8102,
      "▁gri": 8103,
      "▁yse": 8104,
      "▁yep": 8105,
      "▁yken": 8106,
      "##ildim": 8107,
      "##ilebilecek": 8108,
      "##larim": 8109,
      "##aklar": 8110,
      "▁toy": 8111,
      "▁tram": 8112,
      "▁hip": 8113,
      "▁hediy": 8114,
      "▁cark": 8115,
      "##iyesi": 8116,
      "▁vali": 8117,
      "##amamıs": 8118,
      "##attı": 8119,
      "▁plat": 8120,
      "▁past": 8121,
      "▁ua": 8122,
      "▁ulu": 8123,
      "▁olumu": 8124,
      "##ısır": 8125,
      "##azz": 8126,
      "##uzu": 8127,
      "##acan": 8128,
      "▁fah": 8129,
      "##ectr": 8130,
      "##ecilik": 8131,
      "▁ucte": 8132,
      "▁ucunda": 8133,
      "▁ilc": 8134,
      "▁alli": 8135,
      "▁alabil": 8136,
      "▁almıstı": 8137,
      "▁almadan": 8138,
      "▁artıyor": 8139,
      "##iyorsun": 8140,
      "##osunda": 8141,
      "▁ramaz": 8142,
      "▁razı": 8143,
      "▁anlar": 8144,
      "▁anladım": 8145,
      "▁gormeye": 8146,
      "▁karlar": 8147,
      "▁kariyer": 8148,
      "▁zemin": 8149,
      "▁zahmet": 8150,
      "▁yapıstır": 8151,
      "▁ism": 8152,
      "▁gelecegini": 8153,
      "▁varmak": 8154,
      "▁varlıgı": 8155,
      "##alarıyla": 8156,
      "▁ayıp": 8157,
      "▁ayarlan": 8158,
      "▁inis": 8159,
      "▁etki": 8160,
      "▁veremem": 8161,
      "##eveyn": 8162,
      "##aff": 8163,
      "▁istat": 8164,
      "##mail": 8165,
      "▁dususu": 8166,
      "▁gecmesi": 8167,
      "##mısım": 8168,
      "▁ii": 8169,
      "▁iv": 8170,
      "▁acıyor": 8171,
      "▁akan": 8172,
      "▁gununun": 8173,
      "▁olmanın": 8174,
      "▁olmaması": 8175,
      "▁cıktık": 8176,
      "▁seytan": 8177,
      "▁seylerin": 8178,
      "▁kurs": 8179,
      "▁kuresel": 8180,
      "##ecekler": 8181,
      "▁turb": 8182,
      "▁comer": 8183,
      "▁kapısı": 8184,
      "▁kapısından": 8185,
      "▁20.": 8186,
      "▁uyeleri": 8187,
      "▁yanan": 8188,
      "▁donusu": 8189,
      "▁halbuk": 8190,
      "▁esyalar": 8191
    }
  }
}