{
  "version": "1.0",
  "truncation": null,
  "padding": null,
  "added_tokens": [
    {
      "id": 2649,
      "content": "[PAD]",
      "single_word": false,
      "lstrip": false,
      "rstrip": false,
      "normalized": false,
      "special": true
    },
    {
      "id": 3053,
      "content": "[UNK]",
      "single_word": false,
      "lstrip": false,
      "rstrip": false,
      "normalized": false,
      "special": true
    },
    {
      "id": 3291,
      "content": "[SEP]",
      "single_word": false,
      "lstrip": false,
      "rstrip": false,
      "normalized": false,
      "special": true
    },
    {
      "id": 5431,
      "content": "[CLS]",
      "single_word": false,
      "lstrip": false,
      "rstrip": false,
      "normalized": false,
      "special": true
    },
    {
      "id": 6665,
      "content": "[MASK]",
      "single_word": false,
      "lstrip": false,
      "rstrip": false,
      "normalized": false,
      "special": true
    }
  ],
  "normalizer": {
    "type": "Sequence",
    "normalizers": [
      {
        "type": "NFD"
      },
      {
        "type": "Lowercase"
      },
      {
        "type": "StripAccents"
      }
    ]
  },
  "pre_tokenizer": {
    "type": "Sequence",
    "pretokenizers": [
      {
        "type": "Metaspace",
        "replacement": "▁",
        "prepend_scheme": "always",
        "split": true
      }
    ]
  },
  "post_processor": {
    "type": "TemplateProcessing",
    "single": [
      {
        "SpecialToken": {
          "id": "[CLS]",
          "type_id": 0
        }
      },
      {
        "Sequence": {
          "id": "A",
          "type_id": 0
        }
      },
      {
        "SpecialToken": {
          "id": "[SEP]",
          "type_id": 0
        }
      }
    ],
    "pair": [
      {
        "SpecialToken": {
          "id": "[CLS]",
          "type_id": 0
        }
      },
      {
        "Sequence": {
          "id": "A",
          "type_id": 0
        }
      },
      {
        "SpecialToken": {
          "id": "[SEP]",
          "type_id": 0
        }
      },
      {
        "Sequence": {
          "id": "B",
          "type_id": 1
        }
      },
      {
        "SpecialToken": {
          "id": "[SEP]",
          "type_id": 1
        }
      }
    ],
    "special_tokens": {
      "[CLS]": {
        "id": "[CLS]",
        "ids": [
          5431
        ],
        "tokens": [
          "[CLS]"
        ]
      },
      "[SEP]": {
        "id": "[SEP]",
        "ids": [
          3291
        ],
        "tokens": [
          "[SEP]"
        ]
      }
    }
  },
  "decoder": {
    "type": "Metaspace",
    "replacement": "▁",
    "prepend_scheme": "always",
    "split": true
  },
  "model": {
    "type": "WordPiece",
    "unk_token": "[UNK]",
    "continuing_subword_prefix": "##",
    "max_input_chars_per_word": 100,
    "vocab": {
      "▁odaya": 0,
      "▁efendi": 1,
      "##dıgını": 2,
      "▁129": 3,
      "▁kısa": 4,
      "▁bebek": 5,
      "▁sahneye": 6,
      "▁cocugu": 7,
      "▁'l": 8,
      "▁gozlu": 9,
      "##amıyor": 10,
      "▁1/8": 11,
      "▁250000": 12,
      "▁gund": 13,
      "▁indianapolis'ten": 14,
      "▁fazlaydi": 15,
      "▁allak": 16,
      "##3": 17,
      "▁yetis": 18,
      "▁istemiyorum": 19,
      "▁mich": 20,
      "▁yargı": 21,
      "##mesinin": 22,
      "▁alıskan": 23,
      "▁seye": 24,
      "▁mesaf": 25,
      "▁sarı": 26,
      "▁perakende": 27,
      "##lerimizi": 28,
      "▁23": 29,
      "▁profesyonel": 30,
      "##deniz": 31,
      "##”": 32,
      "##mamıs": 33,
      "▁sıra": 34,
      "▁baslık": 35,
      "##asına": 36,
      "##r.": 37,
      "▁had": 38,
      "▁ko": 39,
      "##rahim": 40,
      "▁alakali": 41,
      "▁ymis": 42,
      "##urlar": 43,
      "##gel": 44,
      "▁gayet": 45,
      "▁ag": 46,
      "▁orland": 47,
      "▁jose'ye": 48,
      "▁ancak": 49,
      "▁12.5": 50,
      "▁sisman": 51,
      "▁oranı": 52,
      "▁kemik": 53,
      "▁paul": 54,
      "▁halkı": 55,
      "▁eline": 56,
      "##gumu": 57,
      "▁kendileri": 58,
      "▁devir": 59,
      "##4": 60,
      "▁ederdi": 61,
      "▁plas": 62,
      "▁iddia": 63,
      "▁amel": 64,
      "▁500": 65,
      "##luktan": 66,
      "▁kapsamlı": 67,
      "▁pantol": 68,
      "##eme": 69,
      "##ili": 70,
      "▁she": 71,
      "##ur": 72,
      "##ti": 73,
      "##iyorlardı": 74,
      "▁iyisi": 75,
      "▁nori": 76,
      "▁hareketi": 77,
      "▁bitk": 78,
      "▁izlen": 79,
      "▁oc": 80,
      "▁olabilirdi": 81,
      "▁hi": 82,
      "##eci": 83,
      "▁dis": 84,
      "▁itibar": 85,
      "▁dolandır": 86,
      "▁merkeze": 87,
      "▁kılı": 88,
      "▁muthis": 89,
      "▁soyle": 90,
      "▁anlattı": 91,
      "▁ayse": 92,
      "▁kahkah": 93,
      "▁beb": 94,
      "▁muzakere": 95,
      "##sak": 96,
      "▁bunu": 97,
      "##5.": 98,
      "▁kuvvetleri": 99,
      "▁piyasa": 100,
      "r": 101,
      "▁idi": 102,
      "▁sasırtıcı": 103,
      "▁araya": 104,
      "▁indi": 105,
      "▁karsılık": 106,
      "##mustur": 107,
      "##aj": 108,
      "##nam": 109,
      "▁bell": 110,
      "▁1500": 111,
      "##lemeye": 112,
      "▁gecirdik": 113,
      "▁yurek": 114,
      "##38": 115,
      "▁hava": 116,
      "▁gosterdi": 117,
      "▁milletvek": 118,
      "▁yumurta": 119,
      "▁geldik": 120,
      "▁not": 121,
      "##ulup": 122,
      "##ırlar": 123,
      "▁cır": 124,
      "▁toh": 125,
      "▁sım": 126,
      "##rol": 127,
      "##emey": 128,
      "▁gozlerim": 129,
      "▁rak": 130,
      "▁pesinde": 131,
      "▁takv": 132,
      "▁)": 133,
      "▁ilgin": 134,
      "▁eris": 135,
      "▁yemeklerden": 136,
      "▁halbu": 137,
      "▁sul": 138,
      "▁ex": 139,
      "▁savur": 140,
      "##liydi": 141,
      "▁fot": 142,
      "##bilir": 143,
      "▁zeytin": 144,
      "▁kızın": 145,
      "w": 146,
      "▁uzakti": 147,
      "##ırk": 148,
      "▁toplum": 149,
      "▁ihtil": 150,
      "▁gosterebilir": 151,
      "▁millet": 152,
      "##han": 153,
      "▁kabul": 154,
      "▁tavır": 155,
      "▁ellerini": 156,
      "▁4.5": 157,
      "▁izledi": 158,
      "▁icme": 159,
      "▁organ": 160,
      "▁enf": 161,
      "▁yalan": 162,
      "▁fa": 163,
      "▁nobet": 164,
      "▁wh": 165,
      "##per": 166,
      "▁tane": 167,
      "▁oglan": 168,
      "▁renkli": 169,
      "▁toplantıs": 170,
      "▁gercek": 171,
      "▁=": 172,
      "▁bilgis": 173,
      "▁tırn": 174,
      "▁aydınlık": 175,
      "##say": 176,
      "▁sebeb": 177,
      "▁66": 178,
      "▁worth'a": 179,
      "##..": 180,
      "▁hayata": 181,
      "##atır": 182,
      "##malarını": 183,
      "▁numar": 184,
      "▁avukat": 185,
      "▁ba": 186,
      "##er'in": 187,
      "##ıldıgında": 188,
      "▁kor": 189,
      "▁sh": 190,
      "##b.": 191,
      "▁gurult": 192,
      "▁84": 193,
      "▁arb": 194,
      "▁kr": 195,
      "▁baglantı": 196,
      "▁first": 197,
      "▁muhar": 198,
      "##alı": 199,
      "▁tiyatr": 200,
      "▁kendim": 201,
      "##endir": 202,
      "▁ayrılıp": 203,
      "##ebilir": 204,
      "▁sav": 205,
      "▁yaptıgı": 206,
      "▁sınıfı": 207,
      "##onom": 208,
      "▁oldug": 209,
      "▁'li": 210,
      "▁baktım": 211,
      "▁koyu": 212,
      "▁otobus": 213,
      "▁bozuk": 214,
      "▁corb": 215,
      "▁yapabilir": 216,
      "▁yıllar": 217,
      "▁onemli": 218,
      "▁olduk": 219,
      "▁olsaydı": 220,
      "▁krav": 221,
      "▁catlak": 222,
      "##ligi": 223,
      "▁iktis": 224,
      "##isyon": 225,
      "▁lungur": 226,
      "▁ev": 227,
      "▁seyrediyor": 228,
      "##.23": 229,
      "▁uretimi": 230,
      "▁kendisini": 231,
      "▁gizli": 232,
      "▁tah": 233,
      "##uma": 234,
      "▁ekmek": 235,
      "▁hasan": 236,
      "▁angeles'e": 237,
      "▁zirv": 238,
      "▁etti": 239,
      "▁talep": 240,
      "▁bayram": 241,
      "▁am": 242,
      "##cel": 243,
      "##'daki": 244,
      "▁1991": 245,
      "▁uygulan": 246,
      "▁satır": 247,
      "▁populer": 248,
      "▁baslangıc": 249,
      "▁isci": 250,
      "##meyen": 251,
      "▁59": 252,
      "▁hatır": 253,
      "▁0.0": 254,
      "▁1.4": 255,
      "▁dunyanın": 256,
      "▁koyun": 257,
      "▁kalmıstı": 258,
      "##sal": 259,
      "▁sır": 260,
      "##igini": 261,
      "##endim": 262,
      "▁sorumluluk": 263,
      "▁bul": 264,
      "▁denver'e": 265,
      "▁cıp": 266,
      "##ete": 267,
      "##-2": 268,
      "▁rum": 269,
      "##atlar": 270,
      "##'e": 271,
      "▁kitaplar": 272,
      "▁york'tan": 273,
      "##isiyle": 274,
      "▁$'a": 275,
      "##ilmisti": 276,
      "▁kasık": 277,
      "▁475": 278,
      "▁sof": 279,
      "▁baslıyor": 280,
      "▁kurk": 281,
      "▁mes": 282,
      "▁kucuk": 283,
      "▁;": 284,
      "▁senedi": 285,
      "▁niyet": 286,
      "##aklı": 287,
      "##maması": 288,
      "▁oncesi": 289,
      "▁buz": 290,
      "▁gercekles": 291,
      "▁milwaukee'ye": 292,
      "##usunda": 293,
      "##unce": 294,
      "▁madd": 295,
      "▁telerate": 296,
      "##ca": 297,
      "##met": 298,
      "▁mev": 299,
      "##6.6": 300,
      "▁hafif": 301,
      "▁yuzme": 302,
      "▁sunuyor": 303,
      "▁kuzey": 304,
      "▁yaptirmadim": 305,
      "▁cami": 306,
      "▁veril": 307,
      "▁del": 308,
      "▁kuzu": 309,
      "▁birbirinden": 310,
      "▁boston'a": 311,
      "▁direktoru": 312,
      "▁listesini": 313,
      "▁eglence": 314,
      "##asa": 315,
      "▁california": 316,
      "▁muhal": 317,
      "▁tutum": 318,
      "▁yoksun": 319,
      "▁140": 320,
      "▁hem": 321,
      "▁kodu": 322,
      "##agı": 323,
      "▁ses": 324,
      "▁nihayet": 325,
      "▁dusunuyor": 326,
      "##uya": 327,
      "▁insanı": 328,
      "##liligi": 329,
      "▁akr": 330,
      "▁toz": 331,
      "▁ozet": 332,
      "▁anda": 333,
      "▁b.": 334,
      "▁donuk": 335,
      "▁yumur": 336,
      "##pan": 337,
      "▁pas": 338,
      "▁adam": 339,
      "##yım": 340,
      "▁merkezine": 341,
      "▁sırada": 342,
      "##acagını": 343,
      "▁konfor": 344,
      "▁ihrac": 345,
      "▁ucretlerini": 346,
      "##1": 347,
      "##ekler": 348,
      "▁arap": 349,
      "▁vererek": 350,
      "##amdan": 351,
      "##kuz": 352,
      "▁lok": 353,
      "▁acıkca": 354,
      "##ni": 355,
      "▁korun": 356,
      "##elerinde": 357,
      "▁destek": 358,
      "▁750": 359,
      "▁agacın": 360,
      "▁zihn": 361,
      "▁ziy": 362,
      "▁birisi": 363,
      "▁basladı": 364,
      "▁10'dan": 365,
      "▁olayı": 366,
      "▁yukselen": 367,
      "##arlar": 368,
      "▁dunyaya": 369,
      "▁cob": 370,
      "▁agzı": 371,
      "▁tasır": 372,
      "▁iler": 373,
      "##lenmis": 374,
      "▁termal": 375,
      "▁geride": 376,
      "##laması": 377,
      "▁muster": 378,
      "▁birimi": 379,
      "▁degismedi": 380,
      "▁aradilar": 381,
      "##cut": 382,
      "▁edebilir": 383,
      "##siye": 384,
      "▁omr": 385,
      "▁tem": 386,
      "##dort": 387,
      "▁dam": 388,
      "▁fabrik": 389,
      "▁hindistan": 390,
      "▁odem": 391,
      "▁sistem": 392,
      "##enkul": 393,
      "▁bes": 394,
      "##ge": 395,
      "▁yum": 396,
      "▁kapıyı": 397,
      "▁art": 398,
      "##tıcı": 399,
      "##ens": 400,
      "▁mevdu": 401,
      "##cekti": 402,
      "▁merdi": 403,
      "▁tarihinde": 404,
      "▁yaralan": 405,
      "▁suret": 406,
      "▁cirkin": 407,
      "▁gel": 408,
      "▁kal": 409,
      "▁yemek": 410,
      "##ılma": 411,
      "▁bors": 412,
      "▁fet": 413,
      "▁munasebet": 414,
      "▁uzman": 415,
      "▁lakin": 416,
      "##50": 417,
      "▁sıfır": 418,
      "▁dokun": 419,
      "▁bicim": 420,
      "▁gecmiste": 421,
      "##lukla": 422,
      "▁mudur": 423,
      "##abı": 424,
      "▁fiyatlandır": 425,
      "▁atese": 426,
      "##aber": 427,
      "▁43": 428,
      "▁bilgisi": 429,
      "▁baslayan": 430,
      "▁huk": 431,
      "▁benz": 432,
      "##liy": 433,
      "▁degisimi": 434,
      "##digimiz": 435,
      "##mus": 436,
      "▁fikir": 437,
      "##sı": 438,
      "▁fasul": 439,
      "##itt": 440,
      "▁yurum": 441,
      "▁nis": 442,
      "▁fazlası": 443,
      "##medik": 444,
      "##ane": 445,
      "##mayan": 446,
      "▁otur": 447,
      "##ecektir": 448,
      "▁acaktı": 449,
      "▁gerceklesti": 450,
      "##isini": 451,
      "▁universite": 452,
      "##anmıs": 453,
      "▁cıkıyor": 454,
      "▁kavr": 455,
      "##obra": 456,
      "▁kıyas": 457,
      "▁guzel": 458,
      "▁400000": 459,
      "▁suya": 460,
      "▁metal": 461,
      "▁ciyak": 462,
      "▁mid": 463,
      "##luydu": 464,
      "##ırdı": 465,
      "##amadik": 466,
      "##utur": 467,
      "▁ilgi": 468,
      "ı": 469,
      "▁ual": 470,
      "##ala": 471,
      "▁hacmi": 472,
      "▁yas": 473,
      "▁beni": 474,
      "▁enerj": 475,
      "##ıma": 476,
      "##umu": 477,
      "▁siyaset": 478,
      "▁seneye": 479,
      "▁ayrılan": 480,
      "▁evlen": 481,
      "▁yedi": 482,
      "▁uygul": 483,
      "▁ulkemiz": 484,
      "▁tac": 485,
      "##tir": 486,
      "▁biber": 487,
      "▁tecrub": 488,
      "##ato": 489,
      "▁say": 490,
      "▁hastan": 491,
      "▁alay": 492,
      "▁analiz": 493,
      "▁kadar": 494,
      "▁%9": 495,
      "##lam": 496,
      "▁dagın": 497,
      "▁bufe": 498,
      "▁dolas": 499,
      "▁istedi": 500,
      "▁kararlı": 501,
      "▁1\\/": 502,
      "##evizyon": 503,
      "▁gorur": 504,
      "##'na": 505,
      "▁avrupalı": 506,
      "▁izin": 507,
      "▁tahk": 508,
      "▁seyden": 509,
      "##uyordu": 510,
      "▁kahvalt": 511,
      "▁giyin": 512,
      "▁onların": 513,
      "##bac": 514,
      "##arında": 515,
      "##muyor": 516,
      "##hos": 517,
      "▁babam": 518,
      "##'": 519,
      "##iniki": 520,
      "##siy": 521,
      "▁cadır": 522,
      "▁karsilama": 523,
      "##z": 524,
      "##/8'e": 525,
      "##gmen": 526,
      "##ag": 527,
      "▁sa": 528,
      "▁1989-8": 529,
      "▁ken": 530,
      "▁a": 531,
      "▁&": 532,
      "▁goz": 533,
      "##larında": 534,
      "▁must": 535,
      "▁imz": 536,
      "▁bazi": 537,
      "▁kayık": 538,
      "▁sabah": 539,
      "##ladıgı": 540,
      "▁damar": 541,
      "▁birbiriyle": 542,
      "##erler": 543,
      "▁bıyık": 544,
      "##inc": 545,
      "##sına": 546,
      "▁kazancları": 547,
      "▁etmeyi": 548,
      "##elerinin": 549,
      "▁operasyon": 550,
      "▁temettu": 551,
      "▁cık": 552,
      "##ide": 553,
      "▁gom": 554,
      "##raz": 555,
      "##lerde": 556,
      "▁bus": 557,
      "▁kavus": 558,
      "▁karsiligini": 559,
      "##larımı": 560,
      "▁q": 561,
      "##ileri": 562,
      "##apol": 563,
      "▁def": 564,
      "▁verilen": 565,
      "##enek": 566,
      "▁sultan": 567,
      "##tu": 568,
      "▁karsılan": 569,
      "##:30": 570,
      "▁bolumu": 571,
      "##ustral": 572,
      "▁fiyatlarını": 573,
      "▁tanım": 574,
      "##y": 575,
      "##0.1": 576,
      "▁savunma": 577,
      "▁ucusu": 578,
      "▁vermis": 579,
      "▁olan": 580,
      "##asındaki": 581,
      "▁hut": 582,
      "▁sular": 583,
      "##ydı": 584,
      "▁charlotte'ye": 585,
      "##liyorum": 586,
      "▁%51": 587,
      "▁?": 588,
      "▁gidiyorum": 589,
      "▁sıkıntı": 590,
      "▁asırı": 591,
      "##yı": 592,
      "▁sanız": 593,
      "▁atan": 594,
      "##9.8": 595,
      "▁milliyet": 596,
      "▁sekl": 597,
      "▁bogaz": 598,
      "▁nisp": 599,
      "▁odalari": 600,
      "▁mahal": 601,
      "▁18": 602,
      "##eleriyle": 603,
      "▁once": 604,
      "##iciler": 605,
      "▁soyledi": 606,
      "▁cif": 607,
      "##lt": 608,
      "▁sende": 609,
      "▁%30": 610,
      "▁kazandı": 611,
      "▁ten": 612,
      "▁zavallı": 613,
      "▁olaganustu": 614,
      "▁birtak": 615,
      "▁yasa": 616,
      "##melerin": 617,
      "▁fat": 618,
      "▁surec": 619,
      "▁hepsinden": 620,
      "▁oakland'a": 621,
      "▁17": 622,
      "▁kalkıp": 623,
      "▁31": 624,
      "##ınız": 625,
      "▁kil": 626,
      "▁wil": 627,
      "▁olsun": 628,
      "▁12": 629,
      "▁ren": 630,
      "▁hanimdi": 631,
      "▁kestir": 632,
      "##89-": 633,
      "▁satıs": 634,
      "▁kısı": 635,
      "▁kardesi": 636,
      "▁bin": 637,
      "▁zaman": 638,
      "▁city": 639,
      "▁dov": 640,
      "##ima": 641,
      "▁doldur": 642,
      "▁maliyet": 643,
      "▁ikisi": 644,
      "▁pisir": 645,
      "▁sevk": 646,
      "▁sor": 647,
      "▁dusundu": 648,
      "▁sayg": 649,
      "▁isken": 650,
      "##agını": 651,
      "▁vol": 652,
      "▁alabilir": 653,
      "▁har": 654,
      "▁tır": 655,
      "▁rezervasyonu": 656,
      "▁lob": 657,
      "▁cift": 658,
      "▁gelenek": 659,
      "▁ili": 660,
      "▁futbol": 661,
      "0": 662,
      "▁kesin": 663,
      "▁baz": 664,
      "▁ip": 665,
      "▁dar": 666,
      "▁yarar": 667,
      "▁uc": 668,
      "##irler": 669,
      "▁sar": 670,
      "▁kadın": 671,
      "▁%4.8": 672,
      "▁kalkan": 673,
      "▁ticari": 674,
      "▁h": 675,
      "▁iyi": 676,
      "##esti": 677,
      "##amadan": 678,
      "▁ici": 679,
      "##lesi": 680,
      "▁neh": 681,
      "##uyle": 682,
      "##lastır": 683,
      "▁derl": 684,
      "▁kans": 685,
      "▁tanesi": 686,
      "▁dayan": 687,
      "▁0.9": 688,
      "▁saglık": 689,
      "▁mesaj": 690,
      "▁bizler": 691,
      "8": 692,
      "▁esim": 693,
      "##uyu": 694,
      "▁olunca": 695,
      "##ladıgını": 696,
      "▁ingil": 697,
      "##tuk": 698,
      "##tı": 699,
      "##urdu": 700,
      "##yak": 701,
      "▁emir": 702,
      "▁a.": 703,
      "▁ceket": 704,
      "##aba": 705,
      "##dınız": 706,
      "##cisi": 707,
      "▁kov": 708,
      "▁hizmet": 709,
      "▁kapıya": 710,
      "##abet": 711,
      "▁199": 712,
      "▁indianapolis'e": 713,
      "▁t": 714,
      "##ilerini": 715,
      "▁ortam": 716,
      "▁176": 717,
      "▁bagımsız": 718,
      "▁bosal": 719,
      "##16": 720,
      "2": 721,
      "▁havuzlar": 722,
      "”": 723,
      "▁program": 724,
      "▁yansıt": 725,
      "▁taz": 726,
      "▁uyar": 727,
      "▁1979": 728,
      "##leb": 729,
      "▁seyret": 730,
      "▁ediliyor": 731,
      "▁cer": 732,
      "▁sayıda": 733,
      "##otuz": 734,
      "##rim": 735,
      "▁puanlama": 736,
      "##esel": 737,
      "▁piyasanın": 738,
      "▁ets": 739,
      "##yon": 740,
      "▁bilgil": 741,
      "▁dusunuyorum": 742,
      "▁icecekleri": 743,
      "▁umit": 744,
      "##var": 745,
      "▁48": 746,
      "▁acent": 747,
      "▁103": 748,
      "▁dok": 749,
      "▁kahval": 750,
      "▁coc": 751,
      "▁konforlu": 752,
      "▁olmasa": 753,
      "##izasyon": 754,
      "▁esi": 755,
      "▁deri": 756,
      "▁civ": 757,
      "▁newark": 758,
      "##astır": 759,
      "▁tic": 760,
      "##agının": 761,
      "▁mavi": 762,
      "▁geri": 763,
      "##isel": 764,
      "▁yat": 765,
      "▁105": 766,
      "▁haket": 767,
      "##tan": 768,
      "▁il": 769,
      "▁kamyon": 770,
      "▁yasındaki": 771,
      "##ren": 772,
      "▁pah": 773,
      "##ısında": 774,
      "▁ucyuz": 775,
      "##akin": 776,
      "##one": 777,
      "▁sez": 778,
      "##suzluk": 779,
      "##imizi": 780,
      "▁can": 781,
      "▁oteldi": 782,
      "▁koylu": 783,
      "##ational": 784,
      "▁cın": 785,
      "▁bununla": 786,
      "▁kost": 787,
      "▁ellerinde": 788,
      "▁inan": 789,
      "▁derece": 790,
      "▁urun": 791,
      "##dern": 792,
      "##inip": 793,
      "▁yolu": 794,
      "##sinin": 795,
      "▁tabur": 796,
      "▁korku": 797,
      "##oj": 798,
      "▁indir": 799,
      "▁nokta": 800,
      "▁bulunmaktadır": 801,
      "▁trilyon": 802,
      "▁gorusmeler": 803,
      "▁gidis": 804,
      "▁5\\/8": 805,
      "▁sadece": 806,
      "▁cekip": 807,
      "▁golg": 808,
      "▁dib": 809,
      "▁suruk": 810,
      "▁7.1": 811,
      "▁sun": 812,
      "##.70": 813,
      "▁kararsizim": 814,
      "▁1/2": 815,
      "▁raporu": 816,
      "▁benimle": 817,
      "##kın": 818,
      "▁burası": 819,
      "##'nde": 820,
      "##\\/": 821,
      "##5'ten": 822,
      "▁ucusların": 823,
      "▁amc": 824,
      "##ph": 825,
      "▁kendisi": 826,
      "##manı": 827,
      "▁gerektigini": 828,
      "▁peki": 829,
      "▁bası": 830,
      "##co": 831,
      "##isk": 832,
      "▁veren": 833,
      "▁kapsam": 834,
      "▁tahvili": 835,
      "▁baslar": 836,
      "▁fener": 837,
      "▁chp": 838,
      "▁tex": 839,
      "##0.7": 840,
      "▁oakland": 841,
      "##cu": 842,
      "▁vazif": 843,
      "▁nisan'da": 844,
      "▁ilisk": 845,
      "▁edilebilir": 846,
      "▁pat": 847,
      "##dim": 848,
      "▁meyve": 849,
      "▁ertesi": 850,
      "▁vuc": 851,
      "▁herif": 852,
      "##mma": 853,
      "▁deg": 854,
      "▁3.7": 855,
      "▁aradi": 856,
      "▁tırman": 857,
      "▁oakland'dan": 858,
      "▁roman": 859,
      "▁yaptı": 860,
      "▁alıyordu": 861,
      "▁155": 862,
      "▁musta": 863,
      "▁meydan": 864,
      "##.00": 865,
      "▁isletmeler": 866,
      "▁faktor": 867,
      "▁endise": 868,
      "▁ol": 869,
      "▁devlet": 870,
      "▁tav": 871,
      "▁tıpkı": 872,
      "▁yanında": 873,
      "▁kisiler": 874,
      "▁palt": 875,
      "▁kavg": 876,
      "▁hurr": 877,
      "##fez": 878,
      "##dar": 879,
      "▁mez": 880,
      "▁uygundu": 881,
      "▁evet": 882,
      "\\": 883,
      "▁mahkeme": 884,
      "▁zinc": 885,
      "▁toronto'dan": 886,
      "▁ask": 887,
      "▁yasanan": 888,
      "▁mitchell": 889,
      "▁toplam": 890,
      "##lesine": 891,
      "##larımız": 892,
      "▁dan": 893,
      "▁sikinti": 894,
      "▁hasta": 895,
      "▁yuzlu": 896,
      "▁dıs": 897,
      "▁delta": 898,
      "##lıg": 899,
      "▁hay": 900,
      "##lim": 901,
      "▁sepet": 902,
      "##l": 903,
      "▁amac": 904,
      "▁stu": 905,
      "▁sit": 906,
      "▁davran": 907,
      "▁dag": 908,
      "##ınızı": 909,
      "▁konusma": 910,
      "##yeni": 911,
      "##9": 912,
      "▁yemekler": 913,
      "▁at": 914,
      "##-1": 915,
      "▁neyi": 916,
      "▁kend": 917,
      "##ize": 918,
      "##medim": 919,
      "▁havuz": 920,
      "##ıyorlar": 921,
      "##ern": 922,
      "▁olcu": 923,
      "##hi": 924,
      "▁bilinc": 925,
      "▁tahta": 926,
      "##inden": 927,
      "▁seyi": 928,
      "▁edici": 929,
      "▁detroit": 930,
      "▁dip": 931,
      "##leyip": 932,
      "▁(": 933,
      "▁rey": 934,
      "▁vas": 935,
      "▁ediyorum": 936,
      "▁orman": 937,
      "▁89": 938,
      "##ulmus": 939,
      "▁seyir": 940,
      "▁makam": 941,
      "▁sapk": 942,
      "▁tutan": 943,
      "▁ote": 944,
      "▁yuvarlak": 945,
      "##alanı": 946,
      "▁varlık": 947,
      "▁v": 948,
      "▁dokuz": 949,
      "##ler": 950,
      "▁baglan": 951,
      "▁tesek": 952,
      "▁fed": 953,
      "▁seattle'den": 954,
      "▁kocası": 955,
      "▁%5": 956,
      "##des": 957,
      "##ince": 958,
      "##erve": 959,
      "▁yaptir": 960,
      "▁201": 961,
      "▁acakt": 962,
      "▁tesaduf": 963,
      "▁cıkarıyor": 964,
      "##ogu": 965,
      "##ish": 966,
      "##lay": 967,
      "▁gecenin": 968,
      "▁%13": 969,
      "▁oynuyor": 970,
      "▁tep": 971,
      "##imizin": 972,
      "▁denver'den": 973,
      "##dıgına": 974,
      "##amb": 975,
      "▁ii": 976,
      "##ıyı": 977,
      "##'luk": 978,
      "▁zamanı": 979,
      "▁hizmete": 980,
      "▁taraftar": 981,
      "▁umur": 982,
      "▁sendika": 983,
      "▁yemegi": 984,
      "▁tamamen": 985,
      "▁herhal": 986,
      "▁194": 987,
      "▁ayrıntı": 988,
      "##il": 989,
      "##ardı": 990,
      "##ville": 991,
      "▁herkese": 992,
      "##>": 993,
      "▁kendisin": 994,
      "▁derken": 995,
      "▁anadolu": 996,
      "▁obu": 997,
      "▁ilgilendiler": 998,
      "▁nar": 999,
      "▁yorum": 1000,
      "▁kuc": 1001,
      "▁icerisinde": 1002,
      "##ırda": 1003,
      "▁ulkede": 1004,
      "▁panik": 1005,
      "▁fiyata": 1006,
      "▁birey": 1007,
      "(": 1008,
      "##mem": 1009,
      "▁phoenix'den": 1010,
      "##okr": 1011,
      "##ırım": 1012,
      "##eye": 1013,
      "▁kocaman": 1014,
      "▁ederler": 1015,
      "▁dusuyor": 1016,
      "▁ederken": 1017,
      "▁oldugumuz": 1018,
      "##ecegini": 1019,
      "▁chicago'dan": 1020,
      "▁sik": 1021,
      "▁karsilamadi": 1022,
      "##0.4": 1023,
      "▁dow": 1024,
      "##60": 1025,
      "▁vermeye": 1026,
      "▁97": 1027,
      "▁gıldır": 1028,
      "▁univers": 1029,
      "##sizim": 1030,
      "▁cogunun": 1031,
      "##cusu": 1032,
      "▁darbe": 1033,
      "▁san": 1034,
      "##asıdır": 1035,
      "▁u": 1036,
      "▁2002": 1037,
      "▁giden": 1038,
      "▁milyondan": 1039,
      "▁gelmis": 1040,
      "▁avuk": 1041,
      "▁hol": 1042,
      "▁sozcu": 1043,
      "##om": 1044,
      "▁dikkat": 1045,
      "▁iste": 1046,
      "▁teskil": 1047,
      "▁eb": 1048,
      "▁nereye": 1049,
      "##roit": 1050,
      "▁dinlen": 1051,
      "##likleri": 1052,
      "@": 1053,
      "▁gene": 1054,
      "##toru": 1055,
      "##erek": 1056,
      "▁milyardan": 1057,
      "##lebilir": 1058,
      "▁sure": 1059,
      "▁4.3": 1060,
      "▁cıkar": 1061,
      "▁gon": 1062,
      "▁isaret": 1063,
      "▁duyar": 1064,
      "▁45": 1065,
      "▁4.2": 1066,
      "▁40": 1067,
      "▁ayrıldı": 1068,
      "##istim": 1069,
      "▁kahvalti": 1070,
      "▁ıs": 1071,
      "▁personelin": 1072,
      "▁seyr": 1073,
      "##uler": 1074,
      "▁fısır": 1075,
      "▁koy": 1076,
      "▁yaptim": 1077,
      "▁cincinnati": 1078,
      "▁serp": 1079,
      "##as": 1080,
      "##ara": 1081,
      "▁alısver": 1082,
      "##memek": 1083,
      "##tep": 1084,
      "▁gunun": 1085,
      "▁ortal": 1086,
      "▁ciddi": 1087,
      "##niyet": 1088,
      "▁soyles": 1089,
      "▁insanları": 1090,
      "##larca": 1091,
      "▁bahset": 1092,
      "▁hicbir": 1093,
      "▁1981": 1094,
      "▁kıdem": 1095,
      "▁gid": 1096,
      "##.08": 1097,
      "##meni": 1098,
      "##bet": 1099,
      "##ames": 1100,
      "▁gey": 1101,
      "▁zamandan": 1102,
      "##ila": 1103,
      "▁yaklasık": 1104,
      "##ugh": 1105,
      "##ulen": 1106,
      "▁ayni": 1107,
      "▁getirmek": 1108,
      "▁newark'a": 1109,
      "▁seninle": 1110,
      "▁mi": 1111,
      "▁dil": 1112,
      "▁bilen": 1113,
      "▁ist": 1114,
      "▁ker": 1115,
      "▁programı": 1116,
      "▁yaratı": 1117,
      "▁ayakkabı": 1118,
      "##%": 1119,
      "▁kullanılan": 1120,
      "▁gorulen": 1121,
      "▁kus": 1122,
      "##lendi": 1123,
      "▁sorular": 1124,
      "▁nasdaq": 1125,
      "▁resim": 1126,
      "▁international": 1127,
      "▁kem": 1128,
      "▁115": 1129,
      "##omb": 1130,
      "▁amerikan": 1131,
      "##land": 1132,
      "▁be": 1133,
      "▁belirli": 1134,
      "▁olacagını": 1135,
      "▁mısınız": 1136,
      "▁acisindan": 1137,
      "▁kateg": 1138,
      "▁dolar": 1139,
      "▁tası": 1140,
      "▁korumak": 1141,
      "##tis": 1142,
      "▁kızıl": 1143,
      "▁teyz": 1144,
      "▁durdu": 1145,
      "▁laci": 1146,
      "▁birer": 1147,
      "▁cocuklu": 1148,
      "▁sevg": 1149,
      "##amayacak": 1150,
      "▁yakında": 1151,
      "▁tucc": 1152,
      "▁kayıp": 1153,
      "##for": 1154,
      "▁kadınların": 1155,
      "▁bunlara": 1156,
      "▁telefonla": 1157,
      "▁sef": 1158,
      "▁dısarı": 1159,
      "▁agır": 1160,
      "##ayıf": 1161,
      "▁suleyman": 1162,
      "##mamak": 1163,
      "▁birbirinin": 1164,
      "##laya": 1165,
      "▁tefek": 1166,
      "▁indianapolis": 1167,
      "▁nikkei": 1168,
      "##kur": 1169,
      "##anlık": 1170,
      "▁eylul": 1171,
      "▁3.9": 1172,
      "▁beyin": 1173,
      "▁calısan": 1174,
      "▁1.7": 1175,
      "▁ekledi": 1176,
      "##gimi": 1177,
      "▁peynir": 1178,
      "##'dan": 1179,
      "▁cek": 1180,
      "▁1/": 1181,
      "▁tanın": 1182,
      "▁et": 1183,
      "##orp": 1184,
      "##ilerdi": 1185,
      "▁roportaj": 1186,
      "▁kedi": 1187,
      "##lige": 1188,
      "▁muslum": 1189,
      "##3.8": 1190,
      "▁otob": 1191,
      "▁sir": 1192,
      "▁nashville": 1193,
      "##likler": 1194,
      "##antaj": 1195,
      "##ker": 1196,
      "▁karsın": 1197,
      "▁isleri": 1198,
      "▁sent": 1199,
      "##umus": 1200,
      "▁hic": 1201,
      "##if": 1202,
      "▁degilsin": 1203,
      "▁yem": 1204,
      "##'yı": 1205,
      "##sine": 1206,
      "▁icten": 1207,
      "▁calisan": 1208,
      "▁--": 1209,
      "▁siddet": 1210,
      "##ıstı": 1211,
      "▁artır": 1212,
      "▁%6.90": 1213,
      "##izik": 1214,
      "▁makin": 1215,
      "##kul": 1216,
      "▁ayı": 1217,
      "##urlu": 1218,
      "##abilecek": 1219,
      "▁yatak": 1220,
      "##gunuz": 1221,
      "▁52": 1222,
      "▁cuk": 1223,
      "▁tasıyor": 1224,
      "▁bun": 1225,
      "▁varmıs": 1226,
      "▁hac": 1227,
      "##unun": 1228,
      "▁haval": 1229,
      "▁os": 1230,
      "##sanız": 1231,
      "▁karsiladi": 1232,
      "▁mikr": 1233,
      "##adir": 1234,
      "##g": 1235,
      "▁den": 1236,
      "▁hakim": 1237,
      "▁telefon": 1238,
      "▁saglam": 1239,
      "▁umut": 1240,
      "▁duzel": 1241,
      "##yiz": 1242,
      "▁cant": 1243,
      "##ihaz": 1244,
      "▁etm": 1245,
      "▁tab": 1246,
      "▁”": 1247,
      "▁hukuk": 1248,
      "▁kad": 1249,
      "##sk": 1250,
      "##ısık": 1251,
      "▁saygı": 1252,
      "▁deli": 1253,
      "##amadım": 1254,
      "▁olmas": 1255,
      "▁kızar": 1256,
      "▁urunleri": 1257,
      "▁orta": 1258,
      "##meler": 1259,
      "##egas": 1260,
      "##dıklarını": 1261,
      "▁bina": 1262,
      "▁hız": 1263,
      "▁beach": 1264,
      "##age": 1265,
      "▁tazmin": 1266,
      "▁yapabil": 1267,
      "▁haber": 1268,
      "##ho": 1269,
      "▁hani": 1270,
      "▁tatildi": 1271,
      "▁fi": 1272,
      "▁veya": 1273,
      "▁sacları": 1274,
      "▁kıbrıs": 1275,
      "▁kimsen": 1276,
      "▁saga": 1277,
      "▁banka": 1278,
      "▁com": 1279,
      "▁ye": 1280,
      "▁hosuma": 1281,
      "##ost": 1282,
      "▁anal": 1283,
      "▁karar": 1284,
      "▁montreal": 1285,
      "▁gelecekteki": 1286,
      "▁avustralya": 1287,
      "##alarla": 1288,
      "▁kap": 1289,
      "▁tr": 1290,
      "▁sezl": 1291,
      "##in": 1292,
      "▁sınır": 1293,
      "▁orada": 1294,
      "▁misin": 1295,
      "c": 1296,
      "▁olanaklari": 1297,
      "##43": 1298,
      "##duncu": 1299,
      "▁kaldı": 1300,
      "▁kaliforn": 1301,
      "▁gune": 1302,
      "##kırı": 1303,
      "▁yerler": 1304,
      "▁gozleri": 1305,
      "▁adeta": 1306,
      "▁acıklama": 1307,
      "▁kimsenin": 1308,
      "▁intern": 1309,
      "▁altından": 1310,
      "▁mıdır": 1311,
      "▁iskel": 1312,
      "▁bek": 1313,
      "##o'ya": 1314,
      "▁sosyal": 1315,
      "▁min": 1316,
      "▁6.9": 1317,
      "▁senetlerinin": 1318,
      "▁tanıs": 1319,
      "▁bosluk": 1320,
      "▁lik": 1321,
      "▁hisseye": 1322,
      "▁onc": 1323,
      "▁bacak": 1324,
      "▁mısın": 1325,
      "##sas": 1326,
      "▁sayın": 1327,
      "##amıyorum": 1328,
      "▁tesisten": 1329,
      "▁otuz": 1330,
      "▁ceyrekte": 1331,
      "##aten": 1332,
      "▁gunes": 1333,
      "##ımı": 1334,
      "##eceksin": 1335,
      "▁iptal": 1336,
      "▁istanbul'a": 1337,
      "▁bahar": 1338,
      "##gum": 1339,
      "▁berbat": 1340,
      "▁cumle": 1341,
      "▁dusundum": 1342,
      "▁listeleyin": 1343,
      "##lerce": 1344,
      "▁pacific": 1345,
      "▁cic": 1346,
      "▁alabil": 1347,
      "▁dort": 1348,
      "▁…": 1349,
      "▁odada": 1350,
      "##esindeki": 1351,
      "▁milyonluk": 1352,
      "##yol": 1353,
      "▁altmıs": 1354,
      "▁jos": 1355,
      "▁tuh": 1356,
      "##paz": 1357,
      "▁petrol": 1358,
      "▁2009": 1359,
      "▁ne": 1360,
      "▁kitab": 1361,
      "▁masal": 1362,
      "▁kendisinden": 1363,
      "▁tamir": 1364,
      "▁cle": 1365,
      "▁fonu": 1366,
      "▁ediyor": 1367,
      "▁japon": 1368,
      "▁um": 1369,
      "##dikleri": 1370,
      "▁komsu": 1371,
      "▁animasyon": 1372,
      "▁kisiye": 1373,
      "##apur": 1374,
      "▁kaybetti": 1375,
      "##gis": 1376,
      "▁hukumeti": 1377,
      "▁avrupa": 1378,
      "▁airlines'in": 1379,
      "▁om": 1380,
      "▁nuf": 1381,
      "▁cam": 1382,
      "##tıgı": 1383,
      "▁serbest": 1384,
      "▁piyas": 1385,
      "##mini": 1386,
      "▁uste": 1387,
      "▁toprak": 1388,
      "▁rezerv": 1389,
      "▁olup": 1390,
      "▁rıhtım": 1391,
      "▁duy": 1392,
      "▁lar": 1393,
      "▁strate": 1394,
      "▁hayatın": 1395,
      "##ade": 1396,
      "##vek": 1397,
      "▁yapılandır": 1398,
      "6": 1399,
      "▁baslamıstı": 1400,
      "▁un": 1401,
      "##al": 1402,
      "▁adamın": 1403,
      "▁...": 1404,
      "▁britan": 1405,
      "##ista": 1406,
      "▁bahce": 1407,
      "##erdi": 1408,
      "▁%20": 1409,
      "▁munaseb": 1410,
      "##tılar": 1411,
      "▁fran": 1412,
      "▁tuhaf": 1413,
      "▁edecegim": 1414,
      "▁malz": 1415,
      "▁hus": 1416,
      "▁haric": 1417,
      "##ydi": 1418,
      "▁gorevlisi": 1419,
      "##ilig": 1420,
      "▁2.1": 1421,
      "▁zevk": 1422,
      "▁matematik": 1423,
      "▁sanatcı": 1424,
      "▁kuz": 1425,
      "▁saglamak": 1426,
      "▁pir": 1427,
      "▁surat": 1428,
      "##orm": 1429,
      "##zet": 1430,
      "##.0": 1431,
      "▁saati": 1432,
      "▁pittsburgh'tan": 1433,
      "▁durum": 1434,
      "##udum": 1435,
      "▁sokaga": 1436,
      "▁titiz": 1437,
      "▁bel": 1438,
      "▁yeter": 1439,
      "▁ogret": 1440,
      "▁ode": 1441,
      "##:00": 1442,
      "‘": 1443,
      "▁yılında": 1444,
      "##ınıza": 1445,
      "▁borsası'nda": 1446,
      "##istir": 1447,
      "##oster": 1448,
      "▁ankete": 1449,
      "▁kaps": 1450,
      "▁kenara": 1451,
      "▁indian": 1452,
      "##cog": 1453,
      "▁siyas": 1454,
      "▁800": 1455,
      "▁trafik": 1456,
      "▁res": 1457,
      "▁iliskin": 1458,
      "##'a": 1459,
      "▁duydu": 1460,
      "▁`": 1461,
      "##mektedir": 1462,
      "▁sirketler": 1463,
      "▁aldıgını": 1464,
      "▁sonucları": 1465,
      "▁1961": 1466,
      "▁arizona": 1467,
      "▁isini": 1468,
      "##ginde": 1469,
      "##oglu": 1470,
      "##ıydı": 1471,
      "▁selam": 1472,
      "##mıyordu": 1473,
      "▁olma": 1474,
      "▁lut": 1475,
      "##!": 1476,
      "##amayacagını": 1477,
      "▁baltimore'ye": 1478,
      "▁dim": 1479,
      "▁%2.7": 1480,
      "▁42": 1481,
      "##dat": 1482,
      "##oya": 1483,
      "▁mel": 1484,
      "▁mahk": 1485,
      "##lık": 1486,
      "▁degerinde": 1487,
      "##fa": 1488,
      "##ısına": 1489,
      "##bel": 1490,
      "##tum": 1491,
      "▁yun": 1492,
      "▁sok": 1493,
      "##ustri": 1494,
      "▁dobra": 1495,
      "▁dunyada": 1496,
      "▁asagıda": 1497,
      "▁kriz": 1498,
      "##80": 1499,
      "##omet": 1500,
      "▁yeteri": 1501,
      "▁basbak": 1502,
      "▁hizmetten": 1503,
      "▁yemeklerini": 1504,
      "▁cim": 1505,
      "##bul": 1506,
      "▁kumas": 1507,
      "▁teslim": 1508,
      "##sizdi": 1509,
      "▁domates": 1510,
      "▁uygulama": 1511,
      "▁raf": 1512,
      "▁verdigimiz": 1513,
      "▁cumhur": 1514,
      "##/8": 1515,
      "▁saman": 1516,
      "▁benim": 1517,
      "▁tur": 1518,
      "▁.8": 1519,
      "▁genellikle": 1520,
      "▁ailesi": 1521,
      "▁oldukları": 1522,
      "▁pop": 1523,
      "##are": 1524,
      "▁bos": 1525,
      "##meden": 1526,
      "▁hat": 1527,
      "##ice": 1528,
      "▁eskiydi": 1529,
      "##unlu": 1530,
      "▁gunde": 1531,
      "##lig": 1532,
      "▁portfoy": 1533,
      "▁havlu": 1534,
      "▁teb": 1535,
      "▁corba": 1536,
      "▁mukemmel": 1537,
      "▁havuzu": 1538,
      "▁sınav": 1539,
      "▁avantaj": 1540,
      "##emem": 1541,
      "▁sirket": 1542,
      "▁insanların": 1543,
      "▁ederek": 1544,
      "▁gre": 1545,
      "▁ad": 1546,
      "##maktan": 1547,
      "##abını": 1548,
      "▁tumu": 1549,
      "##tex": 1550,
      "▁temizligi": 1551,
      "▁sog": 1552,
      "▁org": 1553,
      "▁mum": 1554,
      "▁atlanta'ya": 1555,
      "##olog": 1556,
      "▁acik": 1557,
      "##asır": 1558,
      "▁kims": 1559,
      "##iy": 1560,
      "▁ozellikle": 1561,
      "▁ilg": 1562,
      "##ikti": 1563,
      "▁donemi": 1564,
      "▁memnunum": 1565,
      "##ib": 1566,
      "▁kime": 1567,
      "##mazlar": 1568,
      "▁kalitesi": 1569,
      "▁466": 1570,
      "##eld": 1571,
      "▁yenilen": 1572,
      "▁durmadan": 1573,
      "##etir": 1574,
      "▁banyo": 1575,
      "▁teksas": 1576,
      "▁sonr": 1577,
      "▁birbirini": 1578,
      "▁yasıyor": 1579,
      "▁sureci": 1580,
      "▁soyledik": 1581,
      "▁mir": 1582,
      "▁atıyor": 1583,
      "▁iy": 1584,
      "▁bilin": 1585,
      "▁ankara": 1586,
      "▁cizgi": 1587,
      "##tıgını": 1588,
      "▁pac": 1589,
      "##atur": 1590,
      "▁birinde": 1591,
      "##bol": 1592,
      "▁sehri": 1593,
      "▁5.9": 1594,
      "##ektr": 1595,
      "▁goruyorum": 1596,
      "▁calısıyor": 1597,
      "##ilebilir": 1598,
      "▁kokulu": 1599,
      "▁verimli": 1600,
      "##gım": 1601,
      "▁sonraki": 1602,
      "##4.5": 1603,
      "##.375": 1604,
      "▁saglıyor": 1605,
      "##lanıyor": 1606,
      "##fet": 1607,
      "▁paylas": 1608,
      "▁cıkart": 1609,
      "▁yapması": 1610,
      "▁tal": 1611,
      "▁tutuk": 1612,
      "▁corap": 1613,
      "▁gogsun": 1614,
      "▁patlıcan": 1615,
      "▁ilgisizdi": 1616,
      "▁bakkal": 1617,
      "▁temp": 1618,
      "##mi": 1619,
      "▁sı": 1620,
      "▁kampanyalardan": 1621,
      "▁amerika": 1622,
      "##ilen": 1623,
      "##90": 1624,
      "##2:30": 1625,
      "##isin": 1626,
      "▁florida": 1627,
      "▁22-23": 1628,
      "▁jose": 1629,
      "▁olus": 1630,
      "▁kenar": 1631,
      "##tre": 1632,
      "▁parm": 1633,
      "▁geleni": 1634,
      "▁katildim": 1635,
      "##lama": 1636,
      "##lıgından": 1637,
      "▁sif": 1638,
      "▁kaba": 1639,
      "▁maas": 1640,
      "▁olum": 1641,
      "▁miktar": 1642,
      "▁cevre": 1643,
      "▁planı": 1644,
      "▁odun": 1645,
      "▁yeten": 1646,
      "▁%85": 1647,
      "##yıl": 1648,
      "▁portf": 1649,
      "▁1.": 1650,
      "▁25": 1651,
      "▁soyledim": 1652,
      "##ums": 1653,
      "▁mucadel": 1654,
      "▁anladı": 1655,
      "▁109": 1656,
      "▁oak": 1657,
      "##iyiz": 1658,
      "▁yelpaz": 1659,
      "▁6'dan": 1660,
      "▁ogretmen": 1661,
      "▁buyuk": 1662,
      "##ub": 1663,
      "##ebil": 1664,
      "##verdi": 1665,
      "##iger": 1666,
      "##tıyor": 1667,
      "▁kim": 1668,
      "▁temiz": 1669,
      "▁esy": 1670,
      "▁oda": 1671,
      "▁sen": 1672,
      "##larınız": 1673,
      "##'yu": 1674,
      "▁yakin": 1675,
      "▁dul": 1676,
      "▁philadelphia": 1677,
      "##isler": 1678,
      "▁mahkemesi": 1679,
      "##lerdir": 1680,
      "##uzel": 1681,
      "▁69": 1682,
      "▁karab": 1683,
      "▁arm": 1684,
      "▁fikr": 1685,
      "▁sekilde": 1686,
      "##rum": 1687,
      "▁donen": 1688,
      "▁etkisi": 1689,
      "##ımdan": 1690,
      "##iliyor": 1691,
      "##alan": 1692,
      "▁yayın": 1693,
      "▁muhtem": 1694,
      "▁orgut": 1695,
      "▁ortada": 1696,
      "##ic": 1697,
      "##detti": 1698,
      "▁yurt": 1699,
      "▁orn": 1700,
      "##esil": 1701,
      "##qu": 1702,
      "▁fil": 1703,
      "##on": 1704,
      "▁temin": 1705,
      "▁sum": 1706,
      "##abilir": 1707,
      "##esiyle": 1708,
      "▁kusk": 1709,
      "▁uzere": 1710,
      "▁mahm": 1711,
      "▁yana": 1712,
      "▁bırakıp": 1713,
      "##ami": 1714,
      "##ich": 1715,
      "▁1989": 1716,
      "##ijinal": 1717,
      "▁japonya'nın": 1718,
      "▁100": 1719,
      "▁nes": 1720,
      "▁baskı": 1721,
      "▁tercih": 1722,
      "▁cagr": 1723,
      "##iyorum": 1724,
      "▁tespit": 1725,
      "▁yoluyla": 1726,
      "▁kullanılıyor": 1727,
      "▁girip": 1728,
      "▁diye": 1729,
      "▁35": 1730,
      "▁ettik": 1731,
      "##ak": 1732,
      "▁1": 1733,
      "##dıgından": 1734,
      "▁abdul": 1735,
      "▁%99": 1736,
      "▁onunden": 1737,
      "▁yakın": 1738,
      "▁dakik": 1739,
      "##miz": 1740,
      "▁yahut": 1741,
      "▁yuzunde": 1742,
      "▁kadını": 1743,
      "▁camur": 1744,
      "▁varsa": 1745,
      "▁alternatif": 1746,
      "▁seatt": 1747,
      "▁dostu": 1748,
      "▁gelisim": 1749,
      "▁vardi": 1750,
      "h": 1751,
      "5": 1752,
      "▁yuzden": 1753,
      "▁id": 1754,
      "▁yabancı": 1755,
      "▁bulur": 1756,
      "▁adamları": 1757,
      "▁puan": 1758,
      "▁kotu": 1759,
      "##ons": 1760,
      "▁kork": 1761,
      "##baz": 1762,
      "▁yanı": 1763,
      "▁ap": 1764,
      "▁tev": 1765,
      "▁yıg": 1766,
      "▁ney": 1767,
      "▁kendimize": 1768,
      "▁zayif": 1769,
      "##nin": 1770,
      "▁cıkardı": 1771,
      "##ımları": 1772,
      "▁sonuna": 1773,
      "▁kemal": 1774,
      "▁iti": 1775,
      "▁civarı": 1776,
      "▁icini": 1777,
      "▁pap": 1778,
      "▁istedik": 1779,
      "▁soyleyebilir": 1780,
      "▁kun": 1781,
      "##leyici": 1782,
      "▁dak": 1783,
      "▁tokyo": 1784,
      "##on'un": 1785,
      "▁konu": 1786,
      "##iyorlar": 1787,
      "▁business": 1788,
      "▁iyice": 1789,
      "##ser": 1790,
      "##med": 1791,
      "##bra": 1792,
      "▁unut": 1793,
      "##iligi": 1794,
      "##ladı": 1795,
      "##agıt": 1796,
      "▁10": 1797,
      "▁halen": 1798,
      "▁mood": 1799,
      "▁iliskileri": 1800,
      "▁yolun": 1801,
      "▁artan": 1802,
      "▁birinin": 1803,
      "▁onde": 1804,
      "▁baska": 1805,
      "##tık": 1806,
      "##der": 1807,
      "▁haziran": 1808,
      "▁yatır": 1809,
      "▁elem": 1810,
      "##dız": 1811,
      "▁war": 1812,
      "▁hep": 1813,
      "##bur": 1814,
      "▁sel": 1815,
      "▁muz": 1816,
      "▁asker": 1817,
      "▁aydın": 1818,
      "▁mantık": 1819,
      "##lasan": 1820,
      "▁gm": 1821,
      "##ına": 1822,
      "▁hav": 1823,
      "▁durgun": 1824,
      "##.5": 1825,
      "##onel": 1826,
      "##.2": 1827,
      "▁%0.2": 1828,
      "▁ve": 1829,
      "▁altın": 1830,
      "▁polis": 1831,
      "▁cesaret": 1832,
      "▁kotuydu": 1833,
      "▁eglen": 1834,
      "▁hizmetleri": 1835,
      "▁hemen": 1836,
      "▁odak": 1837,
      "▁vade": 1838,
      "##ıntı": 1839,
      "▁yon": 1840,
      "▁hey": 1841,
      "▁1.1": 1842,
      "▁sal": 1843,
      "▁sahiptir": 1844,
      "▁muhab": 1845,
      "▁teknoloji": 1846,
      "▁ver": 1847,
      "▁olmayan": 1848,
      "▁bankası": 1849,
      "▁bosalt": 1850,
      "##leyen": 1851,
      "▁mukemmeldi": 1852,
      "##ya": 1853,
      "▁ilgilenmedi": 1854,
      "▁icer": 1855,
      "##ers": 1856,
      "##bil": 1857,
      "▁sicak": 1858,
      "▁101": 1859,
      "▁david": 1860,
      "▁kaptan": 1861,
      "▁%15": 1862,
      "▁co": 1863,
      "##'den": 1864,
      "▁northwest": 1865,
      "▁dest": 1866,
      "▁elleri": 1867,
      "##ze": 1868,
      "▁isra": 1869,
      "▁ch": 1870,
      "##az": 1871,
      "▁yayım": 1872,
      "▁odadan": 1873,
      "▁dedi": 1874,
      "##anı": 1875,
      "##att": 1876,
      "##icileri": 1877,
      "▁sabahı": 1878,
      "##1.2": 1879,
      "▁sp": 1880,
      "▁planlıyor": 1881,
      "▁mendi": 1882,
      "##dig": 1883,
      "##enn": 1884,
      "▁fan": 1885,
      "▁konusu": 1886,
      "▁yusuf": 1887,
      "##onelik": 1888,
      "▁olc": 1889,
      "##p": 1890,
      "▁ortalık": 1891,
      "▁eger": 1892,
      "▁olmasına": 1893,
      "##kiz": 1894,
      "▁eas": 1895,
      "▁fab": 1896,
      "▁netic": 1897,
      "▁qu": 1898,
      "##bar": 1899,
      "▁bilmiyor": 1900,
      "▁cin": 1901,
      "▁kredi": 1902,
      "##ıldıgı": 1903,
      "▁kural": 1904,
      "▁bolg": 1905,
      "##'ne": 1906,
      "##landır": 1907,
      "##orn": 1908,
      "##una": 1909,
      "▁yaz": 1910,
      "##rilyon": 1911,
      "▁havaalanı": 1912,
      "##af": 1913,
      "▁city'den": 1914,
      "▁on": 1915,
      "▁hedef": 1916,
      "▁etmiyor": 1917,
      "▁oyuncak": 1918,
      "▁degildi": 1919,
      "▁ipotek": 1920,
      "##anın": 1921,
      "##anlar": 1922,
      "▁kuvvetli": 1923,
      "▁sozles": 1924,
      "▁cılgın": 1925,
      "▁aktivite": 1926,
      "##siniz": 1927,
      "▁ortasında": 1928,
      "▁``": 1929,
      "▁sizler": 1930,
      "▁sasır": 1931,
      "▁reklam": 1932,
      "##liklerini": 1933,
      "##ası": 1934,
      "▁dısına": 1935,
      "▁kulak": 1936,
      "▁olmadi": 1937,
      "▁yetkili": 1938,
      "▁ilgiliydi": 1939,
      "▁olabil": 1940,
      "##sek": 1941,
      "▁oy": 1942,
      "▁cocukların": 1943,
      "▁secim": 1944,
      "▁profesyon": 1945,
      "▁oyunun": 1946,
      "▁kısın": 1947,
      "▁beraber": 1948,
      "▁diego'ya": 1949,
      "▁gunler": 1950,
      "##bat": 1951,
      "▁pır": 1952,
      "##meyi": 1953,
      "▁veriyorum": 1954,
      "▁bazı": 1955,
      "▁alaka": 1956,
      "##ip": 1957,
      "▁cins": 1958,
      "▁ugras": 1959,
      "▁54": 1960,
      "▁%0.3": 1961,
      "##fe": 1962,
      "▁gozet": 1963,
      "▁agr": 1964,
      "▁dolayi": 1965,
      "▁ab": 1966,
      "▁hayır": 1967,
      "▁mav": 1968,
      "▁montreal'a": 1969,
      "▁mudahal": 1970,
      "▁silin": 1971,
      "##ber": 1972,
      "▁vazgec": 1973,
      "▁yolunu": 1974,
      "##madıgı": 1975,
      "##ları": 1976,
      "▁parasını": 1977,
      "##ann": 1978,
      "▁yasamadik": 1979,
      "##-": 1980,
      "▁in": 1981,
      "▁tavuk": 1982,
      "##uldu": 1983,
      "▁tersine": 1984,
      "▁vakt": 1985,
      "##sınız": 1986,
      "##yas": 1987,
      "▁lan": 1988,
      "▁otelin": 1989,
      "▁gurultu": 1990,
      "▁kaybeden": 1991,
      "##im": 1992,
      "##ilerine": 1993,
      "▁elbet": 1994,
      "▁ısın": 1995,
      "##lulugu": 1996,
      "▁avrup": 1997,
      "▁goren": 1998,
      "▁kapısını": 1999,
      "▁lezzetliydi": 2000,
      "▁etk": 2001,
      "##isti": 2002,
      "##tedir": 2003,
      "##ımızı": 2004,
      "##*": 2005,
      "▁uretim": 2006,
      "##larıyla": 2007,
      "▁alıyor": 2008,
      "##leme": 2009,
      "▁kaliteli": 2010,
      "▁pe": 2011,
      "▁sakat": 2012,
      "##ebilecegini": 2013,
      "▁yıla": 2014,
      "▁ucrete": 2015,
      "▁rah": 2016,
      "▁zır": 2017,
      "▁acaba": 2018,
      "▁altına": 2019,
      "##iste": 2020,
      "▁sayisi": 2021,
      "##amamıs": 2022,
      "##miyorum": 2023,
      "##fur": 2024,
      "▁birbucuk": 2025,
      "▁34": 2026,
      "▁bec": 2027,
      "##taj": 2028,
      "##use": 2029,
      "##ikler": 2030,
      "▁er": 2031,
      "▁sorunları": 2032,
      "##ebilecek": 2033,
      "##di": 2034,
      "▁br": 2035,
      "▁arası": 2036,
      "▁restor": 2037,
      "##emiz": 2038,
      "▁%25": 2039,
      "▁alan": 2040,
      "##0000": 2041,
      "▁dediler": 2042,
      "▁yarıs": 2043,
      "▁getirdi": 2044,
      "▁listele": 2045,
      "▁26": 2046,
      "▁kir": 2047,
      "▁faaliyet": 2048,
      "▁elinde": 2049,
      "▁almaya": 2050,
      "▁ajans": 2051,
      "##2": 2052,
      "▁tutun": 2053,
      "▁makine": 2054,
      "##eler": 2055,
      "▁tahmini": 2056,
      "▁olumsuz": 2057,
      "##amda": 2058,
      "▁capında": 2059,
      "##afet": 2060,
      "##tur": 2061,
      "▁birincisi": 2062,
      "##net": 2063,
      "▁4.8": 2064,
      "y": 2065,
      "##van": 2066,
      "##likte": 2067,
      "▁bog": 2068,
      "##ısın": 2069,
      "▁gozlem": 2070,
      "▁soy": 2071,
      "##ith": 2072,
      "##4.8": 2073,
      "▁diyarbakır": 2074,
      "##amayan": 2075,
      "##ılıgıyla": 2076,
      "▁darb": 2077,
      "▁birkac": 2078,
      "▁600": 2079,
      "##acagımı": 2080,
      "▁anim": 2081,
      "##ess": 2082,
      "▁almadim": 2083,
      "##0'": 2084,
      "▁ihtiyat": 2085,
      "▁patates": 2086,
      "▁ilgisiz": 2087,
      "▁direkt": 2088,
      "▁de": 2089,
      "##30": 2090,
      "▁tamamladı": 2091,
      "##cının": 2092,
      "▁sesini": 2093,
      "##eyim": 2094,
      "▁gir": 2095,
      "▁iflas": 2096,
      "▁itibariyle": 2097,
      "▁kazanc": 2098,
      "▁ydik": 2099,
      "▁halihazırda": 2100,
      "▁karanlık": 2101,
      "▁times": 2102,
      "▁ornegin": 2103,
      "▁tasıy": 2104,
      "▁fut": 2105,
      "##acagız": 2106,
      "▁1974": 2107,
      "▁ihtiyac": 2108,
      "▁hamle": 2109,
      "▁mart": 2110,
      "▁yse": 2111,
      "▁kontrol": 2112,
      "▁j": 2113,
      "▁oz": 2114,
      "▁piy": 2115,
      "##vıl": 2116,
      "x": 2117,
      "▁korkunc": 2118,
      "▁merrill": 2119,
      "▁bileti": 2120,
      "##ans": 2121,
      "##vili": 2122,
      "##he": 2123,
      "▁herkesin": 2124,
      "▁2.2": 2125,
      "▁87": 2126,
      "▁sonra": 2127,
      "##ısı": 2128,
      "##.1": 2129,
      "▁duz": 2130,
      "##gının": 2131,
      "▁kalabalikti": 2132,
      "##aydı": 2133,
      "##ya'da": 2134,
      "=": 2135,
      "▁olarak": 2136,
      "##tıkları": 2137,
      "##meleri": 2138,
      "▁don": 2139,
      "▁sizlere": 2140,
      "▁tavsiye": 2141,
      "##layı": 2142,
      "▁mos": 2143,
      "4": 2144,
      "▁ekip": 2145,
      "▁ilave": 2146,
      "▁si": 2147,
      "▁yasında": 2148,
      "▁konut": 2149,
      "▁arabalar": 2150,
      "▁yaptıgını": 2151,
      "##`": 2152,
      "▁porcuk": 2153,
      "▁baglantılı": 2154,
      "▁toparlan": 2155,
      "▁degilse": 2156,
      "▁calısmak": 2157,
      "##ime": 2158,
      "▁if": 2159,
      "▁e": 2160,
      "▁kisiyi": 2161,
      "##eleri": 2162,
      "▁3/8": 2163,
      "▁haftada": 2164,
      "##imi": 2165,
      "▁pasa": 2166,
      "##tın": 2167,
      "▁epey": 2168,
      "▁hukum": 2169,
      "▁pufur": 2170,
      "▁bakıyor": 2171,
      "▁ucus": 2172,
      "▁9": 2173,
      "▁faz": 2174,
      "##ilecek": 2175,
      "▁pur": 2176,
      "##'nı": 2177,
      "▁111": 2178,
      "▁beyle": 2179,
      "##ft": 2180,
      "▁ucuslar": 2181,
      "▁amacıyla": 2182,
      "▁cag": 2183,
      "##bes": 2184,
      "▁basladılar": 2185,
      "▁oldukca": 2186,
      "##giniz": 2187,
      "▁gecm": 2188,
      "##dı": 2189,
      "▁almayı": 2190,
      "▁ho": 2191,
      "g": 2192,
      "▁ayakk": 2193,
      "▁polit": 2194,
      "▁stok": 2195,
      "▁meclis": 2196,
      "▁kılıc": 2197,
      "▁kapının": 2198,
      "▁far": 2199,
      "▁,": 2200,
      "▁ameliyat": 2201,
      "▁yitir": 2202,
      "##ama": 2203,
      "▁emeklilik": 2204,
      "▁yerine": 2205,
      "▁cicek": 2206,
      "▁kıymet": 2207,
      "▁bitir": 2208,
      "▁kalma": 2209,
      "▁duran": 2210,
      "▁baslayacak": 2211,
      "▁meydana": 2212,
      "▁yavas": 2213,
      "▁sipar": 2214,
      "▁ragmen": 2215,
      "##dor": 2216,
      "▁musa": 2217,
      "▁salt": 2218,
      "▁nakit": 2219,
      "▁300": 2220,
      "##masını": 2221,
      "▁vardır": 2222,
      "▁w": 2223,
      "▁ymıs": 2224,
      "▁israil": 2225,
      "▁sahipti": 2226,
      "▁uzak": 2227,
      "▁cekiyor": 2228,
      "##ma": 2229,
      "▁fiyati": 2230,
      "▁saglayacak": 2231,
      "▁net": 2232,
      "▁orani": 2233,
      "▁bakan": 2234,
      "##luga": 2235,
      "##mıslar": 2236,
      "▁herk": 2237,
      "▁sonradan": 2238,
      "▁gov": 2239,
      "▁havaalanından": 2240,
      "##ligini": 2241,
      "▁zafer": 2242,
      "▁onunla": 2243,
      "▁yiyecekler": 2244,
      "▁olmuyor": 2245,
      "##dog": 2246,
      "▁agzını": 2247,
      "▁caz": 2248,
      "▁hayal": 2249,
      "##isi": 2250,
      "▁bey": 2251,
      "▁ithalat": 2252,
      "▁hayv": 2253,
      "▁83": 2254,
      "▁smith": 2255,
      "▁iletisim": 2256,
      "▁tipik": 2257,
      "▁hazine": 2258,
      "▁cd": 2259,
      "▁ogle": 2260,
      "▁vegas'a": 2261,
      "▁komisyon": 2262,
      "▁konuk": 2263,
      "##larının": 2264,
      "▁fik": 2265,
      "▁1.25": 2266,
      "▁duzenlenen": 2267,
      "▁ikib": 2268,
      "##cılık": 2269,
      "##mam": 2270,
      "▁zamanla": 2271,
      "▁cincinnati'ye": 2272,
      "##ledik": 2273,
      "▁ingiliz": 2274,
      "▁kalb": 2275,
      "▁memur": 2276,
      "▁gore": 2277,
      "▁hangisi": 2278,
      "▁fırsat": 2279,
      "▁borc": 2280,
      "▁mor": 2281,
      "▁odul": 2282,
      "##ici": 2283,
      "##larına": 2284,
      "▁begenmedim": 2285,
      "##gim": 2286,
      "▁yavr": 2287,
      "▁sanırım": 2288,
      "##bir": 2289,
      "▁kesinlikle": 2290,
      "▁iliskiler": 2291,
      "▁universit": 2292,
      "▁kalitesinden": 2293,
      "▁doner": 2294,
      "▁arkadasım": 2295,
      "▁odan": 2296,
      "▁hayvan": 2297,
      "▁resepsiyon": 2298,
      "##sunuz": 2299,
      "▁05.": 2300,
      "▁gece": 2301,
      "##den": 2302,
      "▁ydim": 2303,
      "▁isbir": 2304,
      "##'lik": 2305,
      "▁oyna": 2306,
      "##lanan": 2307,
      "▁kullanmadim": 2308,
      "▁odaydi": 2309,
      "▁he": 2310,
      "##ilir": 2311,
      "▁olanaklarını": 2312,
      "▁itir": 2313,
      "##dıgında": 2314,
      "▁kendilerinden": 2315,
      "▁guzeldi": 2316,
      "▁duman": 2317,
      "▁kalmadigim": 2318,
      "▁birles": 2319,
      "▁seattle": 2320,
      "##-m": 2321,
      "##muyordu": 2322,
      "▁toronto'ya": 2323,
      "##e": 2324,
      "▁islemler": 2325,
      "▁yıllardır": 2326,
      "▁kot": 2327,
      "##emek": 2328,
      "▁2003": 2329,
      "▁28": 2330,
      "##ket": 2331,
      "▁karmasık": 2332,
      "▁sunları": 2333,
      "▁gittim": 2334,
      "▁ifad": 2335,
      "▁kez": 2336,
      "▁2017": 2337,
      "▁etmeye": 2338,
      "▁zih": 2339,
      "▁icra": 2340,
      "▁191": 2341,
      "▁herkesten": 2342,
      "▁bolum": 2343,
      "▁1997": 2344,
      "▁bakım": 2345,
      "▁birileri": 2346,
      "▁bilesik": 2347,
      "▁ikisinin": 2348,
      "##egin": 2349,
      "##amaz": 2350,
      "##ilerinin": 2351,
      "##ilmez": 2352,
      "##altı": 2353,
      "##igit": 2354,
      "▁lutfen": 2355,
      "##otte": 2356,
      "▁sabahın": 2357,
      "##bus": 2358,
      "##ps": 2359,
      "▁1989-": 2360,
      "▁edip": 2361,
      "▁1960": 2362,
      "▁kalite": 2363,
      "▁isletme": 2364,
      "▁yoktu": 2365,
      "▁ih": 2366,
      "▁ayın": 2367,
      "▁ik": 2368,
      "▁boylu": 2369,
      "▁oturma": 2370,
      "▁ziyaret": 2371,
      "▁william": 2372,
      "▁cit": 2373,
      "▁te": 2374,
      "▁kaldıgı": 2375,
      "▁cetin": 2376,
      "▁doların": 2377,
      "▁hiss": 2378,
      "##likten": 2379,
      "##medi": 2380,
      "##fi": 2381,
      "▁oyn": 2382,
      "▁gozunu": 2383,
      "▁abd'nin": 2384,
      "▁destekli": 2385,
      "▁nedenle": 2386,
      "▁ugur": 2387,
      "▁ingilizce": 2388,
      "▁katlı": 2389,
      ";": 2390,
      "##na": 2391,
      "▁yog": 2392,
      "▁ticareti": 2393,
      "▁senden": 2394,
      "▁gunden": 2395,
      "▁kısk": 2396,
      "▁ust": 2397,
      "▁bug": 2398,
      "▁memnun": 2399,
      "▁idare": 2400,
      "##pa": 2401,
      "▁pay": 2402,
      "▁27": 2403,
      "##aliydi": 2404,
      "##ginden": 2405,
      "▁agac": 2406,
      "##'n": 2407,
      "▁miy": 2408,
      "##irmi": 2409,
      "##ligine": 2410,
      "▁havaya": 2411,
      "▁akıllı": 2412,
      "▁mısır": 2413,
      "▁sorustur": 2414,
      "▁29": 2415,
      "▁53": 2416,
      "▁soylemek": 2417,
      "▁dallas": 2418,
      "##ee": 2419,
      "▁kaydetti": 2420,
      "▁yı": 2421,
      "▁detay": 2422,
      "▁didik": 2423,
      "▁durdur": 2424,
      "▁kaldır": 2425,
      "##'da": 2426,
      "##uldugu": 2427,
      "▁cadd": 2428,
      "##ledi": 2429,
      "▁temel": 2430,
      "▁seviyede": 2431,
      "▁vergi": 2432,
      "##can": 2433,
      "▁verebilirim": 2434,
      "##ro": 2435,
      "▁guver": 2436,
      "▁teklifi": 2437,
      "▁elektronik": 2438,
      "##.05": 2439,
      "▁askeri": 2440,
      "##medigini": 2441,
      "▁saldırı": 2442,
      "▁telas": 2443,
      "##nan": 2444,
      "▁elini": 2445,
      "##evi": 2446,
      "▁memph": 2447,
      "▁yaslı": 2448,
      "▁islemlerinde": 2449,
      "▁sayı": 2450,
      "▁bulas": 2451,
      "▁asil": 2452,
      "▁temmuz'da": 2453,
      "▁%7.": 2454,
      "▁belki": 2455,
      "▁med": 2456,
      "##lanması": 2457,
      "▁tepk": 2458,
      "▁kapalı": 2459,
      "▁0.3": 2460,
      "▁biy": 2461,
      "▁gozluk": 2462,
      "▁vasat": 2463,
      "##ılım": 2464,
      "▁senetleri": 2465,
      "▁saglıklı": 2466,
      "▁uret": 2467,
      "##baren": 2468,
      "▁yuzune": 2469,
      "##irken": 2470,
      "▁sise": 2471,
      "▁3": 2472,
      "▁gozlerini": 2473,
      "▁secenek": 2474,
      "##ılmıs": 2475,
      "##i'nin": 2476,
      "▁100000": 2477,
      "▁ekonomik": 2478,
      "▁ayarlan": 2479,
      "▁lezzetleri": 2480,
      "▁geliyor": 2481,
      "▁kuf": 2482,
      "▁yansı": 2483,
      "▁lu": 2484,
      "▁av": 2485,
      "##ısıyla": 2486,
      "▁cıktım": 2487,
      "##tuz": 2488,
      "▁3\\/4": 2489,
      "▁%2": 2490,
      "▁altern": 2491,
      "7": 2492,
      "▁love": 2493,
      "▁borsa": 2494,
      "▁numaralı": 2495,
      "##inde": 2496,
      "##k": 2497,
      "▁ek": 2498,
      "▁bro": 2499,
      "▁tarihli": 2500,
      "##ruk": 2501,
      "▁evin": 2502,
      "▁duskun": 2503,
      "##isim": 2504,
      "▁standart": 2505,
      "▁cevr": 2506,
      "▁38": 2507,
      "▁onunde": 2508,
      "##lıkla": 2509,
      "▁alcak": 2510,
      "▁107": 2511,
      "##'te": 2512,
      "▁farklılık": 2513,
      "▁tehdi": 2514,
      "##encer": 2515,
      "##lik": 2516,
      "▁evvel": 2517,
      "▁tip": 2518,
      "▁yapildi": 2519,
      "▁vatandas": 2520,
      "##li": 2521,
      "▁ele": 2522,
      "▁eyalet": 2523,
      "▁gerekiyor": 2524,
      "▁24": 2525,
      "▁birini": 2526,
      "▁donuyor": 2527,
      "▁sas": 2528,
      "##len": 2529,
      "▁giriste": 2530,
      "▁fıldır": 2531,
      "##vi": 2532,
      "▁kat": 2533,
      "▁anayasa": 2534,
      "▁mola": 2535,
      "##dur": 2536,
      "▁%80": 2537,
      "▁buna": 2538,
      "▁taraf": 2539,
      "▁girmek": 2540,
      "n": 2541,
      "▁dav": 2542,
      "▁agırlık": 2543,
      "##aca": 2544,
      "▁1986": 2545,
      "▁verim": 2546,
      "▁kullanıl": 2547,
      "##emiyorum": 2548,
      "##agi": 2549,
      "▁pantolon": 2550,
      "▁hur": 2551,
      "▁hucr": 2552,
      "▁kalmadik": 2553,
      "▁ac": 2554,
      "▁azalt": 2555,
      "▁ste": 2556,
      "##2'den": 2557,
      "▁elestir": 2558,
      "▁gunlerde": 2559,
      "▁ortaydi": 2560,
      "▁eastern": 2561,
      "▁deng": 2562,
      "▁siddetli": 2563,
      "▁guvenli": 2564,
      "▁seviyesinde": 2565,
      "▁anlamak": 2566,
      "▁kultur": 2567,
      "▁garson": 2568,
      "▁direk": 2569,
      "▁katıl": 2570,
      "▁mektep": 2571,
      "▁1.3": 2572,
      "▁bekler": 2573,
      "##ye": 2574,
      "##ansız": 2575,
      "##edim": 2576,
      "▁tik": 2577,
      "▁cekici": 2578,
      "▁ım": 2579,
      "##fer": 2580,
      "▁maliyeti": 2581,
      "▁gosterin": 2582,
      "▁faiz": 2583,
      "##madı": 2584,
      "▁ihracı": 2585,
      "▁evi": 2586,
      "▁nas": 2587,
      "▁sayıl": 2588,
      "▁kapan": 2589,
      "▁kactı": 2590,
      "▁kardesim": 2591,
      "▁sozlerine": 2592,
      "▁duyur": 2593,
      "▁kom": 2594,
      "▁parti": 2595,
      "##cesine": 2596,
      "▁tutar": 2597,
      "▁sup": 2598,
      "▁rıh": 2599,
      "▁bana": 2600,
      "##.625": 2601,
      "▁teor": 2602,
      "▁anad": 2603,
      "▁sohbet": 2604,
      "▁dusunceler": 2605,
      "▁kırk": 2606,
      "▁ugram": 2607,
      "▁nik": 2608,
      "▁deprem": 2609,
      "▁yi": 2610,
      "▁turlu": 2611,
      "▁yatırımcılar": 2612,
      "▁columbus": 2613,
      "▁3\\/8": 2614,
      "▁top": 2615,
      "▁siir": 2616,
      "▁bakalım": 2617,
      "##lerle": 2618,
      "$": 2619,
      "▁197": 2620,
      "▁hır": 2621,
      "▁abd'de": 2622,
      "##ılmaz": 2623,
      "##ılan": 2624,
      "▁getir": 2625,
      "▁cı": 2626,
      "##ale": 2627,
      "▁kisi": 2628,
      "▁ekm": 2629,
      "##pe": 2630,
      "▁terk": 2631,
      "▁ittifak": 2632,
      "▁mobil": 2633,
      "▁boyun": 2634,
      "##ner": 2635,
      "▁supur": 2636,
      "▁tepki": 2637,
      "##gimiz": 2638,
      "▁kayn": 2639,
      "▁istanbul'un": 2640,
      "v": 2641,
      "▁savun": 2642,
      "##c": 2643,
      "▁deney": 2644,
      "▁sahil": 2645,
      "##.85": 2646,
      "##par": 2647,
      "▁190": 2648,
      "[PAD]": 2649,
      "▁arab": 2650,
      "▁1.0": 2651,
      "▁boyu": 2652,
      "▁uyk": 2653,
      "▁karak": 2654,
      "▁aga": 2655,
      "▁gerek": 2656,
      "▁bizimle": 2657,
      "##dukları": 2658,
      "▁muay": 2659,
      "▁performan": 2660,
      "##nun": 2661,
      "▁eder": 2662,
      "##suz": 2663,
      "▁parca": 2664,
      "▁75": 2665,
      "##hane": 2666,
      "▁oyku": 2667,
      "##dak": 2668,
      "▁tek": 2669,
      "▁ulus": 2670,
      "##forman": 2671,
      "▁bulbul": 2672,
      "▁mahs": 2673,
      "▁ulasım": 2674,
      "▁francisco": 2675,
      "▁londra": 2676,
      "▁tesisi": 2677,
      "##\\/32": 2678,
      "##ihan": 2679,
      "▁serin": 2680,
      "▁edi": 2681,
      "▁guleryuzluydu": 2682,
      "##aseb": 2683,
      "▁alkıs": 2684,
      "##diginiz": 2685,
      "▁havuzlari": 2686,
      "##yedi": 2687,
      "##ev": 2688,
      "▁koku": 2689,
      "▁burun": 2690,
      "▁arkadası": 2691,
      "##iri": 2692,
      "▁ile": 2693,
      "▁birlesik": 2694,
      "▁yagmur": 2695,
      "▁64": 2696,
      "▁bunları": 2697,
      "▁7.8": 2698,
      "▁yılının": 2699,
      "##dugu": 2700,
      "▁eki": 2701,
      "▁yapma": 2702,
      "▁sıc": 2703,
      "##isco": 2704,
      "▁yukseldi": 2705,
      "##tas": 2706,
      "▁sirketleri": 2707,
      "##dıgı": 2708,
      "##ada": 2709,
      "▁arkadaslar": 2710,
      "▁adım": 2711,
      "▁edilecek": 2712,
      "▁etmey": 2713,
      "▁cep": 2714,
      "▁cinc": 2715,
      "▁fıs": 2716,
      "▁13": 2717,
      "▁kup": 2718,
      "▁tampa'dan": 2719,
      "▁begendim": 2720,
      "##i": 2721,
      "▁aramız": 2722,
      "▁arz": 2723,
      "▁kavram": 2724,
      "▁yapılmıs": 2725,
      "##eginde": 2726,
      "▁rahat": 2727,
      "##ult": 2728,
      "▁as": 2729,
      "##lardı": 2730,
      "▁zamanda": 2731,
      "▁end": 2732,
      "▁raki": 2733,
      "&": 2734,
      "##cok": 2735,
      "▁sizden": 2736,
      "▁oyunu": 2737,
      "▁askın": 2738,
      "▁kalıyor": 2739,
      "##d": 2740,
      "▁kalkıslı": 2741,
      "▁grev": 2742,
      "##.76": 2743,
      "▁em": 2744,
      "▁yemeklerde": 2745,
      "##edik": 2746,
      "##egine": 2747,
      "▁ruy": 2748,
      "▁ic": 2749,
      "##lım": 2750,
      "##lıgında": 2751,
      "▁arasındaki": 2752,
      "▁gordugum": 2753,
      "▁arasından": 2754,
      "▁mek": 2755,
      "##ark": 2756,
      "▁merkezli": 2757,
      "▁hayatta": 2758,
      "##ay": 2759,
      "▁guvenilir": 2760,
      "▁oturup": 2761,
      "##2.9": 2762,
      "##lendir": 2763,
      "##oloj": 2764,
      "▁dc": 2765,
      "▁cet": 2766,
      "▁corp.": 2767,
      "▁yolcu": 2768,
      "▁asık": 2769,
      "##idi": 2770,
      "▁seyahat": 2771,
      "▁sana": 2772,
      "▁0.2": 2773,
      "▁konusuyor": 2774,
      "▁feder": 2775,
      "?": 2776,
      "▁bugday": 2777,
      "▁vermedi": 2778,
      "▁ısrar": 2779,
      "▁onu": 2780,
      "##misti": 2781,
      "▁81": 2782,
      "▁kategor": 2783,
      "▁kent": 2784,
      "▁dır": 2785,
      "▁count": 2786,
      "▁yesil": 2787,
      "▁iktidar": 2788,
      "▁boru": 2789,
      "##dedil": 2790,
      "▁yapmadı": 2791,
      "▁gonder": 2792,
      "##ha": 2793,
      "▁lor": 2794,
      "##-23": 2795,
      "▁kum": 2796,
      "▁phoeni": 2797,
      "▁maruz": 2798,
      "…": 2799,
      "##ıl": 2800,
      "▁1999": 2801,
      "▁yardım": 2802,
      "##ograf": 2803,
      "▁33": 2804,
      "▁cincinnati'den": 2805,
      "▁yans": 2806,
      "##ısıl": 2807,
      "##elig": 2808,
      "▁performansi": 2809,
      "▁ef": 2810,
      "▁yargıc": 2811,
      "▁journal": 2812,
      "▁yasamak": 2813,
      "##lemek": 2814,
      "▁ipot": 2815,
      "##mesine": 2816,
      "▁yahudi": 2817,
      "▁jersey": 2818,
      "▁efendim": 2819,
      "##ega": 2820,
      "##avuz": 2821,
      "▁1987": 2822,
      "##lasmıs": 2823,
      "##tel": 2824,
      "##r": 2825,
      "▁gelmez": 2826,
      "▁rus": 2827,
      "▁ilan": 2828,
      "▁halde": 2829,
      "##ya'nın": 2830,
      "▁ce": 2831,
      "▁ucuslarını": 2832,
      "##61": 2833,
      "▁sermaye": 2834,
      "▁21:00-22:30": 2835,
      "▁ucusunu": 2836,
      "▁yuksek": 2837,
      "▁milyon": 2838,
      "▁basladım": 2839,
      "##“": 2840,
      "▁gıda": 2841,
      "##abilmek": 2842,
      "▁'de": 2843,
      "▁duygu": 2844,
      "▁sekil": 2845,
      "▁gur": 2846,
      "▁calısma": 2847,
      "▁cizg": 2848,
      "▁cas": 2849,
      "▁olmamıs": 2850,
      "▁ak": 2851,
      "▁imkan": 2852,
      "##ne": 2853,
      "##ilerle": 2854,
      "##kır": 2855,
      "##.3": 2856,
      "▁erkek": 2857,
      "▁hayat": 2858,
      "▁y": 2859,
      "▁digerleri": 2860,
      "▁sov": 2861,
      "▁zeki": 2862,
      "▁bon": 2863,
      "▁kalem": 2864,
      "##tmis": 2865,
      "▁sendik": 2866,
      "##'nun": 2867,
      "▁yildi": 2868,
      "##wa": 2869,
      "▁ders": 2870,
      "##les": 2871,
      "▁onceki": 2872,
      "##cal": 2873,
      "▁ay": 2874,
      "▁doga": 2875,
      "l": 2876,
      "▁ceza": 2877,
      "##ınca": 2878,
      "▁danısman": 2879,
      "▁yaprak": 2880,
      "▁odeme": 2881,
      "▁karısık": 2882,
      "▁national": 2883,
      "▁mal": 2884,
      "##am": 2885,
      "▁ceyr": 2886,
      "##ug": 2887,
      "##rat": 2888,
      "▁muhafaz": 2889,
      "▁zay": 2890,
      "▁yeg": 2891,
      "▁miami'ye": 2892,
      "▁caresiz": 2893,
      "##ıyoruz": 2894,
      "##eviz": 2895,
      "##elen": 2896,
      "▁fatur": 2897,
      "▁analistler": 2898,
      "▁kendisine": 2899,
      "▁sab": 2900,
      "▁ikiye": 2901,
      "##yi": 2902,
      "##sil": 2903,
      "▁talih": 2904,
      "▁ucagın": 2905,
      "▁maliyetleri": 2906,
      "##iza": 2907,
      "##ırt": 2908,
      "▁dudak": 2909,
      "##ıb": 2910,
      "▁kayb": 2911,
      "-": 2912,
      "##eder": 2913,
      "▁kendilerine": 2914,
      "▁finanse": 2915,
      "▁geliyordu": 2916,
      "▁isvic": 2917,
      "##negin": 2918,
      "▁aldılar": 2919,
      "▁yalap": 2920,
      "##lesti": 2921,
      "▁tatil": 2922,
      "##ecek": 2923,
      "+": 2924,
      "##edeki": 2925,
      "▁zorluk": 2926,
      "▁alet": 2927,
      "▁kucucuk": 2928,
      "▁olanakları": 2929,
      "▁prot": 2930,
      "▁mevsim": 2931,
      "▁amer": 2932,
      "▁edile": 2933,
      "▁kız": 2934,
      "##adan": 2935,
      "▁taks": 2936,
      "▁turkiye": 2937,
      "▁altı": 2938,
      "##lah": 2939,
      "▁oper": 2940,
      "##.19": 2941,
      "##u": 2942,
      "▁gu": 2943,
      "##daki": 2944,
      "▁ız": 2945,
      "▁desik": 2946,
      "▁birinci": 2947,
      "*": 2948,
      "##memiz": 2949,
      "▁incel": 2950,
      "▁terc": 2951,
      "##'ı": 2952,
      "▁arada": 2953,
      "▁vatan": 2954,
      "##ru": 2955,
      "##iyoruz": 2956,
      "##dy": 2957,
      "▁topr": 2958,
      "–": 2959,
      "▁harp": 2960,
      "##orth": 2961,
      "##unu": 2962,
      "▁herhalde": 2963,
      "##biye": 2964,
      "##leri": 2965,
      "▁agab": 2966,
      "##cek": 2967,
      "▁chic": 2968,
      "▁cekmek": 2969,
      "##ing": 2970,
      "▁cab": 2971,
      "▁fit": 2972,
      "##'u": 2973,
      "▁yani": 2974,
      "▁isle": 2975,
      "##ildi": 2976,
      "##me": 2977,
      "▁olmalıydı": 2978,
      "▁som": 2979,
      "▁hamam": 2980,
      "##nek": 2981,
      "##@": 2982,
      "##oth": 2983,
      "##bas": 2984,
      "▁tasarru": 2985,
      "##eceg": 2986,
      "##mayı": 2987,
      "##tal": 2988,
      "▁havayolları": 2989,
      "##eyin": 2990,
      "▁minne": 2991,
      "##ımız": 2992,
      "##akar": 2993,
      "▁duruma": 2994,
      "##tik": 2995,
      "##aket": 2996,
      "▁tatlı": 2997,
      "##ıyla": 2998,
      "▁olmaktan": 2999,
      "##elerine": 3000,
      "▁ipek": 3001,
      "##olojik": 3002,
      "▁olmak": 3003,
      "▁acıkladı": 3004,
      "##lerden": 3005,
      "▁kaldik": 3006,
      "▁fir": 3007,
      "▁donem": 3008,
      "##lesmis": 3009,
      "▁lezzeti": 3010,
      "##eyle": 3011,
      "##eyen": 3012,
      "##ediy": 3013,
      "##mistim": 3014,
      "▁yuk": 3015,
      "▁eglenc": 3016,
      "##'ın": 3017,
      "##enler": 3018,
      "▁bindokuzyuz": 3019,
      "##lastı": 3020,
      "▁cir": 3021,
      "▁musteriler": 3022,
      "▁kagıt": 3023,
      "q": 3024,
      "▁etmek": 3025,
      "▁bankalar": 3026,
      "##'in": 3027,
      "▁airlines": 3028,
      "▁ltd.": 3029,
      "▁kiler": 3030,
      "▁miami'den": 3031,
      "▁yumus": 3032,
      "##dım": 3033,
      "##usun": 3034,
      "▁han": 3035,
      "##asından": 3036,
      "##acık": 3037,
      "▁okumak": 3038,
      "##ulmaz": 3039,
      "▁nedir": 3040,
      "▁sac": 3041,
      "▁88": 3042,
      "▁lacivert": 3043,
      "▁buyum": 3044,
      "##ıcılık": 3045,
      "▁cil": 3046,
      "▁gunduz": 3047,
      "##madi": 3048,
      "▁kıl": 3049,
      "▁ind": 3050,
      "▁bık": 3051,
      "▁nitelik": 3052,
      "[UNK]": 3053,
      "▁yonetici": 3054,
      "▁olacak": 3055,
      "▁bulmak": 3056,
      "▁55": 3057,
      "##omur": 3058,
      "▁servet": 3059,
      "##ore": 3060,
      "▁urk": 3061,
      "▁alınan": 3062,
      "##dem": 3063,
      "▁dallas'ta": 3064,
      "▁pırıl": 3065,
      "▁tap": 3066,
      "▁resmen": 3067,
      "▁vucu": 3068,
      "##lat": 3069,
      "▁philadelphia'ya": 3070,
      "▁77": 3071,
      "▁nev": 3072,
      "▁hissed": 3073,
      "▁alb": 3074,
      "▁elbise": 3075,
      "##0.": 3076,
      "▁sayılı": 3077,
      "▁duydum": 3078,
      "▁102": 3079,
      "▁d": 3080,
      "▁mud": 3081,
      "##aa": 3082,
      "▁listeleyebilir": 3083,
      "##alarda": 3084,
      "##'nda": 3085,
      "▁tut": 3086,
      "▁buradan": 3087,
      "▁1.9": 3088,
      "▁izmir": 3089,
      "▁henuz": 3090,
      "▁gulus": 3091,
      "▁kalab": 3092,
      "▁fransa": 3093,
      "▁bazıları": 3094,
      "▁duk": 3095,
      "##y's": 3096,
      "▁sattı": 3097,
      "▁kimse": 3098,
      "▁uyum": 3099,
      "##erin": 3100,
      "▁lider": 3101,
      "▁ger": 3102,
      "▁minneapolis'ten": 3103,
      "▁havayollarında": 3104,
      "▁kendilerini": 3105,
      "##mamız": 3106,
      "▁tir": 3107,
      "▁hazin": 3108,
      "▁46": 3109,
      "##uncu": 3110,
      "▁s&p": 3111,
      "▁%3.1": 3112,
      "▁atar": 3113,
      "##acaklar": 3114,
      "▁cıkıs": 3115,
      "▁baslarında": 3116,
      "▁bunlar": 3117,
      "▁kurdu": 3118,
      "▁kaya": 3119,
      "▁paraya": 3120,
      "##akk": 3121,
      "▁yit": 3122,
      "▁tuccar": 3123,
      "▁kanada": 3124,
      "▁bit": 3125,
      "▁gorun": 3126,
      "▁buy": 3127,
      "▁giy": 3128,
      "▁verici": 3129,
      "▁risk": 3130,
      "▁hakları": 3131,
      "▁gazi": 3132,
      "▁arkadasim": 3133,
      "▁isler": 3134,
      "▁": 3135,
      "▁duzgun": 3136,
      "▁ford": 3137,
      "##uf": 3138,
      "▁demis": 3139,
      "▁ulkenin": 3140,
      "▁eski": 3141,
      "▁alındı": 3142,
      "##b": 3143,
      "▁7.5": 3144,
      "▁sic": 3145,
      "▁dusmus": 3146,
      "##iyim": 3147,
      "▁ustun": 3148,
      "▁prob": 3149,
      "▁muduru": 3150,
      "▁heves": 3151,
      "▁bucuk": 3152,
      "##ce": 3153,
      "▁baltimore": 3154,
      "▁th": 3155,
      "▁psik": 3156,
      "▁insaat": 3157,
      "##ly": 3158,
      "▁mil": 3159,
      "##8'e": 3160,
      "##'ten": 3161,
      "▁husus": 3162,
      "▁dusurdu": 3163,
      "▁harıl": 3164,
      "##uyoruz": 3165,
      "##iski": 3166,
      "▁62": 3167,
      "▁potansiyel": 3168,
      "##agından": 3169,
      "▁balık": 3170,
      "▁anım": 3171,
      "▁beydi": 3172,
      "▁tesvik": 3173,
      "▁mutf": 3174,
      "▁calısmalar": 3175,
      "▁rec": 3176,
      "▁personel": 3177,
      "▁veririm": 3178,
      "▁1998": 3179,
      "▁sm": 3180,
      "▁fal": 3181,
      "▁moda": 3182,
      "▁degerlendir": 3183,
      "▁dava": 3184,
      "▁olmalı": 3185,
      "▁makaleye": 3186,
      "▁isten": 3187,
      "▁alım-sat": 3188,
      "▁oldur": 3189,
      "▁takım": 3190,
      "▁aldim": 3191,
      "▁tarafı": 3192,
      "▁bay": 3193,
      "▁harcam": 3194,
      "▁arttır": 3195,
      "▁6.25": 3196,
      "▁geyik": 3197,
      "##elerek": 3198,
      "▁antr": 3199,
      "▁doviz": 3200,
      "▁konum": 3201,
      "▁yab": 3202,
      "▁aleyh": 3203,
      "▁fen": 3204,
      "##ımda": 3205,
      "▁birbirimizi": 3206,
      "▁zey": 3207,
      "▁cos": 3208,
      "▁8": 3209,
      "▁yapmıs": 3210,
      "▁yasadı": 3211,
      "##a.": 3212,
      "##cak": 3213,
      "▁gibiydi": 3214,
      "▁gorus": 3215,
      "▁fazlasını": 3216,
      "##ates": 3217,
      "▁beden": 3218,
      "##.6": 3219,
      "▁hakkinda": 3220,
      "▁guclu": 3221,
      "▁icindeki": 3222,
      "▁burbank'a": 3223,
      "##ri": 3224,
      "▁okudu": 3225,
      "▁lira": 3226,
      "▁haziran'da": 3227,
      "##bin": 3228,
      "▁hel": 3229,
      "##burg": 3230,
      "▁rot": 3231,
      "▁cuma": 3232,
      "▁bizleri": 3233,
      "▁imal": 3234,
      "##/4": 3235,
      "##85": 3236,
      "▁mul": 3237,
      "▁baskanı": 3238,
      "▁yumusak": 3239,
      "##au": 3240,
      "▁bura": 3241,
      "▁atlanta'da": 3242,
      "▁lyn": 3243,
      "▁20.": 3244,
      "##ısından": 3245,
      "▁nec": 3246,
      "▁olanlar": 3247,
      "##yasal": 3248,
      "##sir": 3249,
      "##uyorlar": 3250,
      "▁annesinin": 3251,
      "▁sonuc": 3252,
      "##kat": 3253,
      "▁gordum": 3254,
      "▁fokur": 3255,
      "▁alamadim": 3256,
      "▁gelip": 3257,
      "##oma": 3258,
      "##imiz": 3259,
      "▁ail": 3260,
      "▁a.b.d.": 3261,
      "▁mer": 3262,
      "▁yuksekti": 3263,
      "▁benden": 3264,
      "▁komutan": 3265,
      "▁cay": 3266,
      "##inci": 3267,
      "##eyn": 3268,
      "##ayacak": 3269,
      "▁erdi": 3270,
      "##ardan": 3271,
      "▁yerden": 3272,
      "▁vır": 3273,
      "▁ozgu": 3274,
      "##se": 3275,
      "▁2004": 3276,
      "▁biri": 3277,
      "▁hazır": 3278,
      "##sik": 3279,
      "▁canlı": 3280,
      "▁lif": 3281,
      "▁sanay": 3282,
      "▁kar": 3283,
      "▁angel": 3284,
      "▁80": 3285,
      "▁mik": 3286,
      "▁emniyet": 3287,
      "##elerle": 3288,
      "##kti": 3289,
      "▁yil": 3290,
      "[SEP]": 3291,
      "▁8.8": 3292,
      "##mamıstı": 3293,
      "▁alarak": 3294,
      "▁manzar": 3295,
      "▁neden": 3296,
      "▁41": 3297,
      "##tansiy": 3298,
      "##larındaki": 3299,
      "▁olas": 3300,
      "##abi": 3301,
      "▁barıs": 3302,
      "▁derecede": 3303,
      "##ısını": 3304,
      "▁mis": 3305,
      "▁onlardan": 3306,
      "▁kadınlar": 3307,
      "▁hakk": 3308,
      "▁istanbul'da": 3309,
      "▁aram": 3310,
      "##madım": 3311,
      "##ır": 3312,
      "▁pamuk": 3313,
      "▁hukumet": 3314,
      "▁mat": 3315,
      "▁girisim": 3316,
      "▁gonl": 3317,
      "▁aqu": 3318,
      "▁nasıl": 3319,
      "##zi": 3320,
      "▁piyasaları": 3321,
      "▁yırt": 3322,
      "▁cocuga": 3323,
      "▁bulundugu": 3324,
      "##ton": 3325,
      "▁yıldız": 3326,
      "▁en": 3327,
      "▁arayan": 3328,
      "##arası": 3329,
      "▁vak": 3330,
      "▁tabi": 3331,
      "▁odalar": 3332,
      "▁dunku": 3333,
      "##ımızda": 3334,
      "##iyordum": 3335,
      "##emiyor": 3336,
      "▁mac": 3337,
      "▁ondan": 3338,
      "▁mo": 3339,
      "▁aras": 3340,
      "##87": 3341,
      "##ine": 3342,
      "▁ob": 3343,
      "▁komit": 3344,
      "▁44": 3345,
      "▁toplu": 3346,
      "▁british": 3347,
      "##ksen": 3348,
      "▁tuccarlar": 3349,
      "▁kalmak": 3350,
      "▁teh": 3351,
      "##lestir": 3352,
      "▁ki": 3353,
      "##ter": 3354,
      "##ia": 3355,
      "▁komur": 3356,
      "##lisi": 3357,
      "▁hen": 3358,
      "▁yonlendir": 3359,
      "▁ayrım": 3360,
      "▁yurudu": 3361,
      "##bak": 3362,
      "▁fiyatina": 3363,
      "##ıg": 3364,
      "▁istifa": 3365,
      "▁heyec": 3366,
      "▁mendil": 3367,
      "▁dilim": 3368,
      "▁bakar": 3369,
      "▁hisseler": 3370,
      "▁benzin": 3371,
      "##-4": 3372,
      "▁hepsini": 3373,
      "▁iht": 3374,
      "##eyi": 3375,
      "▁nerede": 3376,
      "▁satıslar": 3377,
      "▁fin": 3378,
      "▁dah": 3379,
      "▁goc": 3380,
      "▁doneminde": 3381,
      "▁yardim": 3382,
      "▁dolarlık": 3383,
      "▁memphis": 3384,
      "##asız": 3385,
      "▁francisco'dan": 3386,
      "▁veto": 3387,
      "##erk": 3388,
      "▁zarif": 3389,
      "▁sahn": 3390,
      "▁ulasıl": 3391,
      "▁harc": 3392,
      "▁kırmızı": 3393,
      "▁rakı": 3394,
      "##dirde": 3395,
      "##anti": 3396,
      "##ırı": 3397,
      "▁ilgisi": 3398,
      "▁30": 3399,
      "▁yorgun": 3400,
      "▁aqua": 3401,
      "▁hab": 3402,
      "▁hoc": 3403,
      "##er": 3404,
      "##mesi": 3405,
      "▁ustune": 3406,
      "▁karlı": 3407,
      "▁birkacı": 3408,
      "##leriyle": 3409,
      "▁etkil": 3410,
      "▁medya": 3411,
      "▁petersburg'dan": 3412,
      "▁nic": 3413,
      "▁goster": 3414,
      "▁verg": 3415,
      "##-sat": 3416,
      "▁yap": 3417,
      "▁evde": 3418,
      "▁her": 3419,
      "▁carsaf": 3420,
      "##unca": 3421,
      "▁misafirimiz": 3422,
      "▁%27": 3423,
      "▁baker": 3424,
      "▁eh": 3425,
      "▁vaz": 3426,
      "##lif": 3427,
      "##biy": 3428,
      "##layacak": 3429,
      "##agın": 3430,
      "▁ikincisi": 3431,
      "##tiv": 3432,
      "##nal": 3433,
      "##dır": 3434,
      "▁yıllık": 3435,
      "▁hasar": 3436,
      "▁duygusal": 3437,
      "▁neredeyse": 3438,
      "▁aklına": 3439,
      "▁nih": 3440,
      "▁buldu": 3441,
      "▁soguktu": 3442,
      "▁pazartesi": 3443,
      "##dıktan": 3444,
      "▁hacı": 3445,
      "▁insa": 3446,
      "##'taki": 3447,
      "▁devralma": 3448,
      "▁141": 3449,
      "▁turkler": 3450,
      "##22": 3451,
      "##din": 3452,
      "##v": 3453,
      "▁imalat": 3454,
      "▁sarhos": 3455,
      "▁busbut": 3456,
      "▁internet": 3457,
      "▁hazırlanısı": 3458,
      "▁reddetti": 3459,
      "▁%1.7": 3460,
      "##iyle": 3461,
      "▁diyor": 3462,
      "##lamayı": 3463,
      "##00000": 3464,
      "▁persembe": 3465,
      "▁muzak": 3466,
      "▁pu": 3467,
      "▁olumlu": 3468,
      "▁bakıs": 3469,
      "##aret": 3470,
      "##rut": 3471,
      "▁bunda": 3472,
      "▁rekabet": 3473,
      "##gı": 3474,
      "▁thom": 3475,
      "▁kabil": 3476,
      "▁aracılıgıyla": 3477,
      "▁dusen": 3478,
      "▁kendisiyle": 3479,
      "▁hastalık": 3480,
      "##iss": 3481,
      "▁uyandır": 3482,
      "▁7.7": 3483,
      "▁?..": 3484,
      "##erse": 3485,
      "▁simdiye": 3486,
      "▁det": 3487,
      "▁musteri": 3488,
      "▁miktarda": 3489,
      "▁50": 3490,
      "▁continental": 3491,
      "##casına": 3492,
      "j": 3493,
      "▁so": 3494,
      "▁cesitlilik": 3495,
      "▁post": 3496,
      "##burgh": 3497,
      "▁cat": 3498,
      "▁bakıyordu": 3499,
      "##gileri": 3500,
      "▁agz": 3501,
      "▁tug": 3502,
      "▁otelde": 3503,
      "▁kıp": 3504,
      "##57": 3505,
      "▁andır": 3506,
      "▁yuzu": 3507,
      "▁ons": 3508,
      "▁arıyor": 3509,
      "▁mali": 3510,
      "##anla": 3511,
      "▁yapti": 3512,
      "##ahat": 3513,
      "▁birbirlerini": 3514,
      "▁tartısmalar": 3515,
      "##adem": 3516,
      "▁etmedi": 3517,
      "▁gosteren": 3518,
      "##bi": 3519,
      "▁shearson": 3520,
      "##eg": 3521,
      "▁$": 3522,
      "▁neyse": 3523,
      "▁saglayan": 3524,
      "▁tam": 3525,
      "▁sın": 3526,
      "##chester": 3527,
      "▁ozgurluk": 3528,
      "▁memleket": 3529,
      "##mun": 3530,
      "▁charl": 3531,
      "##sar": 3532,
      "▁yetersizdi": 3533,
      "##gından": 3534,
      "▁verdigi": 3535,
      "▁kazancı": 3536,
      "##ılıgı": 3537,
      "▁ali": 3538,
      "▁dos": 3539,
      "##alama": 3540,
      "▁muhtesem": 3541,
      "▁mevzu": 3542,
      "▁defa": 3543,
      "▁yasadıgı": 3544,
      "▁aldigim": 3545,
      "##ısının": 3546,
      "▁one": 3547,
      "▁oldugunu": 3548,
      "▁gidi": 3549,
      "▁2.": 3550,
      "▁uyuy": 3551,
      "▁sınıf": 3552,
      "##imizde": 3553,
      "▁aksamları": 3554,
      "▁bulmaya": 3555,
      "▁yemis": 3556,
      "▁geldi": 3557,
      "▁bugun": 3558,
      "▁nisan": 3559,
      "▁arıyorum": 3560,
      "▁genc": 3561,
      "##edil": 3562,
      "▁iddi": 3563,
      "▁cevir": 3564,
      "##ci": 3565,
      "▁york'a": 3566,
      "▁sorgul": 3567,
      "▁rej": 3568,
      "▁ark": 3569,
      "##en": 3570,
      "▁kendilerinin": 3571,
      "▁yarı": 3572,
      "##7.2": 3573,
      "▁yapacagını": 3574,
      "▁hizmeti": 3575,
      "▁tum": 3576,
      "▁l": 3577,
      "##bu": 3578,
      "▁oldugundan": 3579,
      "##la": 3580,
      "##48": 3581,
      "▁900": 3582,
      "##j": 3583,
      "▁gunah": 3584,
      "▁fırladı": 3585,
      "##meye": 3586,
      "##undeki": 3587,
      "▁sozlesme": 3588,
      "▁cekin": 3589,
      "##ana": 3590,
      "▁yenil": 3591,
      "▁nez": 3592,
      "▁yeterliydi": 3593,
      "▁ted": 3594,
      "##w": 3595,
      "▁kan": 3596,
      "##cag": 3597,
      "▁baskan": 3598,
      "▁tahviller": 3599,
      "▁midir": 3600,
      "▁americ": 3601,
      "▁aktarmasız": 3602,
      "▁rezervasyon": 3603,
      "▁yetkilileri": 3604,
      "▁icecekler": 3605,
      "▁kompoz": 3606,
      "▁anlamda": 3607,
      "▁etmesi": 3608,
      "##yan": 3609,
      "▁hangi": 3610,
      "▁sam": 3611,
      "▁bekledigim": 3612,
      "▁genislet": 3613,
      "▁colum": 3614,
      "▁birimiz": 3615,
      "▁cozul": 3616,
      "##ekul": 3617,
      "▁yamalak": 3618,
      "▁ogrenci": 3619,
      "▁vat": 3620,
      "▁yasan": 3621,
      "##ebi": 3622,
      "▁lak": 3623,
      "▁zorunda": 3624,
      "▁tanık": 3625,
      "▁uzan": 3626,
      "▁tacoma": 3627,
      "##lum": 3628,
      "▁gonul": 3629,
      "▁hor": 3630,
      "▁olamaz": 3631,
      "##ıyorsun": 3632,
      "▁dahi": 3633,
      "▁finc": 3634,
      "▁st.": 3635,
      "##​": 3636,
      "##usuz": 3637,
      "##enz": 3638,
      "##azım": 3639,
      "▁hissesi": 3640,
      "▁bende": 3641,
      "##ento": 3642,
      "▁ceker": 3643,
      "▁pek": 3644,
      "▁!": 3645,
      "▁insanlar": 3646,
      "▁camasır": 3647,
      "##.125": 3648,
      "▁sist": 3649,
      "▁oglu": 3650,
      "##'ye": 3651,
      "▁yatırım": 3652,
      "▁cocukları": 3653,
      "▁hesap": 3654,
      "##tıklarını": 3655,
      "▁york'ta": 3656,
      "▁verdik": 3657,
      "▁verme": 3658,
      "▁yuvar": 3659,
      "▁12'den": 3660,
      "##iyet": 3661,
      "▁komisyonlar": 3662,
      "▁gecesi": 3663,
      "▁sahin": 3664,
      "▁gulums": 3665,
      "##deri": 3666,
      "##.51": 3667,
      "▁giz": 3668,
      "▁sozlesmesi": 3669,
      "▁girdi": 3670,
      "▁ign": 3671,
      "▁sonunda": 3672,
      "##por": 3673,
      "##atın": 3674,
      "▁cıkmak": 3675,
      "▁63": 3676,
      "▁ulk": 3677,
      "##ret": 3678,
      "▁sip": 3679,
      "##elerinden": 3680,
      "▁imparator": 3681,
      "▁taleb": 3682,
      "▁defter": 3683,
      "##imdi": 3684,
      "▁sec": 3685,
      "▁klas": 3686,
      "▁itibaren": 3687,
      "▁yaptır": 3688,
      "##ilmaz": 3689,
      "▁noktası": 3690,
      "▁phoenix'e": 3691,
      "##acaktır": 3692,
      "▁tren": 3693,
      "▁hata": 3694,
      "▁dolara": 3695,
      "▁lir": 3696,
      "▁toplantıda": 3697,
      "▁dr.": 3698,
      "▁ilgili": 3699,
      "▁sık": 3700,
      "##.45": 3701,
      "▁dukkan": 3702,
      "▁birbirler": 3703,
      "##ona": 3704,
      "##iyor": 3705,
      "▁pozisyon": 3706,
      "▁otek": 3707,
      "##adaki": 3708,
      "##lak": 3709,
      "▁babası": 3710,
      "▁beri": 3711,
      "▁hisselerini": 3712,
      "##lilig": 3713,
      "▁general": 3714,
      "##000": 3715,
      "▁saclarını": 3716,
      "##el": 3717,
      "▁150": 3718,
      "▁oynat": 3719,
      "▁kaldim": 3720,
      "##acılar": 3721,
      "▁federal": 3722,
      "▁ayakta": 3723,
      "##ut": 3724,
      "▁industri": 3725,
      "##osunda": 3726,
      "▁tedavulde": 3727,
      "▁yonel": 3728,
      "##lıgı": 3729,
      "▁daima": 3730,
      "▁istedim": 3731,
      "##iran": 3732,
      "▁gob": 3733,
      "##‘": 3734,
      "▁cıktı": 3735,
      "▁gib": 3736,
      "▁re": 3737,
      "##ıyordu": 3738,
      "▁ona": 3739,
      "##iydi": 3740,
      "▁mim": 3741,
      "▁%5.4": 3742,
      "##emb": 3743,
      "▁cog": 3744,
      "▁kapasitesi": 3745,
      "##onik": 3746,
      "▁bar": 3747,
      "▁eser": 3748,
      "▁temizlen": 3749,
      "▁potansiy": 3750,
      "##ınıyor": 3751,
      "▁tutuyor": 3752,
      "▁yontem": 3753,
      "▁cıkmaz": 3754,
      "▁otele": 3755,
      "▁holding": 3756,
      "▁mevduat": 3757,
      "▁buyur": 3758,
      "▁biles": 3759,
      "▁sizinle": 3760,
      "▁duv": 3761,
      "##ant": 3762,
      "▁kaliteye": 3763,
      "▁ayrı": 3764,
      "▁topu": 3765,
      "▁hastalı": 3766,
      "##cev": 3767,
      "▁yapım": 3768,
      "▁ton": 3769,
      "##ız": 3770,
      "▁par": 3771,
      "▁manz": 3772,
      "▁bilmem": 3773,
      "▁dunya": 3774,
      "▁!..": 3775,
      "▁mon": 3776,
      "##eyince": 3777,
      "▁sakin": 3778,
      "▁etkilen": 3779,
      "▁gelmisti": 3780,
      "##tigi": 3781,
      "##bakır": 3782,
      "##'la": 3783,
      "▁suru": 3784,
      "▁denizin": 3785,
      "▁annem": 3786,
      "##artesi": 3787,
      "##oru": 3788,
      "▁tuketici": 3789,
      "##unuz": 3790,
      "▁tutmak": 3791,
      "▁ustunde": 3792,
      "##bs": 3793,
      "##.31": 3794,
      "##afir": 3795,
      "▁gezin": 3796,
      "▁ecekti": 3797,
      "▁ilgil": 3798,
      "##mas": 3799,
      "▁inanc": 3800,
      "▁faydalan": 3801,
      "##h": 3802,
      "▁gumbur": 3803,
      "▁gecer": 3804,
      "##gunu": 3805,
      "▁maden": 3806,
      "▁sinirli": 3807,
      "▁ozlem": 3808,
      "▁gazete": 3809,
      "▁tit": 3810,
      "▁5.2": 3811,
      "##ilere": 3812,
      "▁mektu": 3813,
      "▁rengi": 3814,
      "▁kahr": 3815,
      "▁ny": 3816,
      "▁sozunu": 3817,
      "##su": 3818,
      "▁kırm": 3819,
      "▁gomlek": 3820,
      "▁saatte": 3821,
      "▁konumu": 3822,
      "▁inc.": 3823,
      "▁tuken": 3824,
      "##75": 3825,
      "▁seklinde": 3826,
      "▁agrı": 3827,
      "▁120": 3828,
      "▁kon": 3829,
      "##mıstır": 3830,
      "##le": 3831,
      "▁0.1": 3832,
      "▁mutluluk": 3833,
      "▁bak": 3834,
      "▁dieg": 3835,
      "▁nok": 3836,
      "##11": 3837,
      "▁kısmen": 3838,
      "▁haz": 3839,
      "##man": 3840,
      "▁nadir": 3841,
      "##cik": 3842,
      "▁istek": 3843,
      "##.4": 3844,
      "▁kullan": 3845,
      "▁calısması": 3846,
      "▁kayak": 3847,
      "▁hızla": 3848,
      "▁giderek": 3849,
      "▁18.": 3850,
      "▁bulut": 3851,
      "▁gay": 3852,
      "▁alın": 3853,
      "▁/": 3854,
      "##adılar": 3855,
      "▁71": 3856,
      "▁basından": 3857,
      "##maya": 3858,
      "▁onlem": 3859,
      "▁okum": 3860,
      "▁senar": 3861,
      "##ole": 3862,
      "▁est": 3863,
      "##'tan": 3864,
      "▁ogul": 3865,
      "▁ruz": 3866,
      "▁iceri": 3867,
      "▁but": 3868,
      "▁performans": 3869,
      "▁belirtti": 3870,
      "▁agustos'ta": 3871,
      "##emedi": 3872,
      "▁uyku": 3873,
      "▁oldugun": 3874,
      "##atik": 3875,
      "##ki": 3876,
      "▁alt": 3877,
      "▁istiyorum": 3878,
      "▁fizik": 3879,
      "▁uyarı": 3880,
      "##gumuz": 3881,
      "▁kidder": 3882,
      "▁malzemeler": 3883,
      "##/32": 3884,
      "▁verdigini": 3885,
      "▁fes": 3886,
      "▁dogu": 3887,
      "##usunun": 3888,
      "▁gordu": 3889,
      "##eket": 3890,
      "▁olursa": 3891,
      "▁cinayet": 3892,
      "##eh": 3893,
      "▁bastır": 3894,
      "##ele": 3895,
      "▁gec": 3896,
      "##3.9": 3897,
      "▁donmus": 3898,
      "▁hoca": 3899,
      "▁arkasından": 3900,
      "▁organizasyon": 3901,
      "▁az": 3902,
      "▁fayd": 3903,
      "▁cırp": 3904,
      "▁gerekir": 3905,
      "▁davranıs": 3906,
      "▁ucusunuz": 3907,
      "▁kongre": 3908,
      "▁yok": 3909,
      "##'ya": 3910,
      "▁temizlik": 3911,
      "##tanın": 3912,
      "##indan": 3913,
      "▁peyn": 3914,
      "▁98": 3915,
      "##lugunu": 3916,
      "##tıgım": 3917,
      "▁brit": 3918,
      "▁guleryuz": 3919,
      "▁stratej": 3920,
      "▁tv": 3921,
      "##ayet": 3922,
      "▁fark": 3923,
      "##unc": 3924,
      "▁vef": 3925,
      "##.7": 3926,
      "▁huy": 3927,
      "##rup": 3928,
      "▁sebebi": 3929,
      "▁turb": 3930,
      "##cuk": 3931,
      "▁yonet": 3932,
      "▁pahali": 3933,
      "##cısı": 3934,
      "▁muhtemelen": 3935,
      "##isten": 3936,
      "▁tesadu": 3937,
      "▁paranın": 3938,
      "##ali": 3939,
      "▁big": 3940,
      "▁oturmus": 3941,
      "▁yonelik": 3942,
      "▁kasıgı": 3943,
      "▁bekledi": 3944,
      "▁ogleden": 3945,
      "▁normaldi": 3946,
      "▁teler": 3947,
      "##ick": 3948,
      "▁kansas": 3949,
      "##'nin": 3950,
      "▁vasıt": 3951,
      "▁unlu": 3952,
      "##_": 3953,
      "▁yardimci": 3954,
      "▁iz": 3955,
      "▁yazık": 3956,
      "▁yolunda": 3957,
      "▁yerde": 3958,
      "▁alır": 3959,
      "▁degerlendiririm": 3960,
      "##cinin": 3961,
      "##lal": 3962,
      "##azı": 3963,
      "▁fakir": 3964,
      "▁deh": 3965,
      "▁kamp": 3966,
      "##amanın": 3967,
      "##sın": 3968,
      "▁ti": 3969,
      "##an'ın": 3970,
      "▁gerekti": 3971,
      "##yse": 3972,
      "▁2000": 3973,
      "▁merkez": 3974,
      "▁kapat": 3975,
      "##amıs": 3976,
      "▁olmadıgını": 3977,
      "▁kuvvet": 3978,
      "▁do": 3979,
      "##menin": 3980,
      "▁mı": 3981,
      "▁lis": 3982,
      "▁ettiler": 3983,
      "▁lou": 3984,
      "▁donemde": 3985,
      "▁bono": 3986,
      "▁umuyor": 3987,
      "▁iki": 3988,
      "▁degil": 3989,
      "▁dolayı": 3990,
      "▁bakanı": 3991,
      "##ji": 3992,
      "▁bilgisayar": 3993,
      "▁kımıl": 3994,
      "##ede": 3995,
      "▁agız": 3996,
      "▁tarafından": 3997,
      "##san": 3998,
      "▁birbirlerinin": 3999,
      "▁nuk": 4000,
      "▁'": 4001,
      "▁kısm": 4002,
      "##ıcı": 4003,
      "▁tabii": 4004,
      "▁dakika": 4005,
      "##ack": 4006,
      "▁yapı": 4007,
      "▁enflasyon": 4008,
      "▁zen": 4009,
      "▁cihaz": 4010,
      "▁hele": 4011,
      "▁aln": 4012,
      "▁aktivit": 4013,
      "▁cesitliligi": 4014,
      "##.55": 4015,
      "##veland": 4016,
      "▁birtakım": 4017,
      "##inize": 4018,
      "▁imkanlari": 4019,
      "▁4'ten": 4020,
      "▁kendimi": 4021,
      "▁b": 4022,
      "▁gosterg": 4023,
      "##agında": 4024,
      "▁yak": 4025,
      "▁gecerli": 4026,
      "▁hurriyet": 4027,
      "##o'dan": 4028,
      "##ell": 4029,
      "▁hong": 4030,
      "▁parayı": 4031,
      "▁biridir": 4032,
      "##iyon": 4033,
      "▁bulun": 4034,
      "##iyak": 4035,
      "▁yukseltti": 4036,
      "▁washington": 4037,
      "▁no": 4038,
      "##ar": 4039,
      "▁ed": 4040,
      "▁bayan": 4041,
      "▁cumartesi": 4042,
      "▁halihaz": 4043,
      "▁hırsız": 4044,
      "▁350": 4045,
      "▁hepimizi": 4046,
      "▁eksikligi": 4047,
      "▁yah": 4048,
      "▁numara": 4049,
      "▁calısmaya": 4050,
      "##andan": 4051,
      "▁edilir": 4052,
      "▁yuks": 4053,
      "▁yeni": 4054,
      "##gin": 4055,
      "▁sonuclar": 4056,
      "##lav": 4057,
      "▁neyin": 4058,
      "▁degis": 4059,
      "▁kaz": 4060,
      "▁davası": 4061,
      "▁it": 4062,
      "##hur": 4063,
      "##malıdır": 4064,
      "▁fabrika": 4065,
      "▁rom": 4066,
      "▁tar": 4067,
      "▁azından": 4068,
      "▁aldıgı": 4069,
      "##ris": 4070,
      "##ku": 4071,
      "▁icimde": 4072,
      "▁basbakan": 4073,
      "▁cagır": 4074,
      "▁gosteriyor": 4075,
      "##mustum": 4076,
      "▁bolun": 4077,
      "▁tutarında": 4078,
      "▁col": 4079,
      "▁nere": 4080,
      "▁degilmis": 4081,
      "▁havayol": 4082,
      "##ısır": 4083,
      "▁kas": 4084,
      "▁acıklanmadı": 4085,
      "▁dusunc": 4086,
      "▁calıs": 4087,
      "▁yuksel": 4088,
      "##cıların": 4089,
      "##sel": 4090,
      "▁satısları": 4091,
      "▁cıkmıstı": 4092,
      "▁47": 4093,
      "▁asl": 4094,
      "▁teklifini": 4095,
      "▁listel": 4096,
      "▁odanın": 4097,
      "▁sigar": 4098,
      "▁ciz": 4099,
      "##at": 4100,
      "▁poz": 4101,
      "▁sevinc": 4102,
      "▁49": 4103,
      "##uc": 4104,
      "▁gomle": 4105,
      "▁le": 4106,
      "▁kons": 4107,
      "▁hicbiri": 4108,
      "▁sebep": 4109,
      "▁olmustu": 4110,
      "##enen": 4111,
      "▁saray": 4112,
      "##alarına": 4113,
      "▁dısarıda": 4114,
      "▁eylem": 4115,
      "##'i": 4116,
      "##eki": 4117,
      "▁besik": 4118,
      "▁cogu": 4119,
      "▁diyorum": 4120,
      "▁mad": 4121,
      "▁sahipleri": 4122,
      "▁zehir": 4123,
      "##misler": 4124,
      "##iyas": 4125,
      "▁yaptirdi": 4126,
      "▁muam": 4127,
      "▁irak": 4128,
      "▁cıg": 4129,
      "▁ucmak": 4130,
      "▁begen": 4131,
      "##op": 4132,
      "▁buny": 4133,
      "##anlı": 4134,
      "▁musunuz": 4135,
      "##yalar": 4136,
      "▁gar": 4137,
      "▁birisini": 4138,
      "▁harikaydi": 4139,
      "▁pil": 4140,
      "▁yolda": 4141,
      "▁busbutun": 4142,
      "##ltı": 4143,
      "▁franc": 4144,
      "▁guclendir": 4145,
      "▁seviye": 4146,
      "3": 4147,
      "▁agzına": 4148,
      "▁buldum": 4149,
      "▁cev": 4150,
      "##ah": 4151,
      "▁seyleri": 4152,
      "▁konferans": 4153,
      "##loy": 4154,
      "##akat": 4155,
      "##tor": 4156,
      "▁varacak": 4157,
      "▁gormek": 4158,
      "▁haydi": 4159,
      "##lbu": 4160,
      "##eli": 4161,
      "▁1.5": 4162,
      "▁yım": 4163,
      "##larak": 4164,
      "##.": 4165,
      "##tar": 4166,
      "▁dik": 4167,
      "▁7.9": 4168,
      "▁erk": 4169,
      "##■": 4170,
      "▁sesi": 4171,
      "▁men": 4172,
      "##ugu": 4173,
      "▁zayıf": 4174,
      "##urt": 4175,
      "▁onur": 4176,
      "▁yuzunden": 4177,
      "▁kaf": 4178,
      "▁hayret": 4179,
      "▁muht": 4180,
      "▁bekledigini": 4181,
      "▁istihdam": 4182,
      "▁george": 4183,
      "##raf": 4184,
      "▁da": 4185,
      "▁ramiz": 4186,
      "▁boc": 4187,
      "▁calıstır": 4188,
      "e": 4189,
      "▁yolculuk": 4190,
      "##iden": 4191,
      "##esinde": 4192,
      "▁petersburg'a": 4193,
      "▁kıvr": 4194,
      "▁%50": 4195,
      "##tım": 4196,
      "▁dor": 4197,
      "##s.": 4198,
      "▁oldugu": 4199,
      "▁yarısı": 4200,
      "##arı": 4201,
      "▁cleveland'dan": 4202,
      "##lamıstı": 4203,
      "▁edilem": 4204,
      "▁red": 4205,
      "##anet": 4206,
      "▁gok": 4207,
      "▁getiri": 4208,
      "▁tesekkur": 4209,
      "▁girdik": 4210,
      "##isleri": 4211,
      "▁temsil": 4212,
      "▁beklenen": 4213,
      "##gunda": 4214,
      "##rı": 4215,
      "##makla": 4216,
      "▁endustri": 4217,
      "▁istif": 4218,
      "▁kıt": 4219,
      "##dedi": 4220,
      "##mekte": 4221,
      "▁yasası": 4222,
      "▁beklen": 4223,
      "▁incelem": 4224,
      "▁n": 4225,
      "▁key": 4226,
      "▁hala": 4227,
      "▁kendimde": 4228,
      "▁tak": 4229,
      "▁biz": 4230,
      "▁ustunden": 4231,
      "▁rehber": 4232,
      "▁houston'dan": 4233,
      "▁esk": 4234,
      "▁toplan": 4235,
      "##tiy": 4236,
      "##ayla": 4237,
      "▁cesitleri": 4238,
      "▁hasır": 4239,
      "##36": 4240,
      "##ilm": 4241,
      "▁tedav": 4242,
      "▁basarili": 4243,
      "▁cey": 4244,
      "##7": 4245,
      "▁oglen": 4246,
      "##sekiz": 4247,
      "▁geceleri": 4248,
      "▁donup": 4249,
      "##eyerek": 4250,
      "▁eliyle": 4251,
      "▁avukatlar": 4252,
      "▁day": 4253,
      "▁vi": 4254,
      "##mıyorum": 4255,
      "▁kopr": 4256,
      "▁partisi": 4257,
      "▁etken": 4258,
      "▁basarılı": 4259,
      "▁personellerden": 4260,
      "▁capital": 4261,
      "▁kırık": 4262,
      "▁700": 4263,
      "▁kapasit": 4264,
      "▁parcası": 4265,
      "▁binlerce": 4266,
      "##gil": 4267,
      "p": 4268,
      "##ige": 4269,
      "##86": 4270,
      "##istan": 4271,
      "▁garip": 4272,
      "▁delikanlı": 4273,
      "▁carsı": 4274,
      "##dıgım": 4275,
      "▁diyar": 4276,
      "##s": 4277,
      "▁sabır": 4278,
      "▁kurul": 4279,
      "▁elindeki": 4280,
      "##inal": 4281,
      "##tıktan": 4282,
      "▁ar": 4283,
      "▁dog": 4284,
      "##ık": 4285,
      "##alarında": 4286,
      "▁kongr": 4287,
      "▁ısı": 4288,
      "##meyin": 4289,
      "▁eli": 4290,
      "▁gorunen": 4291,
      "▁buc": 4292,
      "▁akl": 4293,
      "##gıc": 4294,
      "##uz": 4295,
      "▁beklem": 4296,
      "▁milwaukee'den": 4297,
      "▁dusun": 4298,
      "▁hayatını": 4299,
      "▁jaguar": 4300,
      "▁seh": 4301,
      "▁lynch": 4302,
      "▁evren": 4303,
      "▁hun": 4304,
      "▁getiren": 4305,
      "▁kalkıs": 4306,
      "▁partiler": 4307,
      "▁nashville'den": 4308,
      "▁dosy": 4309,
      "▁olacagı": 4310,
      "▁toronto": 4311,
      "▁tıp": 4312,
      "▁ayır": 4313,
      "##y'nin": 4314,
      "▁finansman": 4315,
      "▁kibar": 4316,
      "▁bilet": 4317,
      "##sem": 4318,
      "▁isters": 4319,
      "▁hoslan": 4320,
      "▁8.4": 4321,
      "▁i": 4322,
      "▁yatırımcıların": 4323,
      "▁ge": 4324,
      "▁katı": 4325,
      "##0": 4326,
      "▁kaydı": 4327,
      "##stit": 4328,
      "▁angeles": 4329,
      "▁sonucu": 4330,
      "##esin": 4331,
      "▁su": 4332,
      "▁adi": 4333,
      "▁gorusuldu": 4334,
      "##fik": 4335,
      "##amın": 4336,
      "▁1.000": 4337,
      "##sarı": 4338,
      "▁cıkan": 4339,
      "▁sayf": 4340,
      "▁yuzey": 4341,
      "##cakt": 4342,
      "▁zav": 4343,
      "▁dur": 4344,
      "▁endisel": 4345,
      "▁kararı": 4346,
      "▁hayli": 4347,
      "▁ig": 4348,
      "##abiliriz": 4349,
      "▁ozgur": 4350,
      "▁uzakta": 4351,
      "##ave": 4352,
      "▁mutlaka": 4353,
      "▁yerinde": 4354,
      "##imin": 4355,
      "▁tuket": 4356,
      "##acılıgı": 4357,
      "▁kalmadim": 4358,
      "▁vit": 4359,
      "▁muh": 4360,
      "##ılmaya": 4361,
      "▁alakaliydi": 4362,
      "##vır": 4363,
      "▁etmez": 4364,
      "▁hikay": 4365,
      "▁cinsel": 4366,
      "▁sıy": 4367,
      "▁benzer": 4368,
      "▁oyle": 4369,
      "##ıh": 4370,
      "##art": 4371,
      "▁alım": 4372,
      "##ugunu": 4373,
      "##ucuk": 4374,
      "▁tahmin": 4375,
      "▁konak": 4376,
      "▁kurus": 4377,
      "▁yarın": 4378,
      "##ika": 4379,
      "##ılır": 4380,
      "▁tun": 4381,
      "##s'in": 4382,
      "▁bo": 4383,
      "##enc": 4384,
      "▁mırıldan": 4385,
      "▁klasik": 4386,
      "##ıtır": 4387,
      "##bahar": 4388,
      "▁bakımından": 4389,
      "##adu": 4390,
      "▁nedenlerden": 4391,
      "##isine": 4392,
      "▁politika": 4393,
      "▁plani": 4394,
      "▁kasır": 4395,
      "▁dem": 4396,
      "##mak": 4397,
      "##ori": 4398,
      "▁westchester": 4399,
      "▁endek": 4400,
      "▁gonullu": 4401,
      "▁anket": 4402,
      "##ach": 4403,
      "##ese": 4404,
      "▁miyim": 4405,
      "##ac": 4406,
      "▁onlara": 4407,
      "##inda": 4408,
      "##lıgının": 4409,
      "▁gergin": 4410,
      "▁haldır": 4411,
      "▁edecegini": 4412,
      "##ite": 4413,
      "▁yonetimi": 4414,
      "##ıs": 4415,
      "▁arkasına": 4416,
      "▁denilen": 4417,
      "▁kid": 4418,
      "##iddet": 4419,
      "▁elma": 4420,
      "▁bunun": 4421,
      "▁dep": 4422,
      "▁naz": 4423,
      "##iyel": 4424,
      "▁sampiyon": 4425,
      "##sız": 4426,
      "▁ta": 4427,
      "▁luk": 4428,
      "▁yapılıyor": 4429,
      "##ilik": 4430,
      "##dın": 4431,
      "##sen": 4432,
      "▁class": 4433,
      "▁kral": 4434,
      "▁acıklam": 4435,
      "▁pis": 4436,
      "▁fonları": 4437,
      "▁ayrıl": 4438,
      "▁yarım": 4439,
      "▁rob": 4440,
      "▁long": 4441,
      "▁yag": 4442,
      "▁kol": 4443,
      "▁ir": 4444,
      "▁did": 4445,
      "▁yetkililer": 4446,
      "▁fedakar": 4447,
      "▁miydi": 4448,
      "▁lakırtı": 4449,
      "▁ifade": 4450,
      "▁alısveris": 4451,
      "##inin": 4452,
      "##and": 4453,
      "▁dolan": 4454,
      "##tern": 4455,
      "##ıstır": 4456,
      "▁tabak": 4457,
      "▁onumuz": 4458,
      "##amadim": 4459,
      "▁pul": 4460,
      "##cilik": 4461,
      "▁ikinci": 4462,
      "▁akın": 4463,
      "▁eroin": 4464,
      "▁oden": 4465,
      "▁arastırma": 4466,
      "##bank": 4467,
      "▁demektir": 4468,
      "##es": 4469,
      "▁kullanım": 4470,
      "▁rap": 4471,
      "##lit": 4472,
      "▁ortaya": 4473,
      "▁tulum": 4474,
      "##ıldıgını": 4475,
      "▁basta": 4476,
      "▁asagı": 4477,
      "▁karg": 4478,
      "▁vurgul": 4479,
      "▁carol": 4480,
      "▁sorunu": 4481,
      "▁mem": 4482,
      "b": 4483,
      "▁gro": 4484,
      "▁istiyoruz": 4485,
      "▁biriydi": 4486,
      "▁ilgililerdi": 4487,
      "▁karsısına": 4488,
      "##masından": 4489,
      "▁kızlar": 4490,
      "##maları": 4491,
      "▁belir": 4492,
      "▁geldim": 4493,
      "##f": 4494,
      "▁tan": 4495,
      "▁delik": 4496,
      "##ımızın": 4497,
      "▁havaalan": 4498,
      "▁kut": 4499,
      "▁yemeklerinden": 4500,
      "▁tezgah": 4501,
      "▁57": 4502,
      "▁azal": 4503,
      "▁rast": 4504,
      "▁alk": 4505,
      "▁ulastı": 4506,
      "▁yonetim": 4507,
      "▁yeryuz": 4508,
      "##aman": 4509,
      "▁alınması": 4510,
      "▁alacak": 4511,
      "##larımızı": 4512,
      "▁yıldır": 4513,
      "▁bilg": 4514,
      "▁gecir": 4515,
      "▁cem": 4516,
      "##elle": 4517,
      "##estir": 4518,
      "##ibar": 4519,
      "▁dı": 4520,
      "▁duruyor": 4521,
      "▁boyunca": 4522,
      "##du": 4523,
      "##ıyor": 4524,
      "▁artısla": 4525,
      "▁elbette": 4526,
      "▁sim": 4527,
      "▁patır": 4528,
      "##apolis": 4529,
      "▁aktif": 4530,
      "##ısız": 4531,
      "▁mill": 4532,
      "▁has": 4533,
      "▁dus": 4534,
      "##mesiyle": 4535,
      "▁kars": 4536,
      "▁nazik": 4537,
      "▁ticarette": 4538,
      "▁yine": 4539,
      "##us": 4540,
      "▁yirmi": 4541,
      "##miyordu": 4542,
      "▁karsılastır": 4543,
      "▁alım-satım": 4544,
      "▁boyle": 4545,
      "▁burn": 4546,
      "##gur": 4547,
      "▁haksız": 4548,
      "▁durak": 4549,
      "▁oturdu": 4550,
      "▁personelleri": 4551,
      "▁hissedar": 4552,
      "▁personeller": 4553,
      "▁mun": 4554,
      "##lis": 4555,
      "▁koruy": 4556,
      "##yen": 4557,
      "##ad": 4558,
      "##ayan": 4559,
      "▁posta": 4560,
      "▁ban": 4561,
      "▁paket": 4562,
      "##em": 4563,
      "▁bildir": 4564,
      "▁aj": 4565,
      "▁ucreti": 4566,
      "▁arkadas": 4567,
      "##or": 4568,
      "##eyebilir": 4569,
      "▁cıtır": 4570,
      "##alak": 4571,
      "##iyat": 4572,
      "▁washington'a": 4573,
      "▁tom": 4574,
      "▁baslamıs": 4575,
      "##ıldı": 4576,
      "▁yay": 4577,
      "##mel": 4578,
      "▁diler": 4579,
      "▁kisilik": 4580,
      "##malarına": 4581,
      "▁verildi": 4582,
      "▁yav": 4583,
      "▁sob": 4584,
      "▁gitti": 4585,
      "▁beyan": 4586,
      "▁anayas": 4587,
      "▁kalktı": 4588,
      "▁ner": 4589,
      "▁sinem": 4590,
      "▁birlestir": 4591,
      "▁galiba": 4592,
      "▁tarih": 4593,
      "▁0.7": 4594,
      "▁%10": 4595,
      "▁istedigim": 4596,
      "##ılmıstı": 4597,
      "▁dedik": 4598,
      "#": 4599,
      "##6": 4600,
      "▁cıyak": 4601,
      "▁finans": 4602,
      "##lanır": 4603,
      "▁sıv": 4604,
      "▁sayılır": 4605,
      "▁lt": 4606,
      "▁kes": 4607,
      "▁daha": 4608,
      "##iler": 4609,
      "▁yetmis": 4610,
      "▁cekir": 4611,
      "▁ettir": 4612,
      "▁vegas": 4613,
      "▁tefe": 4614,
      "▁suyun": 4615,
      "▁8.3": 4616,
      "▁danıs": 4617,
      "▁ortalam": 4618,
      "##eri": 4619,
      "##sim": 4620,
      "▁198": 4621,
      "▁ornek": 4622,
      "▁koltu": 4623,
      "▁kardes": 4624,
      "▁dagıt": 4625,
      "##'teki": 4626,
      "▁farkında": 4627,
      "▁oglum": 4628,
      "▁uzerinden": 4629,
      "▁rakam": 4630,
      "##all": 4631,
      "▁rekor": 4632,
      "▁bahc": 4633,
      "▁istedigi": 4634,
      "▁nesil": 4635,
      "##sinde": 4636,
      "##25": 4637,
      "▁alem": 4638,
      "▁cıkarıp": 4639,
      "▁prens": 4640,
      "▁taban": 4641,
      "##\\/8": 4642,
      "##asıyor": 4643,
      "##ilerin": 4644,
      "▁ustlen": 4645,
      "##ij": 4646,
      "##ven": 4647,
      "▁acıdan": 4648,
      "▁personellerin": 4649,
      "▁fena": 4650,
      "##ger": 4651,
      "▁adına": 4652,
      "▁bed": 4653,
      "##madan": 4654,
      "▁istiyorlar": 4655,
      "##mıs": 4656,
      "##ından": 4657,
      "▁boston": 4658,
      "##up": 4659,
      "▁muhtemel": 4660,
      "▁diger": 4661,
      "##lek": 4662,
      "##ılmıstır": 4663,
      "##ten": 4664,
      "##onun": 4665,
      "▁yuzlerce": 4666,
      "##wood": 4667,
      "##erv": 4668,
      "▁ordu": 4669,
      "##lardır": 4670,
      "▁ofk": 4671,
      "##gul": 4672,
      "##amiz": 4673,
      "▁uzun": 4674,
      "▁kek": 4675,
      "▁ekim": 4676,
      "▁kutup": 4677,
      "▁avustral": 4678,
      "▁baltimore'den": 4679,
      "▁jur": 4680,
      "▁bastan": 4681,
      "##sam": 4682,
      "##iyi": 4683,
      "▁kampanyalar": 4684,
      "▁for": 4685,
      "##66": 4686,
      "▁im": 4687,
      "▁3/": 4688,
      "▁kalabal": 4689,
      "▁artısı": 4690,
      "▁kis": 4691,
      "▁ener": 4692,
      "▁caba": 4693,
      "##tr": 4694,
      "▁tehlik": 4695,
      "▁ora": 4696,
      "▁gormuyor": 4697,
      "▁wall": 4698,
      "▁coktu": 4699,
      "▁sark": 4700,
      "▁county": 4701,
      "##alara": 4702,
      "▁pa": 4703,
      "##un": 4704,
      "▁tahvil": 4705,
      "##teki": 4706,
      "▁kosulları": 4707,
      "##uklum": 4708,
      "▁plaji": 4709,
      "▁superdi": 4710,
      "▁tarif": 4711,
      "##'li": 4712,
      "▁anay": 4713,
      "##ıf": 4714,
      "▁krizi": 4715,
      "▁dair": 4716,
      "##arlan": 4717,
      "##lenen": 4718,
      "▁is": 4719,
      "##lılık": 4720,
      "▁hedefi": 4721,
      "▁turist": 4722,
      "▁erken": 4723,
      "▁bilim": 4724,
      "▁56": 4725,
      "##erken": 4726,
      "▁istemedi": 4727,
      "▁anlam": 4728,
      "▁alıs": 4729,
      "▁beh": 4730,
      "▁les": 4731,
      "▁yık": 4732,
      "▁yeterince": 4733,
      "##gal": 4734,
      "▁gorunuyordu": 4735,
      "##ındaki": 4736,
      "▁dilek": 4737,
      "##ancı": 4738,
      "##uyor": 4739,
      "##deki": 4740,
      "▁cıkmıs": 4741,
      "▁uz": 4742,
      "##tek": 4743,
      "##esini": 4744,
      "▁edil": 4745,
      "▁cel": 4746,
      "##har": 4747,
      "##32": 4748,
      "▁dogr": 4749,
      "##cilerin": 4750,
      "##aladı": 4751,
      "▁kanat": 4752,
      "##cesi": 4753,
      "##ep": 4754,
      "##asyon": 4755,
      "▁8'den": 4756,
      "▁nelerdir": 4757,
      "##uste": 4758,
      "▁div": 4759,
      "##egi": 4760,
      "▁yanlıs": 4761,
      "▁135": 4762,
      "##lerinin": 4763,
      "▁250": 4764,
      "▁sagladı": 4765,
      "##ınc": 4766,
      "▁1980": 4767,
      "##tılı": 4768,
      "▁ilk": 4769,
      "▁yudum": 4770,
      "▁21": 4771,
      "▁perde": 4772,
      "▁kayıt": 4773,
      "▁seref": 4774,
      "▁sers": 4775,
      "##emin": 4776,
      "##mesinden": 4777,
      "▁oteli": 4778,
      "▁5-1": 4779,
      "##t": 4780,
      "▁itiraf": 4781,
      "▁ter": 4782,
      "##ecegimiz": 4783,
      "▁karın": 4784,
      "##izi": 4785,
      "9": 4786,
      "▁almıs": 4787,
      "##arson": 4788,
      "▁jour": 4789,
      "▁basladık": 4790,
      "▁satım": 4791,
      "▁7": 4792,
      "▁nedeniyle": 4793,
      "##ems": 4794,
      "##lamıs": 4795,
      "##iyer": 4796,
      "▁hadi": 4797,
      "▁mayıs": 4798,
      "##ıda": 4799,
      "▁%7.8": 4800,
      "▁sıkı": 4801,
      "##usuna": 4802,
      "▁haberdar": 4803,
      "##mekten": 4804,
      "▁dinliyor": 4805,
      "▁donustur": 4806,
      "▁kahvaltı": 4807,
      "▁kanı": 4808,
      "▁herkes": 4809,
      "▁omer": 4810,
      "▁anlas": 4811,
      "▁galib": 4812,
      "▁kusursuz": 4813,
      "##ecegi": 4814,
      "##uston": 4815,
      "##ların": 4816,
      "▁kısmı": 4817,
      "##od": 4818,
      "##mada": 4819,
      "▁hakik": 4820,
      "▁onem": 4821,
      "▁coktan": 4822,
      "▁beklent": 4823,
      "▁gal": 4824,
      "▁grub": 4825,
      "##aları": 4826,
      "▁kendisinin": 4827,
      "▁1.2": 4828,
      "▁paris": 4829,
      "▁louis'e": 4830,
      "▁surekli": 4831,
      "▁gorev": 4832,
      "▁suph": 4833,
      "▁ibaret": 4834,
      "▁verilm": 4835,
      "▁bıc": 4836,
      "▁ulke": 4837,
      "##.75": 4838,
      "▁eks": 4839,
      "##mar": 4840,
      "##ı": 4841,
      "▁dagı": 4842,
      "▁misiniz": 4843,
      "▁sıg": 4844,
      "▁ikibiniki": 4845,
      "##5000": 4846,
      "##ibe": 4847,
      "▁kahve": 4848,
      "▁hicbirinin": 4849,
      "▁yasal": 4850,
      "##ufur": 4851,
      "▁sauna": 4852,
      "##ond": 4853,
      "▁bilmiyorum": 4854,
      "▁bank": 4855,
      "▁duzenli": 4856,
      "▁nur": 4857,
      "▁cumhurbaskanı": 4858,
      "▁inc": 4859,
      "▁%8.2": 4860,
      "▁sınız": 4861,
      "▁ası": 4862,
      "▁yakalan": 4863,
      "▁oluyordu": 4864,
      "▁oteki": 4865,
      "▁yanına": 4866,
      "##ver": 4867,
      "▁cocuklara": 4868,
      "▁havayollarını": 4869,
      "##maz": 4870,
      "▁guleryuzlu": 4871,
      "##x": 4872,
      "▁vet": 4873,
      "▁%": 4874,
      "▁ka": 4875,
      "▁kuru": 4876,
      "##alarından": 4877,
      "▁sivil": 4878,
      "##mek": 4879,
      "##sızın": 4880,
      "▁vurdu": 4881,
      "▁haft": 4882,
      "▁hop": 4883,
      "▁ucak": 4884,
      "▁uslu": 4885,
      "##acak": 4886,
      "▁uvey": 4887,
      "▁kurulus": 4888,
      "##lerimi": 4889,
      "▁borsası": 4890,
      "▁ufak": 4891,
      "▁olu": 4892,
      "▁basarı": 4893,
      "##imli": 4894,
      "▁kopar": 4895,
      "##adet": 4896,
      "▁anlamına": 4897,
      "▁ucret": 4898,
      "▁cbs": 4899,
      "▁kıymetler": 4900,
      "▁mustafa": 4901,
      "▁calısır": 4902,
      "▁duserek": 4903,
      "##iniz": 4904,
      "▁14": 4905,
      "▁fır": 4906,
      "▁bile": 4907,
      "▁kasım": 4908,
      "##elerden": 4909,
      "▁harekete": 4910,
      "##;": 4911,
      "▁deneyim": 4912,
      "▁ogrenciler": 4913,
      "▁gev": 4914,
      "▁kontr": 4915,
      "▁'d": 4916,
      "▁doları'ndan": 4917,
      "##memisti": 4918,
      "▁kuv": 4919,
      "##2-23": 4920,
      "▁ero": 4921,
      "##ust": 4922,
      "▁idar": 4923,
      "▁satıcı": 4924,
      "##usunu": 4925,
      "▁north": 4926,
      "▁geliri": 4927,
      "▁mıs": 4928,
      "##20": 4929,
      "▁atlanta": 4930,
      "##uklu": 4931,
      "▁inanıyor": 4932,
      "▁icecek": 4933,
      "▁titr": 4934,
      "▁istemez": 4935,
      "▁basit": 4936,
      "▁ozen": 4937,
      "▁fiyat": 4938,
      "▁ikna": 4939,
      "▁ilginc": 4940,
      "▁portakal": 4941,
      "▁lideri": 4942,
      "▁kur": 4943,
      "##rub": 4944,
      "▁lisans": 4945,
      "▁ilgilen": 4946,
      "▁masaya": 4947,
      "▁dedim": 4948,
      "▁sonu": 4949,
      "▁acele": 4950,
      "▁parc": 4951,
      "▁soyley": 4952,
      "▁basvur": 4953,
      "▁ydı": 4954,
      "##.38": 4955,
      "▁isciler": 4956,
      "##re": 4957,
      "▁butce": 4958,
      "▁van": 4959,
      "▁kok": 4960,
      "▁aks": 4961,
      "▁fok": 4962,
      "##de": 4963,
      "##ina": 4964,
      "##aması": 4965,
      "▁alma": 4966,
      "##efe": 4967,
      "▁bugunku": 4968,
      "▁aralarında": 4969,
      "##pr": 4970,
      "▁cesit": 4971,
      "▁sırt": 4972,
      "▁basım": 4973,
      "##ustu": 4974,
      "▁nash": 4975,
      "##embe": 4976,
      "##sur": 4977,
      "##asın": 4978,
      "##diler": 4979,
      "▁taslar": 4980,
      "▁sıkır": 4981,
      "▁silah": 4982,
      "▁pet": 4983,
      "##imet": 4984,
      "##meyecek": 4985,
      "▁koz": 4986,
      "▁elli": 4987,
      "▁giydi": 4988,
      "▁tanrı": 4989,
      "##gah": 4990,
      "▁texas": 4991,
      "▁asam": 4992,
      "▁gecip": 4993,
      "▁ug": 4994,
      "▁olması": 4995,
      "▁gum": 4996,
      "##esif": 4997,
      "▁tuz": 4998,
      "▁acıklan": 4999,
      "##ladık": 5000,
      "▁dek": 5001,
      "▁eti": 5002,
      "##ve": 5003,
      "##st": 5004,
      "▁gidec": 5005,
      "##uga": 5006,
      "▁hatta": 5007,
      "▁esas": 5008,
      "##gıl": 5009,
      "▁degildir": 5010,
      "##diniz": 5011,
      "▁hepimiz": 5012,
      "▁tı": 5013,
      "##kun": 5014,
      "▁siv": 5015,
      "##uyorlardı": 5016,
      "▁bomb": 5017,
      "▁azdi": 5018,
      "##ortaj": 5019,
      "▁dısı": 5020,
      "▁hang": 5021,
      "##alım": 5022,
      "▁adet": 5023,
      "##oz": 5024,
      "▁olduklarını": 5025,
      "▁izm": 5026,
      "##alıgı": 5027,
      "▁bab": 5028,
      "##lerindeki": 5029,
      "▁hazırlan": 5030,
      "▁erkenden": 5031,
      "▁sonbahar": 5032,
      "▁alev": 5033,
      "▁californ": 5034,
      "▁oksur": 5035,
      "▁4": 5036,
      "▁nefret": 5037,
      "##ını": 5038,
      "▁pr": 5039,
      "##ımızdan": 5040,
      "##ayol": 5041,
      "▁taht": 5042,
      "▁bıcak": 5043,
      "▁egil": 5044,
      "▁edilmesi": 5045,
      "##ıklı": 5046,
      "▁adama": 5047,
      "▁kulub": 5048,
      "▁ecz": 5049,
      "▁seniz": 5050,
      "##agon": 5051,
      "▁radyo": 5052,
      "▁isine": 5053,
      "▁ileri": 5054,
      "▁dısında": 5055,
      "▁kalın": 5056,
      "▁2016": 5057,
      "▁iskonto": 5058,
      "▁kapas": 5059,
      "▁hisselerin": 5060,
      "##q": 5061,
      "##imini": 5062,
      "▁kaybet": 5063,
      "##mıyor": 5064,
      "##elim": 5065,
      "▁okul": 5066,
      "▁arastır": 5067,
      "▁actı": 5068,
      "▁stan": 5069,
      "▁mıy": 5070,
      "##ıy": 5071,
      "▁ihtiyacım": 5072,
      "▁zorunlu": 5073,
      "▁komut": 5074,
      "▁icin": 5075,
      "▁olun": 5076,
      "▁alıp": 5077,
      "▁balayi": 5078,
      "▁edilmis": 5079,
      "▁mumkun": 5080,
      "▁kım": 5081,
      "##ogram": 5082,
      "▁vek": 5083,
      "##line": 5084,
      "▁po": 5085,
      "▁manzarasi": 5086,
      "##ul": 5087,
      "##dan": 5088,
      "▁hapis": 5089,
      "##lamaya": 5090,
      "▁yuzluydu": 5091,
      "▁gelmedi": 5092,
      "##acagım": 5093,
      "▁kacak": 5094,
      "▁vermek": 5095,
      "##lil": 5096,
      "##dıg": 5097,
      "##00": 5098,
      "##.03": 5099,
      "▁ydık": 5100,
      "▁pahalı": 5101,
      "▁goturdu": 5102,
      "▁zira": 5103,
      "▁efsan": 5104,
      "▁the": 5105,
      "▁uyan": 5106,
      "▁sahip": 5107,
      "##°": 5108,
      "▁kopek": 5109,
      "##tia": 5110,
      "##siyonu": 5111,
      "▁politik": 5112,
      "##esinden": 5113,
      "▁zincir": 5114,
      "▁tatli": 5115,
      "▁barın": 5116,
      "▁boz": 5117,
      "▁bahsederim": 5118,
      "##lugu": 5119,
      "▁arkad": 5120,
      "▁ayda": 5121,
      "▁metre": 5122,
      "▁%3": 5123,
      "##ile": 5124,
      "▁anne": 5125,
      "▁islem": 5126,
      "##est": 5127,
      "▁ediyordu": 5128,
      "##ast": 5129,
      "▁mıydı": 5130,
      "▁katıldı": 5131,
      "##ciler": 5132,
      "▁ihr": 5133,
      "▁evinde": 5134,
      "##alardan": 5135,
      "##lemis": 5136,
      "▁dinlemek": 5137,
      "▁sigort": 5138,
      "▁dost": 5139,
      "▁geril": 5140,
      "▁kendime": 5141,
      "##ica": 5142,
      "▁gide": 5143,
      "▁giren": 5144,
      "▁attıgı": 5145,
      "▁fırıl": 5146,
      "▁vakıf": 5147,
      "▁225": 5148,
      "▁hak": 5149,
      "##ts": 5150,
      "▁seg": 5151,
      "▁gelistir": 5152,
      "▁ettim": 5153,
      "▁ahlak": 5154,
      "▁stand": 5155,
      "▁emek": 5156,
      "▁yola": 5157,
      "▁gun": 5158,
      "▁rahatsız": 5159,
      "▁piyasalar": 5160,
      "▁japonya": 5161,
      "##oy": 5162,
      "##ladım": 5163,
      "##lerini": 5164,
      "▁sut": 5165,
      "▁ort": 5166,
      "▁kong": 5167,
      "▁dev": 5168,
      "▁temet": 5169,
      "▁altında": 5170,
      "▁lev": 5171,
      "▁ortalama": 5172,
      "##ıyorum": 5173,
      "▁ın": 5174,
      "##ez": 5175,
      "▁0.": 5176,
      "▁tuv": 5177,
      "▁tedarik": 5178,
      "▁bicimde": 5179,
      "▁dolap": 5180,
      "▁canı": 5181,
      "##rak": 5182,
      "▁yam": 5183,
      "##ilmesini": 5184,
      "▁zarf": 5185,
      "▁naci": 5186,
      "▁birik": 5187,
      "##vik": 5188,
      "▁teknoloj": 5189,
      "▁anlasma": 5190,
      "▁ofis": 5191,
      "##muz": 5192,
      "##do": 5193,
      "▁vic": 5194,
      "▁belirsiz": 5195,
      "▁tamam": 5196,
      "▁sozler": 5197,
      "▁buraya": 5198,
      "##kah": 5199,
      "▁karsı": 5200,
      "##eledi": 5201,
      "▁islemlerde": 5202,
      "▁sahne": 5203,
      "##amı": 5204,
      "▁cez": 5205,
      "▁ediyoruz": 5206,
      "▁ettigi": 5207,
      "##emmel": 5208,
      "##lerimiz": 5209,
      "##ligin": 5210,
      "▁ongor": 5211,
      "▁personellerinden": 5212,
      "▁mahkum": 5213,
      "▁subat": 5214,
      "▁kirp": 5215,
      "##ok": 5216,
      "▁yer": 5217,
      "▁cleveland": 5218,
      "▁65": 5219,
      "▁derhal": 5220,
      "▁diy": 5221,
      "##ulur": 5222,
      "▁para": 5223,
      "▁piyasada": 5224,
      "▁durumu": 5225,
      "▁cig": 5226,
      "▁gaz": 5227,
      "▁teknik": 5228,
      "▁otelden": 5229,
      "▁borcu": 5230,
      "▁turk": 5231,
      "##ani": 5232,
      "▁ep": 5233,
      "▁orlando'dan": 5234,
      "##an": 5235,
      "▁ham": 5236,
      "▁cıkınca": 5237,
      "▁icinde": 5238,
      "##masız": 5239,
      "##dular": 5240,
      "▁almak": 5241,
      "▁airlin": 5242,
      "##—": 5243,
      "▁uzer": 5244,
      "▁ariz": 5245,
      "##dav": 5246,
      "▁ser": 5247,
      "▁homur": 5248,
      "##imde": 5249,
      "▁kabar": 5250,
      "▁sefer": 5251,
      "▁a.b.": 5252,
      "▁karsil": 5253,
      "##ong": 5254,
      "▁pam": 5255,
      "▁atesi": 5256,
      "▁78": 5257,
      "▁gozler": 5258,
      "▁memphis'ten": 5259,
      "▁yanıt": 5260,
      "##emez": 5261,
      "▁kafa": 5262,
      "##asıyla": 5263,
      "##ow": 5264,
      "▁gibi": 5265,
      "▁eglenceli": 5266,
      "▁istem": 5267,
      "▁ucuyor": 5268,
      "▁yuzyıl": 5269,
      "▁%8": 5270,
      "▁kopru": 5271,
      "▁dogan": 5272,
      "▁og": 5273,
      "##eliydi": 5274,
      "##liler": 5275,
      "▁hizmetinden": 5276,
      "▁suresi": 5277,
      "▁kel": 5278,
      "▁kalabalık": 5279,
      "▁terbiy": 5280,
      "▁dum": 5281,
      "▁market": 5282,
      "▁cozum": 5283,
      "▁charlotte'den": 5284,
      "##cılar": 5285,
      "##eti": 5286,
      "▁miras": 5287,
      "##gini": 5288,
      "##dut": 5289,
      "▁dikkatli": 5290,
      "▁51": 5291,
      "▁yurtdı": 5292,
      "▁birligi": 5293,
      "▁tencer": 5294,
      "▁nicin": 5295,
      "▁ydım": 5296,
      "▁4.9": 5297,
      "▁ok": 5298,
      "##ılıyor": 5299,
      "▁atlanta'dan": 5300,
      "##ash": 5301,
      "##ayıp": 5302,
      "▁tekn": 5303,
      "▁hayatı": 5304,
      "##47": 5305,
      "##elik": 5306,
      "▁karı": 5307,
      "▁415": 5308,
      "##vet": 5309,
      "▁op": 5310,
      "▁ismi": 5311,
      "▁lık": 5312,
      "##isle": 5313,
      "▁yapıs": 5314,
      "▁sırtında": 5315,
      "▁kimi": 5316,
      "▁denen": 5317,
      "▁muy": 5318,
      "▁sol": 5319,
      "▁yoksa": 5320,
      "▁yiyecek": 5321,
      "▁erdog": 5322,
      "▁komp": 5323,
      "▁dogrudan": 5324,
      "▁bazıların": 5325,
      "▁fel": 5326,
      "▁aktar": 5327,
      "▁ince": 5328,
      "▁yapmayı": 5329,
      "▁dert": 5330,
      "▁sayısı": 5331,
      "▁yatırımcı": 5332,
      "▁plastik": 5333,
      "▁duvar": 5334,
      "▁karsıya": 5335,
      "▁co.": 5336,
      "##sat": 5337,
      "##rik": 5338,
      "##onu": 5339,
      "▁keskin": 5340,
      "▁edebil": 5341,
      "▁ontari": 5342,
      "▁ikimiz": 5343,
      "▁olmus": 5344,
      "▁tekrar": 5345,
      "▁soylediler": 5346,
      "##ahmet": 5347,
      "▁esir": 5348,
      ",": 5349,
      "▁kalmadı": 5350,
      "▁sair": 5351,
      "##uluk": 5352,
      "▁ittif": 5353,
      "▁olmayacak": 5354,
      "##emis": 5355,
      "##eyip": 5356,
      "▁kıtır": 5357,
      "##aki": 5358,
      "▁ceh": 5359,
      "▁hitap": 5360,
      "##lul": 5361,
      "##oloji": 5362,
      "##macı": 5363,
      "▁skan": 5364,
      "▁genel": 5365,
      "▁ufakti": 5366,
      "▁las": 5367,
      "▁1991-19": 5368,
      "▁milwaukee": 5369,
      "▁onceden": 5370,
      "##kei": 5371,
      "▁devr": 5372,
      "##35": 5373,
      "##ud": 5374,
      "▁acıldı": 5375,
      "##lıktan": 5376,
      "##dek": 5377,
      "▁-": 5378,
      "##lar": 5379,
      "▁tas": 5380,
      "▁yazı": 5381,
      "##a'nın": 5382,
      "▁pes": 5383,
      "▁sovyetler": 5384,
      "▁sak": 5385,
      "▁birdenbire": 5386,
      "##egen": 5387,
      "##likle": 5388,
      "▁bakır": 5389,
      "##ate": 5390,
      "▁ves": 5391,
      "▁nob": 5392,
      "▁2.5": 5393,
      "▁doksan": 5394,
      "▁genis": 5395,
      "▁isvicre": 5396,
      "▁konustu": 5397,
      "##a": 5398,
      "▁yasak": 5399,
      "▁onsekiz": 5400,
      "▁varan": 5401,
      "▁sehr": 5402,
      "▁ibrahim": 5403,
      "▁perd": 5404,
      "▁bocek": 5405,
      "▁soluk": 5406,
      "▁dunyayı": 5407,
      "▁ilac": 5408,
      "▁aday": 5409,
      "▁kak": 5410,
      "##nız": 5411,
      "▁pazar": 5412,
      "##yuz": 5413,
      "▁duyg": 5414,
      "▁united": 5415,
      "▁gold": 5416,
      "▁obur": 5417,
      "▁arzu": 5418,
      "##ol": 5419,
      "▁gelsin": 5420,
      "▁gor": 5421,
      "▁halbuki": 5422,
      "▁yardımcısı": 5423,
      "##ig": 5424,
      "▁devam": 5425,
      "##digine": 5426,
      "▁halk": 5427,
      "▁rakamlar": 5428,
      "▁atmak": 5429,
      "▁edec": 5430,
      "[CLS]": 5431,
      "’": 5432,
      "▁wash": 5433,
      "▁ama": 5434,
      "▁suc": 5435,
      "##mal": 5436,
      "##daydı": 5437,
      "##alet": 5438,
      "▁pus": 5439,
      "##o": 5440,
      "##gine": 5441,
      "▁yukselerek": 5442,
      "▁bulabilir": 5443,
      "▁kıbr": 5444,
      "▁'lu": 5445,
      "▁rahatti": 5446,
      "▁yildiz": 5447,
      "##mayın": 5448,
      "##d.": 5449,
      "▁sandal": 5450,
      "##ecekler": 5451,
      "▁annemin": 5452,
      "##tari": 5453,
      "##ot": 5454,
      "##ıldır": 5455,
      "▁2.9": 5456,
      "▁mu": 5457,
      "##lan": 5458,
      "▁sizi": 5459,
      "▁gunluk": 5460,
      "▁asır": 5461,
      "##liginden": 5462,
      "▁ice": 5463,
      "##meli": 5464,
      "##ham": 5465,
      "▁kendinden": 5466,
      "▁%3.4": 5467,
      "##usu": 5468,
      "▁zamanlarda": 5469,
      "▁takdir": 5470,
      "▁hal": 5471,
      "▁uygulam": 5472,
      "▁systems": 5473,
      "▁dahil": 5474,
      "##teb": 5475,
      "▁uy": 5476,
      "##leyin": 5477,
      "▁taze": 5478,
      "▁turku": 5479,
      "▁degiliz": 5480,
      "▁es": 5481,
      "▁kendinizi": 5482,
      "▁70": 5483,
      "▁cumhuriyet": 5484,
      "##'le": 5485,
      "##eginden": 5486,
      "▁teklif": 5487,
      "▁savas": 5488,
      "▁355": 5489,
      "▁gider": 5490,
      "▁mahall": 5491,
      "##mer": 5492,
      "##larını": 5493,
      "1": 5494,
      "▁edin": 5495,
      "##lanma": 5496,
      "▁profes": 5497,
      "▁sergil": 5498,
      "##ahtar": 5499,
      "▁yasat": 5500,
      "##etik": 5501,
      "▁italyan": 5502,
      "▁egit": 5503,
      "▁birbirimize": 5504,
      "▁ec": 5505,
      "▁unit": 5506,
      "##kanın": 5507,
      "▁aslan": 5508,
      "▁milyar": 5509,
      "##ende": 5510,
      "▁iyilestir": 5511,
      "##tak": 5512,
      "##emedim": 5513,
      "##eet": 5514,
      "▁baslı": 5515,
      "▁sekiz": 5516,
      "▁bireysel": 5517,
      "##arik": 5518,
      "▁isterim": 5519,
      "##cık": 5520,
      "▁yıl": 5521,
      "##adelphia": 5522,
      "▁yerini": 5523,
      "▁bolge": 5524,
      "▁gormedim": 5525,
      "##yız": 5526,
      "▁meyv": 5527,
      "▁karmas": 5528,
      "##si": 5529,
      "▁faal": 5530,
      "▁kalit": 5531,
      "▁yaygın": 5532,
      "▁ana": 5533,
      "▁gorul": 5534,
      "▁gemi": 5535,
      "##distan": 5536,
      "##abilirdi": 5537,
      "##'de": 5538,
      "##ustum": 5539,
      "▁boston'dan": 5540,
      "▁gectigimiz": 5541,
      "▁aktarma": 5542,
      "▁ayrıca": 5543,
      "▁kayı": 5544,
      "▁aksine": 5545,
      "▁hiz": 5546,
      "▁ekonomi": 5547,
      "##bah": 5548,
      "▁agabey": 5549,
      "##amet": 5550,
      "▁sanat": 5551,
      "▁kanal": 5552,
      "▁bulmadim": 5553,
      "▁sona": 5554,
      "▁beklentim": 5555,
      "▁yakal": 5556,
      "##usal": 5557,
      "▁bilinen": 5558,
      "▁limon": 5559,
      "▁yukselt": 5560,
      "▁kisisel": 5561,
      "▁gidiyoruz": 5562,
      "▁iceriyor": 5563,
      "▁odanin": 5564,
      "▁tarafa": 5565,
      "▁satan": 5566,
      "##-p": 5567,
      "▁kı": 5568,
      "▁yildizli": 5569,
      "▁yetk": 5570,
      "▁soz": 5571,
      "##digim": 5572,
      "▁kilit": 5573,
      "▁denet": 5574,
      "▁basa": 5575,
      "▁soru": 5576,
      "##dık": 5577,
      "▁fatih": 5578,
      "▁verecek": 5579,
      "▁fazlas": 5580,
      "##ormal": 5581,
      "##isik": 5582,
      "▁ilet": 5583,
      "##acag": 5584,
      "▁denver'de": 5585,
      "▁kendi": 5586,
      "▁olcude": 5587,
      "▁zek": 5588,
      "##.43": 5589,
      "▁kokusu": 5590,
      "▁el": 5591,
      "▁satılan": 5592,
      "▁vur": 5593,
      "▁seksen": 5594,
      "##ecegiz": 5595,
      "▁calar": 5596,
      "▁vapur": 5597,
      "▁seviy": 5598,
      "▁ederiz": 5599,
      "▁uydur": 5600,
      "▁elim": 5601,
      "▁suz": 5602,
      "▁petersburg": 5603,
      "▁dusunce": 5604,
      "▁eden": 5605,
      "##makta": 5606,
      "▁resmi": 5607,
      "▁32": 5608,
      "▁tanı": 5609,
      "▁5'ten": 5610,
      "▁geldigini": 5611,
      "▁sorum": 5612,
      "##cular": 5613,
      "▁etmis": 5614,
      "▁bugune": 5615,
      "▁normal": 5616,
      "▁tef": 5617,
      "▁kisilerin": 5618,
      "▁ları": 5619,
      "##65": 5620,
      "▁vakit": 5621,
      "▁ithal": 5622,
      "▁burbank": 5623,
      "▁''": 5624,
      "▁#": 5625,
      "▁ates": 5626,
      "▁jones": 5627,
      "▁washington'dan": 5628,
      "▁gokyuz": 5629,
      "##ırtı": 5630,
      "▁seni": 5631,
      "##leniyor": 5632,
      "▁kısmını": 5633,
      "▁lub": 5634,
      "##madıgını": 5635,
      "▁bulunan": 5636,
      "▁20": 5637,
      "##.52": 5638,
      "▁care": 5639,
      "▁ucusa": 5640,
      "​": 5641,
      "▁yurut": 5642,
      "▁1990": 5643,
      "##edef": 5644,
      "▁basar": 5645,
      "##ta": 5646,
      "##larım": 5647,
      "##eydi": 5648,
      "▁bodrum": 5649,
      "▁nokt": 5650,
      "▁gidebilir": 5651,
      "▁edir": 5652,
      "▁havayollarının": 5653,
      "▁ayar": 5654,
      "##stems": 5655,
      "##iz": 5656,
      "▁konusur": 5657,
      "▁kızı": 5658,
      "##lyon": 5659,
      "▁cesitli": 5660,
      "▁sapır": 5661,
      "▁senet": 5662,
      "▁neler": 5663,
      "##leyerek": 5664,
      "▁1000": 5665,
      "##alt": 5666,
      "▁gunku": 5667,
      "▁usul": 5668,
      "##.25": 5669,
      "##lass": 5670,
      "▁annesi": 5671,
      "▁merkezi": 5672,
      "▁karısı": 5673,
      "##kara": 5674,
      "▁tadi": 5675,
      "▁kesti": 5676,
      "##ıcık": 5677,
      "▁american": 5678,
      "▁kalacak": 5679,
      "##lenir": 5680,
      "##id": 5681,
      "▁temmuz": 5682,
      "▁ucuz": 5683,
      "##ırıl": 5684,
      "▁takip": 5685,
      "▁zaf": 5686,
      "▁gormez": 5687,
      "▁gerceklestir": 5688,
      "▁recep": 5689,
      "▁eskiden": 5690,
      "▁katkı": 5691,
      "▁dans": 5692,
      "##isiz": 5693,
      "▁gunleri": 5694,
      "▁rol": 5695,
      "▁tu": 5696,
      "▁sah": 5697,
      "##uldugunu": 5698,
      "▁saldır": 5699,
      "▁emekli": 5700,
      "▁tey": 5701,
      "▁mini": 5702,
      "##'ta": 5703,
      "##ahi": 5704,
      "▁olusan": 5705,
      "##son": 5706,
      "d": 5707,
      "▁impar": 5708,
      "##yalı": 5709,
      "▁gumus": 5710,
      "▁oranında": 5711,
      "##wn": 5712,
      "▁ugr": 5713,
      "▁15": 5714,
      "▁ısıl": 5715,
      "▁mulk": 5716,
      "##timore": 5717,
      "▁mahkem": 5718,
      "▁yararlan": 5719,
      "▁felsef": 5720,
      "▁dondu": 5721,
      "▁86": 5722,
      "▁adalet": 5723,
      "##sini": 5724,
      "▁bilgisay": 5725,
      "▁devletin": 5726,
      "▁degisiklik": 5727,
      "▁besyuz": 5728,
      "▁ot": 5729,
      "▁mit": 5730,
      "▁kam": 5731,
      "▁adlı": 5732,
      "▁hepsi": 5733,
      "##gılan": 5734,
      "▁95": 5735,
      "▁geriye": 5736,
      "▁bardak": 5737,
      "▁kendimiz": 5738,
      "##egim": 5739,
      "##ulugun": 5740,
      "▁muhim": 5741,
      "▁oradan": 5742,
      "▁donan": 5743,
      "▁herhangi": 5744,
      "▁birbiri": 5745,
      "##sa": 5746,
      "▁mutfak": 5747,
      "▁dig": 5748,
      "##memis": 5749,
      "\"": 5750,
      "▁jon": 5751,
      "▁verir": 5752,
      "▁vasıtasıyla": 5753,
      "▁acılan": 5754,
      "▁cor": 5755,
      "▁ceyrek": 5756,
      "▁sehrin": 5757,
      "▁paz": 5758,
      "▁katil": 5759,
      "▁aylık": 5760,
      "▁suk": 5761,
      "▁ogrenmek": 5762,
      "▁.'": 5763,
      "▁ihal": 5764,
      "##ın": 5765,
      "▁baslan": 5766,
      "▁trans": 5767,
      "▁verin": 5768,
      "▁ortak": 5769,
      "##tra": 5770,
      "▁konforu": 5771,
      "▁iyiydi": 5772,
      "▁birim": 5773,
      "▁lez": 5774,
      "▁tampa": 5775,
      "▁fıkı": 5776,
      "##mac": 5777,
      "▁ucusları": 5778,
      "▁nice": 5779,
      "##une": 5780,
      "##gelelim": 5781,
      "▁beyaz": 5782,
      "##elli": 5783,
      "▁3.4": 5784,
      "##osu": 5785,
      "##ekim": 5786,
      "##isindan": 5787,
      "##ulu": 5788,
      "`": 5789,
      "▁zarar": 5790,
      "▁yasayan": 5791,
      "▁aksam": 5792,
      "##luluk": 5793,
      "▁mag": 5794,
      "▁fay": 5795,
      "▁kendinize": 5796,
      "▁davet": 5797,
      "##mustu": 5798,
      "▁agustos": 5799,
      "##100": 5800,
      "▁list": 5801,
      "▁sevdigi": 5802,
      "“": 5803,
      "##rika": 5804,
      "##mey": 5805,
      "▁yaklas": 5806,
      "▁kesildi": 5807,
      "▁76": 5808,
      "▁mak": 5809,
      "▁fikri": 5810,
      "##lasyon": 5811,
      "##?": 5812,
      "▁yız": 5813,
      "##oh": 5814,
      "▁fon": 5815,
      "▁anlayıs": 5816,
      "▁endi": 5817,
      "▁ikti": 5818,
      "▁spor": 5819,
      "▁meden": 5820,
      "##ra": 5821,
      "▁havaliman": 5822,
      "▁olmam": 5823,
      "▁doy": 5824,
      "▁58": 5825,
      "▁marj": 5826,
      "▁serb": 5827,
      "▁karsılas": 5828,
      "##alarının": 5829,
      "▁phil": 5830,
      "▁saskın": 5831,
      "▁curuk": 5832,
      "▁kıyaslan": 5833,
      "▁dallas'tan": 5834,
      "▁odedigim": 5835,
      "##mu": 5836,
      "▁aileler": 5837,
      "▁saatlerce": 5838,
      "▁sev": 5839,
      "##laka": 5840,
      "▁elden": 5841,
      "▁insan": 5842,
      "▁zorlu": 5843,
      "▁hev": 5844,
      "▁guven": 5845,
      "▁elektrik": 5846,
      "▁hes": 5847,
      "##ding": 5848,
      "▁pro": 5849,
      "▁birlikte": 5850,
      "▁etmistir": 5851,
      "▁etmektedir": 5852,
      "▁tertemiz": 5853,
      "▁mot": 5854,
      "▁gorunce": 5855,
      "##anda": 5856,
      "▁finansal": 5857,
      "▁teminat": 5858,
      "##=": 5859,
      "▁zev": 5860,
      "##bucuk": 5861,
      "▁kurumsal": 5862,
      "▁sokakta": 5863,
      "▁siparis": 5864,
      "##'ndan": 5865,
      "▁la": 5866,
      "##hut": 5867,
      "▁worth": 5868,
      "▁denk": 5869,
      "▁afrika": 5870,
      "▁coban": 5871,
      "##dik": 5872,
      "▁fıkır": 5873,
      "##ında": 5874,
      "▁baba": 5875,
      "##yal": 5876,
      "##has": 5877,
      "##rah": 5878,
      "▁mekan": 5879,
      "▁uluslararası": 5880,
      "▁beye": 5881,
      "▁bagıs": 5882,
      "##\"": 5883,
      "▁ır": 5884,
      "▁katılım": 5885,
      "##masında": 5886,
      "▁iyimser": 5887,
      "▁kendimizi": 5888,
      "##isinin": 5889,
      "▁sabit": 5890,
      "##lattı": 5891,
      "▁ler": 5892,
      "##ılabilir": 5893,
      "▁duzenlem": 5894,
      "■": 5895,
      "▁senator": 5896,
      "##da": 5897,
      "▁ayhan": 5898,
      "▁gam": 5899,
      "##edir": 5900,
      "▁haftalık": 5901,
      "▁'nin": 5902,
      "▁sezon": 5903,
      "##alar": 5904,
      "▁yuruy": 5905,
      "▁yanak": 5906,
      "▁mermer": 5907,
      "▁merak": 5908,
      "▁zengin": 5909,
      "##8'den": 5910,
      "▁cıl": 5911,
      "▁yuklu": 5912,
      "▁kosk": 5913,
      "▁dolay": 5914,
      "##'nın": 5915,
      "▁gr": 5916,
      "▁sirketlerin": 5917,
      "▁aykırı": 5918,
      "▁seattle'ye": 5919,
      "▁car": 5920,
      "▁%6.9": 5921,
      "▁soyler": 5922,
      "##ever": 5923,
      "▁emtia": 5924,
      "##of": 5925,
      "▁yar": 5926,
      "▁sabaha": 5927,
      "##9-": 5928,
      "▁dile": 5929,
      "u": 5930,
      "▁gelince": 5931,
      "▁hepsin": 5932,
      "!": 5933,
      "▁bat": 5934,
      "▁masraf": 5935,
      "▁reh": 5936,
      "▁dergi": 5937,
      "▁yuregi": 5938,
      "▁erkekler": 5939,
      "s": 5940,
      "##rar": 5941,
      "▁hijyenik": 5942,
      "▁4.6": 5943,
      "▁guc": 5944,
      "▁di": 5945,
      "▁istasyon": 5946,
      "▁kaliteliydi": 5947,
      "▁kendine": 5948,
      "##yası": 5949,
      "##imden": 5950,
      "##raj": 5951,
      "##lli": 5952,
      "▁gucu": 5953,
      "▁size": 5954,
      "▁olay": 5955,
      "##ilerek": 5956,
      "##sun": 5957,
      "▁boynun": 5958,
      "##…": 5959,
      "▁begendik": 5960,
      "##9.3": 5961,
      "▁rez": 5962,
      "▁alıcı": 5963,
      "▁tesisti": 5964,
      "▁masanın": 5965,
      "▁seri": 5966,
      "▁deneme": 5967,
      "▁%3.": 5968,
      "▁james": 5969,
      "▁azınlık": 5970,
      "▁mesut": 5971,
      "▁hepimizin": 5972,
      "▁geciyor": 5973,
      "▁tiril": 5974,
      "##ulması": 5975,
      "▁kuy": 5976,
      "▁korkut": 5977,
      "##liginin": 5978,
      "▁satıl": 5979,
      "▁muda": 5980,
      "▁luks": 5981,
      "▁fer": 5982,
      "▁rakip": 5983,
      "▁yalnızca": 5984,
      "▁gitmem": 5985,
      "▁ucuslarının": 5986,
      "▁kıs": 5987,
      "▁demokrat": 5988,
      "▁takımı": 5989,
      "▁bil": 5990,
      "▁tesekkurler": 5991,
      "▁89-": 5992,
      "##acı": 5993,
      "##maktadır": 5994,
      "▁dondur": 5995,
      "▁magaz": 5996,
      "##melerini": 5997,
      "▁rolu": 5998,
      "▁koydu": 5999,
      "▁sap": 6000,
      "##.9": 6001,
      "▁mesel": 6002,
      "##isli": 6003,
      "▁yerlerde": 6004,
      "▁9.8": 6005,
      "▁hakkındaki": 6006,
      "▁cıkıp": 6007,
      "▁hicbirini": 6008,
      "##yor": 6009,
      "'": 6010,
      "##amam": 6011,
      "▁uretic": 6012,
      "▁minneapolis'e": 6013,
      "▁becer": 6014,
      "▁gidip": 6015,
      "##dal": 6016,
      "▁derg": 6017,
      "▁animasyonlar": 6018,
      "##det": 6019,
      "##.65": 6020,
      "##masın": 6021,
      "▁tampa'ya": 6022,
      "▁goruyor": 6023,
      "▁demokr": 6024,
      "▁ismini": 6025,
      "▁blok": 6026,
      "▁istikrar": 6027,
      "##ladılar": 6028,
      "##)": 6029,
      "▁kır": 6030,
      "z": 6031,
      "▁ekipman": 6032,
      "▁fak": 6033,
      "▁model": 6034,
      "▁kapı": 6035,
      "▁adı": 6036,
      "▁gayrim": 6037,
      "▁verdim": 6038,
      "▁mas": 6039,
      "▁zamana": 6040,
      "▁iken": 6041,
      "##ersin": 6042,
      "▁huc": 6043,
      "▁ola": 6044,
      "▁bany": 6045,
      "▁kara": 6046,
      "▁“": 6047,
      "▁toplantı": 6048,
      "▁duny": 6049,
      "▁havalim": 6050,
      "##oker": 6051,
      "▁insanlara": 6052,
      "##ley": 6053,
      "▁sanki": 6054,
      "▁gotur": 6055,
      "##mıstı": 6056,
      "##ustos": 6057,
      "▁havada": 6058,
      "▁yen'den": 6059,
      "▁eg": 6060,
      "▁ocak": 6061,
      "▁saatleri": 6062,
      "##gec": 6063,
      "▁ala": 6064,
      "▁dım": 6065,
      "▁cub": 6066,
      "▁asa": 6067,
      "▁yapmaya": 6068,
      "▁gorevl": 6069,
      "##iti": 6070,
      "▁etkili": 6071,
      "##isse": 6072,
      "▁sart": 6073,
      "▁rev": 6074,
      "▁tanıt": 6075,
      "▁ucretleri": 6076,
      "##ental": 6077,
      "▁endeksi": 6078,
      "▁fransız": 6079,
      "##tiler": 6080,
      "▁bıraktı": 6081,
      "▁hale": 6082,
      "▁gereken": 6083,
      "▁dogrusu": 6084,
      "##ova": 6085,
      "##dıkca": 6086,
      "▁birin": 6087,
      "▁ster": 6088,
      "▁nor": 6089,
      "▁yardımcı": 6090,
      "▁oysa": 6091,
      "▁univ": 6092,
      "##artman": 6093,
      "▁gecirdi": 6094,
      "##lıdır": 6095,
      "▁uzum": 6096,
      "▁sy": 6097,
      "##imleri": 6098,
      "##eyal": 6099,
      "▁meslek": 6100,
      "▁mily": 6101,
      "▁havalimanı": 6102,
      "▁cıvıl": 6103,
      "##os": 6104,
      "▁con": 6105,
      "▁vakti": 6106,
      "▁1/4": 6107,
      "##alarını": 6108,
      "##ustuk": 6109,
      "▁diyerek": 6110,
      "##-22:30": 6111,
      "##mez": 6112,
      "▁yandan": 6113,
      "▁ayaga": 6114,
      "▁bayrak": 6115,
      "▁ibm": 6116,
      "▁sırasında": 6117,
      "▁bunlardan": 6118,
      "##undaki": 6119,
      "##ano": 6120,
      "▁yasar": 6121,
      "▁laf": 6122,
      "##ih": 6123,
      "▁saatlerinde": 6124,
      "▁kısıt": 6125,
      "▁newark'tan": 6126,
      "▁donus": 6127,
      "▁kamu": 6128,
      "▁ihracat": 6129,
      "##egini": 6130,
      "▁gorustuk": 6131,
      "▁145": 6132,
      "▁abd": 6133,
      "##lerinden": 6134,
      "▁ca": 6135,
      "##av": 6136,
      "▁rop": 6137,
      "▁servisi": 6138,
      "▁televizyon": 6139,
      "▁aksama": 6140,
      "##gır": 6141,
      "▁yapıp": 6142,
      "▁gittikce": 6143,
      "▁mide": 6144,
      "▁ydi": 6145,
      "▁13.": 6146,
      "##umda": 6147,
      "▁kaliforniya": 6148,
      "▁kagı": 6149,
      "##alap": 6150,
      "▁bu": 6151,
      "▁kay": 6152,
      "▁onda": 6153,
      "▁ide": 6154,
      "▁hos": 6155,
      "▁li": 6156,
      "▁karsılıklı": 6157,
      "▁degerli": 6158,
      "##ron": 6159,
      "##lasıyor": 6160,
      "▁kose": 6161,
      "—": 6162,
      "▁belli": 6163,
      "▁tarihi": 6164,
      "▁dedigi": 6165,
      "▁185": 6166,
      "##ayım": 6167,
      "▁rady": 6168,
      "▁bisik": 6169,
      "▁se": 6170,
      "▁etkin": 6171,
      "▁resep": 6172,
      "▁sevgil": 6173,
      "▁patlı": 6174,
      "▁2": 6175,
      "▁kalkar": 6176,
      "▁izliyor": 6177,
      "▁dortyuz": 6178,
      "▁dısarıya": 6179,
      "▁dallas'a": 6180,
      "▁gozuk": 6181,
      "▁gerektir": 6182,
      "##mesin": 6183,
      "▁bıy": 6184,
      "▁gormus": 6185,
      "a": 6186,
      "▁kalkıyor": 6187,
      "▁iceriye": 6188,
      "▁inti": 6189,
      "##sef": 6190,
      "▁olustur": 6191,
      "▁alımı": 6192,
      "▁fazlay": 6193,
      "▁amma": 6194,
      "▁ı": 6195,
      "▁sozleri": 6196,
      "##ımın": 6197,
      "▁karayolu": 6198,
      "▁hom": 6199,
      "▁od": 6200,
      "▁mevz": 6201,
      "▁aralık": 6202,
      "▁koca": 6203,
      "##amm": 6204,
      "▁yararlı": 6205,
      "▁doları'na": 6206,
      "▁universitesi": 6207,
      "##medigi": 6208,
      "▁sakın": 6209,
      "##umlu": 6210,
      "▁maz": 6211,
      "▁salı": 6212,
      "▁yan": 6213,
      "##$": 6214,
      "▁matem": 6215,
      "▁istedigini": 6216,
      "##anları": 6217,
      "▁7\\/8": 6218,
      "▁isk": 6219,
      "▁montre": 6220,
      "▁ulas": 6221,
      "##orta": 6222,
      "##iforn": 6223,
      "▁hassas": 6224,
      "▁tuc": 6225,
      "▁%7": 6226,
      "##ment": 6227,
      "▁personeli": 6228,
      "▁tasarruf": 6229,
      "##unde": 6230,
      "▁suredir": 6231,
      "##lerdeki": 6232,
      "▁sade": 6233,
      "##larken": 6234,
      "▁houston'a": 6235,
      "##ke": 6236,
      "▁kapıdan": 6237,
      "▁uyesi": 6238,
      "▁devral": 6239,
      "##dugunu": 6240,
      "▁detroit'ten": 6241,
      "▁huz": 6242,
      "▁lab": 6243,
      "##ai": 6244,
      "##8'de": 6245,
      "▁bush": 6246,
      "▁vucud": 6247,
      "##ew": 6248,
      "▁salat": 6249,
      "▁tacoma'ya": 6250,
      "▁vardı": 6251,
      "##'yi": 6252,
      "▁cont": 6253,
      "▁islemi": 6254,
      "▁ib": 6255,
      "▁bagır": 6256,
      "▁orlando": 6257,
      "▁uf": 6258,
      "##ont": 6259,
      "▁ber": 6260,
      "▁kaynak": 6261,
      "##te": 6262,
      "▁bal": 6263,
      "##iliyordu": 6264,
      "▁degistir": 6265,
      "▁sunu": 6266,
      "▁basında": 6267,
      "▁turkiye'nin": 6268,
      "▁yedek": 6269,
      "##ock": 6270,
      "##ington": 6271,
      "##irim": 6272,
      "##uyla": 6273,
      "▁bakın": 6274,
      "▁*": 6275,
      "▁268": 6276,
      "▁sorumlu": 6277,
      "▁esya": 6278,
      "▁acısından": 6279,
      "▁sallan": 6280,
      "##be": 6281,
      "▁dususle": 6282,
      "▁karsıl": 6283,
      "▁dc'den": 6284,
      "▁tim": 6285,
      "▁tiyat": 6286,
      "▁egem": 6287,
      "▁cukur": 6288,
      "▁37.5": 6289,
      "▁%7.875": 6290,
      "▁vah": 6291,
      "▁ces": 6292,
      "▁zor": 6293,
      "##aguar": 6294,
      "▁diren": 6295,
      "##lıyordu": 6296,
      "▁tıklım": 6297,
      "##arl": 6298,
      "▁dık": 6299,
      "▁kos": 6300,
      "▁gecen": 6301,
      "▁zar": 6302,
      "▁tesisin": 6303,
      "##iya": 6304,
      "##emedik": 6305,
      "▁vası": 6306,
      "##ultu": 6307,
      "▁nesn": 6308,
      "▁belg": 6309,
      "▁ediyorlar": 6310,
      "▁hali": 6311,
      "▁cak": 6312,
      "▁gitmek": 6313,
      "▁gecik": 6314,
      "▁5.5": 6315,
      "▁yılı": 6316,
      "▁muk": 6317,
      "▁yim": 6318,
      "▁merhaba": 6319,
      "▁olur": 6320,
      "##ital": 6321,
      "##unku": 6322,
      "##amız": 6323,
      "▁sokak": 6324,
      "▁karakter": 6325,
      "##urken": 6326,
      "##ungur": 6327,
      "▁endis": 6328,
      "▁boyn": 6329,
      "m": 6330,
      "##gun": 6331,
      "▁adamı": 6332,
      "▁damak": 6333,
      "##iv": 6334,
      "##ove": 6335,
      "##oyu": 6336,
      "▁lehman": 6337,
      "▁guney": 6338,
      "▁demek": 6339,
      "▁malzem": 6340,
      ":": 6341,
      "##gımız": 6342,
      "▁sordu": 6343,
      "##cılı": 6344,
      "##chell": 6345,
      "▁minim": 6346,
      "##yo": 6347,
      "▁azın": 6348,
      "▁olası": 6349,
      "▁suren": 6350,
      "▁ciftlik": 6351,
      "▁dusus": 6352,
      "##acagına": 6353,
      "▁vergisi": 6354,
      "▁katkıda": 6355,
      "▁oranları": 6356,
      "▁tesis": 6357,
      "▁yel": 6358,
      "##ran": 6359,
      "▁acık": 6360,
      "▁vucut": 6361,
      "▁tedavul": 6362,
      "▁suruyor": 6363,
      "▁gordugu": 6364,
      "▁kah": 6365,
      "##tıkca": 6366,
      "##amaya": 6367,
      "##ılacak": 6368,
      "##layarak": 6369,
      "##elikle": 6370,
      "▁denizi": 6371,
      "▁omuz": 6372,
      "▁olmadıgı": 6373,
      "▁kimyasal": 6374,
      "▁5": 6375,
      "▁toront": 6376,
      "▁pey": 6377,
      "▁cogun": 6378,
      "##unt": 6379,
      "##ızı": 6380,
      "▁ma": 6381,
      "##masına": 6382,
      "▁air": 6383,
      "▁yeniden": 6384,
      "##dokuz": 6385,
      "▁kub": 6386,
      "▁nus": 6387,
      "##dıgımız": 6388,
      "▁devrim": 6389,
      "▁tamamlan": 6390,
      "▁eksik": 6391,
      "##lıgıyla": 6392,
      "▁yasay": 6393,
      "▁siyasi": 6394,
      "▁herhan": 6395,
      "▁verdi": 6396,
      "▁bunların": 6397,
      "##0.3": 6398,
      "▁sevin": 6399,
      "##ıcak": 6400,
      "▁edebiyat": 6401,
      "▁yıgın": 6402,
      "▁huzur": 6403,
      "▁bahs": 6404,
      "▁deniz": 6405,
      "▁yılın": 6406,
      "▁aldır": 6407,
      "▁senin": 6408,
      "▁p": 6409,
      "▁sinir": 6410,
      "▁olmasını": 6411,
      "▁olar": 6412,
      "▁twa": 6413,
      "▁tuttur": 6414,
      "##veren": 6415,
      "##ata": 6416,
      "▁ispan": 6417,
      "▁aray": 6418,
      "##rill": 6419,
      "▁or": 6420,
      "▁mus": 6421,
      "##&": 6422,
      "▁sıgın": 6423,
      "▁dili": 6424,
      "##uydu": 6425,
      "▁mut": 6426,
      "##masıyla": 6427,
      "##42": 6428,
      "▁ceken": 6429,
      "▁gitmis": 6430,
      "▁city'e": 6431,
      "▁sovyet": 6432,
      "▁isit": 6433,
      "▁cumhurbaskan": 6434,
      "##adi": 6435,
      "▁ydu": 6436,
      "▁ların": 6437,
      "▁mırıl": 6438,
      "▁%6.4": 6439,
      "▁195": 6440,
      "##amay": 6441,
      "▁oldugum": 6442,
      "▁gerekli": 6443,
      "▁dusuk": 6444,
      "▁cennet": 6445,
      "▁filan": 6446,
      "##4000": 6447,
      "▁niye": 6448,
      "▁sistemi": 6449,
      "▁ugra": 6450,
      "▁geor": 6451,
      "##eo": 6452,
      "▁mesela": 6453,
      "▁rut": 6454,
      "##mazdı": 6455,
      "▁saf": 6456,
      "▁otomobil": 6457,
      "##uluyor": 6458,
      "▁gul": 6459,
      "▁oner": 6460,
      "##yn": 6461,
      "▁anlat": 6462,
      "▁aldı": 6463,
      "▁yukarı": 6464,
      "▁traf": 6465,
      "▁hazırlık": 6466,
      "▁kimisi": 6467,
      "▁ann": 6468,
      "▁keyif": 6469,
      "##acagı": 6470,
      "##west": 6471,
      "▁oyun": 6472,
      "▁vegas'tan": 6473,
      "▁ait": 6474,
      "##ledigi": 6475,
      "▁f": 6476,
      "##m": 6477,
      "##ael": 6478,
      "##apon": 6479,
      "##ansiyon": 6480,
      "▁sans": 6481,
      "▁:": 6482,
      "##ımıza": 6483,
      "▁edilen": 6484,
      "▁onay": 6485,
      "▁pos": 6486,
      "▁ulusal": 6487,
      "▁biliyor": 6488,
      "##lasma": 6489,
      "▁insana": 6490,
      "▁gittik": 6491,
      "▁neye": 6492,
      "▁menkul": 6493,
      "▁saat": 6494,
      "▁hik": 6495,
      "▁isim": 6496,
      "##.8": 6497,
      "##ebilirdi": 6498,
      "▁harika": 6499,
      "▁yont": 6500,
      "##esi'nde": 6501,
      "▁icki": 6502,
      "▁kurban": 6503,
      "▁kac": 6504,
      "▁aile": 6505,
      "##layan": 6506,
      "##ediyor": 6507,
      "▁islet": 6508,
      "▁onlar": 6509,
      "▁fonlar": 6510,
      "##umun": 6511,
      "▁yapılır": 6512,
      "▁birden": 6513,
      "▁ticaret": 6514,
      "▁konusmalar": 6515,
      "▁serv": 6516,
      "▁mec": 6517,
      "▁savası": 6518,
      "▁calısıyordu": 6519,
      "▁kahv": 6520,
      "##akal": 6521,
      "▁olgun": 6522,
      "▁ozel": 6523,
      "▁kitabı": 6524,
      "▁ez": 6525,
      "▁geleneksel": 6526,
      "▁%11": 6527,
      "▁3.6": 6528,
      "▁ya": 6529,
      "▁me": 6530,
      "▁sever": 6531,
      "##isinden": 6532,
      "##anbul": 6533,
      "▁elimi": 6534,
      "##asının": 6535,
      "▁yapıyor": 6536,
      "▁buh": 6537,
      "##40": 6538,
      "▁ick": 6539,
      "##saf": 6540,
      "▁yoldan": 6541,
      "▁derli": 6542,
      "##imser": 6543,
      "▁ey": 6544,
      "##umuz": 6545,
      "▁125": 6546,
      "##ayı": 6547,
      "##bal": 6548,
      "▁tıpıs": 6549,
      "▁kit": 6550,
      "▁pittsburgh'a": 6551,
      "▁giderken": 6552,
      "▁kadeh": 6553,
      "▁af": 6554,
      "▁denizinden": 6555,
      "##ey": 6556,
      "▁aksi": 6557,
      "▁108": 6558,
      "▁firma": 6559,
      "▁sekret": 6560,
      "▁sigorta": 6561,
      "##ması": 6562,
      "▁buyudu": 6563,
      "▁murat": 6564,
      "▁protest": 6565,
      "▁yal": 6566,
      "▁onları": 6567,
      "▁bizde": 6568,
      "##ap": 6569,
      "▁ceviz": 6570,
      "▁street": 6571,
      "##gın": 6572,
      "▁charlotte": 6573,
      "▁havayolu": 6574,
      "##dis": 6575,
      "▁_": 6576,
      "##inn": 6577,
      "▁firması": 6578,
      "▁ph": 6579,
      "##lıgını": 6580,
      "▁sohret": 6581,
      "▁sıf": 6582,
      "▁haline": 6583,
      "▁kaynagı": 6584,
      "▁parmak": 6585,
      "▁1995": 6586,
      "▁lastik": 6587,
      "▁kalan": 6588,
      "▁yangın": 6589,
      "▁kacın": 6590,
      "▁sosy": 6591,
      "▁gerekc": 6592,
      "##melidir": 6593,
      "▁sozcusu": 6594,
      "▁suy": 6595,
      "▁ettigini": 6596,
      "▁sars": 6597,
      "▁ataturk": 6598,
      "▁mah": 6599,
      "▁takır": 6600,
      "▁yuv": 6601,
      "▁kursun": 6602,
      "f": 6603,
      "##set": 6604,
      "▁kere": 6605,
      "▁lake": 6606,
      "##istin": 6607,
      "▁yapın": 6608,
      "▁gere": 6609,
      "▁surdu": 6610,
      "▁tutul": 6611,
      "##press": 6612,
      "##8": 6613,
      "▁odey": 6614,
      "▁baglı": 6615,
      "▁ataturk'un": 6616,
      "▁antik": 6617,
      "##siz": 6618,
      "##may": 6619,
      "▁dolayısıyla": 6620,
      "▁fe": 6621,
      "▁konusunda": 6622,
      "##eden": 6623,
      "▁sikayet": 6624,
      "##tay": 6625,
      "##amıstı": 6626,
      "▁bor": 6627,
      "▁68": 6628,
      "▁mur": 6629,
      "▁artıs": 6630,
      "##ific": 6631,
      "▁arka": 6632,
      "##aya": 6633,
      "▁izley": 6634,
      "▁fr": 6635,
      "▁.": 6636,
      "▁0": 6637,
      "▁egitim": 6638,
      "▁marka": 6639,
      "▁pembe": 6640,
      "▁kaybı": 6641,
      "▁j.": 6642,
      "▁sevgi": 6643,
      "▁ucretini": 6644,
      "▁sehir": 6645,
      "▁gorunuyor": 6646,
      "▁birinden": 6647,
      "▁bol": 6648,
      "##82": 6649,
      "▁indirim": 6650,
      "▁toren": 6651,
      "▁bizi": 6652,
      "▁2.4": 6653,
      "▁ard": 6654,
      "▁kelime": 6655,
      "▁hepsinin": 6656,
      "▁ihtimal": 6657,
      "t": 6658,
      "▁akıl": 6659,
      "##cagız": 6660,
      "▁yere": 6661,
      "▁biliyorum": 6662,
      "▁diego'dan": 6663,
      "▁sessiz": 6664,
      "[MASK]": 6665,
      "##anci": 6666,
      "▁fık": 6667,
      "##elere": 6668,
      "▁duzen": 6669,
      "##dikten": 6670,
      "##+": 6671,
      "▁kumar": 6672,
      "▁iceren": 6673,
      "▁hareket": 6674,
      "##manın": 6675,
      "▁reform": 6676,
      "##adar": 6677,
      "▁uyusturucu": 6678,
      "▁tul": 6679,
      "▁olmay": 6680,
      "▁gunu": 6681,
      "##lulu": 6682,
      "##5": 6683,
      "▁kelim": 6684,
      "##olu": 6685,
      "▁muzik": 6686,
      "▁vatand": 6687,
      "▁ters": 6688,
      "▁edecek": 6689,
      "▁us": 6690,
      "▁arasına": 6691,
      "▁hot": 6692,
      "%": 6693,
      "▁3\\/": 6694,
      "▁k": 6695,
      "▁hepsine": 6696,
      "###": 6697,
      "▁etrafında": 6698,
      "▁karıstır": 6699,
      "▁tuf": 6700,
      "▁atıl": 6701,
      "▁tec": 6702,
      "##iser": 6703,
      "▁4.": 6704,
      "▁soylem": 6705,
      "▁boylece": 6706,
      "▁fl": 6707,
      "##ecegim": 6708,
      "##elerin": 6709,
      "▁bakarak": 6710,
      "##miyor": 6711,
      "▁1985": 6712,
      "##aydi": 6713,
      "▁son": 6714,
      "▁araz": 6715,
      "##yle": 6716,
      "▁99": 6717,
      "##um": 6718,
      "▁francisco'ya": 6719,
      "▁sonrasında": 6720,
      "▁misafir": 6721,
      "▁sonrası": 6722,
      "▁halı": 6723,
      "##:": 6724,
      "##iber": 6725,
      "▁dorduncu": 6726,
      "▁kirli": 6727,
      "##lerin": 6728,
      "▁parcaları": 6729,
      "▁kitap": 6730,
      "##und": 6731,
      "▁senato": 6732,
      "##igin": 6733,
      "▁yetistir": 6734,
      "##ert": 6735,
      "▁birbirleriyle": 6736,
      "##'un": 6737,
      "▁kurt": 6738,
      "▁durur": 6739,
      "##ılı": 6740,
      "▁yapılacak": 6741,
      "▁dom": 6742,
      "##arım": 6743,
      "▁karsısında": 6744,
      "▁burokr": 6745,
      "▁oyk": 6746,
      "▁val": 6747,
      "▁hissediyor": 6748,
      "##ucu": 6749,
      "▁utan": 6750,
      "▁ihtiyacı": 6751,
      "▁.)": 6752,
      "▁yatırımcıları": 6753,
      "▁omur": 6754,
      "##ilerden": 6755,
      "▁ital": 6756,
      "##eb": 6757,
      "▁kıy": 6758,
      "##ari": 6759,
      "▁nak": 6760,
      "##ec": 6761,
      "▁dalg": 6762,
      "##taki": 6763,
      "▁sigara": 6764,
      "▁oturu": 6765,
      "▁degisiklikler": 6766,
      "##uv": 6767,
      "##et": 6768,
      "▁cocugun": 6769,
      "▁bilgi": 6770,
      "##esem": 6771,
      "##92": 6772,
      "##yim": 6773,
      "▁ise": 6774,
      "▁bolgede": 6775,
      "▁planlam": 6776,
      "▁burada": 6777,
      "▁kurtaj": 6778,
      "##ayın": 6779,
      "▁196": 6780,
      "##ayi": 6781,
      "▁giriyor": 6782,
      "##ledim": 6783,
      "##vil": 6784,
      "▁kendin": 6785,
      "▁yoneticisi": 6786,
      "##1-": 6787,
      "▁bilimsel": 6788,
      "▁72": 6789,
      "▁60": 6790,
      "▁ha": 6791,
      "▁test": 6792,
      "▁yalnız": 6793,
      "##oks": 6794,
      "▁sesle": 6795,
      "▁nefes": 6796,
      "▁ferah": 6797,
      "▁dogru": 6798,
      "▁yakindi": 6799,
      "##emli": 6800,
      "▁taraftan": 6801,
      "▁oturan": 6802,
      "▁cen": 6803,
      "▁bilmez": 6804,
      "▁muhaseb": 6805,
      "▁37": 6806,
      "▁hulya": 6807,
      "▁kapali": 6808,
      "▁arac": 6809,
      "▁bilgilendir": 6810,
      "▁endeks": 6811,
      "▁cad": 6812,
      "▁elb": 6813,
      "▁frank": 6814,
      "▁derin": 6815,
      "▁git": 6816,
      "▁basv": 6817,
      "▁leh": 6818,
      "▁ede": 6819,
      "▁tım": 6820,
      "##unda": 6821,
      "▁tasım": 6822,
      "▁katilmak": 6823,
      "▁insanın": 6824,
      "▁yaparak": 6825,
      "▁gercekten": 6826,
      "▁grubu": 6827,
      "▁olanak": 6828,
      "##is": 6829,
      "▁alkol": 6830,
      "▁gelirler": 6831,
      "▁corp": 6832,
      "▁cagdas": 6833,
      "##cı": 6834,
      "▁engin": 6835,
      "▁bundan": 6836,
      "▁problem": 6837,
      "##liye": 6838,
      "##liyor": 6839,
      "▁%4": 6840,
      "▁sig": 6841,
      "▁kendiler": 6842,
      "▁ekibi": 6843,
      "▁hayran": 6844,
      "▁tay": 6845,
      "▁200": 6846,
      "▁sert": 6847,
      "▁sur": 6848,
      "▁tiyatro": 6849,
      "##aat": 6850,
      "##let": 6851,
      "▁basını": 6852,
      "▁aldım": 6853,
      "▁anlıyor": 6854,
      "▁dusman": 6855,
      "▁kurb": 6856,
      "▁kusur": 6857,
      "▁z": 6858,
      "▁kop": 6859,
      "▁alak": 6860,
      "▁bulunuyor": 6861,
      "##bası": 6862,
      "▁restoran": 6863,
      "▁yapılan": 6864,
      "##ugun": 6865,
      "▁olm": 6866,
      "▁meyal": 6867,
      "▁cik": 6868,
      "▁aklı": 6869,
      "▁korfez": 6870,
      "▁turu": 6871,
      "##kar": 6872,
      "▁boya": 6873,
      "▁philadelphia'dan": 6874,
      "##aci": 6875,
      "▁fort": 6876,
      "▁\"": 6877,
      "##ersey": 6878,
      "▁dogal": 6879,
      "▁kıv": 6880,
      "▁iri": 6881,
      "##her": 6882,
      "▁durgunluk": 6883,
      "▁tasar": 6884,
      "▁form": 6885,
      "▁balk": 6886,
      "▁celik": 6887,
      "##malar": 6888,
      "▁gayrimenkul": 6889,
      "▁11": 6890,
      "##kan": 6891,
      "▁haklı": 6892,
      "▁yapmak": 6893,
      "▁10000": 6894,
      "##mis": 6895,
      "▁lı": 6896,
      "▁yoneticileri": 6897,
      "▁ureticisi": 6898,
      "▁mecbur": 6899,
      "▁etmisti": 6900,
      "▁genelde": 6901,
      "▁proj": 6902,
      "##ının": 6903,
      "▁gem": 6904,
      "▁hisse": 6905,
      "##udu": 6906,
      "▁cleveland'a": 6907,
      "▁bence": 6908,
      "##ire": 6909,
      "▁bizim": 6910,
      "▁hijyen": 6911,
      "▁cercev": 6912,
      "▁amerik": 6913,
      "▁dakikada": 6914,
      "▁yiy": 6915,
      "▁onun": 6916,
      "##phia": 6917,
      "▁yurtdıs": 6918,
      "▁met": 6919,
      "▁sus": 6920,
      "▁allah": 6921,
      "▁york": 6922,
      "##dokuzyuz": 6923,
      "##ece": 6924,
      "▁kiz": 6925,
      "##igi": 6926,
      "▁hanimla": 6927,
      "▁calismas": 6928,
      "##arken": 6929,
      "▁mol": 6930,
      "▁milwa": 6931,
      "▁memnunuz": 6932,
      "##vert": 6933,
      "##mayacak": 6934,
      "▁ustu": 6935,
      "▁seker": 6936,
      "##eligi": 6937,
      "##esinin": 6938,
      "##ukee": 6939,
      "▁mektup": 6940,
      "▁tat": 6941,
      "##rl": 6942,
      "##his": 6943,
      "▁may": 6944,
      "▁duser": 6945,
      "▁bize": 6946,
      "##tadır": 6947,
      "▁gelin": 6948,
      "##'ndaki": 6949,
      "▁.\"": 6950,
      "▁gures": 6951,
      "▁aynı": 6952,
      "▁seyler": 6953,
      "##endi": 6954,
      "▁isp": 6955,
      "▁%22": 6956,
      "▁yunan": 6957,
      "▁aran": 6958,
      "▁bah": 6959,
      "▁%14": 6960,
      "▁1\\/8": 6961,
      "▁alamadik": 6962,
      "##'s": 6963,
      "▁yerel": 6964,
      "##ılıp": 6965,
      "▁konuyu": 6966,
      "▁egz": 6967,
      "▁cogunlukla": 6968,
      "▁ben": 6969,
      "▁belirt": 6970,
      "▁mosk": 6971,
      "##ım": 6972,
      "▁19": 6973,
      "▁5.1": 6974,
      "▁yoksul": 6975,
      "▁soyluyor": 6976,
      "▁icine": 6977,
      "##samba": 6978,
      "▁birbirine": 6979,
      "▁istih": 6980,
      "▁buyut": 6981,
      "##sin": 6982,
      "##emi": 6983,
      "▁sahib": 6984,
      "▁sarkı": 6985,
      "##ira": 6986,
      "▁yonetic": 6987,
      "▁deger": 6988,
      "##tif": 6989,
      "▁aslında": 6990,
      "▁detroit'e": 6991,
      "▁sil": 6992,
      "▁seviyesinden": 6993,
      "▁bl": 6994,
      "▁dipl": 6995,
      "▁gayret": 6996,
      "▁urunler": 6997,
      "▁kurulu": 6998,
      "▁biriler": 6999,
      "▁ila": 7000,
      "▁verdiler": 7001,
      "▁soylen": 7002,
      "▁yerlestir": 7003,
      "▁yemeklerin": 7004,
      "▁buyuy": 7005,
      "▁bulundu": 7006,
      "▁6.4": 7007,
      "##1'de": 7008,
      "▁koltuk": 7009,
      "▁south": 7010,
      "▁sahibi": 7011,
      "##ıp": 7012,
      "##lıga": 7013,
      "##/": 7014,
      "▁yanl": 7015,
      "##seksen": 7016,
      "##ene": 7017,
      "▁gog": 7018,
      "▁firmalar": 7019,
      "▁cekti": 7020,
      "▁uzerine": 7021,
      "▁sos": 7022,
      "▁ogr": 7023,
      "▁tık": 7024,
      "▁bırak": 7025,
      "##larda": 7026,
      "▁olmayı": 7027,
      "##ektif": 7028,
      "▁dogur": 7029,
      "▁ada": 7030,
      "▁yerinden": 7031,
      "▁yuz": 7032,
      "##lamaları": 7033,
      "▁polon": 7034,
      "▁rapor": 7035,
      "▁otel": 7036,
      "▁yapar": 7037,
      "▁ziyade": 7038,
      "▁babasının": 7039,
      "▁varıyor": 7040,
      "▁hanım": 7041,
      "▁yagm": 7042,
      "##cıları": 7043,
      "##unup": 7044,
      "##amak": 7045,
      "▁%6": 7046,
      "▁arkasında": 7047,
      "▁bazılarının": 7048,
      "##men": 7049,
      "##asyonu": 7050,
      "▁amerikalı": 7051,
      "▁yataklar": 7052,
      "▁yapacak": 7053,
      "##but": 7054,
      "▁aileye": 7055,
      "##ik": 7056,
      "▁ayak": 7057,
      "▁ikram": 7058,
      "▁kav": 7059,
      "▁teker": 7060,
      "▁dengesi": 7061,
      "##endigi": 7062,
      "▁bisiklet": 7063,
      "▁secen": 7064,
      "▁rehberimiz": 7065,
      "▁koc": 7066,
      "▁gelis": 7067,
      "##mur": 7068,
      "▁bag": 7069,
      "##duk": 7070,
      "▁tor": 7071,
      "##masının": 7072,
      "##baskan": 7073,
      "▁binbir": 7074,
      "▁dolardan": 7075,
      "##iness": 7076,
      "▁kul": 7077,
      "▁diplom": 7078,
      "▁doktor": 7079,
      "▁mod": 7080,
      "▁takdirde": 7081,
      "▁yolc": 7082,
      "▁lezzet": 7083,
      "##dunuz": 7084,
      "▁str": 7085,
      "▁cum": 7086,
      "▁adını": 7087,
      "##ist": 7088,
      "##dum": 7089,
      "##lerim": 7090,
      "▁sizin": 7091,
      "##ard": 7092,
      "▁denem": 7093,
      "▁gosterir": 7094,
      "▁fev": 7095,
      "##ed": 7096,
      "##agına": 7097,
      "▁1.8": 7098,
      "▁secildi": 7099,
      "▁merh": 7100,
      "##landı": 7101,
      "##ıt": 7102,
      "##digini": 7103,
      "##lugun": 7104,
      "▁dinlem": 7105,
      "▁gelen": 7106,
      "##ba": 7107,
      "##ulan": 7108,
      "##akende": 7109,
      "▁dustu": 7110,
      "▁sıkıstır": 7111,
      "▁ucaga": 7112,
      "▁hap": 7113,
      "▁cr": 7114,
      "▁fiili": 7115,
      "▁hakkında": 7116,
      "##abilecegini": 7117,
      "##ester": 7118,
      "▁dogum": 7119,
      "##isinde": 7120,
      "▁olsa": 7121,
      "##lı": 7122,
      "##asını": 7123,
      "##innati": 7124,
      "##ation": 7125,
      "▁basına": 7126,
      "▁dolu": 7127,
      "▁pla": 7128,
      "▁yetkil": 7129,
      "##alık": 7130,
      "▁chicago'ya": 7131,
      "▁iliski": 7132,
      "▁lim": 7133,
      "▁2.3": 7134,
      "▁num": 7135,
      "##mistir": 7136,
      "▁%7.7": 7137,
      "▁tarz": 7138,
      "##lamalar": 7139,
      "▁ardından": 7140,
      "##ıya": 7141,
      "▁odasına": 7142,
      "##lanmıs": 7143,
      "▁peters": 7144,
      "##sızlık": 7145,
      "▁mutlu": 7146,
      "▁karıs": 7147,
      "▁doları": 7148,
      "▁kurum": 7149,
      "▁61": 7150,
      "▁sozcuk": 7151,
      "▁muhendis": 7152,
      "▁mısıl": 7153,
      "▁babamın": 7154,
      "▁kimden": 7155,
      "▁omz": 7156,
      "▁huseyin": 7157,
      "##gan": 7158,
      "▁yeterli": 7159,
      "##lerdi": 7160,
      "▁cok": 7161,
      "▁hacim": 7162,
      "▁dusuktu": 7163,
      "##rem": 7164,
      "▁pant": 7165,
      "▁ortadan": 7166,
      "▁columbus'tan": 7167,
      "▁madde": 7168,
      "▁bagım": 7169,
      "▁kolay": 7170,
      "▁%7.5": 7171,
      "##hal": 7172,
      "▁kanun": 7173,
      "##gına": 7174,
      "▁36": 7175,
      "▁per": 7176,
      "▁and": 7177,
      "##ıc": 7178,
      "▁kard": 7179,
      "▁ucuncu": 7180,
      "▁dc'ye": 7181,
      "▁yapıldı": 7182,
      "▁vir": 7183,
      "▁ara": 7184,
      "▁sozu": 7185,
      "▁mehmet": 7186,
      "▁egemen": 7187,
      "▁kasım'da": 7188,
      "▁pittsburgh": 7189,
      "▁fiyatı": 7190,
      "##vel": 7191,
      "▁ingiltere": 7192,
      "▁3/4": 7193,
      "▁nedeni": 7194,
      "##ehir": 7195,
      "▁aman": 7196,
      "##izm": 7197,
      "▁kapattı": 7198,
      "▁kahvaltisi": 7199,
      "▁oluyor": 7200,
      "##agım": 7201,
      "▁gecti": 7202,
      "##aturk": 7203,
      "▁hakan": 7204,
      "##uk": 7205,
      "▁sız": 7206,
      "##iki": 7207,
      "▁mars": 7208,
      "▁tohum": 7209,
      "▁ister": 7210,
      "▁ihtiy": 7211,
      "▁express": 7212,
      "▁avuc": 7213,
      "▁durus": 7214,
      "▁5.3": 7215,
      "##ir": 7216,
      "##madim": 7217,
      "▁bekleniyor": 7218,
      "▁3.5": 7219,
      "▁ogl": 7220,
      "▁s": 7221,
      "▁ıskar": 7222,
      "##.000": 7223,
      "▁yasama": 7224,
      "▁kab": 7225,
      "▁sat": 7226,
      "▁ucu": 7227,
      "▁almanya": 7228,
      "▁avrupa'da": 7229,
      "▁ardı": 7230,
      "▁anı": 7231,
      "▁basın": 7232,
      "##amadı": 7233,
      "##|": 7234,
      "▁edildi": 7235,
      "▁lamb": 7236,
      "##dol": 7237,
      "▁3.8": 7238,
      "##aların": 7239,
      "##ekli": 7240,
      "▁yarat": 7241,
      "▁leri": 7242,
      "▁adlandır": 7243,
      "▁aracı": 7244,
      "▁anlama": 7245,
      "▁yapan": 7246,
      "▁kızgın": 7247,
      "▁ulasımı": 7248,
      "▁birlik": 7249,
      "▁ikiyuz": 7250,
      "▁fas": 7251,
      "▁hij": 7252,
      "▁olmaya": 7253,
      "▁hil": 7254,
      "▁evine": 7255,
      "▁5/8": 7256,
      "/": 7257,
      "▁mey": 7258,
      "▁seb": 7259,
      "▁ideal": 7260,
      "##kırk": 7261,
      "▁hafta": 7262,
      "▁bedel": 7263,
      "▁sıngır": 7264,
      "▁esn": 7265,
      "▁sifir": 7266,
      "▁komun": 7267,
      "▁calisanlar": 7268,
      "##tin": 7269,
      "▁sene": 7270,
      "##dun": 7271,
      "▁lek": 7272,
      "▁onca": 7273,
      "##mesini": 7274,
      "▁pıtır": 7275,
      "##lere": 7276,
      "▁alacaklı": 7277,
      "##enk": 7278,
      "▁ov": 7279,
      "▁sesleri": 7280,
      "##asında": 7281,
      "▁tad": 7282,
      "▁asıl": 7283,
      "##inizi": 7284,
      "▁ucusta": 7285,
      "##istik": 7286,
      "▁gez": 7287,
      "▁sag": 7288,
      "▁odam": 7289,
      "▁batı": 7290,
      "▁yken": 7291,
      "▁kalk": 7292,
      "▁sektor": 7293,
      "▁tel": 7294,
      "▁ul": 7295,
      "▁cabuk": 7296,
      "▁pers": 7297,
      "▁sıcak": 7298,
      "##ırken": 7299,
      "▁sirketinin": 7300,
      "##ılması": 7301,
      "▁satısa": 7302,
      "▁110": 7303,
      "▁uzerinde": 7304,
      "##saydı": 7305,
      "##ent": 7306,
      "##tır": 7307,
      "▁yuzunu": 7308,
      "##dırdı": 7309,
      "▁musait": 7310,
      "▁osmanlı": 7311,
      "▁park": 7312,
      "▁mucadele": 7313,
      "▁canım": 7314,
      "##–": 7315,
      "##guna": 7316,
      "▁kazan": 7317,
      "##lem": 7318,
      "##digi": 7319,
      "▁goze": 7320,
      "##ıkır": 7321,
      "##4'te": 7322,
      "##our": 7323,
      "▁farklı": 7324,
      "##10": 7325,
      "▁acıp": 7326,
      "▁puana": 7327,
      "▁nesi": 7328,
      "▁tedbir": 7329,
      "▁2005": 7330,
      "##las": 7331,
      "▁olabilecegini": 7332,
      "▁merdiven": 7333,
      "##abz": 7334,
      "▁isi": 7335,
      "##mamalı": 7336,
      "▁lazım": 7337,
      "##lari": 7338,
      "▁uzerindeki": 7339,
      "▁flori": 7340,
      "▁minneapolis": 7341,
      "##sul": 7342,
      "▁1\\/2": 7343,
      "▁diyorlar": 7344,
      "▁ucretin": 7345,
      "##mec": 7346,
      "##oc": 7347,
      "▁sermay": 7348,
      "##aga": 7349,
      "▁robert": 7350,
      "##gını": 7351,
      "▁tez": 7352,
      "▁etme": 7353,
      "▁1992": 7354,
      "##kı": 7355,
      "##yum": 7356,
      "▁uzat": 7357,
      "▁gelir": 7358,
      "▁olurdu": 7359,
      "##int": 7360,
      "▁sis": 7361,
      "##ob": 7362,
      "▁dizi": 7363,
      "▁elektr": 7364,
      "▁bakim": 7365,
      "##kel": 7366,
      "o": 7367,
      "▁yor": 7368,
      "##lerine": 7369,
      "▁kacır": 7370,
      "▁hin": 7371,
      "▁masa": 7372,
      "##iyetini": 7373,
      "▁arabayı": 7374,
      "##elerde": 7375,
      "##ahh": 7376,
      "▁bilmek": 7377,
      "▁mahalle": 7378,
      "▁kapandı": 7379,
      "▁yerleri": 7380,
      "▁yusu": 7381,
      "▁pilot": 7382,
      "▁yumurt": 7383,
      "▁parlam": 7384,
      "▁eve": 7385,
      "▁attı": 7386,
      "▁fingir": 7387,
      "##lilik": 7388,
      "▁yıllarca": 7389,
      "▁olduguna": 7390,
      "▁tehdit": 7391,
      "▁bod": 7392,
      "▁sakal": 7393,
      "##arak": 7394,
      "▁olagan": 7395,
      ">": 7396,
      "▁sorunun": 7397,
      "##kin": 7398,
      "▁financi": 7399,
      "▁itiraz": 7400,
      "▁yapmaktan": 7401,
      "▁financial": 7402,
      "▁..\"": 7403,
      "▁emre": 7404,
      "▁heyecan": 7405,
      "▁kampanya": 7406,
      "▁hisseleri": 7407,
      "▁mc": 7408,
      "##lerinde": 7409,
      "▁rad": 7410,
      "▁dolasır": 7411,
      "##ılık": 7412,
      "▁zaten": 7413,
      "▁yerles": 7414,
      "▁yur": 7415,
      "▁onumuzdeki": 7416,
      "▁disiplin": 7417,
      "▁etraf": 7418,
      "##'y": 7419,
      "▁boyut": 7420,
      "▁s&": 7421,
      "▁bulus": 7422,
      "▁duzelt": 7423,
      "##lıkta": 7424,
      "▁salon": 7425,
      "▁felaket": 7426,
      "▁kesint": 7427,
      "▁pan": 7428,
      "▁der": 7429,
      "▁diz": 7430,
      "▁yeme": 7431,
      "▁cid": 7432,
      "▁hisset": 7433,
      "▁ded": 7434,
      "▁1\\/4": 7435,
      "▁nef": 7436,
      "▁sad": 7437,
      "##lamak": 7438,
      "▁kucuktu": 7439,
      "▁uluslar": 7440,
      "▁gitt": 7441,
      "##layıp": 7442,
      "▁engel": 7443,
      "▁kutur": 7444,
      "▁bilgiye": 7445,
      "▁paranin": 7446,
      "▁degilim": 7447,
      "##etti": 7448,
      "▁carsamba": 7449,
      "▁7/8": 7450,
      "▁cogunu": 7451,
      "▁gitmeyi": 7452,
      "▁geldigi": 7453,
      "▁aktiv": 7454,
      "▁meger": 7455,
      "▁personelden": 7456,
      "▁super": 7457,
      "▁yogun": 7458,
      "▁kıyafet": 7459,
      "▁bekliyor": 7460,
      "▁etmem": 7461,
      "▁esit": 7462,
      "▁gurur": 7463,
      "▁trust": 7464,
      "##ical": 7465,
      "▁soh": 7466,
      "##ustr": 7467,
      "##ise": 7468,
      "▁ord": 7469,
      "▁130": 7470,
      "##ken": 7471,
      "▁surdur": 7472,
      "▁sms": 7473,
      "▁dusunmuyor": 7474,
      "▁gerc": 7475,
      "▁duvarlar": 7476,
      "▁ıcı": 7477,
      "▁bet": 7478,
      "##tıs": 7479,
      "▁harik": 7480,
      "▁aptal": 7481,
      "▁araba": 7482,
      "▁kaybol": 7483,
      "▁fiyatlar": 7484,
      "##yet": 7485,
      "▁birbir": 7486,
      "▁kaymak": 7487,
      "▁kadının": 7488,
      "▁kucak": 7489,
      "▁dol": 7490,
      "▁cur": 7491,
      "##lara": 7492,
      "##larından": 7493,
      "##lıgına": 7494,
      "▁yerli": 7495,
      "▁olabilir": 7496,
      "▁tuttu": 7497,
      "▁mimar": 7498,
      "▁yara": 7499,
      "▁metr": 7500,
      "##uye": 7501,
      "▁alanda": 7502,
      "▁servis": 7503,
      "▁turkiye'de": 7504,
      "▁aksamı": 7505,
      "▁iran": 7506,
      "▁gozden": 7507,
      "▁bahseder": 7508,
      "▁sch": 7509,
      "▁birbirimiz": 7510,
      "##ebilmek": 7511,
      "▁..": 7512,
      "▁demokratik": 7513,
      "▁mevcut": 7514,
      "▁barda": 7515,
      "▁isv": 7516,
      "##denin": 7517,
      "▁getiriyor": 7518,
      "▁kasab": 7519,
      "▁%1": 7520,
      "▁new": 7521,
      "▁6": 7522,
      "▁zayifti": 7523,
      "▁karn": 7524,
      "▁okur": 7525,
      "▁korum": 7526,
      "▁yut": 7527,
      "##lardan": 7528,
      "##gele": 7529,
      "▁chicago": 7530,
      "▁yazar": 7531,
      "▁yaklasimi": 7532,
      "▁durumda": 7533,
      "▁aralık'ta": 7534,
      "▁istiyor": 7535,
      "##tim": 7536,
      "##ill": 7537,
      "▁kullanıyor": 7538,
      "▁%0": 7539,
      "▁%18": 7540,
      "▁cesi": 7541,
      "▁boy": 7542,
      "##eyecek": 7543,
      "▁nereden": 7544,
      "▁port": 7545,
      "▁nam": 7546,
      "##cileri": 7547,
      "##luyor": 7548,
      "▁telef": 7549,
      "▁sirketi": 7550,
      "▁olmaz": 7551,
      "▁guler": 7552,
      "▁tartıs": 7553,
      "▁bost": 7554,
      "##hangi": 7555,
      "▁man": 7556,
      "##ini": 7557,
      "▁sını": 7558,
      "▁miami": 7559,
      "▁dusur": 7560,
      "▁...\"": 7561,
      "▁olmadı": 7562,
      "▁%17": 7563,
      "▁kimseye": 7564,
      "##ence": 7565,
      "▁istiyordu": 7566,
      "▁denize": 7567,
      "▁kurtar": 7568,
      "▁m": 7569,
      "▁2.8": 7570,
      "##lo": 7571,
      "▁st": 7572,
      "▁cekildi": 7573,
      "k": 7574,
      "▁ayr": 7575,
      "▁ahmet": 7576,
      "##ediye": 7577,
      "##gru": 7578,
      "▁pisti": 7579,
      "##uar": 7580,
      "▁altındaki": 7581,
      "##atif": 7582,
      "##oeni": 7583,
      "▁ayında": 7584,
      "##dıkları": 7585,
      "##elendir": 7586,
      ".": 7587,
      "▁renk": 7588,
      "▁tahvilleri": 7589,
      "▁sem": 7590,
      "▁yed": 7591,
      "▁dalgalan": 7592,
      "▁oraya": 7593,
      "▁girmis": 7594,
      "▁aktarmalı": 7595,
      "▁duzey": 7596,
      "▁sorun": 7597,
      "##vey": 7598,
      "▁yıllarda": 7599,
      "##dok": 7600,
      "▁ceb": 7601,
      "▁isteyen": 7602,
      "▁oyuncu": 7603,
      "▁edeb": 7604,
      "▁asag": 7605,
      "▁yemekleri": 7606,
      "##ilmis": 7607,
      "▁kampan": 7608,
      "##37": 7609,
      "▁mezar": 7610,
      "##lıklar": 7611,
      "##gen": 7612,
      "▁ulasılamadı": 7613,
      "##dam": 7614,
      "▁west": 7615,
      "##ex": 7616,
      "▁soyleyen": 7617,
      "##it": 7618,
      "▁bardagı": 7619,
      "▁phoenix": 7620,
      "▁muhalef": 7621,
      "▁konus": 7622,
      "▁cal": 7623,
      "##ank": 7624,
      "▁yuzde": 7625,
      "▁425": 7626,
      "▁komisyonu": 7627,
      "▁kalmıs": 7628,
      "▁falan": 7629,
      "▁747": 7630,
      "▁yılda": 7631,
      "▁tahsil": 7632,
      "▁pitt": 7633,
      "▁samp": 7634,
      "▁calisanlari": 7635,
      "▁istik": 7636,
      "▁cumhuriyeti": 7637,
      "##dılar": 7638,
      "##luk": 7639,
      "▁nit": 7640,
      "▁piyasaya": 7641,
      "##ator": 7642,
      "▁kalp": 7643,
      "▁turkce": 7644,
      "##ılıgını": 7645,
      "▁siyah": 7646,
      "▁cap": 7647,
      "▁dalgın": 7648,
      "##og": 7649,
      "▁derec": 7650,
      "▁uygun": 7651,
      "▁tasıyan": 7652,
      "▁des": 7653,
      "##anc": 7654,
      "▁siz": 7655,
      "##to": 7656,
      "_": 7657,
      "▁beklentiler": 7658,
      "##ohn": 7659,
      "▁chicag": 7660,
      "##88": 7661,
      "▁diyordu": 7662,
      "▁ikibinuc": 7663,
      "##ırak": 7664,
      "##esi": 7665,
      "▁adina": 7666,
      "▁part": 7667,
      "▁merk": 7668,
      "▁yaptık": 7669,
      "##lıkları": 7670,
      "▁haf": 7671,
      "▁hakkı": 7672,
      "##indeki": 7673,
      "▁ayn": 7674,
      "▁gectik": 7675,
      "▁saatlerde": 7676,
      "▁oteller": 7677,
      "▁musun": 7678,
      "▁elinden": 7679,
      "▁bircok": 7680,
      "▁3.": 7681,
      "▁yet": 7682,
      "##tısı": 7683,
      "▁oldular": 7684,
      "##istler": 7685,
      "▁komitesi": 7686,
      "▁sanayi": 7687,
      "▁konumunu": 7688,
      "##elerini": 7689,
      "▁degiller": 7690,
      "▁mar": 7691,
      "▁kosul": 7692,
      "##esiz": 7693,
      "▁sikin": 7694,
      "▁cent": 7695,
      "▁iskont": 7696,
      "▁ucan": 7697,
      "##ek": 7698,
      "▁yen": 7699,
      "##abil": 7700,
      "##larla": 7701,
      "##uru": 7702,
      "▁cekil": 7703,
      "▁okuy": 7704,
      "▁pal": 7705,
      "▁saz": 7706,
      "##gunde": 7707,
      "▁por": 7708,
      "▁ucusun": 7709,
      "▁ustelik": 7710,
      "▁bez": 7711,
      "##ka": 7712,
      "▁bircog": 7713,
      "▁cocuk": 7714,
      "▁tasın": 7715,
      "▁kendini": 7716,
      "▁yeri": 7717,
      "▁dugun": 7718,
      "▁sub": 7719,
      "##diginde": 7720,
      "▁belediye": 7721,
      "▁bask": 7722,
      "▁vad": 7723,
      "##hat": 7724,
      "▁artık": 7725,
      "▁dun": 7726,
      "▁satısı": 7727,
      "▁ruzgar": 7728,
      "##iyordu": 7729,
      "▁buk": 7730,
      "▁dug": 7731,
      "▁siy": 7732,
      "▁bulan": 7733,
      "▁sehre": 7734,
      ")": 7735,
      "##undan": 7736,
      "▁lond": 7737,
      "▁prof": 7738,
      "▁duruyordu": 7739,
      "##uth": 7740,
      "▁hanim": 7741,
      "▁endustr": 7742,
      "▁birbirlerine": 7743,
      "▁icim": 7744,
      "##ald": 7745,
      "▁film": 7746,
      "▁benziyor": 7747,
      "▁ah": 7748,
      "▁butun": 7749,
      "▁olmadan": 7750,
      "▁lezzetli": 7751,
      "▁temizdi": 7752,
      "▁tok": 7753,
      "▁dekor": 7754,
      "##madigim": 7755,
      "▁modern": 7756,
      "▁kurulan": 7757,
      "▁muhaf": 7758,
      "▁zırt": 7759,
      "▁gogus": 7760,
      "##ota": 7761,
      "##edi": 7762,
      "##uh": 7763,
      "##ram": 7764,
      "▁degilsiniz": 7765,
      "##(": 7766,
      "▁din": 7767,
      "##abiliyor": 7768,
      "##seniz": 7769,
      "##esine": 7770,
      "▁demir": 7771,
      "▁havası": 7772,
      "▁emin": 7773,
      "▁ku": 7774,
      "▁islerini": 7775,
      "##atı": 7776,
      "▁olacaktır": 7777,
      "▁disip": 7778,
      "▁mail": 7779,
      "▁nufus": 7780,
      "▁olmasi": 7781,
      "▁law": 7782,
      "##andı": 7783,
      "▁gazetec": 7784,
      "▁muc": 7785,
      "▁ikibin": 7786,
      "▁miz": 7787,
      "##iyeti": 7788,
      "▁pirinc": 7789,
      "##tere": 7790,
      "##temiz": 7791,
      "▁halinde": 7792,
      "▁cevirdi": 7793,
      "▁kutu": 7794,
      "▁ailenin": 7795,
      "▁cıplak": 7796,
      "▁hast": 7797,
      "▁diyen": 7798,
      "##gında": 7799,
      "▁baslay": 7800,
      "▁acıl": 7801,
      "##iye": 7802,
      "##bire": 7803,
      "▁1.6": 7804,
      "▁degillerdi": 7805,
      "▁dayalı": 7806,
      "▁c": 7807,
      "▁elde": 7808,
      "▁g": 7809,
      "▁dal": 7810,
      "▁alman": 7811,
      "▁yaptik": 7812,
      "##-200": 7813,
      "▁orlando'ya": 7814,
      "▁cunku": 7815,
      "▁ogren": 7816,
      "##eniz": 7817,
      "##iskin": 7818,
      "##rek": 7819,
      "▁tuk": 7820,
      "▁67": 7821,
      "▁giris": 7822,
      "▁makal": 7823,
      "▁konfer": 7824,
      "▁ailelere": 7825,
      "##26": 7826,
      "▁rek": 7827,
      "▁sep": 7828,
      "▁california'ya": 7829,
      "▁ut": 7830,
      "##eni": 7831,
      "##ayarak": 7832,
      "##obil": 7833,
      "▁baktı": 7834,
      "▁odamiz": 7835,
      "▁buf": 7836,
      "##kil": 7837,
      "▁sirketin": 7838,
      "##.875": 7839,
      "▁oldu": 7840,
      "▁22": 7841,
      "##ersiz": 7842,
      "▁veriyor": 7843,
      "##ch": 7844,
      "▁%9.": 7845,
      "▁spekul": 7846,
      "##lin": 7847,
      "##allı": 7848,
      "▁acı": 7849,
      "▁lutf": 7850,
      "▁carp": 7851,
      "##eten": 7852,
      "##.50": 7853,
      "##gi": 7854,
      "▁kade": 7855,
      "##ecik": 7856,
      "▁yakından": 7857,
      "▁buyume": 7858,
      "▁konuda": 7859,
      "##27": 7860,
      "▁mark": 7861,
      "▁faturam": 7862,
      "##ecegine": 7863,
      "##alandır": 7864,
      "▁biraz": 7865,
      "▁milli": 7866,
      "##lor": 7867,
      "▁arasında": 7868,
      "##ood": 7869,
      "▁dusunur": 7870,
      "##lu": 7871,
      "##uyorum": 7872,
      "▁asla": 7873,
      "##ef": 7874,
      "▁bekley": 7875,
      "##don": 7876,
      "▁coz": 7877,
      "▁pitts": 7878,
      "▁got": 7879,
      "▁piyasası": 7880,
      "°": 7881,
      "▁%3.43": 7882,
      "▁seviyesine": 7883,
      "##ry": 7884,
      "▁hug": 7885,
      "▁enerji": 7886,
      "▁subay": 7887,
      "▁ruh": 7888,
      "▁oran": 7889,
      "▁genclik": 7890,
      "▁fazla": 7891,
      "##dıgınız": 7892,
      "##:00-22:30": 7893,
      "▁kazanan": 7894,
      "▁olmustur": 7895,
      "▁fu": 7896,
      "▁hızlı": 7897,
      "##eral": 7898,
      "▁uzaktan": 7899,
      "▁bildirdi": 7900,
      "▁yuc": 7901,
      "▁arttı": 7902,
      "▁sey": 7903,
      "▁usta": 7904,
      "▁oturuyor": 7905,
      "▁ilgilendi": 7906,
      "##lıgın": 7907,
      "▁meh": 7908,
      "##o'nun": 7909,
      "▁vadeli": 7910,
      "▁morgan": 7911,
      "▁sin": 7912,
      "##lıyor": 7913,
      "▁haykır": 7914,
      "▁ısık": 7915,
      "##ere": 7916,
      "▁houston": 7917,
      "▁dalga": 7918,
      "▁ekonom": 7919,
      "▁uzay": 7920,
      "##95": 7921,
      "▁r": 7922,
      "▁bilir": 7923,
      "▁tablo": 7924,
      "▁400": 7925,
      "##agan": 7926,
      "##edigini": 7927,
      "▁of": 7928,
      "▁cop": 7929,
      "▁los": 7930,
      "##ga": 7931,
      "▁bir": 7932,
      "▁louis": 7933,
      "▁ra": 7934,
      "▁1988": 7935,
      "▁85": 7936,
      "▁acil": 7937,
      "▁ani": 7938,
      "▁john": 7939,
      "▁altıncı": 7940,
      "▁konumundan": 7941,
      "▁tuy": 7942,
      "##’": 7943,
      "▁verdigim": 7944,
      "▁yasam": 7945,
      "▁otom": 7946,
      "##enin": 7947,
      "▁onune": 7948,
      "##eyh": 7949,
      "▁diken": 7950,
      "▁soyluyorlar": 7951,
      "##tigini": 7952,
      "##sizlik": 7953,
      "▁0.25": 7954,
      "▁kalır": 7955,
      "▁basarısız": 7956,
      "##liginde": 7957,
      "▁kimin": 7958,
      "##-6": 7959,
      "▁yahu": 7960,
      "▁bazen": 7961,
      "▁istanbul": 7962,
      "▁motor": 7963,
      "▁fakat": 7964,
      "▁sogut": 7965,
      "▁bic": 7966,
      "▁39": 7967,
      "▁du": 7968,
      "▁2.7": 7969,
      "##tıg": 7970,
      "▁zir": 7971,
      "##gar": 7972,
      "##ati": 7973,
      "▁sayesinde": 7974,
      "▁okun": 7975,
      "##siyon": 7976,
      "▁sofr": 7977,
      "▁bizden": 7978,
      "▁lo": 7979,
      "▁tesp": 7980,
      "▁cevap": 7981,
      "##ebilirim": 7982,
      "▁hangileri": 7983,
      "▁uyustur": 7984,
      "▁anahtar": 7985,
      "▁kurtul": 7986,
      "▁ref": 7987,
      "▁heykel": 7988,
      "▁onlarla": 7989,
      "▁muhendi": 7990,
      "##uy": 7991,
      "##ita": 7992,
      "▁analist": 7993,
      "▁hit": 7994,
      "▁neresi": 7995,
      "##1-19": 7996,
      "##ildigi": 7997,
      "▁yaptılar": 7998,
      "##gu": 7999,
      "##2.1": 8000,
      "▁dortluk": 8001,
      "▁%3.5": 8002,
      "▁ederim": 8003,
      "▁degisim": 8004,
      "##liyordu": 8005,
      "##dir": 8006,
      "▁zamanlar": 8007,
      "##'ler": 8008,
      "▁simdilik": 8009,
      "▁osman": 8010,
      "▁degisik": 8011,
      "##etin": 8012,
      "▁gunumuz": 8013,
      "▁manc": 8014,
      "▁gorduk": 8015,
      "▁ıskarta": 8016,
      "▁mıyım": 8017,
      "▁birine": 8018,
      "▁bekleyen": 8019,
      "▁soguk": 8020,
      "##ildik": 8021,
      "▁oldum": 8022,
      "##ang": 8023,
      "##ov": 8024,
      "▁yoktur": 8025,
      "▁gozu": 8026,
      "▁acar": 8027,
      "▁elbis": 8028,
      "▁oburu": 8029,
      "▁geriledi": 8030,
      "▁plan": 8031,
      "##ab": 8032,
      "▁yapıl": 8033,
      "▁an": 8034,
      "▁catıs": 8035,
      "##'deki": 8036,
      "▁memphis'e": 8037,
      "▁yetersiz": 8038,
      "▁halka": 8039,
      "▁kisinin": 8040,
      "▁getirir": 8041,
      "##gir": 8042,
      "##liam": 8043,
      "##ilmesi": 8044,
      "▁degeri": 8045,
      "##day": 8046,
      "##ege": 8047,
      "##atin": 8048,
      "▁istir": 8049,
      "##leket": 8050,
      "▁calı": 8051,
      "▁derler": 8052,
      "▁civarında": 8053,
      "▁yıldan": 8054,
      "▁kanıt": 8055,
      "▁fotograf": 8056,
      "▁kası": 8057,
      "▁anlay": 8058,
      "▁pol": 8059,
      "▁16": 8060,
      "▁yen'e": 8061,
      "▁pahaliydi": 8062,
      "▁girer": 8063,
      "▁garanti": 8064,
      "▁ihtim": 8065,
      "##das": 8066,
      "▁artarak": 8067,
      "▁bas": 8068,
      "▁isin": 8069,
      "▁degildim": 8070,
      "##madik": 8071,
      "▁karayol": 8072,
      "▁fiyatları": 8073,
      "##3.2": 8074,
      "▁yaglı": 8075,
      "▁kirliydi": 8076,
      "▁bakanlıgı": 8077,
      "▁kahraman": 8078,
      "▁bitti": 8079,
      "▁gen": 8080,
      "▁durumunda": 8081,
      "▁cocuklar": 8082,
      "▁gidiyor": 8083,
      "i": 8084,
      "▁payı": 8085,
      "▁paran": 8086,
      "▁duvara": 8087,
      "▁sıkın": 8088,
      "▁o": 8089,
      "##yla": 8090,
      "▁suyunu": 8091,
      "|": 8092,
      "▁%12": 8093,
      "▁cıkacak": 8094,
      "▁73": 8095,
      "▁al": 8096,
      "##unden": 8097,
      "▁serg": 8098,
      "##adı": 8099,
      "##ıza": 8100,
      "▁cogal": 8101,
      "▁90": 8102,
      "▁karan": 8103,
      "▁ihtiyar": 8104,
      "##19": 8105,
      "▁ur": 8106,
      "▁haberi": 8107,
      "▁satın": 8108,
      "##imize": 8109,
      "##osy": 8110,
      "▁nikah": 8111,
      "▁rich": 8112,
      "▁gelecek": 8113,
      "▁ert": 8114,
      "▁simdi": 8115,
      "▁mecl": 8116,
      "▁sofor": 8117,
      "▁dir": 8118,
      "▁2.6": 8119,
      "▁2008": 8120,
      "▁gol": 8121,
      "##br": 8122,
      "▁kerem": 8123,
      "##gor": 8124,
      "▁icinden": 8125,
      "##min": 8126,
      "▁pencer": 8127,
      "▁kalmaya": 8128,
      "##,": 8129,
      "##ustur": 8130,
      "##eyman": 8131,
      "▁nasda": 8132,
      "▁kart": 8133,
      "▁suyu": 8134,
      "##45": 8135,
      "▁eylul'de": 8136,
      "▁gecici": 8137,
      "▁atlan": 8138,
      "##acılık": 8139,
      "▁gecmis": 8140,
      "▁guvenlik": 8141,
      "▁angeles'ten": 8142,
      "▁grup": 8143,
      "▁gi": 8144,
      "##ume": 8145,
      "▁hul": 8146,
      "▁kep": 8147,
      "▁parlak": 8148,
      "##acagim": 8149,
      "▁calis": 8150,
      "##n": 8151,
      "▁denver": 8152,
      "##asi": 8153,
      "##irdi": 8154,
      "▁var": 8155,
      "▁kendinde": 8156,
      "▁hukumetin": 8157,
      "##ort": 8158,
      "##ecekti": 8159,
      "▁baslat": 8160,
      "##unuyor": 8161,
      "▁3.3": 8162,
      "▁yazılım": 8163,
      "▁gidecek": 8164,
      "▁3.1": 8165,
      "▁gelgelelim": 8166,
      "▁bur": 8167,
      "▁iyil": 8168,
      "▁bulmus": 8169,
      "##\\": 8170,
      "▁rest": 8171,
      "##adel": 8172,
      "##malı": 8173,
      "▁seyin": 8174,
      "▁tes": 8175,
      "▁namaz": 8176,
      "▁ant": 8177,
      "▁yol": 8178,
      "▁gazet": 8179,
      "▁golge": 8180,
      "▁sek": 8181,
      "▁yuklen": 8182,
      "▁plaj": 8183,
      "▁contin": 8184,
      "##lası": 8185,
      "##kal": 8186,
      "▁evden": 8187,
      "▁birka": 8188,
      "▁$'dan": 8189,
      "▁gerci": 8190,
      "▁halkın": 8191
    }
  }
}