{
  "version": "1.0",
  "truncation": null,
  "padding": null,
  "added_tokens": [
    {
      "id": 1100,
      "content": "[UNK]",
      "single_word": false,
      "lstrip": false,
      "rstrip": false,
      "normalized": false,
      "special": true
    },
    {
      "id": 1570,
      "content": "[MASK]",
      "single_word": false,
      "lstrip": false,
      "rstrip": false,
      "normalized": false,
      "special": true
    },
    {
      "id": 8486,
      "content": "[CLS]",
      "single_word": false,
      "lstrip": false,
      "rstrip": false,
      "normalized": false,
      "special": true
    },
    {
      "id": 11213,
      "content": "[SEP]",
      "single_word": false,
      "lstrip": false,
      "rstrip": false,
      "normalized": false,
      "special": true
    },
    {
      "id": 12084,
      "content": "[PAD]",
      "single_word": false,
      "lstrip": false,
      "rstrip": false,
      "normalized": false,
      "special": true
    }
  ],
  "normalizer": {
    "type": "Sequence",
    "normalizers": [
      {
        "type": "NFD"
      },
      {
        "type": "Lowercase"
      },
      {
        "type": "StripAccents"
      }
    ]
  },
  "pre_tokenizer": {
    "type": "Sequence",
    "pretokenizers": [
      {
        "type": "Metaspace",
        "replacement": "▁",
        "prepend_scheme": "always",
        "split": true
      }
    ]
  },
  "post_processor": {
    "type": "TemplateProcessing",
    "single": [
      {
        "SpecialToken": {
          "id": "[CLS]",
          "type_id": 0
        }
      },
      {
        "Sequence": {
          "id": "A",
          "type_id": 0
        }
      },
      {
        "SpecialToken": {
          "id": "[SEP]",
          "type_id": 0
        }
      }
    ],
    "pair": [
      {
        "SpecialToken": {
          "id": "[CLS]",
          "type_id": 0
        }
      },
      {
        "Sequence": {
          "id": "A",
          "type_id": 0
        }
      },
      {
        "SpecialToken": {
          "id": "[SEP]",
          "type_id": 0
        }
      },
      {
        "Sequence": {
          "id": "B",
          "type_id": 1
        }
      },
      {
        "SpecialToken": {
          "id": "[SEP]",
          "type_id": 1
        }
      }
    ],
    "special_tokens": {
      "[CLS]": {
        "id": "[CLS]",
        "ids": [
          8486
        ],
        "tokens": [
          "[CLS]"
        ]
      },
      "[SEP]": {
        "id": "[SEP]",
        "ids": [
          11213
        ],
        "tokens": [
          "[SEP]"
        ]
      }
    }
  },
  "decoder": {
    "type": "Metaspace",
    "replacement": "▁",
    "prepend_scheme": "always",
    "split": true
  },
  "model": {
    "type": "Unigram",
    "unk_id": 1100,
    "vocab": [
      [
        "▁tavrını",
        -11.725457606850936
      ],
      [
        "▁alımı",
        -9.991831748036464
      ],
      [
        "6",
        -6.952477388401526
      ],
      [
        "▁resimler",
        -10.894767018772114
      ],
      [
        "▁itiraz",
        -9.786039751023369
      ],
      [
        "malı",
        -9.611684320536478
      ],
      [
        "▁tertemiz",
        -10.32254725976749
      ],
      [
        "▁amerika'y",
        -11.040900448457933
      ],
      [
        "▁halat",
        -10.514838416408864
      ],
      [
        "▁durur",
        -9.92247655182013
      ],
      [
        "▁rica",
        -10.23601955764847
      ],
      [
        "lerde",
        -7.888953376317954
      ],
      [
        "▁kuzu",
        -9.909769231148026
      ],
      [
        "mez",
        -8.858030534353603
      ],
      [
        ".",
        -7.207228484233869
      ],
      [
        "▁dusecek",
        -11.229588608412689
      ],
      [
        "▁pkk",
        -11.039692980669164
      ],
      [
        "▁nerde",
        -10.135576152353247
      ],
      [
        "▁vurulmus",
        -11.685547440832982
      ],
      [
        "▁frankfurt",
        -11.038831137085499
      ],
      [
        "▁yarı",
        -8.496603737787378
      ],
      [
        "▁62.",
        -10.93445556329254
      ],
      [
        "▁sayıda",
        -9.814126278774244
      ],
      [
        "▁yazınız",
        -11.180525505975439
      ],
      [
        "▁okunan",
        -11.686818976172937
      ],
      [
        "▁fındık",
        -11.038936797239721
      ],
      [
        "▁pizza",
        -11.517905978624306
      ],
      [
        "▁yasına",
        -10.37825686205204
      ],
      [
        "▁saati",
        -9.772192483626672
      ],
      [
        "▁allah'",
        -10.562681051615696
      ],
      [
        "▁gucunde",
        -11.765611678269405
      ],
      [
        "▁her",
        -4.351819211849485
      ],
      [
        "▁ithal",
        -10.322363658934965
      ],
      [
        "▁sandal",
        -10.671026285468695
      ],
      [
        "▁h",
        -8.715339026266378
      ],
      [
        "▁gayret",
        -10.076462464732074
      ],
      [
        "▁trafik",
        -10.076447660788107
      ],
      [
        "to",
        -9.171870538302933
      ],
      [
        "lerdi",
        -10.730951152828887
      ],
      [
        "▁hijyenik",
        -9.376643070095625
      ],
      [
        "▁icecekler",
        -9.401778006244172
      ],
      [
        "▁dede",
        -9.946472768715877
      ],
      [
        "▁gazetelerde",
        -10.702049071568837
      ],
      [
        "▁agırlıgı",
        -10.855659092667342
      ],
      [
        "onlar",
        -9.411444122687692
      ],
      [
        "▁honeywell",
        -11.884571078524445
      ],
      [
        "▁coskun",
        -10.930269919534041
      ],
      [
        "emeyecegi",
        -11.051897596107867
      ],
      [
        "▁980",
        -12.20001925502222
      ],
      [
        "▁kavusma",
        -11.517970782910622
      ],
      [
        "▁donanma",
        -10.528381061292947
      ],
      [
        "▁derya",
        -10.917151623345896
      ],
      [
        "rkdort",
        -13.052051630876742
      ],
      [
        "▁tırman",
        -10.714115936112977
      ],
      [
        "▁bulun",
        -8.785199511197217
      ],
      [
        "▁baglanmıs",
        -11.464823452397018
      ],
      [
        "▁oyle",
        -7.644019549684665
      ],
      [
        "▁gazeteciler",
        -10.98822850316877
      ],
      [
        "▁california'da",
        -10.630513939548798
      ],
      [
        "▁surduruyor",
        -10.322705022542468
      ],
      [
        "▁ahir",
        -11.25840024410756
      ],
      [
        "kim",
        -9.596563809862902
      ],
      [
        "▁395",
        -11.092378019038366
      ],
      [
        "▁sahilde",
        -11.284840114055521
      ],
      [
        "▁odalar",
        -8.677913256922206
      ],
      [
        "▁guclukler",
        -11.63656843129953
      ],
      [
        "▁sait",
        -10.866400142661579
      ],
      [
        "▁hazret",
        -10.787836586398896
      ],
      [
        "▁olmaya",
        -9.491752415793732
      ],
      [
        "▁dususle",
        -9.410789226126012
      ],
      [
        "▁kaptırdı",
        -11.692162145795768
      ],
      [
        "▁vuku",
        -11.684578816959402
      ],
      [
        "▁pis",
        -9.370537595204183
      ],
      [
        "▁cevre",
        -8.731569628076397
      ],
      [
        "▁gonderdi",
        -10.064989711530586
      ],
      [
        "▁bakkal",
        -10.152055609590636
      ],
      [
        "▁donme",
        -10.205119958166476
      ],
      [
        "▁sayılıyor",
        -11.795292790804886
      ],
      [
        "▁bila",
        -10.530603547937941
      ],
      [
        "9'da",
        -11.330388777632017
      ],
      [
        "▁yoneldi",
        -10.996091506414274
      ],
      [
        "▁futbolcu",
        -10.349430067544734
      ],
      [
        "▁yakınlasma",
        -11.699667506515148
      ],
      [
        "▁yukselisi",
        -11.064580030593678
      ],
      [
        "▁durdurula",
        -11.621285306022742
      ],
      [
        "iniz",
        -10.108904679601515
      ],
      [
        "▁secimlerin",
        -11.049388121122005
      ],
      [
        "▁han",
        -9.416311847254637
      ],
      [
        "▁yarata",
        -11.43650973183401
      ],
      [
        "7.56",
        -11.800064372649688
      ],
      [
        "es",
        -8.84205363176796
      ],
      [
        "▁rehin",
        -11.041243116296464
      ],
      [
        "950",
        -10.998314967311511
      ],
      [
        "▁aldi",
        -9.978573864485094
      ],
      [
        "▁aquaparki",
        -11.375049990364204
      ],
      [
        "▁aylık",
        -8.731533055082457
      ],
      [
        "▁geceleri",
        -9.4754260911663
      ],
      [
        "tur",
        -7.886228925077593
      ],
      [
        "▁kordon",
        -11.518185478333496
      ],
      [
        "▁tv",
        -9.685239838435526
      ],
      [
        "▁divan",
        -10.370231754233714
      ],
      [
        "▁uzana",
        -10.703612493592837
      ],
      [
        "▁nasdaq",
        -10.113484695388756
      ],
      [
        "▁kepenk",
        -11.624897428917993
      ],
      [
        "▁kemal'i",
        -10.865134946714896
      ],
      [
        "▁nedeni",
        -8.571068882899308
      ],
      [
        "▁hoslanmaz",
        -11.251716564188376
      ],
      [
        "▁binikiyuz",
        -11.388105955929083
      ],
      [
        "▁boykot",
        -11.517933377357627
      ],
      [
        "▁yonetile",
        -11.518926292200355
      ],
      [
        "▁kavanoz",
        -10.864693771205237
      ],
      [
        "▁oluyor",
        -8.271205453873325
      ],
      [
        "▁kaptan",
        -9.85197610287852
      ],
      [
        "▁bekleyis",
        -11.042319848848056
      ],
      [
        "th",
        -9.671474088604011
      ],
      [
        "▁sozlesmesi",
        -9.970620574470358
      ],
      [
        "▁atina",
        -10.956811821685893
      ],
      [
        "▁erdogan'ı",
        -10.983272058641989
      ],
      [
        "▁olmasını",
        -9.575904887535682
      ],
      [
        "▁sayi",
        -9.740491776709865
      ],
      [
        "▁guzelligini",
        -11.386606059692953
      ],
      [
        "▁satıslar",
        -8.52637409224303
      ],
      [
        "▁temsilcileri",
        -10.661727791357198
      ],
      [
        "nuz",
        -9.592449687501578
      ],
      [
        "▁cocugum",
        -10.978762955565404
      ],
      [
        "▁448",
        -11.076948299767778
      ],
      [
        "▁alevi",
        -11.082403402252169
      ],
      [
        "▁bittigin",
        -11.249071970779092
      ],
      [
        "▁sistemin",
        -10.786502720781233
      ],
      [
        "▁dusuk",
        -7.8395154297312395
      ],
      [
        "▁ydı",
        -7.2089507199542044
      ],
      [
        "▁karmasası",
        -11.250426054411946
      ],
      [
        "▁ydın",
        -12.145671532554843
      ],
      [
        "▁bagladı",
        -9.861461089275773
      ],
      [
        "▁aleyhin",
        -10.637778905881682
      ],
      [
        "▁yap",
        -8.508905287612738
      ],
      [
        "▁girmesi",
        -10.679112041873879
      ],
      [
        "▁reklamı",
        -11.304555261053483
      ],
      [
        "▁500.",
        -11.858626020851482
      ],
      [
        "▁yetisme",
        -11.252572457950933
      ],
      [
        "ilen",
        -10.462971255503858
      ],
      [
        "▁burnunda",
        -10.963274128082277
      ],
      [
        "22",
        -10.719045026475124
      ],
      [
        "▁southwest",
        -11.518040002200568
      ],
      [
        "▁yorgunluk",
        -10.42336799522486
      ],
      [
        "▁susuz",
        -10.793814870251158
      ],
      [
        "▁gittigi",
        -10.164360696620012
      ],
      [
        "▁farkı",
        -10.762127266021249
      ],
      [
        "▁kalemi",
        -10.799744557355464
      ],
      [
        "▁colorado",
        -11.829169095819724
      ],
      [
        "▁gidilebil",
        -10.637340079520705
      ],
      [
        "▁avans",
        -11.039241215564335
      ],
      [
        "▁de",
        -8.637024604976396
      ],
      [
        "▁hissediyordu",
        -11.152571854158307
      ],
      [
        "▁gorusmek",
        -10.46131798701497
      ],
      [
        "▁cadırı",
        -11.260959938403687
      ],
      [
        "75.",
        -13.158156586327362
      ],
      [
        "▁izleyici",
        -11.11193047060237
      ],
      [
        "▁ahbap",
        -10.948030099682544
      ],
      [
        "▁kızdı",
        -10.962312788436979
      ],
      [
        "▁kemal",
        -9.053225384931384
      ],
      [
        "▁yemekte",
        -10.481520503185049
      ],
      [
        "▁yaktı",
        -10.161990097747822
      ],
      [
        "▁cevher",
        -11.375047303399437
      ],
      [
        "▁giristi",
        -11.388231060977972
      ],
      [
        "▁arapca",
        -11.143978397679344
      ],
      [
        "▁hepimizi",
        -9.081385122939912
      ],
      [
        "▁ulastıgı",
        -11.403292960582963
      ],
      [
        "▁geliri",
        -9.526787037500913
      ],
      [
        "▁nargile",
        -11.375048985642078
      ],
      [
        "▁etmemek",
        -11.728673735423822
      ],
      [
        "suzlugun",
        -11.149644438126566
      ],
      [
        "▁muayyen",
        -11.517904679204591
      ],
      [
        "▁yakınında",
        -11.211272835514547
      ],
      [
        "▁cingene",
        -11.51791956316826
      ],
      [
        "▁mucadelesi",
        -11.138593163228894
      ],
      [
        "▁nere",
        -10.300341462038503
      ],
      [
        "dur",
        -7.642014626188318
      ],
      [
        "▁milyar",
        -9.170872449899475
      ],
      [
        "▁olanak",
        -10.661943290719002
      ],
      [
        "▁almayı",
        -10.162706531541906
      ],
      [
        "▁mezarlıg",
        -10.71538760430995
      ],
      [
        "▁bayag",
        -10.434302012187157
      ],
      [
        "▁digeri",
        -10.595835308570699
      ],
      [
        "▁sınırı",
        -10.656551371015022
      ],
      [
        "▁sirin",
        -10.793991009517132
      ],
      [
        "▁corek",
        -11.521093438878289
      ],
      [
        "▁houston'da",
        -9.722808267296118
      ],
      [
        "▁seviyesinde",
        -9.198273596896598
      ],
      [
        "ırlar",
        -10.358356242204643
      ],
      [
        "▁dısı",
        -9.141787489341628
      ],
      [
        "▁arbitraj",
        -10.64967541804229
      ],
      [
        "▁faul",
        -11.686449659334805
      ],
      [
        "▁800",
        -9.860106262832037
      ],
      [
        "▁hissi",
        -10.534608995548407
      ],
      [
        "▁tarafı",
        -9.611400020750395
      ],
      [
        "▁101.",
        -12.316120373889815
      ],
      [
        "▁dolara",
        -8.31060820248479
      ],
      [
        "▁yolcular",
        -11.203331617878561
      ],
      [
        "▁teror",
        -10.28123389701987
      ],
      [
        "▁dokunulmaz",
        -11.250102220246985
      ],
      [
        "3.1",
        -13.168588450855664
      ],
      [
        "▁elimi",
        -10.204466135185921
      ],
      [
        "▁calıstırma",
        -11.413902991686317
      ],
      [
        "▁tırıs",
        -11.884576670693418
      ],
      [
        "▁sonraları",
        -10.854988496471488
      ],
      [
        "▁kısıtlamaları",
        -11.07504969012093
      ],
      [
        "▁yuzeyinde",
        -11.689453444914554
      ],
      [
        "3.31",
        -12.610478430338754
      ],
      [
        "▁saban",
        -10.65000089599621
      ],
      [
        "ır",
        -12.23774267708813
      ],
      [
        "▁bırakmaz",
        -11.187837198802129
      ],
      [
        "10000",
        -11.38815113934193
      ],
      [
        "6.1",
        -10.523354865358952
      ],
      [
        "▁fakulte",
        -11.032233648927399
      ],
      [
        "▁yapmıs",
        -9.630923731098283
      ],
      [
        "▁tutumlu",
        -11.520691678398233
      ],
      [
        "▁heykel",
        -10.113487803858675
      ],
      [
        "▁kestir",
        -10.429207796730926
      ],
      [
        "▁altmıs",
        -9.585953801299627
      ],
      [
        "▁kitapları",
        -10.195715307087589
      ],
      [
        "▁gevse",
        -10.229039693579823
      ],
      [
        "▁listeleri",
        -11.444351593332506
      ],
      [
        "▁mukaddes",
        -11.684571078079816
      ],
      [
        "▁oteldi",
        -8.995318230957434
      ],
      [
        "▁yurtdisinda",
        -11.039069138071481
      ],
      [
        "▁omrumu",
        -11.699482972253692
      ],
      [
        "▁depremde",
        -10.527538845370392
      ],
      [
        "mamıstı",
        -10.815348359815115
      ],
      [
        "▁inkılap",
        -11.684571082526341
      ],
      [
        "meyen",
        -9.602228753560857
      ],
      [
        "▁dul",
        -10.548002022125969
      ],
      [
        "ymis",
        -10.742485633635274
      ],
      [
        "▁anlatılma",
        -11.70134177266273
      ],
      [
        "▁168",
        -11.419398737217387
      ],
      [
        "▁yetkililer",
        -9.720174125598628
      ],
      [
        "▁alıskanlıgı",
        -11.138947506265968
      ],
      [
        "▁degeri",
        -9.423349092903068
      ],
      [
        "▁kalırdı",
        -10.958260472062507
      ],
      [
        "▁rakam",
        -10.251511941024571
      ],
      [
        "▁tuccarı",
        -11.103566661133087
      ],
      [
        "▁ucretleri",
        -9.333704865218984
      ],
      [
        "▁padisah",
        -10.787770670713634
      ],
      [
        "'un",
        -7.821809415216396
      ],
      [
        "▁quebecor",
        -11.138966464269746
      ],
      [
        "▁celiski",
        -10.718030710145683
      ],
      [
        "▁iki",
        -4.84812175613624
      ],
      [
        "▁katında",
        -10.320568381651167
      ],
      [
        "▁biz",
        -8.874177230313654
      ],
      [
        "▁vakit",
        -9.066592767450858
      ],
      [
        "▁sızla",
        -11.118032615583328
      ],
      [
        "▁gormustu",
        -10.408005564480687
      ],
      [
        "se",
        -7.458239215597157
      ],
      [
        ")",
        -11.884571077990119
      ],
      [
        "▁lawson",
        -11.363677173587513
      ],
      [
        "▁dukkanı",
        -10.446044742681254
      ],
      [
        "▁piyasasında",
        -9.945248451082357
      ],
      [
        "▁tiyatro",
        -9.12957995849406
      ],
      [
        "▁uguld",
        -11.88457130862223
      ],
      [
        "▁fazlası",
        -10.100597271573907
      ],
      [
        "▁hedefleri",
        -10.374579342136165
      ],
      [
        "▁abb",
        -11.671059053663175
      ],
      [
        "▁tı",
        -10.992942583622574
      ],
      [
        "▁22.",
        -9.951591424162933
      ],
      [
        "▁hemfikir",
        -11.884571113739486
      ],
      [
        "▁bunalım",
        -11.140115413072898
      ],
      [
        "▁pennsylvania",
        -11.884572702934088
      ],
      [
        "▁suphe",
        -9.898531524293254
      ],
      [
        "▁dolap",
        -10.30881876304392
      ],
      [
        "▁talebini",
        -11.271234617215447
      ],
      [
        "▁1.6",
        -8.971239292048033
      ],
      [
        "▁andır",
        -10.536008694867364
      ],
      [
        "▁puruzsuz",
        -11.375048188999695
      ],
      [
        "gımı",
        -10.380643167892327
      ],
      [
        "\\",
        -13.773315221647577
      ],
      [
        "▁alırı",
        -11.218782100267827
      ],
      [
        "▁rakamı",
        -11.002189991843135
      ],
      [
        "▁seher",
        -10.948142665782619
      ],
      [
        "▁sana",
        -7.031446902661547
      ],
      [
        "▁bildir",
        -10.267252606223385
      ],
      [
        "58",
        -11.366576723451207
      ],
      [
        "▁mevsimin",
        -11.75088517527977
      ],
      [
        "yo",
        -11.65058019635061
      ],
      [
        "▁guc",
        -8.602689302651957
      ],
      [
        "▁sakarya",
        -11.039035663990228
      ],
      [
        "▁cinsin",
        -11.266895921560899
      ],
      [
        "▁sayac",
        -11.688022364565509
      ],
      [
        "▁yed",
        -11.705153285025338
      ],
      [
        "▁uzandı",
        -10.723648737156163
      ],
      [
        "▁istasyon",
        -10.619468640423584
      ],
      [
        "▁adam",
        -7.395738227360765
      ],
      [
        "▁birileri",
        -9.482485129175965
      ],
      [
        "▁kredileri",
        -10.097293930072293
      ],
      [
        "▁onyedi",
        -10.921018666201677
      ],
      [
        "▁dursun",
        -10.86690419052
      ],
      [
        "▁farkında",
        -9.623550397110701
      ],
      [
        "▁cekilmis",
        -10.438323142129484
      ],
      [
        "▁ertelen",
        -11.529219111428299
      ],
      [
        "▁gunler",
        -9.294412954427274
      ],
      [
        "▁kabin",
        -11.13726369551297
      ],
      [
        "t",
        -6.307256664581648
      ],
      [
        "▁noktasın",
        -10.815315421209085
      ],
      [
        "▁oykuleri",
        -11.033728383290862
      ],
      [
        "▁edebiyatı",
        -10.826863917579118
      ],
      [
        "▁olmak",
        -10.570745522825971
      ],
      [
        "▁azaldı",
        -10.271002272315332
      ],
      [
        "isin",
        -11.368870029872117
      ],
      [
        ":30'da",
        -11.84684139174277
      ],
      [
        "abilmek",
        -10.613473648210842
      ],
      [
        "▁olumle",
        -11.355599777765036
      ],
      [
        "▁tasındı",
        -10.71129583592084
      ],
      [
        "▁sıyır",
        -10.864701694518828
      ],
      [
        "kları",
        -8.993250495435671
      ],
      [
        "▁kullanım",
        -10.347101748585422
      ],
      [
        "▁715",
        -12.41032435722673
      ],
      [
        "▁gecekondu",
        -11.250047591529203
      ],
      [
        "▁bahsettigi",
        -11.603300229366415
      ],
      [
        "▁tutturu",
        -11.842344592341794
      ],
      [
        "▁genetik",
        -10.948971933380623
      ],
      [
        "▁hakkımız",
        -11.469350755042617
      ],
      [
        "▁dans",
        -9.820183708632547
      ],
      [
        "▁sureti",
        -10.87700578296251
      ],
      [
        "▁gosteriyor",
        -8.905709490220378
      ],
      [
        "▁hakkı",
        -9.064631348095741
      ],
      [
        "inizi",
        -10.111213349025366
      ],
      [
        "▁gitmeye",
        -10.865898156510601
      ],
      [
        "▁508",
        -11.778184929197698
      ],
      [
        "hepsinde",
        -13.616948281124026
      ],
      [
        "▁muhabbet",
        -10.528351889255825
      ],
      [
        "▁bit",
        -9.713862441856563
      ],
      [
        "lemekte",
        -11.267330666284517
      ],
      [
        "▁yoneticisi",
        -9.764549713456901
      ],
      [
        "▁parcasını",
        -10.607974071233478
      ],
      [
        "▁yapılacagın",
        -11.334521154304289
      ],
      [
        "▁ugultu",
        -11.219605325984661
      ],
      [
        "▁kartel",
        -11.383799052426395
      ],
      [
        "sa",
        -9.687890704303967
      ],
      [
        "▁ihsan",
        -10.528351930453084
      ],
      [
        "imse",
        -12.521981718190222
      ],
      [
        "▁poor's",
        -11.884571185055588
      ],
      [
        "▁secilen",
        -11.14066155690398
      ],
      [
        "▁yardım",
        -8.330383934299855
      ],
      [
        "▁jeff",
        -11.039120755919885
      ],
      [
        "bunlar",
        -10.166677767552747
      ],
      [
        "▁agrıyor",
        -11.33816321682444
      ],
      [
        "▁kupon",
        -10.277815797400834
      ],
      [
        "▁dilenci",
        -11.375326358351575
      ],
      [
        "▁olasılıklar",
        -11.4157555054662
      ],
      [
        "digimiz",
        -10.644932726682107
      ],
      [
        "hkam",
        -11.743611288966147
      ],
      [
        "de",
        -6.052894913182481
      ],
      [
        "▁hece",
        -11.375494502242706
      ],
      [
        "umuzu",
        -10.686278518118613
      ],
      [
        "▁promosyon",
        -11.67415575362053
      ],
      [
        "▁duy",
        -10.462274898976998
      ],
      [
        "▁yuzsuz",
        -11.690544884251796
      ],
      [
        "▁soylemedi",
        -10.30381697280513
      ],
      [
        "▁elestirme",
        -11.260390136139064
      ],
      [
        "▁yedigim",
        -11.01681530853035
      ],
      [
        "▁yeser",
        -11.685277710478507
      ],
      [
        "▁toyota",
        -11.440358021713564
      ],
      [
        "▁sekreteri",
        -10.771948006474853
      ],
      [
        "▁seattle'",
        -9.062592130123988
      ],
      [
        "dort",
        -8.300701135237919
      ],
      [
        "▁bombardıman",
        -11.684571374048286
      ],
      [
        "▁mae",
        -10.770397586611839
      ],
      [
        "▁vekili",
        -10.972196837161075
      ],
      [
        "▁iktidar",
        -9.924747380790611
      ],
      [
        "▁patlıcan",
        -10.217014113526583
      ],
      [
        "▁kabak",
        -10.643909354750722
      ],
      [
        "▁cogunda",
        -10.93680925498924
      ],
      [
        "▁paylar",
        -11.01749165812028
      ],
      [
        "▁b.a.t",
        -10.864693783885016
      ],
      [
        "▁gonder",
        -9.902532960763567
      ],
      [
        "19",
        -11.864564628225484
      ],
      [
        "▁oldugu",
        -7.2777653205408965
      ],
      [
        "▁a.s.",
        -11.376995697935298
      ],
      [
        "▁1960",
        -9.847398297535513
      ],
      [
        "▁yetkilerini",
        -11.703745820488335
      ],
      [
        "▁kel",
        -10.780162906247273
      ],
      [
        "▁agızlı",
        -11.469107874985044
      ],
      [
        "▁gorme",
        -9.580431705941237
      ],
      [
        "▁kokain",
        -11.2504675371644
      ],
      [
        "▁yık",
        -10.229746261856501
      ],
      [
        "▁lı",
        -7.292870104275155
      ],
      [
        "▁morishita",
        -11.684571081860929
      ],
      [
        "@",
        -12.809526790838987
      ],
      [
        "ar",
        -10.551958778256274
      ],
      [
        "▁yasayan",
        -9.584510237298636
      ],
      [
        "▁ayda",
        -9.887833592196277
      ],
      [
        "olay",
        -12.462236502114942
      ],
      [
        "▁6'da",
        -9.595648218830735
      ],
      [
        "▁kart",
        -9.544827938764977
      ],
      [
        "▁kuslar",
        -10.191391337467405
      ],
      [
        "7'de",
        -11.588083951504554
      ],
      [
        "▁sorunsuz",
        -11.255872847092785
      ],
      [
        "▁kalitesiz",
        -10.703839661220476
      ],
      [
        "▁kahvaltisi",
        -9.946060392329459
      ],
      [
        "▁not",
        -9.706894227176079
      ],
      [
        "815",
        -12.812849515974593
      ],
      [
        "maktaydı",
        -11.235675649607083
      ],
      [
        "▁isitil",
        -11.633745292144935
      ],
      [
        "▁fon",
        -9.395449022383293
      ],
      [
        "▁ibadet",
        -10.94803067426917
      ],
      [
        "▁ozen",
        -9.757582598343257
      ],
      [
        "▁cesaretini",
        -10.822190924403483
      ],
      [
        "▁emanet",
        -11.038951415957639
      ],
      [
        "▁beklentilerimi",
        -11.122896889924647
      ],
      [
        "▁oh",
        -10.986569682820514
      ],
      [
        "▁yaptıkları",
        -10.238177174184678
      ],
      [
        "▁onu",
        -5.86245400157231
      ],
      [
        "▁nobetci",
        -10.589741202995533
      ],
      [
        "▁vurdum",
        -11.115183958669363
      ],
      [
        "▁1761",
        -11.362388341383486
      ],
      [
        "▁atlı",
        -10.972425042989306
      ],
      [
        "▁erzurum",
        -11.038936169618715
      ],
      [
        "▁biyo",
        -11.684573068900837
      ],
      [
        "▁%6",
        -11.436841391834099
      ],
      [
        "▁salonda",
        -10.696169202095284
      ],
      [
        "▁sokulu",
        -11.551590239274768
      ],
      [
        "▁2.87",
        -11.640250486919918
      ],
      [
        "▁cetrefil",
        -11.884571077959048
      ],
      [
        "▁tasvir",
        -11.25178715484034
      ],
      [
        "▁ceza",
        -8.992792110286395
      ],
      [
        "▁yayıncı",
        -11.027802605828237
      ],
      [
        "▁alısmıs",
        -11.252913970260616
      ],
      [
        "▁isteyen",
        -9.666388902828245
      ],
      [
        "▁hess",
        -11.250094743647422
      ],
      [
        "▁uzayda",
        -11.532394523935121
      ],
      [
        "▁sıcrama",
        -10.95686465679372
      ],
      [
        "▁cıkmaya",
        -10.716388234360604
      ],
      [
        "bizim",
        -9.761518336533253
      ],
      [
        "▁puskurt",
        -11.884571106147416
      ],
      [
        "▁bırakmıs",
        -10.267327980273922
      ],
      [
        "▁yerlestiril",
        -11.448631637604308
      ],
      [
        "▁olusması",
        -11.336081809385522
      ],
      [
        "▁gelirleri",
        -10.332022699387919
      ],
      [
        "▁karsıladı",
        -10.379629816475553
      ],
      [
        "▁katip",
        -11.260136136221526
      ],
      [
        "ebilecek",
        -10.27385708773737
      ],
      [
        "▁%7.",
        -11.075594433443909
      ],
      [
        "▁kokar",
        -11.54929531735438
      ],
      [
        "tzer",
        -11.68637608817872
      ],
      [
        "▁pisiri",
        -10.116791027112244
      ],
      [
        "▁gostermesi",
        -11.321039104081875
      ],
      [
        "▁yapıyorlar",
        -10.43927378401707
      ],
      [
        "2000",
        -10.360151570583378
      ],
      [
        "▁baktı",
        -8.727675943044078
      ],
      [
        "▁durmustu",
        -11.589224144478994
      ],
      [
        "▁donen",
        -9.945034924112154
      ],
      [
        "▁ayse",
        -9.688837062690197
      ],
      [
        "▁ikna",
        -10.233624645602456
      ],
      [
        "▁angeles'",
        -9.641798816534802
      ],
      [
        "▁izledigi",
        -10.91096901142384
      ],
      [
        "▁resepsiyon",
        -10.785706974567287
      ],
      [
        "▁cıglık",
        -10.514373233101834
      ],
      [
        "▁odemeleri",
        -10.55886393930898
      ],
      [
        "▁yasını",
        -11.075280268462505
      ],
      [
        "▁uygula",
        -10.477484519585822
      ],
      [
        "▁arabistan",
        -11.884571402556617
      ],
      [
        "▁gozum",
        -10.17965581557113
      ],
      [
        "▁saclı",
        -10.428246560946233
      ],
      [
        "▁alaturka",
        -11.250047528216035
      ],
      [
        ".16",
        -11.431430017098833
      ],
      [
        "▁yılların",
        -10.48384375307268
      ],
      [
        "lu",
        -10.540402499714833
      ],
      [
        "▁arke",
        -11.687501105703767
      ],
      [
        "2",
        -6.4595835472024214
      ],
      [
        "ebilecegini",
        -9.910123679758998
      ],
      [
        "▁inat",
        -10.742905215167193
      ],
      [
        "lesmisti",
        -10.712425440355325
      ],
      [
        "▁iscileri",
        -10.754535388619036
      ],
      [
        "▁alısı",
        -10.81667896657846
      ],
      [
        "▁belirsizlik",
        -11.380800488633989
      ],
      [
        "▁tesri",
        -11.685371130989598
      ],
      [
        "▁hakim",
        -9.57915021514214
      ],
      [
        "▁proje",
        -9.27158160122475
      ],
      [
        "▁tarife",
        -9.796670449511614
      ],
      [
        "1.70",
        -11.46081279702598
      ],
      [
        "▁baklava",
        -11.039063053884508
      ],
      [
        "▁ucu",
        -9.239929097601554
      ],
      [
        "▁intihar",
        -10.37016504554076
      ],
      [
        "▁yedigi",
        -11.180958751997638
      ],
      [
        "▁feryat",
        -11.038985358391312
      ],
      [
        "▁27",
        -7.710104612445034
      ],
      [
        "▁sonuclar",
        -9.733066128974983
      ],
      [
        "▁yansıttıgın",
        -11.228120216792595
      ],
      [
        "▁islemini",
        -10.883223215341783
      ],
      [
        "leri",
        -6.095451305838231
      ],
      [
        "▁abc",
        -11.119281512435691
      ],
      [
        "▁carpan",
        -10.865606654054977
      ],
      [
        "▁antika",
        -11.139426819833735
      ],
      [
        "▁biriktirdigi",
        -11.684603951990265
      ],
      [
        "▁he",
        -6.007693112883406
      ],
      [
        "▁gm",
        -10.701032477749845
      ],
      [
        "▁basını",
        -8.836961874574492
      ],
      [
        "▁kıvrak",
        -11.38279635066916
      ],
      [
        "▁notu",
        -11.271370851306813
      ],
      [
        "▁gorevlileri",
        -10.700571107148448
      ],
      [
        "▁yaratıyor",
        -10.876365017425826
      ],
      [
        "▁66",
        -10.834958921941555
      ],
      [
        "▁chicago'",
        -9.226417129217861
      ],
      [
        "▁yayınlana",
        -11.584418581554996
      ],
      [
        "▁karsılastı",
        -10.812750065096719
      ],
      [
        "▁pazarı",
        -10.299949253636678
      ],
      [
        "▁mudafaa",
        -11.884571193291851
      ],
      [
        "▁hadi",
        -9.579778650894013
      ],
      [
        "▁cıkacak",
        -9.767126887436138
      ],
      [
        "▁hissediyor",
        -10.431755871471207
      ],
      [
        "▁rehberi",
        -11.20493584970108
      ],
      [
        "▁edildi",
        -8.710539297607966
      ],
      [
        "▁baskanlıgı",
        -10.48525964861473
      ],
      [
        "▁anlayan",
        -11.14326462525978
      ],
      [
        "▁inanır",
        -10.532797699209208
      ],
      [
        "▁fantezi",
        -11.250047926085374
      ],
      [
        "▁gemini",
        -11.284021419048912
      ],
      [
        "▁yukseliste",
        -11.51997951394324
      ],
      [
        "oloji",
        -10.649699910320406
      ],
      [
        "▁aktif",
        -9.09354702944636
      ],
      [
        "▁sosyalist",
        -10.528719656662302
      ],
      [
        "▁infilak",
        -11.884571085321966
      ],
      [
        "▁hac",
        -10.653820842927765
      ],
      [
        "▁kaybolma",
        -11.518058079164252
      ],
      [
        "lendirdigi",
        -11.840390990013717
      ],
      [
        "▁bugun",
        -7.583510101750251
      ],
      [
        "▁deme",
        -9.995095751782387
      ],
      [
        "▁travma",
        -11.259037832889554
      ],
      [
        "▁18.7",
        -10.655048398053445
      ],
      [
        "▁sesi",
        -8.775196139811655
      ],
      [
        "▁sultan",
        -9.766328224852087
      ],
      [
        "29.7",
        -12.533360797193046
      ],
      [
        "▁aldıgı",
        -9.198364747263117
      ],
      [
        "▁bicimde",
        -9.59841744830225
      ],
      [
        "▁benzet",
        -11.135685300648696
      ],
      [
        "▁uni",
        -11.369497369764751
      ],
      [
        "▁tenis",
        -10.717652084124708
      ],
      [
        "abilecek",
        -9.907614022441752
      ],
      [
        "▁borsada",
        -10.464363231775497
      ],
      [
        "▁sahit",
        -10.479700038250877
      ],
      [
        "dayım",
        -10.980827476764794
      ],
      [
        "▁esim",
        -9.547867778303221
      ],
      [
        "▁yonetimin",
        -10.850405884501946
      ],
      [
        "▁arsa",
        -10.870621632290575
      ],
      [
        "▁harbi",
        -10.932047038926985
      ],
      [
        "▁oyunculugu",
        -11.691122983077259
      ],
      [
        "3",
        -6.917042067206594
      ],
      [
        "▁pur",
        -10.32165736255127
      ],
      [
        "▁seviyesin",
        -9.164282936561644
      ],
      [
        "▁a.b.d.",
        -10.111995442188702
      ],
      [
        "▁payı",
        -9.747641272974198
      ],
      [
        "▁kayna",
        -9.769144786197813
      ],
      [
        "▁hosgoru",
        -10.787770858493477
      ],
      [
        "▁degerlendirdi",
        -11.419548147371776
      ],
      [
        "birimizi",
        -12.489868184035416
      ],
      [
        "▁kavramını",
        -11.22960007779394
      ],
      [
        "▁gostermedi",
        -11.430787884717239
      ],
      [
        "40'",
        -11.247395763638513
      ],
      [
        "▁6.23",
        -11.918677780991729
      ],
      [
        "▁faaliyeti",
        -10.41703072777387
      ],
      [
        "▁tor",
        -10.41375089180082
      ],
      [
        "850",
        -10.782958740504103
      ],
      [
        "▁adlandır",
        -10.726678352758995
      ],
      [
        "▁yarıyor",
        -11.38196304168315
      ],
      [
        "▁bazı",
        -8.875222956498725
      ],
      [
        "▁cabalarını",
        -11.312083421521903
      ],
      [
        "▁uzerindeydi",
        -10.922581467917103
      ],
      [
        "▁firması",
        -9.57357838509252
      ],
      [
        "1.1",
        -10.777775562792533
      ],
      [
        "misti",
        -8.49969004667226
      ],
      [
        "▁dugun",
        -9.681401609619673
      ],
      [
        "▁biliyordu",
        -10.286336236671316
      ],
      [
        "▁olus",
        -10.287400005436428
      ],
      [
        "▁15",
        -7.200442600775433
      ],
      [
        "▁'yd",
        -10.140773474257456
      ],
      [
        "250",
        -11.46214122036545
      ],
      [
        "▁istanbul'da",
        -9.411917511556007
      ],
      [
        "▁cephe",
        -10.006263914500707
      ],
      [
        "▁carolina'",
        -11.055485232836807
      ],
      [
        "▁gerisinde",
        -11.07989882617086
      ],
      [
        "▁kebabistan",
        -11.884571077969099
      ],
      [
        "▁saglana",
        -11.64487091129852
      ],
      [
        ".48",
        -11.062584104723452
      ],
      [
        "▁tanıtma",
        -11.555016370097645
      ],
      [
        "▁konser",
        -10.192098939844008
      ],
      [
        "▁barut",
        -11.039657577060664
      ],
      [
        "ilmi",
        -11.210180141858551
      ],
      [
        "▁irtibat",
        -11.375047269312788
      ],
      [
        "▁uzanmıs",
        -11.566984278735978
      ],
      [
        "▁zorunlu",
        -9.76632697086075
      ],
      [
        "▁japonya",
        -9.977443796806133
      ],
      [
        "▁olusu",
        -9.982073806882426
      ],
      [
        "▁lodos",
        -10.948038158823163
      ],
      [
        "▁mektep",
        -10.514473562695612
      ],
      [
        "▁7.8",
        -10.097820971109448
      ],
      [
        "▁tasavvur",
        -11.375047268492473
      ],
      [
        "donusturulebilir",
        -11.648391842233512
      ],
      [
        "▁13.6",
        -11.503214433874618
      ],
      [
        "▁odullendiril",
        -11.690023532543076
      ],
      [
        "▁kursun",
        -9.415693285663536
      ],
      [
        "▁vurguladı",
        -10.536746292919432
      ],
      [
        "▁yuzluydu",
        -9.530502357132201
      ],
      [
        "▁satıyor",
        -10.24489984025175
      ],
      [
        "▁1/3",
        -11.622211031730485
      ],
      [
        "▁beser",
        -11.53173885985994
      ],
      [
        "▁kocası",
        -10.026653361892123
      ],
      [
        "▁ogun",
        -11.390333752561897
      ],
      [
        "telif",
        -11.24723791168144
      ],
      [
        "▁sun",
        -11.661185466512986
      ],
      [
        "▁bankaların",
        -10.747263688952524
      ],
      [
        "▁dokulu",
        -11.241245725162441
      ],
      [
        "▁suna",
        -10.28578529800466
      ],
      [
        "▁kalmadi",
        -8.153181727215458
      ],
      [
        "▁biliyoru",
        -9.671336419488338
      ],
      [
        "▁askerleri",
        -10.891979204075755
      ],
      [
        "▁istey",
        -11.116136065665875
      ],
      [
        "▁tıpkı",
        -9.849709896457647
      ],
      [
        "62.9",
        -11.167611061664797
      ],
      [
        "▁539",
        -11.65005122487141
      ],
      [
        "▁boga",
        -10.768856540845611
      ],
      [
        "▁sakir",
        -11.387092295171795
      ],
      [
        "▁agrıları",
        -11.221241840641158
      ],
      [
        "▁0.4",
        -9.905857409742325
      ],
      [
        "▁tahvillerin",
        -10.558451156566367
      ],
      [
        "▁secme",
        -10.314559337670678
      ],
      [
        "▁kurt",
        -9.41905453150412
      ],
      [
        "▁biliri",
        -10.831477488155656
      ],
      [
        "▁calısanlar",
        -10.406246033520341
      ],
      [
        "65",
        -9.675037765306438
      ],
      [
        "▁nuran",
        -11.710935803345683
      ],
      [
        "▁camurlu",
        -11.27232899530267
      ],
      [
        "▁gelecekler",
        -11.018438505720166
      ],
      [
        "▁bebek",
        -9.641165903952885
      ],
      [
        "▁fall",
        -11.871504887147992
      ],
      [
        "▁merkezleri",
        -11.099138468181124
      ],
      [
        "▁erbakan",
        -11.316261263768794
      ],
      [
        "▁tasın",
        -10.03392019040366
      ],
      [
        "▁kurtulama",
        -11.108632863249621
      ],
      [
        "▁fotografcı",
        -11.343772462545884
      ],
      [
        "▁usx",
        -11.141559095539876
      ],
      [
        "▁bilirdi",
        -10.749138300216227
      ],
      [
        "▁sirketini",
        -10.400487611560122
      ],
      [
        "▁kanada",
        -9.72857962443517
      ],
      [
        "▁tesis",
        -7.21797833069503
      ],
      [
        "▁ordusu",
        -10.59989006657285
      ],
      [
        "▁kahkaha",
        -10.311361924065459
      ],
      [
        "▁tıras",
        -10.322622276293522
      ],
      [
        "▁muhtac",
        -10.420168227275322
      ],
      [
        "▁bildigini",
        -11.224607988667005
      ],
      [
        "▁elinde",
        -8.154604684339162
      ],
      [
        "▁zurna",
        -11.375662736863116
      ],
      [
        "▁ekonomik",
        -8.824288907783005
      ],
      [
        "▁dısarı",
        -9.006771457691663
      ],
      [
        "▁vietnam",
        -11.356555624401121
      ],
      [
        "▁duzene",
        -11.197578669781764
      ],
      [
        "▁oteli",
        -8.892590455310987
      ],
      [
        "▁mum",
        -10.188160439400393
      ],
      [
        "▁ugrama",
        -10.594108442093377
      ],
      [
        "▁sektorunu",
        -11.583816695497077
      ],
      [
        "▁bekledigi",
        -10.846708015297574
      ],
      [
        "▁omru",
        -10.74940038155793
      ],
      [
        "▁astı",
        -9.983291853920424
      ],
      [
        "▁5.2",
        -9.986562517576044
      ],
      [
        "▁geldik",
        -10.123655344787238
      ],
      [
        "▁yuruyu",
        -11.467866535552156
      ],
      [
        "▁communications",
        -10.94913112715869
      ],
      [
        "▁tuvaletler",
        -11.603398886198683
      ],
      [
        "▁degmedi",
        -11.463828364382277
      ],
      [
        "▁giri",
        -9.80974334292231
      ],
      [
        "▁karısmıstı",
        -11.57778769917796
      ],
      [
        "▁degisim",
        -9.745933007645352
      ],
      [
        "▁gencler",
        -10.171089558427184
      ],
      [
        "▁lif",
        -10.278005817650307
      ],
      [
        "▁harca",
        -10.22451611460494
      ],
      [
        "lanmıstır",
        -10.659585762560312
      ],
      [
        "▁ses",
        -8.724820486855437
      ],
      [
        "▁hanım'ı",
        -10.856858155923792
      ],
      [
        "▁otu",
        -9.62229282447634
      ],
      [
        "▁bakımından",
        -9.573420957471441
      ],
      [
        "liklerini",
        -10.524748333710376
      ],
      [
        "▁dem",
        -10.27379148505733
      ],
      [
        "▁dugmesin",
        -11.434823406797404
      ],
      [
        "▁373",
        -12.387602372863494
      ],
      [
        "▁sakınca",
        -10.868782643442053
      ],
      [
        "▁felaket",
        -9.711842259277342
      ],
      [
        "▁cizdi",
        -11.190325135264397
      ],
      [
        "▁1.05",
        -10.674560221169152
      ],
      [
        "▁kac",
        -8.465416840291955
      ],
      [
        "▁kodu",
        -9.413769703595097
      ],
      [
        "▁tekne",
        -9.670221859667452
      ],
      [
        "▁sabrı",
        -11.14310020738056
      ],
      [
        "saltı",
        -13.337815592279034
      ],
      [
        "milyar",
        -9.221117220092149
      ],
      [
        "▁saha",
        -9.607962441994749
      ],
      [
        "991",
        -11.433099130164889
      ],
      [
        "▁kuruluslarını",
        -11.631929565701205
      ],
      [
        "▁beyoglu'nda",
        -11.385852349313113
      ],
      [
        "▁karsiladi",
        -9.530712233428098
      ],
      [
        "▁hastalıgı",
        -10.453697982098523
      ],
      [
        "▁indiana",
        -11.25030383071749
      ],
      [
        "▁agaclarını",
        -11.07731377781051
      ],
      [
        "▁olma",
        -8.284917909112096
      ],
      [
        "▁yam",
        -11.429855101809457
      ],
      [
        "▁oguz",
        -11.684595915396514
      ],
      [
        "▁rezervasyonlar",
        -10.542987199676164
      ],
      [
        "▁katıldıgı",
        -11.275733442229274
      ],
      [
        "▁tahlil",
        -11.68458955401977
      ],
      [
        "▁andırır",
        -11.386334780101969
      ],
      [
        "▁gelmislerdi",
        -11.532766142495154
      ],
      [
        "▁sami",
        -11.3664949098065
      ],
      [
        "▁grubu",
        -9.54303531106331
      ],
      [
        "▁arıyor",
        -9.86990564995983
      ],
      [
        "▁cinsten",
        -11.377944012872698
      ],
      [
        "▁sonrası",
        -9.710112544662708
      ],
      [
        "▁ihtiyat",
        -10.78549245270857
      ],
      [
        "▁kostum",
        -11.07812838758422
      ],
      [
        "▁getirecegi",
        -10.804866265318939
      ],
      [
        "▁oylama",
        -10.0901006343209
      ],
      [
        "▁toplandı",
        -11.039943360054055
      ],
      [
        "▁sektorde",
        -11.34048246969947
      ],
      [
        "▁gerektiriyor",
        -10.590235936995168
      ],
      [
        "hi",
        -9.224586605584243
      ],
      [
        "in",
        -9.31817253420266
      ],
      [
        "▁ayakkabıları",
        -11.009700753956183
      ],
      [
        "▁gozlerinde",
        -10.30598293692881
      ],
      [
        "la",
        -7.417516293723048
      ],
      [
        "▁birbirlerin",
        -8.356805554692865
      ],
      [
        "▁ogren",
        -10.056157800074564
      ],
      [
        "▁macı",
        -10.651039733500628
      ],
      [
        "▁grub",
        -11.230651122623927
      ],
      [
        "582",
        -11.988356530012222
      ],
      [
        "▁muze",
        -9.922665652355127
      ],
      [
        "▁acmıs",
        -10.603390759250871
      ],
      [
        "▁bicil",
        -11.115141810243628
      ],
      [
        "▁kibar",
        -9.909409410907726
      ],
      [
        "▁mazlum",
        -11.684634479367741
      ],
      [
        "▁giyinme",
        -11.377406800359262
      ],
      [
        "750",
        -12.118857837568932
      ],
      [
        "'si",
        -12.455738065913676
      ],
      [
        "▁gokce",
        -11.39420527777082
      ],
      [
        "▁duzeyinde",
        -11.144897625783438
      ],
      [
        "▁hucre",
        -10.167350289339609
      ],
      [
        "▁mexico",
        -11.684571079998953
      ],
      [
        "▁yaratacagı",
        -11.612815982025737
      ],
      [
        "sanız",
        -9.786547342911494
      ],
      [
        "▁sek",
        -9.915591238872983
      ],
      [
        "madı",
        -9.586755952837445
      ],
      [
        "▁5",
        -6.399179993357795
      ],
      [
        "/",
        -9.963934121793269
      ],
      [
        "▁qintex",
        -10.420164754563945
      ],
      [
        "▁actıgı",
        -10.443476801191661
      ],
      [
        "▁goru",
        -10.76169494089218
      ],
      [
        "▁iceri",
        -8.532556530926513
      ],
      [
        "ingers",
        -11.519472812483336
      ],
      [
        "▁yukselmisti",
        -11.610602183861067
      ],
      [
        "▁borclanma",
        -10.53134732914828
      ],
      [
        "▁seslerini",
        -11.086550102516219
      ],
      [
        "▁kitap",
        -8.915625984270834
      ],
      [
        "▁kararname",
        -11.251868888322722
      ],
      [
        "hem",
        -10.71656206221237
      ],
      [
        "▁kaybetmis",
        -11.09138675927594
      ],
      [
        "▁koruyucu",
        -11.375056962270612
      ],
      [
        "▁gerdan",
        -10.593838529661905
      ],
      [
        "▁sizin",
        -7.4886096173651
      ],
      [
        "▁duzey",
        -9.63341414704983
      ],
      [
        "lukla",
        -11.033175283190056
      ],
      [
        "30000",
        -10.729387378770138
      ],
      [
        "▁senedi",
        -8.199266788285676
      ],
      [
        "▁vurma",
        -10.43713143404432
      ],
      [
        "▁kullandıgı",
        -10.181258145750778
      ],
      [
        "▁kırac",
        -11.249897486372648
      ],
      [
        "▁suclu",
        -9.99630320325894
      ],
      [
        "4'",
        -9.808462497195904
      ],
      [
        "yip",
        -9.367804818750756
      ],
      [
        "▁grand",
        -11.250091193140513
      ],
      [
        "ov",
        -10.382951809664528
      ],
      [
        "cigim",
        -11.160138026630877
      ],
      [
        "▁yetim",
        -11.693364541776543
      ],
      [
        "▁egitim",
        -8.80680099197726
      ],
      [
        "6000",
        -11.892218358765273
      ],
      [
        "▁olacak",
        -10.653978238680095
      ],
      [
        "▁arazi",
        -9.819035521856694
      ],
      [
        "▁indirdi",
        -10.678899079923848
      ],
      [
        "▁6.9",
        -10.346919540327479
      ],
      [
        "▁336",
        -12.07267719943847
      ],
      [
        "▁bulunan",
        -8.761416205893712
      ],
      [
        "▁kilo",
        -10.233624228035447
      ],
      [
        "▁evlerini",
        -10.75755008293854
      ],
      [
        "▁kavun",
        -11.376671221291751
      ],
      [
        "▁hisselerin",
        -10.287712958783823
      ],
      [
        "di",
        -5.6426804457314645
      ],
      [
        "▁bogdu",
        -11.426888293332118
      ],
      [
        "86",
        -10.339443531285527
      ],
      [
        "▁trabzon",
        -11.684501441599055
      ],
      [
        "▁mevki",
        -10.530712437571852
      ],
      [
        "▁pembe",
        -9.849697647081914
      ],
      [
        "'",
        -7.654000569261532
      ],
      [
        "▁inmis",
        -10.857388460783199
      ],
      [
        "▁gecirmek",
        -10.478016998779522
      ],
      [
        "meyecegim",
        -10.705405800967455
      ],
      [
        "▁sen",
        -6.208861544610927
      ],
      [
        "▁dususu",
        -10.414905201767464
      ],
      [
        "▁istihbarat",
        -10.948027066398195
      ],
      [
        "▁ce",
        -9.712124035131303
      ],
      [
        "▁otele",
        -9.657852083554081
      ],
      [
        "nize",
        -10.437088625476594
      ],
      [
        "▁59",
        -10.096856913753165
      ],
      [
        "374",
        -12.351290241819829
      ],
      [
        "▁inen",
        -10.667484851594665
      ],
      [
        "▁toplanan",
        -10.587744280761203
      ],
      [
        "▁ler",
        -9.237594244454714
      ],
      [
        "▁kardes",
        -9.53857343295533
      ],
      [
        "▁90",
        -9.764304110553487
      ],
      [
        "▁baglama",
        -10.37868985782597
      ],
      [
        "▁yukunu",
        -11.053026067552226
      ],
      [
        "▁odamiz",
        -9.13173531293176
      ],
      [
        "▁endise",
        -9.470523193787457
      ],
      [
        "▁sozlesme",
        -9.308460096867723
      ],
      [
        "▁denizde",
        -10.375390610083706
      ],
      [
        "▁142",
        -11.774828766343562
      ],
      [
        "▁genisletme",
        -11.72537509273649
      ],
      [
        "meyi",
        -9.471514167600802
      ],
      [
        "▁inci",
        -10.547364676298201
      ],
      [
        "▁kutsal",
        -10.788416491324902
      ],
      [
        "▁tezgahta",
        -11.665572978872508
      ],
      [
        "▁hisseleri",
        -8.539630680445935
      ],
      [
        "▁bolunme",
        -10.511915984256246
      ],
      [
        "▁bulgur",
        -10.651045623246532
      ],
      [
        "▁jr",
        -11.323270173317798
      ],
      [
        "▁13.7",
        -11.716212067501807
      ],
      [
        "▁arttırma",
        -10.70940292725741
      ],
      [
        "▁sonuc",
        -8.71384066526463
      ],
      [
        "▁alabildigi",
        -11.03968493856394
      ],
      [
        "irmi",
        -11.575760553809932
      ],
      [
        "▁turuncu",
        -10.948698154450367
      ],
      [
        "romu",
        -11.677456785606456
      ],
      [
        "▁kapsaya",
        -11.067733466754536
      ],
      [
        "▁aclık",
        -10.685512938607463
      ],
      [
        "▁savası",
        -9.618498265747828
      ],
      [
        "▁atıyor",
        -9.953625216524223
      ],
      [
        "▁bulabilir",
        -10.013093775469322
      ],
      [
        "▁feri",
        -11.207408714934443
      ],
      [
        "▁sormak",
        -11.001554106990291
      ],
      [
        "▁dovunuyor",
        -11.517904479939368
      ],
      [
        "▁altın",
        -8.020627734390786
      ],
      [
        "▁veremedi",
        -11.518110118006707
      ],
      [
        "▁tanıkları",
        -11.393684621173628
      ],
      [
        "▁sureci",
        -9.913884520421341
      ],
      [
        "▁kendimde",
        -9.632540964210538
      ],
      [
        "▁telefonla",
        -9.182511628895995
      ],
      [
        "▁getirmisti",
        -10.881091813365277
      ],
      [
        "▁575",
        -12.55775221333515
      ],
      [
        "▁oynadıgı",
        -10.994262986997374
      ],
      [
        "▁!",
        -9.510406401262047
      ],
      [
        "▁teslim",
        -9.447660805857423
      ],
      [
        "▁periyod",
        -11.517905063217242
      ],
      [
        "▁ets",
        -9.402435505390224
      ],
      [
        "▁tedbiri",
        -11.352197433735737
      ],
      [
        "▁bulunuyordu",
        -10.377689656960507
      ],
      [
        "▁otur",
        -9.302745593531487
      ],
      [
        "▁bisiklet",
        -9.793345215924107
      ],
      [
        "▁icmis",
        -11.304031624005056
      ],
      [
        "▁tepe",
        -9.419283836621476
      ],
      [
        "▁yurutuyor",
        -10.94820061659374
      ],
      [
        "▁po",
        -9.627507189094231
      ],
      [
        "▁favori",
        -11.517904470924615
      ],
      [
        "▁muhasebe",
        -10.574517786683103
      ],
      [
        "▁fabrikasını",
        -11.551114824884419
      ],
      [
        "▁tahviller",
        -9.024530919175737
      ],
      [
        "▁sef",
        -11.303713825246291
      ],
      [
        "▁rakı",
        -9.55166006702739
      ],
      [
        "▁",
        -0.7142778471973958
      ],
      [
        "▁kamcı",
        -11.375847537328
      ],
      [
        "ya",
        -10.818797471308109
      ],
      [
        "▁step",
        -11.519460170977453
      ],
      [
        "▁degmis",
        -11.252134833049565
      ],
      [
        "▁kelimesi",
        -10.74454031309746
      ],
      [
        "▁rum",
        -9.957542833005123
      ],
      [
        "mayacagı",
        -10.04010863513562
      ],
      [
        "sunu",
        -11.5643644007294
      ],
      [
        "▁cıkacagı",
        -11.170958256019846
      ],
      [
        "▁4.6",
        -10.156452873367982
      ],
      [
        "▁sin",
        -10.058775056398641
      ],
      [
        "▁boncuk",
        -10.71643275475846
      ],
      [
        "▁safha",
        -10.768819230552209
      ],
      [
        "10",
        -10.700169260164532
      ],
      [
        "▁gumruk",
        -11.504157944296727
      ],
      [
        "▁yuksekti",
        -9.043816821897693
      ],
      [
        "▁kut",
        -9.61643287403217
      ],
      [
        "▁destegi",
        -10.737431638334414
      ],
      [
        "▁kalabalıgı",
        -10.920544417761718
      ],
      [
        "mamıs",
        -10.072669949029684
      ],
      [
        "▁oldugum",
        -9.36860262702164
      ],
      [
        "▁malzeme",
        -9.891524109703226
      ],
      [
        "lere",
        -7.3703908038839945
      ],
      [
        "▁soylemeye",
        -11.058104269307014
      ],
      [
        "▁kollu",
        -11.287647836494878
      ],
      [
        "▁narin",
        -11.379607059854408
      ],
      [
        "▁204.",
        -12.83685888154532
      ],
      [
        "▁kavusacak",
        -11.884571388468197
      ],
      [
        "▁king",
        -11.688159816987127
      ],
      [
        "lanmaya",
        -10.400001525935732
      ],
      [
        "▁oc",
        -11.169971877437419
      ],
      [
        "▁bulgu",
        -11.499949935863624
      ],
      [
        "▁agız",
        -9.536639786941954
      ],
      [
        "lik",
        -6.842047210621166
      ],
      [
        "▁buro",
        -10.99710105023916
      ],
      [
        "▁18.6",
        -10.65780741258353
      ],
      [
        "▁ucunda",
        -9.780734435601019
      ],
      [
        "▁mur",
        -10.131730702428928
      ],
      [
        "▁malzemeleri",
        -10.301925731798944
      ],
      [
        "▁karıstır",
        -10.538562042351563
      ],
      [
        "▁amcam",
        -10.745729731055093
      ],
      [
        "▁rahatsız",
        -9.572770931892894
      ],
      [
        "ildi",
        -10.034599991463814
      ],
      [
        "▁takımları",
        -10.960685018211619
      ],
      [
        "▁1971",
        -11.322387105554148
      ],
      [
        "▁nine",
        -10.28553239403826
      ],
      [
        "▁alanını",
        -11.203719592966678
      ],
      [
        "▁direni",
        -11.22269885137349
      ],
      [
        "86",
        -12.153008031101201
      ],
      [
        "▁anasını",
        -10.916016998261638
      ],
      [
        "ak",
        -7.804092858450923
      ],
      [
        "▁boyama",
        -11.631702641633233
      ],
      [
        "dum",
        -9.156293291224282
      ],
      [
        ".50",
        -9.474023788463791
      ],
      [
        "▁gercekci",
        -10.685669572149973
      ],
      [
        "▁ikiy",
        -10.599484296448376
      ],
      [
        "▁tablosu",
        -11.41693668281693
      ],
      [
        "qui",
        -11.467629384519459
      ],
      [
        "▁1/8'",
        -11.684571329875691
      ],
      [
        "uf",
        -10.97996616497037
      ],
      [
        "sin",
        -10.559756008826753
      ],
      [
        "▁tacoma'",
        -10.029404919260637
      ],
      [
        "▁ayar",
        -10.30855118393211
      ],
      [
        "▁salladı",
        -11.093443044389849
      ],
      [
        "▁power",
        -11.038993541235508
      ],
      [
        "▁ocagı",
        -10.301881389605073
      ],
      [
        "▁yaratıl",
        -11.276266120916013
      ],
      [
        "▁iner",
        -10.544899402669031
      ],
      [
        "▁palto",
        -10.152042010475746
      ],
      [
        "▁suregel",
        -11.147315694961787
      ],
      [
        "▁hesapları",
        -10.480759607055184
      ],
      [
        "▁mudur",
        -10.569581647065483
      ],
      [
        "▁uzanır",
        -11.686277202129466
      ],
      [
        "1.6",
        -10.028008202536643
      ],
      [
        "▁123",
        -11.510115818597157
      ],
      [
        "▁yayınlar",
        -10.852722575389622
      ],
      [
        "▁baskumandan",
        -11.884571087318097
      ],
      [
        "▁ucret",
        -7.301167059358248
      ],
      [
        "▁keder",
        -10.721177096197966
      ],
      [
        "▁prensesi",
        -11.411228727355436
      ],
      [
        "uyorsun",
        -11.60355187022719
      ],
      [
        "▁temsilci",
        -10.064233445716319
      ],
      [
        "▁katıldı",
        -9.968863116268135
      ],
      [
        "▁ziya",
        -10.816140580534977
      ],
      [
        "▁prof",
        -10.473518289957855
      ],
      [
        "▁gosterileri",
        -10.98121551689807
      ],
      [
        "arak",
        -5.536104908897312
      ],
      [
        "▁oya",
        -10.026923308593293
      ],
      [
        "▁unutu",
        -10.825269167952271
      ],
      [
        "▁annem",
        -8.613387085967759
      ],
      [
        "tu",
        -9.158395043648547
      ],
      [
        "▁benziyor",
        -9.720784830693429
      ],
      [
        "▁gelistirdi",
        -11.187203162711084
      ],
      [
        "▁salvar",
        -11.375283690907908
      ],
      [
        "▁bitis",
        -11.676007923246452
      ],
      [
        "▁sandıgı",
        -10.260961231017092
      ],
      [
        "mislerdi",
        -10.44046531917328
      ],
      [
        "▁vurur",
        -10.973136570690706
      ],
      [
        "▁8.9",
        -10.558512057576548
      ],
      [
        "b",
        -4.751618902518528
      ],
      [
        "▁kahramanı",
        -11.467937394792116
      ],
      [
        ".7",
        -10.126140513131105
      ],
      [
        "ay",
        -9.256230120737433
      ],
      [
        "dim",
        -8.926831132052726
      ],
      [
        "▁pus",
        -10.474687861910382
      ],
      [
        "▁mukellef",
        -11.006720157187587
      ],
      [
        "lıg",
        -9.182827505542013
      ],
      [
        "9.4",
        -10.687779410694938
      ],
      [
        "▁japonlar",
        -10.762968662600377
      ],
      [
        "ısı",
        -11.051820260445027
      ],
      [
        "ligini",
        -8.620290432247646
      ],
      [
        "▁milliyet",
        -10.871549670914725
      ],
      [
        "▁tahsil",
        -10.322594241235766
      ],
      [
        "▁sene",
        -8.159220555055638
      ],
      [
        "lerin",
        -10.512831345665763
      ],
      [
        "▁oksuruk",
        -10.948120472837417
      ],
      [
        "▁doktoru",
        -10.825851844338787
      ],
      [
        "▁kadının",
        -9.447321981058156
      ],
      [
        "▁nazlı",
        -11.259076243796743
      ],
      [
        "▁ayakkabılarını",
        -11.264187083138472
      ],
      [
        "916",
        -11.521723698671597
      ],
      [
        "▁dogrulugunu",
        -11.689540632798911
      ],
      [
        "42",
        -10.270328648458687
      ],
      [
        "▁duman",
        -9.442268737790585
      ],
      [
        "▁sıralarda",
        -11.024009160435
      ],
      [
        "33",
        -10.603264245695037
      ],
      [
        "▁verdigim",
        -8.83855576050206
      ],
      [
        "▁fonu",
        -9.92348312239315
      ],
      [
        "▁lideri",
        -9.876606067096713
      ],
      [
        "▁fır",
        -10.635850520218922
      ],
      [
        "▁porsu",
        -11.517918974789426
      ],
      [
        "▁ye",
        -9.46692863669167
      ],
      [
        "▁egil",
        -10.622154562972852
      ],
      [
        "▁muhendisi",
        -11.405961612278892
      ],
      [
        "▁babasın",
        -11.140471192689887
      ],
      [
        "▁yapısı",
        -10.118562443213085
      ],
      [
        "▁boyut",
        -10.422368921496387
      ],
      [
        "den",
        -5.438069272143264
      ],
      [
        "▁bini",
        -12.284974352898384
      ],
      [
        "▁donunu",
        -11.650620388973346
      ],
      [
        "▁80",
        -9.245377230161239
      ],
      [
        "▁fitil",
        -10.948888192862928
      ],
      [
        "▁maske",
        -10.649767267164934
      ],
      [
        "▁karıstırın",
        -10.675212660315315
      ],
      [
        "▁hamile",
        -10.652129367274275
      ],
      [
        "▁ag",
        -8.814033814938117
      ],
      [
        "likte",
        -9.555726180192401
      ],
      [
        "▁virus",
        -11.375085122623787
      ],
      [
        "▁99.",
        -11.591630830199998
      ],
      [
        "▁unutmayın",
        -11.565072245004176
      ],
      [
        "▁bekletil",
        -11.51842147172578
      ],
      [
        "▁alacakları",
        -11.452019182618141
      ],
      [
        "▁yuz",
        -7.387323089183921
      ],
      [
        "▁ayagın",
        -10.515099503626933
      ],
      [
        "▁sasırmıs",
        -11.552228929741005
      ],
      [
        "▁tabag",
        -11.584219457673587
      ],
      [
        "▁galiba",
        -9.468699685209897
      ],
      [
        "▁eleme",
        -11.671587061406674
      ],
      [
        "▁etsin",
        -10.964707609501646
      ],
      [
        "▁iciyor",
        -10.964812054844675
      ],
      [
        "▁firmasını",
        -11.180107114448983
      ],
      [
        "▁gonlumu",
        -11.23267228893288
      ],
      [
        "▁kayalar",
        -11.084387247568602
      ],
      [
        "▁bitim",
        -11.267226358013543
      ],
      [
        "▁19.5",
        -11.496185594316152
      ],
      [
        "▁olsaydı",
        -10.01128369396641
      ],
      [
        "▁5.7",
        -10.983174100380875
      ],
      [
        "▁ozgu",
        -10.076182109350658
      ],
      [
        "▁vermesini",
        -11.056345507524004
      ],
      [
        "▁4.5",
        -10.026499913016705
      ],
      [
        "▁bolgelerde",
        -11.425483920480197
      ],
      [
        "▁azala",
        -10.942944419977993
      ],
      [
        "▁sokuldu",
        -11.04072174362559
      ],
      [
        "▁40",
        -7.973724781961952
      ],
      [
        "▁4.4",
        -11.71001430284522
      ],
      [
        "▁insanın",
        -8.73543968143902
      ],
      [
        "▁1.2",
        -8.718415128083837
      ],
      [
        "▁eksikti",
        -10.548624676757978
      ],
      [
        "▁merci",
        -11.104145378128399
      ],
      [
        "▁derecede",
        -9.664792624555329
      ],
      [
        "5.80",
        -12.16113573554019
      ],
      [
        "▁anadolu'y",
        -11.25230059881828
      ],
      [
        "▁rıza",
        -10.151948196313747
      ],
      [
        "▁195",
        -10.49161701629287
      ],
      [
        "▁kapısını",
        -9.802019149326615
      ],
      [
        "▁varolus",
        -11.375092052105856
      ],
      [
        "▁veh",
        -11.152914800962177
      ],
      [
        "▁urper",
        -10.787775066130745
      ],
      [
        "▁19.",
        -10.17752749623879
      ],
      [
        "▁calisanlarin",
        -10.329581048014896
      ],
      [
        "▁duzenledi",
        -11.354842010308634
      ],
      [
        "▁konuldu",
        -11.686075439736612
      ],
      [
        "▁rastlantı",
        -11.2500488388723
      ],
      [
        "▁n",
        -11.20603569365937
      ],
      [
        "▁gm'",
        -11.385144003080491
      ],
      [
        "▁arayı",
        -10.658872434333148
      ],
      [
        "▁emin",
        -9.2431506674807
      ],
      [
        "▁sondur",
        -10.43990633745576
      ],
      [
        "▁185",
        -9.97629674574324
      ],
      [
        "altmıs",
        -11.664742409412352
      ],
      [
        "▁koh",
        -11.696893567348585
      ],
      [
        "▁cap",
        -9.93544683353438
      ],
      [
        "▁soyleye",
        -10.864306171238884
      ],
      [
        "▁bicimli",
        -11.424358543625706
      ],
      [
        "▁tif",
        -11.27471132718197
      ],
      [
        "ut",
        -10.419403069519229
      ],
      [
        "▁anlama",
        -9.154775730984522
      ],
      [
        "▁yun",
        -10.024972769823284
      ],
      [
        "▁soyadı",
        -11.52111971698914
      ],
      [
        "▁%2.",
        -13.02711898195927
      ],
      [
        "▁ofkesini",
        -11.695076943407036
      ],
      [
        "▁uyarlan",
        -11.193008352826846
      ],
      [
        "▁neleri",
        -10.96127278360716
      ],
      [
        "▁mırıldanıyor",
        -11.408373216890446
      ],
      [
        "ities",
        -11.802361042881408
      ],
      [
        "▁seviye",
        -9.67205680987994
      ],
      [
        "▁olusa",
        -9.86804171901737
      ],
      [
        "▁duru",
        -12.450402850419087
      ],
      [
        "▁islemis",
        -11.016457727703127
      ],
      [
        "▁vanilya",
        -11.684577170311037
      ],
      [
        "▁degiller",
        -8.877110792197561
      ],
      [
        "52",
        -10.399541748581326
      ],
      [
        "▁surada",
        -10.888683670775977
      ],
      [
        "▁rolu",
        -9.82748038061915
      ],
      [
        "▁be",
        -9.067386828430887
      ],
      [
        "▁fikri",
        -9.423959333879107
      ],
      [
        "▁dinlemeye",
        -11.364154935000592
      ],
      [
        "▁embriyo",
        -11.684571077950807
      ],
      [
        "▁sipahi",
        -11.68457118506345
      ],
      [
        "[UNK]",
        0.0
      ],
      [
        "▁bahsede",
        -10.999410583919806
      ],
      [
        "bot",
        -11.406951658452238
      ],
      [
        "▁kıyma",
        -11.375049899722123
      ],
      [
        "▁sayın",
        -10.127551831528859
      ],
      [
        "▁iktisatcılar",
        -11.661375910116957
      ],
      [
        "▁yetmis",
        -9.21282420643573
      ],
      [
        "▁yarısma",
        -10.22155502425025
      ],
      [
        "▁ayakkabılar",
        -11.16807434882165
      ],
      [
        "▁soylemisti",
        -11.47843767753226
      ],
      [
        "▁viski",
        -10.420183655776981
      ],
      [
        "▁kontrolu",
        -10.630492948084429
      ],
      [
        "▁geciyor",
        -9.244387872022926
      ],
      [
        "▁mercan",
        -11.251280242495977
      ],
      [
        "▁karısımı",
        -11.269948980252224
      ],
      [
        "▁fahri",
        -11.250048094956927
      ],
      [
        "▁pazarlama",
        -10.01253917486254
      ],
      [
        "▁torunu",
        -11.143575859005306
      ],
      [
        "lerinin",
        -7.915109443508178
      ],
      [
        "▁9.6",
        -11.407858197054521
      ],
      [
        "4'",
        -12.38739505444514
      ],
      [
        "▁aktris",
        -11.884574375531223
      ],
      [
        "▁gececek",
        -10.8510036269695
      ],
      [
        "▁kabul",
        -7.708725868237482
      ],
      [
        "yon",
        -9.626201931572261
      ],
      [
        "▁continental",
        -8.810837791668014
      ],
      [
        "▁utangac",
        -11.038936375389213
      ],
      [
        "▁sogukkanlı",
        -11.038937962908904
      ],
      [
        "▁kayıplar",
        -10.201819983334122
      ],
      [
        "▁ihrac",
        -9.79499408908397
      ],
      [
        "▁odev",
        -11.599446939494378
      ],
      [
        "▁iflah",
        -11.88457109801671
      ],
      [
        "▁acılmıstı",
        -11.611688425009863
      ],
      [
        "▁bedbaht",
        -11.684571078465419
      ],
      [
        "▁antalya",
        -10.895302652024734
      ],
      [
        "▁8.5",
        -10.09862692703964
      ],
      [
        "▁beygir",
        -11.201180975148286
      ],
      [
        "▁durdur",
        -10.858246549990927
      ],
      [
        "▁karsili",
        -10.278116368994754
      ],
      [
        "▁pahali",
        -8.517573923651605
      ],
      [
        "▁gencliginde",
        -11.389794888372375
      ],
      [
        "▁koylerde",
        -10.920260366934931
      ],
      [
        "▁calısmaktadır",
        -11.37714208671102
      ],
      [
        "▁secmenler",
        -11.490990586669874
      ],
      [
        "▁ogrencisi",
        -11.360947994469829
      ],
      [
        "dık",
        -9.966996062943005
      ],
      [
        "▁butunu",
        -10.956594964877603
      ],
      [
        "▁yalvar",
        -11.132493608221258
      ],
      [
        "35",
        -10.186138600263162
      ],
      [
        "▁sili",
        -10.302664758750822
      ],
      [
        "▁maliye",
        -10.648088421428142
      ],
      [
        "7:",
        -11.038605376344176
      ],
      [
        "▁tacirler",
        -10.599096261825395
      ],
      [
        "▁siiri",
        -10.685956402418281
      ],
      [
        "▁sınıf",
        -8.449893953460897
      ],
      [
        "▁ettiriyor",
        -11.51895326252376
      ],
      [
        "▁beklemiyor",
        -10.71673997100626
      ],
      [
        "▁lık",
        -9.145996749068345
      ],
      [
        "▁turun",
        -10.386426525565973
      ],
      [
        "▁hukumdar",
        -10.650036534866654
      ],
      [
        "▁bellsouth",
        -11.884571077985152
      ],
      [
        "▁buhar",
        -10.657066339768917
      ],
      [
        "▁dallas'",
        -7.995851120351562
      ],
      [
        "▁alaka",
        -9.249494752574329
      ],
      [
        "▁alet",
        -10.255870036947332
      ],
      [
        "%9",
        -12.047781401844517
      ],
      [
        "▁kanıtlama",
        -11.706302053794426
      ],
      [
        "▁calisiyor",
        -11.068651999218705
      ],
      [
        "▁mutsuz",
        -11.163718332218082
      ],
      [
        "▁demis",
        -9.506428236258504
      ],
      [
        "▁yiti",
        -11.883284063791216
      ],
      [
        "▁dikkatle",
        -10.434928932230676
      ],
      [
        "▁gorusme",
        -9.663841640806515
      ],
      [
        "▁getirilerini",
        -11.386376048049696
      ],
      [
        "▁sohret",
        -10.633844204147355
      ],
      [
        "▁tayfun",
        -11.685576294407978
      ],
      [
        "▁valla",
        -11.51126056297643
      ],
      [
        "mem",
        -10.053245584344156
      ],
      [
        "▁unu",
        -10.685058341305385
      ],
      [
        "▁suc",
        -9.314220903815537
      ],
      [
        "▁tavırla",
        -11.473918787689705
      ],
      [
        "▁satısın",
        -10.720816413328778
      ],
      [
        "▁hur",
        -10.426724684163688
      ],
      [
        "▁halim",
        -11.061569338796083
      ],
      [
        "▁alnında",
        -11.265847900476732
      ],
      [
        "▁ikibinbir",
        -12.659395839339917
      ],
      [
        "▁persembe",
        -8.211716816767645
      ],
      [
        "▁j.",
        -10.194040696767486
      ],
      [
        "▁ısıgında",
        -10.653853974261366
      ],
      [
        "▁olanlar",
        -9.683112586395376
      ],
      [
        "sinde",
        -7.872751247384333
      ],
      [
        "▁sam",
        -10.623945742548674
      ],
      [
        "▁kurma",
        -10.750974280507773
      ],
      [
        "▁havalimanında",
        -10.80038602365142
      ],
      [
        "▁mevsimsel",
        -10.948940437902529
      ],
      [
        "▁metri",
        -11.307046800787164
      ],
      [
        "▁cehre",
        -10.151946272628301
      ],
      [
        "▁politikacılar",
        -11.360690205788838
      ],
      [
        "▁kullanımını",
        -11.419243728780863
      ],
      [
        "▁ocagında",
        -11.567106382704406
      ],
      [
        "▁gelisinde",
        -11.721042821346105
      ],
      [
        "▁platform",
        -11.37504726842685
      ],
      [
        "▁kurulu",
        -8.579021441442283
      ],
      [
        "mi",
        -8.269716776373524
      ],
      [
        "▁usta",
        -9.090468827264182
      ],
      [
        "50",
        -8.746174993512678
      ],
      [
        "▁dolasıyor",
        -10.71930685502235
      ],
      [
        "▁arkadasımı",
        -11.6433115075144
      ],
      [
        "sun",
        -12.989427344836226
      ],
      [
        "28.4",
        -12.273484075597148
      ],
      [
        "▁conner",
        -11.684604884778203
      ],
      [
        "3",
        -9.34589958345266
      ],
      [
        "▁dagılmıs",
        -11.149580287674436
      ],
      [
        "hepsini",
        -11.224524277666047
      ],
      [
        "▁teklif",
        -8.305175857341426
      ],
      [
        "kadar",
        -7.631631929124872
      ],
      [
        "▁degistirebilir",
        -11.541339449785822
      ],
      [
        "▁anahtarı",
        -11.321432713318105
      ],
      [
        "▁biraz",
        -6.840422343174125
      ],
      [
        "▁hizmetlerinde",
        -11.467485738790305
      ],
      [
        "▁cesitlilik",
        -10.010848237246094
      ],
      [
        "▁aklını",
        -10.755590009224225
      ],
      [
        "▁istasyonu",
        -10.540564633669629
      ],
      [
        "▁kubbe",
        -10.86478273262481
      ],
      [
        "▁frankl",
        -11.252464952816553
      ],
      [
        "tıgını",
        -10.497382676742774
      ],
      [
        "▁doldurmaya",
        -11.380560371316397
      ],
      [
        "▁turklerin",
        -10.789412183031317
      ],
      [
        "6.25",
        -9.773362979470317
      ],
      [
        "west",
        -9.84689611096659
      ],
      [
        "▁arpa",
        -10.788210824891756
      ],
      [
        "▁arttırıl",
        -11.74438439737425
      ],
      [
        "▁avize",
        -11.375553530327016
      ],
      [
        "▁doseme",
        -10.89785299218169
      ],
      [
        "▁yen'",
        -9.43265491715395
      ],
      [
        "▁bunu",
        -6.098683502847974
      ],
      [
        "seksen",
        -11.056111391595309
      ],
      [
        "iyordu",
        -8.735405715759068
      ],
      [
        "▁arzusu",
        -11.260707003933197
      ],
      [
        "▁edinmek",
        -11.185913744312115
      ],
      [
        "▁89300",
        -11.573977016628525
      ],
      [
        "mıydı",
        -12.827517810670034
      ],
      [
        "▁karlar",
        -10.297126892704046
      ],
      [
        "▁sedye",
        -11.37506658096055
      ],
      [
        "▁baskı",
        -8.764261212286975
      ],
      [
        "▁bush'u",
        -10.502649799793058
      ],
      [
        "▁cocuktu",
        -10.957781835941635
      ],
      [
        "▁sonucların",
        -10.565160204200366
      ],
      [
        "▁biyoteknolo",
        -11.884571241204505
      ],
      [
        "▁yanık",
        -10.470504603903926
      ],
      [
        "▁halil",
        -10.71964931721136
      ],
      [
        "▁ikisini",
        -10.739220063237484
      ],
      [
        "▁katma",
        -11.015720803144783
      ],
      [
        "▁anamı",
        -11.869692613817723
      ],
      [
        "▁bozgun",
        -11.696413533764416
      ],
      [
        "▁yapımın",
        -11.31752153093361
      ],
      [
        "▁yuzuk",
        -10.660379079336701
      ],
      [
        "▁itimat",
        -11.684588650384907
      ],
      [
        "ha",
        -11.873864725637612
      ],
      [
        "larda",
        -7.829065948584101
      ],
      [
        "▁beklentileri",
        -10.788797352816422
      ],
      [
        "▁kaka",
        -11.68691863124954
      ],
      [
        "00'",
        -11.385092997295839
      ],
      [
        "▁degistigin",
        -11.500624222668266
      ],
      [
        "▁yıll",
        -11.565256220156277
      ],
      [
        "▁yaptıgı",
        -8.75371824582536
      ],
      [
        "▁cas",
        -10.831882187893438
      ],
      [
        "▁yorumu",
        -10.666084742141628
      ],
      [
        "▁oynat",
        -10.983115121730474
      ],
      [
        "▁temkinli",
        -11.375047351456915
      ],
      [
        "▁kıskırtma",
        -11.884571271295089
      ],
      [
        "▁zeki",
        -9.850719077448147
      ],
      [
        "▁verilecek",
        -10.889694461090716
      ],
      [
        "▁perakendeci",
        -11.090864552842842
      ],
      [
        "▁ettigini",
        -9.256723487214726
      ],
      [
        "▁yıkıl",
        -10.578046625248248
      ],
      [
        ".91",
        -13.258708753243312
      ],
      [
        "y'",
        -10.249100445057492
      ],
      [
        "▁tırmandı",
        -10.773521391652327
      ],
      [
        "▁istismar",
        -11.884571169213599
      ],
      [
        "sızlık",
        -10.525570750837607
      ],
      [
        "▁konusmak",
        -10.348205168735067
      ],
      [
        "▁olcude",
        -8.812349726451606
      ],
      [
        "▁kravatı",
        -11.173961605228941
      ],
      [
        "ladım",
        -10.198991940637358
      ],
      [
        "bizi",
        -10.708189506520814
      ],
      [
        "▁kaybolu",
        -11.216048169058395
      ],
      [
        "▁gerildi",
        -11.521838450498098
      ],
      [
        "▁soyleniyor",
        -10.5980593184576
      ],
      [
        "▁kaya",
        -9.329362001374093
      ],
      [
        "▁yılda",
        -8.877851142931107
      ],
      [
        "▁baglıyor",
        -11.213499564765932
      ],
      [
        "▁norvec",
        -11.3750474077967
      ],
      [
        "bunlarda",
        -12.137947490978583
      ],
      [
        "▁yaver",
        -11.140115090843913
      ],
      [
        "▁'",
        -9.107607116574506
      ],
      [
        "▁tasarladı",
        -11.421827395150768
      ],
      [
        "▁kaybedil",
        -11.564690494292277
      ],
      [
        "▁yatı",
        -10.223053771988091
      ],
      [
        "▁basınc",
        -10.947875539326484
      ],
      [
        "▁oduyor",
        -11.258889928722047
      ],
      [
        "▁0.3",
        -9.730163952983364
      ],
      [
        "▁olunce",
        -11.149858622354618
      ],
      [
        "▁ikis",
        -13.57765428229296
      ],
      [
        "▁rezalet",
        -11.03893687823972
      ],
      [
        "▁yazısı",
        -10.961089222630951
      ],
      [
        "▁belirtti",
        -9.173740998481808
      ],
      [
        "▁siparisleri",
        -10.982093623015288
      ],
      [
        "▁salon",
        -10.49833283287045
      ],
      [
        "lestirilmis",
        -11.013145107179238
      ],
      [
        "'un",
        -12.861690004086414
      ],
      [
        "▁sokul",
        -11.421158335845538
      ],
      [
        "▁olanaklari",
        -8.896488614542601
      ],
      [
        "▁aktarma",
        -9.430768995576203
      ],
      [
        "▁2008",
        -10.209748231789517
      ],
      [
        "leyen",
        -9.8656548700764
      ],
      [
        "▁cimento",
        -11.138936662057436
      ],
      [
        "▁acıklamalar",
        -11.366867323188337
      ],
      [
        "81",
        -11.083349936407382
      ],
      [
        "▁paul'",
        -9.71497401215982
      ],
      [
        "▁tadin",
        -10.718352333368447
      ],
      [
        "▁satıcıları",
        -11.430906183632574
      ],
      [
        "▁gonderir",
        -11.40981690458727
      ],
      [
        "▁cikti",
        -11.253910193612718
      ],
      [
        "▁berlin'",
        -11.472555296603593
      ],
      [
        "▁beklentimizi",
        -11.519141937222015
      ],
      [
        "▁olmadıgını",
        -8.653596732483187
      ],
      [
        "▁suat",
        -10.799760210913185
      ],
      [
        "▁gecirdigi",
        -10.840177304811263
      ],
      [
        "▁international'",
        -10.458187582318331
      ],
      [
        "▁studyosu",
        -11.379317810365905
      ],
      [
        "▁elli",
        -8.16695250231819
      ],
      [
        "▁cozulmus",
        -11.710968442888728
      ],
      [
        "▁kimlik",
        -10.58852542933279
      ],
      [
        "vı",
        -10.422371062606647
      ],
      [
        "▁kenetle",
        -11.7200744870638
      ],
      [
        "▁canlı",
        -9.238513154025608
      ],
      [
        "▁kakao",
        -11.518759573629476
      ],
      [
        "▁achenbaum",
        -11.250047268427487
      ],
      [
        "▁vermek",
        -8.513493373036901
      ],
      [
        "▁kurek",
        -10.88205634939055
      ],
      [
        "▁yaramaz",
        -10.983763283290822
      ],
      [
        "▁haiz",
        -11.25359258538334
      ],
      [
        "ir",
        -7.694350183988116
      ],
      [
        "▁seyreder",
        -10.851740034879887
      ],
      [
        "▁bileti",
        -9.465579212533601
      ],
      [
        "▁utanc",
        -10.422067668399412
      ],
      [
        "▁koyde",
        -10.432392232116955
      ],
      [
        "▁25.8",
        -10.559813350085005
      ],
      [
        "▁flor",
        -11.8816796644908
      ],
      [
        "larındaki",
        -10.002465989724211
      ],
      [
        "▁ayarladı",
        -11.688971911993132
      ],
      [
        "▁hic",
        -9.677431314152003
      ],
      [
        "ktan",
        -7.9865665114495945
      ],
      [
        "▁istedim",
        -9.850846405999278
      ],
      [
        "ysa",
        -10.197080588071344
      ],
      [
        "▁kıvrıl",
        -10.863510011758596
      ],
      [
        "▁13.3",
        -11.292460968804322
      ],
      [
        "84'",
        -12.522802640641878
      ],
      [
        "▁11'",
        -11.796650022304146
      ],
      [
        "▁danısmanlı",
        -11.490289868217717
      ],
      [
        "arası",
        -11.125577697892492
      ],
      [
        "▁dograyı",
        -10.867666480591938
      ],
      [
        "▁calisanlar",
        -9.143985563168021
      ],
      [
        "▁1.8",
        -9.088566293567371
      ],
      [
        "▁sıkma",
        -11.249571837136534
      ],
      [
        "▁tahkikat",
        -11.138936210740525
      ],
      [
        "▁sarsıldı",
        -11.883398227214121
      ],
      [
        "ecegimiz",
        -11.540584386658555
      ],
      [
        "▁nekoosa",
        -11.517904525182173
      ],
      [
        "▁yapı",
        -8.212203033350832
      ],
      [
        "▁islemlerinde",
        -9.68263489340699
      ],
      [
        "▁muharebe",
        -10.716342087091675
      ],
      [
        "ını",
        -9.93219484581724
      ],
      [
        "▁cicekleri",
        -10.613793738704736
      ],
      [
        "▁bolugu",
        -10.955165141046404
      ],
      [
        "▁yuvarlak",
        -10.158658453736981
      ],
      [
        "▁guleryuz",
        -11.249150473598942
      ],
      [
        "▁olanaksız",
        -11.253093265890076
      ],
      [
        "▁makarna",
        -11.375050757033693
      ],
      [
        "▁tanıyordu",
        -11.56885850732224
      ],
      [
        "▁japonya'da",
        -10.329127278774267
      ],
      [
        "▁yosunlu",
        -11.750450692270434
      ],
      [
        "▁damar",
        -10.301173248768496
      ],
      [
        "▁bembeyaz",
        -11.038936779233735
      ],
      [
        "▁arizona",
        -10.520454354474753
      ],
      [
        "▁kundura",
        -11.038937289523457
      ],
      [
        "▁musluman",
        -10.377559433179911
      ],
      [
        "▁belirtildi",
        -10.659358758722746
      ],
      [
        "▁bed",
        -11.119548519481006
      ],
      [
        "▁kervan",
        -10.948097961866555
      ],
      [
        "▁gerekiyor",
        -8.752274905218933
      ],
      [
        "▁tehlikesi",
        -11.21912785254302
      ],
      [
        "▁miydi",
        -8.422154298711042
      ],
      [
        "▁47",
        -9.610585568959918
      ],
      [
        "▁dinamik",
        -11.684572522468175
      ],
      [
        "▁kisiler",
        -9.434946230048626
      ],
      [
        "▁baska",
        -7.489745087433294
      ],
      [
        "▁havaalanı",
        -9.753535559811706
      ],
      [
        "▁yassı",
        -11.156057733140326
      ],
      [
        "▁kalmazdı",
        -11.689375280562022
      ],
      [
        "▁akıl",
        -9.271364512561902
      ],
      [
        "▁panel",
        -11.043293349699224
      ],
      [
        "▁bulamıyordu",
        -11.696141129393173
      ],
      [
        "▁davaları",
        -10.960676721802264
      ],
      [
        "▁yeter",
        -8.82920674997877
      ],
      [
        "▁221",
        -12.399681224574866
      ],
      [
        "▁nefis",
        -11.038955864402979
      ],
      [
        "▁toplanma",
        -11.06691253903582
      ],
      [
        "▁gonc",
        -11.561407214675551
      ],
      [
        "0.8",
        -11.734040013944695
      ],
      [
        "▁sıcakta",
        -11.45252937494312
      ],
      [
        "▁gevseme",
        -11.65390572551419
      ],
      [
        "▁konak",
        -10.545641195510875
      ],
      [
        "teki",
        -9.826396446164546
      ],
      [
        "▁guclerini",
        -11.195357983535452
      ],
      [
        "▁yo",
        -10.00742702032736
      ],
      [
        "▁tepsi",
        -10.761887682135654
      ],
      [
        "5.28",
        -12.092926378390347
      ],
      [
        "▁sadakat",
        -10.590785097625023
      ],
      [
        "▁bektas",
        -11.375060176558145
      ],
      [
        "▁mısın",
        -9.040550319257685
      ],
      [
        "sızın",
        -10.327846780123101
      ],
      [
        "▁sıkıstı",
        -11.49256654483624
      ],
      [
        "lanınca",
        -11.17960759695467
      ],
      [
        "▁cıktıgı",
        -10.604484913553554
      ],
      [
        "▁uzanıyor",
        -11.450415244116291
      ],
      [
        "▁anlamını",
        -11.404283834195022
      ],
      [
        "▁worth'",
        -10.21900852417244
      ],
      [
        "▁ailece",
        -10.412492593308862
      ],
      [
        "▁krizinde",
        -11.799755632513273
      ],
      [
        "▁lor",
        -10.911767485678162
      ],
      [
        "▁rezervasyon",
        -9.07849944311863
      ],
      [
        "▁kufur",
        -10.948696544824742
      ],
      [
        "▁631",
        -11.455625833572967
      ],
      [
        "▁central",
        -11.684594231756206
      ],
      [
        "▁filiz",
        -11.189570059357106
      ],
      [
        "▁reddedildi",
        -11.317543302955478
      ],
      [
        "▁cıldır",
        -11.040553906511029
      ],
      [
        "9'",
        -11.955793944148159
      ],
      [
        "▁plan",
        -8.660059221440434
      ],
      [
        "▁denk",
        -9.882458874885756
      ],
      [
        "▁devletin",
        -9.608099931418794
      ],
      [
        "gibi",
        -7.880345455995306
      ],
      [
        "▁dolgun",
        -10.864878115746023
      ],
      [
        "680",
        -12.50723548878292
      ],
      [
        "▁davetliler",
        -11.684797473624817
      ],
      [
        "▁federal",
        -8.54256988670621
      ],
      [
        "7000",
        -12.422336868896807
      ],
      [
        "amadım",
        -10.426718259584913
      ],
      [
        "▁bırakın",
        -10.609180067717507
      ],
      [
        "217",
        -12.147418399151817
      ],
      [
        "▁hazırlıyor",
        -11.543259676082299
      ],
      [
        "wer",
        -11.286095827352375
      ],
      [
        "▁neden",
        -7.777221211050159
      ],
      [
        "▁kariyer",
        -10.233614653211813
      ],
      [
        "▁ileti",
        -11.151700291319159
      ],
      [
        "▁ordu",
        -9.235564529872072
      ],
      [
        "▁olen",
        -10.683677245641299
      ],
      [
        "▁ugrat",
        -11.227168846289018
      ],
      [
        "▁konsolidasyon",
        -11.884571083276029
      ],
      [
        "iyle",
        -7.966807661141025
      ],
      [
        "▁kefe",
        -11.139019181514445
      ],
      [
        "▁risk",
        -9.60597296704906
      ],
      [
        "▁havası",
        -10.058181099955195
      ],
      [
        "nold",
        -11.623243145473989
      ],
      [
        "▁koku",
        -9.132405713072131
      ],
      [
        "▁mesguldu",
        -11.168614264144788
      ],
      [
        "▁dinle",
        -10.183540588366608
      ],
      [
        "▁kural",
        -10.506826636161366
      ],
      [
        "▁teknoloji",
        -9.091024881708108
      ],
      [
        "▁cevik",
        -10.787786791102267
      ],
      [
        "▁ovu",
        -10.998971211715368
      ],
      [
        "▁katmer",
        -11.250337221444358
      ],
      [
        "▁kuculme",
        -11.522517537832252
      ],
      [
        "▁sefer",
        -8.769946617491668
      ],
      [
        "▁felsefe",
        -10.236733462170385
      ],
      [
        "elim",
        -9.814675164154092
      ],
      [
        "▁ırmak",
        -11.518006491252802
      ],
      [
        "▁122.",
        -12.306585786724714
      ],
      [
        "▁ayagı",
        -10.002475608620962
      ],
      [
        "▁cin",
        -9.02773653200072
      ],
      [
        "▁tutar",
        -9.398944783561554
      ],
      [
        "▁ibm",
        -10.371147721867578
      ],
      [
        "▁konsolos",
        -11.375094251253342
      ],
      [
        "▁hikayesi",
        -10.630927366736849
      ],
      [
        "▁isaretleri",
        -11.036666430730696
      ],
      [
        "▁atmak",
        -10.200849568509181
      ],
      [
        "▁kapı",
        -7.806980354068806
      ],
      [
        "▁destek",
        -9.146945583397658
      ],
      [
        "▁guzel",
        -6.434116468730968
      ],
      [
        "▁kosede",
        -10.107379790916859
      ],
      [
        "▁komutanın",
        -11.064683601495387
      ],
      [
        "▁mukafatın",
        -11.7412154270881
      ],
      [
        "▁gururu",
        -11.05244427831158
      ],
      [
        "▁ortada",
        -9.516885307093709
      ],
      [
        "▁miami",
        -10.526715362176912
      ],
      [
        "▁degildi",
        -4.719105511077978
      ],
      [
        "▁guardia",
        -11.249522385202143
      ],
      [
        "▁nefti",
        -11.518010648102269
      ],
      [
        "▁ulkemiz",
        -10.390225798304865
      ],
      [
        "▁kucak",
        -10.672795986329533
      ],
      [
        "▁demokrat",
        -10.55385133655623
      ],
      [
        "▁bulgar",
        -11.25066790589432
      ],
      [
        "▁sınırlama",
        -11.145057432449489
      ],
      [
        "▁bulunabilir",
        -11.157027086774116
      ],
      [
        "▁allah",
        -9.325346925056746
      ],
      [
        "▁tutmaya",
        -11.141992396925833
      ],
      [
        "▁uyumlu",
        -10.282757600356707
      ],
      [
        "▁getirir",
        -9.774244828248621
      ],
      [
        "▁88",
        -10.644781627017936
      ],
      [
        "hangisi",
        -11.644794146515052
      ],
      [
        ".",
        -1.165430537910785
      ],
      [
        "▁denedi",
        -11.039190096813947
      ],
      [
        "▁calgı",
        -10.529278254915752
      ],
      [
        "▁col",
        -10.116267760384629
      ],
      [
        "▁konferansı",
        -11.048361957723328
      ],
      [
        "▁ezi",
        -10.318812763036277
      ],
      [
        "▁william",
        -10.27709157740336
      ],
      [
        "▁dayanamadı",
        -11.695506147165345
      ],
      [
        "▁reklamlar",
        -10.386863552128345
      ],
      [
        "▁parcalanmıs",
        -11.664939225764215
      ],
      [
        "▁dert",
        -9.801907087062265
      ],
      [
        "▁pencereleri",
        -10.828553644786764
      ],
      [
        "▁gog",
        -11.525222954502054
      ],
      [
        "▁niha",
        -10.230937707846763
      ],
      [
        "▁dolabın",
        -10.891145923706825
      ],
      [
        "▁mehtap",
        -11.375047281570556
      ],
      [
        "▁mikrosko",
        -11.884571611008898
      ],
      [
        "▁durgun",
        -9.59366475348164
      ],
      [
        "5'",
        -10.510335285418986
      ],
      [
        "▁cıt",
        -11.158710735150715
      ],
      [
        "▁boy",
        -9.382386474927383
      ],
      [
        "▁yene",
        -10.641467935993829
      ],
      [
        "▁dolasan",
        -11.251990158745652
      ],
      [
        "▁zaman",
        -6.769004328639784
      ],
      [
        "▁2.62",
        -10.62755014061802
      ],
      [
        "▁ilmi",
        -10.72246829411879
      ],
      [
        "▁sporcu",
        -11.041346232318972
      ],
      [
        "▁kısıtlamasını",
        -11.70511890388223
      ],
      [
        "▁baslayacak",
        -9.82228737631452
      ],
      [
        "ya",
        -8.492646272106997
      ],
      [
        "▁durduru",
        -11.312907057398665
      ],
      [
        "▁1.62",
        -11.770595066060816
      ],
      [
        ".",
        -9.216358711206778
      ],
      [
        "lph",
        -11.088253900734955
      ],
      [
        "▁elestir",
        -11.492402892574432
      ],
      [
        "▁statusu",
        -11.520459077447601
      ],
      [
        "▁laf",
        -9.269135193749435
      ],
      [
        "▁iclerinde",
        -11.028473988942245
      ],
      [
        "▁santimetre",
        -11.375050304585862
      ],
      [
        "▁saniye",
        -10.23754660900065
      ],
      [
        "▁vekil",
        -11.63623121460742
      ],
      [
        "▁oturmus",
        -9.598011349198682
      ],
      [
        "▁keman",
        -10.602318623708578
      ],
      [
        "lerle",
        -7.902826572293822
      ],
      [
        "▁aglamaya",
        -10.722400726766251
      ],
      [
        "▁anımsa",
        -11.265075485173105
      ],
      [
        "▁noktada",
        -10.217643132240172
      ],
      [
        "▁pan",
        -10.355839526702562
      ],
      [
        "▁prim",
        -10.800174200472565
      ],
      [
        "▁karsilasmadi",
        -11.375049919163864
      ],
      [
        "▁kullanisli",
        -11.138953503522938
      ],
      [
        "▁operasyonları",
        -11.294405995065963
      ],
      [
        "▁eredesin",
        -11.448887084841308
      ],
      [
        "▁hastalıgını",
        -11.661860715304764
      ],
      [
        "▁it",
        -8.72662537277547
      ],
      [
        "▁normaldi",
        -9.251346318894075
      ],
      [
        "▁onunu",
        -11.029184684393483
      ],
      [
        "▁aksiyom",
        -11.68457113627279
      ],
      [
        "[MASK]",
        0.0
      ],
      [
        "▁gorulmeye",
        -11.52605515539189
      ],
      [
        "unları",
        -10.14889697635057
      ],
      [
        "▁geli",
        -9.156060737587328
      ],
      [
        "▁139",
        -11.108750140976436
      ],
      [
        "▁hukumeti",
        -9.82989758229166
      ],
      [
        "▁uyuz",
        -11.260297494503309
      ],
      [
        "▁yasadı",
        -9.824239086730888
      ],
      [
        "▁gitmeyi",
        -10.077962521680542
      ],
      [
        "▁423.",
        -12.185760839367891
      ],
      [
        "▁kooperatif",
        -11.684571077950178
      ],
      [
        "▁gidiyordu",
        -9.86350450960636
      ],
      [
        "▁tolga",
        -10.864694436779923
      ],
      [
        "▁bos",
        -8.477897368085824
      ],
      [
        "▁kısıtlama",
        -11.359066433495613
      ],
      [
        "▁edindigi",
        -11.63001160596663
      ],
      [
        "▁patlaması",
        -11.353802061709992
      ],
      [
        "▁bonolar",
        -10.228612840568417
      ],
      [
        "▁kırıklıgı",
        -10.043227779985573
      ],
      [
        "▁ydu",
        -8.242796498591797
      ],
      [
        "▁tastan",
        -10.959971320268235
      ],
      [
        "▁ihtiyacı",
        -9.62100548136537
      ],
      [
        "▁atılmıs",
        -11.044082605698183
      ],
      [
        "▁tartı",
        -11.156242082247257
      ],
      [
        "▁carsaflar",
        -10.58346314033106
      ],
      [
        "lastırıyor",
        -11.00661537886256
      ],
      [
        ".25",
        -9.611101879508695
      ],
      [
        "▁piyade",
        -11.684719065908276
      ],
      [
        "▁54.5",
        -11.526098914115128
      ],
      [
        "▁okulu",
        -10.367813010310151
      ],
      [
        "▁anlatamadı",
        -11.708447723506577
      ],
      [
        "▁satma",
        -10.186248995428649
      ],
      [
        "▁buyur",
        -10.15638426722705
      ],
      [
        "▁luks",
        -9.82247986658959
      ],
      [
        "▁bircok",
        -6.16939360399842
      ],
      [
        "▁geciril",
        -10.829556258800627
      ],
      [
        "▁b.",
        -10.534669146027632
      ],
      [
        "tmisti",
        -10.830758166526447
      ],
      [
        "▁pismis",
        -11.200228088043586
      ],
      [
        "▁platin",
        -11.684602655547112
      ],
      [
        "▁elmas",
        -10.505014144829893
      ],
      [
        "▁perisan",
        -10.716605894481692
      ],
      [
        "▁diyebilir",
        -11.581311937000452
      ],
      [
        "▁magazası",
        -11.183767489178749
      ],
      [
        "birbirlerini",
        -13.092515315109463
      ],
      [
        "▁eris",
        -10.541421544120396
      ],
      [
        "▁huzursuzluk",
        -11.685501412402658
      ],
      [
        "▁heyet",
        -11.196312556453456
      ],
      [
        "▁sanıklar",
        -11.688479272884727
      ],
      [
        "yedi",
        -8.957221228301936
      ],
      [
        "▁tasarrufu",
        -11.378806255876146
      ],
      [
        "▁kanada'da",
        -11.766555486064522
      ],
      [
        "▁asya'da",
        -11.5310602840558
      ],
      [
        "ydi",
        -6.492325729872939
      ],
      [
        "▁demeye",
        -11.052450480165948
      ],
      [
        "▁vb",
        -10.948654187455743
      ],
      [
        "her",
        -10.778948859472285
      ],
      [
        "▁artıyor",
        -10.604779884857905
      ],
      [
        "▁kavur",
        -10.851830924966187
      ],
      [
        "▁costur",
        -11.250118042411202
      ],
      [
        "▁baglıdır",
        -10.537221656873216
      ],
      [
        "▁cıkarırdı",
        -11.692725332897874
      ],
      [
        "▁ucuyor",
        -8.825372464083383
      ],
      [
        "▁yasar",
        -9.510357590287299
      ],
      [
        "umuz",
        -9.906395460031751
      ],
      [
        "▁anlasılı",
        -11.655715686385763
      ],
      [
        "▁toprag",
        -10.463345698879557
      ],
      [
        "▁basları",
        -11.063480332737399
      ],
      [
        "▁australia",
        -11.250047268430887
      ],
      [
        "▁yolculug",
        -11.301284682593405
      ],
      [
        "▁mektup",
        -9.873340373488656
      ],
      [
        "▁tah",
        -10.529703813298402
      ],
      [
        "▁opuyor",
        -11.582973987617846
      ],
      [
        "▁basla",
        -10.534329127257559
      ],
      [
        "▁stearns",
        -11.51790446400928
      ],
      [
        "▁cıktık",
        -10.31074107355921
      ],
      [
        "▁avantaj",
        -10.322545706861444
      ],
      [
        "▁dehset",
        -10.58717549340803
      ],
      [
        "▁hamil",
        -11.129341909572737
      ],
      [
        ".66",
        -11.091398196399592
      ],
      [
        "▁%6.",
        -11.265292792325486
      ],
      [
        "▁milletini",
        -11.408629057835281
      ],
      [
        "▁ayırdı",
        -11.295371616104934
      ],
      [
        "▁tabi",
        -9.208788713958857
      ],
      [
        "▁urunler",
        -9.692778626065987
      ],
      [
        "▁sahibini",
        -11.082931114006525
      ],
      [
        "▁toplu",
        -10.197833213334032
      ],
      [
        "▁koltukta",
        -11.287617834144708
      ],
      [
        "▁ikimizi",
        -11.59654109894694
      ],
      [
        "▁238",
        -12.28526640491322
      ],
      [
        "▁surede",
        -10.40961375691615
      ],
      [
        "▁verilmesi",
        -10.511584773300775
      ],
      [
        "▁kaybed",
        -10.216789766676444
      ],
      [
        "▁anlamı",
        -10.360426724460456
      ],
      [
        "▁cogunluk",
        -11.250697005245277
      ],
      [
        "▁abbas",
        -11.518245476046678
      ],
      [
        "▁diego'",
        -9.236680859906603
      ],
      [
        "▁siddet",
        -9.187931419859632
      ],
      [
        "oku",
        -11.357596923554132
      ],
      [
        "▁kalay",
        -11.545561913845148
      ],
      [
        "▁13/",
        -11.42291689203845
      ],
      [
        "mesini",
        -9.18045318304669
      ],
      [
        "▁a",
        -8.094547057194735
      ],
      [
        "▁ozelliklerin",
        -10.772508900911008
      ],
      [
        "▁izleme",
        -10.351036864041356
      ],
      [
        "▁listesin",
        -11.13930270189909
      ],
      [
        "▁74.",
        -13.526999332831533
      ],
      [
        "▁stogu",
        -11.695971136187794
      ],
      [
        "▁anlamında",
        -11.258730900105807
      ],
      [
        "▁satısı",
        -9.721402861679252
      ],
      [
        "▁ons",
        -10.188808049253614
      ],
      [
        "▁cıksa",
        -11.242209219555829
      ],
      [
        "▁warren",
        -11.68457805181991
      ],
      [
        "▁guvenligini",
        -11.280274075294653
      ],
      [
        "▁duyuyor",
        -9.962542315852115
      ],
      [
        "▁gecirmesi",
        -11.464633557504655
      ],
      [
        "▁seviyelerinde",
        -11.700066288691248
      ],
      [
        "▁saman",
        -10.278957281357005
      ],
      [
        "▁konus",
        -9.444733298853071
      ],
      [
        "'lerde",
        -13.421691706429515
      ],
      [
        "&",
        -7.474416782928894
      ],
      [
        "▁yapmakta",
        -11.12311372168918
      ],
      [
        "▁130",
        -9.402318196754825
      ],
      [
        "▁cor",
        -10.187678819946491
      ],
      [
        "▁surme",
        -10.303344766313778
      ],
      [
        "diklerini",
        -10.741343338357083
      ],
      [
        "▁paribas",
        -10.864694431947969
      ],
      [
        "▁cınar",
        -11.039034800113493
      ],
      [
        "▁olmayacagını",
        -10.881523463254002
      ],
      [
        "▁tatsız",
        -10.531322466302376
      ],
      [
        "deki",
        -8.432222304574092
      ],
      [
        "▁gorun",
        -8.877536098505573
      ],
      [
        "▁ret",
        -10.993793546716995
      ],
      [
        "▁telkin",
        -11.251179314083693
      ],
      [
        "▁calis",
        -10.609842388853144
      ],
      [
        "▁bekledigini",
        -10.237134390245945
      ],
      [
        "▁darbe",
        -9.356798424814418
      ],
      [
        "▁yavru",
        -10.305450753609412
      ],
      [
        "▁girisimi",
        -10.719068500278151
      ],
      [
        "▁asılmıs",
        -11.34042733185711
      ],
      [
        "▁karsılaya",
        -11.625496003633206
      ],
      [
        "▁geride",
        -10.08184688388632
      ],
      [
        "▁gokyuzu",
        -10.582966722620613
      ],
      [
        "▁kamera",
        -11.04707547325803
      ],
      [
        "attin",
        -10.722706824666172
      ],
      [
        "▁miralay",
        -11.68457195703892
      ],
      [
        "▁hanımı",
        -10.955479146202265
      ],
      [
        "▁an",
        -7.822054831861105
      ],
      [
        "▁planladık",
        -11.562229286861207
      ],
      [
        "▁levazım",
        -11.684571101432244
      ],
      [
        "▁musterek",
        -11.038993309850877
      ],
      [
        "▁degisme",
        -10.093959738469401
      ],
      [
        "▁ramazan",
        -10.472796740466332
      ],
      [
        "▁bırakıyor",
        -10.520296790770988
      ],
      [
        "▁agustos'ta",
        -9.304885994226414
      ],
      [
        "▁surdurme",
        -11.242247274144297
      ],
      [
        "22.",
        -10.97819844542476
      ],
      [
        "▁kızdır",
        -10.804681296546153
      ],
      [
        "memis",
        -9.635284342909463
      ],
      [
        "▁kız",
        -7.977487238830662
      ],
      [
        "▁sonra",
        -6.738308501999279
      ],
      [
        "▁dileri",
        -10.88042281944322
      ],
      [
        "yi",
        -6.628792780860633
      ],
      [
        "▁oysa",
        -8.598002639171483
      ],
      [
        "▁yayım",
        -10.542119887642937
      ],
      [
        "▁30.",
        -12.28954069199727
      ],
      [
        "-200",
        -11.81277952887254
      ],
      [
        "▁county'",
        -11.288324606541995
      ],
      [
        "▁dusunmuyoru",
        -11.681182526559152
      ],
      [
        "um",
        -6.413224470782761
      ],
      [
        "▁109.",
        -11.703288708280065
      ],
      [
        "▁erdi",
        -9.897797555578542
      ],
      [
        "▁mccaw",
        -10.787771271690122
      ],
      [
        "▁20",
        -7.105754316792156
      ],
      [
        "800",
        -10.755244719420281
      ],
      [
        "▁sokuyor",
        -11.640852756413127
      ],
      [
        "▁dalga",
        -9.395850467137166
      ],
      [
        "▁nakliye",
        -10.509953987903486
      ],
      [
        "▁yozlas",
        -11.518725607014998
      ],
      [
        "▁kabiliyetlerini",
        -11.88457522585763
      ],
      [
        "muyor",
        -9.683330892271307
      ],
      [
        "▁534",
        -11.850832610635116
      ],
      [
        "▁30000",
        -11.894851641027282
      ],
      [
        "▁niteliginde",
        -11.250348470238755
      ],
      [
        "▁evimizde",
        -11.265181769642085
      ],
      [
        "▁cogal",
        -10.848489278171982
      ],
      [
        "▁sonun",
        -9.572935323292114
      ],
      [
        "▁muhit",
        -11.140168646003822
      ],
      [
        "▁research",
        -11.884571078636942
      ],
      [
        "▁bahcede",
        -10.5430874864498
      ],
      [
        "ulur",
        -10.093619176536233
      ],
      [
        "▁gid",
        -10.249754282818186
      ],
      [
        "ham",
        -10.09740798813603
      ],
      [
        "▁25",
        -7.6585169186170114
      ],
      [
        "▁suriye",
        -11.691143910656765
      ],
      [
        "▁isi",
        -8.211540176268358
      ],
      [
        "▁vadeli",
        -8.32572550630098
      ],
      [
        "▁manufactur",
        -11.517904411286134
      ],
      [
        "▁oldure",
        -11.62389979656369
      ],
      [
        "▁thy",
        -11.375080382929973
      ],
      [
        "▁birlesme",
        -9.88248338067164
      ],
      [
        "▁artısla",
        -8.605521531856057
      ],
      [
        "▁yiyecek",
        -8.635403688288147
      ],
      [
        "▁menfaat",
        -10.47279913696551
      ],
      [
        "▁28.4",
        -11.638772310171069
      ],
      [
        "▁fazilet",
        -11.517904475750672
      ],
      [
        "▁saygılı",
        -11.309771532215347
      ],
      [
        "▁hissettir",
        -11.387787192125273
      ],
      [
        "00",
        -8.310518358353914
      ],
      [
        "▁av",
        -9.237292719736011
      ],
      [
        "▁alakasi",
        -10.144637032042255
      ],
      [
        "yacagı",
        -10.966042567938969
      ],
      [
        "▁insan",
        -7.44036319506608
      ],
      [
        "▁fu",
        -10.288002665887856
      ],
      [
        "▁rahmi",
        -10.94806715610164
      ],
      [
        "▁%0.",
        -12.810336710195683
      ],
      [
        "▁oyku",
        -9.721215258780454
      ],
      [
        "▁massachusetts",
        -11.250047268417244
      ],
      [
        "▁cekilir",
        -11.347306453826738
      ],
      [
        "▁gozunu",
        -9.71743223940852
      ],
      [
        "▁yardımcılıgın",
        -11.694604165644012
      ],
      [
        "▁soruları",
        -10.541579632959309
      ],
      [
        "▁angeles'te",
        -10.002701073816798
      ],
      [
        "▁resimleri",
        -11.23693850457552
      ],
      [
        "▁yazarın",
        -10.43431600151965
      ],
      [
        "▁gıcır",
        -11.03894088816665
      ],
      [
        "▁a.b.d",
        -11.134382782171686
      ],
      [
        "▁fırlayı",
        -11.5182512536758
      ],
      [
        "ise",
        -9.285473386053635
      ],
      [
        "▁7.1",
        -10.77984840303767
      ],
      [
        "▁sesler",
        -10.072665616905336
      ],
      [
        "15.1",
        -10.946795802785784
      ],
      [
        "▁express",
        -9.849694421552755
      ],
      [
        "▁parcaları",
        -9.985257146670689
      ],
      [
        "▁layık",
        -11.375284870765832
      ],
      [
        "▁dusunuyor",
        -8.87670986552666
      ],
      [
        "▁saatte",
        -9.947899772793757
      ],
      [
        "▁sebeke",
        -10.94802962185695
      ],
      [
        "▁13",
        -8.043983628244806
      ],
      [
        "▁283.",
        -11.187175624606244
      ],
      [
        "▁1970'",
        -11.821278764203289
      ],
      [
        "▁kızartı",
        -11.380635269693077
      ],
      [
        "onlu",
        -12.582079889221076
      ],
      [
        "▁rekabetci",
        -11.379204249948259
      ],
      [
        "▁dengesi",
        -9.85642254685038
      ],
      [
        "▁kazanclarını",
        -10.782088254527482
      ],
      [
        "8'",
        -10.013385101353911
      ],
      [
        "saydı",
        -10.138916466259342
      ],
      [
        "▁forma",
        -10.723344768762495
      ],
      [
        "▁sansur",
        -10.763714371348204
      ],
      [
        "▁ovustur",
        -11.51797904431551
      ],
      [
        "▁kong'u",
        -11.542380539058485
      ],
      [
        "▁yurumus",
        -11.544572835801738
      ],
      [
        "▁mor",
        -9.643565000934133
      ],
      [
        "▁6.7",
        -10.380704618024017
      ],
      [
        "berg",
        -10.315420209781182
      ],
      [
        "sh",
        -9.923276597427664
      ],
      [
        "▁sahin",
        -10.367354634371669
      ],
      [
        "▁kore",
        -10.597146985532559
      ],
      [
        "▁guverte",
        -11.359914368686878
      ],
      [
        "▁ayarlan",
        -10.573500597336334
      ],
      [
        "▁188",
        -12.092214393271451
      ],
      [
        "%7",
        -13.006976400583135
      ],
      [
        "▁olmasi",
        -8.728836663207531
      ],
      [
        "▁atalarımız",
        -11.535529299369031
      ],
      [
        "▁bartlett",
        -11.51790441661615
      ],
      [
        "▁kacan",
        -11.397913539007385
      ],
      [
        "▁duvarlarda",
        -11.69623504751499
      ],
      [
        "▁service",
        -10.789949583188923
      ],
      [
        "▁biletleri",
        -11.324747957096626
      ],
      [
        "▁anacıgı",
        -11.518695698636607
      ],
      [
        "▁sey",
        -6.41997225430574
      ],
      [
        "▁dur",
        -7.454968144923029
      ],
      [
        "▁neler",
        -8.468540397938536
      ],
      [
        "▁sutun",
        -11.084988886103904
      ],
      [
        "▁yaratıklar",
        -11.684658708234696
      ],
      [
        "kendi",
        -9.171575624838027
      ],
      [
        "▁fizik",
        -10.076458702154095
      ],
      [
        "▁kurtulma",
        -10.039341670984632
      ],
      [
        "medigini",
        -9.913035379535973
      ],
      [
        "▁111",
        -10.487099343946664
      ],
      [
        "1989",
        -11.698162368300185
      ],
      [
        "▁siney",
        -11.84961045393136
      ],
      [
        "▁rıhtım",
        -10.546589055983025
      ],
      [
        "2.7",
        -10.202973943298872
      ],
      [
        "▁mahir",
        -11.686330284496067
      ],
      [
        "▁sadık",
        -10.528814680083457
      ],
      [
        "▁orgutu",
        -10.517850586038541
      ],
      [
        "▁seydi",
        -10.560753244813883
      ],
      [
        "▁ispat",
        -11.038991856642573
      ],
      [
        "▁askın",
        -11.009907253028587
      ],
      [
        "▁2.94",
        -11.401950713224224
      ],
      [
        "▁s.",
        -10.795018377003855
      ],
      [
        "▁saldırı",
        -9.59053272875058
      ],
      [
        "▁dusundur",
        -11.17210473097354
      ],
      [
        "▁mort",
        -10.939344456987477
      ],
      [
        "burg",
        -10.796143816611092
      ],
      [
        "▁demin",
        -11.20481561826697
      ],
      [
        "▁be",
        -9.393500170655983
      ],
      [
        "▁hazırlanı",
        -9.958569127976396
      ],
      [
        "dım",
        -9.116674310465605
      ],
      [
        "▁yedek",
        -10.370130795890894
      ],
      [
        "irmibes",
        -12.166333847847872
      ],
      [
        "▁cinliler",
        -11.50268095205905
      ],
      [
        "▁44.6",
        -11.615003473975984
      ],
      [
        "▁gunesli",
        -11.165966623839264
      ],
      [
        "a",
        -11.929949797425069
      ],
      [
        "▁romanları",
        -11.473105803703698
      ],
      [
        "▁duz",
        -9.3420168821069
      ],
      [
        "▁kaynaklanıyor",
        -10.948711492560056
      ],
      [
        "▁fakultesi",
        -11.241022451830002
      ],
      [
        "▁rivayet",
        -11.375047362119014
      ],
      [
        "▁oksuz",
        -11.376331304632396
      ],
      [
        "11.4",
        -12.75924774848855
      ],
      [
        "▁dinin",
        -11.20283522541221
      ],
      [
        "▁etkin",
        -10.434129616173486
      ],
      [
        "▁dinliyordu",
        -11.046503714453102
      ],
      [
        "▁bulursa",
        -11.599635858962355
      ],
      [
        "▁cbs",
        -10.277095775638884
      ],
      [
        "▁uc",
        -9.075442309325217
      ],
      [
        "verir",
        -10.432442345804198
      ],
      [
        "▁dikenli",
        -11.22525389909729
      ],
      [
        "▁koyu",
        -9.024707639298107
      ],
      [
        "541",
        -12.747342466715265
      ],
      [
        "▁miras",
        -10.126259000933338
      ],
      [
        "▁desteklen",
        -10.36329599083854
      ],
      [
        "▁edildigin",
        -10.991108834030262
      ],
      [
        "▁tamamı",
        -10.314946262777276
      ],
      [
        "▁guclu",
        -8.418967694256985
      ],
      [
        "▁bulundugumuz",
        -11.686002517297817
      ],
      [
        "▁sık",
        -8.043484356209593
      ],
      [
        "▁dayak",
        -10.495495751953001
      ],
      [
        "leme",
        -9.341946529536214
      ],
      [
        "▁anlamıyla",
        -10.720183432571583
      ],
      [
        "▁varlıklı",
        -11.268928336810795
      ],
      [
        "▁dar",
        -8.664114065477694
      ],
      [
        "hard",
        -11.157071179125165
      ],
      [
        "▁imalat",
        -10.52832653611088
      ],
      [
        "▁cark",
        -10.495208856219696
      ],
      [
        "▁agzını",
        -9.897661575816514
      ],
      [
        "▁saglar",
        -10.400378951100581
      ],
      [
        "▁port",
        -10.792730820466398
      ],
      [
        "▁organları",
        -11.027355728561213
      ],
      [
        "▁zeytinyagı",
        -10.588148073958862
      ],
      [
        "▁saglıgını",
        -11.098103680917722
      ],
      [
        "▁vi",
        -9.47197836891493
      ],
      [
        "▁sınırları",
        -10.697530671182593
      ],
      [
        "'nde",
        -9.929436915858647
      ],
      [
        "▁pınar",
        -11.138967738984556
      ],
      [
        "▁dini",
        -10.502840483482279
      ],
      [
        "▁istah",
        -10.948048435412089
      ],
      [
        "▁kazanımlar",
        -11.535651681638788
      ],
      [
        "▁solda",
        -10.67598597933036
      ],
      [
        "▁tahta",
        -8.921186224173498
      ],
      [
        "▁yazıldı",
        -11.63726602763795
      ],
      [
        "▁katkı",
        -8.896497965626871
      ],
      [
        "▁kuvvetli",
        -9.882490007008416
      ],
      [
        "▁surdugu",
        -10.644679551625828
      ],
      [
        "▁gorul",
        -10.448582367455879
      ],
      [
        "▁ba",
        -9.384290682744169
      ],
      [
        "▁seyretme",
        -10.948400835908128
      ],
      [
        "▁takı",
        -10.19047131014464
      ],
      [
        "▁yerinde",
        -8.735977518935112
      ],
      [
        "▁simit",
        -11.519056965075574
      ],
      [
        "▁jackson",
        -11.684794220141566
      ],
      [
        "▁verdi",
        -7.757267715701256
      ],
      [
        "▁bell",
        -12.153863669355456
      ],
      [
        "▁191.",
        -12.689043634190522
      ],
      [
        "1.75",
        -13.660205564517025
      ],
      [
        "▁zı",
        -12.278377134489126
      ],
      [
        "evi'n",
        -11.411382116754318
      ],
      [
        "▁degirmen",
        -10.649681905544805
      ],
      [
        "▁ocak'ta",
        -11.039675937996972
      ],
      [
        "▁goruyor",
        -9.057083346228152
      ],
      [
        "▁yayma",
        -11.235799115174752
      ],
      [
        "▁kılavuz",
        -10.47279634852819
      ],
      [
        "▁olmek",
        -10.974494115208266
      ],
      [
        "▁varlıgını",
        -10.707743400908836
      ],
      [
        "▁canlanma",
        -10.947339095083327
      ],
      [
        "▁milletin",
        -10.458894689746971
      ],
      [
        "▁armut",
        -11.250067460451692
      ],
      [
        "▁izleyiciler",
        -11.559125814210852
      ],
      [
        "▁catır",
        -10.87472178872192
      ],
      [
        "▁q",
        -10.109228732898659
      ],
      [
        "▁tibet'i",
        -11.704865193460968
      ],
      [
        "▁ortagı",
        -10.665142565791687
      ],
      [
        "▁kasa",
        -10.012256114937147
      ],
      [
        "▁zorluk",
        -10.734733201876411
      ],
      [
        "23",
        -9.967191016733029
      ],
      [
        "▁ekinler",
        -11.265139577212807
      ],
      [
        "▁tovbe",
        -11.375047495504246
      ],
      [
        "▁ver",
        -8.199900568278395
      ],
      [
        "▁koltukları",
        -11.620509178855324
      ],
      [
        "▁engelle",
        -10.18779199768244
      ],
      [
        "▁ti",
        -9.731999028004463
      ],
      [
        "▁teknolojisini",
        -11.196615940277894
      ],
      [
        "▁196",
        -9.219426224782298
      ],
      [
        "79",
        -11.184966466501223
      ],
      [
        "bazi",
        -12.884513573558205
      ],
      [
        ".59",
        -11.122353206492843
      ],
      [
        "▁ivme",
        -11.592918539934894
      ],
      [
        "▁ufuklar",
        -11.597346849043381
      ],
      [
        "▁degistirmek",
        -10.559616051771505
      ],
      [
        "▁durumun",
        -10.362264457037124
      ],
      [
        "guzel",
        -11.247383249888568
      ],
      [
        "▁elim",
        -10.071131107128352
      ],
      [
        "▁is",
        -7.051853106174243
      ],
      [
        "▁say",
        -11.394555275542041
      ],
      [
        "▁kurtardı",
        -10.636262486509189
      ],
      [
        "▁saran",
        -11.144541125714598
      ],
      [
        "▁sanal",
        -10.625050898646752
      ],
      [
        "▁pentagon",
        -10.716342085229115
      ],
      [
        "▁civarında",
        -9.340120183285997
      ],
      [
        "▁eyva",
        -11.518726393877177
      ],
      [
        "ertesi",
        -9.763314430869302
      ],
      [
        "▁devral",
        -10.862448406116762
      ],
      [
        "▁begenmis",
        -11.684619416755801
      ],
      [
        "▁yargılanma",
        -11.774022938293175
      ],
      [
        "▁oder",
        -10.95270433519092
      ],
      [
        "▁cesaret",
        -10.059968642336749
      ],
      [
        "▁milyar",
        -5.740472206460095
      ],
      [
        "ip",
        -7.755020000545454
      ],
      [
        "▁tutmustu",
        -11.752102289084787
      ],
      [
        "”",
        -9.789649445909061
      ],
      [
        "▁sınırlandırma",
        -11.517904779203679
      ],
      [
        "▁515",
        -10.997139819900935
      ],
      [
        "yuzyetmisb",
        -12.082249886826542
      ],
      [
        "5.16",
        -11.764211844483834
      ],
      [
        "44.9",
        -12.634094068592963
      ],
      [
        "▁alacagını",
        -11.058937731674014
      ],
      [
        "▁isabet",
        -10.5287592573764
      ],
      [
        "▁99.9",
        -11.628361218426413
      ],
      [
        "▁vazgecilmez",
        -11.685364674660448
      ],
      [
        "▁feci",
        -11.689311376296855
      ],
      [
        "▁yasayacak",
        -11.73901158709695
      ],
      [
        "▁kalmaz",
        -10.661684617148788
      ],
      [
        "▁gazetelerin",
        -10.9349653910741
      ],
      [
        "▁reddede",
        -11.251517006971714
      ],
      [
        "▁avsar",
        -11.13908342881503
      ],
      [
        "▁yavrusu",
        -11.034302569744797
      ],
      [
        "▁doları'nda",
        -9.759473973600556
      ],
      [
        "▁yonetim",
        -8.360369607166525
      ],
      [
        "ciligin",
        -11.240250167089263
      ],
      [
        "▁soylendi",
        -10.443979913865494
      ],
      [
        "▁kendisini",
        -7.291834468436704
      ],
      [
        "▁akrebi",
        -11.884571355039848
      ],
      [
        "▁ikibin",
        -10.531438624027286
      ],
      [
        "▁acab",
        -9.54936010045249
      ],
      [
        "▁revizyon",
        -11.684730944338305
      ],
      [
        "▁baltimore'",
        -7.803127708239543
      ],
      [
        "▁kodak",
        -11.68522683106739
      ],
      [
        "▁kapılar",
        -10.668436493394754
      ],
      [
        "▁canım",
        -9.807093469144231
      ],
      [
        "▁mac",
        -8.881503334701993
      ],
      [
        "▁halı",
        -10.093192195112671
      ],
      [
        "ginde",
        -9.729992938946209
      ],
      [
        "▁bra",
        -10.727860987399255
      ],
      [
        "▁yapabilecegim",
        -11.474912995145683
      ],
      [
        "▁munas",
        -11.684781927743305
      ],
      [
        "▁amaclı",
        -10.861908688577968
      ],
      [
        "▁ergen",
        -11.250987847057665
      ],
      [
        "ıp",
        -7.352925169631468
      ],
      [
        "cık",
        -8.787082655381425
      ],
      [
        "bus",
        -10.970106780024432
      ],
      [
        "▁cıkardıgı",
        -10.294345075993103
      ],
      [
        "▁1991-199",
        -11.945824767265377
      ],
      [
        "▁yaratma",
        -10.071239809339785
      ],
      [
        "▁sarısın",
        -10.678802170877606
      ],
      [
        "▁kabugu",
        -10.650144290105432
      ],
      [
        "▁kent",
        -9.256671589631804
      ],
      [
        "▁onayladı",
        -10.219501431158275
      ],
      [
        "▁ilkbahar",
        -10.86469446629447
      ],
      [
        "▁ikizler",
        -11.380060640328235
      ],
      [
        "▁brands",
        -11.684571160282895
      ],
      [
        "▁komisyonu'nu",
        -11.439285313039434
      ],
      [
        "ugru",
        -10.955149615535916
      ],
      [
        "▁hayret",
        -10.076660092779814
      ],
      [
        "▁evde",
        -8.565141447496224
      ],
      [
        "8'de",
        -12.626625708175503
      ],
      [
        "▁yoktu",
        -7.032519643070623
      ],
      [
        "▁turlu",
        -8.33946795982767
      ],
      [
        "▁gelistir",
        -10.391452369473722
      ],
      [
        "▁degisiyor",
        -10.417243158601046
      ],
      [
        "▁za",
        -11.938950486359477
      ],
      [
        "▁emeklilik",
        -9.768775611312616
      ],
      [
        "▁ali'",
        -10.734741638234862
      ],
      [
        "▁savur",
        -10.255628219536835
      ],
      [
        "▁di",
        -7.057769738788028
      ],
      [
        "▁egleniyor",
        -11.52532283962783
      ],
      [
        "▁tımarhane",
        -11.684673311770547
      ],
      [
        "▁yonetme",
        -10.715087748977792
      ],
      [
        "▁bayrakları",
        -11.5689895044931
      ],
      [
        "ligin",
        -9.29646842780781
      ],
      [
        "▁cevirdi",
        -9.70647398181945
      ],
      [
        "▁bulunma",
        -10.575439179663936
      ],
      [
        "opo",
        -11.87558443952499
      ],
      [
        "▁denetimi",
        -10.97761925022785
      ],
      [
        "▁tasınır",
        -11.720651186090452
      ],
      [
        "▁mektepte",
        -11.279252175811905
      ],
      [
        "▁istiyor",
        -8.6770504961132
      ],
      [
        "%0.2",
        -13.660889112491354
      ],
      [
        "▁isteyenleri",
        -11.499875809414855
      ],
      [
        "▁1150",
        -12.149073756967047
      ],
      [
        "▁kellogg",
        -11.375047268532791
      ],
      [
        "▁sesinde",
        -11.6199085053697
      ],
      [
        "▁ugrar",
        -11.501180917773807
      ],
      [
        "▁ekonomistler",
        -10.793514199812844
      ],
      [
        "lama",
        -8.545560629359088
      ],
      [
        "▁eyalet",
        -9.871062117969611
      ],
      [
        "▁dostlugu",
        -11.10061719137465
      ],
      [
        "▁ogreniyor",
        -10.734475937216885
      ],
      [
        "▁albumu",
        -11.298821913778804
      ],
      [
        "▁ney",
        -8.827870655904642
      ],
      [
        "▁15.8",
        -11.07897848457844
      ],
      [
        "▁saklama",
        -10.735263302432905
      ],
      [
        "▁parlıyordu",
        -11.520636171431486
      ],
      [
        "tion",
        -9.947424919627814
      ],
      [
        "▁200",
        -8.144482062339698
      ],
      [
        "▁315",
        -11.339967272597303
      ],
      [
        "▁temizlenmis",
        -11.388103167473155
      ],
      [
        "9000",
        -11.558946530946093
      ],
      [
        "▁ho",
        -9.855379258881202
      ],
      [
        "▁yigit",
        -11.127031560699606
      ],
      [
        "60",
        -9.56421121851256
      ],
      [
        "s",
        -6.158948122064462
      ],
      [
        "ang",
        -11.106823032232723
      ],
      [
        "▁meze",
        -10.529302508847325
      ],
      [
        "▁olumlu",
        -9.202660527938658
      ],
      [
        "▁bozdu",
        -10.686491051076473
      ],
      [
        "▁reagan",
        -10.472805884089755
      ],
      [
        "▁olunca",
        -9.911588501303125
      ],
      [
        "▁yasıyor",
        -9.431516705970182
      ],
      [
        "▁mevduat",
        -9.879106593630263
      ],
      [
        "▁sesini",
        -9.96235611323895
      ],
      [
        "▁ilim",
        -10.800755104420116
      ],
      [
        "▁toplumunu",
        -11.20248895191862
      ],
      [
        "▁davranır",
        -11.079605513126497
      ],
      [
        "▁ıslah",
        -11.5179568178513
      ],
      [
        "▁balonu",
        -11.729315918029078
      ],
      [
        "▁tahrik",
        -11.385428819712903
      ],
      [
        "▁jul",
        -10.711233042272422
      ],
      [
        "▁hukuku",
        -10.860782098998925
      ],
      [
        "▁hareketini",
        -11.192605131211952
      ],
      [
        "▁ha",
        -9.661661106856688
      ],
      [
        "▁fiyat",
        -7.2025954347197985
      ],
      [
        "gına",
        -9.3960020930249
      ],
      [
        "▁indianapolis'",
        -10.06852245949791
      ],
      [
        "▁hucum",
        -10.472810454711771
      ],
      [
        "▁donustur",
        -10.619156822872952
      ],
      [
        "▁acmayı",
        -11.1447863929292
      ],
      [
        "▁turnuva",
        -11.375047665197393
      ],
      [
        "▁delici",
        -11.381013103017263
      ],
      [
        "▁141",
        -12.146779789285134
      ],
      [
        "▁39.",
        -12.007339395592808
      ],
      [
        "▁gonderme",
        -10.786674680425175
      ],
      [
        "▁made",
        -10.839292116490434
      ],
      [
        "▁tartısmalı",
        -11.420493544265765
      ],
      [
        "▁ot",
        -9.098942384816844
      ],
      [
        "▁reklamcılar",
        -11.154030754654226
      ],
      [
        "▁kandır",
        -10.540366924414744
      ],
      [
        "▁yapıldıgın",
        -10.990690737379841
      ],
      [
        "▁425",
        -11.14415179599437
      ],
      [
        "▁co",
        -10.859016870384503
      ],
      [
        "▁volokh",
        -11.88457108620178
      ],
      [
        "▁deniz",
        -7.396725722892186
      ],
      [
        "▁takviye",
        -11.375050762987565
      ],
      [
        "/2",
        -9.276631499715991
      ],
      [
        "▁ni",
        -9.520211387890106
      ],
      [
        "▁yasamıs",
        -10.651359260678728
      ],
      [
        "▁basardı",
        -10.95747594995781
      ],
      [
        "▁ardında",
        -8.739356171386767
      ],
      [
        "▁makaley",
        -10.179177714906832
      ],
      [
        "▁serbest",
        -9.392474047534678
      ],
      [
        "▁olmayacak",
        -9.61168763107489
      ],
      [
        "▁hatıra",
        -10.295234112127472
      ],
      [
        "▁tasarısı",
        -10.447708841396908
      ],
      [
        "▁femin",
        -11.519242971617508
      ],
      [
        "▁sıfır",
        -10.774889895020369
      ],
      [
        "▁esmer",
        -10.473033554739112
      ],
      [
        "▁daglar",
        -10.183569646974778
      ],
      [
        "▁olmayan",
        -8.51034898360758
      ],
      [
        "▁ozgurlukler",
        -11.727547161570845
      ],
      [
        "▁bulunmadıgı",
        -11.506183750704079
      ],
      [
        "mıyordu",
        -9.888941460152733
      ],
      [
        "▁kafası",
        -10.449132232449436
      ],
      [
        "bizde",
        -11.78311080375482
      ],
      [
        "▁sokmus",
        -11.46487898044092
      ],
      [
        "▁fiyatları",
        -8.226509181843268
      ],
      [
        "▁elektronik",
        -9.551427407784733
      ],
      [
        "▁irmak",
        -11.68461959597021
      ],
      [
        "▁uzmanları",
        -10.142477101034025
      ],
      [
        "▁yatırım",
        -8.239170467972105
      ],
      [
        "▁tartısma",
        -9.640515429912098
      ],
      [
        "▁basma",
        -10.378790183171308
      ],
      [
        "▁bilinmeyen",
        -11.250325501193734
      ],
      [
        "▁bırakacagı",
        -11.284325749555741
      ],
      [
        "▁paydos",
        -11.517923841703128
      ],
      [
        "▁geceler",
        -10.726908702936832
      ],
      [
        "▁ul",
        -11.083544078635494
      ],
      [
        "▁ku",
        -11.654370359762991
      ],
      [
        "ldugunda",
        -11.867553684588595
      ],
      [
        "▁paralel",
        -10.528424432702868
      ],
      [
        "▁kriz",
        -10.56854697476653
      ],
      [
        "▁huznu",
        -11.51932839478378
      ],
      [
        "▁isletmeler",
        -10.48765436964571
      ],
      [
        "▁iniyor",
        -11.025878584531904
      ],
      [
        "▁nuk",
        -10.374186447131418
      ],
      [
        "8.62",
        -12.402866956617746
      ],
      [
        "▁bıyıkları",
        -10.841932158867374
      ],
      [
        "▁irak'",
        -10.343353690331952
      ],
      [
        "▁erkeg",
        -11.120798923794332
      ],
      [
        "▁yuva",
        -10.36349333957013
      ],
      [
        "▁sevmeye",
        -11.255207312535415
      ],
      [
        "▁gazeteni",
        -11.241285225413744
      ],
      [
        "▁mahzu",
        -11.250351382388814
      ],
      [
        "▁pudra",
        -11.250047271683169
      ],
      [
        "▁istanbul'u",
        -9.64657855751581
      ],
      [
        "▁2005",
        -9.970985020907277
      ],
      [
        "▁yetisir",
        -11.718851910862407
      ],
      [
        "▁memleket",
        -9.813983814316753
      ],
      [
        "▁kayık",
        -10.528209093660767
      ],
      [
        "▁arkadasları",
        -10.170947011126124
      ],
      [
        "so",
        -8.893916647833626
      ],
      [
        "▁4.9",
        -9.954181334929654
      ],
      [
        "▁62.2",
        -11.677758383410517
      ],
      [
        "▁onerisi",
        -10.995197760170592
      ],
      [
        "lenmis",
        -8.975172057138028
      ],
      [
        "▁karsılık",
        -9.089987094072079
      ],
      [
        "▁istese",
        -11.460042932861613
      ],
      [
        "▁ahlak",
        -9.662561902360768
      ],
      [
        "ors",
        -11.268713780080219
      ],
      [
        "▁kazancı",
        -9.81874429629337
      ],
      [
        "▁65",
        -10.266959732023034
      ],
      [
        "f",
        -10.183767360572132
      ],
      [
        "0'un",
        -11.944199471963893
      ],
      [
        "▁vatan",
        -9.601467549497205
      ],
      [
        "▁kalacagını",
        -11.536267861744863
      ],
      [
        "20.4",
        -12.585444307102689
      ],
      [
        "▁calıs",
        -9.63012884843334
      ],
      [
        "▁at",
        -8.192494403478179
      ],
      [
        "▁icap",
        -10.948917640829915
      ],
      [
        "▁yapamam",
        -11.038965717110447
      ],
      [
        "▁miami'de",
        -9.812266729017026
      ],
      [
        "▁tahminlerini",
        -10.730710841725681
      ],
      [
        "▁13'",
        -11.453687899609614
      ],
      [
        "▁merkur",
        -11.250472446709278
      ],
      [
        "▁durum",
        -8.506112853987396
      ],
      [
        "▁cig",
        -10.701752937675673
      ],
      [
        "▁okudugu",
        -11.004466572740377
      ],
      [
        "▁2000",
        -9.70435989111514
      ],
      [
        "▁etme",
        -8.44358846061997
      ],
      [
        "▁sagladı",
        -10.217113279660001
      ],
      [
        "▁stili",
        -11.687369754150268
      ],
      [
        "▁kıyamet",
        -11.138945896084602
      ],
      [
        "▁phil",
        -11.140275202552523
      ],
      [
        "▁karars",
        -9.986532405227992
      ],
      [
        "cik",
        -9.522214610087769
      ],
      [
        "▁film",
        -9.056507535491384
      ],
      [
        "▁masraf",
        -9.97532647918021
      ],
      [
        "▁kaybettigi",
        -11.015797589088816
      ],
      [
        "2.4",
        -11.170511993545482
      ],
      [
        "▁basamak",
        -11.086840932002884
      ],
      [
        "▁alamaz",
        -11.102266799102813
      ],
      [
        "c",
        -12.525513205923577
      ],
      [
        "▁dekorasyon",
        -10.280201388852564
      ],
      [
        "▁uretimini",
        -10.920401259821041
      ],
      [
        "▁donecegi",
        -11.642892553831167
      ],
      [
        "▁sandalye",
        -10.203057394174149
      ],
      [
        "▁t",
        -9.216112087567918
      ],
      [
        "▁londra'da",
        -10.924386117944266
      ],
      [
        "▁257",
        -12.484148806516416
      ],
      [
        "ontrol",
        -10.864508762788077
      ],
      [
        "▁turku",
        -9.590758683824028
      ],
      [
        "▁ruh",
        -9.322840841080762
      ],
      [
        "▁istemez",
        -9.913702129762392
      ],
      [
        "▁bogazım",
        -11.686646637449174
      ],
      [
        "496",
        -11.454567244358223
      ],
      [
        "▁airlines'i",
        -9.910155045420876
      ],
      [
        "▁hosnut",
        -10.716362960732624
      ],
      [
        "▁is",
        -10.349556061841136
      ],
      [
        "▁buhran",
        -11.038936982868151
      ],
      [
        "▁yuruten",
        -11.379923883153737
      ],
      [
        "▁nereler",
        -10.327109737456745
      ],
      [
        "▁ofiste",
        -11.53946368685114
      ],
      [
        "▁bitti",
        -9.884982603379271
      ],
      [
        "miz",
        -8.108690417585775
      ],
      [
        "amadı",
        -9.578854167373308
      ],
      [
        "▁caldı",
        -10.87035383073114
      ],
      [
        "▁fısıldadı",
        -11.37518842893047
      ],
      [
        "▁harman",
        -10.528939681664218
      ],
      [
        "▁mermi",
        -11.379254875223015
      ],
      [
        "▁kiz",
        -11.454415029386382
      ],
      [
        "▁kurtulu",
        -11.599643157318175
      ],
      [
        "▁maidenform",
        -11.684571077950553
      ],
      [
        "▁sekil",
        -10.019911882220315
      ],
      [
        "32.7",
        -13.523044790039268
      ],
      [
        "▁usu",
        -10.601934096297837
      ],
      [
        "▁dersler",
        -10.537687682764712
      ],
      [
        "▁alınıyor",
        -11.185765507459623
      ],
      [
        "dolay",
        -9.872246450338713
      ],
      [
        "▁kar",
        -8.004086389494054
      ],
      [
        "dikleri",
        -9.98920500656886
      ],
      [
        "▁moody'",
        -10.281787864829813
      ],
      [
        "▁tarzı",
        -10.589623438864393
      ],
      [
        "▁sızdır",
        -11.250181477108459
      ],
      [
        "atı",
        -11.610191654727192
      ],
      [
        "▁hay",
        -9.577091278108389
      ],
      [
        "▁yolsuz",
        -10.85699552767301
      ],
      [
        "▁takmıs",
        -11.11585240938123
      ],
      [
        "▁manhattan",
        -11.138936348448222
      ],
      [
        "▁cocugun",
        -9.44184489681612
      ],
      [
        "gun",
        -9.435753687034298
      ],
      [
        "▁baslamıstı",
        -9.57982678343067
      ],
      [
        "▁deterjan",
        -11.684571086155156
      ],
      [
        "▁maden",
        -9.682529645976464
      ],
      [
        "▁emine",
        -10.466047127051285
      ],
      [
        "▁pes",
        -9.90889471968728
      ],
      [
        "▁paraları",
        -10.843716986097201
      ],
      [
        "▁cumhuriyetci",
        -10.398388531842494
      ],
      [
        "▁tanesini",
        -11.556051957590283
      ],
      [
        "▁tutustu",
        -11.568459573797037
      ],
      [
        "▁yumusak",
        -9.644083705229761
      ],
      [
        "▁bankalar",
        -9.798194030898056
      ],
      [
        "▁iceride",
        -10.184328651788553
      ],
      [
        "dizgin",
        -11.783786731299536
      ],
      [
        "▁yapmak",
        -8.149720145420538
      ],
      [
        "▁avlu",
        -10.423403410216714
      ],
      [
        "▁yirmibir",
        -12.117713959587826
      ],
      [
        "▁calismasi",
        -11.385531217286001
      ],
      [
        "▁ihtiyacim",
        -11.10436534793081
      ],
      [
        "▁sokag",
        -9.945466127694901
      ],
      [
        "▁ekim",
        -8.811570104712231
      ],
      [
        "▁evladı",
        -10.547719796307517
      ],
      [
        "elli",
        -10.223140255659835
      ],
      [
        "▁lang",
        -10.589644414505134
      ],
      [
        "▁mahkemesi",
        -9.760115155578598
      ],
      [
        "▁silkin",
        -11.051668454596701
      ],
      [
        "▁yad",
        -11.1102034315068
      ],
      [
        "▁kulfet",
        -11.038937118953104
      ],
      [
        "▁hisselerini",
        -9.691173271220336
      ],
      [
        "▁yollarını",
        -10.304586580124514
      ],
      [
        "▁oyunları",
        -10.712364085723223
      ],
      [
        "▁yıkıldı",
        -10.94634872122227
      ],
      [
        "▁lawren",
        -11.375047285291721
      ],
      [
        "▁zevk",
        -9.32487481136464
      ],
      [
        "▁yatırımcıların",
        -9.84138777976976
      ],
      [
        "▁haziran",
        -9.175889947264395
      ],
      [
        "lanmıstı",
        -10.360117190122198
      ],
      [
        "▁cana",
        -9.759255500665837
      ],
      [
        "▁esiyor",
        -11.06971328114032
      ],
      [
        "▁amacı",
        -9.52661936552304
      ],
      [
        "ha",
        -9.052875687984058
      ],
      [
        "liginde",
        -9.695244107958068
      ],
      [
        "▁yastık",
        -11.078910579269023
      ],
      [
        "▁kalorifer",
        -11.517919111948366
      ],
      [
        "▁ilha",
        -11.390390254310104
      ],
      [
        "▁melod",
        -11.685516362170352
      ],
      [
        "▁muste",
        -11.68461473120829
      ],
      [
        "▁halayık",
        -11.685158788347767
      ],
      [
        "▁doneminde",
        -9.65335686472997
      ],
      [
        "▁gectigini",
        -10.730685624834075
      ],
      [
        "▁tımar",
        -11.374998538464618
      ],
      [
        "▁baslıgı",
        -11.40492943859908
      ],
      [
        "▁sıyrıl",
        -11.375047290437651
      ],
      [
        "▁dayanıyor",
        -11.062567693251973
      ],
      [
        "▁senede",
        -10.968394319587416
      ],
      [
        "▁24.0",
        -12.449981102677722
      ],
      [
        "▁2'y",
        -11.714198577502223
      ],
      [
        "ry",
        -9.526649523620563
      ],
      [
        "▁kola",
        -9.890499581974876
      ],
      [
        "▁cile",
        -10.783570486758776
      ],
      [
        "sever",
        -10.58658574979049
      ],
      [
        "▁katılmadı",
        -11.383699341566272
      ],
      [
        "▁fırlaya",
        -11.63735834325503
      ],
      [
        "▁hostu",
        -11.515747375519451
      ],
      [
        "▁soracak",
        -11.52321829978426
      ],
      [
        "▁ticareti",
        -10.025649197824292
      ],
      [
        "▁bedevi",
        -11.517993211613335
      ],
      [
        "▁5.5",
        -9.572967278095836
      ],
      [
        "▁bagları",
        -11.164811494665306
      ],
      [
        "▁ayrılma",
        -9.720577519810742
      ],
      [
        "▁n.y.",
        -11.68457108310193
      ],
      [
        "▁sebze",
        -10.07652400475353
      ],
      [
        "▁cagırı",
        -10.932795443625864
      ],
      [
        "▁dusuyor",
        -10.154897800324598
      ],
      [
        ".7'",
        -12.494952148675774
      ],
      [
        "▁halletti",
        -11.68484121724447
      ],
      [
        "▁arttı",
        -8.732283201955964
      ],
      [
        "▁musaviri",
        -11.88457125513261
      ],
      [
        "▁birmingham",
        -11.884571096025773
      ],
      [
        "▁gurka",
        -11.702056600742578
      ],
      [
        "▁ma",
        -9.338411177648341
      ],
      [
        "▁aralık'ta",
        -9.97326383631402
      ],
      [
        "▁soyleyin",
        -10.735269496832313
      ],
      [
        "▁bahsetme",
        -11.218144140482094
      ],
      [
        ".93",
        -12.202966514485004
      ],
      [
        "▁bildiril",
        -10.68618375576499
      ],
      [
        "▁gunumu",
        -11.387963401496922
      ],
      [
        "▁temple",
        -11.88457404188857
      ],
      [
        "▁bakar",
        -9.63403201707682
      ],
      [
        "▁pratik",
        -10.864694054720603
      ],
      [
        "▁turk'u",
        -11.178957363147132
      ],
      [
        "▁salonu",
        -10.57126837127028
      ],
      [
        "40.1",
        -13.059810858100795
      ],
      [
        "▁geci",
        -9.808474334164611
      ],
      [
        "▁karmakarısık",
        -10.948027066405231
      ],
      [
        "▁co.'da",
        -11.421609557159794
      ],
      [
        "ruyor",
        -10.230199265513175
      ],
      [
        "▁irs",
        -10.71643600702866
      ],
      [
        "▁jaguar'ı",
        -11.203482641065479
      ],
      [
        "▁etek",
        -10.114512825814474
      ],
      [
        "▁uzatıl",
        -11.19902296127006
      ],
      [
        "m",
        -9.715460917580959
      ],
      [
        "▁guvenligi",
        -11.284725828546337
      ],
      [
        "▁chp",
        -10.110689122199911
      ],
      [
        "▁kapıda",
        -10.26812969972311
      ],
      [
        "▁kırdı",
        -10.306092292481269
      ],
      [
        "▁salla",
        -10.779344665101245
      ],
      [
        "▁surat",
        -10.13876434206475
      ],
      [
        "▁cozulme",
        -11.499836369441342
      ],
      [
        "▁duzenleyiciler",
        -11.620226229213204
      ],
      [
        "▁sınıfları",
        -11.056327006618138
      ],
      [
        "▁endiselendir",
        -11.516621160419628
      ],
      [
        "▁bolgesel",
        -10.789444478804041
      ],
      [
        "▁cebi",
        -11.518566880321732
      ],
      [
        "▁cagrısında",
        -11.701104983013042
      ],
      [
        "▁galatasaray",
        -11.138936157303945
      ],
      [
        "54'le",
        -12.37635722492457
      ],
      [
        "▁olamayacak",
        -11.51848252955542
      ],
      [
        "▁patron",
        -11.833729353834208
      ],
      [
        "▁pazarın",
        -10.701546001440622
      ],
      [
        "▁riskli",
        -10.65773793144177
      ],
      [
        "▁sıkısı",
        -11.161629561437037
      ],
      [
        "▁unlu",
        -9.489788068828194
      ],
      [
        "cıların",
        -10.554450093854966
      ],
      [
        "5",
        -8.51441408399641
      ],
      [
        "▁hatası",
        -11.336163959353952
      ],
      [
        "▁ebe",
        -10.587412521619022
      ],
      [
        "▁etmeyecegi",
        -10.690093213810263
      ],
      [
        "ildigi",
        -10.870587946754977
      ],
      [
        "▁vahsi",
        -10.79063702487719
      ],
      [
        "91'",
        -12.393846342920602
      ],
      [
        "ligi",
        -7.9078523693515566
      ],
      [
        "▁kabar",
        -9.778875844158353
      ],
      [
        "▁redingot",
        -11.038936169783854
      ],
      [
        "▁cete",
        -10.869058278803848
      ],
      [
        "▁nakarat",
        -11.375048978566944
      ],
      [
        "▁varlıkların",
        -11.243439289515877
      ],
      [
        "▁amator",
        -10.864757292388427
      ],
      [
        "▁degin",
        -10.67035624628043
      ],
      [
        "▁cardagı",
        -11.684586898505335
      ],
      [
        "▁etmekten",
        -10.771121799195942
      ],
      [
        "▁6.4",
        -9.827243029432221
      ],
      [
        "▁birikimi",
        -11.241796738466178
      ],
      [
        "▁karıstıgı",
        -11.856268215032166
      ],
      [
        "▁yemegi",
        -9.19927902160007
      ],
      [
        "▁parkı'n",
        -11.77980718836
      ],
      [
        "▁recep'i",
        -11.198302355852679
      ],
      [
        "▁hatırladı",
        -11.700107325888256
      ],
      [
        "liginiz",
        -11.387700097881435
      ],
      [
        "▁fiyati",
        -8.938777575100591
      ],
      [
        "▁yol",
        -7.71943130202202
      ],
      [
        "ogr",
        -6.481195157006846
      ],
      [
        "▁yapayalnız",
        -11.68457158933887
      ],
      [
        "▁onar",
        -10.689450006921778
      ],
      [
        "▁or",
        -9.479210966397837
      ],
      [
        "▁baglantılı",
        -10.328244046720407
      ],
      [
        "3.2",
        -12.024679270619067
      ],
      [
        "▁tutam",
        -10.844620952200234
      ],
      [
        "▁dizi",
        -9.158359587468336
      ],
      [
        "▁deplasman",
        -10.864693903803813
      ],
      [
        "▁hissesi",
        -9.505436691873621
      ],
      [
        "▁kalkan",
        -7.652657243107468
      ],
      [
        "ki",
        -6.635403197634999
      ],
      [
        "▁cıkıs",
        -9.630734206581785
      ],
      [
        "▁nesi",
        -10.921976734673397
      ],
      [
        "▁anlatır",
        -10.26397925971206
      ],
      [
        "ıldıgında",
        -10.725090661273507
      ],
      [
        "▁merdivenlerde",
        -11.75269296480632
      ],
      [
        "▁dolar",
        -6.748968458254789
      ],
      [
        "▁olanaklarını",
        -10.240199685526388
      ],
      [
        "▁gelisimi",
        -10.917458834169144
      ],
      [
        "▁ik",
        -10.108787904356568
      ],
      [
        "▁kullanılmıs",
        -10.850417537075653
      ],
      [
        "▁maharetl",
        -11.66715315394144
      ],
      [
        "▁476",
        -12.25613587234789
      ],
      [
        "▁%9",
        -9.782451238871033
      ],
      [
        "▁26.",
        -11.08542382789698
      ],
      [
        "▁sel",
        -9.720222217226274
      ],
      [
        "ın",
        -9.40061893710457
      ],
      [
        "seniz",
        -9.887870023172947
      ],
      [
        "▁geyik",
        -10.096094682803953
      ],
      [
        "▁aglama",
        -10.68958902253946
      ],
      [
        "▁%0.3",
        -11.442857597144096
      ],
      [
        "▁fotograf",
        -9.529808970222366
      ],
      [
        "▁sunar",
        -11.386997870857979
      ],
      [
        "▁toplar",
        -10.948483346015394
      ],
      [
        "▁biri",
        -8.452702566973066
      ],
      [
        "▁madam",
        -11.139265828751572
      ],
      [
        "▁sozlerini",
        -10.310610891278989
      ],
      [
        "▁kur",
        -9.001782569133084
      ],
      [
        "mesi",
        -8.479596708079995
      ],
      [
        "▁alf",
        -11.431951663229558
      ],
      [
        "▁hapishane",
        -10.474152128530458
      ],
      [
        "1.23",
        -12.783758445147392
      ],
      [
        "redit",
        -11.610981878620663
      ],
      [
        "▁artı",
        -10.845610044832313
      ],
      [
        "▁esen",
        -10.971935060909932
      ],
      [
        "▁hanim",
        -7.397252266069936
      ],
      [
        "▁acik",
        -9.851946266211693
      ],
      [
        "▁gemi",
        -8.642816314420392
      ],
      [
        "▁saglıgı",
        -10.70099225380308
      ],
      [
        "▁pittsburgh'",
        -8.05867875150939
      ],
      [
        "▁hasan",
        -9.577486098048745
      ],
      [
        "▁guleryuzluler",
        -10.860283881338477
      ],
      [
        "ba",
        -9.859568973466363
      ],
      [
        "1.9",
        -10.024497484819797
      ],
      [
        "▁wcrs",
        -11.375047294344617
      ],
      [
        "▁zincirini",
        -11.49424657626329
      ],
      [
        "▁se",
        -8.046552470362972
      ],
      [
        "▁zammı",
        -11.70869164419952
      ],
      [
        "▁degistiriyor",
        -10.50735464977572
      ],
      [
        "▁7\\/",
        -8.72073896077232
      ],
      [
        "▁elestiren",
        -11.686863504381396
      ],
      [
        "▁ucus",
        -6.71678925947134
      ],
      [
        "▁cevril",
        -10.46572456118928
      ],
      [
        "▁sarmıs",
        -10.891681981281945
      ],
      [
        "▁almanya'da",
        -10.311799529579632
      ],
      [
        "▁koylulerin",
        -11.625547205689493
      ],
      [
        "▁donanmıs",
        -11.518182966814878
      ],
      [
        "▁tuket",
        -10.476510348230631
      ],
      [
        "▁sırasında",
        -9.432293533551455
      ],
      [
        "▁begenmedi",
        -8.608705616181421
      ],
      [
        "▁2.2",
        -9.856266842787118
      ],
      [
        "▁bitmeye",
        -11.057433613023463
      ],
      [
        "▁basar",
        -10.164959087599193
      ],
      [
        "▁129",
        -10.694688246814783
      ],
      [
        "▁saatleri",
        -10.138718767180636
      ],
      [
        "▁thatcher",
        -10.716342086974649
      ],
      [
        "▁ayrı",
        -8.656994151980937
      ],
      [
        "▁kavak",
        -11.685092688991917
      ],
      [
        "maya",
        -8.590742299817101
      ],
      [
        "▁korunma",
        -10.896096872681044
      ],
      [
        "▁kars",
        -12.379375454855948
      ],
      [
        "▁yabancı",
        -8.282262380638898
      ],
      [
        "▁cıkar",
        -8.041068373898138
      ],
      [
        "▁istisna",
        -11.13894066042244
      ],
      [
        "ki",
        -5.799386467657358
      ],
      [
        "▁cal",
        -9.708798486567634
      ],
      [
        "▁tanıttı",
        -11.687234808850118
      ],
      [
        "▁bakmak",
        -10.335032560077495
      ],
      [
        "c.",
        -11.392629305779801
      ],
      [
        "▁cocukluk",
        -10.86760045169705
      ],
      [
        "▁bitki",
        -9.825716363543354
      ],
      [
        "70000",
        -11.180139612471331
      ],
      [
        "-1",
        -11.488944521330152
      ],
      [
        "▁soylenme",
        -11.574059125711706
      ],
      [
        "▁sokma",
        -10.774543769875342
      ],
      [
        "▁tartıs",
        -11.021508991109144
      ],
      [
        "▁senet",
        -10.57207735869199
      ],
      [
        "▁tavrı",
        -10.51622004219632
      ],
      [
        "▁olmayabilir",
        -10.948722411895147
      ],
      [
        "▁kaldırac",
        -11.09319712634051
      ],
      [
        "30.1",
        -11.017175497580483
      ],
      [
        "bunun",
        -9.6688069440048
      ],
      [
        "▁zeybe",
        -11.884571102216256
      ],
      [
        "▁tok",
        -9.704258537872285
      ],
      [
        "▁investment",
        -11.138946226652248
      ],
      [
        "▁stop",
        -11.685404664476675
      ],
      [
        "*",
        -8.020174383409994
      ],
      [
        "▁zıt",
        -11.545967733137253
      ],
      [
        "▁yasamaya",
        -10.553297079307058
      ],
      [
        "efendi",
        -11.773527175667095
      ],
      [
        "▁gonlunde",
        -11.694587200888309
      ],
      [
        "▁apartmanı",
        -11.184856672009325
      ],
      [
        "▁ediyor",
        -6.948364544258362
      ],
      [
        "▁bush",
        -9.583576773064832
      ],
      [
        "79.03",
        -11.426364864907747
      ],
      [
        "▁bulundurmak",
        -11.872516527442837
      ],
      [
        "▁urunleri",
        -9.169917715721493
      ],
      [
        "▁yaldız",
        -10.864693759917845
      ],
      [
        "▁dokme",
        -11.371085646785815
      ],
      [
        "1,",
        -11.564280993191307
      ],
      [
        "▁olmadigin",
        -11.529003422528222
      ],
      [
        "▁kriz",
        -9.708393666208808
      ],
      [
        "▁gelisen",
        -10.530713246284193
      ],
      [
        "▁getirisini",
        -11.612687890452676
      ],
      [
        "▁ihtiras",
        -10.78780581643596
      ],
      [
        "▁birligi'ni",
        -11.291308261689569
      ],
      [
        "▁bagcı",
        -11.337986174432928
      ],
      [
        "▁ogrenci",
        -9.476437617588164
      ],
      [
        "▁kederl",
        -11.673363218845395
      ],
      [
        "▁ankara'y",
        -10.588454750028506
      ],
      [
        "▁yoneten",
        -11.252181672812972
      ],
      [
        "▁siyaset",
        -9.689361590024705
      ],
      [
        "▁cengiz",
        -11.375047572783984
      ],
      [
        "▁dovme",
        -11.375105226932796
      ],
      [
        "▁birbirlerini",
        -8.697935612590925
      ],
      [
        "▁sıtma",
        -10.948040305004266
      ],
      [
        "▁toplulugu",
        -11.531503240262593
      ],
      [
        "▁ha",
        -9.30705516389938
      ],
      [
        "▁tanısma",
        -10.717350242894462
      ],
      [
        "▁sachs",
        -10.78777821412637
      ],
      [
        "▁itibari",
        -11.060828847744148
      ],
      [
        "▁220",
        -10.933724910244308
      ],
      [
        "yiz",
        -9.559732807220751
      ],
      [
        "▁hoslanmadı",
        -11.761087798821476
      ],
      [
        "milyon",
        -8.648131795458136
      ],
      [
        "▁isteniyor",
        -11.376575155574777
      ],
      [
        "▁cemiyetin",
        -11.421491489577376
      ],
      [
        "▁cılgın",
        -9.90664852342586
      ],
      [
        "▁adayları",
        -11.026299545801757
      ],
      [
        "▁cicekler",
        -10.639409629945627
      ],
      [
        "▁son",
        -6.750330523782255
      ],
      [
        "▁boynuz",
        -11.041818119948928
      ],
      [
        "▁bogazın",
        -11.155381768402485
      ],
      [
        "ende",
        -12.866579831806824
      ],
      [
        "▁muhterem",
        -11.517904507827751
      ],
      [
        "▁duvarları",
        -11.006759426290614
      ],
      [
        "ough",
        -11.684573138103922
      ],
      [
        "▁rastladı",
        -10.773612329624774
      ],
      [
        "bunları",
        -10.202574788724673
      ],
      [
        "▁yakıyor",
        -11.840043547225653
      ],
      [
        "▁basarılı",
        -9.04421142406527
      ],
      [
        "▁ısıtı",
        -11.146561421947315
      ],
      [
        "▁helmsley",
        -11.250047268433477
      ],
      [
        "▁sm",
        -10.019271539684375
      ],
      [
        "▁yerlesik",
        -11.139507054962788
      ],
      [
        "▁irak",
        -9.728612929653625
      ],
      [
        "▁katlan",
        -10.455490774346071
      ],
      [
        "▁misafir",
        -9.180918871856035
      ],
      [
        "▁dolmus",
        -11.04596447168153
      ],
      [
        "▁sen",
        -9.368568078519075
      ],
      [
        "▁kesmis",
        -10.814270733261168
      ],
      [
        "▁bosalma",
        -11.533373590256423
      ],
      [
        "im",
        -8.415921563447386
      ],
      [
        "lmaz",
        -9.860102005811749
      ],
      [
        "▁suyunu",
        -9.987344871868235
      ],
      [
        "▁eg",
        -9.65619845179337
      ],
      [
        "▁kapsam",
        -9.961849650263021
      ],
      [
        "▁besyuz",
        -10.033674272505372
      ],
      [
        "91.2",
        -12.209267303115228
      ],
      [
        "▁kesfedil",
        -11.579923705649126
      ],
      [
        "▁bilisi",
        -11.68558651432199
      ],
      [
        "▁yaptıgını",
        -9.750844677186638
      ],
      [
        "▁yeni",
        -6.362760083003813
      ],
      [
        "▁teshis",
        -10.948047644677512
      ],
      [
        "▁sanıyor",
        -11.034793758326638
      ],
      [
        "▁cinayet",
        -10.040739037975824
      ],
      [
        "1.61",
        -12.214220546169376
      ],
      [
        "▁kok",
        -9.225125229643947
      ],
      [
        "▁acılı",
        -10.262563519187282
      ],
      [
        "▁icere",
        -9.719935342251897
      ],
      [
        "▁mecbur",
        -10.04073338899915
      ],
      [
        "landı",
        -8.382331387318153
      ],
      [
        "▁meselesi",
        -10.220332766144569
      ],
      [
        "▁cicek",
        -9.378781612969249
      ],
      [
        "u'nu",
        -10.920000894214528
      ],
      [
        "▁beklenil",
        -11.748371391859209
      ],
      [
        "▁rehberim",
        -11.274097760086192
      ],
      [
        "▁mesa",
        -10.639742256740519
      ],
      [
        "▁tuttugu",
        -10.339426471754344
      ],
      [
        "bende",
        -11.743428195795648
      ],
      [
        "▁bireysel",
        -10.113610190407863
      ],
      [
        "▁cihaz",
        -11.307117671510833
      ],
      [
        "▁kayma",
        -11.644071616110578
      ],
      [
        "▁cekmis",
        -10.639306572295611
      ],
      [
        "▁kadını",
        -9.607226615520783
      ],
      [
        "▁fal",
        -10.469411568338133
      ],
      [
        "▁arabalar",
        -9.927302288787795
      ],
      [
        "▁munhasır",
        -11.250047276957691
      ],
      [
        "▁sertifikaları",
        -11.38166013689032
      ],
      [
        "▁moru",
        -11.527479368547276
      ],
      [
        "ira",
        -12.387740748887497
      ],
      [
        "▁karsılastıgı",
        -11.086354472955918
      ],
      [
        "▁yasanacagı",
        -11.829032313498313
      ],
      [
        "▁gozler",
        -10.107429773404636
      ],
      [
        "▁tuyleri",
        -11.288802402512273
      ],
      [
        "▁tadilat",
        -11.517905645416793
      ],
      [
        "▁haberi",
        -9.816657505923612
      ],
      [
        "amıyoru",
        -10.59630168153754
      ],
      [
        "60000",
        -11.542858205391934
      ],
      [
        "884",
        -11.704262748065416
      ],
      [
        "▁zuhur",
        -11.884571116142107
      ],
      [
        "▁peabody",
        -11.375047268433526
      ],
      [
        "▁89-1",
        -12.227496135076429
      ],
      [
        "▁elleri",
        -9.307110971240736
      ],
      [
        "luga",
        -10.536201392830947
      ],
      [
        "▁ford",
        -9.962945785285836
      ],
      [
        "▁duvarda",
        -10.402199801656602
      ],
      [
        "2.9",
        -10.193359228915181
      ],
      [
        "▁vicdan",
        -10.370170141192943
      ],
      [
        "▁birligi'n",
        -11.860080815339256
      ],
      [
        "▁muzdarip",
        -11.884571395989832
      ],
      [
        "▁sırası",
        -10.683049557211145
      ],
      [
        "▁dalgası",
        -10.867729061356247
      ],
      [
        "▁129.",
        -10.196656814001443
      ],
      [
        "▁cesit",
        -7.13527499571126
      ],
      [
        "▁8.",
        -10.286904554380493
      ],
      [
        "-",
        -5.224644862667953
      ],
      [
        "▁mars",
        -10.473327469774212
      ],
      [
        "▁domin",
        -11.377797354393525
      ],
      [
        "▁partiler",
        -10.862258572119893
      ],
      [
        "sion",
        -11.378657930509405
      ],
      [
        "▁bizler",
        -8.787743749858901
      ],
      [
        "▁koyma",
        -10.540865387063928
      ],
      [
        "▁borsası'nda",
        -9.714517882623188
      ],
      [
        "▁seksen",
        -9.510386021826939
      ],
      [
        "▁tıka",
        -10.513581016920433
      ],
      [
        "▁patladı",
        -11.188468665273815
      ],
      [
        "▁50000",
        -11.061415909266362
      ],
      [
        "▁heybet",
        -11.521645093804826
      ],
      [
        "▁180.",
        -11.34318739768481
      ],
      [
        "▁yanın",
        -9.562326652232368
      ],
      [
        "▁tug",
        -10.946711207399478
      ],
      [
        "198",
        -10.731416531976508
      ],
      [
        "▁uluslar",
        -11.013189067210053
      ],
      [
        "▁telgraf",
        -10.370164758232406
      ],
      [
        "▁hile",
        -10.591153689902917
      ],
      [
        "▁3640",
        -10.889080833602621
      ],
      [
        "▁ihtiyacım",
        -8.121698408018446
      ],
      [
        "cilikte",
        -11.019020622019486
      ],
      [
        "▁etmiyoru",
        -10.552593439846568
      ],
      [
        "▁aramaların",
        -11.61669455229495
      ],
      [
        "8",
        -6.081748992804368
      ],
      [
        "▁ibaretti",
        -11.518416694098251
      ],
      [
        "▁neticesinde",
        -11.519305677065752
      ],
      [
        "▁mazhar",
        -11.68473851811171
      ],
      [
        "▁chivas",
        -11.884572146392935
      ],
      [
        ".38",
        -10.174863679830818
      ],
      [
        "veya",
        -8.908097765809462
      ],
      [
        "▁tez",
        -10.778763052665589
      ],
      [
        "▁namuslu",
        -11.376517859000877
      ],
      [
        "▁yeri",
        -9.193332903437096
      ],
      [
        "▁tarihi",
        -9.074186629567667
      ],
      [
        "/3",
        -9.631786581367232
      ],
      [
        "▁otuz'",
        -11.110066448952157
      ],
      [
        "664",
        -12.797485487857985
      ],
      [
        "stırır",
        -11.573608710782297
      ],
      [
        "85'",
        -12.443453483723143
      ],
      [
        "▁sıkılmıs",
        -11.86063721427993
      ],
      [
        "▁yunanistan",
        -10.716373544324442
      ],
      [
        "▁yarıs",
        -10.279023555069973
      ],
      [
        "▁edildigi",
        -10.7016751368798
      ],
      [
        "▁kansas",
        -8.75099843323957
      ],
      [
        "▁bahtiyar",
        -11.038936538612262
      ],
      [
        "▁12",
        -7.184300623142984
      ],
      [
        "▁deneyim",
        -10.233735331016375
      ],
      [
        "▁hanimla",
        -9.843541957057171
      ],
      [
        "▁cakıyor",
        -11.685955834971463
      ],
      [
        "▁ılık",
        -10.94859166605404
      ],
      [
        "jo",
        -11.361014290186537
      ],
      [
        "▁nite",
        -10.776360469158558
      ],
      [
        "▁40'ı",
        -11.392182541745857
      ],
      [
        "▁tarih",
        -8.656675597820726
      ],
      [
        "▁yıldır",
        -9.733574189059942
      ],
      [
        "▁ora",
        -9.73626850745066
      ],
      [
        "▁1990'da",
        -10.79814670445381
      ],
      [
        "▁tayf",
        -11.374339298232345
      ],
      [
        "▁yetki",
        -10.356039009789841
      ],
      [
        "▁gecersiz",
        -11.379829377873872
      ],
      [
        "▁ko",
        -9.626115038833452
      ],
      [
        "sem",
        -9.698597497268405
      ],
      [
        "▁egildi",
        -11.250120737947398
      ],
      [
        "▁0",
        -11.623960290120428
      ],
      [
        "▁onumuzde",
        -8.413122512311649
      ],
      [
        "▁ben",
        -8.438680538942386
      ],
      [
        "a'nın",
        -9.608560355180208
      ],
      [
        "▁...",
        -13.733825525090591
      ],
      [
        "▁yansıtıyor",
        -10.447319425244427
      ],
      [
        ".19",
        -10.744641564672678
      ],
      [
        "▁denver'",
        -7.654771753882964
      ],
      [
        "▁yıllar",
        -8.52646967813297
      ],
      [
        "▁esi",
        -9.576362302150475
      ],
      [
        "▁alamıyor",
        -10.75502199327508
      ],
      [
        "▁fiyatlandırma",
        -10.864747811983284
      ],
      [
        "▁uyeligini",
        -11.275285786965139
      ],
      [
        "▁verenler",
        -11.159760088396636
      ],
      [
        "▁samar",
        -11.518900592286105
      ],
      [
        "▁kof",
        -11.643038076340192
      ],
      [
        "▁bar",
        -9.094443723796953
      ],
      [
        "▁benzetme",
        -11.275783397492882
      ],
      [
        "▁birebir",
        -11.375118044712046
      ],
      [
        "▁9.1",
        -10.909825791463604
      ],
      [
        "▁164",
        -11.876029500404693
      ],
      [
        "▁karanlıgın",
        -11.405805203861771
      ],
      [
        "▁kılıf",
        -11.684585089365626
      ],
      [
        "▁215",
        -12.12453234116495
      ],
      [
        "▁kosullarını",
        -11.613407829512346
      ],
      [
        "▁basvur",
        -10.349085263097203
      ],
      [
        "▁isletmesi",
        -11.297946192164929
      ],
      [
        "▁giyiyor",
        -11.419847859323927
      ],
      [
        "▁adil",
        -10.423544553041127
      ],
      [
        "▁yuzyıl",
        -9.7843029052638
      ],
      [
        "i'nde",
        -10.907146482803638
      ],
      [
        "▁yaylı",
        -11.146340594984245
      ],
      [
        "▁ga",
        -9.428446226365512
      ],
      [
        "▁tesebbus",
        -10.587175567641195
      ],
      [
        "▁onerdigi",
        -11.309458593240382
      ],
      [
        "irler",
        -11.137245716524244
      ],
      [
        "▁parki",
        -10.405362596937891
      ],
      [
        "▁bastır",
        -10.170571172826772
      ],
      [
        "▁thompson",
        -10.948027066395529
      ],
      [
        "▁11.5",
        -11.428652858727657
      ],
      [
        "▁toz",
        -9.781494854745713
      ],
      [
        "▁komisyonları",
        -10.630065454322704
      ],
      [
        "▁ayrılır",
        -10.636621872745517
      ],
      [
        "burada",
        -11.787109173364625
      ],
      [
        "▁shell",
        -11.37549723095562
      ],
      [
        "na",
        -8.368796334948598
      ],
      [
        "▁ihracat",
        -10.26522550866367
      ],
      [
        "▁hill",
        -10.908637249575385
      ],
      [
        "▁celal",
        -10.370637935073038
      ],
      [
        "para",
        -11.055922875307626
      ],
      [
        "dıgını",
        -8.506133611343238
      ],
      [
        "▁serkan",
        -10.948520969631431
      ],
      [
        "67",
        -10.80552323928053
      ],
      [
        "▁temsilcisi",
        -10.619971443668295
      ],
      [
        "▁04:",
        -11.388413107953157
      ],
      [
        "▁kesintiler",
        -10.816106301204638
      ],
      [
        "umcul",
        -11.351486152097047
      ],
      [
        "▁ili",
        -11.200338223463621
      ],
      [
        "▁topunuz",
        -11.387677855733001
      ],
      [
        "8.5",
        -10.883958863170694
      ],
      [
        "▁gazetecilik",
        -11.500129860000234
      ],
      [
        "▁durumunda",
        -9.803831824882888
      ],
      [
        "▁makinesi",
        -10.162716842761753
      ],
      [
        "▁emini",
        -11.270022743607715
      ],
      [
        "▁idi",
        -8.9590315568136
      ],
      [
        "▁hoca",
        -8.826065647119071
      ],
      [
        "▁kesfi",
        -11.139444986242022
      ],
      [
        "▁herkesi",
        -8.862982706804999
      ],
      [
        "▁onemsiz",
        -10.422758680396878
      ],
      [
        "▁acısı",
        -10.380198076219216
      ],
      [
        "▁kısmet",
        -11.110170609609796
      ],
      [
        "▁goren",
        -9.192903377600413
      ],
      [
        "▁digeri",
        -11.439265308443712
      ],
      [
        "'le",
        -9.409343124704623
      ],
      [
        "lendiriyor",
        -10.719543660593459
      ],
      [
        "▁cevabın",
        -11.055702531822353
      ],
      [
        "▁142.",
        -10.684765078100533
      ],
      [
        "▁planları",
        -10.463395974821264
      ],
      [
        "▁securit",
        -10.472962460836069
      ],
      [
        "▁serisi",
        -10.836846137778661
      ],
      [
        "▁reform",
        -10.227064872148006
      ],
      [
        "▁gerektiren",
        -10.717458955572415
      ],
      [
        "▁dusunmemis",
        -11.708798394589719
      ],
      [
        "▁airlines",
        -8.776677723144342
      ],
      [
        "▁yonelik",
        -10.69697546194459
      ],
      [
        "▁%51",
        -11.429958966910014
      ],
      [
        "▁deniyor",
        -10.61111953802539
      ],
      [
        "▁kesfetme",
        -11.517904478422977
      ],
      [
        "▁isteyebilir",
        -11.518346323819973
      ],
      [
        "▁tadın",
        -10.220351247704812
      ],
      [
        "▁nedenler",
        -10.085081102675844
      ],
      [
        "▁bacakları",
        -11.20607769973705
      ],
      [
        "▁stone",
        -11.375198184094867
      ],
      [
        "▁olmasın",
        -9.518384270843681
      ],
      [
        "ın",
        -6.92726155770033
      ],
      [
        "▁sarkı",
        -9.131251023486255
      ],
      [
        "▁acıklama",
        -9.593243681446616
      ],
      [
        "▁tencerey",
        -11.322715995312803
      ],
      [
        "▁guluyor",
        -10.294123257593776
      ],
      [
        "▁dostları",
        -10.721243455352212
      ],
      [
        "'nun",
        -8.185893932370005
      ],
      [
        "field",
        -10.749199194542047
      ],
      [
        "▁afrika",
        -10.517892926485736
      ],
      [
        "▁eksiklikler",
        -10.494127863430199
      ],
      [
        "▁geyikleri",
        -11.306302090449694
      ],
      [
        "▁topuk",
        -10.85649087817255
      ],
      [
        "▁duzenli",
        -9.627757754789954
      ],
      [
        "▁adresi",
        -11.263086912382484
      ],
      [
        "▁fare",
        -10.491618504480485
      ],
      [
        "▁teklifin",
        -10.626476488673234
      ],
      [
        "makta",
        -9.050695616704843
      ],
      [
        "▁muz",
        -10.42056368555844
      ],
      [
        "▁tasfiye",
        -10.71634220186992
      ],
      [
        "▁tanzim",
        -11.375177537409591
      ],
      [
        "▁140000",
        -11.794564699995071
      ],
      [
        "en",
        -7.834124913301681
      ],
      [
        "▁hak",
        -8.803037296251262
      ],
      [
        "irin",
        -13.276564249096703
      ],
      [
        "ımız",
        -9.636033945293264
      ],
      [
        "▁hamlesi",
        -11.362081113718574
      ],
      [
        "▁ulas",
        -9.463984883656344
      ],
      [
        "▁unvan",
        -10.948072448758344
      ],
      [
        "▁gozyasları",
        -11.038999361044494
      ],
      [
        "▁arkadaslarını",
        -10.829160447771342
      ],
      [
        "▁biliniyor",
        -11.37545048655981
      ],
      [
        "▁ediyordu",
        -8.88905113503493
      ],
      [
        "▁beyninde",
        -11.719465195221938
      ],
      [
        "▁kaldırma",
        -9.944285187138128
      ],
      [
        "▁gozlerim",
        -10.449805948095813
      ],
      [
        "tim",
        -9.607730434773973
      ],
      [
        "▁binmis",
        -10.910883423439248
      ],
      [
        "▁ismet",
        -11.139168711615248
      ],
      [
        "▁degillerdi",
        -7.774122767717512
      ],
      [
        "▁secimi",
        -11.0757893710539
      ],
      [
        "▁digerinde",
        -11.387978368739612
      ],
      [
        "▁on'u",
        -11.423667597706537
      ],
      [
        "▁44.9",
        -11.52339447425483
      ],
      [
        "▁ora",
        -13.548857222897809
      ],
      [
        "▁sasırt",
        -10.696693640133642
      ],
      [
        "▁yunak'",
        -11.518327821084052
      ],
      [
        "▁kuzgun",
        -11.8845782034401
      ],
      [
        "▁goturur",
        -11.147805066616504
      ],
      [
        "oll",
        -11.006987004741877
      ],
      [
        "▁gerceklik",
        -11.228389314258347
      ],
      [
        "▁8.7",
        -11.17003584177547
      ],
      [
        "▁belgeleri",
        -10.605040658141695
      ],
      [
        "▁talihin",
        -11.41623980167994
      ],
      [
        "▁oksa",
        -10.393070023154781
      ],
      [
        "▁seans",
        -11.14708952610062
      ],
      [
        "▁1974",
        -10.065244010153869
      ],
      [
        "neyi",
        -12.81168275955782
      ],
      [
        "▁kullandıkları",
        -11.253921502984422
      ],
      [
        "▁islemler",
        -9.644312578746325
      ],
      [
        "▁ist",
        -9.750205657333563
      ],
      [
        "aki",
        -13.122725153401502
      ],
      [
        "lesen",
        -10.095203679738834
      ],
      [
        "▁dalkavuk",
        -11.038956472037391
      ],
      [
        "▁kadıkoy",
        -11.684142134086718
      ],
      [
        "▁baglan",
        -10.324855521225583
      ],
      [
        "▁isyan",
        -9.962753700346678
      ],
      [
        "▁portfoyunu",
        -11.698475244995377
      ],
      [
        "▁vaktini",
        -11.452980824525678
      ],
      [
        "▁attıgı",
        -10.162477792743307
      ],
      [
        "▁oglu",
        -9.983401394601811
      ],
      [
        "▁kendinde",
        -9.477142414608815
      ],
      [
        "▁bedeli",
        -10.756128549534935
      ],
      [
        "▁komsuları",
        -10.921039529811194
      ],
      [
        "▁yudum",
        -10.11359507813882
      ],
      [
        "▁22.2",
        -11.972933500295673
      ],
      [
        "▁dok",
        -10.352330706597659
      ],
      [
        "▁%11",
        -11.430310812463775
      ],
      [
        "▁parti",
        -8.71797548822164
      ],
      [
        "▁tecrubesiz",
        -11.376746589988665
      ],
      [
        "▁teminatsız",
        -11.377692572519653
      ],
      [
        "▁kacırma",
        -10.60991079621306
      ],
      [
        "▁sefi",
        -10.799481294668883
      ],
      [
        "▁yuruyor",
        -10.534705618300443
      ],
      [
        "▁dagıla",
        -11.6849747977775
      ],
      [
        "san",
        -9.04227499733786
      ],
      [
        "▁lacivert",
        -10.370149396548761
      ],
      [
        "▁verecek",
        -9.496689112385367
      ],
      [
        "istan",
        -10.62333117418186
      ],
      [
        "▁bri",
        -10.86427111358523
      ],
      [
        "6.2",
        -13.167912485841407
      ],
      [
        "irde",
        -12.963033338811258
      ],
      [
        "▁bakıyor",
        -9.272145634345195
      ],
      [
        "▁buyugu",
        -11.22930484099265
      ],
      [
        "▁uyelerinden",
        -11.689531121957428
      ],
      [
        "▁ucları",
        -11.419951158385825
      ],
      [
        "▁nusha",
        -10.94815185206487
      ],
      [
        "▁huner",
        -11.37631800040294
      ],
      [
        "▁sacak",
        -11.14718637122671
      ],
      [
        "▁mutabık",
        -11.684571136029357
      ],
      [
        "▁odasi",
        -10.652194722390732
      ],
      [
        "▁tarama",
        -11.270150589064475
      ],
      [
        "i'ni",
        -9.96503043494749
      ],
      [
        "▁evliligin",
        -11.27762607881316
      ],
      [
        "135.",
        -12.717693571255904
      ],
      [
        "▁83.",
        -12.79334861844304
      ],
      [
        "▁bank",
        -9.319009064981994
      ],
      [
        "▁patronu",
        -10.874699803623066
      ],
      [
        "▁sirketi",
        -8.494191302155377
      ],
      [
        "▁tarım",
        -10.59432140513203
      ],
      [
        "kendimi",
        -11.423963787029603
      ],
      [
        "162",
        -13.587590570581122
      ],
      [
        "rj",
        -10.8677754570099
      ],
      [
        "▁senato'da",
        -11.324310436032048
      ],
      [
        "▁kapatılma",
        -11.33859741449129
      ],
      [
        "ugrul",
        -11.139635854856113
      ],
      [
        "▁olmasaydı",
        -11.141410898487608
      ],
      [
        "rildik",
        -10.863715598933538
      ],
      [
        "▁esya",
        -9.220922827637818
      ],
      [
        "▁edilmez",
        -11.258994627031463
      ],
      [
        "▁sıla",
        -11.518997546388146
      ],
      [
        "▁100'",
        -10.52849939619793
      ],
      [
        "▁0.37",
        -11.958277765487953
      ],
      [
        "mek",
        -8.469474904687889
      ],
      [
        "▁erdogan",
        -10.82540573777202
      ],
      [
        "▁limuzin",
        -10.472796552269784
      ],
      [
        "lerimde",
        -10.890486453519447
      ],
      [
        "5",
        -6.257519171130609
      ],
      [
        "▁secil",
        -11.369926608963581
      ],
      [
        "leri",
        -8.082956769162834
      ],
      [
        "hi",
        -10.540451875661907
      ],
      [
        "▁hastaları",
        -11.335868783974346
      ],
      [
        "atmısbes",
        -12.37624537445749
      ],
      [
        "▁siradan",
        -11.68509458887113
      ],
      [
        "▁transcanada",
        -11.884571085801815
      ],
      [
        "▁?",
        -9.499241568895844
      ],
      [
        "▁icat",
        -10.424646904620099
      ],
      [
        "ısı",
        -12.217115776656739
      ],
      [
        "lıkları",
        -10.047562007224041
      ],
      [
        "▁dunyasını",
        -11.094418027731514
      ],
      [
        "▁diyorlar",
        -10.225347817415692
      ],
      [
        "▁yolunda",
        -9.946716037147649
      ],
      [
        "▁kitaplarını",
        -11.461512071192093
      ],
      [
        "▁ahır",
        -10.588372759096503
      ],
      [
        "▁yasemin",
        -10.948055435757675
      ],
      [
        "▁bodrum",
        -10.033748138399666
      ],
      [
        "▁cathay",
        -11.684572535823031
      ],
      [
        "▁kusursuz",
        -10.17268960558798
      ],
      [
        "▁hazım",
        -11.685306097337966
      ],
      [
        "▁ithalat",
        -9.86210936049705
      ],
      [
        "▁ozellikle",
        -8.045783857873808
      ],
      [
        "amıyor",
        -9.853417444272363
      ],
      [
        "▁gaz",
        -9.126822212275169
      ],
      [
        "▁tanıt",
        -11.297539864389401
      ],
      [
        "▁ov",
        -11.338526402301436
      ],
      [
        "▁sorusturması",
        -11.557650087220935
      ],
      [
        "▁giyinmis",
        -10.788085866845252
      ],
      [
        "ı",
        -5.860519409236967
      ],
      [
        "▁sas",
        -10.05189141056438
      ],
      [
        "▁mıyı",
        -9.164916859856662
      ],
      [
        "▁artısı",
        -9.869876794264918
      ],
      [
        "▁dugme",
        -10.277626875905312
      ],
      [
        "▁43",
        -8.898012167341692
      ],
      [
        "2'y",
        -12.511473267206998
      ],
      [
        "▁genisleti",
        -11.650230856618197
      ],
      [
        "▁yayılma",
        -11.061580579590375
      ],
      [
        "▁jack",
        -11.374896399360766
      ],
      [
        "▁duygusal",
        -10.19246600880506
      ],
      [
        "▁sis",
        -9.448297370895007
      ],
      [
        "▁merc",
        -11.301805527927815
      ],
      [
        "▁duzeltme",
        -10.16675004249653
      ],
      [
        "▁karabiber",
        -10.370164873899927
      ],
      [
        "▁hap",
        -10.011731279098358
      ],
      [
        "▁alır",
        -8.833885137324028
      ],
      [
        "cok",
        -7.294857567940702
      ],
      [
        "8",
        -9.759045137730839
      ],
      [
        "▁otomobilin",
        -11.165598654090076
      ],
      [
        "asiri",
        -11.55799584457983
      ],
      [
        "▁asker",
        -9.317378548498816
      ],
      [
        "▁sahası",
        -11.183939093042135
      ],
      [
        "▁belirledi",
        -11.488810563788448
      ],
      [
        "r",
        -8.24038499361101
      ],
      [
        "▁dostu",
        -9.351153272252922
      ],
      [
        "cısı",
        -10.23427638976829
      ],
      [
        "▁nissan",
        -10.864773253021252
      ],
      [
        "▁tukuru",
        -11.050520195588437
      ],
      [
        "indeki",
        -10.30058017249231
      ],
      [
        "▁ordek",
        -11.139172864731263
      ],
      [
        "▁501",
        -12.148382784984145
      ],
      [
        "▁donemlerinde",
        -10.882200689654617
      ],
      [
        "▁ardın",
        -10.331532330231433
      ],
      [
        "▁giydir",
        -11.149364189436053
      ],
      [
        "▁soluk",
        -9.623224831204142
      ],
      [
        "▁birimleri",
        -10.389223924699849
      ],
      [
        "▁campeau",
        -10.787461336913118
      ],
      [
        "▁dis",
        -9.20078078217964
      ],
      [
        "348",
        -12.177273486253034
      ],
      [
        "▁tası",
        -9.346676677356704
      ],
      [
        "▁coktu",
        -9.612675915348554
      ],
      [
        "▁kasparov",
        -11.517904411603611
      ],
      [
        "▁vah",
        -10.421002168994757
      ],
      [
        "▁5",
        -10.223837755449976
      ],
      [
        "▁tahakku",
        -11.375047384361988
      ],
      [
        "▁arı",
        -10.175476765039198
      ],
      [
        "▁uretti",
        -11.51092254028641
      ],
      [
        "▁enflasyon",
        -9.644784101207392
      ],
      [
        "▁felc",
        -10.865186543378142
      ],
      [
        "▁basınız",
        -11.112960030258446
      ],
      [
        "▁ulastı",
        -9.102108664250958
      ],
      [
        "▁cay",
        -8.978347442186738
      ],
      [
        "▁gezdirdi",
        -11.686010246840816
      ],
      [
        "%8",
        -11.906306491240493
      ],
      [
        "▁tumun",
        -11.22498676639626
      ],
      [
        "▁iliskileri",
        -9.864024041844896
      ],
      [
        "▁yalnız",
        -7.513754576998795
      ],
      [
        "▁modeller",
        -11.223682480989506
      ],
      [
        "▁intel",
        -10.86448783432748
      ],
      [
        "▁yil",
        -9.75730919609851
      ],
      [
        "▁kimyasal",
        -9.940776166819177
      ],
      [
        "▁yatırımları",
        -10.731052780579976
      ],
      [
        "▁frenk",
        -11.056893264632066
      ],
      [
        "▁bursa'",
        -11.427333331768494
      ],
      [
        "▁ingiltere'de",
        -10.604427975097845
      ],
      [
        "▁evans",
        -11.519521546601569
      ],
      [
        "▁kadınlar",
        -8.703051506258998
      ],
      [
        "nızı",
        -9.716173269005711
      ],
      [
        "den",
        -8.05560578784303
      ],
      [
        "▁gelmisti",
        -9.680165809443652
      ],
      [
        "tur",
        -8.494475771851024
      ],
      [
        "▁seytan",
        -10.381563722270744
      ],
      [
        "▁yurutul",
        -11.039904943026976
      ],
      [
        "▁gevre",
        -11.375062675857418
      ],
      [
        "▁hicbirini",
        -9.34679240401203
      ],
      [
        "▁alına",
        -9.567447215256266
      ],
      [
        "▁814",
        -13.729043068958585
      ],
      [
        "▁oscar",
        -11.884571621178104
      ],
      [
        "▁ikisi",
        -9.316595908415728
      ],
      [
        "▁savcı",
        -10.513196738606954
      ],
      [
        "do",
        -13.023969363847112
      ],
      [
        "▁miktar",
        -10.551696998063525
      ],
      [
        "▁varil",
        -10.678598684450256
      ],
      [
        "▁edebi",
        -10.721047493429445
      ],
      [
        "▁park",
        -9.43084579835329
      ],
      [
        "▁isciler",
        -9.880337571992438
      ],
      [
        "▁anlattıkları",
        -11.653751046720101
      ],
      [
        "▁sıkıntı",
        -9.816352892054212
      ],
      [
        "▁kosu",
        -10.014800125018906
      ],
      [
        "cılar",
        -8.9816898797147
      ],
      [
        "▁kullanır",
        -10.79805389073676
      ],
      [
        "cilik",
        -9.695343460539709
      ],
      [
        "▁basvurusu",
        -11.115442862699613
      ],
      [
        "▁ettiginiz",
        -11.160870228734568
      ],
      [
        "78.6",
        -11.17527792450772
      ],
      [
        "dum",
        -10.559202719587336
      ],
      [
        "▁toreni",
        -10.67194866099788
      ],
      [
        "▁baskası",
        -12.350376644499805
      ],
      [
        "▁keloglan",
        -11.517927483687
      ],
      [
        "▁firs",
        -8.70321812186762
      ],
      [
        "▁kırk",
        -10.430421267619124
      ],
      [
        "▁oyuncusu",
        -10.47431378787687
      ],
      [
        "▁19",
        -7.590840352627737
      ],
      [
        "▁calıyor",
        -10.30147289968766
      ],
      [
        "8.4",
        -11.642104699919583
      ],
      [
        "▁planlar",
        -10.956485658969445
      ],
      [
        "▁tekerlek",
        -11.309802665650285
      ],
      [
        "▁vaziyet",
        -11.211815343551347
      ],
      [
        "cı",
        -11.342658004873458
      ],
      [
        "▁agacları",
        -10.875370006610009
      ],
      [
        "▁tenha",
        -10.528390034490052
      ],
      [
        "▁milyonlarca",
        -11.684815040087612
      ],
      [
        "▁masal",
        -10.375488921327465
      ],
      [
        "▁%8",
        -9.680844401386135
      ],
      [
        "▁fukara",
        -11.250052207557033
      ],
      [
        "▁duyulma",
        -11.695950411119842
      ],
      [
        "▁toplamıs",
        -11.23653955254684
      ],
      [
        "▁ikinci",
        -7.3457044762511785
      ],
      [
        "▁7.5",
        -9.76680508166515
      ],
      [
        "▁bahsetti",
        -10.394271303672163
      ],
      [
        "▁yapılandırma",
        -10.78800176596517
      ],
      [
        "▁kaybetme",
        -10.192585760951896
      ],
      [
        "▁technolog",
        -11.88453704484469
      ],
      [
        "▁azalma",
        -10.749731277335453
      ],
      [
        "▁donuyor",
[...]
