{
  "version": "1.0",
  "truncation": null,
  "padding": null,
  "added_tokens": [
    {
      "id": 1369,
      "content": "[MASK]",
      "single_word": false,
      "lstrip": false,
      "rstrip": false,
      "normalized": false,
      "special": true
    },
    {
      "id": 2856,
      "content": "[CLS]",
      "single_word": false,
      "lstrip": false,
      "rstrip": false,
      "normalized": false,
      "special": true
    },
    {
      "id": 2918,
      "content": "[PAD]",
      "single_word": false,
      "lstrip": false,
      "rstrip": false,
      "normalized": false,
      "special": true
    },
    {
      "id": 3515,
      "content": "[SEP]",
      "single_word": false,
      "lstrip": false,
      "rstrip": false,
      "normalized": false,
      "special": true
    },
    {
      "id": 3764,
      "content": "[UNK]",
      "single_word": false,
      "lstrip": false,
      "rstrip": false,
      "normalized": false,
      "special": true
    }
  ],
  "normalizer": {
    "type": "Sequence",
    "normalizers": [
      {
        "type": "NFD"
      },
      {
        "type": "Lowercase"
      },
      {
        "type": "StripAccents"
      }
    ]
  },
  "pre_tokenizer": {
    "type": "Sequence",
    "pretokenizers": [
      {
        "type": "Metaspace",
        "replacement": "▁",
        "prepend_scheme": "always",
        "split": true
      }
    ]
  },
  "post_processor": {
    "type": "TemplateProcessing",
    "single": [
      {
        "SpecialToken": {
          "id": "[CLS]",
          "type_id": 0
        }
      },
      {
        "Sequence": {
          "id": "A",
          "type_id": 0
        }
      },
      {
        "SpecialToken": {
          "id": "[SEP]",
          "type_id": 0
        }
      }
    ],
    "pair": [
      {
        "SpecialToken": {
          "id": "[CLS]",
          "type_id": 0
        }
      },
      {
        "Sequence": {
          "id": "A",
          "type_id": 0
        }
      },
      {
        "SpecialToken": {
          "id": "[SEP]",
          "type_id": 0
        }
      },
      {
        "Sequence": {
          "id": "B",
          "type_id": 1
        }
      },
      {
        "SpecialToken": {
          "id": "[SEP]",
          "type_id": 1
        }
      }
    ],
    "special_tokens": {
      "[CLS]": {
        "id": "[CLS]",
        "ids": [
          2856
        ],
        "tokens": [
          "[CLS]"
        ]
      },
      "[SEP]": {
        "id": "[SEP]",
        "ids": [
          3515
        ],
        "tokens": [
          "[SEP]"
        ]
      }
    }
  },
  "decoder": {
    "type": "Metaspace",
    "replacement": "▁",
    "prepend_scheme": "always",
    "split": true
  },
  "model": {
    "type": "Unigram",
    "unk_id": 3764,
    "vocab": [
      [
        "▁cesit",
        -7.2392222221460605
      ],
      [
        "▁goren",
        -9.426382496631518
      ],
      [
        "n",
        -3.5812099110230644
      ],
      [
        "▁sefer",
        -8.86538716690461
      ],
      [
        "▁tek",
        -7.125949620796007
      ],
      [
        "▁ihtiyar",
        -9.14029596454324
      ],
      [
        "▁biz",
        -5.694005228019038
      ],
      [
        "▁yuzlu",
        -8.771835352434474
      ],
      [
        "▁once",
        -5.94700837285271
      ],
      [
        "luga",
        -9.649800112857818
      ],
      [
        "▁mısın",
        -9.040550319257685
      ],
      [
        "▁calıs",
        -8.548375837102729
      ],
      [
        "cu",
        -11.312055730562165
      ],
      [
        "ısı",
        -11.051820260445027
      ],
      [
        "▁ticaret",
        -8.517018773958494
      ],
      [
        "86",
        -12.153008031101203
      ],
      [
        "▁hos",
        -8.621274134607875
      ],
      [
        "▁oray",
        -9.58672821004198
      ],
      [
        "▁git",
        -9.217702181258726
      ],
      [
        "▁dogal",
        -9.33197621515475
      ],
      [
        "▁ucagın",
        -9.776197227557276
      ],
      [
        "▁kesi",
        -8.628174444927335
      ],
      [
        "▁makine",
        -8.927492150961356
      ],
      [
        "▁soyledi",
        -6.839448271494699
      ],
      [
        "▁evi",
        -9.029854649915132
      ],
      [
        "75",
        -8.267419933820554
      ],
      [
        "▁hepimizi",
        -9.081385122939912
      ],
      [
        "▁kahve",
        -8.358009659353769
      ],
      [
        "ası",
        -11.234917962788039
      ],
      [
        "▁c",
        -12.071827075693939
      ],
      [
        "▁hal",
        -8.450919343447282
      ],
      [
        "▁bedel",
        -9.903752769394895
      ],
      [
        "▁ucretin",
        -9.285715758767534
      ],
      [
        "larını",
        -6.280612265041208
      ],
      [
        "▁bilet",
        -9.067291709145813
      ],
      [
        "▁gorunuyor",
        -8.923844578680528
      ],
      [
        "digini",
        -8.18075205188335
      ],
      [
        "▁olum",
        -8.860492607144046
      ],
      [
        "▁kokusu",
        -9.81521775441062
      ],
      [
        "▁5.5",
        -9.572967278095836
      ],
      [
        "8'",
        -9.456022346869526
      ],
      [
        "▁saf",
        -9.172798689459414
      ],
      [
        "dı",
        -6.1358751041387105
      ],
      [
        "▁gunlerde",
        -9.556296807668932
      ],
      [
        "▁saldırı",
        -9.665698133562591
      ],
      [
        "▁kendinde",
        -9.477142414608815
      ],
      [
        "88",
        -9.669456256130687
      ],
      [
        "▁firma",
        -8.79881336896851
      ],
      [
        "co",
        -7.973488916364465
      ],
      [
        "▁sorun",
        -8.031173147178858
      ],
      [
        "▁tutu",
        -8.653020593594437
      ],
      [
        "▁ingiliz",
        -9.219993780423414
      ],
      [
        "▁hep",
        -9.68908962305779
      ],
      [
        "ck",
        -8.384154969846954
      ],
      [
        "▁kuzey",
        -9.299157942156583
      ],
      [
        "▁yerde",
        -8.334472081088059
      ],
      [
        "ra",
        -6.907926446946048
      ],
      [
        "▁kocaman",
        -9.66434521800886
      ],
      [
        "▁yı",
        -9.218269508698501
      ],
      [
        "▁aktarma",
        -9.678528059654681
      ],
      [
        "▁basın",
        -7.968851528175901
      ],
      [
        "▁belge",
        -9.397553610595327
      ],
      [
        "eger",
        -6.87329914079828
      ],
      [
        "▁kaybı",
        -9.82954525802449
      ],
      [
        "sen",
        -8.906673460936581
      ],
      [
        "w",
        -7.745543900936054
      ],
      [
        "▁tarz",
        -9.813883920663887
      ],
      [
        "▁not",
        -9.313960224414828
      ],
      [
        "11",
        -12.812006644751337
      ],
      [
        ".61",
        -13.61469673427371
      ],
      [
        "▁onunde",
        -8.434986918892859
      ],
      [
        "▁rahat",
        -8.182280061750072
      ],
      [
        "▁deniz",
        -7.489847302177044
      ],
      [
        "ydi",
        -9.086654733732615
      ],
      [
        "▁dısı",
        -9.343914223338796
      ],
      [
        "▁di",
        -7.057769738788028
      ],
      [
        "kendi",
        -9.171575624838027
      ],
      [
        "lendirme",
        -9.122026104920234
      ],
      [
        "▁soguk",
        -8.957066142034716
      ],
      [
        "▁bez",
        -9.651642863447933
      ],
      [
        "▁kirli",
        -9.526103529302056
      ],
      [
        "▁neresi",
        -9.4401415114116
      ],
      [
        "t",
        -5.041052590442877
      ],
      [
        "uldu",
        -8.445374852116384
      ],
      [
        "va",
        -7.210022431828942
      ],
      [
        "▁ardında",
        -8.953131766114446
      ],
      [
        "▁kucuk",
        -7.369111363231277
      ],
      [
        "▁oluyor",
        -8.422392824418143
      ],
      [
        "▁sair",
        -9.454743346314444
      ],
      [
        "▁hukuk",
        -9.151641017407169
      ],
      [
        "▁sı",
        -9.271147355403482
      ],
      [
        "uyor",
        -7.474684082033633
      ],
      [
        "▁ap",
        -9.337799653288135
      ],
      [
        "inden",
        -7.92471973110301
      ],
      [
        "%2",
        -11.706131327571025
      ],
      [
        "mayan",
        -8.87869130412544
      ],
      [
        "▁ilerle",
        -9.54114343690783
      ],
      [
        "▁superdi",
        -9.509955376381544
      ],
      [
        "in",
        -5.6844455056221594
      ],
      [
        "▁ucus",
        -6.9288721081593865
      ],
      [
        "▁doneminde",
        -9.882150013443102
      ],
      [
        "▁ucuslarını",
        -7.917683987874872
      ],
      [
        "▁bagımlı",
        -9.92195949412623
      ],
      [
        "▁numara",
        -8.706939579406214
      ],
      [
        "▁yirmi",
        -7.392161743074304
      ],
      [
        "iyorum",
        -8.396483264630316
      ],
      [
        "▁yatak",
        -9.087260192882367
      ],
      [
        "▁mudur",
        -9.35224114568702
      ],
      [
        "▁sabahı",
        -8.411055888340478
      ],
      [
        "▁salon",
        -9.501295752718562
      ],
      [
        "▁du",
        -8.511631551854467
      ],
      [
        "▁farklı",
        -8.464418695796692
      ],
      [
        "k",
        -5.724751612907619
      ],
      [
        "▁hatır",
        -8.645656428421134
      ],
      [
        "▁sirketler",
        -9.208166391050705
      ],
      [
        "▁takip",
        -9.301093032593204
      ],
      [
        "▁fi",
        -7.905032211994399
      ],
      [
        "▁nere",
        -9.042275396247183
      ],
      [
        "▁havalimanı",
        -9.681696611935493
      ],
      [
        "▁icecekler",
        -9.163920922591991
      ],
      [
        "▁temmuz'da",
        -9.510737540379655
      ],
      [
        "▁k",
        -7.4153801024934385
      ],
      [
        "▁%9.6",
        -12.104486163788298
      ],
      [
        "▁iddia",
        -8.622678835197885
      ],
      [
        "ın",
        -11.343039948114084
      ],
      [
        "a",
        -11.92994979742507
      ],
      [
        "ip",
        -7.574603668617782
      ],
      [
        "▁fort",
        -9.254487851113394
      ],
      [
        "ov",
        -9.33591403700246
      ],
      [
        "|",
        -12.809526790838989
      ],
      [
        "▁listele",
        -8.129057039631343
      ],
      [
        "ell",
        -8.985153745845299
      ],
      [
        "▁memur",
        -9.17496972676861
      ],
      [
        "▁satısları",
        -9.22877065965331
      ],
      [
        "▁degisim",
        -9.232188448144342
      ],
      [
        "%7",
        -13.006976400583136
      ],
      [
        "▁john",
        -9.537326184353338
      ],
      [
        "mis",
        -6.829142570161516
      ],
      [
        "meden",
        -9.33021385949047
      ],
      [
        "▁su",
        -5.781887426912386
      ],
      [
        "uyordu",
        -8.216611616602513
      ],
      [
        "▁cuma",
        -8.184062646167437
      ],
      [
        "▁baslıyor",
        -9.585089640050704
      ],
      [
        "▁pantolon",
        -9.921937944403474
      ],
      [
        "▁etmek",
        -8.20320669186932
      ],
      [
        "▁gel",
        -7.946828807175534
      ],
      [
        "▁talep",
        -9.053825120458068
      ],
      [
        "▁birligi",
        -9.402511307564104
      ],
      [
        "▁zamanda",
        -8.793111838864204
      ],
      [
        "▁fır",
        -9.282504400647131
      ],
      [
        "▁o",
        -7.246881459662394
      ],
      [
        "▁endeks",
        -9.31281965181999
      ],
      [
        "▁konusuyor",
        -9.545441908765984
      ],
      [
        "iyor",
        -7.29114343780122
      ],
      [
        "▁katkı",
        -9.129369352195809
      ],
      [
        "▁maas",
        -9.777992081127637
      ],
      [
        "x",
        -8.153096863108221
      ],
      [
        "▁yapti",
        -9.079166198810817
      ],
      [
        "▁ton",
        -9.388301370019493
      ],
      [
        "▁tı",
        -10.992942583622575
      ],
      [
        "▁urun",
        -8.76219260535343
      ],
      [
        "▁%7.9",
        -11.920349515969981
      ],
      [
        "▁kalır",
        -9.615432739311931
      ],
      [
        "▁aktar",
        -9.48727169946098
      ],
      [
        "▁sahi",
        -8.774162223856724
      ],
      [
        "▁kıs",
        -8.052215019698782
      ],
      [
        "%4",
        -13.042585516553878
      ],
      [
        "▁reklam",
        -8.670990373276279
      ],
      [
        "▁yolculuk",
        -9.875255226856927
      ],
      [
        "▁diz",
        -8.938103259178149
      ],
      [
        "▁kral",
        -9.522997985086077
      ],
      [
        "▁ak",
        -7.3559190785113024
      ],
      [
        "▁hicbiri",
        -8.42647037794809
      ],
      [
        "▁ele",
        -8.614453372878472
      ],
      [
        "▁istemiyoru",
        -8.318074147553173
      ],
      [
        "▁dondu",
        -8.621560331014658
      ],
      [
        "▁33",
        -9.6303224326292
      ],
      [
        "▁guzeldi",
        -6.375061034618343
      ],
      [
        "▁car",
        -8.379057545643345
      ],
      [
        "▁kavga",
        -9.591812446755684
      ],
      [
        "mıslar",
        -9.189288183054117
      ],
      [
        "▁48",
        -9.376016359367377
      ],
      [
        "▁petrol",
        -8.94577108111692
      ],
      [
        "▁yapılmıs",
        -9.64913347152352
      ],
      [
        "v",
        -6.868202503363126
      ],
      [
        "▁boya",
        -9.148196018257398
      ],
      [
        "▁ucu",
        -9.183251523215814
      ],
      [
        "irim",
        -9.420570329027449
      ],
      [
        "▁duy",
        -8.866238153057882
      ],
      [
        "ydi",
        -6.774885580510061
      ],
      [
        ":30",
        -11.315077693448158
      ],
      [
        "lerimi",
        -9.387985779140172
      ],
      [
        "dim",
        -8.926831132052726
      ],
      [
        "▁ceza",
        -8.707305051954044
      ],
      [
        "▁yak",
        -8.519221287100493
      ],
      [
        "▁rezervasyon",
        -9.09418789216437
      ],
      [
        "▁oteli",
        -9.129345289380222
      ],
      [
        "ecegim",
        -9.249607183040313
      ],
      [
        "g",
        -5.007317781712471
      ],
      [
        "▁ken",
        -6.528281609910964
      ],
      [
        "1",
        -9.729838450046955
      ],
      [
        "k",
        -4.334433939045285
      ],
      [
        "▁tekrar",
        -8.140593433254258
      ],
      [
        "▁ya",
        -7.535684456996982
      ],
      [
        "caktır",
        -9.66342893916657
      ],
      [
        "▁ab",
        -8.42302885260879
      ],
      [
        "▁18",
        -8.02303047947422
      ],
      [
        "▁geldigi",
        -9.122232409390278
      ],
      [
        "▁degerlendirir",
        -9.774926877776943
      ],
      [
        "larda",
        -7.3005816680018345
      ],
      [
        "▁gitmis",
        -9.468038099671709
      ],
      [
        "▁kurumsal",
        -9.326430318623899
      ],
      [
        "▁hız",
        -9.343656525685727
      ],
      [
        "▁oluyordu",
        -9.766548999809203
      ],
      [
        "▁",
        -2.091718453959686
      ],
      [
        "▁onlarda",
        -8.606170649037105
      ],
      [
        "▁vegas'",
        -9.349850389243503
      ],
      [
        "▁uzak",
        -8.669226906142686
      ],
      [
        "▁15",
        -7.200442600775433
      ],
      [
        "▁oranları",
        -9.559009147312093
      ],
      [
        "▁onay",
        -8.877432251859087
      ],
      [
        "▁sizler",
        -8.499743326726717
      ],
      [
        "dikleri",
        -8.949614844174896
      ],
      [
        "lamıstı",
        -9.474371753982634
      ],
      [
        "▁listesini",
        -9.852125034551769
      ],
      [
        "▁hatta",
        -9.22439870985123
      ],
      [
        "▁durur",
        -9.753721843172986
      ],
      [
        "▁daha",
        -5.874280914192662
      ],
      [
        "once",
        -9.511381666878972
      ],
      [
        "▁sever",
        -9.703562452324071
      ],
      [
        "larımız",
        -9.086395310634032
      ],
      [
        "▁turlu",
        -8.576286712184656
      ],
      [
        "▁kesti",
        -9.538674686536321
      ],
      [
        "lama",
        -7.422114001130329
      ],
      [
        "▁tokyo",
        -9.554230580794304
      ],
      [
        "▁5\\/",
        -9.38837327942467
      ],
      [
        "▁kabil",
        -9.725483322331376
      ],
      [
        "ciler",
        -8.454890585210249
      ],
      [
        "malıyı",
        -9.837125724031031
      ],
      [
        "▁girdi",
        -8.553496388378658
      ],
      [
        "▁ay",
        -7.069124010889533
      ],
      [
        "nin",
        -6.325801806260994
      ],
      [
        "▁kapı",
        -7.578234147472067
      ],
      [
        "▁%2",
        -9.532782587822313
      ],
      [
        "▁davran",
        -8.954189108711457
      ],
      [
        "▁kon",
        -8.060135471592279
      ],
      [
        "▁duz",
        -8.71501380095264
      ],
      [
        "▁fiyatları",
        -8.474233616881529
      ],
      [
        "▁it",
        -8.72662537277547
      ],
      [
        "▁merkezi",
        -8.458082322756454
      ],
      [
        "▁lider",
        -9.140379437159137
      ],
      [
        "▁cekti",
        -8.816644174901416
      ],
      [
        "▁yagmur",
        -9.299173014503914
      ],
      [
        "▁acıkladı",
        -9.1772647350317
      ],
      [
        "▁dusuk",
        -7.934941242012328
      ],
      [
        "ten",
        -6.76571010123871
      ],
      [
        "lugu",
        -8.202548525656908
      ],
      [
        "il",
        -6.926965214072124
      ],
      [
        "▁risk",
        -9.075336264938036
      ],
      [
        "▁ruya",
        -9.483658865106536
      ],
      [
        "▁yuksekti",
        -9.267828242956348
      ],
      [
        "▁yım",
        -8.74331923090018
      ],
      [
        "masını",
        -8.706872497900694
      ],
      [
        "▁rehber",
        -9.151363824517517
      ],
      [
        "▁eylul",
        -8.685201514237363
      ],
      [
        "ımı",
        -8.436737978513747
      ],
      [
        "▁agzı",
        -9.139175121805327
      ],
      [
        "▁iyiydi",
        -6.566074828464216
      ],
      [
        "▁kendilerini",
        -7.912494984556227
      ],
      [
        "▁otu",
        -9.62229282447634
      ],
      [
        "▁kimsey",
        -8.57854400842489
      ],
      [
        "▁giris",
        -9.27168674375114
      ],
      [
        "▁yitir",
        -9.72134859262042
      ],
      [
        "eden",
        -8.921348628135153
      ],
      [
        "▁edil",
        -8.502129398715322
      ],
      [
        "▁sur",
        -8.29228943811585
      ],
      [
        "gine",
        -9.186686381246188
      ],
      [
        "maz",
        -7.887499600633966
      ],
      [
        "▁acaktı",
        -9.638713908165618
      ],
      [
        "▁%5",
        -9.992484952175907
      ],
      [
        "ları",
        -5.457394358049191
      ],
      [
        "▁hakkin",
        -9.556390606450844
      ],
      [
        "4",
        -8.913216123789926
      ],
      [
        "▁%27",
        -11.811170483524602
      ],
      [
        "▁inanıyor",
        -9.742411008509906
      ],
      [
        "▁salı",
        -8.195592363186137
      ],
      [
        "lasmıs",
        -9.48235628716766
      ],
      [
        "▁dusme",
        -9.430473322057022
      ],
      [
        "▁dukkan",
        -9.106931803713984
      ],
      [
        "▁tur",
        -7.312042345400488
      ],
      [
        "▁otelin",
        -8.419365159458527
      ],
      [
        "gını",
        -8.004760248338489
      ],
      [
        "▁bulundu",
        -9.034663058318515
      ],
      [
        "▁ayakta",
        -9.662513786500114
      ],
      [
        "▁yolu",
        -8.465758704852515
      ],
      [
        "▁mayıs",
        -9.300309491564965
      ],
      [
        "▁servis",
        -8.516376663610476
      ],
      [
        "▁otur",
        -8.84079811473283
      ],
      [
        "▁uzat",
        -9.174979478715818
      ],
      [
        "▁yıllık",
        -8.324173720400058
      ],
      [
        "'le",
        -9.487327393534338
      ],
      [
        "lı",
        -5.55800919967287
      ],
      [
        "bunun",
        -9.6688069440048
      ],
      [
        "▁%99",
        -11.810224773061273
      ],
      [
        "▁sapka",
        -9.89850737575829
      ],
      [
        "▁kumas",
        -9.320365621282567
      ],
      [
        "▁hazır",
        -7.923905940490553
      ],
      [
        "▁bel",
        -8.903652505780478
      ],
      [
        "▁anlattı",
        -8.97774897101211
      ],
      [
        "suz",
        -7.538236236895094
      ],
      [
        "▁oran",
        -8.45381499352556
      ],
      [
        "ildi",
        -8.01594957056753
      ],
      [
        "gar",
        -8.840785514214966
      ],
      [
        "▁sikayet",
        -9.520610734917089
      ],
      [
        "egi",
        -8.722547943385237
      ],
      [
        "▁tut",
        -8.149257436143316
      ],
      [
        "▁ols",
        -9.308168117671995
      ],
      [
        "▁ez",
        -8.878581905288296
      ],
      [
        "▁diego'",
        -9.129021551880367
      ],
      [
        "▁kol",
        -8.135764175946209
      ],
      [
        "▁g",
        -7.658193288774599
      ],
      [
        "▁kac",
        -8.465416840291955
      ],
      [
        "▁hala",
        -8.159993883685313
      ],
      [
        "▁esna",
        -9.746692740984452
      ],
      [
        "abilecek",
        -9.142224217233025
      ],
      [
        "▁olası",
        -9.142098776110021
      ],
      [
        "▁uretim",
        -9.25973945112009
      ],
      [
        "▁balıkcı",
        -9.917044515705228
      ],
      [
        "▁sert",
        -8.939150905555035
      ],
      [
        "▁ulas",
        -8.655885149117946
      ],
      [
        "▁yuvarla",
        -9.488936920194643
      ],
      [
        "▁bası",
        -8.857179086963992
      ],
      [
        "▁yonel",
        -9.352548702808207
      ],
      [
        "▁londra",
        -9.62505080181477
      ],
      [
        "▁bazı",
        -5.798457711104905
      ],
      [
        "250000",
        -9.68300493586747
      ],
      [
        "▁cıkar",
        -7.494545400675159
      ],
      [
        "v",
        -5.244896794061084
      ],
      [
        "▁dow",
        -9.249697153798527
      ],
      [
        "▁ge",
        -8.429077056775967
      ],
      [
        "sına",
        -7.105978658625742
      ],
      [
        "gin",
        -8.426214247501704
      ],
      [
        "dım",
        -8.408313124615084
      ],
      [
        "`",
        -5.1791608978587025
      ],
      [
        "▁olmayan",
        -8.744900237626066
      ],
      [
        "ona",
        -9.617245440447812
      ],
      [
        "d",
        -9.78181740642139
      ],
      [
        "27",
        -12.479618671514109
      ],
      [
        "▁ayrılı",
        -9.259615324761995
      ],
      [
        "▁adi",
        -9.443897130884189
      ],
      [
        "▁to",
        -8.824428738587017
      ],
      [
        "▁201",
        -9.176385403819815
      ],
      [
        "▁s",
        -7.777255275763157
      ],
      [
        "▁bat",
        -9.299938751860935
      ],
      [
        "▁mute",
        -9.350369379116017
      ],
      [
        "▁para",
        -7.05252863478839
      ],
      [
        "▁arka",
        -8.577101399159439
      ],
      [
        "▁70",
        -8.959668593286574
      ],
      [
        "▁ilgilendi",
        -7.700510878397004
      ],
      [
        "ayım",
        -9.247742273556243
      ],
      [
        "▁unut",
        -8.978154064363618
      ],
      [
        "▁ya",
        -5.833491254611257
      ],
      [
        "▁gorun",
        -7.989398104297026
      ],
      [
        "▁soluk",
        -9.856846324813562
      ],
      [
        "▁yılında",
        -8.705167510341163
      ],
      [
        "muyor",
        -8.835587540823061
      ],
      [
        "▁sevinc",
        -9.71654953647515
      ],
      [
        "luyor",
        -8.463216171621035
      ],
      [
        "▁sozleri",
        -9.451378316067832
      ],
      [
        "▁zavallı",
        -9.827755207439495
      ],
      [
        "ret",
        -8.049460337356074
      ],
      [
        "▁durgun",
        -9.313189999174604
      ],
      [
        "▁en",
        -6.028148110845545
      ],
      [
        "▁ulasım",
        -8.881983015309995
      ],
      [
        "ma",
        -12.810082874936368
      ],
      [
        "▁ongor",
        -9.381944484898646
      ],
      [
        "▁secil",
        -9.495297156598156
      ],
      [
        "▁bilesik",
        -9.572206003257342
      ],
      [
        "▁insanların",
        -9.029446971844333
      ],
      [
        "▁be",
        -7.506736331154971
      ],
      [
        "▁ceyrekte",
        -9.461207360795441
      ],
      [
        "▁dolay",
        -6.325603172551561
      ],
      [
        "▁ymis",
        -9.402459541327215
      ],
      [
        "cılar",
        -8.401498106379062
      ],
      [
        "▁reddetti",
        -9.129021497856145
      ],
      [
        "▁ayagı",
        -9.559600227442456
      ],
      [
        "▁havuz",
        -8.431273178524808
      ],
      [
        "▁plan",
        -7.92081841694078
      ],
      [
        "y",
        -6.06687301377958
      ],
      [
        "▁yalan",
        -9.260192575302415
      ],
      [
        "▁piyasası",
        -9.3417725445772
      ],
      [
        "ed",
        -8.541863363687117
      ],
      [
        "dı",
        -11.064690274314689
      ],
      [
        "▁istedigi",
        -8.92038787432433
      ],
      [
        "▁york'ta",
        -8.945834623848455
      ],
      [
        "tı",
        -9.880362748676855
      ],
      [
        "ren",
        -8.672080989529746
      ],
      [
        "▁verme",
        -8.309440150302974
      ],
      [
        "▁karanlık",
        -9.490136126457603
      ],
      [
        "▁etmeye",
        -9.086646815045103
      ],
      [
        "▁verici",
        -9.705575258177799
      ],
      [
        "▁ayni",
        -9.325001183433221
      ],
      [
        "▁peki",
        -9.446494641611709
      ],
      [
        "▁sebebi",
        -9.721282098707656
      ],
      [
        "▁kutu",
        -9.166993022302204
      ],
      [
        "ci",
        -11.309728575382351
      ],
      [
        "▁sut",
        -9.014554190031607
      ],
      [
        "▁eden",
        -7.990850018570511
      ],
      [
        "▁sam",
        -8.941054530067879
      ],
      [
        "▁gerceklesti",
        -9.824117481116598
      ],
      [
        "sa",
        -9.687890704303967
      ],
      [
        "▁bizleri",
        -9.582690225371444
      ],
      [
        "▁havayollarını",
        -9.46065202017002
      ],
      [
        "en",
        -5.998904542421549
      ],
      [
        "incisi",
        -9.637134642514823
      ],
      [
        "mız",
        -8.167595968454785
      ],
      [
        "▁onemli",
        -8.029086128183119
      ],
      [
        "▁hakim",
        -9.609524030300243
      ],
      [
        "l",
        -9.263032525714058
      ],
      [
        "do",
        -8.446486448208345
      ],
      [
        "tır",
        -7.4628463012851265
      ],
      [
        "▁korku",
        -8.498976735223408
      ],
      [
        "▁almak",
        -8.296348127812829
      ],
      [
        "imiz",
        -8.353084106296084
      ],
      [
        "▁film",
        -8.85704856401772
      ],
      [
        "la",
        -5.744860255293961
      ],
      [
        "mesine",
        -9.28788679024574
      ],
      [
        "▁tesiste",
        -9.480323431943567
      ],
      [
        "▁cent",
        -8.863460204735116
      ],
      [
        "30",
        -8.377779257492136
      ],
      [
        "dur",
        -7.599162758891828
      ],
      [
        "▁tavsiye",
        -7.484460935271921
      ],
      [
        "▁turkce",
        -9.665978850032683
      ],
      [
        "y'",
        -9.686867251031842
      ],
      [
        "▁gonul",
        -9.096078190504329
      ],
      [
        "▁obur",
        -9.764203541894267
      ],
      [
        "▁degistir",
        -8.699117458246068
      ],
      [
        "▁bay",
        -6.4969584944481715
      ],
      [
        "▁onun",
        -8.721998097028802
      ],
      [
        "▁gerekiyor",
        -9.014445214914831
      ],
      [
        "▁rekabet",
        -9.32597226515161
      ],
      [
        "▁gunluk",
        -8.550352881413936
      ],
      [
        "▁cocugun",
        -9.380961425110309
      ],
      [
        "▁is",
        -6.78242612850941
      ],
      [
        "on",
        -6.971099666334458
      ],
      [
        "▁veril",
        -8.70233332987107
      ],
      [
        "▁mıs",
        -8.221270484658733
      ],
      [
        "▁ha",
        -8.423620049332474
      ],
      [
        "▁cift",
        -8.288174800712527
      ],
      [
        "▁vakit",
        -9.29920118514579
      ],
      [
        "▁bakımından",
        -9.806001809434822
      ],
      [
        "▁direkt",
        -9.762583204389372
      ],
      [
        "▁hikaye",
        -9.163118306644172
      ],
      [
        "▁delikanlı",
        -9.472218079334432
      ],
      [
        "▁ydi",
        -6.934268810392527
      ],
      [
        "▁sehir",
        -8.187371232028607
      ],
      [
        "up",
        -7.598889178310598
      ],
      [
        "▁arastırma",
        -8.742815553106459
      ],
      [
        "▁10'da",
        -9.827943324643112
      ],
      [
        "▁mal",
        -8.365686107022203
      ],
      [
        "▁belli",
        -8.741412963639458
      ],
      [
        "▁yanlıs",
        -8.768330695152912
      ],
      [
        "ser",
        -8.923152278026187
      ],
      [
        "▁olacagını",
        -9.196040188549867
      ],
      [
        "▁asla",
        -8.941661671978654
      ],
      [
        "▁42",
        -8.71427175632828
      ],
      [
        "unla",
        -8.358546932063437
      ],
      [
        "▁parcası",
        -9.512313897770273
      ],
      [
        "▁mumkun",
        -9.023106489712
      ],
      [
        "llah",
        -9.493837023662515
      ],
      [
        "▁acıklanmadı",
        -9.662512922007119
      ],
      [
        ".75",
        -9.547328211014653
      ],
      [
        "▁deney",
        -9.715431947037306
      ],
      [
        "▁y",
        -8.273434547613135
      ],
      [
        "ot",
        -9.093682363971517
      ],
      [
        "▁gosteriyor",
        -9.190690712429031
      ],
      [
        "▁degil",
        -5.112904891209204
      ],
      [
        "tı",
        -6.368773774738938
      ],
      [
        "▁avuc",
        -9.507121370847862
      ],
      [
        "▁atı",
        -8.994733127921997
      ],
      [
        "▁aydın",
        -9.064861755413258
      ],
      [
        "▁cadde",
        -9.625065346025135
      ],
      [
        "▁eve",
        -8.3458626846962
      ],
      [
        "▁degiller",
        -8.877110792197561
      ],
      [
        "▁bell",
        -9.886870646495854
      ],
      [
        "▁tercih",
        -8.136399356196023
      ],
      [
        "▁aktivite",
        -9.29912536300411
      ],
      [
        "▁ihti",
        -9.553495960545401
      ],
      [
        "▁sevgi",
        -9.064048819697518
      ],
      [
        "▁vatan",
        -9.65061820133069
      ],
      [
        "▁pır",
        -9.196406829614833
      ],
      [
        "ımızda",
        -9.463543668519085
      ],
      [
        "▁isteme",
        -9.067280099612368
      ],
      [
        "yip",
        -9.007819406626659
      ],
      [
        "▁mus",
        -8.161837378504368
      ],
      [
        "▁%",
        -6.30458812668807
      ],
      [
        "▁ihtimal",
        -9.762586409052886
      ],
      [
        "▁yerles",
        -9.70564422864449
      ],
      [
        "▁senin",
        -6.975285892300653
      ],
      [
        "▁sez",
        -9.20314609831481
      ],
      [
        "▁takımı",
        -9.708143805869849
      ],
      [
        "▁la",
        -7.893414478354585
      ],
      [
        "▁birbirin",
        -7.401829453096356
      ],
      [
        "▁saatlerde",
        -9.709543801523171
      ],
      [
        "▁mu",
        -6.543499151083324
      ],
      [
        "▁adı",
        -8.787562180224416
      ],
      [
        "ra",
        -11.810406533935817
      ],
      [
        "da",
        -10.957139774156504
      ],
      [
        "▁misafirimiz",
        -9.222961496193491
      ],
      [
        "lerimizi",
        -9.260361688693262
      ],
      [
        "▁ilgilen",
        -9.127614083772865
      ],
      [
        "▁annem",
        -8.505711696356052
      ],
      [
        "▁lu",
        -11.607158865473217
      ],
      [
        "▁oldugu",
        -7.512446456642001
      ],
      [
        "22",
        -10.719045026475126
      ],
      [
        "▁at",
        -7.255058777344732
      ],
      [
        "▁kıyasla",
        -9.506647975991758
      ],
      [
        "▁sır",
        -8.472108786206935
      ],
      [
        "▁tarafında",
        -7.556863146611092
      ],
      [
        "▁yaslı",
        -9.184257924499216
      ],
      [
        "▁goruyor",
        -8.878775444284038
      ],
      [
        "▁kopu",
        -9.51245493400365
      ],
      [
        ":",
        -5.200922476649725
      ],
      [
        "▁adam",
        -7.420864008087739
      ],
      [
        "▁baska",
        -7.484803895056222
      ],
      [
        "▁sabit",
        -9.35358492655886
      ],
      [
        "▁ayır",
        -9.159927669876998
      ],
      [
        "▁atlanta'da",
        -8.018942464540036
      ],
      [
        "▁be",
        -9.393500170655983
      ],
      [
        "15",
        -9.045844818969567
      ],
      [
        "sine",
        -7.271669172708771
      ],
      [
        "▁sevin",
        -9.624904420932372
      ],
      [
        "izm",
        -9.036497211960583
      ],
      [
        "▁biri",
        -8.65567549976959
      ],
      [
        "▁pittsburgh'",
        -8.269311930423434
      ],
      [
        "▁bu",
        -3.220688816836356
      ],
      [
        "▁calisanlar",
        -9.32234765133898
      ],
      [
        "maktadır",
        -8.17296117776651
      ],
      [
        "▁%3",
        -10.101956111336266
      ],
      [
        "▁za",
        -11.938950486359479
      ],
      [
        "▁hayatı",
        -9.212900102301507
      ],
      [
        "▁nasıl",
        -7.856533560673513
      ],
      [
        "▁de",
        -4.123481529930005
      ],
      [
        "lige",
        -9.013126390602185
      ],
      [
        "▁yeni",
        -6.552686627553864
      ],
      [
        "▁kaldır",
        -8.638989150098478
      ],
      [
        "▁gaz",
        -8.744070444358616
      ],
      [
        "▁gunu",
        -7.0885398595106786
      ],
      [
        "▁deli",
        -8.812753026740555
      ],
      [
        "lanıyor",
        -8.903172121844868
      ],
      [
        "▁ordu",
        -9.125611569361139
      ],
      [
        "yıp",
        -8.632102404625488
      ],
      [
        "▁anadolu",
        -9.367645816504128
      ],
      [
        "▁si",
        -8.274621359408918
      ],
      [
        "▁grup",
        -8.955825712173406
      ],
      [
        "▁calısıyor",
        -8.666483576301237
      ],
      [
        "▁1.2",
        -8.718415128083837
      ],
      [
        "▁kemal",
        -9.023184521533135
      ],
      [
        "▁american",
        -8.596098931425987
      ],
      [
        "▁hali",
        -8.75161665019306
      ],
      [
        "acak",
        -7.134853170385037
      ],
      [
        "▁eder",
        -7.880662046604287
      ],
      [
        "▁sal",
        -7.901687210196611
      ],
      [
        "▁koyu",
        -9.26803252801719
      ],
      [
        "▁yarı",
        -8.130753887953134
      ],
      [
        "▁ilk",
        -7.031268230285256
      ],
      [
        "b",
        -6.903387713978329
      ],
      [
        "▁bayram",
        -9.260502326938695
      ],
      [
        "▁ediliyor",
        -9.657756306678278
      ],
      [
        "▁ileri",
        -8.808493621832575
      ],
      [
        "▁-",
        -9.791300196481245
      ],
      [
        "yı",
        -6.493538851248211
      ],
      [
        "dar",
        -8.483794931262242
      ],
      [
        "▁...",
        -13.733825525090593
      ],
      [
        "▁isim",
        -9.156015113883495
      ],
      [
        "un",
        -11.506828243750975
      ],
      [
        "▁tak",
        -8.124764519415882
      ],
      [
        "mak",
        -6.757687944352113
      ],
      [
        "▁gunleri",
        -9.368335222725378
      ],
      [
        "▁anayasa",
        -9.589267605119176
      ],
      [
        "bircok",
        -9.673910155888947
      ],
      [
        "▁cogu",
        -8.617349793483148
      ],
      [
        "▁do",
        -9.18663526880855
      ],
      [
        "=",
        -11.309526790838989
      ],
      [
        "bil",
        -8.275073873101139
      ],
      [
        "▁yay",
        -8.62564212531997
      ],
      [
        "amadı",
        -8.646689093628334
      ],
      [
        "▁gelen",
        -7.789444802507401
      ],
      [
        "dılar",
        -9.007439067398249
      ],
      [
        "▁oz",
        -8.063872323235081
      ],
      [
        "▁calis",
        -9.461993000054859
      ],
      [
        ",",
        -8.983689814806961
      ],
      [
        "▁pittsburgh'ta",
        -8.114142360331929
      ],
      [
        "bo",
        -8.202992735796595
      ],
      [
        "tim",
        -8.888841118162386
      ],
      [
        "▁tahvil",
        -8.436508556430194
      ],
      [
        "▁donuyor",
        -9.623407931412366
      ],
      [
        "'de",
        -7.446120015545725
      ],
      [
        "▁carpı",
        -9.615015611034575
      ],
      [
        "▁problem",
        -9.07466123865292
      ],
      [
        "▁ilet",
        -9.794053875274123
      ],
      [
        "▁super",
        -9.206290197632955
      ],
      [
        "50",
        -8.746174993512678
      ],
      [
        "▁corp.",
        -8.775553796491602
      ],
      [
        "▁g",
        -8.446443662807983
      ],
      [
        "▁uygulama",
        -9.115322921105076
      ],
      [
        "▁karayolu",
        -8.636237975329585
      ],
      [
        "▁taban",
        -9.537960905900913
      ],
      [
        "▁bulma",
        -9.3772837650192
      ],
      [
        "▁uzun",
        -7.455025669325789
      ],
      [
        "▁banyo",
        -9.411131305734678
      ],
      [
        "00",
        -11.587869998328102
      ],
      [
        "▁ucuyor",
        -9.065487849211845
      ],
      [
        "z",
        -5.578889197422031
      ],
      [
        "▁arkasında",
        -9.23638524391791
      ],
      [
        "▁zı",
        -12.278377134489128
      ],
      [
        "▁sim",
        -9.340424327470753
      ],
      [
        "▁ayrıntı",
        -9.85071025155997
      ],
      [
        "▁fon",
        -8.618909607498571
      ],
      [
        "▁turkiye'",
        -9.060754253390945
      ],
      [
        "▁kendi",
        -9.608142175442634
      ],
      [
        "um",
        -6.342031287832066
      ],
      [
        "▁duvar",
        -8.405732706980263
      ],
      [
        "▁ici",
        -8.48223560473928
      ],
      [
        "▁cocuk",
        -7.673146275306841
      ],
      [
        "▁ureticisi",
        -9.643609438964226
      ],
      [
        "ınız",
        -9.216641912703256
      ],
      [
        "▁yetis",
        -9.249843700110972
      ],
      [
        "▁fikri",
        -9.472488861711424
      ],
      [
        "▁hafif",
        -8.449944117120241
      ],
      [
        "▁tanı",
        -7.866231480237896
      ],
      [
        "▁kadar",
        -9.076692001063382
      ],
      [
        "▁kendimiz",
        -8.276308296546611
      ],
      [
        "▁ihale",
        -9.783797174444867
      ],
      [
        "▁ihracat",
        -9.855679197226879
      ],
      [
        "▁eylem",
        -9.31743143754035
      ],
      [
        "sin",
        -7.658419155902919
      ],
      [
        "▁baslama",
        -9.530895841294232
      ],
      [
        "bazı",
        -9.354229368387426
      ],
      [
        "▁bilim",
        -8.596276822269136
      ],
      [
        "▁analistler",
        -8.93214640442354
      ],
      [
        "▁vadeli",
        -8.56050813174603
      ],
      [
        "▁bekley",
        -9.502408979445557
      ],
      [
        "▁ser",
        -8.089994638901878
      ],
      [
        "▁neler",
        -8.468540397938536
      ],
      [
        "▁ed",
        -7.863526421197429
      ],
      [
        "mesini",
        -8.71257271960513
      ],
      [
        "▁zorunda",
        -8.909671941379216
      ],
      [
        "▁hak",
        -7.927231744417667
      ],
      [
        "▁kalbi",
        -9.576029644947184
      ],
      [
        "klerini",
        -8.800109689397672
      ],
      [
        "▁yardimci",
        -8.936512176426413
      ],
      [
        "▁yapacak",
        -9.048068986463022
      ],
      [
        "?",
        -8.89256977613255
      ],
      [
        "▁olmus",
        -8.45781904329469
      ],
      [
        "▁devir",
        -9.4947990172934
      ],
      [
        "▁gelir",
        -7.465344611169389
      ],
      [
        "se",
        -9.197145699308905
      ],
      [
        "ala",
        -12.195342830818472
      ],
      [
        "▁der",
        -7.7455280267418685
      ],
      [
        "▁annesi",
        -9.271820463094294
      ],
      [
        "▁bulunuyor",
        -9.326382841484813
      ],
      [
        "▁gorur",
        -9.48198771409221
      ],
      [
        "▁han",
        -9.213827384475724
      ],
      [
        "▁arzu",
        -9.704532547074175
      ],
      [
        "▁houston'",
        -9.745959552265198
      ],
      [
        "var",
        -9.150245563695083
      ],
      [
        "▁biraz",
        -7.073090129269313
      ],
      [
        "▁oldugunu",
        -7.159231166583403
      ],
      [
        "8",
        -6.081748992804368
      ],
      [
        "▁komisyonu",
        -9.636630445179387
      ],
      [
        "▁ney",
        -8.827870655904642
      ],
      [
        "3",
        -8.865275909446668
      ],
      [
        "▁ayag",
        -9.701100014351084
      ],
      [
        "▁gidiyor",
        -8.441072997515164
      ],
      [
        "▁devre",
        -9.598363628838623
      ],
      [
        "▁dusun",
        -8.621348753324359
      ],
      [
        "lerinden",
        -7.891840775863265
      ],
      [
        "▁yıldız",
        -9.520724163460894
      ],
      [
        "▁25",
        -7.6585169186170114
      ],
      [
        "▁karsilama",
        -9.850757587950326
      ],
      [
        "▁destek",
        -8.264329068991175
      ],
      [
        "sınız",
        -8.857608028473955
      ],
      [
        "?",
        -4.996963842095797
      ],
      [
        "▁hicbirini",
        -9.34679240401203
      ],
      [
        "▁boston",
        -8.202084344082927
      ],
      [
        "▁gordugu",
        -9.325441102882657
      ],
      [
        "st",
        -7.810908071785605
      ],
      [
        "▁hanım",
        -8.680193415955312
      ],
      [
        "–",
        -12.809526790838989
      ],
      [
        "▁eski",
        -7.338512920285688
      ],
      [
        "▁kimse",
        -7.5366357151794245
      ],
      [
        "▁ucretleri",
        -9.583657731727484
      ],
      [
        "▁anlasma",
        -8.312964440162599
      ],
      [
        "▁yerinde",
        -8.973651775341516
      ],
      [
        "▁ocagı",
        -9.85309426383958
      ],
      [
        "▁alabilir",
        -9.389406890530598
      ],
      [
        "%7.8",
        -13.327937914282716
      ],
      [
        "▁elli",
        -8.16695250231819
      ],
      [
        "ca",
        -6.099694416750646
      ],
      [
        "▁sey",
        -6.518081937684776
      ],
      [
        "unda",
        -8.392218006405606
      ],
      [
        "acagı",
        -8.659319427319453
      ],
      [
        "▁sorunları",
        -9.425974670333805
      ],
      [
        "6",
        -9.6814032168264
      ],
      [
        "▁yapmaya",
        -9.401387193661357
      ],
      [
        "ıs",
        -11.178255072128348
      ],
      [
        "▁bizde",
        -7.888273266411787
      ],
      [
        "▁bankası",
        -9.67410786160378
      ],
      [
        "▁buyuk",
        -6.6398219996684125
      ],
      [
        "▁kullan",
        -7.886867775114281
      ],
      [
        "▁1",
        -8.031980136919895
      ],
      [
        "'nde",
        -9.121876960693832
      ],
      [
        "▁kodu",
        -9.614308400115998
      ],
      [
        "▁dik",
        -8.32777577528379
      ],
      [
        "▁kadar",
        -4.58156761453913
      ],
      [
        "▁li",
        -7.775344169606042
      ],
      [
        "▁barıs",
        -9.443151475153945
      ],
      [
        "yor",
        -7.617656977770154
      ],
      [
        "▁celik",
        -9.701176386073218
      ],
      [
        "▁ikibinuc",
        -9.483628766956455
      ],
      [
        "▁okul",
        -8.386398661127298
      ],
      [
        "'daki",
        -8.772255652759478
      ],
      [
        "▁yılın",
        -9.010886544277813
      ],
      [
        "▁durdu",
        -8.752251993872182
      ],
      [
        "▁gol",
        -8.880966867755362
      ],
      [
        "▁ti",
        -10.486432351554733
      ],
      [
        "▁do",
        -7.762827266133984
      ],
      [
        "▁giy",
        -8.364142725055089
      ],
      [
        "▁%3.",
        -11.182099154216546
      ],
      [
        "▁calısma",
        -8.102801672166072
      ],
      [
        "seniz",
        -9.727799265245029
      ],
      [
        "▁kim",
        -6.756681330532899
      ],
      [
        "▁ustelik",
        -9.827865540448459
      ],
      [
        "▁gec",
        -8.030956531254429
      ],
      [
        "▁bende",
        -7.864745660393515
      ],
      [
        "▁vi",
        -8.30380592537962
      ],
      [
        "▁musteri",
        -8.669696487145378
      ],
      [
        "▁basını",
        -9.040417234711573
      ],
      [
        "▁gezdi",
        -9.80939262816504
      ],
      [
        "▁koydu",
        -9.223085794931604
      ],
      [
        "2",
        -6.4595835472024214
      ],
      [
        "▁california'",
        -9.885737154686058
      ],
      [
        "▁aralık",
        -8.981142307562138
      ],
      [
        "▁cu",
        -12.830054443854332
      ],
      [
        "▁anket",
        -8.6925124280536
      ],
      [
        "▁gosterdi",
        -8.974571709330565
      ],
      [
        "▁plaj",
        -9.589230116730945
      ],
      [
        "▁194",
        -9.43256255240131
      ],
      [
        "▁ayı",
        -8.925655151382058
      ],
      [
        "▁sinema",
        -9.611209256354861
      ],
      [
        "▁ciddi",
        -8.891466041258433
      ],
      [
        "▁takım",
        -8.955128210019677
      ],
      [
        "▁suyu",
        -8.590211462043717
      ],
      [
        "3'",
        -9.338681500981842
      ],
      [
        "▁becer",
        -9.82861592239533
      ],
      [
        "▁ruzgar",
        -9.174744236523505
      ],
      [
        "hal",
        -9.184832335593242
      ],
      [
        "▁ec",
        -9.770326026475466
      ],
      [
        "▁merdiven",
        -9.520611080636812
      ],
      [
        "▁kitabı",
        -9.163116083249538
      ],
      [
        "ne",
        -7.927966661887857
      ],
      [
        "▁haz",
        -9.627532369612346
      ],
      [
        "▁beklenti",
        -9.107360490685645
      ],
      [
        "yuz",
        -8.978234982981087
      ],
      [
        "▁kagıt",
        -8.791002462386043
      ],
      [
        "▁lu",
        -9.307224296284241
      ],
      [
        "11",
        -9.219857971516149
      ],
      [
        "▁yetmis",
        -9.21282420643573
      ],
      [
        "ilen",
        -8.52692693422019
      ],
      [
        "▁can",
        -7.711652745246475
      ],
      [
        "▁mutlak",
        -9.537295197250156
      ],
      [
        "lardı",
        -7.7152424294408295
      ],
      [
        "▁pasa",
        -9.19174109987297
      ],
      [
        "▁abd",
        -8.07037445041481
      ],
      [
        "▁insanları",
        -9.553906337549524
      ],
      [
        "▁veriri",
        -8.852339848589786
      ],
      [
        "▁rast",
        -9.176334485020508
      ],
      [
        "▁seker",
        -9.198667216266394
      ],
      [
        "!",
        -5.681525786294376
      ],
      [
        "▁bakma",
        -9.683980506121847
      ],
      [
        "▁yuzunde",
        -8.746966149394707
      ],
      [
        "ng",
        -10.94435796899572
      ],
      [
        "▁cumhuriyet",
        -8.9365116049754
      ],
      [
        "▁vazgec",
        -9.441205535976014
      ],
      [
        "▁yana",
        -9.534111522877149
      ],
      [
        "▁kul",
        -8.297454578712461
      ],
      [
        "▁muhtemel",
        -9.210460976466837
      ],
      [
        "▁omuz",
        -9.742050783643558
      ],
      [
        "lıkla",
        -9.015083223077728
      ],
      [
        "▁seksen",
        -9.510386021826939
      ],
      [
        "▁lutfe",
        -7.844065902122526
      ],
      [
        "irdi",
        -9.326985555370381
      ],
      [
        "▁firs",
        -8.928818816761709
      ],
      [
        "▁senato",
        -9.466390874196076
      ],
      [
        "▁20-2",
        -11.921801021663061
      ],
      [
        "▁kır",
        -7.988080465774058
      ],
      [
        "▁teslim",
        -9.488094516046676
      ],
      [
        "▁yetersiz",
        -8.256088837128235
      ],
      [
        "▁basladı",
        -7.609873282892031
      ],
      [
        "umuz",
        -8.521476467286739
      ],
      [
        "ından",
        -8.199685595901302
      ],
      [
        "▁dag",
        -8.344630522069467
      ],
      [
        "▁askeri",
        -9.320796217654388
      ],
      [
        "▁bank",
        -9.377138823894153
      ],
      [
        "+",
        -12.809526790838989
      ],
      [
        "oloji",
        -9.741121261146265
      ],
      [
        "▁dunyada",
        -9.460184252004325
      ],
      [
        "▁bizler",
        -8.787743749858901
      ],
      [
        "▁kızar",
        -9.657712637054626
      ],
      [
        "▁sahip",
        -7.759291297934946
      ],
      [
        "▁varan",
        -8.4128285136543
      ],
      [
        "▁olacaktı",
        -9.448998980874432
      ],
      [
        "▁t",
        -13.020326944763564
      ],
      [
        "▁%",
        -8.936707931200921
      ],
      [
        "▁savas",
        -8.790530757623742
      ],
      [
        "▁hayvan",
        -9.129111683623776
      ],
      [
        "▁urunleri",
        -9.15749160123239
      ],
      [
        "▁gerektigin",
        -9.096227519344469
      ],
      [
        "▁sirketin",
        -8.508958905985443
      ],
      [
        "▁yuzluydu",
        -9.762952995554771
      ],
      [
        "cı",
        -6.8411421657188605
      ],
      [
        "▁islemlerinde",
        -9.921854800058066
      ],
      [
        "maları",
        -9.295521298011684
      ],
      [
        "▁seyi",
        -8.676874569626904
      ],
      [
        "leme",
        -8.522100345145603
      ],
      [
        "gunu",
        -8.723887627584766
      ],
      [
        "▁kendisini",
        -7.291834468436704
      ],
      [
        "▁baskanı",
        -8.301994869794399
      ],
      [
        "▁sat",
        -8.612345150293496
      ],
      [
        "▁cil",
        -9.191918214740726
      ],
      [
        "▁nite",
        -9.38744112001734
      ],
      [
        "9",
        -8.231584331106369
      ],
      [
        "▁$'",
        -9.174758090417438
      ],
      [
        "▁kalkıs",
        -9.452852399692022
      ],
      [
        "▁dc'de",
        -9.703787813595424
      ],
      [
        "u",
        -5.066036806639432
      ],
      [
        "▁tas",
        -7.792435507116451
      ],
      [
        "ın",
        -6.256359955516131
      ],
      [
        "lerle",
        -7.8287328541978916
      ],
      [
        "▁veren",
        -8.843219162891625
      ],
      [
        "▁heyecan",
        -9.033204984321506
      ],
      [
        "▁duyar",
        -9.285931808452847
      ],
      [
        "lenme",
        -8.35370413250547
      ],
      [
        "▁deyi",
        -9.435001615412133
      ],
      [
        "▁%8.2",
        -11.920938577525046
      ],
      [
        "▁mali",
        -8.791549040500692
      ],
      [
        "▁bildirdi",
        -9.348365591008722
      ],
      [
        "▁deg",
        -9.260036019147943
      ],
      [
        "▁mevsim",
        -9.68183370338932
      ],
      [
        "▁pu",
        -11.408164597291648
      ],
      [
        "▁herif",
        -9.785189740231456
      ],
      [
        "ve",
        -7.779753755469323
      ],
      [
        "▁kaza",
        -8.968228139306593
      ],
      [
        "▁isin",
        -9.014607584537863
      ],
      [
        "▁ekibi",
        -9.520635748757664
      ],
      [
        "▁duruyor",
        -9.208739050527772
      ],
      [
        "rım",
        -9.468443151705905
      ],
      [
        "▁soyley",
        -9.012474258793855
      ],
      [
        "a'nın",
        -9.062021205373767
      ],
      [
        "▁isteyen",
        -9.50516014920864
      ],
      [
        "6",
        -8.621834869164504
      ],
      [
        "▁nerede",
        -7.982980169462512
      ],
      [
        "▁du",
        -6.33322890003446
      ],
      [
        "▁demir",
        -8.508340950784893
      ],
      [
        "o",
        -6.61558753283366
      ],
      [
        "▁ekim",
        -8.869772168819278
      ],
      [
        "▁di",
        -8.034078821976046
      ],
      [
        "▁dusunuyoru",
        -9.80835735980842
      ],
      [
        "▁hakkı",
        -9.018460528822224
      ],
      [
        "▁kolay",
        -8.309341215112328
      ],
      [
        "tar",
        -8.71172389503981
      ],
      [
        "iyeti",
        -8.900904763757794
      ],
      [
        "▁koyun",
        -9.342056586276762
      ],
      [
        "▁yoktu",
        -7.2643413677875355
      ],
      [
        "▁asık",
        -9.645042107326656
      ],
      [
        "▁olcude",
        -9.0501444320569
      ],
      [
        "west",
        -9.133903334395868
      ],
      [
        "▁aynı",
        -7.641631180958972
      ],
      [
        "▁uy",
        -9.094522260370114
      ],
      [
        "▁konusma",
        -8.279780837739539
      ],
      [
        "▁kendisin",
        -7.170173991469403
      ],
      [
        "▁yse",
        -8.979056288198866
      ],
      [
        "tı",
        -8.324715511985309
      ],
      [
        "mu",
        -9.445715218130426
      ],
      [
        "▁dusunuyor",
        -8.881897349876898
      ],
      [
        "mazdı",
        -9.459250341350788
      ],
      [
        "ı",
        -6.612256086080283
      ],
      [
        "2'",
        -9.38295573923006
      ],
      [
        "sekiz",
        -8.816713050654165
      ],
      [
        "▁gercek",
        -8.203683901656076
      ],
      [
        "▁tren",
        -9.44831167588904
      ],
      [
        "▁azal",
        -8.627207762174086
      ],
      [
        "▁yukselis",
        -9.72723535683986
      ],
      [
        "elim",
        -8.828792806678448
      ],
      [
        "m",
        -5.017397402025318
      ],
      [
        "2",
        -8.665670567711182
      ],
      [
        "'yi",
        -9.33884895894499
      ],
      [
        "▁belirsiz",
        -9.880749385789153
      ],
      [
        "▁donem",
        -8.877299497124529
      ],
      [
        "▁birinci",
        -8.96495750903286
      ],
      [
        "▁talebi",
        -9.92198400956778
      ],
      [
        "ta",
        -6.364411403452837
      ],
      [
        "iki",
        -7.943918474887292
      ],
      [
        "90",
        -9.626223619391588
      ],
      [
        "▁yol",
        -7.508836754864665
      ],
      [
        "▁tu",
        -7.716030085250397
      ],
      [
        "▁bir",
        -2.2851356391202717
      ],
      [
        "iz",
        -7.724972496175177
      ],
      [
        "▁verim",
        -9.532600450997515
      ],
      [
        "▁yaptirmadi",
        -9.339671453361731
      ],
      [
        "su",
        -8.88001573295357
      ],
      [
        "▁dal",
        -8.446432586825377
      ],
      [
        "▁buray",
        -9.100176258701712
      ],
      [
        "▁bulunan",
        -8.994823029584463
      ],
      [
        "gel",
        -9.270411228329191
      ],
      [
        "▁bekliyor",
        -8.767550165590148
      ],
      [
        "▁yo",
        -9.257991067880312
      ],
      [
        "300",
        -9.606346454984338
      ],
      [
        "▁elestiri",
        -9.741959677252225
      ],
      [
        "▁dolu",
        -8.52322620169668
      ],
      [
        "▁herkes",
        -6.889554463084344
      ],
      [
        "05.",
        -9.557435032262553
      ],
      [
        "▁iceri",
        -8.520485515942802
      ],
      [
        "ydı",
        -7.762278865229849
      ],
      [
        "▁50",
        -7.6484607958406485
      ],
      [
        "▁sekiz",
        -7.532759790075625
      ],
      [
        "▁bas",
        -7.1984323794792875
      ],
      [
        "liyor",
        -8.283412909873395
      ],
      [
        "▁lık",
        -9.145996749068345
      ],
      [
        "▁miami'",
        -9.306947430677104
      ],
      [
        "▁uzan",
        -9.38200149923021
      ],
      [
        "e",
        -3.49719760532998
      ],
      [
        "▁north",
        -9.662439117998826
      ],
      [
        "%7.",
        -14.190853728377775
      ],
      [
        "▁ote",
        -8.862183608090394
      ],
      [
        "▁yer",
        -7.306904040482309
      ],
      [
        "▁mehmet",
        -9.11791054761839
      ],
      [
        "▁baslangıc",
        -9.4111292369161
      ],
      [
        "ton",
        -8.213879650619416
      ],
      [
        "▁cag",
        -9.125655136347477
      ],
      [
        "▁akıl",
        -9.126712317500164
      ],
      [
        "▁kardes",
        -9.272319815851667
      ],
      [
        "▁kalem",
        -9.318053344147012
      ],
      [
        "▁guven",
        -8.364905849349483
      ],
      [
        "tum",
        -8.604569100470624
      ],
      [
        "▁kanada",
        -9.701993366923986
      ],
      [
        "lanması",
        -9.384492991043452
      ],
      [
        "tu",
        -9.158395043648547
      ],
      [
        "▁olmadıgını",
        -8.887071605079296
      ],
      [
        "▁enflasyon",
        -9.520610621885105
      ],
      [
        "abilir",
        -7.5877626904986
      ],
      [
        "▁ye",
        -8.60922547577431
      ],
      [
        "▁ucan",
        -9.665070851773631
      ],
      [
        "imi",
        -8.173564068595436
      ],
      [
        "▁yorum",
        -8.175358329546281
      ],
      [
        "▁gerek",
        -8.143857126941171
      ],
      [
        "▁fu",
        -9.074324492866356
      ],
      [
        "f",
        -6.202104662029809
      ],
      [
        "ey",
        -8.5985782372202
      ],
      [
        "▁buldu",
        -8.640572794030096
      ],
      [
        "▁sizi",
        -7.7748653528823155
      ],
      [
        "▁fı",
        -10.30638076063471
      ],
      [
        "▁gittigi",
        -9.717799621535365
      ],
      [
        "▁bankacı",
        -9.755120405306098
      ],
      [
        "▁italya",
        -9.762531984039768
      ],
      [
        "▁kullanmadi",
        -8.911728151505134
      ],
      [
        "▁tutarında",
        -9.87493982572404
      ],
      [
        "lıklar",
        -9.062044936281978
      ],
      [
        "▁belediye",
        -9.537285638524615
      ],
      [
        "▁et",
        -7.840673585820713
      ],
      [
        "dik",
        -7.84104521199231
      ],
      [
        "ılır",
        -8.666949873899897
      ],
      [
        "son",
        -8.43401492905808
      ],
      [
        "▁vermek",
        -8.710805753583934
      ],
      [
        "th",
        -9.179025343168998
      ],
      [
        "▁3",
        -6.431845748060996
      ],
      [
        "▁16",
        -8.02885064101159
      ],
      [
        "▁gu",
        -8.540660360325226
      ],
      [
        "▁5-1",
        -12.163675011319157
      ],
      [
        "▁charlotte'",
        -9.915873297708668
      ],
      [
        "ul",
        -7.179133489161896
      ],
      [
        "▁bazılarını",
        -9.09894749944287
      ],
      [
        "tan",
        -6.65429326037791
      ],
      [
        "▁wall",
        -9.2601777810731
      ],
      [
        "▁bırakma",
        -9.510069905633138
      ],
      [
        "▁garip",
        -9.572018954643635
      ],
      [
        "▁askı",
        -9.724606038241628
      ],
      [
        "siyon",
        -8.803850646092986
      ],
      [
        "▁boston'",
        -8.108020155423992
      ],
      [
        "▁s",
        -7.442766271790305
      ],
      [
        "▁kavram",
        -9.655793731582957
      ],
      [
        "9",
        -7.050563821011688
      ],
      [
        "urdu",
        -9.08635682341076
      ],
      [
        "▁yerel",
        -9.312668199839752
      ],
      [
        "on'un",
        -9.860451994976689
      ],
      [
        "▁2",
        -8.796394779857174
      ],
      [
        "5",
        -8.82615949688281
      ],
      [
        "▁gecirdi",
        -9.028111529247951
      ],
      [
        "luk",
        -7.025066765147559
      ],
      [
        "▁kenar",
        -8.807227451238951
      ],
      [
        "▁tuccar",
        -9.537277403342308
      ],
      [
        "▁bilmiyoru",
        -9.293850372090702
      ],
      [
        "▁icin",
        -3.695592988678742
      ],
      [
        "kar",
        -8.07067482211367
      ],
      [
        "iyle",
        -7.470003093095651
      ],
      [
        "▁nu",
        -8.711134042620683
      ],
      [
        "▁cagrı",
        -9.591823405025615
      ],
      [
        "▁1\\/",
        -7.7140516848181395
      ],
      [
        "her",
        -7.935548295472398
      ],
      [
        "▁tatlı",
        -9.013294844603763
      ],
      [
        "gu",
        -11.556704943236587
      ],
      [
        "▁1989-8",
        -11.134501819180723
      ],
      [
        "▁olacak",
        -8.014894583506065
      ],
      [
        "▁hanim",
        -7.544868690530587
      ],
      [
        "▁belirli",
        -9.673057502824413
      ],
      [
        "▁sen",
        -6.208861544610927
      ],
      [
        "▁gunah",
        -9.829143951762873
      ],
      [
        "▁ucusu",
        -7.821426409487176
      ],
      [
        "▁za",
        -7.711127411336931
      ],
      [
        "ligini",
        -8.438370515682045
      ],
      [
        "▁anı",
        -9.601094548607406
      ],
      [
        "lerinin",
        -7.520489075482881
      ],
      [
        "▁bulama",
        -9.321424377065032
      ],
      [
        "kan",
        -7.946790936061732
      ],
      [
        "▁islem",
        -7.9005860070698875
      ],
      [
        "▁angeles'",
        -9.33741070848474
      ],
      [
        "▁siir",
        -8.916728431222293
      ],
      [
        "lıgında",
        -9.254816083056024
      ],
      [
        "▁acıklama",
        -8.93104922886528
      ],
      [
        "▁bolge",
        -8.374203942166702
      ],
      [
        "▁adamları",
        -9.607858803041285
      ],
      [
        "▁niyet",
        -9.263990881402176
      ],
      [
        "nız",
        -8.667558238461883
      ],
      [
        "▁olmadıgı",
        -9.103756945730995
      ],
      [
        "▁bi",
        -7.917590276746912
      ],
      [
        "▁kopar",
        -9.882339984023908
      ],
      [
        "madı",
        -8.479082401796951
      ],
      [
        "ydu",
        -8.780846685632232
      ],
      [
        "▁top",
        -8.2881513403224
      ],
      [
        "▁usta",
        -9.243274755519156
      ],
      [
        "▁birik",
        -9.662170978337825
      ],
      [
        "▁or",
        -9.479210966397837
      ],
      [
        "▁il",
        -8.073530653197789
      ],
      [
        "▁jones",
        -9.260175901861132
      ],
      [
        "▁de",
        -9.295589268031888
      ],
      [
        "▁kimi",
        -7.206057973870431
      ],
      [
        "▁1989",
        -7.7880954400216265
      ],
      [
        "▁misin",
        -6.959349652996775
      ],
      [
        "ır",
        -8.522366261923946
      ],
      [
        "▁epey",
        -9.827756638755911
      ],
      [
        "▁gunde",
        -8.822518272037563
      ],
      [
        "▁birlikte",
        -7.262536962257031
      ],
      [
        "▁da",
        -7.57048383145338
      ],
      [
        "▁mer",
        -8.502834582094199
      ],
      [
        "▁eri",
        -9.399253732152665
      ],
      [
        "▁duygu",
        -8.308151214682091
      ],
      [
        "ma",
        -8.868442509925302
      ],
      [
        "▁husus",
        -9.742602213233937
      ],
      [
        "layacak",
        -9.191495603151708
      ],
      [
        "▁sec",
        -8.722552694314734
      ],
      [
        "▁uzere",
        -6.627559624279684
      ],
      [
        "▁olmak",
        -7.962749480730372
      ],
      [
        "▁cocuklar",
        -8.171219192448108
      ],
      [
        "▁sigara",
        -9.210472484920356
      ],
      [
        "port",
        -9.557004008212234
      ],
      [
        "▁bıcak",
        -9.897563067671516
      ],
      [
        "▁1991-199",
        -11.945824767265378
      ],
      [
        "▁ihrac",
        -9.061776251205892
      ],
      [
        "▁sıra",
        -8.159291058843905
      ],
      [
        "▁bulundugu",
        -9.404094335825665
      ],
      [
        "▁chicago'",
        -9.458438484436567
      ],
      [
        "▁ne",
        -5.424833690440229
      ],
      [
        "m",
        -3.9525889965559884
      ],
      [
        "▁kaydetti",
        -9.850485978397437
      ],
      [
        "▁zengin",
        -8.663922140885557
      ],
      [
        "▁nakit",
        -9.520884104335874
      ],
      [
        "▁ben",
        -8.59747928898189
      ],
      [
        "maya",
        -7.227138544981184
      ],
      [
        "'e",
        -8.05683679560542
      ],
      [
        "▁m",
        -12.81292342695711
      ],
      [
        "▁art",
        -7.8733786436754585
      ],
      [
        "▁10",
        -6.062677737991037
      ],
      [
        "▁%7.5",
        -11.120962033768349
      ],
      [
        "medi",
        -8.376061968734932
      ],
      [
        "▁kongre",
        -9.163115717561961
      ],
      [
        "ıcı",
        -8.440463202812825
      ],
      [
        "▁oyun",
        -8.059444319201884
      ],
      [
        "▁defa",
        -8.679369722622454
      ],
      [
        "su",
        -6.723454897549133
      ],
      [
        "▁3/",
        -8.14222313149267
      ],
      [
        "▁yukarı",
        -9.163135277092621
      ],
      [
        "acagım",
        -8.912840254655515
      ],
      [
        "ana",
        -4.716492099178145
      ],
      [
        "▁kira",
        -8.898863789157383
      ],
      [
        "▁sene",
        -8.146300500825237
      ],
      [
        "▁yeri",
        -9.361245770727574
      ],
      [
        "▁renk",
        -8.96262121404503
      ],
      [
        "▁okur",
        -9.496319512318431
      ],
      [
        "▁sanat",
        -8.545507137221904
      ],
      [
        "nden",
        -8.025034340980254
      ],
      [
        "▁sıkıntı",
        -9.174842152768768
      ],
      [
        "▁hastane",
        -9.461684858184963
      ],
      [
        "c",
        -6.779551376003666
      ],
      [
        "▁gecici",
        -9.767085361175297
      ],
      [
        "3",
        -9.345899583452661
      ],
      [
        "▁ciz",
        -9.425577815666575
      ],
      [
        "▁dinle",
        -9.036957764472742
      ],
      [
        "▁savası",
        -9.510040484330762
      ],
      [
        "▁yılda",
        -9.151389516648244
      ],
      [
        "im",
        -8.415921563447386
      ],
      [
        "at",
        -6.734542760195388
      ],
      [
        "▁cozul",
        -9.875576676822972
      ],
      [
        "▁worth",
        -9.944610167052428
      ],
      [
        "▁yiyecek",
        -8.75795556282776
      ],
      [
        "▁1.",
        -8.798540166567136
      ],
      [
        "▁t",
        -8.484029689646022
      ],
      [
        "▁kalabalik",
        -9.827755393150179
      ],
      [
        "lerin",
        -6.400645793880925
      ],
      [
        "▁duzey",
        -9.273808497260937
      ],
      [
        "▁kim",
        -8.856197328222297
      ],
      [
        "ce",
        -8.544836835015023
      ],
      [
        "▁gezi",
        -9.240934321944327
      ],
      [
        "▁bakın",
        -9.765012973863097
      ],
      [
        "digim",
        -8.825358052051326
      ],
      [
        "▁mes",
        -8.845562235621095
      ],
      [
        "▁harcama",
        -9.258745796755306
      ],
      [
        "▁beyaz",
        -8.192140240294478
      ],
      [
        "▁alıcı",
        -9.371798358243392
      ],
      [
        "▁kut",
        -9.079582395737674
      ],
      [
        "▁olmadı",
        -9.603460150816424
      ],
      [
        "▁bazi",
        -8.434375528301851
      ],
      [
        "p",
        -10.99625889677093
      ],
      [
        "▁olumsuz",
        -9.555358461550039
      ],
      [
        "ev",
        -11.809602426827798
      ],
      [
        "▁huzur",
        -9.353582167665898
      ],
      [
        "c",
        -12.525513205923579
      ],
      [
        "▁corp",
        -9.804747230480096
      ],
      [
        "▁hat",
        -9.344135932731984
      ],
      [
        "▁re",
        -7.3211204972826
      ],
      [
        "▁deprem",
        -8.848349421698677
      ],
      [
        "▁alamadi",
        -8.918392517382621
      ],
      [
        "▁sehrin",
        -9.340324785944738
      ],
      [
        "ti",
        -13.256482449366915
      ],
      [
        "▁yasama",
        -9.139154019762806
      ],
      [
        "▁davranıs",
        -9.45812686359387
      ],
      [
        "▁gid",
        -8.591546361214753
      ],
      [
        "ur",
        -6.821673418853205
      ],
      [
        "▁onem",
        -8.786787059537106
      ],
      [
        "▁spor",
        -9.280114193903099
      ],
      [
        "ılacak",
        -9.459886432946673
      ],
      [
        "▁salt",
        -8.85349889096462
      ],
      [
        "▁vucudu",
        -9.82650084492038
      ],
      [
        "▁yon",
        -7.716716944858178
      ],
      [
        "▁dokuz",
        -7.886432727260862
      ],
      [
        "▁peri",
        -9.727388188310911
      ],
      [
        "likle",
        -8.362443712004549
      ],
      [
        "dıgını",
        -8.065789548020145
      ],
      [
        "▁gerceklestir",
        -9.292163903124809
      ],
      [
        "▁teklif",
        -8.16143747057982
      ],
      [
        "▁se",
        -7.489010546136622
      ],
      [
        "▁fre",
        -9.444787766768734
      ],
      [
        "▁kabul",
        -7.921155790269446
      ],
      [
        "▁ince",
        -8.060316706579027
      ],
      [
        "gimiz",
        -8.647807937458651
      ],
      [
        "▁%8",
        -9.680844401386137
      ],
      [
        "▁unlu",
        -9.727393634988672
      ],
      [
        "▁sozu",
        -9.148616284309032
      ],
      [
        "lak",
        -8.486863924526105
      ],
      [
        "kten",
        -8.362329636799577
      ],
      [
        "inin",
        -7.677734722379156
      ],
      [
        "▁titre",
        -9.554293445211464
      ],
      [
        "▁petersburg'",
        -9.662437031291418
      ],
      [
        "lerden",
        -7.565442477045693
      ],
      [
        "▁isi",
        -8.28172190169338
      ],
      [
        "▁beyle",
        -9.210032161369384
      ],
      [
        "▁tesekkurler",
        -9.278707862695658
      ],
      [
        "▁fa",
        -8.020009612164898
      ],
      [
        "▁belirt",
        -8.50489332013164
      ],
      [
        "▁karsı",
        -6.409335831396301
      ],
      [
        "ıvı",
        -11.887579079084775
      ],
      [
        "125",
        -9.016701583305009
      ],
      [
        "85",
        -9.244543557811305
      ],
      [
        "▁kimse",
        -8.428552714251712
      ],
      [
        "%",
        -14.190853728377775
      ],
      [
        "▁gozleri",
        -8.435323053889054
      ],
      [
        "▁1.5",
        -8.706118280921128
      ],
      [
        "▁ilave",
        -9.681714479297355
      ],
      [
        "▁jaguar",
        -9.873738313217594
      ],
      [
        "▁ogle",
        -7.603474277144901
      ],
      [
        "▁kullanıl",
        -8.510046648372706
      ],
      [
        "▁anlamın",
        -9.594978883272496
      ],
      [
        "▁cin",
        -8.880960358299852
      ],
      [
        "▁kısa",
        -8.115742947729554
      ],
      [
        "▁zevk",
        -9.247502906126225
      ],
      [
        "▁ler",
        -9.237594244454714
      ],
      [
        "▁biz",
        -8.780758450832561
      ],
      [
        "▁olayı",
        -9.823412271189435
      ],
      [
        "ki",
        -6.635403197634999
      ],
      [
        "▁dev",
        -8.862008926988302
      ],
      [
        "▁tu",
        -6.926966237301801
      ],
      [
        "▁ajans",
        -9.805537591295257
      ],
      [
        "▁halde",
        -8.64848598859118
      ],
      [
        "▁kultur",
        -8.984314360215901
      ],
      [
        "▁fe",
        -8.247110765369234
      ],
      [
        "▁lynch",
        -9.921938091487279
      ],
      [
        "▁dudakları",
        -9.92267975413634
      ],
      [
        "▁vah",
        -9.75653395876256
      ],
      [
        "▁geliyor",
        -8.155109921291444
      ],
      [
        "—",
        -12.809526790838989
      ],
      [
        "▁icer",
        -8.599253202518533
      ],
      [
        "▁arada",
        -8.591437720470921
      ],
      [
        "▁darbe",
        -9.59118388240925
      ],
      [
        "▁cı",
        -9.94387244233149
      ],
      [
        "▁ilgilenmedi",
        -9.593728500356356
      ],
      [
        "▁fıkı",
        -10.04396486979278
      ],
      [
        "7/",
        -9.640234913681336
      ],
      [
        "▁duran",
        -9.62892140098879
      ],
      [
        "ad",
        -8.900327046235581
      ],
      [
        "▁babam",
        -8.640499533371717
      ],
      [
        "▁parti",
        -8.53545613758497
      ],
      [
        "▁ikisi",
        -9.47119770066737
      ],
      [
        "▁kotuy",
        -8.441330608771551
      ],
      [
        "▁dusunce",
        -8.739561380085066
      ],
      [
        "▁muduru",
        -9.432622215885642
      ],
      [
        "▁dc'",
        -9.31263158597374
      ],
      [
        "▁gelistir",
        -9.413645875737874
      ],
      [
        "▁kıymet",
        -9.877139173615873
      ],
      [
        "isi",
        -8.59687392606191
      ],
      [
        "▁ulusal",
        -8.99394983103991
      ],
      [
        "▁tehlike",
        -9.24750207211744
      ],
      [
        "▁vardı",
        -7.755388673641701
      ],
      [
        "▁cesitli",
        -8.806413343093737
      ],
      [
        "▁don",
        -8.085097536466154
      ],
      [
        "bas",
        -9.392307425498197
      ],
      [
        "▁av",
        -8.468560086587932
      ],
      [
        "▁ic",
        -7.503048676817552
      ],
      [
        "▁go",
        -8.97793027916003
      ],
      [
        "▁me",
        -7.606735313883577
      ],
      [
        "▁organ",
        -9.80815980532563
      ],
      [
        "evi",
        -9.140727321390322
      ],
      [
        "▁burası",
        -9.942944841465868
      ],
      [
        "▁hi",
        -8.497350589849942
      ],
      [
        "▁ber",
        -9.076171493326072
      ],
      [
        "▁mis",
        -9.439033990428584
      ],
      [
        "▁tr",
        -8.723836337422345
      ],
      [
        "▁nashville'",
        -9.643569107545932
      ],
      [
        "▁mı",
        -11.773248092011569
      ],
      [
        "at",
        -6.864024170952207
      ],
      [
        "man",
        -7.529511808292365
      ],
      [
        "lendiril",
        -9.61070739630008
      ],
      [
        "altı",
        -8.424785572045806
      ],
      [
        "2-",
        -11.482629028872132
      ],
      [
        "▁edin",
        -8.910437045661322
      ],
      [
        "▁kalmadi",
        -8.321287913235583
      ],
      [
        "▁zayif",
        -9.47223307397908
      ],
      [
        "▁kisi",
        -7.711517460489275
      ],
      [
        "▁uc",
        -8.160726900928129
      ],
      [
        "▁kav",
        -8.45090524120771
      ],
      [
        "7.5",
        -9.20992259280443
      ],
      [
        "▁icinde",
        -6.957424203548727
      ],
      [
        "14",
        -12.716480308396433
      ],
      [
        "▁adet",
        -8.299820026155404
      ],
      [
        "▁evren",
        -9.701690385471824
      ],
      [
        "▁cok",
        -5.160251942740835
      ],
      [
        "et",
        -6.959594546323867
      ],
      [
        "▁ri",
        -8.831120752442544
      ],
      [
        "▁altında",
        -8.012488363282566
      ],
      [
        "layıcı",
        -9.90004852132473
      ],
      [
        "▁sevdigi",
        -9.618936798713126
      ],
      [
        "gına",
        -8.751286994560324
      ],
      [
        "▁uygun",
        -7.7323735480501865
      ],
      [
        "hicbir",
        -9.453110688665927
      ],
      [
        "nun",
        -8.168935252858322
      ],
      [
        "▁zayıf",
        -8.900319032238205
      ],
      [
        "\"",
        -9.488088094145542
      ],
      [
        "▁baslamıstı",
        -9.801067179488136
      ],
      [
        "19",
        -9.653955124169919
      ],
      [
        "vı",
        -10.422371062606649
      ],
      [
        "31",
        -12.68710890116767
      ],
      [
        "digi",
        -7.99030721541986
      ],
      [
        "makta",
        -8.642769265600247
      ],
      [
        "65",
        -9.675037765306437
      ],
      [
        "▁futbol",
        -9.299125391578931
      ],
      [
        "▁dikkat",
        -8.352853640052917
      ],
      [
        "▁ingiltere",
        -9.827755088862592
      ],
      [
        "▁fotograf",
        -9.235001923831412
      ],
      [
        "▁halin",
        -9.102843763310231
      ],
      [
        "▁alev",
        -9.882491566623289
      ],
      [
        "'nun",
        -8.279852221524177
      ],
      [
        "▁kamu",
        -9.084800595363909
      ],
      [
        "▁koltuk",
        -9.426160551725932
      ],
      [
        "ım",
        -8.568093718523716
      ],
      [
        "▁pro",
        -8.99526896600566
      ],
      [
        "▁il",
        -7.476214463926909
      ],
      [
        "▁tesisti",
        -7.706579814290694
      ],
      [
        "90",
        -11.082983173234592
      ],
      [
        "▁cıktı",
        -7.7121178887985815
      ],
      [
        "lamak",
        -8.843156834835497
      ],
      [
        "▁izin",
        -8.986342644727685
      ],
      [
        "▁otelde",
        -9.174064075036753
      ],
      [
        "▁guzel",
        -6.610772685846023
      ],
      [
        "larımızı",
        -9.26819903026471
      ],
      [
        "▁baslayan",
        -9.646759565086256
      ],
      [
        "▁eg",
        -8.641332056786379
      ],
      [
        "-200",
        -11.812779528872541
      ],
      [
        "▁8",
        -8.034759464810683
      ],
      [
        "▁var",
        -5.978396975439737
      ],
      [
        "▁aday",
        -9.455280867433398
      ],
      [
        "▁biri",
        -7.301416674230443
      ],
      [
        "nızı",
        -9.532832227753374
      ],
      [
        "▁ra",
        -9.245496693429814
      ],
      [
        "▁ucak",
        -8.250880891948643
      ],
      [
        "▁ac",
        -7.195845402446683
      ],
      [
        "▁120",
        -9.324473717669948
      ],
      [
        "▁kendileri",
        -8.465864262322565
      ],
      [
        "▁%3.8",
        -12.2298689641572
      ],
      [
        "▁bakıyordu",
        -9.884945907582129
      ],
      [
        "▁tahvilleri",
        -9.43431349028672
      ],
      [
        "lıyordu",
        -9.233024971844728
      ],
      [
        "▁birbirimiz",
        -9.361017863192288
      ],
      [
        "▁kapandı",
        -8.375989663491875
      ],
      [
        "▁k",
        -9.253332953015757
      ],
      [
        "▁verdigim",
        -8.959234337284522
      ],
      [
        "▁iliski",
        -7.241096103232949
      ],
      [
        "$",
        -7.518283183533239
      ],
      [
        "▁hastalık",
        -9.349422649107591
      ],
      [
        "▁philadelphia'da",
        -8.456541487273382
      ],
      [
        "▁mantık",
        -9.62519546185833
      ],
      [
        "▁oteldi",
        -9.234208483034049
      ],
      [
        "gun",
        -8.411989867056507
      ],
      [
        "▁na",
        -7.442627275235236
      ],
      [
        "▁devlet",
        -8.180144794439668
      ],
      [
        "▁ister",
        -8.461141765324777
      ],
      [
        "tak",
        -8.636625796253199
      ],
      [
        "▁indi",
        -9.31572461347504
      ],
      [
        "▁koku",
        -9.01964351877452
      ],
      [
        "▁aksamı",
        -9.40375316312441
      ],
      [
        "00",
        -9.62136154185098
      ],
      [
        ".5",
        -9.430731754711669
      ],
      [
        "▁cevre",
        -8.526452211711884
      ],
      [
        "▁savcı",
        -9.739838986457366
      ],
      [
        "▁un",
        -8.604892661039983
      ],
      [
        "▁amerika",
        -9.293544299359151
      ],
      [
        "▁etti",
        -6.879784313061134
      ],
      [
        "▁kopek",
        -9.367650208608893
      ],
      [
        "▁gunduz",
        -9.60706777636183
      ],
      [
        "▁cevap",
        -8.751903498805078
      ],
      [
        "▁elbise",
        -9.38194095392842
      ],
      [
        "▁derece",
        -8.454021837807272
      ],
      [
        "ac",
        -8.823144997137886
      ],
      [
        "▁sahibi",
        -8.848892736215712
      ],
      [
        "▁hepsinde",
        -8.889580223615383
      ],
      [
        "…",
        -11.80952679083899
      ],
      [
        "▁on",
        -7.700150654774277
      ],
      [
        "abilecegi",
        -9.026163964263484
      ],
      [
        "ki",
        -5.926039647948548
      ],
      [
        "▁dı",
        -6.2730598118254735
      ],
      [
        "▁hepsin",
        -9.136321815355377
      ],
      [
        "▁peter",
        -9.875041018092542
      ],
      [
        "▁anlatı",
        -9.63152272533894
      ],
      [
        "▁pı",
        -11.055086030260906
      ],
      [
        "▁kırmızı",
        -8.865723473747288
      ],
      [
        "ha",
        -11.873864725637613
      ],
      [
        "▁memnun",
        -6.506467693929535
      ],
      [
        "▁arz",
        -9.592150530847618
      ],
      [
        "▁yeme",
        -8.88645219671799
      ],
      [
        "▁siddet",
        -9.074661137948173
      ],
      [
        "ecegi",
        -8.641340618154462
      ],
      [
        "[MASK]",
        0.0
      ],
      [
        "▁rahatsız",
        -9.592074692156512
      ],
      [
        "▁kontrol",
        -8.882762880020342
      ],
      [
        "▁mı",
        -5.660593134567461
      ],
      [
        "cun",
        -6.71166408540965
      ],
      [
        "veya",
        -8.908097765809462
      ],
      [
        "▁deger",
        -8.018115702628636
      ],
      [
        "▁isci",
        -8.805369153753556
      ],
      [
        "j",
        -7.864977167017454
      ],
      [
        "mez",
        -7.966032239842323
      ],
      [
        "▁galiba",
        -9.701297194821874
      ],
      [
        "sinde",
        -7.376199384409419
      ],
      [
        "lıgını",
        -8.440262851159456
      ],
      [
        "▁ib",
        -8.877387599196943
      ],
      [
        "▁imkan",
        -9.38171852283874
      ],
      [
        "▁tavır",
        -9.852180806080144
      ],
      [
        "▁sekil",
        -9.872081980767828
      ],
      [
        "▁ettigi",
        -8.98066494572488
      ],
      [
        "▁charlotte'de",
        -9.857893883012197
      ],
      [
        "▁dusmus",
        -9.491439717502244
      ],
      [
        "▁3.1",
        -9.54319243005556
      ],
      [
        "▁faaliyet",
        -8.62943910027159
      ],
      [
        "▁soy",
        -8.761512637552666
      ],
      [
        "▁universite",
        -9.064033428367068
      ],
      [
        "▁gonlu",
        -9.68210456997894
      ],
      [
        "▁united",
        -8.714291540611633
      ],
      [
        "▁yumusak",
        -9.873740078859395
      ],
      [
        "▁internet",
        -9.850482482152524
      ],
      [
        "▁mc",
        -9.21653634168487
      ],
      [
        "00",
        -8.310518358353914
      ],
      [
        "▁ust",
        -8.362029928305347
      ],
      [
        "▁sunlar",
        -8.674979951815075
      ],
      [
        "▁rezervasyonu",
        -9.066034492364379
      ],
      [
        "unun",
        -7.908108434107679
      ],
      [
        "▁denile",
        -9.876884645999422
      ],
      [
        "▁raf",
        -9.742880569586662
      ],
      [
        "oz",
        -8.978374483908958
      ],
      [
        "▁oakland",
        -9.452501024440167
      ],
      [
        "▁bulun",
        -8.123345738050878
      ],
      [
        "lar",
        -4.8399050141436195
      ],
      [
        "▁gerekli",
        -9.54925138065137
      ],
      [
        "▁fiyat",
        -7.366693589993076
      ],
      [
        "18",
        -12.105479095657515
      ],
      [
        "▁19",
        -7.590840352627737
      ],
      [
        "▁5",
        -6.399179993357795
      ],
      [
        "▁malzemeler",
        -9.710650921203612
      ],
      [
        "▁gelistirme",
        -9.678394950385641
      ],
      [
        "▁dis",
        -8.684989702191261
      ],
      [
        "lerinde",
        -7.802808672810942
      ],
      [
        "▁air",
        -8.779030508706178
      ],
      [
        "ris",
        -9.225381196676278
      ],
      [
        "▁gozlu",
        -9.75260002590107
      ],
      [
        "▁giden",
        -7.8030545502980795
      ],
      [
        "▁hızla",
        -9.008253103574525
      ],
      [
        "▁farkında",
        -9.852270274060224
      ],
      [
        "▁temel",
        -8.648028472447798
      ],
      [
        "▁delta",
        -8.88272220987978
      ],
      [
        "cisi",
        -9.346446715062921
      ],
      [
        "▁tık",
        -9.196474036464853
      ],
      [
        "yon",
        -6.512326317501542
      ],
      [
        "pa",
        -11.647155356026659
      ],
      [
        "▁tartıs",
        -9.866683405622057
      ],
      [
        "▁cılgın",
        -9.897552792237853
      ],
      [
        "▁bil",
        -8.215019838540265
      ],
      [
        "▁ihtiyac",
        -8.546146631382415
      ],
      [
        "▁eglen",
        -9.830939093817609
      ],
      [
        "▁millet",
        -8.84850661818345
      ],
      [
        "an",
        -6.656574563908451
      ],
      [
        "▁hu",
        -8.061407345023913
      ],
      [
        "larındaki",
        -9.36970916372233
      ],
      [
        "▁doktor",
        -8.736821148762276
      ],
      [
        "verdi",
        -9.649750578958002
      ],
      [
        "san",
        -8.040444113682927
      ],
      [
        "▁duyu",
        -9.104336880759346
      ],
      [
        "inci",
        -9.37785935291702
      ],
      [
        "▁odul",
        -9.664513297888227
      ],
      [
        "▁hayat",
        -8.405118853258545
      ],
      [
        "▁toplum",
        -8.685833790260583
      ],
      [
        "▁52",
        -9.474990685845631
      ],
      [
        "▁musait",
        -9.003438443754945
      ],
      [
        "g",
        -12.208084104767863
      ],
      [
        "▁tarih",
        -8.283331975052906
      ],
      [
        "▁yapıyor",
        -8.497261919339142
      ],
      [
        "▁197",
        -9.027229195716874
      ],
      [
        "▁birkac",
        -6.046704895549904
      ],
      [
        "▁islemler",
        -9.191523399335555
      ],
      [
        "▁gereken",
        -9.322285533392128
      ],
      [
        "▁yahu",
        -9.850622815513148
      ],
      [
        "ga",
        -7.066949136890428
      ],
      [
        "▁kaliforniya",
        -9.504217126410811
      ],
      [
        "▁dergi",
        -9.09048778836318
      ],
      [
        "dıgında",
        -9.274944603347647
      ],
      [
        "▁ga",
        -8.311090641472513
      ],
      [
        "▁yapar",
        -8.719059353227824
      ],
      [
        "▁elini",
        -9.238639263614445
      ],
      [
        "▁bunu",
        -6.098683502847974
      ],
      [
        "mek",
        -7.323875118615335
      ],
      [
        "ola",
        -9.667374755508707
      ],
      [
        "▁hizmetleri",
        -9.361751184288458
      ],
      [
        "abı",
        -8.806417144117614
      ],
      [
        "ması",
        -7.299996024308091
      ],
      [
        "▁saha",
        -9.246387948705358
      ],
      [
        "▁6",
        -7.0338405742876775
      ],
      [
        "▁sav",
        -8.757737585794764
      ],
      [
        ".7",
        -13.316270462957048
      ],
      [
        "▁bri",
        -9.639707367460929
      ],
      [
        "▁yaprak",
        -9.68413374768824
      ],
      [
        "il",
        -8.647156063981056
      ],
      [
        "*",
        -8.020174383409998
      ],
      [
        "▁masa",
        -8.022158602134343
      ],
      [
        "4.5",
        -9.340653624415177
      ],
      [
        "▁yasam",
        -8.602501794093849
      ],
      [
        "▁sozlesme",
        -8.823767818934815
      ],
      [
        "▁net",
        -8.896612413878566
      ],
      [
        "▁hır",
        -9.40051887408427
      ],
      [
        "▁z",
        -11.475475111137184
      ],
      [
        "meye",
        -7.830894294974239
      ],
      [
        "▁geriledi",
        -9.731897819804754
      ],
      [
        "▁tavan",
        -9.786862498536344
      ],
      [
        "▁ba",
        -7.695456264858099
      ],
      [
        "nda",
        -8.120883562464735
      ],
      [
        "▁55",
        -9.177819608601558
      ],
      [
        "▁tah",
        -8.763172370087261
      ],
      [
        "▁kurban",
        -9.762885015474923
      ],
      [
        "▁new",
        -7.546074582004401
      ],
      [
        "▁3.",
        -7.95981787468102
      ],
      [
        "▁mevcut",
        -8.250305259152135
      ],
      [
        "nla",
        -9.58078058821545
      ],
      [
        "▁29",
        -8.31141521590659
      ],
      [
        "▁hepsi",
        -6.842946748412163
      ],
      [
        "▁taze",
        -9.402391072265704
      ],
      [
        "0",
        -9.329708899782709
      ],
      [
        "▁dısında",
        -8.893407663840645
      ],
      [
        "▁neredey",
        -9.233660709834622
      ],
      [
        "▁22",
        -8.076066059236702
      ],
      [
        "4'",
        -9.769475374857358
      ],
      [
        "▁bu",
        -7.6215933447776
      ],
      [
        "▁olduk",
        -8.403540058912242
      ],
      [
        "▁orada",
        -8.546951822982006
      ],
      [
        "▁saglam",
        -9.017533519167648
      ],
      [
        "▁fak",
        -6.308009083831862
      ],
      [
        "▁41",
        -9.259593764400314
      ],
      [
        "▁2016",
        -9.308874043928322
      ],
      [
        "den",
        -5.631656105993794
      ],
      [
        "▁ip",
        -9.194568194956116
      ],
      [
        "▁programı",
        -9.403594497131223
      ],
      [
        "▁oyna",
        -8.180252492335844
      ],
      [
        "▁yanıt",
        -9.632435651230795
      ],
      [
        "▁op",
        -8.835435380948336
      ],
      [
        "h",
        -7.700124458784982
      ],
      [
        "ti",
        -8.056066862997
      ],
      [
        "▁dallas'ta",
        -8.269298595761168
      ],
      [
        "mus",
        -7.083867982188077
      ],
      [
        "▁olan",
        -8.129043926954479
      ],
      [
        "▁da",
        -9.420852245950911
      ],
      [
        "▁niha",
        -9.657024523441608
      ],
      [
        "▁ulastı",
        -9.127327311717327
      ],
      [
        "▁goster",
        -6.530425241269249
      ],
      [
        "▁basit",
        -9.508857781457984
      ],
      [
        "▁'",
        -9.107607116574506
      ],
      [
        "1-19",
        -12.809528646007319
      ],
      [
        "▁198",
        -13.999596592358095
      ],
      [
        "▁kum",
        -8.857953291553388
      ],
      [
        "▁%1",
        -8.947074690717066
      ],
      [
        "▁tefe",
        -9.162034969752785
      ],
      [
        "▁kafa",
        -8.396068171707228
      ],
      [
        "▁seviyesin",
        -9.339670286304179
      ],
      [
        "▁etmekte",
        -9.666068775442342
      ],
      [
        "mı",
        -8.374096378826032
      ],
      [
        "▁havaalanı",
        -9.686071372919479
      ],
      [
        "▁yarar",
        -9.552047230555115
      ],
      [
        "▁kendi",
        -5.6647228416722895
      ],
      [
        "▁kara",
        -7.792541754393853
      ],
      [
        "▁geldi",
        -7.298143374510296
      ],
      [
        "▁yolda",
        -9.22438181281646
      ],
      [
        "▁abla",
        -9.760297061201772
      ],
      [
        "ak",
        -7.804092858450923
      ],
      [
        "▁haber",
        -8.1213607907642
      ],
      [
        "▁altı",
        -6.8870572946492
      ],
      [
        "▁satın",
        -8.097200909337587
      ],
      [
        "▁bi",
        -9.055809742934358
      ],
      [
        "▁kaybed",
        -9.427082649629192
      ],
      [
        "▁baltimore'",
        -8.039628490487903
      ],
      [
        "▁tepki",
        -9.456731488040536
      ],
      [
        "eri",
        -8.593642937284123
      ],
      [
        "0-1",
        -13.27225999513051
      ],
      [
        "▁isletme",
        -8.685093583378752
      ],
      [
        "▁p",
        -7.409760978407068
      ],
      [
        "▁gorus",
        -8.531314646631202
      ],
      [
        "sunuz",
        -8.632728012507808
      ],
      [
        "1",
        -6.878332744407707
      ],
      [
        "ince",
        -8.352436447916432
      ],
      [
        "una",
        -7.966414912610614
      ],
      [
        "▁mıydı",
        -8.489729860708078
      ],
      [
        "lar",
        -7.961244385437585
      ],
      [
        "ginde",
        -9.256312057752641
      ],
      [
        "ber",
        -8.481812016020683
      ],
      [
        "▁kent",
        -8.860963015045154
      ],
      [
        "-",
        -5.2246448626679545
      ],
      [
        "q",
        -9.367467255310547
      ],
      [
        "▁tipi",
        -9.473684659509814
      ],
      [
        "▁rehberimiz",
        -9.922499585483877
      ],
      [
        "lerdi",
        -8.220154558282262
      ],
      [
        "▁elde",
        -8.482649075121927
      ],
      [
        "▁51",
        -9.143002594478848
      ],
      [
        "▁5",
        -9.646582813683784
      ],
      [
        "▁dır",
        -6.97794736662211
      ],
      [
        "▁personelleri",
        -7.991808550429151
      ],
      [
        "▁nisan",
        -8.900983438231027
      ],
      [
        "▁otel",
        -7.342137325474617
      ],
      [
        "▁sa",
        -7.058721000505687
      ],
      [
        "▁kurtul",
        -8.97344986477819
      ],
      [
        "▁menkul",
        -8.307598889343152
      ],
      [
        "tir",
        -7.5411492978378964
      ],
      [
        "▁ayakkabı",
        -9.488094339988054
      ],
      [
        "ılması",
        -8.77048226378786
      ],
      [
        "▁ev",
        -7.107720455711907
      ],
      [
        "inde",
        -7.3884875646813795
      ],
      [
        "▁miyi",
        -7.919809520676319
      ],
      [
        "▁etmedi",
        -9.442675002563305
      ],
      [
        "ler",
        -8.561113245009482
      ],
      [
        "▁ki",
        -4.577539143697806
      ],
      [
        "▁normaldi",
        -9.481462137474997
      ],
      [
        "▁ilgisi",
        -9.355467525657417
      ],
      [
        "▁mi",
        -7.810843341403849
      ],
      [
        "▁lezzet",
        -7.734977451222028
      ],
      [
        "▁sonra",
        -6.9045431313874674
      ],
      [
        "▁bulunma",
        -9.548823925006804
      ],
      [
        "▁basar",
        -9.588057309971248
      ],
      [
        "dugunu",
        -8.750376836865769
      ],
      [
        "▁doku",
        -8.51744931834645
      ],
      [
        ",",
        -2.073968199337104
      ],
      [
        "▁2.5",
        -9.228150996259865
      ],
      [
        "▁silah",
        -9.00327701781331
      ],
      [
        "▁idare",
        -9.06413610146795
      ],
      [
        "▁kendini",
        -6.832826224031009
      ],
      [
        "▁simdi",
        -7.272086153548058
      ],
      [
        "▁dibin",
        -9.784998742712537
      ],
      [
        "▁danısman",
        -9.411128589373835
      ],
      [
        "▁city'de",
        -9.312646657761949
      ],
      [
        "▁konusu",
        -8.708937356853495
      ],
      [
        "cagız",
        -9.042107885452186
      ],
      [
        "sh",
        -8.99236699193084
      ],
      [
        "▁bırak",
        -8.22565139429119
      ],
      [
        "▁199",
        -12.077407608052267
      ],
      [
        "imizi",
        -9.491567203109943
      ],
      [
        "▁toz",
        -9.615816817395611
      ],
      [
        "▁%0.3",
        -11.442857597144098
      ],
      [
        "▁iliski",
        -8.357990449141619
      ],
      [
        "▁dum",
        -7.613297299305508
      ],
      [
        "▁utan",
        -9.504745316985991
      ],
      [
        "▁ydı",
        -7.2089507199542044
      ],
      [
        "▁sayfa",
        -9.572577075181211
      ],
      [
        "▁har",
        -8.003485113182048
      ],
      [
        "▁yayın",
        -8.509906062672579
      ],
      [
        "▁muzik",
        -9.52068753135805
      ],
      [
        "▁bos",
        -8.126243790174986
      ],
      [
        "▁37",
        -9.086485923493704
      ],
      [
        "▁yuksek",
        -7.6366032460836175
      ],
      [
        "▁ortalama",
        -8.446967447662862
      ],
      [
        "▁toprag",
        -9.784719880092013
      ],
      [
        "▁cesaret",
        -9.897555617290008
      ],
      [
        "▁on",
        -6.257864441783672
      ],
      [
        "lenmis",
        -8.802694786954412
      ],
      [
        "▁sakin",
        -8.642368384187272
      ],
      [
        "▁az",
        -6.954130594423254
      ],
      [
        "▁ucusları",
        -6.507108513758392
      ],
      [
        "▁veriyor",
        -8.707409781254238
      ],
      [
        "madan",
        -8.64643915690644
      ],
      [
        "▁mac",
        -8.635118720758964
      ],
      [
        "▁su",
        -11.80979213488054
      ],
      [
        "▁14",
        -8.071408203960583
      ],
      [
        "▁yapılma",
        -9.616313829426597
      ],
      [
        "▁alt",
        -8.829956665089334
      ],
      [
        "▁sa",
        -7.406443483500909
      ],
      [
        "▁politika",
        -8.66908928272775
      ],
      [
        "cilik",
        -9.22398875101973
      ],
      [
        "der",
        -8.294905960316342
      ],
      [
        "▁tahta",
        -9.154470121427078
      ],
      [
        "li",
        -5.284557323569377
      ],
      [
        "▁hukum",
        -9.409588419129706
      ],
      [
        "yesinde",
        -9.472963265384633
      ],
      [
        "▁co",
        -7.487167566081311
      ],
      [
        "madıgı",
        -9.61827410001321
      ],
      [
        "▁kose",
        -8.632956096444218
      ],
      [
        "▁insa",
        -9.360786281874189
      ],
      [
        "▁oturma",
        -9.662464738210264
      ],
      [
        "▁%7.8",
        -10.683931952813355
      ],
      [
        "▁tamam",
        -7.885878223582847
      ],
      [
        "▁gorev",
        -8.10138928184371
      ],
      [
        ".",
        -6.78086863364489
      ],
      [
        "'un",
        -7.727563025353447
      ],
      [
        "▁bir",
        -6.182887497119687
      ],
      [
        "▁yaptirdi",
        -9.151795606984052
      ],
      [
        "▁yargıc",
        -9.889334826820837
      ],
      [
        "ıyordu",
        -7.666698771758724
      ],
      [
        "▁uf",
        -9.261391589710101
      ],
      [
        "tim",
        -8.85835951425771
      ],
      [
        "e",
        -10.216012375803206
      ],
      [
        "▁13",
        -8.043983628244806
      ],
      [
        "'",
        -4.8924320266455865
      ],
      [
        "l",
        -5.66408816251505
      ],
      [
        "▁olmaya",
        -9.57658948070318
      ],
      [
        "▁sık",
        -8.089565960988912
      ],
      [
        "or",
        -7.270989667158372
      ],
      [
        "▁faturam",
        -8.953934754302455
      ],
      [
        "id",
        -9.1330564605156
      ],
      [
        "▁birbirini",
        -8.552309948605377
      ],
      [
        "▁umut",
        -9.22339567883193
      ],
      [
        ")",
        -6.121952843531647
      ],
      [
        "▁s",
        -12.083159505724957
      ],
      [
        "▁kosulları",
        -9.692462456152258
      ],
      [
        "▁deneyim",
        -9.790561879280364
      ],
      [
        "▁kalk",
        -8.703230371013039
      ],
      [
        "▁acık",
        -7.67673720628257
      ],
      [
        "▁gul",
        -7.848042943245606
      ],
      [
        "▁merkez",
        -8.5808129832079
      ],
      [
        "▁sona",
        -9.303088000144363
      ],
      [
        "y",
        -7.050804997876933
      ],
      [
        "unc",
        -6.804290499659833
      ],
      [
        "50000",
        -9.481042297468452
      ],
      [
        ".4",
        -10.830378826620757
      ],
      [
        "▁sak",
        -9.207539794145411
      ],
      [
        "▁keyif",
        -9.741706474475194
      ],
      [
        "ur",
        -9.723086458638548
      ],
      [
        "▁bicimde",
        -9.839245516401283
      ],
      [
        "▁suru",
        -8.510530533774979
      ],
      [
        "▁kusur",
        -9.201220737456733
      ],
      [
        "▁cap",
        -9.129782184781174
      ],
      [
        "▁agız",
        -9.427195465071602
      ],
      [
        "▁kalkan",
        -7.885680280120638
      ],
      [
        "5'",
        -9.230181957844804
      ],
      [
        "re",
        -8.455478699837244
      ],
      [
        "▁yapma",
        -8.418393442857358
      ],
      [
        "▁gr",
        -8.65834947036678
      ],
      [
        "▁karı",
        -9.058101322975368
      ],
      [
        "▁tum",
        -5.009593977490714
      ],
      [
        "sek",
        -9.210737728370638
      ],
      [
        "▁buyu",
        -8.354671806237898
      ],
      [
        "▁rapor",
        -8.461343694943656
      ],
      [
        "▁ugur",
        -9.6816713543055
      ],
      [
        "▁artır",
        -9.380009423641216
      ],
      [
        "▁alay",
        -9.584405526588373
      ],
      [
        "87",
        -11.566550520542979
      ],
      [
        "lanmıs",
        -8.707073062265101
      ],
      [
        "ise",
        -9.285473386053635
      ],
      [
        "▁meclis",
        -9.186514031228917
      ],
      [
        "0'",
        -8.305880529856955
      ],
      [
        "▁iflas",
        -9.921949726572105
      ],
      [
        "▁bilir",
        -8.878878589577653
      ],
      [
        "▁boyut",
        -9.655464131910016
      ],
      [
        "▁aslın",
        -8.73963190967883
      ],
      [
        "▁baz",
        -8.596324861113125
      ],
      [
        "lesti",
        -8.906539338487862
      ],
      [
        "4",
        -9.5754158912283
      ],
      [
        "ktor",
        -9.909561041696447
      ],
      [
        "▁ke",
        -7.8038066473977885
      ],
      [
        "▁gene",
        -9.002290911526096
      ],
      [
        "■",
        -12.809526790838989
      ],
      [
        "▁yuz",
        -7.387323089183921
      ],
      [
        "▁kuvvet",
        -8.699639347623478
      ],
      [
        "%8",
        -11.906306491240494
      ],
      [
        "▁ellerini",
        -9.800424412488834
      ],
      [
        "▁an",
        -7.190513088742224
      ],
      [
        "▁once",
        -7.236122429931177
      ],
      [
        "▁yemeklerde",
        -9.569522251926918
      ],
      [
        "▁vapur",
        -9.60690420242475
      ],
      [
        "▁sekilde",
        -7.708834763014894
      ],
      [
        "▁louis'",
        -9.563847891016705
      ],
      [
        "▁tuttu",
        -8.89055622941563
      ],
      [
        "▁olumlu",
        -9.429160449642504
      ],
      [
        "▁45",
        -8.6417252970266
      ],
      [
        "▁yetki",
        -9.720337143137272
      ],
      [
        "▁buray",
        -9.61582519346415
      ],
      [
        "▁bizim",
        -6.222492561437722
      ],
      [
        "▁fransız",
        -9.325973765114693
      ],
      [
        "▁street",
        -9.272980940124093
      ],
      [
        "▁ceki",
        -8.258600632188461
      ],
      [
        "▁30",
        -6.961537307481505
      ],
      [
        "▁sart",
        -9.187338510675335
      ],
      [
        "▁60",
        -8.47541441656007
      ],
      [
        "▁kapan",
        -9.45292805903405
      ],
      [
        "▁ifade",
        -8.394833608743209
      ],
      [
        "▁allah",
        -9.516426720942961
      ],
      [
        "▁yıllar",
        -8.7106971688385
      ],
      [
        "dıgımız",
        -9.939216705890605
      ],
      [
        "▁kap",
        -7.599853925628213
      ],
      [
        "▁tesekkur",
        -8.511621790976722
      ],
      [
        "▁olmustu",
        -8.936300518937491
      ],
      [
        "▁sel",
        -9.535382891257886
      ],
      [
        "▁gormedi",
        -9.02150587391378
      ],
      [
        "ında",
        -7.517546670685457
      ],
      [
        "ız",
        -8.204933600869634
      ],
      [
        "▁demis",
        -9.63364168011573
      ],
      [
        "inler",
        -9.147359778007075
      ],
      [
        "biz",
        -9.163017848330604
      ],
      [
        "▁co",
        -10.859016870384504
      ],
      [
        "▁tepe",
        -9.107451098763907
      ],
      [
        "▁babası",
        -9.248175527694059
      ],
      [
        "bb",
        -9.770133315934762
      ],
      [
        "▁hacmi",
        -9.273010687732057
      ],
      [
        "lastı",
        -8.442542069160437
      ],
      [
        "▁iyi",
        -6.01997847174079
      ],
      [
        "▁gorusuldu",
        -7.427912107398445
      ],
      [
        "▁istiyoru",
        -6.914345681670229
      ],
      [
        "▁basa",
        -9.085426831875864
      ],
      [
        "▁gece",
        -7.5080070768359155
      ],
      [
        "ler",
        -5.054731739971512
      ],
      [
        "▁etme",
        -8.140974042550798
      ],
      [
        "▁kanıt",
        -9.573176044459636
      ],
      [
        "▁olma",
        -7.7981672658848105
      ],
      [
        "ya",
        -8.492646272106997
      ],
      [
        "yacak",
        -9.30119291587988
      ],
      [
        "▁maka",
        -9.15608962415814
      ],
      [
        "▁tesisin",
        -8.621597521630829
      ],
      [
        "30",
        -12.083484989621075
      ],
      [
        "▁ismi",
        -9.538716737898902
      ],
      [
        "o",
        -10.725630651579849
      ],
      [
        "▁ikibiniki",
        -9.484213962934435
      ],
      [
        "▁marka",
        -9.490197101353365
      ],
      [
        "▁kere",
        -8.61697783363022
      ],
      [
        "▁gar",
        -9.647788017934232
      ],
      [
        "▁yana",
        -8.26114955683115
      ],
      [
        "▁gorul",
        -8.652576574138823
      ],
      [
        "▁",
        -5.105726649038708
      ],
      [
        "▁ticari",
        -9.16311855043756
      ],
      [
        "dır",
        -7.550364459655661
      ],
      [
        "in",
        -11.009759684549362
      ],
      [
        "▁kural",
        -9.259219366042885
      ],
      [
        "is",
        -7.1308264400667065
      ],
      [
        "▁alem",
        -9.787348666305498
      ],
      [
        "▁4.",
        -9.203855788183088
      ],
      [
        "▁sunu",
        -9.919030871467974
      ],
      [
        "▁his",
        -9.589272132199508
      ],
      [
        "▁enerji",
        -9.299131264308524
      ],
      [
        "sak",
        -9.118476676801967
      ],
      [
        "▁kan",
        -7.822373757389361
      ],
      [
        "▁baglı",
        -8.619400849291068
      ],
      [
        "▁amac",
        -8.551868968475976
      ],
      [
        "gımı",
        -9.71346941343042
      ],
      [
        "▁herkes",
        -8.612316935561402
      ],
      [
        "▁it",
        -8.794598392806796
      ],
      [
        "▁denizi",
        -7.8309481361032915
      ],
      [
        "▁kaybetti",
        -9.554227109760342
      ],
      [
        "▁yıllarda",
        -9.535178082870342
      ],
      [
        "▁sok",
        -8.595510385524342
      ],
      [
        "▁sirketleri",
        -9.29915633786522
      ],
      [
        "▁indir",
        -9.47249412423285
      ],
      [
        "▁gu",
        -11.453395732365175
      ],
      [
        "▁ilgisiz",
        -9.359190859355934
      ],
      [
        "es",
        -12.62948940381247
      ],
      [
        "▁tanrı",
        -9.727652258347874
      ],
      [
        "▁yakin",
        -8.805713752881257
      ],
      [
        "▁milwaukee'de",
        -9.344816832573994
      ],
      [
        "mıs",
        -6.710114346512351
      ],
      [
        "▁odamiz",
        -9.363540036846452
      ],
      [
        "▁los",
        -8.794507608278273
      ],
      [
        "▁benze",
        -9.409287100517902
      ],
      [
        "▁halk",
        -8.746318360611731
      ],
      [
        "▁edeme",
        -9.544313000989302
      ],
      [
        "▁suclama",
        -9.878465380263394
      ],
      [
        "▁soru",
        -8.423923527372274
      ],
      [
        "▁philadelphia",
        -9.28001291495189
      ],
      [
        "▁adım",
        -8.595047796208686
      ],
      [
        "▁istanbul'",
        -9.813054337919443
      ],
      [
        "▁bun",
        -7.028846573070746
      ],
      [
        "▁seni",
        -7.053578087856503
      ],
      [
        "▁turkiye",
        -8.821131648421325
      ],
      [
        "▁birisini",
        -9.720694529423557
      ],
      [
        "▁temiz",
        -6.977018927561457
      ],
      [
        "lanma",
        -8.157361514699256
      ],
      [
        "▁yatırımcı",
        -9.150229646789207
      ],
      [
        "▁ugra",
        -8.602874556196538
      ],
      [
        "▁sizde",
        -9.613044075128913
      ],
      [
        "▁etmis",
        -8.907419701281253
      ],
      [
        "▁kıymetler",
        -8.53169811339971
      ],
      [
        "%1",
        -10.967803638388565
      ],
      [
        "mekte",
        -9.245618230846606
      ],
      [
        "ıl",
        -7.592816088662454
      ],
      [
        "▁kursun",
        -9.649690288426452
      ],
      [
        "▁gibi",
        -4.36209696709702
      ],
      [
        "▁ydu",
        -8.242796498591797
      ],
      [
        "ag",
        -9.544881160949332
      ],
      [
        "ran",
        -7.732733609844733
      ],
      [
        "mıstı",
        -7.717636476291057
      ],
      [
        "▁kalacak",
        -9.68901912747388
      ],
      [
        "▁lira",
        -8.78330835128318
      ],
      [
        "▁gotur",
        -9.006764860388326
      ],
      [
        "▁dc",
        -9.899794542995693
      ],
      [
        "▁yarat",
        -9.283716421615074
      ],
      [
        "▁44",
        -9.186140534000469
      ],
      [
        "emez",
        -8.918185540199227
      ],
      [
        "▁borsası",
        -8.941873347617946
      ],
      [
        "▁bic",
        -9.869997025198597
      ],
      [
        "▁edilmis",
        -9.478236003944195
      ],
      [
        "▁servisi",
        -9.060562646678296
      ],
      [
        "▁arac",
        -9.106878625159624
      ],
      [
        "▁olmasa",
        -9.711716610257337
      ],
      [
        "tti",
        -8.47049517042036
      ],
      [
        "▁girer",
        -9.564762482784012
      ],
      [
        "▁ucuz",
        -7.874505307509717
      ],
      [
        "▁emir",
        -9.592643410838786
      ],
      [
        "▁soyler",
        -9.384621725798194
      ],
      [
        "▁7",
        -9.214875501642393
      ],
      [
        "▁fa",
        -8.906900049197075
      ],
      [
        "▁4",
        -6.935914569979488
      ],
      [
        "▁finans",
        -9.029978976694245
      ],
      [
        "▁yuzunu",
        -9.634731074496935
      ],
      [
        "▁sizin",
        -7.4886096173651
      ],
      [
        "▁dusur",
        -9.077548938662959
      ],
      [
        "▁dusunme",
        -9.141033126020327
      ],
      [
        "▁350",
        -9.62531107349585
      ],
      [
        "▁yonet",
        -9.544470441883156
      ],
      [
        "▁imza",
        -9.260168571009888
      ],
      [
        "▁ici",
        -9.295252486345682
      ],
      [
        "▁dayan",
        -8.640002560281598
      ],
      [
        "▁1992",
        -9.079475517195498
      ],
      [
        "▁%9.",
        -11.600875950498601
      ],
      [
        "▁kal",
        -7.951632083014779
      ],
      [
        "▁%2.",
        -13.027118981959273
      ],
      [
        "▁kez",
        -8.280257124235352
      ],
      [
        "▁ana",
        -8.051063149906504
      ],
      [
        "▁insanlar",
        -8.148819349433044
      ],
      [
        "▁am",
        -8.62719730614678
      ],
      [
        "▁kir",
        -9.172231795358856
      ],
      [
        "▁1.3",
        -8.686349043806366
      ],
      [
        "▁herkesi",
        -8.862982706804999
      ],
      [
        "▁olacagı",
        -9.474684163340589
      ],
      [
        "▁43",
        -8.898012167341692
      ],
      [
        "al",
        -11.50900390930352
      ],
      [
        "▁bizi",
        -7.022754278498933
      ],
      [
        "▁cıkıs",
        -9.498071008904942
      ],
      [
        "▁dusen",
        -9.588180718667758
      ],
      [
        "-4",
        -11.354791702071255
      ],
      [
        "▁bilgi",
        -7.462214622400285
      ],
      [
        "▁francisco'",
        -7.38538541269549
      ],
      [
        "▁belirle",
        -9.382607038461654
      ],
      [
        "▁kazan",
        -8.204855409018599
      ],
      [
        "▁dordu",
        -8.829957619883997
      ],
      [
        "ku",
        -11.295142931456333
      ],
      [
        "▁mo",
        -8.377082828174977
      ],
      [
        "▁gercekles",
        -9.488517613078177
      ],
      [
        "ecek",
        -7.173481796611207
      ],
      [
        "di",
        -9.629472024909338
      ],
      [
        "▁burnu",
        -9.796847282756502
      ],
      [
        "▁katilma",
        -9.441534116952486
      ],
      [
        "▁yaklasimi",
        -9.874182003758166
      ],
      [
        "▁insan",
        -7.43474952312182
      ],
      [
        "▁arkadası",
        -9.491386480291494
      ],
      [
        "▁temmuz",
        -9.255086125674802
      ],
      [
        "500",
        -9.4657306178989
      ],
      [
        "na",
        -8.368796334948598
      ],
      [
        "▁garson",
        -9.8978555920366
      ],
      [
        "fıkı",
        -12.121032786426541
      ],
      [
        "▁400",
        -9.513158611518943
      ],
      [
        "▁zarar",
        -8.791010007049026
      ],
      [
        "▁bugun",
        -7.773253140044549
      ],
      [
        "▁hukumet",
        -8.223341073956716
      ],
      [
        "0",
        -7.311164126873569
      ],
      [
        "abiliyor",
        -9.685850040551351
      ],
      [
        "▁sanatcı",
        -9.821254349500336
      ],
      [
        "ıl",
        -8.387714995321844
      ],
      [
        "▁yapacagı",
        -9.665874563172583
      ],
      [
        "▁arazi",
        -9.927559673580575
      ],
      [
        "▁miydi",
        -8.422154298711042
      ],
      [
        "▁ham",
        -8.570433477964121
      ],
      [
        "▁es",
        -7.60741197208274
      ],
      [
        "10",
        -8.671631989924691
      ],
      [
        "▁sezon",
        -9.66328503127754
      ],
      [
        "▁yu",
        -7.8223920033804815
      ],
      [
        "▁asker",
        -8.960179558229704
      ],
      [
        "▁odedigim",
        -8.77106571963941
      ],
      [
        "▁ru",
        -8.775269578744147
      ],
      [
        "▁bakanlıgı",
        -9.564656521405434
      ],
      [
        "3",
        -6.9170420672065935
      ],
      [
        "0-6",
        -11.809847726313187
      ],
      [
        "▁89-1",
        -12.22749613507643
      ],
      [
        "▁17",
        -7.930073394966318
      ],
      [
        "▁cozum",
        -9.426106689023317
      ],
      [
        "▁kostu",
        -9.894397845894908
      ],
      [
        "▁ogren",
        -8.321502998182062
      ],
      [
        "▁ufak",
        -8.848529693629924
      ],
      [
        "▁kasım",
        -9.185480855480305
      ],
      [
        "▁icki",
        -9.577466233682017
      ],
      [
        "k",
        -8.180812786693188
      ],
      [
        "▁kendimde",
        -9.632540964210538
      ],
      [
        "▁ayrıca",
        -7.864226462882698
      ],
      [
        "▁basta",
        -9.545262691566425
      ],
      [
        "▁fiyatlar",
        -9.088233630673564
      ],
      [
        "▁stok",
        -9.47255134728999
      ],
      [
        "▁seklinde",
        -9.850495094017973
      ],
      [
        "▁saray",
        -9.370796644788772
      ],
      [
        "▁tatil",
        -8.13275527655258
      ],
      [
        "▁naz",
        -9.349281360469675
      ],
      [
        "▁2.7",
        -8.87867738926752
      ],
      [
        "▁dil",
        -8.358391811749737
      ],
      [
        "60",
        -9.56421121851256
      ],
      [
        "▁bur",
        -8.165638143690838
      ],
      [
        "▁olay",
        -8.615048158576991
      ],
      [
        "▁seri",
        -8.757004002707834
      ],
      [
        "▁aracı",
        -9.540914455117921
      ],
      [
        "▁yıl",
        -6.96141510817018
      ],
      [
        "8",
        -8.604452423102636
      ],
      [
        "▁york",
        -8.260330809334352
      ],
      [
        "%",
        -5.612064710322522
      ],
      [
        "▁orada",
        -7.788164888452199
      ],
      [
        "▁masraf",
        -9.68167227263734
      ],
      [
        "cik",
        -8.921699593206476
      ],
      [
        "▁burun",
        -9.759475362055609
      ],
      [
        "▁p",
        -12.931071006350244
      ],
      [
        "▁sahne",
        -9.024670236054263
      ],
      [
        "▁igne",
        -9.873741020242068
      ],
      [
        "gi",
        -6.994324594509247
      ],
      [
        "▁lezzeti",
        -9.528783336427082
      ],
      [
        "61",
        -13.225441943691433
      ],
      [
        "▁yap",
        -7.3809130768217655
      ],
      [
        "daki",
        -7.7022055843250055
      ],
      [
        "ay",
        -8.412872685617039
      ],
      [
        "leyen",
        -8.802170370723436
      ],
      [
        "ans",
        -9.063333249514454
      ],
      [
        "▁kitap",
        -8.373612802686612
      ],
      [
        "▁uzerinde",
        -7.4972773292039445
      ],
      [
        "v",
        -11.12474086345478
      ],
      [
        "▁kesinti",
        -9.643777441068343
      ],
      [
        "4-",
        -13.308189085778404
      ],
      [
        "▁fer",
        -8.86135246381119
      ],
      [
        "▁olursa",
        -8.95081832868394
      ],
      [
        "▁ekledi",
        -9.216237394346155
      ],
      [
        "▁haziran",
        -9.4067446838758
      ],
      [
        "larımı",
        -9.551658991996812
      ],
      [
        "▁sendika",
        -9.557039092684757
      ],
      [
        "▁%3.4",
        -11.443083918441491
      ],
      [
        "▁b",
        -5.969960014838198
      ],
      [
        "▁to",
        -12.751217036694445
      ],
      [
        "degildi",
        -8.151181688592366
      ],
      [
        "▁yetisti",
        -9.719457351423175
      ],
      [
        "lestirme",
        -9.561555464305062
      ],
      [
        "▁2000",
        -9.70435989111514
      ],
      [
        "▁ofke",
        -9.662442063194948
      ],
      [
        "if",
        -8.320450407507984
      ],
      [
        "▁l",
        -8.204460461541336
      ],
      [
        "▁yonetici",
        -8.943926815954768
      ],
      [
        "lastırma",
        -9.700084222025435
      ],
      [
        "▁aklı",
        -8.51251435322138
      ],
      [
        "▁soz",
        -7.7961218616382135
      ],
      [
        "▁cal",
        -8.343034192650116
      ],
      [
        "▁sirket",
        -7.378385332011397
      ],
      [
        "▁yel",
        -9.364721690919714
      ],
      [
        "▁baltimore'de",
        -8.54941092612653
      ],
      [
        "▁temizlik",
        -8.387477879017505
      ],
      [
        "▁balık",
        -9.295587506837895
      ],
      [
        "▁beni",
        -9.404093750351866
      ],
      [
        "▁baslay",
        -9.59251124950066
      ],
      [
        "▁osmanlı",
        -9.684072863671343
      ],
      [
        "lamıs",
        -8.778812729954648
      ],
      [
        "▁200",
        -8.144482062339698
      ],
      [
        "senin",
        -8.862336679571293
      ],
      [
        "▁orman",
        -9.469967951551478
      ],
      [
        "▁sı",
        -13.077029596797782
      ],
      [
        "▁ilac",
        -8.95645993623459
      ],
      [
        "32",
        -8.876639540153516
      ],
      [
        "▁tedbir",
        -9.80553501290812
      ],
      [
        "▁mola",
        -9.636850629990585
      ],
      [
        "ile",
        -4.184914623397628
      ],
      [
        "t",
        -6.307256664581649
      ],
      [
        "iye",
        -6.892607271260933
      ],
      [
        "▁mev",
        -9.227850394137326
      ],
      [
        "▁mana",
        -9.455218696408778
      ],
      [
        "▁sende",
        -9.565810326593109
      ],
      [
        "▁%4",
        -10.363704693096357
      ],
      [
        "▁ok",
        -8.265437979849844
      ],
      [
        "▁2",
        -6.394889887602322
      ],
      [
        "▁v",
        -8.697657994567095
      ],
      [
        "▁yumurta",
        -9.606869014535924
      ],
      [
        "ir",
        -7.694350183988116
      ],
      [
        "%10",
        -13.63797741196559
      ],
      [
        "▁zeytin",
        -9.701275707733014
      ],
      [
        "mayacagını",
        -9.708241912119147
      ],
      [
        "emiyor",
        -9.109793854806359
      ],
      [
        "▁burada",
        -7.918770060234484
      ],
      [
        "▁guleryuzluydu",
        -9.286323329392511
      ],
      [
        "▁1990",
        -8.286578179816033
      ],
      [
        "▁bolumu",
        -9.2868438066447
      ],
      [
        "▁icme",
        -9.343598922386128
      ],
      [
        "▁basım",
        -9.43301472449128
      ],
      [
        "▁satıs",
        -8.284986300785768
      ],
      [
        "▁verdigi",
        -8.82291885238747
      ],
      [
        "oku",
        -11.357596923554134
      ],
      [
        "-1",
        -12.56517605486793
      ],
      [
        "▁benzer",
        -8.651833051624152
      ],
      [
        "lik",
        -6.483570365688331
      ],
      [
        "▁yapılacak",
        -8.900716668737005
      ],
      [
        "▁anlam",
        -8.405855854385607
      ],
      [
        "▁yardım",
        -8.4148968760477
      ],
      [
        "ebilir",
        -7.428256328907694
      ],
      [
        "▁sorunu",
        -9.033023743568608
      ],
      [
        "▁turk",
        -7.728511882274976
      ],
      [
        "▁cıkı",
        -9.478835445952884
      ],
      [
        "▁ruh",
        -8.862058690628576
      ],
      [
        "▁halkı",
        -9.425216983001933
      ],
      [
        "▁kazandı",
        -8.965724253453981
      ],
      [
        "bes",
        -8.256481570860622
      ],
      [
        "a",
        -3.882781026934518
      ],
      [
        "▁musa",
        -9.525910424904282
      ],
      [
        "▁program",
        -8.517729235665131
      ],
      [
        "liydi",
        -8.215657485717394
      ],
      [
        "▁dir",
        -7.302651398842159
      ],
      [
        "▁meyve",
        -9.64357694762634
      ],
      [
        "▁300",
        -8.446205231310003
      ],
      [
        "▁koru",
        -8.700439532367955
      ],
      [
        "▁las",
        -8.630428849450396
      ],
      [
        "▁ilan",
        -9.289202738761684
      ],
      [
        "▁kaldi",
        -7.044949101285203
      ],
      [
        "▁ucuslar",
        -7.138376759710007
      ],
      [
        "▁vergi",
        -8.339807981139629
      ],
      [
        "▁batı",
        -8.609024426064071
      ],
      [
        "▁ediyordu",
        -9.128789525870886
      ],
      [
        "▁per",
        -9.31664410223674
      ],
      [
        "cuk",
        -8.94895956262351
      ],
      [
        "▁arama",
        -9.43246921872236
      ],
      [
        "▁personellerin",
        -9.481813979093655
      ],
      [
        "1989-8",
        -14.177268616744923
      ],
      [
        "▁kapat",
        -8.998941795654417
      ],
      [
        "▁persembe",
        -8.444293426746388
      ],
      [
        "19",
        -11.864564628225486
      ],
      [
        "▁130",
        -9.402318196754825
      ],
      [
        "▁onceki",
        -8.555579001687418
      ],
      [
        "▁iceriyor",
        -9.807380698474198
      ],
      [
        "▁24",
        -8.116338891971235
      ],
      [
        "▁hamle",
        -9.4850098146078
      ],
      [
        "▁oldu",
        -6.801167042509034
      ],
      [
        "ta",
        -7.825751804999858
      ],
      [
        "▁gelecek",
        -8.452772240904034
      ],
      [
        "▁acı",
        -7.604435001503407
      ],
      [
        "▁soyluyor",
        -8.264482407494576
      ],
      [
        "▁daim",
        -9.539267423507583
      ],
      [
        "▁usul",
        -9.629849716896587
      ],
      [
        "▁kalp",
        -9.414752420043026
      ],
      [
        "▁ort",
        -9.324583980457227
      ],
      [
        "▁beklenen",
        -9.898874366002008
      ],
      [
        "▁1.0",
        -9.508508305454084
      ],
      [
        "▁oyuncu",
        -8.966512885675026
      ],
      [
        "pır",
        -10.285936051152301
      ],
      [
        "'da",
        -9.16403921981313
      ],
      [
        "▁mektup",
        -9.537278323335656
      ],
      [
        "tu",
        -6.945024962034392
      ],
      [
        "▁isini",
        -9.749057416885261
      ],
      [
        "▁oda",
        -6.827318493496095
      ],
      [
        "▁kos",
        -8.31338795790058
      ],
      [
        "▁grubu",
        -9.186513615338946
      ],
      [
        "▁devam",
        -7.7669171643148465
      ],
      [
        "meleri",
        -9.521446768078548
      ],
      [
        "▁gelenek",
        -9.785998757429173
      ],
      [
        "▁gorusme",
        -8.777274441178651
      ],
      [
        "▁ozgur",
        -9.400195547303284
      ],
      [
        "▁sıkı",
        -8.70160665796942
      ],
      [
        "▁yakında",
        -9.582664473403767
      ],
      [
        "▁f",
        -7.8536926679417585
      ],
      [
        "▁onlar",
        -6.033271387593335
      ],
      [
        "▁12",
        -7.184300623142984
      ],
      [
        "▁ter",
        -7.771308922344726
      ],
      [
        "▁posta",
        -9.607485848407304
      ],
      [
        "▁1991",
        -8.737957349104708
      ],
      [
        "▁restoran",
        -9.58901164238199
      ],
      [
        "▁olanaklari",
        -9.129024211094729
      ],
      [
        "lo",
        -8.003270353323224
      ],
      [
        "ini",
        -6.770297403916858
      ],
      [
        "▁yonetim",
        -8.45873651183815
      ],
      [
        "▁getiri",
        -8.418042104055711
      ],
      [
        "▁ulus",
        -9.57061221320928
      ],
      [
        "▁bo",
        -7.757576359240884
      ],
      [
        "▁oldugu",
        -9.124071369111872
      ],
      [
        "us",
        -7.383660151917159
      ],
      [
        "▁satıslar",
        -8.695026034487036
      ],
      [
        "u",
        -5.348489171982953
      ],
      [
        "▁dogu",
        -8.304801207226781
      ],
      [
        "▁sistemi",
        -9.342819354940062
      ],
      [
        "▁denver'de",
        -7.725695489484322
      ],
      [
        "▁gelince",
        -9.558278677176986
      ],
      [
        "▁gider",
        -8.386731565862727
      ],
      [
        "▁arı",
        -9.307641275476165
      ],
      [
        "▁international",
        -9.537277235693283
      ],
      [
        "▁gidis",
        -8.147257800947731
      ],
      [
        "▁suc",
        -8.69838105267204
      ],
      [
        "▁beraber",
        -8.35880103338355
      ],
      [
        "▁gordu",
        -8.024611646527566
      ],
      [
        "▁sıcak",
        -8.736822337936452
      ],
      [
        "b",
        -4.751618902518528
      ],
      [
        "▁oyku",
        -9.279437891112675
      ],
      [
        "▁mesele",
        -9.235143527065194
      ],
      [
        "▁ha",
        -7.855820490390555
      ],
      [
        "gini",
        -8.137641850084428
      ],
      [
        "▁mis",
        -8.616742931913802
      ],
      [
        "▁!",
        -9.510406401262049
      ],
      [
        "▁sev",
        -7.841390771695485
      ],
      [
        "▁siparis",
        -9.472215347544708
      ],
      [
        "(",
        -6.128634380103216
      ],
      [
        "8",
        -9.75904513773084
      ],
      [
        "sen",
        -8.793550102835166
      ],
      [
        "'u",
        -9.247240191756605
      ],
      [
        "nın",
        -6.337308552389939
      ],
      [
        "▁mart",
        -9.182613348993968
      ],
      [
        "▁elbet",
        -9.247529470571948
      ],
      [
        "▁kalın",
        -9.39667522303321
      ],
      [
        "malıydı",
        -9.84744769072077
      ],
      [
        "▁sek",
        -9.32727940997091
      ],
      [
        "▁aldıgı",
        -9.144539697205246
      ],
      [
        "▁satma",
        -9.918684152075542
      ],
      [
        "▁yaptıgı",
        -8.715902121622396
      ],
      [
        "▁boz",
        -8.902386131852987
      ],
      [
        "▁inan",
        -8.442947264747797
      ],
      [
        "▁bacak",
        -9.79350154958923
      ],
      [
        "▁duydu",
        -9.262932577659761
      ],
      [
        "▁40",
        -7.973724781961952
      ],
      [
        "▁ag",
        -8.164870990169355
      ],
      [
        "'te",
        -9.34698740237014
      ],
      [
        "6'",
        -9.538621028627944
      ],
      [
        "ni",
        -6.857968644351618
      ],
      [
        "▁asıl",
        -9.00825555823684
      ],
      [
        "▁kendisi",
        -7.037718950108059
      ],
      [
        "▁bastır",
        -9.861613552166855
      ],
      [
        "▁hadi",
        -9.402590035263621
      ],
      [
        "▁al",
        -6.713805819489528
      ],
      [
        "▁oto",
        -9.634758037458395
      ],
      [
        "nin",
        -9.301884204327274
      ],
      [
        "▁bayan",
        -8.821671064238881
      ],
      [
        "▁kay",
        -8.25171127256253
      ],
      [
        "▁yetkilileri",
        -8.932921136772732
      ],
      [
        "▁kendiniz",
        -9.659975854683289
      ],
      [
        "▁curu",
        -9.682538502250594
      ],
      [
        "▁itibar",
        -9.720744470430763
      ],
      [
        "▁sov",
        -9.941180665733338
      ],
      [
        "▁sure",
        -7.523871883224284
      ],
      [
        "let",
        -8.460904285774953
      ],
      [
        "birkac",
        -9.543123612950462
      ],
      [
        "▁1.6",
        -8.971239292048033
      ],
      [
        "'a",
        -7.790828757597828
      ],
      [
        "ulmus",
        -8.664001811977696
      ],
      [
        "▁tuz",
        -8.991067728663129
      ],
      [
        "▁yemis",
        -9.737024902542931
      ],
      [
        "▁a",
        -7.833600143780994
      ],
      [
        "▁topla",
        -8.886949861207563
      ],
      [
        "tur",
        -8.130622006048076
      ],
      [
        "▁konus",
        -9.095959130913485
      ],
      [
        "▁lar",
        -9.208435305133122
      ],
      [
        "▁airlines",
        -8.911330258510297
      ],
      [
        "▁kalitesi",
        -7.870373323819473
      ],
      [
        "han",
        -8.457808318731372
      ],
      [
        "▁gitme",
        -8.561805540938881
      ],
      [
        "▁onda",
        -7.567065664976884
      ],
      [
        "▁rol",
        -9.32253493009968
      ],
      [
        "▁yogun",
        -9.199418033690248
      ],
      [
        "▁verir",
        -8.978525160466871
      ],
      [
        "sizlik",
        -9.067870836454517
      ],
      [
        "lmaz",
        -9.180719443663863
      ],
      [
        "▁golge",
        -9.235959989195603
      ],
      [
        "▁bulus",
        -9.440945763968909
      ],
      [
        "▁neler",
        -8.511358411978613
      ],
      [
        "▁nefes",
        -9.42626568919552
      ],
      [
        "▁bit",
        -8.369653039097201
      ],
      [
        "▁yeterli",
        -8.579436602679303
      ],
      [
        "al",
        -7.0129848692345025
      ],
      [
        "leyici",
        -9.17725780250159
      ],
      [
        "▁uzerindeki",
        -9.37177324689441
      ],
      [
        "▁sabah",
        -7.475867209501227
      ],
      [
        "▁ise",
        -6.5821085192563835
      ],
      [
        "ci",
        -6.671020570236158
      ],
      [
        "'ın",
        -7.3547460505853115
      ],
      [
        "▁kardesi",
        -9.176752825443604
      ],
      [
        "▁dizi",
        -9.26470750318023
      ],
      [
        "▁ek",
        -7.9458786915230935
      ],
      [
        "▁ustun",
        -8.340817167866371
      ],
      [
        "▁yuksel",
        -7.941298072809317
      ],
      [
        "▁konustu",
        -8.958222571632907
      ],
      [
        "▁operasyon",
        -9.285968106990943
      ],
      [
        "ila",
        -9.418211542129413
      ],
      [
        "#",
        -10.35952679083899
      ],
      [
        "▁dar",
        -8.548805104061678
      ],
      [
        "bur",
        -8.936997762491366
      ],
      [
        "▁milwaukee'",
        -9.308364528652957
      ],
      [
        "▁yaban",
        -9.803704912528282
      ],
      [
        "▁uyar",
        -9.086571401415334
      ],
      [
        "i",
        -4.7180258668686
      ],
      [
        "▁boyu",
        -9.666309223597143
      ],
      [
        "▁ta",
        -7.040978547830226
      ],
      [
        "▁fena",
        -8.888153707871714
      ],
      [
        "s",
        -6.621907703193311
      ],
      [
        "▁ni",
        -8.292132732159178
      ],
      [
        "▁doner",
        -9.794964752617686
      ],
      [
        "▁bardagı",
        -9.874771085948447
      ],
      [
        "▁kadınlar",
        -8.858837499528935
      ],
      [
        "▁sol",
        -8.415450421587604
      ],
      [
        "▁lake",
        -8.901072374212006
      ],
      [
        "▁elektrik",
        -9.198413518486081
      ],
      [
        "▁lev",
        -9.790569276175903
      ],
      [
        "ına",
        -6.789832208832737
      ],
      [
        "▁israil",
        -9.805556238463774
      ],
      [
        "gında",
        -8.752684464541293
      ],
      [
        "▁suphe",
        -9.353561093159783
      ],
      [
        "▁kamyon",
        -9.643613079029965
      ],
      [
        "e",
        -4.34009841504434
      ],
      [
        "'in",
        -6.955273848296498
      ],
      [
        "2",
        -9.343103933683576
      ],
      [
        "▁tı",
        -6.478728049308052
      ],
      [
        "▁ka",
        -7.0394861384462875
      ],
      [
        "▁kurum",
        -8.795907517929678
      ],
      [
        "▁yar",
        -9.417808307064544
      ],
      [
        "▁38",
        -9.239513639875167
      ],
      [
        "▁kesinlik",
        -8.645432708940522
      ],
      [
        "▁bul",
        -7.575700402682138
      ],
      [
        "▁sultan",
        -9.873844106165574
      ],
      [
        "or",
        -11.285911387029632
      ],
      [
        "▁27",
        -7.710104612445034
      ],
      [
        "▁federal",
        -8.775146911961532
      ],
      [
        "▁geri",
        -7.491589438067955
      ],
      [
        "▁tarihinde",
        -9.661907143676558
      ],
      [
        "▁kat",
        -7.6549025140239895
      ],
      [
        "▁etraf",
        -9.084282524962287
      ],
      [
        "▁konusunda",
        -8.153593479893706
      ],
      [
        "▁cerceve",
        -9.827755231342692
      ],
      [
        "dugu",
        -8.45954055665963
      ],
      [
        "▁kriz",
        -9.353704203745174
      ],
      [
        "▁dede",
        -9.579750269610921
      ],
      [
        "▁etrafında",
        -9.764551055659235
      ],
      [
        "▁ustunde",
        -8.445880248513777
      ],
      [
        "▁istedi",
        -8.782288647385682
      ],
      [
        "▁yemekler",
        -7.733305670827238
      ],
      [
        "ebilecek",
        -9.591585320086462
      ],
      [
        "▁ola",
        -6.380018922623658
      ],
      [
        "ley",
        -8.289482455828967
      ],
      [
        "▁perakende",
        -9.606868862994517
      ],
      [
        "▁rakı",
        -9.788217958298379
      ],
      [
        "▁49",
        -9.026902738767859
      ],
      [
        "▁aldı",
        -7.641145762489193
      ],
      [
        "▁iletisim",
        -9.805542171902413
      ],
      [
        "▁gorme",
        -8.846902374372146
      ],
      [
        "▁sohbet",
        -9.805533009087016
      ],
      [
        "▁vardır",
        -8.547510065804191
      ],
      [
        "▁yasında",
        -8.588453649365125
      ],
      [
        "da",
        -5.39390264925453
      ],
      [
        "▁yemeklerinde",
        -9.60690170437325
      ],
      [
        "▁senedi",
        -8.420969091255706
      ],
      [
        "▁inceleme",
        -9.736538504459816
      ],
      [
        "▁seattle'",
        -9.023103465152504
      ],
      [
        "▁isler",
        -9.295780364858913
      ],
      [
        "▁mezar",
        -9.589104511377666
      ],
      [
        "dı",
        -8.385939154810046
      ],
      [
        "▁roman",
        -8.796310476530703
      ],
      [
        "cı",
        -11.34265800487346
      ],
      [
        "▁tesis",
        -7.304298948699808
      ],
      [
        "nca",
        -7.4873843889171265
      ],
      [
        "▁47",
        -9.61058556895992
      ],
      [
        "▁cakı",
        -9.638604689673322
      ],
      [
        "▁kalma",
        -8.417689083765408
      ],
      [
        "nizi",
        -9.42186661971936
      ],
      [
        "▁ederi",
        -7.705729927883233
      ],
      [
        "▁satıl",
        -9.292978203988014
      ],
      [
        "▁listeley",
        -7.98154815179228
      ],
      [
        "▁anlat",
        -8.272097297039227
      ],
      [
        "▁150",
        -8.858990735961797
      ],
      [
        "sız",
        -7.224419997636255
      ],
      [
        "▁edildi",
        -8.79093319875535
      ],
      [
        "▁etkisi",
        -9.587435909451585
      ],
      [
        "▁kaya",
        -9.08509937476154
      ],
      [
        "▁dolara",
        -8.561536231892138
      ],
      [
        "7",
        -9.393360759411731
      ],
      [
        "▁vardi",
        -8.10597749684517
      ],
      [
        "▁degis",
        -8.6130916847275
      ],
      [
        "▁hangisi",
        -7.842202844556418
      ],
      [
        "p",
        -5.474414383137878
      ],
      [
        "mamıs",
        -9.046574137883571
      ],
      [
        "▁st",
        -7.61138685974235
      ],
      [
        "hane",
        -8.306119784970171
      ],
      [
        "▁tesvik",
        -9.643570154341482
      ],
      [
        "▁yen'",
        -9.680486774340428
      ],
      [
        "▁alım",
        -8.188870091243746
      ],
      [
        "ıldıgını",
        -9.829085734651247
      ],
      [
        "ge",
        -7.345533937294331
      ],
      [
        "▁cocukları",
        -9.16189188680963
      ],
      [
        "g",
        -6.636533682042966
      ],
      [
        "▁iz",
        -8.10766924320539
      ],
      [
        "▁beraber",
        -9.106927281891192
      ],
      [
        "uz",
        -6.467160306084705
      ],
      [
        "▁ayrı",
        -8.31243187314766
      ],
      [
        "▁kisisel",
        -9.474530773815632
      ],
      [
        "▁sosyal",
        -8.918246767367318
      ],
      [
        "▁kız",
        -7.615697594516653
      ],
      [
        "ebilecegi",
        -9.509065719131563
      ],
      [
        "▁fırsat",
        -9.339773953998057
      ],
      [
        "'de",
        -9.487682717042162
      ],
      [
        "▁pittsburgh",
        -8.834743347726484
      ],
      [
        "▁ataturk",
        -9.557003857833479
      ],
      [
        "▁toplam",
        -8.713591460912568
      ],
      [
        "▁onları",
        -6.252431044542778
      ],
      [
        "mısını",
        -9.042412961741162
      ],
      [
        "▁sesi",
        -9.119940064653967
      ],
      [
        "▁elinde",
        -8.234616776314255
      ],
      [
        "▁teklifi",
        -9.198830460208859
      ],
      [
        "▁yakın",
        -8.046105017961292
      ],
      [
        "▁cig",
        -9.60042815896055
      ],
      [
        "mi",
        -8.269716776373524
      ],
      [
        "▁lazım",
        -9.096061030367224
      ],
      [
        "bunu",
        -9.672897037845939
      ],
      [
        "'",
        -7.18621962003384
      ],
      [
        "▁yavru",
        -9.681669748481376
      ],
      [
        "ligin",
        -8.759452887712934
      ],
      [
        "▁tabi",
        -8.874998617858447
      ],
      [
        "▁indirim",
        -9.672342322911224
      ],
      [
        "▁62",
        -9.493396921642924
      ],
      [
        "▁bakıyor",
        -9.285357142334826
      ],
      [
        "3.5",
        -9.478301416158967
      ],
      [
        "▁anda",
        -8.20293932134174
      ],
      [
        "▁tarla",
        -9.329720850708576
      ],
      [
        "degil",
        -8.602188547895151
      ],
      [
        "▁ozel",
        -8.186500531706542
      ],
      [
        "▁taksi",
        -9.547075464856736
      ],
      [
        "larından",
        -7.990028012935645
      ],
      [
        "▁acıldı",
        -9.481269269931289
      ],
      [
        "▁gun",
        -6.775725017676719
      ],
      [
        "▁meger",
        -9.113731181418167
      ],
      [
        "an'ın",
        -9.34888920956653
      ],
      [
        "▁turku",
        -9.58014597567732
      ],
      [
        ":00",
        -11.867128241260916
      ],
      [
        "▁tabak",
        -9.874082518069827
      ],
      [
        "da",
        -5.604304682747238
      ],
      [
        "ch",
        -7.91914995566932
      ],
      [
        "▁cocuklu",
        -8.232848463452779
      ],
      [
        "kı",
        -11.75119610731039
      ],
      [
        "h",
        -6.28455317498906
      ],
      [
        "▁seviyesinde",
        -9.433355586558147
      ],
      [
        "▁birbirlerini",
        -8.697935612590925
      ],
      [
        "▁ve",
        -8.22454845033112
      ],
      [
        "di",
        -8.50115909711413
      ],
      [
        "▁araba",
        -8.022995583233863
      ],
      [
        "▁2.4",
        -9.51132940065262
      ],
      [
        "▁esya",
        -9.110421204306768
      ],
      [
        ".",
        -9.216358711206778
      ],
      [
        "▁hayal",
        -8.650794325249107
      ],
      [
        "▁dort",
        -6.461747336534862
      ],
      [
        "▁yapmıs",
        -9.563774456569515
      ],
      [
        "▁parca",
        -8.352390617067833
      ],
      [
        "▁dusundu",
        -9.162203334202655
      ],
      [
        "▁carp",
        -9.155739374925366
      ],
      [
        "ti",
        -6.147019618394737
      ],
      [
        "▁pahali",
        -8.744530098194137
      ],
      [
        "▁amerikan",
        -7.695337787897906
      ],
      [
        "▁belki",
        -8.26584655745798
      ],
      [
        "▁etki",
        -8.323570310069286
      ],
      [
        "▁istiyor",
        -8.393024316538071
      ],
      [
        "▁umit",
        -9.923417345952897
      ],
      [
        "▁vermis",
        -9.146104576460658
      ],
      [
        "▁a.",
        -9.346648460970535
      ],
      [
        "▁oldugunu",
        -8.734847030904774
      ],
      [
        "cur",
        -11.810415588524076
      ],
      [
        "▁strateji",
        -9.27298044503739
      ],
      [
        "errill",
        -9.923218357429972
      ],
      [
        "▁attı",
        -8.759317236217075
      ],
      [
        "lay",
        -7.911680755781244
      ],
      [
        "▁teknoloji",
        -9.117922671096878
      ],
      [
        "mesi",
        -7.996286468815175
      ],
      [
        "▁arkadaslar",
        -9.437717865336083
      ],
      [
        "h",
        -12.699415987488301
      ],
      [
        "▁altın",
        -8.171740913888097
      ],
      [
        "▁hayatın",
        -9.221624267853446
      ],
      [
        "lerimiz",
        -9.310410320483001
      ],
      [
        "ik",
        -7.365898926055057
      ],
      [
        "▁met",
        -9.04108061443829
      ],
      [
        "▁dıs",
        -8.899841045991028
      ],
      [
        "▁kucu",
        -9.393878700191586
      ],
      [
        "leri",
        -8.082956769162834
      ],
      [
        "▁gelmedi",
        -9.693994871723568
      ],
      [
        "▁pis",
        -8.526063081680249
      ],
      [
        "▁er",
        -7.711055438241034
      ],
      [
        "ku",
        -7.404675337709749
      ],
      [
        "ine",
        -6.961091193172908
      ],
      [
        "iz",
        -7.423531956578175
      ],
      [
        "▁ilgi",
        -8.297227697354101
      ],
      [
        "▁koca",
        -8.427908643773
      ],
      [
        "▁buyume",
        -9.153896459243967
      ],
      [
        "▁olur",
        -7.831528637037798
      ],
      [
        "▁ustu",
        -8.957153922530765
      ],
      [
        "▁imkanlari",
        -9.118107656372281
      ],
      [
        "▁ceyrek",
        -9.03019504418868
      ],
      [
        "sun",
        -7.4862168412305214
      ],
      [
        "▁sebep",
        -9.085314867192245
      ],
      [
        "a",
        -4.0160794371592585
      ],
      [
        "ye",
        -8.241620446734027
      ],
      [
        "▁surat",
        -9.752089868538285
      ],
      [
        "▁d",
        -8.063555699702881
      ],
      [
        "▁7\\/",
        -8.72073896077232
      ],
      [
        "▁yatırımcılar",
        -8.678011983001205
      ],
      [
        "▁fiyati",
        -9.195402717711701
      ],
      [
        "nc",
        -8.861003512036103
      ],
      [
        "▁ornek",
        -9.2603243934755
      ],
      [
        "▁indianapolis'te",
        -9.506931618584375
      ],
      [
        "▁kurulu",
        -8.16807012216599
      ],
      [
        "▁goturdu",
        -9.776763444204459
      ],
      [
        "▁olsa",
        -8.341393113880056
      ],
      [
        "▁mulk",
        -9.522855099514986
      ],
      [
        "▁onsekiz",
        -9.701498442636145
      ],
      [
        "▁duyma",
        -9.84062555304196
      ],
      [
        "▁yemegi",
        -9.043838112292221
      ],
      [
        "▁%5.",
        -13.23714746142396
      ],
      [
        "▁for",
        -9.45104720170286
      ],
      [
        "▁genel",
        -7.182368089844288
      ],
      [
        "▁uyu",
        -8.654281321381694
      ],
      [
        "▁10000",
        -9.57507675825101
      ],
      [
        "▁ucuncu",
        -9.64360305457842
      ],
      [
        "▁amca",
        -9.791571769876482
      ],
      [
        "▁varsa",
        -9.237823455022518
      ],
      [
        "malı",
        -8.6571758920209
      ],
      [
        "▁tutar",
        -9.274995740867196
      ],
      [
        "▁yargı",
        -9.373615531980963
      ],
      [
        "▁havuzu",
        -8.35754737847261
      ],
      [
        "▁donme",
        -9.555437637584113
      ],
      [
        "▁d",
        -6.165377115707738
      ],
      [
        "▁bırakı",
        -9.331060202309818
      ],
      [
        "▁yalnız",
        -7.695007277182477
      ],
      [
        "▁vatandas",
        -9.80603155539233
      ],
      [
        "▁arttı",
        -8.946888952902082
      ],
      [
        "▁hizmet",
        -6.8667251886563925
      ],
      [
        "▁tutma",
        -9.410953863471837
      ],
      [
        "meli",
        -8.691313475915864
      ],
      [
        "▁gunes",
        -8.481867040667385
      ],
      [
        "▁girme",
        -9.062719136571985
      ],
      [
        "▁catı",
        -9.831972646781937
      ],
      [
        "▁doldur",
        -8.692930138028817
      ],
      [
        "▁edebilir",
        -9.574829856299083
      ],
      [
        "▁gorustu",
        -9.62920071410168
      ],
      [
        "▁am",
        -8.351838422124183
      ],
      [
        "▁goz",
        -7.504298648327473
      ],
      [
        "▁sap",
        -8.671124779848451
      ],
      [
        "▁yerin",
        -8.420931670712411
      ],
      [
        "▁damak",
        -9.691862476272116
      ],
      [
        "▁yarım",
        -9.203308097160026
      ],
      [
        "▁secim",
        -8.668288883023028
      ],
      [
        "▁birisi",
        -7.911313708072835
      ],
      [
        "▁hasar",
        -9.576162872873063
      ],
      [
        "▁ofis",
        -9.09614249584351
      ],
      [
        "yu",
        -7.853033089055578
      ],
      [
        "▁kızı",
        -8.385740695734391
      ],
      [
        "▁gonder",
        -8.960826639427896
      ],
      [
        "▁istasyon",
        -9.897584525431423
      ],
      [
        "▁musun",
        -8.285459285682773
      ],
      [
        "ken",
        -7.2516443925503875
      ],
      [
        "▁yuru",
        -8.26962531226005
      ],
      [
        "▁far",
        -9.583882714285949
      ],
      [
        "mayacagı",
        -9.431770675963485
      ],
      [
        "▁tv",
        -9.652735066119657
      ],
      [
        "▁ho",
        -8.396877419325644
      ],
      [
        "▁yaptı",
        -8.04343072860232
      ],
      [
        "fı",
        -12.849601984454036
      ],
      [
        "▁sin",
        -8.914369183033312
      ],
      [
        "▁kayıp",
        -9.226205725816051
      ],
      [
        "▁begendi",
        -8.583107062624553
      ],
      [
        "li",
        -8.963794952668183
      ],
      [
        "▁2-",
        -12.96331608058175
      ],
      [
        "▁konum",
        -8.521437551428445
      ],
      [
        "▁gelmis",
        -8.834015998354513
      ],
      [
        "benim",
        -9.504691513740548
      ],
      [
        "▁kurul",
        -8.905559985505477
      ],
      [
        "▁tav",
        -9.536931673839018
      ],
      [
        "▁bagır",
        -9.011015852511203
      ],
      [
        "ap",
        -10.192721962100757
      ],
      [
        "o",
        -4.4249591214071105
      ],
      [
        "▁olmasi",
        -8.873741082383937
      ],
      [
        "▁dususle",
        -9.604126184667777
      ],
      [
        "▁milyon",
        -5.185931877072128
      ],
      [
        "ist",
        -8.493387358005808
      ],
      [
        "▁garanti",
        -9.58901685424005
      ],
      [
        "▁ne",
        -6.2432074699662765
      ],
      [
        "▁kahvalti",
        -9.10692136826535
      ],
      [
        "▁0.3",
        -9.730163952983364
      ],
      [
        "▁test",
        -9.156252237311653
      ],
      [
        "zi",
        -8.208036986252152
      ],
      [
        "▁yanı",
        -8.50489858587119
      ],
      [
        "ndan",
        -7.9695746437713995
      ],
      [
        "▁carsamba",
        -7.965526360583195
      ],
      [
        "▁avrupa",
        -8.684758527404552
      ],
      [
        "▁meydan",
        -8.95515102641152
      ],
      [
        "▁oldugun",
        -9.233028249942823
      ],
      [
        "rak",
        -8.507866813517674
      ],
      [
        "▁jo",
        -9.61171300025979
      ],
      [
        "▁kalite",
        -8.357724325812594
      ],
      [
        "▁20.",
        -9.359450144603569
      ],
      [
        "▁defter",
        -9.537282400445882
      ],
      [
        "▁des",
        -9.7141126053448
      ],
      [
        "▁hap",
        -9.203349003359474
      ],
      [
        "▁burbank'",
        -9.850482391739074
      ],
      [
        "▁ask",
        -9.309955959627597
      ],
      [
        "▁manzara",
        -9.235002295111173
      ],
      [
        "▁fayda",
        -9.106968034315145
      ],
      [
        "▁bakar",
        -9.781050782641664
      ],
      [
        "▁olsun",
        -8.290559983538017
      ],
      [
        "▁istanbul'da",
        -9.652646455462369
      ],
      [
        "▁kese",
        -9.736010785200172
      ],
      [
        "niz",
        -8.207416305249547
      ],
      [
        "▁doları'n",
        -9.303878000686755
      ],
      [
        "▁haric",
        -9.67598489736719
      ],
      [
        "▁ve",
        -2.9561960527091937
      ],
      [
        "▁ata",
        -8.737961819521402
      ],
      [
        "▁seyahat",
        -9.053722260293124
      ],
      [
        "ra",
        -5.994280594177726
      ],
      [
        "▁konu",
        -7.8399904739307065
      ],
      [
        "▁yil",
        -9.719256891949518
      ],
      [
        "▁tahmin",
        -8.174678132467914
      ],
      [
        "▁verecek",
        -9.629140104509595
      ],
      [
        "▁sus",
        -8.635656679184898
      ],
      [
        "▁fark",
        -8.7011388217084
      ],
      [
        "▁sonuc",
        -8.394707707610692
      ],
      [
        "▁aile",
        -7.7113472200892685
      ],
      [
        "▁hemen",
        -7.835487817301122
      ],
      [
        "▁yuzd",
        -7.43297417020483
      ],
      [
        "▁emin",
        -9.147249346876208
      ],
      [
        "m",
        -9.715460917580963
      ],
      [
        "▁h",
        -11.551346784897675
      ],
      [
        "lu",
        -13.781437440394566
      ],
      [
        "▁birin",
        -9.181865945293579
      ],
      [
        "▁kelime",
        -8.775483650262114
      ],
      [
        "yle",
        -8.001576640012933
      ],
      [
        "▁zi",
        -8.843721243824106
      ],
      [
        "▁hamam",
        -9.39795088789963
      ],
      [
        "▁araya",
        -9.305544375630882
      ],
      [
        "▁vade",
        -9.100111203949218
      ],
      [
        "▁bunlar",
        -6.623126046805661
      ],
      [
        "▁denk",
        -9.730162792437195
      ],
      [
        "▁1980",
        -9.541001181325427
      ],
      [
        "▁vakti",
        -9.396719815598193
      ],
      [
        "sıyla",
        -8.655109323276587
      ],
      [
        "▁egili",
        -9.557993754923071
      ],
      [
        "▁%11",
        -11.430310812463777
      ],
      [
        "▁bekleniyor",
        -9.301145561571756
      ],
      [
        "den",
        -8.05560578784303
      ],
      [
        "▁baslar",
        -9.381504381417287
      ],
      [
        "▁tampa'",
        -9.606878131908905
      ],
      [
        "▁uygula",
        -9.465508774201654
      ],
      [
        "▁yaz",
        -7.713235021453993
      ],
      [
        "▁zincir",
        -9.625052861498833
      ],
      [
        "▁komite",
        -9.662440684556739
      ],
      [
        "▁iki",
        -4.84812175613624
      ],
      [
        "▁paul'",
        -9.922140290706277
      ],
      [
        "▁prens",
        -9.663528743551531
      ],
      [
        "▁oysa",
        -8.598002639171483
      ],
      [
        "▁piyasa",
        -7.486292197812665
      ],
      [
        "▁ko",
        -7.449104578521876
      ],
      [
        "▁alacak",
        -9.146173348778962
      ],
      [
        "landı",
        -7.736316922162501
      ],
      [
        "▁gecti",
        -8.168153341379806
      ],
      [
        "os",
        -8.715161685915856
      ],
      [
        "misti",
        -7.848123000385339
      ],
      [
        "ben",
        -8.122680783913847
      ],
      [
        "▁katılım",
        -9.805763543775178
      ],
      [
        "ho",
        -9.373322718181468
      ],
      [
        "▁yaklası",
        -7.845042333818169
      ],
      [
        "▁su",
        -6.908456969426191
      ],
      [
        "▁calısan",
        -8.53364658661918
      ],
      [
        "▁yorgun",
        -9.325983494945232
      ],
      [
        "▁ogret",
        -9.606806799056907
      ],
      [
        "deki",
        -8.159354284516361
      ],
      [
        "▁bol",
        -8.659778829696618
      ],
      [
        "▁gelisi",
        -9.48199411878009
      ],
      [
        "▁guclu",
        -8.615319163489094
      ],
      [
        "▁cevir",
        -8.663983996078187
      ],
      [
        "vet",
        -9.586227756356834
      ],
      [
        "ve",
        -5.892970926178803
      ],
      [
        "icin",
        -7.2082679688354006
      ],
      [
        "isinda",
        -9.027387132627288
      ],
      [
        "%6",
        -11.974395327795518
      ],
      [
        "▁tekne",
        -9.527982572842262
      ],
      [
        "▁kıyı",
        -9.175380726074948
      ],
      [
        "ff",
        -9.313864607431142
      ],
      [
        "▁dagıt",
        -8.967339177722355
      ],
      [
        "▁oldugum",
        -9.376119671988727
      ],
      [
        "▁hizmette",
        -9.914182209709342
      ],
      [
        "▁alıyor",
        -9.066356820808736
      ],
      [
        "uz",
        -8.872095029722393
      ],
      [
        "▁ara",
        -7.36500669311084
      ],
      [
        "▁dallas",
        -8.543621112792469
      ],
      [
        "▁kotu",
        -7.904677003430491
      ],
      [
        "▁bilinc",
        -9.723087339942415
      ],
      [
        "▁saat",
        -7.228944779513362
      ],
      [
        "▁ucmak",
        -8.672860764704229
      ],
      [
        "▁diger",
        -7.438164057065226
      ],
      [
        "▁bekle",
        -8.142429476172495
      ],
      [
        "▁ol",
        -5.815072017605014
      ],
      [
        "▁sh",
        -9.211448091064455
      ],
      [
        "▁bulut",
        -9.726192348122936
      ],
      [
        "▁korkunc",
        -9.851236568189025
      ],
      [
        "ar",
        -6.546141619663375
      ],
      [
        "▁cizgi",
        -9.412355034095427
      ],
      [
        "▁yurt",
        -9.117906228261582
      ],
      [
        "▁bahar",
        -9.783854198829275
      ],
      [
        "▁yavas",
        -8.24107390291609
      ],
      [
        "▁esi",
        -8.746705064927983
      ],
      [
        "▁bitir",
        -9.107660513046941
      ],
      [
        "▁kayıt",
        -9.441435528801206
      ],
      [
        "cu",
        -8.943905749479217
      ],
      [
        "n",
        -9.623076971272127
      ],
      [
        "▁sınıf",
        -8.39914720988987
      ],
      [
        "▁continental",
        -9.0434085560732
      ],
      [
        "▁otuz",
        -7.885014889810018
      ],
      [
        "▁perde",
        -9.225968902067548
      ],
      [
        "▁soyu",
        -9.895751968604568
      ],
      [
        "▁birileri",
        -9.482485129175965
      ],
      [
        "olar",
        -7.153116283606411
      ],
      [
        "▁istanbul",
        -9.303940825471502
      ],
      [
        "▁teknik",
        -9.571873948501526
      ],
      [
        "▁an",
        -7.349697230620575
      ],
      [
        "'ı",
        -8.883924867073162
      ],
      [
        "▁kanun",
        -8.937032383106835
      ],
      [
        "▁surec",
        -8.971151405245916
      ],
      [
        "▁ual",
        -9.721741189895525
      ],
      [
        "erek",
        -6.875524530808318
      ],
      [
        "▁sikinti",
        -9.222657196429006
      ],
      [
        "ıp",
        -7.2742003880055535
      ],
      [
        "ıyorlar",
        -8.868011892160618
      ],
      [
        "▁sigorta",
        -8.663921273229818
      ],
      [
        "t",
        -8.962720578188764
      ],
      [
        "▁baslat",
        -9.878798072590538
      ],
      [
        "▁kendim",
        -8.054983220327934
      ],
      [
        "ebilecegini",
        -9.698079026102175
      ],
      [
        "▁ala",
        -8.640586208908413
      ],
      [
        "to",
        -8.279992367275327
      ],
      [
        "▁japon",
        -8.641859502009371
      ],
      [
        "▁belir",
        -8.96898758828789
      ],
      [
        "ının",
        -7.511108721156491
      ],
      [
        "▁yuk",
        -8.814329514414323
      ],
      [
        "▁asama",
        -9.852035716276127
      ],
      [
        "▁yiyecekler",
        -9.31602867321268
      ],
      [
        "siniz",
        -8.3561252313234
      ],
      [
        "▁sayı",
        -8.191815144122277
      ],
      [
        "▁hepimiz",
        -8.170111195120999
      ],
      [
        "▁guc",
        -8.255113925898229
      ],
      [
        "▁oldugunda",
        -9.82632923847465
      ],
      [
        "▁iri",
        -9.573171419173605
      ],
      [
        "▁ma",
        -7.233198400196358
      ],
      [
        "meyi",
        -8.58203407665128
      ],
      [
        "▁guney",
        -9.078880037566947
      ],
      [
        "▁31",
        -7.811440546527198
      ],
      [
        "yedi",
        -8.957221228301936
      ],
      [
        "▁mor",
        -8.915628936790837
      ],
      [
        "fa",
        -8.217007859845864
      ],
      [
        "▁hulya",
        -9.87388622716131
      ],
      [
        "▁ithalat",
        -9.741684922331197
      ],
      [
        "▁toren",
        -9.834235213904783
      ],
      [
        "▁yemek",
        -7.8366504589594275
      ],
      [
        "yon",
        -8.70954671904753
      ],
      [
        "▁89",
        -9.66064125857968
      ],
      [
        "▁ra",
        -8.053191411831143
      ],
      [
        "▁giriste",
        -9.726619358696338
      ],
      [
        "▁ymıs",
        -9.626106262333563
      ],
      [
        "▁kansas",
        -8.936532958255324
      ],
      [
        "▁pazar",
        -7.836911768575396
      ],
      [
        "so",
        -8.824376372642286
      ],
      [
        "▁deme",
        -9.365739132639629
      ],
      [
        "▁9",
        -8.11153621398303
      ],
      [
        "▁detay",
        -9.721354766796079
      ],
      [
        "▁karsılık",
        -9.32908148425348
      ],
      [
        "▁zorlu",
        -9.532250868081988
      ],
      [
        "sinin",
        -7.871083115980154
      ],
      [
        "▁merak",
        -8.975483288384803
      ],
      [
        "ter",
        -8.355553382009322
      ],
      [
        "▁ates",
        -8.490636100668112
      ],
      [
        "▁ikisini",
        -9.709257845093296
      ],
      [
        "▁oturu",
        -9.140911036925347
      ],
      [
        "▁eli",
        -8.64622060611577
      ],
      [
        "▁1.7",
        -8.760341410648229
      ],
      [
        "tefe",
        -10.98931158454865
      ],
      [
        "▁city'",
        -8.888857719236395
      ],
      [
        "ulur",
        -9.741514147526265
      ],
      [
        "▁zamanlar",
        -9.245296436527727
      ],
      [
        "▁oburu",
        -9.457000074137701
      ],
      [
        "lendi",
        -8.198189590052912
      ],
      [
        "▁calisanlari",
        -9.811442890001226
      ],
      [
        "▁evde",
        -8.869529297188187
      ],
      [
        "▁hasta",
        -8.607328354018001
      ],
      [
        "▁telefonla",
        -9.41182571381123
      ],
      [
        "▁ona",
        -6.162494931553238
      ],
      [
        "▁tutun",
        -9.405979937786046
      ],
      [
        "▁kok",
        -8.959710086676633
      ],
      [
        "▁baltimore",
        -9.453896005508657
      ],
      [
        "gen",
        -8.703204219276314
      ],
      [
        "▁gelecekte",
        -9.838156679551439
      ],
      [
        "▁evvel",
        -9.701801514736013
      ],
      [
        "▁idi",
        -9.279724974868017
      ],
      [
        "▁so",
        -8.16605915334064
      ],
      [
        "▁1.4",
        -8.80854670130023
      ],
      [
        "▁cep",
        -9.527323992844288
      ],
      [
        "▁%8.",
        -13.38161600072496
      ],
      [
        "▁gelecegi",
        -9.717601044634494
      ],
      [
        "siniz",
        -8.521756178789774
      ],
      [
        "▁cogunu",
        -8.76036576942584
      ],
      [
        "▁hic",
        -9.677431314152003
      ],
      [
        "▁gercekte",
        -8.569900678008958
      ],
      [
        "▁dusunmuyor",
        -9.607525540965955
      ],
      [
        "▁takı",
        -9.759185156766142
      ],
      [
        "▁saka",
        -9.310823467918407
      ],
      [
        "▁belirtti",
        -9.156595510007552
      ],
      [
        "▁ankara",
        -9.16323926100412
      ],
      [
        "onlar",
        -9.411444122687692
      ],
      [
        "▁cık",
        -8.268994274767113
      ],
      [
        "▁donemde",
        -9.468864645351044
      ],
      [
        "un",
        -6.367823876770296
      ],
      [
        "▁hisseleri",
        -8.66845443867452
      ],
      [
        "lu",
        -6.38707145165585
      ],
      [
        "▁cumle",
        -9.520821962544662
      ],
      [
        "in",
        -9.31817253420266
      ],
      [
        "aj",
        -8.983045040414858
      ],
      [
        "▁vurgu",
        -9.59111464800371
      ],
      [
        "ucu",
        -9.522373099117019
      ],
      [
        "▁mısır",
        -9.70141502787359
      ],
      [
        ";",
        -5.880553062631291
      ],
      [
        "▁uzerine",
        -8.034442847111976
      ],
      [
        "▁konak",
        -9.474216347798247
      ],
      [
        "▁yesil",
        -8.848504735915256
      ],
      [
        "▁ford",
        -9.879120759571935
      ],
      [
        "▁pesinde",
        -9.906608698058907
      ],
      [
        "▁peynir",
        -9.367644820877384
      ],
      [
        "▁birlikte",
        -8.53978008109738
      ],
      [
        "▁kadının",
        -9.661666674239978
      ],
      [
        "-199",
        -12.825449727997478
      ],
      [
        "ucu",
        -8.37037521319038
      ],
      [
        "▁veriyoru",
        -8.273166441701859
      ],
      [
        "▁hale",
        -8.351613114130021
      ],
      [
        "▁kalkı",
        -9.402503364372018
      ],
      [
        "▁61",
        -9.652728695045726
      ],
      [
        "▁ozellikle",
        -8.143868757945008
      ],
      [
        "▁olabilir",
        -7.648818519600991
      ],
      [
        "▁yanında",
        -8.57235435978041
      ],
      [
        "▁hazine",
        -8.80747972043413
      ],
      [
        "▁temsilci",
        -9.53477263973522
      ],
      [
        "▁kalabalık",
        -9.662438033163372
      ],
      [
        "▁1",
        -5.813826883250212
      ],
      [
        "▁yasıyor",
        -9.407937625929204
      ],
      [
        "▁alan",
        -7.853189429621455
      ],
      [
        "▁edilen",
        -8.56085855666207
      ],
      [
        "▁aradi",
        -8.740246179361835
      ],
      [
        "▁oyle",
        -7.879420935545019
      ],
      [
        "▁.",
        -7.588598483541113
      ],
      [
        "▁zaman",
        -6.87734921626849
      ],
      [
        "dir",
        -7.578919477114084
      ],
      [
        "▁ker",
        -9.408524136075851
      ],
      [
        "▁konumu",
        -7.418244903004192
      ],
      [
        "▁yapmayı",
        -9.512023894982693
      ],
      [
        "▁gozlem",
        -9.620079635820577
      ],
      [
        "▁sonraki",
        -9.401397874466273
      ],
      [
        "▁gunku",
        -9.326794118446909
      ],
      [
        "▁tarafı",
        -9.616148944776409
      ],
      [
        "▁ayna",
        -9.38790824651294
      ],
      [
        "▁yemekleri",
        -7.785992053377188
      ],
      [
        "▁cıkan",
        -9.119299072294059
      ],
      [
        "▁ders",
        -9.013517857627756
      ],
      [
        "sın",
        -8.044919295447183
      ],
      [
        "ver",
        -7.983146522857149
      ],
      [
        "d",
        -5.077362734358636
      ],
      [
        "▁aktarmalı",
        -9.189959352571236
      ],
      [
        "▁hen",
        -8.36205456089052
      ],
      [
        "▁beni",
        -6.136918772172588
      ],
      [
        "▁banka",
        -8.22863087725518
      ],
      [
        "▁ısık",
        -9.132981307442629
      ],
      [
        "istan",
        -8.969416474519537
      ],
      [
        "4'te",
        -9.688561657049068
      ],
      [
        "▁uluslararası",
        -9.456590081863837
      ],
      [
        "tik",
        -7.876585261670358
      ],
      [
        "▁yildiz",
        -9.411141344012842
      ],
      [
        "▁mimar",
        -9.828094681643353
      ],
      [
        "▁eksik",
        -9.131500790966406
      ],
      [
        "▁bircok",
        -6.16939360399842
      ],
      [
        "▁36",
        -9.558374476628076
      ],
      [
        "▁%7.",
        -11.07559443344391
      ],
      [
        "▁sahiptir",
        -9.832244214551935
      ],
      [
        "▁kaygı",
        -9.90340805937846
      ],
      [
        "2.5",
        -9.05423783593148
      ],
      [
        "▁mukemmeldi",
        -9.338972951493695
      ],
      [
        "▁500",
        -8.369384007022514
      ],
      [
        "▁dost",
        -8.893707026411365
      ],
      [
        "▁dans",
        -9.904430102548712
      ],
      [
        "unu",
        -7.2535019359220785
      ],
      [
        "▁bolum",
        -9.131452302587608
      ],
      [
        "▁beri",
        -9.230233891142024
      ],
      [
        "▁`",
        -10.52550487288217
      ],
      [
        "▁kus",
        -8.330249515904718
      ],
      [
        "1",
        -8.609559587766825
      ],
      [
        "lık",
        -6.402058888079098
      ],
      [
        "lıkta",
        -9.035784432988528
      ],
      [
        "▁dostu",
        -9.489384888375138
      ],
      [
        "milyar",
        -9.22111722009215
      ],
      [
        "[CLS]",
        0.0
      ],
      [
        "▁kırk",
        -7.941980051663087
      ],
      [
        "▁personel",
        -7.41905135581655
      ],
      [
        "▁siz",
        -6.276467912461138
      ],
      [
        "meyecek",
        -9.08643894374838
      ],
      [
        "▁saglık",
        -8.855786171398048
      ],
      [
        "198",
        -13.651276886405913
      ],
      [
        "▁katı",
        -8.937885772163753
      ],
      [
        "eyim",
        -9.433253555681913
      ],
      [
        "or",
        -5.55378119379344
      ],
      [
        "▁21",
        -8.036347926270897
      ],
      [
        "▁kendinizi",
        -9.064126104649338
      ],
      [
        "▁varlıklar",
        -9.606732349719607
      ],
      [
        "2'de",
        -9.921511828037541
      ],
      [
        "ustur",
        -8.57913183690498
      ],
      [
        "▁bunları",
        -6.675178153881778
      ],
      [
        "▁iste",
        -7.453103563293496
      ],
      [
        "▁taraf",
        -8.644903818033038
      ],
      [
        "ko",
        -8.271774102754684
      ],
      [
        "▁basarılı",
        -9.27705615947293
      ],
      [
        "▁erkekler",
        -9.414916844909502
      ],
      [
        "iyorlar",
        -9.004627336749742
      ],
      [
        "ze",
        -7.5863020157264645
      ],
      [
        "l",
        -6.217016596249758
      ],
      [
        "▁kredi",
        -8.227367814183824
      ],
      [
        "gım",
        -9.089912350602601
      ],
      [
        "▁hisse",
        -6.839308677971812
      ],
      [
        "▁sonunda",
        -8.256112290768762
      ],
      [
        "▁etmem",
        -8.819107724318101
      ],
      [
        "▁seyred",
        -9.64404952703428
      ],
      [
        "▁sarı",
        -8.410566010900784
      ],
      [
        "▁olusu",
        -9.891425614496164
      ],
      [
        "malıdır",
        -9.392479578562575
      ],
      [
        "▁ulasılama",
        -9.762656842119853
      ],
      [
        "▁kullanma",
        -9.872205587975383
      ],
      [
        "16",
        -9.486492802379265
      ],
      [
        "▁pas",
        -9.290989183966172
      ],
      [
        "▁80",
        -9.245377230161239
      ],
      [
        "▁yok",
        -6.880206553914906
      ],
      [
        "▁keskin",
        -9.662930976418822
      ],
      [
        "cak",
        -5.694975210288684
      ],
      [
        "▁tacoma'",
        -9.897547729702977
      ],
      [
        "▁uzman",
        -9.107022615792317
      ],
      [
        "amaz",
        -8.493881577327123
      ],
      [
        "▁agır",
        -8.176537637943772
      ],
      [
        "▁89-",
        -13.463494214945312
      ],
      [
        "▁21",
        -11.495656579969074
      ],
      [
        "▁corba",
        -9.472485032436314
      ],
      [
        "ecegini",
        -8.80109566155393
      ],
      [
        "/3",
        -9.631786581367232
      ],
      [
        "▁hava",
        -7.668905527279637
      ],
      [
        "r",
        -4.9774359777699715
      ],
      [
        "ınca",
        -8.328044938778891
      ],
      [
        "▁cogu",
        -7.787547373785652
      ],
      [
        "▁ar",
        -7.795934983906903
      ],
      [
        "▁onumuzde",
        -8.64313858104113
      ],
      [
        "▁hasan",
        -9.836620148175465
      ],
      [
        "▁endustri",
        -9.096036860138025
      ],
      [
        "i",
        -4.740012405433118
      ],
      [
        "▁oakland'",
        -9.010062451976967
      ],
      [
        "▁oden",
        -9.25049482729335
      ],
      [
        "ow",
        -9.463997570859418
      ],
      [
        "[PAD]",
        0.0
      ],
      [
        "▁yardımcısı",
        -9.287574419940885
      ],
      [
        "▁kup",
        -9.317251061427001
      ],
      [
        "▁resmi",
        -9.04351530172958
      ],
      [
        "▁onun",
        -5.488682034044008
      ],
      [
        "▁verdi",
        -7.965840250586235
      ],
      [
        "▁6'da",
        -9.828776318719507
      ],
      [
        "▁degilse",
        -8.67508121348586
      ],
      [
        "pı",
        -10.338625050062623
      ],
      [
        "▁gaye",
        -8.026258026882394
      ],
      [
        "layan",
        -8.424435212607793
      ],
      [
        "▁13.",
        -9.400967380402378
      ],
      [
        "sa",
        -6.777202496139996
      ],
      [
        "▁bak",
        -7.631341638724532
      ],
      [
        "▁doga",
        -8.783404389415669
      ],
      [
        "“",
        -9.075235279699385
      ],
      [
        "▁diyor",
        -7.6705930823745225
      ],
      [
        "▁say",
        -8.341536908956405
      ],
      [
        "▁turkiye'de",
        -9.481882778926334
      ],
      [
        "'",
        -9.468205875807456
      ],
      [
        "ını",
        -6.823114534903638
      ],
      [
        "▁po",
        -8.07686370266362
      ],
      [
        "sunu",
        -8.55691237153896
      ],
      [
        "▁halinde",
        -9.055739717991823
      ],
      [
        "d",
        -6.3838457849023404
      ],
      [
        "▁sade",
        -7.449757047897101
      ],
      [
        "▁laf",
        -9.299044450919176
      ],
      [
        "▁yaka",
        -8.422080760017103
      ],
      [
        "▁seviye",
        -9.080264980179502
      ],
      [
        "bilir",
        -9.408501336803319
      ],
      [
        "▁ters",
        -9.494020090169247
      ],
      [
        "▁w",
        -8.373659810070095
      ],
      [
        "▁abd'",
        -9.605321911213917
      ],
      [
        "▁hangi",
        -7.366812081839488
      ],
      [
        "▁begenmedi",
        -8.839946311558851
      ],
      [
        "▁wa",
        -9.483213495090515
      ],
      [
        "▁class",
        -8.98373038043219
      ],
      [
        "@",
        -12.809526790838989
      ],
      [
        "▁ha",
        -9.66166110685669
      ],
      [
        "▁istanbul'u",
        -9.917328861964682
      ],
      [
        "ir",
        -6.856115855285549
      ],
      [
        "▁etmisti",
        -9.71581062978339
      ],
      [
        "▁mukemmel",
        -8.707309336227098
      ],
      [
        "▁199",
        -9.359959182241319
      ],
      [
        "▁v",
        -8.1118888222484
      ],
      [
        "▁bina",
        -9.132140564434634
      ],
      [
        "lugunu",
        -9.01582046797649
      ],
      [
        "5",
        -6.257519171130608
      ],
      [
        ".50",
        -9.474023788463791
      ],
      [
        "ugru",
        -9.879475805489356
      ],
      [
        "▁dok",
        -8.816856926354895
      ],
      [
        "▁cicek",
        -9.013111211489669
      ],
      [
        "▁merkezli",
        -9.697255635541515
      ],
      [
        "▁karsılas",
        -9.819646982875819
      ],
      [
        "c",
        -6.500079705136615
      ],
      [
        "▁polis",
        -9.152780293021747
      ],
      [
        "▁boston'da",
        -7.429198951722499
      ],
      [
        "▁tam",
        -7.650208858215884
      ],
      [
        "▁yoneticileri",
        -9.647662048539507
      ],
      [
        "▁cıkma",
        -8.608755600597515
      ],
      [
        "▁isaret",
        -9.085387218212837
      ],
      [
        "9",
        -9.914101251060508
      ],
      [
        "▁sonucları",
        -9.651239637513537
      ],
      [
        "'i",
        -8.699709342885477
      ],
      [
        "▁hay",
        -8.77209153127038
      ],
      [
        "▁bagımsız",
        -9.571470665793326
      ],
      [
        "▁kapalı",
        -9.198839901769006
      ],
      [
        "ce",
        -5.949366910411489
      ],
      [
        "▁birim",
        -9.070750242020715
      ],
      [
        "▁arkadasları",
        -9.677644726897602
      ],
      [
        "alım",
        -8.484803755924158
      ],
      [
        "▁te",
        -7.110402857827855
      ],
      [
        "▁actı",
        -8.56734834400709
      ],
      [
        "manın",
        -9.015404034099223
      ],
      [
        "▁sunu",
        -8.409463169953643
      ],
      [
        "yiz",
        -9.259809697696888
      ],
      [
        "/",
        -5.95097924957408
      ],
      [
        "▁muhendis",
        -9.873742415463447
      ],
      [
        "▁idi",
        -8.9590315568136
      ],
      [
        "▁em",
        -8.428839929488856
      ],
      [
        "▁ce",
        -7.3124242240171045
      ],
      [
        "mam",
        -9.051727593098487
      ],
      [
        "▁ogretmen",
        -9.064173185122463
      ],
      [
        "▁girisim",
        -9.070956093734786
      ],
      [
        "▁onu",
        -5.86245400157231
      ],
      [
        "▁dun",
        -7.848605968048156
      ],
      [
        "'y",
        -7.704562498350548
      ],
      [
        "▁daya",
        -8.97389466300989
      ],
      [
        "▁toprak",
        -8.965033517257393
      ],
      [
        "%3",
        -12.572089405969253
      ],
      [
        "▁mi",
        -6.260535099972343
      ],
      [
        "▁yuzme",
        -8.985309998857227
      ],
      [
        "ırım",
        -9.16753364698605
      ],
      [
        "▁dusus",
        -8.45464891906829
      ],
      [
        "▁degerlendirme",
        -9.56699854845654
      ],
      [
        "▁memphis'",
        -9.33967082842921
      ],
      [
        "▁uyan",
        -9.174110193975366
      ],
      [
        "4",
        -6.554046064083551
      ],
      [
        "la",
        -7.417516293723048
      ],
      [
        "20",
        -8.933298701372465
      ],
      [
        "▁baba",
        -8.272665778568491
      ],
      [
        "▁guvenlik",
        -9.48280301472835
      ],
      [
        "40",
        -9.130324045984203
      ],
      [
        "▁mıyı",
        -9.164916859856662
      ],
      [
        "sı",
        -10.411260938343812
      ],
      [
        "▁yam",
        -11.429855101809459
      ],
      [
        "▁geli",
        -8.962898624253523
      ],
      [
        "▁birinci",
        -8.089958419469509
      ],
      [
        "▁sis",
        -8.707362658154633
      ],
      [
        "▁kopru",
        -9.571511786246603
      ],
      [
        "▁pat",
        -8.929637751422877
      ],
      [
        "▁bunun",
        -6.1361933051979545
      ],
      [
        "▁saygı",
        -9.29439664876632
      ],
      [
        "▁baktı",
        -8.768471921163208
      ],
      [
        "ecektir",
        -9.476101130732733
      ],
      [
        "▁emekli",
        -9.666644577999758
      ],
      [
        "bu",
        -8.138319709316665
      ],
      [
        "en",
        -7.834124913301681
      ],
      [
        "▁hacim",
        -9.50436534545878
      ],
      [
        "▁yedi",
        -9.348775710887438
      ],
      [
        "▁bal",
        -8.743150179064244
      ],
      [
        "▁kalmıs",
        -9.44287128400586
      ],
      [
        "▁yerini",
        -9.475387390648184
      ],
      [
        "▁bulan",
        -9.62294223693075
      ],
      [
        "03",
        -12.526590051914726
      ],
      [
        "▁asagıda",
        -9.536376180068151
      ],
      [
        "▁tane",
        -8.677519809987349
      ],
      [
        "▁anca",
        -7.840082838346283
      ],
      [
        "▁guler",
        -8.27912920486966
      ],
      [
        "▁baslamıs",
        -9.74918057671293
      ],
      [
        "▁edecegi",
        -9.79655655829401
      ],
      [
        "▁yuzu",
        -8.447171577379716
      ],
      [
        "uc",
        -8.613245906554086
      ],
      [
        "▁kazı",
        -9.928540875213807
      ],
      [
        "▁birinde",
        -8.152972439331311
      ],
      [
        "▁nokta",
        -8.427554513767902
      ],
      [
        "▁boyle",
        -7.262541292284436
      ],
      [
        "▁'y",
        -12.499910982439719
      ],
      [
        "lendirdi",
        -9.460532032542542
      ],
      [
        "▁kısmı",
        -9.495651854111408
      ],
      [
        "▁performans",
        -8.551219757106786
      ],
      [
        "mistir",
        -8.579690850308946
      ],
      [
        "▁0.1",
        -9.205788647950406
      ],
      [
        "im",
        -6.472100042134997
      ],
      [
        "▁gerek",
        -9.094802343360127
      ],
      [
        "▁hic",
        -7.180893811282072
      ],
      [
        "▁pay",
        -8.201367469234238
      ],
      [
        "acagını",
        -8.363219839019813
      ],
      [
        "▁toronto'",
        -9.795887677588835
      ],
      [
        "▁parlak",
        -9.8986440230899
      ],
      [
        "▁alıs",
        -8.845445589550213
      ],
      [
        "▁denver",
        -8.329765658170484
      ],
      [
        "▁mustafa",
        -9.198413074647034
      ],
      [
        "ca",
        -8.817379179509366
      ],
      [
        "cu",
        -7.386324579594437
      ],
      [
        "lerde",
        -7.550748624395028
      ],
      [
        "f",
        -10.183767360572133
      ],
      [
        "▁ipotek",
        -9.897547807130666
      ],
      [
        "▁ucret",
        -7.43563882456487
      ],
      [
        "▁2.6",
        -9.300197033415099
      ],
      [
        "▁57",
        -8.71809689298287
      ],
      [
        "▁3.5",
        -8.92963682318138
      ],
      [
        "▁sogu",
        -9.619507765927027
      ],
      [
        "▁arkadas",
        -8.474654912208072
      ],
      [
        "oglu",
        -8.520689787439132
      ],
      [
        "lerini",
        -6.743949856467784
      ],
      [
        "▁inc.",
        -9.065483922378597
      ],
      [
        "▁efendi",
        -8.974074470851981
      ],
      [
        "▁havayolları",
        -8.285473147991134
      ],
      [
        "yle",
        -7.237237409706429
      ],
      [
        "▁veya",
        -5.844024816361816
      ],
      [
        "gu",
        -7.002228349152346
      ],
      [
        "▁ayak",
        -8.35536771551008
      ],
      [
        "▁hepsini",
        -7.524949703003487
      ],
      [
        "▁ayrıldı",
        -9.831890728694816
      ],
      [
        "▁mekan",
        -9.592044309517522
      ],
      [
        "lugun",
        -8.713097600441293
      ],
      [
        "▁verilen",
        -9.228756912446434
      ],
      [
        "▁paylas",
        -9.541132742694925
      ],
      [
        "▁donemi",
        -9.712502410646136
      ],
      [
        "▁tartısma",
        -9.006442064333271
      ],
      [
        "▁j",
        -8.358691229792537
      ],
      [
        "▁durumu",
        -9.062665124884667
      ],
      [
        "▁davet",
        -9.411777347204453
      ],
      [
        "▁cıkıyor",
        -9.303929089123182
      ],
      [
        "▁ku",
        -8.078068271721804
      ],
      [
        "mıstır",
        -8.52406905666259
      ],
      [
        "▁olmaz",
        -8.755378389915684
      ],
      [
        "▁tasarruf",
        -9.57146776842228
      ],
      [
        "▁ortasında",
        -9.723226925664042
      ],
      [
        "lıyor",
        -7.7098869087420505
      ],
      [
        "▁cıkarma",
        -9.315046638636627
      ],
      [
        "▁sınıfı",
        -9.109212138472834
      ],
      [
        "▁elektronik",
        -9.783793735996175
      ],
      [
        "▁birden",
        -8.578522157895563
      ],
      [
        "▁milyar",
        -9.129068258602373
      ],
      [
        "▁satıcı",
        -9.82904534677945
      ],
      [
        "▁sırasında",
        -9.665261301697315
      ],
      [
        "▁'d",
        -13.349940624756915
      ],
      [
        "▁gazeteci",
        -9.76252312680154
      ],
      [
        "les",
        -8.457631366099562
      ],
      [
        "▁anlama",
        -8.721464997410827
      ],
      [
        "liginde",
        -9.162657267626226
      ],
      [
        "bir",
        -9.545123950984518
      ],
      [
        "▁gibiydi",
        -9.82847958110099
      ],
      [
        "▁hindistan",
        -9.921937990261593
      ],
      [
        "▁endise",
        -8.983820033118272
      ],
      [
        "▁dur",
        -7.454968144923029
      ],
      [
        "▁bakıs",
        -8.985702413984995
      ],
      [
        "▁milli",
        -8.894537831119287
      ],
      [
        "▁gitmek",
        -9.089780023775127
      ],
      [
        "▁yazma",
        -9.657408497654169
      ],
      [
        "▁baglantı",
        -9.590287975253865
      ],
      [
        "▁genis",
        -8.026721217100848
      ],
      [
        "13",
        -12.652351546617641
      ],
      [
        "▁kasaba",
        -9.36780509427335
      ],
      [
        "▁yani",
        -6.940966782202292
      ],
      [
        "kl",
        -10.728123182460942
      ],
      [
        "▁dunya",
        -7.566739729806115
      ],
      [
        "▁sp",
        -9.12365990017585
      ],
      [
        "▁%10",
        -10.750026030658061
      ],
      [
        "sini",
        -7.111281122541552
      ],
      [
        "▁trilyon",
        -8.923424663261219
      ],
      [
        "▁katılma",
        -9.896270895714162
      ],
      [
        "▁yukseldi",
        -7.927147913076654
      ],
      [
        "▁konfor",
        -9.486377989081436
      ],
      [
        "▁gozlerini",
        -9.058302106856157
      ],
      [
        "eci",
        -11.809606674317426
      ],
      [
        "z",
        -14.190753728377775
      ],
      [
        "▁no",
        -8.824692142194547
      ],
      [
        "▁atlanta'",
        -8.014927430151854
      ],
      [
        "▁isleri",
        -9.5455205322407
      ],
      [
        "▁havayolu",
        -9.106923008328682
      ],
      [
        "▁yiy",
        -9.358039043323831
      ],
      [
        "▁caba",
        -8.84920062876624
      ],
      [
        "▁amerikalı",
        -9.576667375948265
      ],
      [
        "95",
        -9.457815011772302
      ],
      [
        "▁muh",
        -8.483521521470948
      ],
      [
        "▁rezerv",
        -9.921725359951607
      ],
      [
        "▁demek",
        -8.748486644877811
      ],
      [
        "▁motor",
        -9.210478850770361
      ],
      [
        "▁pa",
        -7.625150484708501
      ],
      [
        "▁sor",
        -9.08893757446559
      ],
      [
        "lanan",
        -8.378359011494926
      ],
      [
        "▁icin",
        -8.812912050493708
      ],
      [
        "▁kendilerin",
        -8.352079679002111
      ],
      [
        "▁olmasını",
        -9.81942244831414
      ],
      [
        "▁yansıt",
        -9.329709589294938
      ],
      [
        "▁sorusturma",
        -9.8504977078064
      ],
      [
        "▁o",
        -5.415287549922417
      ],
      [
        "▁olması",
        -8.433172748902734
      ],
      [
        "dir",
        -6.138212601783725
      ],
      [
        "▁degisiklikler",
        -9.431026902901106
      ],
      [
        "▁kendisinde",
        -8.786059734983755
      ],
      [
        "▁birlesi",
        -9.831681169245844
      ],
      [
        "cılık",
        -9.221285438168206
      ],
      [
        "▁karısık",
        -9.566820363338161
      ],
      [
        "dıgı",
        -7.6560457538756825
      ],
      [
        "▁100",
        -7.323281198345845
      ],
      [
        "gibi",
        -7.880345455995306
      ],
      [
        "▁calısır",
        -9.859080155771515
      ],
      [
        "hi",
        -7.873816430168645
      ],
      [
        "▁basarısız",
        -9.70247602624455
      ],
      [
        "▁zor",
        -8.294723702269208
      ],
      [
        "▁yetkili",
        -9.050101179575705
      ],
      [
        "▁getir",
        -8.045737047917326
      ],
      [
        "rak",
        -6.450553508797672
      ],
      [
        "▁kullanıyor",
        -9.804693021414236
      ],
      [
        "gim",
        -8.370853035575575
      ],
      [
        "yordu",
        -8.632994416366177
      ],
      [
        "▁birini",
        -7.9901088460014265
      ],
      [
        "ıyla",
        -7.990726813705478
      ],
      [
        "▁denge",
        -9.440389556756443
      ],
      [
        "dıkları",
        -9.211374691377248
      ],
      [
        "▁yasamadi",
        -9.768529275585603
      ],
      [
        "gı",
        -6.903616581988207
      ],
      [
        "si",
        -5.509136548418651
      ],
      [
        "'ta",
        -8.657385157731326
      ],
      [
        "le",
        -5.705990088970057
      ],
      [
        "▁ti",
        -6.777248598015956
      ],
      [
        "▁adalet",
        -9.92244512092648
      ],
      [
        "▁bicim",
        -9.127665322224153
      ],
      [
        "▁ilgiliydi",
        -7.843100730724876
      ],
      [
        "▁kulak",
        -9.31508915699926
      ],
      [
        "ici",
        -8.501012356898944
      ],
      [
        "cık",
        -8.525362838633633
      ],
      [
        "▁calıstı",
        -8.815998548043893
      ],
      [
        "hat",
        -7.20213160897583
      ],
      [
        "▁degisme",
        -9.547091579272639
      ],
      [
        "▁bagıs",
        -9.88080921371049
      ],
      [
        "bire",
        -9.343351773940302
      ],
      [
        "▁ti",
        -8.922127543731293
      ],
      [
        "▁sistem",
        -8.907238366261153
      ],
      [
        "▁kalıyor",
        -9.789799761113075
      ],
      [
        "▁ise",
        -8.206277181065557
      ],
      [
        "hangi",
        -8.461425620153111
      ],
      [
        "▁olmadi",
        -8.792196392843708
      ],
      [
        "birinde",
        -9.596124906648416
      ],
      [
        "▁calı",
        -9.514410520118993
      ],
      [
        "▁bahce",
        -8.502291834204868
      ],
      [
        "▁degildi",
        -4.719105511077978
      ],
      [
[...]
