{
  "version": "1.0",
  "truncation": null,
  "padding": null,
  "added_tokens": [
    {
      "id": 773,
      "content": "[SEP]",
      "single_word": false,
      "lstrip": false,
      "rstrip": false,
      "normalized": false,
      "special": true
    },
    {
      "id": 833,
      "content": "[PAD]",
      "single_word": false,
      "lstrip": false,
      "rstrip": false,
      "normalized": false,
      "special": true
    },
    {
      "id": 1055,
      "content": "[CLS]",
      "single_word": false,
      "lstrip": false,
      "rstrip": false,
      "normalized": false,
      "special": true
    },
    {
      "id": 1925,
      "content": "[MASK]",
      "single_word": false,
      "lstrip": false,
      "rstrip": false,
      "normalized": false,
      "special": true
    },
    {
      "id": 3892,
      "content": "[UNK]",
      "single_word": false,
      "lstrip": false,
      "rstrip": false,
      "normalized": false,
      "special": true
    }
  ],
  "normalizer": {
    "type": "Sequence",
    "normalizers": [
      {
        "type": "NFD"
      },
      {
        "type": "Lowercase"
      },
      {
        "type": "StripAccents"
      }
    ]
  },
  "pre_tokenizer": {
    "type": "Sequence",
    "pretokenizers": [
      {
        "type": "Metaspace",
        "replacement": "▁",
        "prepend_scheme": "always",
        "split": true
      }
    ]
  },
  "post_processor": {
    "type": "TemplateProcessing",
    "single": [
      {
        "SpecialToken": {
          "id": "[CLS]",
          "type_id": 0
        }
      },
      {
        "Sequence": {
          "id": "A",
          "type_id": 0
        }
      },
      {
        "SpecialToken": {
          "id": "[SEP]",
          "type_id": 0
        }
      }
    ],
    "pair": [
      {
        "SpecialToken": {
          "id": "[CLS]",
          "type_id": 0
        }
      },
      {
        "Sequence": {
          "id": "A",
          "type_id": 0
        }
      },
      {
        "SpecialToken": {
          "id": "[SEP]",
          "type_id": 0
        }
      },
      {
        "Sequence": {
          "id": "B",
          "type_id": 1
        }
      },
      {
        "SpecialToken": {
          "id": "[SEP]",
          "type_id": 1
        }
      }
    ],
    "special_tokens": {
      "[CLS]": {
        "id": "[CLS]",
        "ids": [
          1055
        ],
        "tokens": [
          "[CLS]"
        ]
      },
      "[SEP]": {
        "id": "[SEP]",
        "ids": [
          773
        ],
        "tokens": [
          "[SEP]"
        ]
      }
    }
  },
  "decoder": {
    "type": "Metaspace",
    "replacement": "▁",
    "prepend_scheme": "always",
    "split": true
  },
  "model": {
    "type": "WordPiece",
    "unk_token": "[UNK]",
    "continuing_subword_prefix": "##",
    "max_input_chars_per_word": 100,
    "vocab": {
      "##ayla": 0,
      "▁lou": 1,
      "–": 2,
      "▁%6": 3,
      "▁dısı": 4,
      "##siyon": 5,
      "▁musait": 6,
      "▁aldı": 7,
      "▁ag": 8,
      "##ması": 9,
      "▁fa": 10,
      "▁sag": 11,
      "##olu": 12,
      "▁kural": 13,
      "##kel": 14,
      "▁tas": 15,
      "▁prob": 16,
      "##su": 17,
      "##tik": 18,
      "▁hele": 19,
      "##rol": 20,
      "▁seni": 21,
      "##..": 22,
      "##uston": 23,
      "##ika": 24,
      "▁may": 25,
      "##lem": 26,
      "▁dikkat": 27,
      "▁sinir": 28,
      "▁edec": 29,
      "▁isler": 30,
      "▁alma": 31,
      "▁yatırımcı": 32,
      "▁olustur": 33,
      "##acagını": 34,
      "##isine": 35,
      "##.2": 36,
      "▁emek": 37,
      "▁gelecek": 38,
      "##2:30": 39,
      "##imize": 40,
      "##eydi": 41,
      "▁general": 42,
      "▁veren": 43,
      "▁bul": 44,
      "##eri": 45,
      "▁belir": 46,
      "##laka": 47,
      "##madim": 48,
      "##'ten": 49,
      "▁ocak": 50,
      "▁dort": 51,
      "▁calısan": 52,
      "▁cik": 53,
      "##istir": 54,
      "##layan": 55,
      "##el": 56,
      "▁ankara": 57,
      "▁sil": 58,
      "▁faz": 59,
      "##gumuz": 60,
      "▁ig": 61,
      "▁hafif": 62,
      "▁tası": 63,
      "##0000": 64,
      "▁genc": 65,
      "▁degisik": 66,
      "▁1989-8": 67,
      "▁bed": 68,
      "##ımda": 69,
      "▁harıl": 70,
      "▁tes": 71,
      "▁fer": 72,
      "##itt": 73,
      "▁mahk": 74,
      "▁iki": 75,
      "▁icin": 76,
      "▁et": 77,
      "##ebilir": 78,
      "##.1": 79,
      "▁yarı": 80,
      "##yuz": 81,
      "▁olduguna": 82,
      "▁n": 83,
      "▁ilk": 84,
      "##be": 85,
      "▁om": 86,
      "▁5": 87,
      "▁kor": 88,
      "▁'": 89,
      "▁dc'ye": 90,
      "▁agz": 91,
      "▁faaliyet": 92,
      "##ag": 93,
      "▁kisi": 94,
      "▁1.8": 95,
      "##likle": 96,
      "##isleri": 97,
      "▁sahn": 98,
      "▁sik": 99,
      "▁grub": 100,
      "▁karıs": 101,
      "s": 102,
      "▁tartıs": 103,
      "▁birer": 104,
      "▁kalab": 105,
      "##isyon": 106,
      "▁tır": 107,
      "▁sınıf": 108,
      "##(": 109,
      "▁mahkem": 110,
      "▁jos": 111,
      "▁dolu": 112,
      "▁animasyon": 113,
      "▁arasındaki": 114,
      "▁city'e": 115,
      "▁kutur": 116,
      "##gis": 117,
      "##masının": 118,
      "##1": 119,
      "▁gittik": 120,
      "▁kazandı": 121,
      "▁kent": 122,
      "▁on": 123,
      "##ınız": 124,
      "▁col": 125,
      "▁beklen": 126,
      "▁city": 127,
      "##digim": 128,
      "##amay": 129,
      "▁gar": 130,
      "▁ihtiyac": 131,
      "▁kendini": 132,
      "▁peters": 133,
      "##eti": 134,
      "##tan": 135,
      "▁yolc": 136,
      "##din": 137,
      "▁p": 138,
      "▁grup": 139,
      "▁don": 140,
      "▁kork": 141,
      "o": 142,
      "##mesine": 143,
      "▁yildi": 144,
      "##'tan": 145,
      "▁21:00-22:30": 146,
      "##-6": 147,
      "▁boston'a": 148,
      "##ırıl": 149,
      "▁kars": 150,
      "▁americ": 151,
      "▁ifade": 152,
      "▁kov": 153,
      "▁mal": 154,
      "▁unit": 155,
      "▁indianapolis": 156,
      "##all": 157,
      "▁olursa": 158,
      "▁kazanc": 159,
      "▁yalap": 160,
      "##ılır": 161,
      "▁ortak": 162,
      "▁ha": 163,
      "▁olduk": 164,
      "##ız": 165,
      "▁tut": 166,
      "▁kims": 167,
      "‘": 168,
      "▁pu": 169,
      "m": 170,
      "##inn": 171,
      "▁musta": 172,
      "▁haft": 173,
      "▁varlık": 174,
      "▁soyluyor": 175,
      "▁car": 176,
      "##eler": 177,
      "▁birlikte": 178,
      "##gru": 179,
      "##.4": 180,
      "▁arkad": 181,
      "##udu": 182,
      "##se": 183,
      "▁kucuk": 184,
      "▁ortal": 185,
      "##ade": 186,
      "▁kaynak": 187,
      "▁karsil": 188,
      "▁kendine": 189,
      "▁merk": 190,
      "##'nda": 191,
      "▁diye": 192,
      "▁olsun": 193,
      "##'ye": 194,
      "▁h": 195,
      "▁tef": 196,
      "▁eki": 197,
      "##j": 198,
      "##000": 199,
      "▁cent": 200,
      "▁elestir": 201,
      "##unuz": 202,
      "▁gorur": 203,
      "##ilm": 204,
      "▁adım": 205,
      "▁guzeldi": 206,
      "##iv": 207,
      "▁ort": 208,
      "##gını": 209,
      "▁olabilirdi": 210,
      "▁ustunde": 211,
      "▁devam": 212,
      "##estir": 213,
      "▁bus": 214,
      "▁%22": 215,
      "▁bana": 216,
      "▁jones": 217,
      "##0'": 218,
      "▁yabancı": 219,
      "▁gorul": 220,
      "▁mesel": 221,
      "##o'nun": 222,
      "##arken": 223,
      "▁bakım": 224,
      "##tere": 225,
      "▁ref": 226,
      "##uydu": 227,
      "▁%0.2": 228,
      "##tır": 229,
      "▁pa": 230,
      "##gın": 231,
      "▁havuz": 232,
      "▁dakika": 233,
      "▁kayıp": 234,
      "##lar": 235,
      "##asında": 236,
      "##urt": 237,
      "▁vır": 238,
      "▁kurulu": 239,
      "##ımı": 240,
      "▁zırt": 241,
      "##elerden": 242,
      "▁ney": 243,
      "##amb": 244,
      "▁vakit": 245,
      "▁yab": 246,
      "▁yaz": 247,
      "▁1": 248,
      "##ustur": 249,
      "▁-": 250,
      "▁coc": 251,
      "▁unut": 252,
      "##emek": 253,
      "##ard": 254,
      "##ij": 255,
      "▁fıkı": 256,
      "##ez": 257,
      "▁tamam": 258,
      "▁burada": 259,
      "##ur": 260,
      "##25": 261,
      "▁derl": 262,
      "▁bulun": 263,
      "▁35": 264,
      "▁pek": 265,
      "##iski": 266,
      "▁arası": 267,
      "▁man": 268,
      "▁kendisi": 269,
      "▁konusunda": 270,
      "##ısının": 271,
      "##gı": 272,
      "▁efendi": 273,
      "▁iyi": 274,
      "▁tıkl": 275,
      "##0": 276,
      "▁nedeniyle": 277,
      "##masız": 278,
      "▁onları": 279,
      "##ha": 280,
      "##umus": 281,
      "##d": 282,
      "▁yardımcı": 283,
      "▁%5": 284,
      "▁iht": 285,
      "▁dolay": 286,
      "▁%10": 287,
      "▁boz": 288,
      "##imizi": 289,
      "▁fel": 290,
      "##bas": 291,
      "▁hayır": 292,
      "##ator": 293,
      "▁tac": 294,
      "##aydı": 295,
      "##medigini": 296,
      "##ileri": 297,
      "u": 298,
      "▁bitir": 299,
      "▁personel": 300,
      "▁durumu": 301,
      "▁urun": 302,
      "##ime": 303,
      "▁icine": 304,
      "▁uluslar": 305,
      "##arak": 306,
      "##ecegini": 307,
      "##ide": 308,
      "▁rakam": 309,
      "##per": 310,
      "▁hanim": 311,
      "##sınız": 312,
      "##9-": 313,
      "▁butun": 314,
      "##anı": 315,
      "▁kırmızı": 316,
      "▁ileri": 317,
      "▁cat": 318,
      "▁yuzunden": 319,
      "##acagım": 320,
      "▁sayı": 321,
      "##larından": 322,
      "▁gun": 323,
      "▁der": 324,
      "▁kırm": 325,
      "▁film": 326,
      "▁hol": 327,
      "##cılar": 328,
      "▁so": 329,
      "▁kans": 330,
      "▁kaliteli": 331,
      "▁baltimore'den": 332,
      "##ri": 333,
      "▁haline": 334,
      "▁vak": 335,
      "▁evde": 336,
      "##ligin": 337,
      "▁acı": 338,
      "##eyle": 339,
      "##ret": 340,
      "##bah": 341,
      "▁iddia": 342,
      "▁ucak": 343,
      "▁b": 344,
      "▁gez": 345,
      "▁uy": 346,
      "##yan": 347,
      "▁porcuk": 348,
      "##taki": 349,
      "▁memnunum": 350,
      "##’": 351,
      "##mas": 352,
      "▁bel": 353,
      "##eceg": 354,
      "##lıg": 355,
      "▁yılın": 356,
      "▁kalın": 357,
      "▁gece": 358,
      "##vet": 359,
      "##aki": 360,
      "##ım": 361,
      "##,": 362,
      "▁demokr": 363,
      "▁iler": 364,
      "##att": 365,
      "▁bu": 366,
      "▁indianapolis'ten": 367,
      "▁sabit": 368,
      "##ili": 369,
      "▁ist": 370,
      "▁mektu": 371,
      "▁denize": 372,
      "##iler": 373,
      "##45": 374,
      "▁magaz": 375,
      "▁sm": 376,
      "▁%11": 377,
      "▁fıkır": 378,
      "##apur": 379,
      "▁onumuzdeki": 380,
      "▁california": 381,
      "▁isi": 382,
      "▁geri": 383,
      "▁ser": 384,
      "##elere": 385,
      "##ef": 386,
      "5": 387,
      "##2": 388,
      "▁%18": 389,
      "##ku": 390,
      "##'daki": 391,
      "▁ih": 392,
      "▁yerde": 393,
      "##2-23": 394,
      "▁alıyor": 395,
      "▁eser": 396,
      "▁agız": 397,
      "▁hin": 398,
      "##enler": 399,
      "##–": 400,
      "▁isaret": 401,
      "▁sonraki": 402,
      "▁yılda": 403,
      "▁terc": 404,
      "▁89-": 405,
      "▁ciddi": 406,
      "▁hiz": 407,
      "▁arttı": 408,
      "##ıstır": 409,
      "▁yorum": 410,
      "▁gider": 411,
      "▁alan": 412,
      "▁gr": 413,
      "▁hazine": 414,
      "▁yazar": 415,
      "▁yakın": 416,
      "##larda": 417,
      "▁dis": 418,
      "▁kagıt": 419,
      "▁ilgisiz": 420,
      "▁temsil": 421,
      "##ımızı": 422,
      "▁listeleyin": 423,
      "▁soz": 424,
      "▁sol": 425,
      "##urdu": 426,
      "▁pis": 427,
      "▁st.": 428,
      "▁hukuk": 429,
      "▁acıklam": 430,
      "7": 431,
      "▁eder": 432,
      "##ul": 433,
      "##rak": 434,
      "▁%50": 435,
      "▁sas": 436,
      "▁seattle'ye": 437,
      "▁bilgisayar": 438,
      "▁verir": 439,
      "▁mot": 440,
      "##acagı": 441,
      "▁fır": 442,
      "##san": 443,
      "##eket": 444,
      "▁ettigini": 445,
      "▁bulunuyor": 446,
      "▁onların": 447,
      "▁cıkan": 448,
      "▁d": 449,
      "▁a": 450,
      "▁konum": 451,
      "##af": 452,
      "▁koy": 453,
      "##arlar": 454,
      "▁millet": 455,
      "##agı": 456,
      "##adı": 457,
      "▁bolg": 458,
      "##oglu": 459,
      "▁cle": 460,
      "▁verim": 461,
      "▁must": 462,
      "▁kendilerini": 463,
      "▁guleryuzlu": 464,
      "##lanmıs": 465,
      "▁%12": 466,
      "▁derece": 467,
      "▁.\"": 468,
      "▁huz": 469,
      "▁sof": 470,
      "▁kansas": 471,
      "##lerin": 472,
      "▁kullanmadim": 473,
      "▁devlet": 474,
      "▁bush": 475,
      "▁kopek": 476,
      "▁vur": 477,
      "▁yaptıgı": 478,
      "▁dusunuyor": 479,
      "▁bos": 480,
      "▁edin": 481,
      "▁18": 482,
      "j": 483,
      "▁otuz": 484,
      "▁kapan": 485,
      "▁basv": 486,
      "▁azdi": 487,
      "▁kulak": 488,
      "x": 489,
      "▁birdenbire": 490,
      "▁borsa": 491,
      "▁ydı": 492,
      "##ve": 493,
      "##aması": 494,
      "▁homur": 495,
      "▁vardi": 496,
      "▁sona": 497,
      "##enk": 498,
      "##ılacak": 499,
      "▁mudur": 500,
      "▁500": 501,
      "##lendi": 502,
      "▁ip": 503,
      "▁nik": 504,
      "▁not": 505,
      "▁siyas": 506,
      "▁ogle": 507,
      "▁yahut": 508,
      "▁sıkır": 509,
      "##iyas": 510,
      "##irler": 511,
      "▁“": 512,
      "##*": 513,
      "▁sık": 514,
      "▁bilg": 515,
      "▁teknoloj": 516,
      "▁sana": 517,
      "▁acisindan": 518,
      "▁ac": 519,
      "▁cevr": 520,
      "▁poz": 521,
      "▁kar": 522,
      "##lerdi": 523,
      "▁birles": 524,
      "▁can": 525,
      "▁44": 526,
      "##muyor": 527,
      "##alara": 528,
      "▁cocuklar": 529,
      "▁ısık": 530,
      "▁kongre": 531,
      "##ing": 532,
      "##iyon": 533,
      "▁gerceklestir": 534,
      "##‘": 535,
      "▁;": 536,
      "▁alır": 537,
      "▁eks": 538,
      "▁dog": 539,
      "▁tel": 540,
      "▁universit": 541,
      "▁%27": 542,
      "##ilik": 543,
      "▁,": 544,
      "##enin": 545,
      "▁olsa": 546,
      "▁kay": 547,
      "▁indi": 548,
      "▁kalmadim": 549,
      "▁sure": 550,
      "▁bahs": 551,
      "##elerde": 552,
      "▁hızlı": 553,
      "▁verdigim": 554,
      "##dım": 555,
      "▁baslıyor": 556,
      "▁mik": 557,
      "▁%14": 558,
      "▁yak": 559,
      "▁kontr": 560,
      "▁fakat": 561,
      "▁bayan": 562,
      "▁siddet": 563,
      "##elerinde": 564,
      "▁da": 565,
      "▁yatırım": 566,
      "##anc": 567,
      "##mi": 568,
      "##de": 569,
      "▁sermay": 570,
      "▁fikir": 571,
      "▁takım": 572,
      "##ce": 573,
      "▁maliyet": 574,
      "▁operasyon": 575,
      "▁diy": 576,
      "▁esk": 577,
      "▁delta": 578,
      "▁kup": 579,
      "▁ark": 580,
      "▁4": 581,
      "▁id": 582,
      "##aydi": 583,
      "▁ilgilen": 584,
      "▁sirket": 585,
      "▁tah": 586,
      "▁iliskin": 587,
      "▁hisse": 588,
      "##gim": 589,
      "▁zor": 590,
      "▁/": 591,
      "##anın": 592,
      "▁merak": 593,
      "▁hava": 594,
      "##land": 595,
      "▁ir": 596,
      "▁californ": 597,
      "z": 598,
      "▁harika": 599,
      "##lemek": 600,
      "▁memphis": 601,
      "▁asla": 602,
      "▁beyle": 603,
      "##adel": 604,
      "##alarını": 605,
      "##00": 606,
      "▁temmuz": 607,
      "▁veriyor": 608,
      "▁”": 609,
      "##ington": 610,
      "▁idi": 611,
      "##ızı": 612,
      "▁dair": 613,
      "▁dusman": 614,
      "▁haber": 615,
      "##cog": 616,
      "##iz": 617,
      "▁ayında": 618,
      "▁ediyorum": 619,
      "▁gerek": 620,
      "##rup": 621,
      "▁tuz": 622,
      "▁suyu": 623,
      "▁art": 624,
      "▁cık": 625,
      "▁demek": 626,
      "▁ornek": 627,
      "▁tesisin": 628,
      "##atur": 629,
      "##oeni": 630,
      "▁stan": 631,
      "##ılan": 632,
      "▁edil": 633,
      "▁olmaz": 634,
      "▁pahaliydi": 635,
      "##eyen": 636,
      "##ina": 637,
      "▁%6.9": 638,
      "▁soguk": 639,
      "##amıyor": 640,
      "▁sul": 641,
      "▁%4": 642,
      "▁birbirine": 643,
      "▁sonuc": 644,
      "##oz": 645,
      "▁west": 646,
      "##miyor": 647,
      "▁fen": 648,
      "▁fut": 649,
      "▁dow": 650,
      "##ekli": 651,
      "##ormal": 652,
      "▁sub": 653,
      "##ydı": 654,
      "▁saat": 655,
      "▁gıldır": 656,
      "▁sıra": 657,
      "##istim": 658,
      "▁bar": 659,
      "▁'de": 660,
      "▁kısıt": 661,
      "▁politik": 662,
      "##uluk": 663,
      "▁kendileri": 664,
      "▁zamanlar": 665,
      "##dıgım": 666,
      "##ed": 667,
      "##aga": 668,
      "▁ısı": 669,
      "▁rest": 670,
      "##ise": 671,
      "▁nes": 672,
      "##cısı": 673,
      "▁duzen": 674,
      "##ında": 675,
      "▁konustu": 676,
      "##ant": 677,
      "##acılar": 678,
      "##yon": 679,
      "▁de": 680,
      "▁hast": 681,
      "▁pil": 682,
      "▁tar": 683,
      "▁etraf": 684,
      "▁durumda": 685,
      "▁25": 686,
      "▁sp": 687,
      "▁kil": 688,
      "##hangi": 689,
      "▁sal": 690,
      "▁feder": 691,
      "▁benim": 692,
      "▁yanlıs": 693,
      "▁alabilir": 694,
      "##ımıza": 695,
      "##eb": 696,
      "##esiyle": 697,
      "▁listele": 698,
      "▁fok": 699,
      "▁birka": 700,
      "▁f": 701,
      "▁...": 702,
      "▁sam": 703,
      "▁komisyon": 704,
      "▁kacın": 705,
      "▁oldur": 706,
      "▁cer": 707,
      "##ka": 708,
      "##isco": 709,
      "▁dır": 710,
      "##\\/8": 711,
      "▁bıraktı": 712,
      "##abı": 713,
      "##etir": 714,
      "▁yukselt": 715,
      "##azım": 716,
      "▁nash": 717,
      "##maları": 718,
      "▁..": 719,
      "▁kahve": 720,
      "▁24": 721,
      "##gu": 722,
      "▁soy": 723,
      "▁aktar": 724,
      "▁sog": 725,
      "▁iddi": 726,
      "##ell": 727,
      "▁%9": 728,
      "##ental": 729,
      "▁tekn": 730,
      "▁farklı": 731,
      "▁co.": 732,
      "▁ettigi": 733,
      "▁17": 734,
      "▁edildi": 735,
      "▁salı": 736,
      ",": 737,
      "▁%0.3": 738,
      "▁heyecan": 739,
      "##or": 740,
      "##'in": 741,
      "▁genis": 742,
      "##ebi": 743,
      "##\"": 744,
      "▁ham": 745,
      "##adi": 746,
      "##tıgı": 747,
      "▁dal": 748,
      "##ere": 749,
      "▁eylem": 750,
      "▁kendisine": 751,
      "▁amerika": 752,
      "▁gelir": 753,
      "##amaz": 754,
      "▁yapma": 755,
      "▁dolas": 756,
      "▁doktor": 757,
      "##inin": 758,
      "##yse": 759,
      "▁konak": 760,
      "▁kurtul": 761,
      "▁york": 762,
      "▁bey": 763,
      "##iy": 764,
      "##la": 765,
      "##'un": 766,
      "##tak": 767,
      "▁sektor": 768,
      "▁deg": 769,
      "▁kısa": 770,
      "▁laf": 771,
      "▁nokta": 772,
      "[SEP]": 773,
      "▁fay": 774,
      "▁makal": 775,
      "▁ceyrek": 776,
      "▁dob": 777,
      "▁tav": 778,
      "▁franc": 779,
      "##ram": 780,
      "▁is": 781,
      "##em": 782,
      "▁hiss": 783,
      "▁ister": 784,
      "##bol": 785,
      "▁!..": 786,
      "##ecektir": 787,
      "▁sar": 788,
      "##di": 789,
      "▁ner": 790,
      "8": 791,
      "▁yaklas": 792,
      "▁bon": 793,
      "▁tur": 794,
      "▁sır": 795,
      "▁inc.": 796,
      "##tıgını": 797,
      "▁yildiz": 798,
      "▁belirt": 799,
      "##ınca": 800,
      "▁yani": 801,
      "##urken": 802,
      "##son": 803,
      "▁%85": 804,
      "▁hem": 805,
      "▁ziy": 806,
      "▁karsılas": 807,
      "▁mıydı": 808,
      "▁!": 809,
      "▁sapır": 810,
      "▁olacagını": 811,
      "▁bazıları": 812,
      "▁fiyati": 813,
      "▁onune": 814,
      "▁si": 815,
      "##una": 816,
      "▁cuma": 817,
      "##“": 818,
      "▁performans": 819,
      "▁puf": 820,
      "▁vegas'a": 821,
      "##yla": 822,
      "▁zayıf": 823,
      "##esinde": 824,
      "▁1988": 825,
      "##dıgı": 826,
      "▁yardimci": 827,
      "▁kazan": 828,
      "▁ayn": 829,
      "▁amer": 830,
      "▁yemegi": 831,
      "▁borsası": 832,
      "[PAD]": 833,
      "##\\/": 834,
      "▁sark": 835,
      "##rub": 836,
      "▁baltimore": 837,
      "##ee": 838,
      "##c": 839,
      "▁bit": 840,
      "##ici": 841,
      "##ren": 842,
      "▁istiyor": 843,
      "##ilmesi": 844,
      "▁az": 845,
      "▁kısı": 846,
      "##ıt": 847,
      "##esiz": 848,
      "▁pazartesi": 849,
      "▁ders": 850,
      "▁fena": 851,
      "##asına": 852,
      "▁senedi": 853,
      "##ıma": 854,
      "##apol": 855,
      "▁kıymetler": 856,
      "▁il": 857,
      "▁pitt": 858,
      "▁sirketin": 859,
      "▁st": 860,
      "##sal": 861,
      "##if": 862,
      "▁tı": 863,
      "##laması": 864,
      "▁hepsini": 865,
      "##aber": 866,
      "▁deger": 867,
      "##met": 868,
      "▁soh": 869,
      "▁las": 870,
      "▁duvar": 871,
      "##medim": 872,
      "▁siir": 873,
      "▁sok": 874,
      "▁air": 875,
      "▁sez": 876,
      "▁endustr": 877,
      "▁%13": 878,
      "▁bulunan": 879,
      "▁kaf": 880,
      "▁begenmedim": 881,
      "▁yapar": 882,
      "▁fıldır": 883,
      "▁mah": 884,
      "▁%25": 885,
      "▁yerinde": 886,
      "##isinde": 887,
      "##irmi": 888,
      "▁am": 889,
      "##lıyor": 890,
      "▁bogaz": 891,
      "▁hav": 892,
      "▁uzere": 893,
      "##cuk": 894,
      "▁alman": 895,
      "##inden": 896,
      "▁sorum": 897,
      "▁misafirimiz": 898,
      "##lılık": 899,
      "▁finans": 900,
      "##emey": 901,
      "##kat": 902,
      "##r": 903,
      "▁ur": 904,
      "▁cıkmıs": 905,
      "▁boyunca": 906,
      "▁yemekler": 907,
      "▁parc": 908,
      "▁yeni": 909,
      "▁or": 910,
      "▁mavi": 911,
      "▁yag": 912,
      "▁yatırımcılar": 913,
      "▁denizi": 914,
      "##vıl": 915,
      "▁mut": 916,
      "▁sekilde": 917,
      "##eder": 918,
      "▁eger": 919,
      "▁philadelphia'ya": 920,
      "▁end": 921,
      "▁mily": 922,
      "▁kav": 923,
      "##acagız": 924,
      "▁gu": 925,
      "##ırdı": 926,
      "▁otomobil": 927,
      "—": 928,
      ">": 929,
      "▁hepsi": 930,
      "##mel": 931,
      "##anlık": 932,
      "▁karsiligini": 933,
      "##alarla": 934,
      "##sk": 935,
      "▁yıl": 936,
      "▁mac": 937,
      "##ba": 938,
      "▁harik": 939,
      "##ok": 940,
      "##\\": 941,
      "##emem": 942,
      "▁mak": 943,
      "▁nis": 944,
      "▁islet": 945,
      "##ir": 946,
      "▁goster": 947,
      "▁mart": 948,
      "▁allak": 949,
      "▁gidip": 950,
      "▁almıs": 951,
      "▁fı": 952,
      "▁ara": 953,
      "▁gelmis": 954,
      "*": 955,
      "##mey": 956,
      "▁istik": 957,
      "▁uzun": 958,
      "##egi": 959,
      "▁ver": 960,
      "▁hayat": 961,
      "▁sorun": 962,
      "▁ma": 963,
      "▁tamamen": 964,
      "##75": 965,
      "▁sozcusu": 966,
      "##si": 967,
      "▁muster": 968,
      "▁kendin": 969,
      "▁niyet": 970,
      "▁cit": 971,
      "▁ulus": 972,
      "▁sis": 973,
      "##qu": 974,
      "##cilik": 975,
      "▁fayd": 976,
      "▁deprem": 977,
      "##'nın": 978,
      "##dık": 979,
      "▁cogu": 980,
      "▁avuk": 981,
      "##:00": 982,
      "##leri": 983,
      "▁ton": 984,
      "▁gi": 985,
      "▁istedi": 986,
      "▁olma": 987,
      "▁ulusal": 988,
      "▁kuzey": 989,
      "▁kul": 990,
      "##32": 991,
      "##anlar": 992,
      "▁sah": 993,
      "▁lez": 994,
      "##lara": 995,
      "▁gunluk": 996,
      "##aret": 997,
      "▁fab": 998,
      "##lig": 999,
      "▁acıklan": 1000,
      "▁ab": 1001,
      "##.5": 1002,
      "▁duruyor": 1003,
      "▁cocugun": 1004,
      "▁cıyak": 1005,
      "##ch": 1006,
      "▁erkek": 1007,
      "▁br": 1008,
      "##sız": 1009,
      "▁gide": 1010,
      "##ken": 1011,
      "▁pat": 1012,
      "##ip": 1013,
      "▁ev": 1014,
      "##ich": 1015,
      "▁hızla": 1016,
      "▁cin": 1017,
      "▁har": 1018,
      "##cu": 1019,
      "##'ı": 1020,
      "##i": 1021,
      "▁yerine": 1022,
      "##dıgını": 1023,
      "▁dondu": 1024,
      "##iddet": 1025,
      "▁deniz": 1026,
      "##kın": 1027,
      "▁`": 1028,
      "▁kayı": 1029,
      "▁duserek": 1030,
      "▁se": 1031,
      "##ektr": 1032,
      "▁z": 1033,
      "▁ancak": 1034,
      "▁sokak": 1035,
      "▁dusus": 1036,
      "▁milyon": 1037,
      "##ak": 1038,
      "▁fot": 1039,
      "▁sınıfı": 1040,
      "##esin": 1041,
      "##meleri": 1042,
      "▁kon": 1043,
      "##ık": 1044,
      "##ıy": 1045,
      "▁bile": 1046,
      "▁gorus": 1047,
      "##uma": 1048,
      "##agın": 1049,
      "▁yeterli": 1050,
      "▁%7.875": 1051,
      "▁vat": 1052,
      "##iran": 1053,
      "▁univ": 1054,
      "[CLS]": 1055,
      "▁haldır": 1056,
      "▁yer": 1057,
      "##van": 1058,
      "##sim": 1059,
      "▁kim": 1060,
      "▁fırıl": 1061,
      "##digi": 1062,
      "▁chic": 1063,
      "##rum": 1064,
      "▁1.2": 1065,
      "##—": 1066,
      "##lu": 1067,
      "▁salon": 1068,
      "##ından": 1069,
      "##ca": 1070,
      "▁ban": 1071,
      "▁sert": 1072,
      "##larak": 1073,
      "▁lı": 1074,
      "▁fiyatı": 1075,
      "▁hanım": 1076,
      "▁vardı": 1077,
      "▁cıl": 1078,
      "▁mor": 1079,
      "▁kur": 1080,
      "##'s": 1081,
      "▁8": 1082,
      "▁ses": 1083,
      "▁etmem": 1084,
      "##ınc": 1085,
      "▁gerektigini": 1086,
      "▁%99": 1087,
      "▁araba": 1088,
      "▁amac": 1089,
      "▁yuzde": 1090,
      "▁koca": 1091,
      "▁od": 1092,
      "##tur": 1093,
      "##ly": 1094,
      "▁imkanlari": 1095,
      "▁gaz": 1096,
      "##sun": 1097,
      "##lamaya": 1098,
      "##lige": 1099,
      "▁aydın": 1100,
      "##arlan": 1101,
      "▁hom": 1102,
      "##on": 1103,
      "▁yuzlu": 1104,
      "@": 1105,
      "▁tok": 1106,
      "▁ap": 1107,
      "##-23": 1108,
      "▁kıyas": 1109,
      "▁arab": 1110,
      "▁tir": 1111,
      "##ach": 1112,
      "▁ulk": 1113,
      "▁yetersiz": 1114,
      "##uh": 1115,
      "##sunuz": 1116,
      "▁kalitesi": 1117,
      "##aların": 1118,
      "▁ydu": 1119,
      "▁pay": 1120,
      "▁onay": 1121,
      "##nun": 1122,
      "▁aktiv": 1123,
      "▁olanak": 1124,
      "▁gordum": 1125,
      "▁%51": 1126,
      "▁azından": 1127,
      "▁corp.": 1128,
      "▁normaldi": 1129,
      "▁ama": 1130,
      "▁gelip": 1131,
      "##ediyor": 1132,
      "▁mum": 1133,
      "▁kendime": 1134,
      "##hal": 1135,
      "▁yasam": 1136,
      "##rı": 1137,
      "▁20": 1138,
      "▁hır": 1139,
      "##lardı": 1140,
      "▁soylem": 1141,
      "##aket": 1142,
      "▁sozles": 1143,
      "▁odaydi": 1144,
      "▁kredi": 1145,
      "▁akıl": 1146,
      "##ational": 1147,
      "▁onlar": 1148,
      "▁%6.90": 1149,
      "▁ar": 1150,
      "▁cek": 1151,
      "▁bat": 1152,
      "▁petrol": 1153,
      "▁sart": 1154,
      "▁ydi": 1155,
      "▁ler": 1156,
      "▁soylen": 1157,
      "▁": 1158,
      "▁bekliyor": 1159,
      "▁16": 1160,
      "▁hep": 1161,
      "##uzel": 1162,
      "▁ul": 1163,
      "▁%7.8": 1164,
      ".": 1165,
      "▁dusun": 1166,
      "▁emin": 1167,
      "##ligini": 1168,
      "##abilecek": 1169,
      "##ırlar": 1170,
      "▁yedi": 1171,
      "##and": 1172,
      "##dır": 1173,
      "▁hen": 1174,
      "##ust": 1175,
      "▁zamanda": 1176,
      "▁1989-": 1177,
      "▁gidis": 1178,
      "▁nisan": 1179,
      "▁sanat": 1180,
      "▁ailelere": 1181,
      "▁yapmak": 1182,
      "▁nas": 1183,
      "##larını": 1184,
      "▁%5.4": 1185,
      "##likte": 1186,
      "▁olmayan": 1187,
      "▁boylece": 1188,
      "##leyen": 1189,
      "▁cag": 1190,
      "▁dum": 1191,
      "##eden": 1192,
      "▁sonr": 1193,
      "▁su": 1194,
      "##ladım": 1195,
      "▁gid": 1196,
      "▁tahmin": 1197,
      "##rem": 1198,
      "▁halen": 1199,
      "##enc": 1200,
      "##lanıyor": 1201,
      "##elerek": 1202,
      "##aliydi": 1203,
      "▁bizde": 1204,
      "##len": 1205,
      "▁altın": 1206,
      "▁cleveland": 1207,
      "▁american": 1208,
      "▁salt": 1209,
      "▁mali": 1210,
      "▁diger": 1211,
      "##t": 1212,
      "▁hangileri": 1213,
      "##indan": 1214,
      "▁olumlu": 1215,
      "##og": 1216,
      "▁birden": 1217,
      "##iliyor": 1218,
      "▁yere": 1219,
      "▁olur": 1220,
      "##cisi": 1221,
      "##sil": 1222,
      "▁yalnız": 1223,
      "▁baskan": 1224,
      "▁hat": 1225,
      "▁japon": 1226,
      "▁gelistir": 1227,
      "▁kullan": 1228,
      "▁tat": 1229,
      "▁dusuktu": 1230,
      "▁yeniden": 1231,
      "▁kesinlikle": 1232,
      "▁nashville": 1233,
      "▁cog": 1234,
      "##ers": 1235,
      "▁alıs": 1236,
      "##ıyorlar": 1237,
      "▁aradi": 1238,
      "▁federal": 1239,
      "▁tip": 1240,
      "▁imkan": 1241,
      "##dem": 1242,
      "▁acıkladı": 1243,
      "##les": 1244,
      "##elik": 1245,
      "▁yasıyor": 1246,
      "##ılım": 1247,
      "▁fark": 1248,
      "▁faiz": 1249,
      "▁li": 1250,
      "▁artısla": 1251,
      "▁saldır": 1252,
      "##ket": 1253,
      "▁%15": 1254,
      "▁seh": 1255,
      "##av": 1256,
      "▁kere": 1257,
      "▁bayram": 1258,
      "▁gon": 1259,
      "▁hız": 1260,
      "▁rom": 1261,
      "▁uretim": 1262,
      "▁kusur": 1263,
      "##lerinden": 1264,
      "f": 1265,
      "▁hizmetleri": 1266,
      "▁borc": 1267,
      "▁yemeklerinden": 1268,
      "▁ucuncu": 1269,
      "▁onemli": 1270,
      "▁sesi": 1271,
      "▁annem": 1272,
      "▁kimi": 1273,
      "▁avrup": 1274,
      "##ol": 1275,
      "▁it": 1276,
      "▁yonet": 1277,
      "▁ornegin": 1278,
      "▁yandan": 1279,
      "▁dogr": 1280,
      "▁yardim": 1281,
      "▁size": 1282,
      "▁dieg": 1283,
      "▁gosterdi": 1284,
      "##ru": 1285,
      "▁isim": 1286,
      "##.6": 1287,
      "▁etkil": 1288,
      "▁mi": 1289,
      "▁sir": 1290,
      "▁lezzet": 1291,
      "▁oy": 1292,
      "▁ruh": 1293,
      "▁199": 1294,
      "##obil": 1295,
      "##nız": 1296,
      "▁26": 1297,
      "▁odamiz": 1298,
      "▁boyle": 1299,
      "▁kahval": 1300,
      "##ana": 1301,
      "▁oakland'a": 1302,
      "▁ardından": 1303,
      "▁dib": 1304,
      "▁uz": 1305,
      "▁hij": 1306,
      "▁beye": 1307,
      "##ye": 1308,
      "##ital": 1309,
      "▁sel": 1310,
      "▁aslında": 1311,
      "▁cıktı": 1312,
      "▁ingiliz": 1313,
      "▁talep": 1314,
      "▁bilim": 1315,
      "##1-19": 1316,
      "▁cel": 1317,
      "▁yiyecek": 1318,
      "▁oldugun": 1319,
      "▁montreal": 1320,
      "▁baltimore'ye": 1321,
      "▁12": 1322,
      "▁yuksekti": 1323,
      "▁ustu": 1324,
      "##mayacak": 1325,
      "##|": 1326,
      "▁savun": 1327,
      "▁alacak": 1328,
      "▁hakk": 1329,
      "(": 1330,
      "##rik": 1331,
      "▁city'den": 1332,
      "##en": 1333,
      "##isler": 1334,
      "##eli": 1335,
      "▁sup": 1336,
      "▁olmalı": 1337,
      "▁…": 1338,
      "##ong": 1339,
      "l": 1340,
      "▁vegas": 1341,
      "|": 1342,
      "##ucu": 1343,
      "▁nerede": 1344,
      "##uyor": 1345,
      "##=": 1346,
      "▁ucuyor": 1347,
      "##imin": 1348,
      "▁anket": 1349,
      "▁istem": 1350,
      "▁yaklasık": 1351,
      "▁okul": 1352,
      "▁ta": 1353,
      "▁havaalanı": 1354,
      "▁yukseldi": 1355,
      "▁spor": 1356,
      "▁ug": 1357,
      "##lardan": 1358,
      "##emiz": 1359,
      "##man": 1360,
      "n": 1361,
      "▁yıldız": 1362,
      "▁veriyorum": 1363,
      "##uyordu": 1364,
      "▁tanım": 1365,
      "##os": 1366,
      "##tuk": 1367,
      "▁duzel": 1368,
      "▁koltuk": 1369,
      "▁75": 1370,
      "##ger": 1371,
      "▁ekmek": 1372,
      "b": 1373,
      "##ati": 1374,
      "▁tum": 1375,
      "##ec": 1376,
      "▁avukat": 1377,
      "##gimiz": 1378,
      "▁devr": 1379,
      "▁.'": 1380,
      "▁gor": 1381,
      "▁olmadıgı": 1382,
      "▁sarı": 1383,
      "##fi": 1384,
      "▁oteli": 1385,
      "▁persembe": 1386,
      "▁kaldı": 1387,
      "▁yans": 1388,
      "▁altına": 1389,
      "▁ediyoruz": 1390,
      "▁mev": 1391,
      "##lastı": 1392,
      "##ırı": 1393,
      "▁sadece": 1394,
      "##tif": 1395,
      "##edi": 1396,
      "i": 1397,
      "▁kong": 1398,
      "▁7": 1399,
      "▁yine": 1400,
      "▁anlas": 1401,
      "##irdi": 1402,
      "▁yiy": 1403,
      "▁okuy": 1404,
      "▁ayrıl": 1405,
      "##ali": 1406,
      "▁yemekleri": 1407,
      "##leriyle": 1408,
      "▁sırada": 1409,
      "▁konut": 1410,
      "##ıyla": 1411,
      "▁derli": 1412,
      "▁beri": 1413,
      "##/": 1414,
      "▁civ": 1415,
      "▁sizi": 1416,
      "▁bog": 1417,
      "▁piyasa": 1418,
      "▁allah": 1419,
      "▁kok": 1420,
      "##unde": 1421,
      "▁tab": 1422,
      "##aları": 1423,
      "▁kahv": 1424,
      "▁aynı": 1425,
      "▁dok": 1426,
      "▁olm": 1427,
      "##u": 1428,
      "▁a.": 1429,
      "##ma": 1430,
      "▁plan": 1431,
      "##gur": 1432,
      "▁avrupa": 1433,
      "1": 1434,
      "▁edebiyat": 1435,
      "▁anadolu": 1436,
      "##tu": 1437,
      "▁gunu": 1438,
      "##'dan": 1439,
      "▁mir": 1440,
      "▁olcude": 1441,
      "▁basında": 1442,
      "▁gazet": 1443,
      "##ısında": 1444,
      "▁insaat": 1445,
      "##lasyon": 1446,
      "▁muk": 1447,
      "▁ayr": 1448,
      "▁ilgiliydi": 1449,
      "▁%8.2": 1450,
      "▁aksamı": 1451,
      "##esel": 1452,
      "▁alak": 1453,
      "▁karayol": 1454,
      "##ek": 1455,
      "▁orne": 1456,
      "▁?..": 1457,
      "##z": 1458,
      "▁gecti": 1459,
      "##gel": 1460,
      "▁tor": 1461,
      "▁sahibi": 1462,
      "▁ilet": 1463,
      "▁%3.5": 1464,
      "▁hik": 1465,
      "▁icecek": 1466,
      "▁hus": 1467,
      "▁dil": 1468,
      "▁hic": 1469,
      "▁ren": 1470,
      "▁36": 1471,
      "▁durum": 1472,
      "##atır": 1473,
      "##tigini": 1474,
      "▁danıs": 1475,
      "▁kisisel": 1476,
      "▁dun": 1477,
      "##ans": 1478,
      "▁kard": 1479,
      "▁kampan": 1480,
      "▁tık": 1481,
      "▁dobra": 1482,
      "##lıgı": 1483,
      "##dıg": 1484,
      "▁yaptirdi": 1485,
      "##iya": 1486,
      "##ayı": 1487,
      "▁ciz": 1488,
      "▁milwaukee'den": 1489,
      "▁lir": 1490,
      "▁gecer": 1491,
      "▁13": 1492,
      "▁davet": 1493,
      "▁dısında": 1494,
      "▁ingil": 1495,
      "▁tabii": 1496,
      "##han": 1497,
      "##gar": 1498,
      "▁ilan": 1499,
      "▁sessiz": 1500,
      "▁bo": 1501,
      "'": 1502,
      "▁kom": 1503,
      "##ley": 1504,
      "##eyi": 1505,
      "▁gog": 1506,
      "▁yardımcısı": 1507,
      "##samba": 1508,
      "##cak": 1509,
      "▁yay": 1510,
      "▁benimle": 1511,
      "##l": 1512,
      "##duk": 1513,
      "##ıcı": 1514,
      "##-4": 1515,
      "▁fi": 1516,
      "##onom": 1517,
      "▁fiyat": 1518,
      "##ess": 1519,
      "▁dolayı": 1520,
      "▁adam": 1521,
      "##meden": 1522,
      "▁kaybet": 1523,
      "##lek": 1524,
      "##iyet": 1525,
      "▁ten": 1526,
      "##ını": 1527,
      "▁anad": 1528,
      "▁gonder": 1529,
      ";": 1530,
      "##layıp": 1531,
      "▁in": 1532,
      "##ize": 1533,
      "▁fiyatlar": 1534,
      "▁tane": 1535,
      "##pan": 1536,
      "▁tanı": 1537,
      "▁agır": 1538,
      "▁temiz": 1539,
      "▁asıl": 1540,
      "▁boston'dan": 1541,
      "##'a": 1542,
      "▁icer": 1543,
      "▁?": 1544,
      "▁isteyen": 1545,
      "▁dunya": 1546,
      "▁miydi": 1547,
      "▁ile": 1548,
      "##10": 1549,
      "▁konfor": 1550,
      "##elerini": 1551,
      "##ill": 1552,
      "▁tehlik": 1553,
      "▁tampa": 1554,
      "▁kız": 1555,
      "##tiv": 1556,
      "▁sekil": 1557,
      "▁zaman": 1558,
      "▁veririm": 1559,
      "##ene": 1560,
      "▁uzerinde": 1561,
      "##lerinin": 1562,
      "##dıklarını": 1563,
      "##:00-22:30": 1564,
      "▁strate": 1565,
      "##ic": 1566,
      "▁ter": 1567,
      "▁'nin": 1568,
      "##esi": 1569,
      "▁kad": 1570,
      "▁oldugunu": 1571,
      "▁ph": 1572,
      "▁takır": 1573,
      "##ra": 1574,
      "##malı": 1575,
      "##lerle": 1576,
      "▁degistir": 1577,
      "▁basarılı": 1578,
      "##ank": 1579,
      "##'te": 1580,
      "##'ya": 1581,
      "##ısına": 1582,
      "▁tu": 1583,
      "▁gorunce": 1584,
      "▁bilet": 1585,
      "▁em": 1586,
      "▁iz": 1587,
      "▁istanbul": 1588,
      "##tal": 1589,
      "##ulan": 1590,
      "##ilerin": 1591,
      "##lah": 1592,
      "▁pan": 1593,
      "##mıslar": 1594,
      "▁herk": 1595,
      "##uyorlar": 1596,
      "▁0": 1597,
      "▁os": 1598,
      "▁sunu": 1599,
      "▁sehr": 1600,
      "▁sosyal": 1601,
      "##atik": 1602,
      "▁9": 1603,
      "##ustos": 1604,
      "▁cep": 1605,
      "##inc": 1606,
      "##ayet": 1607,
      "▁bicim": 1608,
      "▁puan": 1609,
      "▁biles": 1610,
      "##ice": 1611,
      "▁ayakk": 1612,
      "##eme": 1613,
      "▁servis": 1614,
      "##bank": 1615,
      "▁sek": 1616,
      "▁duzey": 1617,
      "▁hale": 1618,
      "▁ka": 1619,
      "##im": 1620,
      "##ledi": 1621,
      "▁kop": 1622,
      "##ildi": 1623,
      "e": 1624,
      "▁but": 1625,
      "▁%8": 1626,
      "▁alıcı": 1627,
      "▁yuzden": 1628,
      "▁mec": 1629,
      "##ucuk": 1630,
      "##bir": 1631,
      "##iyat": 1632,
      "▁gorev": 1633,
      "▁lake": 1634,
      "▁sade": 1635,
      "▁tatlı": 1636,
      "▁%3": 1637,
      "▁'d": 1638,
      "▁dogrudan": 1639,
      "##inci": 1640,
      "▁eg": 1641,
      "▁hicbiri": 1642,
      "▁siyasi": 1643,
      "▁yetk": 1644,
      "▁lak": 1645,
      "▁arastır": 1646,
      "▁pah": 1647,
      "##uru": 1648,
      "▁yap": 1649,
      "▁iyice": 1650,
      "▁degillerdi": 1651,
      "##imli": 1652,
      "▁doy": 1653,
      "▁sevgil": 1654,
      "##o'dan": 1655,
      "▁kuc": 1656,
      "▁cocuklu": 1657,
      "##osy": 1658,
      "##eet": 1659,
      "▁azal": 1660,
      "▁dedik": 1661,
      "▁tesekkurler": 1662,
      "##ates": 1663,
      "##aca": 1664,
      "▁donem": 1665,
      "▁elektrik": 1666,
      "▁bin": 1667,
      "▁kitap": 1668,
      "▁kayıt": 1669,
      "##gıc": 1670,
      "##lerim": 1671,
      "▁cinc": 1672,
      "▁yonelik": 1673,
      "##tigi": 1674,
      "##ayıp": 1675,
      "▁soyler": 1676,
      "▁com": 1677,
      "9": 1678,
      "▁memur": 1679,
      "##layacak": 1680,
      "▁surekli": 1681,
      "▁hadi": 1682,
      "▁dest": 1683,
      "##lugu": 1684,
      "▁tep": 1685,
      "▁yetersizdi": 1686,
      "##ama": 1687,
      "▁ince": 1688,
      "##ikti": 1689,
      "▁%": 1690,
      "▁isten": 1691,
      "##luluk": 1692,
      "▁198": 1693,
      "▁1990": 1694,
      "▁demir": 1695,
      "##phia": 1696,
      "▁hayal": 1697,
      "▁bence": 1698,
      "▁motor": 1699,
      "▁enflasyon": 1700,
      "▁vucu": 1701,
      "▁kalmıs": 1702,
      "▁herkes": 1703,
      "##mistir": 1704,
      "▁ucrete": 1705,
      "##veland": 1706,
      "▁baglan": 1707,
      "##orn": 1708,
      "▁makin": 1709,
      "##'e": 1710,
      "▁du": 1711,
      "▁toplan": 1712,
      "▁ucusların": 1713,
      "##8": 1714,
      "##dis": 1715,
      "▁port": 1716,
      "##agını": 1717,
      "▁hepsin": 1718,
      "▁inc": 1719,
      "▁ogretmen": 1720,
      "▁philadelphia'dan": 1721,
      "▁gorunuyor": 1722,
      "▁yapıl": 1723,
      "▁ogren": 1724,
      "▁odam": 1725,
      "▁olabil": 1726,
      "##.3": 1727,
      "▁anda": 1728,
      "▁kamu": 1729,
      "##let": 1730,
      "▁ov": 1731,
      "▁sıcak": 1732,
      "##lanır": 1733,
      "##)": 1734,
      "▁kam": 1735,
      "▁tek": 1736,
      "##pa": 1737,
      "##malar": 1738,
      "##alt": 1739,
      "##ebil": 1740,
      "##lan": 1741,
      "▁sat": 1742,
      "▁hizmet": 1743,
      "▁her": 1744,
      "▁red": 1745,
      "▁gecik": 1746,
      "##ond": 1747,
      "##izm": 1748,
      "##ih": 1749,
      "▁kis": 1750,
      "##men": 1751,
      "##lanan": 1752,
      "▁ortaya": 1753,
      "##yn": 1754,
      "▁ken": 1755,
      "6": 1756,
      "▁aileler": 1757,
      "▁mucadel": 1758,
      "▁zevk": 1759,
      "▁bunlar": 1760,
      "##ow": 1761,
      "##na": 1762,
      "▁atlanta'dan": 1763,
      "▁hatta": 1764,
      "▁do": 1765,
      "▁detroit": 1766,
      "▁%17": 1767,
      "##imizin": 1768,
      "##eg": 1769,
      "▁resim": 1770,
      "##iniz": 1771,
      "##mustu": 1772,
      "##”": 1773,
      "▁kol": 1774,
      "##b": 1775,
      "▁uret": 1776,
      "##92": 1777,
      "▁mayıs": 1778,
      "##ti": 1779,
      "▁gunes": 1780,
      "▁ogret": 1781,
      "▁tak": 1782,
      "▁continental": 1783,
      "▁ettim": 1784,
      "▁ruzgar": 1785,
      "▁ber": 1786,
      "▁telefonla": 1787,
      "##mak": 1788,
      "▁duny": 1789,
      "▁belli": 1790,
      "▁uf": 1791,
      "▁gene": 1792,
      "w": 1793,
      "▁geliyor": 1794,
      "##emi": 1795,
      "▁calisanlar": 1796,
      "▁kez": 1797,
      "▁senet": 1798,
      "▁bakıs": 1799,
      "▁karsın": 1800,
      "▁tatil": 1801,
      "▁ed": 1802,
      "▁yanı": 1803,
      "▁louis": 1804,
      "##elim": 1805,
      "##mesini": 1806,
      "▁fort": 1807,
      "▁c": 1808,
      "▁..\"": 1809,
      "##ırak": 1810,
      "▁oper": 1811,
      "##'nin": 1812,
      "▁fokur": 1813,
      "▁us": 1814,
      "▁anlamda": 1815,
      "▁cumhuriyet": 1816,
      "▁%0": 1817,
      "##tık": 1818,
      "▁ihtiyar": 1819,
      "##-200": 1820,
      "▁yardım": 1821,
      "##tre": 1822,
      "▁sını": 1823,
      "▁key": 1824,
      "▁etmek": 1825,
      "▁sasır": 1826,
      "▁mol": 1827,
      "##larımız": 1828,
      "▁birbirlerine": 1829,
      "##alarda": 1830,
      "▁yuzu": 1831,
      "▁gecir": 1832,
      "##vel": 1833,
      "▁oldum": 1834,
      "▁kadın": 1835,
      "▁kemal": 1836,
      "▁60": 1837,
      "▁reklam": 1838,
      "##ayacak": 1839,
      "##et": 1840,
      "##liyor": 1841,
      "▁%7.7": 1842,
      "##ırk": 1843,
      "##ıp": 1844,
      "##.9": 1845,
      "▁surdur": 1846,
      "##mayı": 1847,
      "▁ona": 1848,
      "▁begendim": 1849,
      "##6": 1850,
      "##dal": 1851,
      "▁artarak": 1852,
      "##amız": 1853,
      "▁eskiydi": 1854,
      "▁mutlu": 1855,
      "##uar": 1856,
      "▁cumhur": 1857,
      "▁olay": 1858,
      "▁kapandı": 1859,
      "▁siy": 1860,
      "▁girdi": 1861,
      "▁didik": 1862,
      "▁satım": 1863,
      "▁yagm": 1864,
      "##lenmis": 1865,
      "▁temizdi": 1866,
      "▁basar": 1867,
      "##sı": 1868,
      "##ini": 1869,
      "▁gerekiyor": 1870,
      "▁kendisin": 1871,
      "##ert": 1872,
      "▁tefek": 1873,
      "▁1991-19": 1874,
      "##tım": 1875,
      "##apolis": 1876,
      "##-22:30": 1877,
      "▁cift": 1878,
      "▁dı": 1879,
      "▁dev": 1880,
      "▁ilgilendiler": 1881,
      "##ediye": 1882,
      "▁un": 1883,
      "▁yol": 1884,
      "##makta": 1885,
      "▁met": 1886,
      "▁uzan": 1887,
      "▁sem": 1888,
      "##ugun": 1889,
      "▁agac": 1890,
      "##ia": 1891,
      "▁herkese": 1892,
      "▁nedir": 1893,
      "▁tezgah": 1894,
      "##dek": 1895,
      "▁gormek": 1896,
      "▁pazar": 1897,
      "##larım": 1898,
      "▁nere": 1899,
      "▁ederek": 1900,
      "▁ol": 1901,
      "▁kapat": 1902,
      "▁bol": 1903,
      "▁angel": 1904,
      "##erv": 1905,
      "▁net": 1906,
      "▁hukum": 1907,
      "▁det": 1908,
      "▁hicbir": 1909,
      "▁beklem": 1910,
      "##liydi": 1911,
      "▁al": 1912,
      "▁gev": 1913,
      "▁gidi": 1914,
      "▁koyun": 1915,
      "▁tec": 1916,
      "▁durgun": 1917,
      "▁karıstır": 1918,
      "▁100": 1919,
      "▁kons": 1920,
      "▁ozellikle": 1921,
      "▁endeks": 1922,
      "##'n": 1923,
      "▁toplam": 1924,
      "[MASK]": 1925,
      "▁aksam": 1926,
      "##alı": 1927,
      "▁sin": 1928,
      "▁calısma": 1929,
      "▁galib": 1930,
      "▁ekledi": 1931,
      "▁bildirdi": 1932,
      "##_": 1933,
      "##ara": 1934,
      "▁ise": 1935,
      "##'i": 1936,
      "##le": 1937,
      "▁mag": 1938,
      "##a'nın": 1939,
      "▁sonra": 1940,
      "▁pers": 1941,
      "##isk": 1942,
      "▁duy": 1943,
      "##est": 1944,
      "##indeki": 1945,
      "##ums": 1946,
      "##asi": 1947,
      "▁ard": 1948,
      "▁francisco'ya": 1949,
      "▁lazım": 1950,
      "##bur": 1951,
      "##sas": 1952,
      "▁sim": 1953,
      "##inda": 1954,
      "##otte": 1955,
      "###": 1956,
      "##ısıyla": 1957,
      "▁surec": 1958,
      "▁gok": 1959,
      "▁)": 1960,
      "▁miami'ye": 1961,
      "##bire": 1962,
      "##afir": 1963,
      "##mamıs": 1964,
      "##q": 1965,
      "▁seatt": 1966,
      "▁es": 1967,
      "##ardan": 1968,
      "##gil": 1969,
      "##lay": 1970,
      "##erdi": 1971,
      "▁hamam": 1972,
      "##enkul": 1973,
      "▁oyn": 1974,
      "▁hey": 1975,
      "▁''": 1976,
      "▁ila": 1977,
      "▁egil": 1978,
      "##ecik": 1979,
      "▁zaten": 1980,
      "▁uzerinden": 1981,
      "▁41": 1982,
      "▁bir": 1983,
      "##acag": 1984,
      "##ıyor": 1985,
      "▁per": 1986,
      "##tar": 1987,
      "▁alıp": 1988,
      "##timore": 1989,
      "▁birkac": 1990,
      "▁otelin": 1991,
      "▁sun": 1992,
      "▁oldukca": 1993,
      "##ayıf": 1994,
      "##yen": 1995,
      "▁verdi": 1996,
      "▁yarın": 1997,
      "##&": 1998,
      "▁gitt": 1999,
      "▁gunku": 2000,
      "▁ek": 2001,
      "v": 2002,
      "▁atlanta": 2003,
      "##sen": 2004,
      "▁yasa": 2005,
      "▁polit": 2006,
      "▁gelis": 2007,
      "\"": 2008,
      "▁cicek": 2009,
      "▁sordu": 2010,
      "##eyin": 2011,
      "##gun": 2012,
      "##meler": 2013,
      "▁orada": 2014,
      "▁vergi": 2015,
      "▁odem": 2016,
      "▁ciyak": 2017,
      "▁paul": 2018,
      "##'le": 2019,
      "▁nit": 2020,
      "▁olus": 2021,
      "##lestir": 2022,
      "▁mur": 2023,
      "▁guler": 2024,
      "▁yas": 2025,
      "▁birinde": 2026,
      "##'nde": 2027,
      "▁orlando'ya": 2028,
      "▁yurut": 2029,
      "▁buna": 2030,
      "▁ann": 2031,
      "##uldu": 2032,
      "▁ef": 2033,
      "▁kuvvet": 2034,
      "▁sırt": 2035,
      "▁40": 2036,
      "##as": 2037,
      "##sın": 2038,
      "##ına": 2039,
      "##lıgın": 2040,
      "##ogram": 2041,
      "▁kıs": 2042,
      "▁patır": 2043,
      "▁yılı": 2044,
      "##■": 2045,
      "▁mul": 2046,
      "##unuyor": 2047,
      "▁tekrar": 2048,
      "##an": 2049,
      "▁ikib": 2050,
      "##'u": 2051,
      "▁kayb": 2052,
      "##v": 2053,
      "▁houston": 2054,
      "▁guney": 2055,
      "▁ondan": 2056,
      "##alan": 2057,
      "▁muh": 2058,
      "##umu": 2059,
      "▁nasıl": 2060,
      "##evizyon": 2061,
      "##gin": 2062,
      "▁tarihi": 2063,
      "##unun": 2064,
      "▁yoksa": 2065,
      "▁eden": 2066,
      "##iligi": 2067,
      "▁min": 2068,
      "▁t": 2069,
      "▁e": 2070,
      "▁hos": 2071,
      "▁los": 2072,
      "▁hangisi": 2073,
      "▁yılında": 2074,
      "##gir": 2075,
      "##ume": 2076,
      "▁21": 2077,
      "##%": 2078,
      "##leme": 2079,
      "▁3": 2080,
      "▁yonel": 2081,
      "▁kuv": 2082,
      "▁tarafından": 2083,
      "▁insanların": 2084,
      "##ları": 2085,
      "q": 2086,
      "▁class": 2087,
      "##ter": 2088,
      "▁kum": 2089,
      "##ısız": 2090,
      "▁yakin": 2091,
      "##imi": 2092,
      "▁sav": 2093,
      "▁got": 2094,
      "▁ragmen": 2095,
      "##uluyor": 2096,
      "▁str": 2097,
      "##lul": 2098,
      "▁dag": 2099,
      "▁geril": 2100,
      "▁kab": 2101,
      "▁batı": 2102,
      "▁karsıl": 2103,
      "▁sebep": 2104,
      "▁oc": 2105,
      "▁stok": 2106,
      "▁tez": 2107,
      "##-1": 2108,
      "▁biraz": 2109,
      "##onel": 2110,
      "▁ilisk": 2111,
      "▁mısın": 2112,
      "▁kıy": 2113,
      "▁o": 2114,
      "▁ucreti": 2115,
      "##sik": 2116,
      "##+": 2117,
      "▁yaptirmadim": 2118,
      "##lik": 2119,
      "##ecegi": 2120,
      "▁kot": 2121,
      "▁hikay": 2122,
      "▁personelleri": 2123,
      "##etin": 2124,
      "▁olması": 2125,
      "##.7": 2126,
      "▁kıtır": 2127,
      "##eviz": 2128,
      "▁indir": 2129,
      "▁6": 2130,
      "▁hal": 2131,
      "▁hareket": 2132,
      "##larının": 2133,
      "▁super": 2134,
      "##onik": 2135,
      "▁bolum": 2136,
      "▁r": 2137,
      "##lari": 2138,
      "##.": 2139,
      "▁hes": 2140,
      "▁personeli": 2141,
      "▁37": 2142,
      "##tiler": 2143,
      "▁dus": 2144,
      "##asa": 2145,
      "▁yuk": 2146,
      "##k": 2147,
      "▁git": 2148,
      "▁dısarı": 2149,
      "##abet": 2150,
      "##miyorum": 2151,
      "##ore": 2152,
      "▁hepsinin": 2153,
      "##cileri": 2154,
      "▁fin": 2155,
      "▁isk": 2156,
      "▁ayrıca": 2157,
      "##inde": 2158,
      "##eyim": 2159,
      "▁new": 2160,
      "▁nokt": 2161,
      "##akır": 2162,
      "##o": 2163,
      "▁rez": 2164,
      "▁sermaye": 2165,
      "▁mıs": 2166,
      "▁15": 2167,
      "▁bundan": 2168,
      "▁hazır": 2169,
      "##lerini": 2170,
      "%": 2171,
      "▁bulundu": 2172,
      "▁onlara": 2173,
      "▁bahc": 2174,
      "▁kenar": 2175,
      "▁alım": 2176,
      "▁rad": 2177,
      "##re": 2178,
      "▁if": 2179,
      "##bus": 2180,
      "▁28": 2181,
      "▁duyar": 2182,
      "▁memleket": 2183,
      "##istik": 2184,
      "▁arkadas": 2185,
      "▁parca": 2186,
      "▁endeksi": 2187,
      "▁kolay": 2188,
      "▁cem": 2189,
      "”": 2190,
      "##wa": 2191,
      "##'ın": 2192,
      "▁oda": 2193,
      "##ardı": 2194,
      "##ens": 2195,
      "▁edip": 2196,
      "▁suy": 2197,
      "##tadır": 2198,
      "##ısını": 2199,
      "##alardan": 2200,
      "▁sist": 2201,
      "▁baskanı": 2202,
      "▁san": 2203,
      "▁yapılan": 2204,
      "▁daha": 2205,
      "​": 2206,
      "▁kesin": 2207,
      "▁yok": 2208,
      "##ıl": 2209,
      "##uyle": 2210,
      "▁zayif": 2211,
      "##atı": 2212,
      "##amadim": 2213,
      "##iri": 2214,
      "▁oakland'dan": 2215,
      "##7": 2216,
      "▁hanimdi": 2217,
      "##iyordu": 2218,
      "▁29": 2219,
      "▁toplantı": 2220,
      "▁ediyordu": 2221,
      "##!": 2222,
      "▁lut": 2223,
      "##ihaz": 2224,
      "▁babam": 2225,
      "▁suc": 2226,
      "▁ekonom": 2227,
      "▁uzak": 2228,
      "##luyor": 2229,
      "▁lo": 2230,
      "▁gec": 2231,
      "▁yapılacak": 2232,
      "##agına": 2233,
      "##lenen": 2234,
      "▁ail": 2235,
      "##ahat": 2236,
      "▁otelden": 2237,
      "##co": 2238,
      "##yıl": 2239,
      "▁olanaklari": 2240,
      "▁bask": 2241,
      "##alet": 2242,
      "▁bazen": 2243,
      "▁i": 2244,
      "▁insanlar": 2245,
      "##meli": 2246,
      "##fet": 2247,
      "##eki": 2248,
      "▁sikayet": 2249,
      "##dur": 2250,
      "▁soyle": 2251,
      "▁silah": 2252,
      "▁yemek": 2253,
      "▁ki": 2254,
      "#": 2255,
      "▁donus": 2256,
      "▁kır": 2257,
      "▁gizli": 2258,
      "▁derin": 2259,
      "▁meh": 2260,
      "▁dolara": 2261,
      "##ayi": 2262,
      "▁olacak": 2263,
      "##unu": 2264,
      "▁otur": 2265,
      "▁cagır": 2266,
      "##emedi": 2267,
      "▁delik": 2268,
      "▁banka": 2269,
      "▁soyledi": 2270,
      "▁10": 2271,
      "▁co": 2272,
      "▁guzel": 2273,
      "▁el": 2274,
      "##lerden": 2275,
      ")": 2276,
      "##oh": 2277,
      "▁cevap": 2278,
      "▁musun": 2279,
      "▁201": 2280,
      "▁sın": 2281,
      "▁yel": 2282,
      "▁%3.": 2283,
      "▁kasım": 2284,
      "▁dallas'tan": 2285,
      "▁taraf": 2286,
      "▁otom": 2287,
      "▁direk": 2288,
      "##ya'nın": 2289,
      "▁muc": 2290,
      "##west": 2291,
      "##?": 2292,
      "▁park": 2293,
      "’": 2294,
      "##der": 2295,
      "##ıldır": 2296,
      "▁dava": 2297,
      "▁cez": 2298,
      "▁mav": 2299,
      "▁sıngır": 2300,
      "▁hay": 2301,
      "##'": 2302,
      "##landır": 2303,
      "##abilir": 2304,
      "▁inan": 2305,
      "##ılmaz": 2306,
      "▁yumus": 2307,
      "▁hur": 2308,
      "##lıkla": 2309,
      "▁etme": 2310,
      "##asıyor": 2311,
      "##lıga": 2312,
      "▁lungur": 2313,
      "##dılar": 2314,
      "▁yorgun": 2315,
      "▁#": 2316,
      "°": 2317,
      "▁hi": 2318,
      "▁eksik": 2319,
      "##tor": 2320,
      "##iste": 2321,
      "##endir": 2322,
      "▁yem": 2323,
      "▁did": 2324,
      "▁cal": 2325,
      "▁paz": 2326,
      "▁insa": 2327,
      "▁tedav": 2328,
      "##e": 2329,
      "▁dos": 2330,
      "##od": 2331,
      "▁yapı": 2332,
      "▁cay": 2333,
      "▁carsamba": 2334,
      "▁dur": 2335,
      "▁gereken": 2336,
      "▁kit": 2337,
      "▁kampanyalar": 2338,
      "▁te": 2339,
      "▁gidiyor": 2340,
      "##bar": 2341,
      "▁bun": 2342,
      "▁rek": 2343,
      "▁goruyor": 2344,
      "▁fısır": 2345,
      "“": 2346,
      "▁ortam": 2347,
      "##oy": 2348,
      "##ult": 2349,
      "▁ugr": 2350,
      "▁francisco'dan": 2351,
      "##siz": 2352,
      "▁yasında": 2353,
      "▁doları": 2354,
      "▁tuk": 2355,
      "▁pet": 2356,
      "▁dunyanın": 2357,
      "▁oteldi": 2358,
      "▁ticari": 2359,
      "##amıs": 2360,
      "##yak": 2361,
      "▁tıpıs": 2362,
      "##ıtır": 2363,
      "##das": 2364,
      "▁birini": 2365,
      "▁dam": 2366,
      "##las": 2367,
      "▁sap": 2368,
      "▁kurt": 2369,
      "##ost": 2370,
      "▁alk": 2371,
      "▁asl": 2372,
      "▁oldugum": 2373,
      "▁ho": 2374,
      "▁bunları": 2375,
      "##lıgına": 2376,
      "▁gelen": 2377,
      "▁bakıyor": 2378,
      "▁l": 2379,
      "▁dahil": 2380,
      "##uz": 2381,
      "▁onunde": 2382,
      "▁biri": 2383,
      "▁katkı": 2384,
      "▁hizmeti": 2385,
      "▁lutf": 2386,
      "▁genellikle": 2387,
      "▁eglen": 2388,
      "##ohn": 2389,
      "▁satıslar": 2390,
      "▁dol": 2391,
      "##raf": 2392,
      "##ciler": 2393,
      "▁*": 2394,
      "▁ti": 2395,
      "##aya": 2396,
      "▁memnun": 2397,
      "▁evin": 2398,
      "▁milwaukee": 2399,
      "▁hala": 2400,
      "##medik": 2401,
      "▁asker": 2402,
      "##mam": 2403,
      "▁yuks": 2404,
      "##yalar": 2405,
      "▁giris": 2406,
      "##ruk": 2407,
      "##maz": 2408,
      "##tı": 2409,
      "##usu": 2410,
      "▁hap": 2411,
      "▁$": 2412,
      "▁ataturk": 2413,
      "##memis": 2414,
      "▁temizligi": 2415,
      "##dıktan": 2416,
      "##uc": 2417,
      "##usunu": 2418,
      "▁sınır": 2419,
      "##arı": 2420,
      "##burg": 2421,
      "▁united": 2422,
      "▁pufur": 2423,
      "▁gecen": 2424,
      "▁%7": 2425,
      "##ilir": 2426,
      "▁insanın": 2427,
      "##fer": 2428,
      "▁oner": 2429,
      "##ilmis": 2430,
      "##hur": 2431,
      "▁sizin": 2432,
      "##meye": 2433,
      "##ov": 2434,
      "##n": 2435,
      "##mıstır": 2436,
      "▁fiyata": 2437,
      "##ıg": 2438,
      "▁benzer": 2439,
      "▁ali": 2440,
      "##ton": 2441,
      "##mini": 2442,
      "##da": 2443,
      "##dav": 2444,
      "▁artıs": 2445,
      "▁sirketi": 2446,
      "▁kuz": 2447,
      "▁olcu": 2448,
      "##oloj": 2449,
      "##mer": 2450,
      "▁list": 2451,
      "▁olmus": 2452,
      "▁uluslararası": 2453,
      "▁charlotte": 2454,
      "▁sahip": 2455,
      "▁siz": 2456,
      "▁futbol": 2457,
      "▁ideal": 2458,
      "▁kucuktu": 2459,
      "##'de": 2460,
      "##taj": 2461,
      "##ern": 2462,
      "▁bakan": 2463,
      "▁sefer": 2464,
      "▁rekabet": 2465,
      "##dın": 2466,
      "▁telefon": 2467,
      "▁aldıgı": 2468,
      "▁dar": 2469,
      "▁duk": 2470,
      "c": 2471,
      "##w": 2472,
      "▁mil": 2473,
      "##baren": 2474,
      "##ran": 2475,
      "▁kaz": 2476,
      "▁kalite": 2477,
      "##ısından": 2478,
      "▁yukselerek": 2479,
      "▁kırık": 2480,
      "##burgh": 2481,
      "##ent": 2482,
      "▁mas": 2483,
      "▁fatur": 2484,
      "▁yanl": 2485,
      "▁genel": 2486,
      "##suz": 2487,
      "##bak": 2488,
      "##iyorum": 2489,
      "▁dukkan": 2490,
      "▁mun": 2491,
      "▁kıl": 2492,
      "▁madd": 2493,
      "▁elb": 2494,
      "##ydi": 2495,
      "##asını": 2496,
      "▁onem": 2497,
      "▁ekim": 2498,
      "▁gum": 2499,
      "▁bah": 2500,
      "##aman": 2501,
      "▁sene": 2502,
      "▁kendisini": 2503,
      "▁senin": 2504,
      "▁kurulus": 2505,
      "##innati": 2506,
      "▁diz": 2507,
      "##tılı": 2508,
      "▁baskı": 2509,
      "▁resmi": 2510,
      "▁degilim": 2511,
      "▁kelim": 2512,
      "▁faturam": 2513,
      "##lası": 2514,
      "▁olan": 2515,
      "##muz": 2516,
      "▁havayolu": 2517,
      "##dog": 2518,
      "▁oldugu": 2519,
      "▁baska": 2520,
      "▁yan": 2521,
      "##sem": 2522,
      "▁gitti": 2523,
      "▁uygun": 2524,
      "▁oz": 2525,
      "▁%7.": 2526,
      "▁actı": 2527,
      "▁duv": 2528,
      "##ne": 2529,
      "▁chicag": 2530,
      "▁tem": 2531,
      "▁birbir": 2532,
      "##tin": 2533,
      "▁endek": 2534,
      "##ancı": 2535,
      "▁fransız": 2536,
      "▁has": 2537,
      "▁havalim": 2538,
      "▁yık": 2539,
      "##ulmus": 2540,
      "▁seker": 2541,
      "##ustr": 2542,
      "▁dek": 2543,
      "▁oakland": 2544,
      "##egen": 2545,
      "▁cıkar": 2546,
      "▁beni": 2547,
      "a": 2548,
      "▁gur": 2549,
      "##uy": 2550,
      "##gul": 2551,
      "▁vazgec": 2552,
      "▁tuket": 2553,
      "▁personeller": 2554,
      "▁carp": 2555,
      "##maktan": 2556,
      "▁ekip": 2557,
      "▁olar": 2558,
      "▁sey": 2559,
      "▁denver'den": 2560,
      "▁be": 2561,
      "▁dokuz": 2562,
      "##ke": 2563,
      "▁bildir": 2564,
      "▁abd": 2565,
      "▁faal": 2566,
      "##gi": 2567,
      "▁analist": 2568,
      "▁bizimle": 2569,
      "▁katıl": 2570,
      "▁%2.7": 2571,
      "##elerine": 2572,
      "▁elbet": 2573,
      "▁yıllık": 2574,
      "▁etk": 2575,
      "▁tesis": 2576,
      "▁oyle": 2577,
      "▁%30": 2578,
      "▁proj": 2579,
      "▁olmak": 2580,
      "▁cok": 2581,
      "▁superdi": 2582,
      "##lendir": 2583,
      "##lastır": 2584,
      "##tir": 2585,
      "▁onunla": 2586,
      "+": 2587,
      "▁dusuk": 2588,
      "▁turkiye": 2589,
      "##ıyorum": 2590,
      "##lama": 2591,
      "▁milwa": 2592,
      "▁taz": 2593,
      "▁meydan": 2594,
      "▁ekonomi": 2595,
      "▁yıllar": 2596,
      "▁kardes": 2597,
      "##ılıyor": 2598,
      "▁kumas": 2599,
      "▁lis": 2600,
      "▁th": 2601,
      "▁tal": 2602,
      "##evi": 2603,
      "##iyeti": 2604,
      "▁boston": 2605,
      "▁atlanta'ya": 2606,
      "▁22-23": 2607,
      "##ilen": 2608,
      "##ham": 2609,
      "▁hasır": 2610,
      "▁sipar": 2611,
      "##ont": 2612,
      "▁olarak": 2613,
      "##un": 2614,
      "##lif": 2615,
      "▁nelerdir": 2616,
      "▁del": 2617,
      "##m": 2618,
      "##leb": 2619,
      "▁veya": 2620,
      "▁cam": 2621,
      "##f": 2622,
      "▁sec": 2623,
      "▁olmadi": 2624,
      "##emin": 2625,
      "▁fabrik": 2626,
      "▁sonunda": 2627,
      "▁uzat": 2628,
      "▁ekonomik": 2629,
      "▁kası": 2630,
      "▁mes": 2631,
      "▁anlam": 2632,
      "##ot": 2633,
      "▁kalp": 2634,
      "##siy": 2635,
      "##ima": 2636,
      "▁gal": 2637,
      "▁57": 2638,
      "▁yavas": 2639,
      "▁degil": 2640,
      "##uk": 2641,
      "▁han": 2642,
      "▁mat": 2643,
      "▁imz": 2644,
      "▁uyum": 2645,
      "▁dogu": 2646,
      "▁belirtti": 2647,
      "▁islem": 2648,
      "▁af": 2649,
      "▁3/": 2650,
      "##unku": 2651,
      "▁edi": 2652,
      "##dugunu": 2653,
      "▁gul": 2654,
      "▁yuruy": 2655,
      "▁organ": 2656,
      "▁telef": 2657,
      "▁%3.1": 2658,
      "##emez": 2659,
      "▁gonul": 2660,
      "##kiz": 2661,
      "▁miy": 2662,
      "▁kıymet": 2663,
      "▁kaldik": 2664,
      "▁sorunu": 2665,
      "▁geldi": 2666,
      "▁dıs": 2667,
      "▁ederim": 2668,
      "##larına": 2669,
      "▁yapıyor": 2670,
      "▁ede": 2671,
      "▁num": 2672,
      "##isten": 2673,
      "##elerin": 2674,
      "▁uzman": 2675,
      "▁kultur": 2676,
      "▁numar": 2677,
      "▁yanında": 2678,
      "▁rezervasyon": 2679,
      "##imiz": 2680,
      "▁sus": 2681,
      "▁ez": 2682,
      "▁di": 2683,
      "▁gay": 2684,
      "▁kotuydu": 2685,
      "▁pıtır": 2686,
      "▁kes": 2687,
      "▁mo": 2688,
      "##digini": 2689,
      "##arası": 2690,
      "▁washington'a": 2691,
      "▁mc": 2692,
      "▁karayolu": 2693,
      "▁asırı": 2694,
      "g": 2695,
      "##isti": 2696,
      "▁yogun": 2697,
      "##ev": 2698,
      "##aba": 2699,
      "##ılık": 2700,
      "▁dustu": 2701,
      "▁14": 2702,
      "##ate": 2703,
      "##alıgı": 2704,
      "▁kendilerine": 2705,
      "▁rapor": 2706,
      "##asır": 2707,
      "▁bur": 2708,
      "##mıstı": 2709,
      "▁yana": 2710,
      "▁1.1": 2711,
      "▁kir": 2712,
      "##ıs": 2713,
      "##ji": 2714,
      "▁%20": 2715,
      "▁y": 2716,
      "▁dep": 2717,
      "▁halde": 2718,
      "▁s": 2719,
      "▁guven": 2720,
      "r": 2721,
      "▁say": 2722,
      "##ala": 2723,
      "▁adet": 2724,
      "##ob": 2725,
      "##alanı": 2726,
      "##s": 2727,
      "▁lar": 2728,
      "▁balık": 2729,
      "▁performan": 2730,
      "▁first": 2731,
      "▁destek": 2732,
      "##oj": 2733,
      "▁kuy": 2734,
      "▁satın": 2735,
      "▁girisim": 2736,
      "▁top": 2737,
      "▁naz": 2738,
      "##lerine": 2739,
      "▁dolayi": 2740,
      "##kl": 2741,
      "##ende": 2742,
      "##ane": 2743,
      "##pıs": 2744,
      "▁univers": 2745,
      "▁karsı": 2746,
      "▁angeles": 2747,
      "▁yapacak": 2748,
      "▁mecl": 2749,
      "▁roman": 2750,
      "▁ozgur": 2751,
      "##kin": 2752,
      "##lere": 2753,
      "##tern": 2754,
      "▁elektr": 2755,
      "▁havaalan": 2756,
      "▁basına": 2757,
      "▁malz": 2758,
      "▁acıl": 2759,
      "▁buy": 2760,
      "##enek": 2761,
      "##kan": 2762,
      "▁kapalı": 2763,
      "▁sef": 2764,
      "▁konumu": 2765,
      "▁sosy": 2766,
      "##'den": 2767,
      "##ile": 2768,
      "##ad": 2769,
      "▁giden": 2770,
      "▁yaptir": 2771,
      "▁seviyesine": 2772,
      "▁sev": 2773,
      "▁siyah": 2774,
      "▁ozel": 2775,
      "▁197": 2776,
      "▁%1": 2777,
      "##ation": 2778,
      "▁osman": 2779,
      "##lık": 2780,
      "▁as": 2781,
      "▁tan": 2782,
      "##​": 2783,
      "▁ogleden": 2784,
      "##esinden": 2785,
      "##esil": 2786,
      "▁intern": 2787,
      "▁saglam": 2788,
      "▁geciyor": 2789,
      "▁simdiye": 2790,
      "▁hastan": 2791,
      "▁42": 2792,
      "▁gercekten": 2793,
      "▁zev": 2794,
      "▁sı": 2795,
      "##iyor": 2796,
      "▁worth": 2797,
      "##gır": 2798,
      "▁par": 2799,
      "▁def": 2800,
      "▁temel": 2801,
      "##ver": 2802,
      "▁%6.4": 2803,
      "▁yagmur": 2804,
      "▁teh": 2805,
      "##den": 2806,
      "▁lu": 2807,
      "##`": 2808,
      "▁yat": 2809,
      "##ata": 2810,
      "##:30": 2811,
      "▁yalan": 2812,
      "▁tit": 2813,
      "▁dav": 2814,
      "▁corp": 2815,
      "##esem": 2816,
      "▁yur": 2817,
      "##aten": 2818,
      "▁kalkan": 2819,
      "▁sig": 2820,
      "▁kontrol": 2821,
      "▁yetkilileri": 2822,
      "▁karsılık": 2823,
      "##ada": 2824,
      "▁bircok": 2825,
      "##uyla": 2826,
      "▁sh": 2827,
      "▁dov": 2828,
      "t": 2829,
      "▁dig": 2830,
      "▁dc": 2831,
      "##ya": 2832,
      "##forman": 2833,
      "▁zorunda": 2834,
      "▁yasama": 2835,
      "▁ikinci": 2836,
      "▁gibi": 2837,
      "##az": 2838,
      "##lli": 2839,
      "▁pittsburgh": 2840,
      "▁hedef": 2841,
      "▁ener": 2842,
      "▁cincinnati": 2843,
      "##adan": 2844,
      "▁hesap": 2845,
      "▁peyn": 2846,
      "##es": 2847,
      "##ik": 2848,
      "▁bl": 2849,
      "▁sekiz": 2850,
      "▁yamalak": 2851,
      "##kır": 2852,
      "▁altı": 2853,
      "##undeki": 2854,
      "▁baba": 2855,
      "▁ulas": 2856,
      "##egas": 2857,
      "▁sehir": 2858,
      "##larla": 2859,
      "▁icinde": 2860,
      "##ası": 2861,
      "▁kapı": 2862,
      "▁toprak": 2863,
      "##x": 2864,
      "▁1/2": 2865,
      "▁bal": 2866,
      "▁ben": 2867,
      "##orta": 2868,
      "▁3.": 2869,
      "▁ayak": 2870,
      "▁degis": 2871,
      "▁harc": 2872,
      "##dular": 2873,
      "##rek": 2874,
      "##ugu": 2875,
      "▁deng": 2876,
      "▁tarih": 2877,
      "▁uzer": 2878,
      "##ısı": 2879,
      "▁mehmet": 2880,
      "▁aktarmasız": 2881,
      "▁musteri": 2882,
      "▁dik": 2883,
      "##elen": 2884,
      "▁hastalık": 2885,
      "▁sen": 2886,
      "▁50": 2887,
      "##ılıgı": 2888,
      "##ap": 2889,
      "▁bulmak": 2890,
      "##lat": 2891,
      "▁ucuz": 2892,
      "##ab": 2893,
      "##.8": 2894,
      "▁g": 2895,
      "##alarında": 2896,
      "##ındaki": 2897,
      "▁po": 2898,
      "##iyorlar": 2899,
      "##ımız": 2900,
      "▁beyaz": 2901,
      "##op": 2902,
      "▁para": 2903,
      "##bet": 2904,
      "##ıyı": 2905,
      "▁mu": 2906,
      "▁attı": 2907,
      "▁eylul": 2908,
      "▁onc": 2909,
      "▁bic": 2910,
      "▁begen": 2911,
      "▁asagı": 2912,
      "##eyn": 2913,
      "##te": 2914,
      "▁yen": 2915,
      "##embe": 2916,
      "▁onun": 2917,
      "▁11": 2918,
      "##ori": 2919,
      "##sizdi": 2920,
      "▁pittsburgh'tan": 2921,
      "▁yurt": 2922,
      "▁odalar": 2923,
      "##tedir": 2924,
      "▁kos": 2925,
      "▁zar": 2926,
      "▁yonetim": 2927,
      "##yet": 2928,
      "▁uyan": 2929,
      "##'deki": 2930,
      "▁dom": 2931,
      "▁tutun": 2932,
      "##kur": 2933,
      "▁hab": 2934,
      "##lilik": 2935,
      "▁amerikan": 2936,
      "▁ucmak": 2937,
      "##alarına": 2938,
      "▁of": 2939,
      "▁rak": 2940,
      "##gec": 2941,
      "##lerce": 2942,
      "▁pır": 2943,
      "▁fazla": 2944,
      "▁ets": 2945,
      "▁memph": 2946,
      "##hut": 2947,
      "##p": 2948,
      "▁orta": 2949,
      "##.25": 2950,
      "##ite": 2951,
      "▁verilen": 2952,
      "##'ndan": 2953,
      "▁calıs": 2954,
      "▁ucusa": 2955,
      "▁havayolları": 2956,
      "▁diyor": 2957,
      "##-": 2958,
      "##ograf": 2959,
      "▁1\\/": 2960,
      "##:": 2961,
      "##tıs": 2962,
      "##ayım": 2963,
      "▁iti": 2964,
      "▁mit": 2965,
      "▁turk": 2966,
      "##kun": 2967,
      "##urlu": 2968,
      "##at": 2969,
      "▁seyden": 2970,
      "##st": 2971,
      "##iyi": 2972,
      "▁kanı": 2973,
      "▁sakin": 2974,
      "▁degerlendir": 2975,
      "▁eski": 2976,
      "▁kı": 2977,
      "▁artır": 2978,
      "▁ilgi": 2979,
      "▁bagır": 2980,
      "`": 2981,
      "▁gom": 2982,
      "▁bırak": 2983,
      "▁%3.43": 2984,
      "##dıkları": 2985,
      "##>": 2986,
      "▁getir": 2987,
      "▁ici": 2988,
      "▁ayır": 2989,
      "▁insan": 2990,
      "##yo": 2991,
      "▁komp": 2992,
      "▁ucuslarını": 2993,
      "▁baglı": 2994,
      "▁evet": 2995,
      "▁misiniz": 2996,
      "##acı": 2997,
      "▁sip": 2998,
      "▁og": 2999,
      "▁yuzme": 3000,
      "▁aylık": 3001,
      "▁tr": 3002,
      "##manı": 3003,
      "##dik": 3004,
      "▁ec": 3005,
      "▁rahat": 3006,
      "##89-": 3007,
      "▁mem": 3008,
      "▁giz": 3009,
      "▁arada": 3010,
      "##ustri": 3011,
      "▁peki": 3012,
      "##ast": 3013,
      "▁bugun": 3014,
      "▁oran": 3015,
      "▁var": 3016,
      "▁toplum": 3017,
      "##luk": 3018,
      "##alar": 3019,
      "▁phoeni": 3020,
      "▁tıklım": 3021,
      "▁sov": 3022,
      "▁alt": 3023,
      "▁hisset": 3024,
      "▁19": 3025,
      "##$": 3026,
      "▁yalnızca": 3027,
      "▁kah": 3028,
      "▁bası": 3029,
      "▁charl": 3030,
      "##um": 3031,
      "▁degisiklik": 3032,
      "▁cıkardı": 3033,
      "▁av": 3034,
      "▁ulasım": 3035,
      "▁ert": 3036,
      "▁gercek": 3037,
      "##mayan": 3038,
      "▁karar": 3039,
      "▁ib": 3040,
      "##asından": 3041,
      "##1-": 3042,
      "▁ge": 3043,
      "▁milli": 3044,
      "▁cap": 3045,
      "▁yun": 3046,
      "##lum": 3047,
      "##ege": 3048,
      "##eni": 3049,
      "▁zarar": 3050,
      "▁res": 3051,
      "##dız": 3052,
      "##al": 3053,
      "##cok": 3054,
      "##ar": 3055,
      "##nin": 3056,
      "▁fotograf": 3057,
      "▁guc": 3058,
      "##vil": 3059,
      "##lı": 3060,
      "##unc": 3061,
      "▁adı": 3062,
      "▁istih": 3063,
      "▁gitmek": 3064,
      "▁verdigi": 3065,
      "▁altında": 3066,
      "##mustur": 3067,
      "▁ruz": 3068,
      "▁dolarlık": 3069,
      "▁ucusu": 3070,
      "▁bay": 3071,
      "##dun": 3072,
      "▁gercekles": 3073,
      "##tas": 3074,
      "##up": 3075,
      "▁guleryuzluydu": 3076,
      "d": 3077,
      "##can": 3078,
      "▁isletme": 3079,
      "▁pencer": 3080,
      "##ır": 3081,
      "##roit": 3082,
      "▁sovyet": 3083,
      "▁kr": 3084,
      "▁sor": 3085,
      "▁sab": 3086,
      "##ecek": 3087,
      "▁(": 3088,
      "##of": 3089,
      "▁olum": 3090,
      "▁rol": 3091,
      "##gor": 3092,
      "▁mısıl": 3093,
      "##lin": 3094,
      "##aat": 3095,
      "▁la": 3096,
      "▁biz": 3097,
      "▁boy": 3098,
      "##ort": 3099,
      "▁ilgilendi": 3100,
      "▁edeb": 3101,
      "##'yi": 3102,
      "▁ulasımı": 3103,
      "##leket": 3104,
      "▁olmadıgını": 3105,
      "▁agustos": 3106,
      "▁pol": 3107,
      "##larıyla": 3108,
      "▁sac": 3109,
      "##ibar": 3110,
      "▁5-1": 3111,
      "▁birlik": 3112,
      "##eci": 3113,
      "▁kend": 3114,
      "▁ra": 3115,
      "▁acık": 3116,
      "▁cesitli": 3117,
      "▁kaldır": 3118,
      "p": 3119,
      "▁kara": 3120,
      "##sızlık": 3121,
      "▁u": 3122,
      "##erken": 3123,
      "▁aralık": 3124,
      "##ekler": 3125,
      "▁kadınlar": 3126,
      "▁kus": 3127,
      "##ılı": 3128,
      "▁soru": 3129,
      "##asının": 3130,
      "▁yet": 3131,
      "##zet": 3132,
      "##igini": 3133,
      "▁an": 3134,
      "▁derec": 3135,
      "▁kendim": 3136,
      "▁yi": 3137,
      "▁dallas'a": 3138,
      "##ungur": 3139,
      "▁tesek": 3140,
      "▁turlu": 3141,
      "##ilerini": 3142,
      "▁sent": 3143,
      "▁gorusuldu": 3144,
      "##acak": 3145,
      "▁karak": 3146,
      "▁misafir": 3147,
      "▁birbirler": 3148,
      "##ud": 3149,
      "##gında": 3150,
      "##kı": 3151,
      "##asyon": 3152,
      "▁doldur": 3153,
      "▁koc": 3154,
      "▁ortalama": 3155,
      "▁kurum": 3156,
      "▁olabilir": 3157,
      "▁lutfen": 3158,
      "▁yayın": 3159,
      "▁suz": 3160,
      "▁cab": 3161,
      "▁1\\/2": 3162,
      "##ırt": 3163,
      "▁rus": 3164,
      "▁dogal": 3165,
      "##asıyla": 3166,
      "##alarının": 3167,
      "▁arka": 3168,
      "▁bilin": 3169,
      "-": 3170,
      "▁2": 3171,
      "▁1.": 3172,
      "##mesi": 3173,
      "▁goz": 3174,
      "▁sanki": 3175,
      "▁tasar": 3176,
      "▁indian": 3177,
      "▁benden": 3178,
      "▁risk": 3179,
      "▁iy": 3180,
      "##ladı": 3181,
      "##ın": 3182,
      "▁tesisti": 3183,
      "##ıc": 3184,
      "##adelphia": 3185,
      "▁--": 3186,
      "▁ihtiy": 3187,
      "▁egitim": 3188,
      "##'yı": 3189,
      "##ilig": 3190,
      "▁pr": 3191,
      "▁belki": 3192,
      "##madan": 3193,
      "▁tavsiye": 3194,
      "##gini": 3195,
      "▁ziyaret": 3196,
      "▁once": 3197,
      "▁ceb": 3198,
      "▁anne": 3199,
      "▁teklif": 3200,
      "##dum": 3201,
      "▁anlat": 3202,
      "##uyu": 3203,
      "▁phil": 3204,
      "▁cey": 3205,
      "▁problem": 3206,
      "▁meya": 3207,
      "▁rap": 3208,
      "##deki": 3209,
      "##isinin": 3210,
      "▁bununla": 3211,
      "▁cıtır": 3212,
      "##g": 3213,
      "▁hijyen": 3214,
      "##ılmıs": 3215,
      "▁hak": 3216,
      "▁oranı": 3217,
      "▁ongor": 3218,
      "▁mar": 3219,
      "▁benz": 3220,
      "▁tabi": 3221,
      "##he": 3222,
      "▁ele": 3223,
      "▁akl": 3224,
      "##19": 3225,
      "##oc": 3226,
      "##abil": 3227,
      "▁hafta": 3228,
      "▁ode": 3229,
      "##eral": 3230,
      "▁ve": 3231,
      "▁%9.": 3232,
      "▁ba": 3233,
      "▁yaptı": 3234,
      "▁degildi": 3235,
      "##lass": 3236,
      "▁varsa": 3237,
      "##maktadır": 3238,
      "▁buz": 3239,
      "▁kal": 3240,
      "▁hac": 3241,
      "▁newark": 3242,
      "##mal": 3243,
      "▁merkez": 3244,
      "▁bor": 3245,
      "▁ihrac": 3246,
      "##tılar": 3247,
      "▁:": 3248,
      "▁dallas": 3249,
      "##om": 3250,
      "▁davran": 3251,
      "▁part": 3252,
      "▁%7.5": 3253,
      "▁orland": 3254,
      "▁ak": 3255,
      "##ilerine": 3256,
      "▁deney": 3257,
      "▁contin": 3258,
      "▁uzerindeki": 3259,
      "▁dak": 3260,
      "##ların": 3261,
      "##rim": 3262,
      "▁mis": 3263,
      "▁listel": 3264,
      "▁temizlik": 3265,
      "▁cumartesi": 3266,
      "▁34": 3267,
      "▁1989": 3268,
      "##lim": 3269,
      "_": 3270,
      "##uncu": 3271,
      "▁biliyor": 3272,
      "▁ticaret": 3273,
      "▁seyi": 3274,
      "▁rec": 3275,
      "▁kalk": 3276,
      "##ının": 3277,
      "▁den": 3278,
      "##esinin": 3279,
      "##ro": 3280,
      "▁denver": 3281,
      "▁yirmi": 3282,
      "##iforn": 3283,
      "##o'ya": 3284,
      "▁m": 3285,
      "##imdi": 3286,
      "##une": 3287,
      "▁cif": 3288,
      "##lıgını": 3289,
      "##h": 3290,
      "▁yerel": 3291,
      "##apon": 3292,
      "▁etmeye": 3293,
      "##imden": 3294,
      "##maya": 3295,
      "▁muzik": 3296,
      "##irim": 3297,
      "▁edilen": 3298,
      "##lap": 3299,
      "##lamıs": 3300,
      "/": 3301,
      "▁dokun": 3302,
      "▁umut": 3303,
      "▁yesil": 3304,
      "▁washington'dan": 3305,
      "2": 3306,
      "##dan": 3307,
      "##tr": 3308,
      "##istan": 3309,
      "▁bek": 3310,
      "▁kat": 3311,
      "▁yatak": 3312,
      "▁milyondan": 3313,
      "▁gem": 3314,
      "▁&": 3315,
      "▁sirketler": 3316,
      "##dak": 3317,
      "▁ana": 3318,
      "##isiz": 3319,
      "##sak": 3320,
      "▁ustune": 3321,
      "##oma": 3322,
      "##are": 3323,
      "##ı": 3324,
      "▁konuda": 3325,
      "##ash": 3326,
      "##ustum": 3327,
      "##eye": 3328,
      "▁kosul": 3329,
      "▁pittsburgh'a": 3330,
      "##madı": 3331,
      "▁menkul": 3332,
      "▁dagıt": 3333,
      "##ilecek": 3334,
      "▁washington": 3335,
      "▁v": 3336,
      "▁mevcut": 3337,
      "▁ettik": 3338,
      "##amak": 3339,
      "##cut": 3340,
      "▁at": 3341,
      "▁por": 3342,
      "▁saglık": 3343,
      "▁bank": 3344,
      "##ville": 3345,
      "▁petersburg": 3346,
      "▁sabah": 3347,
      "▁kaldim": 3348,
      "##lam": 3349,
      "##unca": 3350,
      "▁reh": 3351,
      "▁test": 3352,
      "##esini": 3353,
      "▁ilg": 3354,
      "##elerinin": 3355,
      "▁dan": 3356,
      "##fa": 3357,
      "▁ters": 3358,
      "▁cont": 3359,
      "▁arz": 3360,
      "▁odedigim": 3361,
      "▁...\"": 3362,
      "##ci": 3363,
      "##aturk": 3364,
      "ı": 3365,
      "▁bak": 3366,
      "##dı": 3367,
      "▁oldu": 3368,
      "▁dogru": 3369,
      "▁onumuz": 3370,
      "▁oyuncu": 3371,
      "▁profes": 3372,
      "▁katil": 3373,
      "##ılması": 3374,
      "##okr": 3375,
      "##rl": 3376,
      "▁yola": 3377,
      "▁yon": 3378,
      "▁din": 3379,
      "▁gayet": 3380,
      "##lt": 3381,
      "##'na": 3382,
      "▁mı": 3383,
      "▁%1.7": 3384,
      "▁etm": 3385,
      "▁dolar": 3386,
      "▁sıkı": 3387,
      "##us": 3388,
      "▁incel": 3389,
      "##endi": 3390,
      "▁baslamıs": 3391,
      "##iyle": 3392,
      "##lugun": 3393,
      "▁dor": 3394,
      "▁bazi": 3395,
      "▁kas": 3396,
      "▁zen": 3397,
      "##30": 3398,
      "▁seyahat": 3399,
      "▁malzem": 3400,
      "##86": 3401,
      "▁hakkında": 3402,
      "▁cor": 3403,
      "▁pac": 3404,
      "▁savas": 3405,
      "▁yetkil": 3406,
      "##aj": 3407,
      "▁oyun": 3408,
      "##amadı": 3409,
      "##layarak": 3410,
      "▁sigort": 3411,
      "▁basit": 3412,
      "##dir": 3413,
      "▁istif": 3414,
      "##ansız": 3415,
      "▁kalit": 3416,
      "▁tuttu": 3417,
      "##oster": 3418,
      "▁ili": 3419,
      "▁mey": 3420,
      "▁onceki": 3421,
      "##ıldı": 3422,
      "▁kıv": 3423,
      "▁1.3": 3424,
      "▁kaliforn": 3425,
      "▁``": 3426,
      "▁itibar": 3427,
      "##3": 3428,
      "##bu": 3429,
      "?": 3430,
      "##cek": 3431,
      "▁cıvıl": 3432,
      "▁bors": 3433,
      "##vır": 3434,
      "▁yukarı": 3435,
      "▁onceden": 3436,
      "▁.": 3437,
      "▁er": 3438,
      "▁kotu": 3439,
      "▁vadeli": 3440,
      "▁istiyorum": 3441,
      "##digimiz": 3442,
      "▁anlasma": 3443,
      "▁degiller": 3444,
      "▁yar": 3445,
      "▁almak": 3446,
      "##lerde": 3447,
      "##ler": 3448,
      "▁mer": 3449,
      "▁fon": 3450,
      "##mek": 3451,
      "▁fik": 3452,
      "▁hemen": 3453,
      "▁yapan": 3454,
      "▁sabahı": 3455,
      "▁31": 3456,
      "▁300": 3457,
      "##dugu": 3458,
      ":": 3459,
      "▁bas": 3460,
      "▁yarat": 3461,
      "▁satıs": 3462,
      "▁fak": 3463,
      "▁kost": 3464,
      "##esine": 3465,
      "4": 3466,
      "▁musa": 3467,
      "##net": 3468,
      "▁seyler": 3469,
      "##agan": 3470,
      "&": 3471,
      "▁itir": 3472,
      "$": 3473,
      "k": 3474,
      "##ey": 3475,
      "▁yolu": 3476,
      "##landı": 3477,
      "##teki": 3478,
      "##unden": 3479,
      "▁ne": 3480,
      "##ph": 3481,
      "▁dir": 3482,
      "▁ot": 3483,
      "▁guleryuz": 3484,
      "▁simdi": 3485,
      "▁ihtiyacım": 3486,
      "▁askeri": 3487,
      "##for": 3488,
      "##sizlik": 3489,
      "##gan": 3490,
      "▁bekledi": 3491,
      "0": 3492,
      "▁im": 3493,
      "▁bilmiyorum": 3494,
      "##61": 3495,
      "▁39": 3496,
      "##5": 3497,
      "▁beydi": 3498,
      "##adar": 3499,
      "▁dost": 3500,
      "▁yum": 3501,
      "##ub": 3502,
      "▁org": 3503,
      "▁ucret": 3504,
      "▁ye": 3505,
      "▁buyuk": 3506,
      "▁erken": 3507,
      "▁bunu": 3508,
      "▁aras": 3509,
      "▁york'tan": 3510,
      "▁.)": 3511,
      "▁guclu": 3512,
      "##'ta": 3513,
      "▁kalan": 3514,
      "▁elinde": 3515,
      "▁renk": 3516,
      "▁ger": 3517,
      "##.0": 3518,
      "▁pırıl": 3519,
      "##ısır": 3520,
      "▁ates": 3521,
      "▁birinci": 3522,
      "▁kem": 3523,
      "▁tutar": 3524,
      "▁servisi": 3525,
      "##it": 3526,
      "▁tic": 3527,
      "▁saf": 3528,
      "▁yama": 3529,
      "▁22": 3530,
      "##pr": 3531,
      "▁ik": 3532,
      "##alık": 3533,
      "▁mon": 3534,
      "##erek": 3535,
      "##bi": 3536,
      "▁sahib": 3537,
      "##ırım": 3538,
      "▁yog": 3539,
      "▁kızı": 3540,
      "▁pitts": 3541,
      "▁coz": 3542,
      "##ince": 3543,
      "▁ucusları": 3544,
      "▁miyim": 3545,
      "▁196": 3546,
      "##mem": 3547,
      "▁yazı": 3548,
      "##ut": 3549,
      "▁vermis": 3550,
      "##mis": 3551,
      "##manın": 3552,
      "▁neler": 3553,
      "▁cid": 3554,
      "▁birin": 3555,
      "▁adeta": 3556,
      "##rar": 3557,
      "##ta": 3558,
      "▁rehber": 3559,
      "##luydu": 3560,
      "##erler": 3561,
      "▁birisi": 3562,
      "▁lok": 3563,
      "▁konu": 3564,
      "##kuz": 3565,
      "▁muhtem": 3566,
      "▁nakit": 3567,
      "##orth": 3568,
      "▁dedi": 3569,
      "##ist": 3570,
      "▁yarım": 3571,
      "##isim": 3572,
      "##ede": 3573,
      "▁fir": 3574,
      "##yle": 3575,
      "▁ep": 3576,
      "▁yoktu": 3577,
      "▁nok": 3578,
      "▁kendi": 3579,
      "▁yal": 3580,
      "▁titr": 3581,
      "▁bag": 3582,
      "▁toront": 3583,
      "▁yonetic": 3584,
      "▁merkezine": 3585,
      "##uv": 3586,
      "▁ihr": 3587,
      "▁gir": 3588,
      "##siniz": 3589,
      "▁dem": 3590,
      "▁mukemmeldi": 3591,
      "▁ayni": 3592,
      "▁tesisten": 3593,
      "##ligi": 3594,
      "▁milwaukee'ye": 3595,
      "##er": 3596,
      "▁tiril": 3597,
      "▁olc": 3598,
      "##orm": 3599,
      "▁nef": 3600,
      "##ele": 3601,
      "▁sikin": 3602,
      "▁mukemmel": 3603,
      "▁anim": 3604,
      "##onu": 3605,
      "##ilere": 3606,
      "▁ait": 3607,
      "##ulu": 3608,
      "▁tım": 3609,
      "▁kapsam": 3610,
      "##ustuk": 3611,
      "▁ucus": 3612,
      "▁ad": 3613,
      "▁rezerv": 3614,
      "##edef": 3615,
      "▁soyley": 3616,
      "▁ya": 3617,
      "▁tarif": 3618,
      "##acık": 3619,
      "##encer": 3620,
      "▁gen": 3621,
      "▁ces": 3622,
      "##ari": 3623,
      "▁kurul": 3624,
      "▁birim": 3625,
      "##det": 3626,
      "##ah": 3627,
      "▁manz": 3628,
      "▁itibaren": 3629,
      "##ısın": 3630,
      "##gah": 3631,
      "▁herhangi": 3632,
      "▁etti": 3633,
      "▁sistem": 3634,
      "▁merdi": 3635,
      "▁alın": 3636,
      "▁street": 3637,
      "▁bab": 3638,
      "▁baz": 3639,
      "▁konus": 3640,
      "▁cur": 3641,
      "▁ufak": 3642,
      "##tıyor": 3643,
      "##ersiz": 3644,
      "▁calis": 3645,
      "▁yaptık": 3646,
      "▁bekleniyor": 3647,
      "▁dusunc": 3648,
      "▁duyg": 3649,
      "▁\"": 3650,
      "##mektedir": 3651,
      "▁ker": 3652,
      "▁yeter": 3653,
      "##dıgında": 3654,
      "▁yuz": 3655,
      "▁gol": 3656,
      "▁aj": 3657,
      "▁bil": 3658,
      "▁%2": 3659,
      "##-2": 3660,
      "▁philadelphia": 3661,
      "##kal": 3662,
      "▁seb": 3663,
      "▁normal": 3664,
      "▁muht": 3665,
      "▁ısıl": 3666,
      "▁artık": 3667,
      "▁karsısında": 3668,
      "▁calısıyor": 3669,
      "▁sur": 3670,
      "\\": 3671,
      "▁fr": 3672,
      "=": 3673,
      "▁200": 3674,
      "▁gozlerini": 3675,
      "▁amerik": 3676,
      "##;": 3677,
      "▁fil": 3678,
      "▁cak": 3679,
      "h": 3680,
      "▁45": 3681,
      "##ya'da": 3682,
      "▁yaslı": 3683,
      "▁wall": 3684,
      "▁mez": 3685,
      "▁mad": 3686,
      "##ayan": 3687,
      "▁dayan": 3688,
      "##cusu": 3689,
      "##tıg": 3690,
      "▁mumkun": 3691,
      "▁gorun": 3692,
      "▁desik": 3693,
      "▁sans": 3694,
      "▁beb": 3695,
      "▁mıy": 3696,
      "▁%80": 3697,
      "▁kap": 3698,
      "▁ted": 3699,
      "##agıt": 3700,
      "##'y": 3701,
      "▁bilgis": 3702,
      "▁ust": 3703,
      "▁ıs": 3704,
      "▁aile": 3705,
      "▁seattle": 3706,
      "▁oden": 3707,
      "▁dedim": 3708,
      "##0.": 3709,
      "▁bilir": 3710,
      "▁ey": 3711,
      "▁51": 3712,
      "▁kısm": 3713,
      "##day": 3714,
      "##masını": 3715,
      "3": 3716,
      "##kara": 3717,
      "▁lezzeti": 3718,
      "▁cic": 3719,
      "▁heyec": 3720,
      "##y": 3721,
      "▁iceri": 3722,
      "▁arac": 3723,
      "▁bunların": 3724,
      "##erk": 3725,
      "##uya": 3726,
      "▁etmis": 3727,
      "##iss": 3728,
      "▁re": 3729,
      "##masına": 3730,
      "▁evvel": 3731,
      "▁saray": 3732,
      "▁cekti": 3733,
      "▁lim": 3734,
      "▁tahviller": 3735,
      "▁neden": 3736,
      "▁haziran": 3737,
      "▁cum": 3738,
      "▁tiyat": 3739,
      "▁cir": 3740,
      "▁kac": 3741,
      "▁huk": 3742,
      "##kar": 3743,
      "▁degildir": 3744,
      "▁hatır": 3745,
      "##ark": 3746,
      "▁tercih": 3747,
      "▁miktar": 3748,
      "##gunu": 3749,
      "▁elde": 3750,
      "##may": 3751,
      "▁guvenlik": 3752,
      "▁mek": 3753,
      "▁bize": 3754,
      "▁cesit": 3755,
      "##°": 3756,
      "▁otel": 3757,
      "▁havuzu": 3758,
      "▁pas": 3759,
      "▁montre": 3760,
      "▁gund": 3761,
      "▁yasak": 3762,
      "##emiyor": 3763,
      "▁takip": 3764,
      "▁bunun": 3765,
      "##lak": 3766,
      "▁ayrı": 3767,
      "y": 3768,
      "▁fingir": 3769,
      "##ge": 3770,
      "▁nak": 3771,
      "##isi": 3772,
      "▁dah": 3773,
      "▁kurtar": 3774,
      "▁1.5": 3775,
      "##ire": 3776,
      "▁kadar": 3777,
      "▁cen": 3778,
      "▁ah": 3779,
      "▁olup": 3780,
      "▁analistler": 3781,
      "▁gosteriyor": 3782,
      "##meyen": 3783,
      "▁aktarmalı": 3784,
      "##iye": 3785,
      "##ayol": 3786,
      "▁basını": 3787,
      "##izi": 3788,
      "▁adi": 3789,
      "##is": 3790,
      "▁halk": 3791,
      "▁iyiydi": 3792,
      "▁neredeyse": 3793,
      "…": 3794,
      "##ecegim": 3795,
      "##dar": 3796,
      "▁%4.8": 3797,
      "##eh": 3798,
      "▁alamadim": 3799,
      "▁j": 3800,
      "▁ucuslar": 3801,
      "▁ilac": 3802,
      "▁denver'e": 3803,
      "▁23": 3804,
      "##dig": 3805,
      "▁bizi": 3806,
      "▁1987": 3807,
      "▁gore": 3808,
      "▁dolardan": 3809,
      "##me": 3810,
      "##umuz": 3811,
      "▁edecek": 3812,
      "▁evi": 3813,
      "▁gozleri": 3814,
      "##du": 3815,
      "▁gecmis": 3816,
      "▁uzerine": 3817,
      "▁kut": 3818,
      "##ustu": 3819,
      "▁havayol": 3820,
      "▁izin": 3821,
      "##am": 3822,
      "▁phoenix": 3823,
      "▁ide": 3824,
      "▁oak": 3825,
      "▁reddetti": 3826,
      "▁mustafa": 3827,
      "▁okum": 3828,
      "▁ch": 3829,
      "▁vad": 3830,
      "▁elli": 3831,
      "##sam": 3832,
      "▁mark": 3833,
      "▁bizim": 3834,
      "▁ca": 3835,
      "##ni": 3836,
      "##amaya": 3837,
      "▁istemiyorum": 3838,
      "▁fas": 3839,
      "▁hepimiz": 3840,
      "▁program": 3841,
      "▁um": 3842,
      "▁hisseleri": 3843,
      "▁hangi": 3844,
      "▁nih": 3845,
      "▁duygu": 3846,
      "▁oldug": 3847,
      "##in": 3848,
      "##imde": 3849,
      "##alım": 3850,
      "▁bazı": 3851,
      "▁he": 3852,
      "##anbul": 3853,
      "##mez": 3854,
      "▁egit": 3855,
      "▁kanun": 3856,
      "▁haz": 3857,
      "##uf": 3858,
      "▁parti": 3859,
      "##mıyor": 3860,
      "▁dalg": 3861,
      "▁onu": 3862,
      "▁tam": 3863,
      "##ıyordu": 3864,
      "▁tuc": 3865,
      "▁bilgisay": 3866,
      "▁yasan": 3867,
      "▁arasında": 3868,
      "▁televizyon": 3869,
      "▁kimse": 3870,
      "▁yav": 3871,
      "▁vaz": 3872,
      "##iydi": 3873,
      "▁bost": 3874,
      "▁basladı": 3875,
      "▁day": 3876,
      "▁cır": 3877,
      "▁0.": 3878,
      "##ber": 3879,
      "##min": 3880,
      "▁uretic": 3881,
      "▁ediyor": 3882,
      "▁kalkıp": 3883,
      "##art": 3884,
      "##atif": 3885,
      "##a": 3886,
      "▁kendimi": 3887,
      "##asyonu": 3888,
      "▁anal": 3889,
      "▁uygul": 3890,
      "##ac": 3891,
      "[UNK]": 3892,
      "##medi": 3893,
      "▁francisco": 3894,
      "▁fıs": 3895,
      "##ladık": 3896,
      "▁dusur": 3897,
      "▁henuz": 3898,
      "##ga": 3899,
      "▁isin": 3900,
      "▁halinde": 3901,
      "▁mus": 3902,
      "▁derg": 3903,
      "▁doları'na": 3904,
      "▁kendiler": 3905,
      "##lamak": 3906,
      "▁ilgili": 3907,
      "▁ay": 3908,
      "##diler": 3909,
      "▁30": 3910,
      "##ep": 3911,
      "##emmel": 3912,
      "##anda": 3913,
      "▁ithal": 3914,
      "▁kabul": 3915,
      "▁ic": 3916,
      "##sat": 3917,
      "▁anlay": 3918,
      "##isel": 3919,
      "▁duz": 3920,
      "##gileri": 3921,
      "▁ask": 3922,
      "▁rezervasyonu": 3923,
      "▁gotur": 3924,
      "▁hasta": 3925,
      "▁varan": 3926,
      "▁cevir": 3927,
      "▁aktif": 3928,
      "##ıkır": 3929,
      "▁giy": 3930,
      "▁rast": 3931,
      "▁%3.4": 3932,
      "##eleri": 3933,
      "▁avuc": 3934,
      "▁cev": 3935,
      "##gum": 3936,
      "##egini": 3937,
      "▁parmak": 3938,
      "##onelik": 3939,
      "▁eve": 3940,
      "##eya": 3941,
      "▁beraber": 3942,
      "!": 3943,
      "▁kel": 3944,
      "▁gel": 3945,
      "##dim": 3946,
      "▁cil": 3947,
      "▁sak": 3948,
      "▁airlines": 3949,
      "##undan": 3950,
      "▁op": 3951,
      "▁cunku": 3952,
      "##ib": 3953,
      "##cı": 3954,
      "▁erk": 3955,
      "▁piyas": 3956,
      "▁yor": 3957,
      "▁yuksel": 3958,
      "##siye": 3959,
      "##larında": 3960,
      "▁oluyor": 3961,
      "▁airlin": 3962,
      "##utur": 3963,
      "▁tay": 3964,
      "▁seyr": 3965,
      "▁ederiz": 3966,
      "▁utan": 3967,
      "▁ko": 3968,
      "▁kurumsal": 3969,
      "▁yerles": 3970,
      "▁haf": 3971,
      "##ig": 3972,
      "▁misin": 3973,
      "▁gosterin": 3974,
      "▁vermek": 3975,
      "▁=": 3976,
      "▁kalkıyor": 3977,
      "▁lezzetli": 3978,
      "##ısık": 3979,
      "##arında": 3980,
      "▁miami": 3981,
      "##@": 3982,
      "##uklum": 3983,
      "▁yuv": 3984,
      "▁serv": 3985,
      "▁en": 3986,
      "▁hukumet": 3987,
      "##uyorum": 3988,
      "▁27": 3989,
      "▁zay": 3990,
      "##aklı": 3991,
      "▁kan": 3992,
      "▁olmasi": 3993,
      "▁jon": 3994,
      "##ay": 3995,
      "▁le": 3996,
      "##arl": 3997,
      "##'da": 3998,
      "##li": 3999,
      "##lerinde": 4000,
      "##asız": 4001,
      "##il": 4002,
      "▁prof": 4003,
      "▁zengin": 4004,
      "▁ilgil": 4005,
      "##edir": 4006,
      "##ven": 4007,
      "##osu": 4008,
      "▁milyar": 4009,
      "▁haval": 4010,
      "##anlı": 4011,
      "##nek": 4012,
      "##ukee": 4013,
      "##bul": 4014,
      "■": 4015,
      "▁stratej": 4016,
      "▁baslan": 4017,
      "▁son": 4018,
      "▁secim": 4019,
      "▁seviy": 4020,
      "▁bilgi": 4021,
      "##unda": 4022,
      "##yor": 4023,
      "▁cocuk": 4024,
      "▁yuksek": 4025,
      "▁bunlardan": 4026,
      "▁kayn": 4027,
      "##sin": 4028,
      "##meyi": 4029,
      "▁vardır": 4030,
      "▁cı": 4031,
      "▁tahvil": 4032,
      "##sa": 4033,
      "▁atlan": 4034,
      "##tim": 4035,
      "▁pasa": 4036,
      "▁kalkıs": 4037,
      "▁engel": 4038,
      "##ine": 4039,
      "##ten": 4040,
      "##ami": 4041,
      "##detti": 4042,
      "▁karanlık": 4043,
      "##artesi": 4044,
      "▁wash": 4045,
      "▁iste": 4046,
      "▁kapas": 4047,
      "##4": 4048,
      "▁ok": 4049,
      "##isini": 4050,
      "▁enf": 4051,
      "▁k": 4052,
      "##9": 4053,
      "▁fiyatları": 4054,
      "▁uc": 4055,
      "▁for": 4056,
      "##id": 4057,
      "##misti": 4058,
      "##ug": 4059,
      "▁aks": 4060,
      "##ısıl": 4061,
      "##ıntı": 4062,
      "##menin": 4063,
      "##gmen": 4064,
      "##egin": 4065,
      "▁bes": 4066,
      "▁sa": 4067,
      "##sel": 4068,
      "##mıs": 4069,
      "##isindan": 4070,
      "▁ettiler": 4071,
      "##daki": 4072,
      "▁defa": 4073,
      "▁muz": 4074,
      "▁gumbur": 4075,
      "▁sigorta": 4076,
      "▁tesekkur": 4077,
      "##'nun": 4078,
      "▁gordu": 4079,
      "##…": 4080,
      "▁muhtesem": 4081,
      "▁kalma": 4082,
      "##mus": 4083,
      "▁meyal": 4084,
      "##adaki": 4085,
      "▁1/": 4086,
      "▁kırk": 4087,
      "##iyak": 4088,
      "▁merkezi": 4089,
      "▁sut": 4090,
      "##dikleri": 4091,
      "▁bagım": 4092,
      "▁w": 4093,
      "##ese": 4094,
      "##ki": 4095
    }
  }
}