{
  "version": "1.0",
  "truncation": null,
  "padding": null,
  "added_tokens": [
    {
      "id": 2689,
      "content": "[PAD]",
      "single_word": false,
      "lstrip": false,
      "rstrip": false,
      "normalized": false,
      "special": true
    },
    {
      "id": 3057,
      "content": "[UNK]",
      "single_word": false,
      "lstrip": false,
      "rstrip": false,
      "normalized": false,
      "special": true
    },
    {
      "id": 3320,
      "content": "[SEP]",
      "single_word": false,
      "lstrip": false,
      "rstrip": false,
      "normalized": false,
      "special": true
    },
    {
      "id": 5431,
      "content": "[CLS]",
      "single_word": false,
      "lstrip": false,
      "rstrip": false,
      "normalized": false,
      "special": true
    },
    {
      "id": 6669,
      "content": "[MASK]",
      "single_word": false,
      "lstrip": false,
      "rstrip": false,
      "normalized": false,
      "special": true
    }
  ],
  "normalizer": {
    "type": "Sequence",
    "normalizers": [
      {
        "type": "NFD"
      },
      {
        "type": "Lowercase"
      },
      {
        "type": "StripAccents"
      }
    ]
  },
  "pre_tokenizer": {
    "type": "Sequence",
    "pretokenizers": [
      {
        "type": "Metaspace",
        "replacement": "▁",
        "prepend_scheme": "always",
        "split": true
      }
    ]
  },
  "post_processor": {
    "type": "TemplateProcessing",
    "single": [
      {
        "SpecialToken": {
          "id": "[CLS]",
          "type_id": 0
        }
      },
      {
        "Sequence": {
          "id": "A",
          "type_id": 0
        }
      },
      {
        "SpecialToken": {
          "id": "[SEP]",
          "type_id": 0
        }
      }
    ],
    "pair": [
      {
        "SpecialToken": {
          "id": "[CLS]",
          "type_id": 0
        }
      },
      {
        "Sequence": {
          "id": "A",
          "type_id": 0
        }
      },
      {
        "SpecialToken": {
          "id": "[SEP]",
          "type_id": 0
        }
      },
      {
        "Sequence": {
          "id": "B",
          "type_id": 1
        }
      },
      {
        "SpecialToken": {
          "id": "[SEP]",
          "type_id": 1
        }
      }
    ],
    "special_tokens": {
      "[CLS]": {
        "id": "[CLS]",
        "ids": [
          5431
        ],
        "tokens": [
          "[CLS]"
        ]
      },
      "[SEP]": {
        "id": "[SEP]",
        "ids": [
          3320
        ],
        "tokens": [
          "[SEP]"
        ]
      }
    }
  },
  "decoder": {
    "type": "Metaspace",
    "replacement": "▁",
    "prepend_scheme": "always",
    "split": true
  },
  "model": {
    "type": "BPE",
    "dropout": null,
    "unk_token": "[UNK]",
    "continuing_subword_prefix": null,
    "end_of_word_suffix": null,
    "fuse_unk": false,
    "byte_fallback": false,
    "ignore_merges": false,
    "vocab": {
      "apolis": 0,
      "ikti": 1,
      "42": 2,
      "▁odaya": 3,
      "ebilecek": 4,
      "fur": 5,
      "ıb": 6,
      "▁efendi": 7,
      "sem": 8,
      "ırdı": 9,
      "inde": 10,
      "rilyon": 11,
      "dınız": 12,
      "▁129": 13,
      "▁kısa": 14,
      "▁bebek": 15,
      "▁sahneye": 16,
      "▁cocugu": 17,
      "▁'l": 18,
      "▁gozlu": 19,
      "ler": 20,
      "▁1/8": 21,
      "▁250000": 22,
      "▁gund": 23,
      "▁indianapolis'ten": 24,
      "oc": 25,
      "▁fazlaydi": 26,
      "lav": 27,
      "▁allak": 28,
      "isco": 29,
      "▁yetis": 30,
      "▁istemiyorum": 31,
      "▁mich": 32,
      "▁yargı": 33,
      "ece": 34,
      "elerde": 35,
      "▁alıskan": 36,
      "cesi": 37,
      "▁seye": 38,
      "▁mesaf": 39,
      "▁sarı": 40,
      "▁perakende": 41,
      "tıs": 42,
      "▁profesyonel": 43,
      "▁23": 44,
      "gunde": 45,
      "▁sıra": 46,
      "▁baslık": 47,
      "elle": 48,
      "tıgım": 49,
      "anlı": 50,
      "▁had": 51,
      "▁ko": 52,
      "▁alakali": 53,
      "▁ymis": 54,
      "▁gayet": 55,
      "▁ag": 56,
      "▁orland": 57,
      "▁jose'ye": 58,
      "▁ancak": 59,
      "▁12.5": 60,
      "▁sisman": 61,
      "ince": 62,
      "▁oranı": 63,
      "▁kemik": 64,
      "▁paul": 65,
      "imet": 66,
      "▁halkı": 67,
      "▁eline": 68,
      "▁kendileri": 69,
      "▁devir": 70,
      "unda": 71,
      "ly": 72,
      "ru": 73,
      "▁ederdi": 74,
      "▁plas": 75,
      "▁iddia": 76,
      "▁amel": 77,
      "mamıstı": 78,
      "▁500": 79,
      "▁kapsamlı": 80,
      "ps": 81,
      "▁pantol": 82,
      "▁she": 83,
      "▁iyisi": 84,
      "▁nori": 85,
      "▁hareketi": 86,
      "▁bitk": 87,
      "▁izlen": 88,
      "ledi": 89,
      "▁oc": 90,
      "▁olabilirdi": 91,
      "stems": 92,
      "luk": 93,
      "▁hi": 94,
      "▁dis": 95,
      "▁itibar": 96,
      "▁dolandır": 97,
      "▁merkeze": 98,
      "▁kılı": 99,
      "▁muthis": 100,
      "▁soyle": 101,
      "yle": 102,
      "▁anlattı": 103,
      "iyordu": 104,
      "▁ayse": 105,
      "▁kahkah": 106,
      "▁beb": 107,
      "▁muzakere": 108,
      "▁bunu": 109,
      "▁kuvvetleri": 110,
      "▁piyasa": 111,
      "r": 112,
      "▁idi": 113,
      "▁sasırtıcı": 114,
      "▁araya": 115,
      "▁indi": 116,
      "▁karsılık": 117,
      "likleri": 118,
      "▁bell": 119,
      "▁gecirdik": 120,
      "▁yurek": 121,
      "▁1500": 122,
      "ladı": 123,
      "▁hava": 124,
      "▁gosterdi": 125,
      "▁milletvek": 126,
      "▁yumurta": 127,
      "▁geldik": 128,
      "▁not": 129,
      "vel": 130,
      "▁cır": 131,
      "▁toh": 132,
      "▁sım": 133,
      "siye": 134,
      "▁gozlerim": 135,
      "▁rak": 136,
      "madan": 137,
      "unu": 138,
      "▁pesinde": 139,
      "▁takv": 140,
      "▁)": 141,
      "▁ilgin": 142,
      "▁eris": 143,
      "▁yemeklerden": 144,
      "▁halbu": 145,
      "▁sul": 146,
      "▁ex": 147,
      "▁savur": 148,
      "▁fot": 149,
      "▁zeytin": 150,
      "▁kızın": 151,
      "w": 152,
      "▁uzakti": 153,
      "▁toplum": 154,
      "▁ihtil": 155,
      "▁gosterebilir": 156,
      "▁millet": 157,
      "uyla": 158,
      "▁kabul": 159,
      "ge": 160,
      "▁tavır": 161,
      "▁ellerini": 162,
      "▁4.5": 163,
      "▁izledi": 164,
      "▁icme": 165,
      "ır": 166,
      "ess": 167,
      "▁organ": 168,
      "▁enf": 169,
      "▁yalan": 170,
      "▁fa": 171,
      "gımız": 172,
      "ise": 173,
      "▁nobet": 174,
      "um": 175,
      "▁wh": 176,
      "▁tane": 177,
      "▁oglan": 178,
      "▁renkli": 179,
      "▁toplantıs": 180,
      "ey": 181,
      "▁gercek": 182,
      "▁=": 183,
      "dikten": 184,
      "▁bilgis": 185,
      "▁tırn": 186,
      "▁aydınlık": 187,
      "urt": 188,
      "▁sebeb": 189,
      "ısız": 190,
      "una": 191,
      "akin": 192,
      "▁66": 193,
      "▁worth'a": 194,
      "▁hayata": 195,
      "oz": 196,
      "▁numar": 197,
      "▁avukat": 198,
      "gin": 199,
      "▁ba": 200,
      "▁kor": 201,
      "uma": 202,
      "▁sh": 203,
      "ih": 204,
      "▁gurult": 205,
      "▁84": 206,
      ".5": 207,
      "▁arb": 208,
      "▁kr": 209,
      "▁baglantı": 210,
      "▁first": 211,
      "layan": 212,
      "▁muhar": 213,
      "▁tiyatr": 214,
      "▁kendim": 215,
      "erk": 216,
      "▁ayrılıp": 217,
      "mazdı": 218,
      "▁sav": 219,
      "▁yaptıgı": 220,
      "▁sınıfı": 221,
      "▁oldug": 222,
      "▁'li": 223,
      "▁baktım": 224,
      "▁koyu": 225,
      "▁otobus": 226,
      "▁bozuk": 227,
      "▁corb": 228,
      "▁yapabilir": 229,
      "▁yıllar": 230,
      "tıklarını": 231,
      "▁onemli": 232,
      "▁olduk": 233,
      "▁olsaydı": 234,
      "dıgından": 235,
      "▁krav": 236,
      "▁catlak": 237,
      "▁iktis": 238,
      "▁lungur": 239,
      "▁ev": 240,
      "▁seyrediyor": 241,
      "lo": 242,
      "▁uretimi": 243,
      "▁kendisini": 244,
      "▁gizli": 245,
      "▁tah": 246,
      "▁ekmek": 247,
      "▁hasan": 248,
      "▁angeles'e": 249,
      "▁zirv": 250,
      "▁etti": 251,
      "▁talep": 252,
      "ilerek": 253,
      "▁bayram": 254,
      "▁am": 255,
      "▁1991": 256,
      "ımız": 257,
      "▁uygulan": 258,
      "▁satır": 259,
      "▁populer": 260,
      "▁baslangıc": 261,
      "ene": 262,
      "▁isci": 263,
      "▁59": 264,
      "▁hatır": 265,
      "ira": 266,
      "alt": 267,
      "▁1.4": 268,
      "▁0.0": 269,
      "▁dunyanın": 270,
      "▁koyun": 271,
      "▁kalmıstı": 272,
      "meyen": 273,
      "▁sır": 274,
      "▁sorumluluk": 275,
      "▁bul": 276,
      "▁denver'e": 277,
      "▁cıp": 278,
      "▁rum": 279,
      "sın": 280,
      "ına": 281,
      "▁kitaplar": 282,
      "▁york'tan": 283,
      "▁$'a": 284,
      "▁kasık": 285,
      "eleri": 286,
      "endi": 287,
      "▁475": 288,
      "sik": 289,
      "lah": 290,
      "▁sof": 291,
      "▁baslıyor": 292,
      "▁kurk": 293,
      "▁mes": 294,
      "▁kucuk": 295,
      "▁;": 296,
      "undeki": 297,
      "▁senedi": 298,
      "▁niyet": 299,
      "artesi": 300,
      "▁oncesi": 301,
      "▁buz": 302,
      "esinden": 303,
      "ang": 304,
      "▁gercekles": 305,
      "at": 306,
      "ach": 307,
      "▁milwaukee'ye": 308,
      "▁madd": 309,
      "▁telerate": 310,
      "▁mev": 311,
      "mamıs": 312,
      "▁142": 313,
      "en": 314,
      "▁hafif": 315,
      "▁yuzme": 316,
      "memiz": 317,
      "▁sunuyor": 318,
      "▁kuzey": 319,
      "▁yaptirmadim": 320,
      "▁cami": 321,
      "rol": 322,
      "▁veril": 323,
      "▁del": 324,
      "▁kuzu": 325,
      "▁birbirinden": 326,
      "▁boston'a": 327,
      "lıkla": 328,
      "ell": 329,
      "▁direktoru": 330,
      "▁listesini": 331,
      "▁eglence": 332,
      "▁california": 333,
      "▁muhal": 334,
      "▁tutum": 335,
      "ment": 336,
      "▁yoksun": 337,
      "▁140": 338,
      "▁hem": 339,
      "au": 340,
      "aci": 341,
      "▁kodu": 342,
      "▁ses": 343,
      "▁nihayet": 344,
      "▁dusunuyor": 345,
      "▁dobr": 346,
      "erken": 347,
      ".875": 348,
      "▁insanı": 349,
      "▁akr": 350,
      "▁toz": 351,
      "▁ozet": 352,
      "▁anda": 353,
      "▁b.": 354,
      "▁donuk": 355,
      "▁yumur": 356,
      "▁pas": 357,
      "▁adam": 358,
      "ne": 359,
      "▁merkezine": 360,
      "madi": 361,
      "▁sırada": 362,
      "▁konfor": 363,
      "cu": 364,
      "▁ihrac": 365,
      "▁ucretlerini": 366,
      "▁arap": 367,
      "arken": 368,
      "▁vererek": 369,
      "stit": 370,
      "gunda": 371,
      "▁lok": 372,
      "▁acıkca": 373,
      "▁korun": 374,
      "landır": 375,
      "▁destek": 376,
      "▁750": 377,
      "▁agacın": 378,
      "erin": 379,
      "▁zihn": 380,
      "▁ziy": 381,
      "▁birisi": 382,
      "'teki": 383,
      "▁basladı": 384,
      "▁10'dan": 385,
      "emey": 386,
      "ere": 387,
      "▁olayı": 388,
      "▁yukselen": 389,
      "▁dunyaya": 390,
      "▁cob": 391,
      "▁agzı": 392,
      "dirde": 393,
      "▁tasır": 394,
      "▁iler": 395,
      "ayan": 396,
      "▁termal": 397,
      "▁geride": 398,
      "abilecegini": 399,
      "▁muster": 400,
      "likler": 401,
      "▁birimi": 402,
      "▁degismedi": 403,
      "-6": 404,
      "▁aradilar": 405,
      "imden": 406,
      "ayım": 407,
      "▁edebilir": 408,
      "▁omr": 409,
      "▁tem": 410,
      "co": 411,
      "emmel": 412,
      "▁dam": 413,
      "▁fabrik": 414,
      "▁hindistan": 415,
      "nik": 416,
      "▁odem": 417,
      "▁sistem": 418,
      "emiyor": 419,
      "'ndan": 420,
      "▁bes": 421,
      "of": 422,
      "▁yum": 423,
      "amak": 424,
      "ligini": 425,
      "▁kapıyı": 426,
      "▁art": 427,
      "▁mevdu": 428,
      "yse": 429,
      "roit": 430,
      "ime": 431,
      "dan": 432,
      "▁merdi": 433,
      "▁tarihinde": 434,
      "▁yaralan": 435,
      "▁suret": 436,
      "▁cirkin": 437,
      "ikler": 438,
      "tuk": 439,
      "yal": 440,
      "idik": 441,
      "iniz": 442,
      "▁gel": 443,
      "▁kal": 444,
      "unup": 445,
      "ırıl": 446,
      "▁yemek": 447,
      "7.2": 448,
      "▁bors": 449,
      "▁fet": 450,
      "▁munasebet": 451,
      "▁uzman": 452,
      "▁lakin": 453,
      "▁sıfır": 454,
      "▁dokun": 455,
      "ay": 456,
      "▁bicim": 457,
      "▁gecmiste": 458,
      "▁mudur": 459,
      "▁fiyatlandır": 460,
      "▁atese": 461,
      "▁43": 462,
      "▁bilgisi": 463,
      "dam": 464,
      "▁baslayan": 465,
      "▁huk": 466,
      "ver": 467,
      "▁benz": 468,
      "alım": 469,
      "▁degisimi": 470,
      "▁fikir": 471,
      "▁fasul": 472,
      "▁yurum": 473,
      "▁nis": 474,
      "▁fazlası": 475,
      "▁otur": 476,
      "▁acaktı": 477,
      "▁gerceklesti": 478,
      "lem": 479,
      "▁universite": 480,
      "tif": 481,
      "▁cıkıyor": 482,
      "▁kavr": 483,
      "oru": 484,
      "er'in": 485,
      "bil": 486,
      "▁kıyas": 487,
      "▁guzel": 488,
      "ısıyla": 489,
      "▁400000": 490,
      "▁suya": 491,
      "▁metal": 492,
      "▁ciyak": 493,
      "▁mid": 494,
      "malarını": 495,
      "det": 496,
      "daki": 497,
      "▁ilgi": 498,
      "ı": 499,
      "lemek": 500,
      "ksen": 501,
      "▁ual": 502,
      "uyordu": 503,
      "memek": 504,
      "▁hacmi": 505,
      "▁yas": 506,
      "▁beni": 507,
      "▁enerj": 508,
      "▁siyaset": 509,
      "▁seneye": 510,
      "▁ayrılan": 511,
      "▁evlen": 512,
      "▁yedi": 513,
      "agı": 514,
      "▁uygul": 515,
      "ez": 516,
      "▁ulkemiz": 517,
      "▁tac": 518,
      "▁biber": 519,
      "▁tecrub": 520,
      "▁say": 521,
      "▁hastan": 522,
      "▁alay": 523,
      "▁analiz": 524,
      "▁kadar": 525,
      "▁%9": 526,
      "▁dagın": 527,
      "▁bufe": 528,
      "▁dolas": 529,
      "▁istedi": 530,
      "▁kararlı": 531,
      "▁1\\/": 532,
      "ili": 533,
      "▁gorur": 534,
      "muz": 535,
      "ond": 536,
      "▁avrupalı": 537,
      "▁izin": 538,
      "▁tahk": 539,
      "▁seyden": 540,
      "▁kahvalt": 541,
      "▁giyin": 542,
      "▁onların": 543,
      "kti": 544,
      "▁babam": 545,
      "iz": 546,
      "▁cadır": 547,
      "usuz": 548,
      "▁karsilama": 549,
      "but": 550,
      "▁sa": 551,
      "▁1989-8": 552,
      "▁ken": 553,
      "▁a": 554,
      "ide": 555,
      "unun": 556,
      "▁&": 557,
      "▁goz": 558,
      "▁must": 559,
      "▁imz": 560,
      "▁bazi": 561,
      "▁kayık": 562,
      "▁sabah": 563,
      "ation": 564,
      "▁damar": 565,
      "▁birbiriyle": 566,
      "▁bıyık": 567,
      "egas": 568,
      "▁kazancları": 569,
      "▁etmeyi": 570,
      "▁operasyon": 571,
      "▁temettu": 572,
      "baz": 573,
      "▁cık": 574,
      "▁gom": 575,
      "omur": 576,
      "tan": 577,
      "▁bus": 578,
      "▁kavus": 579,
      "▁karsiligini": 580,
      "▁q": 581,
      "uyorlardı": 582,
      "olojik": 583,
      "▁def": 584,
      "▁verilen": 585,
      "▁sultan": 586,
      "ırım": 587,
      "▁karsılan": 588,
      "abilirdi": 589,
      "bs": 590,
      "▁bolumu": 591,
      "▁fiyatlarını": 592,
      "▁tanım": 593,
      "▁savunma": 594,
      "▁ucusu": 595,
      "▁vermis": 596,
      "▁olan": 597,
      "ecekler": 598,
      "▁hut": 599,
      "▁sular": 600,
      "▁charlotte'ye": 601,
      "▁%51": 602,
      "▁?": 603,
      "▁gidiyorum": 604,
      "▁sıkıntı": 605,
      "▁asırı": 606,
      "▁sanız": 607,
      "has": 608,
      "▁atan": 609,
      "▁milliyet": 610,
      "lebilir": 611,
      "▁sekl": 612,
      "▁bogaz": 613,
      "▁nisp": 614,
      "▁odalari": 615,
      "▁mahal": 616,
      "▁18": 617,
      "▁once": 618,
      "▁soyledi": 619,
      "▁cif": 620,
      "▁sende": 621,
      "▁%30": 622,
      "▁kazandı": 623,
      "▁ten": 624,
      "ersiz": 625,
      "▁zavallı": 626,
      "▁olaganustu": 627,
      "eli": 628,
      "▁birtak": 629,
      "▁yasa": 630,
      "lif": 631,
      "casına": 632,
      "▁fat": 633,
      "▁surec": 634,
      "▁hepsinden": 635,
      "ter": 636,
      "▁oakland'a": 637,
      "▁17": 638,
      "▁kalkıp": 639,
      "▁31": 640,
      "▁kil": 641,
      "▁wil": 642,
      "▁olsun": 643,
      "▁12": 644,
      "▁ren": 645,
      "▁hanimdi": 646,
      "▁kestir": 647,
      "abını": 648,
      "00": 649,
      "ilebilir": 650,
      "▁satıs": 651,
      "liginden": 652,
      "bucuk": 653,
      "▁kısı": 654,
      "▁kardesi": 655,
      "acagını": 656,
      "▁bin": 657,
      "▁zaman": 658,
      "▁city": 659,
      "▁dov": 660,
      "▁doldur": 661,
      "▁maliyet": 662,
      "▁ikisi": 663,
      "altı": 664,
      "▁pisir": 665,
      "▁sevk": 666,
      "fet": 667,
      "▁sor": 668,
      "▁dusundu": 669,
      "▁sayg": 670,
      "pıs": 671,
      "▁isken": 672,
      "▁vol": 673,
      "▁alabilir": 674,
      "ılım": 675,
      "▁har": 676,
      "▁tır": 677,
      "▁rezervasyonu": 678,
      "▁lob": 679,
      "▁cift": 680,
      "tek": 681,
      "▁gelenek": 682,
      "▁ili": 683,
      "▁futbol": 684,
      ".08": 685,
      "0": 686,
      "▁kesin": 687,
      "▁baz": 688,
      "▁ip": 689,
      "▁dar": 690,
      "▁yarar": 691,
      "▁uc": 692,
      "alet": 693,
      "fez": 694,
      "▁sar": 695,
      "▁kadın": 696,
      "▁%4.8": 697,
      "▁kalkan": 698,
      "▁ticari": 699,
      "pa": 700,
      "▁h": 701,
      "▁iyi": 702,
      "ayı": 703,
      "▁ici": 704,
      "emez": 705,
      "▁neh": 706,
      "att": 707,
      "▁kans": 708,
      "▁tanesi": 709,
      "baskan": 710,
      "▁dayan": 711,
      "▁0.9": 712,
      "ye": 713,
      "▁saglık": 714,
      "▁mesaj": 715,
      "▁bizler": 716,
      "sık": 717,
      "ade": 718,
      "8": 719,
      "▁esim": 720,
      "▁olunca": 721,
      "▁ingil": 722,
      "'y": 723,
      "yen": 724,
      "▁emir": 725,
      "▁a.": 726,
      "▁ceket": 727,
      "'ne": 728,
      "▁kov": 729,
      "▁hizmet": 730,
      "▁kapıya": 731,
      "▁199": 732,
      "▁indianapolis'e": 733,
      "▁t": 734,
      "▁ortam": 735,
      "▁176": 736,
      "hos": 737,
      "▁bagımsız": 738,
      "▁bosal": 739,
      "tıcı": 740,
      "2": 741,
      "▁havuzlar": 742,
      "cakt": 743,
      "”": 744,
      "tıgını": 745,
      "say": 746,
      "▁program": 747,
      "mem": 748,
      "▁yansıt": 749,
      "▁taz": 750,
      "▁uyar": 751,
      "sinin": 752,
      "▁1979": 753,
      "▁seyret": 754,
      "▁ediliyor": 755,
      "▁cer": 756,
      "▁sayıda": 757,
      "ogram": 758,
      "▁puanlama": 759,
      "▁piyasanın": 760,
      "▁ets": 761,
      "cisi": 762,
      "▁bilgil": 763,
      "▁dusunuyorum": 764,
      "▁icecekleri": 765,
      "▁umit": 766,
      "▁48": 767,
      "amayacagını": 768,
      "denin": 769,
      "▁acent": 770,
      "▁103": 771,
      "▁dok": 772,
      "ydı": 773,
      "▁kahval": 774,
      "▁coc": 775,
      "fi": 776,
      "iri": 777,
      "▁konforlu": 778,
      "leyip": 779,
      "▁olmasa": 780,
      "▁esi": 781,
      "▁deri": 782,
      "▁civ": 783,
      "▁newark": 784,
      "▁tic": 785,
      "▁mavi": 786,
      "▁geri": 787,
      "▁yat": 788,
      "▁105": 789,
      "arında": 790,
      "▁haket": 791,
      "▁il": 792,
      "lık": 793,
      "▁kamyon": 794,
      "unlu": 795,
      "▁yasındaki": 796,
      "dern": 797,
      "▁pah": 798,
      "ıyorum": 799,
      "iyas": 800,
      "▁ucyuz": 801,
      "▁sez": 802,
      "▁can": 803,
      "▁oteldi": 804,
      "▁koylu": 805,
      "▁cın": 806,
      "▁bununla": 807,
      "▁kost": 808,
      "dek": 809,
      "▁ellerinde": 810,
      "▁inan": 811,
      "gis": 812,
      "'de": 813,
      "▁derece": 814,
      "▁urun": 815,
      "▁yolu": 816,
      "▁tabur": 817,
      "ayi": 818,
      "▁korku": 819,
      "iza": 820,
      "▁indir": 821,
      "▁nokta": 822,
      "▁bulunmaktadır": 823,
      "▁trilyon": 824,
      "▁gorusmeler": 825,
      "▁gidis": 826,
      "ısık": 827,
      "▁5\\/8": 828,
      "▁sadece": 829,
      "▁cekip": 830,
      "anci": 831,
      "▁golg": 832,
      "▁dib": 833,
      "▁suruk": 834,
      "leme": 835,
      "▁7.1": 836,
      "▁sun": 837,
      "as": 838,
      "▁kararsizim": 839,
      "▁1/2": 840,
      "▁raporu": 841,
      "▁benimle": 842,
      "sinde": 843,
      "▁burası": 844,
      "ilmez": 845,
      "agın": 846,
      "▁ucusların": 847,
      "▁amc": 848,
      "▁kendisi": 849,
      "▁gerektigini": 850,
      "▁peki": 851,
      "▁bası": 852,
      "▁veren": 853,
      "▁kapsam": 854,
      "▁tahvili": 855,
      "ento": 856,
      "▁baslar": 857,
      "▁fener": 858,
      "▁chp": 859,
      "▁tex": 860,
      "temiz": 861,
      "▁oakland": 862,
      "mak": 863,
      "▁vazif": 864,
      "▁nisan'da": 865,
      "▁ilisk": 866,
      "▁edilebilir": 867,
      "▁pat": 868,
      "▁meyve": 869,
      "▁ertesi": 870,
      "▁vuc": 871,
      "▁herif": 872,
      "▁deg": 873,
      "▁3.7": 874,
      "madım": 875,
      "38": 876,
      "▁aradi": 877,
      "yalı": 878,
      "▁tırman": 879,
      "▁oakland'dan": 880,
      "▁roman": 881,
      "▁yaptı": 882,
      "▁alıyordu": 883,
      "▁155": 884,
      "ilmisti": 885,
      "▁musta": 886,
      "▁meydan": 887,
      "▁isletmeler": 888,
      "▁faktor": 889,
      "▁endise": 890,
      "▁ol": 891,
      "▁devlet": 892,
      "▁tav": 893,
      "iyeti": 894,
      "▁tıpkı": 895,
      "ano": 896,
      "▁yanında": 897,
      "▁kisiler": 898,
      "▁palt": 899,
      "▁kavg": 900,
      "▁hurr": 901,
      "▁mez": 902,
      "▁uygundu": 903,
      "▁evet": 904,
      "\\": 905,
      "▁mahkeme": 906,
      "▁zinc": 907,
      "yas": 908,
      "▁toronto'dan": 909,
      "▁ask": 910,
      "▁yasanan": 911,
      "▁mitchell": 912,
      "▁toplam": 913,
      "▁sikinti": 914,
      "▁dan": 915,
      "lasıyor": 916,
      "▁hasta": 917,
      "▁yuzlu": 918,
      "▁dıs": 919,
      "▁delta": 920,
      "ot": 921,
      "▁hay": 922,
      "▁sepet": 923,
      "cısı": 924,
      "▁amac": 925,
      "▁stu": 926,
      "▁sit": 927,
      "▁davran": 928,
      "▁dag": 929,
      "▁konusma": 930,
      "▁yemekler": 931,
      "▁at": 932,
      "arası": 933,
      "▁neyi": 934,
      "▁kend": 935,
      "▁havuz": 936,
      "kun": 937,
      "par": 938,
      "▁olcu": 939,
      "▁bilinc": 940,
      "▁tahta": 941,
      "▁seyi": 942,
      "yiz": 943,
      "▁edici": 944,
      "ılıgını": 945,
      "madim": 946,
      "▁detroit": 947,
      "▁dip": 948,
      "▁(": 949,
      "▁rey": 950,
      "▁vas": 951,
      "▁ediyorum": 952,
      "▁orman": 953,
      ".625": 954,
      "▁89": 955,
      "▁makam": 956,
      "▁seyir": 957,
      "erek": 958,
      "ısıl": 959,
      "▁sapk": 960,
      "▁tutan": 961,
      "▁ote": 962,
      "op": 963,
      "▁yuvarlak": 964,
      "an'ın": 965,
      "kırk": 966,
      "▁varlık": 967,
      "▁v": 968,
      "masında": 969,
      "▁dokuz": 970,
      "▁baglan": 971,
      "▁tesek": 972,
      "▁fed": 973,
      "▁seattle'den": 974,
      "▁kocası": 975,
      "ın": 976,
      "▁%5": 977,
      "ale": 978,
      "iger": 979,
      "▁yaptir": 980,
      "▁201": 981,
      "▁acakt": 982,
      "▁tesaduf": 983,
      "▁cıkarıyor": 984,
      "alak": 985,
      "fer": 986,
      "▁gecenin": 987,
      "▁kef": 988,
      "▁%13": 989,
      "eginden": 990,
      "▁oynuyor": 991,
      "▁tep": 992,
      "▁denver'den": 993,
      "ari": 994,
      "▁ii": 995,
      "bası": 996,
      "▁zamanı": 997,
      "▁hizmete": 998,
      "▁taraftar": 999,
      "▁umur": 1000,
      "▁sendika": 1001,
      "ebilir": 1002,
      "▁yemegi": 1003,
      "▁tamamen": 1004,
      "▁herhal": 1005,
      "▁194": 1006,
      ".3": 1007,
      "bin": 1008,
      "▁ayrıntı": 1009,
      "▁herkese": 1010,
      "▁kendisin": 1011,
      "▁derken": 1012,
      ".39": 1013,
      "▁anadolu": 1014,
      "▁obu": 1015,
      "▁ilgilendiler": 1016,
      "▁nar": 1017,
      "▁yorum": 1018,
      "▁kuc": 1019,
      "esil": 1020,
      "▁icerisinde": 1021,
      "siyonu": 1022,
      "▁ulkede": 1023,
      "oy": 1024,
      "▁panik": 1025,
      "cılar": 1026,
      "ba": 1027,
      "▁fiyata": 1028,
      "▁birey": 1029,
      "(": 1030,
      "▁phoenix'den": 1031,
      "ri": 1032,
      "set": 1033,
      "▁kocaman": 1034,
      "iden": 1035,
      "▁ederler": 1036,
      "ific": 1037,
      "▁dusuyor": 1038,
      "▁ederken": 1039,
      "enz": 1040,
      "▁oldugumuz": 1041,
      "▁chicago'dan": 1042,
      "lardaki": 1043,
      "▁sik": 1044,
      "▁karsilamadi": 1045,
      "▁dow": 1046,
      "▁vermeye": 1047,
      "▁97": 1048,
      "▁gıldır": 1049,
      "sur": 1050,
      "▁univers": 1051,
      "iski": 1052,
      "▁cogunun": 1053,
      "▁darbe": 1054,
      "▁san": 1055,
      "▁u": 1056,
      "▁2002": 1057,
      "▁giden": 1058,
      "▁milyondan": 1059,
      "▁gelmis": 1060,
      "▁avuk": 1061,
      "▁hol": 1062,
      "▁sozcu": 1063,
      "▁dikkat": 1064,
      "▁iste": 1065,
      "yeni": 1066,
      "▁teskil": 1067,
      "malar": 1068,
      "▁eb": 1069,
      "▁nereye": 1070,
      "▁dinlen": 1071,
      "@": 1072,
      "77": 1073,
      "▁gene": 1074,
      "▁milyardan": 1075,
      "▁sure": 1076,
      "▁4.3": 1077,
      "▁cıkar": 1078,
      "'in": 1079,
      "▁gon": 1080,
      "▁isaret": 1081,
      "istler": 1082,
      "▁duyar": 1083,
      "ukee": 1084,
      "▁45": 1085,
      "▁4.2": 1086,
      "bat": 1087,
      "▁40": 1088,
      "▁ayrıldı": 1089,
      "▁kahvalti": 1090,
      "meye": 1091,
      "▁ıs": 1092,
      "▁personelin": 1093,
      "▁seyr": 1094,
      "isinin": 1095,
      "▁fısır": 1096,
      "bus": 1097,
      "▁koy": 1098,
      "▁yaptim": 1099,
      "▁cincinnati": 1100,
      "▁serp": 1101,
      "dir": 1102,
      "▁alısver": 1103,
      "▁gunun": 1104,
      "▁ortal": 1105,
      "▁ciddi": 1106,
      "bas": 1107,
      "▁soyles": 1108,
      "oj": 1109,
      "▁insanları": 1110,
      "siyon": 1111,
      "▁bahset": 1112,
      "▁hicbir": 1113,
      "▁1981": 1114,
      "▁kıdem": 1115,
      "▁gid": 1116,
      "ow": 1117,
      "ilmek": 1118,
      "▁gey": 1119,
      "ugunu": 1120,
      "▁zamandan": 1121,
      "▁yaklasık": 1122,
      "▁ayni": 1123,
      "▁getirmek": 1124,
      "▁newark'a": 1125,
      "▁seninle": 1126,
      "▁mi": 1127,
      "▁dil": 1128,
      "dikleri": 1129,
      "▁bilen": 1130,
      "▁ist": 1131,
      "▁ker": 1132,
      "▁programı": 1133,
      "▁yaratı": 1134,
      "▁ayakkabı": 1135,
      "▁kud": 1136,
      "▁kullanılan": 1137,
      "▁gorulen": 1138,
      "▁kus": 1139,
      "▁sorular": 1140,
      "▁nasdaq": 1141,
      "▁resim": 1142,
      "▁international": 1143,
      "▁kem": 1144,
      "tir": 1145,
      "▁115": 1146,
      "▁amerikan": 1147,
      "▁be": 1148,
      "larımı": 1149,
      "-23": 1150,
      "▁belirli": 1151,
      "▁olacagını": 1152,
      "▁mısınız": 1153,
      "▁acisindan": 1154,
      "d.": 1155,
      "▁kateg": 1156,
      "▁dolar": 1157,
      "▁tası": 1158,
      "▁korumak": 1159,
      "▁teyz": 1160,
      "▁kızıl": 1161,
      "▁durdu": 1162,
      "▁laci": 1163,
      "▁birer": 1164,
      "▁cocuklu": 1165,
      "▁sevg": 1166,
      "enc": 1167,
      "▁yakında": 1168,
      "ert": 1169,
      "▁tucc": 1170,
      "▁kayıp": 1171,
      "▁kadınların": 1172,
      "▁bunlara": 1173,
      "▁telefonla": 1174,
      "▁sef": 1175,
      "acık": 1176,
      "▁dısarı": 1177,
      "▁agır": 1178,
      "▁suleyman": 1179,
      "▁birbirinin": 1180,
      "▁tefek": 1181,
      "▁indianapolis": 1182,
      "tın": 1183,
      "▁nikkei": 1184,
      "lastır": 1185,
      "ıntı": 1186,
      "▁eylul": 1187,
      "▁3.9": 1188,
      "▁beyin": 1189,
      "▁calısan": 1190,
      "▁1.7": 1191,
      "▁ekledi": 1192,
      "▁peynir": 1193,
      "likle": 1194,
      "▁cek": 1195,
      "agına": 1196,
      "▁1/": 1197,
      "▁tanın": 1198,
      "▁et": 1199,
      "▁roportaj": 1200,
      "ucu": 1201,
      "lanması": 1202,
      "▁kedi": 1203,
      "▁muslum": 1204,
      "▁otob": 1205,
      "▁sir": 1206,
      "▁nashville": 1207,
      "▁karsın": 1208,
      "▁isleri": 1209,
      "▁sent": 1210,
      "▁hic": 1211,
      "▁degilsin": 1212,
      "▁yem": 1213,
      "▁icten": 1214,
      "▁calisan": 1215,
      "cuk": 1216,
      "▁--": 1217,
      ".43": 1218,
      "▁siddet": 1219,
      "▁artır": 1220,
      "her": 1221,
      "elendir": 1222,
      "▁%6.90": 1223,
      "▁makin": 1224,
      "▁ayı": 1225,
      "▁yatak": 1226,
      "▁52": 1227,
      "▁cuk": 1228,
      "med": 1229,
      "▁bun": 1230,
      "▁tasıyor": 1231,
      "deri": 1232,
      "▁varmıs": 1233,
      "▁hac": 1234,
      "madı": 1235,
      "▁haval": 1236,
      "▁os": 1237,
      "isindan": 1238,
      "▁karsiladi": 1239,
      "▁mikr": 1240,
      "ılan": 1241,
      "▁den": 1242,
      "▁hakim": 1243,
      "▁telefon": 1244,
      "gec": 1245,
      "▁saglam": 1246,
      "▁umut": 1247,
      "▁duzel": 1248,
      "▁cant": 1249,
      "▁etm": 1250,
      "86": 1251,
      "▁tab": 1252,
      "▁”": 1253,
      "▁hukuk": 1254,
      "▁kad": 1255,
      "ıg": 1256,
      "▁saygı": 1257,
      "▁deli": 1258,
      "▁olmas": 1259,
      "▁kızar": 1260,
      "▁urunleri": 1261,
      "▁orta": 1262,
      "▁bina": 1263,
      "▁hız": 1264,
      "▁beach": 1265,
      "ima": 1266,
      "▁tazmin": 1267,
      "ese": 1268,
      "▁haber": 1269,
      "▁yapabil": 1270,
      ".45": 1271,
      "▁hani": 1272,
      "▁tatildi": 1273,
      "▁fi": 1274,
      "yet": 1275,
      "▁veya": 1276,
      "▁sacları": 1277,
      "▁kıbrıs": 1278,
      "▁kimsen": 1279,
      "▁saga": 1280,
      "cusu": 1281,
      "▁banka": 1282,
      "▁com": 1283,
      "▁ye": 1284,
      "▁hosuma": 1285,
      "cesine": 1286,
      "▁anal": 1287,
      "amadım": 1288,
      "rahim": 1289,
      "▁karar": 1290,
      "elerin": 1291,
      "▁montreal": 1292,
      "lesmis": 1293,
      "▁gelecekteki": 1294,
      "▁avustralya": 1295,
      "uf": 1296,
      "lerini": 1297,
      "▁kap": 1298,
      "▁tr": 1299,
      "▁sezl": 1300,
      "ecegim": 1301,
      ".8": 1302,
      "el": 1303,
      "unde": 1304,
      "▁sınır": 1305,
      "yo": 1306,
      "▁orada": 1307,
      "▁misin": 1308,
      "c": 1309,
      "ekli": 1310,
      "▁olanaklari": 1311,
      "duk": 1312,
      "suzluk": 1313,
      "▁kaldı": 1314,
      "▁kaliforn": 1315,
      "▁gune": 1316,
      "ona": 1317,
      "4.5": 1318,
      "tiv": 1319,
      "▁yerler": 1320,
      "▁gozleri": 1321,
      "▁adeta": 1322,
      "▁acıklama": 1323,
      "▁kimsenin": 1324,
      "▁intern": 1325,
      "▁altından": 1326,
      "elerinden": 1327,
      "▁mıdır": 1328,
      "▁iskel": 1329,
      "▁bek": 1330,
      "gın": 1331,
      "▁sosyal": 1332,
      "▁min": 1333,
      "▁6.9": 1334,
      "▁senetlerinin": 1335,
      "▁tanıs": 1336,
      "▁bosluk": 1337,
      "▁lik": 1338,
      "▁hisseye": 1339,
      "▁onc": 1340,
      "▁bacak": 1341,
      "▁mısın": 1342,
      "ij": 1343,
      "▁sayın": 1344,
      "▁tesisten": 1345,
      "enkul": 1346,
      "▁otuz": 1347,
      "▁ceyrekte": 1348,
      "ern": 1349,
      "ga": 1350,
      "▁gunes": 1351,
      "▁iptal": 1352,
      "ud": 1353,
      "▁istanbul'a": 1354,
      "▁bahar": 1355,
      "▁berbat": 1356,
      "bol": 1357,
      "▁cumle": 1358,
      "▁dusundum": 1359,
      "▁listeleyin": 1360,
      "▁pacific": 1361,
      "▁cic": 1362,
      "▁alabil": 1363,
      "▁dort": 1364,
      "▁…": 1365,
      "▁odada": 1366,
      "ali": 1367,
      "agon": 1368,
      "▁milyonluk": 1369,
      "▁altmıs": 1370,
      "▁jos": 1371,
      "▁tuh": 1372,
      "ner": 1373,
      "▁petrol": 1374,
      "▁2009": 1375,
      "▁ne": 1376,
      "urlar": 1377,
      "▁kitab": 1378,
      "▁masal": 1379,
      "▁kendisinden": 1380,
      "tıgı": 1381,
      "▁cle": 1382,
      "bahar": 1383,
      "▁tamir": 1384,
      "luyor": 1385,
      "▁fonu": 1386,
      "▁ediyor": 1387,
      "sah": 1388,
      "▁japon": 1389,
      "▁um": 1390,
      "▁komsu": 1391,
      "▁animasyon": 1392,
      "▁kisiye": 1393,
      "▁kaybetti": 1394,
      "ustuk": 1395,
      "▁hukumeti": 1396,
      "ısından": 1397,
      "▁avrupa": 1398,
      "▁airlines'in": 1399,
      "ann": 1400,
      "▁om": 1401,
      "▁nuf": 1402,
      "▁cam": 1403,
      "▁serbest": 1404,
      "▁piyas": 1405,
      "▁uste": 1406,
      "▁dey": 1407,
      "▁toprak": 1408,
      "▁rezerv": 1409,
      "▁olup": 1410,
      "arak": 1411,
      "▁rıhtım": 1412,
      "aki": 1413,
      "▁duy": 1414,
      "▁lar": 1415,
      "▁strate": 1416,
      "▁hayatın": 1417,
      "▁yapılandır": 1418,
      "is": 1419,
      "anet": 1420,
      "6": 1421,
      "▁baslamıstı": 1422,
      "▁un": 1423,
      "▁adamın": 1424,
      "▁...": 1425,
      "▁britan": 1426,
      "▁bahce": 1427,
      "▁%20": 1428,
      "ladıgı": 1429,
      "▁munaseb": 1430,
      "▁fran": 1431,
      "▁tuhaf": 1432,
      "afir": 1433,
      "▁malz": 1434,
      "▁edecegim": 1435,
      "▁hus": 1436,
      "▁haric": 1437,
      "▁gorevlisi": 1438,
      "▁2.1": 1439,
      "▁zevk": 1440,
      "▁matematik": 1441,
      "ası": 1442,
      "▁sanatcı": 1443,
      "otte": 1444,
      "▁kuz": 1445,
      "▁saglamak": 1446,
      "▁pir": 1447,
      "▁surat": 1448,
      "isli": 1449,
      "▁saati": 1450,
      "sanız": 1451,
      "▁pittsburgh'tan": 1452,
      "▁durum": 1453,
      "endir": 1454,
      "0.": 1455,
      "▁sokaga": 1456,
      "▁titiz": 1457,
      "▁bel": 1458,
      "▁yeter": 1459,
      "▁ogret": 1460,
      "▁ode": 1461,
      "‘": 1462,
      "▁yılında": 1463,
      "▁borsası'nda": 1464,
      "▁ankete": 1465,
      "▁kaps": 1466,
      "▁kenara": 1467,
      "▁indian": 1468,
      "▁siyas": 1469,
      ".52": 1470,
      "▁800": 1471,
      "▁trafik": 1472,
      "▁res": 1473,
      "▁iliskin": 1474,
      "▁duydu": 1475,
      "▁`": 1476,
      "ıs": 1477,
      "'un": 1478,
      "cag": 1479,
      "ur": 1480,
      "▁sirketler": 1481,
      "▁aldıgını": 1482,
      "▁sonucları": 1483,
      "▁1961": 1484,
      "leniyor": 1485,
      "▁arizona": 1486,
      "▁isini": 1487,
      "asyon": 1488,
      "▁selam": 1489,
      "tadır": 1490,
      "lul": 1491,
      "▁olma": 1492,
      "▁lut": 1493,
      "lıdır": 1494,
      "▁baltimore'ye": 1495,
      "▁dim": 1496,
      "▁%2.7": 1497,
      "▁42": 1498,
      "ımı": 1499,
      "yı": 1500,
      "▁mel": 1501,
      "▁mahk": 1502,
      "▁degerinde": 1503,
      "▁yun": 1504,
      "apur": 1505,
      "ize": 1506,
      "▁sok": 1507,
      "▁dobra": 1508,
      "▁dunyada": 1509,
      "▁asagıda": 1510,
      "vıl": 1511,
      "▁kriz": 1512,
      "ıydı": 1513,
      "▁yeteri": 1514,
      "▁basbak": 1515,
      "▁hizmetten": 1516,
      "▁yemeklerini": 1517,
      "▁cim": 1518,
      "▁kumas": 1519,
      "▁teslim": 1520,
      "▁domates": 1521,
      "▁uygulama": 1522,
      "▁raf": 1523,
      "▁verdigimiz": 1524,
      "▁cumhur": 1525,
      "rim": 1526,
      "medik": 1527,
      "ayla": 1528,
      "▁saman": 1529,
      "▁benim": 1530,
      "ligin": 1531,
      "▁tur": 1532,
      "▁.8": 1533,
      "▁genellikle": 1534,
      "▁ailesi": 1535,
      "▁oldukları": 1536,
      "▁pop": 1537,
      "▁bos": 1538,
      "▁hat": 1539,
      "▁eskiydi": 1540,
      "▁gunde": 1541,
      "arson": 1542,
      "▁portfoy": 1543,
      "adılar": 1544,
      "eri": 1545,
      "▁havlu": 1546,
      "▁teb": 1547,
      "▁corba": 1548,
      "▁mukemmel": 1549,
      "▁havuzu": 1550,
      "▁sınav": 1551,
      "▁avantaj": 1552,
      "layarak": 1553,
      "rika": 1554,
      "hur": 1555,
      "▁sirket": 1556,
      "▁insanların": 1557,
      "▁ederek": 1558,
      "▁gre": 1559,
      "▁ad": 1560,
      "▁tumu": 1561,
      "▁temizligi": 1562,
      "▁sog": 1563,
      "▁org": 1564,
      "tmis": 1565,
      "▁mum": 1566,
      "▁atlanta'ya": 1567,
      "▁acik": 1568,
      "ıstır": 1569,
      "▁kims": 1570,
      "▁ozellikle": 1571,
      "▁ilg": 1572,
      "asıdır": 1573,
      "dugu": 1574,
      "▁donemi": 1575,
      "▁memnunum": 1576,
      "▁kime": 1577,
      "ecekti": 1578,
      "sızın": 1579,
      "▁kalitesi": 1580,
      "▁466": 1581,
      "▁yenilen": 1582,
      "gor": 1583,
      "▁durmadan": 1584,
      "▁banyo": 1585,
      "▁teksas": 1586,
      "▁sonr": 1587,
      "ol": 1588,
      "▁birbirini": 1589,
      "▁yasıyor": 1590,
      "▁sureci": 1591,
      "▁soyledik": 1592,
      "met": 1593,
      "▁mir": 1594,
      "iser": 1595,
      "▁atıyor": 1596,
      "▁iy": 1597,
      "▁bilin": 1598,
      "▁ankara": 1599,
      "▁cizgi": 1600,
      "▁pac": 1601,
      "▁birinde": 1602,
      "▁sehri": 1603,
      "▁5.9": 1604,
      "▁goruyorum": 1605,
      "▁calısıyor": 1606,
      "▁kokulu": 1607,
      "bac": 1608,
      "▁verimli": 1609,
      "▁sonraki": 1610,
      "▁saglıyor": 1611,
      "madıgı": 1612,
      "▁paylas": 1613,
      "▁cıkart": 1614,
      "▁yapması": 1615,
      "▁tal": 1616,
      "▁tutuk": 1617,
      "▁corap": 1618,
      "▁gogsun": 1619,
      "▁patlıcan": 1620,
      "▁ilgisizdi": 1621,
      "▁bakkal": 1622,
      "▁temp": 1623,
      "▁sı": 1624,
      "▁kampanyalardan": 1625,
      "▁amerika": 1626,
      "ohn": 1627,
      "yon": 1628,
      "▁florida": 1629,
      "▁22-23": 1630,
      "▁jose": 1631,
      "av": 1632,
      "▁olus": 1633,
      "▁kenar": 1634,
      "ad": 1635,
      "aya": 1636,
      "▁parm": 1637,
      "larından": 1638,
      "▁8.5": 1639,
      "▁geleni": 1640,
      "var": 1641,
      "▁katildim": 1642,
      "▁sif": 1643,
      "▁kaba": 1644,
      "▁maas": 1645,
      "adu": 1646,
      "▁olum": 1647,
      "uy": 1648,
      "▁miktar": 1649,
      "▁cevre": 1650,
      "vil": 1651,
      "▁planı": 1652,
      "▁odun": 1653,
      "▁yeten": 1654,
      "▁%85": 1655,
      "▁portf": 1656,
      "▁1.": 1657,
      "▁25": 1658,
      "▁112": 1659,
      "▁soyledim": 1660,
      "vert": 1661,
      "▁mucadel": 1662,
      "ati": 1663,
      "▁anladı": 1664,
      "▁109": 1665,
      "san": 1666,
      "asi": 1667,
      "▁oak": 1668,
      "ortaj": 1669,
      "mur": 1670,
      "▁yelpaz": 1671,
      "▁6'dan": 1672,
      "▁ogretmen": 1673,
      "aga": 1674,
      "▁buyuk": 1675,
      "abz": 1676,
      "ota": 1677,
      "▁kim": 1678,
      "tanın": 1679,
      "▁temiz": 1680,
      "▁esy": 1681,
      "▁oda": 1682,
      "ilmaz": 1683,
      "▁sen": 1684,
      "asından": 1685,
      "▁yakin": 1686,
      "▁dul": 1687,
      "▁philadelphia": 1688,
      "▁mahkemesi": 1689,
      "▁69": 1690,
      "▁karab": 1691,
      "ımızda": 1692,
      "dıgınız": 1693,
      "it": 1694,
      "▁arm": 1695,
      "▁fikr": 1696,
      "▁sekilde": 1697,
      "ebilmek": 1698,
      "▁donen": 1699,
      "▁etkisi": 1700,
      "on": 1701,
      "ılması": 1702,
      "▁yayın": 1703,
      "▁muhtem": 1704,
      "▁orgut": 1705,
      "▁ortada": 1706,
      "▁yurt": 1707,
      "rill": 1708,
      "19": 1709,
      "ily": 1710,
      "iyle": 1711,
      "▁orn": 1712,
      "▁fil": 1713,
      "lendir": 1714,
      "▁temin": 1715,
      "saf": 1716,
      "▁sum": 1717,
      "▁kusk": 1718,
      "▁uzere": 1719,
      "▁mahm": 1720,
      "▁yana": 1721,
      "masız": 1722,
      "▁bırakıp": 1723,
      "anlar": 1724,
      "melerin": 1725,
      "obil": 1726,
      "▁1989": 1727,
      "dıgını": 1728,
      "tin": 1729,
      "▁japonya'nın": 1730,
      "▁100": 1731,
      "▁nes": 1732,
      "inn": 1733,
      "▁baskı": 1734,
      "▁tercih": 1735,
      "▁cagr": 1736,
      "▁tespit": 1737,
      "▁yoluyla": 1738,
      "▁kullanılıyor": 1739,
      "▁girip": 1740,
      "ligi": 1741,
      "▁diye": 1742,
      "▁35": 1743,
      "▁ettik": 1744,
      "▁onunden": 1745,
      "▁1": 1746,
      "▁abdul": 1747,
      "▁%99": 1748,
      "▁yakın": 1749,
      "▁dakik": 1750,
      "▁yahut": 1751,
      "▁yuzunde": 1752,
      "▁kadını": 1753,
      "▁camur": 1754,
      "▁varsa": 1755,
      "▁alternatif": 1756,
      "▁seatt": 1757,
      "lilig": 1758,
      "usun": 1759,
      "leb": 1760,
      "▁dostu": 1761,
      "▁gelisim": 1762,
      "▁vardi": 1763,
      "h": 1764,
      "ber": 1765,
      "5": 1766,
      "▁yuzden": 1767,
      "▁id": 1768,
      "▁yabancı": 1769,
      "▁bulur": 1770,
      "din": 1771,
      "▁adamları": 1772,
      "▁puan": 1773,
      "▁kotu": 1774,
      "▁kork": 1775,
      "ine": 1776,
      "▁yanı": 1777,
      "▁ap": 1778,
      "▁tev": 1779,
      "lanma": 1780,
      "▁yıg": 1781,
      "▁ney": 1782,
      "▁kendimize": 1783,
      "▁zayif": 1784,
      "▁cıkardı": 1785,
      "▁sonuna": 1786,
      "▁kemal": 1787,
      "▁iti": 1788,
      "for": 1789,
      "▁civarı": 1790,
      "▁icini": 1791,
      "▁pap": 1792,
      "▁istedik": 1793,
      "amamıs": 1794,
      "iforn": 1795,
      "▁soyleyebilir": 1796,
      "▁kun": 1797,
      "▁dak": 1798,
      "▁tokyo": 1799,
      "▁konu": 1800,
      "zet": 1801,
      "gu": 1802,
      "▁business": 1803,
      "lıgıyla": 1804,
      "▁iyice": 1805,
      "ington": 1806,
      "▁unut": 1807,
      "or": 1808,
      "lemis": 1809,
      "▁10": 1810,
      "▁halen": 1811,
      "ta": 1812,
      "▁mood": 1813,
      "▁iliskileri": 1814,
      "▁yolun": 1815,
      "▁artan": 1816,
      "▁dırlar": 1817,
      "lerim": 1818,
      "y'nin": 1819,
      "▁birinin": 1820,
      "▁onde": 1821,
      "▁baska": 1822,
      "ilik": 1823,
      "▁haziran": 1824,
      "▁yatır": 1825,
      "▁elem": 1826,
      "maz": 1827,
      "sim": 1828,
      "siy": 1829,
      "digine": 1830,
      "▁war": 1831,
      "▁hep": 1832,
      "▁sel": 1833,
      "ed": 1834,
      "▁muz": 1835,
      "▁asker": 1836,
      "osu": 1837,
      "▁aydın": 1838,
      "▁mantık": 1839,
      "r.": 1840,
      "▁gm": 1841,
      "▁hav": 1842,
      "▁durgun": 1843,
      "muyordu": 1844,
      "▁%0.2": 1845,
      "▁ve": 1846,
      "▁altın": 1847,
      "▁polis": 1848,
      "▁cesaret": 1849,
      "▁kotuydu": 1850,
      "▁eglen": 1851,
      "▁hizmetleri": 1852,
      "▁hemen": 1853,
      "▁odak": 1854,
      "▁vade": 1855,
      "▁yon": 1856,
      "▁hey": 1857,
      "▁1.1": 1858,
      "▁sal": 1859,
      "▁sahiptir": 1860,
      "▁muhab": 1861,
      "▁teknoloji": 1862,
      "▁ver": 1863,
      "▁olmayan": 1864,
      "▁bankası": 1865,
      "lenir": 1866,
      "▁bosalt": 1867,
      "▁mukemmeldi": 1868,
      "▁ilgilenmedi": 1869,
      "▁icer": 1870,
      "▁sicak": 1871,
      "isten": 1872,
      "▁101": 1873,
      "imiz": 1874,
      "'e": 1875,
      "▁kaptan": 1876,
      "▁david": 1877,
      "▁%15": 1878,
      "▁co": 1879,
      "onik": 1880,
      "▁northwest": 1881,
      "▁dest": 1882,
      "▁elleri": 1883,
      "▁isra": 1884,
      "▁ch": 1885,
      "aman": 1886,
      "▁yayım": 1887,
      "▁odadan": 1888,
      "▁dedi": 1889,
      "lanan": 1890,
      "▁sabahı": 1891,
      "▁sp": 1892,
      "▁planlıyor": 1893,
      "▁mendi": 1894,
      "▁fan": 1895,
      "▁konusu": 1896,
      "▁yusuf": 1897,
      "▁olc": 1898,
      "▁ortalık": 1899,
      "os": 1900,
      "▁eger": 1901,
      "▁olmasına": 1902,
      "▁eas": 1903,
      "▁fab": 1904,
      "▁netic": 1905,
      "▁qu": 1906,
      "▁bilmiyor": 1907,
      "▁cin": 1908,
      "▁kredi": 1909,
      "eyecek": 1910,
      "▁kural": 1911,
      "makta": 1912,
      "▁bolg": 1913,
      "5000": 1914,
      "tu": 1915,
      "ce": 1916,
      "▁yaz": 1917,
      "▁havaalanı": 1918,
      "'i": 1919,
      "▁city'den": 1920,
      "▁on": 1921,
      "lan": 1922,
      "▁hedef": 1923,
      "use": 1924,
      "atur": 1925,
      "▁etmiyor": 1926,
      "▁oyuncak": 1927,
      "▁degildi": 1928,
      "ormal": 1929,
      "▁ipotek": 1930,
      "ice": 1931,
      "▁kuvvetli": 1932,
      "▁sozles": 1933,
      "▁cılgın": 1934,
      "▁aktivite": 1935,
      "bul": 1936,
      "▁ortasında": 1937,
      "▁``": 1938,
      "▁sizler": 1939,
      ":30": 1940,
      "uyu": 1941,
      "▁sasır": 1942,
      "▁reklam": 1943,
      "elerinde": 1944,
      "▁dısına": 1945,
      "▁kulak": 1946,
      "▁olmadi": 1947,
      "▁yetkili": 1948,
      "▁ilgiliydi": 1949,
      "hu": 1950,
      "▁olabil": 1951,
      "▁profesyon": 1952,
      "▁oy": 1953,
      "▁cocukların": 1954,
      "▁secim": 1955,
      "▁oyunun": 1956,
      "▁kısın": 1957,
      "▁beraber": 1958,
      "▁diego'ya": 1959,
      "▁gunler": 1960,
      "▁pır": 1961,
      "eyin": 1962,
      "acaklar": 1963,
      "▁veriyorum": 1964,
      "▁bazı": 1965,
      "▁alaka": 1966,
      "▁cins": 1967,
      "▁ugras": 1968,
      "▁54": 1969,
      "▁%0.3": 1970,
      "▁gozet": 1971,
      "▁agr": 1972,
      "▁dolayi": 1973,
      "▁ab": 1974,
      "▁hayır": 1975,
      "▁mav": 1976,
      "▁montreal'a": 1977,
      "▁mudahal": 1978,
      "▁silin": 1979,
      "▁vazgec": 1980,
      "▁yolunu": 1981,
      "▁parasını": 1982,
      "▁yasamadik": 1983,
      "▁in": 1984,
      "ums": 1985,
      "▁tavuk": 1986,
      "aydi": 1987,
      "orp": 1988,
      "lıktan": 1989,
      "▁tersine": 1990,
      "erse": 1991,
      "▁vakt": 1992,
      "▁lan": 1993,
      "lerimizi": 1994,
      "▁otelin": 1995,
      "aliydi": 1996,
      "▁gurultu": 1997,
      "▁kaybeden": 1998,
      "mun": 1999,
      "▁elbet": 2000,
      "▁ısın": 2001,
      "▁avrup": 2002,
      "▁goren": 2003,
      "▁kapısını": 2004,
      "▁lezzetliydi": 2005,
      "ft": 2006,
      "▁etk": 2007,
      "ısında": 2008,
      "▁uretim": 2009,
      "▁alıyor": 2010,
      "diginiz": 2011,
      "43": 2012,
      "dis": 2013,
      "▁kaliteli": 2014,
      "▁pe": 2015,
      "▁sakat": 2016,
      "▁yıla": 2017,
      "▁ucrete": 2018,
      "▁rah": 2019,
      "ile": 2020,
      "▁zır": 2021,
      "▁acaba": 2022,
      "▁altına": 2023,
      "▁sayisi": 2024,
      "ligine": 2025,
      "elerek": 2026,
      "▁birbucuk": 2027,
      "▁34": 2028,
      "▁bec": 2029,
      "amet": 2030,
      "▁er": 2031,
      "▁sorunları": 2032,
      "dok": 2033,
      "rily": 2034,
      "▁br": 2035,
      "▁arası": 2036,
      "3.2": 2037,
      "▁restor": 2038,
      "▁%25": 2039,
      "▁alan": 2040,
      "▁dediler": 2041,
      "▁yarıs": 2042,
      "daydı": 2043,
      "▁getirdi": 2044,
      "▁listele": 2045,
      "▁26": 2046,
      "▁kir": 2047,
      "▁faaliyet": 2048,
      "▁elinde": 2049,
      "▁almaya": 2050,
      "▁ajans": 2051,
      "▁tutun": 2052,
      "▁makine": 2053,
      "▁tahmini": 2054,
      "▁olumsuz": 2055,
      "ıc": 2056,
      "▁capında": 2057,
      "▁birincisi": 2058,
      "ledim": 2059,
      "▁4.8": 2060,
      "y": 2061,
      "▁bog": 2062,
      "gı": 2063,
      "▁gozlem": 2064,
      "▁soy": 2065,
      "ers": 2066,
      "les": 2067,
      "▁diyarbakır": 2068,
      "▁darb": 2069,
      "teki": 2070,
      "▁birkac": 2071,
      "▁600": 2072,
      "▁anim": 2073,
      "liydi": 2074,
      "▁almadim": 2075,
      "oloji": 2076,
      "▁ihtiyat": 2077,
      "▁patates": 2078,
      "▁ilgisiz": 2079,
      "▁direkt": 2080,
      "▁de": 2081,
      "▁tamamladı": 2082,
      "▁sesini": 2083,
      "▁gir": 2084,
      "▁iflas": 2085,
      ".51": 2086,
      "tedir": 2087,
      "▁kazanc": 2088,
      "▁itibariyle": 2089,
      "▁ydik": 2090,
      "▁halihazırda": 2091,
      "lerde": 2092,
      "▁karanlık": 2093,
      "o'dan": 2094,
      "▁times": 2095,
      "▁ornegin": 2096,
      "▁tasıy": 2097,
      "▁fut": 2098,
      "a.": 2099,
      "'s": 2100,
      "▁1974": 2101,
      "▁ihtiyac": 2102,
      "▁hamle": 2103,
      "▁mart": 2104,
      "▁yse": 2105,
      "▁kontrol": 2106,
      "▁j": 2107,
      "dız": 2108,
      "don": 2109,
      "imde": 2110,
      "▁oz": 2111,
      "▁piy": 2112,
      "eligi": 2113,
      "x": 2114,
      "▁korkunc": 2115,
      "▁merrill": 2116,
      "▁bileti": 2117,
      "▁herkesin": 2118,
      "▁2.2": 2119,
      "▁87": 2120,
      "▁sonra": 2121,
      "▁duz": 2122,
      "▁kalabalikti": 2123,
      "meyi": 2124,
      "=": 2125,
      "▁olarak": 2126,
      "▁don": 2127,
      "▁sizlere": 2128,
      "▁tavsiye": 2129,
      "▁mos": 2130,
      "4": 2131,
      "▁ekip": 2132,
      "▁ilave": 2133,
      "▁si": 2134,
      "amadik": 2135,
      "▁yasında": 2136,
      "▁konut": 2137,
      "▁arabalar": 2138,
      "▁yaptıgını": 2139,
      "endigi": 2140,
      "▁porcuk": 2141,
      "▁baglantılı": 2142,
      "▁toparlan": 2143,
      "▁degilse": 2144,
      "▁calısmak": 2145,
      "▁if": 2146,
      "▁e": 2147,
      "ıt": 2148,
      "acagına": 2149,
      "▁kisiyi": 2150,
      "acagız": 2151,
      "▁3/8": 2152,
      ".31": 2153,
      "land": 2154,
      "▁haftada": 2155,
      "▁pasa": 2156,
      "▁epey": 2157,
      "▁hukum": 2158,
      "ilmesi": 2159,
      "▁pufur": 2160,
      "'ın": 2161,
      "▁bakıyor": 2162,
      "▁ucus": 2163,
      "mal": 2164,
      "▁9": 2165,
      "▁faz": 2166,
      "▁pur": 2167,
      "malıdır": 2168,
      "onun": 2169,
      "kah": 2170,
      "tılar": 2171,
      "▁111": 2172,
      "▁beyle": 2173,
      "▁ucuslar": 2174,
      "▁amacıyla": 2175,
      "▁cag": 2176,
      "▁basladılar": 2177,
      "may": 2178,
      "▁oldukca": 2179,
      ".00": 2180,
      "medigi": 2181,
      "▁gecm": 2182,
      "ediy": 2183,
      "▁almayı": 2184,
      "ci": 2185,
      "lilik": 2186,
      "▁ho": 2187,
      "ledigi": 2188,
      "g": 2189,
      "▁ayakk": 2190,
      "▁polit": 2191,
      "▁stok": 2192,
      "isti": 2193,
      "▁meclis": 2194,
      "▁kılıc": 2195,
      "0'": 2196,
      "▁far": 2197,
      "▁kapının": 2198,
      "▁,": 2199,
      "▁ameliyat": 2200,
      ".85": 2201,
      "▁yitir": 2202,
      "edil": 2203,
      "▁emeklilik": 2204,
      "cagız": 2205,
      "▁yerine": 2206,
      "imler": 2207,
      "▁cicek": 2208,
      "iyetini": 2209,
      "▁kıymet": 2210,
      "▁bitir": 2211,
      "▁kalma": 2212,
      "▁duran": 2213,
      "▁baslayacak": 2214,
      "▁meydana": 2215,
      "▁yavas": 2216,
      "▁sipar": 2217,
      "▁ragmen": 2218,
      "▁musa": 2219,
      "▁salt": 2220,
      "▁nakit": 2221,
      "▁300": 2222,
      "sil": 2223,
      "art": 2224,
      "▁vardır": 2225,
      "mıyor": 2226,
      "▁w": 2227,
      "▁ymıs": 2228,
      "▁israil": 2229,
      "▁sahipti": 2230,
      "amıs": 2231,
      "▁uzak": 2232,
      "▁cekiyor": 2233,
      "sız": 2234,
      "▁fiyati": 2235,
      "▁saglayacak": 2236,
      "▁net": 2237,
      "▁orani": 2238,
      "▁bakan": 2239,
      "▁herk": 2240,
      "▁sonradan": 2241,
      "mekte": 2242,
      "▁gov": 2243,
      "-m": 2244,
      "▁havaalanından": 2245,
      "rı": 2246,
      "▁zafer": 2247,
      "▁onunla": 2248,
      "▁yiyecekler": 2249,
      "▁olmuyor": 2250,
      "akar": 2251,
      "▁agzını": 2252,
      "▁caz": 2253,
      "▁hayal": 2254,
      "▁bey": 2255,
      "amdan": 2256,
      "▁ithalat": 2257,
      "▁hayv": 2258,
      "dem": 2259,
      "▁83": 2260,
      "aket": 2261,
      "▁iletisim": 2262,
      "▁tipik": 2263,
      "▁smith": 2264,
      "▁hazine": 2265,
      "▁cd": 2266,
      "▁ogle": 2267,
      "▁vegas'a": 2268,
      "▁komisyon": 2269,
      "dar": 2270,
      "▁konuk": 2271,
      "▁fik": 2272,
      "▁1.25": 2273,
      "▁duzenlenen": 2274,
      "lere": 2275,
      "20": 2276,
      "▁ikib": 2277,
      "ımın": 2278,
      "acagım": 2279,
      "ust": 2280,
      "▁zamanla": 2281,
      "▁cincinnati'ye": 2282,
      "▁ingiliz": 2283,
      "▁kalb": 2284,
      "▁memur": 2285,
      "▁gore": 2286,
      "a'nın": 2287,
      "miyorum": 2288,
      "▁hangisi": 2289,
      "imize": 2290,
      "▁fırsat": 2291,
      "▁borc": 2292,
      "▁mor": 2293,
      "▁odul": 2294,
      "▁begenmedim": 2295,
      "▁yavr": 2296,
      "▁sanırım": 2297,
      "▁kesinlikle": 2298,
      "▁iliskiler": 2299,
      "▁universit": 2300,
      "pe": 2301,
      "▁kalitesinden": 2302,
      "▁doner": 2303,
      "omb": 2304,
      "▁arkadasım": 2305,
      "▁odan": 2306,
      "dıgına": 2307,
      "▁hayvan": 2308,
      "▁resepsiyon": 2309,
      "larca": 2310,
      "dort": 2311,
      "▁05.": 2312,
      "'li": 2313,
      "ebilirdi": 2314,
      "ti": 2315,
      "orm": 2316,
      "rem": 2317,
      "▁gece": 2318,
      "▁ydim": 2319,
      "▁isbir": 2320,
      "lari": 2321,
      "▁oyna": 2322,
      "▁kullanmadim": 2323,
      "memis": 2324,
      "▁odaydi": 2325,
      "▁he": 2326,
      "▁olanaklarını": 2327,
      "▁itir": 2328,
      "ley": 2329,
      "▁kendilerinden": 2330,
      "▁guzeldi": 2331,
      "▁duman": 2332,
      "▁kalmadigim": 2333,
      "esiyle": 2334,
      "▁seattle": 2335,
      "▁birles": 2336,
      "▁toronto'ya": 2337,
      "mayın": 2338,
      "▁islemler": 2339,
      "▁yıllardır": 2340,
      "▁kot": 2341,
      "▁2003": 2342,
      "▁28": 2343,
      "eyn": 2344,
      "▁karmasık": 2345,
      "usunun": 2346,
      "▁sunları": 2347,
      "▁gittim": 2348,
      "▁ifad": 2349,
      "▁kez": 2350,
      "▁2017": 2351,
      "ec": 2352,
      "lıgından": 2353,
      "gına": 2354,
      "dı": 2355,
      "cak": 2356,
      "▁etmeye": 2357,
      "▁zih": 2358,
      "▁icra": 2359,
      "▁191": 2360,
      "▁herkesten": 2361,
      "▁bolum": 2362,
      "dun": 2363,
      "masını": 2364,
      "▁bakım": 2365,
      "arlan": 2366,
      "▁birileri": 2367,
      "▁1997": 2368,
      "▁bilesik": 2369,
      "▁ikisinin": 2370,
      "esini": 2371,
      "ont": 2372,
      "adar": 2373,
      "gele": 2374,
      "imser": 2375,
      "▁lutfen": 2376,
      "▁sabahın": 2377,
      "▁1989-": 2378,
      "▁edip": 2379,
      "▁1960": 2380,
      "▁kalite": 2381,
      "▁isletme": 2382,
      "▁yoktu": 2383,
      "▁ih": 2384,
      "▁ayın": 2385,
      "▁ik": 2386,
      "▁boylu": 2387,
      "▁oturma": 2388,
      "ma": 2389,
      "▁ziyaret": 2390,
      "▁william": 2391,
      "▁cit": 2392,
      "▁te": 2393,
      "▁kaldıgı": 2394,
      "▁cetin": 2395,
      "phia": 2396,
      "hal": 2397,
      "▁doların": 2398,
      "▁hiss": 2399,
      "▁oyn": 2400,
      "▁gozunu": 2401,
      "▁abd'nin": 2402,
      "ayet": 2403,
      "▁destekli": 2404,
      ".0": 2405,
      "▁nedenle": 2406,
      "▁9.7": 2407,
      "▁ugur": 2408,
      "▁ingilizce": 2409,
      "▁katlı": 2410,
      "ton": 2411,
      ";": 2412,
      "▁yog": 2413,
      "▁ticareti": 2414,
      "▁senden": 2415,
      "▁gunden": 2416,
      "ume": 2417,
      "eyle": 2418,
      "▁kısk": 2419,
      "▁ust": 2420,
      "▁bug": 2421,
      "▁memnun": 2422,
      "▁idare": 2423,
      "▁27": 2424,
      "▁pay": 2425,
      "▁agac": 2426,
      "liam": 2427,
      "▁miy": 2428,
      "rut": 2429,
      "▁havaya": 2430,
      "▁akıllı": 2431,
      "cek": 2432,
      "ildi": 2433,
      "▁mısır": 2434,
      "oth": 2435,
      "▁sorustur": 2436,
      "ani": 2437,
      "▁29": 2438,
      "▁53": 2439,
      "▁soylemek": 2440,
      "▁dallas": 2441,
      "▁kaydetti": 2442,
      "▁yı": 2443,
      "▁detay": 2444,
      "▁didik": 2445,
      "▁durdur": 2446,
      "emek": 2447,
      "▁kaldır": 2448,
      "gan": 2449,
      "iya": 2450,
      "adı": 2451,
      "edim": 2452,
      "▁cadd": 2453,
      "▁temel": 2454,
      "▁seviyede": 2455,
      "▁vergi": 2456,
      "▁verebilirim": 2457,
      "▁guver": 2458,
      "▁teklifi": 2459,
      "dut": 2460,
      "agım": 2461,
      "▁elektronik": 2462,
      "▁askeri": 2463,
      "▁saldırı": 2464,
      "▁telas": 2465,
      "▁elini": 2466,
      "▁islemlerinde": 2467,
      "▁memph": 2468,
      "▁yaslı": 2469,
      "▁sayı": 2470,
      "▁bulas": 2471,
      "amız": 2472,
      "▁asil": 2473,
      "▁temmuz'da": 2474,
      "▁%7.": 2475,
      "▁belki": 2476,
      "▁med": 2477,
      "▁tepk": 2478,
      "are": 2479,
      "uyorlar": 2480,
      "▁kapalı": 2481,
      "▁0.3": 2482,
      "▁biy": 2483,
      "▁gozluk": 2484,
      "isse": 2485,
      "▁vasat": 2486,
      "asa": 2487,
      "iss": 2488,
      "▁senetleri": 2489,
      "ustr": 2490,
      "▁uret": 2491,
      "aması": 2492,
      "▁saglıklı": 2493,
      "▁yuzune": 2494,
      "▁sise": 2495,
      "▁3": 2496,
      "▁gozlerini": 2497,
      "▁secenek": 2498,
      "yetmis": 2499,
      "▁100000": 2500,
      "▁ekonomik": 2501,
      "las": 2502,
      "uston": 2503,
      "▁ayarlan": 2504,
      "▁lezzetleri": 2505,
      "▁geliyor": 2506,
      "▁kuf": 2507,
      "▁yansı": 2508,
      "▁lu": 2509,
      "andan": 2510,
      "▁av": 2511,
      "▁cıktım": 2512,
      "▁%2": 2513,
      "▁3\\/4": 2514,
      "▁altern": 2515,
      "7": 2516,
      "▁love": 2517,
      "▁borsa": 2518,
      "ok": 2519,
      "▁numaralı": 2520,
      "▁dalı": 2521,
      "ırak": 2522,
      "▁ek": 2523,
      "▁bro": 2524,
      "▁tarihli": 2525,
      "▁duskun": 2526,
      "▁evin": 2527,
      "uya": 2528,
      "▁standart": 2529,
      "se": 2530,
      "▁cevr": 2531,
      "▁38": 2532,
      "▁onunde": 2533,
      "lamayı": 2534,
      "▁alcak": 2535,
      "elerle": 2536,
      "▁107": 2537,
      "▁farklılık": 2538,
      "▁tehdi": 2539,
      "lin": 2540,
      "36": 2541,
      "adel": 2542,
      "▁evvel": 2543,
      "▁tip": 2544,
      "ding": 2545,
      "▁yapildi": 2546,
      "▁vatandas": 2547,
      "sini": 2548,
      "ıyoruz": 2549,
      "gunu": 2550,
      "▁ele": 2551,
      "▁eyalet": 2552,
      "masıyla": 2553,
      "▁gerekiyor": 2554,
      "▁24": 2555,
      "▁birini": 2556,
      "▁donuyor": 2557,
      "▁sas": 2558,
      "▁giriste": 2559,
      "nal": 2560,
      "▁fıldır": 2561,
      "▁kat": 2562,
      "ucuk": 2563,
      "▁anayasa": 2564,
      "▁mola": 2565,
      "▁%80": 2566,
      "▁buna": 2567,
      "▁taraf": 2568,
      "▁fing": 2569,
      "▁girmek": 2570,
      "n": 2571,
      "▁dav": 2572,
      "▁agırlık": 2573,
      "idi": 2574,
      "▁1986": 2575,
      "▁verim": 2576,
      "amaz": 2577,
      "▁kullanıl": 2578,
      "ılmaz": 2579,
      "agında": 2580,
      "egen": 2581,
      "▁pantolon": 2582,
      "▁hur": 2583,
      "▁hucr": 2584,
      "▁kalmadik": 2585,
      "▁ac": 2586,
      "▁azalt": 2587,
      "ayarak": 2588,
      "▁ste": 2589,
      "▁elestir": 2590,
      "▁gunlerde": 2591,
      "tum": 2592,
      "▁ortaydi": 2593,
      "'ten": 2594,
      "▁eastern": 2595,
      "▁deng": 2596,
      "▁siddetli": 2597,
      "akat": 2598,
      "▁guvenli": 2599,
      "▁seviyesinde": 2600,
      "▁anlamak": 2601,
      "tar": 2602,
      "und": 2603,
      "▁kultur": 2604,
      "▁garson": 2605,
      "▁direk": 2606,
      "abı": 2607,
      "▁katıl": 2608,
      "melerini": 2609,
      "▁mektep": 2610,
      "▁1.3": 2611,
      "▁bekler": 2612,
      "acılıgı": 2613,
      "▁tik": 2614,
      "▁cekici": 2615,
      "cut": 2616,
      "▁ım": 2617,
      "antaj": 2618,
      "▁maliyeti": 2619,
      "▁gosterin": 2620,
      "▁faiz": 2621,
      "▁ihracı": 2622,
      "▁evi": 2623,
      "▁nas": 2624,
      "ov": 2625,
      "▁sayıl": 2626,
      "▁kapan": 2627,
      "▁kactı": 2628,
      "esin": 2629,
      "▁kardesim": 2630,
      "▁sozlerine": 2631,
      "▁duyur": 2632,
      "▁kom": 2633,
      "▁parti": 2634,
      "▁tutar": 2635,
      "▁sup": 2636,
      "alarında": 2637,
      "▁rıh": 2638,
      "ilecek": 2639,
      "▁bana": 2640,
      "▁teor": 2641,
      "▁anad": 2642,
      "▁sohbet": 2643,
      "▁dusunceler": 2644,
      "▁kırk": 2645,
      "ecek": 2646,
      "▁ugram": 2647,
      "▁nik": 2648,
      "▁deprem": 2649,
      "gında": 2650,
      "mel": 2651,
      "▁yi": 2652,
      "▁turlu": 2653,
      "▁yatırımcılar": 2654,
      "▁columbus": 2655,
      "▁3\\/8": 2656,
      "▁top": 2657,
      "▁siir": 2658,
      "▁bakalım": 2659,
      "$": 2660,
      "▁197": 2661,
      "▁hır": 2662,
      "▁abd'de": 2663,
      "et": 2664,
      "▁getir": 2665,
      "▁cı": 2666,
      "gunuz": 2667,
      "▁kisi": 2668,
      "▁ekm": 2669,
      "▁terk": 2670,
      "▁ittifak": 2671,
      "▁mobil": 2672,
      "▁boyun": 2673,
      "dig": 2674,
      "▁supur": 2675,
      "▁tepki": 2676,
      "▁kayn": 2677,
      "▁istanbul'un": 2678,
      "v": 2679,
      "▁savun": 2680,
      "sı": 2681,
      "leyen": 2682,
      "▁deney": 2683,
      "▁sahil": 2684,
      "gumu": 2685,
      "lıyordu": 2686,
      ".375": 2687,
      "▁190": 2688,
      "[PAD]": 2689,
      "▁arab": 2690,
      "▁1.0": 2691,
      "▁boyu": 2692,
      "▁uyk": 2693,
      "65": 2694,
      "▁karak": 2695,
      "lıgı": 2696,
      "▁aga": 2697,
      "▁gerek": 2698,
      "▁bizimle": 2699,
      "▁muay": 2700,
      "▁performan": 2701,
      "▁eder": 2702,
      "▁parca": 2703,
      "abil": 2704,
      "▁75": 2705,
      "▁oyku": 2706,
      "arik": 2707,
      "▁tek": 2708,
      "gileri": 2709,
      "mustu": 2710,
      "timore": 2711,
      "▁ulus": 2712,
      "ecegine": 2713,
      "'u": 2714,
      "▁bulbul": 2715,
      "▁mahs": 2716,
      "ki": 2717,
      "▁ulasım": 2718,
      "▁francisco": 2719,
      "▁londra": 2720,
      "▁tesisi": 2721,
      "▁serin": 2722,
      "▁edi": 2723,
      "▁guleryuzluydu": 2724,
      "ulu": 2725,
      "alara": 2726,
      "▁alkıs": 2727,
      "▁havuzlari": 2728,
      "▁koku": 2729,
      "▁burun": 2730,
      "▁arkadası": 2731,
      "▁ile": 2732,
      "▁birlesik": 2733,
      "▁yagmur": 2734,
      "▁64": 2735,
      "▁bunları": 2736,
      "▁7.8": 2737,
      "▁yılının": 2738,
      "alarda": 2739,
      "▁eki": 2740,
      "alanı": 2741,
      "▁yapma": 2742,
      "▁sıc": 2743,
      "▁yukseldi": 2744,
      "eyince": 2745,
      "uklum": 2746,
      "gumuz": 2747,
      "▁sirketleri": 2748,
      "▁arkadaslar": 2749,
      "duz": 2750,
      "▁adım": 2751,
      "olu": 2752,
      "▁edilecek": 2753,
      "▁etmey": 2754,
      "cıların": 2755,
      "isiz": 2756,
      "▁cep": 2757,
      "▁cinc": 2758,
      "▁fıs": 2759,
      "▁13": 2760,
      "ant": 2761,
      "▁kup": 2762,
      "▁tampa'dan": 2763,
      "liklerini": 2764,
      "▁begendim": 2765,
      "▁aramız": 2766,
      "▁arz": 2767,
      "▁kavram": 2768,
      "▁yapılmıs": 2769,
      "▁rahat": 2770,
      "maktan": 2771,
      "▁as": 2772,
      "▁zamanda": 2773,
      "▁end": 2774,
      "▁raki": 2775,
      "eniz": 2776,
      "&": 2777,
      "▁sizden": 2778,
      "paz": 2779,
      "bur": 2780,
      "▁oyunu": 2781,
      "▁askın": 2782,
      "▁kalıyor": 2783,
      "erve": 2784,
      "▁kalkıslı": 2785,
      "▁grev": 2786,
      "negin": 2787,
      "▁em": 2788,
      "▁yemeklerde": 2789,
      "▁ruy": 2790,
      "▁ic": 2791,
      "es": 2792,
      "ıya": 2793,
      "▁arasındaki": 2794,
      "▁gordugum": 2795,
      "▁arasından": 2796,
      "▁mek": 2797,
      "▁merkezli": 2798,
      "0.4": 2799,
      "▁hayatta": 2800,
      "▁guvenilir": 2801,
      "▁oturup": 2802,
      "▁dc": 2803,
      "▁cet": 2804,
      "▁corp.": 2805,
      "deniz": 2806,
      "▁yolcu": 2807,
      "▁asık": 2808,
      "▁seyahat": 2809,
      "ith": 2810,
      "▁sana": 2811,
      "▁0.2": 2812,
      "▁konusuyor": 2813,
      "▁feder": 2814,
      "lerimiz": 2815,
      "?": 2816,
      "▁bugday": 2817,
      "▁vermedi": 2818,
      "▁ısrar": 2819,
      "▁onu": 2820,
      "acagim": 2821,
      "▁kategor": 2822,
      "▁81": 2823,
      "▁kent": 2824,
      "▁dır": 2825,
      "ılık": 2826,
      "▁count": 2827,
      ".05": 2828,
      "▁yesil": 2829,
      "▁iktidar": 2830,
      "▁boru": 2831,
      "ık": 2832,
      "▁yapmadı": 2833,
      "▁gonder": 2834,
      "▁lor": 2835,
      "▁kum": 2836,
      "▁phoeni": 2837,
      "▁maruz": 2838,
      "…": 2839,
      "▁1999": 2840,
      "▁yardım": 2841,
      "▁33": 2842,
      "▁cincinnati'den": 2843,
      "▁yans": 2844,
      "▁performansi": 2845,
      "▁ef": 2846,
      "▁yargıc": 2847,
      "akal": 2848,
      "ınız": 2849,
      "▁journal": 2850,
      "▁yasamak": 2851,
      "▁ipot": 2852,
      "▁yahudi": 2853,
      "▁jersey": 2854,
      "▁efendim": 2855,
      "▁1987": 2856,
      "▁gelmez": 2857,
      "▁rus": 2858,
      "▁ilan": 2859,
      "▁halde": 2860,
      "elig": 2861,
      "▁ce": 2862,
      "▁ucuslarını": 2863,
      "30": 2864,
      "wn": 2865,
      "▁sermaye": 2866,
      "▁21:00-22:30": 2867,
      "▁ucusunu": 2868,
      "▁yuksek": 2869,
      "▁milyon": 2870,
      "▁basladım": 2871,
      "yim": 2872,
      "▁gıda": 2873,
      "▁'de": 2874,
      "▁duygu": 2875,
      "▁sekil": 2876,
      "▁gur": 2877,
      "▁calısma": 2878,
      "▁cizg": 2879,
      "tılı": 2880,
      "▁cas": 2881,
      "ustu": 2882,
      "asındaki": 2883,
      "▁ak": 2884,
      "▁imkan": 2885,
      "▁olmamıs": 2886,
      "ınıza": 2887,
      "▁erkek": 2888,
      "▁hayat": 2889,
      "▁y": 2890,
      "kal": 2891,
      "▁digerleri": 2892,
      "▁sov": 2893,
      "▁zeki": 2894,
      "▁bon": 2895,
      "▁kalem": 2896,
      "▁sendik": 2897,
      "verdi": 2898,
      "ansiyon": 2899,
      "▁yildi": 2900,
      "▁ders": 2901,
      "▁onceki": 2902,
      "▁ay": 2903,
      "uye": 2904,
      "▁doga": 2905,
      "l": 2906,
      "▁ceza": 2907,
      "▁danısman": 2908,
      "▁yaprak": 2909,
      "▁odeme": 2910,
      "▁karısık": 2911,
      "▁national": 2912,
      "▁mal": 2913,
      "▁ceyr": 2914,
      "▁muhafaz": 2915,
      "ah": 2916,
      "▁zay": 2917,
      "▁yeg": 2918,
      "▁miami'ye": 2919,
      "ji": 2920,
      "▁caresiz": 2921,
      "isler": 2922,
      "▁fatur": 2923,
      "▁analistler": 2924,
      "▁kendisine": 2925,
      "▁sab": 2926,
      "▁ikiye": 2927,
      "▁talih": 2928,
      "▁ucagın": 2929,
      "▁maliyetleri": 2930,
      "▁dudak": 2931,
      "egim": 2932,
      "▁kayb": 2933,
      "-": 2934,
      "▁kendilerine": 2935,
      "▁finanse": 2936,
      "▁geliyordu": 2937,
      "▁isvic": 2938,
      "mac": 2939,
      "▁aldılar": 2940,
      "▁yalap": 2941,
      "▁tatil": 2942,
      "▁ysa": 2943,
      "+": 2944,
      "▁zorluk": 2945,
      "▁alet": 2946,
      "▁kucucuk": 2947,
      "▁olanakları": 2948,
      "▁prot": 2949,
      "▁mevsim": 2950,
      "▁amer": 2951,
      "ayıf": 2952,
      "uga": 2953,
      "ması": 2954,
      "aret": 2955,
      "ng": 2956,
      "▁edile": 2957,
      "▁kız": 2958,
      "▁taks": 2959,
      "▁turkiye": 2960,
      "▁altı": 2961,
      "▁oper": 2962,
      "▁gu": 2963,
      "▁ız": 2964,
      "▁desik": 2965,
      "▁birinci": 2966,
      "dal": 2967,
      "*": 2968,
      "'ı": 2969,
      "▁incel": 2970,
      "▁terc": 2971,
      "ınc": 2972,
      "▁arada": 2973,
      "▁vatan": 2974,
      "kul": 2975,
      "▁topr": 2976,
      "–": 2977,
      "▁harp": 2978,
      "▁herhalde": 2979,
      "▁agab": 2980,
      "▁chic": 2981,
      "▁cekmek": 2982,
      "ram": 2983,
      "▁cab": 2984,
      "▁fit": 2985,
      "▁yani": 2986,
      "▁isle": 2987,
      "4000": 2988,
      "lasma": 2989,
      "medi": 2990,
      "▁olmalıydı": 2991,
      "lat": 2992,
      "▁som": 2993,
      "lass": 2994,
      "▁hamam": 2995,
      "veland": 2996,
      "ra": 2997,
      "▁tasarru": 2998,
      "▁havayolları": 2999,
      "16": 3000,
      "▁minne": 3001,
      "▁duruma": 3002,
      "▁tatlı": 3003,
      "61": 3004,
      "▁olmaktan": 3005,
      "▁ipek": 3006,
      "3.9": 3007,
      "ilir": 3008,
      "▁olmak": 3009,
      "▁acıkladı": 3010,
      "▁kaldik": 3011,
      "▁fir": 3012,
      "▁donem": 3013,
      "amam": 3014,
      "▁lezzeti": 3015,
      "ser": 3016,
      "cı": 3017,
      ".25": 3018,
      "asına": 3019,
      "▁yuk": 3020,
      "▁eglenc": 3021,
      "▁bindokuzyuz": 3022,
      "▁cir": 3023,
      "dırdı": 3024,
      "▁musteriler": 3025,
      "▁kagıt": 3026,
      "q": 3027,
      "▁etmek": 3028,
      "▁bankalar": 3029,
      "mesiyle": 3030,
      "iyorlar": 3031,
      "▁airlines": 3032,
      "▁ltd.": 3033,
      "uncu": 3034,
      "yasal": 3035,
      "▁kiler": 3036,
      "madigim": 3037,
      "▁miami'den": 3038,
      "▁yumus": 3039,
      "meler": 3040,
      "▁han": 3041,
      "lıkları": 3042,
      "▁okumak": 3043,
      "ran": 3044,
      "▁nedir": 3045,
      "▁sac": 3046,
      "▁88": 3047,
      "▁lacivert": 3048,
      "▁buyum": 3049,
      "▁cil": 3050,
      "▁gunduz": 3051,
      "▁kıl": 3052,
      "▁ind": 3053,
      "▁bık": 3054,
      "▁nitelik": 3055,
      "uluyor": 3056,
      "[UNK]": 3057,
      "kan": 3058,
      "▁yonetici": 3059,
      "▁olacak": 3060,
      "▁bulmak": 3061,
      "▁55": 3062,
      "dıkca": 3063,
      "lanıyor": 3064,
      "▁servet": 3065,
      "▁urk": 3066,
      "1'de": 3067,
      "▁alınan": 3068,
      "▁dallas'ta": 3069,
      "ustum": 3070,
      "▁pırıl": 3071,
      "isin": 3072,
      "▁tap": 3073,
      "veren": 3074,
      "▁resmen": 3075,
      "luktan": 3076,
      "mayan": 3077,
      "he": 3078,
      "▁vucu": 3079,
      "ırda": 3080,
      "▁philadelphia'ya": 3081,
      "im": 3082,
      "emi": 3083,
      "iliyordu": 3084,
      "▁77": 3085,
      "▁nev": 3086,
      "▁hissed": 3087,
      "evizyon": 3088,
      "▁alb": 3089,
      "giniz": 3090,
      "▁elbise": 3091,
      "eral": 3092,
      "▁sayılı": 3093,
      "▁duydum": 3094,
      "▁102": 3095,
      "▁d": 3096,
      "▁mud": 3097,
      "raz": 3098,
      "▁listeleyebilir": 3099,
      "ılı": 3100,
      "▁tut": 3101,
      "▁buradan": 3102,
      "▁1.9": 3103,
      "gini": 3104,
      "▁izmir": 3105,
      "▁henuz": 3106,
      "▁gulus": 3107,
      "▁kalab": 3108,
      "▁fransa": 3109,
      "▁bazıları": 3110,
      "▁duk": 3111,
      "edir": 3112,
      "▁sattı": 3113,
      "▁kimse": 3114,
      "▁uyum": 3115,
      "emis": 3116,
      "igit": 3117,
      "▁lider": 3118,
      "oyu": 3119,
      "4.8": 3120,
      "▁ger": 3121,
      "▁minneapolis'ten": 3122,
      "▁havayollarında": 3123,
      "aydı": 3124,
      "▁kendilerini": 3125,
      "mıslar": 3126,
      "lara": 3127,
      "▁tir": 3128,
      "▁46": 3129,
      "▁s&p": 3130,
      "▁hazin": 3131,
      "ıyordu": 3132,
      "▁%3.1": 3133,
      "▁atar": 3134,
      "▁cıkıs": 3135,
      "▁baslarında": 3136,
      "▁bunlar": 3137,
      "edeki": 3138,
      "anbul": 3139,
      "▁kurdu": 3140,
      "▁tedir": 3141,
      "▁kaya": 3142,
      "▁paraya": 3143,
      "▁yit": 3144,
      "mam": 3145,
      "▁tuccar": 3146,
      "▁kanada": 3147,
      "▁bit": 3148,
      "▁gorun": 3149,
      "▁buy": 3150,
      "▁giy": 3151,
      "▁verici": 3152,
      "▁risk": 3153,
      "▁hakları": 3154,
      "▁gazi": 3155,
      "ems": 3156,
      "▁arkadasim": 3157,
      "kei": 3158,
      "▁isler": 3159,
      "▁": 3160,
      "▁duzgun": 3161,
      "▁ford": 3162,
      "iskin": 3163,
      "▁demis": 3164,
      "▁ulkenin": 3165,
      "10": 3166,
      "▁eski": 3167,
      "▁alındı": 3168,
      "▁7.5": 3169,
      "▁sic": 3170,
      "erv": 3171,
      "▁dusmus": 3172,
      "▁ustun": 3173,
      "▁prob": 3174,
      "▁muduru": 3175,
      "-2": 3176,
      "▁heves": 3177,
      "▁bucuk": 3178,
      "▁baltimore": 3179,
      "▁th": 3180,
      "adelphia": 3181,
      "▁psik": 3182,
      "▁insaat": 3183,
      "an": 3184,
      "ami": 3185,
      "▁mil": 3186,
      "sine": 3187,
      ".125": 3188,
      "▁husus": 3189,
      "▁dusurdu": 3190,
      "▁harıl": 3191,
      "aber": 3192,
      "▁62": 3193,
      "▁potansiyel": 3194,
      "▁balık": 3195,
      "iyi": 3196,
      "▁anım": 3197,
      "▁beydi": 3198,
      "egin": 3199,
      "▁tesvik": 3200,
      "▁mutf": 3201,
      "ort": 3202,
      "▁rec": 3203,
      "▁calısmalar": 3204,
      "▁personel": 3205,
      "▁veririm": 3206,
      "▁1998": 3207,
      "▁sm": 3208,
      "▁fal": 3209,
      "▁moda": 3210,
      "▁degerlendir": 3211,
      "▁dava": 3212,
      "▁olmalı": 3213,
      "▁makaleye": 3214,
      "▁isten": 3215,
      "▁alım-sat": 3216,
      "▁oldur": 3217,
      "▁takım": 3218,
      "▁aldim": 3219,
      "▁tarafı": 3220,
      "▁bay": 3221,
      "▁harcam": 3222,
      "digim": 3223,
      "▁arttır": 3224,
      "▁6.25": 3225,
      "ekul": 3226,
      "▁geyik": 3227,
      "▁antr": 3228,
      "▁doviz": 3229,
      "▁konum": 3230,
      "▁yab": 3231,
      "elere": 3232,
      "▁aleyh": 3233,
      "▁fen": 3234,
      "irler": 3235,
      "▁birbirimizi": 3236,
      "biye": 3237,
      "▁zey": 3238,
      "▁cos": 3239,
      "'tan": 3240,
      "▁8": 3241,
      "▁yapmıs": 3242,
      "▁yasadı": 3243,
      "kar": 3244,
      "▁8.9": 3245,
      "luga": 3246,
      "di": 3247,
      "▁gibiydi": 3248,
      "▁gorus": 3249,
      "▁fazlasını": 3250,
      "▁beden": 3251,
      "▁hakkinda": 3252,
      "▁guclu": 3253,
      "▁icindeki": 3254,
      "▁burbank'a": 3255,
      "ibar": 3256,
      "▁okudu": 3257,
      "▁lira": 3258,
      "ardı": 3259,
      "▁haziran'da": 3260,
      "1.2": 3261,
      "▁hel": 3262,
      "▁rot": 3263,
      "gıc": 3264,
      "malı": 3265,
      "▁cuma": 3266,
      "▁bizleri": 3267,
      "▁imal": 3268,
      "▁mul": 3269,
      "▁baskanı": 3270,
      "▁yumusak": 3271,
      "▁milyona": 3272,
      "▁bura": 3273,
      "▁atlanta'da": 3274,
      "▁lyn": 3275,
      "▁20.": 3276,
      "▁nec": 3277,
      "▁olanlar": 3278,
      "▁annesinin": 3279,
      "▁sonuc": 3280,
      "▁gordum": 3281,
      "sef": 3282,
      "▁alamadim": 3283,
      "▁fokur": 3284,
      "▁gelip": 3285,
      "aların": 3286,
      "▁ail": 3287,
      "▁a.b.d.": 3288,
      "ove": 3289,
      "▁mer": 3290,
      "tal": 3291,
      "▁yuksekti": 3292,
      "▁benden": 3293,
      "▁yagı": 3294,
      "▁komutan": 3295,
      "▁cay": 3296,
      "gılan": 3297,
      "▁erdi": 3298,
      "▁vır": 3299,
      "▁yerden": 3300,
      "digimiz": 3301,
      "▁ozgu": 3302,
      "▁2004": 3303,
      "▁biri": 3304,
      "▁hazır": 3305,
      "unca": 3306,
      "▁canlı": 3307,
      "▁lif": 3308,
      "da": 3309,
      "▁sanay": 3310,
      "ılmıstır": 3311,
      "iste": 3312,
      "▁kar": 3313,
      "▁angel": 3314,
      "▁80": 3315,
      "▁mik": 3316,
      "▁emniyet": 3317,
      "▁yil": 3318,
      "du": 3319,
      "[SEP]": 3320,
      "ilen": 3321,
      "▁8.8": 3322,
      "▁alarak": 3323,
      "▁manzar": 3324,
      "larla": 3325,
      "▁neden": 3326,
      "▁41": 3327,
      "bakır": 3328,
      "▁olas": 3329,
      "leyin": 3330,
      "▁barıs": 3331,
      "iddet": 3332,
      "bel": 3333,
      "▁derecede": 3334,
      "▁mis": 3335,
      "▁onlardan": 3336,
      "▁kadınlar": 3337,
      "▁hakk": 3338,
      "ıyla": 3339,
      "ut": 3340,
      "▁istanbul'da": 3341,
      "▁aram": 3342,
      "tıyor": 3343,
      "▁pamuk": 3344,
      "▁hukumet": 3345,
      "▁mat": 3346,
      "▁girisim": 3347,
      "▁gonl": 3348,
      "▁aqu": 3349,
      "▁nasıl": 3350,
      "▁piyasaları": 3351,
      "▁yırt": 3352,
      "▁cocuga": 3353,
      "▁bulundugu": 3354,
      "▁yıldız": 3355,
      "▁en": 3356,
      "▁arayan": 3357,
      "▁vak": 3358,
      "'da": 3359,
      "ını": 3360,
      "▁tabi": 3361,
      "▁odalar": 3362,
      "▁dunku": 3363,
      "▁mac": 3364,
      "adi": 3365,
      "▁ondan": 3366,
      "'den": 3367,
      "lisi": 3368,
      "▁mo": 3369,
      "▁aras": 3370,
      "si": 3371,
      "rub": 3372,
      "kil": 3373,
      "istir": 3374,
      "▁ob": 3375,
      "▁komit": 3376,
      "▁44": 3377,
      "▁toplu": 3378,
      "▁british": 3379,
      "▁tuccarlar": 3380,
      "ıldıgını": 3381,
      "▁teh": 3382,
      "▁kalmak": 3383,
      "▁ki": 3384,
      "▁komur": 3385,
      "▁hen": 3386,
      "▁yonlendir": 3387,
      "▁ayrım": 3388,
      "▁yurudu": 3389,
      "▁fiyatina": 3390,
      "rak": 3391,
      "▁istifa": 3392,
      "▁heyec": 3393,
      "▁mendil": 3394,
      "▁dilim": 3395,
      "▁bakar": 3396,
      "▁hisseler": 3397,
      "▁benzin": 3398,
      "ator": 3399,
      "▁hepsini": 3400,
      "emli": 3401,
      "▁iht": 3402,
      "▁nerede": 3403,
      "▁satıslar": 3404,
      "▁fin": 3405,
      "▁dah": 3406,
      "adet": 3407,
      "▁goc": 3408,
      "▁doneminde": 3409,
      "▁yardim": 3410,
      "▁dolarlık": 3411,
      "▁memphis": 3412,
      "▁francisco'dan": 3413,
      "▁veto": 3414,
      "forman": 3415,
      "▁zarif": 3416,
      "▁sahn": 3417,
      "▁ulasıl": 3418,
      "▁harc": 3419,
      "▁kırmızı": 3420,
      "▁rakı": 3421,
      "em": 3422,
      "ılıp": 3423,
      "▁ilgisi": 3424,
      "▁30": 3425,
      "▁yorgun": 3426,
      "▁aqua": 3427,
      "▁hab": 3428,
      "▁hoc": 3429,
      "▁ustune": 3430,
      "▁karlı": 3431,
      "'ta": 3432,
      "▁birkacı": 3433,
      "sak": 3434,
      "▁etkil": 3435,
      "▁medya": 3436,
      "▁petersburg'dan": 3437,
      "▁nic": 3438,
      "▁goster": 3439,
      "▁verg": 3440,
      "▁yap": 3441,
      "mi": 3442,
      "▁evde": 3443,
      "▁her": 3444,
      "▁carsaf": 3445,
      "▁misafirimiz": 3446,
      "▁%27": 3447,
      "▁baker": 3448,
      "▁eh": 3449,
      "misler": 3450,
      "▁vaz": 3451,
      "yan": 3452,
      "▁ikincisi": 3453,
      "usuna": 3454,
      "kara": 3455,
      "▁yıllık": 3456,
      "▁hasar": 3457,
      "▁duygusal": 3458,
      "▁neredeyse": 3459,
      "▁aklına": 3460,
      "▁nih": 3461,
      "▁buldu": 3462,
      "▁soguktu": 3463,
      "cılık": 3464,
      "▁pazartesi": 3465,
      "▁hacı": 3466,
      "adan": 3467,
      "▁insa": 3468,
      "▁devralma": 3469,
      "▁141": 3470,
      "▁turkler": 3471,
      "▁imalat": 3472,
      "▁sarhos": 3473,
      "▁busbut": 3474,
      "▁internet": 3475,
      "▁hazırlanısı": 3476,
      "zira": 3477,
      "▁reddetti": 3478,
      "la": 3479,
      "dır": 3480,
      "▁diyor": 3481,
      "oma": 3482,
      "▁%1.7": 3483,
      "▁persembe": 3484,
      "▁muzak": 3485,
      "▁pu": 3486,
      "▁olumlu": 3487,
      "likte": 3488,
      "lıgında": 3489,
      "▁bakıs": 3490,
      "▁bunda": 3491,
      "▁rekabet": 3492,
      "▁thom": 3493,
      "▁kabil": 3494,
      "uz": 3495,
      "▁aracılıgıyla": 3496,
      "▁dusen": 3497,
      "▁kendisiyle": 3498,
      "uzel": 3499,
      "▁hastalık": 3500,
      "▁uyandır": 3501,
      "▁7.7": 3502,
      "▁?..": 3503,
      "0000": 3504,
      "iyon": 3505,
      "▁simdiye": 3506,
      "▁det": 3507,
      "▁musteri": 3508,
      "▁miktarda": 3509,
      "usu": 3510,
      "▁50": 3511,
      "ımda": 3512,
      "▁continental": 3513,
      "j": 3514,
      "▁so": 3515,
      "▁cesitlilik": 3516,
      "▁post": 3517,
      "▁cat": 3518,
      "▁bakıyordu": 3519,
      "lıyor": 3520,
      "▁agz": 3521,
      "amanın": 3522,
      "▁tug": 3523,
      "▁otelde": 3524,
      "▁kıp": 3525,
      "ic": 3526,
      "▁andır": 3527,
      "allı": 3528,
      "▁yuzu": 3529,
      "▁ons": 3530,
      "▁arıyor": 3531,
      "uluk": 3532,
      "▁mali": 3533,
      "▁yapti": 3534,
      "▁birbirlerini": 3535,
      "▁tartısmalar": 3536,
      "▁etmedi": 3537,
      "▁gosteren": 3538,
      "▁shearson": 3539,
      "▁$": 3540,
      ".000": 3541,
      "▁neyse": 3542,
      "▁saglayan": 3543,
      "▁tam": 3544,
      "▁sın": 3545,
      "▁ozgurluk": 3546,
      "aba": 3547,
      "▁memleket": 3548,
      "▁charl": 3549,
      "22": 3550,
      "▁yetersizdi": 3551,
      "▁verdigi": 3552,
      "seksen": 3553,
      "▁kazancı": 3554,
      "▁ali": 3555,
      "▁dos": 3556,
      "▁muhtesem": 3557,
      "▁mevzu": 3558,
      "▁defa": 3559,
      "▁yasadıgı": 3560,
      "▁aldigim": 3561,
      "▁one": 3562,
      "▁oldugunu": 3563,
      "▁gidi": 3564,
      "ini": 3565,
      "▁2.": 3566,
      "▁uyuy": 3567,
      "▁sınıf": 3568,
      "▁aksamları": 3569,
      "▁bulmaya": 3570,
      "▁yemis": 3571,
      "▁geldi": 3572,
      "▁bugun": 3573,
      "▁nisan": 3574,
      "▁arıyorum": 3575,
      "▁genc": 3576,
      "▁iddi": 3577,
      "▁cevir": 3578,
      "▁york'a": 3579,
      "▁sorgul": 3580,
      "▁rej": 3581,
      "▁ark": 3582,
      "▁kendilerinin": 3583,
      "▁yarı": 3584,
      "mini": 3585,
      "▁yapacagını": 3586,
      "▁hizmeti": 3587,
      "▁tum": 3588,
      "▁l": 3589,
      "▁oldugundan": 3590,
      "masına": 3591,
      "ılır": 3592,
      "▁hicbirine": 3593,
      "▁900": 3594,
      "▁gunah": 3595,
      "▁fırladı": 3596,
      "ilerdi": 3597,
      "▁sozlesme": 3598,
      "mar": 3599,
      "▁cekin": 3600,
      "▁yenil": 3601,
      "▁nez": 3602,
      "▁yeterliydi": 3603,
      "ijinal": 3604,
      "isim": 3605,
      "▁ted": 3606,
      "▁kan": 3607,
      "▁baskan": 3608,
      "nek": 3609,
      "▁tahviller": 3610,
      "lay": 3611,
      "▁midir": 3612,
      "▁americ": 3613,
      "▁aktarmasız": 3614,
      "▁rezervasyon": 3615,
      "▁yetkilileri": 3616,
      "▁icecekler": 3617,
      "▁kompoz": 3618,
      "▁anlamda": 3619,
      "lek": 3620,
      "▁etmesi": 3621,
      "iran": 3622,
      "ciler": 3623,
      "lamıs": 3624,
      "▁hangi": 3625,
      "▁sam": 3626,
      "unc": 3627,
      "▁bekledigim": 3628,
      "▁genislet": 3629,
      "ug": 3630,
      "emedik": 3631,
      "▁colum": 3632,
      "▁birimiz": 3633,
      "▁cozul": 3634,
      "▁yamalak": 3635,
      "▁ogrenci": 3636,
      "▁vat": 3637,
      "▁yasan": 3638,
      "▁lak": 3639,
      "▁zorunda": 3640,
      "▁tanık": 3641,
      "mas": 3642,
      "▁uzan": 3643,
      "▁tacoma": 3644,
      "rin": 3645,
      "▁gonul": 3646,
      "▁hor": 3647,
      "▁olamaz": 3648,
      "▁dahi": 3649,
      "▁finc": 3650,
      "..": 3651,
      "▁st.": 3652,
      "11": 3653,
      "uldugu": 3654,
      "▁hissesi": 3655,
      "▁bende": 3656,
      "▁ceker": 3657,
      "▁pek": 3658,
      "ger": 3659,
      "▁insanlar": 3660,
      "▁!": 3661,
      "ersey": 3662,
      "gen": 3663,
      "▁camasır": 3664,
      "ersin": 3665,
      "▁oglu": 3666,
      "▁sist": 3667,
      "ginde": 3668,
      "▁yatırım": 3669,
      "▁cocukları": 3670,
      "pan": 3671,
      "▁hesap": 3672,
      "▁york'ta": 3673,
      "ılıgı": 3674,
      "▁verdik": 3675,
      "▁verme": 3676,
      "▁yuvar": 3677,
      "▁muyuz": 3678,
      "▁12'den": 3679,
      "liyor": 3680,
      "isk": 3681,
      "▁komisyonlar": 3682,
      "aca": 3683,
      "▁gecesi": 3684,
      "uldugunu": 3685,
      "▁sahin": 3686,
      "▁gulums": 3687,
      "▁giz": 3688,
      "0.1": 3689,
      "▁sozlesmesi": 3690,
      "▁girdi": 3691,
      "▁ign": 3692,
      "▁sonunda": 3693,
      "▁cıkmak": 3694,
      "▁63": 3695,
      "aladı": 3696,
      "▁ulk": 3697,
      "▁sip": 3698,
      "ım": 3699,
      "▁taleb": 3700,
      "▁imparator": 3701,
      "une": 3702,
      "▁sec": 3703,
      "▁defter": 3704,
      "▁klas": 3705,
      "▁itibaren": 3706,
      "▁yaptır": 3707,
      "▁noktası": 3708,
      "▁phoenix'e": 3709,
      "innati": 3710,
      "'na": 3711,
      "▁tren": 3712,
      "lig": 3713,
      "▁dolara": 3714,
      "▁hata": 3715,
      "▁lir": 3716,
      "▁toplantıda": 3717,
      "▁dr.": 3718,
      "tım": 3719,
      "▁ilgili": 3720,
      "isinde": 3721,
      "toru": 3722,
      "▁sık": 3723,
      "▁dukkan": 3724,
      "▁birbirler": 3725,
      "▁pozisyon": 3726,
      "▁otek": 3727,
      "▁babası": 3728,
      "▁beri": 3729,
      "▁hisselerini": 3730,
      "▁general": 3731,
      "▁saclarını": 3732,
      "chester": 3733,
      "▁150": 3734,
      "▁oynat": 3735,
      "▁kaldim": 3736,
      "▁ayakta": 3737,
      "▁federal": 3738,
      "lli": 3739,
      "▁industri": 3740,
      "esindeki": 3741,
      "▁tedavulde": 3742,
      "▁yonel": 3743,
      "▁daima": 3744,
      "dın": 3745,
      "▁istedim": 3746,
      "▁gob": 3747,
      "esel": 3748,
      "5'ten": 3749,
      "▁cıktı": 3750,
      "▁gib": 3751,
      "▁re": 3752,
      "isel": 3753,
      "▁ona": 3754,
      "liginde": 3755,
      "bak": 3756,
      "▁mim": 3757,
      "▁%5.4": 3758,
      "▁cog": 3759,
      "▁kapasitesi": 3760,
      "▁bar": 3761,
      "▁eser": 3762,
      "ville": 3763,
      "▁temizlen": 3764,
      "▁potansiy": 3765,
      "melidir": 3766,
      "▁tutuyor": 3767,
      "▁yontem": 3768,
      "▁cıkmaz": 3769,
      "▁otele": 3770,
      "▁holding": 3771,
      "▁mevduat": 3772,
      "▁buyur": 3773,
      "▁biles": 3774,
      "▁sizinle": 3775,
      "▁duv": 3776,
      "▁kaliteye": 3777,
      "▁ayrı": 3778,
      "▁topu": 3779,
      "▁hastalı": 3780,
      "▁yapım": 3781,
      "40": 3782,
      "▁ton": 3783,
      "iv": 3784,
      "dıg": 3785,
      "le": 3786,
      "▁par": 3787,
      "▁manz": 3788,
      "▁bilmem": 3789,
      "▁dunya": 3790,
      "'ndaki": 3791,
      "▁!..": 3792,
      "▁mon": 3793,
      "ladım": 3794,
      "lulu": 3795,
      "▁sakin": 3796,
      "vik": 3797,
      "▁etkilen": 3798,
      "▁gelmisti": 3799,
      "gun": 3800,
      "masının": 3801,
      "▁suru": 3802,
      "dular": 3803,
      "▁denizin": 3804,
      "▁annem": 3805,
      "▁tuketici": 3806,
      "▁tutmak": 3807,
      "▁ustunde": 3808,
      "▁gezin": 3809,
      "▁ecekti": 3810,
      "▁ilgil": 3811,
      "ack": 3812,
      "▁inanc": 3813,
      "encer": 3814,
      "adaki": 3815,
      "1-19": 3816,
      "▁faydalan": 3817,
      "▁gumbur": 3818,
      "▁gecer": 3819,
      "▁maden": 3820,
      "▁sinirli": 3821,
      "▁ozlem": 3822,
      "▁gazete": 3823,
      "mayı": 3824,
      "anda": 3825,
      "▁tit": 3826,
      "ato": 3827,
      "▁5.2": 3828,
      "ee": 3829,
      "lıkta": 3830,
      "▁mektu": 3831,
      "▁rengi": 3832,
      "▁kahr": 3833,
      "▁ny": 3834,
      "▁sozunu": 3835,
      "▁kırm": 3836,
      "▁gomlek": 3837,
      "▁saatte": 3838,
      "▁konumu": 3839,
      "▁inc.": 3840,
      "laması": 3841,
      ".76": 3842,
      "▁tuken": 3843,
      "/2": 3844,
      "▁seklinde": 3845,
      "▁agrı": 3846,
      "▁120": 3847,
      "▁kon": 3848,
      "lerden": 3849,
      "lerdeki": 3850,
      "▁0.1": 3851,
      "▁mutluluk": 3852,
      "bire": 3853,
      "▁bak": 3854,
      "▁dieg": 3855,
      "▁nok": 3856,
      "ip": 3857,
      "▁kısmen": 3858,
      "ald": 3859,
      "▁haz": 3860,
      "▁nadir": 3861,
      "▁istek": 3862,
      "esif": 3863,
      "▁kullan": 3864,
      "alarının": 3865,
      "▁birisine": 3866,
      ".49": 3867,
      "▁calısması": 3868,
      "▁kayak": 3869,
      "▁hızla": 3870,
      "▁giderek": 3871,
      "▁18.": 3872,
      "▁bulut": 3873,
      "▁gay": 3874,
      "▁alın": 3875,
      "can": 3876,
      "lardı": 3877,
      "▁/": 3878,
      "▁71": 3879,
      ":00-22:30": 3880,
      "▁basından": 3881,
      "yn": 3882,
      "▁onlem": 3883,
      "▁okum": 3884,
      "▁senar": 3885,
      "45": 3886,
      "▁est": 3887,
      "▁ogul": 3888,
      "▁ruz": 3889,
      "▁iceri": 3890,
      "▁but": 3891,
      "▁performans": 3892,
      "▁belirtti": 3893,
      "▁agustos'ta": 3894,
      "ig": 3895,
      "▁uyku": 3896,
      "▁oldugun": 3897,
      "▁alt": 3898,
      "▁istiyorum": 3899,
      "▁fizik": 3900,
      "▁uyarı": 3901,
      "▁kidder": 3902,
      "▁malzemeler": 3903,
      "▁verdigini": 3904,
      "▁fes": 3905,
      "▁dogu": 3906,
      "osunda": 3907,
      "▁gordu": 3908,
      "▁olursa": 3909,
      "▁cinayet": 3910,
      "ladık": 3911,
      "amaya": 3912,
      "seniz": 3913,
      "▁bastır": 3914,
      "▁gec": 3915,
      "elik": 3916,
      "▁donmus": 3917,
      "▁hoca": 3918,
      "▁arkasından": 3919,
      "▁organizasyon": 3920,
      "▁az": 3921,
      "▁fayd": 3922,
      "▁cırp": 3923,
      "ael": 3924,
      "▁gerekir": 3925,
      "▁davranıs": 3926,
      "▁ucusunuz": 3927,
      "lardan": 3928,
      "▁kongre": 3929,
      "▁yok": 3930,
      "▁temizlik": 3931,
      "mer": 3932,
      "ilerle": 3933,
      "▁peyn": 3934,
      "tex": 3935,
      "▁98": 3936,
      "gından": 3937,
      "ruk": 3938,
      "ici": 3939,
      "▁brit": 3940,
      "▁guleryuz": 3941,
      "man": 3942,
      "▁stratej": 3943,
      "▁tv": 3944,
      "lasan": 3945,
      "▁fark": 3946,
      "▁vef": 3947,
      "akk": 3948,
      "▁huy": 3949,
      "▁sebebi": 3950,
      "▁turb": 3951,
      "ele": 3952,
      "bes": 3953,
      "▁yonet": 3954,
      "000": 3955,
      "▁pahali": 3956,
      "▁muhtemelen": 3957,
      "yıl": 3958,
      "▁tesadu": 3959,
      "▁paranın": 3960,
      "gul": 3961,
      "▁big": 3962,
      "▁oturmus": 3963,
      "▁yonelik": 3964,
      "▁kasıgı": 3965,
      "▁bekledi": 3966,
      "▁ogleden": 3967,
      "▁normaldi": 3968,
      "ilerini": 3969,
      "▁teler": 3970,
      "▁kansas": 3971,
      "▁vasıt": 3972,
      "▁unlu": 3973,
      "▁yardimci": 3974,
      "▁iz": 3975,
      "▁yazık": 3976,
      "▁yolunda": 3977,
      "▁yerde": 3978,
      "▁alır": 3979,
      "▁degerlendiririm": 3980,
      "unden": 3981,
      "▁fakir": 3982,
      "▁deh": 3983,
      "▁kamp": 3984,
      "▁ti": 3985,
      "men": 3986,
      "dukları": 3987,
      "gil": 3988,
      "▁gerekti": 3989,
      "▁2000": 3990,
      "▁merkez": 3991,
      "▁kapat": 3992,
      "gimi": 3993,
      "oker": 3994,
      "▁olmadıgını": 3995,
      "▁kuvvet": 3996,
      "▁do": 3997,
      "ıh": 3998,
      "izi": 3999,
      "▁mı": 4000,
      "▁lis": 4001,
      "▁ettiler": 4002,
      "▁lou": 4003,
      "▁donemde": 4004,
      "▁bono": 4005,
      "▁umuyor": 4006,
      "▁iki": 4007,
      "estir": 4008,
      "▁degil": 4009,
      "▁dolayı": 4010,
      "▁bakanı": 4011,
      "▁bilgisayar": 4012,
      "▁kımıl": 4013,
      "▁agız": 4014,
      "▁tarafından": 4015,
      "▁birbirlerinin": 4016,
      "▁nuk": 4017,
      "▁'": 4018,
      "▁kısm": 4019,
      "▁tabii": 4020,
      "eyman": 4021,
      "▁dakika": 4022,
      "medim": 4023,
      "▁yapı": 4024,
      "▁enflasyon": 4025,
      "▁zen": 4026,
      "mesine": 4027,
      "▁cihaz": 4028,
      "▁hele": 4029,
      "▁aln": 4030,
      "▁aktivit": 4031,
      "▁cesitliligi": 4032,
      "▁birtakım": 4033,
      "▁imkanlari": 4034,
      "▁4'ten": 4035,
      "▁kendimi": 4036,
      "▁b": 4037,
      "▁gosterg": 4038,
      "▁gecerli": 4039,
      "▁yak": 4040,
      "▁hurriyet": 4041,
      "▁hong": 4042,
      "▁parayı": 4043,
      "▁biridir": 4044,
      "▁bulun": 4045,
      "▁yukseltti": 4046,
      "▁washington": 4047,
      "▁no": 4048,
      "▁ed": 4049,
      "▁halihaz": 4050,
      "▁bayan": 4051,
      "▁cumartesi": 4052,
      "yedi": 4053,
      "▁hırsız": 4054,
      "▁350": 4055,
      "▁hepimizi": 4056,
      "▁eksikligi": 4057,
      "▁yah": 4058,
      "▁numara": 4059,
      "▁calısmaya": 4060,
      "▁edilir": 4061,
      "▁yuks": 4062,
      "▁yeni": 4063,
      "ige": 4064,
      "▁sonuclar": 4065,
      "lerdi": 4066,
      "baren": 4067,
      "▁neyin": 4068,
      "▁degis": 4069,
      "▁kaz": 4070,
      "▁davası": 4071,
      "▁it": 4072,
      "esiz": 4073,
      "▁fabrika": 4074,
      "▁rom": 4075,
      "▁tar": 4076,
      "qu": 4077,
      "▁azından": 4078,
      "▁aldıgı": 4079,
      "▁icimde": 4080,
      "oks": 4081,
      "fik": 4082,
      "ediyor": 4083,
      "▁cagır": 4084,
      "▁basbakan": 4085,
      "▁gosteriyor": 4086,
      "alar": 4087,
      "▁bolun": 4088,
      "▁tutarında": 4089,
      "meleri": 4090,
      "▁col": 4091,
      "▁nere": 4092,
      "▁degilmis": 4093,
      "▁havayol": 4094,
      "larınız": 4095,
      "▁kas": 4096,
      "▁acıklanmadı": 4097,
      "▁dusunc": 4098,
      "▁calıs": 4099,
      "▁yuksel": 4100,
      "dıgım": 4101,
      "▁satısları": 4102,
      "▁cıkmıstı": 4103,
      "cev": 4104,
      "▁47": 4105,
      "▁asl": 4106,
      "▁teklifini": 4107,
      "undaki": 4108,
      "▁listel": 4109,
      "imizde": 4110,
      "dor": 4111,
      "▁odanın": 4112,
      "▁sigar": 4113,
      "our": 4114,
      "aturk": 4115,
      "sun": 4116,
      "▁ciz": 4117,
      "isine": 4118,
      "dokuzyuz": 4119,
      "bal": 4120,
      "liy": 4121,
      "▁sevinc": 4122,
      "▁poz": 4123,
      "▁49": 4124,
      "▁gomle": 4125,
      "▁le": 4126,
      "▁kons": 4127,
      "▁hicbiri": 4128,
      "▁sebep": 4129,
      "▁olmustu": 4130,
      "▁saray": 4131,
      "▁dısarıda": 4132,
      "▁eylem": 4133,
      "▁diyorum": 4134,
      "▁besik": 4135,
      "▁cogu": 4136,
      "lenen": 4137,
      "▁mad": 4138,
      "▁sahipleri": 4139,
      "▁zehir": 4140,
      "yak": 4141,
      "▁yaptirdi": 4142,
      "▁muam": 4143,
      "▁irak": 4144,
      "▁cıg": 4145,
      "▁ucmak": 4146,
      "▁begen": 4147,
      "usunu": 4148,
      "▁buny": 4149,
      "▁musunuz": 4150,
      "▁gar": 4151,
      "ırt": 4152,
      "▁harikaydi": 4153,
      "▁pil": 4154,
      "▁yolda": 4155,
      "liginin": 4156,
      "▁birisini": 4157,
      "▁busbutun": 4158,
      "▁franc": 4159,
      "▁guclendir": 4160,
      "▁seviye": 4161,
      "3": 4162,
      "▁agzına": 4163,
      "uldu": 4164,
      "su": 4165,
      "▁buldum": 4166,
      "▁cev": 4167,
      "ların": 4168,
      "▁seyleri": 4169,
      "▁konferans": 4170,
      "▁varacak": 4171,
      "▁gormek": 4172,
      "▁haydi": 4173,
      "eci": 4174,
      "ugh": 4175,
      "▁1.5": 4176,
      "▁yım": 4177,
      "▁dik": 4178,
      "▁7.9": 4179,
      "▁erk": 4180,
      "60": 4181,
      "▁sesi": 4182,
      "▁men": 4183,
      "▁zayıf": 4184,
      "ıstı": 4185,
      "▁onur": 4186,
      "85": 4187,
      "▁yuzunden": 4188,
      "▁kaf": 4189,
      "▁hayret": 4190,
      "▁muht": 4191,
      "▁bekledigini": 4192,
      "apon": 4193,
      "▁yiz": 4194,
      "▁istihdam": 4195,
      "▁george": 4196,
      "'n": 4197,
      "▁da": 4198,
      "izik": 4199,
      "▁ramiz": 4200,
      "▁boc": 4201,
      "lak": 4202,
      "▁calıstır": 4203,
      "medigini": 4204,
      "e": 4205,
      "▁yolculuk": 4206,
      "lıgın": 4207,
      "▁petersburg'a": 4208,
      "elerden": 4209,
      "▁kıvr": 4210,
      "▁%50": 4211,
      "eh": 4212,
      "▁dor": 4213,
      "▁oldugu": 4214,
      "▁yarısı": 4215,
      "▁cleveland'dan": 4216,
      "undan": 4217,
      "48": 4218,
      "▁edilem": 4219,
      "▁red": 4220,
      "ebilecegini": 4221,
      "▁gok": 4222,
      "sarı": 4223,
      "▁getiri": 4224,
      "if": 4225,
      "▁tesekkur": 4226,
      "▁girdik": 4227,
      "van": 4228,
      "▁temsil": 4229,
      "▁beklenen": 4230,
      "ugu": 4231,
      "ron": 4232,
      "▁endustri": 4233,
      "▁istif": 4234,
      "▁kıt": 4235,
      "▁yasası": 4236,
      "ileri": 4237,
      "sir": 4238,
      "▁beklen": 4239,
      "▁incelem": 4240,
      "▁n": 4241,
      "▁key": 4242,
      "▁hala": 4243,
      "▁kendimde": 4244,
      "▁kendisinde": 4245,
      "▁tak": 4246,
      "▁biz": 4247,
      "▁ustunden": 4248,
      "▁kinden": 4249,
      "▁rehber": 4250,
      "igi": 4251,
      "asında": 4252,
      "▁houston'dan": 4253,
      "▁esk": 4254,
      "▁toplan": 4255,
      "▁cesitleri": 4256,
      "▁hasır": 4257,
      "▁tedav": 4258,
      "▁3000": 4259,
      "▁basarili": 4260,
      "eceksin": 4261,
      "▁cey": 4262,
      "acagı": 4263,
      "▁oglen": 4264,
      "▁geceleri": 4265,
      "mesinin": 4266,
      "0.8": 4267,
      "▁donup": 4268,
      "▁eliyle": 4269,
      "▁avukatlar": 4270,
      "▁day": 4271,
      "'si": 4272,
      "▁vi": 4273,
      "▁kopr": 4274,
      "▁partisi": 4275,
      "▁etken": 4276,
      "macı": 4277,
      "▁basarılı": 4278,
      "▁personellerden": 4279,
      "▁capital": 4280,
      "esinde": 4281,
      "iydi": 4282,
      "▁kırık": 4283,
      "▁700": 4284,
      "▁kapasit": 4285,
      "▁parcası": 4286,
      "▁binlerce": 4287,
      "p": 4288,
      "▁garip": 4289,
      "▁delikanlı": 4290,
      "▁carsı": 4291,
      "enek": 4292,
      "▁diyar": 4293,
      "▁sabır": 4294,
      "▁kurul": 4295,
      "▁elindeki": 4296,
      "larında": 4297,
      "▁ar": 4298,
      "lamaları": 4299,
      "▁dog": 4300,
      "4'te": 4301,
      "kuz": 4302,
      "▁kongr": 4303,
      "▁ısı": 4304,
      "▁eli": 4305,
      "▁gorunen": 4306,
      "▁buc": 4307,
      "▁akl": 4308,
      "▁beklem": 4309,
      "eden": 4310,
      "▁milwaukee'den": 4311,
      "▁dusun": 4312,
      "▁hayatını": 4313,
      "▁jaguar": 4314,
      "ical": 4315,
      "▁seh": 4316,
      "▁lynch": 4317,
      "▁evren": 4318,
      "▁hun": 4319,
      "▁getiren": 4320,
      "▁kalkıs": 4321,
      "▁partiler": 4322,
      "▁nashville'den": 4323,
      "▁dosy": 4324,
      "▁olacagı": 4325,
      "▁toronto": 4326,
      "▁tıp": 4327,
      "▁ayır": 4328,
      "▁finansman": 4329,
      "▁kibar": 4330,
      "▁bilet": 4331,
      "▁isters": 4332,
      "▁hoslan": 4333,
      "mekten": 4334,
      "▁8.4": 4335,
      "▁i": 4336,
      "burgh": 4337,
      "▁yatırımcıların": 4338,
      "eviz": 4339,
      "▁ge": 4340,
      "▁katı": 4341,
      "ya": 4342,
      "por": 4343,
      "▁kaydı": 4344,
      "mektedir": 4345,
      "▁angeles": 4346,
      "▁sonucu": 4347,
      "▁su": 4348,
      "▁adi": 4349,
      "▁gorusuldu": 4350,
      "ben": 4351,
      "▁1.000": 4352,
      "alarını": 4353,
      "uler": 4354,
      "un": 4355,
      "▁cıkan": 4356,
      "▁sayf": 4357,
      "▁yuzey": 4358,
      "ulugun": 4359,
      "/4": 4360,
      "▁zav": 4361,
      "andı": 4362,
      "▁dur": 4363,
      "▁endisel": 4364,
      "cılı": 4365,
      "▁kararı": 4366,
      "ick": 4367,
      "▁hayli": 4368,
      "iyiz": 4369,
      "▁ig": 4370,
      "udu": 4371,
      "▁ozgur": 4372,
      "er": 4373,
      "▁uzakta": 4374,
      "▁mutlaka": 4375,
      "▁yerinde": 4376,
      "bi": 4377,
      "▁tuket": 4378,
      "lerindeki": 4379,
      "▁kalmadim": 4380,
      "▁vit": 4381,
      "▁muh": 4382,
      "▁alakaliydi": 4383,
      "▁etmez": 4384,
      "▁hikay": 4385,
      "▁cinsel": 4386,
      "▁sıy": 4387,
      "▁benzer": 4388,
      "▁oyle": 4389,
      "▁alım": 4390,
      "leket": 4391,
      "▁tahmin": 4392,
      "▁konak": 4393,
      "luluk": 4394,
      "▁kurus": 4395,
      "ildigi": 4396,
      "tas": 4397,
      "▁yarın": 4398,
      "▁tun": 4399,
      "lik": 4400,
      "▁bo": 4401,
      "▁mırıldan": 4402,
      "▁klasik": 4403,
      "▁bakımından": 4404,
      "▁nedenlerden": 4405,
      "eksiyon": 4406,
      "likten": 4407,
      "ore": 4408,
      "▁kasır": 4409,
      "▁politika": 4410,
      "▁plani": 4411,
      ".23": 4412,
      "▁dem": 4413,
      "aguar": 4414,
      "▁westchester": 4415,
      "▁endek": 4416,
      "▁gonullu": 4417,
      "▁anket": 4418,
      "ka": 4419,
      "sızlık": 4420,
      "▁miyim": 4421,
      "▁onlara": 4422,
      "▁gergin": 4423,
      "▁haldır": 4424,
      "▁edecegini": 4425,
      "▁yonetimi": 4426,
      "▁arkasına": 4427,
      "▁denilen": 4428,
      "▁kid": 4429,
      "▁elma": 4430,
      "ib": 4431,
      "▁bunun": 4432,
      "▁dep": 4433,
      "▁naz": 4434,
      "▁sampiyon": 4435,
      "nun": 4436,
      "▁ta": 4437,
      "▁luk": 4438,
      "larak": 4439,
      "▁yapılıyor": 4440,
      "▁class": 4441,
      "▁kral": 4442,
      "▁acıklam": 4443,
      "▁pis": 4444,
      "▁fonları": 4445,
      "▁ayrıl": 4446,
      "▁yarım": 4447,
      "▁rob": 4448,
      "niyet": 4449,
      "▁long": 4450,
      "siz": 4451,
      "▁yag": 4452,
      "meni": 4453,
      "ısın": 4454,
      "▁kol": 4455,
      "▁ir": 4456,
      "▁yetkililer": 4457,
      "▁fedakar": 4458,
      "cik": 4459,
      "▁miydi": 4460,
      "ker": 4461,
      "▁lakırtı": 4462,
      "ının": 4463,
      "▁ifade": 4464,
      "▁alısveris": 4465,
      "memisti": 4466,
      "▁dolan": 4467,
      "▁tabak": 4468,
      "▁onumuz": 4469,
      "des": 4470,
      "▁pul": 4471,
      "lerinin": 4472,
      "▁ikinci": 4473,
      "▁akın": 4474,
      "▁eroin": 4475,
      "▁oden": 4476,
      "▁arastırma": 4477,
      "▁demektir": 4478,
      "▁kullanım": 4479,
      "atı": 4480,
      "▁rap": 4481,
      "ational": 4482,
      "▁ortaya": 4483,
      "▁tulum": 4484,
      "▁basta": 4485,
      "▁asagı": 4486,
      "▁karg": 4487,
      "▁vurgul": 4488,
      "▁carol": 4489,
      "▁sorunu": 4490,
      "▁mem": 4491,
      "b": 4492,
      "▁gro": 4493,
      "▁istiyoruz": 4494,
      "▁biriydi": 4495,
      "▁ilgililerdi": 4496,
      "▁karsısına": 4497,
      "▁kızlar": 4498,
      "sar": 4499,
      "▁belir": 4500,
      "▁geldim": 4501,
      "37": 4502,
      "▁tan": 4503,
      "▁delik": 4504,
      "sin": 4505,
      "▁havaalan": 4506,
      "▁kut": 4507,
      "▁yemeklerinden": 4508,
      "▁tezgah": 4509,
      "▁57": 4510,
      "▁azal": 4511,
      "▁rast": 4512,
      "▁alk": 4513,
      "▁ulastı": 4514,
      "▁yonetim": 4515,
      "▁yeryuz": 4516,
      "▁alınması": 4517,
      "▁alacak": 4518,
      "▁yıldır": 4519,
      "ub": 4520,
      "ilerine": 4521,
      "▁bilg": 4522,
      "▁gecir": 4523,
      "▁cem": 4524,
      "adem": 4525,
      "▁dı": 4526,
      "▁duruyor": 4527,
      "aat": 4528,
      "▁boyunca": 4529,
      "manın": 4530,
      "'nı": 4531,
      "▁artısla": 4532,
      "▁elbette": 4533,
      "▁sim": 4534,
      "▁patır": 4535,
      "▁aktif": 4536,
      "▁mill": 4537,
      "▁has": 4538,
      "▁dus": 4539,
      "▁kars": 4540,
      "otuz": 4541,
      "▁nazik": 4542,
      "anti": 4543,
      "▁ticarette": 4544,
      "▁yine": 4545,
      "▁yirmi": 4546,
      "▁karsılastır": 4547,
      "alan": 4548,
      "▁boyle": 4549,
      "▁burn": 4550,
      "▁alım-satım": 4551,
      "ult": 4552,
      "▁haksız": 4553,
      "▁cav": 4554,
      "▁durak": 4555,
      "▁oturdu": 4556,
      "▁personelleri": 4557,
      "▁hissedar": 4558,
      "ulen": 4559,
      "▁personeller": 4560,
      "▁mun": 4561,
      "one": 4562,
      "▁koruy": 4563,
      "▁posta": 4564,
      "emiz": 4565,
      "arl": 4566,
      "▁ban": 4567,
      "▁paket": 4568,
      "▁bildir": 4569,
      "▁aj": 4570,
      "▁ucreti": 4571,
      "▁arkadas": 4572,
      "dav": 4573,
      "▁cıtır": 4574,
      "▁washington'a": 4575,
      "▁tom": 4576,
      "ulmus": 4577,
      "▁baslamıs": 4578,
      "▁yay": 4579,
      "ograf": 4580,
      "▁diler": 4581,
      "▁kisilik": 4582,
      "▁verildi": 4583,
      "▁yav": 4584,
      "ecegi": 4585,
      "▁sob": 4586,
      "▁gitti": 4587,
      "▁beyan": 4588,
      "▁anayas": 4589,
      "leriyle": 4590,
      "▁kalktı": 4591,
      "▁ner": 4592,
      "sizim": 4593,
      "▁sinem": 4594,
      "▁birlestir": 4595,
      "ast": 4596,
      "▁galiba": 4597,
      "▁tarih": 4598,
      "▁0.7": 4599,
      "▁%10": 4600,
      "▁istedigim": 4601,
      "ladılar": 4602,
      "▁dedik": 4603,
      "#": 4604,
      ".53": 4605,
      "▁cıyak": 4606,
      "▁finans": 4607,
      "▁sıv": 4608,
      "▁sayılır": 4609,
      "▁lt": 4610,
      "asın": 4611,
      "▁kes": 4612,
      "▁daha": 4613,
      "▁yetmis": 4614,
      "▁cekir": 4615,
      "anc": 4616,
      "▁ettir": 4617,
      "▁vegas": 4618,
      "utur": 4619,
      "imli": 4620,
      "to": 4621,
      "▁suyun": 4622,
      "ist": 4623,
      "▁8.3": 4624,
      "▁danıs": 4625,
      "▁ortalam": 4626,
      "▁198": 4627,
      "▁ornek": 4628,
      "▁koltu": 4629,
      "▁kardes": 4630,
      "ıl": 4631,
      "▁dagıt": 4632,
      "▁farkında": 4633,
      "▁oglum": 4634,
      "▁uzerinden": 4635,
      "▁rakam": 4636,
      "unku": 4637,
      "▁rekor": 4638,
      "▁bahc": 4639,
      "▁istedigi": 4640,
      "9.3": 4641,
      "▁nesil": 4642,
      "▁alem": 4643,
      "▁cıkarıp": 4644,
      "esi'nde": 4645,
      "▁prens": 4646,
      "▁taban": 4647,
      "lum": 4648,
      "sat": 4649,
      "kırı": 4650,
      "atın": 4651,
      "▁ustlen": 4652,
      "▁acıdan": 4653,
      "▁personellerin": 4654,
      "▁fena": 4655,
      "▁adına": 4656,
      "▁bed": 4657,
      "▁istiyorlar": 4658,
      "▁boston": 4659,
      "nız": 4660,
      "▁muhtemel": 4661,
      "▁diger": 4662,
      "▁yuzlerce": 4663,
      ".50": 4664,
      "▁ordu": 4665,
      "▁93": 4666,
      "ten": 4667,
      "▁ofk": 4668,
      "▁uzun": 4669,
      "▁kek": 4670,
      "▁ekim": 4671,
      "▁kutup": 4672,
      "est": 4673,
      "▁avustral": 4674,
      "▁alti": 4675,
      "▁baltimore'den": 4676,
      "▁jur": 4677,
      "ph": 4678,
      "▁bastan": 4679,
      "enn": 4680,
      "▁kampanyalar": 4681,
      "▁for": 4682,
      "▁im": 4683,
      "▁3/": 4684,
      "sınız": 4685,
      "ıldı": 4686,
      "▁kalabal": 4687,
      "▁artısı": 4688,
      "▁kis": 4689,
      "▁ener": 4690,
      "▁caba": 4691,
      "▁ora": 4692,
      "▁tehlik": 4693,
      "▁gormuyor": 4694,
      "▁wall": 4695,
      "▁coktu": 4696,
      "ıyor": 4697,
      "ansız": 4698,
      "▁sark": 4699,
      "▁county": 4700,
      "▁pa": 4701,
      "edef": 4702,
      "mistim": 4703,
      "ısır": 4704,
      "liyordu": 4705,
      "be": 4706,
      "abet": 4707,
      "apol": 4708,
      "▁tahvil": 4709,
      "iyoruz": 4710,
      "dum": 4711,
      "meli": 4712,
      "▁kosulları": 4713,
      "ihaz": 4714,
      "▁plaji": 4715,
      "▁superdi": 4716,
      "▁tarif": 4717,
      "mesinden": 4718,
      "▁anay": 4719,
      "ole": 4720,
      "▁krizi": 4721,
      "▁dair": 4722,
      "elikle": 4723,
      "▁is": 4724,
      "▁hedefi": 4725,
      "▁turist": 4726,
      "▁erken": 4727,
      "▁bilim": 4728,
      "▁56": 4729,
      "▁istemedi": 4730,
      "▁anlam": 4731,
      "▁alıs": 4732,
      "▁beh": 4733,
      "▁les": 4734,
      "▁yık": 4735,
      "▁yeterince": 4736,
      "imleri": 4737,
      "▁gorunuyordu": 4738,
      "▁dilek": 4739,
      "▁cıkmıs": 4740,
      "▁uz": 4741,
      "ence": 4742,
      "▁edil": 4743,
      "▁cel": 4744,
      "in": 4745,
      "ik": 4746,
      "sunuz": 4747,
      "▁dogr": 4748,
      "ve": 4749,
      "lesti": 4750,
      "ark": 4751,
      "▁kanat": 4752,
      "gur": 4753,
      "▁8'den": 4754,
      "▁nelerdir": 4755,
      "istan": 4756,
      "▁div": 4757,
      "▁yanlıs": 4758,
      "▁135": 4759,
      "▁250": 4760,
      "▁sagladı": 4761,
      "▁1980": 4762,
      "uru": 4763,
      "▁ilk": 4764,
      "▁yudum": 4765,
      "▁21": 4766,
      "▁perde": 4767,
      "▁kayıt": 4768,
      "maması": 4769,
      "▁seref": 4770,
      "▁sers": 4771,
      "▁oteli": 4772,
      "▁5-1": 4773,
      "▁itiraf": 4774,
      "▁ter": 4775,
      "▁karın": 4776,
      "9": 4777,
      "▁almıs": 4778,
      "▁jour": 4779,
      "▁basladık": 4780,
      "▁satım": 4781,
      "ları": 4782,
      "▁7": 4783,
      "ecegimiz": 4784,
      "▁nedeniyle": 4785,
      "▁hadi": 4786,
      "▁mayıs": 4787,
      "eet": 4788,
      "▁%7.8": 4789,
      "▁sıkı": 4790,
      "▁haberdar": 4791,
      "▁dinliyor": 4792,
      "▁donustur": 4793,
      "▁kahvaltı": 4794,
      "▁kanı": 4795,
      "▁herkes": 4796,
      "▁omer": 4797,
      "▁anlas": 4798,
      "▁galib": 4799,
      "▁kusursuz": 4800,
      "isyon": 4801,
      "oloj": 4802,
      "▁kısmı": 4803,
      "taj": 4804,
      "▁hakik": 4805,
      "▁onem": 4806,
      "▁coktan": 4807,
      "duncu": 4808,
      "▁beklent": 4809,
      "▁gal": 4810,
      "▁grub": 4811,
      "▁kendisinin": 4812,
      "▁1.2": 4813,
      "▁paris": 4814,
      "▁louis'e": 4815,
      "▁surekli": 4816,
      "lanır": 4817,
      "▁gorev": 4818,
      "▁suph": 4819,
      "▁ibaret": 4820,
      "▁verilm": 4821,
      "▁bıc": 4822,
      "▁ulke": 4823,
      "ildik": 4824,
      "▁eks": 4825,
      "2:30": 4826,
      "eld": 4827,
      "▁dagı": 4828,
      "▁misiniz": 4829,
      "▁sıg": 4830,
      "fa": 4831,
      "▁ikibiniki": 4832,
      "lerin": 4833,
      "▁kahve": 4834,
      "▁hicbirinin": 4835,
      "▁yasal": 4836,
      "▁sauna": 4837,
      "gır": 4838,
      "▁bilmiyorum": 4839,
      "▁bank": 4840,
      "digini": 4841,
      "▁duzenli": 4842,
      "▁nur": 4843,
      "ill": 4844,
      "▁cumhurbaskanı": 4845,
      "▁inc": 4846,
      "▁%8.2": 4847,
      "▁sınız": 4848,
      "▁ası": 4849,
      "▁yakalan": 4850,
      "▁oluyordu": 4851,
      "ecegini": 4852,
      "▁oteki": 4853,
      "alarından": 4854,
      "maları": 4855,
      "▁yanına": 4856,
      "tansiy": 4857,
      "▁cocuklara": 4858,
      "▁havayollarını": 4859,
      ".15": 4860,
      "▁guleryuzlu": 4861,
      "ılma": 4862,
      "▁vet": 4863,
      "▁%": 4864,
      "▁ka": 4865,
      "▁kuru": 4866,
      "▁sivil": 4867,
      "ında": 4868,
      "▁vurdu": 4869,
      "sizlik": 4870,
      "▁haft": 4871,
      "tim": 4872,
      "▁hop": 4873,
      "▁ucak": 4874,
      "▁uslu": 4875,
      "leyici": 4876,
      "▁uvey": 4877,
      "▁kurulus": 4878,
      "▁borsası": 4879,
      "▁ufak": 4880,
      "5.": 4881,
      "▁besin": 4882,
      "eg": 4883,
      "'dan": 4884,
      "ap": 4885,
      "▁olu": 4886,
      "▁basarı": 4887,
      "▁kopar": 4888,
      "▁anlamına": 4889,
      "▁ucret": 4890,
      "yum": 4891,
      "▁cbs": 4892,
      "▁kıymetler": 4893,
      "▁mustafa": 4894,
      "gah": 4895,
      "lerinden": 4896,
      "ıldır": 4897,
      "▁duserek": 4898,
      "▁calısır": 4899,
      "▁14": 4900,
      "▁fır": 4901,
      "▁bile": 4902,
      "▁kasım": 4903,
      "▁harekete": 4904,
      "cal": 4905,
      "▁deneyim": 4906,
      "▁ogrenciler": 4907,
      "▁gev": 4908,
      "▁kontr": 4909,
      "erler": 4910,
      "▁'d": 4911,
      "etin": 4912,
      "▁doları'ndan": 4913,
      "▁kuv": 4914,
      "alarına": 4915,
      "▁ero": 4916,
      "▁idar": 4917,
      "▁satıcı": 4918,
      "▁north": 4919,
      "▁geliri": 4920,
      "umu": 4921,
      "▁mıs": 4922,
      "▁atlanta": 4923,
      "ayol": 4924,
      "▁icecek": 4925,
      "▁titr": 4926,
      "▁inanıyor": 4927,
      "laya": 4928,
      "uyorum": 4929,
      "emiyorum": 4930,
      "▁istemez": 4931,
      "▁basit": 4932,
      "▁ozen": 4933,
      "▁fiyat": 4934,
      "▁ikna": 4935,
      "▁ilginc": 4936,
      "esti": 4937,
      "▁portakal": 4938,
      "agını": 4939,
      "▁lideri": 4940,
      "▁kur": 4941,
      "▁lisans": 4942,
      "▁ilgilen": 4943,
      "▁masaya": 4944,
      "▁dedim": 4945,
      "▁sonu": 4946,
      "▁acele": 4947,
      "▁parc": 4948,
      "▁soyley": 4949,
      "▁basvur": 4950,
      "▁ydı": 4951,
      "89": 4952,
      "▁isciler": 4953,
      "▁van": 4954,
      "▁butce": 4955,
      "eket": 4956,
      "▁kok": 4957,
      "▁aks": 4958,
      "landı": 4959,
      "▁fok": 4960,
      "ash": 4961,
      "6.6": 4962,
      "eyerek": 4963,
      "▁alma": 4964,
      "▁bugunku": 4965,
      "▁aralarında": 4966,
      "▁cesit": 4967,
      "▁sırt": 4968,
      "▁basım": 4969,
      "▁nash": 4970,
      "lbu": 4971,
      "lerinde": 4972,
      "ever": 4973,
      "▁taslar": 4974,
      "▁sıkır": 4975,
      "inc": 4976,
      "▁silah": 4977,
      "ila": 4978,
      "▁pet": 4979,
      "unt": 4980,
      "miyordu": 4981,
      "tay": 4982,
      "▁koz": 4983,
      "▁elli": 4984,
      "▁giydi": 4985,
      "▁tanrı": 4986,
      "▁texas": 4987,
      "▁asam": 4988,
      "▁gecip": 4989,
      "detti": 4990,
      "▁ug": 4991,
      "▁olması": 4992,
      "ar": 4993,
      "▁gum": 4994,
      "▁tuz": 4995,
      "ab": 4996,
      "▁acıklan": 4997,
      "▁dek": 4998,
      "agi": 4999,
      "▁eti": 5000,
      "dak": 5001,
      "▁gidec": 5002,
      "▁hatta": 5003,
      "liye": 5004,
      "▁esas": 5005,
      "▁degildir": 5006,
      "▁hepimiz": 5007,
      "▁tı": 5008,
      "▁siv": 5009,
      "▁bomb": 5010,
      "▁azdi": 5011,
      "▁dısı": 5012,
      "▁hang": 5013,
      "yım": 5014,
      "▁adet": 5015,
      "▁olduklarını": 5016,
      "▁izm": 5017,
      "▁bab": 5018,
      "▁hazırlan": 5019,
      "▁erkenden": 5020,
      "▁sonbahar": 5021,
      "▁alev": 5022,
      "▁californ": 5023,
      "okr": 5024,
      "▁oksur": 5025,
      "▁4": 5026,
      "▁nefret": 5027,
      "ıldıgında": 5028,
      "▁pr": 5029,
      "lastı": 5030,
      "▁taht": 5031,
      "deki": 5032,
      "▁bıcak": 5033,
      "▁egil": 5034,
      "ep": 5035,
      "▁edilmesi": 5036,
      "▁adama": 5037,
      "ood": 5038,
      "▁kulub": 5039,
      "▁ecz": 5040,
      "▁seniz": 5041,
      "y's": 5042,
      "▁radyo": 5043,
      "▁isine": 5044,
      "▁ileri": 5045,
      "▁dısında": 5046,
      "uklu": 5047,
      "▁kalın": 5048,
      "▁2016": 5049,
      "▁iskonto": 5050,
      "▁kapas": 5051,
      "▁hisselerin": 5052,
      "▁kaybet": 5053,
      "amadim": 5054,
      "▁arastır": 5055,
      "▁okul": 5056,
      "▁actı": 5057,
      "cinin": 5058,
      "▁stan": 5059,
      "▁mıy": 5060,
      "▁ihtiyacım": 5061,
      "▁zorunlu": 5062,
      "▁komut": 5063,
      "alarla": 5064,
      "kanın": 5065,
      "▁icin": 5066,
      "▁olun": 5067,
      "▁alıp": 5068,
      "▁balayi": 5069,
      "▁edilmis": 5070,
      "▁mumkun": 5071,
      "▁kım": 5072,
      "▁vek": 5073,
      "▁po": 5074,
      "▁manzarasi": 5075,
      "89-": 5076,
      "▁hapis": 5077,
      "s.": 5078,
      "▁yuzluydu": 5079,
      "▁gelmedi": 5080,
      "▁kacak": 5081,
      "▁vermek": 5082,
      ".4": 5083,
      "alap": 5084,
      "o'nun": 5085,
      "lugun": 5086,
      "▁ydık": 5087,
      "▁pahalı": 5088,
      "▁7.2": 5089,
      "▁goturdu": 5090,
      "▁zira": 5091,
      "▁efsan": 5092,
      "▁the": 5093,
      "▁uyan": 5094,
      "misti": 5095,
      "ina": 5096,
      "▁sahip": 5097,
      "▁kopek": 5098,
      "cular": 5099,
      "etti": 5100,
      "▁politik": 5101,
      "▁zincir": 5102,
      "▁tatli": 5103,
      "enen": 5104,
      "west": 5105,
      "▁barın": 5106,
      "▁boz": 5107,
      "▁bahsederim": 5108,
      "▁metre": 5109,
      "▁arkad": 5110,
      "▁ayda": 5111,
      "mayacak": 5112,
      "▁%3": 5113,
      "abiliyor": 5114,
      "▁anne": 5115,
      "▁islem": 5116,
      "▁ediyordu": 5117,
      "am": 5118,
      "▁mıydı": 5119,
      "▁katıldı": 5120,
      "▁ihr": 5121,
      "▁evinde": 5122,
      "amıyor": 5123,
      "▁dinlemek": 5124,
      "▁sigort": 5125,
      "▁dost": 5126,
      "▁geril": 5127,
      "▁kendime": 5128,
      "ızı": 5129,
      "lu": 5130,
      "▁gide": 5131,
      "ydi": 5132,
      "▁giren": 5133,
      "▁attıgı": 5134,
      "ustos": 5135,
      "▁fırıl": 5136,
      "bilir": 5137,
      "▁vakıf": 5138,
      "▁225": 5139,
      "▁hak": 5140,
      "▁seg": 5141,
      "icileri": 5142,
      "▁gelistir": 5143,
      "▁ettim": 5144,
      "▁ahlak": 5145,
      "▁stand": 5146,
      "umlu": 5147,
      "▁emek": 5148,
      "▁yola": 5149,
      "▁gun": 5150,
      "▁rahatsız": 5151,
      "▁piyasalar": 5152,
      "anmıs": 5153,
      "kiz": 5154,
      "osy": 5155,
      "▁japonya": 5156,
      "ılmaya": 5157,
      "▁sut": 5158,
      "▁ort": 5159,
      "▁kong": 5160,
      "▁dev": 5161,
      "▁temet": 5162,
      "▁lev": 5163,
      "▁altında": 5164,
      "ete": 5165,
      "▁ortalama": 5166,
      "▁ın": 5167,
      "usunda": 5168,
      "▁0.": 5169,
      "▁tuv": 5170,
      "▁tedarik": 5171,
      "▁bicimde": 5172,
      "ancı": 5173,
      "▁dolap": 5174,
      "▁canı": 5175,
      "▁yam": 5176,
      "▁zarf": 5177,
      "▁naci": 5178,
      "▁birik": 5179,
      "adir": 5180,
      "▁teknoloj": 5181,
      "▁anlasma": 5182,
      "▁ofis": 5183,
      "▁vic": 5184,
      "ave": 5185,
      "▁belirsiz": 5186,
      "▁tamam": 5187,
      "▁sozler": 5188,
      "▁buraya": 5189,
      "alık": 5190,
      "▁karsı": 5191,
      "edik": 5192,
      "▁islemlerde": 5193,
      "▁sahne": 5194,
      "▁cez": 5195,
      "ıpıs": 5196,
      "▁ediyoruz": 5197,
      "▁ettigi": 5198,
      "▁personellerinden": 5199,
      "▁ongor": 5200,
      "▁mahkum": 5201,
      "raj": 5202,
      "▁subat": 5203,
      "▁kirp": 5204,
      "bah": 5205,
      "▁yer": 5206,
      "▁cleveland": 5207,
      "-200": 5208,
      "atik": 5209,
      "▁65": 5210,
      "dur": 5211,
      "ro": 5212,
      "▁derhal": 5213,
      "▁diy": 5214,
      "mıyordu": 5215,
      "eyim": 5216,
      "▁para": 5217,
      "▁piyasada": 5218,
      "eki": 5219,
      "▁7.6": 5220,
      "▁durumu": 5221,
      "▁cig": 5222,
      "▁gaz": 5223,
      "▁teknik": 5224,
      "▁otelden": 5225,
      "▁borcu": 5226,
      "▁turk": 5227,
      "▁ep": 5228,
      "▁orlando'dan": 5229,
      "▁ham": 5230,
      "▁cıkınca": 5231,
      "▁icinde": 5232,
      "82": 5233,
      "▁almak": 5234,
      "▁airlin": 5235,
      "▁uzer": 5236,
      "larımız": 5237,
      "▁ariz": 5238,
      "wa": 5239,
      "iligi": 5240,
      "▁ser": 5241,
      "▁homur": 5242,
      "▁kabar": 5243,
      "▁sefer": 5244,
      "▁a.b.": 5245,
      "▁karsil": 5246,
      "amay": 5247,
      "sek": 5248,
      "▁pam": 5249,
      "▁atesi": 5250,
      "i'nin": 5251,
      "▁78": 5252,
      "▁gozler": 5253,
      "▁memphis'ten": 5254,
      "▁yanıt": 5255,
      "istim": 5256,
      "▁kafa": 5257,
      "▁gibi": 5258,
      "▁eglenceli": 5259,
      "▁istem": 5260,
      "▁ucuyor": 5261,
      "▁yuzyıl": 5262,
      "▁%8": 5263,
      "▁kopru": 5264,
      "▁dogan": 5265,
      "dedil": 5266,
      "alı": 5267,
      "▁og": 5268,
      "▁hizmetinden": 5269,
      "▁suresi": 5270,
      "▁kel": 5271,
      "▁kalabalık": 5272,
      "'daki": 5273,
      "▁terbiy": 5274,
      "▁dum": 5275,
      "▁market": 5276,
      "▁cozum": 5277,
      "isi": 5278,
      "▁charlotte'den": 5279,
      "▁miras": 5280,
      "▁dikkatli": 5281,
      "kı": 5282,
      "▁51": 5283,
      "▁yurtdı": 5284,
      "▁birligi": 5285,
      "▁dre": 5286,
      "▁tencer": 5287,
      "▁nicin": 5288,
      "▁ydım": 5289,
      "▁4.9": 5290,
      "▁ok": 5291,
      "▁atlanta'dan": 5292,
      "▁tekn": 5293,
      "▁hayatı": 5294,
      "ahmet": 5295,
      "▁karı": 5296,
      "ırlar": 5297,
      "▁415": 5298,
      "▁ismi": 5299,
      "▁op": 5300,
      "▁lık": 5301,
      "▁yapıs": 5302,
      "▁sırtında": 5303,
      "gum": 5304,
      "len": 5305,
      "▁kimi": 5306,
      "▁denen": 5307,
      "gelelim": 5308,
      "▁muy": 5309,
      "▁sol": 5310,
      "▁yoksa": 5311,
      "▁yiyecek": 5312,
      "▁erdog": 5313,
      "▁komp": 5314,
      "▁dogrudan": 5315,
      "▁bazıların": 5316,
      "yol": 5317,
      "▁fel": 5318,
      "▁aktar": 5319,
      "▁ince": 5320,
      "▁yapmayı": 5321,
      "▁dert": 5322,
      "▁sayısı": 5323,
      "▁yatırımcı": 5324,
      "▁plastik": 5325,
      "mma": 5326,
      "'yı": 5327,
      "mıyorum": 5328,
      "▁duvar": 5329,
      "▁karsıya": 5330,
      "amayan": 5331,
      "▁co.": 5332,
      "▁keskin": 5333,
      "▁edebil": 5334,
      "▁ontari": 5335,
      "▁ikimiz": 5336,
      "▁olmus": 5337,
      "▁tekrar": 5338,
      "▁soylediler": 5339,
      "▁esir": 5340,
      ",": 5341,
      "▁kalmadı": 5342,
      "▁sair": 5343,
      "▁ittif": 5344,
      "fı": 5345,
      "▁olmayacak": 5346,
      "'a": 5347,
      "cilik": 5348,
      "▁kıtır": 5349,
      "▁ceh": 5350,
      "▁hitap": 5351,
      "ost": 5352,
      "▁skan": 5353,
      "ulur": 5354,
      "▁genel": 5355,
      "▁ufakti": 5356,
      "▁las": 5357,
      "asının": 5358,
      "▁1991-19": 5359,
      ".75": 5360,
      "▁milwaukee": 5361,
      "▁onceden": 5362,
      "▁devr": 5363,
      "me": 5364,
      "elerinin": 5365,
      "▁acıldı": 5366,
      "elli": 5367,
      "▁-": 5368,
      "▁tas": 5369,
      "▁yazı": 5370,
      "▁pes": 5371,
      "▁sovyetler": 5372,
      "▁sak": 5373,
      "▁birdenbire": 5374,
      "uydu": 5375,
      "ada": 5376,
      "▁bakır": 5377,
      "ogu": 5378,
      "▁ves": 5379,
      "▁nob": 5380,
      "▁2.5": 5381,
      "▁doksan": 5382,
      "▁genis": 5383,
      "▁isvicre": 5384,
      "abilecek": 5385,
      "ho": 5386,
      "▁konustu": 5387,
      "lıgına": 5388,
      "▁yasak": 5389,
      "▁onsekiz": 5390,
      "▁varan": 5391,
      "▁sehr": 5392,
      "▁ibrahim": 5393,
      "mesini": 5394,
      "00000": 5395,
      "ende": 5396,
      "▁perd": 5397,
      "▁bocek": 5398,
      "asır": 5399,
      "▁soluk": 5400,
      "▁dunyayı": 5401,
      "anla": 5402,
      "▁ilac": 5403,
      "▁aday": 5404,
      "▁kak": 5405,
      "kel": 5406,
      "▁pazar": 5407,
      "lam": 5408,
      "▁duyg": 5409,
      "▁united": 5410,
      "iy": 5411,
      "▁gold": 5412,
      "▁obur": 5413,
      "enler": 5414,
      "▁arzu": 5415,
      "▁gelsin": 5416,
      "ege": 5417,
      "▁gor": 5418,
      "▁halbuki": 5419,
      "▁yardımcısı": 5420,
      "▁sıng": 5421,
      "ya'da": 5422,
      "ıcı": 5423,
      "▁devam": 5424,
      "ısını": 5425,
      "ebilirim": 5426,
      "▁halk": 5427,
      "▁rakamlar": 5428,
      "▁atmak": 5429,
      "▁edec": 5430,
      "[CLS]": 5431,
      "’": 5432,
      "▁wash": 5433,
      "sel": 5434,
      "▁ama": 5435,
      "▁suc": 5436,
      "▁pus": 5437,
      "▁yukselerek": 5438,
      "▁bulabilir": 5439,
      "▁kıbr": 5440,
      "▁'lu": 5441,
      "▁rahatti": 5442,
      "ıp": 5443,
      "▁yildiz": 5444,
      "▁sandal": 5445,
      "▁annemin": 5446,
      "▁2.9": 5447,
      "▁mu": 5448,
      "▁sizi": 5449,
      "▁gunluk": 5450,
      ".1": 5451,
      "▁asır": 5452,
      "o'ya": 5453,
      "umun": 5454,
      "▁ice": 5455,
      "▁kendinden": 5456,
      "▁%3.4": 5457,
      "▁zamanlarda": 5458,
      "▁takdir": 5459,
      "irdi": 5460,
      "▁hal": 5461,
      "cileri": 5462,
      "▁uygulam": 5463,
      "▁systems": 5464,
      "ımızı": 5465,
      "▁dahil": 5466,
      "usal": 5467,
      "luydu": 5468,
      "▁uy": 5469,
      "onelik": 5470,
      "▁taze": 5471,
      "▁turku": 5472,
      "▁degiliz": 5473,
      "▁es": 5474,
      "▁kendinizi": 5475,
      "▁70": 5476,
      "gine": 5477,
      "▁cumhuriyet": 5478,
      "ris": 5479,
      "xel": 5480,
      "urdu": 5481,
      "▁teklif": 5482,
      "▁savas": 5483,
      "▁355": 5484,
      "▁gider": 5485,
      "dıgımız": 5486,
      "▁mahall": 5487,
      "eti": 5488,
      "avuz": 5489,
      "1": 5490,
      "▁edin": 5491,
      "▁profes": 5492,
      "suz": 5493,
      "ala": 5494,
      "izm": 5495,
      "▁sergil": 5496,
      "▁yasat": 5497,
      "▁italyan": 5498,
      "▁egit": 5499,
      "▁birbirimize": 5500,
      "▁ec": 5501,
      "▁unit": 5502,
      "▁aslan": 5503,
      "▁milyar": 5504,
      "gim": 5505,
      "▁iyilestir": 5506,
      "arlar": 5507,
      "25": 5508,
      "▁baslı": 5509,
      "▁sekiz": 5510,
      "▁bireysel": 5511,
      "eyip": 5512,
      "lıg": 5513,
      "▁isterim": 5514,
      "▁yıl": 5515,
      "unce": 5516,
      "ank": 5517,
      "▁yerini": 5518,
      "▁bolge": 5519,
      "▁gormedim": 5520,
      "ku": 5521,
      "▁meyv": 5522,
      "▁karmas": 5523,
      "▁faal": 5524,
      "▁kalit": 5525,
      "elen": 5526,
      "▁yaygın": 5527,
      "▁ana": 5528,
      "▁gorul": 5529,
      "▁gemi": 5530,
      "ica": 5531,
      "ılmıstı": 5532,
      "lamıstı": 5533,
      "▁boston'dan": 5534,
      "▁gectigimiz": 5535,
      "▁aktarma": 5536,
      "▁ayrıca": 5537,
      "▁kayı": 5538,
      "▁lung": 5539,
      "laka": 5540,
      "esem": 5541,
      "▁aksine": 5542,
      "▁hiz": 5543,
      "▁ekonomi": 5544,
      "ıng": 5545,
      "ımızdan": 5546,
      "▁agabey": 5547,
      "▁sanat": 5548,
      "▁kanal": 5549,
      "▁bulmadim": 5550,
      "▁sona": 5551,
      "▁deyip": 5552,
      "▁beklentim": 5553,
      "▁yakal": 5554,
      "▁bilinen": 5555,
      "▁limon": 5556,
      "▁yukselt": 5557,
      "ulan": 5558,
      "▁kisisel": 5559,
      "▁gidiyoruz": 5560,
      "▁iceriyor": 5561,
      "▁odanin": 5562,
      "▁tarafa": 5563,
      "▁satan": 5564,
      "▁kı": 5565,
      "▁yildizli": 5566,
      "▁yetk": 5567,
      "▁soz": 5568,
      "sizdi": 5569,
      "▁kilit": 5570,
      "ren": 5571,
      "▁denet": 5572,
      "ıyı": 5573,
      "▁soru": 5574,
      "▁basa": 5575,
      "ılıgıyla": 5576,
      "▁verecek": 5577,
      "ultu": 5578,
      "▁fatih": 5579,
      "ginden": 5580,
      "▁fazlas": 5581,
      "▁ilet": 5582,
      "▁denver'de": 5583,
      "▁kendi": 5584,
      "▁olcude": 5585,
      "ayın": 5586,
      "▁zek": 5587,
      "▁badem": 5588,
      "nam": 5589,
      "▁kokusu": 5590,
      "malarına": 5591,
      "▁el": 5592,
      "▁satılan": 5593,
      "▁vur": 5594,
      "▁seksen": 5595,
      "▁calar": 5596,
      "ecegiz": 5597,
      "▁vapur": 5598,
      "▁seviy": 5599,
      "'nda": 5600,
      "▁ederiz": 5601,
      "▁uydur": 5602,
      ".2": 5603,
      "▁elim": 5604,
      "▁suz": 5605,
      "▁petersburg": 5606,
      "▁dusunce": 5607,
      "ven": 5608,
      "▁eden": 5609,
      "▁resmi": 5610,
      "▁32": 5611,
      "▁tanı": 5612,
      "▁5'ten": 5613,
      "ire": 5614,
      ".36": 5615,
      "▁geldigini": 5616,
      "▁sorum": 5617,
      "mamız": 5618,
      "▁etmis": 5619,
      "▁bugune": 5620,
      "▁normal": 5621,
      "▁tef": 5622,
      "▁kisilerin": 5623,
      "▁ları": 5624,
      "▁vakit": 5625,
      "▁ithal": 5626,
      "▁burbank": 5627,
      "▁''": 5628,
      "▁#": 5629,
      "▁ates": 5630,
      "▁jones": 5631,
      "▁washington'dan": 5632,
      "▁gokyuz": 5633,
      "das": 5634,
      "▁seni": 5635,
      "▁kısmını": 5636,
      "▁lub": 5637,
      "▁bulunan": 5638,
      "▁20": 5639,
      "▁care": 5640,
      "▁ucusa": 5641,
      "​": 5642,
      "▁yurut": 5643,
      "▁1990": 5644,
      "br": 5645,
      "▁basar": 5646,
      "▁bodrum": 5647,
      "▁nokt": 5648,
      "▁gidebilir": 5649,
      "▁edir": 5650,
      "▁havayollarının": 5651,
      "▁ayar": 5652,
      "▁konusur": 5653,
      "▁kızı": 5654,
      "lendi": 5655,
      "▁sapır": 5656,
      "▁cesitli": 5657,
      "▁senet": 5658,
      "▁neler": 5659,
      "▁1000": 5660,
      "▁gunku": 5661,
      "▁usul": 5662,
      "▁annesi": 5663,
      "▁merkezi": 5664,
      "▁karısı": 5665,
      "ak": 5666,
      "od": 5667,
      "uyle": 5668,
      "aa": 5669,
      "▁tadi": 5670,
      "▁sizleri": 5671,
      "▁kesti": 5672,
      "▁american": 5673,
      "▁kalacak": 5674,
      "ate": 5675,
      "▁temmuz": 5676,
      "▁ucuz": 5677,
      "▁takip": 5678,
      "▁zaf": 5679,
      "▁gormez": 5680,
      "▁gerceklestir": 5681,
      "▁recep": 5682,
      "▁eskiden": 5683,
      "▁katkı": 5684,
      "▁dans": 5685,
      "▁gunleri": 5686,
      "▁rol": 5687,
      "iliyor": 5688,
      "▁tu": 5689,
      "▁sah": 5690,
      "day": 5691,
      "▁saldır": 5692,
      "▁emekli": 5693,
      "▁tey": 5694,
      "▁mini": 5695,
      ":00": 5696,
      "larken": 5697,
      "▁olusan": 5698,
      "ite": 5699,
      "d": 5700,
      "▁impar": 5701,
      "▁gumus": 5702,
      "▁oranında": 5703,
      "emedim": 5704,
      "▁ugr": 5705,
      "ha": 5706,
      "edi": 5707,
      "▁15": 5708,
      "▁ısıl": 5709,
      "▁mulk": 5710,
      "▁mahkem": 5711,
      "▁yararlan": 5712,
      "▁felsef": 5713,
      "diginde": 5714,
      "▁dondu": 5715,
      "▁86": 5716,
      "▁adalet": 5717,
      "lenmis": 5718,
      "▁bilgisay": 5719,
      "▁devletin": 5720,
      "▁degisiklik": 5721,
      "▁besyuz": 5722,
      "▁ot": 5723,
      "iyordum": 5724,
      "▁mit": 5725,
      "▁kam": 5726,
      "larının": 5727,
      "▁adlı": 5728,
      "tere": 5729,
      "▁hepsi": 5730,
      "▁95": 5731,
      "▁geriye": 5732,
      "▁bardak": 5733,
      "▁kendimiz": 5734,
      "▁muhim": 5735,
      "▁oradan": 5736,
      "▁donan": 5737,
      "▁herhangi": 5738,
      "▁birbiri": 5739,
      "gım": 5740,
      "▁mutfak": 5741,
      "▁dig": 5742,
      "\"": 5743,
      "dım": 5744,
      "▁jon": 5745,
      "▁verir": 5746,
      "▁vasıtasıyla": 5747,
      "▁acılan": 5748,
      "▁cor": 5749,
      "▁ceyrek": 5750,
      "▁sehrin": 5751,
      "▁paz": 5752,
      "▁katil": 5753,
      "▁aylık": 5754,
      "rik": 5755,
      "▁suk": 5756,
      "▁ogrenmek": 5757,
      "▁.'": 5758,
      "▁ihal": 5759,
      "▁trans": 5760,
      "▁baslan": 5761,
      "▁verin": 5762,
      "▁ortak": 5763,
      "▁konforu": 5764,
      "▁iyiydi": 5765,
      "▁birim": 5766,
      "▁lez": 5767,
      "▁tampa": 5768,
      "▁fıkı": 5769,
      "ibe": 5770,
      "▁ucusları": 5771,
      "▁nice": 5772,
      "ılacak": 5773,
      "▁beyaz": 5774,
      "▁3.4": 5775,
      "ledik": 5776,
      "den": 5777,
      "tr": 5778,
      "madıgını": 5779,
      "rek": 5780,
      "oya": 5781,
      "`": 5782,
      "elerini": 5783,
      "▁zarar": 5784,
      "layı": 5785,
      "▁yasayan": 5786,
      "▁aksam": 5787,
      "▁mag": 5788,
      "ından": 5789,
      "▁fay": 5790,
      "▁kendinize": 5791,
      "esi": 5792,
      "▁davet": 5793,
      "anı": 5794,
      "▁agustos": 5795,
      "▁list": 5796,
      "▁sevdigi": 5797,
      "mey": 5798,
      "ırtı": 5799,
      "acaktır": 5800,
      "“": 5801,
      "▁yaklas": 5802,
      "lıga": 5803,
      "▁kesildi": 5804,
      "▁76": 5805,
      "▁mak": 5806,
      "▁fikri": 5807,
      "▁yız": 5808,
      "\\/": 5809,
      "▁fon": 5810,
      "▁anlayıs": 5811,
      "▁endi": 5812,
      "▁ikti": 5813,
      "▁spor": 5814,
      "▁meden": 5815,
      "anlık": 5816,
      "▁havaliman": 5817,
      "amayacak": 5818,
      "▁olmam": 5819,
      "▁doy": 5820,
      "▁58": 5821,
      "▁marj": 5822,
      "tep": 5823,
      "larını": 5824,
      "▁serb": 5825,
      "▁karsılas": 5826,
      "▁phil": 5827,
      "▁saskın": 5828,
      "75": 5829,
      "yuz": 5830,
      "▁curuk": 5831,
      "▁kıyaslan": 5832,
      "▁dallas'tan": 5833,
      "yız": 5834,
      "▁odedigim": 5835,
      "kır": 5836,
      "▁aileler": 5837,
      "▁saatlerce": 5838,
      "▁sev": 5839,
      "▁elden": 5840,
      "▁insan": 5841,
      "▁zorlu": 5842,
      "▁hev": 5843,
      "▁guven": 5844,
      "▁elektrik": 5845,
      "▁hes": 5846,
      "▁pro": 5847,
      "▁birlikte": 5848,
      "▁etmistir": 5849,
      "▁etmektedir": 5850,
      "▁tertemiz": 5851,
      "▁mot": 5852,
      "atif": 5853,
      "gal": 5854,
      "uth": 5855,
      "meden": 5856,
      "▁gorunce": 5857,
      "▁finansal": 5858,
      "and": 5859,
      "atlar": 5860,
      "▁teminat": 5861,
      "▁zev": 5862,
      "▁kurumsal": 5863,
      "▁sokakta": 5864,
      "▁siparis": 5865,
      "-1": 5866,
      "▁91": 5867,
      "iyorlardı": 5868,
      "eder": 5869,
      "▁la": 5870,
      "lattı": 5871,
      "▁worth": 5872,
      "▁denk": 5873,
      "▁afrika": 5874,
      "▁coban": 5875,
      "dedi": 5876,
      "lal": 5877,
      "tır": 5878,
      "▁fıkır": 5879,
      "▁baba": 5880,
      "isle": 5881,
      "▁mekan": 5882,
      "▁uluslararası": 5883,
      "▁beye": 5884,
      "ish": 5885,
      "▁bagıs": 5886,
      "▁ır": 5887,
      "ıcılık": 5888,
      "▁katılım": 5889,
      "lıgının": 5890,
      "▁iyimser": 5891,
      "▁kendimizi": 5892,
      "9.8": 5893,
      "▁sabit": 5894,
      "dıkları": 5895,
      "hat": 5896,
      "▁ler": 5897,
      "dıktan": 5898,
      "▁duzenlem": 5899,
      "■": 5900,
      "miyor": 5901,
      "▁senator": 5902,
      "▁gam": 5903,
      "▁ayhan": 5904,
      "▁haftalık": 5905,
      "▁'nin": 5906,
      "▁sezon": 5907,
      "saydı": 5908,
      "▁yuruy": 5909,
      "▁yanak": 5910,
      "▁mermer": 5911,
      "dini": 5912,
      "unuz": 5913,
      "▁merak": 5914,
      "▁zengin": 5915,
      "▁cıl": 5916,
      "lamaya": 5917,
      "▁kosk": 5918,
      "▁yuklu": 5919,
      "anın": 5920,
      "ındaki": 5921,
      "ilmesini": 5922,
      "▁dolay": 5923,
      "▁gr": 5924,
      "▁sirketlerin": 5925,
      "▁aykırı": 5926,
      "▁seattle'ye": 5927,
      "▁car": 5928,
      "▁%6.9": 5929,
      "▁soyler": 5930,
      "-22:30": 5931,
      "▁emtia": 5932,
      "▁yar": 5933,
      "▁sabaha": 5934,
      "▁dile": 5935,
      "u": 5936,
      "▁gelince": 5937,
      "'la": 5938,
      "▁hepsin": 5939,
      "!": 5940,
      "▁bat": 5941,
      "ung": 5942,
      "▁masraf": 5943,
      "▁reh": 5944,
      "▁dergi": 5945,
      "▁yuregi": 5946,
      "▁erkekler": 5947,
      "s": 5948,
      "▁hijyenik": 5949,
      "▁4.6": 5950,
      "▁guc": 5951,
      "▁di": 5952,
      "▁istasyon": 5953,
      "▁kaliteliydi": 5954,
      "▁kendine": 5955,
      "▁gucu": 5956,
      "▁size": 5957,
      "▁olay": 5958,
      "▁boynun": 5959,
      "▁begendik": 5960,
      "imini": 5961,
      "do": 5962,
      "igini": 5963,
      "▁rez": 5964,
      "▁alıcı": 5965,
      "lıklar": 5966,
      "▁tesisti": 5967,
      "▁masanın": 5968,
      "▁seri": 5969,
      "▁deneme": 5970,
      "▁%3.": 5971,
      "▁james": 5972,
      "▁azınlık": 5973,
      "▁mesut": 5974,
      "▁hepimizin": 5975,
      "▁geciyor": 5976,
      "▁tiril": 5977,
      "▁kuy": 5978,
      "▁korkut": 5979,
      "amadı": 5980,
      "ori": 5981,
      "▁satıl": 5982,
      "▁muda": 5983,
      "▁luks": 5984,
      "▁fer": 5985,
      "▁rakip": 5986,
      "▁yalnızca": 5987,
      "lestir": 5988,
      "▁gitmem": 5989,
      "▁ucuslarının": 5990,
      "▁kıs": 5991,
      "▁demokrat": 5992,
      "▁takımı": 5993,
      "▁bil": 5994,
      "▁tesekkurler": 5995,
      "dılar": 5996,
      "▁89-": 5997,
      "▁dondur": 5998,
      "▁magaz": 5999,
      "wood": 6000,
      "▁rolu": 6001,
      "▁koydu": 6002,
      "▁sap": 6003,
      "om": 6004,
      "▁mesel": 6005,
      "▁yerlerde": 6006,
      "▁9.8": 6007,
      "▁hakkındaki": 6008,
      "▁cıkıp": 6009,
      "▁hicbirini": 6010,
      "istik": 6011,
      "'": 6012,
      "▁uretic": 6013,
      "ulup": 6014,
      "▁minneapolis'e": 6015,
      "▁becer": 6016,
      "azı": 6017,
      "▁gidip": 6018,
      "siniz": 6019,
      "▁derg": 6020,
      "▁animasyonlar": 6021,
      "▁tampa'ya": 6022,
      "▁goruyor": 6023,
      "▁demokr": 6024,
      "▁ismini": 6025,
      "▁blok": 6026,
      "▁istikrar": 6027,
      "'le": 6028,
      "▁kır": 6029,
      "z": 6030,
      "▁ekipman": 6031,
      "▁fak": 6032,
      "▁model": 6033,
      "▁kapı": 6034,
      "▁adı": 6035,
      "▁gayrim": 6036,
      "▁verdim": 6037,
      "▁mas": 6038,
      "▁zamana": 6039,
      "▁iken": 6040,
      "id": 6041,
      "▁huc": 6042,
      "▁ola": 6043,
      "▁bany": 6044,
      "▁kara": 6045,
      "▁“": 6046,
      "▁toplantı": 6047,
      "▁duny": 6048,
      "▁havalim": 6049,
      "▁insanlara": 6050,
      "ehir": 6051,
      "ai": 6052,
      "▁sanki": 6053,
      "madik": 6054,
      "▁gotur": 6055,
      "▁havada": 6056,
      "▁yen'den": 6057,
      "▁eg": 6058,
      "▁ocak": 6059,
      "asıyla": 6060,
      "▁saatleri": 6061,
      "▁ala": 6062,
      "▁dım": 6063,
      "ion": 6064,
      "ıklı": 6065,
      "▁cub": 6066,
      "▁asa": 6067,
      "▁yapmaya": 6068,
      "ekim": 6069,
      "▁gorevl": 6070,
      "rli": 6071,
      "▁etkili": 6072,
      "▁sart": 6073,
      "▁rev": 6074,
      "▁tanıt": 6075,
      "▁ucretleri": 6076,
      "lil": 6077,
      "▁endeksi": 6078,
      "▁fransız": 6079,
      "ret": 6080,
      "▁bıraktı": 6081,
      "▁hale": 6082,
      "▁gereken": 6083,
      "▁dogrusu": 6084,
      "asını": 6085,
      "▁birin": 6086,
      "▁ster": 6087,
      "▁nor": 6088,
      "ts": 6089,
      "▁yardımcı": 6090,
      "▁oysa": 6091,
      "▁univ": 6092,
      "▁gecirdi": 6093,
      "▁uzum": 6094,
      "▁sy": 6095,
      "▁meslek": 6096,
      "lasyon": 6097,
      "amiz": 6098,
      "▁mily": 6099,
      "▁havalimanı": 6100,
      "cog": 6101,
      "▁cıvıl": 6102,
      "▁con": 6103,
      "▁vakti": 6104,
      "▁1/4": 6105,
      "▁sayet": 6106,
      "▁diyerek": 6107,
      "nin": 6108,
      "▁yandan": 6109,
      "emedi": 6110,
      "ata": 6111,
      "▁ayaga": 6112,
      "▁bayrak": 6113,
      "▁ibm": 6114,
      "▁sırasında": 6115,
      "▁bunlardan": 6116,
      "5'e": 6117,
      "▁yasar": 6118,
      "▁laf": 6119,
      "▁saatlerinde": 6120,
      "▁kısıt": 6121,
      "▁newark'tan": 6122,
      "▁donus": 6123,
      "ev": 6124,
      "▁kamu": 6125,
      "▁ihracat": 6126,
      "umuz": 6127,
      "▁gorustuk": 6128,
      "▁145": 6129,
      "▁abd": 6130,
      "▁ca": 6131,
      "▁rop": 6132,
      "▁servisi": 6133,
      "▁televizyon": 6134,
      "▁aksama": 6135,
      "eyebilir": 6136,
      "acag": 6137,
      "▁yapıp": 6138,
      "▁gittikce": 6139,
      "▁mide": 6140,
      "▁ydi": 6141,
      "▁13.": 6142,
      "▁kaliforniya": 6143,
      "▁kagı": 6144,
      "sul": 6145,
      "dıgında": 6146,
      "▁bu": 6147,
      "▁kay": 6148,
      "azım": 6149,
      "▁onda": 6150,
      "▁ide": 6151,
      "hi": 6152,
      "▁hos": 6153,
      "▁li": 6154,
      "▁karsılıklı": 6155,
      "▁degerli": 6156,
      "tigi": 6157,
      "cık": 6158,
      "▁kose": 6159,
      "—": 6160,
      "▁belli": 6161,
      "▁tarihi": 6162,
      "▁dedigi": 6163,
      "tur": 6164,
      "▁185": 6165,
      "▁rady": 6166,
      "▁bisik": 6167,
      "▁se": 6168,
      "▁etkin": 6169,
      "▁resep": 6170,
      "▁sevgil": 6171,
      "ane": 6172,
      "▁patlı": 6173,
      "sekiz": 6174,
      "▁2": 6175,
      "▁kalkar": 6176,
      "▁izliyor": 6177,
      "orta": 6178,
      "▁dortyuz": 6179,
      "▁dısarıya": 6180,
      "▁dallas'a": 6181,
      "▁gozuk": 6182,
      "▁gerektir": 6183,
      "▁bıy": 6184,
      "▁gormus": 6185,
      "a": 6186,
      "▁kalkıyor": 6187,
      "▁iceriye": 6188,
      "▁inti": 6189,
      "▁olustur": 6190,
      "▁alımı": 6191,
      "▁fazlay": 6192,
      "▁amma": 6193,
      "uh": 6194,
      "▁ı": 6195,
      "▁sozleri": 6196,
      "▁karayolu": 6197,
      "▁hom": 6198,
      "inip": 6199,
      "▁od": 6200,
      "▁mevz": 6201,
      "▁aralık": 6202,
      "▁koca": 6203,
      "▁yararlı": 6204,
      "▁doları'na": 6205,
      "tısı": 6206,
      "▁universitesi": 6207,
      "▁sakın": 6208,
      "anları": 6209,
      "▁maz": 6210,
      "▁salı": 6211,
      "▁yan": 6212,
      "ufur": 6213,
      "▁matem": 6214,
      "▁istedigini": 6215,
      "▁7\\/8": 6216,
      "lulugu": 6217,
      "▁isk": 6218,
      "▁montre": 6219,
      "▁ulas": 6220,
      "▁hassas": 6221,
      "▁tuc": 6222,
      "▁%7": 6223,
      "▁personeli": 6224,
      "▁tasarruf": 6225,
      "▁suredir": 6226,
      "▁sade": 6227,
      "▁houston'a": 6228,
      "▁kapıdan": 6229,
      "▁uyesi": 6230,
      "▁devral": 6231,
      "'ler": 6232,
      "▁detroit'ten": 6233,
      "88": 6234,
      "▁huz": 6235,
      "▁lab": 6236,
      "▁bush": 6237,
      "▁vucud": 6238,
      "▁salat": 6239,
      "▁tacoma'ya": 6240,
      "▁vardı": 6241,
      "age": 6242,
      "▁cont": 6243,
      "▁islemi": 6244,
      "26": 6245,
      "▁ib": 6246,
      "▁bagır": 6247,
      "▁orlando": 6248,
      "▁uf": 6249,
      "▁ber": 6250,
      "ia": 6251,
      "▁kaynak": 6252,
      "kın": 6253,
      "ırken": 6254,
      "▁bal": 6255,
      "s'in": 6256,
      "ca": 6257,
      "▁tetik": 6258,
      "▁degistir": 6259,
      "▁sunu": 6260,
      "▁basında": 6261,
      "▁turkiye'nin": 6262,
      "udum": 6263,
      "▁yedek": 6264,
      "lar": 6265,
      "bank": 6266,
      "▁*": 6267,
      "▁bakın": 6268,
      "▁268": 6269,
      "▁sorumlu": 6270,
      "▁esya": 6271,
      "▁acısından": 6272,
      "▁sallan": 6273,
      "▁dususle": 6274,
      "▁karsıl": 6275,
      "dol": 6276,
      "▁dc'den": 6277,
      "▁tim": 6278,
      "'luk": 6279,
      "ew": 6280,
      "vi": 6281,
      "▁tiyat": 6282,
      "▁egem": 6283,
      "▁cukur": 6284,
      "▁37.5": 6285,
      ".12": 6286,
      "▁%7.875": 6287,
      "▁vah": 6288,
      "▁ces": 6289,
      "▁zor": 6290,
      "▁diren": 6291,
      "▁tıklım": 6292,
      "meyin": 6293,
      "▁dık": 6294,
      "ustral": 6295,
      "▁kos": 6296,
      "▁gecen": 6297,
      "▁zar": 6298,
      "▁tesisin": 6299,
      "▁vası": 6300,
      "▁nesn": 6301,
      "▁belg": 6302,
      "▁ediyorlar": 6303,
      "▁hali": 6304,
      "▁cak": 6305,
      "▁gitmek": 6306,
      "ılmıs": 6307,
      "▁gecik": 6308,
      "▁5.5": 6309,
      "▁yılı": 6310,
      "0.3": 6311,
      "▁muk": 6312,
      "▁yim": 6313,
      "▁merhaba": 6314,
      "▁olur": 6315,
      "amda": 6316,
      "bu": 6317,
      "ich": 6318,
      "▁sokak": 6319,
      "▁karakter": 6320,
      "▁endis": 6321,
      "▁boyn": 6322,
      "m": 6323,
      "ova": 6324,
      "▁adamı": 6325,
      "▁damak": 6326,
      "etir": 6327,
      "▁lehman": 6328,
      "▁guney": 6329,
      "tıg": 6330,
      "abiliriz": 6331,
      "▁demek": 6332,
      "▁malzem": 6333,
      ":": 6334,
      "ugun": 6335,
      "▁sordu": 6336,
      "st": 6337,
      "af": 6338,
      "▁minim": 6339,
      "▁azın": 6340,
      "▁olası": 6341,
      "▁suren": 6342,
      "▁ciftlik": 6343,
      "▁dusus": 6344,
      "▁vergisi": 6345,
      "larım": 6346,
      "▁katkıda": 6347,
      "▁oranları": 6348,
      "▁tesis": 6349,
      "▁yel": 6350,
      "inda": 6351,
      "▁acık": 6352,
      "▁vucut": 6353,
      "▁tedavul": 6354,
      "▁suruyor": 6355,
      "▁gordugu": 6356,
      "ektif": 6357,
      "'lik": 6358,
      "▁kah": 6359,
      "dunuz": 6360,
      "mamak": 6361,
      "imdi": 6362,
      "95": 6363,
      "acı": 6364,
      "eginde": 6365,
      "▁denizi": 6366,
      "▁omuz": 6367,
      "acagımı": 6368,
      "▁olmadıgı": 6369,
      "▁kimyasal": 6370,
      "▁5": 6371,
      "▁toront": 6372,
      "▁pey": 6373,
      "▁cogun": 6374,
      "▁ma": 6375,
      "larıyla": 6376,
      "der": 6377,
      "▁air": 6378,
      "▁yeniden": 6379,
      "press": 6380,
      "▁kub": 6381,
      "▁nus": 6382,
      "▁devrim": 6383,
      "▁tamamlan": 6384,
      "▁eksik": 6385,
      "▁yasay": 6386,
      "ımızın": 6387,
      "▁siyasi": 6388,
      "▁herhan": 6389,
      "ıldıgı": 6390,
      "▁verdi": 6391,
      "▁bunların": 6392,
      "mec": 6393,
      "▁sevin": 6394,
      "▁edebiyat": 6395,
      "▁yıgın": 6396,
      "▁huzur": 6397,
      "▁bahs": 6398,
      "▁deniz": 6399,
      "▁yılın": 6400,
      "▁aldır": 6401,
      "▁senin": 6402,
      "ıyorlar": 6403,
      "▁p": 6404,
      "▁sinir": 6405,
      "isiyle": 6406,
      "▁olmasını": 6407,
      "▁olar": 6408,
      "▁twa": 6409,
      "▁tuttur": 6410,
      "lige": 6411,
      "▁ispan": 6412,
      "▁aray": 6413,
      "▁or": 6414,
      "▁mus": 6415,
      "▁sıgın": 6416,
      "enin": 6417,
      "ates": 6418,
      "▁dili": 6419,
      "▁mut": 6420,
      "▁ceken": 6421,
      "ilerden": 6422,
      "▁gitmis": 6423,
      "lerdir": 6424,
      "▁city'e": 6425,
      "▁sovyet": 6426,
      "▁isit": 6427,
      "▁cumhurbaskan": 6428,
      "ilig": 6429,
      "▁ydu": 6430,
      "▁ların": 6431,
      "▁mırıl": 6432,
      "▁%6.4": 6433,
      "▁195": 6434,
      "▁oldugum": 6435,
      "▁gerekli": 6436,
      "▁dusuk": 6437,
      "▁cennet": 6438,
      "▁filan": 6439,
      "arı": 6440,
      "manı": 6441,
      "▁niye": 6442,
      "▁sistemi": 6443,
      "▁ugra": 6444,
      "▁geor": 6445,
      "alama": 6446,
      "▁mesela": 6447,
      "▁rut": 6448,
      "▁saf": 6449,
      "▁otomobil": 6450,
      "▁gul": 6451,
      "▁oner": 6452,
      "▁anlat": 6453,
      "ılabilir": 6454,
      "▁aldı": 6455,
      "▁yukarı": 6456,
      "▁traf": 6457,
      "▁hazırlık": 6458,
      "▁kimisi": 6459,
      "▁ann": 6460,
      "▁keyif": 6461,
      "▁vegas'tan": 6462,
      "▁oyun": 6463,
      "▁ait": 6464,
      "▁f": 6465,
      "lemeye": 6466,
      "eyh": 6467,
      "50": 6468,
      "▁sans": 6469,
      "▁:": 6470,
      "▁edilen": 6471,
      "▁onay": 6472,
      "▁pos": 6473,
      "ıma": 6474,
      "▁ulusal": 6475,
      "▁biliyor": 6476,
      "▁insana": 6477,
      "rum": 6478,
      "▁gittik": 6479,
      "▁neye": 6480,
      "▁menkul": 6481,
      "dıgı": 6482,
      "▁saat": 6483,
      "▁hik": 6484,
      "▁kuyu": 6485,
      "▁isim": 6486,
      "mesin": 6487,
      "▁harika": 6488,
      "ans": 6489,
      "istin": 6490,
      "iniki": 6491,
      "▁yont": 6492,
      "yi": 6493,
      "▁icki": 6494,
      "mistir": 6495,
      "▁kurban": 6496,
      "▁kac": 6497,
      "▁aile": 6498,
      "us": 6499,
      "▁islet": 6500,
      "ltı": 6501,
      "8'de": 6502,
      "▁onlar": 6503,
      "mesi": 6504,
      "▁fonlar": 6505,
      "har": 6506,
      "▁yapılır": 6507,
      "▁birden": 6508,
      "▁ticaret": 6509,
      "▁konusmalar": 6510,
      "▁serv": 6511,
      "▁mec": 6512,
      "▁savası": 6513,
      "▁calısıyordu": 6514,
      "▁kahv": 6515,
      "artman": 6516,
      "▁olgun": 6517,
      "▁ozel": 6518,
      "▁kitabı": 6519,
      "yalar": 6520,
      "▁ez": 6521,
      "▁geleneksel": 6522,
      "▁%11": 6523,
      "▁3.6": 6524,
      "▁ya": 6525,
      "▁me": 6526,
      "▁sever": 6527,
      "sal": 6528,
      "▁elimi": 6529,
      "▁yapıyor": 6530,
      "▁buh": 6531,
      "eni": 6532,
      "ama": 6533,
      "▁ick": 6534,
      "▁yoldan": 6535,
      "▁derli": 6536,
      "lugunu": 6537,
      "▁ey": 6538,
      "▁125": 6539,
      "amm": 6540,
      "ınca": 6541,
      "vet": 6542,
      "▁tıpıs": 6543,
      "isleri": 6544,
      "imi": 6545,
      "▁kit": 6546,
      "aten": 6547,
      "▁pittsburgh'a": 6548,
      "aları": 6549,
      "▁giderken": 6550,
      "▁kadeh": 6551,
      "▁af": 6552,
      "▁denizinden": 6553,
      "rah": 6554,
      "▁aksi": 6555,
      "▁108": 6556,
      "mis": 6557,
      "▁firma": 6558,
      "▁sekret": 6559,
      "▁sigorta": 6560,
      "iler": 6561,
      "▁buyudu": 6562,
      "leyerek": 6563,
      "▁murat": 6564,
      "▁protest": 6565,
      "ya'nın": 6566,
      "▁yal": 6567,
      "▁onları": 6568,
      "▁bizde": 6569,
      "\\/8": 6570,
      "▁ceviz": 6571,
      "▁street": 6572,
      "▁charlotte": 6573,
      "▁havayolu": 6574,
      "▁_": 6575,
      "▁firması": 6576,
      "▁ph": 6577,
      "▁sohret": 6578,
      "▁sıf": 6579,
      "▁haline": 6580,
      "▁kaynagı": 6581,
      "▁parmak": 6582,
      "▁1995": 6583,
      "▁lastik": 6584,
      "▁kalan": 6585,
      "▁yangın": 6586,
      "▁kacın": 6587,
      "ıyorsun": 6588,
      "▁sosy": 6589,
      "▁gerekc": 6590,
      "mıstır": 6591,
      "yası": 6592,
      "guna": 6593,
      "▁sozcusu": 6594,
      "unuyor": 6595,
      "/32": 6596,
      "▁suy": 6597,
      "▁ettigini": 6598,
      "▁sars": 6599,
      "▁ataturk": 6600,
      "▁mah": 6601,
      "▁takır": 6602,
      "▁yuv": 6603,
      "▁kursun": 6604,
      "f": 6605,
      "▁kere": 6606,
      "▁lake": 6607,
      "▁yapın": 6608,
      "edigini": 6609,
      "amın": 6610,
      "▁gere": 6611,
      "tor": 6612,
      "▁surdu": 6613,
      "▁tutul": 6614,
      "▁odey": 6615,
      "0.7": 6616,
      "▁baglı": 6617,
      "▁ataturk'un": 6618,
      "▁antik": 6619,
      "▁dolayısıyla": 6620,
      "▁fe": 6621,
      "▁konusunda": 6622,
      "▁sikayet": 6623,
      "cıları": 6624,
      "az": 6625,
      "▁bor": 6626,
      "▁68": 6627,
      "▁mur": 6628,
      "▁artıs": 6629,
      "▁arka": 6630,
      "tıkca": 6631,
      "rar": 6632,
      "▁izley": 6633,
      "▁fr": 6634,
      "orn": 6635,
      "▁0": 6636,
      "▁.": 6637,
      "▁egitim": 6638,
      "▁marka": 6639,
      "▁pembe": 6640,
      "▁kaybı": 6641,
      "▁j.": 6642,
      "eb": 6643,
      "▁sevgi": 6644,
      "▁ucretini": 6645,
      "gi": 6646,
      "▁sehir": 6647,
      "▁gorunuyor": 6648,
      "inin": 6649,
      "▁birinden": 6650,
      "▁bol": 6651,
      "/8": 6652,
      "▁indirim": 6653,
      "▁toren": 6654,
      "▁bizi": 6655,
      "▁2.4": 6656,
      "▁ard": 6657,
      "▁kelime": 6658,
      "▁hepsinin": 6659,
      "ega": 6660,
      "mıstı": 6661,
      "t": 6662,
      "▁akıl": 6663,
      "▁ihtimal": 6664,
      "▁yere": 6665,
      "▁biliyorum": 6666,
      "▁diego'dan": 6667,
      "▁sessiz": 6668,
      "[MASK]": 6669,
      "▁fık": 6670,
      "son": 6671,
      "▁duzen": 6672,
      "▁kumar": 6673,
      "▁iceren": 6674,
      "▁hareket": 6675,
      "▁reform": 6676,
      "▁uyusturucu": 6677,
      "ekler": 6678,
      "samba": 6679,
      "▁tul": 6680,
      "▁olmay": 6681,
      "abilmek": 6682,
      "gının": 6683,
      "▁gunu": 6684,
      "▁kelim": 6685,
      "▁muzik": 6686,
      "▁vatand": 6687,
      "▁ters": 6688,
      "gmen": 6689,
      "▁edecek": 6690,
      "▁us": 6691,
      "▁arasına": 6692,
      "▁hot": 6693,
      "%": 6694,
      "▁3\\/": 6695,
      "▁k": 6696,
      "▁hepsine": 6697,
      "up": 6698,
      "liligi": 6699,
      "▁etrafında": 6700,
      "▁karıstır": 6701,
      "lasmıs": 6702,
      "▁tuf": 6703,
      "▁atıl": 6704,
      "▁tec": 6705,
      "isik": 6706,
      "ustri": 6707,
      "▁4.": 6708,
      "▁soylem": 6709,
      "▁boylece": 6710,
      "▁fl": 6711,
      "lım": 6712,
      "▁bakarak": 6713,
      "ock": 6714,
      "▁1985": 6715,
      "▁son": 6716,
      "eledi": 6717,
      "▁araz": 6718,
      "▁99": 6719,
      "▁francisco'ya": 6720,
      "▁sonrasında": 6721,
      "▁sonrası": 6722,
      "▁misafir": 6723,
      "▁halı": 6724,
      "▁kirli": 6725,
      "▁dorduncu": 6726,
      "▁parcaları": 6727,
      "▁kitap": 6728,
      "ıf": 6729,
      "▁senato": 6730,
      "▁yetistir": 6731,
      "2'den": 6732,
      "iyor": 6733,
      "▁birbirleriyle": 6734,
      "li": 6735,
      "▁kurt": 6736,
      "eceg": 6737,
      "▁durur": 6738,
      "▁yapılacak": 6739,
      "▁dom": 6740,
      "▁karsısında": 6741,
      "sen": 6742,
      "▁burokr": 6743,
      "▁oyk": 6744,
      "cok": 6745,
      "▁val": 6746,
      "▁hissediyor": 6747,
      "▁utan": 6748,
      "▁ihtiyacı": 6749,
      "rat": 6750,
      "▁.)": 6751,
      "▁yatırımcıları": 6752,
      "▁omur": 6753,
      "▁ital": 6754,
      "▁kıy": 6755,
      "▁dalg": 6756,
      "▁nak": 6757,
      "▁sigara": 6758,
      "▁oturu": 6759,
      "eliydi": 6760,
      "▁degisiklikler": 6761,
      "hangi": 6762,
      "▁cocugun": 6763,
      "egine": 6764,
      "▁bilgi": 6765,
      "▁ise": 6766,
      "▁bolgede": 6767,
      "▁planlam": 6768,
      "▁burada": 6769,
      "▁kurtaj": 6770,
      "bir": 6771,
      "▁196": 6772,
      "ıkır": 6773,
      "▁giriyor": 6774,
      "2.9": 6775,
      "dim": 6776,
      "distan": 6777,
      "▁kendin": 6778,
      "▁yoneticisi": 6779,
      "▁bilimsel": 6780,
      "▁72": 6781,
      "▁60": 6782,
      "▁ha": 6783,
      "▁test": 6784,
      "▁yalnız": 6785,
      "▁sesle": 6786,
      "▁nefes": 6787,
      "▁ferah": 6788,
      "tra": 6789,
      "▁dogru": 6790,
      "▁yakindi": 6791,
      "amıyorum": 6792,
      "ısına": 6793,
      "▁taraftan": 6794,
      "▁oturan": 6795,
      "▁cen": 6796,
      "▁bilmez": 6797,
      "▁muhaseb": 6798,
      "▁37": 6799,
      "▁hulya": 6800,
      "▁kapali": 6801,
      "▁arac": 6802,
      "▁bilgilendir": 6803,
      "▁endeks": 6804,
      "▁cad": 6805,
      "57": 6806,
      "tern": 6807,
      "acılar": 6808,
      "▁elb": 6809,
      "▁derin": 6810,
      "▁git": 6811,
      "▁basv": 6812,
      "▁frank": 6813,
      "▁leh": 6814,
      "▁ede": 6815,
      "agının": 6816,
      "▁tım": 6817,
      "▁tasım": 6818,
      "▁katilmak": 6819,
      "▁insanın": 6820,
      "▁yaparak": 6821,
      "lesine": 6822,
      "▁gercekten": 6823,
      "▁grubu": 6824,
      "gını": 6825,
      "▁olanak": 6826,
      "lamalar": 6827,
      ".7": 6828,
      "▁alkol": 6829,
      "▁gelirler": 6830,
      "▁corp": 6831,
      "▁cagdas": 6832,
      "uste": 6833,
      "▁engin": 6834,
      "▁bundan": 6835,
      "▁problem": 6836,
      ".9": 6837,
      "▁%4": 6838,
      "▁sig": 6839,
      "iyer": 6840,
      "▁kendiler": 6841,
      "▁ekibi": 6842,
      "▁hayran": 6843,
      "▁tay": 6844,
      "▁200": 6845,
      "▁sert": 6846,
      "▁sur": 6847,
      "tik": 6848,
      "▁tiyatro": 6849,
      "agan": 6850,
      "▁basını": 6851,
      "▁aldım": 6852,
      "▁anlıyor": 6853,
      "▁dusman": 6854,
      "▁kurb": 6855,
      "▁kusur": 6856,
      "lukla": 6857,
      "▁z": 6858,
      "▁kop": 6859,
      "▁alak": 6860,
      "▁bulunuyor": 6861,
      "▁restoran": 6862,
      "▁yapılan": 6863,
      "▁olm": 6864,
      "▁meyal": 6865,
      "▁cik": 6866,
      "▁aklı": 6867,
      "▁korfez": 6868,
      "▁turu": 6869,
      "let": 6870,
      "▁boya": 6871,
      "▁philadelphia'dan": 6872,
      "▁fort": 6873,
      "▁\"": 6874,
      "▁dogal": 6875,
      "ke": 6876,
      "▁kıv": 6877,
      "▁iri": 6878,
      "larda": 6879,
      "▁durgunluk": 6880,
      "35": 6881,
      "eler": 6882,
      "▁tasar": 6883,
      "▁form": 6884,
      "▁balk": 6885,
      "▁celik": 6886,
      "▁gayrimenkul": 6887,
      "▁11": 6888,
      "▁haklı": 6889,
      "▁yapmak": 6890,
      "▁10000": 6891,
      "▁lı": 6892,
      "net": 6893,
      "▁yoneticileri": 6894,
      "▁ureticisi": 6895,
      "abi": 6896,
      "▁mecbur": 6897,
      "▁etmisti": 6898,
      "▁genelde": 6899,
      "▁proj": 6900,
      "▁gem": 6901,
      "▁hisse": 6902,
      "▁cleveland'a": 6903,
      "▁bence": 6904,
      "tia": 6905,
      "▁bizim": 6906,
      "ebil": 6907,
      "▁hijyen": 6908,
      "▁cercev": 6909,
      "lerimi": 6910,
      "▁amerik": 6911,
      "orth": 6912,
      "▁dakikada": 6913,
      "adır": 6914,
      "'ye": 6915,
      "tık": 6916,
      "▁yiy": 6917,
      "▁onun": 6918,
      "▁yurtdıs": 6919,
      "▁met": 6920,
      "▁sus": 6921,
      "▁allah": 6922,
      "▁york": 6923,
      "▁kiz": 6924,
      "ef": 6925,
      "▁hanimla": 6926,
      "▁calismas": 6927,
      "urken": 6928,
      "▁mol": 6929,
      "▁milwa": 6930,
      "▁memnunuz": 6931,
      "ahi": 6932,
      "rup": 6933,
      "▁ustu": 6934,
      "▁seker": 6935,
      "gar": 6936,
      "obr": 6937,
      "▁mektup": 6938,
      "▁tat": 6939,
      "▁may": 6940,
      "▁duser": 6941,
      "▁bize": 6942,
      "eme": 6943,
      "hane": 6944,
      "▁gelin": 6945,
      "▁.\"": 6946,
      "▁gures": 6947,
      "▁aynı": 6948,
      "acak": 6949,
      "▁seyler": 6950,
      "▁isp": 6951,
      "▁%22": 6952,
      "▁yunan": 6953,
      "▁klim": 6954,
      "▁aran": 6955,
      "▁bah": 6956,
      "▁%14": 6957,
      "all": 6958,
      ".55": 6959,
      "▁1\\/8": 6960,
      "▁alamadik": 6961,
      "▁yerel": 6962,
      "ilere": 6963,
      "tak": 6964,
      "▁konuyu": 6965,
      "▁egz": 6966,
      "onu": 6967,
      "▁cogunlukla": 6968,
      "▁ben": 6969,
      "▁belirt": 6970,
      "▁mosk": 6971,
      "▁19": 6972,
      "▁5.1": 6973,
      "▁yoksul": 6974,
      "▁soyluyor": 6975,
      "ong": 6976,
      "lis": 6977,
      "▁icine": 6978,
      "▁birbirine": 6979,
      "▁istih": 6980,
      "-4": 6981,
      "▁buyut": 6982,
      "▁sahib": 6983,
      "▁sarkı": 6984,
      "ester": 6985,
      "▁yonetic": 6986,
      "eye": 6987,
      "▁deger": 6988,
      "▁aslında": 6989,
      ".19": 6990,
      "og": 6991,
      "▁detroit'e": 6992,
      "itt": 6993,
      "bet": 6994,
      "▁sil": 6995,
      "▁seviyesinden": 6996,
      "▁bl": 6997,
      "▁dipl": 6998,
      "▁gayret": 6999,
      "▁urunler": 7000,
      "▁kurulu": 7001,
      "hut": 7002,
      "▁biriler": 7003,
      "▁ila": 7004,
      "▁verdiler": 7005,
      "▁soylen": 7006,
      "▁yerlestir": 7007,
      "▁yemeklerin": 7008,
      "dık": 7009,
      "▁buyuy": 7010,
      "▁bulundu": 7011,
      "▁6.4": 7012,
      "▁koltuk": 7013,
      "▁south": 7014,
      "▁sahibi": 7015,
      "▁yanl": 7016,
      "▁gog": 7017,
      "dıklarını": 7018,
      "▁firmalar": 7019,
      "▁cekti": 7020,
      "▁uzerine": 7021,
      "▁sos": 7022,
      "▁ogr": 7023,
      "▁tık": 7024,
      "zi": 7025,
      "▁bırak": 7026,
      "▁olmayı": 7027,
      "lamak": 7028,
      "▁dogur": 7029,
      "▁ada": 7030,
      "▁yerinden": 7031,
      "▁yuz": 7032,
      "▁polon": 7033,
      "▁rapor": 7034,
      "▁otel": 7035,
      "▁yapar": 7036,
      "▁ziyade": 7037,
      "▁babasının": 7038,
      "▁varıyor": 7039,
      "lerle": 7040,
      "▁hanım": 7041,
      "▁yagm": 7042,
      "larımızı": 7043,
      "▁%6": 7044,
      "▁arkasında": 7045,
      "▁bazılarının": 7046,
      "▁amerikalı": 7047,
      "▁yataklar": 7048,
      "▁yapacak": 7049,
      "▁aileye": 7050,
      "▁ayak": 7051,
      "his": 7052,
      "▁ikram": 7053,
      "▁kav": 7054,
      "makla": 7055,
      "inal": 7056,
      "▁teker": 7057,
      "▁dengesi": 7058,
      "▁bisiklet": 7059,
      "▁secen": 7060,
      "▁rehberimiz": 7061,
      "amadan": 7062,
      "kin": 7063,
      "▁koc": 7064,
      "▁gelis": 7065,
      "elim": 7066,
      "3.8": 7067,
      "ag": 7068,
      "▁bag": 7069,
      "▁tor": 7070,
      "ulması": 7071,
      "▁binbir": 7072,
      "▁dolardan": 7073,
      "ılıyor": 7074,
      "▁kul": 7075,
      "bar": 7076,
      "iciler": 7077,
      "▁diplom": 7078,
      "▁doktor": 7079,
      "mu": 7080,
      "▁mod": 7081,
      "▁takdirde": 7082,
      "▁yolc": 7083,
      "atır": 7084,
      "ital": 7085,
      "▁lezzet": 7086,
      "umus": 7087,
      "▁str": 7088,
      "90": 7089,
      "▁cum": 7090,
      "iyak": 7091,
      "evi": 7092,
      "▁adını": 7093,
      "▁sizin": 7094,
      "ket": 7095,
      "5-1": 7096,
      "iness": 7097,
      "akende": 7098,
      "27": 7099,
      "▁denem": 7100,
      "tıktan": 7101,
      "▁gosterir": 7102,
      "▁fev": 7103,
      "▁1.8": 7104,
      "▁secildi": 7105,
      "▁merh": 7106,
      "▁dinlem": 7107,
      "▁gelen": 7108,
      "onom": 7109,
      "uyoruz": 7110,
      ".70": 7111,
      "sa": 7112,
      "onel": 7113,
      "eo": 7114,
      "▁dustu": 7115,
      "▁sıkıstır": 7116,
      "▁ucaga": 7117,
      "▁hap": 7118,
      "▁cr": 7119,
      "▁fiili": 7120,
      "▁hakkında": 7121,
      "lı": 7122,
      "▁dogum": 7123,
      "▁olsa": 7124,
      "eydi": 7125,
      "iyim": 7126,
      "▁basına": 7127,
      "▁dolu": 7128,
      "▁pla": 7129,
      "agıt": 7130,
      "▁yetkil": 7131,
      "▁chicago'ya": 7132,
      "liler": 7133,
      "ız": 7134,
      "▁iliski": 7135,
      "maktadır": 7136,
      "▁lim": 7137,
      "▁2.3": 7138,
      "▁num": 7139,
      "ilm": 7140,
      "▁%7.7": 7141,
      "▁tarz": 7142,
      "re": 7143,
      "▁ardından": 7144,
      "▁odasına": 7145,
      "▁peters": 7146,
      "vek": 7147,
      "izasyon": 7148,
      "ni": 7149,
      "▁mutlu": 7150,
      "▁karıs": 7151,
      "▁doları": 7152,
      "▁kurum": 7153,
      "▁61": 7154,
      "-19": 7155,
      "emem": 7156,
      "▁sozcuk": 7157,
      "▁1984": 7158,
      "▁muhendis": 7159,
      "▁mısıl": 7160,
      "▁babamın": 7161,
      "▁kimden": 7162,
      "▁omz": 7163,
      "▁huseyin": 7164,
      "▁yeterli": 7165,
      "eten": 7166,
      "▁cok": 7167,
      "▁hacim": 7168,
      "▁dusuktu": 7169,
      "▁pant": 7170,
      "▁ortadan": 7171,
      "▁columbus'tan": 7172,
      "▁madde": 7173,
      "oglu": 7174,
      "▁bagım": 7175,
      "▁kolay": 7176,
      "▁%7.5": 7177,
      "dugunu": 7178,
      "▁kanun": 7179,
      "▁36": 7180,
      "▁per": 7181,
      "▁and": 7182,
      "▁kard": 7183,
      "▁ucuncu": 7184,
      "▁dc'ye": 7185,
      "iyet": 7186,
      "▁yapıldı": 7187,
      "▁vir": 7188,
      "▁ara": 7189,
      "▁sozu": 7190,
      "acılık": 7191,
      "▁mehmet": 7192,
      "mek": 7193,
      "▁egemen": 7194,
      "▁kasım'da": 7195,
      "ul": 7196,
      "▁pittsburgh": 7197,
      "▁fiyatı": 7198,
      "▁ingiltere": 7199,
      "▁3/4": 7200,
      "▁nedeni": 7201,
      "▁aman": 7202,
      "tiler": 7203,
      "▁kapattı": 7204,
      "▁kahvaltisi": 7205,
      "▁oluyor": 7206,
      "▁gecti": 7207,
      "ıcak": 7208,
      "ista": 7209,
      "▁hakan": 7210,
      "▁sız": 7211,
      "▁mars": 7212,
      "afet": 7213,
      "▁5000": 7214,
      "▁tohum": 7215,
      "sına": 7216,
      "ing": 7217,
      "▁ister": 7218,
      "'yu": 7219,
      "▁ihtiy": 7220,
      "gıl": 7221,
      "▁avuc": 7222,
      "▁durus": 7223,
      "▁express": 7224,
      "tıkları": 7225,
      "'yi": 7226,
      "▁5.3": 7227,
      "mustum": 7228,
      "ek": 7229,
      "▁bekleniyor": 7230,
      "▁3.5": 7231,
      "▁ogl": 7232,
      "▁s": 7233,
      "▁ıskar": 7234,
      "sam": 7235,
      "▁kab": 7236,
      "▁yasama": 7237,
      "▁sat": 7238,
      "5'te": 7239,
      "▁ucu": 7240,
      "▁almanya": 7241,
      "▁avrupa'da": 7242,
      "▁ardı": 7243,
      "▁anı": 7244,
      "▁basın": 7245,
      "ir": 7246,
      "▁edildi": 7247,
      "'nun": 7248,
      "▁lamb": 7249,
      "vır": 7250,
      "int": 7251,
      "▁3.8": 7252,
      "lesi": 7253,
      "▁yarat": 7254,
      "▁leri": 7255,
      "▁adlandır": 7256,
      "masından": 7257,
      "▁aracı": 7258,
      "▁anlama": 7259,
      "▁yapan": 7260,
      "▁kızgın": 7261,
      "▁ulasımı": 7262,
      "▁birlik": 7263,
      "▁ikiyuz": 7264,
      "▁fas": 7265,
      "▁hij": 7266,
      "▁olmaya": 7267,
      "uc": 7268,
      "▁hil": 7269,
      "▁evine": 7270,
      "▁5/8": 7271,
      "/": 7272,
      "▁mey": 7273,
      "▁seb": 7274,
      "▁ideal": 7275,
      "▁bedel": 7276,
      "▁hafta": 7277,
      "ahat": 7278,
      "▁sıngır": 7279,
      "inize": 7280,
      "▁esn": 7281,
      "▁sifir": 7282,
      "▁komun": 7283,
      "▁calisanlar": 7284,
      "▁sene": 7285,
      "▁lek": 7286,
      "▁onca": 7287,
      "▁pıtır": 7288,
      "▁alacaklı": 7289,
      "▁ov": 7290,
      "▁sesleri": 7291,
      "taki": 7292,
      "▁tad": 7293,
      "▁asıl": 7294,
      "▁ucusta": 7295,
      "▁gez": 7296,
      "▁sag": 7297,
      "▁odam": 7298,
      "▁batı": 7299,
      "▁yken": 7300,
      "▁kalk": 7301,
      "▁sektor": 7302,
      "▁tel": 7303,
      "lıgını": 7304,
      "iber": 7305,
      "▁ul": 7306,
      "sas": 7307,
      "'deki": 7308,
      "▁cabuk": 7309,
      "▁pers": 7310,
      "▁sıcak": 7311,
      "80": 7312,
      "▁sirketinin": 7313,
      "▁satısa": 7314,
      "▁110": 7315,
      "▁uzerinde": 7316,
      "▁yuzunu": 7317,
      "▁musait": 7318,
      "▁osmanlı": 7319,
      "▁park": 7320,
      "▁mucadele": 7321,
      "irmi": 7322,
      "astır": 7323,
      "▁canım": 7324,
      "▁kazan": 7325,
      "lerine": 7326,
      "▁goze": 7327,
      "▁farklı": 7328,
      "▁acıp": 7329,
      "▁puana": 7330,
      "eyi": 7331,
      "▁nesi": 7332,
      "▁tedbir": 7333,
      "▁2005": 7334,
      "▁olabilecegini": 7335,
      "'taki": 7336,
      "▁merdiven": 7337,
      "▁isi": 7338,
      "▁lazım": 7339,
      "lerce": 7340,
      "▁flori": 7341,
      "▁uzerindeki": 7342,
      "▁minneapolis": 7343,
      "▁1\\/2": 7344,
      "▁diyorlar": 7345,
      "▁ucretin": 7346,
      "▁sermay": 7347,
      "▁robert": 7348,
      "▁tez": 7349,
      "▁etme": 7350,
      "▁1992": 7351,
      "cilerin": 7352,
      "▁uzat": 7353,
      "▁gelir": 7354,
      "▁olurdu": 7355,
      "▁sis": 7356,
      "▁dizi": 7357,
      "de": 7358,
      "han": 7359,
      "▁elektr": 7360,
      "▁bakim": 7361,
      "tre": 7362,
      "o": 7363,
      "▁yor": 7364,
      "ımıza": 7365,
      "▁kacır": 7366,
      "▁hin": 7367,
      "sk": 7368,
      "▁masa": 7369,
      "▁arabayı": 7370,
      "/8'e": 7371,
      "ara": 7372,
      "tari": 7373,
      "▁bilmek": 7374,
      "lit": 7375,
      "▁mahalle": 7376,
      "▁kapandı": 7377,
      "irken": 7378,
      "▁yerleri": 7379,
      "▁yusu": 7380,
      "▁pilot": 7381,
      "▁yumurt": 7382,
      "▁parlam": 7383,
      "▁eve": 7384,
      "lası": 7385,
      "▁attı": 7386,
      "▁fingir": 7387,
      "▁yıllarca": 7388,
      "▁olduguna": 7389,
      "▁tehdit": 7390,
      "▁bod": 7391,
      "▁sakal": 7392,
      "tiy": 7393,
      "▁olagan": 7394,
      ">": 7395,
      "▁sorunun": 7396,
      "▁financi": 7397,
      "▁itiraz": 7398,
      "▁yapmaktan": 7399,
      "▁financial": 7400,
      "▁..\"": 7401,
      "erdi": 7402,
      "▁emre": 7403,
      "▁heyecan": 7404,
      "▁kampanya": 7405,
      "uyor": 7406,
      "ıda": 7407,
      "▁hisseleri": 7408,
      "▁mc": 7409,
      "▁rad": 7410,
      "▁dolasır": 7411,
      "▁zaten": 7412,
      "aj": 7413,
      "▁yerles": 7414,
      "▁yur": 7415,
      "▁onumuzdeki": 7416,
      "▁disiplin": 7417,
      "ıza": 7418,
      "▁etraf": 7419,
      "▁boyut": 7420,
      "▁s&": 7421,
      "ektr": 7422,
      "▁bulus": 7423,
      "▁duzelt": 7424,
      "▁salon": 7425,
      "▁felaket": 7426,
      "leri": 7427,
      "▁kesint": 7428,
      "ayıp": 7429,
      "▁pan": 7430,
      "▁der": 7431,
      "▁diz": 7432,
      "▁yeme": 7433,
      "oster": 7434,
      "▁cid": 7435,
      "ihan": 7436,
      "▁hisset": 7437,
      "▁ded": 7438,
      "▁1\\/4": 7439,
      "▁nef": 7440,
      "▁sad": 7441,
      "▁kucuktu": 7442,
      "lor": 7443,
      "▁uluslar": 7444,
      "▁gitt": 7445,
      "▁engel": 7446,
      "▁kutur": 7447,
      "▁bilgiye": 7448,
      "▁paranin": 7449,
      "dat": 7450,
      "ita": 7451,
      "▁degilim": 7452,
      "▁carsamba": 7453,
      "imizi": 7454,
      "ens": 7455,
      "▁7/8": 7456,
      "▁cogunu": 7457,
      "▁gitmeyi": 7458,
      "▁geldigi": 7459,
      "▁aktiv": 7460,
      "▁meger": 7461,
      "asyonu": 7462,
      "agından": 7463,
      "▁super": 7464,
      "▁personelden": 7465,
      "▁yogun": 7466,
      "▁kıyafet": 7467,
      "ediye": 7468,
      "▁bekliyor": 7469,
      "▁etmem": 7470,
      "teb": 7471,
      "▁esit": 7472,
      "abilir": 7473,
      "▁gurur": 7474,
      "▁trust": 7475,
      "▁soh": 7476,
      "▁ord": 7477,
      "▁130": 7478,
      "▁surdur": 7479,
      "cının": 7480,
      "▁sms": 7481,
      "▁dusunmuyor": 7482,
      "▁gerc": 7483,
      "▁duvarlar": 7484,
      "▁ıcı": 7485,
      "▁bet": 7486,
      "▁harik": 7487,
      "▁aptal": 7488,
      "▁araba": 7489,
      "▁kaybol": 7490,
      "▁fiyatlar": 7491,
      "tel": 7492,
      "meyecek": 7493,
      "na": 7494,
      "▁birbir": 7495,
      "▁kaymak": 7496,
      "▁kadının": 7497,
      "▁kucak": 7498,
      "▁dol": 7499,
      "▁cur": 7500,
      "muyor": 7501,
      "ken": 7502,
      "▁yerli": 7503,
      "▁olabilir": 7504,
      "▁tuttu": 7505,
      "▁mimar": 7506,
      "▁yara": 7507,
      "▁metr": 7508,
      "▁alanda": 7509,
      "▁servis": 7510,
      "▁turkiye'de": 7511,
      "esinin": 7512,
      "▁aksamı": 7513,
      "▁iran": 7514,
      "emb": 7515,
      "▁gozden": 7516,
      "\\/32": 7517,
      "▁bahseder": 7518,
      "▁sch": 7519,
      "▁birbirimiz": 7520,
      "▁..": 7521,
      "ınıyor": 7522,
      "▁mevcut": 7523,
      "▁demokratik": 7524,
      "inden": 7525,
      "oh": 7526,
      "▁barda": 7527,
      "▁isv": 7528,
      "▁getiriyor": 7529,
      "▁kasab": 7530,
      "ayacak": 7531,
      "amb": 7532,
      "▁new": 7533,
      "▁6": 7534,
      "▁zayifti": 7535,
      "▁karn": 7536,
      "▁%1": 7537,
      "▁okur": 7538,
      "▁korum": 7539,
      "mus": 7540,
      "▁yut": 7541,
      "▁chicago": 7542,
      "▁yazar": 7543,
      "▁yaklasimi": 7544,
      "▁durumda": 7545,
      "2-23": 7546,
      "▁aralık'ta": 7547,
      "92": 7548,
      "▁istiyor": 7549,
      "▁kullanıyor": 7550,
      "▁%0": 7551,
      "▁%18": 7552,
      "▁cesi": 7553,
      "▁boy": 7554,
      "▁nereden": 7555,
      "tis": 7556,
      "▁port": 7557,
      "▁nam": 7558,
      "▁sirketi": 7559,
      "▁telef": 7560,
      "▁olmaz": 7561,
      "▁guler": 7562,
      "▁tartıs": 7563,
      "▁bost": 7564,
      "ze": 7565,
      "ilerinin": 7566,
      "▁man": 7567,
      "iyel": 7568,
      "▁sını": 7569,
      "▁miami": 7570,
      "▁dusur": 7571,
      "▁...\"": 7572,
      "▁olmadı": 7573,
      "▁%17": 7574,
      "▁kimseye": 7575,
      "▁istiyordu": 7576,
      "▁denize": 7577,
      "▁kurtar": 7578,
      "vest": 7579,
      "▁m": 7580,
      "mamalı": 7581,
      "▁2.8": 7582,
      "▁st": 7583,
      "▁cekildi": 7584,
      "k": 7585,
      "▁ayr": 7586,
      "▁ahmet": 7587,
      "▁pisti": 7588,
      "▁altındaki": 7589,
      "vili": 7590,
      "▁ayında": 7591,
      "larına": 7592,
      ".": 7593,
      "ham": 7594,
      "▁renk": 7595,
      "▁tahvilleri": 7596,
      "▁sem": 7597,
      "▁yed": 7598,
      "▁dalgalan": 7599,
      "▁oraya": 7600,
      "▁girmis": 7601,
      "▁aktarmalı": 7602,
      "yla": 7603,
      "▁duzey": 7604,
      "▁sorun": 7605,
      "uk": 7606,
      "▁yıllarda": 7607,
      "▁ceb": 7608,
      "egi": 7609,
      "▁isteyen": 7610,
      "ac": 7611,
      "iki": 7612,
      "▁oyuncu": 7613,
      "▁edeb": 7614,
      "▁asag": 7615,
      "▁yemekleri": 7616,
      "al": 7617,
      "▁kampan": 7618,
      "vey": 7619,
      "▁mezar": 7620,
      "▁ulasılamadı": 7621,
      "▁west": 7622,
      "▁soyleyen": 7623,
      "▁bardagı": 7624,
      "embe": 7625,
      "▁phoenix": 7626,
      "tigini": 7627,
      "▁muhalef": 7628,
      "▁konus": 7629,
      "ulmaz": 7630,
      "ahh": 7631,
      "▁cal": 7632,
      "omet": 7633,
      "indeki": 7634,
      "▁yuzde": 7635,
      "ede": 7636,
      "▁425": 7637,
      "▁komisyonu": 7638,
      "▁kalmıs": 7639,
      "▁falan": 7640,
      "▁747": 7641,
      "▁yılda": 7642,
      "▁tahsil": 7643,
      "▁pitt": 7644,
      "▁samp": 7645,
      "▁calisanlari": 7646,
      "▁istik": 7647,
      "▁cumhuriyeti": 7648,
      "▁nit": 7649,
      "▁piyasaya": 7650,
      "▁kalp": 7651,
      "▁turkce": 7652,
      "▁siyah": 7653,
      "▁cap": 7654,
      "▁dalgın": 7655,
      "▁derec": 7656,
      "▁uygun": 7657,
      "▁tasıyan": 7658,
      "▁des": 7659,
      "▁siz": 7660,
      "_": 7661,
      "▁beklentiler": 7662,
      "▁chicag": 7663,
      "▁diyordu": 7664,
      "▁ikibinuc": 7665,
      "▁adina": 7666,
      "▁part": 7667,
      "il": 7668,
      "▁merk": 7669,
      "'nın": 7670,
      "▁yaptık": 7671,
      "▁haf": 7672,
      "▁hakkı": 7673,
      "▁ayn": 7674,
      "▁gectik": 7675,
      "▁saatlerde": 7676,
      "▁oteller": 7677,
      "ustur": 7678,
      "▁musun": 7679,
      "▁elinden": 7680,
      "▁bircok": 7681,
      "esine": 7682,
      "▁3.": 7683,
      "▁yet": 7684,
      "enk": 7685,
      "▁oldular": 7686,
      "▁komitesi": 7687,
      "▁sanayi": 7688,
      "'nin": 7689,
      "▁konumunu": 7690,
      "'te": 7691,
      "gel": 7692,
      "layıp": 7693,
      "▁degiller": 7694,
      "▁mar": 7695,
      "▁kosul": 7696,
      "diniz": 7697,
      "▁sikin": 7698,
      "▁cent": 7699,
      "▁iskont": 7700,
      "▁ucan": 7701,
      "▁yen": 7702,
      "lardır": 7703,
      "raf": 7704,
      "▁cekil": 7705,
      "imin": 7706,
      "▁okuy": 7707,
      "▁pal": 7708,
      "▁saz": 7709,
      "▁por": 7710,
      "nan": 7711,
      "isini": 7712,
      "indan": 7713,
      "▁ucusun": 7714,
      "▁ustelik": 7715,
      "-sat": 7716,
      "▁bez": 7717,
      "▁bircog": 7718,
      "▁cocuk": 7719,
      "▁tasın": 7720,
      "on'un": 7721,
      "▁kendini": 7722,
      "▁yeri": 7723,
      "▁dugun": 7724,
      "ana": 7725,
      "▁sub": 7726,
      "▁belediye": 7727,
      "▁bask": 7728,
      "▁vad": 7729,
      "endim": 7730,
      "▁artık": 7731,
      "▁dun": 7732,
      "▁satısı": 7733,
      "▁ruzgar": 7734,
      "▁buk": 7735,
      "▁dug": 7736,
      "▁siy": 7737,
      "▁bulan": 7738,
      "▁sehre": 7739,
      "igin": 7740,
      ")": 7741,
      "lt": 7742,
      "▁lond": 7743,
      "▁prof": 7744,
      "▁duruyordu": 7745,
      "▁hanim": 7746,
      "▁endustr": 7747,
      "▁birbirlerine": 7748,
      "▁icim": 7749,
      "yor": 7750,
      "▁film": 7751,
      "alandır": 7752,
      "▁benziyor": 7753,
      "min": 7754,
      "▁ah": 7755,
      "▁butun": 7756,
      "▁olmadan": 7757,
      "mıs": 7758,
      "▁lezzetli": 7759,
      "▁temizdi": 7760,
      "line": 7761,
      "▁tok": 7762,
      "▁dekor": 7763,
      "▁modern": 7764,
      "▁kurulan": 7765,
      "▁muhaf": 7766,
      "▁zırt": 7767,
      "▁gogus": 7768,
      "▁degilsiniz": 7769,
      "atını": 7770,
      "▁din": 7771,
      "▁demir": 7772,
      "▁havası": 7773,
      "▁emin": 7774,
      "▁ku": 7775,
      "▁islerini": 7776,
      "gru": 7777,
      "imizin": 7778,
      "▁olacaktır": 7779,
      "▁disip": 7780,
      "▁mail": 7781,
      "▁nufus": 7782,
      "▁olmasi": 7783,
      "▁law": 7784,
      "gimiz": 7785,
      "▁gazetec": 7786,
      "dokuz": 7787,
      "▁muc": 7788,
      "▁ikibin": 7789,
      "▁miz": 7790,
      "▁1983": 7791,
      "▁pirinc": 7792,
      "▁halinde": 7793,
      "2.1": 7794,
      "▁cevirdi": 7795,
      "▁kutu": 7796,
      "▁ailenin": 7797,
      "▁cıplak": 7798,
      "▁hast": 7799,
      "▁diyen": 7800,
      "▁baslay": 7801,
      "▁acıl": 7802,
      "▁1.6": 7803,
      "▁degillerdi": 7804,
      "▁dayalı": 7805,
      ".6": 7806,
      "▁c": 7807,
      "▁elde": 7808,
      "▁g": 7809,
      "▁dal": 7810,
      "▁alman": 7811,
      "▁yaptik": 7812,
      "urlu": 7813,
      "▁orlando'ya": 7814,
      "▁cunku": 7815,
      "▁ogren": 7816,
      "▁tuk": 7817,
      "▁67": 7818,
      "▁giris": 7819,
      "▁makal": 7820,
      "▁konfer": 7821,
      "▁ailelere": 7822,
      "▁rek": 7823,
      "▁sep": 7824,
      "iyorum": 7825,
      "▁california'ya": 7826,
      "lugu": 7827,
      "ons": 7828,
      "ecik": 7829,
      "▁ut": 7830,
      "ebi": 7831,
      "tı": 7832,
      "▁baktı": 7833,
      "▁odamiz": 7834,
      "kat": 7835,
      "▁buf": 7836,
      "egini": 7837,
      "▁sirketin": 7838,
      "▁oldu": 7839,
      "▁22": 7840,
      "▁veriyor": 7841,
      "▁spekul": 7842,
      "pr": 7843,
      "▁%9.": 7844,
      "-p": 7845,
      "▁acı": 7846,
      "▁lutf": 7847,
      "ika": 7848,
      "▁carp": 7849,
      "aklı": 7850,
      "▁kade": 7851,
      "▁yakından": 7852,
      "▁buyume": 7853,
      "▁konuda": 7854,
      "▁mark": 7855,
      "▁faturam": 7856,
      "etik": 7857,
      "▁biraz": 7858,
      "66": 7859,
      "▁milli": 7860,
      "▁arasında": 7861,
      "ex": 7862,
      ".03": 7863,
      "lama": 7864,
      "▁dusunur": 7865,
      "maya": 7866,
      "ilerin": 7867,
      "▁asla": 7868,
      "▁bekley": 7869,
      "▁coz": 7870,
      "▁pitts": 7871,
      "mada": 7872,
      "▁got": 7873,
      "▁piyasası": 7874,
      "°": 7875,
      "ard": 7876,
      "▁%3.43": 7877,
      "▁seviyesine": 7878,
      "▁hug": 7879,
      "miz": 7880,
      "inizi": 7881,
      "▁enerji": 7882,
      "▁subay": 7883,
      "te": 7884,
      "▁ruh": 7885,
      "▁oran": 7886,
      "▁genclik": 7887,
      "▁fazla": 7888,
      "ch": 7889,
      "▁kazanan": 7890,
      "▁olmustur": 7891,
      "▁fu": 7892,
      "▁hızlı": 7893,
      "▁uzaktan": 7894,
      "▁bildirdi": 7895,
      "▁yuc": 7896,
      "lılık": 7897,
      "▁arttı": 7898,
      "▁sey": 7899,
      "▁usta": 7900,
      "atin": 7901,
      "▁ilgilendi": 7902,
      "masın": 7903,
      "▁meh": 7904,
      "▁oturuyor": 7905,
      "▁vadeli": 7906,
      "▁morgan": 7907,
      "ecektir": 7908,
      "▁sin": 7909,
      "mez": 7910,
      "▁haykır": 7911,
      "dik": 7912,
      "kur": 7913,
      "▁ısık": 7914,
      "▁houston": 7915,
      "▁dalga": 7916,
      "▁ekonom": 7917,
      "inci": 7918,
      "▁uzay": 7919,
      "▁r": 7920,
      "▁bilir": 7921,
      "▁tablo": 7922,
      "▁400": 7923,
      "▁of": 7924,
      "▁cop": 7925,
      "▁los": 7926,
      "ıtır": 7927,
      "▁bir": 7928,
      "▁louis": 7929,
      "▁ra": 7930,
      "▁1988": 7931,
      "▁85": 7932,
      "▁acil": 7933,
      "32": 7934,
      ".65": 7935,
      "▁ani": 7936,
      "▁john": 7937,
      "▁altıncı": 7938,
      "▁konumundan": 7939,
      "ıy": 7940,
      "▁tuy": 7941,
      "ırk": 7942,
      "▁verdigim": 7943,
      "▁yasam": 7944,
      "▁otom": 7945,
      "dog": 7946,
      "dy": 7947,
      "▁onune": 7948,
      "ob": 7949,
      "▁diken": 7950,
      "▁soyluyorlar": 7951,
      "▁0.25": 7952,
      "▁kalır": 7953,
      "▁basarısız": 7954,
      "▁kimin": 7955,
      "ahtar": 7956,
      "▁yahu": 7957,
      "▁bazen": 7958,
      "isinden": 7959,
      "▁istanbul": 7960,
      "▁motor": 7961,
      "▁fakat": 7962,
      "▁sogut": 7963,
      "▁bic": 7964,
      "▁39": 7965,
      "▁du": 7966,
      "▁2.7": 7967,
      "graf": 7968,
      "▁zir": 7969,
      "iti": 7970,
      "▁sayesinde": 7971,
      "▁okun": 7972,
      "▁sofr": 7973,
      "cekti": 7974,
      "▁bizden": 7975,
      "▁lo": 7976,
      "▁tesp": 7977,
      "▁cevap": 7978,
      "asız": 7979,
      "iye": 7980,
      "▁hangileri": 7981,
      "▁uyustur": 7982,
      "▁anahtar": 7983,
      "▁kurtul": 7984,
      "▁ref": 7985,
      "ımları": 7986,
      "lanmıs": 7987,
      "▁heykel": 7988,
      "elerine": 7989,
      "▁onlarla": 7990,
      "arım": 7991,
      "▁muhendi": 7992,
      "ısı": 7993,
      "▁analist": 7994,
      "▁hit": 7995,
      "▁neresi": 7996,
      "'nde": 7997,
      "▁yaptılar": 7998,
      "▁dortluk": 7999,
      "ilmis": 8000,
      "▁%3.5": 8001,
      "▁ederim": 8002,
      "▁degisim": 8003,
      "mazlar": 8004,
      "▁zamanlar": 8005,
      "amıstı": 8006,
      "▁simdilik": 8007,
      "▁osman": 8008,
      "▁degisik": 8009,
      "▁gunumuz": 8010,
      "▁manc": 8011,
      "▁gorduk": 8012,
      "per": 8013,
      "▁ıskarta": 8014,
      "▁mıyım": 8015,
      "ladıgını": 8016,
      "▁birine": 8017,
      "▁bekleyen": 8018,
      "▁soguk": 8019,
      "▁oldum": 8020,
      "olog": 8021,
      "larındaki": 8022,
      "▁yoktur": 8023,
      "▁gozu": 8024,
      "▁acar": 8025,
      "▁elbis": 8026,
      "▁oburu": 8027,
      "digi": 8028,
      "▁geriledi": 8029,
      "ıcık": 8030,
      "b.": 8031,
      "▁plan": 8032,
      "'ya": 8033,
      "▁yapıl": 8034,
      "▁an": 8035,
      "▁catıs": 8036,
      "▁memphis'e": 8037,
      "▁yetersiz": 8038,
      "ınızı": 8039,
      "eleriyle": 8040,
      "▁halka": 8041,
      "▁kisinin": 8042,
      "▁getirir": 8043,
      "menin": 8044,
      "100": 8045,
      "▁degeri": 8046,
      "emin": 8047,
      "oeni": 8048,
      "ent": 8049,
      "▁istir": 8050,
      "ırı": 8051,
      "▁calı": 8052,
      "▁derler": 8053,
      "▁civarında": 8054,
      "asıyor": 8055,
      "▁yıldan": 8056,
      "▁kanıt": 8057,
      "▁fotograf": 8058,
      "▁kası": 8059,
      "▁anlay": 8060,
      "▁pol": 8061,
      "ry": 8062,
      "▁16": 8063,
      "▁yen'e": 8064,
      "▁pahaliydi": 8065,
      "▁girer": 8066,
      "liyorum": 8067,
      "▁garanti": 8068,
      "amı": 8069,
      "▁ihtim": 8070,
      "▁artarak": 8071,
      "eyen": 8072,
      "▁bas": 8073,
      "▁isin": 8074,
      "▁degildim": 8075,
      "▁karayol": 8076,
      "▁fiyatları": 8077,
      "▁yaglı": 8078,
      "▁kirliydi": 8079,
      "chell": 8080,
      "▁bakanlıgı": 8081,
      "▁kahraman": 8082,
      "▁bitti": 8083,
      "▁gen": 8084,
      "▁durumunda": 8085,
      "▁cocuklar": 8086,
      "umda": 8087,
      "mustur": 8088,
      "▁gidiyor": 8089,
      "ardan": 8090,
      "i": 8091,
      "▁payı": 8092,
      "▁paran": 8093,
      "▁duvara": 8094,
      "▁sıkın": 8095,
      "▁o": 8096,
      "▁suyunu": 8097,
      "|": 8098,
      "▁%12": 8099,
      "▁cıkacak": 8100,
      "▁73": 8101,
      "▁al": 8102,
      "▁serg": 8103,
      "ımdan": 8104,
      "▁cogal": 8105,
      "▁90": 8106,
      "▁karan": 8107,
      "burg": 8108,
      "layacak": 8109,
      "▁ihtiyar": 8110,
      "cel": 8111,
      "▁ur": 8112,
      "▁haberi": 8113,
      "▁satın": 8114,
      "▁nikah": 8115,
      "▁rich": 8116,
      "▁gelecek": 8117,
      "▁ert": 8118,
      "▁simdi": 8119,
      "▁mecl": 8120,
      "▁sofor": 8121,
      "uv": 8122,
      "▁dir": 8123,
      "▁2.6": 8124,
      "ısının": 8125,
      "▁2008": 8126,
      "▁gol": 8127,
      "▁kerem": 8128,
      "▁icinden": 8129,
      "▁pencer": 8130,
      "▁kalmaya": 8131,
      "▁nasda": 8132,
      "▁kart": 8133,
      "cin": 8134,
      "47": 8135,
      "▁suyu": 8136,
      "▁eylul'de": 8137,
      "▁gecici": 8138,
      "▁atlan": 8139,
      "▁gecmis": 8140,
      "▁guvenlik": 8141,
      "▁angeles'ten": 8142,
      "diler": 8143,
      "▁grup": 8144,
      "▁gi": 8145,
      "▁hul": 8146,
      "▁kep": 8147,
      ".38": 8148,
      "▁parlak": 8149,
      "▁calis": 8150,
      "▁denver": 8151,
      "▁kendinde": 8152,
      "▁var": 8153,
      "▁hukumetin": 8154,
      "▁baslat": 8155,
      "uar": 8156,
      "lim": 8157,
      "biy": 8158,
      "▁3.3": 8159,
      "▁yazılım": 8160,
      "▁gidecek": 8161,
      "▁3.1": 8162,
      "▁gelgelelim": 8163,
      "▁bur": 8164,
      "▁iyil": 8165,
      "▁bulmus": 8166,
      "alıgı": 8167,
      "▁rest": 8168,
      "irim": 8169,
      "▁seyin": 8170,
      "▁tes": 8171,
      "▁namaz": 8172,
      "▁ant": 8173,
      "▁yol": 8174,
      "▁gazet": 8175,
      "▁golge": 8176,
      "▁sek": 8177,
      "▁yuklen": 8178,
      "▁plaj": 8179,
      "▁contin": 8180,
      "iyat": 8181,
      "loy": 8182,
      "ental": 8183,
      "ames": 8184,
      "▁evden": 8185,
      "▁birka": 8186,
      "▁$'dan": 8187,
      "▁gerci": 8188,
      "aseb": 8189,
      "▁halkın": 8190,
      "alardan": 8191
    },
    "merges": [
      [
        "▁ist",
        "iyordu"
      ],
      [
        "b",
        "us"
      ],
      [
        "▁ucret",
        "e"
      ],
      [
        "▁kuz",
        "ey"
      ],
      [
        "▁d",
        "ort"
      ],
      [
        "ıy",
        "dı"
      ],
      [
        "▁hik",
        "ay"
      ],
      [
        "▁dog",
        "ru"
      ],
      [
        "▁edec",
        "egini"
      ],
      [
        "▁toplan",
        "tıs"
      ],
      [
        "▁feder",
        "al"
      ],
      [
        "g",
        "umuz"
      ],
      [
        "u",
        "l"
      ],
      [
        "ını",
        "yor"
      ],
      [
        "▁g",
        "um"
      ],
      [
        "▁ekip",
        "man"
      ],
      [
        "co",
        "g"
      ],
      [
        "▁kor",
        "k"
      ],
      [
        "▁al",
        "lah"
      ],
      [
        "▁olma",
        "sına"
      ],
      [
        "▁7",
        "7"
      ],
      [
        "▁y",
        "emek"
      ],
      [
        "▁mum",
        "kun"
      ],
      [
        "is",
        "el"
      ],
      [
        "▁p",
        "ayı"
      ],
      [
        "▁york",
        "'tan"
      ],
      [
        "▁yap",
        "tır"
      ],
      [
        "▁az",
        "alt"
      ],
      [
        "▁y",
        "ab"
      ],
      [
        "vil",
        "le"
      ],
      [
        "▁ar",
        "ayan"
      ],
      [
        "y",
        "en"
      ],
      [
        "▁tem",
        "iz"
      ],
      [
        "▁h",
        "om"
      ],
      [
        "▁sur",
        "du"
      ],
      [
        "af",
        "ir"
      ],
      [
        "▁yuz",
        "yıl"
      ],
      [
        "▁gay",
        "ret"
      ],
      [
        "▁mil",
        "let"
      ],
      [
        "▁donem",
        "i"
      ],
      [
        "▁muh",
        "ab"
      ],
      [
        "▁yaptir",
        "madim"
      ],
      [
        "▁s",
        "as"
      ],
      [
        "▁ar",
        "d"
      ],
      [
        "▁goster",
        "en"
      ],
      [
        "▁hac",
        "im"
      ],
      [
        "▁kork",
        "ut"
      ],
      [
        "▁muda",
        "hal"
      ],
      [
        "▁14",
        "2"
      ],
      [
        "▁sık",
        "ı"
      ],
      [
        "▁oldu",
        "gu"
      ],
      [
        "-",
        "4"
      ],
      [
        "▁eglen",
        "ce"
      ],
      [
        "▁bun",
        "da"
      ],
      [
        "g",
        "ah"
      ],
      [
        "▁2",
        "0"
      ],
      [
        "▁dun",
        "y"
      ],
      [
        "▁da",
        "n"
      ],
      [
        "ur",
        "u"
      ],
      [
        "▁om",
        "ur"
      ],
      [
        "▁bahs",
        "et"
      ],
      [
        "'",
        "luk"
      ],
      [
        "▁memphis",
        "'ten"
      ],
      [
        "▁p",
        "ol"
      ],
      [
        "t",
        "ım"
      ],
      [
        "▁20",
        "1"
      ],
      [
        "4",
        "7"
      ],
      [
        "▁t",
        "eh"
      ],
      [
        "▁kom",
        "ur"
      ],
      [
        "oloj",
        "ik"
      ],
      [
        "▁2",
        ".5"
      ],
      [
        "▁t",
        "wa"
      ],
      [
        "▁i",
        "f"
      ],
      [
        "▁par",
        "ayı"
      ],
      [
        "▁yaklas",
        "imi"
      ],
      [
        "▁olduk",
        "ları"
      ],
      [
        "▁on",
        "ay"
      ],
      [
        "▁olu",
        "p"
      ],
      [
        "▁cık",
        "tım"
      ],
      [
        "▁",
        "ır"
      ],
      [
        "p",
        "a"
      ],
      [
        "n",
        "a"
      ],
      [
        "▁burbank",
        "'a"
      ],
      [
        "▁196",
        "1"
      ],
      [
        "▁toh",
        "um"
      ],
      [
        "▁getir",
        "en"
      ],
      [
        "▁m",
        "c"
      ],
      [
        "▁dum",
        "an"
      ],
      [
        "d",
        "uz"
      ],
      [
        "d",
        "at"
      ],
      [
        "▁gun",
        "umuz"
      ],
      [
        "▁olm",
        "uyor"
      ],
      [
        "▁yemek",
        "ler"
      ],
      [
        "ay",
        "dı"
      ],
      [
        "al",
        "adı"
      ],
      [
        "▁ay",
        "ında"
      ],
      [
        "▁9",
        "9"
      ],
      [
        "▁fr",
        "ank"
      ],
      [
        "'n",
        "un"
      ],
      [
        "▁zar",
        "f"
      ],
      [
        "▁mendi",
        "l"
      ],
      [
        "▁hap",
        "is"
      ],
      [
        "▁kendi",
        "ler"
      ],
      [
        "ak",
        "lı"
      ],
      [
        "▁kusur",
        "suz"
      ],
      [
        "▁bas",
        "lı"
      ],
      [
        "ıs",
        "ıl"
      ],
      [
        "▁3",
        "0"
      ],
      [
        "▁piyas",
        "aya"
      ],
      [
        "▁gar",
        "anti"
      ],
      [
        "▁ev",
        "den"
      ],
      [
        "ul",
        "ur"
      ],
      [
        "▁intern",
        "et"
      ],
      [
        "▁sag",
        "layacak"
      ],
      [
        "▁y",
        "az"
      ],
      [
        "▁dikkat",
        "li"
      ],
      [
        "▁busbut",
        "un"
      ],
      [
        "i",
        "y"
      ],
      [
        "▁cer",
        "cev"
      ],
      [
        "8",
        "6"
      ],
      [
        "▁sekl",
        "inde"
      ],
      [
        "▁d",
        "r."
      ],
      [
        "ib",
        "ar"
      ],
      [
        "▁kal",
        "maya"
      ],
      [
        "ok",
        "r"
      ],
      [
        "il",
        "l"
      ],
      [
        "▁tes",
        "p"
      ],
      [
        "▁m",
        "ez"
      ],
      [
        "▁dur",
        "gun"
      ],
      [
        "t",
        "aki"
      ],
      [
        "er",
        "n"
      ],
      [
        "▁m",
        "ek"
      ],
      [
        "▁oda",
        "dan"
      ],
      [
        "es",
        "inden"
      ],
      [
        "▁amerik",
        "an"
      ],
      [
        "▁ben",
        "de"
      ],
      [
        "▁3",
        ".5"
      ],
      [
        "▁f",
        "e"
      ],
      [
        "▁verg",
        "isi"
      ],
      [
        "▁siy",
        "ah"
      ],
      [
        "▁gun",
        "ah"
      ],
      [
        "▁colum",
        "bus"
      ],
      [
        "▁tak",
        "ımı"
      ],
      [
        "r",
        "e"
      ],
      [
        "g",
        "imiz"
      ],
      [
        "▁dur",
        "us"
      ],
      [
        "▁kay",
        "bet"
      ],
      [
        "is",
        "indan"
      ],
      [
        "▁birbirler",
        "iyle"
      ],
      [
        "▁ust",
        "unde"
      ],
      [
        "▁gec",
        "enin"
      ],
      [
        "▁v",
        "et"
      ],
      [
        "▁s",
        "u"
      ],
      [
        "▁se",
        "kiz"
      ],
      [
        "▁al",
        "ak"
      ],
      [
        "▁sey",
        "leri"
      ],
      [
        "▁s",
        "ic"
      ],
      [
        "▁",
        "ak"
      ],
      [
        "▁kol",
        "ay"
      ],
      [
        "▁gir",
        "di"
      ],
      [
        "ers",
        "iz"
      ],
      [
        "s",
        "al"
      ],
      [
        "uyor",
        "um"
      ],
      [
        "▁hal",
        "e"
      ],
      [
        "im",
        "de"
      ],
      [
        "lar",
        "dı"
      ],
      [
        "u",
        "b"
      ],
      [
        "▁v",
        "apur"
      ],
      [
        "▁an",
        "dır"
      ],
      [
        "is",
        "ik"
      ],
      [
        "▁c",
        "alar"
      ],
      [
        "▁c",
        "et"
      ],
      [
        "▁kong",
        "re"
      ],
      [
        "▁sanat",
        "cı"
      ],
      [
        "▁is",
        "t"
      ],
      [
        "▁mal",
        "i"
      ],
      [
        "▁%",
        "0"
      ],
      [
        "ul",
        "an"
      ],
      [
        "▁elektr",
        "ik"
      ],
      [
        "▁uc",
        "yuz"
      ],
      [
        "▁indianapolis",
        "'ten"
      ],
      [
        "▁fok",
        "ur"
      ],
      [
        "▁americ",
        "an"
      ],
      [
        "▁yıl",
        "a"
      ],
      [
        "▁y",
        "di"
      ],
      [
        "lar",
        "ca"
      ],
      [
        "o",
        "t"
      ],
      [
        "ol",
        "oj"
      ],
      [
        "▁har",
        "ic"
      ],
      [
        "▁kad",
        "ın"
      ],
      [
        "▁say",
        "isi"
      ],
      [
        "▁bl",
        "ok"
      ],
      [
        "▁hak",
        "an"
      ],
      [
        "▁mek",
        "tu"
      ],
      [
        "▁sic",
        "ak"
      ],
      [
        "▁yetk",
        "ili"
      ],
      [
        "▁der",
        "gi"
      ],
      [
        "▁al",
        "an"
      ],
      [
        "▁end",
        "ustr"
      ],
      [
        "▁gercekles",
        "ti"
      ],
      [
        "▁kimse",
        "ye"
      ],
      [
        "'n",
        "daki"
      ],
      [
        "a",
        "l"
      ],
      [
        "▁gazet",
        "ec"
      ],
      [
        "▁he",
        "m"
      ],
      [
        "dig",
        "ini"
      ],
      [
        "▁ger",
        "gin"
      ],
      [
        "▁dig",
        "er"
      ],
      [
        "▁tuk",
        "en"
      ],
      [
        "▁acı",
        "dan"
      ],
      [
        "▁k",
        "anı"
      ],
      [
        "▁dogr",
        "usu"
      ],
      [
        "▁di",
        "le"
      ],
      [
        "▁pittsburgh",
        "'a"
      ],
      [
        "▁muz",
        "ik"
      ],
      [
        "▁y",
        "ine"
      ],
      [
        "▁mark",
        "a"
      ],
      [
        "an",
        "c"
      ],
      [
        "ac",
        "agı"
      ],
      [
        "▁",
        "ar"
      ],
      [
        "▁d",
        "ef"
      ],
      [
        "iy",
        "as"
      ],
      [
        "▁oran",
        "ları"
      ],
      [
        "▁br",
        "it"
      ],
      [
        "▁m",
        "ısır"
      ],
      [
        "in",
        "da"
      ],
      [
        "▁lezzet",
        "leri"
      ],
      [
        "▁uret",
        "ic"
      ],
      [
        "▁om",
        "uz"
      ],
      [
        "▁ser",
        "v"
      ],
      [
        "▁y",
        "eni"
      ],
      [
        "▁tiyat",
        "ro"
      ],
      [
        "▁ort",
        "aydi"
      ],
      [
        "▁r",
        "ak"
      ],
      [
        "▁m",
        "ev"
      ],
      [
        "▁cıl",
        "gın"
      ],
      [
        ".",
        "."
      ],
      [
        "▁f",
        "ay"
      ],
      [
        "▁duv",
        "ara"
      ],
      [
        "▁p",
        "u"
      ],
      [
        "▁kuc",
        "ucuk"
      ],
      [
        "▁t",
        "he"
      ],
      [
        "▁lar",
        "ın"
      ],
      [
        "▁siddet",
        "li"
      ],
      [
        "c",
        "ak"
      ],
      [
        "c",
        "ag"
      ],
      [
        "▁ger",
        "c"
      ],
      [
        "▁k",
        "ayıp"
      ],
      [
        "▁kesin",
        "t"
      ],
      [
        ":",
        "00"
      ],
      [
        "▁av",
        "rup"
      ],
      [
        "▁baltimore",
        "'ye"
      ],
      [
        "ab",
        "il"
      ],
      [
        "▁m",
        "uc"
      ],
      [
        "▁acık",
        "ladı"
      ],
      [
        "▁abd",
        "ul"
      ],
      [
        "▁kur",
        "al"
      ],
      [
        "▁yardım",
        "cısı"
      ],
      [
        "▁ic",
        "in"
      ],
      [
        "▁y",
        "ken"
      ],
      [
        "ler",
        "den"
      ],
      [
        "▁do",
        "v"
      ],
      [
        "lan",
        "an"
      ],
      [
        "▁zaman",
        "lar"
      ],
      [
        "▁odan",
        "ın"
      ],
      [
        "▁tat",
        "ildi"
      ],
      [
        "▁",
        "ı"
      ],
      [
        "▁ham",
        "am"
      ],
      [
        "ay",
        "ol"
      ],
      [
        "▁sef",
        "er"
      ],
      [
        "▁tut",
        "mak"
      ],
      [
        "▁vur",
        "du"
      ],
      [
        "89",
        "-"
      ],
      [
        "▁",
        "edi"
      ],
      [
        "▁havalim",
        "an"
      ],
      [
        "▁d",
        "ul"
      ],
      [
        "▁degildi",
        "m"
      ],
      [
        "▁c",
        "ın"
      ],
      [
        "▁ort",
        "ak"
      ],
      [
        "▁kon",
        "ak"
      ],
      [
        "i",
        "a"
      ],
      [
        "▁or",
        "g"
      ],
      [
        "m",
        "isti"
      ],
      [
        "c",
        "an"
      ],
      [
        "▁ib",
        "rahim"
      ],
      [
        "el",
        "li"
      ],
      [
        "▁ac",
        "ıldı"
      ],
      [
        "▁ogret",
        "men"
      ],
      [
        "▁ser",
        "may"
      ],
      [
        "▁fak",
        "ir"
      ],
      [
        "▁birlik",
        "te"
      ],
      [
        "▁al",
        "digim"
      ],
      [
        "▁el",
        "estir"
      ],
      [
        "▁hanim",
        "la"
      ],
      [
        "len",
        "dir"
      ],
      [
        "ı",
        "l"
      ],
      [
        "▁",
        "at"
      ],
      [
        "▁animasyon",
        "lar"
      ],
      [
        "▁og",
        "le"
      ],
      [
        "▁",
        "y"
      ],
      [
        "▁kur",
        "t"
      ],
      [
        "▁",
        "4"
      ],
      [
        "▁kab",
        "ar"
      ],
      [
        "c",
        "ısı"
      ],
      [
        "▁8",
        ".8"
      ],
      [
        "▁eks",
        "ik"
      ],
      [
        "l",
        "ayı"
      ],
      [
        "▁yam",
        "alak"
      ],
      [
        "▁kalit",
        "esinden"
      ],
      [
        "l",
        "t"
      ],
      [
        "len",
        "en"
      ],
      [
        "▁a",
        "mma"
      ],
      [
        "▁sag",
        "lık"
      ],
      [
        "▁alak",
        "a"
      ],
      [
        "▁gerek",
        "tir"
      ],
      [
        "v",
        "i"
      ],
      [
        "▁muhtem",
        "el"
      ],
      [
        "▁kit",
        "abı"
      ],
      [
        "▁kuvvet",
        "leri"
      ],
      [
        "▁al",
        "maya"
      ],
      [
        "▁g",
        "ov"
      ],
      [
        "▁mevz",
        "u"
      ],
      [
        "▁5",
        "0"
      ],
      [
        "▁cumhurbaskan",
        "ı"
      ],
      [
        "at",
        "o"
      ],
      [
        "▁cab",
        "uk"
      ],
      [
        "ler",
        "e"
      ],
      [
        "▁l",
        "ab"
      ],
      [
        "▁iht",
        "iy"
      ],
      [
        "▁ak",
        "si"
      ],
      [
        "▁h",
        "af"
      ],
      [
        "▁ark",
        "asında"
      ],
      [
        "▁nisan",
        "'da"
      ],
      [
        "▁boz",
        "uk"
      ],
      [
        "▁c",
        "oc"
      ],
      [
        "▁y",
        "uk"
      ],
      [
        "o",
        "f"
      ],
      [
        "▁5",
        ".5"
      ],
      [
        "▁s",
        "av"
      ],
      [
        "▁tucc",
        "ar"
      ],
      [
        "▁or",
        "ta"
      ],
      [
        "▁kan",
        "un"
      ],
      [
        "▁personeller",
        "inden"
      ],
      [
        "a",
        "b"
      ],
      [
        "ust",
        "ur"
      ],
      [
        "▁c",
        "om"
      ],
      [
        "▁en",
        "gin"
      ],
      [
        "▁hal",
        "k"
      ],
      [
        "▁d",
        "agı"
      ],
      [
        "▁bekledi",
        "gini"
      ],
      [
        "▁istem",
        "edi"
      ],
      [
        "▁ken",
        "d"
      ],
      [
        "▁3",
        "8"
      ],
      [
        "▁bas",
        "ından"
      ],
      [
        "▁d",
        "us"
      ],
      [
        "▁dal",
        "ga"
      ],
      [
        "▁ger",
        "il"
      ],
      [
        "▁o",
        "bu"
      ],
      [
        "▁gibi",
        "ydi"
      ],
      [
        "▁soy",
        "ley"
      ],
      [
        "▁matem",
        "atik"
      ],
      [
        "l",
        "ah"
      ],
      [
        "▁b",
        "l"
      ],
      [
        "▁s",
        "um"
      ],
      [
        "▁res",
        "im"
      ],
      [
        "▁ediyor",
        "du"
      ],
      [
        "▁hal",
        "inde"
      ],
      [
        "tık",
        "tan"
      ],
      [
        "6",
        "6"
      ],
      [
        "▁7",
        ".9"
      ],
      [
        "▁h",
        "ol"
      ],
      [
        "▁iti",
        "baren"
      ],
      [
        "▁",
        "erk"
      ],
      [
        "▁hat",
        "ır"
      ],
      [
        "▁yer",
        "ini"
      ],
      [
        "▁bas",
        "ta"
      ],
      [
        "g",
        "unu"
      ],
      [
        "▁k",
        "i"
      ],
      [
        "i",
        "z"
      ],
      [
        "ers",
        "ey"
      ],
      [
        "▁seb",
        "ep"
      ],
      [
        "▁ayak",
        "ta"
      ],
      [
        "▁yaz",
        "ar"
      ],
      [
        "▁saldır",
        "ı"
      ],
      [
        "mas",
        "ında"
      ],
      [
        "▁calıs",
        "ıyordu"
      ],
      [
        "▁cin",
        "ayet"
      ],
      [
        "▁as",
        "la"
      ],
      [
        "um",
        "e"
      ],
      [
        "▁el",
        "b"
      ],
      [
        "-",
        "1"
      ],
      [
        "c",
        "inin"
      ],
      [
        "iler",
        "inin"
      ],
      [
        "▁insan",
        "lara"
      ],
      [
        "▁goz",
        "uk"
      ],
      [
        "▁8",
        "5"
      ],
      [
        "\\",
        "/"
      ],
      [
        "y",
        "al"
      ],
      [
        "▁kazan",
        "dı"
      ],
      [
        "ley",
        "erek"
      ],
      [
        "▁ev",
        "inde"
      ],
      [
        "▁makal",
        "eye"
      ],
      [
        "▁konfer",
        "ans"
      ],
      [
        "▁mıy",
        "ım"
      ],
      [
        "▁k",
        "o"
      ],
      [
        "▁pil",
        "ot"
      ],
      [
        "▁dolay",
        "ı"
      ],
      [
        "lıg",
        "a"
      ],
      [
        "▁guzel",
        "di"
      ],
      [
        "▁g",
        "etir"
      ],
      [
        "▁kendisin",
        "i"
      ],
      [
        "lem",
        "e"
      ],
      [
        "▁montre",
        "al"
      ],
      [
        "▁kahv",
        "e"
      ],
      [
        "▁el",
        "ini"
      ],
      [
        "▁yuksel",
        "en"
      ],
      [
        "▁p",
        "e"
      ],
      [
        "▁m",
        "er"
      ],
      [
        "▁sup",
        "erdi"
      ],
      [
        "▁manzar",
        "asi"
      ],
      [
        "i",
        "yle"
      ],
      [
        "▁zaman",
        "da"
      ],
      [
        "▁k",
        "ıtır"
      ],
      [
        "▁yol",
        "un"
      ],
      [
        "▁yap",
        "mak"
      ],
      [
        "▁ihr",
        "acı"
      ],
      [
        "l",
        "as"
      ],
      [
        "▁dest",
        "ek"
      ],
      [
        "al",
        "ım"
      ],
      [
        "▁it",
        "hal"
      ],
      [
        "▁bil",
        "mez"
      ],
      [
        "▁yer",
        "leri"
      ],
      [
        "▁yaz",
        "ı"
      ],
      [
        "un",
        "dan"
      ],
      [
        "0.",
        "3"
      ],
      [
        "▁vak",
        "it"
      ],
      [
        "▁8",
        "'den"
      ],
      [
        "▁y",
        "am"
      ],
      [
        "uldu",
        "gunu"
      ],
      [
        "im",
        "ler"
      ],
      [
        "ist",
        "an"
      ],
      [
        "▁y",
        "ık"
      ],
      [
[...]
