{
  "version": "1.0",
  "truncation": null,
  "padding": null,
  "added_tokens": [
    {
      "id": 4963,
      "content": "[SEP]",
      "single_word": false,
      "lstrip": false,
      "rstrip": false,
      "normalized": false,
      "special": true
    },
    {
      "id": 8130,
      "content": "[UNK]",
      "single_word": false,
      "lstrip": false,
      "rstrip": false,
      "normalized": false,
      "special": true
    },
    {
      "id": 10199,
      "content": "[MASK]",
      "single_word": false,
      "lstrip": false,
      "rstrip": false,
      "normalized": false,
      "special": true
    },
    {
      "id": 13196,
      "content": "[PAD]",
      "single_word": false,
      "lstrip": false,
      "rstrip": false,
      "normalized": false,
      "special": true
    },
    {
      "id": 13404,
      "content": "[CLS]",
      "single_word": false,
      "lstrip": false,
      "rstrip": false,
      "normalized": false,
      "special": true
    }
  ],
  "normalizer": {
    "type": "Sequence",
    "normalizers": [
      {
        "type": "NFD"
      },
      {
        "type": "Lowercase"
      },
      {
        "type": "StripAccents"
      }
    ]
  },
  "pre_tokenizer": {
    "type": "Sequence",
    "pretokenizers": [
      {
        "type": "Metaspace",
        "replacement": "▁",
        "prepend_scheme": "always",
        "split": true
      }
    ]
  },
  "post_processor": {
    "type": "TemplateProcessing",
    "single": [
      {
        "SpecialToken": {
          "id": "[CLS]",
          "type_id": 0
        }
      },
      {
        "Sequence": {
          "id": "A",
          "type_id": 0
        }
      },
      {
        "SpecialToken": {
          "id": "[SEP]",
          "type_id": 0
        }
      }
    ],
    "pair": [
      {
        "SpecialToken": {
          "id": "[CLS]",
          "type_id": 0
        }
      },
      {
        "Sequence": {
          "id": "A",
          "type_id": 0
        }
      },
      {
        "SpecialToken": {
          "id": "[SEP]",
          "type_id": 0
        }
      },
      {
        "Sequence": {
          "id": "B",
          "type_id": 1
        }
      },
      {
        "SpecialToken": {
          "id": "[SEP]",
          "type_id": 1
        }
      }
    ],
    "special_tokens": {
      "[CLS]": {
        "id": "[CLS]",
        "ids": [
          13404
        ],
        "tokens": [
          "[CLS]"
        ]
      },
      "[SEP]": {
        "id": "[SEP]",
        "ids": [
          4963
        ],
        "tokens": [
          "[SEP]"
        ]
      }
    }
  },
  "decoder": {
    "type": "Metaspace",
    "replacement": "▁",
    "prepend_scheme": "always",
    "split": true
  },
  "model": {
    "type": "WordPiece",
    "unk_token": "[UNK]",
    "continuing_subword_prefix": "##",
    "max_input_chars_per_word": 100,
    "vocab": {
      "▁dolardı": 0,
      "▁mevsimsel": 1,
      "##lugundan": 2,
      "▁havuzdan": 3,
      "▁%6": 4,
      "▁deleg": 5,
      "##siyon": 6,
      "▁hutton": 7,
      "▁lezizdi": 8,
      "##tıgında": 9,
      "##yası": 10,
      "▁aldı": 11,
      "##ması": 12,
      "▁daldı": 13,
      "▁dolusu": 14,
      "▁bahcede": 15,
      "▁uygunsuz": 16,
      "▁borsasında": 17,
      "▁tacirler": 18,
      "▁ceviz": 19,
      "▁toptan": 20,
      "##ecegiz": 21,
      "▁broker": 22,
      "▁hele": 23,
      "▁sch": 24,
      "▁yapmıs": 25,
      "##elleb": 26,
      "▁iceride": 27,
      "▁475": 28,
      "▁.3": 29,
      "▁duserken": 30,
      "▁calısıyordu": 31,
      "▁piyango": 32,
      "##lem": 33,
      "▁soysuz": 34,
      "▁muvaffak": 35,
      "▁343": 36,
      "▁duyuyordu": 37,
      "▁isler": 38,
      "▁aglamaya": 39,
      "▁1.200": 40,
      "▁ruzgarı": 41,
      "##acagını": 42,
      "##2:30": 43,
      "▁emek": 44,
      "▁gelecek": 45,
      "##eydi": 46,
      "▁tepki": 47,
      "##cası": 48,
      "▁general": 49,
      "▁tex": 50,
      "▁gelirler": 51,
      "▁boynuna": 52,
      "▁ran": 53,
      "▁oldukların": 54,
      "▁suret": 55,
      "▁hek": 56,
      "##ulması": 57,
      "▁ilgiliydiler": 58,
      "##madim": 59,
      "▁tv": 60,
      "▁columbus": 61,
      "▁ocak": 62,
      "▁1.79": 63,
      "▁agaca": 64,
      "▁dekor": 65,
      "▁alamaz": 66,
      "▁yapılması": 67,
      "▁1.45": 68,
      "##el": 69,
      "▁ankara": 70,
      "▁hafif": 71,
      "▁vef": 72,
      "▁karargah": 73,
      "▁ozver": 74,
      "##tırdı": 75,
      "##ona": 76,
      "▁genc": 77,
      "##iyetin": 78,
      "##ente": 79,
      "##layı": 80,
      "▁ahsap": 81,
      "▁meyhan": 82,
      "##.90": 83,
      "▁iki": 84,
      "▁sınırlarını": 85,
      "▁32": 86,
      "▁piyasaları": 87,
      "##iel": 88,
      "▁akc": 89,
      "▁pec": 90,
      "##ebilir": 91,
      "##ayip": 92,
      "▁zapt": 93,
      "▁sif": 94,
      "▁349": 95,
      "##ılsın": 96,
      "▁batır": 97,
      "▁yonetimin": 98,
      "▁silip": 99,
      "▁iklim": 100,
      "▁olduguna": 101,
      "▁ilk": 102,
      "▁subay": 103,
      "▁om": 104,
      "##etti": 105,
      "▁hatırlattı": 106,
      "##gal": 107,
      "##36": 108,
      "##ebilen": 109,
      "▁etkileri": 110,
      "▁dugum": 111,
      "##etts": 112,
      "▁liraya": 113,
      "##uncaya": 114,
      "▁cokmus": 115,
      "▁karyol": 116,
      "##oln": 117,
      "▁ıslak": 118,
      "▁cocuklugum": 119,
      "▁verin": 120,
      "▁cekerek": 121,
      "s": 122,
      "▁tartıs": 123,
      "▁oluyordu": 124,
      "▁bura": 125,
      "▁hesabı": 126,
      "▁dalı": 127,
      "▁imkb": 128,
      "▁newark'tan": 129,
      "▁kutur": 130,
      "##digine": 131,
      "▁chp": 132,
      "▁oyunc": 133,
      "▁on": 134,
      "##amayan": 135,
      "▁aklım": 136,
      "▁isvec": 137,
      "▁beklen": 138,
      "▁city": 139,
      "▁atıp": 140,
      "##turk": 141,
      "▁acmıstır": 142,
      "▁gar": 143,
      "▁dayak": 144,
      "▁denil": 145,
      "▁ilave": 146,
      "▁kulturel": 147,
      "▁hastaneye": 148,
      "▁kurulu'nun": 149,
      "##eti": 150,
      "##tan": 151,
      "▁bırakıp": 152,
      "▁numarası": 153,
      "##ugum": 154,
      "▁merakla": 155,
      "##oyla": 156,
      "▁kimseyle": 157,
      "##lerindeki": 158,
      "▁bakıp": 159,
      "##gıcı": 160,
      "##'tan": 161,
      "▁siparis": 162,
      "▁21:00-22:30": 163,
      "▁gosterge": 164,
      "▁kars": 165,
      "▁atıs": 166,
      "▁uzunt": 167,
      "▁tabur": 168,
      "▁unit": 169,
      "▁olursa": 170,
      "▁yalap": 171,
      "▁ha": 172,
      "##inn": 173,
      "▁pu": 174,
      "m": 175,
      "▁0.01": 176,
      "▁hazırlık": 177,
      "▁pop": 178,
      "▁dolasıyor": 179,
      "▁soyluyor": 180,
      "▁kalkar": 181,
      "▁car": 182,
      "▁kendimle": 183,
      "▁jr.": 184,
      "▁indiana": 185,
      "▁kızarmıs": 186,
      "▁yoksul": 187,
      "##eler": 188,
      "▁ısıklı": 189,
      "▁neye": 190,
      "▁at&t": 191,
      "▁birlikte": 192,
      "##udu": 193,
      "▁berbat": 194,
      "▁198120000": 195,
      "▁group": 196,
      "▁bahcı": 197,
      "##ade": 198,
      "▁kaynak": 199,
      "##deger": 200,
      "▁karsil": 201,
      "▁islemlerinde": 202,
      "##kul": 203,
      "##igine": 204,
      "▁esrar": 205,
      "▁gecirmek": 206,
      "▁kendine": 207,
      "▁merk": 208,
      "##'nda": 209,
      "▁tanr": 210,
      "▁gorulen": 211,
      "▁tef": 212,
      "▁kızları": 213,
      "▁belediy": 214,
      "▁dalgaliydi": 215,
      "▁cent": 216,
      "▁barda": 217,
      "▁kentte": 218,
      "▁gorur": 219,
      "▁adım": 220,
      "▁mıdır": 221,
      "▁olabilirdi": 222,
      "▁kasır": 223,
      "▁sinem": 224,
      "▁%22": 225,
      "▁bana": 226,
      "▁haklarının": 227,
      "##0'": 228,
      "▁gorul": 229,
      "▁mesel": 230,
      "▁neleri": 231,
      "##arken": 232,
      "▁uzandı": 233,
      "▁sistemleri": 234,
      "▁olacag": 235,
      "##lusu": 236,
      "##leyi": 237,
      "▁iskele": 238,
      "▁soyut": 239,
      "▁cari": 240,
      "##tır": 241,
      "▁taraftan": 242,
      "▁yasına": 243,
      "▁dakika": 244,
      "▁kayıp": 245,
      "▁selcuk": 246,
      "▁yaparım": 247,
      "▁sogut": 248,
      "##-s": 249,
      "▁yıkan": 250,
      "##elerden": 251,
      "▁uzaga": 252,
      "▁gidebilir": 253,
      "▁saha": 254,
      "▁binbir": 255,
      "▁dususler": 256,
      "▁odeme": 257,
      "##.24": 258,
      "▁cılgın": 259,
      "▁-": 260,
      "▁coc": 261,
      "▁unut": 262,
      "##emek": 263,
      "##inal": 264,
      "▁muhendis": 265,
      "▁talebin": 266,
      "▁84": 267,
      "##larımın": 268,
      "▁konusuyor": 269,
      "▁hew": 270,
      "▁akıllı": 271,
      "▁sebeb": 272,
      "▁calısır": 273,
      "▁tutulan": 274,
      "##j.": 275,
      "▁dondurdu": 276,
      "▁1979": 277,
      "▁hud": 278,
      "##...": 279,
      "▁getiriyordu": 280,
      "▁genetik": 281,
      "▁8.5": 282,
      "▁bulun": 283,
      "▁0.7": 284,
      "▁fantez": 285,
      "▁verg": 286,
      "##iski": 287,
      "##ısının": 288,
      "▁basmak": 289,
      "▁cebinde": 290,
      "▁yaratıcı": 291,
      "▁ortasına": 292,
      "▁iyi": 293,
      "▁agırlık": 294,
      "▁temet": 295,
      "▁onları": 296,
      "##ha": 297,
      "▁yumurta": 298,
      "##ish": 299,
      "##diginde": 300,
      "▁sahil": 301,
      "▁hilmi": 302,
      "▁hayır": 303,
      "▁guver": 304,
      "##ator": 305,
      "▁tac": 306,
      "▁frankfurt": 307,
      "▁yavrusu": 308,
      "▁dokunulmaz": 309,
      "▁pencere": 310,
      "▁bilhassa": 311,
      "▁urun": 312,
      "##ime": 313,
      "▁kablo": 314,
      "▁ucyuzyetmis": 315,
      "▁cebine": 316,
      "##arak": 317,
      "▁buradan": 318,
      "##ide": 319,
      "▁yapmaya": 320,
      "##ektuel": 321,
      "▁dc'de": 322,
      "▁hanim": 323,
      "##tmi": 324,
      "▁butun": 325,
      "▁mech": 326,
      "▁kırmızı": 327,
      "▁kın": 328,
      "▁mantıklı": 329,
      "▁telekom": 330,
      "▁400": 331,
      "##liyordu": 332,
      "##eyrek": 333,
      "▁tedir": 334,
      "▁tuttugu": 335,
      "▁sorusturma": 336,
      "▁haline": 337,
      "▁koseye": 338,
      "##omu": 339,
      "▁vak": 340,
      "##lanabilir": 341,
      "▁giriyorum": 342,
      "▁derinden": 343,
      "##bah": 344,
      "▁savur": 345,
      "##amıza": 346,
      "▁tıbbi": 347,
      "▁ydum": 348,
      "▁sivri": 349,
      "##’": 350,
      "▁harcama": 351,
      "##eceg": 352,
      "▁iliskili": 353,
      "▁sırı": 354,
      "##aki": 355,
      "▁cig": 356,
      "▁demokr": 357,
      "▁dekorasyon": 358,
      "▁yavuz": 359,
      "▁surecin": 360,
      "▁2.50": 361,
      "▁ettikleri": 362,
      "▁isgucu": 363,
      "##amadıgını": 364,
      "##ili": 365,
      "▁havada": 366,
      "▁140": 367,
      "##cekti": 368,
      "##larındaki": 369,
      "##leer": 370,
      "▁destekli": 371,
      "##0.000": 372,
      "▁isi": 373,
      "▁lideri": 374,
      "▁ser": 375,
      "##islari": 376,
      "##emical": 377,
      "5": 378,
      "##2-23": 379,
      "▁gelisti": 380,
      "▁aldıktan": 381,
      "▁bakimsiz": 382,
      "▁uvey": 383,
      "▁hayr": 384,
      "▁gorunur": 385,
      "##–": 386,
      "▁ilgilenen": 387,
      "▁adımı": 388,
      "▁hiz": 389,
      "▁corba": 390,
      "▁mucevher": 391,
      "##ıstır": 392,
      "▁joseph": 393,
      "▁anasının": 394,
      "##ısal": 395,
      "##9'a": 396,
      "▁sahan": 397,
      "##ilerinden": 398,
      "▁hastane": 399,
      "▁etmeden": 400,
      "▁muhendislik": 401,
      "##amadılar": 402,
      "▁bazılarını": 403,
      "▁ucunda": 404,
      "▁tırnak": 405,
      "▁sunuz": 406,
      "▁cıg": 407,
      "▁cirkin": 408,
      "▁bran": 409,
      "▁pesin": 410,
      "▁eder": 411,
      "##rak": 412,
      "▁%50": 413,
      "▁heyet": 414,
      "▁verir": 415,
      "##kik": 416,
      "▁doksan": 417,
      "▁tasım": 418,
      "▁hayatını": 419,
      "▁degisimi": 420,
      "▁fısıl": 421,
      "▁yazan": 422,
      "▁bagları": 423,
      "▁beyin": 424,
      "▁gelismeler": 425,
      "▁hersey": 426,
      "▁konum": 427,
      "▁sampiyon": 428,
      "▁0.0108": 429,
      "▁koy": 430,
      "▁personeline": 431,
      "▁yed": 432,
      "▁indianapolis'e": 433,
      "##agı": 434,
      "▁bolg": 435,
      "##oglu": 436,
      "▁komite": 437,
      "▁miktarı": 438,
      "##irmis": 439,
      "▁verim": 440,
      "▁must": 441,
      "▁44.3": 442,
      "##nan": 443,
      "▁lub": 444,
      "▁birik": 445,
      "▁asır": 446,
      "▁meshur": 447,
      "▁muzakere": 448,
      "▁kansas": 449,
      "▁480": 450,
      "▁oyunda": 451,
      "▁asılmıs": 452,
      "▁bush": 453,
      "▁dusunuyor": 454,
      "▁5.6": 455,
      "▁bos": 456,
      "▁edin": 457,
      "▁18": 458,
      "▁oturur": 459,
      "▁ice": 460,
      "##9.8": 461,
      "▁delikanlı": 462,
      "▁olmamak": 463,
      "▁eserleri": 464,
      "▁kapan": 465,
      "▁bitti": 466,
      "▁kızım": 467,
      "▁lawson": 468,
      "▁birbiriyle": 469,
      "▁yurtdısında": 470,
      "##acılık": 471,
      "▁kulak": 472,
      "x": 473,
      "##57": 474,
      "▁parki": 475,
      "▁suyun": 476,
      "##aması": 477,
      "##ve": 478,
      "▁rum": 479,
      "▁anlamak": 480,
      "▁amcam": 481,
      "▁icindeydi": 482,
      "##ılmıstır": 483,
      "##bindokuzyuzdoksansekiz": 484,
      "##ılacak": 485,
      "▁nik": 486,
      "▁mudur": 487,
      "▁bosal": 488,
      "▁maliyetleri": 489,
      "▁koyar": 490,
      "▁gercekci": 491,
      "▁bostan": 492,
      "##oya": 493,
      "▁tanıyor": 494,
      "▁500": 495,
      "▁ozgun": 496,
      "▁secimde": 497,
      "▁tipik": 498,
      "##istler": 499,
      "##tt": 500,
      "##7.9": 501,
      "▁yazıyı": 502,
      "▁kelebek": 503,
      "▁“": 504,
      "##umuza": 505,
      "▁suruldu": 506,
      "▁ceph": 507,
      "▁acisindan": 508,
      "##alara": 509,
      "▁mich": 510,
      "▁etsin": 511,
      "▁beklentimin": 512,
      "▁harp": 513,
      "▁ızdır": 514,
      "▁budak": 515,
      "##row": 516,
      "▁gecip": 517,
      "▁tel": 518,
      "▁14.7": 519,
      "##mıslardı": 520,
      "▁etmekten": 521,
      "▁,": 522,
      "▁corp'un": 523,
      "▁kalmadim": 524,
      "▁indi": 525,
      "▁sure": 526,
      "##gım": 527,
      "▁kendinde": 528,
      "▁toren": 529,
      "##lips": 530,
      "▁mik": 531,
      "▁mesut": 532,
      "▁%14": 533,
      "▁boston'da": 534,
      "##ecen": 535,
      "▁pervan": 536,
      "▁resmen": 537,
      "##dıkoy": 538,
      "▁dusundur": 539,
      "▁hizmetlerini": 540,
      "▁men": 541,
      "##elerinde": 542,
      "##aydın": 543,
      "▁firmaları": 544,
      "▁gonullu": 545,
      "▁giyim": 546,
      "##de": 547,
      "▁cıkarma": 548,
      "▁edinmek": 549,
      "▁cinsel": 550,
      "▁besinci": 551,
      "▁opec": 552,
      "##th": 553,
      "▁armagan": 554,
      "▁delta": 555,
      "▁gozuk": 556,
      "▁ark": 557,
      "▁4": 558,
      "▁nuf": 559,
      "▁muhaseb": 560,
      "▁1.23": 561,
      "▁atesten": 562,
      "▁bircogunun": 563,
      "▁sirket": 564,
      "▁iliskin": 565,
      "▁buyugu": 566,
      "▁87.5": 567,
      "##gim": 568,
      "▁mekana": 569,
      "▁zor": 570,
      "##.75": 571,
      "##anın": 572,
      "##adet": 573,
      "▁merak": 574,
      "▁heyecanlı": 575,
      "▁hava": 576,
      "▁sevgili": 577,
      "##land": 578,
      "▁gormez": 579,
      "##aklar": 580,
      "▁sattı": 581,
      "▁temp": 582,
      "▁yadig": 583,
      "▁beyle": 584,
      "▁bekledigimiz": 585,
      "##00": 586,
      "▁yır": 587,
      "##salar": 588,
      "▁temmuz": 589,
      "##itik": 590,
      "##araj": 591,
      "▁ayın": 592,
      "▁ahbap": 593,
      "▁toronto'dan": 594,
      "▁stand": 595,
      "▁dair": 596,
      "##lıktan": 597,
      "▁haber": 598,
      "▁tamamlan": 599,
      "▁2683.20": 600,
      "##sinin": 601,
      "▁sizinle": 602,
      "##iz": 603,
      "▁gerek": 604,
      "▁tecavuz": 605,
      "▁mısınız": 606,
      "##liginin": 607,
      "▁ornek": 608,
      "▁demek": 609,
      "##undaki": 610,
      "▁jose'ye": 611,
      "##atur": 612,
      "▁kalmak": 613,
      "▁veda": 614,
      "##ılan": 615,
      "##ina": 616,
      "##eceksin": 617,
      "▁yurum": 618,
      "▁yapacagım": 619,
      "▁sezginler": 620,
      "▁meraklı": 621,
      "##bat": 622,
      "▁kendisinin": 623,
      "▁sonuc": 624,
      "##fik": 625,
      "▁oyk": 626,
      "▁bankaların": 627,
      "▁bet": 628,
      "▁saniye": 629,
      "▁west": 630,
      "▁sayfa": 631,
      "▁tenha": 632,
      "▁fut": 633,
      "##ass": 634,
      "▁teras": 635,
      "▁dow": 636,
      "▁gelin": 637,
      "##ekli": 638,
      "▁sub": 639,
      "▁gıldır": 640,
      "▁olu": 641,
      "▁1992'de": 642,
      "##azz": 643,
      "##tip": 644,
      "▁prov": 645,
      "▁altını": 646,
      "▁'de": 647,
      "▁kalanlar": 648,
      "▁ulusu": 649,
      "▁bisiklet": 650,
      "##ed": 651,
      "▁gerceklesti": 652,
      "▁rest": 653,
      "##calı": 654,
      "▁midir": 655,
      "▁yuzum": 656,
      "##cısı": 657,
      "▁duzen": 658,
      "##ında": 659,
      "##acılar": 660,
      "##a.": 661,
      "##yim": 662,
      "▁durumda": 663,
      "▁sevg": 664,
      "▁dile": 665,
      "▁laub": 666,
      "▁yengec": 667,
      "▁gelmeye": 668,
      "▁kaldırılması": 669,
      "▁amator": 670,
      "▁odanin": 671,
      "▁haberleri": 672,
      "▁sal": 673,
      "▁feder": 674,
      "▁bayramı": 675,
      "▁alabilir": 676,
      "▁ink": 677,
      "▁maddi": 678,
      "▁hareketler": 679,
      "▁kentsel": 680,
      "▁yıcı": 681,
      "▁listele": 682,
      "▁sohbet": 683,
      "##70": 684,
      "▁oldur": 685,
      "▁gununu": 686,
      "##lasıyor": 687,
      "▁esas": 688,
      "▁600": 689,
      "▁dusup": 690,
      "##maları": 691,
      "▁islemin": 692,
      "▁cıktıgını": 693,
      "▁parmagını": 694,
      "##ks": 695,
      "##ental": 696,
      "▁yusuf": 697,
      "▁tarihini": 698,
      "▁suursuz": 699,
      "▁olacagım": 700,
      "##esi'ne": 701,
      "▁yuzdokuz": 702,
      "▁ettigi": 703,
      "▁personelin": 704,
      "▁yası": 705,
      "##dam": 706,
      "▁1100": 707,
      "▁deligi": 708,
      ",": 709,
      "▁a.b.": 710,
      "▁%0.3": 711,
      "##ebi": 712,
      "##masa": 713,
      "▁sezonu": 714,
      "##tıgı": 715,
      "▁his": 716,
      "▁munaseb": 717,
      "▁gelmistir": 718,
      "▁karmas": 719,
      "##mazlar": 720,
      "▁asmıs": 721,
      "##amaz": 722,
      "▁nah": 723,
      "▁105": 724,
      "##47": 725,
      "▁kurtul": 726,
      "##ciden": 727,
      "##iy": 728,
      "▁kapsamı": 729,
      "##masıyla": 730,
      "▁sokacak": 731,
      "##edim": 732,
      "▁sordular": 733,
      "▁oglan": 734,
      "▁korsan": 735,
      "▁kısa": 736,
      "▁laf": 737,
      "▁komut": 738,
      "▁kararsizim": 739,
      "▁metre": 740,
      "▁evinin": 741,
      "▁dolasmaya": 742,
      "▁kahverengi": 743,
      "▁alarak": 744,
      "▁cereyan": 745,
      "▁rekabetin": 746,
      "##alak": 747,
      "▁dob": 748,
      "▁yanıyor": 749,
      "▁manville": 750,
      "▁sterlin": 751,
      "▁is": 752,
      "▁hayatta": 753,
      "▁hazırlamıs": 754,
      "▁okurlar": 755,
      "▁tanrı": 756,
      "▁yumur": 757,
      "▁oyuncular": 758,
      "▁avans": 759,
      "▁acele": 760,
      "▁endiselen": 761,
      "▁gazeteci": 762,
      "▁41.3": 763,
      "▁basak": 764,
      "▁mater": 765,
      "▁koru": 766,
      "▁gorusmek": 767,
      "##ıf": 768,
      "▁maddeler": 769,
      "##enlerin": 770,
      "▁vucut": 771,
      "▁208": 772,
      "▁rumeli": 773,
      "▁italyan": 774,
      "##b.": 775,
      "▁inc.": 776,
      "▁yildiz": 777,
      "▁bakıma": 778,
      "▁belirt": 779,
      "▁1996": 780,
      "▁bayagi": 781,
      "▁manhattan": 782,
      "▁pasap": 783,
      "▁mevki": 784,
      "▁malzemesi": 785,
      "▁muhalleb": 786,
      "##tansiy": 787,
      "▁fiyati": 788,
      "▁yılının": 789,
      "▁tutul": 790,
      "▁onune": 791,
      "▁vegas'a": 792,
      "▁gosterir": 793,
      "##intex": 794,
      "▁beyzbol": 795,
      "▁damat": 796,
      "▁zayıf": 797,
      "##esinde": 798,
      "▁kahr": 799,
      "▁isaretleri": 800,
      "##mistim": 801,
      "▁epey": 802,
      "▁zincir": 803,
      "▁giyinmis": 804,
      "▁1291": 805,
      "▁okulda": 806,
      "▁yılını": 807,
      "▁okudum": 808,
      "▁tasıt": 809,
      "▁5'te": 810,
      "##\\/": 811,
      "▁talebi": 812,
      "▁john": 813,
      "▁bitim": 814,
      "##ici": 815,
      "▁bayıl": 816,
      "▁esi": 817,
      "▁baslarına": 818,
      "▁gecirecek": 819,
      "▁cevresinde": 820,
      "▁sayesinde": 821,
      "▁2010": 822,
      "▁balon": 823,
      "▁tazmin": 824,
      "▁dinlemek": 825,
      "▁sıralar": 826,
      "##asına": 827,
      "▁macı": 828,
      "##ulur": 829,
      "▁odası": 830,
      "▁saatlerini": 831,
      "▁bilgisayarlar": 832,
      "##gumu": 833,
      "##-k": 834,
      "▁inanıyor": 835,
      "▁uzmanları": 836,
      "▁pitt": 837,
      "▁listesine": 838,
      "▁vadi": 839,
      "▁girisimi": 840,
      "▁bulunmus": 841,
      "##laması": 842,
      "▁cah": 843,
      "▁hepsini": 844,
      "▁menek": 845,
      "▁alacagım": 846,
      "▁bakanı": 847,
      "##pus": 848,
      "▁hucum": 849,
      "▁daml": 850,
      "▁mah": 851,
      "▁gercegi": 852,
      "##irmi": 853,
      "▁am": 854,
      "▁dusunceler": 855,
      "▁bogaz": 856,
      "##cuk": 857,
      "▁%2.7": 858,
      "▁muzak": 859,
      "▁imalat": 860,
      "##'dir": 861,
      "▁alman": 862,
      "##edinin": 863,
      "▁kayıtları": 864,
      "▁yuregi": 865,
      "▁universitesi": 866,
      "##35": 867,
      "##emey": 868,
      "##kat": 869,
      "▁ur": 870,
      "▁cıkmıs": 871,
      "▁parc": 872,
      "▁mutemadiyen": 873,
      "▁yeni": 874,
      "▁yatırımcılar": 875,
      "▁mintan": 876,
      "▁partiler": 877,
      "##vıl": 878,
      "▁yapabil": 879,
      "▁seyin": 880,
      "▁genclerin": 881,
      "##ilerde": 882,
      "##trust": 883,
      "▁kızgın": 884,
      "▁kaldıgını": 885,
      "▁8.32": 886,
      "▁80": 887,
      "▁count": 888,
      "▁alab": 889,
      "▁toparlan": 890,
      "##nut": 891,
      "▁koyde": 892,
      "▁15.375": 893,
      "▁bagımlılık": 894,
      "▁whit": 895,
      "▁elim": 896,
      "##mel": 897,
      "##anlık": 898,
      "▁gucunu": 899,
      "##dil": 900,
      "##sk": 901,
      "##emedim": 902,
      "▁yıgın": 903,
      "▁mac": 904,
      "▁oynat": 905,
      "##ok": 906,
      "▁yeteri": 907,
      "▁mak": 908,
      "▁nis": 909,
      "▁islet": 910,
      "▁goster": 911,
      "▁dalga": 912,
      "▁insanlarla": 913,
      "▁suyunu": 914,
      "▁haiz": 915,
      "▁pir": 916,
      "▁1980'": 917,
      "▁kriz": 918,
      "▁topunuz": 919,
      "▁cıkabilir": 920,
      "▁koms": 921,
      "▁istik": 922,
      "▁olusan": 923,
      "▁ma": 924,
      "▁dolasıp": 925,
      "▁296": 926,
      "##75": 927,
      "▁fazlaydi": 928,
      "▁kentin": 929,
      "▁seniz": 930,
      "▁ulus": 931,
      "▁sis": 932,
      "##lasmıstı": 933,
      "▁bart": 934,
      "▁deprem": 935,
      "▁avuk": 936,
      "▁kokain": 937,
      "▁ton": 938,
      "##:00": 939,
      "##.79": 940,
      "▁degistirmek": 941,
      "▁dunyadaki": 942,
      "##sek": 943,
      "▁istedi": 944,
      "▁olma": 945,
      "▁kuzey": 946,
      "▁kul": 947,
      "▁topladı": 948,
      "▁109.85": 949,
      "▁sotheb": 950,
      "▁teması": 951,
      "▁firmasının": 952,
      "##anlar": 953,
      "▁fab": 954,
      "▁gunluk": 955,
      "##lara": 956,
      "▁planlanan": 957,
      "##aret": 958,
      "▁1.25": 959,
      "##mafih": 960,
      "##agındaki": 961,
      "▁caresiz": 962,
      "▁iade": 963,
      "▁kl": 964,
      "##lav": 965,
      "▁br": 966,
      "▁paral": 967,
      "▁ictik": 968,
      "▁dolastır": 969,
      "▁mubar": 970,
      "▁anti": 971,
      "▁cevresel": 972,
      "▁telefonu": 973,
      "▁motiv": 974,
      "▁pat": 975,
      "▁haziran'da": 976,
      "▁kredisi": 977,
      "▁cicegi": 978,
      "▁ev": 979,
      "▁zamandan": 980,
      "▁cin": 981,
      "▁katında": 982,
      "▁agustos'ta": 983,
      "▁yazlık": 984,
      "▁donen": 985,
      "▁fakultesi": 986,
      "▁dondu": 987,
      "##iddet": 988,
      "▁`": 989,
      "▁fis": 990,
      "▁gecmez": 991,
      "▁dusus": 992,
      "▁dul": 993,
      "##ak": 994,
      "▁cekistir": 995,
      "▁fot": 996,
      "##ick": 997,
      "##esin": 998,
      "▁seher": 999,
      "▁kon": 1000,
      "▁gruba": 1001,
      "▁sallayarak": 1002,
      "▁gork": 1003,
      "▁yeterli": 1004,
      "▁tarihe": 1005,
      "##dalı": 1006,
      "▁acıklaması": 1007,
      "▁bagırıyordu": 1008,
      "▁davranıs": 1009,
      "▁uzattı": 1010,
      "##cel": 1011,
      "##lu": 1012,
      "▁koymus": 1013,
      "▁2008": 1014,
      "##ca": 1015,
      "▁olmasın": 1016,
      "▁mukad": 1017,
      "▁pasifik": 1018,
      "▁tıkır": 1019,
      "▁toplantısında": 1020,
      "▁ulastır": 1021,
      "▁takdir": 1022,
      "▁utu": 1023,
      "▁kemik": 1024,
      "▁anlatmaya": 1025,
      "▁cıl": 1026,
      "▁acıkca": 1027,
      "▁78": 1028,
      "▁224070000": 1029,
      "▁calısıyorlar": 1030,
      "▁%99": 1031,
      "▁fren": 1032,
      "▁gubre": 1033,
      "▁od": 1034,
      "▁piyan": 1035,
      "##amayacak": 1036,
      "##iskin": 1037,
      "▁noriega": 1038,
      "##/16": 1039,
      "▁savası": 1040,
      "▁gaz": 1041,
      "##adına": 1042,
      "▁bolgede": 1043,
      "##lige": 1044,
      "▁kemer": 1045,
      "▁biliyorsun": 1046,
      "##ilya": 1047,
      "▁pacific": 1048,
      "##arlan": 1049,
      "▁gosterebilir": 1050,
      "▁binanın": 1051,
      "▁dama": 1052,
      "▁inkar": 1053,
      "##ulugu": 1054,
      "▁kepenk": 1055,
      "##sum": 1056,
      "▁akla": 1057,
      "▁bakalım": 1058,
      "##boy": 1059,
      "▁tok": 1060,
      "▁ap": 1061,
      "▁kıyas": 1062,
      "▁gov": 1063,
      "▁ilkel": 1064,
      "##-23": 1065,
      "▁ihtim": 1066,
      "##org": 1067,
      "▁felsefe": 1068,
      "▁kadınların": 1069,
      "##uh": 1070,
      "##aların": 1071,
      "▁tevfik": 1072,
      "▁40.1": 1073,
      "##yetmisbes": 1074,
      "▁goruldu": 1075,
      "▁parayla": 1076,
      "##luy": 1077,
      "##4'de": 1078,
      "▁romanı": 1079,
      "▁kole": 1080,
      "▁bakılırsa": 1081,
      "▁tasımacılıgı": 1082,
      "▁izledi": 1083,
      "##ediyor": 1084,
      "▁mum": 1085,
      "##lılıgını": 1086,
      "▁kendime": 1087,
      "##rist": 1088,
      "##rı": 1089,
      "▁3.8": 1090,
      "▁hır": 1091,
      "▁varol": 1092,
      "▁etmesine": 1093,
      "▁budur": 1094,
      "##lardı": 1095,
      "▁ayının": 1096,
      "▁kullanabil": 1097,
      "▁yanık": 1098,
      "▁brit": 1099,
      "▁tokyo": 1100,
      "▁sozles": 1101,
      "▁aaa": 1102,
      "▁kun": 1103,
      "▁odaydi": 1104,
      "▁kredi": 1105,
      "▁akıl": 1106,
      "▁mutem": 1107,
      "▁meselesi": 1108,
      "▁0.95": 1109,
      "▁miydim": 1110,
      "▁cek": 1111,
      "▁cisim": 1112,
      "▁soylen": 1113,
      "##ben": 1114,
      "▁davanın": 1115,
      "▁ler": 1116,
      "▁vasıt": 1117,
      "▁yuzyıl": 1118,
      "▁49": 1119,
      "▁283.8": 1120,
      "▁tuccar": 1121,
      "##denin": 1122,
      "##laya": 1123,
      "##alıyor": 1124,
      "##liginde": 1125,
      "##ırlar": 1126,
      "▁bereket": 1127,
      "▁dinler": 1128,
      "##dır": 1129,
      "##ust": 1130,
      "▁1989-": 1131,
      "▁desteklemek": 1132,
      "▁gidis": 1133,
      "▁nisan": 1134,
      "▁tasfiye": 1135,
      "▁zul": 1136,
      "▁cıkmasına": 1137,
      "▁merrill": 1138,
      "▁baktıg": 1139,
      "##enen": 1140,
      "▁%5.4": 1141,
      "##likte": 1142,
      "▁boylece": 1143,
      "##emize": 1144,
      "▁durusma": 1145,
      "▁fac": 1146,
      "▁lık": 1147,
      "##anmıs": 1148,
      "▁soyluyorlar": 1149,
      "▁isareti": 1150,
      "▁dum": 1151,
      "##baskan": 1152,
      "##hs": 1153,
      "▁hisselerini": 1154,
      "▁kapanmıs": 1155,
      "##63": 1156,
      "▁faturamin": 1157,
      "▁igren": 1158,
      "▁tarafın": 1159,
      "▁onsekiz": 1160,
      "▁tahmin": 1161,
      "▁geldiler": 1162,
      "▁gecirdim": 1163,
      "▁usx": 1164,
      "##enc": 1165,
      "▁142": 1166,
      "▁fincan": 1167,
      "##aliydi": 1168,
      "▁ymis": 1169,
      "▁kırıklıgına": 1170,
      "▁uclu": 1171,
      "▁veremem": 1172,
      "▁sordum": 1173,
      "##len": 1174,
      "▁engelken": 1175,
      "##90": 1176,
      "▁mr.": 1177,
      "▁diniz": 1178,
      "▁american": 1179,
      "▁salt": 1180,
      "▁sureli": 1181,
      "▁700": 1182,
      "▁faaliyete": 1183,
      "▁zel": 1184,
      "▁206": 1185,
      "▁c.": 1186,
      "▁kuk": 1187,
      "▁yoksun": 1188,
      "##t": 1189,
      "▁kopr": 1190,
      "##vili": 1191,
      "▁kirliydi": 1192,
      "▁birisini": 1193,
      "▁seref": 1194,
      "▁3640": 1195,
      "▁rekor": 1196,
      "▁pros": 1197,
      "▁ua": 1198,
      "▁mallar": 1199,
      "##sil": 1200,
      "▁mantar": 1201,
      "▁miyiz": 1202,
      "▁cıkmaz": 1203,
      "##iter": 1204,
      "▁calar": 1205,
      "▁gorduk": 1206,
      "▁altından": 1207,
      "▁paribas": 1208,
      "▁nashville": 1209,
      "▁cog": 1210,
      "▁alıs": 1211,
      "▁hızla": 1212,
      "▁tip": 1213,
      "▁kubb": 1214,
      "##13": 1215,
      "▁yasıyor": 1216,
      "##emki": 1217,
      "##dem": 1218,
      "▁2.7": 1219,
      "##5'ten": 1220,
      "▁yasıyoruz": 1221,
      "▁binlerce": 1222,
      "##ket": 1223,
      "▁zey": 1224,
      "##tikleri": 1225,
      "▁gon": 1226,
      "##leye": 1227,
      "##elle": 1228,
      "▁dede": 1229,
      "▁sirin": 1230,
      "▁75000": 1231,
      "##ock": 1232,
      "▁keder": 1233,
      "▁sahiptir": 1234,
      "▁hazırlanıyor": 1235,
      "f": 1236,
      "▁cesitleri": 1237,
      "▁erkegi": 1238,
      "▁dusmanca": 1239,
      "▁gecersiz": 1240,
      "▁koken": 1241,
      "##.06": 1242,
      "▁ucuncu": 1243,
      "▁onemli": 1244,
      "▁kollarını": 1245,
      "##ega": 1246,
      "##leniyor": 1247,
      "▁kimi": 1248,
      "##izmin": 1249,
      "▁ornegin": 1250,
      "▁yandan": 1251,
      "##raz": 1252,
      "▁dogr": 1253,
      "▁daima": 1254,
      "▁dieg": 1255,
      "▁sad": 1256,
      "##s'in": 1257,
      "##7'den": 1258,
      "##ru": 1259,
      "▁isim": 1260,
      "▁ucumuz": 1261,
      "##alas": 1262,
      "▁ilgilenmedi": 1263,
      "##trol": 1264,
      "▁mi": 1265,
      "▁degist": 1266,
      "▁aynada": 1267,
      "▁kasab": 1268,
      "▁dinlenmek": 1269,
      "▁ruh": 1270,
      "##5'te": 1271,
      "▁boyle": 1272,
      "▁bık": 1273,
      "##tcı": 1274,
      "##tel": 1275,
      "##4'te": 1276,
      "▁yakinlarima": 1277,
      "▁oakland'a": 1278,
      "▁ardından": 1279,
      "▁dib": 1280,
      "##eligini": 1281,
      "▁oynar": 1282,
      "▁uz": 1283,
      "▁hij": 1284,
      "▁kontrolunu": 1285,
      "▁billur": 1286,
      "##/8'e": 1287,
      "▁ilerlem": 1288,
      "▁nag": 1289,
      "▁olmaktan": 1290,
      "▁cıktı": 1291,
      "▁hazret": 1292,
      "▁neyin": 1293,
      "##1-19": 1294,
      "▁gerekecek": 1295,
      "▁cel": 1296,
      "▁belle": 1297,
      "▁oldugun": 1298,
      "##hansa": 1299,
      "▁hayvanlar": 1300,
      "##liy": 1301,
      "▁savun": 1302,
      "▁hakk": 1303,
      "▁balik": 1304,
      "▁tarzı": 1305,
      "##isler": 1306,
      "▁suresi": 1307,
      "##ılmasını": 1308,
      "##osunun": 1309,
      "▁bicimde": 1310,
      "▁kıyısında": 1311,
      "▁kadir": 1312,
      "▁francisco'da": 1313,
      "▁tertemiz": 1314,
      "▁kalabalikti": 1315,
      "▁tetik": 1316,
      "▁protokol": 1317,
      "▁almanya": 1318,
      "##ınıza": 1319,
      "|": 1320,
      "##ucu": 1321,
      "##.66": 1322,
      "▁muzigi": 1323,
      "▁nerede": 1324,
      "▁isimler": 1325,
      "▁1.18": 1326,
      "▁kasık": 1327,
      "##=": 1328,
      "##deler": 1329,
      "▁baskent": 1330,
      "▁bardagı": 1331,
      "▁tehdit": 1332,
      "##dıkca": 1333,
      "▁getirin": 1334,
      "▁baslayacagını": 1335,
      "▁ulkemiz": 1336,
      "▁olmayacagını": 1337,
      "▁cumhuriyeti": 1338,
      "##lardan": 1339,
      "▁soyleyecek": 1340,
      "▁yayım": 1341,
      "##emiz": 1342,
      "▁pisirin": 1343,
      "▁7.4": 1344,
      "▁ilgisizdi": 1345,
      "▁faydalı": 1346,
      "▁planlarını": 1347,
      "▁oldugumuz": 1348,
      "##tuk": 1349,
      "▁tanım": 1350,
      "▁sanıyorum": 1351,
      "##os": 1352,
      "▁%0.": 1353,
      "▁atı": 1354,
      "▁muayene": 1355,
      "▁hızı": 1356,
      "▁hararet": 1357,
      "▁beyi": 1358,
      "▁bilez": 1359,
      "▁maas": 1360,
      "▁mahmut": 1361,
      "▁ekmek": 1362,
      "▁basın": 1363,
      "▁bod": 1364,
      "##but": 1365,
      "▁gununden": 1366,
      "##ati": 1367,
      "▁surucu": 1368,
      "▁karamsar": 1369,
      "##gimiz": 1370,
      "##alarca": 1371,
      "▁donemi": 1372,
      "##subishi": 1373,
      "##ıya": 1374,
      "▁payı": 1375,
      "▁oteli": 1376,
      "▁persembe": 1377,
      "▁kaldı": 1378,
      "▁galatasaray": 1379,
      "##'taki": 1380,
      "▁freddie": 1381,
      "▁gostermis": 1382,
      "##ırı": 1383,
      "▁sadece": 1384,
      "▁yukselen": 1385,
      "▁doktorun": 1386,
      "i": 1387,
      "▁satısı": 1388,
      "▁lezzetsizdi": 1389,
      "##izasyon": 1390,
      "▁resour": 1391,
      "▁yiy": 1392,
      "▁orgutu": 1393,
      "##ali": 1394,
      "##ekul": 1395,
      "▁diyarbakır": 1396,
      "▁yemekleri": 1397,
      "▁sırada": 1398,
      "▁odami": 1399,
      "▁sahs": 1400,
      "▁derli": 1401,
      "▁pound": 1402,
      "▁eline": 1403,
      "▁sekreter": 1404,
      "▁ikibindort": 1405,
      "##iyordum": 1406,
      "▁louis'ten": 1407,
      "▁bog": 1408,
      "▁piyasa": 1409,
      "▁catlak": 1410,
      "##hi": 1411,
      "▁ozg": 1412,
      "▁kok": 1413,
      "##eley": 1414,
      "▁yakal": 1415,
      "▁ını": 1416,
      "▁kahv": 1417,
      "##aları": 1418,
      "▁aynı": 1419,
      "##omosyon": 1420,
      "▁girince": 1421,
      "▁a.": 1422,
      "▁edince": 1423,
      "▁yemen": 1424,
      "▁odasında": 1425,
      "▁avrupa": 1426,
      "▁edebiyat": 1427,
      "##duz": 1428,
      "##ıldıgı": 1429,
      "##lanmıstı": 1430,
      "▁katildim": 1431,
      "▁milyarlar": 1432,
      "##lıklar": 1433,
      "▁basında": 1434,
      "▁brooks": 1435,
      "##ıklar": 1436,
      "▁volkan": 1437,
      "▁hadis": 1438,
      "##.85": 1439,
      "##ısında": 1440,
      "▁kaydeden": 1441,
      "▁gazetesi": 1442,
      "▁okurken": 1443,
      "▁uzlas": 1444,
      "##ations": 1445,
      "▁topar": 1446,
      "##danoz": 1447,
      "▁doktu": 1448,
      "##cesi": 1449,
      "▁dirsek": 1450,
      "##os'un": 1451,
      "▁sonlan": 1452,
      "▁fiili": 1453,
      "##0'a": 1454,
      "▁urper": 1455,
      "▁tamamlanması": 1456,
      "▁ozellik": 1457,
      "▁05.": 1458,
      "▁mektub": 1459,
      "▁tom": 1460,
      "▁sokakta": 1461,
      "▁kuyum": 1462,
      "▁vez": 1463,
      "▁1000": 1464,
      "▁tor": 1465,
      "▁ilet": 1466,
      "▁keb": 1467,
      "▁36": 1468,
      "▁hic": 1469,
      "▁yetistir": 1470,
      "▁kisisel": 1471,
      "##tigini": 1472,
      "▁750": 1473,
      "▁onlarda": 1474,
      "▁olmamakla": 1475,
      "▁ecevit": 1476,
      "##ans": 1477,
      "▁tık": 1478,
      "▁evimiz": 1479,
      "##bucuk": 1480,
      "##lasması": 1481,
      "▁ailece": 1482,
      "▁gozlerle": 1483,
      "▁fonu": 1484,
      "##iya": 1485,
      "▁alanı": 1486,
      "▁destan": 1487,
      "##ayabilir": 1488,
      "##way": 1489,
      "##musum": 1490,
      "▁gecer": 1491,
      "▁dısında": 1492,
      "##.08": 1493,
      "▁itiraf": 1494,
      "▁25.96": 1495,
      "##unik": 1496,
      "▁yurtdi": 1497,
      "▁islam": 1498,
      "▁hip": 1499,
      "▁associ": 1500,
      "##ibet": 1501,
      "▁sabahleyin": 1502,
      "▁engellemek": 1503,
      "▁gecmiyor": 1504,
      "##ley": 1505,
      "##eyi": 1506,
      "▁sureligine": 1507,
      "##6.7": 1508,
      "▁yay": 1509,
      "##ıcı": 1510,
      "▁kompoz": 1511,
      "##-4": 1512,
      "▁onar": 1513,
      "▁ulu": 1514,
      "##ess": 1515,
      "▁527.39": 1516,
      "▁moskova": 1517,
      "▁dolayı": 1518,
      "▁yazının": 1519,
      "▁mobilyalar": 1520,
      "▁konusmasını": 1521,
      "##meden": 1522,
      "##lek": 1523,
      "##iyet": 1524,
      "▁halkı": 1525,
      "▁ucusun": 1526,
      "▁1.29": 1527,
      "▁gonder": 1528,
      "##imler": 1529,
      ";": 1530,
      "▁istikrar": 1531,
      "▁tarihte": 1532,
      "▁19.51": 1533,
      "##pan": 1534,
      "##ıydı": 1535,
      "▁temiz": 1536,
      "▁lik": 1537,
      "▁gunumuzde": 1538,
      "▁ipotege": 1539,
      "▁icer": 1540,
      "▁etmektedir": 1541,
      "##azlıgı": 1542,
      "##erj": 1543,
      "▁15000": 1544,
      "▁denen": 1545,
      "▁1930": 1546,
      "▁dusunmek": 1547,
      "##igh": 1548,
      "▁miydi": 1549,
      "▁satıcılar": 1550,
      "▁ile": 1551,
      "▁40000": 1552,
      "##ill": 1553,
      "▁tehlik": 1554,
      "▁muf": 1555,
      "▁birbucuk": 1556,
      "▁iskence": 1557,
      "▁sekil": 1558,
      "##dıklarını": 1559,
      "▁neh": 1560,
      "▁kala": 1561,
      "##dayım": 1562,
      "▁chan": 1563,
      "##lıydı": 1564,
      "##ısma": 1565,
      "##:00-22:30": 1566,
      "▁kazandır": 1567,
      "▁ter": 1568,
      "▁anlamıs": 1569,
      "▁kategor": 1570,
      "##inceye": 1571,
      "▁ph": 1572,
      "▁kata": 1573,
      "▁curuk": 1574,
      "▁dukkanı": 1575,
      "▁aldıgım": 1576,
      "▁boyn": 1577,
      "▁sonundan": 1578,
      "▁degistir": 1579,
      "▁gorunce": 1580,
      "▁baslayacak": 1581,
      "##'ya": 1582,
      "▁bilet": 1583,
      "▁mens": 1584,
      "▁girip": 1585,
      "▁eag": 1586,
      "▁namus": 1587,
      "▁secer": 1588,
      "##lah": 1589,
      "▁pan": 1590,
      "##mıslar": 1591,
      "▁incelem": 1592,
      "▁gas": 1593,
      "▁istemez": 1594,
      "▁yabancilara": 1595,
      "▁gecirme": 1596,
      "##atik": 1597,
      "##edeki": 1598,
      "▁tavsiy": 1599,
      "##holm": 1600,
      "▁zamankinden": 1601,
      "▁cıkarmadan": 1602,
      "▁puan": 1603,
      "▁biles": 1604,
      "##ice": 1605,
      "▁ayakk": 1606,
      "▁hukumeti": 1607,
      "▁ilim": 1608,
      "▁meyv": 1609,
      "▁tayyip": 1610,
      "##485": 1611,
      "▁sayisi": 1612,
      "▁ka": 1613,
      "▁acıdan": 1614,
      "▁unsuru": 1615,
      "▁kop": 1616,
      "e": 1617,
      "▁kısmı": 1618,
      "▁30.": 1619,
      "▁erkekleri": 1620,
      "▁gittikce": 1621,
      "##arya": 1622,
      "▁cikiyordu": 1623,
      "##orp": 1624,
      "▁yuzden": 1625,
      "▁'d": 1626,
      "▁gorev": 1627,
      "▁eagle": 1628,
      "▁alatur": 1629,
      "▁sual": 1630,
      "▁baykal": 1631,
      "▁amacı": 1632,
      "▁burus": 1633,
      "▁siyasi": 1634,
      "▁surat": 1635,
      "▁ayakları": 1636,
      "##uru": 1637,
      "▁ydik": 1638,
      "▁yap": 1639,
      "▁topluma": 1640,
      "▁degillerdi": 1641,
      "##eet": 1642,
      "▁cocuklu": 1643,
      "##isiniz": 1644,
      "▁anlatıyor": 1645,
      "▁ilginc": 1646,
      "▁istedik": 1647,
      "▁odulu": 1648,
      "##duncu": 1649,
      "▁kitap": 1650,
      "▁ucusla": 1651,
      "▁alırdı": 1652,
      "▁soyler": 1653,
      "##.73": 1654,
      "▁basvuru": 1655,
      "▁vek": 1656,
      "▁onyedi.": 1657,
      "▁geldim": 1658,
      "▁oh": 1659,
      "▁hadi": 1660,
      "▁eminim": 1661,
      "▁tep": 1662,
      "##ikatur": 1663,
      "▁ince": 1664,
      "##ikti": 1665,
      "▁anlıslanabilirlik": 1666,
      "▁ortacag": 1667,
      "▁hulya": 1668,
      "##esi'nde": 1669,
      "▁otede": 1670,
      "▁atlet": 1671,
      "▁mukellef": 1672,
      "▁surer": 1673,
      "▁binmis": 1674,
      "▁drexel": 1675,
      "▁bolgenin": 1676,
      "##deydin": 1677,
      "▁gecmek": 1678,
      "▁wcr": 1679,
      "▁mim": 1680,
      "▁baglan": 1681,
      "▁268": 1682,
      "▁islerini": 1683,
      "▁anadolu'da": 1684,
      "▁sarf": 1685,
      "▁makin": 1686,
      "▁ekonomisi": 1687,
      "▁kosa": 1688,
      "##satı": 1689,
      "▁ucusların": 1690,
      "▁ikinc": 1691,
      "##8": 1692,
      "▁olmuyor": 1693,
      "▁busbutun": 1694,
      "##lenme": 1695,
      "▁tasarru": 1696,
      "▁oturuyordu": 1697,
      "▁carolina": 1698,
      "▁inc": 1699,
      "▁kızını": 1700,
      "▁ogretmen": 1701,
      "▁ahmet": 1702,
      "▁muttefik": 1703,
      "▁kardesinin": 1704,
      "##835": 1705,
      "▁anda": 1706,
      "▁alcal": 1707,
      "##let": 1708,
      "▁yakında": 1709,
      "▁vaka": 1710,
      "▁kam": 1711,
      "▁tek": 1712,
      "▁diyerek": 1713,
      "▁benzet": 1714,
      "##malar": 1715,
      "##alt": 1716,
      "##amalar": 1717,
      "▁miydin": 1718,
      "▁hizmet": 1719,
      "▁her": 1720,
      "▁yazılı": 1721,
      "▁karton": 1722,
      "▁bahis": 1723,
      "▁oranının": 1724,
      "▁istegi": 1725,
      "▁kullanıldı": 1726,
      "##izm": 1727,
      "▁zemin": 1728,
      "▁alım-sat": 1729,
      "##men": 1730,
      "▁itibari": 1731,
      "▁otesi": 1732,
      "▁kalıp": 1733,
      "##yn": 1734,
      "▁tev": 1735,
      "▁ikincisi": 1736,
      "▁kursu": 1737,
      "▁hatta": 1738,
      "▁sehri": 1739,
      "▁'y": 1740,
      "▁siv": 1741,
      "▁detroit": 1742,
      "▁guber": 1743,
      "▁%17": 1744,
      "##imizin": 1745,
      "▁kesip": 1746,
      "▁bagı": 1747,
      "▁konusmak": 1748,
      "▁.7": 1749,
      "##92": 1750,
      "▁kuslar": 1751,
      "##tibat": 1752,
      "▁continental": 1753,
      "▁ettim": 1754,
      "▁tak": 1755,
      "▁telefonla": 1756,
      "▁agrı": 1757,
      "▁ber": 1758,
      "▁ex": 1759,
      "##acaklar": 1760,
      "▁sukun": 1761,
      "▁gayret": 1762,
      "##so": 1763,
      "##pi": 1764,
      "▁maden": 1765,
      "##ekk": 1766,
      "▁kez": 1767,
      "▁senet": 1768,
      "##ısmıs": 1769,
      "▁rit": 1770,
      "▁louis": 1771,
      "▁yanı": 1772,
      "▁vb": 1773,
      "▁dolduracagim": 1774,
      "▁yut": 1775,
      "##metik": 1776,
      "##yal": 1777,
      "▁odunc": 1778,
      "##nik": 1779,
      "##ırak": 1780,
      "▁mucadele": 1781,
      "▁nar": 1782,
      "▁gogsun": 1783,
      "▁fokur": 1784,
      "##bo": 1785,
      "▁baslangıc": 1786,
      "▁okur": 1787,
      "▁komun": 1788,
      "▁cocuklarının": 1789,
      "##tık": 1790,
      "▁istiyordu": 1791,
      "▁rakipler": 1792,
      "▁yardım": 1793,
      "▁karsiligi": 1794,
      "##ununun": 1795,
      "▁fed": 1796,
      "▁bogazici": 1797,
      "▁etmek": 1798,
      "▁teseb": 1799,
      "▁bilimin": 1800,
      "##enince": 1801,
      "##ence": 1802,
      "▁hosuma": 1803,
      "▁okula": 1804,
      "▁zarf": 1805,
      "##alarda": 1806,
      "##amadıgı": 1807,
      "▁likidi": 1808,
      "▁kayg": 1809,
      "##.45": 1810,
      "▁kadın": 1811,
      "▁atar": 1812,
      "▁kemal": 1813,
      "▁kuralları": 1814,
      "▁rıhtım": 1815,
      "##ayacak": 1816,
      "▁cad": 1817,
      "##liyor": 1818,
      "▁antal": 1819,
      "##lenip": 1820,
      "▁ailesini": 1821,
      "▁cra": 1822,
      "▁acem": 1823,
      "▁verileri": 1824,
      "▁cim": 1825,
      "##.9": 1826,
      "▁39.55": 1827,
      "▁cizgi": 1828,
      "##6": 1829,
      "▁karsısın": 1830,
      "##uar": 1831,
      "▁cogundan": 1832,
      "▁gorustuk": 1833,
      "▁1.875": 1834,
      "▁karmak": 1835,
      "▁mesin": 1836,
      "▁yagm": 1837,
      "▁yoluyla": 1838,
      "▁marj": 1839,
      "▁serp": 1840,
      "▁soyledik": 1841,
      "##lenmis": 1842,
      "▁temizdi": 1843,
      "##elenmis": 1844,
      "▁ankara'ya": 1845,
      "##lit": 1846,
      "##ini": 1847,
      "▁kendisin": 1848,
      "▁bankaları": 1849,
      "▁1991-19": 1850,
      "▁muhtac": 1851,
      "▁baslardı": 1852,
      "▁kisiden": 1853,
      "▁cıkardık": 1854,
      "##oth": 1855,
      "▁taks": 1856,
      "##'sı": 1857,
      "▁dı": 1858,
      "▁dev": 1859,
      "▁kampanyası": 1860,
      "▁kalıcı": 1861,
      "▁uzan": 1862,
      "▁gecerek": 1863,
      "##ugun": 1864,
      "▁agac": 1865,
      "##.60": 1866,
      "▁herkese": 1867,
      "▁gayri": 1868,
      "▁gormek": 1869,
      "▁pazar": 1870,
      "▁perdeleri": 1871,
      "▁nere": 1872,
      "▁philip": 1873,
      "▁kavram": 1874,
      "▁angel": 1875,
      "▁net": 1876,
      "▁det": 1877,
      "##lardır": 1878,
      "▁cadır": 1879,
      "▁hicbir": 1880,
      "▁gelgelelim": 1881,
      "▁kosar": 1882,
      "▁oluyorum": 1883,
      "▁edecektir": 1884,
      "##liydi": 1885,
      "##dediyor": 1886,
      "▁al": 1887,
      "▁somut": 1888,
      "▁sız": 1889,
      "▁koyun": 1890,
      "##cuları": 1891,
      "▁aldıgımız": 1892,
      "##ılmak": 1893,
      "▁dusmus": 1894,
      "▁kons": 1895,
      "▁niye": 1896,
      "▁serkan": 1897,
      "▁191": 1898,
      "▁ozellikle": 1899,
      "▁istasyon": 1900,
      "▁1.52": 1901,
      "▁fasulyesi": 1902,
      "▁islerine": 1903,
      "▁traf": 1904,
      "▁sarhos": 1905,
      "▁mahkeme": 1906,
      "▁nadiren": 1907,
      "▁pozisyon": 1908,
      "▁aksam": 1909,
      "##alı": 1910,
      "▁daire": 1911,
      "▁birlestir": 1912,
      "▁belirterek": 1913,
      "▁mıyız": 1914,
      "▁kumsali": 1915,
      "▁ise": 1916,
      "▁yabanci": 1917,
      "▁torp": 1918,
      "##'i": 1919,
      "▁paranin": 1920,
      "▁muhafaz": 1921,
      "▁sonucu": 1922,
      "▁pers": 1923,
      "##isk": 1924,
      "##indeki": 1925,
      "##asi": 1926,
      "▁francisco'ya": 1927,
      "▁bufe": 1928,
      "##bur": 1929,
      "▁tos": 1930,
      "▁cekici": 1931,
      "##'la": 1932,
      "▁cevabı": 1933,
      "▁satımı": 1934,
      "▁mevdu": 1935,
      "▁geriye": 1936,
      "▁alcak": 1937,
      "▁mesele": 1938,
      "▁surec": 1939,
      "▁kendimde": 1940,
      "##bire": 1941,
      "##eciler": 1942,
      "▁tolga": 1943,
      "▁piyasadaki": 1944,
      "##lugunu": 1945,
      "▁isra": 1946,
      "▁yasadik": 1947,
      "##ardan": 1948,
      "▁448": 1949,
      "##lay": 1950,
      "▁doksaniki": 1951,
      "▁saygın": 1952,
      "▁yansıtıyor": 1953,
      "▁kendileriyle": 1954,
      "▁giderek": 1955,
      "▁nesnel": 1956,
      "▁ilhan": 1957,
      "▁yanıt": 1958,
      "##lesin": 1959,
      "▁tahta": 1960,
      "▁ruy": 1961,
      "▁maalesef": 1962,
      "▁marks": 1963,
      "▁donup": 1964,
      "▁tavrı": 1965,
      "▁''": 1966,
      "▁zararlı": 1967,
      "##ecik": 1968,
      "▁ucretine": 1969,
      "▁efendim": 1970,
      "▁uzerinden": 1971,
      "▁41": 1972,
      "▁harman": 1973,
      "▁cayı": 1974,
      "▁filmin": 1975,
      "▁biliyorum": 1976,
      "▁cizg": 1977,
      "##name": 1978,
      "##timore": 1979,
      "▁tutam": 1980,
      "▁bisik": 1981,
      "##'nden": 1982,
      "▁cıktıgı": 1983,
      "▁birkac": 1984,
      "##adag": 1985,
      "##ayıf": 1986,
      "▁david": 1987,
      "##yen": 1988,
      "▁verdi": 1989,
      "##&": 1990,
      "▁pom": 1991,
      "▁olabilecegini": 1992,
      "▁and": 1993,
      "▁isters": 1994,
      "▁gelmek": 1995,
      "▁ek": 1996,
      "▁yasa": 1997,
      "▁polit": 1998,
      "▁gelis": 1999,
      "▁88": 2000,
      "▁war": 2001,
      "▁soylemis": 2002,
      "##meler": 2003,
      "▁9.1": 2004,
      "▁olayların": 2005,
      "▁paul": 2006,
      "##ities": 2007,
      "##larim": 2008,
      "##'le": 2009,
      "##.01": 2010,
      "▁ayrılıp": 2011,
      "▁guler": 2012,
      "▁yas": 2013,
      "▁1988'de": 2014,
      "##'nde": 2015,
      "▁yurut": 2016,
      "▁hitap": 2017,
      "▁ucundan": 2018,
      "▁odedi": 2019,
      "##idik": 2020,
      "▁kıyafet": 2021,
      "▁bm": 2022,
      "▁yıllarında": 2023,
      "##ılabilir": 2024,
      "▁aer": 2025,
      "##acagim": 2026,
      "##/32": 2027,
      "▁bulam": 2028,
      "▁allah'a": 2029,
      "▁deli": 2030,
      "▁alındı": 2031,
      "▁mevz": 2032,
      "▁raki": 2033,
      "▁yuruyordu": 2034,
      "##sah": 2035,
      "▁tekrar": 2036,
      "##gunda": 2037,
      "▁moral": 2038,
      "▁ysan": 2039,
      "▁hemsir": 2040,
      "▁houston": 2041,
      "▁keyf": 2042,
      "▁dong": 2043,
      "▁ondan": 2044,
      "▁nasıl": 2045,
      "##evizyon": 2046,
      "▁abd'li": 2047,
      "▁duyan": 2048,
      "##iligi": 2049,
      "▁westchester": 2050,
      "▁kusat": 2051,
      "▁yırt": 2052,
      "##gine": 2053,
      "▁yaman": 2054,
      "##lılıgı": 2055,
      "▁bankacılar": 2056,
      "##%": 2057,
      "##26": 2058,
      "▁nikah": 2059,
      "▁peyniri": 2060,
      "▁egri": 2061,
      "##mma": 2062,
      "▁alınması": 2063,
      "▁panik": 2064,
      "▁tarafından": 2065,
      "▁finanse": 2066,
      "▁sogan": 2067,
      "▁ayıp": 2068,
      "▁dengeli": 2069,
      "▁orgu": 2070,
      "▁incir": 2071,
      "▁suradan": 2072,
      "▁okuldan": 2073,
      "▁cakır": 2074,
      "▁acıyordu": 2075,
      "▁ciftlik": 2076,
      "##mesinde": 2077,
      "▁kongr": 2078,
      "▁dusunmuyor": 2079,
      "▁ablam": 2080,
      "▁kactı": 2081,
      "▁satısın": 2082,
      "##4.5": 2083,
      "▁ogrendi": 2084,
      "▁ragmen": 2085,
      "##saltı": 2086,
      "▁nezaret": 2087,
      "▁sıh": 2088,
      "▁str": 2089,
      "▁chase": 2090,
      "▁world": 2091,
      "##lım": 2092,
      "##umda": 2093,
      "##59": 2094,
      "▁getirileri": 2095,
      "▁birimizin": 2096,
      "▁doldurdum": 2097,
      "##ımdaki": 2098,
      "▁geril": 2099,
      "##malıyız": 2100,
      "▁kab": 2101,
      "▁karsıl": 2102,
      "##isinden": 2103,
      "▁taslar": 2104,
      "▁yerler": 2105,
      "▁cocugum": 2106,
      "##o'yu": 2107,
      "▁kaldıgı": 2108,
      "▁sirk": 2109,
      "▁biraz": 2110,
      "▁bulgur": 2111,
      "▁ilisk": 2112,
      "▁gelisi": 2113,
      "▁balıgı": 2114,
      "▁kıy": 2115,
      "▁yt": 2116,
      "##lik": 2117,
      "▁satmayı": 2118,
      "▁rej": 2119,
      "▁katkıda": 2120,
      "▁suren": 2121,
      "▁orn": 2122,
      "▁cekiyordu": 2123,
      "▁1999": 2124,
      "##etin": 2125,
      "▁mart'ta": 2126,
      "##usune": 2127,
      "▁6": 2128,
      "▁merkezli": 2129,
      "▁siddetle": 2130,
      "▁elif": 2131,
      "▁lubnan": 2132,
      "▁balıkcı": 2133,
      "##onik": 2134,
      "▁edemez": 2135,
      "▁verilmis": 2136,
      "▁yukumluluk": 2137,
      "▁best": 2138,
      "▁kenarına": 2139,
      "▁parcası": 2140,
      "##.": 2141,
      "▁hes": 2142,
      "▁arizona": 2143,
      "▁minder": 2144,
      "▁37": 2145,
      "▁kerv": 2146,
      "▁f.": 2147,
      "▁bilimi": 2148,
      "▁inkıl": 2149,
      "##k": 2150,
      "▁git": 2151,
      "##miyorum": 2152,
      "▁ent": 2153,
      "▁hepsinin": 2154,
      "▁dr.": 2155,
      "▁masalı": 2156,
      "▁turkuler": 2157,
      "##imet": 2158,
      "▁rastlan": 2159,
      "▁karısmıs": 2160,
      "##eyim": 2161,
      "▁new": 2162,
      "##ord": 2163,
      "▁borsada": 2164,
      "▁2659": 2165,
      "▁4145": 2166,
      "▁5.4": 2167,
      "##ehan": 2168,
      "▁akadem": 2169,
      "▁alkıs": 2170,
      "▁mıs": 2171,
      "▁kadıkoy": 2172,
      "▁egilimi": 2173,
      "▁5.2": 2174,
      "▁bulundu": 2175,
      "##ney": 2176,
      "▁alper": 2177,
      "▁813": 2178,
      "▁iktis": 2179,
      "▁filan": 2180,
      "▁oynamıs": 2181,
      "##3'te": 2182,
      "▁evlilik": 2183,
      "▁almayı": 2184,
      "▁parca": 2185,
      "▁kacamak": 2186,
      "##ulmamıs": 2187,
      "##furt": 2188,
      "▁tin": 2189,
      "▁18.": 2190,
      "▁endustri": 2191,
      "▁inek": 2192,
      "▁istemedi": 2193,
      "▁model": 2194,
      "▁bazılarımız": 2195,
      "▁100'e": 2196,
      "▁oda": 2197,
      "▁lond": 2198,
      "▁etrafında": 2199,
      "##ardı": 2200,
      "##ens": 2201,
      "▁edilem": 2202,
      "▁diyen": 2203,
      "##tadır": 2204,
      "▁hıckır": 2205,
      "▁kanıt": 2206,
      "##iyetli": 2207,
      "▁san": 2208,
      "▁siyaset": 2209,
      "▁veriyoruz": 2210,
      "▁ulkeye": 2211,
      "▁kesin": 2212,
      "▁yok": 2213,
      "##ıl": 2214,
      "▁laborat": 2215,
      "▁saatte": 2216,
      "▁hizli": 2217,
      "▁titriyordu": 2218,
      "▁cıkart": 2219,
      "▁1955": 2220,
      "▁oakland'dan": 2221,
      "▁yanakları": 2222,
      "▁sozlerini": 2223,
      "▁nerelerde": 2224,
      "##iyordu": 2225,
      "▁buruk": 2226,
      "##don": 2227,
      "▁cocuga": 2228,
      "▁kahvaltisi": 2229,
      "▁toplantı": 2230,
      "▁kaya": 2231,
      "▁tet": 2232,
      "▁ediyordu": 2233,
      "▁refah": 2234,
      "▁memnundum": 2235,
      "▁kanlı": 2236,
      "▁elestiri": 2237,
      "▁gere": 2238,
      "▁ucaklar": 2239,
      "▁650": 2240,
      "▁suc": 2241,
      "▁birtakım": 2242,
      "▁teskil": 2243,
      "##amm": 2244,
      "▁sorunların": 2245,
      "▁yavaslama": 2246,
      "##luyor": 2247,
      "##ılırsa": 2248,
      "▁tepeden": 2249,
      "##ektif": 2250,
      "▁olmadıgına": 2251,
      "▁kızlarla": 2252,
      "▁yapılacak": 2253,
      "##edigini": 2254,
      "▁temer": 2255,
      "▁3\\/8": 2256,
      "##ahat": 2257,
      "▁otelden": 2258,
      "▁helal": 2259,
      "▁olanaklari": 2260,
      "▁bask": 2261,
      "▁hissediyor": 2262,
      "##ds": 2263,
      "▁yatagı": 2264,
      "▁ahlak": 2265,
      "▁esyalar": 2266,
      "##fet": 2267,
      "▁sikayet": 2268,
      "▁krenz": 2269,
      "▁bekler": 2270,
      "▁gorunuse": 2271,
      "▁beden": 2272,
      "▁kullanmak": 2273,
      "▁oneririm": 2274,
      "▁konularda": 2275,
      "▁begendik": 2276,
      "▁yemis": 2277,
      "##ansiyon": 2278,
      "▁okumak": 2279,
      "▁pot": 2280,
      "▁ziyan": 2281,
      "##ayi": 2282,
      "▁takın": 2283,
      "##aci": 2284,
      "▁tadı": 2285,
      "▁pak": 2286,
      "▁10": 2287,
      "▁banka": 2288,
      "▁bekleniyordu": 2289,
      "▁ikti": 2290,
      "▁yapıt": 2291,
      "▁ontario'dan": 2292,
      "##oh": 2293,
      "##lerden": 2294,
      "▁%3.": 2295,
      "##vik": 2296,
      "▁temkin": 2297,
      "▁avrupa'nın": 2298,
      "▁haksız": 2299,
      "▁romantik": 2300,
      "▁taraf": 2301,
      "▁direk": 2302,
      "▁yelpaz": 2303,
      "##estr": 2304,
      "▁muc": 2305,
      "▁partn": 2306,
      "##?": 2307,
      "▁ipotek": 2308,
      "##ıldır": 2309,
      "▁sıngır": 2310,
      "▁sahiden": 2311,
      "▁etleri": 2312,
      "##landır": 2313,
      "##abilir": 2314,
      "▁inan": 2315,
      "▁dususle": 2316,
      "##lılı": 2317,
      "▁tutarındaki": 2318,
      "▁sınıfa": 2319,
      "##juv": 2320,
      "▁etek": 2321,
      "▁doya": 2322,
      "##asıyor": 2323,
      "##dılar": 2324,
      "▁edward": 2325,
      "▁istenen": 2326,
      "▁besi": 2327,
      "##onspor": 2328,
      "▁#": 2329,
      "▁anayas": 2330,
      "▁olmay": 2331,
      "▁eksik": 2332,
      "▁alım-satım": 2333,
      "▁hi": 2334,
      "▁dostlar": 2335,
      "##lanta": 2336,
      "▁ihal": 2337,
      "##7000": 2338,
      "▁musluman": 2339,
      "▁did": 2340,
      "▁dinley": 2341,
      "▁yurd": 2342,
      "▁cal": 2343,
      "##lamasına": 2344,
      "▁kizim": 2345,
      "▁aln": 2346,
      "▁yukselirken": 2347,
      "▁kıpır": 2348,
      "▁zinc": 2349,
      "▁teklifini": 2350,
      "▁'dı": 2351,
      "▁buhar": 2352,
      "▁duygularını": 2353,
      "▁mccaw": 2354,
      "▁ordunun": 2355,
      "▁evladı": 2356,
      "▁yururken": 2357,
      "▁annesini": 2358,
      "▁sanırım": 2359,
      "▁degistiren": 2360,
      "▁fısır": 2361,
      "▁pasaport": 2362,
      "##diklerini": 2363,
      "▁acil": 2364,
      "▁ugr": 2365,
      "▁francisco'dan": 2366,
      "##siz": 2367,
      "▁jur": 2368,
      "▁tuk": 2369,
      "▁pet": 2370,
      "##ato": 2371,
      "▁gorsel": 2372,
      "▁dist": 2373,
      "##ıtır": 2374,
      "▁yuklen": 2375,
      "▁kapıda": 2376,
      "▁salona": 2377,
      "▁1.72": 2378,
      "▁dam": 2379,
      "▁oksuruk": 2380,
      "▁sirkette": 2381,
      "##ico": 2382,
      "##ost": 2383,
      "▁belirgin": 2384,
      "▁geciyordu": 2385,
      "▁ekib": 2386,
      "▁yedide": 2387,
      "##alanan": 2388,
      "▁dırlar": 2389,
      "▁akıs": 2390,
      "▁ozur": 2391,
      "##has": 2392,
      "▁izmir": 2393,
      "▁sendika": 2394,
      "##isik": 2395,
      "▁ucum": 2396,
      "▁maliyeti": 2397,
      "▁dub": 2398,
      "▁kık": 2399,
      "▁dolasır": 2400,
      "##lendirme": 2401,
      "##ohn": 2402,
      "▁oncu": 2403,
      "##leyip": 2404,
      "▁bankanın": 2405,
      "▁adına": 2406,
      "▁atık": 2407,
      "▁kusu": 2408,
      "▁piyasasındaki": 2409,
      "▁ti": 2410,
      "▁memnun": 2411,
      "▁degilse": 2412,
      "▁beach'tan": 2413,
      "▁romanc": 2414,
      "##medik": 2415,
      "▁asker": 2416,
      "▁emper": 2417,
      "▁varil": 2418,
      "▁yuks": 2419,
      "▁hesaba": 2420,
      "▁beklenenden": 2421,
      "##usu": 2422,
      "##fez": 2423,
      "▁$": 2424,
      "▁feryat": 2425,
      "▁yaramaz": 2426,
      "▁goren": 2427,
      "##memis": 2428,
      "##dıktan": 2429,
      "▁yemeklerin": 2430,
      "##uc": 2431,
      "▁almalar": 2432,
      "##ex": 2433,
      "##usunu": 2434,
      "▁doviz": 2435,
      "▁otesinde": 2436,
      "##lasın": 2437,
      "▁istihbar": 2438,
      "▁irak'ta": 2439,
      "▁pufur": 2440,
      "▁gecen": 2441,
      "▁yuruyor": 2442,
      "##luyorlar": 2443,
      "▁dili": 2444,
      "##olojik": 2445,
      "▁donemli": 2446,
      "##fer": 2447,
      "▁ıskarta": 2448,
      "▁baslarında": 2449,
      "##meye": 2450,
      "##atla": 2451,
      "##n": 2452,
      "##mıstır": 2453,
      "▁karab": 2454,
      "▁benzer": 2455,
      "▁fikirler": 2456,
      "▁issizlik": 2457,
      "▁duzlem": 2458,
      "▁leb": 2459,
      "▁diego'dan": 2460,
      "▁derginin": 2461,
      "##abiliyor": 2462,
      "▁akrab": 2463,
      "##dav": 2464,
      "##ilmisti": 2465,
      "▁artıs": 2466,
      "▁kabın": 2467,
      "▁ayagında": 2468,
      "▁list": 2469,
      "▁sorunlarının": 2470,
      "##-f": 2471,
      "▁corb": 2472,
      "▁yapmay": 2473,
      "▁kucuktu": 2474,
      "##'de": 2475,
      "##iti": 2476,
      "##taj": 2477,
      "▁bilgilerini": 2478,
      "##.33": 2479,
      "▁babasına": 2480,
      "▁esmer": 2481,
      "▁237": 2482,
      "▁yalvar": 2483,
      "▁catır": 2484,
      "▁6.5": 2485,
      "▁konusmayı": 2486,
      "▁ikisini": 2487,
      "▁kılık": 2488,
      "##eksu": 2489,
      "▁mil": 2490,
      "▁eksiksiz": 2491,
      "▁konferans": 2492,
      "▁saglayan": 2493,
      "▁denir": 2494,
      "▁kırık": 2495,
      "##5.2": 2496,
      "▁suphe": 2497,
      "▁mas": 2498,
      "▁yanl": 2499,
      "▁genel": 2500,
      "▁lezzetleri": 2501,
      "##bak": 2502,
      "▁madd": 2503,
      "##a'dan": 2504,
      "▁plak": 2505,
      "##ulmesi": 2506,
      "##ydi": 2507,
      "##olik": 2508,
      "▁gozunun": 2509,
      "▁utangac": 2510,
      "▁kuruluslarındaki": 2511,
      "▁dedikleri": 2512,
      "▁olmakla": 2513,
      "▁endustrisinin": 2514,
      "▁tahvillerin": 2515,
      "##elemek": 2516,
      "▁elver": 2517,
      "##5.": 2518,
      "▁manc": 2519,
      "▁resmi": 2520,
      "▁israil": 2521,
      "▁okyan": 2522,
      "▁sevgi": 2523,
      "##dog": 2524,
      "▁cesme": 2525,
      "##sar": 2526,
      "##cr": 2527,
      "##viz": 2528,
      "▁ortaklıgı": 2529,
      "##aza": 2530,
      "▁ogl": 2531,
      "▁teorik": 2532,
      "▁anıms": 2533,
      "▁agar": 2534,
      "▁ayrılır": 2535,
      "▁actı": 2536,
      "▁500'u": 2537,
      "▁tem": 2538,
      "▁papaz": 2539,
      "▁1995": 2540,
      "##eledigi": 2541,
      "##urlar": 2542,
      "##bilir": 2543,
      "▁umudu": 2544,
      "▁minimum": 2545,
      "▁ogretmeni": 2546,
      "##1.1": 2547,
      "▁seker": 2548,
      "##amızın": 2549,
      "▁personellerden": 2550,
      "##ınızda": 2551,
      "##fur": 2552,
      "▁sınıfın": 2553,
      "▁lit": 2554,
      "▁azar": 2555,
      "▁subat": 2556,
      "▁belirtildi": 2557,
      "▁olayda": 2558,
      "##gul": 2559,
      "▁agzından": 2560,
      "▁olası": 2561,
      "▁izni": 2562,
      "▁terzi": 2563,
      "▁dikilmis": 2564,
      "▁ekip": 2565,
      "▁cogunun": 2566,
      "▁itfa": 2567,
      "▁ortalam": 2568,
      "▁bildir": 2569,
      "##unlu": 2570,
      "##gi": 2571,
      "▁gozlu": 2572,
      "▁nizam": 2573,
      "▁chemical": 2574,
      "##16": 2575,
      "##iden": 2576,
      "▁teblig": 2577,
      "▁o'": 2578,
      "▁yıllık": 2579,
      "##ingen": 2580,
      "▁etk": 2581,
      "▁dikis": 2582,
      "▁oyle": 2583,
      "▁58": 2584,
      "##egiz": 2585,
      "##asındaki": 2586,
      "##itraj": 2587,
      "▁kalıyordu": 2588,
      "▁zal": 2589,
      "▁4.3": 2590,
      "##baska": 2591,
      "##lastır": 2592,
      "▁seylere": 2593,
      "▁koltuklar": 2594,
      "▁onunla": 2595,
      "▁2.4": 2596,
      "▁aydır": 2597,
      "▁elle": 2598,
      "▁yoktur": 2599,
      "▁bonoları": 2600,
      "##lama": 2601,
      "▁feodal": 2602,
      "▁milyarlarca": 2603,
      "▁portf": 2604,
      "▁madem": 2605,
      "▁saka": 2606,
      "▁idar": 2607,
      "▁tehdi": 2608,
      "##rap": 2609,
      "▁izn": 2610,
      "▁randev": 2611,
      "##lendirmek": 2612,
      "▁sıgın": 2613,
      "▁kırlangıc": 2614,
      "▁th": 2615,
      "▁catıs": 2616,
      "▁21.": 2617,
      "▁1961": 2618,
      "##ilen": 2619,
      "▁yarattı": 2620,
      "▁sipar": 2621,
      "▁3.16": 2622,
      "▁cekilm": 2623,
      "▁balıklar": 2624,
      "##ont": 2625,
      "▁hotel": 2626,
      "▁baslayan": 2627,
      "##un": 2628,
      "▁muhafazakar": 2629,
      "▁stock": 2630,
      "##emin": 2631,
      "▁aradı": 2632,
      "▁olume": 2633,
      "▁mulkiyet": 2634,
      "▁kası": 2635,
      "▁416": 2636,
      "▁kalmıstır": 2637,
      "▁mes": 2638,
      "##risin": 2639,
      "▁95.2": 2640,
      "▁tow": 2641,
      "▁yetmis": 2642,
      "##emezsiniz": 2643,
      "▁serisi": 2644,
      "▁57": 2645,
      "##elerce": 2646,
      "▁bire": 2647,
      "▁inis": 2648,
      "▁hafiflet": 2649,
      "▁evimizde": 2650,
      "##bab": 2651,
      "##uk": 2652,
      "▁han": 2653,
      "▁hayatın": 2654,
      "▁erol": 2655,
      "##yuzotuzdort": 2656,
      "▁guzelim": 2657,
      "▁ayaklarının": 2658,
      "▁bayat": 2659,
      "▁gag": 2660,
      "▁9.78": 2661,
      "▁adil": 2662,
      "▁yıldızı": 2663,
      "▁edi": 2664,
      "▁verildi": 2665,
      "▁mary": 2666,
      "##etik": 2667,
      "▁ufacık": 2668,
      "▁diktator": 2669,
      "▁esiyor": 2670,
      "▁soyledigini": 2671,
      "▁sulu": 2672,
      "##emez": 2673,
      "▁asam": 2674,
      "▁bosan": 2675,
      "▁bono": 2676,
      "▁fener": 2677,
      "▁goturuyor": 2678,
      "##icik": 2679,
      "▁yaptıgım": 2680,
      "▁sorunu": 2681,
      "▁saclı": 2682,
      "▁geldi": 2683,
      "▁turuncu": 2684,
      "▁duzenlem": 2685,
      "▁77": 2686,
      "▁ayrılmıs": 2687,
      "##oglan": 2688,
      "▁kultur": 2689,
      "▁gay": 2690,
      "▁yaslar": 2691,
      "▁emrah": 2692,
      "##eleme": 2693,
      "##ılas": 2694,
      "##8.2": 2695,
      "▁dedigim": 2696,
      "▁ucusuna": 2697,
      "▁ayrılmak": 2698,
      "▁suruk": 2699,
      "▁aldıkları": 2700,
      "▁yapacagını": 2701,
      "g": 2702,
      "##ahi": 2703,
      "▁adlandır": 2704,
      "▁ustlen": 2705,
      "▁ogrendim": 2706,
      "▁taahh": 2707,
      "▁3.2": 2708,
      "##ate": 2709,
      "##yım": 2710,
      "▁kendilerine": 2711,
      "▁esnaf": 2712,
      "▁columbia": 2713,
      "▁mevduat": 2714,
      "▁guzeli": 2715,
      "▁adamla": 2716,
      "▁1995'te": 2717,
      "▁lynch": 2718,
      "▁cekiliyor": 2719,
      "##lesi": 2720,
      "▁y": 2721,
      "▁dep": 2722,
      "▁adama": 2723,
      "▁gezegen": 2724,
      "▁s": 2725,
      "▁hazırladı": 2726,
      "##ala": 2727,
      "▁cd": 2728,
      "▁koylerde": 2729,
      "##s": 2730,
      "▁62": 2731,
      "▁huzun": 2732,
      "▁camı": 2733,
      "▁mısır": 2734,
      "▁erz": 2735,
      "▁sıralarda": 2736,
      "▁destek": 2737,
      "##oj": 2738,
      "▁yalı": 2739,
      "▁hangisine": 2740,
      "▁olusuyor": 2741,
      "▁ortamı": 2742,
      "▁degismez": 2743,
      "▁yasin": 2744,
      "▁2.79": 2745,
      "▁teor": 2746,
      "▁hacm": 2747,
      "##ane": 2748,
      "▁2.5": 2749,
      "▁vaat": 2750,
      "##pıs": 2751,
      "##mamız": 2752,
      "▁katlı": 2753,
      "▁ayrılık": 2754,
      "▁sorununun": 2755,
      "▁dalgalar": 2756,
      "▁toplantıda": 2757,
      "▁yapacak": 2758,
      "##lendim": 2759,
      "▁elestirmen": 2760,
      "▁ozgur": 2761,
      "▁tesir": 2762,
      "##kin": 2763,
      "##lere": 2764,
      "▁temsilcisi": 2765,
      "##tern": 2766,
      "▁elma": 2767,
      "▁yabanc": 2768,
      "##maca": 2769,
      "▁goturduler": 2770,
      "▁durumlarda": 2771,
      "▁havaalan": 2772,
      "▁gecirdigi": 2773,
      "##emli": 2774,
      "▁9.6": 2775,
      "▁malz": 2776,
      "▁acıl": 2777,
      "▁itibariyle": 2778,
      "##tısına": 2779,
      "▁kral": 2780,
      "##amayacagını": 2781,
      "▁ettin": 2782,
      "##ile": 2783,
      "▁zav": 2784,
      "##ad": 2785,
      "▁yaptir": 2786,
      "▁tuketici": 2787,
      "▁yıllarca": 2788,
      "▁lilly": 2789,
      "▁kapali": 2790,
      "▁bolumde": 2791,
      "▁surdurdu": 2792,
      "▁paul'dan": 2793,
      "▁hizmetinden": 2794,
      "▁3.7": 2795,
      "▁piyasasının": 2796,
      "▁nerden": 2797,
      "▁doluydu": 2798,
      "▁uykusuz": 2799,
      "▁30000": 2800,
      "##untu": 2801,
      "▁gecirir": 2802,
      "▁rahatti": 2803,
      "▁par": 2804,
      "▁aldan": 2805,
      "▁herhal": 2806,
      "##bac": 2807,
      "▁mayıs'ta": 2808,
      "▁yetmez": 2809,
      "##ılıgını": 2810,
      "▁acan": 2811,
      "##ata": 2812,
      "▁yalan": 2813,
      "▁degisiklikler": 2814,
      "▁maksim": 2815,
      "##:30": 2816,
      "▁birilerini": 2817,
      "▁kalsın": 2818,
      "##esem": 2819,
      "▁yur": 2820,
      "##isiydi": 2821,
      "▁edemey": 2822,
      "▁852": 2823,
      "##54": 2824,
      "▁kontrol": 2825,
      "▁mirkelam": 2826,
      "▁idare": 2827,
      "▁inanır": 2828,
      "▁sh": 2829,
      "▁zorunda": 2830,
      "##izma": 2831,
      "##kb": 2832,
      "▁yasama": 2833,
      "▁koruyor": 2834,
      "▁birbirimizi": 2835,
      "▁basarili": 2836,
      "##bası": 2837,
      "##ott": 2838,
      "▁devrim": 2839,
      "▁pittsburgh": 2840,
      "▁yusu": 2841,
      "▁cocugunun": 2842,
      "▁dinkin": 2843,
      "▁peyn": 2844,
      "▁harf": 2845,
      "##eleyen": 2846,
      "▁baba": 2847,
      "▁kutup": 2848,
      "##larla": 2849,
      "▁yasadigim": 2850,
      "##guna": 2851,
      "##orta": 2852,
      "##eing": 2853,
      "▁denizciler": 2854,
      "▁ata": 2855,
      "▁altındaki": 2856,
      "▁tuttum": 2857,
      "▁sarkı": 2858,
      "▁112": 2859,
      "▁degis": 2860,
      "##dular": 2861,
      "▁yoluna": 2862,
      "▁golgesi": 2863,
      "▁64": 2864,
      "▁uzer": 2865,
      "▁golg": 2866,
      "▁kemir": 2867,
      "▁260": 2868,
      "▁5.3": 2869,
      "▁aktarmasız": 2870,
      "▁olmadı": 2871,
      "▁bilgil": 2872,
      "▁gl": 2873,
      "##lerimizin": 2874,
      "▁gelirin": 2875,
      "▁segment": 2876,
      "##tein": 2877,
      "##ward": 2878,
      "▁sectik": 2879,
      "▁yapılmıstır": 2880,
      "▁partinin": 2881,
      "▁yaratı": 2882,
      "▁dograyın": 2883,
      "▁amc": 2884,
      "▁gizem": 2885,
      "▁kılıc": 2886,
      "▁ersin": 2887,
      "▁tembih": 2888,
      "▁muzaker": 2889,
      "▁olimp": 2890,
      "##.8": 2891,
      "▁g": 2892,
      "▁po": 2893,
      "▁planı": 2894,
      "##malıyım": 2895,
      "##affer": 2896,
      "▁yıllarda": 2897,
      "▁onumuzde": 2898,
      "▁tavır": 2899,
      "▁eylul": 2900,
      "▁bic": 2901,
      "##ori": 2902,
      "##eyn": 2903,
      "▁oldular": 2904,
      "##sizdi": 2905,
      "▁gosteren": 2906,
      "▁11": 2907,
      "▁kuyruk": 2908,
      "▁krize": 2909,
      "▁ingiltere": 2910,
      "##i'ye": 2911,
      "▁sasırtıcı": 2912,
      "▁seviyesinde": 2913,
      "##ayık": 2914,
      "▁oldugumu": 2915,
      "##tedir": 2916,
      "▁zar": 2917,
      "##teri": 2918,
      "##'deki": 2919,
      "##sap": 2920,
      "▁sansur": 2921,
      "▁vadesiz": 2922,
      "▁hab": 2923,
      "▁s.": 2924,
      "▁ozge": 2925,
      "▁acılı": 2926,
      "▁yazısı": 2927,
      "▁rak": 2928,
      "▁bonolar": 2929,
      "▁fazla": 2930,
      "##ılmasına": 2931,
      "▁kahvenin": 2932,
      "▁elleriyle": 2933,
      "▁katına": 2934,
      "▁ozurlu": 2935,
      "##p": 2936,
      "##chell": 2937,
      "▁aldigim": 2938,
      "▁genelkur": 2939,
      "##yol": 2940,
      "▁durumuna": 2941,
      "##igi": 2942,
      "▁hizmetler": 2943,
      "▁ucusa": 2944,
      "##iniki": 2945,
      "##ograf": 2946,
      "##-": 2947,
      "▁2002'de": 2948,
      "▁onerdi": 2949,
      "##ayım": 2950,
      "▁dudakları": 2951,
      "▁planlanıyor": 2952,
      "▁girmeden": 2953,
      "##elerdir": 2954,
      "▁oder": 2955,
      "▁korumak": 2956,
      "▁gurur": 2957,
      "▁turlar": 2958,
      "▁garant": 2959,
      "▁sacları": 2960,
      "▁cıkıs": 2961,
      "▁$'dan": 2962,
      "##dadı": 2963,
      "##rne": 2964,
      "▁degerlendir": 2965,
      "▁artır": 2966,
      "▁tırn": 2967,
      "▁boyl": 2968,
      "▁sıv": 2969,
      "▁evden": 2970,
      "▁48": 2971,
      "▁kazanclarını": 2972,
      "▁reddediyor": 2973,
      "##dıkları": 2974,
      "▁zihninde": 2975,
      "▁%3.43": 2976,
      "##>": 2977,
      "▁petersburg'a": 2978,
      "##res": 2979,
      "##ımızın": 2980,
      "##ebilecegi": 2981,
      "▁hindistan'ın": 2982,
      "▁ucuslarını": 2983,
      "▁ciddiye": 2984,
      "▁sip": 2985,
      "▁yiyip": 2986,
      "▁fizik": 2987,
      "▁damar": 2988,
      "▁dumanı": 2989,
      "▁dc'den": 2990,
      "##arn": 2991,
      "▁peki": 2992,
      "▁luks": 2993,
      "▁protok": 2994,
      "▁tabir": 2995,
      "▁bugun": 2996,
      "▁uyarı": 2997,
      "▁hayali": 2998,
      "▁mekteb": 2999,
      "▁altin": 3000,
      "##ımdan": 3001,
      "▁oran": 3002,
      "▁var": 3003,
      "▁toplum": 3004,
      "▁phoeni": 3005,
      "▁yunus": 3006,
      "▁tasarı": 3007,
      "▁karmasık": 3008,
      "▁kararın": 3009,
      "▁pekmez": 3010,
      "▁25.000": 3011,
      "▁egemen": 3012,
      "▁bası": 3013,
      "▁charl": 3014,
      "▁gerci": 3015,
      "▁gittigim": 3016,
      "▁.65": 3017,
      "##uli": 3018,
      "▁av": 3019,
      "##inize": 3020,
      "▁cagrı": 3021,
      "##afet": 3022,
      "▁yepyeni": 3023,
      "▁geldigimiz": 3024,
      "##eyerek": 3025,
      "▁4.75": 3026,
      "▁nedenlerden": 3027,
      "▁olculu": 3028,
      "▁cap": 3029,
      "##lerdeki": 3030,
      "##lum": 3031,
      "▁yataklar": 3032,
      "▁anladım": 3033,
      "▁sozlesmeler": 3034,
      "▁hın": 3035,
      "▁birey": 3036,
      "▁planda": 3037,
      "▁ontario": 3038,
      "▁dayalı": 3039,
      "▁ailelerin": 3040,
      "▁kale": 3041,
      "▁dogran": 3042,
      "▁taf": 3043,
      "##cok": 3044,
      "▁koyan": 3045,
      "▁tohum": 3046,
      "▁penn": 3047,
      "▁mendil": 3048,
      "▁tasa": 3049,
      "▁ifad": 3050,
      "▁getirdi": 3051,
      "▁karam": 3052,
      "##feld": 3053,
      "▁sand": 3054,
      "▁odasi": 3055,
      "▁zuh": 3056,
      "▁huseyin": 3057,
      "▁kabl": 3058,
      "▁polon": 3059,
      "▁anı": 3060,
      "##38": 3061,
      "▁bakısları": 3062,
      "▁ucusu": 3063,
      "▁kurdular": 3064,
      "▁okumaya": 3065,
      "▁bilincli": 3066,
      "▁marifet": 3067,
      "##up": 3068,
      "▁butc": 3069,
      "▁guleryuzluydu": 3070,
      "▁goreve": 3071,
      "##ıldıgını": 3072,
      "▁dustum": 3073,
      "▁cıkarıl": 3074,
      "▁girmez": 3075,
      "▁nek": 3076,
      "▁sovyet": 3077,
      "▁fransızca": 3078,
      "▁bulunur": 3079,
      "▁1.80": 3080,
      "▁sor": 3081,
      "##izik": 3082,
      "##eleriyle": 3083,
      "▁dayanısma": 3084,
      "##24": 3085,
      "▁konusundaki": 3086,
      "▁basımda": 3087,
      "▁inter": 3088,
      "##lasarak": 3089,
      "▁14.5": 3090,
      "▁nazaran": 3091,
      "▁kadınları": 3092,
      "▁sarıldı": 3093,
      "▁81": 3094,
      "▁cıkmak": 3095,
      "▁tasıdı": 3096,
      "▁biz": 3097,
      "▁lloy": 3098,
      "##23": 3099,
      "▁masanın": 3100,
      "▁boy": 3101,
      "##'yi": 3102,
      "▁cıkarmaya": 3103,
      "##aklık": 3104,
      "##acaksınız": 3105,
      "▁alınıyor": 3106,
      "▁agustos": 3107,
      "▁ekstra": 3108,
      "▁bagısık": 3109,
      "##larıyla": 3110,
      "▁planlama": 3111,
      "▁birlik": 3112,
      "##eci": 3113,
      "▁yalnızlık": 3114,
      "▁kend": 3115,
      "##ban": 3116,
      "▁ra": 3117,
      "▁acık": 3118,
      "▁avukatlar": 3119,
      "##tain": 3120,
      "p": 3121,
      "##sızlık": 3122,
      "▁senato": 3123,
      "##elem": 3124,
      "▁ruya": 3125,
      "##.78": 3126,
      "▁gitar": 3127,
      "▁kadınlar": 3128,
      "▁378": 3129,
      "▁kus": 3130,
      "▁haftalık": 3131,
      "▁orlando": 3132,
      "▁varlıga": 3133,
      "##2.76": 3134,
      "▁curut": 3135,
      "▁201622": 3136,
      "▁kullanıyor": 3137,
      "##ilerini": 3138,
      "▁alakaliydi": 3139,
      "▁bıraktıgı": 3140,
      "##acak": 3141,
      "▁emlak": 3142,
      "▁hizmetlerinden": 3143,
      "▁olurdu": 3144,
      "▁cans": 3145,
      "##ud": 3146,
      "▁hakkinda": 3147,
      "▁birbirler": 3148,
      "▁dizginleri": 3149,
      "##asyon": 3150,
      "▁1.22": 3151,
      "▁kurut": 3152,
      "##ıver": 3153,
      "##eber": 3154,
      "▁ucusunu": 3155,
      "▁tasavv": 3156,
      "▁minim": 3157,
      "##ememis": 3158,
      "▁koc": 3159,
      "▁yokusu": 3160,
      "##4.7": 3161,
      "▁schw": 3162,
      "▁olabilir": 3163,
      "▁lutfen": 3164,
      "▁tamamladı": 3165,
      "▁suz": 3166,
      "▁musteriler": 3167,
      "##ırt": 3168,
      "▁giderler": 3169,
      "▁tozu": 3170,
      "▁yakası": 3171,
      "▁hu": 3172,
      "▁sersem": 3173,
      "##taraf": 3174,
      "▁rus": 3175,
      "▁acıklanmadı": 3176,
      "▁mutab": 3177,
      "▁anlıs": 3178,
      "##masında": 3179,
      "▁belirttigim": 3180,
      "▁nus": 3181,
      "##mesi": 3182,
      "▁hissettim": 3183,
      "##ılıyordu": 3184,
      "▁tasar": 3185,
      "▁denktas": 3186,
      "▁risk": 3187,
      "▁1.": 3188,
      "▁benden": 3189,
      "▁olusturmak": 3190,
      "▁musterilere": 3191,
      "##ıc": 3192,
      "▁sedef": 3193,
      "▁hınc": 3194,
      "##adelphia": 3195,
      "##'yı": 3196,
      "##etini": 3197,
      "▁kolayca": 3198,
      "▁bitmisti": 3199,
      "▁yanas": 3200,
      "▁burcu": 3201,
      "▁tesvik": 3202,
      "##95": 3203,
      "##agımı": 3204,
      "▁tavsiye": 3205,
      "▁sayısı": 3206,
      "▁hekim": 3207,
      "▁borclanma": 3208,
      "▁ıskar": 3209,
      "▁ceb": 3210,
      "▁hukuku": 3211,
      "▁anne": 3212,
      "▁fuz": 3213,
      "##aseb": 3214,
      "▁1992": 3215,
      "▁parcaları": 3216,
      "##sira": 3217,
      "▁genislet": 3218,
      "▁goremedim": 3219,
      "▁suna": 3220,
      "▁1919": 3221,
      "##ilmiyor": 3222,
      "▁sozlerine": 3223,
      "▁phil": 3224,
      "▁cey": 3225,
      "▁kızdı": 3226,
      "##dern": 3227,
      "▁verdikleri": 3228,
      "▁vermem": 3229,
      "▁alex": 3230,
      "▁mahkemesinde": 3231,
      "▁oranı": 3232,
      "▁cerey": 3233,
      "##masın": 3234,
      "##ılmıs": 3235,
      "▁hak": 3236,
      "▁nazik": 3237,
      "▁fuk": 3238,
      "▁tetkik": 3239,
      "▁istihbarat": 3240,
      "▁dolmus": 3241,
      "▁avrupalı": 3242,
      "▁benz": 3243,
      "##anoz": 3244,
      "▁muhabiri": 3245,
      "▁1.7": 3246,
      "▁akl": 3247,
      "##oc": 3248,
      "▁hong": 3249,
      "▁ode": 3250,
      "##dugum": 3251,
      "▁750000": 3252,
      "▁141.90": 3253,
      "▁aradan": 3254,
      "▁anlattı": 3255,
      "▁degildi": 3256,
      "##ultu": 3257,
      "▁evine": 3258,
      "▁ısıkları": 3259,
      "▁155": 3260,
      "▁kırkdort": 3261,
      "▁gosteri": 3262,
      "▁newark": 3263,
      "##ansiy": 3264,
      "▁donuste": 3265,
      "▁kartal": 3266,
      "▁almıyor": 3267,
      "▁balkon": 3268,
      "▁rab": 3269,
      "▁bahceli": 3270,
      "▁orland": 3271,
      "▁yo": 3272,
      "▁soylenir": 3273,
      "##larımı": 3274,
      "▁ant": 3275,
      "▁1991'de": 3276,
      "##ilerine": 3277,
      "##vir": 3278,
      "▁ısıgında": 3279,
      "▁senedir": 3280,
      "▁4.2": 3281,
      "▁arar": 3282,
      "▁622": 3283,
      "##ların": 3284,
      "▁1953": 3285,
      "▁saglar": 3286,
      "▁loc": 3287,
      "▁asli": 3288,
      "▁kalmadigim": 3289,
      "▁jfk": 3290,
      "##ginde": 3291,
      "▁airlines'in": 3292,
      "##330": 3293,
      "▁soylemeye": 3294,
      "▁1989": 3295,
      "▁yıgılmıs": 3296,
      "_": 3297,
      "##egiyle": 3298,
      "▁ortalık": 3299,
      "▁telerate": 3300,
      "▁ureticisi": 3301,
      "##etle": 3302,
      "▁yanisira": 3303,
      "▁inanmak": 3304,
      "▁dairesine": 3305,
      "▁cumhurbaskanı": 3306,
      "▁oyunun": 3307,
      "##lerimin": 3308,
      "##7.1": 3309,
      "▁sers": 3310,
      "##esinin": 3311,
      "▁den": 3312,
      "▁yirmi": 3313,
      "##o'ya": 3314,
      "▁pik": 3315,
      "▁tımar": 3316,
      "▁anlasması": 3317,
      "▁canavar": 3318,
      "##h": 3319,
      "▁yerel": 3320,
      "▁cıkmadı": 3321,
      "▁9.8": 3322,
      "▁klima": 3323,
      "##ırtı": 3324,
      "▁suda": 3325,
      "▁futbolcu": 3326,
      "##:11": 3327,
      "##issiz": 3328,
      "▁planimiz": 3329,
      "▁kapıya": 3330,
      "##.11": 3331,
      "▁vic": 3332,
      "##imden": 3333,
      "▁japonların": 3334,
      "##larız": 3335,
      "▁b.a.": 3336,
      "##irim": 3337,
      "##ıyan": 3338,
      "▁406": 3339,
      "▁deneyim": 3340,
      "##urum": 3341,
      "##inizi": 3342,
      "▁elbise": 3343,
      "▁washington'dan": 3344,
      "▁milyondan": 3345,
      "▁duvara": 3346,
      "▁kat": 3347,
      "▁kestir": 3348,
      "▁91": 3349,
      "##isiz": 3350,
      "##fih": 3351,
      "▁donduk": 3352,
      "##ude": 3353,
      "##oma": 3354,
      "▁tatb": 3355,
      "▁prosedur": 3356,
      "▁tokyo'daki": 3357,
      "▁kosul": 3358,
      "▁toronto": 3359,
      "▁gitmis": 3360,
      "▁menkul": 3361,
      "##ilecek": 3362,
      "▁washington": 3363,
      "▁dısarıdan": 3364,
      "▁getirmisti": 3365,
      "##cut": 3366,
      "▁at": 3367,
      "▁saglık": 3368,
      "##ville": 3369,
      "▁reh": 3370,
      "▁355": 3371,
      "▁pey": 3372,
      "▁zir": 3373,
      "▁ters": 3374,
      "▁sair": 3375,
      "▁...\"": 3376,
      "▁kuyu": 3377,
      "▁dusecek": 3378,
      "▁bak": 3379,
      "▁oldu": 3380,
      "▁oyuncu": 3381,
      "▁saskın": 3382,
      "▁sait": 3383,
      "▁direkt": 3384,
      "▁rehberi": 3385,
      "##ilmesine": 3386,
      "▁yon": 3387,
      "▁din": 3388,
      "▁iyisi": 3389,
      "▁hollywood": 3390,
      "▁ihmal": 3391,
      "▁mı": 3392,
      "##luga": 3393,
      "##01": 3394,
      "▁incel": 3395,
      "▁baslamıs": 3396,
      "▁ucusta": 3397,
      "▁3/8": 3398,
      "▁dor": 3399,
      "▁350": 3400,
      "▁bulabil": 3401,
      "▁otele": 3402,
      "▁uretimin": 3403,
      "▁robert": 3404,
      "##jur": 3405,
      "▁malzem": 3406,
      "▁tufek": 3407,
      "▁uygundu": 3408,
      "▁cor": 3409,
      "▁pac": 3410,
      "▁haksızlık": 3411,
      "▁plaj": 3412,
      "▁veremeyecegim": 3413,
      "▁yetkil": 3414,
      "▁eda": 3415,
      "##mamalı": 3416,
      "##elli": 3417,
      "▁'dir": 3418,
      "##eceginiz": 3419,
      "▁gunah": 3420,
      "▁istif": 3421,
      "▁acente": 3422,
      "##oster": 3423,
      "▁onceki": 3424,
      "▁dagıtım": 3425,
      "▁azalarak": 3426,
      "▁ceng": 3427,
      "▁192": 3428,
      "▁iri": 3429,
      "▁itibar": 3430,
      "▁limon": 3431,
      "▁ayrıntı": 3432,
      "?": 3433,
      "▁yuzyılın": 3434,
      "▁icme": 3435,
      "▁union": 3436,
      "##ebilirdi": 3437,
      "▁anlıslanabilir": 3438,
      "▁yukarı": 3439,
      "▁ardında": 3440,
      "▁cıvıl": 3441,
      "▁gerektiriyor": 3442,
      "▁er": 3443,
      "▁vadeli": 3444,
      "▁besyuzelli": 3445,
      "▁verimsiz": 3446,
      "▁herkesle": 3447,
      "▁almak": 3448,
      "▁375": 3449,
      "##das": 3450,
      "▁ayna": 3451,
      "▁hemen": 3452,
      "##lice": 3453,
      "▁43.3": 3454,
      "##dugu": 3455,
      "▁yurdu": 3456,
      "▁nisan'da": 3457,
      "▁20.000": 3458,
      "▁dai": 3459,
      "▁satıs": 3460,
      "▁yiyeceklerin": 3461,
      "▁uyus": 3462,
      "▁seyler": 3463,
      "▁urunler": 3464,
      "$": 3465,
      "▁komitesi": 3466,
      "▁patlıcan": 3467,
      "##ey": 3468,
      "▁aracılıgıyla": 3469,
      "##agıyla": 3470,
      "▁derim": 3471,
      "▁ne": 3472,
      "▁ihtiyacım": 3473,
      "▁hırsız": 3474,
      "##for": 3475,
      "▁gormezden": 3476,
      "##gan": 3477,
      "▁hasan": 3478,
      "▁teknik": 3479,
      "▁tespit": 3480,
      "▁kod": 3481,
      "▁zem": 3482,
      "##lestirdi": 3483,
      "▁yalancı": 3484,
      "▁yanına": 3485,
      "▁saglayacak": 3486,
      "▁im": 3487,
      "▁cos": 3488,
      "▁yavasti": 3489,
      "▁kapıl": 3490,
      "▁25.8": 3491,
      "▁teles": 3492,
      "##61": 3493,
      "▁muduru": 3494,
      "##dokuzyuzdoksan": 3495,
      "##5": 3496,
      "▁diken": 3497,
      "▁baglantılı": 3498,
      "▁gereksiz": 3499,
      "▁rengi": 3500,
      "▁olusturan": 3501,
      "▁vermedi": 3502,
      "▁dediler": 3503,
      "##ular": 3504,
      "▁aras": 3505,
      "##cilerin": 3506,
      "▁etmiyordu": 3507,
      "▁ucretler": 3508,
      "▁otomobiller": 3509,
      "▁nereler": 3510,
      "▁elinde": 3511,
      "▁kambiy": 3512,
      "▁sokuldu": 3513,
      "▁10.3": 3514,
      "▁amacla": 3515,
      "▁istemek": 3516,
      "▁kem": 3517,
      "▁bilmiyordu": 3518,
      "##urcuk": 3519,
      "▁yaparak": 3520,
      "▁omz": 3521,
      "▁iltifat": 3522,
      "▁soylediler": 3523,
      "##8.6": 3524,
      "▁senaryo": 3525,
      "▁formul": 3526,
      "##ebec": 3527,
      "▁mon": 3528,
      "▁bakma": 3529,
      "##idi": 3530,
      "▁sonlarında": 3531,
      "▁apple": 3532,
      "▁butce": 3533,
      "▁alkol": 3534,
      "▁baslamıstı": 3535,
      "▁ucusları": 3536,
      "▁196": 3537,
      "▁dilerim": 3538,
      "##mem": 3539,
      "▁yazı": 3540,
      "▁vermis": 3541,
      "##mis": 3542,
      "##verir": 3543,
      "▁cid": 3544,
      "▁oglu": 3545,
      "▁adeta": 3546,
      "▁jandarma": 3547,
      "▁redde": 3548,
      "##ta": 3549,
      "▁sokaga": 3550,
      "▁resep": 3551,
      "▁baskanlık": 3552,
      "▁sivrisin": 3553,
      "▁cakıl": 3554,
      "##ackard": 3555,
      "▁odamdan": 3556,
      "##cin": 3557,
      "▁dolardır": 3558,
      "##kuz": 3559,
      "▁69": 3560,
      "▁sınırlı": 3561,
      "▁endustrisi": 3562,
      "##ist": 3563,
      "▁toplumu": 3564,
      "▁degir": 3565,
      "##isim": 3566,
      "##ede": 3567,
      "▁yanar": 3568,
      "▁avustralya": 3569,
      "▁wh": 3570,
      "▁demisti": 3571,
      "▁esdeger": 3572,
      "▁kokusu": 3573,
      "##dah": 3574,
      "▁hoca": 3575,
      "▁aran": 3576,
      "▁fırtın": 3577,
      "▁r.": 3578,
      "▁giderim": 3579,
      "▁zamana": 3580,
      "##attı": 3581,
      "▁merkezine": 3582,
      "##uv": 3583,
      "▁ordu": 3584,
      "▁gir": 3585,
      "▁temsilcileri": 3586,
      "##t'in": 3587,
      "▁sekizinci": 3588,
      "▁kova": 3589,
      "▁1150000": 3590,
      "▁havayoludur": 3591,
      "▁mukemmeldi": 3592,
      "▁2.73": 3593,
      "▁tesisten": 3594,
      "##ındak": 3595,
      "▁ovun": 3596,
      "▁shearson": 3597,
      "▁flori": 3598,
      "▁duduk": 3599,
      "▁atak": 3600,
      "▁40.4": 3601,
      "##alamak": 3602,
      "##er": 3603,
      "▁istat": 3604,
      "▁unu": 3605,
      "▁nefis": 3606,
      "▁konumunu": 3607,
      "##eyecegini": 3608,
      "▁ce": 3609,
      "▁oldurmek": 3610,
      "▁anim": 3611,
      "▁dunyaya": 3612,
      "##esindeki": 3613,
      "▁ayrım": 3614,
      "##ulu": 3615,
      "▁bulanık": 3616,
      "▁ait": 3617,
      "▁kapsam": 3618,
      "▁kahvalti": 3619,
      "##iyenin": 3620,
      "##da'nın": 3621,
      "▁ucus": 3622,
      "##ulmaz": 3623,
      "▁kag": 3624,
      "▁emel": 3625,
      "##sef": 3626,
      "▁sebze": 3627,
      "▁masasında": 3628,
      "▁yeri": 3629,
      "▁odadan": 3630,
      "▁sekl": 3631,
      "▁olayın": 3632,
      "▁leblebi": 3633,
      "▁icten": 3634,
      "▁ceo": 3635,
      "▁kanep": 3636,
      "▁hanımı": 3637,
      "▁tiksin": 3638,
      "▁mırıldandı": 3639,
      "▁sorunlar": 3640,
      "▁cob": 3641,
      "##cılık": 3642,
      "▁gazetecilik": 3643,
      "▁41.2": 3644,
      "▁herhangi": 3645,
      "▁kafa": 3646,
      "##dırdı": 3647,
      "▁ithalatı": 3648,
      "▁etti": 3649,
      "▁faizli": 3650,
      "▁gazetec": 3651,
      "▁vali": 3652,
      "▁esvap": 3653,
      "▁alın": 3654,
      "▁1962": 3655,
      "▁iciniz": 3656,
      "▁6.25": 3657,
      "▁sicak": 3658,
      "▁yurudum": 3659,
      "▁garsonlar": 3660,
      "▁acıklı": 3661,
      "##tıyor": 3662,
      "▁yatar": 3663,
      "▁karakol": 3664,
      "##ersiz": 3665,
      "▁verdigimiz": 3666,
      "##mazdı": 3667,
      "##lenmesi": 3668,
      "##jr": 3669,
      "▁geldigi": 3670,
      "##mektedir": 3671,
      "##alıklar": 3672,
      "▁turlari": 3673,
      "▁arabaya": 3674,
      "▁havlu": 3675,
      "▁saatinde": 3676,
      "▁gol": 3677,
      "▁acıklayan": 3678,
      "▁degerlendirmeye": 3679,
      "▁hafız": 3680,
      "▁soruları": 3681,
      "##ksen": 3682,
      "▁bulunmaktadır": 3683,
      "▁philadelphia": 3684,
      "##umuze": 3685,
      "▁takıldı": 3686,
      "▁cicekli": 3687,
      "▁hastalı": 3688,
      "▁ab'nin": 3689,
      "▁anlıyor": 3690,
      "▁vergisi": 3691,
      "▁muht": 3692,
      "##liyorum": 3693,
      "▁ısıl": 3694,
      "▁kesmis": 3695,
      "##0'lik": 3696,
      "▁oturdugu": 3697,
      "▁gozlerini": 3698,
      "▁fr": 3699,
      "=": 3700,
      "▁demokratlar": 3701,
      "▁cins": 3702,
      "▁birligi": 3703,
      "▁viy": 3704,
      "▁gazetesinin": 3705,
      "▁fil": 3706,
      "▁cak": 3707,
      "▁burokrat": 3708,
      "▁tampa'dan": 3709,
      "▁gorevi": 3710,
      "▁hasıl": 3711,
      "▁evlilig": 3712,
      "▁muhal": 3713,
      "▁sabaha": 3714,
      "▁mad": 3715,
      "▁gitmedim": 3716,
      "##ayan": 3717,
      "▁dayan": 3718,
      "▁mod": 3719,
      "▁hicbirinin": 3720,
      "▁salkım": 3721,
      "##.00": 3722,
      "##ilan": 3723,
      "▁milyonlarca": 3724,
      "▁yururluk": 3725,
      "##isiyle": 3726,
      "▁ansiklop": 3727,
      "▁seydir": 3728,
      "▁1.5920": 3729,
      "▁gormedi": 3730,
      "▁erdir": 3731,
      "▁yuzunun": 3732,
      "▁giys": 3733,
      "▁odemis": 3734,
      "▁kalmaya": 3735,
      "▁1.19": 3736,
      "▁ıs": 3737,
      "##emistir": 3738,
      "##lamalı": 3739,
      "##taydı": 3740,
      "▁zam": 3741,
      "▁azalan": 3742,
      "##cının": 3743,
      "▁kira": 3744,
      "##luya": 3745,
      "▁yasındaki": 3746,
      "▁rok": 3747,
      "▁falan": 3748,
      "▁alanın": 3749,
      "▁yahu": 3750,
      "▁cleveland'a": 3751,
      "▁sarısı": 3752,
      "▁manzar": 3753,
      "▁yerlesik": 3754,
      "##gından": 3755,
      "▁cana": 3756,
      "##kara": 3757,
      "▁sanayicileri": 3758,
      "▁siniz": 3759,
      "▁cıkag": 3760,
      "▁bahcesi": 3761,
      "▁yapabilir": 3762,
      "##masına": 3763,
      "##bon": 3764,
      "▁tasv": 3765,
      "▁yollarda": 3766,
      "▁bindokuzyuzotuz": 3767,
      "▁gunlerde": 3768,
      "▁filozof": 3769,
      "▁ld": 3770,
      "▁sonbah": 3771,
      "▁asama": 3772,
      "▁kapısını": 3773,
      "▁kesilmis": 3774,
      "▁yolda": 3775,
      "▁oyleyse": 3776,
      "▁haziran": 3777,
      "▁gunleri": 3778,
      "▁cum": 3779,
      "▁olanlar": 3780,
      "##her": 3781,
      "▁kulub": 3782,
      "##.c": 3783,
      "▁doktorların": 3784,
      "▁muamele": 3785,
      "##veren": 3786,
      "▁degildir": 3787,
      "▁miktar": 3788,
      "▁elde": 3789,
      "▁yaktı": 3790,
      "▁atıl": 3791,
      "▁ogrenmek": 3792,
      "▁ım": 3793,
      "▁iyilik": 3794,
      "▁sozune": 3795,
      "▁mek": 3796,
      "▁ibrahim": 3797,
      "▁cevrili": 3798,
      "▁tuh": 3799,
      "▁sk": 3800,
      "▁alar": 3801,
      "▁yatırımcıları": 3802,
      "▁memnuniyeti": 3803,
      "▁satıcı": 3804,
      "▁bede": 3805,
      "▁masal": 3806,
      "▁karsilas": 3807,
      "##cil": 3808,
      "▁cocuklarına": 3809,
      "▁dille": 3810,
      "##ge": 3811,
      "▁taahhut": 3812,
      "▁kurtar": 3813,
      "▁kadar": 3814,
      "▁cen": 3815,
      "▁bakar": 3816,
      "▁oyu": 3817,
      "▁etkin": 3818,
      "▁ressam": 3819,
      "▁mufet": 3820,
      "##ılıga": 3821,
      "▁527": 3822,
      "▁parcacık": 3823,
      "▁merh": 3824,
      "▁ertel": 3825,
      "▁surpriz": 3826,
      "▁mikr": 3827,
      "##alandır": 3828,
      "▁ispan": 3829,
      "▁145": 3830,
      "▁625.4": 3831,
      "##is": 3832,
      "▁halk": 3833,
      "▁dusurdu": 3834,
      "▁reagan": 3835,
      "▁kurtulmak": 3836,
      "##kaya": 3837,
      "▁yedik": 3838,
      "▁kalemi": 3839,
      "##ecegim": 3840,
      "##set": 3841,
      "▁ucretlerini": 3842,
      "▁tutulmus": 3843,
      "▁oneri": 3844,
      "▁insanlardan": 3845,
      "##ıncı": 3846,
      "▁ciftci": 3847,
      "▁ucuslar": 3848,
      "▁amacıyla": 3849,
      "▁uzeri": 3850,
      "▁sektorunde": 3851,
      "▁1987": 3852,
      "▁hel": 3853,
      "##ner": 3854,
      "▁kilit": 3855,
      "▁kazanmak": 3856,
      "##aden": 3857,
      "▁kateg": 3858,
      "▁kirec": 3859,
      "▁kızın": 3860,
      "▁gecmis": 3861,
      "▁kut": 3862,
      "##ustu": 3863,
      "▁izin": 3864,
      "▁aqu": 3865,
      "##am": 3866,
      "##kanın": 3867,
      "▁oak": 3868,
      "▁demeye": 3869,
      "▁alıstır": 3870,
      "▁suikast": 3871,
      "▁vad": 3872,
      "▁ucurt": 3873,
      "##iligini": 3874,
      "▁sozcuk": 3875,
      "▁acım": 3876,
      "▁1.90": 3877,
      "▁durup": 3878,
      "▁ihtimal": 3879,
      "▁seven": 3880,
      "##ni": 3881,
      "▁insanlık": 3882,
      "##amaya": 3883,
      "▁fas": 3884,
      "▁hepimiz": 3885,
      "▁yasamın": 3886,
      "▁um": 3887,
      "▁hisseleri": 3888,
      "▁duygu": 3889,
      "##in": 3890,
      "▁donald": 3891,
      "##alım": 3892,
      "▁he": 3893,
      "##mez": 3894,
      "▁oylesine": 3895,
      "▁gordugumuz": 3896,
      "▁toplayan": 3897,
      "▁parti": 3898,
      "▁ulastırma": 3899,
      "▁gerektigine": 3900,
      "▁aksamki": 3901,
      "▁ilerleme": 3902,
      "▁dalg": 3903,
      "▁yiyor": 3904,
      "▁bug": 3905,
      "▁bilgisay": 3906,
      "▁yerli": 3907,
      "▁yasan": 3908,
      "▁radyo": 3909,
      "▁denver'deki": 3910,
      "▁arasında": 3911,
      "▁sagır": 3912,
      "▁dokmek": 3913,
      "▁yav": 3914,
      "##vin": 3915,
      "##iydi": 3916,
      "▁sehre": 3917,
      "▁babası": 3918,
      "▁hec": 3919,
      "▁kurk": 3920,
      "▁ster": 3921,
      "▁147": 3922,
      "▁cifti": 3923,
      "##ısıydı": 3924,
      "▁gerekti": 3925,
      "▁bırakmıs": 3926,
      "▁0.": 3927,
      "▁icindir": 3928,
      "▁borsası'ndaki": 3929,
      "##off": 3930,
      "▁atları": 3931,
      "▁muhalif": 3932,
      "▁donusu": 3933,
      "##asyonu": 3934,
      "▁161.5": 3935,
      "▁boynunda": 3936,
      "▁65": 3937,
      "▁alınan": 3938,
      "▁montreal'a": 3939,
      "▁yumurt": 3940,
      "▁38.50": 3941,
      "##ac": 3942,
      "▁abd'de": 3943,
      "▁izlemek": 3944,
      "##umuzu": 3945,
      "▁nut": 3946,
      "▁istendi": 3947,
      "▁gungor": 3948,
      "▁gold": 3949,
      "▁kaymak": 3950,
      "▁yetiskin": 3951,
      "##cuların": 3952,
      "▁hijyenikti": 3953,
      "▁hızlıca": 3954,
      "▁sayıl": 3955,
      "▁yavrum": 3956,
      "▁kendisinde": 3957,
      "▁ihracat": 3958,
      "▁eliyle": 3959,
      "▁zamaninda": 3960,
      "▁mesaj": 3961,
      "##88": 3962,
      "▁mus": 3963,
      "▁derg": 3964,
      "▁acılacak": 3965,
      "▁salomon": 3966,
      "▁kaldırdı": 3967,
      "##lamak": 3968,
      "▁eksi": 3969,
      "##diler": 3970,
      "▁kazancı": 3971,
      "##luyordu": 3972,
      "##jektif": 3973,
      "▁425000": 3974,
      "▁kabul": 3975,
      "▁ic": 3976,
      "▁anlay": 3977,
      "▁sular": 3978,
      "##umuzun": 3979,
      "▁kacınılmaz": 3980,
      "▁yonunde": 3981,
      "▁olmustu": 3982,
      "▁ltd.": 3983,
      "##gileri": 3984,
      "▁bush'un": 3985,
      "▁donuyor": 3986,
      "▁gotur": 3987,
      "▁hasta": 3988,
      "##artmanı": 3989,
      "▁nay": 3990,
      "▁artısı": 3991,
      "▁allian": 3992,
      "##ladıklarını": 3993,
      "▁huv": 3994,
      "▁rast": 3995,
      "▁grev": 3996,
      "##mekle": 3997,
      "▁limuz": 3998,
      "▁askerler": 3999,
      "##.98": 4000,
      "▁%3.4": 4001,
      "▁kasket": 4002,
      "▁katilmak": 4003,
      "▁izliyor": 4004,
      "▁veh": 4005,
      "▁kel": 4006,
      "▁beraber": 4007,
      "▁annesinin": 4008,
      "▁pin": 4009,
      "##par": 4010,
      "##viri": 4011,
      "▁vurmus": 4012,
      "▁yazılan": 4013,
      "▁dısarıya": 4014,
      "▁acmak": 4015,
      "▁geldiniz": 4016,
      "▁18.65": 4017,
      "▁103": 4018,
      "▁mg": 4019,
      "▁2.1": 4020,
      "##dag": 4021,
      "▁tay": 4022,
      "▁zorla": 4023,
      "▁ko": 4024,
      "▁kurumsal": 4025,
      "▁dergi": 4026,
      "▁4.6": 4027,
      "▁yiyecekler": 4028,
      "▁misin": 4029,
      "▁baslandı": 4030,
      "▁gosterin": 4031,
      "▁vermek": 4032,
      "▁=": 4033,
      "▁milliyetci": 4034,
      "▁financi": 4035,
      "▁egzersiz": 4036,
      "▁muac": 4037,
      "▁inerek": 4038,
      "▁ass": 4039,
      "▁bitirdi": 4040,
      "▁esnasında": 4041,
      "▁menfaat": 4042,
      "▁ucyuzatmıs": 4043,
      "▁vol": 4044,
      "▁en": 4045,
      "▁vadesi": 4046,
      "▁188": 4047,
      "▁zay": 4048,
      "▁ısır": 4049,
      "▁hatirlamiyorum": 4050,
      "▁ettir": 4051,
      "▁sci": 4052,
      "▁kan": 4053,
      "▁leri": 4054,
      "▁severek": 4055,
      "##ira": 4056,
      "▁olumune": 4057,
      "▁ırk": 4058,
      "##isindeki": 4059,
      "▁aylarında": 4060,
      "▁tuccarı": 4061,
      "▁tiyatr": 4062,
      "##zat": 4063,
      "▁12.9": 4064,
      "▁cıkısı": 4065,
      "##anları": 4066,
      "▁konuları": 4067,
      "▁1250": 4068,
      "▁duvarlar": 4069,
      "▁color": 4070,
      "▁eri": 4071,
      "▁garson": 4072,
      "▁rakamlar": 4073,
      "▁son": 4074,
      "▁vah": 4075,
      "##'luk": 4076,
      "▁electric": 4077,
      "▁sarılı": 4078,
      "▁entel": 4079,
      "▁bilgi": 4080,
      "▁kırıklıgı": 4081,
      "▁cocuk": 4082,
      "▁seneye": 4083,
      "##ebiliyor": 4084,
      "##82": 4085,
      "##meyi": 4086,
      "▁kıc": 4087,
      "▁vardır": 4088,
      "▁iktidara": 4089,
      "▁katmer": 4090,
      "##ehir": 4091,
      "▁atlan": 4092,
      "▁166.9": 4093,
      "▁izah": 4094,
      "▁gerekirdi": 4095,
      "▁donan": 4096,
      "▁kokulu": 4097,
      "▁karanlık": 4098,
      "▁dusundu": 4099,
      "▁kalkmıs": 4100,
      "▁rusya": 4101,
      "▁iste": 4102,
      "▁dram": 4103,
      "##4": 4104,
      "▁yurttas": 4105,
      "##9": 4106,
      "▁for": 4107,
      "▁eastern": 4108,
      "▁odenek": 4109,
      "▁edilm": 4110,
      "▁aks": 4111,
      "▁kırp": 4112,
      "##0'da": 4113,
      "##15": 4114,
      "##ıntı": 4115,
      "##ısıl": 4116,
      "▁kimseler": 4117,
      "##menin": 4118,
      "▁kıbr": 4119,
      "▁ansik": 4120,
      "##sel": 4121,
      "##hin": 4122,
      "##esco": 4123,
      "##ule": 4124,
      "▁olagan": 4125,
      "##hanede": 4126,
      "▁asil": 4127,
      "▁vec": 4128,
      "▁bırakmak": 4129,
      "##11": 4130,
      "▁kapak": 4131,
      "▁sıyr": 4132,
      "▁acaba": 4133,
      "▁bolun": 4134,
      "▁yararlan": 4135,
      "▁ves": 4136,
      "▁55": 4137,
      "##dikleri": 4138,
      "▁sut": 4139,
      "▁dairesi": 4140,
      "▁sayılmaz": 4141,
      "▁devasa": 4142,
      "▁oldugunda": 4143,
      "▁eren": 4144,
      "##adılar": 4145,
      "▁ras": 4146,
      "▁bizlerle": 4147,
      "▁kaybeden": 4148,
      "##yas": 4149,
      "##enn": 4150,
      "▁aksamları": 4151,
      "##dimiza": 4152,
      "##0.4": 4153,
      "##dirde": 4154,
      "▁caz": 4155,
      "▁3/4": 4156,
      "▁girebilir": 4157,
      "▁duyulur": 4158,
      "▁hita": 4159,
      "▁fa": 4160,
      "▁kural": 4161,
      "▁beg": 4162,
      "##lemisti": 4163,
      "##tik": 4164,
      "▁systems": 4165,
      "▁evvela": 4166,
      "▁isbir": 4167,
      "▁gerekcesiyle": 4168,
      "##uston": 4169,
      "##arım": 4170,
      "▁isini": 4171,
      "▁hızlandır": 4172,
      "▁gelmesi": 4173,
      "##ika": 4174,
      "▁may": 4175,
      "▁pant": 4176,
      "##besyuz": 4177,
      "▁3.6": 4178,
      "▁basma": 4179,
      "▁sed": 4180,
      "▁ihtiyacı": 4181,
      "▁vuruyor": 4182,
      "▁odu": 4183,
      "▁buldu": 4184,
      "▁bankacı": 4185,
      "▁ucyuzyetmisbir": 4186,
      "##.2": 4187,
      "##yordu": 4188,
      "▁20.42": 4189,
      "▁dalkavuk": 4190,
      "##mıstım": 4191,
      "▁8.1": 4192,
      "▁veren": 4193,
      "▁gorusme": 4194,
      "▁zarfında": 4195,
      "▁bul": 4196,
      "##laka": 4197,
      "▁yetkilisi": 4198,
      "▁temettu": 4199,
      "▁sarar": 4200,
      "▁oturt": 4201,
      "▁yuzuk": 4202,
      "##ler'in": 4203,
      "▁5.9": 4204,
      "▁cesidi": 4205,
      "▁1.39": 4206,
      "▁umur": 4207,
      "▁kısacası": 4208,
      "▁yasal": 4209,
      "▁mab": 4210,
      "▁dalgalan": 4211,
      "##0000": 4212,
      "▁1989-8": 4213,
      "▁hewlett-packard": 4214,
      "▁sorustur": 4215,
      "▁harıl": 4216,
      "▁yayınlan": 4217,
      "▁cikista": 4218,
      "▁birkacının": 4219,
      "▁gecirdik": 4220,
      "▁puanlama": 4221,
      "▁cesitliligi": 4222,
      "▁yapay": 4223,
      "▁minik": 4224,
      "▁gelmiyor": 4225,
      "▁gozuyle": 4226,
      "▁klas": 4227,
      "▁icin": 4228,
      "▁et": 4229,
      "▁toplayıp": 4230,
      "##.1": 4231,
      "▁ların": 4232,
      "▁yarı": 4233,
      "▁fevkalade": 4234,
      "▁abdul": 4235,
      "##llarca": 4236,
      "▁islere": 4237,
      "▁sınıflandır": 4238,
      "▁zer": 4239,
      "▁degismedi": 4240,
      "##aladım": 4241,
      "▁taklit": 4242,
      "▁avrupa'da": 4243,
      "▁'": 4244,
      "▁vurdu": 4245,
      "▁elimden": 4246,
      "▁espr": 4247,
      "##ova": 4248,
      "##ecekler": 4249,
      "##ag": 4250,
      "▁sigortası": 4251,
      "▁hizmette": 4252,
      "▁1.8": 4253,
      "##isleri": 4254,
      "▁sahn": 4255,
      "▁yoneticiler": 4256,
      "▁oturdu": 4257,
      "▁ır": 4258,
      "▁saadet": 4259,
      "▁kalitesizdi": 4260,
      "▁yapmaları": 4261,
      "##abilmis": 4262,
      "▁birer": 4263,
      "▁sahnede": 4264,
      "▁kalab": 4265,
      "##isyon": 4266,
      "▁denizden": 4267,
      "▁tehlike": 4268,
      "##lamaları": 4269,
      "▁wang": 4270,
      "##esi'nin": 4271,
      "▁hazin": 4272,
      "▁japonya'nın": 4273,
      "▁sozde": 4274,
      "▁goruluyor": 4275,
      "▁animasyon": 4276,
      "▁cıkarıyor": 4277,
      "▁soruyor": 4278,
      "▁azaldı": 4279,
      "##form": 4280,
      "▁7.8": 4281,
      "▁bulunmaz": 4282,
      "▁bolge": 4283,
      "▁gittik": 4284,
      "▁ankete": 4285,
      "▁kadif": 4286,
      "▁yaptılar": 4287,
      "▁marc": 4288,
      "▁366": 4289,
      "▁tatile": 4290,
      "▁sevinc": 4291,
      "▁arasına": 4292,
      "▁koruy": 4293,
      "##asıdır": 4294,
      "▁hah": 4295,
      "▁ticaretinde": 4296,
      "▁kendini": 4297,
      "▁laz": 4298,
      "##acagına": 4299,
      "▁peters": 4300,
      "▁sıf": 4301,
      "▁ceyrekte": 4302,
      "▁grup": 4303,
      "▁yız": 4304,
      "▁gucsuz": 4305,
      "▁yaratıyor": 4306,
      "▁cr": 4307,
      "▁kork": 4308,
      "▁partners": 4309,
      "▁bırakarak": 4310,
      "##madım": 4311,
      "▁122": 4312,
      "##dayan": 4313,
      "▁boston'a": 4314,
      "##edigi": 4315,
      "##acan": 4316,
      "▁570": 4317,
      "▁americ": 4318,
      "▁kov": 4319,
      "▁fakult": 4320,
      "▁miss": 4321,
      "▁mal": 4322,
      "##ilmeye": 4323,
      "▁tahminlerinin": 4324,
      "▁indianapolis": 4325,
      "##dıgımı": 4326,
      "##ihat": 4327,
      "▁vurdum": 4328,
      "##mıyorlar": 4329,
      "▁co.'nun": 4330,
      "▁tayin": 4331,
      "##duc": 4332,
      "##icileri": 4333,
      "▁kandır": 4334,
      "▁ortak": 4335,
      "##mustuk": 4336,
      "▁olduk": 4337,
      "▁secen": 4338,
      "▁musta": 4339,
      "‘": 4340,
      "##akat": 4341,
      "▁haft": 4342,
      "▁makul": 4343,
      "▁karsiladi": 4344,
      "▁suya": 4345,
      "▁avantaj": 4346,
      "##7.8": 4347,
      "▁lloyd": 4348,
      "##ılıgın": 4349,
      "▁agr": 4350,
      "▁cekiyor": 4351,
      "▁aban": 4352,
      "▁g.": 4353,
      "▁quot": 4354,
      "▁arkad": 4355,
      "##se": 4356,
      "▁kucuk": 4357,
      "▁havalimanından": 4358,
      "▁fiyatlandır": 4359,
      "▁4200'e": 4360,
      "▁avcı": 4361,
      "▁proje": 4362,
      "##1.3": 4363,
      "▁tavan": 4364,
      "▁diye": 4365,
      "▁olsun": 4366,
      "▁massachusetts": 4367,
      "##iymis": 4368,
      "▁3000": 4369,
      "▁mud": 4370,
      "▁elestir": 4371,
      "##unuz": 4372,
      "▁kaynar": 4373,
      "▁tarihten": 4374,
      "▁sindir": 4375,
      "▁guzeldi": 4376,
      "##iv": 4377,
      "▁zıp": 4378,
      "▁ort": 4379,
      "##48": 4380,
      "▁gidebil": 4381,
      "▁nesil": 4382,
      "▁pismis": 4383,
      "##iyetle": 4384,
      "▁dogan": 4385,
      "▁gitmeyi": 4386,
      "▁yabancı": 4387,
      "▁sesle": 4388,
      "##eginin": 4389,
      "▁koyu": 4390,
      "▁tedavuldeki": 4391,
      "##tere": 4392,
      "▁soylemek": 4393,
      "▁201622.": 4394,
      "▁edilir": 4395,
      "▁uns": 4396,
      "▁karakter": 4397,
      "▁kahkaha": 4398,
      "▁degerler": 4399,
      "##lo": 4400,
      "▁yargıc": 4401,
      "▁bond": 4402,
      "▁gurbet": 4403,
      "##dra": 4404,
      "##lar": 4405,
      "##acaktır": 4406,
      "##emex": 4407,
      "▁nor": 4408,
      "▁tug": 4409,
      "▁zalim": 4410,
      "▁satmaya": 4411,
      "▁nal": 4412,
      "▁yaz": 4413,
      "##ustur": 4414,
      "▁halini": 4415,
      "▁yuzd": 4416,
      "▁yolculuk": 4417,
      "▁satıyor": 4418,
      "▁siddetli": 4419,
      "##ez": 4420,
      "▁1960'": 4421,
      "▁usak": 4422,
      "▁kasabanın": 4423,
      "▁babamın": 4424,
      "▁pamuk": 4425,
      "▁hakikaten": 4426,
      "▁5.7": 4427,
      "▁mudu": 4428,
      "##25": 4429,
      "▁yes": 4430,
      "▁oturu": 4431,
      "▁metaf": 4432,
      "▁kendisi": 4433,
      "##gı": 4434,
      "##meyecek": 4435,
      "▁boynun": 4436,
      "▁cenaz": 4437,
      "▁haftalarda": 4438,
      "▁ing": 4439,
      "▁lab": 4440,
      "▁rut": 4441,
      "##0": 4442,
      "▁sıcr": 4443,
      "▁kafes": 4444,
      "▁yasamadim": 4445,
      "##masız": 4446,
      "▁soyun": 4447,
      "▁yurutme": 4448,
      "##umus": 4449,
      "▁hırs": 4450,
      "▁konusunu": 4451,
      "▁oncesi": 4452,
      "▁iht": 4453,
      "▁dolay": 4454,
      "▁%5": 4455,
      "▁%10": 4456,
      "▁kıran": 4457,
      "##bas": 4458,
      "▁oldukları": 4459,
      "▁sıg": 4460,
      "##medigini": 4461,
      "##aydı": 4462,
      "##sis": 4463,
      "▁donemin": 4464,
      "▁essiz": 4465,
      "▁icine": 4466,
      "▁olusu": 4467,
      "▁yuruyus": 4468,
      "▁salın": 4469,
      "##tıkları": 4470,
      "▁gonlunu": 4471,
      "▁diyar": 4472,
      "▁konuyu": 4473,
      "▁degildik": 4474,
      "▁kirpik": 4475,
      "▁saran": 4476,
      "##sınız": 4477,
      "▁skan": 4478,
      "##iyorsunuz": 4479,
      "▁seslerini": 4480,
      "▁11:": 4481,
      "▁ileri": 4482,
      "##rahim": 4483,
      "▁lerdir": 4484,
      "▁nimet": 4485,
      "▁sayı": 4486,
      "▁nihayet": 4487,
      "▁gun": 4488,
      "▁tarafı": 4489,
      "▁ilgililerdi": 4490,
      "▁bre": 4491,
      "▁tarafa": 4492,
      "▁duzine": 4493,
      "▁paylar": 4494,
      "##luguna": 4495,
      "▁evde": 4496,
      "▁kelime": 4497,
      "##hane": 4498,
      "▁ayrica": 4499,
      "##aa": 4500,
      "##eyle": 4501,
      "▁cehenn": 4502,
      "▁uzanan": 4503,
      "▁yaparken": 4504,
      "##2'ye": 4505,
      "▁iddia": 4506,
      "▁yuruyen": 4507,
      "▁ucak": 4508,
      "▁gez": 4509,
      "▁porcuk": 4510,
      "▁memnunum": 4511,
      "##cılara": 4512,
      "##taki": 4513,
      "▁patron": 4514,
      "▁cagdas": 4515,
      "▁merkeze": 4516,
      "▁pos": 4517,
      "▁sop": 4518,
      "▁cıglık": 4519,
      "▁odenmesi": 4520,
      "▁islemi": 4521,
      "▁gece": 4522,
      "▁44.5": 4523,
      "▁acın": 4524,
      "##anlarla": 4525,
      "▁hart": 4526,
      "▁tavana": 4527,
      "▁kullandim": 4528,
      "##,": 4529,
      "▁dagın": 4530,
      "▁hang": 4531,
      "##amıslar": 4532,
      "▁3'ten": 4533,
      "▁kıskan": 4534,
      "▁yaprakları": 4535,
      "##ıyorlardı": 4536,
      "▁cıkmıyor": 4537,
      "##gelelim": 4538,
      "▁denize": 4539,
      "▁magaz": 4540,
      "▁sm": 4541,
      "##ledik": 4542,
      "▁haberler": 4543,
      "▁mıydım": 4544,
      "▁fıkır": 4545,
      "▁nasihat": 4546,
      "##gate": 4547,
      "▁kapının": 4548,
      "▁cami": 4549,
      "▁bagımsız": 4550,
      "▁cub": 4551,
      "▁board": 4552,
      "▁dususun": 4553,
      "▁sıkıntısı": 4554,
      "##elere": 4555,
      "##ef": 4556,
      "##lunun": 4557,
      "##ku": 4558,
      "▁yerde": 4559,
      "▁ih": 4560,
      "▁alıyor": 4561,
      "##adım": 4562,
      "##lasmıs": 4563,
      "▁hin": 4564,
      "##enler": 4565,
      "▁isaret": 4566,
      "▁sonraki": 4567,
      "▁terc": 4568,
      "▁patlıc": 4569,
      "▁kucucuk": 4570,
      "▁sakallı": 4571,
      "▁baskanlıgı": 4572,
      "##memeye": 4573,
      "▁slog": 4574,
      "▁gre": 4575,
      "▁bindokuzyuz": 4576,
      "▁mekan": 4577,
      "▁soyleniyor": 4578,
      "▁dilek": 4579,
      "▁tuccarlar": 4580,
      "▁bakıyorlar": 4581,
      "▁cin'in": 4582,
      "▁alan": 4583,
      "##.53": 4584,
      "▁zengindi": 4585,
      "▁turunu": 4586,
      "▁hazine": 4587,
      "##osunda": 4588,
      "##larda": 4589,
      "▁kagıt": 4590,
      "▁ilgisiz": 4591,
      "▁bakanlıgı'nın": 4592,
      "##ımızı": 4593,
      "▁listeleyin": 4594,
      "##langıc": 4595,
      "▁pis": 4596,
      "▁yillardir": 4597,
      "▁st.": 4598,
      "▁onlardan": 4599,
      "▁lee": 4600,
      "▁degerlendiririm": 4601,
      "▁251": 4602,
      "▁seattle'ye": 4603,
      "▁sas": 4604,
      "▁ilgilenmediler": 4605,
      "##ix": 4606,
      "▁bilgisayar": 4607,
      "▁saldırgan": 4608,
      "##eket": 4609,
      "▁olanakları": 4610,
      "▁hepimize": 4611,
      "▁layık": 4612,
      "▁senede": 4613,
      "▁bulunuyor": 4614,
      "▁edebil": 4615,
      "▁hicbirini": 4616,
      "##'nu": 4617,
      "▁kalmamıs": 4618,
      "▁ucuslarla": 4619,
      "▁d": 4620,
      "▁a": 4621,
      "▁soluk": 4622,
      "▁elimi": 4623,
      "▁a.s": 4624,
      "▁nerelere": 4625,
      "▁diyebilirim": 4626,
      "▁guvert": 4627,
      "▁gorundugu": 4628,
      "▁misyon": 4629,
      "▁etmediler": 4630,
      "▁millet": 4631,
      "▁alas": 4632,
      "▁kopmus": 4633,
      "▁kardesim": 4634,
      "##tap": 4635,
      "##nala": 4636,
      "▁vazo": 4637,
      "▁cle": 4638,
      "▁pav": 4639,
      "▁saglıklı": 4640,
      "▁kaybederek": 4641,
      "▁kerem": 4642,
      "▁isyan": 4643,
      "▁u.s.": 4644,
      "▁bireyin": 4645,
      "▁capında": 4646,
      "▁derece": 4647,
      "▁izley": 4648,
      "▁ederdi": 4649,
      "▁.\"": 4650,
      "▁asci": 4651,
      "##lerin": 4652,
      "▁kullanmadim": 4653,
      "▁ekmegi": 4654,
      "▁ro": 4655,
      "▁ciro": 4656,
      "▁vur": 4657,
      "▁acel": 4658,
      "▁uyelik": 4659,
      "▁elden": 4660,
      "▁cephe": 4661,
      "▁parlam": 4662,
      "▁kimseye": 4663,
      "▁yarıs": 4664,
      "▁azdi": 4665,
      "▁achen": 4666,
      "▁duydu": 4667,
      "▁dayanır": 4668,
      "▁hakikat": 4669,
      "▁hut": 4670,
      "##kanlı": 4671,
      "▁muvaff": 4672,
      "▁sona": 4673,
      "▁bitiyor": 4674,
      "##lendi": 4675,
      "##omur": 4676,
      "▁piyasada": 4677,
      "##zer": 4678,
      "▁gazino": 4679,
      "▁yahut": 4680,
      "▁bilimleri": 4681,
      "▁haldun": 4682,
      "▁sım": 4683,
      "##ii": 4684,
      "▁beyn": 4685,
      "▁degisim": 4686,
      "##*": 4687,
      "▁sık": 4688,
      "▁bilg": 4689,
      "▁bill": 4690,
      "▁birbirimize": 4691,
      "▁salata": 4692,
      "▁standar": 4693,
      "▁kapısına": 4694,
      "▁teknoloj": 4695,
      "▁boyunda": 4696,
      "▁nadi": 4697,
      "▁yıldan": 4698,
      "▁sta": 4699,
      "▁sıgır": 4700,
      "▁felsef": 4701,
      "▁parlak": 4702,
      "▁can": 4703,
      "▁anneme": 4704,
      "▁ısık": 4705,
      "▁kongre": 4706,
      "▁cocuklar": 4707,
      "##iyon": 4708,
      "▁ozgurluk": 4709,
      "▁ufakti": 4710,
      "▁iktisat": 4711,
      "▁hepsinde": 4712,
      "▁gerceklestir": 4713,
      "##‘": 4714,
      "▁soguktu": 4715,
      "▁silin": 4716,
      "▁;": 4717,
      "##\\/32": 4718,
      "▁dog": 4719,
      "▁universit": 4720,
      "▁%27": 4721,
      "▁izleri": 4722,
      "▁etmedim": 4723,
      "▁ortadan": 4724,
      "▁olsa": 4725,
      "▁bahs": 4726,
      "▁muthis": 4727,
      "▁klim": 4728,
      "▁1.05": 4729,
      "▁aksama": 4730,
      "▁law": 4731,
      "##ilme": 4732,
      "##dım": 4733,
      "▁unif": 4734,
      "▁meydana": 4735,
      "▁camasır": 4736,
      "▁kontr": 4737,
      "▁buk": 4738,
      "▁kım": 4739,
      "▁karıstı": 4740,
      "▁bayan": 4741,
      "##koy": 4742,
      "▁dez": 4743,
      "##8.3": 4744,
      "▁da": 4745,
      "##y.": 4746,
      "▁delta'nın": 4747,
      "##say": 4748,
      "▁kaps": 4749,
      "▁log": 4750,
      "▁mef": 4751,
      "▁maliyet": 4752,
      "▁kusursuz": 4753,
      "▁operasyon": 4754,
      "▁mass": 4755,
      "▁pudra": 4756,
      "▁darbuk": 4757,
      "▁yayınladı": 4758,
      "▁burbank'tan": 4759,
      "▁depr": 4760,
      "▁hot": 4761,
      "▁/": 4762,
      "▁yaglı": 4763,
      "▁sıkıstır": 4764,
      "▁kaydedi": 4765,
      "▁terbiy": 4766,
      "▁oyalan": 4767,
      "z": 4768,
      "▁caddenin": 4769,
      "▁0.19": 4770,
      "##.05": 4771,
      "▁hedefi": 4772,
      "##uza": 4773,
      "##lemek": 4774,
      "▁memphis": 4775,
      "▁zirv": 4776,
      "▁tif": 4777,
      "▁buyume": 4778,
      "▁aklına": 4779,
      "▁karadeniz": 4780,
      "##alarını": 4781,
      "▁kaydetti": 4782,
      "▁diego'ya": 4783,
      "▁yumusak": 4784,
      "▁agzı": 4785,
      "▁muddet": 4786,
      "▁yıllardır": 4787,
      "##ediler": 4788,
      "▁kak": 4789,
      "▁mask": 4790,
      "##ington": 4791,
      "▁ora": 4792,
      "▁edemiyor": 4793,
      "▁dusman": 4794,
      "▁seksen": 4795,
      "▁malik": 4796,
      "▁evvelki": 4797,
      "▁renkli": 4798,
      "▁duyurdu": 4799,
      "▁revize": 4800,
      "##kla": 4801,
      "▁kurumu": 4802,
      "▁otuz'un": 4803,
      "▁communications": 4804,
      "▁suyu": 4805,
      "▁parib": 4806,
      "▁konular": 4807,
      "▁cık": 4808,
      "▁stan": 4809,
      "▁tavr": 4810,
      "##letti": 4811,
      "▁unis": 4812,
      "▁azı": 4813,
      "▁gazetenin": 4814,
      "▁soguk": 4815,
      "▁a.b.d.": 4816,
      "▁kontrolu": 4817,
      "##.55": 4818,
      "▁birbirine": 4819,
      "##'yle": 4820,
      "▁yontemi": 4821,
      "▁kısmını": 4822,
      "▁boylelikle": 4823,
      "▁guncel": 4824,
      "▁engelleri": 4825,
      "##oz": 4826,
      "▁toz": 4827,
      "▁kaka": 4828,
      "▁2.6": 4829,
      "▁sonraları": 4830,
      "##ody": 4831,
      "▁pırıltı": 4832,
      "▁68": 4833,
      "▁fen": 4834,
      "##mes": 4835,
      "▁burbank": 4836,
      "▁aleyh": 4837,
      "▁gecmiste": 4838,
      "▁85": 4839,
      "▁gozalt": 4840,
      "▁yukseltti": 4841,
      "▁kullanıl": 4842,
      "##elif": 4843,
      "▁yakasına": 4844,
      "##ormal": 4845,
      "▁tarihin": 4846,
      "▁185": 4847,
      "▁pic": 4848,
      "▁saat": 4849,
      "▁1.02": 4850,
      "▁kısıt": 4851,
      "##icisi": 4852,
      "▁bar": 4853,
      "▁7.6": 4854,
      "▁yayımlanan": 4855,
      "##uluk": 4856,
      "▁ramazan": 4857,
      "##mar": 4858,
      "▁kendileri": 4859,
      "##dıgım": 4860,
      "##.000": 4861,
      "▁gelebilir": 4862,
      "▁yargılan": 4863,
      "▁nes": 4864,
      "▁varacak": 4865,
      "▁konustu": 4866,
      "▁stanley": 4867,
      "##ant": 4868,
      "▁1\\/4": 4869,
      "##taz": 4870,
      "▁orman": 4871,
      "▁konusu": 4872,
      "▁de": 4873,
      "▁hast": 4874,
      "▁kurtarma": 4875,
      "▁tar": 4876,
      "▁genislem": 4877,
      "▁ibm": 4878,
      "▁data": 4879,
      "▁25": 4880,
      "▁sp": 4881,
      "▁olmadigini": 4882,
      "▁kil": 4883,
      "▁benim": 4884,
      "▁uykuya": 4885,
      "▁kelep": 4886,
      "▁egitimi": 4887,
      "▁yanlıs": 4888,
      "▁ayrılan": 4889,
      "##ech": 4890,
      "##amanın": 4891,
      "##iyorlardı": 4892,
      "▁hane": 4893,
      "▁altern": 4894,
      "▁sorunlarına": 4895,
      "▁duyuyor": 4896,
      "▁cer": 4897,
      "▁acayip": 4898,
      "▁sayan": 4899,
      "▁murekk": 4900,
      "▁dır": 4901,
      "▁gozler": 4902,
      "▁buyum": 4903,
      "##eceklerini": 4904,
      "▁vade": 4905,
      "▁guzellik": 4906,
      "▁104": 4907,
      "##ale": 4908,
      "▁kahve": 4909,
      "▁corry": 4910,
      "##gu": 4911,
      "▁eriy": 4912,
      "▁%9": 4913,
      "##deniz": 4914,
      "▁isimiz": 4915,
      "▁semt": 4916,
      "▁tekn": 4917,
      "▁bankalar": 4918,
      "▁issiz": 4919,
      "▁cabucak": 4920,
      "▁etkinlik": 4921,
      "▁meseleyi": 4922,
      "▁ormanın": 4923,
      "▁arama": 4924,
      "##biy": 4925,
      "▁edildi": 4926,
      "▁salı": 4927,
      "▁alaka": 4928,
      "▁esliginde": 4929,
      "▁aleyhine": 4930,
      "##'in": 4931,
      "##inaden": 4932,
      "▁kaldırma": 4933,
      "▁nominal": 4934,
      "▁yerleri": 4935,
      "▁yapamam": 4936,
      "▁adnan": 4937,
      "##ediyorum": 4938,
      "▁gelir": 4939,
      "▁dergileri": 4940,
      "▁esnada": 4941,
      "▁agabey": 4942,
      "▁konak": 4943,
      "▁yurtdisinda": 4944,
      "▁york": 4945,
      "▁gundur": 4946,
      "##ilebilir": 4947,
      "▁turklerin": 4948,
      "▁fers": 4949,
      "##'un": 4950,
      "▁konuyla": 4951,
      "##adır": 4952,
      "▁noktada": 4953,
      "▁alanlar": 4954,
      "▁sektor": 4955,
      "▁degisiyor": 4956,
      "▁kanser": 4957,
      "▁fit": 4958,
      "##dr": 4959,
      "##cika": 4960,
      "▁deg": 4961,
      "▁kader": 4962,
      "[SEP]": 4963,
      "▁fay": 4964,
      "▁yahya": 4965,
      "▁kktc": 4966,
      "▁ellerim": 4967,
      "▁tehlikeli": 4968,
      "▁eseri": 4969,
      "▁degildiler": 4970,
      "▁acıyor": 4971,
      "▁hanım'ın": 4972,
      "##em": 4973,
      "▁epeyce": 4974,
      "▁ister": 4975,
      "##bol": 4976,
      "▁ustun": 4977,
      "##.28": 4978,
      "▁!..": 4979,
      "▁etstur": 4980,
      "▁almadim": 4981,
      "▁sar": 4982,
      "▁gorusmedim": 4983,
      "▁kalmayı": 4984,
      "▁lıg": 4985,
      "▁halbuki": 4986,
      "▁ner": 4987,
      "▁baskalarının": 4988,
      "▁bulundur": 4989,
      "▁atesli": 4990,
      "▁tur": 4991,
      "▁sır": 4992,
      "##&t": 4993,
      "▁lara": 4994,
      "##tıgını": 4995,
      "##rib": 4996,
      "▁arkamdan": 4997,
      "##8.4": 4998,
      "##son": 4999,
      "▁babasının": 5000,
      "▁satan": 5001,
      "▁seyh": 5002,
      "▁siiri": 5003,
      "▁karsılas": 5004,
      "▁hareketli": 5005,
      "▁olacagını": 5006,
      "▁tarihleri": 5007,
      "▁bazıları": 5008,
      "▁rady": 5009,
      "##tısı": 5010,
      "▁si": 5011,
      "▁cuma": 5012,
      "▁performans": 5013,
      "▁faydası": 5014,
      "▁anlasıldı": 5015,
      "##iciler": 5016,
      "##yla": 5017,
      "▁perakende": 5018,
      "▁acıklıyor": 5019,
      "▁boyu": 5020,
      "##lebilecek": 5021,
      "▁versin": 5022,
      "##xte": 5023,
      "##mayın": 5024,
      "▁tul": 5025,
      "▁derhal": 5026,
      "▁430000": 5027,
      "▁etmeyen": 5028,
      "▁sark": 5029,
      "▁aniden": 5030,
      "##5'": 5031,
      "▁dakikada": 5032,
      "##rub": 5033,
      "##ee": 5034,
      "▁252": 5035,
      "▁anımsam": 5036,
      "##c": 5037,
      "▁istiyor": 5038,
      "##ren": 5039,
      "▁yapmadıgını": 5040,
      "▁birbirinin": 5041,
      "##lugunun": 5042,
      "▁tamir": 5043,
      "▁az": 5044,
      "▁kısı": 5045,
      "▁komutan": 5046,
      "▁kendimiz": 5047,
      "▁1991": 5048,
      "▁milletvek": 5049,
      "▁oks": 5050,
      "▁surdu": 5051,
      "▁cocukların": 5052,
      "▁durdu": 5053,
      "▁il": 5054,
      "▁roy": 5055,
      "▁ileriye": 5056,
      "▁ailesinin": 5057,
      "▁oranda": 5058,
      "##iller": 5059,
      "##if": 5060,
      "▁denli": 5061,
      "▁tı": 5062,
      "▁kasa": 5063,
      "▁353": 5064,
      "▁gelmez": 5065,
      "▁golgesinde": 5066,
      "▁dusundugunu": 5067,
      "▁ayakta": 5068,
      "▁las": 5069,
      "▁solgun": 5070,
      "▁siir": 5071,
      "▁sok": 5072,
      "▁aksak": 5073,
      "▁kullanılacak": 5074,
      "▁calısmaya": 5075,
      "▁zorunlu": 5076,
      "##ales": 5077,
      "▁uyardı": 5078,
      "▁sanatın": 5079,
      "▁aranmak": 5080,
      "▁kurcal": 5081,
      "▁yerinde": 5082,
      "##isinde": 5083,
      "▁0.10": 5084,
      "▁varmıs": 5085,
      "▁etkili": 5086,
      "▁hikmet": 5087,
      "▁kaldım": 5088,
      "▁ille": 5089,
      "▁nav": 5090,
      "##inden": 5091,
      "▁koku": 5092,
      "▁ortasında": 5093,
      "##lılık": 5094,
      "▁kırıl": 5095,
      "▁getirilerinin": 5096,
      "▁gelmeyen": 5097,
      "##r": 5098,
      "▁insanı": 5099,
      "▁vatan": 5100,
      "▁mıyım": 5101,
      "▁7.7": 5102,
      "▁anım": 5103,
      "▁yemekler": 5104,
      "▁psikolojik": 5105,
      "▁550": 5106,
      "▁or": 5107,
      "▁yag": 5108,
      "▁makinesi": 5109,
      "▁mut": 5110,
      "##tari": 5111,
      "▁dosem": 5112,
      "##eder": 5113,
      "▁yersiz": 5114,
      "▁end": 5115,
      "▁almadan": 5116,
      "▁digeri": 5117,
      "▁yudum": 5118,
      "##cunun": 5119,
      "##ırdı": 5120,
      "▁odey": 5121,
      "—": 5122,
      "▁alana": 5123,
      "▁hepsi": 5124,
      "##3.5": 5125,
      "▁yapmayı": 5126,
      "▁karsiligini": 5127,
      "▁176": 5128,
      "▁sandal": 5129,
      "▁icecekler": 5130,
      "▁yıl": 5131,
      "▁ticarette": 5132,
      "##145": 5133,
      "##ba": 5134,
      "▁civarında": 5135,
      "▁almanya'nın": 5136,
      "▁mart": 5137,
      "▁haykır": 5138,
      "##tıktan": 5139,
      "▁calisanlardan": 5140,
      "▁ozdemir": 5141,
      "▁elimizde": 5142,
      "▁yukarıda": 5143,
      "▁8.50": 5144,
      "▁almıs": 5145,
      "▁yedir": 5146,
      "▁fı": 5147,
      "##ait": 5148,
      "▁dususu": 5149,
      "##sizligi": 5150,
      "▁serin": 5151,
      "##uzları": 5152,
      "▁viraj": 5153,
      "▁bilirler": 5154,
      "▁uzun": 5155,
      "▁ver": 5156,
      "▁kaleci": 5157,
      "▁sorun": 5158,
      "▁magdur": 5159,
      "▁diyet": 5160,
      "▁124": 5161,
      "▁niyet": 5162,
      "##si": 5163,
      "▁yerden": 5164,
      "▁kendin": 5165,
      "▁tatsız": 5166,
      "##munications": 5167,
      "##cilik": 5168,
      "▁uyeleri": 5169,
      "▁bulgu": 5170,
      "▁luzum": 5171,
      "▁secmek": 5172,
      "▁ulusal": 5173,
      "▁ceviri": 5174,
      "▁gitmeli": 5175,
      "▁trabzonspor": 5176,
      "▁ucu": 5177,
      "▁milyarını": 5178,
      "▁sah": 5179,
      "▁lez": 5180,
      "▁gelisen": 5181,
      "▁111": 5182,
      "▁fıstık": 5183,
      "▁1.300": 5184,
      "▁204": 5185,
      "▁zamanla": 5186,
      "▁erkek": 5187,
      "▁attım": 5188,
      "▁yanlısı": 5189,
      "▁kapısında": 5190,
      "▁well": 5191,
      "▁uzaklas": 5192,
      "▁ulkenin": 5193,
      "▁elimde": 5194,
      "##3.3": 5195,
      "▁arat": 5196,
      "▁cifte": 5197,
      "▁havayı": 5198,
      "▁arap": 5199,
      "▁kadını": 5200,
      "▁inip": 5201,
      "▁yurumek": 5202,
      "▁9.81": 5203,
      "##cu": 5204,
      "▁yerine": 5205,
      "▁fındık": 5206,
      "▁kuresel": 5207,
      "##dıgını": 5208,
      "▁1115": 5209,
      "▁hewlett": 5210,
      "##amiz": 5211,
      "▁mortgage": 5212,
      "▁capkın": 5213,
      "▁1.26": 5214,
      "##veti": 5215,
      "▁elbis": 5216,
      "▁umarım": 5217,
      "▁edilmesini": 5218,
      "▁yaptıgını": 5219,
      "▁kayı": 5220,
      "▁se": 5221,
      "##asıp": 5222,
      "##7.7": 5223,
      "▁nakliye": 5224,
      "▁esat": 5225,
      "##amın": 5226,
      "▁bile": 5227,
      "##agın": 5228,
      "▁450": 5229,
      "▁dilim": 5230,
      "▁sınırı": 5231,
      "▁degerlendirmek": 5232,
      "▁haldır": 5233,
      "##van": 5234,
      "▁yeng": 5235,
      "##sim": 5236,
      "##atlı": 5237,
      "▁chic": 5238,
      "##sul": 5239,
      "▁calı": 5240,
      "▁17.01": 5241,
      "▁dipl": 5242,
      "##amayacagim": 5243,
      "##ından": 5244,
      "▁sert": 5245,
      "▁gecerken": 5246,
      "▁tatildi": 5247,
      "▁planın": 5248,
      "▁lı": 5249,
      "▁yırtık": 5250,
      "▁gittim": 5251,
      "▁tuf": 5252,
      "▁hanım": 5253,
      "▁vardı": 5254,
      "▁bizleri": 5255,
      "▁mor": 5256,
      "##2.9": 5257,
      "▁ingiltere'de": 5258,
      "▁ses": 5259,
      "▁damg": 5260,
      "##ınc": 5261,
      "▁bekledigi": 5262,
      "▁birbirlerinin": 5263,
      "▁amac": 5264,
      "▁koca": 5265,
      "##press": 5266,
      "▁kinden": 5267,
      "##omb": 5268,
      "▁tampa'ya": 5269,
      "▁horm": 5270,
      "▁mufett": 5271,
      "▁genelkurmay": 5272,
      "▁tabak": 5273,
      "▁sevimli": 5274,
      "▁297": 5275,
      "##var": 5276,
      "▁adamakıllı": 5277,
      "##eledi": 5278,
      "##-sat": 5279,
      "▁yetersiz": 5280,
      "##sunuz": 5281,
      "▁kalitesi": 5282,
      "▁greens": 5283,
      "▁viski": 5284,
      "▁pay": 5285,
      "▁onay": 5286,
      "##nun": 5287,
      "▁aktiv": 5288,
      "▁olanak": 5289,
      "▁vasıtasıyla": 5290,
      "##ekim": 5291,
      "▁%51": 5292,
      "▁bırakıl": 5293,
      "▁corp.": 5294,
      "▁yapılıyor": 5295,
      "▁143": 5296,
      "▁soyleyen": 5297,
      "▁ama": 5298,
      "▁japonlar": 5299,
      "▁getirmek": 5300,
      "##acılara": 5301,
      "##hal": 5302,
      "▁yasam": 5303,
      "▁1986": 5304,
      "▁20": 5305,
      "▁listesini": 5306,
      "##ındır": 5307,
      "▁payını": 5308,
      "▁gorunen": 5309,
      "▁yurek": 5310,
      "▁cevik": 5311,
      "##0.8": 5312,
      "▁yılına": 5313,
      "▁sart": 5314,
      "##landıgını": 5315,
      "▁bizlere": 5316,
      "##asur": 5317,
      "▁ar": 5318,
      "▁bat": 5319,
      "▁kilidi": 5320,
      "▁ydi": 5321,
      "▁bunca": 5322,
      "▁degisiklikleri": 5323,
      "▁cign": 5324,
      "▁hep": 5325,
      "##uzel": 5326,
      "▁gonderdi": 5327,
      "▁dilen": 5328,
      "▁verilecek": 5329,
      "▁isa": 5330,
      "▁gazetelerde": 5331,
      "##ligini": 5332,
      "##olk": 5333,
      "▁keyif": 5334,
      "##iyo": 5335,
      "▁santim": 5336,
      "##cuya": 5337,
      "▁yedi": 5338,
      "##iyla": 5339,
      "##85": 5340,
      "▁spekul": 5341,
      "▁ailelere": 5342,
      "▁eh": 5343,
      "▁sanat": 5344,
      "▁sukur": 5345,
      "▁yapmak": 5346,
      "##larını": 5347,
      "##ilirken": 5348,
      "▁ikide": 5349,
      "▁ola": 5350,
      "▁asa": 5351,
      "▁saglıgı": 5352,
      "▁musterilerin": 5353,
      "▁baskasına": 5354,
      "▁turku": 5355,
      "▁comp": 5356,
      "▁1971": 5357,
      "##sever": 5358,
      "▁329": 5359,
      "##vermis": 5360,
      "▁ehemm": 5361,
      "▁iscileri": 5362,
      "▁bakmak": 5363,
      "##tın": 5364,
      "▁ley": 5365,
      "▁planlar": 5366,
      "▁buldugu": 5367,
      "##cılıgın": 5368,
      "▁atıyor": 5369,
      "▁kendinin": 5370,
      "▁115": 5371,
      "▁yunak": 5372,
      "▁vurgul": 5373,
      "▁kayboldu": 5374,
      "##irleri": 5375,
      "▁raporlar": 5376,
      "▁kristal": 5377,
      "▁6.75": 5378,
      "▁gosterileri": 5379,
      "▁sifir": 5380,
      "▁130": 5381,
      "▁giymis": 5382,
      "▁fırın": 5383,
      "▁hangileri": 5384,
      "##.92": 5385,
      "▁homurdan": 5386,
      "▁gozlerine": 5387,
      "▁89.6": 5388,
      "▁organize": 5389,
      "▁naf": 5390,
      "▁kimsen": 5391,
      "▁bahset": 5392,
      "▁evrenin": 5393,
      "▁rolu": 5394,
      "▁maf": 5395,
      "▁kapısı": 5396,
      "▁baskan": 5397,
      "▁baslangıcı": 5398,
      "▁demiray": 5399,
      "▁sekizonikibindokuzyuzdoksansekiz": 5400,
      "▁basrol": 5401,
      "▁gelistir": 5402,
      "▁edici": 5403,
      "▁onayladı": 5404,
      "▁211": 5405,
      "▁coktan": 5406,
      "▁kin": 5407,
      "▁federal": 5408,
      "▁komunist": 5409,
      "▁imkan": 5410,
      "##ılım": 5411,
      "▁artan": 5412,
      "##les": 5413,
      "▁icli": 5414,
      "▁1850": 5415,
      "##lamiyorum": 5416,
      "▁farkında": 5417,
      "▁kuy": 5418,
      "▁gazi": 5419,
      "##ance": 5420,
      "▁artısla": 5421,
      "▁saldır": 5422,
      "▁seh": 5423,
      "##av": 5424,
      "▁zorun": 5425,
      "▁dayanarak": 5426,
      "▁hız": 5427,
      "▁yaptim": 5428,
      "▁kasvet": 5429,
      "▁rom": 5430,
      "▁uretim": 5431,
      "##ımızda": 5432,
      "▁sib": 5433,
      "▁borc": 5434,
      "▁razı": 5435,
      "##875": 5436,
      "▁nobet": 5437,
      "▁kokuyordu": 5438,
      "▁sımsık": 5439,
      "▁that": 5440,
      "▁hosnut": 5441,
      "##37": 5442,
      "##e'nin": 5443,
      "▁yonet": 5444,
      "▁columbus'tan": 5445,
      "##ezz": 5446,
      "▁yardim": 5447,
      "▁gormus": 5448,
      "##ılıgında": 5449,
      "▁ideoloj": 5450,
      "##latan": 5451,
      "▁karsısına": 5452,
      "▁medeni": 5453,
      "▁yureginde": 5454,
      "▁gosterdi": 5455,
      "▁kazada": 5456,
      "▁koltugun": 5457,
      "▁rall": 5458,
      "##lamaz": 5459,
      "##.6": 5460,
      "▁mutluluk": 5461,
      "##kah": 5462,
      "▁lezzet": 5463,
      "▁karsılastırılabilir": 5464,
      "▁kuskusuz": 5465,
      "▁eroin": 5466,
      "▁odamiz": 5467,
      "▁199": 5468,
      "▁sahin": 5469,
      "▁kahval": 5470,
      "##ila": 5471,
      "▁tamamı": 5472,
      "▁cıkarak": 5473,
      "▁gayrimenkul": 5474,
      "▁1998": 5475,
      "▁beye": 5476,
      "▁vazgecti": 5477,
      "▁ederse": 5478,
      "▁sel": 5479,
      "▁tuy": 5480,
      "▁olcekli": 5481,
      "▁bilim": 5482,
      "▁yasası": 5483,
      "▁yiyecek": 5484,
      "▁baltimore'ye": 5485,
      "▁12": 5486,
      "##acıları": 5487,
      "##40": 5488,
      "▁katk": 5489,
      "▁vermesini": 5490,
      "▁hassas": 5491,
      "▁alacak": 5492,
      "▁faturami": 5493,
      "##|": 5494,
      "▁planlıyor": 5495,
      "▁hul": 5496,
      "##en": 5497,
      "##0.7": 5498,
      "▁yeryuz": 5499,
      "##eli": 5500,
      "##oker": 5501,
      "▁ilker": 5502,
      "##aladı": 5503,
      "▁recep": 5504,
      "▁berek": 5505,
      "▁ustelik": 5506,
      "▁ulkede": 5507,
      "▁mae": 5508,
      "##raj": 5509,
      "▁cekmis": 5510,
      "▁vegas": 5511,
      "##leyici": 5512,
      "##adir": 5513,
      "##uyor": 5514,
      "▁mustes": 5515,
      "▁ucuyor": 5516,
      "▁lezzetsiz": 5517,
      "▁anket": 5518,
      "▁istem": 5519,
      "▁almaktadır": 5520,
      "▁temelde": 5521,
      "▁kulup": 5522,
      "▁ta": 5523,
      "▁ogrenciler": 5524,
      "##eyici": 5525,
      "▁yukseldi": 5526,
      "▁spor": 5527,
      "▁yazdıgı": 5528,
      "▁duvarda": 5529,
      "##ımızdaki": 5530,
      "▁kud": 5531,
      "▁duzenleme": 5532,
      "##man": 5533,
      "▁olurum": 5534,
      "▁yıldız": 5535,
      "▁150": 5536,
      "▁duzel": 5537,
      "▁isterse": 5538,
      "##use": 5539,
      "▁seattle'den": 5540,
      "▁149": 5541,
      "##ger": 5542,
      "▁tum": 5543,
      "▁avukat": 5544,
      "▁masraf": 5545,
      "▁adlı": 5546,
      "▁labor": 5547,
      "▁tuzlu": 5548,
      "▁.'": 5549,
      "▁gor": 5550,
      "▁balkan": 5551,
      "▁arkadaslar": 5552,
      "##aye": 5553,
      "▁kızar": 5554,
      "▁muhur": 5555,
      "▁bekliyorlar": 5556,
      "▁arti": 5557,
      "▁yans": 5558,
      "▁bayiler": 5559,
      "▁oranlı": 5560,
      "▁duruma": 5561,
      "▁ilkokul": 5562,
      "▁anlasılıyor": 5563,
      "▁1959": 5564,
      "▁mev": 5565,
      "▁edecegim": 5566,
      "▁kaynaklanan": 5567,
      "##celi": 5568,
      "##edi": 5569,
      "▁andan": 5570,
      "##laki": 5571,
      "##9.3": 5572,
      "▁alısılmadık": 5573,
      "▁7": 5574,
      "▁kullandıgı": 5575,
      "##irdi": 5576,
      "▁gectigini": 5577,
      "▁baskal": 5578,
      "▁yoz": 5579,
      "▁konut": 5580,
      "##ıyla": 5581,
      "▁aklı": 5582,
      "▁satısa": 5583,
      "▁lap": 5584,
      "▁tatli": 5585,
      "▁subv": 5586,
      "▁gelisme": 5587,
      "▁sizi": 5588,
      "▁civ": 5589,
      "▁toplamda": 5590,
      "▁medeniyet": 5591,
      "▁oturum": 5592,
      "▁sokagı": 5593,
      "▁oteden": 5594,
      "▁cocuktu": 5595,
      "▁allah": 5596,
      "▁verdim": 5597,
      "▁454": 5598,
      "##unde": 5599,
      "▁nadir": 5600,
      "▁calisanlarin": 5601,
      "▁makineler": 5602,
      "▁mutemadi": 5603,
      "▁alabilmek": 5604,
      "▁temizlikte": 5605,
      "▁aracı": 5606,
      "1": 5607,
      "##ineweb": 5608,
      "▁austral": 5609,
      "▁bilgilendirilmek": 5610,
      "▁213": 5611,
      "▁zum": 5612,
      "▁ikisinin": 5613,
      "▁gorec": 5614,
      "▁insaat": 5615,
      "▁dursun": 5616,
      "▁deb": 5617,
      "▁capındaki": 5618,
      "##erkez": 5619,
      "▁maydanoz": 5620,
      "▁becer": 5621,
      "▁varmak": 5622,
      "▁editoru": 5623,
      "▁thomas": 5624,
      "▁alev": 5625,
      "▁kuzu": 5626,
      "▁3135": 5627,
      "▁kariyer": 5628,
      "▁verecegim": 5629,
      "▁sozler": 5630,
      "##ugunu": 5631,
      "▁60000": 5632,
      "▁gaf": 5633,
      "▁dinam": 5634,
      "▁alıkoy": 5635,
      "▁mont": 5636,
      "▁?..": 5637,
      "▁yazıyorum": 5638,
      "##gel": 5639,
      "▁phillips": 5640,
      "▁hik": 5641,
      "▁ardı": 5642,
      "▁icecek": 5643,
      "▁hus": 5644,
      "▁dil": 5645,
      "▁yakısık": 5646,
      "▁buzdol": 5647,
      "▁1.5753": 5648,
      "▁durum": 5649,
      "▁41.60": 5650,
      "▁danıs": 5651,
      "▁mood": 5652,
      "##malarına": 5653,
      "▁dun": 5654,
      "▁kard": 5655,
      "▁havaalanlarını": 5656,
      "##nu": 5657,
      "▁dobra": 5658,
      "▁yemeklerini": 5659,
      "##dikal": 5660,
      "▁bekir": 5661,
      "▁aklından": 5662,
      "▁doludur": 5663,
      "▁kaydedildi": 5664,
      "▁lir": 5665,
      "▁kiral": 5666,
      "▁davet": 5667,
      "▁otuzbes": 5668,
      "▁ingil": 5669,
      "▁sildi": 5670,
      "▁koprunun": 5671,
      "▁ala": 5672,
      "▁inc.,": 5673,
      "##gar": 5674,
      "▁lincoln": 5675,
      "▁muhab": 5676,
      "##lanacak": 5677,
      "▁duran": 5678,
      "▁aktor": 5679,
      "##ırken": 5680,
      "##cak": 5681,
      "▁abd'ye": 5682,
      "##pe": 5683,
      "▁yapil": 5684,
      "##ustugunu": 5685,
      "▁verirdi": 5686,
      "▁alet": 5687,
      "▁cektir": 5688,
      "##icorp": 5689,
      "##9:": 5690,
      "▁spons": 5691,
      "▁5.8": 5692,
      "▁adam": 5693,
      "▁doner": 5694,
      "▁sacak": 5695,
      "▁kaybet": 5696,
      "▁durust": 5697,
      "▁real": 5698,
      "▁disiplin": 5699,
      "##ını": 5700,
      "▁karal": 5701,
      "##layıp": 5702,
      "##ize": 5703,
      "▁istiyoruz": 5704,
      "▁miydik": 5705,
      "▁olusturul": 5706,
      "▁tane": 5707,
      "##ilmez": 5708,
      "▁asıl": 5709,
      "▁yaptır": 5710,
      "▁kalmaz": 5711,
      "▁boston'dan": 5712,
      "▁tesiste": 5713,
      "▁4.375": 5714,
      "▁tahmini": 5715,
      "▁4:30": 5716,
      "▁sokagın": 5717,
      "##10": 5718,
      "▁zamanı": 5719,
      "▁konfor": 5720,
      "▁gibidir": 5721,
      "##stil": 5722,
      "▁isgal": 5723,
      "##emb": 5724,
      "▁zaman": 5725,
      "▁dortluk": 5726,
      "▁geldik": 5727,
      "▁uzerinde": 5728,
      "##lerinin": 5729,
      "▁isliyor": 5730,
      "▁usulca": 5731,
      "▁westinghouse": 5732,
      "▁strate": 5733,
      "▁rıh": 5734,
      "▁doktorlar": 5735,
      "##ıyım": 5736,
      "▁zab": 5737,
      "##a'ya": 5738,
      "▁'nin": 5739,
      "▁berkeley": 5740,
      "▁esy": 5741,
      "▁kad": 5742,
      "▁145.45": 5743,
      "▁fat": 5744,
      "▁bakim": 5745,
      "▁birbirleriyle": 5746,
      "##ısına": 5747,
      "▁23.5": 5748,
      "▁dolastı": 5749,
      "▁kavus": 5750,
      "▁mahs": 5751,
      "▁ind": 5752,
      "▁lt": 5753,
      "▁iz": 5754,
      "▁istanbul": 5755,
      "##larca": 5756,
      "##elidir": 5757,
      "▁actılar": 5758,
      "▁nihat": 5759,
      "▁golgel": 5760,
      "##ildigini": 5761,
      "##uyorlar": 5762,
      "▁sehr": 5763,
      "▁os": 5764,
      "▁0": 5765,
      "▁sunu": 5766,
      "▁sosyal": 5767,
      "##olf": 5768,
      "▁bembeyaz": 5769,
      "▁bulbul": 5770,
      "▁cetin": 5771,
      "▁merhaba": 5772,
      "▁bicim": 5773,
      "▁bastan": 5774,
      "▁isabet": 5775,
      "##bank": 5776,
      "▁borek": 5777,
      "▁sek": 5778,
      "##agon": 5779,
      "▁bensiz": 5780,
      "▁istinaden": 5781,
      "▁politikası": 5782,
      "▁kurmaya": 5783,
      "▁ekmegini": 5784,
      "▁aydınlık": 5785,
      "##ildi": 5786,
      "▁but": 5787,
      "▁kutsal": 5788,
      "▁istekler": 5789,
      "▁cet": 5790,
      "▁zamanki": 5791,
      "▁montreal'dan": 5792,
      "##ınıp": 5793,
      "▁kasırga": 5794,
      "▁toplandı": 5795,
      "##bir": 5796,
      "▁huc": 5797,
      "▁icini": 5798,
      "▁tatlı": 5799,
      "▁sade": 5800,
      "##ladın": 5801,
      "▁%3": 5802,
      "##odos": 5803,
      "▁selam": 5804,
      "▁beklemiyor": 5805,
      "▁buh": 5806,
      "▁oynak": 5807,
      "▁pantolon": 5808,
      "▁2.625": 5809,
      "▁gordun": 5810,
      "▁ceren": 5811,
      "▁aralık'ta": 5812,
      "▁hugo": 5813,
      "▁lak": 5814,
      "▁pah": 5815,
      "▁sevgil": 5816,
      "▁cinayet": 5817,
      "▁tutustur": 5818,
      "▁gosterecek": 5819,
      "##o'dan": 5820,
      "▁muhim": 5821,
      "▁karı": 5822,
      "▁dedik": 5823,
      "▁sofra": 5824,
      "▁tesekkurler": 5825,
      "▁elektrik": 5826,
      "▁dusmeye": 5827,
      "▁gorevl": 5828,
      "▁nukleer": 5829,
      "▁olmustur": 5830,
      "▁hatice": 5831,
      "▁yonelik": 5832,
      "▁dısına": 5833,
      "▁kendisiyle": 5834,
      "▁tanıdık": 5835,
      "▁dest": 5836,
      "##tz": 5837,
      "▁yetersizdi": 5838,
      "▁esp": 5839,
      "##'an": 5840,
      "##madi": 5841,
      "▁krizi": 5842,
      "▁osmanlı": 5843,
      "▁ilaclar": 5844,
      "##ledim": 5845,
      "▁yirmibes": 5846,
      "▁kaybol": 5847,
      "▁tahm": 5848,
      "▁memleketin": 5849,
      "##ıcılık": 5850,
      "▁218": 5851,
      "##veland": 5852,
      "▁bekledigim": 5853,
      "▁sayın": 5854,
      "▁times": 5855,
      "▁laci": 5856,
      "▁sing": 5857,
      "▁du": 5858,
      "##agını": 5859,
      "▁dahi": 5860,
      "▁milyardan": 5861,
      "##lugunda": 5862,
      "▁actım": 5863,
      "▁vizyon": 5864,
      "▁alamet": 5865,
      "▁miz": 5866,
      "▁atıldı": 5867,
      "▁kapıları": 5868,
      "▁indirimi": 5869,
      "##ekte": 5870,
      "##iyeleri": 5871,
      "▁steph": 5872,
      "▁ogren": 5873,
      "▁odam": 5874,
      "▁olabil": 5875,
      "##.3": 5876,
      "##/2": 5877,
      "▁ohio": 5878,
      "▁ov": 5879,
      "▁sıcak": 5880,
      "▁masum": 5881,
      "##mayacagı": 5882,
      "##)": 5883,
      "▁mutfaga": 5884,
      "▁agı": 5885,
      "▁computer": 5886,
      "##ho": 5887,
      "▁yerlerini": 5888,
      "▁buraya": 5889,
      "▁imtiyaz": 5890,
      "▁sat": 5891,
      "##emis": 5892,
      "▁birisine": 5893,
      "▁dısarıda": 5894,
      "▁rub": 5895,
      "▁sucu": 5896,
      "##lemis": 5897,
      "▁keskin": 5898,
      "▁negatif": 5899,
      "##ih": 5900,
      "##lanan": 5901,
      "▁yuvarlak": 5902,
      "▁love": 5903,
      "▁baslayınca": 5904,
      "▁gazel": 5905,
      "▁strateji": 5906,
      "▁bakkal": 5907,
      "▁kısalt": 5908,
      "##eligi": 5909,
      "##indi": 5910,
      "▁bunlar": 5911,
      "▁2023": 5912,
      "▁1946'da": 5913,
      "▁kerp": 5914,
      "▁hazırlanısı": 5915,
      "▁do": 5916,
      "▁anay": 5917,
      "▁emre": 5918,
      "▁yemegini": 5919,
      "##tic": 5920,
      "▁sened": 5921,
      "▁sayet": 5922,
      "##eg": 5923,
      "▁resim": 5924,
      "##iniz": 5925,
      "▁delikan": 5926,
      "##”": 5927,
      "▁dususunu": 5928,
      "▁basarı": 5929,
      "▁4.": 5930,
      "▁geride": 5931,
      "##asinda": 5932,
      "▁imis": 5933,
      "▁biber": 5934,
      "##amet": 5935,
      "▁tadını": 5936,
      "▁antr": 5937,
      "▁1963": 5938,
      "▁2.46": 5939,
      "▁ucretleri": 5940,
      "▁ogretmenim": 5941,
      "▁ed": 5942,
      "▁istikbal": 5943,
      "▁gececek": 5944,
      "▁kolaydi": 5945,
      "▁masaj": 5946,
      "▁piyasasında": 5947,
      "▁c": 5948,
      "▁tadimiza": 5949,
      "##otuz": 5950,
      "▁pence": 5951,
      "##lesmisti": 5952,
      "▁oper": 5953,
      "##usun": 5954,
      "▁sorar": 5955,
      "##'nin": 5956,
      "▁emine": 5957,
      "▁fırtına": 5958,
      "▁cumhuriyet": 5959,
      "▁olun": 5960,
      "▁tarafına": 5961,
      "##-200": 5962,
      "▁atmak": 5963,
      "▁baslay": 5964,
      "▁lerle": 5965,
      "▁macında": 5966,
      "▁sl": 5967,
      "▁enerji": 5968,
      "▁yin": 5969,
      "▁degistiriyor": 5970,
      "▁bircogunu": 5971,
      "▁93": 5972,
      "▁gorme": 5973,
      "▁protesto": 5974,
      "▁sebeplerden": 5975,
      "▁alaycı": 5976,
      "▁birbirlerine": 5977,
      "▁gecir": 5978,
      "##vel": 5979,
      "▁kanunu": 5980,
      "▁gozde": 5981,
      "▁mevsim": 5982,
      "▁hamle": 5983,
      "▁kına": 5984,
      "▁60": 5985,
      "▁reklam": 5986,
      "▁%7.7": 5987,
      "▁impar": 5988,
      "▁dogdu": 5989,
      "▁durumunu": 5990,
      "▁turk'un": 5991,
      "##ıp": 5992,
      "▁lokanta": 5993,
      "##gia": 5994,
      "▁sehirde": 5995,
      "##izdi": 5996,
      "▁sıc": 5997,
      "▁begendim": 5998,
      "▁susuz": 5999,
      "##amız": 6000,
      "▁artarak": 6001,
      "##teb": 6002,
      "▁dusunuyoruz": 6003,
      "▁oranlarının": 6004,
      "▁yuf": 6005,
      "▁olay": 6006,
      "##esyon": 6007,
      "▁onemi": 6008,
      "##00000": 6009,
      "▁carc": 6010,
      "▁metin": 6011,
      "##tım": 6012,
      "##apolis": 6013,
      "▁merdiven": 6014,
      "▁herif": 6015,
      "▁27.5": 6016,
      "▁kalabalıgı": 6017,
      "▁selim": 6018,
      "▁un": 6019,
      "▁met": 6020,
      "▁bolumunu": 6021,
      "▁nevruz": 6022,
      "▁kolaylıkla": 6023,
      "##100": 6024,
      "##.03": 6025,
      "▁yaklastı": 6026,
      "##ilerdi": 6027,
      "▁yumruk": 6028,
      "##larım": 6029,
      "▁buradaki": 6030,
      "##300": 6031,
      "▁kapat": 6032,
      "▁pozit": 6033,
      "▁konvansiy": 6034,
      "▁fast": 6035,
      "▁kadınlara": 6036,
      "▁bilinmez": 6037,
      "▁aktarma": 6038,
      "##do": 6039,
      "▁tehlikeye": 6040,
      "##ica": 6041,
      "▁basket": 6042,
      "▁gunesli": 6043,
      "▁karıstır": 6044,
      "▁gunde": 6045,
      "▁zeytin": 6046,
      "▁rev": 6047,
      "▁kadına": 6048,
      "▁govd": 6049,
      "▁otellerin": 6050,
      "▁muall": 6051,
      "▁sundugu": 6052,
      "▁dedikodu": 6053,
      "▁unuttur": 6054,
      "##'n": 6055,
      "▁dersiniz": 6056,
      "▁konusurken": 6057,
      "▁gıy": 6058,
      "▁keleb": 6059,
      "▁acmaz": 6060,
      "▁dardi": 6061,
      "##ista": 6062,
      "##isidir": 6063,
      "▁gule": 6064,
      "▁bayılmıs": 6065,
      "##ir'in": 6066,
      "▁derdi": 6067,
      "▁turden": 6068,
      "▁istedigim": 6069,
      "▁enstit": 6070,
      "▁sehirler": 6071,
      "##ara": 6072,
      "##ox": 6073,
      "##rat": 6074,
      "▁3.45": 6075,
      "▁restor": 6076,
      "▁kazıy": 6077,
      "▁arkadasını": 6078,
      "▁sıkın": 6079,
      "##a'nın": 6080,
      "▁alsın": 6081,
      "##meni": 6082,
      "▁ard": 6083,
      "##sas": 6084,
      "##ino": 6085,
      "▁kalktım": 6086,
      "▁yılki": 6087,
      "▁satmak": 6088,
      "##otte": 6089,
      "▁yonden": 6090,
      "##ding": 6091,
      "▁buyur": 6092,
      "▁akım": 6093,
      "▁guleryuzlulerdi": 6094,
      "▁sahipleri": 6095,
      "##80000": 6096,
      "▁konul": 6097,
      "▁)": 6098,
      "##-merkezli": 6099,
      "▁memuriyet": 6100,
      "▁yangın": 6101,
      "▁yumuk": 6102,
      "▁uyur": 6103,
      "##mamıs": 6104,
      "▁tanıt": 6105,
      "▁seklinde": 6106,
      "▁raporda": 6107,
      "▁istanbul'un": 6108,
      "▁hissed": 6109,
      "▁trav": 6110,
      "▁donmus": 6111,
      "▁soylemedi": 6112,
      "##erdi": 6113,
      "▁hamam": 6114,
      "▁cas": 6115,
      "▁basları": 6116,
      "▁havayollarını": 6117,
      "▁no": 6118,
      "##enkul": 6119,
      "▁oyn": 6120,
      "▁pazarda": 6121,
      "▁66": 6122,
      "▁2003": 6123,
      "▁buyumesini": 6124,
      "▁odada": 6125,
      "▁roma": 6126,
      "▁0.2": 6127,
      "▁sutu": 6128,
      "##tar": 6129,
      "▁cbs": 6130,
      "▁inmis": 6131,
      "▁otelin": 6132,
      "▁oyley": 6133,
      "▁havayolunun": 6134,
      "▁musik": 6135,
      "▁girdiler": 6136,
      "▁bursa": 6137,
      "▁fonların": 6138,
      "▁arastırmacılar": 6139,
      "▁halli": 6140,
      "▁arttıgını": 6141,
      "▁atlanta": 6142,
      "##diniz": 6143,
      "##ole": 6144,
      "▁akın": 6145,
      "##es'in": 6146,
      "▁sizlere": 6147,
      "▁yayılıyor": 6148,
      "##ulmustur": 6149,
      "##'ni": 6150,
      "##rir": 6151,
      "▁cicek": 6152,
      "▁sabahları": 6153,
      "▁pc": 6154,
      "▁radikal": 6155,
      "##gun": 6156,
      "▁orada": 6157,
      "▁agzını": 6158,
      "▁bıyıkları": 6159,
      "▁isteyecek": 6160,
      "▁santorini": 6161,
      "##artman": 6162,
      "▁isciler": 6163,
      "▁bıy": 6164,
      "▁x": 6165,
      "▁bakanlıgı": 6166,
      "▁ciddiyet": 6167,
      "##bay": 6168,
      "##masi": 6169,
      "▁gozume": 6170,
      "▁saldırı": 6171,
      "▁birinde": 6172,
      "▁guvenilir": 6173,
      "▁degilsiniz": 6174,
      "▁ozen": 6175,
      "▁fist": 6176,
      "▁ann": 6177,
      "▁getirdigi": 6178,
      "##red": 6179,
      "▁ef": 6180,
      "▁sırt": 6181,
      "▁aldır": 6182,
      "##as": 6183,
      "##hasır": 6184,
      "##ına": 6185,
      "▁tasın": 6186,
      "▁buyukel": 6187,
      "▁530": 6188,
      "▁ın": 6189,
      "▁afgan": 6190,
      "▁broth": 6191,
      "▁kıs": 6192,
      "##duy": 6193,
      "▁yılı": 6194,
      "▁southern": 6195,
      "##■": 6196,
      "##unuyor": 6197,
      "##an": 6198,
      "▁ikib": 6199,
      "▁kayb": 6200,
      "▁ism": 6201,
      "▁endise": 6202,
      "##ersey": 6203,
      "##tıklarını": 6204,
      "▁agzında": 6205,
      "▁dagıldı": 6206,
      "▁muh": 6207,
      "▁korid": 6208,
      "▁muazz": 6209,
      "▁topr": 6210,
      "▁6.31": 6211,
      "▁ihtiras": 6212,
      "▁vas": 6213,
      "##liginden": 6214,
      "▁eden": 6215,
      "▁degmis": 6216,
      "▁yelek": 6217,
      "▁hos": 6218,
      "▁hangisi": 6219,
      "▁gerektiren": 6220,
      "##.62": 6221,
      "##gir": 6222,
      "##ume": 6223,
      "▁kimisi": 6224,
      "▁2.": 6225,
      "▁istatistik": 6226,
      "▁edilemez": 6227,
      "▁3": 6228,
      "##dası": 6229,
      "▁ayakkabı": 6230,
      "▁okulu": 6231,
      "▁mini": 6232,
      "##ları": 6233,
      "▁toparlanma": 6234,
      "▁ekonominin": 6235,
      "▁suresini": 6236,
      "##ois": 6237,
      "##3'e": 6238,
      "▁0.010": 6239,
      "##ısız": 6240,
      "▁zih": 6241,
      "▁got": 6242,
      "▁baslattı": 6243,
      "▁19.7": 6244,
      "▁alması": 6245,
      "▁kalabalık": 6246,
      "##lıgım": 6247,
      "▁yaralan": 6248,
      "▁1967": 6249,
      "▁adalet": 6250,
      "▁aramızda": 6251,
      "▁daya": 6252,
      "▁sotheby's": 6253,
      "▁basınc": 6254,
      "▁gorebil": 6255,
      "▁nisp": 6256,
      "▁sebep": 6257,
      "▁oc": 6258,
      "▁karsıtı": 6259,
      "▁seyrek": 6260,
      "▁asagi": 6261,
      "##mede": 6262,
      "▁takılmıs": 6263,
      "▁m.": 6264,
      "##larken": 6265,
      "##onel": 6266,
      "▁mısın": 6267,
      "▁aldat": 6268,
      "▁o": 6269,
      "▁ucreti": 6270,
      "##+": 6271,
      "##endigi": 6272,
      "##ıcak": 6273,
      "▁ileride": 6274,
      "▁noktasına": 6275,
      "▁satar": 6276,
      "##.81": 6277,
      "▁hikay": 6278,
      "▁yazın": 6279,
      "▁lamb": 6280,
      "▁olması": 6281,
      "▁belirley": 6282,
      "▁giydi": 6283,
      "▁gidiyorum": 6284,
      "##eviz": 6285,
      "▁hal": 6286,
      "▁hareket": 6287,
      "##larının": 6288,
      "▁sehrine": 6289,
      "▁allianz": 6290,
      "▁tereddut": 6291,
      "▁insanlara": 6292,
      "▁cih": 6293,
      "▁birincisi": 6294,
      "##lari": 6295,
      "▁personeli": 6296,
      "▁yasat": 6297,
      "▁saglay": 6298,
      "▁8.75": 6299,
      "▁buyut": 6300,
      "##asa": 6301,
      "▁cesi": 6302,
      "##abet": 6303,
      "▁pratik": 6304,
      "▁inadına": 6305,
      "▁fin": 6306,
      "▁burun": 6307,
      "▁ayrıca": 6308,
      "▁nusret": 6309,
      "▁tahammul": 6310,
      "▁yapardı": 6311,
      "▁sermaye": 6312,
      "▁bazında": 6313,
      "▁rez": 6314,
      "▁gozleriyle": 6315,
      "▁gozet": 6316,
      "▁yerdi": 6317,
      "▁15": 6318,
      "▁148": 6319,
      "▁trelleb": 6320,
      "▁kanada": 6321,
      "##duler": 6322,
      "▁sahis": 6323,
      "▁bahc": 6324,
      "▁artıyor": 6325,
      "▁82": 6326,
      "▁beklenen": 6327,
      "##istik": 6328,
      "▁manzarasi": 6329,
      "▁keci": 6330,
      "▁arkadas": 6331,
      "##gat": 6332,
      "▁erbakan": 6333,
      "▁erzurum": 6334,
      "▁ittifak": 6335,
      "▁atacak": 6336,
      "▁bulunmayan": 6337,
      "▁rakamları": 6338,
      "▁anlar": 6339,
      "▁33": 6340,
      "▁ri": 6341,
      "▁host": 6342,
      "▁savundu": 6343,
      "▁degn": 6344,
      "▁artcı": 6345,
      "▁9.75": 6346,
      "▁ucsuz": 6347,
      "▁kabil": 6348,
      "▁olmasının": 6349,
      "▁kosesine": 6350,
      "▁yapılan": 6351,
      "▁12.3": 6352,
      "▁manhat": 6353,
      "▁calısıyordum": 6354,
      "▁sanal": 6355,
      "▁daha": 6356,
      "​": 6357,
      "▁sirketine": 6358,
      "▁zayif": 6359,
      "▁moody's": 6360,
      "▁igne": 6361,
      "▁yanıl": 6362,
      "##arki": 6363,
      "▁canlı": 6364,
      "▁bekleyen": 6365,
      "▁sayılır": 6366,
      "▁22.8": 6367,
      "▁hikaye": 6368,
      "▁cogunu": 6369,
      "▁agab": 6370,
      "▁muhafaza": 6371,
      "▁lut": 6372,
      "▁abi": 6373,
      "##win": 6374,
      "▁gec": 6375,
      "▁suruklen": 6376,
      "##agına": 6377,
      "▁bizden": 6378,
      "▁bakımdan": 6379,
      "▁ail": 6380,
      "▁evlere": 6381,
      "▁7.52": 6382,
      "##ılıp": 6383,
      "▁315": 6384,
      "##dalar": 6385,
      "##yıl": 6386,
      "##ras": 6387,
      "▁insanoglu": 6388,
      "▁karara": 6389,
      "▁pansiyon": 6390,
      "▁i": 6391,
      "▁senar": 6392,
      "▁ekonomistler": 6393,
      "▁12'den": 6394,
      "##tay": 6395,
      "##dur": 6396,
      "▁odalarin": 6397,
      "▁kıvr": 6398,
      "▁silah": 6399,
      "▁yemek": 6400,
      "##eceksiniz": 6401,
      "▁ki": 6402,
      "▁donus": 6403,
      "▁kır": 6404,
      "#": 6405,
      "▁zat": 6406,
      "##4000": 6407,
      "▁seyirciler": 6408,
      "##ebon": 6409,
      "▁99": 6410,
      "▁istasyonu": 6411,
      "▁cagır": 6412,
      "##emedi": 6413,
      "▁yıla": 6414,
      "▁soyledi": 6415,
      "▁co": 6416,
      "▁ilgilendir": 6417,
      "▁el": 6418,
      "▁halbu": 6419,
      "▁2.8": 6420,
      "▁musunuz": 6421,
      "▁boylu": 6422,
      "▁icimiz": 6423,
      "▁sın": 6424,
      "##68": 6425,
      "##eginiz": 6426,
      "▁bez": 6427,
      "▁dallas'tan": 6428,
      "▁yemekten": 6429,
      "##ya'nın": 6430,
      "##west": 6431,
      "▁satıslarının": 6432,
      "▁karıstırın": 6433,
      "▁3.35": 6434,
      "##cag": 6435,
      "▁duyunca": 6436,
      "▁kare": 6437,
      "▁tasliydi": 6438,
      "▁havası": 6439,
      "##al'ın": 6440,
      "▁dava": 6441,
      "▁hayv": 6442,
      "▁evir": 6443,
      "▁hay": 6444,
      "##ılmaz": 6445,
      "▁yumus": 6446,
      "▁cansız": 6447,
      "▁sustu": 6448,
      "##tıgına": 6449,
      "##acıların": 6450,
      "▁babanın": 6451,
      "▁hur": 6452,
      "▁eli": 6453,
      "##.65": 6454,
      "▁bulan": 6455,
      "##adu": 6456,
      "▁59": 6457,
      "▁mahalle": 6458,
      "▁cene": 6459,
      "▁birimleri": 6460,
      "▁bilemiyorum": 6461,
      "▁ilgisizlerdi": 6462,
      "▁bakmıs": 6463,
      "▁mimar": 6464,
      "▁onur": 6465,
      "▁herkesin": 6466,
      "▁ogrenci": 6467,
      "▁etmey": 6468,
      "▁carol": 6469,
      "▁0.05": 6470,
      "##lulu": 6471,
      "##e": 6472,
      "##anik": 6473,
      "▁dos": 6474,
      "▁yapı": 6475,
      "▁kof": 6476,
      "▁fırc": 6477,
      "▁kacındı": 6478,
      "▁kutuk": 6479,
      "▁zeytiny": 6480,
      "▁olgun": 6481,
      "##za": 6482,
      "##.39": 6483,
      "▁yerlerinde": 6484,
      "▁lirayı": 6485,
      "▁kit": 6486,
      "▁kampanyalar": 6487,
      "▁te": 6488,
      "▁ick": 6489,
      "▁tedarik": 6490,
      "▁bilen": 6491,
      "##bar": 6492,
      "▁edildigi": 6493,
      "▁bolumu": 6494,
      "##lbu": 6495,
      "##'une": 6496,
      "▁web": 6497,
      "▁bebegi": 6498,
      "▁asık": 6499,
      "▁sorunun": 6500,
      "▁kavga": 6501,
      "▁parmaklarını": 6502,
      "##ımlar": 6503,
      "##oy": 6504,
      "##ult": 6505,
      "##gunun": 6506,
      "▁1985": 6507,
      "▁maharet": 6508,
      "▁doları": 6509,
      "▁dunyanın": 6510,
      "▁pittsburgh'ta": 6511,
      "▁ticari": 6512,
      "##yak": 6513,
      "▁birisinin": 6514,
      "▁kask": 6515,
      "▁degerleri": 6516,
      "▁kamuoy": 6517,
      "##las": 6518,
      "▁soyledim": 6519,
      "▁helmsley": 6520,
      "▁tuylu": 6521,
      "▁tenek": 6522,
      "▁dediko": 6523,
      "▁kıvıl": 6524,
      "##tc": 6525,
      "▁oldugum": 6526,
      "▁kasaba": 6527,
      "▁yapıyoruz": 6528,
      "▁vererek": 6529,
      "▁turs": 6530,
      "▁gelen": 6531,
      "▁yıg": 6532,
      "▁tutuk": 6533,
      "▁46": 6534,
      "▁dere": 6535,
      "▁mumu": 6536,
      "▁cahil": 6537,
      "##uz": 6538,
      "▁onunde": 6539,
      "▁biri": 6540,
      "▁katkı": 6541,
      "▁sozcu": 6542,
      "▁fal": 6543,
      "##iyesi": 6544,
      "▁yanmıs": 6545,
      "▁nato": 6546,
      "▁salonunda": 6547,
      "▁lutf": 6548,
      "▁isit": 6549,
      "▁stat": 6550,
      "▁hayalet": 6551,
      "▁satıslar": 6552,
      "##ıstı": 6553,
      "▁derecelendir": 6554,
      "▁dol": 6555,
      "##ciler": 6556,
      "##tali": 6557,
      "▁iltif": 6558,
      "▁gormedim": 6559,
      "▁teklifi": 6560,
      "##aya": 6561,
      "▁evin": 6562,
      "▁acıklamadı": 6563,
      "▁gercekte": 6564,
      "▁yos": 6565,
      "▁kopuk": 6566,
      "▁kravat": 6567,
      "##ıyoruz": 6568,
      "▁hap": 6569,
      "▁ayık": 6570,
      "▁282": 6571,
      "▁141.45": 6572,
      "▁doları'nda": 6573,
      "▁ortalaması": 6574,
      "▁bombos": 6575,
      "▁sirketinin": 6576,
      "▁hoslan": 6577,
      "##arı": 6578,
      "▁bany": 6579,
      "▁durak": 6580,
      "##ahir": 6581,
      "▁fulton": 6582,
      "▁ertelen": 6583,
      "▁tadima": 6584,
      "▁buf": 6585,
      "##lattı": 6586,
      "##ilmis": 6587,
      "▁1925": 6588,
      "▁sizin": 6589,
      "▁secilmis": 6590,
      "▁fiyata": 6591,
      "▁topragın": 6592,
      "▁tacoma'ya": 6593,
      "▁industries": 6594,
      "▁alanında": 6595,
      "##lon": 6596,
      "▁prensip": 6597,
      "▁basvur": 6598,
      "##1.5": 6599,
      "▁ali": 6600,
      "▁fazl": 6601,
      "▁dovus": 6602,
      "▁toplar": 6603,
      "▁olcum": 6604,
      "##mini": 6605,
      "▁etmeli": 6606,
      "▁icimi": 6607,
      "▁kalabal": 6608,
      "▁street'in": 6609,
      "▁cakmak": 6610,
      "▁sıyır": 6611,
      "▁gunune": 6612,
      "▁surgun": 6613,
      "▁amerika'nın": 6614,
      "▁mikro": 6615,
      "▁kagıdı": 6616,
      "▁yemeklerden": 6617,
      "▁olcu": 6618,
      "▁gorevlisi": 6619,
      "##mer": 6620,
      "▁siparisini": 6621,
      "▁kıraat": 6622,
      "▁olmus": 6623,
      "▁carpık": 6624,
      "##asindan": 6625,
      "▁gundelik": 6626,
      "▁sahip": 6627,
      "▁fasul": 6628,
      "▁futbol": 6629,
      "▁ideal": 6630,
      "##vah": 6631,
      "▁ros": 6632,
      "▁yatır": 6633,
      "▁van": 6634,
      "▁suk": 6635,
      "##yum": 6636,
      "##dikten": 6637,
      "##dın": 6638,
      "▁aldıgı": 6639,
      "##ebiliriz": 6640,
      "▁tesadu": 6641,
      "▁ucte": 6642,
      "▁direnc": 6643,
      "▁duk": 6644,
      "▁yılan": 6645,
      "▁sonradan": 6646,
      "▁berk": 6647,
      "##tmis": 6648,
      "▁kaz": 6649,
      "▁yukselerek": 6650,
      "▁575000": 6651,
      "▁tanıklık": 6652,
      "##burgh": 6653,
      "##ent": 6654,
      "▁194": 6655,
      "▁kendinize": 6656,
      "##suz": 6657,
      "▁dukkan": 6658,
      "▁pisman": 6659,
      "▁basının": 6660,
      "▁3.13": 6661,
      "▁soyluyorum": 6662,
      "▁orijinal": 6663,
      "▁maliye": 6664,
      "▁degisti": 6665,
      "▁yansı": 6666,
      "##efendi": 6667,
      "▁onem": 6668,
      "▁ucretini": 6669,
      "▁arazi": 6670,
      "▁bah": 6671,
      "▁patates": 6672,
      "▁yuregini": 6673,
      "▁sene": 6674,
      "##innati": 6675,
      "▁yolları": 6676,
      "▁degilim": 6677,
      "▁field'e": 6678,
      "##larsa": 6679,
      "▁faturam": 6680,
      "##lası": 6681,
      "##muz": 6682,
      "▁basbakan": 6683,
      "##lanmamıs": 6684,
      "▁dogrultusunda": 6685,
      "▁editor": 6686,
      "▁yan": 6687,
      "▁bahan": 6688,
      "▁operator": 6689,
      "▁bini": 6690,
      "▁ydım": 6691,
      "▁gitti": 6692,
      "▁basındaki": 6693,
      "▁kayde": 6694,
      "▁dini": 6695,
      "▁uygun": 6696,
      "▁yenilg": 6697,
      "▁kabin": 6698,
      "▁ustalık": 6699,
      "▁birbir": 6700,
      "##ancı": 6701,
      "▁campe": 6702,
      "▁has": 6703,
      "▁sıvı": 6704,
      "##hen": 6705,
      "▁baktılar": 6706,
      "▁nereye": 6707,
      "##e'ye": 6708,
      "▁enerj": 6709,
      "##egen": 6710,
      "##pen": 6711,
      "▁beni": 6712,
      "▁okuz": 6713,
      "▁pazarlam": 6714,
      "a": 6715,
      "▁senat": 6716,
      "▁tanesi": 6717,
      "▁business": 6718,
      "▁kazanarak": 6719,
      "##bil": 6720,
      "##iyeler": 6721,
      "##abuk": 6722,
      "▁romat": 6723,
      "▁rutin": 6724,
      "▁vazgec": 6725,
      "▁kıyaslandıgında": 6726,
      "##anco": 6727,
      "▁heyeti": 6728,
      "▁be": 6729,
      "▁jand": 6730,
      "▁genelinde": 6731,
      "▁donanım": 6732,
      "▁koltu": 6733,
      "▁hissede": 6734,
      "▁abd": 6735,
      "▁faal": 6736,
      "▁akr": 6737,
      "▁dengesiz": 6738,
      "▁analist": 6739,
      "▁saygısız": 6740,
      "▁adem": 6741,
      "▁olayı": 6742,
      "▁hain": 6743,
      "▁sarımsak": 6744,
      "▁yenil": 6745,
      "##ith": 6746,
      "▁ilgisini": 6747,
      "▁kurumları": 6748,
      "▁tarihine": 6749,
      "▁gokyuzu": 6750,
      "▁sunuyor": 6751,
      "▁derecede": 6752,
      "▁hakkı": 6753,
      "▁ydık": 6754,
      "▁tahminleri": 6755,
      "▁topuk": 6756,
      "▁olmak": 6757,
      "##uel": 6758,
      "▁cok": 6759,
      "▁tank": 6760,
      "▁akar": 6761,
      "▁yuzyılda": 6762,
      "▁nakliy": 6763,
      "##i'nin": 6764,
      "▁63.52": 6765,
      "+": 6766,
      "▁107": 6767,
      "##diki": 6768,
      "▁99.1": 6769,
      "▁turkiye": 6770,
      "##ıyorum": 6771,
      "▁numaralı": 6772,
      "▁saun": 6773,
      "▁3.3": 6774,
      "▁gecek": 6775,
      "▁milwa": 6776,
      "▁salih": 6777,
      "▁taz": 6778,
      "▁meydan": 6779,
      "▁reak": 6780,
      "▁isinde": 6781,
      "▁arkasında": 6782,
      "▁jo": 6783,
      "▁manzum": 6784,
      "▁klasik": 6785,
      "▁doldu": 6786,
      "▁ilacı": 6787,
      "▁turkiye'ye": 6788,
      "▁tuketiciler": 6789,
      "▁mademki": 6790,
      "▁boston": 6791,
      "##erson": 6792,
      "▁hıc": 6793,
      "##dini": 6794,
      "▁ismail": 6795,
      "▁chat": 6796,
      "▁olarak": 6797,
      "▁dallas'ta": 6798,
      "▁iliskilerinde": 6799,
      "▁del": 6800,
      "▁sicakti": 6801,
      "▁veya": 6802,
      "▁cam": 6803,
      "##f": 6804,
      "▁ekonomik": 6805,
      "▁mizah": 6806,
      "▁karsılastık": 6807,
      "▁birkacı": 6808,
      "▁kalp": 6809,
      "▁yemeklerde": 6810,
      "▁5'ten": 6811,
      "▁ulasımını": 6812,
      "##-pr": 6813,
      "▁oburunu": 6814,
      "▁acmıs": 6815,
      "▁yavas": 6816,
      "▁ascı": 6817,
      "▁geliri": 6818,
      "▁dunku": 6819,
      "##5.7": 6820,
      "▁1.750": 6821,
      "▁mat": 6822,
      "##an'a": 6823,
      "▁odaya": 6824,
      "##lıgından": 6825,
      "▁cabası": 6826,
      "##ating": 6827,
      "▁uyum": 6828,
      "▁farz": 6829,
      "##.19": 6830,
      "▁575": 6831,
      "##s'un": 6832,
      "▁286": 6833,
      "▁islem": 6834,
      "▁surt": 6835,
      "▁uyuy": 6836,
      "##icinin": 6837,
      "▁amerikalıların": 6838,
      "▁telef": 6839,
      "▁sit": 6840,
      "▁oturan": 6841,
      "▁miy": 6842,
      "▁kaldik": 6843,
      "▁agresif": 6844,
      "▁turizm": 6845,
      "▁ederim": 6846,
      "##larına": 6847,
      "▁yapıyor": 6848,
      "▁bey'in": 6849,
      "▁hamuru": 6850,
      "##elerin": 6851,
      "▁kosk": 6852,
      "▁hediy": 6853,
      "▁gectigi": 6854,
      "▁kahkah": 6855,
      "##melerini": 6856,
      "▁dolandırıcılık": 6857,
      "▁yapalım": 6858,
      "▁sus": 6859,
      "▁dy": 6860,
      "▁cesaret": 6861,
      "▁di": 6862,
      "▁kararı": 6863,
      "▁aqua": 6864,
      "▁gozyas": 6865,
      "▁karsıma": 6866,
      "▁pıtır": 6867,
      "▁kaynaklanıyor": 6868,
      "▁had": 6869,
      "▁yapamaz": 6870,
      "▁oncelikle": 6871,
      "▁soyleyebilir": 6872,
      "▁sepet": 6873,
      "##wer": 6874,
      "▁huzur": 6875,
      "▁asırı": 6876,
      "▁verilmesi": 6877,
      "▁dagıtır": 6878,
      "##isti": 6879,
      "▁nufuz": 6880,
      "▁basla": 6881,
      "▁kıvılcım": 6882,
      "##ılık": 6883,
      "▁toplu": 6884,
      "▁uyar": 6885,
      "##chester": 6886,
      "##asır": 6887,
      "▁yana": 6888,
      "▁fiyatlarındaki": 6889,
      "##dyo": 6890,
      "▁she": 6891,
      "##87": 6892,
      "▁duygusal": 6893,
      "▁09:": 6894,
      "▁dalgın": 6895,
      "▁karsilama": 6896,
      "▁guven": 6897,
      "▁sıkıl": 6898,
      "▁say": 6899,
      "▁munasebet": 6900,
      "##ob": 6901,
      "##alanı": 6902,
      "▁ofk": 6903,
      "▁riskli": 6904,
      "▁ihtiyat": 6905,
      "▁sinizdir": 6906,
      "▁kısmet": 6907,
      "▁lokma": 6908,
      "▁invest": 6909,
      "▁balık": 6910,
      "▁first": 6911,
      "▁sıfır": 6912,
      "▁korkuyorum": 6913,
      "▁konsol": 6914,
      "▁senden": 6915,
      "▁beach": 6916,
      "▁0.3": 6917,
      "▁top": 6918,
      "##lal": 6919,
      "##abiliriz": 6920,
      "##sub": 6921,
      "▁oteller": 6922,
      "▁dolayi": 6923,
      "▁kızının": 6924,
      "▁tekerlek": 6925,
      "▁uzakti": 6926,
      "##kl": 6927,
      "▁cıkması": 6928,
      "##ahtar": 6929,
      "▁tazminat": 6930,
      "▁boru": 6931,
      "▁lanet": 6932,
      "▁mecl": 6933,
      "##usunun": 6934,
      "##rah": 6935,
      "▁yetkililer": 6936,
      "▁elektr": 6937,
      "▁cambaz": 6938,
      "##aleti": 6939,
      "▁18.7": 6940,
      "▁kibr": 6941,
      "▁ded": 6942,
      "▁halihazırda": 6943,
      "▁cogun": 6944,
      "##iginde": 6945,
      "##enek": 6946,
      "▁10.2": 6947,
      "##27": 6948,
      "##ledigini": 6949,
      "##kan": 6950,
      "▁county": 6951,
      "▁elin": 6952,
      "▁besin": 6953,
      "▁kosullar": 6954,
      "▁sef": 6955,
      "▁konumu": 6956,
      "##anan": 6957,
      "▁biliyoruz": 6958,
      "▁giden": 6959,
      "▁yakalan": 6960,
      "▁7.9": 6961,
      "▁seg": 6962,
      "▁sev": 6963,
      "▁karp": 6964,
      "▁pe": 6965,
      "▁astr": 6966,
      "▁adinaydi": 6967,
      "▁ozel": 6968,
      "▁197": 6969,
      "▁%1": 6970,
      "▁kullandı": 6971,
      "▁aclıktan": 6972,
      "▁oburune": 6973,
      "▁otoy": 6974,
      "▁gelmedi": 6975,
      "##lık": 6976,
      "▁as": 6977,
      "▁simdiye": 6978,
      "▁5.": 6979,
      "▁seans": 6980,
      "##radı": 6981,
      "▁yatırımları": 6982,
      "##-p": 6983,
      "▁gerekiyordu": 6984,
      "▁yoneldi": 6985,
      "▁3\\/4": 6986,
      "##des": 6987,
      "▁verdiginiz": 6988,
      "▁d.": 6989,
      "▁temel": 6990,
      "▁kapladı": 6991,
      "▁172": 6992,
      "▁lu": 6993,
      "##`": 6994,
      "▁menfa": 6995,
      "▁yat": 6996,
      "▁195": 6997,
      "▁tit": 6998,
      "▁savunma": 6999,
      "▁dav": 7000,
      "▁corp": 7001,
      "▁nihal": 7002,
      "▁suph": 7003,
      "▁milletinin": 7004,
      "▁australia": 7005,
      "▁iceriye": 7006,
      "▁plastik": 7007,
      "▁anıt": 7008,
      "▁guvertede": 7009,
      "▁durumunda": 7010,
      "▁cogunlugu": 7011,
      "▁karsılık": 7012,
      "##ada": 7013,
      "▁bircok": 7014,
      "▁ruzg": 7015,
      "▁ikna": 7016,
      "▁dc": 7017,
      "##43": 7018,
      "▁gidecek": 7019,
      "▁ikinci": 7020,
      "▁newark'a": 7021,
      "▁cezası": 7022,
      "##az": 7023,
      "▁cincinnati": 7024,
      "▁vapur": 7025,
      "▁3.4": 7026,
      "▁islerin": 7027,
      "▁gelerek": 7028,
      "▁carptı": 7029,
      "▁birinc": 7030,
      "▁price": 7031,
      "▁firma": 7032,
      "▁yararlı": 7033,
      "##ısıp": 7034,
      "##es": 7035,
      "▁olanaklarını": 7036,
      "▁uzerindeydi": 7037,
      "▁gecenin": 7038,
      "##malıdır": 7039,
      "▁altı": 7040,
      "▁atila": 7041,
      "▁tesaduf": 7042,
      "▁usul": 7043,
      "▁hacim": 7044,
      "▁abart": 7045,
      "▁kapı": 7046,
      "##cın": 7047,
      "▁kaymakam": 7048,
      "##x": 7049,
      "▁otekinden": 7050,
      "▁332": 7051,
      "##eff": 7052,
      "▁ayak": 7053,
      "▁kesmek": 7054,
      "▁olanı": 7055,
      "##rek": 7056,
      "##ugu": 7057,
      "##ion": 7058,
      "▁2.57": 7059,
      "##ımları": 7060,
      "##altı": 7061,
      "▁izleyen": 7062,
      "▁1\\/8": 7063,
      "▁erdogan'ın": 7064,
      "▁mehmet": 7065,
      "▁halleri": 7066,
      "▁hamile": 7067,
      "##sanın": 7068,
      "▁musteri": 7069,
      "▁2006": 7070,
      "▁secur": 7071,
      "▁patlı": 7072,
      "▁warner": 7073,
      "▁bizler": 7074,
      "▁gulunc": 7075,
      "##ılıgı": 7076,
      "▁yurudu": 7077,
      "▁w.": 7078,
      "▁bulgar": 7079,
      "▁civarı": 7080,
      "▁1945'te": 7081,
      "##2000": 7082,
      "▁north": 7083,
      "▁darb": 7084,
      "##lat": 7085,
      "▁campeau": 7086,
      "▁brez": 7087,
      "▁hort": 7088,
      "▁varsay": 7089,
      "▁mahsus": 7090,
      "▁hastalıgı": 7091,
      "##gili": 7092,
      "▁ecev": 7093,
      "##mamacasına": 7094,
      "##emizi": 7095,
      "##batı": 7096,
      "##imle": 7097,
      "▁leh": 7098,
      "▁bedel": 7099,
      "▁0.13": 7100,
      "##alarında": 7101,
      "##eyecek": 7102,
      "▁bildik": 7103,
      "##iyorlar": 7104,
      "▁beyaz": 7105,
      "▁urk": 7106,
      "▁acısından": 7107,
      "##bet": 7108,
      "▁10'dan": 7109,
      "▁odalı": 7110,
      "▁onc": 7111,
      "##lebi": 7112,
      "▁kimler": 7113,
      "▁onun": 7114,
      "##akta": 7115,
      "##te": 7116,
      "▁yen": 7117,
      "▁0.24": 7118,
      "##amayı": 7119,
      "▁yuzlulerdi": 7120,
      "▁kuvvetli": 7121,
      "▁bilgiye": 7122,
      "##umlu": 7123,
      "▁iscilerin": 7124,
      "##.68": 7125,
      "▁dayanıklı": 7126,
      "▁odalar": 7127,
      "▁cincinnati'den": 7128,
      "##daj": 7129,
      "▁eczan": 7130,
      "▁yonetim": 7131,
      "▁tutun": 7132,
      "▁dokundu": 7133,
      "▁bugunlerde": 7134,
      "▁onculuk": 7135,
      "##lilik": 7136,
      "▁ucmak": 7137,
      "##iles": 7138,
      "##ersiniz": 7139,
      "▁bulup": 7140,
      "▁ellerini": 7141,
      "▁vermez": 7142,
      "▁sozunu": 7143,
      "▁boyutu": 7144,
      "▁hareketle": 7145,
      "▁yapr": 7146,
      "▁kaybetmis": 7147,
      "▁ceyr": 7148,
      "##inizle": 7149,
      "▁kisilerin": 7150,
      "▁sevin": 7151,
      "▁yapıldıgını": 7152,
      "##.25": 7153,
      "##afeti": 7154,
      "▁portakal": 7155,
      "##'ndan": 7156,
      "▁post": 7157,
      "▁duruyordu": 7158,
      "▁trt": 7159,
      "▁betim": 7160,
      "▁calıs": 7161,
      "▁havayolları": 7162,
      "▁yeme": 7163,
      "##ita": 7164,
      "▁eklen": 7165,
      "▁veril": 7166,
      "##tıs": 7167,
      "▁atti": 7168,
      "▁geriledi": 7169,
      "▁artı": 7170,
      "▁istim": 7171,
      "▁kostur": 7172,
      "▁pirinc": 7173,
      "##antep": 7174,
      "##kun": 7175,
      "▁elemanlar": 7176,
      "##lis": 7177,
      "▁gecmisti": 7178,
      "##umun": 7179,
      "##lamanın": 7180,
      "▁eski": 7181,
      "▁345": 7182,
      "`": 7183,
      "▁investment": 7184,
      "▁gom": 7185,
      "▁bırak": 7186,
      "▁goruyoruz": 7187,
      "▁lev": 7188,
      "▁gormemis": 7189,
      "##imser": 7190,
      "##ough": 7191,
      "▁yedinci": 7192,
      "▁baglı": 7193,
      "▁dustugunu": 7194,
      "▁azıcık": 7195,
      "▁krist": 7196,
      "▁silik": 7197,
      "▁biten": 7198,
      "▁renkleri": 7199,
      "▁aydan": 7200,
      "▁aylık": 7201,
      "▁nazar": 7202,
      "▁baksana": 7203,
      "##dik": 7204,
      "##emedik": 7205,
      "▁farklılık": 7206,
      "▁tahminler": 7207,
      "##89-": 7208,
      "▁ysanız": 7209,
      "▁nitelendir": 7210,
      "##luk": 7211,
      "##seri": 7212,
      "▁arı": 7213,
      "▁perd": 7214,
      "##isle": 7215,
      "##acısı": 7216,
      "▁19": 7217,
      "▁yalnızca": 7218,
      "▁kampanya": 7219,
      "▁baslamadan": 7220,
      "##istan'da": 7221,
      "▁surpr": 7222,
      "##um": 7223,
      "▁cıkardı": 7224,
      "▁jack": 7225,
      "▁ert": 7226,
      "▁kesik": 7227,
      "▁korkut": 7228,
      "▁700.": 7229,
      "##3.8": 7230,
      "▁meydanı": 7231,
      "▁bambaska": 7232,
      "##liam": 7233,
      "▁ib": 7234,
      "▁nane": 7235,
      "▁diri": 7236,
      "▁vucudum": 7237,
      "▁yun": 7238,
      "▁vermektedir": 7239,
      "▁med": 7240,
      "##eginden": 7241,
      "▁olacaktı": 7242,
      "▁bahsediyor": 7243,
      "▁yukselmistir": 7244,
      "▁padisah": 7245,
      "▁verici": 7246,
      "▁sahtek": 7247,
      "##dız": 7248,
      "▁topraga": 7249,
      "▁amaclı": 7250,
      "##ınızı": 7251,
      "▁lin": 7252,
      "##00'den": 7253,
      "▁fotograf": 7254,
      "▁masaya": 7255,
      "##ons": 7256,
      "##lı": 7257,
      "▁kazancları": 7258,
      "▁suik": 7259,
      "##unc": 7260,
      "▁ens": 7261,
      "▁gitmek": 7262,
      "##madigim": 7263,
      "▁altında": 7264,
      "▁ytl": 7265,
      "▁2.9": 7266,
      "▁kesme": 7267,
      "##andan": 7268,
      "▁nice": 7269,
      "▁varlıgı": 7270,
      "▁haliyle": 7271,
      "▁yukselisle": 7272,
      "▁bodrum": 7273,
      "▁yatırımcıların": 7274,
      "▁coktu": 7275,
      "▁fiziksel": 7276,
      "▁300000": 7277,
      "▁isletme": 7278,
      "##roit": 7279,
      "▁telgraf": 7280,
      "##ır": 7281,
      "▁tutus": 7282,
      "▁garanti": 7283,
      "##'nunla": 7284,
      "▁hastanın": 7285,
      "▁tanıtım": 7286,
      "▁kr": 7287,
      "▁mcca": 7288,
      "▁sirketten": 7289,
      "▁dern": 7290,
      "▁erdem": 7291,
      "▁336": 7292,
      "▁ayagını": 7293,
      "▁dinledi": 7294,
      "▁taksim": 7295,
      "▁recet": 7296,
      "▁yiz": 7297,
      "##oll": 7298,
      "##gor": 7299,
      "▁gerekir": 7300,
      "▁iskonto": 7301,
      "▁sizden": 7302,
      "##dınız": 7303,
      "▁ramaz": 7304,
      "▁cekilmis": 7305,
      "▁haberdar": 7306,
      "##lin": 7307,
      "▁yazma": 7308,
      "##aat": 7309,
      "▁pasif": 7310,
      "▁630": 7311,
      "▁cebinden": 7312,
      "▁koydular": 7313,
      "##lanmıstır": 7314,
      "▁almaz": 7315,
      "▁pemex": 7316,
      "▁belirtmek": 7317,
      "▁performansı": 7318,
      "▁green": 7319,
      "##.38": 7320,
      "▁ulasımı": 7321,
      "▁finc": 7322,
      "##leket": 7323,
      "▁olmadıgını": 7324,
      "▁281": 7325,
      "▁santor": 7326,
      "▁kazanan": 7327,
      "▁ash": 7328,
      "##-a": 7329,
      "▁degin": 7330,
      "▁dusunerek": 7331,
      "▁cesitli": 7332,
      "▁ceyreginde": 7333,
      "▁kara": 7334,
      "▁valley": 7335,
      "▁u": 7336,
      "▁gorusu": 7337,
      "▁yıp": 7338,
      "▁ucuna": 7339,
      "▁kolomb": 7340,
      "▁soru": 7341,
      "▁muhendi": 7342,
      "▁donemde": 7343,
      "##asının": 7344,
      "##zet": 7345,
      "##igini": 7346,
      "▁rahatsızlık": 7347,
      "▁kırac": 7348,
      "▁kiler": 7349,
      "▁derec": 7350,
      "▁aslına": 7351,
      "▁dallas'a": 7352,
      "##ann": 7353,
      "▁turlu": 7354,
      "▁acımasız": 7355,
      "▁haket": 7356,
      "##duklarını": 7357,
      "▁okullar": 7358,
      "▁idari": 7359,
      "##ılmamıs": 7360,
      "##ılma": 7361,
      "▁yaslarında": 7362,
      "▁mcdon": 7363,
      "▁arkadan": 7364,
      "▁cekmec": 7365,
      "▁eng": 7366,
      "▁doldur": 7367,
      "▁unvan": 7368,
      "▁linc": 7369,
      "▁yasarken": 7370,
      "##layınca": 7371,
      "▁kurum": 7372,
      "▁est": 7373,
      "▁marka": 7374,
      "▁damla": 7375,
      "▁birak": 7376,
      "##ıldıgında": 7377,
      "▁bahar": 7378,
      "##hard": 7379,
      "▁william": 7380,
      "▁1.9": 7381,
      "▁degirmen": 7382,
      "▁vermisti": 7383,
      "▁kurulunun": 7384,
      "▁yanda": 7385,
      "▁goz": 7386,
      "▁kullandıkları": 7387,
      "▁iy": 7388,
      "▁keh": 7389,
      "▁diler": 7390,
      "▁kısın": 7391,
      "▁ihtiy": 7392,
      "▁dl": 7393,
      "▁jac": 7394,
      "▁gru": 7395,
      "▁klor": 7396,
      "▁ongoruyor": 7397,
      "▁belki": 7398,
      "▁soyluyordu": 7399,
      "##int": 7400,
      "##.50": 7401,
      "##gini": 7402,
      "▁ziyaret": 7403,
      "##tiniz": 7404,
      "▁akrep": 7405,
      "▁basbakanlık": 7406,
      "▁sizler": 7407,
      "▁havalimanı": 7408,
      "▁worth'dan": 7409,
      "##larımızı": 7410,
      "▁nicin": 7411,
      "##anci": 7412,
      "##zi": 7413,
      "##8'den": 7414,
      "##uyu": 7415,
      "##anti": 7416,
      "▁hakaret": 7417,
      "▁ederek": 7418,
      "▁rap": 7419,
      "##larınızı": 7420,
      "▁sofr": 7421,
      "##ck": 7422,
      "##-packard": 7423,
      "▁mar": 7424,
      "##he": 7425,
      "▁tabi": 7426,
      "##bek": 7427,
      "▁ihtilal": 7428,
      "##acagınız": 7429,
      "▁olmasına": 7430,
      "▁memuru": 7431,
      "▁korkusu": 7432,
      "▁dısındaki": 7433,
      "▁ve": 7434,
      "▁basımıza": 7435,
      "▁bırakıyor": 7436,
      "▁anlatım": 7437,
      "▁duser": 7438,
      "▁%9.": 7439,
      "▁arkadasları": 7440,
      "▁cember": 7441,
      "▁bankası": 7442,
      "▁final": 7443,
      "▁reklamları": 7444,
      "▁gectim": 7445,
      "▁hayatı": 7446,
      "▁pahali": 7447,
      "▁varsa": 7448,
      "▁gozle": 7449,
      "▁helms": 7450,
      "▁buz": 7451,
      "▁kal": 7452,
      "▁askı": 7453,
      "▁gelistirme": 7454,
      "##aver": 7455,
      "▁ihrac": 7456,
      "▁sıkıntı": 7457,
      "▁:": 7458,
      "▁ucunu": 7459,
      "▁fiz": 7460,
      "##6.1": 7461,
      "▁dorduncu": 7462,
      "▁deney": 7463,
      "▁edilmisti": 7464,
      "▁aksi": 7465,
      "▁etkisiyle": 7466,
      "▁dak": 7467,
      "##cesine": 7468,
      "▁cesitler": 7469,
      "##rim": 7470,
      "▁sonucların": 7471,
      "▁uyk": 7472,
      "▁ebru": 7473,
      "▁temizlik": 7474,
      "▁takımı": 7475,
      "▁bırakır": 7476,
      "▁icat": 7477,
      "▁34": 7478,
      "▁buyumus": 7479,
      "▁zararı": 7480,
      "▁doların": 7481,
      "▁otelde": 7482,
      "▁seninle": 7483,
      "##elin": 7484,
      "▁soylenen": 7485,
      "▁calkan": 7486,
      "▁biliyor": 7487,
      "▁ticaret": 7488,
      "▁calısanlar": 7489,
      "▁kasıgı": 7490,
      "##ının": 7491,
      "##-c": 7492,
      "##ro": 7493,
      "##iforn": 7494,
      "▁basladılar": 7495,
      "##une": 7496,
      "▁cif": 7497,
      "▁izlem": 7498,
      "▁kalkın": 7499,
      "##aragu": 7500,
      "▁baskısı": 7501,
      "▁ortulu": 7502,
      "▁onlarca": 7503,
      "▁gosterdigi": 7504,
      "▁olumsuzluk": 7505,
      "▁kapıyı": 7506,
      "##ece": 7507,
      "▁etmeye": 7508,
      "▁izlen": 7509,
      "##lap": 7510,
      "##ıla": 7511,
      "▁dokuluyor": 7512,
      "##lamıs": 7513,
      "▁anlatır": 7514,
      "▁pl": 7515,
      "▁prens": 7516,
      "▁umut": 7517,
      "▁yesil": 7518,
      "▁heykel": 7519,
      "##tr": 7520,
      "▁sirketler": 7521,
      "▁mız": 7522,
      "▁isinin": 7523,
      "▁stein": 7524,
      "▁1900": 7525,
      "▁gem": 7526,
      "##uga": 7527,
      "▁&": 7528,
      "▁eklem": 7529,
      "##orld": 7530,
      "▁duyarl": 7531,
      "▁ihtimalle": 7532,
      "▁ustune": 7533,
      "##misler": 7534,
      "▁olaca": 7535,
      "▁bagladı": 7536,
      "▁bulasık": 7537,
      "##are": 7538,
      "▁kendimize": 7539,
      "##ash": 7540,
      "##ustum": 7541,
      "▁oku": 7542,
      "▁cıkınca": 7543,
      "▁sinema": 7544,
      "▁calısarak": 7545,
      "##madı": 7546,
      "▁dagıt": 7547,
      "##illa": 7548,
      "▁dolaylı": 7549,
      "▁calisirim": 7550,
      "▁luft": 7551,
      "▁potansiy": 7552,
      "▁almıstı": 7553,
      "▁ciftciler": 7554,
      "▁qx": 7555,
      "▁limuzin": 7556,
      "▁kenara": 7557,
      "##lam": 7558,
      "▁hayata": 7559,
      "▁7/8": 7560,
      "▁acmıstı": 7561,
      "##aktan": 7562,
      "▁beklentim": 7563,
      "▁muraca": 7564,
      "▁bloke": 7565,
      "▁arz": 7566,
      "▁surum": 7567,
      "##ci": 7568,
      "▁taze": 7569,
      "ı": 7570,
      "▁onumuz": 7571,
      "▁harca": 7572,
      "##go": 7573,
      "▁donmesi": 7574,
      "▁vil": 7575,
      "▁13.8": 7576,
      "▁tasarısı": 7577,
      "##oglu'nun": 7578,
      "▁cekildi": 7579,
      "##'na": 7580,
      "▁geldigim": 7581,
      "▁%1.7": 7582,
      "▁sıkı": 7583,
      "##eldi": 7584,
      "##endi": 7585,
      "▁yardımcısıydı": 7586,
      "##iyle": 7587,
      "▁bazi": 7588,
      "▁kas": 7589,
      "▁sms": 7590,
      "▁banyo": 7591,
      "##30": 7592,
      "##'unu": 7593,
      "▁seyahat": 7594,
      "▁ikibinbir": 7595,
      "##.48": 7596,
      "▁hakkında": 7597,
      "##mesiyle": 7598,
      "▁levh": 7599,
      "##sy": 7600,
      "▁agacların": 7601,
      "▁muhakkak": 7602,
      "##cık": 7603,
      "▁detroit'e": 7604,
      "▁ku": 7605,
      "▁basit": 7606,
      "##dir": 7607,
      "▁45000": 7608,
      "▁esyalarını": 7609,
      "▁denecek": 7610,
      "▁niyeti": 7611,
      "▁hazine'nin": 7612,
      "▁opsiyonu": 7613,
      "▁tuttu": 7614,
      "▁bahsetti": 7615,
      "▁mey": 7616,
      "▁bilgiler": 7617,
      "▁les": 7618,
      "▁cadd": 7619,
      "▁tadina": 7620,
      "▁duruyorlar": 7621,
      "▁fazlay": 7622,
      "▁boyut": 7623,
      "▁raf": 7624,
      "▁ven": 7625,
      "▁bunlara": 7626,
      "▁kacır": 7627,
      "▁tasarruf": 7628,
      "##vır": 7629,
      "▁yorgan": 7630,
      "##ete": 7631,
      "##ilmedi": 7632,
      "▁demez": 7633,
      "▁degiller": 7634,
      "##ediy": 7635,
      "▁baslar": 7636,
      "▁fon": 7637,
      "##lerde": 7638,
      "▁300": 7639,
      "▁sabahı": 7640,
      "##erse": 7641,
      "▁duyulan": 7642,
      "▁belirtiyor": 7643,
      "▁ıcı": 7644,
      "▁getirmeye": 7645,
      "▁mide": 7646,
      ":": 7647,
      "▁yarat": 7648,
      "▁sayılı": 7649,
      "##goz": 7650,
      "▁yapmıyor": 7651,
      "▁alalım": 7652,
      "##esine": 7653,
      "4": 7654,
      "▁bulus": 7655,
      "▁verdik": 7656,
      "▁almanlar": 7657,
      "▁analizciler": 7658,
      "##agan": 7659,
      "▁avukatı": 7660,
      "▁harcamaları": 7661,
      "▁memphis'e": 7662,
      "▁paris'te": 7663,
      "▁cıkmaya": 7664,
      "▁yakıt": 7665,
      "▁sınav": 7666,
      "▁trak": 7667,
      "▁gozunu": 7668,
      "▁8'den": 7669,
      "▁anlasılan": 7670,
      "▁askeri": 7671,
      "▁hit": 7672,
      "▁ozelligi": 7673,
      "▁calısanı": 7674,
      "▁yara": 7675,
      "▁calısanların": 7676,
      "▁4.7": 7677,
      "▁diren": 7678,
      "▁gozum": 7679,
      "▁guardi": 7680,
      "▁karsılastırıldıgında": 7681,
      "▁deyip": 7682,
      "▁kalmamıstı": 7683,
      "▁keser": 7684,
      "▁pisti": 7685,
      "▁duyduk": 7686,
      "▁tren": 7687,
      "##emeyecek": 7688,
      "▁gerilim": 7689,
      "▁yum": 7690,
      "##ub": 7691,
      "▁dusundugum": 7692,
      "▁org": 7693,
      "▁yandı": 7694,
      "▁erkege": 7695,
      "##sanız": 7696,
      "▁ofke": 7697,
      "▁politikaya": 7698,
      "▁simsek": 7699,
      "▁ye": 7700,
      "##seniz": 7701,
      "▁erken": 7702,
      "▁ugras": 7703,
      "▁evli": 7704,
      "▁app": 7705,
      "##nie": 7706,
      "▁onlemek": 7707,
      "▁kostu": 7708,
      "▁istis": 7709,
      "▁guclu": 7710,
      "▁kalan": 7711,
      "▁ucmam": 7712,
      "▁gectigimiz": 7713,
      "▁.)": 7714,
      "▁toplamıs": 7715,
      "▁ger": 7716,
      "▁pırıl": 7717,
      "##ısır": 7718,
      "▁birinci": 7719,
      "##it": 7720,
      "▁sofor": 7721,
      "▁tic": 7722,
      "▁mos": 7723,
      "##ıyorsun": 7724,
      "##'lik": 7725,
      "▁saf": 7726,
      "▁22": 7727,
      "##pr": 7728,
      "▁ik": 7729,
      "##to": 7730,
      "▁marif": 7731,
      "##kelam": 7732,
      "##teler": 7733,
      "▁yog": 7734,
      "▁sezlong": 7735,
      "▁sahib": 7736,
      "##ırım": 7737,
      "▁aydınlat": 7738,
      "▁aktivite": 7739,
      "##oniki": 7740,
      "▁7'de": 7741,
      "▁tın": 7742,
      "▁skandal": 7743,
      "▁umdugunu": 7744,
      "▁pitts": 7745,
      "▁badan": 7746,
      "▁asik": 7747,
      "▁doz": 7748,
      "▁secmen": 7749,
      "▁ihracı": 7750,
      "##ince": 7751,
      "▁ceza": 7752,
      "▁yanak": 7753,
      "##'lık": 7754,
      "▁neler": 7755,
      "▁karısı": 7756,
      "▁35587": 7757,
      "▁takımının": 7758,
      "##rar": 7759,
      "▁kaynat": 7760,
      "▁merdiv": 7761,
      "##acası": 7762,
      "▁topa": 7763,
      "##abildi": 7764,
      "##erler": 7765,
      "##eliyor": 7766,
      "▁bakınca": 7767,
      "▁sachs": 7768,
      "▁birisi": 7769,
      "▁ucusunuz": 7770,
      "##sına": 7771,
      "##'m": 7772,
      "▁gozunde": 7773,
      "▁ocagı": 7774,
      "▁nakit": 7775,
      "##00'e": 7776,
      "▁yapıyorlar": 7777,
      "▁cocukları": 7778,
      "▁liradan": 7779,
      "▁control": 7780,
      "▁giysiler": 7781,
      "▁yoneticisi": 7782,
      "▁zeka": 7783,
      "▁beklemeye": 7784,
      "▁iyiles": 7785,
      "▁kesildi": 7786,
      "▁kapasit": 7787,
      "▁ep": 7788,
      "▁fir": 7789,
      "▁bilek": 7790,
      "▁kendi": 7791,
      "▁yal": 7792,
      "▁paul'a": 7793,
      "▁olmayı": 7794,
      "▁bag": 7795,
      "▁carpar": 7796,
      "▁yunan": 7797,
      "▁anlama": 7798,
      "▁deh": 7799,
      "▁toh": 7800,
      "▁egz": 7801,
      "▁istediklerini": 7802,
      "▁dem": 7803,
      "▁yapısı": 7804,
      "▁tuhaf": 7805,
      "▁sırrı": 7806,
      "▁cogunlukla": 7807,
      "##orm": 7808,
      "▁bıyık": 7809,
      "▁savcılar": 7810,
      "▁alakasi": 7811,
      "▁teb": 7812,
      "##lesme": 7813,
      "▁hok": 7814,
      "▁04": 7815,
      "##ustuk": 7816,
      "##65": 7817,
      "▁yapacagı": 7818,
      "▁ad": 7819,
      "▁kapasitesine": 7820,
      "▁rezerv": 7821,
      "##ıcık": 7822,
      "##lemeye": 7823,
      "▁cansu": 7824,
      "▁soyley": 7825,
      "▁ellerine": 7826,
      "▁yogurt": 7827,
      "##mısım": 7828,
      "▁silk": 7829,
      "##emm": 7830,
      "▁tarif": 7831,
      "▁celik": 7832,
      "▁korkunc": 7833,
      "##encer": 7834,
      "▁gormuyor": 7835,
      "▁gen": 7836,
      "▁birim": 7837,
      "##ari": 7838,
      "▁texas": 7839,
      "▁isletmeler": 7840,
      "▁itibaren": 7841,
      "##ah": 7842,
      "##asıyordu": 7843,
      "▁215.04": 7844,
      "▁ordusu": 7845,
      "▁26000": 7846,
      "##anların": 7847,
      "##eniz": 7848,
      "▁elime": 7849,
      "▁oykuler": 7850,
      "▁associates": 7851,
      "▁profesyonel": 7852,
      "▁kusk": 7853,
      "▁geciren": 7854,
      "▁bab": 7855,
      "▁parası": 7856,
      "▁baz": 7857,
      "▁asagıda": 7858,
      "▁inc.'in": 7859,
      "▁168": 7860,
      "▁degismis": 7861,
      "▁yaptık": 7862,
      "▁bekleniyor": 7863,
      "▁sirketlerin": 7864,
      "##tigim": 7865,
      "▁duyg": 7866,
      "##amı": 7867,
      "▁biriktir": 7868,
      "▁gozlerinden": 7869,
      "▁oncesinde": 7870,
      "▁bileti": 7871,
      "▁oncelik": 7872,
      "▁algılan": 7873,
      "▁gonlum": 7874,
      "▁1970": 7875,
      "▁yeter": 7876,
      "▁1/2'den": 7877,
      "▁yuz": 7878,
      "##ave": 7879,
      "▁yatırımcının": 7880,
      "▁olacagına": 7881,
      "▁isteyenler": 7882,
      "##anla": 7883,
      "▁2.75": 7884,
      "▁nedenle": 7885,
      "▁durdur": 7886,
      "▁canan": 7887,
      "▁rot": 7888,
      "##rken": 7889,
      "▁macın": 7890,
      "##erisi": 7891,
      "▁dikti": 7892,
      "▁pus": 7893,
      "##eo": 7894,
      "▁con": 7895,
      "▁artık": 7896,
      "▁calısıyor": 7897,
      "▁uzuntu": 7898,
      "▁gaziantep": 7899,
      "\\": 7900,
      "▁serviste": 7901,
      "##alandı": 7902,
      "▁sayi": 7903,
      "##;": 7904,
      "▁geor": 7905,
      "▁1.000": 7906,
      "##'si": 7907,
      "▁yaslı": 7908,
      "▁sureci": 7909,
      "▁wall": 7910,
      "▁umum": 7911,
      "▁show": 7912,
      "▁gelelim": 7913,
      "▁derken": 7914,
      "##malık": 7915,
      "▁gorun": 7916,
      "▁soyleyerek": 7917,
      "▁sans": 7918,
      "▁restoran": 7919,
      "▁3554": 7920,
      "▁kap": 7921,
      "▁ted": 7922,
      "▁nuri": 7923,
      "▁charles": 7924,
      "##port": 7925,
      "▁tepe": 7926,
      "▁ust": 7927,
      "▁76": 7928,
      "▁form": 7929,
      "▁istey": 7930,
      "▁seattle": 7931,
      "▁omer": 7932,
      "▁dedim": 7933,
      "▁isy": 7934,
      "▁noel": 7935,
      "##0.": 7936,
      "▁efsan": 7937,
      "▁ey": 7938,
      "▁yapmadim": 7939,
      "##day": 7940,
      "▁veto": 7941,
      "▁havuc": 7942,
      "▁doktoru": 7943,
      "▁babama": 7944,
      "▁kosulları": 7945,
      "▁yasamaya": 7946,
      "##0.33": 7947,
      "▁indim": 7948,
      "▁satılan": 7949,
      "▁boyalı": 7950,
      "▁kampanyalardan": 7951,
      "##siyonu": 7952,
      "▁'ydi": 7953,
      "##y": 7954,
      "▁iceri": 7955,
      "▁dans": 7956,
      "##osunu": 7957,
      "▁sıkıs": 7958,
      "▁449.3": 7959,
      "##iss": 7960,
      "▁re": 7961,
      "▁asgari": 7962,
      "▁6.6": 7963,
      "▁975": 7964,
      "▁saray": 7965,
      "▁sıy": 7966,
      "▁lim": 7967,
      "▁yarısı": 7968,
      "▁dusuyor": 7969,
      "##7'de": 7970,
      "▁miras": 7971,
      "▁cir": 7972,
      "▁gam": 7973,
      "▁isley": 7974,
      "##usundan": 7975,
      "##mann": 7976,
      "##ark": 7977,
      "▁pencerenin": 7978,
      "##'sini": 7979,
      "##may": 7980,
      "▁402": 7981,
      "▁tov": 7982,
      "##malıydı": 7983,
      "▁montre": 7984,
      "▁lezzetliydi": 7985,
      "##°": 7986,
      "▁tasıyor": 7987,
      "▁icti": 7988,
      "▁210": 7989,
      "▁luz": 7990,
      "▁liberal": 7991,
      "▁mahz": 7992,
      "▁huner": 7993,
      "▁takip": 7994,
      "▁sanatcı": 7995,
      "▁bunun": 7996,
      "▁belirtmis": 7997,
      "y": 7998,
      "▁asya": 7999,
      "▁basketbol": 8000,
      "▁pro": 8001,
      "▁muyuz": 8002,
      "##alarıyla": 8003,
      "▁vasatti": 8004,
      "▁bilinmeyen": 8005,
      "▁set": 8006,
      "##ire": 8007,
      "##.49": 8008,
      "▁kiralama": 8009,
      "▁tutmaya": 8010,
      "▁1968": 8011,
      "##sana": 8012,
      "▁idaresi": 8013,
      "▁polisler": 8014,
      "▁540": 8015,
      "▁n.": 8016,
      "▁vermeyen": 8017,
      "▁alıcılar": 8018,
      "##iye": 8019,
      "▁polis": 8020,
      "##ayol": 8021,
      "##ibe": 8022,
      "▁0.00": 8023,
      "▁adi": 8024,
      "▁denilen": 8025,
      "##ranc": 8026,
      "▁milletin": 8027,
      "▁arkadası": 8028,
      "▁iyiydi": 8029,
      "▁neredeyse": 8030,
      "▁dusunduk": 8031,
      "…": 8032,
      "▁kazandım": 8033,
      "▁sabun": 8034,
      "▁%4.8": 8035,
      "▁milletvekili": 8036,
      "▁puanlarim": 8037,
      "▁gokyuzunu": 8038,
      "▁imam": 8039,
      "##mamak": 8040,
      "▁ortalıgı": 8041,
      "▁ureticileri": 8042,
      "##uter": 8043,
      "▁sokup": 8044,
      "▁karlı": 8045,
      "▁ali'nin": 8046,
      "▁kusuru": 8047,
      "##me": 8048,
      "##umuz": 8049,
      "▁yah": 8050,
      "▁aver": 8051,
      "▁sevda": 8052,
      "▁evi": 8053,
      "##adını": 8054,
      "▁patr": 8055,
      "▁uzerine": 8056,
      "▁samet": 8057,
      "▁mustafa": 8058,
      "##amazlar": 8059,
      "▁imzaladı": 8060,
      "▁gecikme": 8061,
      "▁1.500": 8062,
      "▁sergi": 8063,
      "▁yasanan": 8064,
      "▁elli": 8065,
      "▁plas": 8066,
      "##isin": 8067,
      "▁mark": 8068,
      "▁haydi": 8069,
      "▁gurultu": 8070,
      "▁istemiyorum": 8071,
      "▁19.9": 8072,
      "▁evini": 8073,
      "▁bahtiy": 8074,
      "▁hangi": 8075,
      "##gam": 8076,
      "▁baktı": 8077,
      "▁kapital": 8078,
      "▁oldug": 8079,
      "##imde": 8080,
      "▁biriyle": 8081,
      "▁salat": 8082,
      "▁karlar": 8083,
      "▁poy": 8084,
      "##anbul": 8085,
      "▁oglum": 8086,
      "▁tipi": 8087,
      "▁kanun": 8088,
      "▁991": 8089,
      "▁geciriyor": 8090,
      "▁anlatan": 8091,
      "▁donuk": 8092,
      "##uf": 8093,
      "▁states": 8094,
      "##lendigini": 8095,
      "##ings": 8096,
      "▁yankılan": 8097,
      "▁tutarlı": 8098,
      "##tug": 8099,
      "▁tuc": 8100,
      "▁parmakları": 8101,
      "▁verebilir": 8102,
      "▁kutu": 8103,
      "▁yarar": 8104,
      "▁televizyon": 8105,
      "▁profesor": 8106,
      "▁carte": 8107,
      "##stems": 8108,
      "▁carsı": 8109,
      "▁okun": 8110,
      "▁pencereden": 8111,
      "▁kokuyor": 8112,
      "▁erdi": 8113,
      "▁sekli": 8114,
      "##ber": 8115,
      "▁yılmaz": 8116,
      "▁uretic": 8117,
      "▁kesti": 8118,
      "##art": 8119,
      "▁kendimi": 8120,
      "▁samimiyet": 8121,
      "▁gey": 8122,
      "##beri": 8123,
      "▁diyarbakır'a": 8124,
      "▁uygulan": 8125,
      "▁sozun": 8126,
      "##uman": 8127,
      "▁kullanılan": 8128,
      "▁mesa": 8129,
      "[UNK]": 8130,
      "▁sesiyle": 8131,
      "▁ulasıyor": 8132,
      "▁sivil": 8133,
      "▁180": 8134,
      "▁ulkeleri": 8135,
      "▁ilgileniyor": 8136,
      "▁goc": 8137,
      "▁sadak": 8138,
      "▁gelistirmek": 8139,
      "▁devre": 8140,
      "▁henuz": 8141,
      "▁ign": 8142,
      "##ga": 8143,
      "##ack": 8144,
      "▁tarz": 8145,
      "▁buhran": 8146,
      "##.23": 8147,
      "▁kendiler": 8148,
      "▁cagın": 8149,
      "▁teslim": 8150,
      "▁muazzam": 8151,
      "▁rustu": 8152,
      "▁164830000": 8153,
      "##emmel": 8154,
      "▁bilmek": 8155,
      "##isel": 8156,
      "▁bulacak": 8157,
      "▁ask": 8158,
      "▁kurtarmak": 8159,
      "▁aktif": 8160,
      "##ıkır": 8161,
      "##mesinin": 8162,
      "▁giy": 8163,
      "▁kahveren": 8164,
      "▁arıyor": 8165,
      "▁avuc": 8166,
      "##egini": 8167,
      "▁parmak": 8168,
      "##ılırdı": 8169,
      "▁1.5820": 8170,
      "▁universitede": 8171,
      "▁beyan": 8172,
      "▁lazımdır": 8173,
      "▁mendi": 8174,
      "▁midwest": 8175,
      "▁cunku": 8176,
      "##aca": 8177,
      "▁kayıt": 8178,
      "##cı": 8179,
      "▁oluyor": 8180,
      "▁yuksel": 8181,
      "##utur": 8182,
      "▁gerisi": 8183,
      "▁ogr": 8184,
      "▁seyr": 8185,
      "▁utan": 8186,
      "▁isv": 8187,
      "▁pınar": 8188,
      "▁haf": 8189,
      "▁koyden": 8190,
      "▁antalya": 8191,
      "##med": 8192,
      "##suzluk": 8193,
      "▁geliyorlar": 8194,
      "▁duman": 8195,
      "▁yenilen": 8196,
      "▁kalkıyor": 8197,
      "▁burn": 8198,
      "▁vatandas": 8199,
      "▁aga": 8200,
      "▁cuh": 8201,
      "▁serv": 8202,
      "▁demet": 8203,
      "▁korudu": 8204,
      "▁conn": 8205,
      "▁27": 8206,
      "▁ilerliyor": 8207,
      "▁petersburg'dan": 8208,
      "▁iktidar": 8209,
      "▁jon": 8210,
      "▁paraya": 8211,
      "▁ucmanın": 8212,
      "##'da": 8213,
      "▁zihn": 8214,
      "▁bitki": 8215,
      "▁hasret": 8216,
      "▁hurr": 8217,
      "##wn": 8218,
      "##lerinde": 8219,
      "##il": 8220,
      "▁prof": 8221,
      "▁zengin": 8222,
      "▁haval": 8223,
      "▁fevkal": 8224,
      "▁dudak": 8225,
      "##ebilirsiniz": 8226,
      "▁86": 8227,
      "▁ayarlanabilir": 8228,
      "##anlı": 8229,
      "##ımın": 8230,
      "▁stratej": 8231,
      "▁bıcak": 8232,
      "##akkak": 8233,
      "▁adamı": 8234,
      "▁akan": 8235,
      "▁secim": 8236,
      "▁baktım": 8237,
      "▁ymus": 8238,
      "▁gununde": 8239,
      "▁sevim": 8240,
      "##unda": 8241,
      "▁kimine": 8242,
      "▁yazınız": 8243,
      "##sey": 8244,
      "▁eur": 8245,
      "##ruz": 8246,
      "▁guz": 8247,
      "▁cı": 8248,
      "▁kapattı": 8249,
      "▁direktoru": 8250,
      "▁varlıklar": 8251,
      "##ze": 8252,
      "##sa": 8253,
      "▁reklamlar": 8254,
      "▁gorunuyordu": 8255,
      "▁engel": 8256,
      "##tem": 8257,
      "▁atın": 8258,
      "▁tim": 8259,
      "▁hayatımda": 8260,
      "##detti": 8261,
      "▁seylerin": 8262,
      "▁kapas": 8263,
      "▁carl": 8264,
      "▁yaslan": 8265,
      "▁okurdu": 8266,
      "▁yonetimi": 8267,
      "▁tesisi": 8268,
      "▁acent": 8269,
      "▁jr": 8270,
      "▁fuar": 8271,
      "▁.1": 8272,
      "▁enf": 8273,
      "▁twa": 8274,
      "▁k": 8275,
      "▁sultan": 8276,
      "▁mudahale": 8277,
      "##6'dan": 8278,
      "▁110": 8279,
      "▁1950": 8280,
      "##id": 8281,
      "##misti": 8282,
      "▁oynayan": 8283,
      "▁kotuye": 8284,
      "##ug": 8285,
      "▁sosyalist": 8286,
      "▁tedavul": 8287,
      "▁urunlerin": 8288,
      "▁adamının": 8289,
      "▁gidiyordu": 8290,
      "▁tucc": 8291,
      "▁bes": 8292,
      "▁etmekte": 8293,
      "▁ulkelerde": 8294,
      "##memistim": 8295,
      "##isindan": 8296,
      "▁kondu": 8297,
      "##daki": 8298,
      "▁sigorta": 8299,
      "▁esin": 8300,
      "▁gumbur": 8301,
      "▁tesekkur": 8302,
      "▁muhtesem": 8303,
      "##gide": 8304,
      "▁holly": 8305,
      "▁12000": 8306,
      "▁golge": 8307,
      "##…": 8308,
      "▁kızlar": 8309,
      "▁1.8470": 8310,
      "##acaktı": 8311,
      "▁oynamak": 8312,
      "▁agaclar": 8313,
      "▁yarısına": 8314,
      "▁kırk": 8315,
      "▁kavur": 8316,
      "##gac": 8317,
      "▁detayları": 8318,
      "▁anadolu'nun": 8319,
      "▁merkezi": 8320,
      "▁etkisi": 8321,
      "▁asagıya": 8322,
      "▁3.1": 8323,
      "▁ettiginde": 8324,
      "▁w": 8325,
      "▁arn": 8326,
      "##acaksın": 8327,
      "▁kızına": 8328,
      "▁saatlerinde": 8329,
      "##14": 8330,
      "▁tedav": 8331,
      "▁celisk": 8332,
      "▁micr": 8333,
      "▁kurnaz": 8334,
      "▁lou": 8335,
      "▁dım": 8336,
      "▁1.11": 8337,
      "##abilmek": 8338,
      "##usa": 8339,
      "▁dısı": 8340,
      "▁ceh": 8341,
      "▁yili": 8342,
      "##cinin": 8343,
      "▁9'dan": 8344,
      "##iness": 8345,
      "▁ag": 8346,
      "▁nom": 8347,
      "▁soya": 8348,
      "▁sag": 8349,
      "##olu": 8350,
      "##kel": 8351,
      "▁bro": 8352,
      "▁prob": 8353,
      "##lıgında": 8354,
      "▁surece": 8355,
      "##edildi": 8356,
      "▁idam": 8357,
      "▁seni": 8358,
      "▁bakimsizdi": 8359,
      "▁1761": 8360,
      "##ento": 8361,
      "▁duvarın": 8362,
      "##het": 8363,
      "▁ikiye": 8364,
      "▁sinir": 8365,
      "##likten": 8366,
      "▁edec": 8367,
      "##suzdu": 8368,
      "▁baglamıs": 8369,
      "▁alma": 8370,
      "▁bulabilir": 8371,
      "##ater": 8372,
      "▁yatırımcı": 8373,
      "▁olustur": 8374,
      "▁ital": 8375,
      "##ebilecegini": 8376,
      "##.09": 8377,
      "▁kıymetleri": 8378,
      "##isine": 8379,
      "##imize": 8380,
      "▁demokras": 8381,
      "▁duvarları": 8382,
      "▁biliyorlar": 8383,
      "▁kaliteye": 8384,
      "▁pasa'nın": 8385,
      "▁vahsi": 8386,
      "▁ab'ye": 8387,
      "##eri": 8388,
      "▁veyahut": 8389,
      "▁belir": 8390,
      "▁hareketi": 8391,
      "▁olmadan": 8392,
      "▁ayına": 8393,
      "▁kurus": 8394,
      "##egimiz": 8395,
      "▁vakti": 8396,
      "▁fiyatlarının": 8397,
      "▁telefonda": 8398,
      "##oca": 8399,
      "▁dort": 8400,
      "▁bakanlar": 8401,
      "▁cik": 8402,
      "▁sikintimiz": 8403,
      "▁ecektik": 8404,
      "##layan": 8405,
      "▁gecmeye": 8406,
      "▁dusunuyordu": 8407,
      "▁havlular": 8408,
      "▁sil": 8409,
      "▁ig": 8410,
      "##gumuz": 8411,
      "##ilerle": 8412,
      "▁1.58": 8413,
      "▁icmek": 8414,
      "##uncusu": 8415,
      "▁lisans": 8416,
      "▁fransa'da": 8417,
      "▁fer": 8418,
      "▁cleveland'dan": 8419,
      "##itt": 8420,
      "▁mahk": 8421,
      "▁yavr": 8422,
      "▁cıktılar": 8423,
      "##eyaz": 8424,
      "▁hems": 8425,
      "▁fazlası": 8426,
      "▁elleri": 8427,
      "▁gib": 8428,
      "▁ustundeki": 8429,
      "##va": 8430,
      "▁islemlerini": 8431,
      "▁olmalıydı": 8432,
      "▁listeler": 8433,
      "▁koyluler": 8434,
      "##larımızın": 8435,
      "##yuz": 8436,
      "▁sw": 8437,
      "▁sars": 8438,
      "▁n": 8439,
      "▁erbak": 8440,
      "▁haram": 8441,
      "▁pantol": 8442,
      "▁insaf": 8443,
      "##zo": 8444,
      "▁arız": 8445,
      "▁5": 8446,
      "▁kor": 8447,
      "▁6.000": 8448,
      "▁1.63": 8449,
      "▁bagımlı": 8450,
      "##20000": 8451,
      "##likle": 8452,
      "##uler": 8453,
      "▁seytan": 8454,
      "▁trelleborg": 8455,
      "▁grub": 8456,
      "▁karıs": 8457,
      "▁olanlara": 8458,
      "▁tasır": 8459,
      "▁hacmi": 8460,
      "▁istiklal": 8461,
      "▁yatkın": 8462,
      "▁gecerli": 8463,
      "▁3.05": 8464,
      "##.02": 8465,
      "▁cıkaracak": 8466,
      "▁kalitesine": 8467,
      "▁hizmetten": 8468,
      "##(": 8469,
      "##ildigi": 8470,
      "##lamadan": 8471,
      "▁casus": 8472,
      "▁1.75": 8473,
      "▁olmayacaktır": 8474,
      "▁mahkem": 8475,
      "▁eastern'in": 8476,
      "▁dolu": 8477,
      "▁city'e": 8478,
      "▁arasındaki": 8479,
      "##masının": 8480,
      "▁pisir": 8481,
      "##3.9": 8482,
      "▁atarak": 8483,
      "▁ithalat": 8484,
      "▁konusur": 8485,
      "##1": 8486,
      "▁gorevlileri": 8487,
      "▁kazandı": 8488,
      "▁yazarın": 8489,
      "##ınız": 8490,
      "▁seyrediyordu": 8491,
      "▁sesler": 8492,
      "##usten": 8493,
      "##digim": 8494,
      "▁dengesi": 8495,
      "▁anlatmak": 8496,
      "##amay": 8497,
      "▁arabanın": 8498,
      "▁pen": 8499,
      "▁cuzdan": 8500,
      "##din": 8501,
      "▁kıt": 8502,
      "▁endis": 8503,
      "▁cumle": 8504,
      "▁olacagı": 8505,
      "▁gitmedi": 8506,
      "▁istiyorlar": 8507,
      "▁mesela": 8508,
      "▁don": 8509,
      "▁dalk": 8510,
      "o": 8511,
      "▁mektup": 8512,
      "▁yildi": 8513,
      "##ibi": 8514,
      "▁yetersizligi": 8515,
      "▁malları": 8516,
      "▁kurtaj": 8517,
      "▁166": 8518,
      "##ırıl": 8519,
      "▁oraya": 8520,
      "▁chicago'ya": 8521,
      "▁koruk": 8522,
      "▁turgut": 8523,
      "##baum": 8524,
      "##kım": 8525,
      "▁kazanc": 8526,
      "▁annemle": 8527,
      "##ılır": 8528,
      "##sine": 8529,
      "▁isp": 8530,
      "▁mobil": 8531,
      "▁cesitliydi": 8532,
      "▁aramaya": 8533,
      "▁1222": 8534,
      "▁tut": 8535,
      "▁62.5": 8536,
      "▁projesi": 8537,
      "▁turkc": 8538,
      "▁42.9": 8539,
      "##'ler": 8540,
      "▁118": 8541,
      "##etleri": 8542,
      "##odal": 8543,
      "##.4": 8544,
      "▁sc": 8545,
      "▁surun": 8546,
      "##gru": 8547,
      "▁130.": 8548,
      "▁national": 8549,
      "▁lang": 8550,
      "▁kelimeler": 8551,
      "##paz": 8552,
      "##mik": 8553,
      "▁hapis": 8554,
      "▁cocukca": 8555,
      "▁koptu": 8556,
      "▁fatura": 8557,
      "▁erkekler": 8558,
      "▁akıyor": 8559,
      "▁2662.91": 8560,
      "▁ozlem": 8561,
      "##-19": 8562,
      "▁analiz": 8563,
      "▁sakal": 8564,
      "##000": 8565,
      "##3:": 8566,
      "▁zeynep": 8567,
      "##gını": 8568,
      "▁korun": 8569,
      "▁zavallı": 8570,
      "▁devam": 8571,
      "▁him": 8572,
      "▁tramv": 8573,
      "▁atıyordu": 8574,
      "##o'nun": 8575,
      "▁cekmeye": 8576,
      "▁olaylara": 8577,
      "▁217": 8578,
      "▁brothers": 8579,
      "##isyen": 8580,
      "▁1.37": 8581,
      "▁inandır": 8582,
      "▁ref": 8583,
      "▁dagıl": 8584,
      "##meniz": 8585,
      "▁kaynakları": 8586,
      "▁calıstım": 8587,
      "##uydu": 8588,
      "##cal": 8589,
      "▁%0.2": 8590,
      "▁oylama": 8591,
      "▁pa": 8592,
      "##gın": 8593,
      "▁811": 8594,
      "▁havuz": 8595,
      "##mustum": 8596,
      "▁ecz": 8597,
      "▁genclik": 8598,
      "▁devreye": 8599,
      "▁etmisler": 8600,
      "▁serit": 8601,
      "▁atmosfer": 8602,
      "##asında": 8603,
      "##lıyordu": 8604,
      "▁sansı": 8605,
      "▁eriyor": 8606,
      "▁vır": 8607,
      "▁kurulu": 8608,
      "##ımı": 8609,
      "▁zırt": 8610,
      "##well": 8611,
      "▁gunlerinde": 8612,
      "▁vakit": 8613,
      "▁divan": 8614,
      "▁7.65": 8615,
      "▁bomb": 8616,
      "▁tedavulde": 8617,
      "##con": 8618,
      "##ard": 8619,
      "##ij": 8620,
      "▁fıkı": 8621,
      "▁kacta": 8622,
      "▁yukum": 8623,
      "##inizin": 8624,
      "▁islemlerin": 8625,
      "▁gelirlerinin": 8626,
      "▁tarlayı": 8627,
      "▁burada": 8628,
      "▁milano": 8629,
      "##ur": 8630,
      "▁duymuyor": 8631,
      "▁derl": 8632,
      "▁35": 8633,
      "▁borsanın": 8634,
      "##uyordum": 8635,
      "▁gucluk": 8636,
      "▁arası": 8637,
      "▁ihtilaf": 8638,
      "▁yapmadı": 8639,
      "▁man": 8640,
      "▁cincinnati'ye": 8641,
      "▁j.": 8642,
      "▁20.": 8643,
      "▁cuk": 8644,
      "##acagımı": 8645,
      "##yedi": 8646,
      "▁800": 8647,
      "▁yapti": 8648,
      "▁milyonluk": 8649,
      "▁nedeniyle": 8650,
      "▁urunleri": 8651,
      "▁yitir": 8652,
      "▁meral": 8653,
      "▁lıgı": 8654,
      "▁boz": 8655,
      "##imizi": 8656,
      "▁522": 8657,
      "▁chicago": 8658,
      "##lidir": 8659,
      "▁satılık": 8660,
      "▁kiz": 8661,
      "▁richard": 8662,
      "##ileri": 8663,
      "u": 8664,
      "##22": 8665,
      "▁durumu": 8666,
      "##is'in": 8667,
      "▁manastır": 8668,
      "##lesmis": 8669,
      "▁seyir": 8670,
      "▁uluslar": 8671,
      "##abilmesi": 8672,
      "▁aramak": 8673,
      "##ecegini": 8674,
      "▁biridir": 8675,
      "▁neyi": 8676,
      "##kam": 8677,
      "▁genelde": 8678,
      "▁rezerve": 8679,
      "##dıgımız": 8680,
      "##ildim": 8681,
      "##per": 8682,
      "▁mahkemede": 8683,
      "▁nin": 8684,
      "▁249.5": 8685,
      "▁aylarca": 8686,
      "##amlı": 8687,
      "▁animasyonlari": 8688,
      "##anı": 8689,
      "▁planının": 8690,
      "▁cat": 8691,
      "##753": 8692,
      "▁konuya": 8693,
      "▁yuzunden": 8694,
      "##acagım": 8695,
      "▁sizde": 8696,
      "▁kırm": 8697,
      "▁cav": 8698,
      "▁der": 8699,
      "▁sahada": 8700,
      "▁film": 8701,
      "▁so": 8702,
      "##cılar": 8703,
      "##ırda": 8704,
      "##lip": 8705,
[...]
