{
  "version": "1.0",
  "truncation": null,
  "padding": null,
  "added_tokens": [
    {
      "id": 723,
      "content": "[SEP]",
      "single_word": false,
      "lstrip": false,
      "rstrip": false,
      "normalized": false,
      "special": true
    },
    {
      "id": 3131,
      "content": "[CLS]",
      "single_word": false,
      "lstrip": false,
      "rstrip": false,
      "normalized": false,
      "special": true
    },
    {
      "id": 12262,
      "content": "[UNK]",
      "single_word": false,
      "lstrip": false,
      "rstrip": false,
      "normalized": false,
      "special": true
    },
    {
      "id": 13490,
      "content": "[MASK]",
      "single_word": false,
      "lstrip": false,
      "rstrip": false,
      "normalized": false,
      "special": true
    },
    {
      "id": 14252,
      "content": "[PAD]",
      "single_word": false,
      "lstrip": false,
      "rstrip": false,
      "normalized": false,
      "special": true
    }
  ],
  "normalizer": {
    "type": "Sequence",
    "normalizers": [
      {
        "type": "NFD"
      },
      {
        "type": "Lowercase"
      },
      {
        "type": "StripAccents"
      }
    ]
  },
  "pre_tokenizer": {
    "type": "Sequence",
    "pretokenizers": [
      {
        "type": "Metaspace",
        "replacement": "▁",
        "prepend_scheme": "always",
        "split": true
      }
    ]
  },
  "post_processor": {
    "type": "TemplateProcessing",
    "single": [
      {
        "SpecialToken": {
          "id": "[CLS]",
          "type_id": 0
        }
      },
      {
        "Sequence": {
          "id": "A",
          "type_id": 0
        }
      },
      {
        "SpecialToken": {
          "id": "[SEP]",
          "type_id": 0
        }
      }
    ],
    "pair": [
      {
        "SpecialToken": {
          "id": "[CLS]",
          "type_id": 0
        }
      },
      {
        "Sequence": {
          "id": "A",
          "type_id": 0
        }
      },
      {
        "SpecialToken": {
          "id": "[SEP]",
          "type_id": 0
        }
      },
      {
        "Sequence": {
          "id": "B",
          "type_id": 1
        }
      },
      {
        "SpecialToken": {
          "id": "[SEP]",
          "type_id": 1
        }
      }
    ],
    "special_tokens": {
      "[CLS]": {
        "id": "[CLS]",
        "ids": [
          3131
        ],
        "tokens": [
          "[CLS]"
        ]
      },
      "[SEP]": {
        "id": "[SEP]",
        "ids": [
          723
        ],
        "tokens": [
          "[SEP]"
        ]
      }
    }
  },
  "decoder": {
    "type": "Metaspace",
    "replacement": "▁",
    "prepend_scheme": "always",
    "split": true
  },
  "model": {
    "type": "BPE",
    "dropout": null,
    "unk_token": "[UNK]",
    "continuing_subword_prefix": null,
    "end_of_word_suffix": null,
    "fuse_unk": false,
    "byte_fallback": false,
    "ignore_merges": false,
    "vocab": {
      "▁sikin": 0,
      "▁uzaklastır": 1,
      "▁muthis": 2,
      "ılabilir": 3,
      "▁qintex": 4,
      "▁ucretle": 5,
      "▁206": 6,
      "▁araba": 7,
      "▁ekledi": 8,
      "▁giderek": 9,
      "▁kıyaslanır": 10,
      "▁297": 11,
      "alarca": 12,
      "▁yil": 13,
      "▁yaptıgını": 14,
      "uh": 15,
      "▁yasası": 16,
      "lıdır": 17,
      "▁vakıf": 18,
      "▁donemin": 19,
      "▁nın": 20,
      "▁degillerdi": 21,
      "▁tahsil": 22,
      "eber": 23,
      "ico": 24,
      "▁universitesi": 25,
      "ıldım": 26,
      "▁bıcak": 27,
      "▁mevsim": 28,
      "ule": 29,
      "▁kurs": 30,
      "▁brad": 31,
      "▁olas": 32,
      "ken": 33,
      "▁al": 34,
      "▁birimidir": 35,
      "▁dev": 36,
      "▁halkı": 37,
      "▁oldugumuz": 38,
      "▁kongre": 39,
      "▁kıraat": 40,
      "▁1942": 41,
      "emizi": 42,
      "▁tasıt": 43,
      "▁6.000": 44,
      "▁&": 45,
      "▁sih": 46,
      "▁seher": 47,
      "▁parkı": 48,
      "▁sundugu": 49,
      "▁emre": 50,
      "▁yalnızlık": 51,
      "mayla": 52,
      "▁mi": 53,
      "elim": 54,
      "▁ramazan": 55,
      "adel": 56,
      "▁munaseb": 57,
      "▁mutlaka": 58,
      "▁dini": 59,
      "iyi": 60,
      "▁tol": 61,
      "▁kimsen": 62,
      "▁istem": 63,
      "▁iyice": 64,
      "eginin": 65,
      "▁tahminleri": 66,
      "▁karanlıkta": 67,
      "▁ulkenin": 68,
      "▁arayıp": 69,
      "▁tul": 70,
      "▁endiselen": 71,
      ".49": 72,
      "▁tek": 73,
      "sel": 74,
      "▁samp": 75,
      "▁subat": 76,
      "allah": 77,
      "▁dilber": 78,
      "▁kazan": 79,
      "▁salınc": 80,
      "uldugu": 81,
      "▁koken": 82,
      "▁hukum": 83,
      "▁10000": 84,
      "▁arama": 85,
      "isim": 86,
      "▁rezalet": 87,
      "▁ucretini": 88,
      "▁duzgun": 89,
      "▁dolusu": 90,
      "▁karsısındaki": 91,
      "▁yaralan": 92,
      "ılırdı": 93,
      "digim": 94,
      "▁basınc": 95,
      "▁erkegi": 96,
      "unu": 97,
      "▁uzuntu": 98,
      "▁gelisme": 99,
      "▁%0": 100,
      "dokuzyuz": 101,
      "▁feda": 102,
      "▁golgesi": 103,
      "▁sikinti": 104,
      "▁koyden": 105,
      "▁gerekli": 106,
      "graf": 107,
      "▁gelirlerinin": 108,
      "▁dogrul": 109,
      "▁pazar": 110,
      "▁tutacak": 111,
      "▁sordular": 112,
      "▁tik": 113,
      "▁23": 114,
      "d": 115,
      "▁ortadan": 116,
      "▁obu": 117,
      "▁aranmak": 118,
      "▁atesi": 119,
      "larız": 120,
      "deri": 121,
      "duz": 122,
      "▁kacar": 123,
      "▁amel": 124,
      "onk": 125,
      "▁cak": 126,
      "▁meydana": 127,
      "▁fark": 128,
      "▁per": 129,
      "▁ayni": 130,
      "▁ismini": 131,
      "p'nin": 132,
      "▁anadolu'nun": 133,
      "▁kart": 134,
      "ogret": 135,
      "pr": 136,
      "▁surum": 137,
      "▁basarısız": 138,
      "▁sırı": 139,
      "'lı": 140,
      "▁fiyatlı": 141,
      "▁yasından": 142,
      "▁cesi": 143,
      "▁kolaylıkla": 144,
      "▁redingot": 145,
      "▁gormedigini": 146,
      "▁dagdan": 147,
      "▁tesisi": 148,
      "▁oldugundan": 149,
      "▁%1": 150,
      "▁nedeniyle": 151,
      "▁gozlerle": 152,
      "▁gorusu": 153,
      "▁lig": 154,
      "malıyım": 155,
      "iciler": 156,
      "▁ilgilenmediler": 157,
      "aragu": 158,
      "▁altından": 159,
      "▁genisti": 160,
      "▁kuvvetli": 161,
      "▁oyunları": 162,
      "▁otekini": 163,
      "▁odullendir": 164,
      "likti": 165,
      "▁izni": 166,
      "▁donemi": 167,
      "tılı": 168,
      "▁duymus": 169,
      "agım": 170,
      "▁77": 171,
      "▁endustrisinin": 172,
      "▁arasına": 173,
      "▁ayak": 174,
      "aci": 175,
      "▁klasik": 176,
      "▁oglunun": 177,
      "▁yunak": 178,
      "▁etkisi": 179,
      "sah": 180,
      "▁unvan": 181,
      "▁birinde": 182,
      "▁dunyası": 183,
      "▁cozum": 184,
      "▁icti": 185,
      "▁bankacılar": 186,
      "▁beye": 187,
      "▁fazlaydi": 188,
      "▁garanti": 189,
      "▁hit": 190,
      "▁yonetimin": 191,
      "▁malik": 192,
      "j.": 193,
      "▁acıklanmadı": 194,
      "▁tut": 195,
      "▁manasız": 196,
      "▁kasa": 197,
      "rek": 198,
      "▁bakıyor": 199,
      "▁ez": 200,
      "▁birbirimiz": 201,
      "▁kacırdı": 202,
      "▁gro": 203,
      "▁yerel": 204,
      "tay": 205,
      "▁188": 206,
      "▁asagida": 207,
      "▁der": 208,
      "▁saldır": 209,
      "▁acik": 210,
      "▁yaslan": 211,
      "▁sanıyor": 212,
      "▁elbis": 213,
      "▁yazık": 214,
      "6": 215,
      "▁avans": 216,
      "tum": 217,
      "inizde": 218,
      "▁karsısına": 219,
      "▁nah": 220,
      "▁verdikleri": 221,
      "▁mort": 222,
      "▁degiller": 223,
      "dim": 224,
      "▁mubar": 225,
      "▁sirketten": 226,
      "lıgının": 227,
      "▁kestir": 228,
      "▁meksika": 229,
      "ost": 230,
      "ash": 231,
      "▁aynı": 232,
      "yim": 233,
      "lamalar": 234,
      "▁meselesi": 235,
      "▁eylul'de": 236,
      "▁ilahi": 237,
      "▁alaycı": 238,
      "▁onune": 239,
      "▁must": 240,
      "▁bircok": 241,
      "▁hassas": 242,
      "▁sevimli": 243,
      "▁getirilerinin": 244,
      "▁birileri": 245,
      "gal": 246,
      "▁sayan": 247,
      "▁uydur": 248,
      "'dan": 249,
      "▁aydır": 250,
      "▁acıyordu": 251,
      "▁price": 252,
      "▁dısisleri": 253,
      "▁ov": 254,
      "oci": 255,
      "▁neg": 256,
      "▁meydan": 257,
      "ann": 258,
      "▁cocukluk": 259,
      "▁gozume": 260,
      "▁guver": 261,
      "▁kis": 262,
      "▁9'dan": 263,
      "lerimizi": 264,
      "▁caz": 265,
      "▁kapsamında": 266,
      "▁gidilebilecek": 267,
      "▁davranislari": 268,
      "▁94": 269,
      "▁gozet": 270,
      "▁lokasyonu": 271,
      "urken": 272,
      "▁belg": 273,
      "▁dırlar": 274,
      "▁his": 275,
      "▁surdugu": 276,
      "▁kupon": 277,
      "▁birilerinin": 278,
      "▁03:": 279,
      "▁dusunerek": 280,
      "▁bagım": 281,
      "▁osmanlı": 282,
      "▁sarılı": 283,
      "meyle": 284,
      "▁haketmiyor": 285,
      "▁kac": 286,
      "▁191": 287,
      "ogram": 288,
      "▁oteller": 289,
      "▁miydim": 290,
      "▁kadar": 291,
      "▁dı": 292,
      "▁aksine": 293,
      "▁dip": 294,
      "▁dustuk": 295,
      "▁odu": 296,
      "▁bıyıkları": 297,
      "▁hotel": 298,
      "▁yapıldı": 299,
      "ass": 300,
      "likte": 301,
      "▁test": 302,
      "▁yalı": 303,
      "▁merve": 304,
      "▁yit": 305,
      "▁lab": 306,
      "ft": 307,
      "▁gotur": 308,
      "▁yatmıs": 309,
      "ergah": 310,
      "▁pilotlar": 311,
      "▁katib": 312,
      "ıp": 313,
      "▁lub": 314,
      "▁wall": 315,
      "▁hareketli": 316,
      "araj": 317,
      "eli": 318,
      "tc": 319,
      "▁rok": 320,
      "▁cekir": 321,
      "▁uctu": 322,
      "▁yonlendirdi": 323,
      "agı": 324,
      "▁santa": 325,
      "▁konsol": 326,
      "▁bahcı": 327,
      "▁yasak": 328,
      "ps": 329,
      "▁yiyecekler": 330,
      "her": 331,
      "ayın": 332,
      "▁itiraf": 333,
      "▁serkan": 334,
      "▁ozgu": 335,
      "duy": 336,
      "emiz": 337,
      "▁cekic": 338,
      "ion": 339,
      "▁acılması": 340,
      "▁ugrayan": 341,
      "pson": 342,
      "cısı": 343,
      "▁insan": 344,
      "▁yarısı": 345,
      "▁senden": 346,
      "ımlar": 347,
      "erken": 348,
      "▁yolculuk": 349,
      "▁kalitesizdi": 350,
      "▁memlekette": 351,
      "▁rot": 352,
      "▁cesaretini": 353,
      "▁ya": 354,
      "▁konustular": 355,
      "▁haber": 356,
      "▁barut": 357,
      "▁danısmanlık": 358,
      "▁almasını": 359,
      "ustr": 360,
      "alanı": 361,
      "▁konuya": 362,
      "▁sehrinde": 363,
      "▁cıkıs": 364,
      "▁temmuz'da": 365,
      "▁kod": 366,
      "▁genelkurmay": 367,
      "▁40.4": 368,
      "▁birbirler": 369,
      "▁imz": 370,
      "▁217": 371,
      "▁sayısını": 372,
      "▁gecirecek": 373,
      "▁devi": 374,
      "▁ulastı": 375,
      "▁hafta": 376,
      "▁fut": 377,
      "▁takın": 378,
      ">": 379,
      "▁yaptıgı": 380,
      "▁kapsam": 381,
      "▁zev": 382,
      "▁bash": 383,
      "▁gecirdigi": 384,
      "▁motors": 385,
      "▁kalitesiz": 386,
      "r": 387,
      "▁yuzon": 388,
      "▁kuzey": 389,
      "▁heyecanla": 390,
      "▁gun": 391,
      "▁louis'e": 392,
      "lara": 393,
      "ford": 394,
      "▁kıymetleri": 395,
      "▁onunla": 396,
      "▁genc": 397,
      "▁evr": 398,
      "▁194": 399,
      "ocu": 400,
      "▁guneydogu": 401,
      "▁cekti": 402,
      "▁ediyorlar": 403,
      "▁pec": 404,
      "▁oranı": 405,
      "▁goremedim": 406,
      "▁toz": 407,
      "5-1": 408,
      "▁olanlar": 409,
      "▁yoldan": 410,
      "▁oksur": 411,
      "▁yapabil": 412,
      "▁konusur": 413,
      "▁bizler": 414,
      "▁aylık": 415,
      "▁yapı": 416,
      "▁gorgu": 417,
      "▁19.7": 418,
      "uluyor": 419,
      "▁yakal": 420,
      "▁oder": 421,
      "▁birin": 422,
      "▁kayıtsız": 423,
      "dirler": 424,
      "▁tazmin": 425,
      "alarına": 426,
      "lardi": 427,
      "▁nobet": 428,
      "▁8.32": 429,
      "▁ailesinin": 430,
      "▁muhakkak": 431,
      "▁oncelikle": 432,
      "▁okuyan": 433,
      "▁251": 434,
      "▁okuldan": 435,
      "▁kalın": 436,
      "has": 437,
      "▁adında": 438,
      "▁manzar": 439,
      "▁100000": 440,
      "▁michig": 441,
      "duk": 442,
      "▁hatırlattı": 443,
      "▁cıkmaya": 444,
      "▁parlamento": 445,
      "ums": 446,
      "▁kullanıldı": 447,
      "▁st": 448,
      "▁ucrete": 449,
      "mesiyle": 450,
      "▁4145": 451,
      "▁turkiye": 452,
      "▁trelleborg": 453,
      "-s": 454,
      "mamıstır": 455,
      "▁gorusleri": 456,
      "▁baskı": 457,
      "▁demec": 458,
      "▁5.9": 459,
      "▁komplek": 460,
      "tı": 461,
      "▁genclerin": 462,
      "▁kayıplar": 463,
      "▁gereksiz": 464,
      "▁cisim": 465,
      "▁onbes": 466,
      "eki": 467,
      "▁umum": 468,
      "▁yurum": 469,
      "▁iskonto": 470,
      "leyin": 471,
      "▁londra": 472,
      "▁girisimi": 473,
      "▁sunları": 474,
      "▁ibm": 475,
      "▁yaparım": 476,
      "▁katına": 477,
      "▁itti": 478,
      "▁ogrencilerin": 479,
      "▁yapmam": 480,
      "▁rotar": 481,
      "▁hacmi": 482,
      "▁yıp": 483,
      "▁mahkum": 484,
      "elleb": 485,
      "▁calıstır": 486,
      "▁terbiy": 487,
      "▁1960'": 488,
      "▁askerlik": 489,
      "▁fast": 490,
      "▁uyelik": 491,
      "▁cıktıktan": 492,
      "▁cıkmıstı": 493,
      "▁kl": 494,
      "▁gal": 495,
      "daki": 496,
      "▁yetkil": 497,
      "▁p&g": 498,
      "▁tarla": 499,
      "▁fik": 500,
      "▁almamıs": 501,
      "eliyiz": 502,
      "▁kosede": 503,
      "uth": 504,
      "▁karı": 505,
      "'nden": 506,
      "▁anadolu'da": 507,
      "ılarak": 508,
      "ina": 509,
      "▁beb": 510,
      "▁yatır": 511,
      "ucunun": 512,
      "▁lirayı": 513,
      "▁denecek": 514,
      "▁savasta": 515,
      "▁risk": 516,
      "▁tembel": 517,
      "yle": 518,
      "▁dunyayı": 519,
      "akıllı": 520,
      "stil": 521,
      "▁gunese": 522,
      "▁odedi": 523,
      "igim": 524,
      "▁getiri": 525,
      "▁krize": 526,
      "▁katır": 527,
      "▁ihtiyar": 528,
      "▁yukseliyor": 529,
      "▁ureticileri": 530,
      ";": 531,
      "▁akıllı": 532,
      "▁arb": 533,
      "▁sı": 534,
      "▁iyisi": 535,
      "▁dedim": 536,
      "▁evrenin": 537,
      "▁telas": 538,
      "▁cozul": 539,
      "▁kin": 540,
      "emex": 541,
      "▁dostu": 542,
      "▁hediye": 543,
      "▁kullanan": 544,
      "▁yumuk": 545,
      "▁toplantıs": 546,
      "▁kend": 547,
      "▁sl": 548,
      "▁kam": 549,
      "▁muhtac": 550,
      "unik": 551,
      "30": 552,
      "▁montreal'a": 553,
      "▁parc": 554,
      "▁elmas": 555,
      "isyen": 556,
      "▁calın": 557,
      "apolis": 558,
      "▁1\\/2": 559,
      "▁burhan": 560,
      "amadı": 561,
      "▁gormek": 562,
      "▁yapıstır": 563,
      "kım": 564,
      "▁siy": 565,
      "▁kıskan": 566,
      "▁yardımcısıydı": 567,
      "▁yardimci": 568,
      "▁dirsek": 569,
      "▁kendilerinden": 570,
      "▁belirtmis": 571,
      "▁firması": 572,
      "▁%30": 573,
      "▁nashville'ye": 574,
      "▁a.b.": 575,
      "ois": 576,
      "makta": 577,
      "tikleri": 578,
      "▁ihr": 579,
      "▁odenek": 580,
      "bahar": 581,
      "▁ekim": 582,
      "iyorlardi": 583,
      "▁kıymet": 584,
      "▁bilen": 585,
      "▁ofisi": 586,
      "▁430": 587,
      "▁!": 588,
      "▁bayiler": 589,
      "▁konusmaya": 590,
      "▁merak": 591,
      "▁paranın": 592,
      "0.5": 593,
      "▁musluman": 594,
      "▁gormezden": 595,
      "▁adı": 596,
      "▁defter": 597,
      "▁personellerinden": 598,
      "▁tarih": 599,
      "▁the": 600,
      "▁kadınla": 601,
      "▁parcasını": 602,
      "▁adamının": 603,
      "▁enflasyonun": 604,
      "alarında": 605,
      "▁sırtını": 606,
      "▁isciler": 607,
      "▁cekip": 608,
      "▁anlasılıyor": 609,
      "▁benimle": 610,
      "▁kanun": 611,
      "▁tahminlerinin": 612,
      "▁ramp": 613,
      "▁sızdır": 614,
      "▁soyle": 615,
      "$": 616,
      "▁sır": 617,
      "▁rahatti": 618,
      "▁brez": 619,
      "42": 620,
      "▁ert": 621,
      "▁eglendir": 622,
      "▁enstit": 623,
      "▁goturduler": 624,
      "▁mich": 625,
      "▁tavsiy": 626,
      "▁malzemesi": 627,
      "dy": 628,
      "▁istegi": 629,
      "▁gomlek": 630,
      "▁kızart": 631,
      "▁suik": 632,
      "▁tasarım": 633,
      "▁sinizdir": 634,
      "▁kabugu": 635,
      "▁kurtardı": 636,
      "edeki": 637,
      "amı": 638,
      "▁ugur": 639,
      "▁azıcık": 640,
      "▁mısıl": 641,
      "▁standar": 642,
      "▁ep": 643,
      "▁zeytiny": 644,
      "▁yarattı": 645,
      "▁atila": 646,
      "▁345": 647,
      "▁halihazırda": 648,
      "▁arastir": 649,
      "▁abdul": 650,
      "▁milli": 651,
      "▁yazdı": 652,
      "▁yılları": 653,
      "▁uluslararası": 654,
      "▁kampanyalar": 655,
      "▁sımsıkı": 656,
      "▁rutin": 657,
      "▁karsısında": 658,
      "▁golgesinde": 659,
      "▁etmediler": 660,
      "▁titriyordu": 661,
      "▁reddetti": 662,
      "▁persembe": 663,
      "misler": 664,
      "▁ailesini": 665,
      "▁yurdum": 666,
      "▁gag": 667,
      "▁ucuz": 668,
      "▁odemek": 669,
      "▁yaklasıyor": 670,
      "▁emanet": 671,
      "lamalı": 672,
      "▁urkek": 673,
      "▁kolayca": 674,
      "▁bizle": 675,
      "▁abd'de": 676,
      "▁yaptirmadim": 677,
      "▁goruyoruz": 678,
      "▁ice": 679,
      "▁kullanılıyor": 680,
      "▁baslık": 681,
      "▁dusunmuyor": 682,
      "▁orgut": 683,
      "▁yakında": 684,
      "▁vietnam": 685,
      "▁etkileri": 686,
      "lesmis": 687,
      "▁geldiginde": 688,
      "▁gecerli": 689,
      "▁sozune": 690,
      "▁kap": 691,
      "▁tatmin": 692,
      "▁yabanci": 693,
      "▁subay": 694,
      "▁sist": 695,
      "▁bosal": 696,
      "▁20.": 697,
      "adına": 698,
      "▁yuruyen": 699,
      "▁yanıp": 700,
      "1'e": 701,
      "ruk": 702,
      "▁bilgiye": 703,
      "▁muslum": 704,
      "▁cen": 705,
      "▁verilecek": 706,
      "▁oturuyor": 707,
      "egiz": 708,
      "▁deger": 709,
      "ediyi": 710,
      "▁bolgede": 711,
      "▁edilmedi": 712,
      "▁loc": 713,
      "▁dogum": 714,
      "ecegim": 715,
      "▁traj": 716,
      "hami": 717,
      "▁duyuyorum": 718,
      "▁memnunuz": 719,
      "▁mallar": 720,
      "▁yaptirdi": 721,
      "▁kitabın": 722,
      "[SEP]": 723,
      "▁1997": 724,
      "▁zamanlar": 725,
      "▁gelmisti": 726,
      "▁ok": 727,
      "▁lez": 728,
      "▁kamar": 729,
      "▁ydik": 730,
      "▁planim": 731,
      "▁icer": 732,
      "▁sınıfı": 733,
      "ebilen": 734,
      "▁isgucu": 735,
      "▁plana": 736,
      "▁doları'na": 737,
      "▁zel": 738,
      "medim": 739,
      "▁inandır": 740,
      "▁kırık": 741,
      "▁teseb": 742,
      "▁havalandır": 743,
      "pe": 744,
      "▁kuvvet": 745,
      "▁yaptıg": 746,
      "▁bayramı": 747,
      "ufur": 748,
      "▁erdog": 749,
      "▁tok": 750,
      "▁gucuyle": 751,
      ".66": 752,
      "▁olabilecegi": 753,
      "▁sıf": 754,
      "ahh": 755,
      "▁2.77": 756,
      "▁alır": 757,
      "▁adamı": 758,
      "'dır": 759,
      "▁isa": 760,
      "▁olumu": 761,
      "▁bakanlıgı'nın": 762,
      "▁otesi": 763,
      "▁hay": 764,
      "▁olu": 765,
      "▁palt": 766,
      "mede": 767,
      "asindan": 768,
      "inaden": 769,
      "▁yurttas": 770,
      "▁ailece": 771,
      "▁2005'e": 772,
      "▁5.5": 773,
      "ec": 774,
      "▁tabiat": 775,
      "▁belirttigim": 776,
      "▁texas": 777,
      "iyordum": 778,
      "▁read": 779,
      "dedildi": 780,
      "▁davul": 781,
      "▁hicbirini": 782,
      "▁parıl": 783,
      "lamanın": 784,
      "▁kavur": 785,
      "▁44877": 786,
      "▁fiyatlara": 787,
      "▁sutu": 788,
      "▁ri": 789,
      "▁ilgilendiler": 790,
      "▁borek": 791,
      "mesinin": 792,
      "▁seyin": 793,
      "▁girip": 794,
      "▁koymus": 795,
      "lup": 796,
      "▁dusus": 797,
      "▁kısır": 798,
      "▁hac": 799,
      "▁sivil": 800,
      "malıydı": 801,
      "▁koymak": 802,
      "▁du": 803,
      "▁dusurdu": 804,
      "▁ayarlan": 805,
      "malarına": 806,
      "▁biri": 807,
      "▁seviyorum": 808,
      "▁siparisini": 809,
      "cekti": 810,
      "▁uygulan": 811,
      "▁tutustur": 812,
      "kah": 813,
      "▁ogrendim": 814,
      "lerinin": 815,
      "tu": 816,
      "▁30000": 817,
      "bul": 818,
      "▁kisinin": 819,
      "▁pop": 820,
      "▁gerceklesti": 821,
      "▁ons": 822,
      "▁etmeye": 823,
      "▁hedef": 824,
      ".9": 825,
      "▁ideal": 826,
      "3": 827,
      "▁idar": 828,
      "▁mıydı": 829,
      "▁calis": 830,
      "aları": 831,
      "▁540": 832,
      "fun": 833,
      "▁merrill": 834,
      "▁ekonomisi": 835,
      "▁karsıma": 836,
      "isiydi": 837,
      "▁lev": 838,
      "▁rak": 839,
      "▁secildi": 840,
      "▁phoeni": 841,
      "▁ım": 842,
      "▁islet": 843,
      "▁0.88": 844,
      "▁yapmadim": 845,
      "▁cekmeye": 846,
      "▁alkolsuz": 847,
      "▁studyo": 848,
      "▁degirmen": 849,
      "▁kisisel": 850,
      "▁balıkcı": 851,
      "▁deve": 852,
      "▁verdim": 853,
      "▁je": 854,
      "▁newark": 855,
      "▁cag": 856,
      "▁yatıyor": 857,
      "▁yargıc": 858,
      "▁edildigi": 859,
      "▁sevinc": 860,
      "'an": 861,
      "▁yataklar": 862,
      "▁gununden": 863,
      "▁istikrar": 864,
      "▁cıkarken": 865,
      "isiniz": 866,
      "yedi": 867,
      "▁digerleri": 868,
      "4.4": 869,
      "ulu": 870,
      "larmıs": 871,
      "▁merkur": 872,
      "iger": 873,
      "ladım": 874,
      "▁cekis": 875,
      "▁dogruldu": 876,
      "▁havuzu": 877,
      "ilerle": 878,
      "▁sokuldu": 879,
      "▁franklin": 880,
      "ekte": 881,
      "cok": 882,
      "▁muraca": 883,
      "ına": 884,
      "medi": 885,
      "▁vucu": 886,
      "▁ifad": 887,
      "▁istedi": 888,
      "gumu": 889,
      "▁cekmek": 890,
      "▁dustum": 891,
      "▁universitede": 892,
      "▁secici": 893,
      "▁sic": 894,
      "▁basından": 895,
      "egine": 896,
      "▁cazib": 897,
      "▁doneminde": 898,
      "▁olgun": 899,
      "▁islemler": 900,
      "malık": 901,
      "▁onceden": 902,
      "▁unu": 903,
      "▁cektigi": 904,
      "▁tamamıyla": 905,
      "ahi": 906,
      "negin": 907,
      "ield": 908,
      "▁bemb": 909,
      "siye": 910,
      "▁se": 911,
      "▁ucretlerini": 912,
      "▁havuzlari": 913,
      "▁yanisira": 914,
      "▁peki": 915,
      "▁deri": 916,
      "▁dagı": 917,
      "▁1.625": 918,
      "▁kapılar": 919,
      "▁durumunda": 920,
      "▁ekstra": 921,
      "▁lik": 922,
      "▁adama": 923,
      "▁akla": 924,
      "sh": 925,
      "▁iciyor": 926,
      "▁kimin": 927,
      "paz": 928,
      "▁sabaha": 929,
      "▁sorunları": 930,
      "▁ictik": 931,
      "▁ihtiy": 932,
      "▁tedavulde": 933,
      "▁alabilir": 934,
      "sis": 935,
      "▁bir": 936,
      "▁nitelendir": 937,
      "▁17": 938,
      "dıkca": 939,
      "▁borcunu": 940,
      "▁zer": 941,
      "iligini": 942,
      "▁soz": 943,
      "▁odanın": 944,
      "lanmıstır": 945,
      "▁krist": 946,
      "▁finc": 947,
      "▁los": 948,
      "▁tel": 949,
      "ılı": 950,
      "ıldıgında": 951,
      "adır": 952,
      "▁taahh": 953,
      "indedir": 954,
      "▁ucusun": 955,
      "▁jose'den": 956,
      "▁pas": 957,
      "lanıyor": 958,
      "▁yakıt": 959,
      "pen": 960,
      "▁odanin": 961,
      "6'ya": 962,
      "▁verg": 963,
      "▁yal": 964,
      "▁bu": 965,
      "▁gozunu": 966,
      "su": 967,
      "▁onunu": 968,
      "▁kostur": 969,
      "▁service": 970,
      "▁yonunde": 971,
      "don": 972,
      "▁dusunup": 973,
      "▁konak": 974,
      "▁yuksel": 975,
      "▁gelis": 976,
      "▁umutsuz": 977,
      "▁restoran": 978,
      "lis": 979,
      "▁mul": 980,
      "▁marks": 981,
      "▁buyukluk": 982,
      "▁gazel": 983,
      "▁minneapolis": 984,
      "▁arkadan": 985,
      "▁belgeler": 986,
      "▁katil": 987,
      "ence": 988,
      "▁rekabet": 989,
      "▁duz": 990,
      "▁dediko": 991,
      "▁eristi": 992,
      "larim": 993,
      "▁tahvil": 994,
      "▁arabaya": 995,
      ".000": 996,
      "▁dursun": 997,
      "▁zehir": 998,
      "▁golg": 999,
      "▁kalite": 1000,
      "▁guv": 1001,
      "▁zann": 1002,
      "▁nadiren": 1003,
      "▁1.42": 1004,
      "▁menkul": 1005,
      "▁dekorasyon": 1006,
      "▁simsek": 1007,
      "▁piy": 1008,
      "ita": 1009,
      "▁tahminler": 1010,
      "▁kapasit": 1011,
      "▁abd'deki": 1012,
      "▁bolgenin": 1013,
      "vi": 1014,
      "▁ikibindort": 1015,
      "eck": 1016,
      "▁alıcılar": 1017,
      "▁olum": 1018,
      "▁yaslar": 1019,
      "▁dısı": 1020,
      "▁sandıgı": 1021,
      "cesi": 1022,
      "▁havayı": 1023,
      "▁tutarlı": 1024,
      "▁seref": 1025,
      "erleri": 1026,
      "▁doları'ndan": 1027,
      "▁sf": 1028,
      "▁yapmak": 1029,
      "ildik": 1030,
      "▁tur": 1031,
      "ılıgın": 1032,
      "▁set": 1033,
      "▁soth": 1034,
      "dıgımı": 1035,
      "▁denir": 1036,
      "▁beline": 1037,
      "▁tepki": 1038,
      "▁bolumunu": 1039,
      "▁mac": 1040,
      "▁kısı": 1041,
      "▁soylediler": 1042,
      "▁hatun": 1043,
      "▁puan": 1044,
      "▁izin": 1045,
      "▁algıl": 1046,
      "▁maksimum": 1047,
      "▁noktaya": 1048,
      "▁kırp": 1049,
      "▁89.6": 1050,
      "▁girebilir": 1051,
      "▁fingir": 1052,
      "lesi": 1053,
      "▁sizde": 1054,
      "cut": 1055,
      "▁rej": 1056,
      "▁getiren": 1057,
      "lag": 1058,
      "▁urkut": 1059,
      "▁kayı": 1060,
      "▁kosk": 1061,
      "▁hatırlat": 1062,
      "▁arab": 1063,
      "tin": 1064,
      "▁artık": 1065,
      "▁kullanılan": 1066,
      "▁gayet": 1067,
      "layın": 1068,
      "▁ettin": 1069,
      "▁elden": 1070,
      "wood": 1071,
      "ılmasına": 1072,
      "lo": 1073,
      "tiniz": 1074,
      "▁verdigimiz": 1075,
      "ni": 1076,
      "▁mamafi": 1077,
      "▁bonosu": 1078,
      "▁anap": 1079,
      "▁asans": 1080,
      "▁health": 1081,
      "▁yakısık": 1082,
      "▁piyasalarda": 1083,
      "▁zamankinden": 1084,
      "▁yagı": 1085,
      "▁anıms": 1086,
      "ginden": 1087,
      "▁atlanta'dan": 1088,
      "▁fıs": 1089,
      "uruz": 1090,
      "▁bucuk": 1091,
      "▁kat": 1092,
      "▁toplayan": 1093,
      "▁isleme": 1094,
      "▁141": 1095,
      "ısır": 1096,
      "▁firma": 1097,
      "▁agız": 1098,
      "▁gorup": 1099,
      "26": 1100,
      "▁mass": 1101,
      "9.5": 1102,
      "▁yalın": 1103,
      "▁siniz": 1104,
      "edin": 1105,
      "gis": 1106,
      "▁kullanarak": 1107,
      "▁diego": 1108,
      "▁ayse": 1109,
      "▁milyonluk": 1110,
      "▁silahlı": 1111,
      "adım": 1112,
      "asip": 1113,
      "nan": 1114,
      "▁hazır": 1115,
      ":0": 1116,
      "▁acıkladı": 1117,
      "▁mahall": 1118,
      "▁divan": 1119,
      "▁fransa": 1120,
      "p": 1121,
      "▁yerlestir": 1122,
      "aye": 1123,
      "▁assets": 1124,
      "▁duzenlenen": 1125,
      "▁05.": 1126,
      "▁dogmus": 1127,
      "▁sudan": 1128,
      "▁york'taki": 1129,
      "▁candan": 1130,
      "ro": 1131,
      "▁bık": 1132,
      "▁405": 1133,
      "▁australia": 1134,
      "ator": 1135,
      "i'nin": 1136,
      "ucak": 1137,
      "▁girer": 1138,
      "▁vermem": 1139,
      "▁vermeyi": 1140,
      "leyici": 1141,
      "▁seviyesine": 1142,
      "ing": 1143,
      "▁kapıya": 1144,
      "-m": 1145,
      "▁luft": 1146,
      "▁macın": 1147,
      "▁kufur": 1148,
      "▁ortusu": 1149,
      "esip": 1150,
      "▁soy": 1151,
      "▁hol": 1152,
      ".52": 1153,
      "▁azdı": 1154,
      "▁arayan": 1155,
      "▁ileride": 1156,
      "▁muda": 1157,
      "▁sınıfın": 1158,
      "▁tın": 1159,
      "▁kurus": 1160,
      "▁kadir": 1161,
      "▁nerden": 1162,
      "▁port": 1163,
      "▁protokol": 1164,
      "▁yankılan": 1165,
      "▁garip": 1166,
      "▁mermer": 1167,
      "▁elektrikli": 1168,
      "▁yazıyı": 1169,
      "-p": 1170,
      "▁yuks": 1171,
      "vıl": 1172,
      "essus": 1173,
      "▁kimyasal": 1174,
      "▁ink": 1175,
      "▁konfor": 1176,
      "▁kalitesini": 1177,
      "▁kavanoz": 1178,
      "ilerde": 1179,
      "ıllı": 1180,
      "▁usta": 1181,
      "▁huner": 1182,
      "▁komunist": 1183,
      "▁2017": 1184,
      "▁feodal": 1185,
      "▁normaldi": 1186,
      "▁politikası": 1187,
      "▁kusku": 1188,
      "▁secimi": 1189,
      "▁rahmet": 1190,
      "▁sesleri": 1191,
      "▁feder": 1192,
      "▁tep": 1193,
      "▁hucum": 1194,
      "vec": 1195,
      "▁istihbar": 1196,
      "▁fabrikası": 1197,
      "▁tarafında": 1198,
      "▁cav": 1199,
      "▁alamadik": 1200,
      "om": 1201,
      "▁kalıyordu": 1202,
      "▁aile": 1203,
      "▁'ydi": 1204,
      "▁yukseltti": 1205,
      "▁mahal": 1206,
      "▁yaz": 1207,
      "▁hazırlanısı": 1208,
      "▁memur": 1209,
      "▁piyasanın": 1210,
      "▁pilotların": 1211,
      "▁yse": 1212,
      "▁isveren": 1213,
      "▁edince": 1214,
      "lukta": 1215,
      "iniki": 1216,
      "▁tereddut": 1217,
      "▁analizciler": 1218,
      "▁milwaukee'den": 1219,
      "▁yapay": 1220,
      "▁parki": 1221,
      "▁parcaları": 1222,
      "▁137.2": 1223,
      "unku": 1224,
      "▁1761": 1225,
      "▁hasret": 1226,
      "▁ulkemizde": 1227,
      "▁columbus'a": 1228,
      "▁lincoln": 1229,
      "▁zalim": 1230,
      "▁fiyatı": 1231,
      "▁kaybetti": 1232,
      "▁turkler": 1233,
      "sm": 1234,
      "▁sezlong": 1235,
      "▁99.14": 1236,
      "esco": 1237,
      "▁zorlan": 1238,
      "▁yatan": 1239,
      "▁davayı": 1240,
      "▁tanıt": 1241,
      "▁asagı": 1242,
      "▁yaklasimi": 1243,
      "▁doksan": 1244,
      "ibi": 1245,
      "▁beyzbol": 1246,
      "▁unutmus": 1247,
      "▁sin": 1248,
      "▁hissedar": 1249,
      "▁yedir": 1250,
      "▁andıran": 1251,
      "▁borcun": 1252,
      "▁alısık": 1253,
      "lıkları": 1254,
      "mesi": 1255,
      "▁aslında": 1256,
      "/4'e": 1257,
      ".375": 1258,
      "▁pis": 1259,
      "7.7": 1260,
      "men": 1261,
      "zat": 1262,
      "▁ihtiyatlı": 1263,
      "▁kuresel": 1264,
      "▁korkusu": 1265,
      "uza": 1266,
      "▁bedeli": 1267,
      "▁soguk": 1268,
      "▁olgu": 1269,
      "▁yurek": 1270,
      "▁img": 1271,
      "ecegini": 1272,
      "▁farkına": 1273,
      "▁izmir": 1274,
      "▁istasyon": 1275,
      "▁vucuda": 1276,
      "▁kalabalık": 1277,
      "▁165": 1278,
      "▁oteli": 1279,
      "▁planlıyor": 1280,
      "icinin": 1281,
      "▁eldiven": 1282,
      "▁grub": 1283,
      "“": 1284,
      "lek": 1285,
      "▁1.000": 1286,
      "▁cant": 1287,
      "▁hayli": 1288,
      ":00-22:30": 1289,
      "▁nasihat": 1290,
      "lanmaya": 1291,
      "▁cıkarmadan": 1292,
      "▁chemical": 1293,
      "▁endustri": 1294,
      "▁ilgisizlerdi": 1295,
      "▁cesaret": 1296,
      "▁gerektigine": 1297,
      "▁ziyade": 1298,
      "▁ufacık": 1299,
      "lin": 1300,
      "▁amerika'nın": 1301,
      "▁gozalt": 1302,
      "▁kilo": 1303,
      "▁cıktıgı": 1304,
      "▁cocugunu": 1305,
      "▁zeh": 1306,
      "▁sade": 1307,
      "▁yelken": 1308,
      "▁teknik": 1309,
      "▁ucuza": 1310,
      "ben": 1311,
      "▁kib": 1312,
      "▁toplantı": 1313,
      "▁uzan": 1314,
      "ilecek": 1315,
      "den": 1316,
      "▁suru": 1317,
      "▁business": 1318,
      "▁tibet": 1319,
      "▁sonundan": 1320,
      "▁altmıs": 1321,
      "▁ucusunu": 1322,
      "▁memleketin": 1323,
      "wer": 1324,
      "▁burcu": 1325,
      "▁ikibinuc'te": 1326,
      "▁valley": 1327,
      "▁vazgecti": 1328,
      "▁dilen": 1329,
      "▁halefi": 1330,
      "▁maymun": 1331,
      "▁kurtulus": 1332,
      "▁ihtiyat": 1333,
      "▁izledi": 1334,
      "▁118": 1335,
      "5'": 1336,
      "us": 1337,
      "'la": 1338,
      "ulugun": 1339,
      "▁sabun": 1340,
      "wa": 1341,
      "iy": 1342,
      "▁%13": 1343,
      "ilme": 1344,
      "▁david": 1345,
      "▁yapıt": 1346,
      "60": 1347,
      "▁beklem": 1348,
      "▁gelerek": 1349,
      "▁tersine": 1350,
      "▁havası": 1351,
      "▁herhangi": 1352,
      "▁falan": 1353,
      "▁hesap": 1354,
      "▁gecip": 1355,
      "iter": 1356,
      "0.80": 1357,
      "egi": 1358,
      "▁filan": 1359,
      "▁talebin": 1360,
      "​": 1361,
      "▁senetleri": 1362,
      "▁a": 1363,
      "ugunu": 1364,
      "▁1991'de": 1365,
      "▁bey'in": 1366,
      "▁karmakar": 1367,
      "▁tepe": 1368,
      "asmıs": 1369,
      "▁atın": 1370,
      "▁soyleyen": 1371,
      "▁kitab": 1372,
      "ayol": 1373,
      "▁acılıyor": 1374,
      "▁oynay": 1375,
      "▁vakit": 1376,
      "▁karn": 1377,
      "umuzu": 1378,
      "▁organize": 1379,
      "▁gececek": 1380,
      "agın": 1381,
      "▁sebeplerden": 1382,
      "▁verecegim": 1383,
      "▁sipar": 1384,
      "▁mangal": 1385,
      "▁kapıcı": 1386,
      "▁sonucta": 1387,
      "▁hak": 1388,
      "▁hafifce": 1389,
      "▁yeni": 1390,
      "▁gostermis": 1391,
      "▁buf": 1392,
      "▁animasyonlari": 1393,
      "▁gerdan": 1394,
      "▁istemis": 1395,
      "▁gorunen": 1396,
      "▁tim": 1397,
      "▁cıv": 1398,
      "▁kullanmadik": 1399,
      "▁acılmıs": 1400,
      "mıslardı": 1401,
      ".05": 1402,
      "▁alınmıs": 1403,
      "▁iciniz": 1404,
      "mıstır": 1405,
      "▁kazandır": 1406,
      "▁arkamda": 1407,
      "arik": 1408,
      "▁onemli": 1409,
      "▁sessizce": 1410,
      "▁1500": 1411,
      "▁insal": 1412,
      "luya": 1413,
      "▁oyuna": 1414,
      "▁iyidir": 1415,
      "madi": 1416,
      "▁aff": 1417,
      "▁aramayin": 1418,
      "▁kume": 1419,
      "▁kıyamet": 1420,
      "sak": 1421,
      "▁tet": 1422,
      "▁olmuyor": 1423,
      "y": 1424,
      "▁olanaklari": 1425,
      "orn": 1426,
      "▁serg": 1427,
      "▁buyum": 1428,
      "▁atılım": 1429,
      "▁kıc": 1430,
      "▁mahrum": 1431,
      "▁surpriz": 1432,
      "▁4.2": 1433,
      "▁kazanclar": 1434,
      "▁baskanlıgı": 1435,
      "▁edebilir": 1436,
      "▁37": 1437,
      "akar": 1438,
      "▁lerdir": 1439,
      "ech": 1440,
      "▁gorus": 1441,
      "▁yildiz": 1442,
      "▁tav": 1443,
      "istler": 1444,
      "▁nasa": 1445,
      "▁gelecekler": 1446,
      "▁sıkın": 1447,
      "ersey": 1448,
      "iliyor": 1449,
      "▁birbirine": 1450,
      "y.": 1451,
      "▁ote": 1452,
      "▁zorun": 1453,
      "▁otlar": 1454,
      "▁sıcrama": 1455,
      "▁sk": 1456,
      "▁muj": 1457,
      "dırdı": 1458,
      "▁atese": 1459,
      "▁yuzuk": 1460,
      "▁istinaden": 1461,
      "ıyım": 1462,
      "▁1648": 1463,
      "▁telef": 1464,
      "sek": 1465,
      "▁sp": 1466,
      "▁dipl": 1467,
      "▁roman": 1468,
      "▁british": 1469,
      "▁gunlerin": 1470,
      "▁masaj": 1471,
      "▁buyumeye": 1472,
      "▁hazin": 1473,
      "▁cikista": 1474,
      "▁anlasılmaz": 1475,
      "laki": 1476,
      "▁fuk": 1477,
      "liyordu": 1478,
      "▁nisan": 1479,
      "ulan": 1480,
      "▁bahtiy": 1481,
      "▁cevabı": 1482,
      "ustuk": 1483,
      "va": 1484,
      "▁zeyn": 1485,
      "▁sıyır": 1486,
      "▁fonların": 1487,
      "▁alısveris": 1488,
      "▁1.25": 1489,
      "▁hon": 1490,
      "▁ilac": 1491,
      "▁y": 1492,
      "e'nin": 1493,
      "▁olmek": 1494,
      "▁ki": 1495,
      "▁alamadı": 1496,
      "▁canlı": 1497,
      "▁takımın": 1498,
      "▁goruntu": 1499,
      "▁donustu": 1500,
      "0.7": 1501,
      "▁burbank'tan": 1502,
      "▁sad": 1503,
      "▁teksas": 1504,
      "▁benzin": 1505,
      "▁imkanlari": 1506,
      "80000": 1507,
      "▁miktarı": 1508,
      "▁gereken": 1509,
      "▁tutmaya": 1510,
      "▁idaresi": 1511,
      "▁bazılarını": 1512,
      "▁sım": 1513,
      "▁dardi": 1514,
      "▁mekan": 1515,
      "▁insanlara": 1516,
      "▁kahkaha": 1517,
      "▁pat": 1518,
      "▁ederken": 1519,
      "acan": 1520,
      "▁yardımı": 1521,
      "ydı": 1522,
      "▁toplumun": 1523,
      "▁utangac": 1524,
      "▁gosterisli": 1525,
      "▁kit": 1526,
      "▁sanmıyorum": 1527,
      "5": 1528,
      "30'dan": 1529,
      "▁zek": 1530,
      "▁olmamıs": 1531,
      "▁devrimci": 1532,
      "kuz": 1533,
      "▁adeta": 1534,
      "▁birden": 1535,
      "▁sessiz": 1536,
      "▁hum": 1537,
      "▁in": 1538,
      "larım": 1539,
      "▁derken": 1540,
      "ımızın": 1541,
      "▁kazanmak": 1542,
      "▁190": 1543,
      "▁istir": 1544,
      "▁nice": 1545,
      "▁dısına": 1546,
      "▁memuru": 1547,
      "▁kosesinde": 1548,
      "▁acık": 1549,
      "▁baskanın": 1550,
      "orld": 1551,
      "elerinde": 1552,
      "▁inek": 1553,
      "ast": 1554,
      "▁dunyadaki": 1555,
      "enince": 1556,
      "▁karyol": 1557,
      "▁esmer": 1558,
      "▁wash": 1559,
      "▁ekib": 1560,
      "▁antik": 1561,
      "alık": 1562,
      "▁giren": 1563,
      "mekten": 1564,
      "▁muhafazakar": 1565,
      "▁53": 1566,
      "▁alacagım": 1567,
      "50": 1568,
      "yuzotuz": 1569,
      "bel": 1570,
      ".s.": 1571,
      "alanmıs": 1572,
      "▁nakliy": 1573,
      "munications": 1574,
      "er": 1575,
      "rak": 1576,
      "▁9.5": 1577,
      "▁telefonla": 1578,
      "lasır": 1579,
      "▁parayi": 1580,
      "▁biten": 1581,
      "▁karar": 1582,
      "▁mantık": 1583,
      "▁meh": 1584,
      "▁karlı": 1585,
      "▁sıcaktan": 1586,
      "uston": 1587,
      "istan": 1588,
      "masında": 1589,
      "larsa": 1590,
      "tir": 1591,
      "▁boyl": 1592,
      "acaklar": 1593,
      "▁yetersizligi": 1594,
      "▁yagmur": 1595,
      "▁mab": 1596,
      "▁onumuz": 1597,
      "danoz": 1598,
      "▁hasta": 1599,
      "▁gozune": 1600,
      "▁olma": 1601,
      "umuze": 1602,
      "esiye": 1603,
      "▁kans": 1604,
      "▁ide": 1605,
      "▁kurk": 1606,
      "▁suyun": 1607,
      "▁ikisi": 1608,
      "▁kızın": 1609,
      "▁22.6": 1610,
      "▁durumuna": 1611,
      "▁mahkem": 1612,
      "▁fiyatina": 1613,
      "▁arm": 1614,
      "▁kaptan": 1615,
      "▁calısarak": 1616,
      "▁omrunde": 1617,
      "amiz": 1618,
      "▁bunlardan": 1619,
      "▁israil'in": 1620,
      "arson": 1621,
      "mayacak": 1622,
      "▁insaat": 1623,
      "▁birtak": 1624,
      "▁fa": 1625,
      "egen": 1626,
      "▁gog": 1627,
      "▁alınması": 1628,
      "▁ulu": 1629,
      "▁mıyım": 1630,
      "▁1/4": 1631,
      "▁kel": 1632,
      "▁isteyecek": 1633,
      "maz": 1634,
      "▁fin": 1635,
      "▁isk": 1636,
      "arn": 1637,
      "▁ruya": 1638,
      "cu": 1639,
      "▁zan": 1640,
      "▁ortacag": 1641,
      "▁nerde": 1642,
      "ulmaz": 1643,
      "▁planda": 1644,
      "▁gl": 1645,
      "ıntıları": 1646,
      "larımıza": 1647,
      "▁dy": 1648,
      "▁yapmaya": 1649,
      "▁sch": 1650,
      "gum": 1651,
      "▁basla": 1652,
      "▁hukm": 1653,
      "▁sonucların": 1654,
      "▁tanır": 1655,
      "▁hizmette": 1656,
      "▁usulca": 1657,
      "▁yildizli": 1658,
      "▁diyebilirim": 1659,
      "▁1955": 1660,
      "▁sart": 1661,
      "iyetli": 1662,
      "▁yiyecekleri": 1663,
      "tern": 1664,
      "▁giriyor": 1665,
      ".71": 1666,
      "▁tahkik": 1667,
      "ultu": 1668,
      "elemek": 1669,
      "▁disinda": 1670,
      "▁yuzluydu": 1671,
      "▁denizden": 1672,
      "▁zem": 1673,
      "▁sustur": 1674,
      "▁aaa": 1675,
      "▁dusmanı": 1676,
      "sik": 1677,
      "▁surun": 1678,
      "lil": 1679,
      "▁duyarlı": 1680,
      "▁ucunu": 1681,
      "▁utu": 1682,
      "▁ster": 1683,
      "▁ekim'de": 1684,
      "og": 1685,
      "saydı": 1686,
      "estr": 1687,
      "gin": 1688,
      "47": 1689,
      "▁dun": 1690,
      "▁babasından": 1691,
      "▁yasanan": 1692,
      "▁hava": 1693,
      "▁kanada": 1694,
      "▁buny": 1695,
      "▁devamlı": 1696,
      "▁ruzgarı": 1697,
      "▁zeytinyagı": 1698,
      "▁koyar": 1699,
      "▁332": 1700,
      "▁bayılmıs": 1701,
      "▁polonya": 1702,
      "▁muhafaza": 1703,
      "▁taze": 1704,
      "say": 1705,
      "'a": 1706,
      "▁tutan": 1707,
      "▁yapmadıgını": 1708,
      "▁edemey": 1709,
      "▁%99": 1710,
      "▁zarif": 1711,
      "▁binanın": 1712,
      "▁230": 1713,
      "▁memnun": 1714,
      "▁ann": 1715,
      "▁tat": 1716,
      "unuz": 1717,
      "▁geride": 1718,
      "b": 1719,
      "ya'nın": 1720,
      "▁sırada": 1721,
      "▁charlotte'den": 1722,
      "diniz": 1723,
      "▁car": 1724,
      "▁avrupa'da": 1725,
      "▁soluk": 1726,
      "▁fan": 1727,
      "▁etmenin": 1728,
      "86": 1729,
      "ant": 1730,
      "lım": 1731,
      "▁derg": 1732,
      "▁muay": 1733,
      "▁5.2": 1734,
      "field": 1735,
      "ont": 1736,
      "▁tepk": 1737,
      "▁liraya": 1738,
      "▁usx": 1739,
      "▁1245": 1740,
      "ustur": 1741,
      "▁arabayı": 1742,
      "▁tadına": 1743,
      "▁burosu": 1744,
      "mer": 1745,
      "▁mutlu": 1746,
      "▁kenarında": 1747,
      "▁idim": 1748,
      "▁dususu": 1749,
      "▁anlamına": 1750,
      "▁kayg": 1751,
      "▁seniz": 1752,
      "▁journal": 1753,
      "▁kımıl": 1754,
      "▁bekleniyor": 1755,
      "ki": 1756,
      "cılıgı": 1757,
      "▁hayatın": 1758,
      "▁bazılarına": 1759,
      "akat": 1760,
      "an'ın": 1761,
      "▁yapıp": 1762,
      "▁arastır": 1763,
      "▁gormemis": 1764,
      "▁asik": 1765,
      "▁lezzeti": 1766,
      "▁dis": 1767,
      "▁azgın": 1768,
      "▁tıb": 1769,
      "▁cırp": 1770,
      "▁kalkan": 1771,
      "9'da": 1772,
      "▁tutar": 1773,
      "▁buldular": 1774,
      "menin": 1775,
      "▁yabanc": 1776,
      "▁por": 1777,
      "8.9": 1778,
      "▁vermis": 1779,
      "▁kaliteliydi": 1780,
      "▁bagısık": 1781,
      "▁resep": 1782,
      "▁secer": 1783,
      "▁giderken": 1784,
      "▁kosul": 1785,
      "▁400": 1786,
      "27": 1787,
      "▁soyleyerek": 1788,
      "▁samet": 1789,
      "yım": 1790,
      "▁keder": 1791,
      "tone": 1792,
      "▁ardı": 1793,
      "▁otesinde": 1794,
      "▁ongoruyor": 1795,
      "▁sezer": 1796,
      "▁teorik": 1797,
      "sini": 1798,
      "▁tb": 1799,
      "gıc": 1800,
      "▁gordun": 1801,
      "▁malz": 1802,
      "▁ulasan": 1803,
      "▁2004": 1804,
      "▁yapamam": 1805,
      "▁kizim": 1806,
      "▁dakik": 1807,
      "▁mutfak": 1808,
      "▁sesle": 1809,
      "▁guvert": 1810,
      "ıntı": 1811,
      "▁koprunun": 1812,
      "▁temin": 1813,
      "▁gorulur": 1814,
      "▁lamb": 1815,
      "▁biraz": 1816,
      "lasıyor": 1817,
      "atin": 1818,
      "▁ozellikle": 1819,
      "▁ulasılamadı": 1820,
      "▁dusunceleri": 1821,
      "▁world": 1822,
      "▁duserken": 1823,
      "▁vasıf": 1824,
      "▁ucuslarınız": 1825,
      "▁hamuru": 1826,
      "▁gecmesi": 1827,
      "▁piyasaya": 1828,
      "▁bahseder": 1829,
      "▁gecmisi": 1830,
      "esini": 1831,
      "▁kova": 1832,
      "▁korudu": 1833,
      "▁olmayı": 1834,
      "af": 1835,
      "▁376": 1836,
      "▁kızıl": 1837,
      "▁eng": 1838,
      "▁gerekse": 1839,
      "▁usak": 1840,
      "▁zarf": 1841,
      "▁340": 1842,
      "▁verilir": 1843,
      "▁melek": 1844,
      "umde": 1845,
      "▁parmakları": 1846,
      "erv": 1847,
      "▁cene": 1848,
      "▁macında": 1849,
      "▁kapsamlı": 1850,
      "▁dede": 1851,
      "▁13.1": 1852,
      "▁indirimi": 1853,
      "kelam": 1854,
      "▁normal": 1855,
      "▁urunu": 1856,
      "▁kapanısına": 1857,
      "▁soh": 1858,
      "sadı": 1859,
      "ligin": 1860,
      "▁tavana": 1861,
      "▁tasvir": 1862,
      "▁senetlerinin": 1863,
      "▁bizleri": 1864,
      "▁evlat": 1865,
      "▁115": 1866,
      "-23": 1867,
      "▁kisilerin": 1868,
      "oseksu": 1869,
      "▁ik": 1870,
      "▁cumle": 1871,
      "▁alli": 1872,
      "▁istek": 1873,
      "▁hediy": 1874,
      "▁inanıyorum": 1875,
      "ega'nın": 1876,
      "fk": 1877,
      "▁yazılmıs": 1878,
      "eden": 1879,
      "iste": 1880,
      "▁mamafih": 1881,
      "▁hissetti": 1882,
      "▁sını": 1883,
      "ıma": 1884,
      "▁neleri": 1885,
      "ebec": 1886,
      "▁iste": 1887,
      "▁caf": 1888,
      "▁farz": 1889,
      "▁d.": 1890,
      "▁dunyaya": 1891,
      "▁aktivite": 1892,
      "▁7.8": 1893,
      "▁sarkıcı": 1894,
      "▁departman": 1895,
      "▁cız": 1896,
      "▁time": 1897,
      "▁icinizde": 1898,
      "untu": 1899,
      "▁ziyaret": 1900,
      "▁hile": 1901,
      "▁madem": 1902,
      "ag": 1903,
      "▁kimine": 1904,
      "▁sultan": 1905,
      "▁cıkarmak": 1906,
      "▁istanbul": 1907,
      "▁5000": 1908,
      "samba": 1909,
      "▁esv": 1910,
      "▁gozler": 1911,
      "▁takıldı": 1912,
      ".38": 1913,
      "mazlar": 1914,
      "▁kimimiz": 1915,
      "▁taz": 1916,
      "▁muhaseb": 1917,
      "▁damla": 1918,
      "▁genelde": 1919,
      "▁bulacak": 1920,
      "▁59": 1921,
      "▁cicek": 1922,
      "▁aradı": 1923,
      "ade": 1924,
      "▁``": 1925,
      "▁destekleyen": 1926,
      "▁ertug": 1927,
      "▁400000": 1928,
      "▁kolay": 1929,
      "▁496": 1930,
      "asinda": 1931,
      "ater": 1932,
      "▁bırakıyor": 1933,
      "ecekleri": 1934,
      "▁kitap": 1935,
      "▁uclu": 1936,
      "▁diyor": 1937,
      "▁degis": 1938,
      "▁1925": 1939,
      "▁1.11": 1940,
      "▁cıtır": 1941,
      "▁puandan": 1942,
      "▁gelismeler": 1943,
      "▁islemlerin": 1944,
      "▁armagan": 1945,
      "▁hayvan": 1946,
      "▁ortalama": 1947,
      "▁sened": 1948,
      "▁istendi": 1949,
      "▁denizi": 1950,
      "madim": 1951,
      "▁piyasa": 1952,
      "▁birik": 1953,
      "▁teklifini": 1954,
      "7'de": 1955,
      "▁oden": 1956,
      "▁efendi": 1957,
      "cide": 1958,
      "▁kurumlar": 1959,
      "▁cıldır": 1960,
      "lemek": 1961,
      "▁zemin": 1962,
      "▁gormuyor": 1963,
      "▁karan": 1964,
      "▁yanıt": 1965,
      "▁99.1": 1966,
      "▁kostum": 1967,
      "c": 1968,
      "▁yolcu": 1969,
      "▁ogleden": 1970,
      "▁yılı": 1971,
      "▁mcca": 1972,
      "▁dalgalan": 1973,
      "ra": 1974,
      "▁onsekiz": 1975,
      "tmi": 1976,
      "▁mae": 1977,
      "▁dogu'da": 1978,
      "▁piyango": 1979,
      "▁kimseye": 1980,
      "▁cbs": 1981,
      "9'un": 1982,
      "▁ayrı": 1983,
      "ell": 1984,
      "▁eskiydi": 1985,
      "▁yasay": 1986,
      "olun": 1987,
      "▁kanad": 1988,
      "dıgından": 1989,
      "izmin": 1990,
      "ster": 1991,
      "▁degir": 1992,
      "iymis": 1993,
      "▁sak": 1994,
      "▁gereksin": 1995,
      "▁yukselmistir": 1996,
      "▁zavallı": 1997,
      "▁adıyla": 1998,
      "▁mevcut": 1999,
      "▁bildir": 2000,
      "▁bolgesel": 2001,
      "uzları": 2002,
      "ohn": 2003,
      "▁balta": 2004,
      "mıs": 2005,
      "▁sanıyorum": 2006,
      "▁olaydan": 2007,
      "▁muess": 2008,
      "▁hapis": 2009,
      "▁2008": 2010,
      "▁nusret": 2011,
      "▁153": 2012,
      "▁muzikal": 2013,
      "▁bulup": 2014,
      "ark": 2015,
      "▁bilez": 2016,
      "▁seb": 2017,
      "▁emine": 2018,
      "tra": 2019,
      "▁gecenin": 2020,
      "landıgını": 2021,
      "▁bell": 2022,
      "▁toren": 2023,
      "14": 2024,
      "▁derde": 2025,
      "▁okyan": 2026,
      "▁yemeklerden": 2027,
      "▁ulasımı": 2028,
      "▁tov": 2029,
      "▁rek": 2030,
      "▁tutul": 2031,
      "▁$'dan": 2032,
      "▁gul": 2033,
      "▁tas": 2034,
      "▁bloke": 2035,
      "▁gider": 2036,
      "▁cumhuriyet": 2037,
      "▁mesin": 2038,
      "s'in": 2039,
      "▁ilim": 2040,
      "▁koru": 2041,
      "▁onlarca": 2042,
      "siy": 2043,
      "imizden": 2044,
      "▁rustu": 2045,
      "▁sise": 2046,
      "▁defa": 2047,
      "▁aktarmasız": 2048,
      "osuna": 2049,
      "▁borsada": 2050,
      "▁cic": 2051,
      "mac": 2052,
      "ısları": 2053,
      "▁kısın": 2054,
      "leleri": 2055,
      "▁15000": 2056,
      "laması": 2057,
      "▁odul": 2058,
      "▁cekiliyor": 2059,
      "▁derim": 2060,
      "▁deneyim": 2061,
      "mız": 2062,
      "▁karak": 2063,
      "▁cocugu": 2064,
      "▁sahan": 2065,
      "▁konakla": 2066,
      "▁201": 2067,
      "▁kalab": 2068,
      "▁dusmanca": 2069,
      "▁siyaset": 2070,
      "▁demez": 2071,
      "▁gordu": 2072,
      "▁bircokları": 2073,
      "▁nam": 2074,
      "▁depremde": 2075,
      "▁bakanlar": 2076,
      "▁deng": 2077,
      "▁ydılar": 2078,
      "▁kılıc": 2079,
      "▁1'de": 2080,
      "▁vakfı": 2081,
      "▁mademki": 2082,
      "▁sabahları": 2083,
      "▁sofraya": 2084,
      "▁van": 2085,
      "▁basvur": 2086,
      "▁homurdan": 2087,
      "▁donum": 2088,
      "okul": 2089,
      "▁tavuk": 2090,
      "▁malları": 2091,
      "▁endek": 2092,
      "▁gitmeye": 2093,
      "▁268": 2094,
      "▁tak": 2095,
      "▁ayrıntılı": 2096,
      "▁paral": 2097,
      "▁''": 2098,
      "▁alıs": 2099,
      "▁sicak": 2100,
      "▁zum": 2101,
      "▁aramak": 2102,
      "▁7.6": 2103,
      "▁turs": 2104,
      "▁kopr": 2105,
      "cek": 2106,
      "▁sayfa": 2107,
      "leme": 2108,
      "uya": 2109,
      "▁kazanc": 2110,
      ".125": 2111,
      "▁verimsiz": 2112,
      "▁mcc": 2113,
      "▁pittsburgh": 2114,
      "▁havayolları": 2115,
      "▁mek": 2116,
      "cel": 2117,
      "▁kopuklu": 2118,
      "▁dallas": 2119,
      "ıza": 2120,
      "▁gomle": 2121,
      "▁astı": 2122,
      "▁karsilama": 2123,
      "▁ihmal": 2124,
      "▁zal": 2125,
      "ica": 2126,
      "▁ikiye": 2127,
      "▁tacoma'dan": 2128,
      "evi": 2129,
      "▁louis'ten": 2130,
      "▁par": 2131,
      "ısım": 2132,
      "▁mesaj": 2133,
      "▁darb": 2134,
      "▁beyefendi": 2135,
      "▁dag": 2136,
      "eyn": 2137,
      "▁verdik": 2138,
      "▁kelim": 2139,
      ".69": 2140,
      "▁kurnaz": 2141,
      "▁degerler": 2142,
      "▁dim": 2143,
      "▁topraga": 2144,
      "▁getirdi": 2145,
      "▁bilimleri": 2146,
      "▁hakkinda": 2147,
      "▁kisiye": 2148,
      "▁sucu": 2149,
      "▁bakımdan": 2150,
      "▁cokus": 2151,
      "▁haklar": 2152,
      "▁mimar": 2153,
      "ime": 2154,
      "▁ihale": 2155,
      "eing": 2156,
      "▁zamandır": 2157,
      "eyi": 2158,
      "▁ocagın": 2159,
      "win": 2160,
      "▁kabiliyeti": 2161,
      "▁ona": 2162,
      "▁aziz": 2163,
      "▁boru": 2164,
      "▁states": 2165,
      "▁canavar": 2166,
      "▁tahvili": 2167,
      "is'in": 2168,
      "▁mar": 2169,
      "lanacak": 2170,
      "▁ekleyerek": 2171,
      "▁m": 2172,
      "▁aldılar": 2173,
      "▁haric": 2174,
      "▁1.0": 2175,
      "▁lam": 2176,
      "▁char": 2177,
      "▁gonderdi": 2178,
      "ememis": 2179,
      "▁bayan": 2180,
      "▁satılan": 2181,
      "yor": 2182,
      "dogu": 2183,
      "enen": 2184,
      "▁ayrica": 2185,
      "▁kadr": 2186,
      "▁yerlesik": 2187,
      "▁yerleri": 2188,
      "▁laborat": 2189,
      "▁kotums": 2190,
      "eri": 2191,
      "aver": 2192,
      "▁geciyor": 2193,
      "▁cikol": 2194,
      "▁duvar": 2195,
      "▁anlattık": 2196,
      "▁tombul": 2197,
      "▁sıngır": 2198,
      "▁agladı": 2199,
      "▁oldugumu": 2200,
      "▁birbirlerini": 2201,
      "ılıgıyla": 2202,
      "▁evir": 2203,
      "▁cub": 2204,
      "▁nese": 2205,
      "▁birbiri": 2206,
      "▁tacirler": 2207,
      "▁yurtdısında": 2208,
      "▁kacak": 2209,
      "▁ayının": 2210,
      "▁yargılan": 2211,
      "lerdeki": 2212,
      "▁limuz": 2213,
      "▁soyley": 2214,
      "larındaki": 2215,
      "▁saatlerinde": 2216,
      "lit": 2217,
      "▁bicimi": 2218,
      "▁kazancı": 2219,
      "▁bur": 2220,
      "▁cad": 2221,
      "▁bulanık": 2222,
      "▁potansiy": 2223,
      "▁boz": 2224,
      "gel": 2225,
      "baska": 2226,
      "▁riv": 2227,
      "▁abart": 2228,
      "▁seni": 2229,
      "iyesi": 2230,
      "-merkez": 2231,
      "▁konuları": 2232,
      "▁1/4'e": 2233,
      "▁yek": 2234,
      "dız": 2235,
      "2.1": 2236,
      "▁espr": 2237,
      "▁sabahı": 2238,
      "▁tumuyle": 2239,
      "day": 2240,
      "▁agacların": 2241,
      "▁numara": 2242,
      "▁bilhassa": 2243,
      "▁kulaga": 2244,
      "▁uygulamaları": 2245,
      "▁ısıgı": 2246,
      "▁kulagına": 2247,
      "▁pey": 2248,
      "▁23.5": 2249,
      "▁toplan": 2250,
      "▁olmadıgına": 2251,
      "▁bilgisayar-programı": 2252,
      "▁anladı": 2253,
      "▁calısıyorum": 2254,
      "ınc": 2255,
      "▁alıskan": 2256,
      "▁boldu": 2257,
      "▁tuz": 2258,
      "▁oku": 2259,
      "▁kimseyi": 2260,
      "▁ileriye": 2261,
      "▁zannet": 2262,
      "▁erdogan": 2263,
      "▁haberim": 2264,
      "▁kurulu'nun": 2265,
      "▁fel": 2266,
      "▁goruyordu": 2267,
      "▁beton": 2268,
      "▁enter": 2269,
      "▁isten": 2270,
      "▁semt": 2271,
      "▁dort": 2272,
      "idge": 2273,
      "▁sıra": 2274,
      "eyebilir": 2275,
      "▁yatırımcıların": 2276,
      "▁denver'de": 2277,
      "▁tarihe": 2278,
      "▁romanc": 2279,
      "▁kayboldu": 2280,
      "▁tezgah": 2281,
      "madılar": 2282,
      "▁nereye": 2283,
      "▁fe": 2284,
      "▁elleriyle": 2285,
      "ibar": 2286,
      "▁vicdan": 2287,
      "▁birisini": 2288,
      "▁cocukca": 2289,
      "▁minder": 2290,
      "▁dolastım": 2291,
      "▁adi": 2292,
      "▁odenmesi": 2293,
      "=": 2294,
      "300": 2295,
      "▁ansik": 2296,
      "▁tarafından": 2297,
      "▁kuz": 2298,
      "ber": 2299,
      "▁plaj": 2300,
      "▁kambur": 2301,
      "▁telefonu": 2302,
      "▁evi": 2303,
      "aten": 2304,
      "▁duzenli": 2305,
      "▁ydi": 2306,
      "lılıgı": 2307,
      "xel": 2308,
      "▁edildigini": 2309,
      "lerime": 2310,
      "'lerde": 2311,
      "tadır": 2312,
      "erse": 2313,
      "▁girdigi": 2314,
      "▁etrafta": 2315,
      "▁yut": 2316,
      "sızın": 2317,
      "▁uygulamaya": 2318,
      "▁kıyafet": 2319,
      "▁1988": 2320,
      "son": 2321,
      "▁basbakan": 2322,
      "▁yelpaz": 2323,
      "▁kalktı": 2324,
      "▁tucc": 2325,
      "▁tasa": 2326,
      "cıl": 2327,
      "▁buyuy": 2328,
      "▁istiyorum": 2329,
      "▁kalmadı": 2330,
      "amayacagı": 2331,
      "▁ardından": 2332,
      "▁besinci": 2333,
      "▁uygunsuz": 2334,
      "▁degerlendiril": 2335,
      "▁yapmaktan": 2336,
      "▁uzandı": 2337,
      "ayi": 2338,
      "mekle": 2339,
      "▁pu": 2340,
      "▁kısım": 2341,
      "▁fatura": 2342,
      "▁hisseyle": 2343,
      "▁4": 2344,
      "yon": 2345,
      "▁incecik": 2346,
      "▁seatt": 2347,
      "▁ısır": 2348,
      "▁aracılık": 2349,
      "▁serb": 2350,
      "▁q": 2351,
      "▁hekim": 2352,
      "▁kov": 2353,
      "▁kabuk": 2354,
      "▁dusunul": 2355,
      "▁sizden": 2356,
      "yı": 2357,
      "▁merkeze": 2358,
      "▁bana": 2359,
      "▁analiz": 2360,
      "▁fant": 2361,
      "▁6.9": 2362,
      "46": 2363,
      "▁kucak": 2364,
      "▁bm": 2365,
      "▁gaz": 2366,
      "▁kos": 2367,
      "uluk": 2368,
      "▁daire": 2369,
      "▁hissi": 2370,
      "▁bakarak": 2371,
      "'nunla": 2372,
      "▁sor": 2373,
      "tral": 2374,
      "▁birligi": 2375,
      "▁ir": 2376,
      "▁sayıda": 2377,
      "▁yorumu": 2378,
      "▁acentamiza": 2379,
      "▁amerika": 2380,
      "▁evler": 2381,
      "▁duzel": 2382,
      "!": 2383,
      "▁sehr": 2384,
      "▁taraftan": 2385,
      "▁kıl": 2386,
      "anan": 2387,
      "▁esen": 2388,
      "▁calıs": 2389,
      "ımıza": 2390,
      "▁konuyla": 2391,
      "▁soruları": 2392,
      "our": 2393,
      "▁dergisi": 2394,
      "▁ick": 2395,
      "▁3.1": 2396,
      "▁koyde": 2397,
      "▁1962": 2398,
      "▁balkon": 2399,
      "▁eczacı": 2400,
      "▁dervis": 2401,
      "ban": 2402,
      "ingen": 2403,
      "▁allah'a": 2404,
      "▁oldukca": 2405,
      "▁yaslarında": 2406,
      "usel": 2407,
      "▁tenis": 2408,
      "ecegin": 2409,
      "▁dogal": 2410,
      "▁agrı": 2411,
      "▁40": 2412,
      "▁turist": 2413,
      "▁ozellikleri": 2414,
      "amadıgını": 2415,
      "▁esy": 2416,
      "▁cezb": 2417,
      "▁louis": 2418,
      "dik": 2419,
      "▁zamaninda": 2420,
      "ula": 2421,
      "▁genis": 2422,
      "▁arap": 2423,
      "▁sum": 2424,
      "▁tef": 2425,
      "emek": 2426,
      "rika": 2427,
      "▁belirsiz": 2428,
      "▁gormez": 2429,
      "▁gecirdim": 2430,
      "▁arkadasım": 2431,
      "▁sokup": 2432,
      "▁109.85": 2433,
      "▁eders": 2434,
      "▁j.": 2435,
      "▁bisiklet": 2436,
      "ings": 2437,
      "▁gercekles": 2438,
      "tek": 2439,
      "▁ucusunun": 2440,
      "▁otekine": 2441,
      "▁kahvalti": 2442,
      "ıncaya": 2443,
      "▁kim": 2444,
      "ırlar": 2445,
      "▁yazın": 2446,
      "larınız": 2447,
      "▁gom": 2448,
      "▁okuyup": 2449,
      "▁baskasın": 2450,
      "▁giyin": 2451,
      "▁filiz": 2452,
      "▁l.": 2453,
      "islari": 2454,
      "▁boh": 2455,
      "ation": 2456,
      "▁ların": 2457,
      "▁sicakti": 2458,
      "▁patlıc": 2459,
      "8'in": 2460,
      "▁ibm'in": 2461,
      "▁kor": 2462,
      "▁tuttum": 2463,
      "▁teblig": 2464,
      "▁alıyor": 2465,
      "ati": 2466,
      "▁prop": 2467,
      "amadım": 2468,
      "▁kaldırdı": 2469,
      "▁demin": 2470,
      "ry": 2471,
      "-h": 2472,
      "▁3135": 2473,
      "▁%20": 2474,
      "▁ideoloj": 2475,
      "▁kilis": 2476,
      "▁konumu": 2477,
      "▁fevkal": 2478,
      "▁gectigi": 2479,
      "▁buyume": 2480,
      "uyorum": 2481,
      "▁shar": 2482,
      "re": 2483,
      "▁etek": 2484,
      "▁benziyor": 2485,
      "▁buhran": 2486,
      "▁basın": 2487,
      "▁mevdu": 2488,
      "▁be": 2489,
      "▁4200'e": 2490,
      "▁ima": 2491,
      "▁boyle": 2492,
      "▁eb": 2493,
      "▁isvic": 2494,
      "▁didik": 2495,
      "izasyon": 2496,
      "▁bog": 2497,
      "▁kahve": 2498,
      "▁14": 2499,
      "▁sınırlarını": 2500,
      "▁seklinde": 2501,
      "ersiniz": 2502,
      "▁sirketin": 2503,
      "▁orland": 2504,
      "▁%9": 2505,
      "▁kalmaya": 2506,
      "▁sozu": 2507,
      "▁trust": 2508,
      "▁doz": 2509,
      "malarını": 2510,
      "▁degistiriyor": 2511,
      "▁capındaki": 2512,
      "ody": 2513,
      "inn": 2514,
      "esil": 2515,
      "umda": 2516,
      "▁mosk": 2517,
      "lasması": 2518,
      "acılık": 2519,
      "▁sc": 2520,
      "▁cin": 2521,
      "▁airlines": 2522,
      "▁ysan": 2523,
      "▁campeau": 2524,
      "▁merkezinde": 2525,
      "▁1987'de": 2526,
      "▁agresif": 2527,
      "▁tele": 2528,
      "▁istemeye": 2529,
      "▁miydi": 2530,
      "ael": 2531,
      "'de": 2532,
      "▁olurdu": 2533,
      "kinden": 2534,
      "▁yorul": 2535,
      "▁america": 2536,
      "▁tarihini": 2537,
      "liginden": 2538,
      "ılıgı": 2539,
      "▁anlama": 2540,
      "▁uygar": 2541,
      "5$": 2542,
      "▁oksuruk": 2543,
      "▁pitts": 2544,
      "▁cocugum": 2545,
      "▁soyledi": 2546,
      "▁gorusmedik": 2547,
      "▁bagırsak": 2548,
      "▁erdem": 2549,
      "▁mana": 2550,
      "▁tavan": 2551,
      "▁bilinmez": 2552,
      "▁ger": 2553,
      "▁potansiyel": 2554,
      "oniki": 2555,
      "▁yazıya": 2556,
      "ish": 2557,
      "▁ton": 2558,
      "▁286": 2559,
      "▁tv": 2560,
      "▁yersiz": 2561,
      "▁taslar": 2562,
      "▁egit": 2563,
      "▁kı": 2564,
      "▁yanda": 2565,
      "▁gunlerden": 2566,
      "▁kırac": 2567,
      "'nın": 2568,
      "▁bo": 2569,
      "▁saman": 2570,
      "▁zamana": 2571,
      "▁2683.2": 2572,
      "▁*": 2573,
      "▁bastır": 2574,
      "▁ucus": 2575,
      "temiz": 2576,
      "▁yanını": 2577,
      "▁kale": 2578,
      "dirdi": 2579,
      "▁kurban": 2580,
      "▁ana": 2581,
      "▁konusmalar": 2582,
      "▁yılında": 2583,
      "▁hikayeler": 2584,
      "▁demir": 2585,
      "▁otob": 2586,
      "▁huy": 2587,
      "▁yarısından": 2588,
      "sim": 2589,
      "▁tuhaf": 2590,
      "-sat": 2591,
      "▁!..": 2592,
      "▁yolun": 2593,
      "▁benzeyen": 2594,
      "amazlar": 2595,
      "▁hastane": 2596,
      "▁bilirler": 2597,
      "imser": 2598,
      "▁dernek": 2599,
      "▁krizi": 2600,
      "imleri": 2601,
      "▁doktorun": 2602,
      "▁miami'den": 2603,
      "▁getiriyordu": 2604,
      "sizim": 2605,
      "▁pesine": 2606,
      "cil": 2607,
      "lebilecek": 2608,
      "▁koruyan": 2609,
      "▁dediler": 2610,
      "▁evin": 2611,
      "▁kucuktu": 2612,
      "▁bank": 2613,
      "▁iyisini": 2614,
      "▁cekmis": 2615,
      "'nin": 2616,
      "▁div": 2617,
      "▁bulur": 2618,
      "▁bari": 2619,
      "▁143": 2620,
      "▁kalabalı": 2621,
      "▁sakin": 2622,
      "▁vadede": 2623,
      "▁verilen": 2624,
      "▁twa": 2625,
      "▁ayr": 2626,
      "▁yıldan": 2627,
      "▁populer": 2628,
      "▁kaynak": 2629,
      "▁sivri": 2630,
      "▁tabanc": 2631,
      "▁tuccarlar": 2632,
      "▁uvey": 2633,
      "▁isim": 2634,
      "▁psikolojik": 2635,
      "oloji": 2636,
      "▁sozler": 2637,
      "▁denet": 2638,
      "▁tanıyor": 2639,
      "▁isciyi": 2640,
      "cılıgın": 2641,
      "▁calisan": 2642,
      "-22:30": 2643,
      "ındık": 2644,
      "ada": 2645,
      "▁unit": 2646,
      "▁baslayacak": 2647,
      "e'ye": 2648,
      "▁yuf": 2649,
      "▁gunku": 2650,
      "▁gunduz": 2651,
      "▁ortulu": 2652,
      "▁tarlas": 2653,
      "▁gittik": 2654,
      "▁bilgi": 2655,
      "jektif": 2656,
      "▁gozlerine": 2657,
      "▁sait": 2658,
      "▁farkın": 2659,
      "▁milano": 2660,
      "ındaki": 2661,
      "gının": 2662,
      "ıcısı": 2663,
      "▁yayınladı": 2664,
      "▁doviz": 2665,
      "aksız": 2666,
      "▁canlandır": 2667,
      "▁o'": 2668,
      "iyeleri": 2669,
      "▁grubu": 2670,
      "▁ar": 2671,
      "ya'da": 2672,
      "v": 2673,
      "▁guzelce": 2674,
      "▁kokusu": 2675,
      "▁konustu": 2676,
      "imle": 2677,
      "ester": 2678,
      "▁levh": 2679,
      "▁iler": 2680,
      "▁kurumsal": 2681,
      "▁derecelendir": 2682,
      "elop": 2683,
      "▁gezer": 2684,
      "▁baskent": 2685,
      "ilirken": 2686,
      "▁sotheb": 2687,
      "▁rakipler": 2688,
      "5'te": 2689,
      "▁uret": 2690,
      "▁rezerve": 2691,
      "▁zihn": 2692,
      "tıp": 2693,
      "▁dogur": 2694,
      "▁yazarın": 2695,
      "▁40000": 2696,
      "▁okuyor": 2697,
      "▁bahis": 2698,
      "▁arif": 2699,
      "▁muazzam": 2700,
      "▁istemedi": 2701,
      "▁muhabiri": 2702,
      "▁hu": 2703,
      "lak": 2704,
      "▁moskova": 2705,
      "▁adam": 2706,
      "ansiyon": 2707,
      "dalı": 2708,
      "▁dram": 2709,
      "▁umudu": 2710,
      "▁colorad": 2711,
      "▁salomon": 2712,
      "▁haline": 2713,
      "▁italyan": 2714,
      "▁gazi": 2715,
      "▁noktada": 2716,
      "▁operasyonlarını": 2717,
      "▁lee": 2718,
      "▁motiv": 2719,
      "▁kurt": 2720,
      "▁pazarın": 2721,
      "res": 2722,
      "luyorlar": 2723,
      "▁sofra": 2724,
      "▁olacagını": 2725,
      "▁viz": 2726,
      "acıkta": 2727,
      "▁ulan": 2728,
      "▁bicimde": 2729,
      "▁almanlar": 2730,
      "▁west": 2731,
      "▁tedbir": 2732,
      "▁sordu": 2733,
      "▁vurur": 2734,
      "▁olusturul": 2735,
      "ırken": 2736,
      "▁sendika": 2737,
      "▁pisman": 2738,
      "gunuz": 2739,
      "ix": 2740,
      "cakt": 2741,
      "▁kosu": 2742,
      "▁yansıt": 2743,
      "▁kullanisli": 2744,
      "▁dahil": 2745,
      "▁cos": 2746,
      "▁gurult": 2747,
      "ısıl": 2748,
      "▁kuy": 2749,
      "ulması": 2750,
      "mayın": 2751,
      "▁macer": 2752,
      "▁savas": 2753,
      "▁florida": 2754,
      "▁tiksin": 2755,
      "▁yılda": 2756,
      "deniz": 2757,
      "▁musunuz": 2758,
      "▁iliskimiz": 2759,
      "▁gumus": 2760,
      "▁dinlen": 2761,
      "bab": 2762,
      "▁yanımda": 2763,
      "▁destekli": 2764,
      "▁asılı": 2765,
      "▁mahkemesi": 2766,
      "manda": 2767,
      "▁communications": 2768,
      "▁billur": 2769,
      "▁elimden": 2770,
      "▁ucusla": 2771,
      "seler": 2772,
      "vari": 2773,
      "tısına": 2774,
      "▁oyku": 2775,
      "▁iyiden": 2776,
      "▁0.6": 2777,
      "▁gıda": 2778,
      "lıklar": 2779,
      "▁bulbul": 2780,
      ",3": 2781,
      "▁ezber": 2782,
      "▁biriyle": 2783,
      "▁yed": 2784,
      "▁hakkı": 2785,
      "▁sıkıstır": 2786,
      "▁gunden": 2787,
      "▁gazetec": 2788,
      "etti": 2789,
      "▁konusup": 2790,
      "▁20": 2791,
      "▁dustugu": 2792,
      "▁kaliforn": 2793,
      "▁811": 2794,
      "▁ettiginiz": 2795,
      "▁girmez": 2796,
      "ona": 2797,
      "pan": 2798,
      "▁kuruluslarındaki": 2799,
      "▁yemege": 2800,
      "▁dikkatle": 2801,
      "▁270": 2802,
      "▁ucmak": 2803,
      "▁gubre": 2804,
      "▁1.60": 2805,
      "▁1981": 2806,
      "▁itib": 2807,
      "▁degildik": 2808,
      "ler": 2809,
      "esinin": 2810,
      "▁dalk": 2811,
      "▁video": 2812,
      "▁fist": 2813,
      "▁oldugun": 2814,
      "ıcak": 2815,
      "olu": 2816,
      "▁alısver": 2817,
      "▁vasat": 2818,
      "▁aklıma": 2819,
      "iyete": 2820,
      "▁2010": 2821,
      "kaya": 2822,
      "▁198120000": 2823,
      "ınıp": 2824,
      "▁tadı": 2825,
      "mal": 2826,
      ".4": 2827,
      "▁edilemez": 2828,
      "▁federal": 2829,
      "▁getirmeye": 2830,
      "▁bebek": 2831,
      "▁1977": 2832,
      "▁ters": 2833,
      "▁comert": 2834,
      "▁halef": 2835,
      "▁ny": 2836,
      "imindan": 2837,
      "▁midwest": 2838,
      "agının": 2839,
      "use": 2840,
      "▁cet": 2841,
      "▁cekirdek": 2842,
      "abilecek": 2843,
      "▁midir": 2844,
      "▁lider": 2845,
      "▁askeri": 2846,
      "▁halim": 2847,
      "▁jo": 2848,
      "▁herkesi": 2849,
      "▁seyrek": 2850,
      "▁yapıyor": 2851,
      "▁7.52": 2852,
      "▁rab": 2853,
      "▁kendileriyle": 2854,
      "enlerin": 2855,
      "▁kalıyor": 2856,
      "▁zirv": 2857,
      "▁camı": 2858,
      "▁gerekiyor": 2859,
      "▁adımı": 2860,
      "▁sunu": 2861,
      "▁dolma": 2862,
      "▁vel": 2863,
      "▁birbiriyle": 2864,
      "▁sed": 2865,
      "▁yaslı": 2866,
      "sira": 2867,
      "iben": 2868,
      "▁1200": 2869,
      "▁acıkca": 2870,
      "▁kıvıl": 2871,
      "▁cayır": 2872,
      "▁faaliyete": 2873,
      "▁adlandır": 2874,
      "▁aleyhine": 2875,
      "▁%51": 2876,
      "cuların": 2877,
      "leb": 2878,
      "▁yokus": 2879,
      "▁oyla": 2880,
      "▁catı": 2881,
      "affer": 2882,
      "▁yoktu": 2883,
      "casına": 2884,
      "▁buyudu": 2885,
      "▁ro": 2886,
      "▁bilgisi": 2887,
      "▁esnaf": 2888,
      "▁cincinnati": 2889,
      "▁ettigini": 2890,
      "▁bolgesi": 2891,
      "▁civ": 2892,
      "▁ankete": 2893,
      "tari": 2894,
      "lamadan": 2895,
      "45": 2896,
      "007": 2897,
      "▁adem": 2898,
      "▁temizligi": 2899,
      "▁iceriye": 2900,
      "▁burn": 2901,
      "▁isinin": 2902,
      "▁cıktık": 2903,
      "ustugunu": 2904,
      "8.6": 2905,
      "▁anlıyor": 2906,
      "▁isaret": 2907,
      "▁cleveland'dan": 2908,
      "▁jim": 2909,
      "▁arkasından": 2910,
      "▁211": 2911,
      "▁itaat": 2912,
      "▁gecit": 2913,
      "▁mut": 2914,
      "▁basta": 2915,
      "▁tarafsız": 2916,
      "▁birbirlerine": 2917,
      "▁polit": 2918,
      "▁ulastırma": 2919,
      "endim": 2920,
      "▁balon": 2921,
      "▁icli": 2922,
      "ından": 2923,
      "lip": 2924,
      "▁york'tan": 2925,
      "▁anti": 2926,
      "meyin": 2927,
      "▁nominal": 2928,
      "▁azaltmak": 2929,
      "▁kaymakam": 2930,
      "▁borclanma": 2931,
      "▁doktoru": 2932,
      "o'nun": 2933,
      "cr": 2934,
      "iser": 2935,
      "▁ambar": 2936,
      "▁amacla": 2937,
      "▁okullar": 2938,
      "▁nazar": 2939,
      "▁politik": 2940,
      "▁olanagı": 2941,
      "▁lakırtı": 2942,
      "▁edecegim": 2943,
      "yetmis": 2944,
      "▁buyuyor": 2945,
      "▁inanıyor": 2946,
      "▁gencler": 2947,
      "ecilik": 2948,
      "▁sauna": 2949,
      "▁cekilmesi": 2950,
      "▁1.500": 2951,
      "▁arastırma": 2952,
      "▁anlayislari": 2953,
      "▁michael": 2954,
      "▁guvercin": 2955,
      "uc": 2956,
      "▁sınıfta": 2957,
      "amalı": 2958,
      "▁mag": 2959,
      "37": 2960,
      "▁60000": 2961,
      "kar": 2962,
      "ihat": 2963,
      "lik": 2964,
      "sinde": 2965,
      "▁calısması": 2966,
      "▁2240": 2967,
      "▁inc": 2968,
      "▁olarak": 2969,
      "▁tanınmıs": 2970,
      "▁torb": 2971,
      "▁iyil": 2972,
      "▁ogul": 2973,
      "▁saldırgan": 2974,
      "▁yen'e": 2975,
      "▁nav": 2976,
      "▁tavır": 2977,
      "▁esrar": 2978,
      "▁41": 2979,
      "▁cercev": 2980,
      "▁dokum": 2981,
      "▁askerler": 2982,
      "▁havuzun": 2983,
      "dugu": 2984,
      "▁ariz": 2985,
      "▁kıvır": 2986,
      "▁cıkınca": 2987,
      "▁fıskır": 2988,
      "▁cevap": 2989,
      "▁paralar": 2990,
      "zin": 2991,
      "▁yanl": 2992,
      "isindan": 2993,
      "▁hazırlamıs": 2994,
      "eceginiz": 2995,
      "▁mil": 2996,
      "masına": 2997,
      "▁odun": 2998,
      "ulmamıs": 2999,
      "▁dikkatini": 3000,
      "▁tumu": 3001,
      "▁karsil": 3002,
      "'unu": 3003,
      "▁engellemek": 3004,
      "▁prenses": 3005,
      "ter": 3006,
      "▁hareket": 3007,
      "▁yanlıs": 3008,
      "▁magaza": 3009,
      "▁bulent": 3010,
      "ila": 3011,
      "digimi": 3012,
      "▁olası": 3013,
      "▁bankalarındaki": 3014,
      "▁seydi": 3015,
      "▁ortalıgı": 3016,
      "burgh": 3017,
      "▁citicorp": 3018,
      "dım": 3019,
      "▁tabl": 3020,
      "▁oldugunu": 3021,
      "larken": 3022,
      "▁puanlarim": 3023,
      "▁manevi": 3024,
      "1.7": 3025,
      "▁havuzlar": 3026,
      "▁bıraktım": 3027,
      "house": 3028,
      ".88": 3029,
      "▁kısmı": 3030,
      "5.7": 3031,
      "▁mudur": 3032,
      "▁ikincisi": 3033,
      "▁kazanmıs": 3034,
      "▁%2.7": 3035,
      "▁gayrimenkul": 3036,
      "▁yazarlar": 3037,
      "▁degildi": 3038,
      "▁kalkar": 3039,
      "▁kuslar": 3040,
      "▁edilebilir": 3041,
      "avar": 3042,
      "▁sordum": 3043,
      "▁ter": 3044,
      ".50": 3045,
      "▁express": 3046,
      "▁tutam": 3047,
      "ındır": 3048,
      "usunu": 3049,
      "▁mahk": 3050,
      "▁fran": 3051,
      "▁plat": 3052,
      "▁gerilim": 3053,
      "▁gork": 3054,
      "ital": 3055,
      "▁piyasaları": 3056,
      "▁zinciri": 3057,
      "ıklı": 3058,
      "sem": 3059,
      "▁memphis'e": 3060,
      "▁oynuyor": 3061,
      "▁bilgilerini": 3062,
      "agon": 3063,
      "▁boyu": 3064,
      "dıgın": 3065,
      "▁hey": 3066,
      "kanlı": 3067,
      "▁yazıyorum": 3068,
      "iyor": 3069,
      "▁sabahın": 3070,
      "▁degistiren": 3071,
      "▁575000": 3072,
      "▁babamın": 3073,
      "▁dorduncu": 3074,
      "▁yollarda": 3075,
      "▁guvenli": 3076,
      "▁aramaya": 3077,
      "duncu": 3078,
      "▁karaya": 3079,
      "mas": 3080,
      "▁gectigimiz": 3081,
      "▁eden": 3082,
      "▁yaradı": 3083,
      "baren": 3084,
      "acagınız": 3085,
      "▁fener": 3086,
      "▁dilek": 3087,
      "▁duyan": 3088,
      "▁kumas": 3089,
      "▁damar": 3090,
      "▁nukleer": 3091,
      "▁cıktı": 3092,
      "▁italya": 3093,
      "▁berbat": 3094,
      "▁juri": 3095,
      "eligini": 3096,
      "▁calısanları": 3097,
      "▁arka": 3098,
      "▁dirler": 3099,
      "yla": 3100,
      "lesen": 3101,
      "▁bilgil": 3102,
      "▁temelinde": 3103,
      "▁spekulasyon": 3104,
      "▁dım": 3105,
      "▁arkasında": 3106,
      "▁dagınık": 3107,
      "43": 3108,
      "▁part": 3109,
      "ine": 3110,
      "▁krav": 3111,
      "▁tanıy": 3112,
      "▁ekipmanı": 3113,
      "▁charlotte": 3114,
      "▁duzenlen": 3115,
      "▁ayaklarını": 3116,
      "imizin": 3117,
      "▁hastan": 3118,
      "sizdi": 3119,
      "▁bayagı": 3120,
      "guna": 3121,
      "eleyen": 3122,
      "▁4.92": 3123,
      "▁yerlerde": 3124,
      "▁yururken": 3125,
      "▁uzmanı": 3126,
      "▁kesik": 3127,
      "▁badem": 3128,
      ".11": 3129,
      "▁#": 3130,
      "[CLS]": 3131,
      "▁5.7": 3132,
      "▁fransa'nın": 3133,
      "▁getirileri": 3134,
      "▁murat": 3135,
      "ımı": 3136,
      "▁turden": 3137,
      "▁birbirimizi": 3138,
      "▁tecavuz": 3139,
      "▁ahir": 3140,
      "apol": 3141,
      "▁1.59": 3142,
      "▁kusak": 3143,
      "▁temerrut": 3144,
      "▁unifor": 3145,
      "▁cevir": 3146,
      "ecegine": 3147,
      "▁asil": 3148,
      "sy": 3149,
      "▁faizli": 3150,
      "uyla": 3151,
      "▁elektr": 3152,
      "op": 3153,
      "▁istedigi": 3154,
      "▁ithal": 3155,
      "▁vek": 3156,
      "olojik": 3157,
      "mos": 3158,
      "▁kavustur": 3159,
      "▁etkilen": 3160,
      "eyici": 3161,
      "▁yeryuz": 3162,
      "▁guler": 3163,
      "acık": 3164,
      "▁doy": 3165,
      "daj": 3166,
      "▁cıglık": 3167,
      "▁yuruyus": 3168,
      "▁ısıl": 3169,
      "ata": 3170,
      "erler": 3171,
      "oru": 3172,
      "▁1.05": 3173,
      "▁mic": 3174,
      "▁okula": 3175,
      "▁giyinmis": 3176,
      "▁yapmıyor": 3177,
      "▁birini": 3178,
      "bur": 3179,
      "▁uf": 3180,
      "▁466": 3181,
      "encer": 3182,
      "▁delikanlı": 3183,
      "esidir": 3184,
      "uel": 3185,
      "▁7\\/32": 3186,
      "▁pittsburgh'a": 3187,
      "▁faaliyeti": 3188,
      "aray": 3189,
      "yse": 3190,
      "▁ucumuz": 3191,
      "te": 3192,
      "▁karısmıs": 3193,
      "▁past": 3194,
      "▁hewlett": 3195,
      "▁azami": 3196,
      "▁mintan": 3197,
      "▁bogazici": 3198,
      "i'ye": 3199,
      "▁onceki": 3200,
      "▁gerekecek": 3201,
      "est": 3202,
      "▁nikkei": 3203,
      "▁zil": 3204,
      "▁varır": 3205,
      "▁gosterdigi": 3206,
      "▁vekil": 3207,
      "▁hek": 3208,
      "▁basladılar": 3209,
      "ilerdi": 3210,
      "▁dinliyor": 3211,
      "▁versiyonu": 3212,
      "▁buhar": 3213,
      "▁ltd.": 3214,
      "▁rah": 3215,
      "▁faal": 3216,
      "▁piyasayı": 3217,
      "▁mukemmeldi": 3218,
      "▁erdir": 3219,
      "▁aksamustu": 3220,
      "▁yurumeye": 3221,
      "▁rop": 3222,
      "▁mekteb": 3223,
      "▁atlanta'ya": 3224,
      "j": 3225,
      "isine": 3226,
      "▁makin": 3227,
      "▁ofis": 3228,
      "▁1.22": 3229,
      "▁power": 3230,
      "▁ayrildik": 3231,
      "tlar": 3232,
      "▁ug": 3233,
      "▁gitmisti": 3234,
      "▁ucaklar": 3235,
      "▁hizmetleri": 3236,
      "▁havalimanı": 3237,
      "▁uzul": 3238,
      "s'un": 3239,
      "▁pot": 3240,
      "▁cezası": 3241,
      "▁seyret": 3242,
      ".65": 3243,
      "▁manzum": 3244,
      "▁gorunmuyor": 3245,
      "▁yegen": 3246,
      "ma": 3247,
      "▁ilg": 3248,
      "umuza": 3249,
      "▁doya": 3250,
      "▁olmasıdır": 3251,
      "▁memuriyet": 3252,
      "▁kusun": 3253,
      "▁amacıyla": 3254,
      "▁1973": 3255,
      "▁kesfet": 3256,
      "▁alanı": 3257,
      "abildi": 3258,
      "▁neye": 3259,
      "▁bulmaya": 3260,
      "▁sezl": 3261,
      "▁intik": 3262,
      "▁koz": 3263,
      "abil": 3264,
      "▁dav": 3265,
      "▁nda": 3266,
      "▁havayoludur": 3267,
      "cog": 3268,
      "misti": 3269,
      "▁yatar": 3270,
      "▁kurtarma": 3271,
      "▁muhendi": 3272,
      "▁ıcı": 3273,
      "▁kararlar": 3274,
      "▁gune": 3275,
      "▁agzı": 3276,
      "▁pahali": 3277,
      "▁baslangıcı": 3278,
      "▁dogan": 3279,
      "▁tasarlan": 3280,
      "▁cesitli": 3281,
      "▁okuy": 3282,
      "acaksınız": 3283,
      "▁122": 3284,
      "▁35000": 3285,
      "▁ara": 3286,
      "▁odama": 3287,
      "▁birbir": 3288,
      ".96": 3289,
      "▁carptı": 3290,
      "▁sebze": 3291,
      "▁endeksi": 3292,
      "er'in": 3293,
      "▁baslangıcta": 3294,
      "▁dokunulmaz": 3295,
      "▁fed": 3296,
      "▁yaygın": 3297,
      "aklar": 3298,
      "▁kar": 3299,
      "▁bulmus": 3300,
      "▁yene": 3301,
      "▁agaclarının": 3302,
      "▁harry": 3303,
      "▁kudret": 3304,
      "▁yogun": 3305,
      "▁bakır": 3306,
      "▁uymadi": 3307,
      "▁elektronik": 3308,
      "▁denizciler": 3309,
      "ole": 3310,
      "ip": 3311,
      "▁biy": 3312,
      "▁gemi": 3313,
      "▁sat": 3314,
      "▁200": 3315,
      "▁oynan": 3316,
      "▁les": 3317,
      "artesi": 3318,
      "▁vucudu": 3319,
      "kim": 3320,
      "▁aylarca": 3321,
      "▁senem": 3322,
      "▁elem": 3323,
      "▁hisselerinin": 3324,
      "▁tetik": 3325,
      "br": 3326,
      "▁57.5": 3327,
      "▁yakın": 3328,
      "▁kesip": 3329,
      "▁skan": 3330,
      "▁pır": 3331,
      "75": 3332,
      "dıgı": 3333,
      "▁net": 3334,
      "ilmaz": 3335,
      "▁oranlar": 3336,
      "▁neyse": 3337,
      "▁yerles": 3338,
      "▁%6": 3339,
      "▁veremem": 3340,
      "77": 3341,
      "▁laub": 3342,
      "▁336": 3343,
      "▁geliyor": 3344,
      "▁edebil": 3345,
      "amadıgı": 3346,
      "memistim": 3347,
      "▁kendisiyle": 3348,
      "▁ydum": 3349,
      "▁evimiz": 3350,
      "▁%50": 3351,
      "▁beg": 3352,
      "▁kesen": 3353,
      "▁amacı": 3354,
      "&": 3355,
      "▁bankaları": 3356,
      "▁ye": 3357,
      "▁sokul": 3358,
      "▁almak": 3359,
      "▁kirliydi": 3360,
      "▁telerate": 3361,
      "▁kalkarak": 3362,
      "uslar": 3363,
      "▁ucret": 3364,
      "imde": 3365,
      "▁cocuklarının": 3366,
      "▁emper": 3367,
      "▁1115": 3368,
      "▁527": 3369,
      "▁imam": 3370,
      "▁saygısız": 3371,
      "▁husus": 3372,
      "▁haldun": 3373,
      "▁stat": 3374,
      "maların": 3375,
      "▁turkce": 3376,
      "edigini": 3377,
      "▁cef": 3378,
      "▁kursu": 3379,
      "▁genel": 3380,
      "▁cont": 3381,
      "onspor": 3382,
      "▁oldugum": 3383,
      "ılan": 3384,
      "elidir": 3385,
      "▁merkezi": 3386,
      "gun": 3387,
      "▁bunal": 3388,
      "▁igne": 3389,
      "bih": 3390,
      "akkak": 3391,
      "▁kendimiz": 3392,
      "▁vermektedir": 3393,
      "alarda": 3394,
      "bak": 3395,
      "ltı": 3396,
      "▁ansızın": 3397,
      "▁dinley": 3398,
      "hi": 3399,
      "▁sanırım": 3400,
      "▁yusu": 3401,
      "▁isletmeler": 3402,
      "▁basıyor": 3403,
      "▁alırım": 3404,
      "▁yasadik": 3405,
      "▁cuh": 3406,
      "▁ecev": 3407,
      "ediler": 3408,
      "▁askın": 3409,
      "▁britanya": 3410,
      "▁kararını": 3411,
      "▁yerin": 3412,
      "▁ızdır": 3413,
      "▁serbest": 3414,
      "asın": 3415,
      "▁asf": 3416,
      "▁grubunun": 3417,
      "▁okumaya": 3418,
      "▁edildi": 3419,
      "ore": 3420,
      "urlu": 3421,
      "idik": 3422,
      "▁veriliyor": 3423,
      "▁kuf": 3424,
      "▁ign": 3425,
      "cılı": 3426,
      "▁kandır": 3427,
      "▁guclu": 3428,
      "▁kozmetik": 3429,
      "▁gunumuzde": 3430,
      "▁manyet": 3431,
      "▁salata": 3432,
      "▁devreye": 3433,
      "▁stock": 3434,
      "▁para": 3435,
      "▁tiyatr": 3436,
      "▁talih": 3437,
      "lige": 3438,
      "amm": 3439,
      "▁memphis": 3440,
      "▁2.46": 3441,
      "▁odasına": 3442,
      "▁helal": 3443,
      "▁odemis": 3444,
      "▁cın": 3445,
      "▁cuk": 3446,
      "▁ozlem": 3447,
      "kam": 3448,
      "▁gecirir": 3449,
      "▁uzaklastı": 3450,
      "amayan": 3451,
      "'daki": 3452,
      "▁jersey": 3453,
      "▁bomb": 3454,
      "agıt": 3455,
      "tic": 3456,
      "ay'ın": 3457,
      "▁uygun": 3458,
      "amanın": 3459,
      "▁surucu": 3460,
      "eman": 3461,
      "▁engin": 3462,
      "▁ceviz": 3463,
      "▁onerdi": 3464,
      "kop": 3465,
      "▁goruyorum": 3466,
      "man'ın": 3467,
      "▁1986": 3468,
      "▁bakım": 3469,
      "▁trans": 3470,
      "caktır": 3471,
      "▁kendini": 3472,
      "▁asset": 3473,
      "▁cıkarak": 3474,
      "▁haftalarda": 3475,
      "▁yuklu": 3476,
      "▁1993": 3477,
      "▁liber": 3478,
      "▁%11": 3479,
      "▁ulkeye": 3480,
      "▁kumsali": 3481,
      "▁kırsal": 3482,
      "▁ayın": 3483,
      "▁isliyor": 3484,
      "▁550": 3485,
      "▁nashville'den": 3486,
      "▁calısıyordum": 3487,
      "▁bekliyordu": 3488,
      "▁azından": 3489,
      "▁kurmus": 3490,
      "otte": 3491,
      "▁seyde": 3492,
      "▁muster": 3493,
      "langıc": 3494,
      "▁hoslan": 3495,
      "bet": 3496,
      "▁ontario'dan": 3497,
      "▁gozlerinde": 3498,
      "▁rezerv": 3499,
      "▁asci": 3500,
      "ledil": 3501,
      "▁peter": 3502,
      "3.8": 3503,
      "▁kıt": 3504,
      "▁160": 3505,
      "duler": 3506,
      "▁8'den": 3507,
      "▁tasıdı": 3508,
      "cuları": 3509,
      "ıcının": 3510,
      "acasına": 3511,
      "▁haksızlık": 3512,
      "▁852": 3513,
      "▁durmadan": 3514,
      "▁degismis": 3515,
      "▁atmıs": 3516,
      "vet": 3517,
      "▁yasamı": 3518,
      "36": 3519,
      "▁koltu": 3520,
      "▁lafı": 3521,
      "▁bulan": 3522,
      "▁nasıl": 3523,
      "▁oper": 3524,
      "▁kem": 3525,
      "▁gunde": 3526,
      "web": 3527,
      "lendim": 3528,
      "▁gecmiyor": 3529,
      "▁mız": 3530,
      "▁nazaran": 3531,
      "▁degistirdi": 3532,
      "▁sımsık": 3533,
      "▁1.125": 3534,
      "▁106": 3535,
      "▁orlando'dan": 3536,
      "▁satısa": 3537,
      "▁hic": 3538,
      "▁cekirde": 3539,
      "▁gorustuk": 3540,
      "lıgından": 3541,
      "▁ucundan": 3542,
      "▁pound": 3543,
      "▁blok": 3544,
      "▁beklenmedik": 3545,
      "▁harcadı": 3546,
      "▁7.88": 3547,
      "▁kutusu": 3548,
      "▁verip": 3549,
      "▁unuttur": 3550,
      "▁epeyce": 3551,
      "▁88.12": 3552,
      "▁dusundu": 3553,
      "▁neredeyse": 3554,
      "▁agırlık": 3555,
      "▁fiyatlarında": 3556,
      "sam": 3557,
      "▁cuz": 3558,
      "▁kimi": 3559,
      "▁ilerleme": 3560,
      "▁d": 3561,
      "mm": 3562,
      "innati": 3563,
      "▁ul": 3564,
      "▁cabalar": 3565,
      "ciden": 3566,
      "▁yapr": 3567,
      "▁yanakları": 3568,
      "rut": 3569,
      "▁eleman": 3570,
      "▁tereyagı": 3571,
      "▁vic": 3572,
      "▁agr": 3573,
      "▁gunesli": 3574,
      "ana": 3575,
      "▁acısı": 3576,
      "oluk": 3577,
      "▁ciyak": 3578,
      "alarım": 3579,
      "▁muac": 3580,
      "▁dizinin": 3581,
      "▁suk": 3582,
      "▁okan": 3583,
      "asi": 3584,
      "▁for": 3585,
      "▁indim": 3586,
      "▁istedik": 3587,
      "▁6.7": 3588,
      "ıyan": 3589,
      "▁doneme": 3590,
      "▁korkuyorum": 3591,
      "▁sıfır": 3592,
      "▁dagıl": 3593,
      "▁faturamin": 3594,
      "▁keyif": 3595,
      "▁houston": 3596,
      "▁gecirmek": 3597,
      "ib": 3598,
      "▁atarak": 3599,
      "▁yetkilisi": 3600,
      "▁rejim": 3601,
      "▁detroit'ten": 3602,
      ".33": 3603,
      "▁seckin": 3604,
      "ulugunu": 3605,
      "▁vuruyor": 3606,
      "ert": 3607,
      "▁sosyalist": 3608,
      "o'yu": 3609,
      "ilmis": 3610,
      "▁gonlunu": 3611,
      "▁surdurmek": 3612,
      "ecegi": 3613,
      "▁olmamak": 3614,
      "▁vergi": 3615,
      "iyer": 3616,
      "▁olimp": 3617,
      "▁yapılmıstır": 3618,
      "▁yıllık": 3619,
      "▁kesiyor": 3620,
      "lat": 3621,
      "▁acmayı": 3622,
      "▁cıkmak": 3623,
      "▁100": 3624,
      "well": 3625,
      "▁tanesi": 3626,
      "▁bırakın": 3627,
      "▁verdi": 3628,
      "▁basvuru": 3629,
      "▁bolge": 3630,
      "▁gazino": 3631,
      "▁br": 3632,
      "▁toplumu": 3633,
      "▁yardımc": 3634,
      "▁stand": 3635,
      "▁salonu": 3636,
      "▁padi": 3637,
      "irleri": 3638,
      "▁sakalı": 3639,
      "▁japonlar": 3640,
      "▁plaji": 3641,
      "▁bedava": 3642,
      "▁televizyon": 3643,
      "▁bekledigini": 3644,
      "▁ontario": 3645,
      "▁birbirlerinin": 3646,
      "▁konusu": 3647,
      "lıgıyla": 3648,
      "▁ma": 3649,
      "▁3.5": 3650,
      "▁mide": 3651,
      "ern": 3652,
      "▁durumu": 3653,
      "apark": 3654,
      "▁gayrim": 3655,
      "▁kırıklıgı": 3656,
      "▁kagıdı": 3657,
      "▁onca": 3658,
      "uyor": 3659,
      "▁kullanılmıs": 3660,
      "▁acel": 3661,
      "▁kurdular": 3662,
      "▁aya": 3663,
      "▁.'": 3664,
      "▁hizmete": 3665,
      "▁olusan": 3666,
      "▁parmak": 3667,
      "▁quebec": 3668,
      "▁oburunu": 3669,
      "mu": 3670,
      "▁2007'nin": 3671,
      "▁benzer": 3672,
      "▁millet": 3673,
      "▁mecl": 3674,
      "▁jack": 3675,
      "ılıga": 3676,
      "▁gecis": 3677,
      "▁?": 3678,
      "▁memleket": 3679,
      "▁yaptım": 3680,
      "▁hissesinin": 3681,
      "▁18": 3682,
      "yat": 3683,
      "▁vegas'tan": 3684,
      "▁cip": 3685,
      "▁havayolunun": 3686,
      "▁duzey": 3687,
      "▁evrak": 3688,
      "▁yemeklerde": 3689,
      "imizi": 3690,
      "▁uyusturucu": 3691,
      "▁olduk": 3692,
      "sir": 3693,
      "rını": 3694,
      "▁kus": 3695,
      "24": 3696,
      "▁sekizinci": 3697,
      "▁itibariyle": 3698,
      "▁do": 3699,
      "▁kesildi": 3700,
      "▁karton": 3701,
      "▁verilmesi": 3702,
      "▁richard": 3703,
      ":30": 3704,
      "▁paralel": 3705,
      "▁hayal": 3706,
      "▁uzay": 3707,
      "ics": 3708,
      "▁gorulen": 3709,
      "▁39": 3710,
      "▁katkı": 3711,
      "▁cocugun": 3712,
      "ıb": 3713,
      "▁kademeli": 3714,
      "ras": 3715,
      "▁dondu": 3716,
      "▁bagımsız": 3717,
      "ds": 3718,
      "▁electric": 3719,
      "▁one": 3720,
      "s": 3721,
      "▁boc": 3722,
      "▁kurtulmak": 3723,
      "▁eminim": 3724,
      "▁88": 3725,
      "▁temkin": 3726,
      "maya": 3727,
      "▁efsan": 3728,
      "▁etkinlikler": 3729,
      "adir": 3730,
      "▁salonda": 3731,
      "suz": 3732,
      "▁pozisyon": 3733,
      "▁aydınlat": 3734,
      "▁puf": 3735,
      "▁sasırtıcı": 3736,
      "rul": 3737,
      "▁tarihleri": 3738,
      "▁durust": 3739,
      "▁ada": 3740,
      ".6": 3741,
      ".02": 3742,
      "▁coskun": 3743,
      "▁demiray": 3744,
      "▁phoenix": 3745,
      "aklık": 3746,
      "▁nedenle": 3747,
      ".92": 3748,
      "▁oralarda": 3749,
      "▁32.125": 3750,
      "▁gergin": 3751,
      "▁dururdu": 3752,
      "lari": 3753,
      "resi": 3754,
      "atas": 3755,
      "spor": 3756,
      "▁kayıp": 3757,
      "▁sınırı": 3758,
      "▁kabar": 3759,
      "▁satımı": 3760,
      "▁sırasında": 3761,
      "▁ocagı": 3762,
      "net": 3763,
      "▁muk": 3764,
      "▁egilim": 3765,
      "▁hijyen": 3766,
      "rim": 3767,
      "▁224070000": 3768,
      "▁oz": 3769,
      "▁westchester": 3770,
      "▁sundu": 3771,
      "▁edeb": 3772,
      "▁o": 3773,
      "▁hayat": 3774,
      "▁onlardan": 3775,
      "ijinal": 3776,
      "▁13": 3777,
      "▁yetk": 3778,
      "▁tesisten": 3779,
      "mek": 3780,
      "▁bulas": 3781,
      "▁ozellik": 3782,
      "▁hamil": 3783,
      "▁harap": 3784,
      "▁onlarda": 3785,
      "▁dokmek": 3786,
      "▁gorevlisi": 3787,
      "▁japonya'nın": 3788,
      "ne": 3789,
      "dr": 3790,
      "▁yetkilileri": 3791,
      "eveyn": 3792,
      "▁101": 3793,
      "▁150000": 3794,
      "▁cekil": 3795,
      "▁dinlem": 3796,
      "▁3.05": 3797,
      "▁fal": 3798,
      "bu": 3799,
      "manı": 3800,
      "▁davası": 3801,
      "9'dan": 3802,
      "eet": 3803,
      "▁boston'da": 3804,
      "adılar": 3805,
      "▁esiyor": 3806,
      "▁emel": 3807,
      "ikti": 3808,
      "dır": 3809,
      "▁oykuler": 3810,
      "▁yaratır": 3811,
      "▁house": 3812,
      "▁oranları": 3813,
      "▁bilgilerin": 3814,
      "▁hec": 3815,
      "esti": 3816,
      "▁tartısmaya": 3817,
      "▁bilinc": 3818,
      "culuk": 3819,
      "▁ta": 3820,
      "▁ohi": 3821,
      "▁harekete": 3822,
      "likten": 3823,
      "▁tesisin": 3824,
      "▁kayak": 3825,
      "▁lyn": 3826,
      "▁asla": 3827,
      "7": 3828,
      "amız": 3829,
      "▁yayın": 3830,
      "▁muamel": 3831,
      "-200": 3832,
      "▁petrol": 3833,
      "▁gulus": 3834,
      "▁dususler": 3835,
      "▁surdur": 3836,
      "▁zorlastır": 3837,
      "ove": 3838,
      "iyle": 3839,
      "▁kalmadik": 3840,
      "▁herkesten": 3841,
      "▁sahin": 3842,
      "▁annesinin": 3843,
      "▁ec": 3844,
      "▁izah": 3845,
      "▁oturum": 3846,
      "▁etken": 3847,
      "▁maddi": 3848,
      "▁uzere": 3849,
      "dugum": 3850,
      "▁edemedi": 3851,
      "▁taraf": 3852,
      "▁inat": 3853,
      "▁aday": 3854,
      "udi": 3855,
      "▁te": 3856,
      "▁ayrım": 3857,
      "▁havalimanından": 3858,
      "▁ap": 3859,
      "▁ustu": 3860,
      "▁%6.9": 3861,
      "▁eline": 3862,
      "▁halk": 3863,
      "▁vermedi": 3864,
      "▁cincinnati'ye": 3865,
      "▁hutton": 3866,
      "▁kinden": 3867,
      "▁denen": 3868,
      "ısa": 3869,
      "dıgının": 3870,
      "▁telefon": 3871,
      "▁pencerenin": 3872,
      "▁ayrılan": 3873,
      "▁bom": 3874,
      "▁muhur": 3875,
      "▁ortagı": 3876,
      "▁ayarlandı": 3877,
      "▁sevk": 3878,
      "▁kırk": 3879,
      "▁ak": 3880,
      "▁zafer": 3881,
      "0.8": 3882,
      "ardan": 3883,
      "▁kaygı": 3884,
      "iyat": 3885,
      "▁muhasebe": 3886,
      "ebi": 3887,
      "▁kısıtlam": 3888,
      "▁yavasti": 3889,
      "▁sem": 3890,
      "▁mily": 3891,
      "▁toy": 3892,
      ".78": 3893,
      "▁oto": 3894,
      "▁cogun": 3895,
      "▁nak": 3896,
      "▁tuh": 3897,
      "▁pratik": 3898,
      "▁elver": 3899,
      "▁0.25": 3900,
      "▁sozlesmesi": 3901,
      "▁bilimin": 3902,
      "▁asgari": 3903,
      "▁ingiliz": 3904,
      "▁org": 3905,
      "▁minneapolis'ten": 3906,
      "▁3.4": 3907,
      "▁ortaklık": 3908,
      "▁lung": 3909,
      "larımın": 3910,
      "▁dosem": 3911,
      "▁sigort": 3912,
      "▁saga": 3913,
      "▁gorur": 3914,
      "▁201622": 3915,
      "▁esim": 3916,
      "ader": 3917,
      "▁tampa'ya": 3918,
      "▁aran": 3919,
      "▁gizem": 3920,
      "▁beklenenden": 3921,
      "▁gecin": 3922,
      "▁ferah": 3923,
      "aladı": 3924,
      "▁illa": 3925,
      "▁oyk": 3926,
      "▁sozlesmeler": 3927,
      "▁iliskilerinde": 3928,
      "▁kenarına": 3929,
      "ehir": 3930,
      "▁olaylara": 3931,
      "▁rusya": 3932,
      "▁kurcal": 3933,
      "▁topragı": 3934,
      "t'in": 3935,
      "▁milyon": 3936,
      "hs": 3937,
      "ırda": 3938,
      "▁baskan": 3939,
      "adelphia": 3940,
      "▁dolayısıyla": 3941,
      "▁salih": 3942,
      "▁ogrenildi": 3943,
      "▁0.24": 3944,
      "▁karanlık": 3945,
      "▁sırasıyla": 3946,
      "▁nihal": 3947,
      "▁oturmus": 3948,
      "▁milwaukee": 3949,
      "▁ugrasıyor": 3950,
      "tıkları": 3951,
      "yalar": 3952,
      "▁asker": 3953,
      "▁gitt": 3954,
      "▁kopuk": 3955,
      "▁a.b.d.": 3956,
      "▁koku": 3957,
      "▁sanız": 3958,
      "▁kurul": 3959,
      "▁1988'de": 3960,
      "▁ır": 3961,
      "▁pak": 3962,
      "mıyorlar": 3963,
      "▁rezervasyonlar": 3964,
      "▁ayarlanabilir": 3965,
      "▁fıstık": 3966,
      "▁pasa": 3967,
      "▁kaldik": 3968,
      "gıl": 3969,
      "▁ederler": 3970,
      "lerden": 3971,
      "▁kut": 3972,
      "▁ezbere": 3973,
      "asına": 3974,
      "▁temp": 3975,
      "▁11:": 3976,
      "▁milletvek": 3977,
      "▁giden": 3978,
      "▁kıymetler": 3979,
      "▁asama": 3980,
      "▁kosullar": 3981,
      "▁ahbap": 3982,
      "▁otomobiller": 3983,
      "▁cansız": 3984,
      "▁37.5": 3985,
      "▁iklim": 3986,
      "itler": 3987,
      "lerinden": 3988,
      "▁ozgurluk": 3989,
      "▁birlesik": 3990,
      "ibet": 3991,
      "▁evinden": 3992,
      "▁carsı": 3993,
      "▁allianz": 3994,
      "▁oran": 3995,
      "▁ellerini": 3996,
      "▁3.3": 3997,
      "alar": 3998,
      "▁aldı": 3999,
      "mamacasına": 4000,
      "▁cins": 4001,
      "isco": 4002,
      "▁542": 4003,
      "▁babam": 4004,
      "92": 4005,
      "sum": 4006,
      "▁turkuler": 4007,
      "bir": 4008,
      "▁kolombiya": 4009,
      "▁inter": 4010,
      "▁gur": 4011,
      "▁actı": 4012,
      "▁tazminat": 4013,
      "▁celik": 4014,
      "▁patates": 4015,
      "hen": 4016,
      "▁oncu": 4017,
      "tansiy": 4018,
      "▁1.4": 4019,
      "▁dinkins": 4020,
      "arki": 4021,
      "▁evvel": 4022,
      "▁ilgilenmedi": 4023,
      "▁istasyonu": 4024,
      "tıcı": 4025,
      "▁birbirleriyle": 4026,
      "lenip": 4027,
      "▁iyiles": 4028,
      "▁tacoma'ya": 4029,
      "▁kıyaslandıgında": 4030,
      "ınca": 4031,
      "▁sevdik": 4032,
      "▁cebinden": 4033,
      "▁sinyal": 4034,
      "▁gundem": 4035,
      "▁hep": 4036,
      "▁sevim": 4037,
      "▁karsiligi": 4038,
      "▁tesek": 4039,
      "▁yaptıktan": 4040,
      "▁piyasasına": 4041,
      "▁yola": 4042,
      "▁seks": 4043,
      "▁damg": 4044,
      "▁tokyo'daki": 4045,
      "▁dısarıdan": 4046,
      "▁ucusa": 4047,
      "▁yuzer": 4048,
      "▁kaz": 4049,
      "▁anlasmalar": 4050,
      "lasıp": 4051,
      "elif": 4052,
      "▁oradan": 4053,
      "▁suleyman": 4054,
      "▁4.3": 4055,
      "▁yonlu": 4056,
      "▁yumruk": 4057,
      "▁mısınız": 4058,
      "66": 4059,
      "▁olasılıkla": 4060,
      "▁ayrılıyor": 4061,
      "▁muhalefet": 4062,
      "imi": 4063,
      "dort": 4064,
      "▁kalmıs": 4065,
      "▁kubb": 4066,
      "▁gonzalez": 4067,
      "▁tug": 4068,
      "akları": 4069,
      "▁11.5": 4070,
      "▁dizgin": 4071,
      "▁lıgı": 4072,
      "▁kuskusuz": 4073,
      "▁otomobilin": 4074,
      "▁kapali": 4075,
      "▁sende": 4076,
      "▁dedigim": 4077,
      "apon": 4078,
      "▁grupları": 4079,
      "25": 4080,
      "▁francisco'da": 4081,
      "▁ses": 4082,
      "▁atesle": 4083,
      "▁prov": 4084,
      "▁okulun": 4085,
      "▁gol": 4086,
      "ustri": 4087,
      "▁yapıldıgı": 4088,
      "yol": 4089,
      "mıyorum": 4090,
      ".79": 4091,
      "▁acıklıyor": 4092,
      "▁yatak": 4093,
      "▁miss": 4094,
      "▁tutsak": 4095,
      "▁yumus": 4096,
      "yip": 4097,
      "▁esas": 4098,
      "▁sek": 4099,
      "▁yazdıgı": 4100,
      "▁kocasının": 4101,
      "taydı": 4102,
      "▁18.65": 4103,
      "▁yaklasım": 4104,
      "▁reddediyor": 4105,
      "▁nok": 4106,
      "▁hasıl": 4107,
      "▁bitim": 4108,
      "apur": 4109,
      "rily": 4110,
      "▁iskar": 4111,
      "▁1.85": 4112,
      "▁450": 4113,
      "tt": 4114,
      "▁yapacagını": 4115,
      "▁yabancilara": 4116,
      "▁otomotiv": 4117,
      "59": 4118,
      "▁itibarendir": 4119,
      "▁alması": 4120,
      "▁oldug": 4121,
      "▁5.": 4122,
      "▁sar": 4123,
      "▁yapıl": 4124,
      "fı": 4125,
      "▁ogrenci": 4126,
      "▁planın": 4127,
      "▁jose": 4128,
      "▁kesf": 4129,
      "/32": 4130,
      "▁seyrediyordu": 4131,
      "▁olmaz": 4132,
      "▁sanatcılar": 4133,
      "▁da": 4134,
      "▁comp": 4135,
      "▁volkan": 4136,
      "▁ozenle": 4137,
      "▁olusturdu": 4138,
      "▁indirdi": 4139,
      "▁karsıtı": 4140,
      "fır": 4141,
      "▁yolunda": 4142,
      "▁canını": 4143,
      "▁olen": 4144,
      "▁satısların": 4145,
      "gec": 4146,
      "▁olayda": 4147,
      "▁asgar": 4148,
      "melidir": 4149,
      "▁zapt": 4150,
      "▁kutur": 4151,
      "ınıyor": 4152,
      "▁dek": 4153,
      "▁sebebi": 4154,
      "▁sırf": 4155,
      "▁gorusemedik": 4156,
      "▁aglamaya": 4157,
      "▁bizden": 4158,
      "▁savunuyor": 4159,
      "▁yonde": 4160,
      "▁koruk": 4161,
      "▁dumduz": 4162,
      "▁toronto": 4163,
      "▁12000": 4164,
      "t": 4165,
      "ental": 4166,
      "gur": 4167,
      "▁fuz": 4168,
      "▁750": 4169,
      "▁oburleri": 4170,
      "▁2659.22": 4171,
      "uye": 4172,
      "▁trak": 4173,
      "▁klima": 4174,
      "▁etmey": 4175,
      "lıgında": 4176,
      "▁alan": 4177,
      "eksiyon": 4178,
      "▁karsiladi": 4179,
      "▁ipot": 4180,
      "gia": 4181,
      "▁beach'a": 4182,
      "▁agaca": 4183,
      "qu": 4184,
      "▁raf": 4185,
      "▁kutuk": 4186,
      "▁dikkat": 4187,
      "lıgına": 4188,
      "▁gelince": 4189,
      "▁dir": 4190,
      "▁cenaze": 4191,
      "▁alakaliydi": 4192,
      "▁b.a.": 4193,
      "▁chev": 4194,
      "▁arbitraj": 4195,
      "▁nag": 4196,
      "▁kaps": 4197,
      "▁oyna": 4198,
      "▁musterek": 4199,
      "dilar": 4200,
      "ilip": 4201,
      "16": 4202,
      "▁yonlendir": 4203,
      "▁gezin": 4204,
      "▁hastalı": 4205,
      "cıları": 4206,
      "▁katip": 4207,
      "yal": 4208,
      "▁olmasını": 4209,
      "rahim": 4210,
      "▁beyef": 4211,
      "yet": 4212,
      "▁kocasını": 4213,
      "▁profesor": 4214,
      "▁yuzd": 4215,
      "▁ufuk": 4216,
      "▁yadig": 4217,
      "▁omer": 4218,
      "▁subv": 4219,
      "▁karab": 4220,
      "▁baslardı": 4221,
      "▁tasım": 4222,
      "▁ucuyor": 4223,
      "▁basbak": 4224,
      "▁coz": 4225,
      "▁soyledik": 4226,
      "▁urun": 4227,
      "▁guzel": 4228,
      "▁ani": 4229,
      "▁evini": 4230,
      "▁odalarin": 4231,
      "amlı": 4232,
      "▁madde": 4233,
      "▁gund": 4234,
      "▁leri": 4235,
      "▁bang": 4236,
      "▁yuzum": 4237,
      "▁368": 4238,
      "▁kalkmıs": 4239,
      "dıg": 4240,
      "▁yaglı": 4241,
      "▁25.96": 4242,
      "▁muhtelif": 4243,
      "▁katilmak": 4244,
      "▁750000": 4245,
      "rne": 4246,
      "▁istik": 4247,
      "▁otuz": 4248,
      "eginden": 4249,
      "▁kec": 4250,
      "▁yapardı": 4251,
      "▁niyet": 4252,
      "▁yetki": 4253,
      "▁tal": 4254,
      "▁tavla": 4255,
      "▁talim": 4256,
      "▁sebep": 4257,
      "▁oysa": 4258,
      "▁taahhut": 4259,
      "▁karsılıklı": 4260,
      "▁sectik": 4261,
      "▁iliskin": 4262,
      "▁personel": 4263,
      "▁oranlarını": 4264,
      "▁merdiven": 4265,
      "eleriyle": 4266,
      "▁havlu": 4267,
      "▁tatb": 4268,
      "▁ucum": 4269,
      "▁karısının": 4270,
      "▁olar": 4271,
      "▁ını": 4272,
      "▁pren": 4273,
      "▁selam": 4274,
      "ilen": 4275,
      "▁bazilari": 4276,
      "▁gelmesi": 4277,
      "▁bakıp": 4278,
      "▁otelden": 4279,
      "▁123": 4280,
      "▁beri": 4281,
      "acılara": 4282,
      "larda": 4283,
      "▁cocukların": 4284,
      "▁dog": 4285,
      "yirmi": 4286,
      "emde": 4287,
      "teki": 4288,
      "▁parca": 4289,
      "▁3.16": 4290,
      "▁kesmis": 4291,
      "▁mahf": 4292,
      "▁budur": 4293,
      "▁ustesinden": 4294,
      "▁kadın": 4295,
      "▁musterilere": 4296,
      "▁coluk": 4297,
      "▁guzelim": 4298,
      "▁buyumus": 4299,
      "▁cihaz": 4300,
      "▁degilim": 4301,
      "▁verdigini": 4302,
      "▁zaf": 4303,
      "▁duygusal": 4304,
      "▁260": 4305,
      "▁corp'un": 4306,
      "80": 4307,
      "▁22-23": 4308,
      "▁demeye": 4309,
      "▁dedikleri": 4310,
      "imet": 4311,
      "▁kapısında": 4312,
      "▁has": 4313,
      "▁bilimi": 4314,
      "▁gerekir": 4315,
      "▁zahmet": 4316,
      "▁best": 4317,
      "▁duru": 4318,
      "▁end": 4319,
      "▁beni": 4320,
      "▁dinliyorum": 4321,
      "▁ekonomi": 4322,
      "▁bira": 4323,
      "▁lezzet": 4324,
      "▁mudahal": 4325,
      "▁hemen": 4326,
      "duc": 4327,
      "&g": 4328,
      "amin": 4329,
      "▁kategor": 4330,
      "▁yuzunden": 4331,
      "▁alaka": 4332,
      "▁hissediyor": 4333,
      "▁yumurta": 4334,
      "▁sorumlu": 4335,
      "▁icimi": 4336,
      "▁tecrub": 4337,
      ",": 4338,
      "▁sahiptir": 4339,
      "▁degisir": 4340,
      "▁zay": 4341,
      "▁70": 4342,
      "▁kendinize": 4343,
      "jur": 4344,
      "▁had": 4345,
      "ıksız": 4346,
      "▁baskaldır": 4347,
      "▁basrol": 4348,
      "▁programın": 4349,
      "▁60": 4350,
      "▁aldıgı": 4351,
      "▁kagıtları": 4352,
      "▁tekstil": 4353,
      "▁neb": 4354,
      "▁ısıklı": 4355,
      "▁200000": 4356,
      "▁mit": 4357,
      "ayip": 4358,
      "ilya": 4359,
      "▁bastı": 4360,
      "▁durak": 4361,
      "1.9": 4362,
      "▁yuzunu": 4363,
      "▁etmekte": 4364,
      "▁ıslak": 4365,
      "▁saatlerdeki": 4366,
      "▁`": 4367,
      "▁satısın": 4368,
      "▁hırsız": 4369,
      "▁chicago'dan": 4370,
      "▁hoc": 4371,
      "▁tı": 4372,
      "fi": 4373,
      "dıgını": 4374,
      "lebilir": 4375,
      "tır": 4376,
      "▁sandaly": 4377,
      "▁sep": 4378,
      "▁pro": 4379,
      "▁guncel": 4380,
      "▁rec": 4381,
      "▁metr": 4382,
      "▁vucud": 4383,
      "▁programını": 4384,
      "▁planlama": 4385,
      "▁bakıyordu": 4386,
      "▁kıbrıs": 4387,
      "▁beyn": 4388,
      "▁denli": 4389,
      "▁okurdu": 4390,
      "▁dokulen": 4391,
      "▁dogu": 4392,
      "▁yemek": 4393,
      "▁gelmis": 4394,
      "▁yukselen": 4395,
      "▁getirdiler": 4396,
      "▁yepyeni": 4397,
      "▁morgan": 4398,
      "▁slog": 4399,
      "dın": 4400,
      "▁kabiliyet": 4401,
      "▁denizde": 4402,
      "mustum": 4403,
      "tede": 4404,
      "▁kendisinden": 4405,
      "▁irf": 4406,
      "asyona": 4407,
      "▁kullanıl": 4408,
      "▁uzaga": 4409,
      "▁bek": 4410,
      "▁bush'un": 4411,
      "ef": 4412,
      "▁lokant": 4413,
      "▁doksaniki": 4414,
      "▁lloyd": 4415,
      "▁dolardı": 4416,
      "▁8.1": 4417,
      "lanın": 4418,
      "▁farklılık": 4419,
      "▁ilc": 4420,
      "▁zorluyor": 4421,
      "▁hukmu": 4422,
      "▁apple": 4423,
      "▁macta": 4424,
      "▁sıkıntısı": 4425,
      "▁kusat": 4426,
      "▁agustos": 4427,
      "▁ortaydi": 4428,
      "▁sozlesme": 4429,
      "au": 4430,
      "▁yatırımcı": 4431,
      "▁imis": 4432,
      "▁yım": 4433,
      "▁oglan": 4434,
      "▁ass": 4435,
      "▁gorbacov": 4436,
      "gu": 4437,
      "▁kayda": 4438,
      "▁girdim": 4439,
      "▁muhatap": 4440,
      "▁alet": 4441,
      "▁karsilas": 4442,
      "amın": 4443,
      "▁g": 4444,
      "lerle": 4445,
      "▁ustun": 4446,
      "/2": 4447,
      "▁turizm": 4448,
      "ımızdan": 4449,
      "▁gorusmeler": 4450,
      "distan": 4451,
      "▁malı": 4452,
      "▁425000": 4453,
      "eller": 4454,
      "▁hong": 4455,
      "dık": 4456,
      "▁actılar": 4457,
      "▁kabin": 4458,
      "▁li": 4459,
      "organ": 4460,
      "▁aldim": 4461,
      "▁otellerin": 4462,
      "ihan": 4463,
      "▁ero": 4464,
      "▁baslarında": 4465,
      "▁odenmemis": 4466,
      "▁tetkik": 4467,
      "▁oldugunda": 4468,
      "▁iskele": 4469,
      "▁arn": 4470,
      "▁patr": 4471,
      "▁analist": 4472,
      "▁bunlara": 4473,
      "▁varil": 4474,
      "▁guney": 4475,
      "▁aldıkları": 4476,
      "ıkır": 4477,
      "▁depremden": 4478,
      "▁veren": 4479,
      "▁did": 4480,
      "▁develop": 4481,
      "▁eglence": 4482,
      "ladı": 4483,
      "▁evli": 4484,
      "▁yalnızca": 4485,
      "▁leblebi": 4486,
      "▁olmayabilir": 4487,
      "iss": 4488,
      "▁algı": 4489,
      "▁zayıf": 4490,
      "▁bazen": 4491,
      "▁,": 4492,
      "▁borsası": 4493,
      "▁patlat": 4494,
      "▁kaval": 4495,
      "▁suyunu": 4496,
      "▁gorunt": 4497,
      "▁kendiniz": 4498,
      "▁uykuya": 4499,
      "mma": 4500,
      "aydın": 4501,
      "▁maruz": 4502,
      "▁mutsuz": 4503,
      "▁meraklı": 4504,
      "▁engelleri": 4505,
      "▁unsuru": 4506,
      "▁ker": 4507,
      "▁tık": 4508,
      "▁york'a": 4509,
      "▁yetkisi": 4510,
      "▁an": 4511,
      "▁okul": 4512,
      "utur": 4513,
      "▁olusuyor": 4514,
      "▁ayaz": 4515,
      "▁simdi": 4516,
      "▁sevin": 4517,
      "▁tuttugu": 4518,
      "ap": 4519,
      "▁madd": 4520,
      "▁50000": 4521,
      "▁barın": 4522,
      "▁etrafı": 4523,
      "egini": 4524,
      "▁satısı": 4525,
      "▁amerikan": 4526,
      "▁surec": 4527,
      "▁buk": 4528,
      "▁miydik": 4529,
      "▁78": 4530,
      "tane": 4531,
      "lal": 4532,
      "▁kosuyor": 4533,
      "▁kullandim": 4534,
      "▁otomobil": 4535,
      "ilmesini": 4536,
      "▁yazılım": 4537,
      "▁onunden": 4538,
      "lamaları": 4539,
      "▁tesir": 4540,
      "▁hud": 4541,
      "▁inanır": 4542,
      "iki": 4543,
      "▁1.9": 4544,
      "▁korkuyor": 4545,
      "▁gittigi": 4546,
      "▁tablo": 4547,
      "ak": 4548,
      "▁kanadı": 4549,
      "▁oner": 4550,
      "▁ucretin": 4551,
      "▁diniz": 4552,
      "▁izler": 4553,
      "amak": 4554,
      "▁almıstım": 4555,
      "▁sonucları": 4556,
      "trol": 4557,
      "▁yıldız": 4558,
      "▁kinde": 4559,
      "▁kullanma": 4560,
      "▁ab'ye": 4561,
      "li": 4562,
      "▁muht": 4563,
      "cunun": 4564,
      "lig": 4565,
      "▁animator": 4566,
      "la": 4567,
      "▁448": 4568,
      "▁otele": 4569,
      "asıdır": 4570,
      "▁olabil": 4571,
      "▁islemlerini": 4572,
      "▁duzenley": 4573,
      "▁yakis": 4574,
      "▁22.": 4575,
      "▁calısma": 4576,
      "▁seydir": 4577,
      "▁uzgun": 4578,
      "iniz": 4579,
      "▁aktif": 4580,
      "▁baltimore'den": 4581,
      "▁sozde": 4582,
      "ukee": 4583,
      "▁fasulye": 4584,
      "▁muzaker": 4585,
      "/16": 4586,
      "▁geleni": 4587,
      "▁pitt": 4588,
      "▁orası": 4589,
      "▁adnan": 4590,
      "lasma": 4591,
      "▁karsılıgında": 4592,
      "▁but": 4593,
      "▁itibari": 4594,
      "▁1.58": 4595,
      "▁omzuna": 4596,
      "▁joseph": 4597,
      "▁ayrılır": 4598,
      "▁hel": 4599,
      "ilmedi": 4600,
      "▁izlemek": 4601,
      "▁dayan": 4602,
      "▁mıs": 4603,
      "lenen": 4604,
      "▁profes": 4605,
      "▁91/2": 4606,
      "▁boynuna": 4607,
      "▁takdir": 4608,
      "▁dondum": 4609,
      "▁po": 4610,
      "ınızı": 4611,
      "”": 4612,
      "▁katıldı": 4613,
      "▁dayanıklı": 4614,
      "▁indian": 4615,
      "▁hindistan": 4616,
      "▁prosed": 4617,
      "▁kurulus": 4618,
      "▁pesinde": 4619,
      "▁hisse": 4620,
      "▁zaten": 4621,
      "▁konusma": 4622,
      "▁tarzı": 4623,
      "▁bekliyorlar": 4624,
      "'den": 4625,
      "mis": 4626,
      "▁fısıl": 4627,
      "▁tepeden": 4628,
      "▁120": 4629,
      "3.6": 4630,
      "▁iddi": 4631,
      "▁yukseldi": 4632,
      "▁zevk": 4633,
      "▁hepimizi": 4634,
      "4": 4635,
      "ır": 4636,
      "omur": 4637,
      "▁n.": 4638,
      "▁bası": 4639,
      "▁hurr": 4640,
      "▁yeng": 4641,
      "▁gam": 4642,
      "ci": 4643,
      "▁chat": 4644,
      "▁yeme": 4645,
      "▁baslar": 4646,
      "emiyorum": 4647,
      "▁konuyu": 4648,
      "ok": 4649,
      "▁donemlerde": 4650,
      "otik": 4651,
      "imler": 4652,
      "▁1.8": 4653,
      "▁ideolojik": 4654,
      "2.91": 4655,
      "▁gule": 4656,
      "▁el": 4657,
      "▁katıl": 4658,
      "▁depr": 4659,
      "▁gıc": 4660,
      "▁ilave": 4661,
      "▁katılım": 4662,
      "▁suradan": 4663,
      "▁talep": 4664,
      "▁gorundugu": 4665,
      "▁girince": 4666,
      "'yla": 4667,
      "lub": 4668,
      "eo": 4669,
      "▁islerinde": 4670,
      "▁bulut": 4671,
      "▁orani": 4672,
      "a.": 4673,
      "▁calıstı": 4674,
      "▁975": 4675,
      "▁ytl": 4676,
      "▁geceler": 4677,
      "▁oyunun": 4678,
      "▁vet": 4679,
      "▁tutulan": 4680,
      "▁mesg": 4681,
      "▁baktım": 4682,
      "▁ticaretinde": 4683,
      "▁civarı": 4684,
      "▁0.95": 4685,
      "▁tesvik": 4686,
      "▁kullanılır": 4687,
      "▁alıyorlar": 4688,
      "▁varlıgı": 4689,
      "▁47": 4690,
      "liginin": 4691,
      "lam": 4692,
      "lesiyor": 4693,
      "▁eti": 4694,
      "ydi": 4695,
      "▁yonelikti": 4696,
      "▁hakikat": 4697,
      "▁ant": 4698,
      "▁gelene": 4699,
      "▁degistirmek": 4700,
      "▁jones": 4701,
      "▁1.5820": 4702,
      "▁yumurt": 4703,
      "ımları": 4704,
      "▁kacır": 4705,
      "▁etik": 4706,
      "▁ob": 4707,
      "▁aram": 4708,
      "▁kesif": 4709,
      "▁240": 4710,
      "▁omur": 4711,
      "▁ıs": 4712,
      "▁sof": 4713,
      "▁islere": 4714,
      "seksen": 4715,
      "▁yaban": 4716,
      "eb": 4717,
      "▁mezar": 4718,
      "ilmez": 4719,
      "ıcılık": 4720,
      "mazdı": 4721,
      "▁musteriler": 4722,
      "▁kaynar": 4723,
      "▁suretiyle": 4724,
      "▁planının": 4725,
      "▁edilmektedir": 4726,
      "▁ne": 4727,
      "▁bekleniyordu": 4728,
      "▁518": 4729,
      "▁isaretleri": 4730,
      "bin": 4731,
      "▁anlamı": 4732,
      "▁haftada": 4733,
      "▁ymıs": 4734,
      "meliyim": 4735,
      "▁sınıf": 4736,
      "evizyon": 4737,
      "▁fon": 4738,
      "▁karıstırın": 4739,
      "sler": 4740,
      "▁belirten": 4741,
      "▁aynada": 4742,
      "▁bakma": 4743,
      "▁worth'da": 4744,
      "▁emperyal": 4745,
      "▁insana": 4746,
      "▁kuvvetleri": 4747,
      "▁samimi": 4748,
      "letti": 4749,
      "▁kulturu": 4750,
      "▁veril": 4751,
      "▁sistemini": 4752,
      "'n": 4753,
      "malar": 4754,
      "▁..\"": 4755,
      "▁suph": 4756,
      "ugu": 4757,
      "▁2": 4758,
      "▁kullanmaya": 4759,
      "▁memnuniyet": 4760,
      "het": 4761,
      "▁rus": 4762,
      "▁mahmut": 4763,
      "▁helmsley": 4764,
      "▁kagıt": 4765,
      "▁inkıl": 4766,
      "▁pal": 4767,
      "▁konusmayı": 4768,
      "cilerin": 4769,
      "muslar": 4770,
      "▁dusunce": 4771,
      "▁re": 4772,
      "▁cesit": 4773,
      "▁sahane": 4774,
      "▁ucurt": 4775,
      "▁tiyatro": 4776,
      "▁cekildi": 4777,
      "adar": 4778,
      "otiv": 4779,
      "▁surecinin": 4780,
      "▁gurur": 4781,
      "▁sef": 4782,
      "▁bankaların": 4783,
      "▁ortaklıgı": 4784,
      "▁spor": 4785,
      "tr": 4786,
      "▁yasarken": 4787,
      "▁nut": 4788,
      "emeyen": 4789,
      "▁burbank'a": 4790,
      "▁tutuldu": 4791,
      "etini": 4792,
      "▁doktorlar": 4793,
      "▁tayyip": 4794,
      "▁soyledim": 4795,
      "▁haberdar": 4796,
      "▁direktoru": 4797,
      "▁olabilirler": 4798,
      "▁emrah": 4799,
      "madıgını": 4800,
      "lamıstı": 4801,
      "▁piyas": 4802,
      "▁inc.": 4803,
      "▁etmiyor": 4804,
      "▁canlan": 4805,
      "▁belirt": 4806,
      "▁sonuclar": 4807,
      "▁hepimizin": 4808,
      "▁duran": 4809,
      "ney": 4810,
      "▁sorgul": 4811,
      "▁730": 4812,
      "▁ortalaması": 4813,
      "emedim": 4814,
      "▁hayv": 4815,
      "▁dekor": 4816,
      "▁civarında": 4817,
      "▁arar": 4818,
      "▁neresinde": 4819,
      "▁1949": 4820,
      "▁tesise": 4821,
      "▁kırım": 4822,
      "▁kapıyı": 4823,
      "▁harcam": 4824,
      "▁kazanan": 4825,
      "▁tekn": 4826,
      "▁3.8": 4827,
      "▁nesnel": 4828,
      "▁yılın": 4829,
      "▁cent": 4830,
      "▁genelinde": 4831,
      "▁kaydet": 4832,
      "▁etmek": 4833,
      "▁cesme": 4834,
      "▁mater": 4835,
      "▁duman": 4836,
      "▁securities": 4837,
      "▁tedavi": 4838,
      "▁kez": 4839,
      "▁9.81": 4840,
      "▁guclerini": 4841,
      "▁herhalde": 4842,
      "▁saclarının": 4843,
      "▁bahce": 4844,
      "7.8": 4845,
      "▁yararlan": 4846,
      "▁saatchi": 4847,
      "▁sinemaya": 4848,
      "▁hort": 4849,
      "tık": 4850,
      "▁bakımından": 4851,
      "ihaz": 4852,
      "iyim": 4853,
      "▁perde": 4854,
      "▁dunyada": 4855,
      "'ın": 4856,
      "▁konusan": 4857,
      "ane": 4858,
      "▁baglamıs": 4859,
      "cul": 4860,
      "▁erz": 4861,
      "▁kaf": 4862,
      "▁iceriyor": 4863,
      "▁ilgililerdi": 4864,
      "▁angeles'ten": 4865,
      "▁miras": 4866,
      "▁kurmak": 4867,
      "▁hırs": 4868,
      "▁baskal": 4869,
      "▁davet": 4870,
      "▁saniye": 4871,
      "leyip": 4872,
      "▁solgun": 4873,
      "▁plak": 4874,
      "▁antren": 4875,
      "iyel": 4876,
      "▁hisseleri": 4877,
      "▁yiyor": 4878,
      "▁canadian": 4879,
      "▁reklam": 4880,
      "▁81": 4881,
      "▁co": 4882,
      "▁girisim": 4883,
      "▁7.98": 4884,
      "▁altındaki": 4885,
      "▁kullanıcı": 4886,
      "▁kalan": 4887,
      "▁charl": 4888,
      "▁bilgiler": 4889,
      "▁nasda": 4890,
      "ilmistir": 4891,
      "sever": 4892,
      "▁atmosfer": 4893,
      "▁yeterli": 4894,
      "▁deli": 4895,
      "▁bunyesinde": 4896,
      "▁166": 4897,
      "▁idari": 4898,
      "gelelim": 4899,
      "inci": 4900,
      "▁\"": 4901,
      "▁yazısı": 4902,
      "▁kapısının": 4903,
      "▁85": 4904,
      "▁belirlenen": 4905,
      "▁durusma": 4906,
      "▁tuk": 4907,
      "▁gitmek": 4908,
      "▁halen": 4909,
      "▁hastaneye": 4910,
      "▁etleri": 4911,
      "▁hayatı": 4912,
      "▁yalnız": 4913,
      "▁dogrudan": 4914,
      "▁avuk": 4915,
      "▁mesaf": 4916,
      "itraj": 4917,
      "▁akar": 4918,
      "▁ayna": 4919,
      "▁ti": 4920,
      "▁sunul": 4921,
      "▁266": 4922,
      "▁650": 4923,
      ".73": 4924,
      "▁bat": 4925,
      "ayıcı": 4926,
      "mama": 4927,
      "▁atıyordu": 4928,
      "▁editoru": 4929,
      "▁vegas": 4930,
      "▁gitgide": 4931,
      "▁corb": 4932,
      "▁onda": 4933,
      "gmen": 4934,
      "▁senede": 4935,
      "▁kemer": 4936,
      "▁aylarda": 4937,
      "▁soylemedi": 4938,
      "edilen": 4939,
      "▁konusunda": 4940,
      "▁problem": 4941,
      "▁guvenlik": 4942,
      "▁ley": 4943,
      "▁1983": 4944,
      "uvar": 4945,
      "▁star": 4946,
      "▁keser": 4947,
      "▁havuz": 4948,
      "▁saz": 4949,
      "dukları": 4950,
      "▁fazl": 4951,
      "▁santim": 4952,
      "▁hatırlam": 4953,
      "▁boyuna": 4954,
      "▁besi": 4955,
      "▁sifir": 4956,
      "▁denver'e": 4957,
      "mamız": 4958,
      "▁kendinden": 4959,
      "▁gosterirler": 4960,
      "emezsin": 4961,
      "▁olduktan": 4962,
      "▁istedigimi": 4963,
      "▁ortalık": 4964,
      "▁bakın": 4965,
      "▁romanı": 4966,
      "▁kısm": 4967,
      "▁donen": 4968,
      "▁22.8": 4969,
      "▁ret": 4970,
      "▁hazırlan": 4971,
      "▁isareti": 4972,
      "▁binbir": 4973,
      "▁sefer": 4974,
      "▁olabilecegini": 4975,
      "▁ruz": 4976,
      "▁takımı": 4977,
      "▁boeing": 4978,
      "▁ba": 4979,
      "▁0.4": 4980,
      "▁gecerken": 4981,
      "▁anlıslanabilirlik": 4982,
      "▁yont": 4983,
      "▁gorunce": 4984,
      "▁baslangıc": 4985,
      "▁benden": 4986,
      "eceklerini": 4987,
      "▁aki": 4988,
      "▁v": 4989,
      "▁nihai": 4990,
      "▁kullanılacak": 4991,
      "▁kavg": 4992,
      "▁kuruldu": 4993,
      "▁ii": 4994,
      "▁post": 4995,
      "▁diken": 4996,
      "▁mesajı": 4997,
      "▁ark": 4998,
      "amıyor": 4999,
      "▁baktıg": 5000,
      "▁zab": 5001,
      "azım": 5002,
      "▁%3": 5003,
      "▁kendilerine": 5004,
      "adem": 5005,
      "▁faktor": 5006,
      "▁duzine": 5007,
      "▁agb": 5008,
      "▁kurdugu": 5009,
      "▁saun": 5010,
      "▁8.98": 5011,
      "▁1967": 5012,
      "▁gold": 5013,
      "▁gok": 5014,
      "eyt": 5015,
      "ise": 5016,
      "▁yeryuzunde": 5017,
      "goz": 5018,
      "▁eli": 5019,
      "▁ondan": 5020,
      "le": 5021,
      "▁alamaz": 5022,
      "▁yıg": 5023,
      "▁dama": 5024,
      "▁almanya": 5025,
      "▁kalp": 5026,
      "hal": 5027,
      "▁dibinde": 5028,
      "▁dumanı": 5029,
      "mil": 5030,
      "▁karabiber": 5031,
      "▁yerlerini": 5032,
      "oyla": 5033,
      "▁odada": 5034,
      "▁sınır": 5035,
      "▁gormus": 5036,
      "▁mı": 5037,
      "▁geyik": 5038,
      "▁enf": 5039,
      "bek": 5040,
      "▁urper": 5041,
      "▁sustu": 5042,
      "▁patır": 5043,
      "▁getirdigi": 5044,
      "▁1.835": 5045,
      "▁hindistan'ın": 5046,
      "▁edecektir": 5047,
      "ılması": 5048,
      "tia": 5049,
      "▁1994": 5050,
      "▁bilmiyoruz": 5051,
      "lendirmek": 5052,
      "▁bi": 5053,
      "▁hakan": 5054,
      "▁isletme": 5055,
      "ısıyla": 5056,
      "▁1.7": 5057,
      "▁hala": 5058,
      "▁9.7": 5059,
      "▁isine": 5060,
      "▁miktarda": 5061,
      "▁yatırımı": 5062,
      "hard": 5063,
      "▁keyf": 5064,
      "isan": 5065,
      "▁di": 5066,
      "▁cocuga": 5067,
      "▁dolastır": 5068,
      "gar": 5069,
      "▁karasu": 5070,
      "▁yucel": 5071,
      "▁say": 5072,
      "▁ucsuz": 5073,
      "▁35587.85": 5074,
      "iyo": 5075,
      "▁2662.91": 5076,
      "▁24": 5077,
      "▁getiriyor": 5078,
      "mıyoruz": 5079,
      "ladıgını": 5080,
      "emeyecegim": 5081,
      "sinin": 5082,
      "▁harcama": 5083,
      "▁mos": 5084,
      "0'da": 5085,
      "▁gerceklesen": 5086,
      "▁lu": 5087,
      "▁tren": 5088,
      "malıdır": 5089,
      "▁oyun": 5090,
      "▁bilmek": 5091,
      "▁farklı": 5092,
      "▁olmadı": 5093,
      "▁dikkate": 5094,
      "▁iyimser": 5095,
      "lı": 5096,
      "▁argum": 5097,
      "▁kay": 5098,
      "▁sezonu": 5099,
      "▁bagr": 5100,
      "▁eserler": 5101,
      "▁dısarı": 5102,
      "▁oluyorlar": 5103,
      "▁yan": 5104,
      "▁balık": 5105,
      "▁gogs": 5106,
      "▁cektim": 5107,
      "▁kıyas": 5108,
      "k": 5109,
      "▁host": 5110,
      "▁gecirdik": 5111,
      "▁sez": 5112,
      "▁gelsin": 5113,
      "▁basmak": 5114,
      "▁ayrılıp": 5115,
      "▁ille": 5116,
      "ard": 5117,
      "ent": 5118,
      "▁senedir": 5119,
      "▁saldırı": 5120,
      "usa": 5121,
      "▁mavi": 5122,
      "▁cıkarmıs": 5123,
      "ay": 5124,
      "▁gelecekteki": 5125,
      "▁9.88": 5126,
      "enmis": 5127,
      "▁atılmıs": 5128,
      "▁sahis": 5129,
      "▁dolastı": 5130,
      "▁225": 5131,
      "▁kisiden": 5132,
      "▁yılından": 5133,
      "efendi": 5134,
      "▁ogle": 5135,
      "menler": 5136,
      "ildigi": 5137,
      "ize": 5138,
      "▁erdi": 5139,
      "▁yatırımcının": 5140,
      "▁sapka": 5141,
      "▁si": 5142,
      "▁abc": 5143,
      "▁mecmu": 5144,
      "▁thomas": 5145,
      "▁ekonominin": 5146,
      "itte": 5147,
      "▁rahatsız": 5148,
      "▁gitmedi": 5149,
      "▁kambiyo": 5150,
      "▁cıplak": 5151,
      "▁coc": 5152,
      "▁oakland": 5153,
      "▁ekip": 5154,
      "har": 5155,
      "▁yetkili": 5156,
      "▁bildik": 5157,
      "▁uyum": 5158,
      "▁anlatmak": 5159,
      "▁haps": 5160,
      "▁okulda": 5161,
      "▁besyuzelli": 5162,
      "▁ydık": 5163,
      "▁ydınız": 5164,
      "▁niyetinde": 5165,
      "leer": 5166,
      "▁erdogan'ın": 5167,
      "▁ol": 5168,
      "▁konut": 5169,
      "▁burnun": 5170,
      "olik": 5171,
      "▁hesaba": 5172,
      "▁girmek": 5173,
      "▁kiralık": 5174,
      "muyor": 5175,
      "▁havaya": 5176,
      "▁sıkıl": 5177,
      "▁em": 5178,
      "▁california'ya": 5179,
      "▁sekiz": 5180,
      "▁felsefe": 5181,
      "lardir": 5182,
      "▁muamele": 5183,
      "atını": 5184,
      "▁kapladı": 5185,
      "▁genclik": 5186,
      "iye": 5187,
      "▁yenilg": 5188,
      "▁arttı": 5189,
      "▁dokuz": 5190,
      "▁kimisi": 5191,
      "▁aktiviteler": 5192,
      "▁borsası'nda": 5193,
      "▁ozen": 5194,
      "gil": 5195,
      "▁gelisi": 5196,
      "▁geril": 5197,
      "▁saglık": 5198,
      "▁ortaya": 5199,
      "aba": 5200,
      "luga": 5201,
      "▁ataturk": 5202,
      "▁orgu": 5203,
      "▁harıl": 5204,
      "▁yt": 5205,
      "▁serhat": 5206,
      "kaz": 5207,
      "▁yasin": 5208,
      "▁kullandıkları": 5209,
      "▁2.1": 5210,
      "▁52.75": 5211,
      "u": 5212,
      "▁yapalım": 5213,
      "▁7.2": 5214,
      "beri": 5215,
      "yayı": 5216,
      "▁gitti": 5217,
      "h": 5218,
      "oma": 5219,
      "'nde": 5220,
      "lanıp": 5221,
      "▁kurek": 5222,
      "ahir": 5223,
      "vik": 5224,
      "▁olduguna": 5225,
      "▁rica": 5226,
      "▁firmaları": 5227,
      "▁dille": 5228,
      "▁hicbirinin": 5229,
      "▁dolasıyor": 5230,
      "▁sebeb": 5231,
      "▁istemez": 5232,
      "▁uzakta": 5233,
      "▁harik": 5234,
      "▁959.3": 5235,
      "▁ettik": 5236,
      "▁umit": 5237,
      "▁uy": 5238,
      "▁sevdigim": 5239,
      "▁balk": 5240,
      "▁kafasına": 5241,
      "▁gecerek": 5242,
      "▁ergen": 5243,
      "▁kemal'in": 5244,
      "▁ondokuz": 5245,
      "▁yel": 5246,
      "▁okumak": 5247,
      "lıgını": 5248,
      "▁1995'te": 5249,
      "▁baykal": 5250,
      "▁gununde": 5251,
      "emical": 5252,
      "▁kotu": 5253,
      "▁canak": 5254,
      "▁suy": 5255,
      "▁camur": 5256,
      "▁bekledi": 5257,
      "▁teknede": 5258,
      "▁guclendir": 5259,
      "▁fig": 5260,
      "oj": 5261,
      "▁baglilik": 5262,
      "▁arada": 5263,
      "▁or": 5264,
      ".8": 5265,
      "▁armut": 5266,
      "▁razı": 5267,
      "▁kag": 5268,
      "▁buro": 5269,
      "▁dul": 5270,
      "▁kızının": 5271,
      "▁teker": 5272,
      "▁marj": 5273,
      "▁kacın": 5274,
      "▁yavasca": 5275,
      "▁09:": 5276,
      "▁x": 5277,
      "xte": 5278,
      "▁kanaat": 5279,
      "▁kredileri": 5280,
      "▁dalar": 5281,
      "▁ailelere": 5282,
      "▁elli": 5283,
      "demir": 5284,
      "▁temizliginden": 5285,
      "ig": 5286,
      "▁calısmaları": 5287,
      "ald": 5288,
      "▁h": 5289,
      "▁olmayan": 5290,
      "▁evren": 5291,
      "▁fiyatını": 5292,
      "oglan": 5293,
      "enek": 5294,
      "▁ala": 5295,
      "▁sahipleri": 5296,
      "▁164830000": 5297,
      "▁etki": 5298,
      "▁bono": 5299,
      "▁fas": 5300,
      "▁kongr": 5301,
      "▁tarihte": 5302,
      "▁tıbbi": 5303,
      "ıcık": 5304,
      "emize": 5305,
      "▁mutem": 5306,
      "▁acem": 5307,
      "▁acisindan": 5308,
      "▁bacak": 5309,
      "lası": 5310,
      "▁belcika": 5311,
      "du": 5312,
      "ugun": 5313,
      "▁sahn": 5314,
      "▁islemlerde": 5315,
      "▁etkileyici": 5316,
      "▁kızlar": 5317,
      "▁hug": 5318,
      "osyon": 5319,
      "▁kala": 5320,
      "▁12'den": 5321,
      "sch": 5322,
      "▁matba": 5323,
      "lul": 5324,
      "▁huzur": 5325,
      "▁oteden": 5326,
      "▁yasıyoruz": 5327,
      "▁terbiye": 5328,
      "▁gelmez": 5329,
      "▁kaybederek": 5330,
      "▁250000": 5331,
      "▁degerlendirme": 5332,
      "▁12.6": 5333,
      "▁mixte": 5334,
      "▁idi": 5335,
      "▁avcı": 5336,
      "za": 5337,
      "nala": 5338,
      "onu": 5339,
      "▁iscileri": 5340,
      "dah": 5341,
      "dadı": 5342,
      "▁cocuklarına": 5343,
      "mislerdi": 5344,
      "▁belinde": 5345,
      "▁cirkin": 5346,
      "▁ders": 5347,
      "▁kisilik": 5348,
      "acagından": 5349,
      "▁banyosu": 5350,
      "▁etmeden": 5351,
      "▁acmaz": 5352,
      "▁dosy": 5353,
      "▁nesil": 5354,
      "▁devre": 5355,
      "▁cogunlugu": 5356,
      "▁murekk": 5357,
      "▁rıhtım": 5358,
      "▁teslim": 5359,
      "▁9.75": 5360,
      "▁savundu": 5361,
      "▁odası": 5362,
      "uzel": 5363,
      "▁a.m": 5364,
      ",000": 5365,
      "'nu": 5366,
      "▁kontrol": 5367,
      "▁bush": 5368,
      "▁esir": 5369,
      "▁kapasitesi": 5370,
      "▁sureli": 5371,
      "▁satısını": 5372,
      "▁toplumsal": 5373,
      "▁semsiye": 5374,
      "▁65": 5375,
      "▁okurken": 5376,
      "▁rjr": 5377,
      "▁herkes": 5378,
      "▁215": 5379,
      "▁meseleyi": 5380,
      "anların": 5381,
      "▁dogdu": 5382,
      "▁anad": 5383,
      "▁talebi": 5384,
      "▁ev": 5385,
      "▁siv": 5386,
      "▁ifade": 5387,
      "▁duy": 5388,
      "lav": 5389,
      "▁may": 5390,
      "▁oyleyse": 5391,
      "▁lut": 5392,
      "▁uzerinde": 5393,
      "▁yapılanma": 5394,
      "▁yuk": 5395,
      "▁269": 5396,
      "ger": 5397,
      "▁muz": 5398,
      "▁kurulusu": 5399,
      "▁(": 5400,
      "▁musta": 5401,
      "▁edilecek": 5402,
      "▁milliyetci": 5403,
      "▁olan": 5404,
      "▁1": 5405,
      "'ten": 5406,
      "▁randev": 5407,
      "▁gurultu": 5408,
      "▁yo": 5409,
      "umun": 5410,
      "▁tenha": 5411,
      "▁solda": 5412,
      "eder": 5413,
      "▁kasvet": 5414,
      "▁konuma": 5415,
      "▁univ": 5416,
      "▁nih": 5417,
      "▁sorum": 5418,
      "▁karsılık": 5419,
      "▁dusuk": 5420,
      "lisi": 5421,
      "imis": 5422,
      "▁ucyuzyetmis": 5423,
      "▁birisi": 5424,
      "▁kaya": 5425,
      "▁kusları": 5426,
      "▁odeyecek": 5427,
      "▁karıs": 5428,
      "▁padisah": 5429,
      "▁sogut": 5430,
      "▁suları": 5431,
      "▁izleri": 5432,
      "▁dusunmus": 5433,
      "▁durdum": 5434,
      "▁kazanıyor": 5435,
      "▁day": 5436,
      "▁oturur": 5437,
      "▁kuk": 5438,
      "▁hayalet": 5439,
      "f": 5440,
      "▁gosteren": 5441,
      "▁arizona": 5442,
      "▁keten": 5443,
      "▁1.90": 5444,
      "▁vaktim": 5445,
      "▁hizmetlerinden": 5446,
      "▁komun": 5447,
      "▁sevdigi": 5448,
      "▁listeleyin": 5449,
      "▁kucucuk": 5450,
      "▁kabul": 5451,
      "▁yasındaki": 5452,
      "▁finansal": 5453,
      "▁uzakti": 5454,
      "▁yili": 5455,
      "▁ogretmeni": 5456,
      "rik": 5457,
      "▁israil": 5458,
      "835": 5459,
      "▁sulu": 5460,
      "▁vız": 5461,
      "▁saatini": 5462,
      "sine": 5463,
      "▁kalmadim": 5464,
      "▁beach": 5465,
      "▁seviyesinden": 5466,
      "▁asırı": 5467,
      "▁rob": 5468,
      "▁pap": 5469,
      "▁zinc": 5470,
      "▁kodu": 5471,
      "▁kredilere": 5472,
      "▁kaldıgını": 5473,
      "enk": 5474,
      "▁safh": 5475,
      "▁yoktur": 5476,
      "▁cemal": 5477,
      "imizde": 5478,
      "▁william": 5479,
      "▁1.39": 5480,
      "▁okum": 5481,
      "bal": 5482,
      "▁yanlı": 5483,
      "▁tir": 5484,
      "edecek": 5485,
      "▁pros": 5486,
      "▁anlasmayı": 5487,
      "▁bircogu": 5488,
      "▁temizlikte": 5489,
      "▁od": 5490,
      "▁koydugu": 5491,
      "landı": 5492,
      "acaklarını": 5493,
      "▁tor": 5494,
      "atlı": 5495,
      "▁odayı": 5496,
      "▁urunler": 5497,
      "ayan": 5498,
      "▁geriye": 5499,
      "'luk": 5500,
      "▁inc.'in": 5501,
      "lay": 5502,
      "dil": 5503,
      "dt": 5504,
      "▁savcılar": 5505,
      "▁cezalandır": 5506,
      "▁kavga": 5507,
      "▁kızar": 5508,
      "▁dez": 5509,
      "▁ilk": 5510,
      "uar": 5511,
      "▁masayı": 5512,
      "igi": 5513,
      "▁tadima": 5514,
      "▁hasarı": 5515,
      "▁mevs": 5516,
      "▁mahm": 5517,
      "▁meshur": 5518,
      "▁kaldırma": 5519,
      "▁2023": 5520,
      "▁teyz": 5521,
      "▁verici": 5522,
      "▁ihtiyacım": 5523,
      "▁dugun": 5524,
      "▁..": 5525,
      "▁anlatan": 5526,
      "▁yumur": 5527,
      "▁klim": 5528,
      "▁anlamda": 5529,
      "▁erken": 5530,
      "▁cekiyordu": 5531,
      "▁mccaw": 5532,
      "▁459": 5533,
      "▁kullanıyor": 5534,
      "▁manev": 5535,
      "▁yapmakta": 5536,
      "▁wcr": 5537,
      "oks": 5538,
      "▁dai": 5539,
      "▁gec": 5540,
      "▁tasımacılıgı": 5541,
      "▁duyuyordu": 5542,
      "▁yarı": 5543,
      "▁kompleks": 5544,
      "▁hangisine": 5545,
      "▁yeri": 5546,
      "rum": 5547,
      "▁gerektir": 5548,
      "alama": 5549,
      "▁sorunlarının": 5550,
      "▁daral": 5551,
      "intex": 5552,
      "▁gobek": 5553,
      "indan": 5554,
      "▁boynunda": 5555,
      "▁farkında": 5556,
      "iskin": 5557,
      "▁delta'nın": 5558,
      "▁etsin": 5559,
      "▁birim": 5560,
      "▁kub": 5561,
      "sen": 5562,
      "▁tapın": 5563,
      "tıklarını": 5564,
      "ya": 5565,
      "▁asılmıs": 5566,
      "▁fikirleri": 5567,
      "▁91": 5568,
      "▁onların": 5569,
      "▁2.000": 5570,
      "▁2683.20": 5571,
      "▁karadag": 5572,
      "▁1976": 5573,
      "▁indi": 5574,
      "ıldıgını": 5575,
      "▁10.3": 5576,
      "▁329": 5577,
      "isler": 5578,
      "▁tasf": 5579,
      "▁yuzde": 5580,
      "▁etmektedir": 5581,
      "▁kaldırılması": 5582,
      "▁durup": 5583,
      "▁atlat": 5584,
      "▁avustralya": 5585,
      "▁kredi": 5586,
      "▁buldum": 5587,
      "▁aks": 5588,
      "ill": 5589,
      "▁tanrı": 5590,
      "▁aldat": 5591,
      "▁kopmus": 5592,
      "▁edilmis": 5593,
      "altı": 5594,
      "▁agzını": 5595,
      "▁isra": 5596,
      "▁274": 5597,
      "▁yerlerden": 5598,
      "▁zul": 5599,
      "▁kamuoy": 5600,
      "▁yeterliydi": 5601,
      "▁ste": 5602,
      "▁hakediyor": 5603,
      "▁yapmadı": 5604,
      "▁bildigi": 5605,
      "▁geregi": 5606,
      "▁1980": 5607,
      "▁gelistirme": 5608,
      "▁havayollarında": 5609,
      "▁sokagı": 5610,
      "▁personelleri": 5611,
      "radı": 5612,
      "▁kalacak": 5613,
      "▁gelecekte": 5614,
      "▁seattle'den": 5615,
      "▁alakasi": 5616,
      "0.4": 5617,
      "▁asa": 5618,
      "▁sears": 5619,
      "▁faaliyetinde": 5620,
      "▁soba": 5621,
      "ke": 5622,
      "▁406": 5623,
      "▁anasının": 5624,
      "▁inerek": 5625,
      "▁giz": 5626,
      "ugh": 5627,
      "anet": 5628,
      "▁koyuldu": 5629,
      "▁1\\/4": 5630,
      "▁onume": 5631,
      "manın": 5632,
      "uf": 5633,
      "▁dususle": 5634,
      "▁'dir": 5635,
      "▁esi": 5636,
      "▁haklı": 5637,
      "▁mekaniz": 5638,
      "▁busbut": 5639,
      "▁sıc": 5640,
      "▁8": 5641,
      "▁%25": 5642,
      "▁simdilik": 5643,
      "▁iptal": 5644,
      "ınar": 5645,
      "▁okuma": 5646,
      "abet": 5647,
      "ackard": 5648,
      "▁turunu": 5649,
      "▁40.1": 5650,
      "zer": 5651,
      "▁key": 5652,
      "▁yavru": 5653,
      "▁bitince": 5654,
      "▁evimizde": 5655,
      "▁mir": 5656,
      "▁0.9": 5657,
      "▁yollardan": 5658,
      "▁18.7": 5659,
      "▁ettiginde": 5660,
      "▁850": 5661,
      "▁karam": 5662,
      "▁kacta": 5663,
      "▁yahudi": 5664,
      "▁gezdim": 5665,
      "▁deneme": 5666,
      "▁gri": 5667,
      "▁alım-sat": 5668,
      "▁samimiyet": 5669,
      "▁veriyorlar": 5670,
      "▁gay": 5671,
      "▁ucunda": 5672,
      "et": 5673,
      "▁otuzbes": 5674,
      "enn": 5675,
      "▁kayde": 5676,
      "▁yar": 5677,
      "▁acabilir": 5678,
      "▁umut": 5679,
      "ational": 5680,
      "▁renk": 5681,
      "▁cevre": 5682,
      "▁mahkemesinde": 5683,
      "▁varmak": 5684,
      "ıs": 5685,
      "▁omz": 5686,
      "▁latin": 5687,
      "lukla": 5688,
      "▁so": 5689,
      "▁hewlett-packard": 5690,
      "mayan": 5691,
      "▁suya": 5692,
      "▁esk": 5693,
      "ledigi": 5694,
      "▁titiz": 5695,
      "▁uzmanlar": 5696,
      "▁38.50": 5697,
      "diginiz": 5698,
      "▁sub": 5699,
      "▁sınav": 5700,
      "▁dusmeye": 5701,
      "▁parayla": 5702,
      "▁dudakları": 5703,
      "▁long": 5704,
      "▁degildir": 5705,
      "ye": 5706,
      "▁inis": 5707,
      "arında": 5708,
      "▁gunluk": 5709,
      "▁168": 5710,
      "▁icimden": 5711,
      "▁haykır": 5712,
      "agında": 5713,
      "▁1.27": 5714,
      "▁9.8": 5715,
      "▁doları'nda": 5716,
      "veland": 5717,
      "▁cıkıp": 5718,
      "▁holding": 5719,
      "▁attılar": 5720,
      "▁karıstı": 5721,
      "▁olay": 5722,
      "uklu": 5723,
      "▁hijyenik": 5724,
      "▁avrup": 5725,
      "▁yız": 5726,
      "ftadır": 5727,
      "▁1.72": 5728,
      "▁cocuklugum": 5729,
      "▁bodrum": 5730,
      "adan": 5731,
      "▁beklentimin": 5732,
      "▁jr.": 5733,
      "▁faaliyet": 5734,
      "▁kazanır": 5735,
      "▁olabilecek": 5736,
      "▁sonlarında": 5737,
      "▁kapıdan": 5738,
      "dog": 5739,
      "▁sonraki": 5740,
      "rill": 5741,
      "▁oks": 5742,
      "▁cakmak": 5743,
      "6'dan": 5744,
      "▁atılan": 5745,
      "▁bakıyorum": 5746,
      "▁elimizde": 5747,
      "▁dengesiz": 5748,
      "dagı": 5749,
      "▁konya": 5750,
      "▁rap": 5751,
      "▁gelisim": 5752,
      "ilmek": 5753,
      "▁carpan": 5754,
      "acagını": 5755,
      "meni": 5756,
      "▁islemi": 5757,
      "gul": 5758,
      "▁kata": 5759,
      "aliydi": 5760,
      ".70": 5761,
      "▁lokma": 5762,
      "▁ilkokul": 5763,
      "▁katrilyon": 5764,
      "▁kokain": 5765,
      "▁boyun": 5766,
      "▁baba": 5767,
      "umus": 5768,
      "'unun": 5769,
      "▁algılan": 5770,
      "▁biridir": 5771,
      ".2": 5772,
      "▁eki": 5773,
      "▁ırk": 5774,
      "▁bunu": 5775,
      "▁incelem": 5776,
      "▁iri": 5777,
      "▁tamam": 5778,
      "▁maydanoz": 5779,
      "▁26.1": 5780,
      "▁inadına": 5781,
      "▁mevsimsel": 5782,
      "suzluk": 5783,
      "▁tah": 5784,
      "▁servis": 5785,
      "▁takım": 5786,
      "▁sayın": 5787,
      "▁anlas": 5788,
      "▁degisimi": 5789,
      "▁kına": 5790,
      "lerin": 5791,
      "hane": 5792,
      "▁birilerini": 5793,
      ".90": 5794,
      "▁giriste": 5795,
      "▁olmaya": 5796,
      "▁dairesine": 5797,
      "▁dusunmek": 5798,
      "▁tarihli": 5799,
      "▁muhabbet": 5800,
      "▁calisanlari": 5801,
      "agan": 5802,
      "dukca": 5803,
      "▁pudra": 5804,
      "▁de": 5805,
      "▁bindokuzyuzotuz": 5806,
      "▁530": 5807,
      "ic": 5808,
      "▁kentin": 5809,
      "▁rolu": 5810,
      "▁bora": 5811,
      "▁pc": 5812,
      "▁mesru": 5813,
      "▁uretiyor": 5814,
      "▁times": 5815,
      "▁meg": 5816,
      "▁kalırdı": 5817,
      "3.9": 5818,
      "egin": 5819,
      "baz": 5820,
      "▁bar": 5821,
      "▁egri": 5822,
      "▁egilimi": 5823,
      "▁durur": 5824,
      "▁baslat": 5825,
      "mediler": 5826,
      "▁muy": 5827,
      "▁raporlar": 5828,
      "ilere": 5829,
      "▁ailenin": 5830,
      "ydin": 5831,
      "▁yorgun": 5832,
      "▁hayatta": 5833,
      "▁agzına": 5834,
      "▁isv": 5835,
      "▁ata": 5836,
      "▁204": 5837,
      "▁guzelligi": 5838,
      "les": 5839,
      "▁bolum": 5840,
      "▁gitmeyi": 5841,
      "izi": 5842,
      "▁'lı": 5843,
      "kla": 5844,
      "▁etmedim": 5845,
      "tre": 5846,
      "▁fev": 5847,
      "▁flori": 5848,
      "▁bos": 5849,
      "▁vermey": 5850,
      "▁dongu": 5851,
      "▁281": 5852,
      "lagı": 5853,
      "▁anlatım": 5854,
      "▁brown": 5855,
      "▁hıristiy": 5856,
      "▁353": 5857,
      "duktan": 5858,
      "oeni": 5859,
      "▁yapılacak": 5860,
      "▁mısın": 5861,
      "pıs": 5862,
      "▁imtiyaz": 5863,
      "▁yayılıyor": 5864,
      "▁saglıklı": 5865,
      "▁haberin": 5866,
      "▁mizah": 5867,
      "▁hazırladı": 5868,
      "dıgım": 5869,
      "▁imkanı": 5870,
      "▁-": 5871,
      "lesme": 5872,
      "▁istiyordu": 5873,
      "▁goze": 5874,
      "▁dusunur": 5875,
      "z": 5876,
      "▁giy": 5877,
      "8'e": 5878,
      "▁hanim": 5879,
      "kanın": 5880,
      "▁149": 5881,
      "▁karısık": 5882,
      "▁acıklaması": 5883,
      "▁pus": 5884,
      "▁ecekti": 5885,
      "▁union": 5886,
      "▁yarına": 5887,
      "cik": 5888,
      "▁yet": 5889,
      "▁altern": 5890,
      "▁bayr": 5891,
      "▁acmak": 5892,
      "▁yanından": 5893,
      "▁oneririm": 5894,
      "e'de": 5895,
      "▁celebi": 5896,
      "▁sene": 5897,
      "irmis": 5898,
      "▁yapildi": 5899,
      "▁12.5": 5900,
      "ullah": 5901,
      "▁washington": 5902,
      "▁145.45": 5903,
      "▁seyir": 5904,
      "▁kıskır": 5905,
      "▁misin": 5906,
      "▁ın": 5907,
      "▁sehri": 5908,
      "alandır": 5909,
      "elerin": 5910,
      "veren": 5911,
      "90": 5912,
      "▁birbirlerinden": 5913,
      "▁nufuz": 5914,
      "▁yegane": 5915,
      "▁yudum": 5916,
      "▁sci": 5917,
      "▁degerli": 5918,
      "elerim": 5919,
      "ii": 5920,
      "▁vasıt": 5921,
      "▁biliyor": 5922,
      "subishi": 5923,
      "▁birimleri": 5924,
      "▁acma": 5925,
      "▁seh": 5926,
      "▁yasında": 5927,
      "ai": 5928,
      "▁duruyor": 5929,
      "▁rev": 5930,
      "▁gectigini": 5931,
      "▁amir": 5932,
      "▁duruma": 5933,
      "▁buy": 5934,
      "▁mel": 5935,
      "▁tahk": 5936,
      "▁yavrum": 5937,
      "layarak": 5938,
      "▁lak": 5939,
      "emeyecegini": 5940,
      "▁iktis": 5941,
      "▁benziyordu": 5942,
      "3.5": 5943,
      "▁yana": 5944,
      "▁okumus": 5945,
      "▁personeline": 5946,
      "▁kısa": 5947,
      "▁esvap": 5948,
      "▁piyasası": 5949,
      "▁gelecegini": 5950,
      "▁him": 5951,
      "▁dantel": 5952,
      "▁sonradan": 5953,
      "▁suna": 5954,
      "▁366": 5955,
      "▁duruyordu": 5956,
      "▁ut": 5957,
      "tak": 5958,
      "▁beklentiler": 5959,
      "▁yiyeceklerin": 5960,
      "▁acakt": 5961,
      "▁katolik": 5962,
      "▁yonetim": 5963,
      "▁bus": 5964,
      "ecekler": 5965,
      "▁gelmek": 5966,
      "var": 5967,
      "▁devlet": 5968,
      "▁carpık": 5969,
      "▁.": 5970,
      "▁yollar": 5971,
      ".1": 5972,
      "ladıkları": 5973,
      "▁icermektedir": 5974,
      "▁meb": 5975,
      "▁planını": 5976,
      "alan": 5977,
      "eliydi": 5978,
      "▁soyleyebilir": 5979,
      "▁hedefleri": 5980,
      "▁kaydetti": 5981,
      "▁lanet": 5982,
      "▁kanser": 5983,
      ".45": 5984,
      "▁kalkacak": 5985,
      "▁dedigimiz": 5986,
      "▁1.36": 5987,
      "▁ayık": 5988,
      "▁rakamları": 5989,
      "▁dogrusu": 5990,
      "▁ılık": 5991,
      "▁medya": 5992,
      "▁bilincli": 5993,
      "▁begendim": 5994,
      "▁osman": 5995,
      "▁versin": 5996,
      "asa": 5997,
      "▁rend": 5998,
      "▁sureci": 5999,
      "▁ku": 6000,
      "landır": 6001,
      "azz": 6002,
      "aguar": 6003,
      "▁havada": 6004,
      "histi": 6005,
      "s.": 6006,
      "▁dans": 6007,
      "▁olurdum": 6008,
      "▁montreal'dan": 6009,
      "▁klor": 6010,
      "▁ugra": 6011,
      "ort": 6012,
      "▁gosterin": 6013,
      "▁musteri": 6014,
      "▁kitapları": 6015,
      "lamasını": 6016,
      "▁sup": 6017,
      "▁kara": 6018,
      "▁payı": 6019,
      "▁1.08": 6020,
      "▁gozunun": 6021,
      "▁ederek": 6022,
      "▁york'ta": 6023,
      "orth": 6024,
      "▁davasının": 6025,
      "▁icindir": 6026,
      "▁sirketidir": 6027,
      "▁%80": 6028,
      "▁buranın": 6029,
      "▁sayesinde": 6030,
      "▁tev": 6031,
      "umuzun": 6032,
      "▁yla": 6033,
      "▁kırlangıc": 6034,
      "▁oldular": 6035,
      "▁silah": 6036,
      "▁bilmiyor": 6037,
      "▁satıcılar": 6038,
      "▁toront": 6039,
      "▁harman": 6040,
      "▁62": 6041,
      "ates": 6042,
      "▁sekreter": 6043,
      "ısal": 6044,
      "ecik": 6045,
      "▁duskun": 6046,
      "▁hukumete": 6047,
      "▁tehdidi": 6048,
      "▁senetlerine": 6049,
      "▁ucuslarının": 6050,
      "▁huzun": 6051,
      "hos": 6052,
      "▁ayından": 6053,
      "▁1.6145": 6054,
      "▁yaparak": 6055,
      "▁esyaları": 6056,
      "▁maddeler": 6057,
      "▁dum": 6058,
      "▁spot": 6059,
      "▁sarıldı": 6060,
      "l'ın": 6061,
      "▁adım": 6062,
      "▁goreceksin": 6063,
      "co": 6064,
      "▁3.13": 6065,
      "▁kalmaz": 6066,
      "▁zaman": 6067,
      "▁seviyesinde": 6068,
      "▁sıvı": 6069,
      "▁ydım": 6070,
      "▁cozumu": 6071,
      "▁koyan": 6072,
      "▁baslay": 6073,
      "w": 6074,
      "▁kardes": 6075,
      "memeye": 6076,
      "▁golu": 6077,
      "▁muhtemelen": 6078,
      "ars": 6079,
      "▁1.75": 6080,
      "igine": 6081,
      "ladık": 6082,
      "▁agaclar": 6083,
      "▁boyunca": 6084,
      "▁sponsor": 6085,
      "▁dan": 6086,
      "dılar": 6087,
      "ıver": 6088,
      "aleti": 6089,
      "ikten": 6090,
      "▁lezizdi": 6091,
      "▁parti": 6092,
      "ayarak": 6093,
      "▁herkese": 6094,
      "▁sallan": 6095,
      "▁meden": 6096,
      "▁seyh": 6097,
      "▁ulusal": 6098,
      "▁dusuruyor": 6099,
      "▁gelenek": 6100,
      "▁esp": 6101,
      "▁1.5": 6102,
      "▁gitmem": 6103,
      "▁sosyal": 6104,
      ".31": 6105,
      "elerdir": 6106,
      "▁ha": 6107,
      "kik": 6108,
      "▁39.55": 6109,
      "▁hukumdar": 6110,
      "00000": 6111,
      "tain": 6112,
      "▁esnada": 6113,
      "▁gorevlerini": 6114,
      "abiliyor": 6115,
      "▁8.75": 6116,
      "▁neyi": 6117,
      "sul": 6118,
      "▁maalesef": 6119,
      "▁dusur": 6120,
      "▁digeri": 6121,
      "lasarak": 6122,
      "▁temas": 6123,
      "▁yurtdi": 6124,
      "▁begenmedik": 6125,
      "▁3.": 6126,
      "▁bedav": 6127,
      "▁bircogunu": 6128,
      "pus": 6129,
      "▁kendilerinin": 6130,
      "'teki": 6131,
      "cag": 6132,
      "lanta": 6133,
      "▁mad": 6134,
      "ginin": 6135,
      "▁bizlerin": 6136,
      "▁sakın": 6137,
      "▁yone": 6138,
      "▁inerken": 6139,
      "▁cıktıgını": 6140,
      "▁cıkma": 6141,
      "asının": 6142,
      "▁sonsuz": 6143,
      "▁ayır": 6144,
      "▁elimde": 6145,
      "liler": 6146,
      "▁dusundum": 6147,
      "▁yaklas": 6148,
      "▁aracı": 6149,
      "▁kendisine": 6150,
      "▁kimseyle": 6151,
      "▁alanları": 6152,
      "ima": 6153,
      "con": 6154,
      "ektif": 6155,
      "▁yumru": 6156,
      "lamak": 6157,
      "ıc": 6158,
      "onez": 6159,
      "▁hersey": 6160,
      "lanabilir": 6161,
      "lıyorum": 6162,
      "anla": 6163,
      "▁direnis": 6164,
      "ek": 6165,
      "▁ederim": 6166,
      "▁deme": 6167,
      "▁secim": 6168,
      "▁ed": 6169,
      "▁kilit": 6170,
      "▁oyunu": 6171,
      "▁ogrenc": 6172,
      "▁secime": 6173,
      "uyorlar": 6174,
      "▁fit": 6175,
      "▁pl": 6176,
      "▁katında": 6177,
      "▁cog": 6178,
      "▁tehlikeli": 6179,
      "maktadırlar": 6180,
      "▁endise": 6181,
      "▁alıyordu": 6182,
      "dası": 6183,
      "form": 6184,
      "3.4": 6185,
      "3'te": 6186,
      "6.7": 6187,
      "artmanı": 6188,
      "mezse": 6189,
      "dev": 6190,
      "▁yır": 6191,
      "▁otede": 6192,
      "▁somut": 6193,
      "▁1900": 6194,
      "▁geldikleri": 6195,
      "rir": 6196,
      "▁1.300": 6197,
      "▁degildim": 6198,
      "istan'da": 6199,
      "ırım": 6200,
      "▁sansı": 6201,
      "▁kurut": 6202,
      "▁herhan": 6203,
      ".63": 6204,
      "▁dug": 6205,
      "▁petersburg": 6206,
      "▁coban": 6207,
      "▁sıy": 6208,
      "▁ustunu": 6209,
      "▁edersin": 6210,
      "▁hızla": 6211,
      "▁britan": 6212,
      "▁pınar": 6213,
      "▁uyuy": 6214,
      "▁elini": 6215,
      "lanması": 6216,
      "▁entar": 6217,
      "▁bilinen": 6218,
      "▁alacak": 6219,
      "▁gorsel": 6220,
      "▁satıs": 6221,
      "▁senaryo": 6222,
      "▁alt": 6223,
      "▁tukur": 6224,
      "▁bany": 6225,
      "▁etmisti": 6226,
      "▁degerini": 6227,
      "▁belir": 6228,
      "amiza": 6229,
      "▁ciftci": 6230,
      "ların": 6231,
      "▁yurtdı": 6232,
      "isik": 6233,
      "▁fu": 6234,
      "▁yanar": 6235,
      "▁1'den": 6236,
      "▁58": 6237,
      "▁yuku": 6238,
      "▁sasırt": 6239,
      "▁sinem": 6240,
      "▁burbank": 6241,
      "▁cesidi": 6242,
      "▁faturam": 6243,
      "▁dah": 6244,
      "▁sorusturma": 6245,
      "▁kararın": 6246,
      "▁neler": 6247,
      "▁yatırımcılar": 6248,
      "▁wang": 6249,
      "ned": 6250,
      "ımız": 6251,
      "▁incel": 6252,
      "▁600": 6253,
      "▁kaydeden": 6254,
      "▁issiz": 6255,
      "▁dalgaliydi": 6256,
      "▁rahat": 6257,
      "▁ipotege": 6258,
      "▁yuzlulerdi": 6259,
      "▁beach'tan": 6260,
      "▁yıl": 6261,
      "▁attıgı": 6262,
      "▁verirdi": 6263,
      "mısım": 6264,
      "▁romantik": 6265,
      "▁gelin": 6266,
      "▁genellikle": 6267,
      "lıyordu": 6268,
      "yaları": 6269,
      "▁1991": 6270,
      "tan": 6271,
      "arlık": 6272,
      "▁muhar": 6273,
      "▁yontemi": 6274,
      "▁sıng": 6275,
      "▁bostan": 6276,
      "▁acıl": 6277,
      "▁sebek": 6278,
      "ebil": 6279,
      "▁arti": 6280,
      ".": 6281,
      "▁yatırım": 6282,
      "▁gorun": 6283,
      "▁spekul": 6284,
      "▁kasten": 6285,
      "▁imtiy": 6286,
      "▁egz": 6287,
      "▁%1.7": 6288,
      "▁biniki": 6289,
      "0": 6290,
      "eydi": 6291,
      "▁kapak": 6292,
      "▁hukumeti": 6293,
      "edir": 6294,
      "▁sayf": 6295,
      "▁cehenn": 6296,
      "▁amator": 6297,
      "▁moral": 6298,
      "▁cikmadi": 6299,
      "▁yetmez": 6300,
      "tz": 6301,
      "uldu": 6302,
      "▁mo": 6303,
      "▁kaldim": 6304,
      "▁satın": 6305,
      "amızın": 6306,
      "▁ekonomistler": 6307,
      "00'e": 6308,
      "▁kendisi": 6309,
      "▁jos": 6310,
      "|": 6311,
      "ikatur": 6312,
      "▁ikimiz": 6313,
      "ırdı": 6314,
      "▁kare": 6315,
      "▁komitesi": 6316,
      "▁3/32": 6317,
      "▁ayagı": 6318,
      "▁cleveland": 6319,
      "kb": 6320,
      "▁bizde": 6321,
      "▁tec": 6322,
      "▁corp.": 6323,
      "▁suruldu": 6324,
      "▁erk": 6325,
      "▁yes": 6326,
      "▁dayat": 6327,
      "▁sıkıntılı": 6328,
      "▁yayıldı": 6329,
      "▁misyon": 6330,
      "▁bastan": 6331,
      "▁koc": 6332,
      "▁alık": 6333,
      "▁yardıma": 6334,
      "▁sab": 6335,
      "▁sakat": 6336,
      "▁kaldı": 6337,
      "▁jon": 6338,
      "▁suruk": 6339,
      "emezdi": 6340,
      "rli": 6341,
      "▁arat": 6342,
      "l": 6343,
      "▁bes": 6344,
      "▁bizlere": 6345,
      "▁bre": 6346,
      "▁tum": 6347,
      "ırtı": 6348,
      "▁aramızda": 6349,
      "▁basv": 6350,
      "▁evlilik": 6351,
      "▁vadeli": 6352,
      "iyon": 6353,
      "▁oak": 6354,
      "▁rady": 6355,
      "▁yogurt": 6356,
      "▁99": 6357,
      "etik": 6358,
      "▁getirebilir": 6359,
      "▁rol": 6360,
      "▁yargı": 6361,
      "alarak": 6362,
      "▁utanc": 6363,
      "eliyor": 6364,
      "▁alınacak": 6365,
      "▁gir": 6366,
      "▁surekli": 6367,
      "▁sıkıntı": 6368,
      "▁bilmez": 6369,
      "▁tab": 6370,
      "▁verecegini": 6371,
      "▁cıkmasına": 6372,
      "▁delta": 6373,
      "aki": 6374,
      "▁gunumuz": 6375,
      "▁kidder": 6376,
      "▁sal": 6377,
      "▁stan": 6378,
      "▁suret": 6379,
      "▁konusmak": 6380,
      "▁%7.5": 6381,
      "▁hız": 6382,
      "▁kosa": 6383,
      "▁anlay": 6384,
      "▁yigit": 6385,
      "▁sıgır": 6386,
      "▁%7.8": 6387,
      "▁francisco'ya": 6388,
      "▁lezzetli": 6389,
      "▁8.3": 6390,
      "▁goz": 6391,
      "‘": 6392,
      "▁taraftar": 6393,
      "▁koseye": 6394,
      "▁degisti": 6395,
      "▁carpıcı": 6396,
      "▁sert": 6397,
      "ilebilir": 6398,
      "▁murekkep": 6399,
      "▁celisk": 6400,
      "▁bulun": 6401,
      "emey": 6402,
      "▁cıkarıl": 6403,
      "▁vır": 6404,
      "▁sif": 6405,
      "▁aldıgımız": 6406,
      "▁yetkililerine": 6407,
      "▁chp": 6408,
      "▁duzeni": 6409,
      "▁sevgili": 6410,
      "▁7.5": 6411,
      "875": 6412,
      "ikli": 6413,
      "▁belediye": 6414,
      "amet": 6415,
      "▁plas": 6416,
      "▁soktu": 6417,
      "▁milyara": 6418,
      "▁gidip": 6419,
      "▁bankanın": 6420,
      "▁eder": 6421,
      "▁yarıs": 6422,
      "▁paraları": 6423,
      "▁yosun": 6424,
      "▁karargah": 6425,
      "ifer": 6426,
      "▁daldır": 6427,
      "ıyoruz": 6428,
      "▁personelin": 6429,
      "▁mol": 6430,
      "▁kok": 6431,
      "▁10": 6432,
      "ısının": 6433,
      "▁bulus": 6434,
      "▁guc": 6435,
      "▁uretimi": 6436,
      "chester": 6437,
      "▁yılki": 6438,
      "▁350": 6439,
      "▁olcut": 6440,
      "▁33": 6441,
      "▁gecir": 6442,
      "▁cık": 6443,
      "/8": 6444,
      "▁ilkel": 6445,
      "▁nakliye": 6446,
      "5.3": 6447,
      "▁0.10": 6448,
      "7.1": 6449,
      "▁goturecek": 6450,
      "▁fid": 6451,
      "▁1\\/8": 6452,
      "▁vaktiyle": 6453,
      "▁4.75": 6454,
      "▁kuyruk": 6455,
      "▁cıg": 6456,
      "▁ticari": 6457,
      "▁basladı": 6458,
      "▁kanlı": 6459,
      "ob": 6460,
      "▁cerey": 6461,
      "turk": 6462,
      "▁ligin": 6463,
      "▁memnunum": 6464,
      "▁sindir": 6465,
      "▁kelime": 6466,
      "▁bilgileri": 6467,
      "▁hepsinin": 6468,
      "▁oda": 6469,
      "▁kazandı": 6470,
      "▁edilen": 6471,
      "ific": 6472,
      "▁saka": 6473,
      "▁geldigimiz": 6474,
      "▁bakısı": 6475,
      "▁vad": 6476,
      "▁/": 6477,
      "ın": 6478,
      "ega": 6479,
      "▁malumat": 6480,
      "▁sta": 6481,
      "▁?..": 6482,
      "▁ongordu": 6483,
      "▁salon": 6484,
      "▁bilirdi": 6485,
      "▁yardımıyla": 6486,
      "▁urunlerinin": 6487,
      "yag": 6488,
      "▁bogaz": 6489,
      "▁resesyon": 6490,
      "▁dalı": 6491,
      "elerinin": 6492,
      "▁endiseli": 6493,
      "▁uslu": 6494,
      "▁gucunu": 6495,
      "▁dususun": 6496,
      "ve": 6497,
      "▁cle": 6498,
      "▁saglar": 6499,
      "▁hissedarların": 6500,
      "ulur": 6501,
      "▁anadolu": 6502,
      "▁cıkarıp": 6503,
      "▁76": 6504,
      "▁cıkıyordu": 6505,
      "▁bugune": 6506,
      "▁asli": 6507,
      "▁140": 6508,
      "▁benzeri": 6509,
      "▁gozunde": 6510,
      "▁kimden": 6511,
      "▁sehirde": 6512,
      "▁petersburg'a": 6513,
      "▁tıklım": 6514,
      "acak": 6515,
      "▁hik": 6516,
      "atı": 6517,
      "▁kesin": 6518,
      "▁eksi": 6519,
      "lattı": 6520,
      "▁acıklama": 6521,
      "▁aldan": 6522,
      "▁tay": 6523,
      "▁ihtis": 6524,
      "▁300000": 6525,
      "mur": 6526,
      "▁demokrat": 6527,
      "▁hanimdi": 6528,
      "▁endustriyel": 6529,
      "▁ailesi": 6530,
      "▁suren": 6531,
      "▁dobra": 6532,
      "fer": 6533,
      "▁azar": 6534,
      "▁yolunu": 6535,
      "▁44": 6536,
      "▁miydin": 6537,
      "▁duygularını": 6538,
      "▁endi": 6539,
      "▁ayakta": 6540,
      "vır": 6541,
      "▁cem": 6542,
      "▁nash": 6543,
      "▁kızım": 6544,
      "▁alanlar": 6545,
      "▁tıpıs": 6546,
      "yi": 6547,
      "omb": 6548,
      "▁california'dan": 6549,
      "nin": 6550,
      "▁yemis": 6551,
      "▁toyota": 6552,
      "▁pasap": 6553,
      "anci": 6554,
      "▁alısılma": 6555,
      "afeti": 6556,
      "▁nadir": 6557,
      "obal": 6558,
      "▁issizlik": 6559,
      "▁yazma": 6560,
      "▁ettikten": 6561,
      "▁faturami": 6562,
      "▁2659": 6563,
      "▁ucreti": 6564,
      "▁boyutu": 6565,
      "▁art": 6566,
      "▁bitir": 6567,
      "▁revize": 6568,
      "▁yapma": 6569,
      "▁makam": 6570,
      "▁besin": 6571,
      "▁ettiklerini": 6572,
      "▁1989-": 6573,
      "▁kasırga": 6574,
      "▁psil": 6575,
      "▁surup": 6576,
      "▁kontrolu": 6577,
      "▁olunca": 6578,
      "▁oyalan": 6579,
      "miyor": 6580,
      "▁sıralarda": 6581,
      "▁serisi": 6582,
      "▁karsılıgını": 6583,
      "▁sola": 6584,
      "▁uykudan": 6585,
      "ayık": 6586,
      "▁nereden": 6587,
      "▁erede": 6588,
      "▁kurtar": 6589,
      "esince": 6590,
      "▁hij": 6591,
      "▁tavrı": 6592,
      "▁takır": 6593,
      "unca": 6594,
      "▁abd'li": 6595,
      "▁tahrik": 6596,
      "ebilirdi": 6597,
      "▁hes": 6598,
      "▁birincisi": 6599,
      "▁aracları": 6600,
      "▁acayip": 6601,
      "▁yapıldıgını": 6602,
      "▁fatur": 6603,
      "▁istedigim": 6604,
      "▁almıstı": 6605,
      "▁kardesi": 6606,
      "▁deyisle": 6607,
      "▁united": 6608,
      "▁asagıda": 6609,
      "▁derv": 6610,
      "▁etrafını": 6611,
      "tis": 6612,
      "ama": 6613,
      "dal": 6614,
      "dem": 6615,
      "mik": 6616,
      "▁dem": 6617,
      "▁ogren": 6618,
      "od": 6619,
      "▁ora": 6620,
      "▁sallayarak": 6621,
      "▁dalgın": 6622,
      "▁merksamer": 6623,
      "▁korid": 6624,
      "▁hissedarlar": 6625,
      "▁calısmaya": 6626,
      "▁imkanlarindan": 6627,
      "▁cagr": 6628,
      "▁ulas": 6629,
      "▁konus": 6630,
      "▁gozden": 6631,
      "alara": 6632,
      "▁sabır": 6633,
      "▁partiler": 6634,
      "▁group": 6635,
      "▁suphesiz": 6636,
      "▁saatlerini": 6637,
      "▁kıtır": 6638,
      "▁vade": 6639,
      "ley": 6640,
      "▁biriktir": 6641,
      "▁basladıgını": 6642,
      "▁ucretli": 6643,
      "▁uzerinden": 6644,
      "▁0": 6645,
      "▁bakimsizdi": 6646,
      "▁seyinden": 6647,
      "▁cıkmıyor": 6648,
      "▁sorunun": 6649,
      "▁altını": 6650,
      "▁gırt": 6651,
      "ilmemis": 6652,
      "▁hucr": 6653,
      "▁adamın": 6654,
      "▁gide": 6655,
      "▁gecik": 6656,
      "▁olaganustu": 6657,
      "▁yanan": 6658,
      "lıktır": 6659,
      "▁laci": 6660,
      "▁950": 6661,
      "▁sis": 6662,
      "▁yuruy": 6663,
      "▁refah": 6664,
      "▁yuruyordu": 6665,
      "▁oynat": 6666,
      "▁katilmadim": 6667,
      "▁nisp": 6668,
      "dıgında": 6669,
      "▁ucer": 6670,
      "▁icerdigi": 6671,
      "▁kr": 6672,
      "▁misafirimiz": 6673,
      "leyecek": 6674,
      "▁iyiye": 6675,
      "▁mev": 6676,
      "▁niss": 6677,
      "▁dolar": 6678,
      "▁meyv": 6679,
      "▁halil": 6680,
      "gac": 6681,
      "▁insanlarla": 6682,
      "▁odalarda": 6683,
      "▁cekici": 6684,
      "iyorlar": 6685,
      "▁gozleri": 6686,
      "▁u.s.": 6687,
      "▁ozgun": 6688,
      "vey": 6689,
      "▁soyles": 6690,
      "▁3.69": 6691,
      "▁konusunu": 6692,
      "▁tatlilar": 6693,
      "▁basbakanlık": 6694,
      "▁con": 6695,
      "▁idare": 6696,
      "▁87": 6697,
      "▁gecek": 6698,
      "▁tarafın": 6699,
      "▁hilmi": 6700,
      "▁yanas": 6701,
      "ph": 6702,
      "▁cıkar": 6703,
      "▁edelim": 6704,
      "▁1991-19": 6705,
      "▁imkan": 6706,
      "dugunu": 6707,
      "▁dislerini": 6708,
      "▁calisti": 6709,
      "▁donemlerinde": 6710,
      "eyecegini": 6711,
      "lerdir": 6712,
      "▁mutab": 6713,
      "ron": 6714,
      "▁devleti": 6715,
      "▁'li": 6716,
      "▁veremiyorum": 6717,
      "▁carpar": 6718,
      "mesini": 6719,
      "masının": 6720,
      "▁vasatti": 6721,
      "▁sorunlar": 6722,
      "gından": 6723,
      "▁kalitesine": 6724,
      "▁tam": 6725,
      "▁dokundu": 6726,
      "lumu": 6727,
      "▁daima": 6728,
      "▁pent": 6729,
      "chi": 6730,
      "▁saf": 6731,
      "▁kadına": 6732,
      "▁ehemm": 6733,
      "▁american": 6734,
      "▁uyelerinin": 6735,
      "▁hangisini": 6736,
      "amb": 6737,
      "alap": 6738,
      "▁tin": 6739,
      "▁odedigimiz": 6740,
      "'": 6741,
      "▁eylul": 6742,
      "lips": 6743,
      "▁daya": 6744,
      "▁ciddiyet": 6745,
      "▁etmisler": 6746,
      "▁dib": 6747,
      "▁hangisi": 6748,
      "▁anlasmaya": 6749,
      "▁parlak": 6750,
      "▁lufthansa": 6751,
      "▁73": 6752,
      "▁kullandıgı": 6753,
      "▁pasif": 6754,
      "▁pantol": 6755,
      "▁yanındaki": 6756,
      "▁yasıyor": 6757,
      "▁nor": 6758,
      "▁oncesi": 6759,
      "▁cebinde": 6760,
      "▁mevz": 6761,
      "▁yedi": 6762,
      "▁kirec": 6763,
      "▁ustune": 6764,
      "▁bayıl": 6765,
      "▁tanıs": 6766,
      "eni": 6767,
      "▁nevi": 6768,
      "▁bagdas": 6769,
      "▁giys": 6770,
      "lanır": 6771,
      "▁hesabı": 6772,
      "▁odalardan": 6773,
      "▁aslına": 6774,
      "ser": 6775,
      "▁=": 6776,
      "6.2": 6777,
      "▁tuylu": 6778,
      "▁kil": 6779,
      "sınız": 6780,
      "▁sozcusu": 6781,
      "▁hızlıca": 6782,
      "▁katı": 6783,
      "isa": 6784,
      "▁istifa": 6785,
      "▁masalı": 6786,
      "▁iceriden": 6787,
      "lim": 6788,
      "▁75000": 6789,
      "▁satıslarının": 6790,
      "▁secimde": 6791,
      "▁yasadık": 6792,
      "lendigini": 6793,
      "▁ılım": 6794,
      "lerine": 6795,
      "▁war": 6796,
      ".72": 6797,
      "▁iktid": 6798,
      "▁yaptirmadigim": 6799,
      "mustu": 6800,
      "▁bahsetti": 6801,
      "▁genelkur": 6802,
      "▁daml": 6803,
      "▁berrak": 6804,
      "lasmıstı": 6805,
      "▁sayı": 6806,
      "▁siir": 6807,
      "▁yonu": 6808,
      "mezdi": 6809,
      "▁viraj": 6810,
      "▁acıklamada": 6811,
      "3'e": 6812,
      "kı": 6813,
      "ediyorum": 6814,
      "▁dilim": 6815,
      "omosyon": 6816,
      "▁107": 6817,
      "▁ual": 6818,
      "ımızda": 6819,
      "▁ozg": 6820,
      "▁kalma": 6821,
      "▁istekli": 6822,
      "luy": 6823,
      "▁yapacagım": 6824,
      "▁500": 6825,
      "emi": 6826,
      "▁elbet": 6827,
      "▁25": 6828,
      "▁mendi": 6829,
      "▁odulu": 6830,
      "▁arkada": 6831,
      "▁sohret": 6832,
      "▁gumbur": 6833,
      "▁olacagım": 6834,
      "▁1/2": 6835,
      "sizce": 6836,
      "imize": 6837,
      "▁olanı": 6838,
      "▁avukatı": 6839,
      "89-": 6840,
      "▁val": 6841,
      "▁calismas": 6842,
      "▁tahvillerin": 6843,
      "▁tekrardan": 6844,
      "▁corp.'un": 6845,
      "▁devletin": 6846,
      "▁hattı": 6847,
      "iyorsunuz": 6848,
      "▁bask": 6849,
      "▁kasım": 6850,
      "▁un": 6851,
      "▁pantolon": 6852,
      "▁sınıfa": 6853,
      "▁olmayacagını": 6854,
      "▁41.60": 6855,
      "▁diy": 6856,
      "▁cıkardı": 6857,
      "▁erhan": 6858,
      "▁tertemiz": 6859,
      "▁alısılmadık": 6860,
      "▁rakı": 6861,
      "▁tesaduf": 6862,
      "▁anımsam": 6863,
      "▁verirler": 6864,
      "▁fevkalade": 6865,
      "▁gaziantep": 6866,
      "▁donat": 6867,
      "▁kade": 6868,
      "▁erdeydin": 6869,
      "▁mahs": 6870,
      "▁meyal": 6871,
      "▁olusturan": 6872,
      "▁olcekli": 6873,
      "▁montreal": 6874,
      "▁yukarıda": 6875,
      "leri": 6876,
      "sas": 6877,
      "▁karsımda": 6878,
      "▁kapasitesine": 6879,
      "▁tech": 6880,
      "▁suc": 6881,
      "▁gorulecek": 6882,
      "▁sakallı": 6883,
      "▁hicbirine": 6884,
      "▁yukselt": 6885,
      "▁donmus": 6886,
      "▁uslup": 6887,
      "▁halkla": 6888,
      "▁mesgul": 6889,
      "▁sesiyle": 6890,
      "ilerinden": 6891,
      "▁olmasa": 6892,
      "▁guleryuzlulerdi": 6893,
      "ısın": 6894,
      "▁karsın": 6895,
      "endi": 6896,
      "▁konforlu": 6897,
      "astır": 6898,
      "▁sehre": 6899,
      "▁613": 6900,
      "irler": 6901,
      "▁mustesar": 6902,
      "▁9": 6903,
      "▁tırman": 6904,
      "▁80": 6905,
      "▁iyilik": 6906,
      "▁ysanız": 6907,
      "▁kerv": 6908,
      "▁rich": 6909,
      "olog": 6910,
      "▁sayisi": 6911,
      "▁denge": 6912,
      "▁fak": 6913,
      "▁selcuk": 6914,
      "▁kalanlar": 6915,
      "▁tesekkur": 6916,
      "▁ersin": 6917,
      "▁susuz": 6918,
      "▁calısıyordu": 6919,
      "▁1.19": 6920,
      "▁cunku": 6921,
      "▁gumruk": 6922,
      "ayı": 6923,
      "▁herkesle": 6924,
      "▁m80": 6925,
      "▁saygın": 6926,
      "▁tarif": 6927,
      "▁yavas": 6928,
      "▁0.31": 6929,
      "▁vesik": 6930,
      "▁oyunc": 6931,
      "esi": 6932,
      "▁zincir": 6933,
      "ıyor": 6934,
      "▁ikinc": 6935,
      "▁ismail": 6936,
      "▁getirilen": 6937,
      "▁allak": 6938,
      "ano": 6939,
      "▁girmis": 6940,
      "▁aglayan": 6941,
      "▁birlestir": 6942,
      "▁oncelik": 6943,
      "▁yaptik": 6944,
      "▁secilmis": 6945,
      "ılmak": 6946,
      "uste": 6947,
      "▁ihracı": 6948,
      "▁oldur": 6949,
      "▁eser": 6950,
      "▁silk": 6951,
      "▁hart": 6952,
      "▁yurt": 6953,
      "▁komite": 6954,
      "▁iseniz": 6955,
      "iles": 6956,
      "▁sonuna": 6957,
      "▁doldurdu": 6958,
      "▁sirketinin": 6959,
      "▁lı": 6960,
      "▁doldurdum": 6961,
      "cılara": 6962,
      "▁eagle": 6963,
      "▁kadro": 6964,
      "▁heyeti": 6965,
      "▁olasılık": 6966,
      "▁carte": 6967,
      "il": 6968,
      "▁akıs": 6969,
      "esi'nde": 6970,
      "▁pırıl": 6971,
      "satı": 6972,
      "▁mef": 6973,
      "▁donmedi": 6974,
      "▁sabahleyin": 6975,
      "▁ekonomist": 6976,
      "▁i": 6977,
      "▁fikir": 6978,
      "▁enist": 6979,
      "▁man": 6980,
      "▁7.10": 6981,
      "▁kurtarmak": 6982,
      "ıy": 6983,
      "▁alana": 6984,
      "it": 6985,
      "▁degisiklikler": 6986,
      "ıydı": 6987,
      "▁7\\/8": 6988,
      "▁haket": 6989,
      "▁hepimize": 6990,
      "▁yas": 6991,
      "▁viski": 6992,
      "▁yag": 6993,
      "▁temmuz": 6994,
      "ten": 6995,
      "▁ipotek": 6996,
      "▁pufur": 6997,
      "fil": 6998,
      "▁bizzat": 6999,
      "▁kazada": 7000,
      "▁adina": 7001,
      "▁istey": 7002,
      "fik": 7003,
      "▁lise": 7004,
      "▁degisikligi": 7005,
      "▁vatandas": 7006,
      "▁baskanlık": 7007,
      "sey": 7008,
      "▁ili": 7009,
      "rup": 7010,
      "▁166.9": 7011,
      "▁eri": 7012,
      "▁izini": 7013,
      "▁3": 7014,
      "go": 7015,
      "bil": 7016,
      "▁bambaska": 7017,
      "▁hikmet": 7018,
      "-6": 7019,
      "▁25.8": 7020,
      "inizin": 7021,
      "▁notlar": 7022,
      "▁kazandım": 7023,
      "▁vide": 7024,
      "ledi": 7025,
      "’": 7026,
      "gan": 7027,
      "▁kasıgı": 7028,
      "▁animasyonu": 7029,
      "▁satmaya": 7030,
      "▁serap": 7031,
      "▁dostum": 7032,
      "'in": 7033,
      "anoz": 7034,
      "0.33": 7035,
      "▁kahveci": 7036,
      "▁yapil": 7037,
      "▁yarar": 7038,
      "▁pasifik": 7039,
      "115": 7040,
      "▁dizi": 7041,
      "acagımı": 7042,
      "▁baz": 7043,
      "▁market": 7044,
      "▁fis": 7045,
      "▁daglar": 7046,
      "▁cekilm": 7047,
      "▁ithalatı": 7048,
      "▁sn": 7049,
      "▁saglıyor": 7050,
      "emle": 7051,
      "▁mortgage": 7052,
      "izm": 7053,
      "odos": 7054,
      "▁kravat": 7055,
      "▁kasım'da": 7056,
      "uydu": 7057,
      "inle": 7058,
      "▁jur": 7059,
      "▁artarak": 7060,
      "▁agzından": 7061,
      "▁gelirse": 7062,
      "▁tar": 7063,
      "▁ord": 7064,
      "▁atak": 7065,
      "▁sertif": 7066,
      "▁4.375": 7067,
      "▁27.5": 7068,
      "▁rakamlar": 7069,
      "▁lar": 7070,
      "me": 7071,
      "▁yuksekti": 7072,
      "▁dayanısma": 7073,
      "▁halı": 7074,
      "sizligi": 7075,
      "▁onlarla": 7076,
      "▁edilmesi": 7077,
      "▁141.90": 7078,
      "▁wat": 7079,
      "▁yemegini": 7080,
      "▁veremeyecegim": 7081,
      "▁alk": 7082,
      "▁yirmibir": 7083,
      "▁bagırıyor": 7084,
      "▁dondurdu": 7085,
      "▁annemin": 7086,
      "▁kalabal": 7087,
      "ardı": 7088,
      "▁otor": 7089,
      "▁vurguladı": 7090,
      "▁diye": 7091,
      "82": 7092,
      "▁vucudum": 7093,
      "▁cadır": 7094,
      "▁erbak": 7095,
      "iliyordu": 7096,
      "▁hamal": 7097,
      "▁0.7": 7098,
      "▁diyen": 7099,
      "▁pismis": 7100,
      "▁faydalan": 7101,
      "▁kızlarla": 7102,
      "kal": 7103,
      "▁catıs": 7104,
      "▁925": 7105,
      "▁fac": 7106,
      "▁mini": 7107,
      "▁35587": 7108,
      "▁kendinde": 7109,
      "bol": 7110,
      "▁edecek": 7111,
      "▁erkekler": 7112,
      "▁ilerledi": 7113,
      "▁2.45": 7114,
      "▁hayata": 7115,
      "▁mesafe": 7116,
      "▁belirlen": 7117,
      "mayacagı": 7118,
      "alt": 7119,
      "▁olacaktır": 7120,
      "▁bulam": 7121,
      "▁nerelere": 7122,
      "▁gidebil": 7123,
      "▁etmiyorum": 7124,
      "▁veri": 7125,
      "▁uluslar": 7126,
      "▁plani": 7127,
      "▁gormedim": 7128,
      "▁gerekcesiyle": 7129,
      "'ini": 7130,
      ".00": 7131,
      "▁capında": 7132,
      "▁leb": 7133,
      "▁igren": 7134,
      "ude": 7135,
      "▁kalitesinden": 7136,
      "▁dovus": 7137,
      "▁del": 7138,
      "▁saatleri": 7139,
      "bank": 7140,
      "▁mahkeme": 7141,
      "▁carl": 7142,
      "▁tesp": 7143,
      "0.000": 7144,
      "▁magdur": 7145,
      "onel": 7146,
      "6.5": 7147,
      "▁bahceli": 7148,
      "larını": 7149,
      "▁141.70": 7150,
      "▁havuc": 7151,
      "▁giris": 7152,
      "▁sehrin": 7153,
      "▁hayran": 7154,
      "unun": 7155,
      "▁109": 7156,
      "54": 7157,
      "▁ascı": 7158,
      "▁kalb": 7159,
      "▁som": 7160,
      "▁muhaf": 7161,
      "0.1": 7162,
      "▁peynirleri": 7163,
      "▁resim": 7164,
      "ılıgını": 7165,
      "4.7": 7166,
      "▁ediyordu": 7167,
      "lerimizin": 7168,
      "▁tutum": 7169,
      "▁cizgi": 7170,
      "▁hen": 7171,
      "▁cıkarılan": 7172,
      "▁sizinle": 7173,
      "ıg": 7174,
      "▁oglu": 7175,
      "▁ihrac": 7176,
      ".87": 7177,
      "▁kaba": 7178,
      "▁adinaydi": 7179,
      "▁borsa": 7180,
      "▁kaydedi": 7181,
      "▁milyar": 7182,
      "▁olmalıdır": 7183,
      "▁pers": 7184,
      "▁suclu": 7185,
      "▁acılı": 7186,
      "oc": 7187,
      "▁gundeme": 7188,
      "▁yanına": 7189,
      "▁isimiz": 7190,
      "▁worth'dan": 7191,
      "▁diyoruz": 7192,
      "▁havayollarının": 7193,
      "▁yatırımları": 7194,
      "eley": 7195,
      "lanmak": 7196,
      "▁onlemek": 7197,
      "▁bileti": 7198,
      "▁hain": 7199,
      "▁mahkemede": 7200,
      "ebilecegini": 7201,
      "▁yapılandır": 7202,
      "meli": 7203,
      "▁kerp": 7204,
      "▁bebegi": 7205,
      "▁tad": 7206,
      "▁evlerin": 7207,
      "▁carpıs": 7208,
      "▁yakin": 7209,
      "▁adamla": 7210,
      "▁dinledim": 7211,
      "▁asl": 7212,
      "▁seyrediyor": 7213,
      "▁vermez": 7214,
      "▁yardımcısı": 7215,
      "tas": 7216,
      "▁edecekti": 7217,
      "latan": 7218,
      "etnam": 7219,
      "▁825": 7220,
      "▁soruyu": 7221,
      "▁savcılık": 7222,
      "▁gonlum": 7223,
      "▁kendiler": 7224,
      "ustum": 7225,
      "▁84": 7226,
      "▁kasabada": 7227,
      "▁cetin": 7228,
      "luktan": 7229,
      "▁iliskili": 7230,
      "▁katmer": 7231,
      "▁kendimde": 7232,
      "▁bakıs": 7233,
      "malıyız": 7234,
      "▁seven": 7235,
      "▁sermaye": 7236,
      "▁uzaklas": 7237,
      "▁sedir": 7238,
      "▁p": 7239,
      "▁pasa'nın": 7240,
      "▁egzersiz": 7241,
      "-1": 7242,
      "▁santor": 7243,
      "▁batır": 7244,
      "▁gerisinde": 7245,
      "▁det": 7246,
      "▁unut": 7247,
      "gate": 7248,
      "▁454": 7249,
      "▁yonetici": 7250,
      "▁no": 7251,
      "▁filmi": 7252,
      "▁skandal": 7253,
      "▁sadak": 7254,
      "▁geciriyor": 7255,
      "▁hasar": 7256,
      "▁merkez": 7257,
      "uzu": 7258,
      "▁fiyat": 7259,
      "lendirme": 7260,
      "▁oy": 7261,
      "▁koyluler": 7262,
      "▁gogsun": 7263,
      "▁atlanta'da": 7264,
      "▁yeter": 7265,
      "▁paz": 7266,
      "ond": 7267,
      "at": 7268,
      "'une": 7269,
      "▁milyarlar": 7270,
      "▁demet": 7271,
      "▁2.23": 7272,
      "▁fok": 7273,
      "▁dolarlık": 7274,
      "▁baslayan": 7275,
      "▁tarafına": 7276,
      "▁ahlaki": 7277,
      "▁12.3": 7278,
      "igin": 7279,
      "▁kerim": 7280,
      "daydi": 7281,
      "▁secenekleri": 7282,
      "amızı": 7283,
      "▁yen": 7284,
      "▁olmadan": 7285,
      "▁ayn": 7286,
      "▁kanalı": 7287,
      "uv": 7288,
      "▁begen": 7289,
      "▁kızına": 7290,
      "-hisse": 7291,
      "▁acıyor": 7292,
      "▁baraj": 7293,
      "▁acele": 7294,
      "▁georgia": 7295,
      "▁adına": 7296,
      "▁ars": 7297,
      "▁ekonomik": 7298,
      "▁bolumu": 7299,
      "▁teması": 7300,
      "iyeler": 7301,
      "likleri": 7302,
      "eligi": 7303,
      "▁colum": 7304,
      "▁ken": 7305,
      "lesmisti": 7306,
      "▁gıy": 7307,
      "▁dengesi": 7308,
      "▁pul": 7309,
      "larımız": 7310,
      "▁.7": 7311,
      "▁dunya'nın": 7312,
      "ram": 7313,
      "▁koruyor": 7314,
      "▁agır": 7315,
      "▁tavırlı": 7316,
      "▁kid": 7317,
      "▁yenilen": 7318,
      "▁teor": 7319,
      "sın": 7320,
      "lıgım": 7321,
      "irmi": 7322,
      "▁harc": 7323,
      "▁ekipman": 7324,
      "▁ted": 7325,
      "▁cıkarmaya": 7326,
      "▁yururluk": 7327,
      "yaz": 7328,
      "▁vas": 7329,
      "tey": 7330,
      "gında": 7331,
      "▁boyut": 7332,
      "▁gecmeye": 7333,
      "▁altına": 7334,
      "▁kırmız": 7335,
      "abuk": 7336,
      "▁kırmızı": 7337,
      "▁gerc": 7338,
      "▁kom": 7339,
      "▁artısla": 7340,
      "▁yapmıs": 7341,
      "▁halleri": 7342,
      "▁severek": 7343,
      "▁alev": 7344,
      "▁orta": 7345,
      "▁list": 7346,
      "urum": 7347,
      "ılır": 7348,
      "'da": 7349,
      "viri": 7350,
      "▁sovyet": 7351,
      "▁tehlik": 7352,
      "ate": 7353,
      "▁numaralı": 7354,
      "rı": 7355,
      "▁icecekleri": 7356,
      "▁zamanlarını": 7357,
      "▁olsa": 7358,
      "dıgımızı": 7359,
      "mun": 7360,
      "▁edilmisti": 7361,
      "▁field'e": 7362,
      "kab": 7363,
      "▁milletinin": 7364,
      "▁gozlerini": 7365,
      "▁koleksiyon": 7366,
      "▁sarap": 7367,
      "▁kelimesi": 7368,
      "▁zamanlama": 7369,
      "▁nefret": 7370,
      "▁muhim": 7371,
      "▁zırt": 7372,
      "▁arkadasının": 7373,
      "▁saatlik": 7374,
      "lıgın": 7375,
      "alıga": 7376,
      "▁piyasasındaki": 7377,
      "▁akan": 7378,
      "pi": 7379,
      "▁optik": 7380,
      "▁philadelphia": 7381,
      "▁satır": 7382,
      "▁cit": 7383,
      "▁yol": 7384,
      "▁kedi": 7385,
      "▁paul'a": 7386,
      "dıgımız": 7387,
      "▁reagan": 7388,
      "▁saglayacak": 7389,
      "▁enerj": 7390,
      "▁piyang": 7391,
      "▁%3.": 7392,
      "▁hissettim": 7393,
      "hasır": 7394,
      "▁bakılırsa": 7395,
      "▁county": 7396,
      "▁transfer": 7397,
      "▁seattle": 7398,
      "▁stratejik": 7399,
      "▁kuram": 7400,
      "▁miami'ye": 7401,
      "▁teh": 7402,
      "▁yolc": 7403,
      "▁cehennem": 7404,
      "endigi": 7405,
      "▁gosterir": 7406,
      "▁252": 7407,
      "▁breeden": 7408,
      "▁vir": 7409,
      "▁nizam": 7410,
      "▁kansas": 7411,
      "▁emin": 7412,
      "▁zamanında": 7413,
      "▁kıraathan": 7414,
      "30'da": 7415,
      "tiv": 7416,
      "▁sapk": 7417,
      "▁etnik": 7418,
      "▁tamamı": 7419,
      "▁topunuz": 7420,
      "▁getirmisti": 7421,
      "▁park": 7422,
      "▁goc": 7423,
      "▁sozcu": 7424,
      "▁zat": 7425,
      "▁muall": 7426,
      "▁cat": 7427,
      "daydı": 7428,
      "cular": 7429,
      "▁dinler": 7430,
      "arya": 7431,
      "▁etkisiyle": 7432,
      "▁yaratı": 7433,
      "▁boylelikle": 7434,
      "▁mukellef": 7435,
      "▁kuyu": 7436,
      "▁sektor": 7437,
      "bac": 7438,
      "▁gorevl": 7439,
      "osunun": 7440,
      "ayıf": 7441,
      "▁karsiligini": 7442,
      "▁mahsus": 7443,
      "\\/8'e": 7444,
      "lamaya": 7445,
      "▁muhafaz": 7446,
      "▁9.625": 7447,
      "▁desteklemek": 7448,
      "▁amerik": 7449,
      "▁tahviller": 7450,
      "▁6.4": 7451,
      "▁gru": 7452,
      "▁mevcuttur": 7453,
      "▁rezervasyonu": 7454,
      "▁sahipti": 7455,
      "▁bas": 7456,
      "▁6.5": 7457,
      "▁zorlu": 7458,
      "'uncu": 7459,
      "▁1966": 7460,
      "bat": 7461,
      "▁3000": 7462,
      "▁duvarı": 7463,
      "▁475": 7464,
      "tıgını": 7465,
      "▁istanbul'a": 7466,
      "▁acıgı": 7467,
      "▁havaalanı'ndan": 7468,
      "▁yarın": 7469,
      "▁artı": 7470,
      "▁konul": 7471,
      "▁karsısın": 7472,
      "▁hiddet": 7473,
      "▁yazıl": 7474,
      "▁kık": 7475,
      "▁fiyatlar": 7476,
      "son'un": 7477,
      "▁calıyor": 7478,
      "▁hatları": 7479,
      "▁rumeli": 7480,
      "▁islev": 7481,
      "▁gozluk": 7482,
      "▁artır": 7483,
      "▁kalkıp": 7484,
      "▁ayakları": 7485,
      "▁yesil": 7486,
      "▁ust": 7487,
      "▁geldim": 7488,
      "ım": 7489,
      "▁eglenceli": 7490,
      "▁buzlu": 7491,
      "▁mart": 7492,
      "▁hatırlıyorum": 7493,
      "▁kaldıraclı": 7494,
      "▁mimarisi": 7495,
      "azlıgı": 7496,
      "▁bildirildi": 7497,
      "▁istanbul'da": 7498,
      "▁bayrak": 7499,
      "▁yuklen": 7500,
      "▁seylere": 7501,
      "ligim": 7502,
      "ılmaya": 7503,
      "▁entel": 7504,
      "▁pom": 7505,
      "▁olmayacaktır": 7506,
      "in": 7507,
      "▁vi": 7508,
      "ıyorsun": 7509,
      "▁muazz": 7510,
      "tıyor": 7511,
      "▁ikiyuzkırk": 7512,
      "▁katkıda": 7513,
      "maca": 7514,
      "▁sıyr": 7515,
      "▁durmus": 7516,
      "▁fırc": 7517,
      "▁trabz": 7518,
      "rar": 7519,
      "liginde": 7520,
      "▁aileye": 7521,
      "▁bereket": 7522,
      "'m": 7523,
      "▁oynamıs": 7524,
      "▁kimlik": 7525,
      "on": 7526,
      "▁yetistir": 7527,
      "▁yururluge": 7528,
      "▁birinden": 7529,
      "ecekti": 7530,
      "▁sanayi": 7531,
      "▁tartıs": 7532,
      "▁yukarı": 7533,
      "▁onem": 7534,
      "ımın": 7535,
      "▁kıs": 7536,
      "emeyecek": 7537,
      "▁dinin": 7538,
      "▁general": 7539,
      "▁sarısın": 7540,
      "burg": 7541,
      "▁ras": 7542,
      "▁bindokuzyuz": 7543,
      "▁515": 7544,
      "▁cir": 7545,
      "emin": 7546,
      "▁etkili": 7547,
      "▁aqu": 7548,
      "▁catır": 7549,
      "▁basına": 7550,
      "▁55": 7551,
      "▁filistin": 7552,
      "liydi": 7553,
      "▁partners": 7554,
      "▁satım": 7555,
      "▁kost": 7556,
      "▁saati": 7557,
      "▁gostererek": 7558,
      "uklum": 7559,
      "▁hızını": 7560,
      "▁mobilyalar": 7561,
      "melerin": 7562,
      "▁erkenden": 7563,
      "▁cıkararak": 7564,
      "▁muam": 7565,
      "asıyla": 7566,
      "▁cah": 7567,
      "▁kak": 7568,
      "r.": 7569,
      "▁firmanın": 7570,
      "▁gelen": 7571,
      "taraf": 7572,
      "▁ilhan": 7573,
      "▁kentsel": 7574,
      "▁yer": 7575,
      "▁j": 7576,
      "▁mah": 7577,
      "▁ikibiniki": 7578,
      "▁1950": 7579,
      "▁boyunda": 7580,
      "▁canan": 7581,
      "▁tarihine": 7582,
      "▁olmaması": 7583,
      "▁adamakıllı": 7584,
      "▁ulasmak": 7585,
      "▁ureten": 7586,
      "▁ciftlik": 7587,
      "▁ilgisini": 7588,
      "sana": 7589,
      "▁dusunuyordu": 7590,
      "▁toplamıs": 7591,
      "mar": 7592,
      "▁etmistir": 7593,
      "▁tr": 7594,
      "▁nine": 7595,
      "▁ikibin": 7596,
      "▁sınıfları": 7597,
      "-packard": 7598,
      "▁sallanıyor": 7599,
      "tcı": 7600,
      "▁ash": 7601,
      "▁universite": 7602,
      "▁kıy": 7603,
      "▁yoksun": 7604,
      "▁doktor": 7605,
      "aladım": 7606,
      "▁tası": 7607,
      "▁baslan": 7608,
      "▁dusuyor": 7609,
      "▁amcam": 7610,
      "▁raporda": 7611,
      "▁edirne": 7612,
      "▁mekana": 7613,
      "▁yalvar": 7614,
      "▁operator": 7615,
      "azi": 7616,
      "▁57": 7617,
      "▁kurum": 7618,
      "▁degin": 7619,
      "▁haksız": 7620,
      "▁yunus": 7621,
      "▁kardesinin": 7622,
      "▁arıyorum": 7623,
      "▁ogretmenim": 7624,
      "usuna": 7625,
      "▁dol": 7626,
      "liklerini": 7627,
      "▁ilgileniyor": 7628,
      "meleri": 7629,
      "▁listesini": 7630,
      "▁varsay": 7631,
      "95": 7632,
      "▁13.": 7633,
      "▁alanın": 7634,
      "lem": 7635,
      "ilmiyor": 7636,
      "▁arastırmalar": 7637,
      "▁muc": 7638,
      "▁tolga": 7639,
      "▁tes": 7640,
      "lanma": 7641,
      "▁almanya'nın": 7642,
      "▁dolduran": 7643,
      "▁go": 7644,
      ".22": 7645,
      "▁koskoca": 7646,
      "▁1.375": 7647,
      "▁hayatımız": 7648,
      "▁ozge": 7649,
      "tım": 7650,
      "▁harika": 7651,
      "ası'nda": 7652,
      "▁ilgisi": 7653,
      "▁ilgisinden": 7654,
      "▁gerektiriyor": 7655,
      "▁papaz": 7656,
      "arlan": 7657,
      "ciler": 7658,
      "▁donuk": 7659,
      "▁sırrı": 7660,
      "▁manville": 7661,
      "▁dey": 7662,
      "▁duyuru": 7663,
      "▁imza": 7664,
      "▁yatırımcıları": 7665,
      "▁pahalı": 7666,
      "▁degilsiniz": 7667,
      "lardır": 7668,
      "▁sakınc": 7669,
      "▁ikiz": 7670,
      "▁birlikte": 7671,
      "muz": 7672,
      "tısı": 7673,
      "▁cambaz": 7674,
      "▁yasa": 7675,
      "▁mendil": 7676,
      "▁fıldır": 7677,
      "▁hin": 7678,
      "▁duydum": 7679,
      "▁secil": 7680,
      "vansiy": 7681,
      "▁bab": 7682,
      "▁kılavuz": 7683,
      "▁esnasında": 7684,
      "▁yuzunde": 7685,
      "▁1.06": 7686,
      "'ler": 7687,
      "▁gitmedim": 7688,
      "▁niye": 7689,
      "▁arabalar": 7690,
      "agıyla": 7691,
      "▁oranında": 7692,
      ".81": 7693,
      "▁dok": 7694,
      "▁yanı": 7695,
      "madan": 7696,
      "▁hata": 7697,
      "▁doyur": 7698,
      "▁odamdan": 7699,
      "▁yıldırım": 7700,
      "625": 7701,
      "▁1.750": 7702,
      "lanmasından": 7703,
      "▁uzunca": 7704,
      "▁menfa": 7705,
      "▁'dır": 7706,
      "▁yaptim": 7707,
      "▁fr": 7708,
      "▁tarafını": 7709,
      "▁degisiklikleri": 7710,
      "▁partinin": 7711,
      "▁gonder": 7712,
      "▁frankfurt": 7713,
      "▁sag": 7714,
      "▁yetersizdi": 7715,
      "▁insanlardan": 7716,
      "▁calisanlardan": 7717,
      "▁baglı": 7718,
      "▁lap": 7719,
      "▁yıkan": 7720,
      "ira": 7721,
      "▁622": 7722,
      "▁kanunu": 7723,
      "▁performans": 7724,
      "▁yayılan": 7725,
      "▁anladım": 7726,
      "▁bakmıs": 7727,
      "▁evvelki": 7728,
      "ville": 7729,
      "▁tatildi": 7730,
      "▁ulkeler": 7731,
      "▁fantez": 7732,
      "▁tarafı": 7733,
      "▁musait": 7734,
      "ıldıgı": 7735,
      "▁atıp": 7736,
      "▁katılan": 7737,
      ".07": 7738,
      "▁gorunuse": 7739,
      "▁hisselerin": 7740,
      "▁isterseniz": 7741,
      "▁82": 7742,
      "▁yataktan": 7743,
      "izma": 7744,
      "ler'in": 7745,
      "▁315": 7746,
      "lanan": 7747,
      "▁kulak": 7748,
      "▁26000": 7749,
      "ılırsa": 7750,
      "▁fırlamıs": 7751,
      "▁vurmak": 7752,
      "▁istemem": 7753,
      "▁gozum": 7754,
      "▁jour": 7755,
      "ıyordu": 7756,
      "▁riskli": 7757,
      "▁field": 7758,
      "▁'y": 7759,
      "▁avrupa": 7760,
      "▁hanima": 7761,
      "▁derd": 7762,
      "▁temettu": 7763,
      ".ceyrek": 7764,
      "dirde": 7765,
      "▁hulya": 7766,
      "ces": 7767,
      "▁degist": 7768,
      "9.4": 7769,
      "▁sohbet": 7770,
      "▁duzen": 7771,
      "▁ucuna": 7772,
      "▁63.52": 7773,
      "▁kaybetmis": 7774,
      "▁rakib": 7775,
      "▁masanın": 7776,
      "▁marat": 7777,
      "▁satıslarını": 7778,
      "yar": 7779,
      "▁penn": 7780,
      "5.2": 7781,
      "▁teminat": 7782,
      "ner": 7783,
      "▁cosk": 7784,
      "▁atina": 7785,
      "▁kaldım": 7786,
      "▁beyoglu": 7787,
      "▁elemanlar": 7788,
      "▁arastırmacı": 7789,
      "a'dan": 7790,
      "▁ettikleri": 7791,
      "▁telkin": 7792,
      "▁performan": 7793,
      "▁bagırdı": 7794,
      "▁internet": 7795,
      "▁anlattım": 7796,
      "▁recet": 7797,
      "▁birinci": 7798,
      "ırt": 7799,
      "▁ozellestir": 7800,
      "san": 7801,
      "▁soze": 7802,
      "▁kapısına": 7803,
      "▁ikide": 7804,
      "▁warner": 7805,
      "▁tuketici": 7806,
      "ozof": 7807,
      "▁sov": 7808,
      "▁carsamba": 7809,
      "fet": 7810,
      "▁bilgisay": 7811,
      "▁super": 7812,
      "▁des": 7813,
      "artman": 7814,
      "▁alkol": 7815,
      "▁simdiye": 7816,
      "▁edilem": 7817,
      "aret": 7818,
      "masın": 7819,
      "urt": 7820,
      "▁senedi": 7821,
      "▁215.04": 7822,
      "▁sardı": 7823,
      "▁tumunu": 7824,
      "▁cob": 7825,
      "inal": 7826,
      "▁fısır": 7827,
      "cık": 7828,
      "▁tuketim": 7829,
      "▁rıza": 7830,
      "▁carolina": 7831,
      "▁program": 7832,
      "off": 7833,
      "guzel": 7834,
      "uyordu": 7835,
      "▁konu": 7836,
      "▁kızını": 7837,
      "▁kimse": 7838,
      "▁kadif": 7839,
      "▁%3.4": 7840,
      "▁tamamen": 7841,
      "▁santorini": 7842,
      "▁sam": 7843,
      "▁karsılastırıldıgında": 7844,
      "▁249.5": 7845,
      "▁lacivert": 7846,
      "▁bazında": 7847,
      "▁ulkelerde": 7848,
      "▁manevra": 7849,
      "▁yazmak": 7850,
      "▁anlasma": 7851,
      "▁erkege": 7852,
      "▁kahval": 7853,
      "▁demokratik": 7854,
      "ys": 7855,
      ".15": 7856,
      "▁adil": 7857,
      "▁duracak": 7858,
      "▁law": 7859,
      "▁ornek": 7860,
      "acıları": 7861,
      "malı": 7862,
      "▁oranla": 7863,
      "▁pin": 7864,
      "el": 7865,
      "▁porcuk": 7866,
      "▁serviste": 7867,
      "ıldı": 7868,
      "▁kole": 7869,
      "ecegimizi": 7870,
      "▁yuzlerce": 7871,
      "cıya": 7872,
      "▁yenden": 7873,
      "gır": 7874,
      "▁'de": 7875,
      "▁aqua": 7876,
      "▁kasır": 7877,
      "▁takımının": 7878,
      "▁kardesim": 7879,
      "▁9.78": 7880,
      "▁taban": 7881,
      "7.2": 7882,
      "▁kondur": 7883,
      "▁halini": 7884,
      "▁ates": 7885,
      "▁gosteriyordu": 7886,
      "▁gecenlerde": 7887,
      "▁varan": 7888,
      "▁saclarını": 7889,
      "▁gaf": 7890,
      "▁okulu": 7891,
      "eniz": 7892,
      "▁yasat": 7893,
      "▁iliski": 7894,
      "▁gorevini": 7895,
      "idir": 7896,
      "▁kıvr": 7897,
      "▁sız": 7898,
      "▁bize": 7899,
      "▁guleryuz": 7900,
      "▁hakları": 7901,
      "▁limuzin": 7902,
      "▁bozuk": 7903,
      "▁yak": 7904,
      "▁olmasi": 7905,
      "▁dusen": 7906,
      "▁katildim": 7907,
      "▁kum": 7908,
      "▁babasının": 7909,
      "▁ornegin": 7910,
      "▁sirketine": 7911,
      "▁romat": 7912,
      "▁527.39": 7913,
      "▁gıldır": 7914,
      "▁cih": 7915,
      "▁iyi": 7916,
      "sk": 7917,
      "▁faydalı": 7918,
      "ısından": 7919,
      "▁1100": 7920,
      "▁tekne": 7921,
      "▁haliyle": 7922,
      "▁yaparken": 7923,
      "▁olumlu": 7924,
      "▁kosulları": 7925,
      "▁boya": 7926,
      "umu": 7927,
      "▁alabil": 7928,
      "▁nay": 7929,
      "▁ultra": 7930,
      "▁yemekten": 7931,
      "▁ge": 7932,
      "ahan": 7933,
      "▁lideri": 7934,
      "▁kapat": 7935,
      "125": 7936,
      "iller": 7937,
      "▁duduk": 7938,
      "▁hepsi": 7939,
      ".08": 7940,
      "▁bıc": 7941,
      "x": 7942,
      "▁akc": 7943,
      "▁phoenix'den": 7944,
      "▁ded": 7945,
      "▁yılan": 7946,
      "▁3.7": 7947,
      "▁bunda": 7948,
      "▁metre": 7949,
      "▁uzadı": 7950,
      "eyman": 7951,
      "uga": 7952,
      "▁hemsir": 7953,
      "▁kalemi": 7954,
      "▁kendime": 7955,
      "▁yaman": 7956,
      "ex": 7957,
      "▁koyup": 7958,
      "▁nedenini": 7959,
      "ilan": 7960,
      "▁analistler": 7961,
      "isli": 7962,
      "eceksin": 7963,
      "▁seans": 7964,
      "▁dakikada": 7965,
      "▁kacıyor": 7966,
      "▁secenek": 7967,
      "▁uykusuz": 7968,
      "▁gazetelerde": 7969,
      "▁anlamak": 7970,
      "▁sapır": 7971,
      "anız": 7972,
      "atla": 7973,
      "▁klas": 7974,
      "▁dokun": 7975,
      "▁425": 7976,
      "▁kamp": 7977,
      "▁med": 7978,
      "▁kars": 7979,
      "ir'in": 7980,
      "▁utop": 7981,
      "▁hafiflet": 7982,
      "▁bulunuyor": 7983,
      "▁0.0108": 7984,
      "▁hisselerini": 7985,
      "▁denizin": 7986,
      "▁planı": 7987,
      "▁surgun": 7988,
      "▁cezasını": 7989,
      "akta": 7990,
      "▁44.5": 7991,
      "▁well": 7992,
      "▁kust": 7993,
      "▁trt": 7994,
      "0.": 7995,
      "▁baslamadan": 7996,
      "ediy": 7997,
      "▁bagı": 7998,
      "▁129": 7999,
      "▁mal": 8000,
      "▁gidiyorum": 8001,
      "▁tıp": 8002,
      "▁14.5": 8003,
      "ift": 8004,
      "▁olculu": 8005,
      "▁cicekli": 8006,
      "o": 8007,
      "▁savunma": 8008,
      "esem": 8009,
      "3.3": 8010,
      "ık": 8011,
      "▁22": 8012,
      "▁dam": 8013,
      "▁683": 8014,
      "▁tram": 8015,
      "▁steph": 8016,
      "sur": 8017,
      "tmis": 8018,
      "▁kahveren": 8019,
      "▁merkezli": 8020,
      "▁dusun": 8021,
      "▁b.": 8022,
      "▁hayattan": 8023,
      "▁kasırg": 8024,
      "▁tarafa": 8025,
      "▁z": 8026,
      "▁gonul": 8027,
      "▁tered": 8028,
      "2'ye": 8029,
      "ult": 8030,
      "▁doner": 8031,
      "ain": 8032,
      "ems": 8033,
      "▁sıradan": 8034,
      "am": 8035,
      "▁dusunuyor": 8036,
      "▁mubarek": 8037,
      "en": 8038,
      "▁evet": 8039,
      "▁duyulan": 8040,
      "▁num": 8041,
      "▁kaynakları": 8042,
      "▁gittiler": 8043,
      "25000": 8044,
      "▁sayılmaz": 8045,
      "▁asık": 8046,
      "▁hissede": 8047,
      "▁c.": 8048,
      "▁olumune": 8049,
      "▁hızlı": 8050,
      "▁ertesi": 8051,
      "▁fazlasıyla": 8052,
      "▁universit": 8053,
      "▁tarihinin": 8054,
      "▁korumak": 8055,
      "dav": 8056,
      "▁acmıstır": 8057,
      "▁cez": 8058,
      "▁tedav": 8059,
      "▁politikaya": 8060,
      "▁birimi": 8061,
      "▁endisel": 8062,
      "▁alıcı": 8063,
      "yu": 8064,
      "▁me": 8065,
      "▁sark": 8066,
      "▁cami": 8067,
      "▁airlin": 8068,
      "▁hakkında": 8069,
      "▁cevresi": 8070,
      "ilmeli": 8071,
      "▁gozlerim": 8072,
      "▁opsiyonu": 8073,
      "▁avrupalı": 8074,
      "▁isaretler": 8075,
      "▁hatirlamiyorum": 8076,
      "▁og": 8077,
      "eci": 8078,
      "▁olmakla": 8079,
      "▁cevik": 8080,
      "▁semp": 8081,
      "▁duymuyor": 8082,
      "8.3": 8083,
      "▁mor": 8084,
      "▁bulabil": 8085,
      "▁don": 8086,
      "ret": 8087,
      "ep": 8088,
      "▁26": 8089,
      "▁ikiyuz": 8090,
      "▁dayanarak": 8091,
      "▁sartları": 8092,
      "▁yoktan": 8093,
      "▁first": 8094,
      "▁teb": 8095,
      "▁cesitler": 8096,
      "▁kızı": 8097,
      "▁oncesinde": 8098,
      "▁hilton": 8099,
      "▁average": 8100,
      "▁dyp": 8101,
      "o'ya": 8102,
      "ekul": 8103,
      "▁cas": 8104,
      "▁erit": 8105,
      "▁yaratıyor": 8106,
      "name": 8107,
      "▁tatli": 8108,
      "▁ran": 8109,
      "▁degilsin": 8110,
      "▁mechul": 8111,
      "▁galatasaray": 8112,
      "▁yakından": 8113,
      "▁canada": 8114,
      "▁dolayı": 8115,
      "▁eroin": 8116,
      "uter": 8117,
      "▁atmaya": 8118,
      "lıkla": 8119,
      "ligine": 8120,
      "0.9": 8121,
      "▁isinde": 8122,
      "▁degisik": 8123,
      "acag": 8124,
      "▁bırakır": 8125,
      "▁tuy": 8126,
      "antep": 8127,
      "▁tahakk": 8128,
      "mem": 8129,
      "▁saffet": 8130,
      "amayız": 8131,
      "▁185": 8132,
      "'deki": 8133,
      "▁dekorasyonu": 8134,
      "▁1961": 8135,
      "▁ureticisi": 8136,
      "@": 8137,
      "▁yapar": 8138,
      "▁riski": 8139,
      "ski": 8140,
      "▁brit": 8141,
      "mesinde": 8142,
      "▁ci": 8143,
      "nız": 8144,
      "▁elestirmen": 8145,
      "▁olmadi": 8146,
      "▁belirtmek": 8147,
      "▁termal": 8148,
      "▁seylerin": 8149,
      "▁34": 8150,
      "▁tasarı": 8151,
      "▁belgeleri": 8152,
      "▁ekin": 8153,
      "▁cekilmis": 8154,
      "zal": 8155,
      "4'de": 8156,
      "▁deligi": 8157,
      "▁30.": 8158,
      "▁kast": 8159,
      "▁tramvay": 8160,
      "▁engel": 8161,
      "layı": 8162,
      "▁tarafta": 8163,
      "▁impar": 8164,
      "▁2005": 8165,
      "▁bulgaristan": 8166,
      "kk": 8167,
      "▁bulundur": 8168,
      "▁sogan": 8169,
      "▁yuvar": 8170,
      "▁isleyen": 8171,
      "atil": 8172,
      "▁vardı": 8173,
      "lendigi": 8174,
      "▁heyecan": 8175,
      "▁analistlerin": 8176,
      "▁ihtilal": 8177,
      "▁usul": 8178,
      "cası": 8179,
      "▁perisan": 8180,
      "ait": 8181,
      "▁dist": 8182,
      "▁if": 8183,
      "ity": 8184,
      "iyiz": 8185,
      "yanın": 8186,
      "▁kırıklıgına": 8187,
      "▁home": 8188,
      "▁suphe": 8189,
      "▁ex": 8190,
      "aff": 8191,
      "bakır": 8192,
      "▁kahvaltisi": 8193,
      "▁kuralları": 8194,
      "▁muyum": 8195,
      "ansız": 8196,
      "▁ayrıntı": 8197,
      "▁havlular": 8198,
      "lg": 8199,
      "'yle": 8200,
      "os'un": 8201,
      "lop": 8202,
      "▁birinc": 8203,
      "▁tutarındaki": 8204,
      "▁tun": 8205,
      "▁kur": 8206,
      "▁aksam": 8207,
      "▁otobus": 8208,
      "▁fatma": 8209,
      "▁ister": 8210,
      "▁kent": 8211,
      "▁donmek": 8212,
      "▁senin": 8213,
      "▁cihan": 8214,
      "iyetle": 8215,
      "▁zey": 8216,
      "▁139": 8217,
      "▁anlayan": 8218,
      "▁yapabilir": 8219,
      "▁isini": 8220,
      "▁city": 8221,
      "leniyor": 8222,
      "▁mutemadi": 8223,
      "▁bakanlıgı": 8224,
      "▁durmak": 8225,
      "▁olmadıgını": 8226,
      "▁gozlerinin": 8227,
      "izin": 8228,
      "egas": 8229,
      "ulebilir": 8230,
      "▁electr": 8231,
      "▁akım": 8232,
      "▁isleri": 8233,
      "▁birer": 8234,
      "ilerden": 8235,
      "▁stein": 8236,
      "▁kesti": 8237,
      "▁ertel": 8238,
      "▁ilgisiz": 8239,
      "▁kıpır": 8240,
      "▁musik": 8241,
      "▁uzerindeki": 8242,
      "meyecek": 8243,
      "▁paris'te": 8244,
      "▁ymus": 8245,
      "▁huzursuz": 8246,
      "▁seviy": 8247,
      "▁bekliyorum": 8248,
      "▁olmas": 8249,
      "ge": 8250,
      "▁allah": 8251,
      "▁temsilcisi": 8252,
      "▁gorusmedim": 8253,
      "▁46": 8254,
      "▁saatte": 8255,
      "▁zeyt": 8256,
      "▁3.03": 8257,
      "▁saatlerce": 8258,
      "▁limon": 8259,
      "▁kahkah": 8260,
      "lon": 8261,
      "▁titr": 8262,
      "amadık": 8263,
      "▁degismedi": 8264,
      "id": 8265,
      "▁kapıl": 8266,
      "▁planlarını": 8267,
      "eff": 8268,
      "atur": 8269,
      "▁bl": 8270,
      "▁67": 8271,
      "ugum": 8272,
      "anta": 8273,
      "iti": 8274,
      "▁tuccar": 8275,
      "▁cekistir": 8276,
      "▁financi": 8277,
      "▁fiyatlandır": 8278,
      "▁olmak": 8279,
      "naz": 8280,
      "▁formul": 8281,
      "▁surdurdu": 8282,
      "▁kazancları": 8283,
      "▁hikay": 8284,
      "▁bulamaz": 8285,
      "▁malzem": 8286,
      "▁yanında": 8287,
      "▁hale": 8288,
      "▁tanık": 8289,
      "mez": 8290,
      "▁celal": 8291,
      "masıdır": 8292,
      "▁kuba": 8293,
      "▁kucums": 8294,
      "▁beyi": 8295,
      "▁aykırı": 8296,
      "▁deyince": 8297,
      "▁ld": 8298,
      "▁parmaklarını": 8299,
      "▁gidil": 8300,
      "gısını": 8301,
      "isidir": 8302,
      "▁otururlar": 8303,
      "▁selim": 8304,
      "▁ayagında": 8305,
      "▁baslı": 8306,
      "▁perakendeciler": 8307,
      "▁%10": 8308,
      "▁w": 8309,
      "▁memph": 8310,
      "▁ard": 8311,
      "▁cemil": 8312,
      "▁minnet": 8313,
      "▁rum": 8314,
      "▁terzi": 8315,
      "▁gosterecek": 8316,
      "to": 8317,
      "▁kokuyor": 8318,
      "▁bende": 8319,
      "emizde": 8320,
      "230": 8321,
      "▁esti": 8322,
      "eksu": 8323,
      "ancı": 8324,
      "▁gum": 8325,
      "▁yılmaz": 8326,
      "▁bisik": 8327,
      "▁paribas": 8328,
      "alog": 8329,
      "▁sokacak": 8330,
      "▁huzurlu": 8331,
      "▁mantıksız": 8332,
      "▁ortasında": 8333,
      "▁inanmak": 8334,
      "▁mırıldandı": 8335,
      "▁servisi": 8336,
      "▁uretimin": 8337,
      "ebilirler": 8338,
      "▁nedeni": 8339,
      "▁32": 8340,
      "▁avukatlar": 8341,
      "egiyle": 8342,
      "▁izliyor": 8343,
      "▁iade": 8344,
      "▁kafasını": 8345,
      "▁hot": 8346,
      "▁hatir": 8347,
      "▁olmasın": 8348,
      "▁ab'nin": 8349,
      ".7": 8350,
      "▁numarası": 8351,
      "tedir": 8352,
      "▁haf": 8353,
      "ilmisti": 8354,
      "▁baklav": 8355,
      "▁salat": 8356,
      "eliler": 8357,
      "▁horm": 8358,
      "▁iddia": 8359,
      "▁adını": 8360,
      "tator": 8361,
      "yetmisbes": 8362,
      "▁makaleye": 8363,
      "▁bakınca": 8364,
      ".36": 8365,
      "▁calkan": 8366,
      "hangi": 8367,
      "atın": 8368,
      "ekom": 8369,
      "▁m.": 8370,
      "▁yin": 8371,
      "iran": 8372,
      "▁iskont": 8373,
      "▁suyuna": 8374,
      "luydu": 8375,
      "▁yalan": 8376,
      "▁cırpın": 8377,
      "▁hakiki": 8378,
      "▁fiili": 8379,
      "▁giymis": 8380,
      "▁gorbac": 8381,
      "▁28": 8382,
      "▁sekreteri": 8383,
      "▁ilhami": 8384,
      "▁nitelik": 8385,
      "▁kesmek": 8386,
      "▁ustundeki": 8387,
      "▁tu": 8388,
      "▁lun": 8389,
      "▁fırıl": 8390,
      "▁52": 8391,
      "▁%17": 8392,
      "▁bitmisti": 8393,
      "▁keyifli": 8394,
      "▁sanslı": 8395,
      "▁boynun": 8396,
      "ındaydı": 8397,
      "▁oburune": 8398,
      "▁kolalı": 8399,
      "▁gorunur": 8400,
      "▁havaalanı": 8401,
      "▁ustelik": 8402,
      "▁kimileri": 8403,
      "▁yaklasık": 8404,
      "▁alamadim": 8405,
      "verdi": 8406,
      "▁uzum": 8407,
      "▁lobi": 8408,
      "andı": 8409,
      "▁vez": 8410,
      "▁gelisen": 8411,
      "▁prens": 8412,
      "'d": 8413,
      "▁yapmaları": 8414,
      "▁atlanta": 8415,
      "1-19": 8416,
      "▁geceyi": 8417,
      "▁ral": 8418,
      "usuz": 8419,
      "▁pahaliydi": 8420,
      "larıma": 8421,
      "▁atti": 8422,
      "▁bankacı": 8423,
      "▁rusvet": 8424,
      "▁seyleri": 8425,
      "▁iliskisi": 8426,
      "ors": 8427,
      "▁bulunan": 8428,
      "▁olmasına": 8429,
      "▁yerlere": 8430,
      "▁cocuklara": 8431,
      "▁ceyrek": 8432,
      "▁yapmay": 8433,
      "sizin": 8434,
      "▁once": 8435,
      "▁sevgil": 8436,
      "vermis": 8437,
      "'ım": 8438,
      "uncusu": 8439,
      "▁bilinmeyen": 8440,
      "▁sec": 8441,
      "▁devr": 8442,
      "▁fos": 8443,
      "▁elestiri": 8444,
      "dıran": 8445,
      "▁yedide": 8446,
      "▁sahneye": 8447,
      "▁hastalıgı": 8448,
      "▁destan": 8449,
      "▁air": 8450,
      "▁sıt": 8451,
      "▁75": 8452,
      "\\/8": 8453,
      "▁soyleyin": 8454,
      "▁sansur": 8455,
      "▁esn": 8456,
      "▁isken": 8457,
      "se": 8458,
      "▁imal": 8459,
      "▁toplulugun": 8460,
      "▁hus": 8461,
      "irim": 8462,
      "▁asistan": 8463,
      "▁yasam": 8464,
      "▁durdur": 8465,
      "▁antr": 8466,
      "▁zor": 8467,
      "▁keskin": 8468,
      "▁um": 8469,
      "gı": 8470,
      "▁planlanıyor": 8471,
      "▁istedim": 8472,
      "▁sofr": 8473,
      "▁ceh": 8474,
      "▁haldır": 8475,
      "▁kendi": 8476,
      "pal": 8477,
      "▁onur": 8478,
      "▁ediyorlardı": 8479,
      "▁ziyan": 8480,
      "▁donusu": 8481,
      "▁abdullah": 8482,
      "▁cop": 8483,
      "eyaz": 8484,
      "▁kasket": 8485,
      "▁kandil": 8486,
      "▁hurmet": 8487,
      "▁yad": 8488,
      "cet": 8489,
      "▁hizmetler": 8490,
      "larak": 8491,
      "fa": 8492,
      "▁hızı": 8493,
      "▁kacamak": 8494,
      "anbul": 8495,
      "izik": 8496,
      "▁ustunden": 8497,
      "▁fazlasını": 8498,
      "▁baglan": 8499,
      "▁yasadigim": 8500,
      "▁mufett": 8501,
      "▁fikri": 8502,
      "▁red": 8503,
      "a": 8504,
      "▁mot": 8505,
      "▁ugruna": 8506,
      "ah": 8507,
      "▁verir": 8508,
      "ac": 8509,
      "▁alalım": 8510,
      "▁siddet": 8511,
      "▁muhareb": 8512,
      "▁eyalet": 8513,
      "▁oyley": 8514,
      "▁uysal": 8515,
      "nak": 8516,
      "▁duzenleyici": 8517,
      "▁hayatını": 8518,
      "▁konum": 8519,
      "▁kompozit": 8520,
      "▁mektep": 8521,
      "▁mars": 8522,
      "▁yara": 8523,
      "▁61": 8524,
      "▁0.010": 8525,
      "ıpıs": 8526,
      "▁terfi": 8527,
      "▁yanmıs": 8528,
      "ıklar": 8529,
      "▁olacak": 8530,
      "liyor": 8531,
      "larca": 8532,
      "▁iv": 8533,
      "bo": 8534,
      "▁t": 8535,
      "ısı": 8536,
      "▁burak": 8537,
      "▁senato": 8538,
      "▁yamalak": 8539,
      "▁edil": 8540,
      "▁nesi": 8541,
      "▁sorumlulugunu": 8542,
      "▁tutuk": 8543,
      "▁1971": 8544,
      "aseb": 8545,
      "▁amerika'da": 8546,
      "miyorum": 8547,
      "▁uye": 8548,
      "▁degeri": 8549,
      "▁talip": 8550,
      "bs": 8551,
      "▁1995": 8552,
      "▁afgan": 8553,
      "melerini": 8554,
      "▁hakem": 8555,
      "orta": 8556,
      "▁177": 8557,
      "▁yusuf": 8558,
      "llarca": 8559,
      "▁oakland'dan": 8560,
      "▁balo": 8561,
      "▁muhtem": 8562,
      "▁hukmet": 8563,
      "obil": 8564,
      "▁duk": 8565,
      "55": 8566,
      "▁siyah": 8567,
      "tıgım": 8568,
      "▁hepsinden": 8569,
      "abını": 8570,
      "+": 8571,
      "▁kesilmis": 8572,
      "ola": 8573,
      "▁alakali": 8574,
      "em": 8575,
      "larından": 8576,
      "▁mektup": 8577,
      "▁lob": 8578,
      "ıslı": 8579,
      "▁takiben": 8580,
      "▁gecim": 8581,
      "▁ziy": 8582,
      "▁dortyuz": 8583,
      "▁abla": 8584,
      "▁kims": 8585,
      "▁besik": 8586,
      "sali": 8587,
      "▁web": 8588,
      "arken": 8589,
      "▁cebine": 8590,
      "▁bug": 8591,
      "▁gevset": 8592,
      "tugu": 8593,
      "145": 8594,
      "▁yarım": 8595,
      "digince": 8596,
      "▁bilimsel": 8597,
      "▁pes": 8598,
      "▁ua": 8599,
      "▁akadem": 8600,
      "'nun": 8601,
      "▁aktivit": 8602,
      "▁olmus": 8603,
      "▁care": 8604,
      "▁haftalık": 8605,
      "cev": 8606,
      "▁tarihinde": 8607,
      "▁birimize": 8608,
      "▁mucevher": 8609,
      "▁agz": 8610,
      "▁kuyru": 8611,
      "etli": 8612,
      "▁agab": 8613,
      "▁sevda": 8614,
      "2.76": 8615,
      "▁milletin": 8616,
      "▁guven": 8617,
      "-merkezli": 8618,
      "▁kapıda": 8619,
      "▁ucakların": 8620,
      "press": 8621,
      "▁fot": 8622,
      "▁hazırlık": 8623,
      "▁edile": 8624,
      "▁paul": 8625,
      "▁evlerine": 8626,
      "▁kaymak": 8627,
      "▁muzak": 8628,
      "▁4:30": 8629,
      "▁ozer": 8630,
      "▁kambiy": 8631,
      "ral": 8632,
      "▁maf": 8633,
      "liam": 8634,
      "dum": 8635,
      "▁10.625": 8636,
      "leket": 8637,
      "▁afrika": 8638,
      "▁ilgin": 8639,
      "▁international": 8640,
      "▁mayıs": 8641,
      "'ndaki": 8642,
      "▁mani": 8643,
      "▁715": 8644,
      "-19": 8645,
      "avuz": 8646,
      "▁paket": 8647,
      "▁alındıgında": 8648,
      "▁mahluk": 8649,
      "▁ey": 8650,
      "ista": 8651,
      "▁vadi": 8652,
      "icisi": 8653,
      "▁belirlemek": 8654,
      "alardan": 8655,
      "/8'den": 8656,
      "▁dısında": 8657,
      "▁oturdu": 8658,
      "▁rehberi": 8659,
      "▁temizdi": 8660,
      "▁olmam": 8661,
      "▁detay": 8662,
      "▁gunah": 8663,
      "ılsın": 8664,
      "▁bardak": 8665,
      "▁keb": 8666,
      "▁news": 8667,
      "▁yurtdısına": 8668,
      "▁bedi": 8669,
      "acıların": 8670,
      "▁duzelt": 8671,
      "▁aksamki": 8672,
      "calı": 8673,
      "▁surat": 8674,
      "▁822": 8675,
      "▁duzeyinde": 8676,
      "ide": 8677,
      "elerden": 8678,
      "mec": 8679,
      "▁icki": 8680,
      "▁dusundugum": 8681,
      "▁devri": 8682,
      "▁karsıladı": 8683,
      "▁teklifleri": 8684,
      "▁ohio": 8685,
      "▁basında": 8686,
      "▁calar": 8687,
      "▁kadınlara": 8688,
      "▁diler": 8689,
      "▁lang": 8690,
      "▁oynarken": 8691,
      "ılas": 8692,
      "▁cumartesi": 8693,
      "▁milyardan": 8694,
      "▁ikiser": 8695,
      "▁...\"": 8696,
      "ılmayan": 8697,
      "▁anayasa": 8698,
      "▁milwa": 8699,
      "▁tacoma": 8700,
      "ket": 8701,
      "▁insanı": 8702,
      "▁tuttur": 8703,
      "▁147": 8704,
      "▁kararı": 8705,
      "▁pazarda": 8706,
      "▁198": 8707,
      "93": 8708,
      "▁karın": 8709,
      "5'e": 8710,
      "▁tit": 8711,
      "▁kagıda": 8712,
      "▁samim": 8713,
      "▁aln": 8714,
      "▁perakende": 8715,
      "▁dalgası": 8716,
      "uru": 8717,
      "▁hukuk": 8718,
      "▁kararlastır": 8719,
      "▁fırlat": 8720,
      "▁tanım": 8721,
      "▁getirmis": 8722,
      "▁pah": 8723,
      "▁yine": 8724,
      "▁dert": 8725,
      "▁herif": 8726,
      "▁dusup": 8727,
      "▁alınır": 8728,
      "▁cakır": 8729,
      "▁bitmeyen": 8730,
      "▁dost": 8731,
      "▁anne": 8732,
      "▁fren": 8733,
      "of": 8734,
      "saltı": 8735,
      "▁fir": 8736,
      "▁dinlenmek": 8737,
      "▁baris": 8738,
      "▁oluk": 8739,
      "▁resour": 8740,
      "▁ucakla": 8741,
      "indeki": 8742,
      "▁kalem": 8743,
      "▁konular": 8744,
      "15": 8745,
      "ılmamıs": 8746,
      "▁ceyr": 8747,
      "▁dustu": 8748,
      "▁herkesin": 8749,
      "▁bekar": 8750,
      "▁bulgu": 8751,
      "▁seksen": 8752,
      "▁basketbol": 8753,
      "gım": 8754,
      ".98": 8755,
      "▁sol": 8756,
      "▁sakır": 8757,
      "▁ugr": 8758,
      "▁cia": 8759,
      "▁kural": 8760,
      "▁islerinin": 8761,
      "gusu": 8762,
      "mekte": 8763,
      "▁ankara'da": 8764,
      "▁not": 8765,
      "osunu": 8766,
      "▁sevincle": 8767,
      "▁insallah": 8768,
      "▁sair": 8769,
      "▁vadesiz": 8770,
      "ekk": 8771,
      "▁sirk": 8772,
      "▁efendim": 8773,
      "ıstı": 8774,
      "▁1.18": 8775,
      "▁savası": 8776,
      "▁bizi": 8777,
      "▁kıyı": 8778,
      "gulu": 8779,
      "▁bicim": 8780,
      "▁kell": 8781,
      "leye": 8782,
      "▁posta": 8783,
      "▁olabilirdi": 8784,
      "▁7.1": 8785,
      "▁boylu": 8786,
      "▁isg": 8787,
      "▁sorunlarına": 8788,
      "▁nereler": 8789,
      "ood": 8790,
      "gen": 8791,
      "▁atlar": 8792,
      "elik": 8793,
      "▁healt": 8794,
      "▁sorustur": 8795,
      "isiz": 8796,
      "enler": 8797,
      "▁hill": 8798,
      "▁muv": 8799,
      "▁kolomb": 8800,
      "▁yapıyorlar": 8801,
      "▁ets": 8802,
      "teri": 8803,
      "▁375": 8804,
      "▁kurtulur": 8805,
      "▁s": 8806,
      "-4": 8807,
      "▁fabrik": 8808,
      "▁olmazsa": 8809,
      "ka": 8810,
      "▁gerekti": 8811,
      "▁kotuye": 8812,
      "▁agustos'ta": 8813,
      "att": 8814,
      "▁eksiklikler": 8815,
      "▁kotumser": 8816,
      "▁tatlı": 8817,
      "▁girdiler": 8818,
      "▁hal": 8819,
      "▁reh": 8820,
      "▁durgun": 8821,
      "40": 8822,
      "▁ref": 8823,
      "▁karsıya": 8824,
      "cayı": 8825,
      "▁62.5": 8826,
      "▁nezaket": 8827,
      "▁ile": 8828,
      "▁seri": 8829,
      "▁aracılıgıyla": 8830,
      "ank": 8831,
      "▁cuzdan": 8832,
      "▁satmak": 8833,
      "▁kamyon": 8834,
      "lesin": 8835,
      "▁koy": 8836,
      "ich": 8837,
      "▁lan": 8838,
      "▁kabın": 8839,
      "▁kadi": 8840,
      "▁gelismis": 8841,
      "▁hamur": 8842,
      "▁siyas": 8843,
      "▁sekl": 8844,
      "▁buraya": 8845,
      "▁kurulunun": 8846,
      "▁ip": 8847,
      "▁cıkması": 8848,
      "ck": 8849,
      "▁yayınlan": 8850,
      "▁cıkan": 8851,
      "▁derec": 8852,
      "▁taks": 8853,
      "▁dedi": 8854,
      "▁geliyordu": 8855,
[...]
