{
  "version": "1.0",
  "truncation": null,
  "padding": null,
  "added_tokens": [
    {
      "id": 359,
      "content": "[SEP]",
      "single_word": false,
      "lstrip": false,
      "rstrip": false,
      "normalized": false,
      "special": true
    },
    {
      "id": 1558,
      "content": "[CLS]",
      "single_word": false,
      "lstrip": false,
      "rstrip": false,
      "normalized": false,
      "special": true
    },
    {
      "id": 6145,
      "content": "[UNK]",
      "single_word": false,
      "lstrip": false,
      "rstrip": false,
      "normalized": false,
      "special": true
    },
    {
      "id": 6745,
      "content": "[MASK]",
      "single_word": false,
      "lstrip": false,
      "rstrip": false,
      "normalized": false,
      "special": true
    },
    {
      "id": 7134,
      "content": "[PAD]",
      "single_word": false,
      "lstrip": false,
      "rstrip": false,
      "normalized": false,
      "special": true
    }
  ],
  "normalizer": {
    "type": "Sequence",
    "normalizers": [
      {
        "type": "NFD"
      },
      {
        "type": "Lowercase"
      },
      {
        "type": "StripAccents"
      }
    ]
  },
  "pre_tokenizer": {
    "type": "Sequence",
    "pretokenizers": [
      {
        "type": "Metaspace",
        "replacement": "▁",
        "prepend_scheme": "always",
        "split": true
      }
    ]
  },
  "post_processor": {
    "type": "TemplateProcessing",
    "single": [
      {
        "SpecialToken": {
          "id": "[CLS]",
          "type_id": 0
        }
      },
      {
        "Sequence": {
          "id": "A",
          "type_id": 0
        }
      },
      {
        "SpecialToken": {
          "id": "[SEP]",
          "type_id": 0
        }
      }
    ],
    "pair": [
      {
        "SpecialToken": {
          "id": "[CLS]",
          "type_id": 0
        }
      },
      {
        "Sequence": {
          "id": "A",
          "type_id": 0
        }
      },
      {
        "SpecialToken": {
          "id": "[SEP]",
          "type_id": 0
        }
      },
      {
        "Sequence": {
          "id": "B",
          "type_id": 1
        }
      },
      {
        "SpecialToken": {
          "id": "[SEP]",
          "type_id": 1
        }
      }
    ],
    "special_tokens": {
      "[CLS]": {
        "id": "[CLS]",
        "ids": [
          1558
        ],
        "tokens": [
          "[CLS]"
        ]
      },
      "[SEP]": {
        "id": "[SEP]",
        "ids": [
          359
        ],
        "tokens": [
          "[SEP]"
        ]
      }
    }
  },
  "decoder": {
    "type": "Metaspace",
    "replacement": "▁",
    "prepend_scheme": "always",
    "split": true
  },
  "model": {
    "type": "BPE",
    "dropout": null,
    "unk_token": "[UNK]",
    "continuing_subword_prefix": null,
    "end_of_word_suffix": null,
    "fuse_unk": false,
    "byte_fallback": false,
    "ignore_merges": false,
    "vocab": {
      "▁sikin": 0,
      "▁muthis": 1,
      "ılabilir": 2,
      "▁araba": 3,
      "▁ekledi": 4,
      "▁giderek": 5,
      "▁yil": 6,
      "▁yaptıgını": 7,
      "uh": 8,
      "▁yasası": 9,
      "lıdır": 10,
      "▁vakıf": 11,
      "▁degillerdi": 12,
      "▁tahsil": 13,
      "▁universitesi": 14,
      "▁bıcak": 15,
      "▁mevsim": 16,
      "▁olas": 17,
      "ken": 18,
      "▁al": 19,
      "▁dev": 20,
      "▁halkı": 21,
      "▁oldugumuz": 22,
      "▁kongre": 23,
      "▁&": 24,
      "▁emre": 25,
      "▁mi": 26,
      "elim": 27,
      "adel": 28,
      "▁munaseb": 29,
      "▁mutlaka": 30,
      "iyi": 31,
      "▁kimsen": 32,
      "▁istem": 33,
      "▁iyice": 34,
      "▁ulkenin": 35,
      "▁tul": 36,
      ".49": 37,
      "▁tek": 38,
      "sel": 39,
      "▁samp": 40,
      "▁subat": 41,
      "▁kazan": 42,
      "uldugu": 43,
      "▁hukum": 44,
      "▁10000": 45,
      "isim": 46,
      "▁ucretini": 47,
      "▁duzgun": 48,
      "▁yaralan": 49,
      "digim": 50,
      "unu": 51,
      "▁%0": 52,
      "dokuzyuz": 53,
      "▁sikinti": 54,
      "▁gerekli": 55,
      "graf": 56,
      "▁pazar": 57,
      "▁tik": 58,
      "▁23": 59,
      "d": 60,
      "▁ortadan": 61,
      "▁obu": 62,
      "▁atesi": 63,
      "deri": 64,
      "duz": 65,
      "▁amel": 66,
      "▁cak": 67,
      "▁meydana": 68,
      "▁fark": 69,
      "▁per": 70,
      "▁ayni": 71,
      "▁ismini": 72,
      "▁kart": 73,
      "pr": 74,
      "▁basarısız": 75,
      "▁cesi": 76,
      "▁tesisi": 77,
      "▁oldugundan": 78,
      "▁%1": 79,
      "▁nedeniyle": 80,
      "iciler": 81,
      "▁altından": 82,
      "▁kuvvetli": 83,
      "▁donemi": 84,
      "tılı": 85,
      "agım": 86,
      "▁arasına": 87,
      "▁ayak": 88,
      "aci": 89,
      "▁klasik": 90,
      "▁etkisi": 91,
      "sah": 92,
      "▁birinde": 93,
      "▁cozum": 94,
      "▁beye": 95,
      "▁fazlaydi": 96,
      "▁garanti": 97,
      "▁hit": 98,
      "▁acıklanmadı": 99,
      "▁tut": 100,
      "rek": 101,
      "▁bakıyor": 102,
      "▁ez": 103,
      "▁birbirimiz": 104,
      "▁gro": 105,
      "▁yerel": 106,
      "tay": 107,
      "▁der": 108,
      "▁saldır": 109,
      "▁acik": 110,
      "▁elbis": 111,
      "▁yazık": 112,
      "6": 113,
      "tum": 114,
      "▁karsısına": 115,
      "▁degiller": 116,
      "dim": 117,
      "lıgının": 118,
      "▁kestir": 119,
      "ost": 120,
      "ash": 121,
      "▁aynı": 122,
      "yim": 123,
      "lamalar": 124,
      "▁eylul'de": 125,
      "▁onune": 126,
      "▁must": 127,
      "▁bircok": 128,
      "▁hassas": 129,
      "▁birileri": 130,
      "gal": 131,
      "▁uydur": 132,
      "'dan": 133,
      "▁ov": 134,
      "▁meydan": 135,
      "ann": 136,
      "▁guver": 137,
      "▁kis": 138,
      "lerimizi": 139,
      "▁caz": 140,
      "▁gozet": 141,
      "urken": 142,
      "▁belg": 143,
      "▁dırlar": 144,
      "▁bagım": 145,
      "▁osmanlı": 146,
      "▁kac": 147,
      "▁191": 148,
      "ogram": 149,
      "▁oteller": 150,
      "▁kadar": 151,
      "▁dı": 152,
      "▁aksine": 153,
      "▁dip": 154,
      "▁yapıldı": 155,
      "likte": 156,
      "▁test": 157,
      "▁yit": 158,
      "▁lab": 159,
      "ft": 160,
      "▁gotur": 161,
      "ıp": 162,
      "▁lub": 163,
      "▁wall": 164,
      "eli": 165,
      "▁cekir": 166,
      "agı": 167,
      "▁yasak": 168,
      "ps": 169,
      "▁yiyecekler": 170,
      "her": 171,
      "ayın": 172,
      "▁itiraf": 173,
      "▁ozgu": 174,
      "emiz": 175,
      "ion": 176,
      "cısı": 177,
      "▁insan": 178,
      "▁yarısı": 179,
      "▁senden": 180,
      "erken": 181,
      "▁yolculuk": 182,
      "▁rot": 183,
      "▁ya": 184,
      "▁haber": 185,
      "ustr": 186,
      "alanı": 187,
      "▁cıkıs": 188,
      "▁temmuz'da": 189,
      "▁birbirler": 190,
      "▁imz": 191,
      "▁ulastı": 192,
      "▁hafta": 193,
      "▁fut": 194,
      ">": 195,
      "▁yaptıgı": 196,
      "▁kapsam": 197,
      "▁zev": 198,
      "r": 199,
      "▁kuzey": 200,
      "▁gun": 201,
      "▁louis'e": 202,
      "lara": 203,
      "▁onunla": 204,
      "▁194": 205,
      "▁genc": 206,
      "▁cekti": 207,
      "▁ediyorlar": 208,
      "▁oranı": 209,
      "▁toz": 210,
      "5-1": 211,
      "▁olanlar": 212,
      "▁yoldan": 213,
      "▁oksur": 214,
      "▁yapabil": 215,
      "▁bizler": 216,
      "▁konusur": 217,
      "▁aylık": 218,
      "▁yapı": 219,
      "uluyor": 220,
      "▁yakal": 221,
      "▁birin": 222,
      "▁tazmin": 223,
      "alarına": 224,
      "▁nobet": 225,
      "▁kalın": 226,
      "has": 227,
      "▁manzar": 228,
      "▁100000": 229,
      "duk": 230,
      "ums": 231,
      "▁st": 232,
      "▁ucrete": 233,
      "mesiyle": 234,
      "▁turkiye": 235,
      "▁baskı": 236,
      "▁5.9": 237,
      "tı": 238,
      "eki": 239,
      "▁yurum": 240,
      "▁iskonto": 241,
      "leyin": 242,
      "▁londra": 243,
      "▁sunları": 244,
      "▁ibm": 245,
      "▁hacmi": 246,
      "▁mahkum": 247,
      "▁calıstır": 248,
      "▁terbiy": 249,
      "▁cıkmıstı": 250,
      "▁gal": 251,
      "daki": 252,
      "▁yetkil": 253,
      "▁fik": 254,
      "uth": 255,
      "▁karı": 256,
      "ina": 257,
      "▁beb": 258,
      "▁yatır": 259,
      "▁risk": 260,
      "yle": 261,
      "▁dunyayı": 262,
      "▁getiri": 263,
      "▁ihtiyar": 264,
      ";": 265,
      "▁akıllı": 266,
      "▁arb": 267,
      "▁sı": 268,
      "▁iyisi": 269,
      "▁dedim": 270,
      "▁telas": 271,
      "▁cozul": 272,
      "▁dostu": 273,
      "▁kend": 274,
      "▁toplantıs": 275,
      "▁kam": 276,
      "30": 277,
      "▁montreal'a": 278,
      "▁parc": 279,
      "▁1\\/2": 280,
      "apolis": 281,
      "amadı": 282,
      "▁gormek": 283,
      "▁siy": 284,
      "▁yardimci": 285,
      "▁kendilerinden": 286,
      "▁firması": 287,
      "▁%30": 288,
      "▁a.b.": 289,
      "makta": 290,
      "▁ihr": 291,
      "bahar": 292,
      "▁ekim": 293,
      "▁kıymet": 294,
      "▁bilen": 295,
      "▁!": 296,
      "▁merak": 297,
      "▁paranın": 298,
      "▁adı": 299,
      "▁defter": 300,
      "▁personellerinden": 301,
      "▁tarih": 302,
      "▁the": 303,
      "alarında": 304,
      "▁isciler": 305,
      "▁cekip": 306,
      "▁benimle": 307,
      "▁kanun": 308,
      "▁soyle": 309,
      "$": 310,
      "▁sır": 311,
      "42": 312,
      "▁rahatti": 313,
      "▁ert": 314,
      "▁mich": 315,
      "dy": 316,
      "▁gomlek": 317,
      "edeki": 318,
      "amı": 319,
      "▁ugur": 320,
      "▁mısıl": 321,
      "▁ep": 322,
      "▁halihazırda": 323,
      "▁abdul": 324,
      "▁milli": 325,
      "▁uluslararası": 326,
      "▁kampanyalar": 327,
      "▁karsısında": 328,
      "▁reddetti": 329,
      "▁persembe": 330,
      "misler": 331,
      "▁ucuz": 332,
      "▁abd'de": 333,
      "▁yaptirmadim": 334,
      "▁ice": 335,
      "▁kullanılıyor": 336,
      "▁baslık": 337,
      "▁dusunmuyor": 338,
      "▁orgut": 339,
      "▁yakında": 340,
      "lesmis": 341,
      "▁gecerli": 342,
      "▁kap": 343,
      "▁subay": 344,
      "▁sist": 345,
      "▁bosal": 346,
      "▁20.": 347,
      "ruk": 348,
      "▁bilgiye": 349,
      "▁muslum": 350,
      "▁cen": 351,
      "▁oturuyor": 352,
      "▁deger": 353,
      "▁bolgede": 354,
      "▁dogum": 355,
      "ecegim": 356,
      "▁memnunuz": 357,
      "▁yaptirdi": 358,
      "[SEP]": 359,
      "▁1997": 360,
      "▁zamanlar": 361,
      "▁gelmisti": 362,
      "▁ok": 363,
      "▁lez": 364,
      "▁ydik": 365,
      "▁icer": 366,
      "▁sınıfı": 367,
      "▁doları'na": 368,
      "medim": 369,
      "▁kırık": 370,
      "pe": 371,
      "▁kuvvet": 372,
      "ufur": 373,
      "▁erdog": 374,
      "▁tok": 375,
      "▁sıf": 376,
      "ahh": 377,
      "▁alır": 378,
      "▁adamı": 379,
      "▁hay": 380,
      "▁olu": 381,
      "▁palt": 382,
      "▁5.5": 383,
      "ec": 384,
      "▁texas": 385,
      "iyordum": 386,
      "▁hicbirini": 387,
      "▁ilgilendiler": 388,
      "mesinin": 389,
      "▁seyin": 390,
      "▁girip": 391,
      "▁dusus": 392,
      "▁hac": 393,
      "▁sivil": 394,
      "▁du": 395,
      "▁dusurdu": 396,
      "▁ayarlan": 397,
      "malarına": 398,
      "▁biri": 399,
      "cekti": 400,
      "▁uygulan": 401,
      "kah": 402,
      "lerinin": 403,
      "tu": 404,
      "bul": 405,
      "▁kisinin": 406,
      "▁pop": 407,
      "▁gerceklesti": 408,
      "▁ons": 409,
      "▁etmeye": 410,
      "▁hedef": 411,
      ".9": 412,
      "▁ideal": 413,
      "3": 414,
      "▁idar": 415,
      "▁mıydı": 416,
      "▁calis": 417,
      "aları": 418,
      "▁merrill": 419,
      "▁ım": 420,
      "▁lev": 421,
      "▁rak": 422,
      "▁secildi": 423,
      "▁phoeni": 424,
      "▁islet": 425,
      "▁kisisel": 426,
      "▁verdim": 427,
      "▁newark": 428,
      "▁cag": 429,
      "▁yargıc": 430,
      "▁sevinc": 431,
      "▁yataklar": 432,
      "yedi": 433,
      "▁istikrar": 434,
      "▁digerleri": 435,
      "ulu": 436,
      "iger": 437,
      "ladım": 438,
      "▁havuzu": 439,
      "ilerle": 440,
      "cok": 441,
      "ına": 442,
      "medi": 443,
      "▁vucu": 444,
      "▁ifad": 445,
      "▁istedi": 446,
      "gumu": 447,
      "▁cekmek": 448,
      "▁sic": 449,
      "▁basından": 450,
      "egine": 451,
      "▁doneminde": 452,
      "▁olgun": 453,
      "▁islemler": 454,
      "▁onceden": 455,
      "ahi": 456,
      "negin": 457,
      "siye": 458,
      "▁se": 459,
      "▁ucretlerini": 460,
      "▁havuzlari": 461,
      "▁peki": 462,
      "▁deri": 463,
      "▁dagı": 464,
      "▁durumunda": 465,
      "▁lik": 466,
      "▁adama": 467,
      "▁kimin": 468,
      "paz": 469,
      "▁sabaha": 470,
      "▁sorunları": 471,
      "▁ihtiy": 472,
      "▁tedavulde": 473,
      "▁alabilir": 474,
      "▁bir": 475,
      "▁17": 476,
      "dıkca": 477,
      "▁soz": 478,
      "▁odanın": 479,
      "▁finc": 480,
      "▁los": 481,
      "▁tel": 482,
      "ılı": 483,
      "adır": 484,
      "ıldıgında": 485,
      "▁ucusun": 486,
      "▁pas": 487,
      "lanıyor": 488,
      "▁odanin": 489,
      "▁verg": 490,
      "▁yal": 491,
      "▁bu": 492,
      "▁gozunu": 493,
      "su": 494,
      "don": 495,
      "▁konak": 496,
      "▁yuksel": 497,
      "▁gelis": 498,
      "▁restoran": 499,
      "lis": 500,
      "▁mul": 501,
      "▁minneapolis": 502,
      "▁katil": 503,
      "ence": 504,
      "▁rekabet": 505,
      "▁duz": 506,
      "▁tahvil": 507,
      ".000": 508,
      "▁zehir": 509,
      "▁golg": 510,
      "▁kalite": 511,
      "▁menkul": 512,
      "▁piy": 513,
      "ita": 514,
      "▁kapasit": 515,
      "vi": 516,
      "▁olum": 517,
      "▁dısı": 518,
      "cesi": 519,
      "▁seref": 520,
      "▁doları'ndan": 521,
      "▁yapmak": 522,
      "ildik": 523,
      "▁tur": 524,
      "▁tepki": 525,
      "▁mac": 526,
      "▁kısı": 527,
      "▁soylediler": 528,
      "▁puan": 529,
      "▁izin": 530,
      "▁fingir": 531,
      "lesi": 532,
      "cut": 533,
      "▁rej": 534,
      "▁getiren": 535,
      "▁kayı": 536,
      "▁kosk": 537,
      "▁arab": 538,
      "tin": 539,
      "▁artık": 540,
      "▁kullanılan": 541,
      "▁gayet": 542,
      "▁elden": 543,
      "wood": 544,
      "lo": 545,
      "▁verdigimiz": 546,
      "ni": 547,
      "▁yagı": 548,
      "ginden": 549,
      "▁atlanta'dan": 550,
      "▁fıs": 551,
      "▁bucuk": 552,
      "▁kat": 553,
      "▁141": 554,
      "ısır": 555,
      "▁firma": 556,
      "▁agız": 557,
      "26": 558,
      "gis": 559,
      "▁ayse": 560,
      "▁milyonluk": 561,
      "nan": 562,
      "▁hazır": 563,
      "▁acıkladı": 564,
      "▁mahall": 565,
      "▁fransa": 566,
      "p": 567,
      "▁yerlestir": 568,
      "▁duzenlenen": 569,
      "▁05.": 570,
      "ro": 571,
      "▁bık": 572,
      "ator": 573,
      "i'nin": 574,
      "▁girer": 575,
      "leyici": 576,
      "▁seviyesine": 577,
      "ing": 578,
      "▁kapıya": 579,
      "-m": 580,
      "▁soy": 581,
      "▁hol": 582,
      ".52": 583,
      "▁arayan": 584,
      "▁muda": 585,
      "▁kurus": 586,
      "▁port": 587,
      "▁garip": 588,
      "▁mermer": 589,
      "-p": 590,
      "▁yuks": 591,
      "vıl": 592,
      "▁kimyasal": 593,
      "▁konfor": 594,
      "▁usta": 595,
      "▁2017": 596,
      "▁normaldi": 597,
      "▁sesleri": 598,
      "▁feder": 599,
      "▁tep": 600,
      "▁cav": 601,
      "▁alamadik": 602,
      "om": 603,
      "▁aile": 604,
      "▁yukseltti": 605,
      "▁mahal": 606,
      "▁yaz": 607,
      "▁hazırlanısı": 608,
      "▁memur": 609,
      "▁piyasanın": 610,
      "▁yse": 611,
      "iniki": 612,
      "▁milwaukee'den": 613,
      "▁parcaları": 614,
      "unku": 615,
      "▁fiyatı": 616,
      "▁kaybetti": 617,
      "▁turkler": 618,
      "▁doksan": 619,
      "▁tanıt": 620,
      "▁asagı": 621,
      "▁yaklasimi": 622,
      "▁sin": 623,
      "▁hissedar": 624,
      "lıkları": 625,
      "mesi": 626,
      "▁aslında": 627,
      ".375": 628,
      "▁pis": 629,
      "men": 630,
      "▁soguk": 631,
      "▁yurek": 632,
      "ecegini": 633,
      "▁izmir": 634,
      "▁istasyon": 635,
      "▁kalabalık": 636,
      "▁oteli": 637,
      "▁planlıyor": 638,
      "▁grub": 639,
      "“": 640,
      "lek": 641,
      "▁1.000": 642,
      "▁cant": 643,
      "▁hayli": 644,
      ":00-22:30": 645,
      "▁endustri": 646,
      "▁cesaret": 647,
      "▁ziyade": 648,
      "lin": 649,
      "▁sade": 650,
      "▁teknik": 651,
      "ben": 652,
      "▁toplantı": 653,
      "▁uzan": 654,
      "ilecek": 655,
      "den": 656,
      "▁suru": 657,
      "▁business": 658,
      "▁altmıs": 659,
      "▁ucusunu": 660,
      "▁ihtiyat": 661,
      "▁izledi": 662,
      "us": 663,
      "'la": 664,
      "ulugun": 665,
      "wa": 666,
      "iy": 667,
      "▁%13": 668,
      "▁david": 669,
      "60": 670,
      "▁beklem": 671,
      "▁tersine": 672,
      "▁havası": 673,
      "▁herhangi": 674,
      "▁falan": 675,
      "▁hesap": 676,
      "▁gecip": 677,
      "egi": 678,
      "▁filan": 679,
      "​": 680,
      "▁senetleri": 681,
      "▁a": 682,
      "ugunu": 683,
      "▁soyleyen": 684,
      "▁kitab": 685,
      "ayol": 686,
      "▁vakit": 687,
      "▁karn": 688,
      "agın": 689,
      "▁sipar": 690,
      "▁hak": 691,
      "▁yeni": 692,
      "▁buf": 693,
      "▁gorunen": 694,
      "▁tim": 695,
      ".05": 696,
      "mıstır": 697,
      "arik": 698,
      "▁onemli": 699,
      "▁1500": 700,
      "madi": 701,
      "sak": 702,
      "▁olmuyor": 703,
      "y": 704,
      "▁olanaklari": 705,
      "orn": 706,
      "▁serg": 707,
      "▁buyum": 708,
      "▁4.2": 709,
      "▁edebilir": 710,
      "▁37": 711,
      "akar": 712,
      "▁gorus": 713,
      "▁yildiz": 714,
      "▁tav": 715,
      "istler": 716,
      "▁sıkın": 717,
      "ersey": 718,
      "iliyor": 719,
      "▁birbirine": 720,
      "▁ote": 721,
      "dırdı": 722,
      "▁atese": 723,
      "▁telef": 724,
      "sek": 725,
      "▁sp": 726,
      "▁dipl": 727,
      "▁roman": 728,
      "▁british": 729,
      "▁hazin": 730,
      "liyordu": 731,
      "▁nisan": 732,
      "ulan": 733,
      "ustuk": 734,
      "▁alısveris": 735,
      "▁1.25": 736,
      "▁ilac": 737,
      "▁y": 738,
      "▁ki": 739,
      "▁canlı": 740,
      "0.7": 741,
      "▁sad": 742,
      "▁teksas": 743,
      "▁benzin": 744,
      "▁imkanlari": 745,
      "▁gereken": 746,
      "▁sım": 747,
      "▁mekan": 748,
      "▁insanlara": 749,
      "▁pat": 750,
      "▁ederken": 751,
      "ydı": 752,
      "▁kit": 753,
      "5": 754,
      "▁zek": 755,
      "▁olmamıs": 756,
      "kuz": 757,
      "▁adeta": 758,
      "▁birden": 759,
      "▁sessiz": 760,
      "▁in": 761,
      "larım": 762,
      "▁derken": 763,
      "ımızın": 764,
      "▁190": 765,
      "▁istir": 766,
      "▁nice": 767,
      "▁dısına": 768,
      "▁acık": 769,
      "elerinde": 770,
      "ast": 771,
      "▁wash": 772,
      "▁antik": 773,
      "alık": 774,
      "▁giren": 775,
      "mekten": 776,
      "▁53": 777,
      "50": 778,
      "bel": 779,
      "er": 780,
      "rak": 781,
      "▁telefonla": 782,
      "▁karar": 783,
      "▁mantık": 784,
      "▁meh": 785,
      "▁karlı": 786,
      "uston": 787,
      "istan": 788,
      "masında": 789,
      "tir": 790,
      "acaklar": 791,
      "▁yagmur": 792,
      "▁onumuz": 793,
      "▁hasta": 794,
      "▁olma": 795,
      "▁kans": 796,
      "▁ide": 797,
      "▁kurk": 798,
      "▁suyun": 799,
      "▁ikisi": 800,
      "▁kızın": 801,
      "▁mahkem": 802,
      "▁fiyatina": 803,
      "▁arm": 804,
      "▁kaptan": 805,
      "amiz": 806,
      "▁bunlardan": 807,
      "arson": 808,
      "mayacak": 809,
      "▁insaat": 810,
      "▁birtak": 811,
      "▁fa": 812,
      "egen": 813,
      "▁gog": 814,
      "▁mıyım": 815,
      "▁alınması": 816,
      "▁1/4": 817,
      "▁kel": 818,
      "maz": 819,
      "▁fin": 820,
      "▁isk": 821,
      "cu": 822,
      "ulmaz": 823,
      "▁yapmaya": 824,
      "▁sch": 825,
      "gum": 826,
      "▁yildizli": 827,
      "▁sart": 828,
      "tern": 829,
      "▁giriyor": 830,
      "ultu": 831,
      "▁yuzluydu": 832,
      "sik": 833,
      "lil": 834,
      "▁ster": 835,
      "og": 836,
      "saydı": 837,
      "47": 838,
      "gin": 839,
      "▁dun": 840,
      "▁yasanan": 841,
      "▁hava": 842,
      "▁kanada": 843,
      "▁buny": 844,
      "▁taze": 845,
      "say": 846,
      "'a": 847,
      "▁tutan": 848,
      "▁%99": 849,
      "▁zarif": 850,
      "▁memnun": 851,
      "▁ann": 852,
      "▁tat": 853,
      "unuz": 854,
      "▁geride": 855,
      "b": 856,
      "ya'nın": 857,
      "▁sırada": 858,
      "▁charlotte'den": 859,
      "diniz": 860,
      "▁car": 861,
      "lım": 862,
      "▁soluk": 863,
      "86": 864,
      "▁avrupa'da": 865,
      "▁fan": 866,
      "ant": 867,
      "▁derg": 868,
      "▁muay": 869,
      "▁5.2": 870,
      "ont": 871,
      "▁tepk": 872,
      "ustur": 873,
      "▁arabayı": 874,
      "mer": 875,
      "▁mutlu": 876,
      "▁anlamına": 877,
      "▁seniz": 878,
      "▁journal": 879,
      "▁kımıl": 880,
      "▁bekleniyor": 881,
      "ki": 882,
      "▁hayatın": 883,
      "akat": 884,
      "an'ın": 885,
      "▁yapıp": 886,
      "▁arastır": 887,
      "▁lezzeti": 888,
      "▁dis": 889,
      "▁cırp": 890,
      "▁kalkan": 891,
      "▁tutar": 892,
      "menin": 893,
      "▁por": 894,
      "▁vermis": 895,
      "▁kaliteliydi": 896,
      "▁resep": 897,
      "▁giderken": 898,
      "▁kosul": 899,
      "▁400": 900,
      "27": 901,
      "yım": 902,
      "▁ardı": 903,
      "sini": 904,
      "gıc": 905,
      "▁malz": 906,
      "▁2004": 907,
      "▁dakik": 908,
      "▁mutfak": 909,
      "▁sesle": 910,
      "ıntı": 911,
      "▁temin": 912,
      "▁lamb": 913,
      "▁biraz": 914,
      "lasıyor": 915,
      "atin": 916,
      "▁ozellikle": 917,
      "▁ulasılamadı": 918,
      "▁piyasaya": 919,
      "▁bahseder": 920,
      "esini": 921,
      "▁olmayı": 922,
      "af": 923,
      "▁kızıl": 924,
      "▁zarf": 925,
      "erv": 926,
      "▁kapsamlı": 927,
      "▁normal": 928,
      "▁soh": 929,
      "ligin": 930,
      "▁senetlerinin": 931,
      "▁bizleri": 932,
      "▁115": 933,
      "-23": 934,
      "▁kisilerin": 935,
      "▁ik": 936,
      "▁cumle": 937,
      "▁istek": 938,
      "eden": 939,
      "iste": 940,
      "▁sını": 941,
      "ıma": 942,
      "▁iste": 943,
      "▁dunyaya": 944,
      "▁aktivite": 945,
      "▁7.8": 946,
      "▁ziyaret": 947,
      "ag": 948,
      "▁sultan": 949,
      "▁istanbul": 950,
      "▁5000": 951,
      "samba": 952,
      "▁gozler": 953,
      ".38": 954,
      "mazlar": 955,
      "▁taz": 956,
      "▁muhaseb": 957,
      "▁genelde": 958,
      "▁59": 959,
      "▁cicek": 960,
      "ade": 961,
      "▁``": 962,
      "▁400000": 963,
      "▁kolay": 964,
      "▁kitap": 965,
      "▁diyor": 966,
      "▁degis": 967,
      "▁cıtır": 968,
      "▁hayvan": 969,
      "▁ortalama": 970,
      "▁denizi": 971,
      "madim": 972,
      "▁piyasa": 973,
      "▁birik": 974,
      "▁teklifini": 975,
      "▁oden": 976,
      "▁efendi": 977,
      "lemek": 978,
      "▁gormuyor": 979,
      "▁karan": 980,
      "▁yanıt": 981,
      "c": 982,
      "▁yolcu": 983,
      "▁ogleden": 984,
      "▁yılı": 985,
      "▁onsekiz": 986,
      "▁dalgalan": 987,
      "ra": 988,
      "▁kimseye": 989,
      "▁cbs": 990,
      "▁ayrı": 991,
      "ell": 992,
      "▁eskiydi": 993,
      "▁yasay": 994,
      "dıgından": 995,
      "▁sak": 996,
      "▁zavallı": 997,
      "▁mevcut": 998,
      "▁bildir": 999,
      "ohn": 1000,
      "mıs": 1001,
      "▁hapis": 1002,
      "▁2008": 1003,
      "ark": 1004,
      "▁seb": 1005,
      "tra": 1006,
      "▁gecenin": 1007,
      "▁bell": 1008,
      "▁toren": 1009,
      "▁yemeklerden": 1010,
      "▁ulasımı": 1011,
      "▁rek": 1012,
      "▁tutul": 1013,
      "▁$'dan": 1014,
      "▁gul": 1015,
      "▁tas": 1016,
      "▁gider": 1017,
      "▁cumhuriyet": 1018,
      "s'in": 1019,
      "siy": 1020,
      "▁sise": 1021,
      "▁defa": 1022,
      "▁aktarmasız": 1023,
      "▁cic": 1024,
      "mac": 1025,
      "▁kısın": 1026,
      "laması": 1027,
      "▁odul": 1028,
      "▁deneyim": 1029,
      "▁karak": 1030,
      "▁cocugu": 1031,
      "▁201": 1032,
      "▁kalab": 1033,
      "▁siyaset": 1034,
      "▁gordu": 1035,
      "▁nam": 1036,
      "▁deng": 1037,
      "▁kılıc": 1038,
      "▁van": 1039,
      "▁basvur": 1040,
      "▁tavuk": 1041,
      "▁endek": 1042,
      "▁268": 1043,
      "▁tak": 1044,
      "▁''": 1045,
      "▁alıs": 1046,
      "▁sicak": 1047,
      "▁7.6": 1048,
      "▁kopr": 1049,
      "cek": 1050,
      "leme": 1051,
      "uya": 1052,
      "▁kazanc": 1053,
      ".125": 1054,
      "▁pittsburgh": 1055,
      "▁havayolları": 1056,
      "▁mek": 1057,
      "cel": 1058,
      "▁dallas": 1059,
      "ıza": 1060,
      "▁gomle": 1061,
      "▁karsilama": 1062,
      "ica": 1063,
      "▁ikiye": 1064,
      "evi": 1065,
      "▁par": 1066,
      "▁mesaj": 1067,
      "▁darb": 1068,
      "▁dag": 1069,
      "eyn": 1070,
      "▁verdik": 1071,
      "▁kelim": 1072,
      "▁dim": 1073,
      "▁getirdi": 1074,
      "▁hakkinda": 1075,
      "▁kisiye": 1076,
      "▁mimar": 1077,
      "ime": 1078,
      "eyi": 1079,
      "▁ona": 1080,
      "▁boru": 1081,
      "▁tahvili": 1082,
      "▁mar": 1083,
      "▁m": 1084,
      "▁aldılar": 1085,
      "▁haric": 1086,
      "▁1.0": 1087,
      "▁bayan": 1088,
      "▁satılan": 1089,
      "yor": 1090,
      "enen": 1091,
      "▁yerleri": 1092,
      "eri": 1093,
      "▁geciyor": 1094,
      "▁duvar": 1095,
      "▁sıngır": 1096,
      "▁birbirlerini": 1097,
      "ılıgıyla": 1098,
      "▁cub": 1099,
      "▁birbiri": 1100,
      "▁kacak": 1101,
      "lerdeki": 1102,
      "▁soyley": 1103,
      "larındaki": 1104,
      "▁saatlerinde": 1105,
      "lit": 1106,
      "▁kazancı": 1107,
      "▁bur": 1108,
      "▁cad": 1109,
      "▁potansiy": 1110,
      "▁boz": 1111,
      "gel": 1112,
      "▁seni": 1113,
      "dız": 1114,
      "2.1": 1115,
      "▁sabahı": 1116,
      "day": 1117,
      "▁numara": 1118,
      "▁pey": 1119,
      "▁toplan": 1120,
      "▁anladı": 1121,
      "ınc": 1122,
      "▁alıskan": 1123,
      "▁tuz": 1124,
      "▁fel": 1125,
      "▁isten": 1126,
      "▁dort": 1127,
      "▁sıra": 1128,
      "eyebilir": 1129,
      "▁yatırımcıların": 1130,
      "▁denver'de": 1131,
      "▁tezgah": 1132,
      "▁nereye": 1133,
      "▁fe": 1134,
      "ibar": 1135,
      "▁birisini": 1136,
      "▁adi": 1137,
      "=": 1138,
      "▁tarafından": 1139,
      "▁kuz": 1140,
      "ber": 1141,
      "▁plaj": 1142,
      "▁evi": 1143,
      "aten": 1144,
      "▁duzenli": 1145,
      "▁ydi": 1146,
      "xel": 1147,
      "tadır": 1148,
      "erse": 1149,
      "▁yut": 1150,
      "sızın": 1151,
      "▁kıyafet": 1152,
      "▁1988": 1153,
      "son": 1154,
      "▁basbakan": 1155,
      "▁yelpaz": 1156,
      "▁kalktı": 1157,
      "▁tucc": 1158,
      "▁buyuy": 1159,
      "▁istiyorum": 1160,
      "▁kalmadı": 1161,
      "▁ardından": 1162,
      "▁yapmaktan": 1163,
      "ayi": 1164,
      "▁pu": 1165,
      "▁4": 1166,
      "yon": 1167,
      "▁seatt": 1168,
      "▁serb": 1169,
      "▁q": 1170,
      "▁kov": 1171,
      "▁sizden": 1172,
      "yı": 1173,
      "▁merkeze": 1174,
      "▁bana": 1175,
      "▁analiz": 1176,
      "▁6.9": 1177,
      "▁kucak": 1178,
      "▁gaz": 1179,
      "▁kos": 1180,
      "uluk": 1181,
      "▁bakarak": 1182,
      "▁sor": 1183,
      "▁birligi": 1184,
      "▁ir": 1185,
      "▁sayıda": 1186,
      "▁amerika": 1187,
      "▁duzel": 1188,
      "!": 1189,
      "▁sehr": 1190,
      "▁taraftan": 1191,
      "▁kıl": 1192,
      "▁calıs": 1193,
      "ımıza": 1194,
      "our": 1195,
      "▁3.1": 1196,
      "▁ick": 1197,
      "▁oldukca": 1198,
      "▁dogal": 1199,
      "▁agrı": 1200,
      "▁40": 1201,
      "▁turist": 1202,
      "▁esy": 1203,
      "▁louis": 1204,
      "dik": 1205,
      "▁genis": 1206,
      "▁arap": 1207,
      "▁sum": 1208,
      "▁tef": 1209,
      "emek": 1210,
      "rika": 1211,
      "▁belirsiz": 1212,
      "▁gormez": 1213,
      "▁arkadasım": 1214,
      "▁j.": 1215,
      "▁bisiklet": 1216,
      "▁gercekles": 1217,
      "tek": 1218,
      "▁kahvalti": 1219,
      "▁kim": 1220,
      "ırlar": 1221,
      "larınız": 1222,
      "▁gom": 1223,
      "▁giyin": 1224,
      "ation": 1225,
      "▁ların": 1226,
      "▁kor": 1227,
      "▁alıyor": 1228,
      "ati": 1229,
      "amadım": 1230,
      "ry": 1231,
      "▁%20": 1232,
      "▁konumu": 1233,
      "▁buyume": 1234,
      "uyorum": 1235,
      "re": 1236,
      "▁benziyor": 1237,
      "▁basın": 1238,
      "▁mevdu": 1239,
      "▁be": 1240,
      "▁didik": 1241,
      "▁boyle": 1242,
      "▁eb": 1243,
      "▁isvic": 1244,
      "izasyon": 1245,
      "▁bog": 1246,
      "▁kahve": 1247,
      "▁14": 1248,
      "▁seklinde": 1249,
      "▁sirketin": 1250,
      "▁orland": 1251,
      "▁%9": 1252,
      "▁kalmaya": 1253,
      "▁sozu": 1254,
      "▁trust": 1255,
      "malarını": 1256,
      "inn": 1257,
      "esil": 1258,
      "umda": 1259,
      "▁mosk": 1260,
      "acılık": 1261,
      "▁cin": 1262,
      "▁airlines": 1263,
      "▁miydi": 1264,
      "ael": 1265,
      "'de": 1266,
      "▁olurdu": 1267,
      "liginden": 1268,
      "ılıgı": 1269,
      "▁anlama": 1270,
      "▁pitts": 1271,
      "▁soyledi": 1272,
      "▁ger": 1273,
      "▁potansiyel": 1274,
      "ish": 1275,
      "▁ton": 1276,
      "▁tv": 1277,
      "▁taslar": 1278,
      "▁egit": 1279,
      "▁kı": 1280,
      "'nın": 1281,
      "▁bo": 1282,
      "▁saman": 1283,
      "▁zamana": 1284,
      "▁*": 1285,
      "▁bastır": 1286,
      "▁ucus": 1287,
      "temiz": 1288,
      "▁kurban": 1289,
      "▁ana": 1290,
      "▁konusmalar": 1291,
      "▁yılında": 1292,
      "▁demir": 1293,
      "▁otob": 1294,
      "▁huy": 1295,
      "sim": 1296,
      "▁tuhaf": 1297,
      "▁!..": 1298,
      "-sat": 1299,
      "▁yolun": 1300,
      "imser": 1301,
      "▁krizi": 1302,
      "imleri": 1303,
      "▁miami'den": 1304,
      "sizim": 1305,
      "▁dediler": 1306,
      "▁evin": 1307,
      "▁kucuktu": 1308,
      "▁bank": 1309,
      "'nin": 1310,
      "▁div": 1311,
      "▁bulur": 1312,
      "▁sakin": 1313,
      "▁verilen": 1314,
      "▁twa": 1315,
      "▁ayr": 1316,
      "▁yıldan": 1317,
      "▁populer": 1318,
      "▁kaynak": 1319,
      "▁tuccarlar": 1320,
      "▁uvey": 1321,
      "▁isim": 1322,
      "oloji": 1323,
      "▁sozler": 1324,
      "▁denet": 1325,
      "▁calisan": 1326,
      "-22:30": 1327,
      "ada": 1328,
      "▁unit": 1329,
      "▁baslayacak": 1330,
      "▁gunku": 1331,
      "▁gunduz": 1332,
      "▁gittik": 1333,
      "▁bilgi": 1334,
      "ındaki": 1335,
      "gının": 1336,
      "▁doviz": 1337,
      "▁grubu": 1338,
      "▁ar": 1339,
      "ya'da": 1340,
      "v": 1341,
      "▁kokusu": 1342,
      "▁konustu": 1343,
      "ester": 1344,
      "▁iler": 1345,
      "▁kurumsal": 1346,
      "5'te": 1347,
      "▁uret": 1348,
      "▁zihn": 1349,
      "▁dogur": 1350,
      "▁istemedi": 1351,
      "lak": 1352,
      "▁adam": 1353,
      "ansiyon": 1354,
      "▁haline": 1355,
      "▁italyan": 1356,
      "▁gazi": 1357,
      "▁kurt": 1358,
      "▁olacagını": 1359,
      "▁bicimde": 1360,
      "▁west": 1361,
      "▁tedbir": 1362,
      "▁sordu": 1363,
      "ırken": 1364,
      "▁sendika": 1365,
      "gunuz": 1366,
      "cakt": 1367,
      "▁yansıt": 1368,
      "▁dahil": 1369,
      "▁cos": 1370,
      "▁gurult": 1371,
      "ısıl": 1372,
      "▁kuy": 1373,
      "ulması": 1374,
      "mayın": 1375,
      "▁savas": 1376,
      "▁florida": 1377,
      "▁yılda": 1378,
      "deniz": 1379,
      "▁musunuz": 1380,
      "▁gumus": 1381,
      "▁dinlen": 1382,
      "▁destekli": 1383,
      "▁mahkemesi": 1384,
      "▁oyku": 1385,
      "▁gıda": 1386,
      "lıklar": 1387,
      "▁bulbul": 1388,
      "▁yed": 1389,
      "▁hakkı": 1390,
      "▁sıkıstır": 1391,
      "▁gunden": 1392,
      "▁gazetec": 1393,
      "etti": 1394,
      "▁20": 1395,
      "▁kaliforn": 1396,
      "ona": 1397,
      "pan": 1398,
      "▁ucmak": 1399,
      "▁1981": 1400,
      "ler": 1401,
      "esinin": 1402,
      "▁oldugun": 1403,
      "ıcak": 1404,
      "olu": 1405,
      "▁alısver": 1406,
      "▁vasat": 1407,
      "mal": 1408,
      ".4": 1409,
      "▁federal": 1410,
      "▁bebek": 1411,
      "▁ters": 1412,
      "▁ny": 1413,
      "agının": 1414,
      "use": 1415,
      "▁cet": 1416,
      "abilecek": 1417,
      "▁midir": 1418,
      "▁lider": 1419,
      "▁askeri": 1420,
      "▁yapıyor": 1421,
      "▁kalıyor": 1422,
      "▁zirv": 1423,
      "▁gerekiyor": 1424,
      "▁sunu": 1425,
      "▁birbiriyle": 1426,
      "▁yaslı": 1427,
      "▁acıkca": 1428,
      "▁adlandır": 1429,
      "▁%51": 1430,
      "leb": 1431,
      "▁yoktu": 1432,
      "casına": 1433,
      "▁buyudu": 1434,
      "▁bilgisi": 1435,
      "▁cincinnati": 1436,
      "▁ettigini": 1437,
      "▁civ": 1438,
      "▁ankete": 1439,
      "tari": 1440,
      "45": 1441,
      "▁temizligi": 1442,
      "▁iceriye": 1443,
      "▁burn": 1444,
      "▁anlıyor": 1445,
      "▁isaret": 1446,
      "▁cleveland'dan": 1447,
      "▁arkasından": 1448,
      "▁mut": 1449,
      "▁basta": 1450,
      "▁birbirlerine": 1451,
      "▁polit": 1452,
      "endim": 1453,
      "ından": 1454,
      "▁york'tan": 1455,
      "meyin": 1456,
      "o'nun": 1457,
      "iser": 1458,
      "▁politik": 1459,
      "▁lakırtı": 1460,
      "yetmis": 1461,
      "▁edecegim": 1462,
      "▁inanıyor": 1463,
      "▁sauna": 1464,
      "▁arastırma": 1465,
      "uc": 1466,
      "▁mag": 1467,
      "37": 1468,
      "kar": 1469,
      "lik": 1470,
      "sinde": 1471,
      "▁calısması": 1472,
      "▁inc": 1473,
      "▁olarak": 1474,
      "▁iyil": 1475,
      "▁ogul": 1476,
      "▁yen'e": 1477,
      "▁tavır": 1478,
      "▁41": 1479,
      "▁cercev": 1480,
      "dugu": 1481,
      "▁ariz": 1482,
      "▁cıkınca": 1483,
      "▁cevap": 1484,
      "▁yanl": 1485,
      "isindan": 1486,
      "▁mil": 1487,
      "masına": 1488,
      "▁odun": 1489,
      "▁tumu": 1490,
      "▁karsil": 1491,
      "ter": 1492,
      "▁hareket": 1493,
      "▁yanlıs": 1494,
      "ila": 1495,
      "▁olası": 1496,
      "burgh": 1497,
      "dım": 1498,
      "▁oldugunu": 1499,
      "larken": 1500,
      "▁havuzlar": 1501,
      "▁kısmı": 1502,
      "▁mudur": 1503,
      "▁ikincisi": 1504,
      "▁%2.7": 1505,
      "▁gayrimenkul": 1506,
      "▁degildi": 1507,
      "▁kalkar": 1508,
      "▁edilebilir": 1509,
      "▁ter": 1510,
      ".50": 1511,
      "▁express": 1512,
      "usunu": 1513,
      "▁mahk": 1514,
      "▁fran": 1515,
      "ital": 1516,
      "▁piyasaları": 1517,
      "ıklı": 1518,
      "sem": 1519,
      "▁memphis'e": 1520,
      "▁oynuyor": 1521,
      "agon": 1522,
      "▁boyu": 1523,
      "▁hey": 1524,
      "iyor": 1525,
      "▁sabahın": 1526,
      "▁dorduncu": 1527,
      "▁babamın": 1528,
      "duncu": 1529,
      "▁guvenli": 1530,
      "mas": 1531,
      "▁gectigimiz": 1532,
      "▁eden": 1533,
      "baren": 1534,
      "▁fener": 1535,
      "▁dilek": 1536,
      "▁kumas": 1537,
      "▁damar": 1538,
      "▁cıktı": 1539,
      "▁berbat": 1540,
      "▁arka": 1541,
      "yla": 1542,
      "▁bilgil": 1543,
      "▁dım": 1544,
      "▁arkasında": 1545,
      "43": 1546,
      "▁part": 1547,
      "ine": 1548,
      "▁krav": 1549,
      "▁charlotte": 1550,
      "imizin": 1551,
      "▁hastan": 1552,
      "sizdi": 1553,
      "guna": 1554,
      "▁yerlerde": 1555,
      "▁badem": 1556,
      "▁#": 1557,
      "[CLS]": 1558,
      "▁murat": 1559,
      "ımı": 1560,
      "▁birbirimizi": 1561,
      "apol": 1562,
      "▁cevir": 1563,
      "ecegine": 1564,
      "▁asil": 1565,
      "uyla": 1566,
      "▁elektr": 1567,
      "op": 1568,
      "▁istedigi": 1569,
      "▁ithal": 1570,
      "▁vek": 1571,
      "olojik": 1572,
      "▁etkilen": 1573,
      "▁yeryuz": 1574,
      "▁guler": 1575,
      "acık": 1576,
      "▁doy": 1577,
      "▁ısıl": 1578,
      "ata": 1579,
      "erler": 1580,
      "oru": 1581,
      "▁birini": 1582,
      "bur": 1583,
      "▁uf": 1584,
      "▁466": 1585,
      "encer": 1586,
      "▁delikanlı": 1587,
      "▁pittsburgh'a": 1588,
      "yse": 1589,
      "te": 1590,
      "▁onceki": 1591,
      "est": 1592,
      "▁nikkei": 1593,
      "▁basladılar": 1594,
      "ilerdi": 1595,
      "▁dinliyor": 1596,
      "▁ltd.": 1597,
      "▁rah": 1598,
      "▁faal": 1599,
      "▁mukemmeldi": 1600,
      "▁rop": 1601,
      "▁atlanta'ya": 1602,
      "j": 1603,
      "isine": 1604,
      "▁makin": 1605,
      "▁ofis": 1606,
      "▁ug": 1607,
      "▁hizmetleri": 1608,
      "▁havalimanı": 1609,
      ".65": 1610,
      "▁seyret": 1611,
      "ma": 1612,
      "▁ilg": 1613,
      "▁amacıyla": 1614,
      "▁neye": 1615,
      "▁bulmaya": 1616,
      "▁sezl": 1617,
      "▁koz": 1618,
      "abil": 1619,
      "▁dav": 1620,
      "cog": 1621,
      "misti": 1622,
      "▁muhendi": 1623,
      "▁ıcı": 1624,
      "▁gune": 1625,
      "▁agzı": 1626,
      "▁pahali": 1627,
      "▁dogan": 1628,
      "▁cesitli": 1629,
      "▁okuy": 1630,
      "▁ara": 1631,
      "▁birbir": 1632,
      "▁endeksi": 1633,
      "er'in": 1634,
      "▁fed": 1635,
      "▁yaygın": 1636,
      "▁kar": 1637,
      "▁bulmus": 1638,
      "▁yogun": 1639,
      "▁bakır": 1640,
      "▁elektronik": 1641,
      "ole": 1642,
      "ip": 1643,
      "▁biy": 1644,
      "▁gemi": 1645,
      "▁sat": 1646,
      "▁200": 1647,
      "▁les": 1648,
      "artesi": 1649,
      "▁elem": 1650,
      "▁tetik": 1651,
      "br": 1652,
      "▁yakın": 1653,
      "75": 1654,
      "▁skan": 1655,
      "▁pır": 1656,
      "dıgı": 1657,
      "▁net": 1658,
      "ilmaz": 1659,
      "▁neyse": 1660,
      "▁yerles": 1661,
      "▁%6": 1662,
      "77": 1663,
      "▁geliyor": 1664,
      "▁edebil": 1665,
      "▁%50": 1666,
      "▁kendisiyle": 1667,
      "&": 1668,
      "▁ye": 1669,
      "▁almak": 1670,
      "▁kirliydi": 1671,
      "▁telerate": 1672,
      "▁ucret": 1673,
      "imde": 1674,
      "▁husus": 1675,
      "▁turkce": 1676,
      "edigini": 1677,
      "▁genel": 1678,
      "▁cont": 1679,
      "▁oldugum": 1680,
      "ılan": 1681,
      "▁merkezi": 1682,
      "gun": 1683,
      "▁kendimiz": 1684,
      "alarda": 1685,
      "bak": 1686,
      "ltı": 1687,
      "hi": 1688,
      "▁sanırım": 1689,
      "▁yusu": 1690,
      "▁isletmeler": 1691,
      "▁askın": 1692,
      "▁serbest": 1693,
      "asın": 1694,
      "▁edildi": 1695,
      "ore": 1696,
      "urlu": 1697,
      "idik": 1698,
      "▁kuf": 1699,
      "▁ign": 1700,
      "cılı": 1701,
      "▁guclu": 1702,
      "▁para": 1703,
      "▁tiyatr": 1704,
      "▁talih": 1705,
      "lige": 1706,
      "amm": 1707,
      "▁memphis": 1708,
      "▁odasına": 1709,
      "▁cın": 1710,
      "▁cuk": 1711,
      "▁ozlem": 1712,
      "amayan": 1713,
      "'daki": 1714,
      "▁jersey": 1715,
      "▁bomb": 1716,
      "agıt": 1717,
      "▁uygun": 1718,
      "amanın": 1719,
      "▁engin": 1720,
      "▁ceviz": 1721,
      "▁goruyorum": 1722,
      "▁1986": 1723,
      "▁bakım": 1724,
      "▁trans": 1725,
      "▁kendini": 1726,
      "▁yuklu": 1727,
      "▁%11": 1728,
      "▁ayın": 1729,
      "▁nashville'den": 1730,
      "▁azından": 1731,
      "otte": 1732,
      "▁muster": 1733,
      "▁hoslan": 1734,
      "bet": 1735,
      "▁rezerv": 1736,
      "3.8": 1737,
      "▁kıt": 1738,
      "▁8'den": 1739,
      "▁durmadan": 1740,
      "vet": 1741,
      "36": 1742,
      "▁koltu": 1743,
      "▁bulan": 1744,
      "▁nasıl": 1745,
      "▁oper": 1746,
      "▁kem": 1747,
      "▁gunde": 1748,
      "▁orlando'dan": 1749,
      "▁satısa": 1750,
      "▁hic": 1751,
      "▁gorustuk": 1752,
      "lıgından": 1753,
      "▁blok": 1754,
      "▁dusundu": 1755,
      "▁neredeyse": 1756,
      "▁agırlık": 1757,
      "sam": 1758,
      "▁kimi": 1759,
      "▁d": 1760,
      "innati": 1761,
      "▁ul": 1762,
      "rut": 1763,
      "▁vic": 1764,
      "▁agr": 1765,
      "ana": 1766,
      "▁ciyak": 1767,
      "▁suk": 1768,
      "asi": 1769,
      "▁for": 1770,
      "▁istedik": 1771,
      "▁sıfır": 1772,
      "▁keyif": 1773,
      "▁houston": 1774,
      "ib": 1775,
      "▁detroit'ten": 1776,
      "ert": 1777,
      "ilmis": 1778,
      "ecegi": 1779,
      "▁vergi": 1780,
      "iyer": 1781,
      "▁yıllık": 1782,
      "lat": 1783,
      "▁cıkmak": 1784,
      "▁100": 1785,
      "▁tanesi": 1786,
      "▁verdi": 1787,
      "▁bolge": 1788,
      "▁br": 1789,
      "▁stand": 1790,
      "▁plaji": 1791,
      "▁televizyon": 1792,
      "▁bekledigini": 1793,
      "▁birbirlerinin": 1794,
      "▁konusu": 1795,
      "lıgıyla": 1796,
      "▁ma": 1797,
      "▁3.5": 1798,
      "▁mide": 1799,
      "ern": 1800,
      "▁durumu": 1801,
      "▁gayrim": 1802,
      "▁onca": 1803,
      "uyor": 1804,
      "▁.'": 1805,
      "▁hizmete": 1806,
      "▁olusan": 1807,
      "▁parmak": 1808,
      "mu": 1809,
      "▁benzer": 1810,
      "▁millet": 1811,
      "▁mecl": 1812,
      "▁?": 1813,
      "▁memleket": 1814,
      "▁18": 1815,
      "▁vegas'tan": 1816,
      "▁duzey": 1817,
      "▁yemeklerde": 1818,
      "imizi": 1819,
      "▁uyusturucu": 1820,
      "▁olduk": 1821,
      "sir": 1822,
      "▁kus": 1823,
      "▁itibariyle": 1824,
      "▁do": 1825,
      "▁kesildi": 1826,
      ":30": 1827,
      "▁hayal": 1828,
      "▁uzay": 1829,
      "▁gorulen": 1830,
      "▁39": 1831,
      "▁katkı": 1832,
      "▁cocugun": 1833,
      "ıb": 1834,
      "▁dondu": 1835,
      "▁bagımsız": 1836,
      "▁one": 1837,
      "s": 1838,
      "▁boc": 1839,
      "▁88": 1840,
      "maya": 1841,
      "▁efsan": 1842,
      "adir": 1843,
      "suz": 1844,
      "▁pozisyon": 1845,
      "▁sasırtıcı": 1846,
      "▁ada": 1847,
      ".6": 1848,
      "▁phoenix": 1849,
      "▁nedenle": 1850,
      "▁gergin": 1851,
      "lari": 1852,
      "▁kayıp": 1853,
      "▁kabar": 1854,
      "▁sırasında": 1855,
      "net": 1856,
      "▁muk": 1857,
      "▁hijyen": 1858,
      "rim": 1859,
      "▁oz": 1860,
      "▁westchester": 1861,
      "▁edeb": 1862,
      "▁o": 1863,
      "▁hayat": 1864,
      "▁onlardan": 1865,
      "ijinal": 1866,
      "▁13": 1867,
      "▁yetk": 1868,
      "▁tesisten": 1869,
      "mek": 1870,
      "▁bulas": 1871,
      "▁gorevlisi": 1872,
      "▁japonya'nın": 1873,
      "ne": 1874,
      "▁yetkilileri": 1875,
      "▁101": 1876,
      "▁cekil": 1877,
      "▁dinlem": 1878,
      "▁fal": 1879,
      "bu": 1880,
      "manı": 1881,
      "▁davası": 1882,
      "eet": 1883,
      "adılar": 1884,
      "ikti": 1885,
      "dır": 1886,
      "▁oranları": 1887,
      "esti": 1888,
      "▁bilinc": 1889,
      "▁ta": 1890,
      "▁harekete": 1891,
      "likten": 1892,
      "▁tesisin": 1893,
      "▁kayak": 1894,
      "▁lyn": 1895,
      "▁asla": 1896,
      "7": 1897,
      "amız": 1898,
      "▁yayın": 1899,
      "-200": 1900,
      "▁petrol": 1901,
      "▁gulus": 1902,
      "▁surdur": 1903,
      "ove": 1904,
      "iyle": 1905,
      "▁herkesten": 1906,
      "▁kalmadik": 1907,
      "▁sahin": 1908,
      "▁annesinin": 1909,
      "▁ec": 1910,
      "▁etken": 1911,
      "▁uzere": 1912,
      "▁taraf": 1913,
      "▁aday": 1914,
      "▁te": 1915,
      "▁ayrım": 1916,
      "▁ap": 1917,
      "▁ustu": 1918,
      "▁%6.9": 1919,
      "▁eline": 1920,
      "▁halk": 1921,
      "▁vermedi": 1922,
      "▁cincinnati'ye": 1923,
      "▁kinden": 1924,
      "▁denen": 1925,
      "▁telefon": 1926,
      "▁ayrılan": 1927,
      "▁sevk": 1928,
      "▁kırk": 1929,
      "▁ak": 1930,
      "▁zafer": 1931,
      "0.8": 1932,
      "ardan": 1933,
      "iyat": 1934,
      "ebi": 1935,
      "▁sem": 1936,
      "▁mily": 1937,
      "▁cogun": 1938,
      "▁nak": 1939,
      "▁tuh": 1940,
      "▁0.25": 1941,
      "▁sozlesmesi": 1942,
      "▁ingiliz": 1943,
      "▁org": 1944,
      "▁minneapolis'ten": 1945,
      "▁3.4": 1946,
      "▁lung": 1947,
      "▁sigort": 1948,
      "▁saga": 1949,
      "▁gorur": 1950,
      "▁esim": 1951,
      "▁tampa'ya": 1952,
      "▁aran": 1953,
      "▁ferah": 1954,
      "aladı": 1955,
      "▁oyk": 1956,
      "ehir": 1957,
      "▁milyon": 1958,
      "ırda": 1959,
      "▁baskan": 1960,
      "adelphia": 1961,
      "▁dolayısıyla": 1962,
      "▁karanlık": 1963,
      "▁oturmus": 1964,
      "▁milwaukee": 1965,
      "tıkları": 1966,
      "yalar": 1967,
      "▁asker": 1968,
      "▁gitt": 1969,
      "▁a.b.d.": 1970,
      "▁koku": 1971,
      "▁sanız": 1972,
      "▁kurul": 1973,
      "▁ır": 1974,
      "▁pasa": 1975,
      "▁kaldik": 1976,
      "gıl": 1977,
      "▁ederler": 1978,
      "lerden": 1979,
      "▁kut": 1980,
      "asına": 1981,
      "▁temp": 1982,
      "▁milletvek": 1983,
      "▁giden": 1984,
      "▁kıymetler": 1985,
      "▁37.5": 1986,
      "lerinden": 1987,
      "▁ozgurluk": 1988,
      "▁birlesik": 1989,
      "▁carsı": 1990,
      "▁oran": 1991,
      "▁ellerini": 1992,
      "▁3.3": 1993,
      "alar": 1994,
      "▁aldı": 1995,
      "▁cins": 1996,
      "isco": 1997,
      "▁babam": 1998,
      "92": 1999,
      "bir": 2000,
      "▁gur": 2001,
      "▁actı": 2002,
      "▁celik": 2003,
      "▁patates": 2004,
      "tansiy": 2005,
      "▁1.4": 2006,
      "▁evvel": 2007,
      "▁ilgilenmedi": 2008,
      "tıcı": 2009,
      "▁birbirleriyle": 2010,
      "▁tacoma'ya": 2011,
      "ınca": 2012,
      "▁hep": 2013,
      "▁tesek": 2014,
      "▁yola": 2015,
      "▁ucusa": 2016,
      "▁kaz": 2017,
      "▁oradan": 2018,
      "▁suleyman": 2019,
      "▁4.3": 2020,
      "▁mısınız": 2021,
      "66": 2022,
      "imi": 2023,
      "dort": 2024,
      "▁kalmıs": 2025,
      "▁tug": 2026,
      "▁sende": 2027,
      "▁kapali": 2028,
      "apon": 2029,
      "25": 2030,
      "▁ses": 2031,
      "▁gol": 2032,
      "ustri": 2033,
      "yol": 2034,
      "mıyorum": 2035,
      "▁yatak": 2036,
      "▁yumus": 2037,
      "▁esas": 2038,
      "▁sek": 2039,
      "▁nok": 2040,
      "apur": 2041,
      "rily": 2042,
      "▁yapacagını": 2043,
      "▁oldug": 2044,
      "▁sar": 2045,
      "▁yapıl": 2046,
      "fı": 2047,
      "▁ogrenci": 2048,
      "▁jose": 2049,
      "/32": 2050,
      "▁olmaz": 2051,
      "▁da": 2052,
      "▁yolunda": 2053,
      "▁kutur": 2054,
      "gec": 2055,
      "melidir": 2056,
      "ınıyor": 2057,
      "▁dek": 2058,
      "▁sebebi": 2059,
      "▁bizden": 2060,
      "▁toronto": 2061,
      "t": 2062,
      "ental": 2063,
      "gur": 2064,
      "▁750": 2065,
      "uye": 2066,
      "▁etmey": 2067,
      "lıgında": 2068,
      "▁alan": 2069,
      "eksiyon": 2070,
      "▁karsiladi": 2071,
      "▁ipot": 2072,
      "qu": 2073,
      "▁raf": 2074,
      "▁dikkat": 2075,
      "lıgına": 2076,
      "▁gelince": 2077,
      "▁dir": 2078,
      "▁alakaliydi": 2079,
      "▁kaps": 2080,
      "▁oyna": 2081,
      "16": 2082,
      "▁yonlendir": 2083,
      "▁gezin": 2084,
      "▁hastalı": 2085,
      "cıları": 2086,
      "yal": 2087,
      "▁olmasını": 2088,
      "rahim": 2089,
      "yet": 2090,
      "▁omer": 2091,
      "▁karab": 2092,
      "▁tasım": 2093,
      "▁ucuyor": 2094,
      "▁basbak": 2095,
      "▁coz": 2096,
      "▁soyledik": 2097,
      "▁urun": 2098,
      "▁guzel": 2099,
      "▁ani": 2100,
      "▁madde": 2101,
      "▁gund": 2102,
      "▁leri": 2103,
      "dıg": 2104,
      "▁yaglı": 2105,
      "▁katilmak": 2106,
      "▁istik": 2107,
      "▁otuz": 2108,
      "eginden": 2109,
      "▁niyet": 2110,
      "▁tal": 2111,
      "▁sebep": 2112,
      "▁oysa": 2113,
      "▁karsılıklı": 2114,
      "▁iliskin": 2115,
      "▁personel": 2116,
      "▁merdiven": 2117,
      "eleriyle": 2118,
      "▁havlu": 2119,
      "▁olar": 2120,
      "▁selam": 2121,
      "ilen": 2122,
      "▁otelden": 2123,
      "▁beri": 2124,
      "larda": 2125,
      "▁cocukların": 2126,
      "▁dog": 2127,
      "teki": 2128,
      "▁parca": 2129,
      "▁kadın": 2130,
      "▁cihaz": 2131,
      "▁degilim": 2132,
      "▁verdigini": 2133,
      "▁zaf": 2134,
      "▁duygusal": 2135,
      "80": 2136,
      "▁22-23": 2137,
      "imet": 2138,
      "▁has": 2139,
      "▁gerekir": 2140,
      "▁end": 2141,
      "▁beni": 2142,
      "▁ekonomi": 2143,
      "▁lezzet": 2144,
      "▁mudahal": 2145,
      "▁hemen": 2146,
      "▁kategor": 2147,
      "▁yuzunden": 2148,
      "▁alaka": 2149,
      "▁hissediyor": 2150,
      "▁yumurta": 2151,
      "▁sorumlu": 2152,
      "▁tecrub": 2153,
      ",": 2154,
      "▁sahiptir": 2155,
      "▁zay": 2156,
      "▁70": 2157,
      "▁kendinize": 2158,
      "▁had": 2159,
      "▁60": 2160,
      "▁aldıgı": 2161,
      "▁mit": 2162,
      "▁durak": 2163,
      "▁yuzunu": 2164,
      "▁`": 2165,
      "▁hırsız": 2166,
      "▁chicago'dan": 2167,
      "▁hoc": 2168,
      "▁tı": 2169,
      "fi": 2170,
      "dıgını": 2171,
      "lebilir": 2172,
      "tır": 2173,
      "▁sep": 2174,
      "▁pro": 2175,
      "▁rec": 2176,
      "▁metr": 2177,
      "▁vucud": 2178,
      "▁bakıyordu": 2179,
      "▁kıbrıs": 2180,
      "▁dogu": 2181,
      "▁yemek": 2182,
      "▁gelmis": 2183,
      "▁yukselen": 2184,
      "▁morgan": 2185,
      "dın": 2186,
      "mustum": 2187,
      "▁kendisinden": 2188,
      "▁kullanıl": 2189,
      "▁bek": 2190,
      "ef": 2191,
      "▁farklılık": 2192,
      "▁agustos": 2193,
      "▁ortaydi": 2194,
      "▁sozlesme": 2195,
      "au": 2196,
      "▁yatırımcı": 2197,
      "▁yım": 2198,
      "▁oglan": 2199,
      "gu": 2200,
      "▁alet": 2201,
      "amın": 2202,
      "▁g": 2203,
      "lerle": 2204,
      "▁ustun": 2205,
      "/2": 2206,
      "ımızdan": 2207,
      "▁gorusmeler": 2208,
      "distan": 2209,
      "▁hong": 2210,
      "dık": 2211,
      "▁li": 2212,
      "▁aldim": 2213,
      "ihan": 2214,
      "▁ero": 2215,
      "▁baslarında": 2216,
      "▁analist": 2217,
      "▁bunlara": 2218,
      "▁guney": 2219,
      "ıkır": 2220,
      "▁veren": 2221,
      "▁eglence": 2222,
      "ladı": 2223,
      "▁yalnızca": 2224,
      "iss": 2225,
      "▁zayıf": 2226,
      "▁bazen": 2227,
      "▁,": 2228,
      "▁borsası": 2229,
      "▁suyunu": 2230,
      "mma": 2231,
      "▁maruz": 2232,
      "▁ker": 2233,
      "▁tık": 2234,
      "▁york'a": 2235,
      "▁an": 2236,
      "▁okul": 2237,
      "utur": 2238,
      "▁simdi": 2239,
      "▁sevin": 2240,
      "ap": 2241,
      "▁madd": 2242,
      "▁barın": 2243,
      "egini": 2244,
      "▁satısı": 2245,
      "▁amerikan": 2246,
      "▁surec": 2247,
      "▁buk": 2248,
      "▁78": 2249,
      "lal": 2250,
      "▁otomobil": 2251,
      "ilmesini": 2252,
      "iki": 2253,
      "▁onunden": 2254,
      "lamaları": 2255,
      "▁yazılım": 2256,
      "▁1.9": 2257,
      "▁tablo": 2258,
      "ak": 2259,
      "▁oner": 2260,
      "▁ucretin": 2261,
      "amak": 2262,
      "▁sonucları": 2263,
      "▁yıldız": 2264,
      "li": 2265,
      "▁muht": 2266,
      "lig": 2267,
      "la": 2268,
      "▁otele": 2269,
      "asıdır": 2270,
      "▁olabil": 2271,
      "▁calısma": 2272,
      "iniz": 2273,
      "▁aktif": 2274,
      "▁baltimore'den": 2275,
      "ukee": 2276,
      "▁geleni": 2277,
      "▁pitt": 2278,
      "lasma": 2279,
      "▁but": 2280,
      "▁hel": 2281,
      "▁dayan": 2282,
      "▁mıs": 2283,
      "lenen": 2284,
      "▁profes": 2285,
      "▁takdir": 2286,
      "▁po": 2287,
      "ınızı": 2288,
      "”": 2289,
      "▁katıldı": 2290,
      "▁indian": 2291,
      "▁hindistan": 2292,
      "▁kurulus": 2293,
      "▁pesinde": 2294,
      "▁hisse": 2295,
      "▁zaten": 2296,
      "▁konusma": 2297,
      "'den": 2298,
      "mis": 2299,
      "▁120": 2300,
      "▁iddi": 2301,
      "▁yukseldi": 2302,
      "▁zevk": 2303,
      "▁hepimizi": 2304,
      "4": 2305,
      "ır": 2306,
      "omur": 2307,
      "▁bası": 2308,
      "▁hurr": 2309,
      "▁gam": 2310,
      "ci": 2311,
      "▁yeme": 2312,
      "▁baslar": 2313,
      "emiyorum": 2314,
      "▁konuyu": 2315,
      "ok": 2316,
      "▁1.8": 2317,
      "imler": 2318,
      "▁el": 2319,
      "▁katıl": 2320,
      "▁ilave": 2321,
      "▁katılım": 2322,
      "▁talep": 2323,
      "eo": 2324,
      "▁bulut": 2325,
      "▁orani": 2326,
      "a.": 2327,
      "▁oyunun": 2328,
      "▁vet": 2329,
      "▁baktım": 2330,
      "▁civarı": 2331,
      "▁tesvik": 2332,
      "▁47": 2333,
      "liginin": 2334,
      "lam": 2335,
      "▁eti": 2336,
      "ydi": 2337,
      "▁ant": 2338,
      "▁jones": 2339,
      "▁yumurt": 2340,
      "ımları": 2341,
      "▁kacır": 2342,
      "▁ob": 2343,
      "▁aram": 2344,
      "▁omur": 2345,
      "▁ıs": 2346,
      "▁sof": 2347,
      "seksen": 2348,
      "eb": 2349,
      "▁mezar": 2350,
      "ilmez": 2351,
      "ıcılık": 2352,
      "mazdı": 2353,
      "▁musteriler": 2354,
      "▁ne": 2355,
      "bin": 2356,
      "▁haftada": 2357,
      "▁ymıs": 2358,
      "▁sınıf": 2359,
      "evizyon": 2360,
      "▁fon": 2361,
      "▁insana": 2362,
      "▁kuvvetleri": 2363,
      "▁veril": 2364,
      "'n": 2365,
      "malar": 2366,
      "▁suph": 2367,
      "ugu": 2368,
      "▁2": 2369,
      "▁rus": 2370,
      "▁kagıt": 2371,
      "▁pal": 2372,
      "cilerin": 2373,
      "▁dusunce": 2374,
      "▁re": 2375,
      "▁cesit": 2376,
      "▁tiyatro": 2377,
      "▁cekildi": 2378,
      "adar": 2379,
      "▁gurur": 2380,
      "▁sef": 2381,
      "▁spor": 2382,
      "tr": 2383,
      "▁burbank'a": 2384,
      "▁soyledim": 2385,
      "▁haberdar": 2386,
      "▁direktoru": 2387,
      "madıgını": 2388,
      "lamıstı": 2389,
      "▁piyas": 2390,
      "▁inc.": 2391,
      "▁etmiyor": 2392,
      "▁belirt": 2393,
      "▁sonuclar": 2394,
      "▁hepimizin": 2395,
      "▁duran": 2396,
      "▁sorgul": 2397,
      "emedim": 2398,
      "▁hayv": 2399,
      "▁dekor": 2400,
      "▁civarında": 2401,
      "▁kapıyı": 2402,
      "▁harcam": 2403,
      "▁kazanan": 2404,
      "▁tekn": 2405,
      "▁3.8": 2406,
      "▁yılın": 2407,
      "▁cent": 2408,
      "▁etmek": 2409,
      "▁duman": 2410,
      "▁kez": 2411,
      "▁herhalde": 2412,
      "▁bahce": 2413,
      "▁yararlan": 2414,
      "tık": 2415,
      "▁bakımından": 2416,
      "ihaz": 2417,
      "iyim": 2418,
      "▁perde": 2419,
      "▁dunyada": 2420,
      "'ın": 2421,
      "ane": 2422,
      "▁kaf": 2423,
      "▁iceriyor": 2424,
      "▁ilgililerdi": 2425,
      "▁angeles'ten": 2426,
      "▁miras": 2427,
      "▁davet": 2428,
      "leyip": 2429,
      "iyel": 2430,
      "▁hisseleri": 2431,
      "▁reklam": 2432,
      "▁81": 2433,
      "▁co": 2434,
      "▁girisim": 2435,
      "▁altındaki": 2436,
      "▁kalan": 2437,
      "▁charl": 2438,
      "▁nasda": 2439,
      "▁yeterli": 2440,
      "▁deli": 2441,
      "gelelim": 2442,
      "inci": 2443,
      "▁\"": 2444,
      "▁85": 2445,
      "▁tuk": 2446,
      "▁gitmek": 2447,
      "▁halen": 2448,
      "▁hayatı": 2449,
      "▁yalnız": 2450,
      "▁dogrudan": 2451,
      "▁avuk": 2452,
      "▁mesaf": 2453,
      "▁ti": 2454,
      "▁bat": 2455,
      "▁vegas": 2456,
      "▁corb": 2457,
      "▁onda": 2458,
      "gmen": 2459,
      "▁konusunda": 2460,
      "▁problem": 2461,
      "▁guvenlik": 2462,
      "▁1983": 2463,
      "▁havuz": 2464,
      "▁saz": 2465,
      "dukları": 2466,
      "▁sifir": 2467,
      "▁denver'e": 2468,
      "▁kendinden": 2469,
      "mamız": 2470,
      "▁ortalık": 2471,
      "▁bakın": 2472,
      "▁kısm": 2473,
      "▁donen": 2474,
      "▁hazırlan": 2475,
      "▁binbir": 2476,
      "▁sefer": 2477,
      "▁olabilecegini": 2478,
      "▁ruz": 2479,
      "▁takımı": 2480,
      "▁ba": 2481,
      "▁yont": 2482,
      "▁gorunce": 2483,
      "▁baslangıc": 2484,
      "▁benden": 2485,
      "▁v": 2486,
      "▁kavg": 2487,
      "▁ii": 2488,
      "▁post": 2489,
      "▁diken": 2490,
      "▁ark": 2491,
      "amıyor": 2492,
      "azım": 2493,
      "▁%3": 2494,
      "▁kendilerine": 2495,
      "adem": 2496,
      "▁faktor": 2497,
      "▁gold": 2498,
      "▁gok": 2499,
      "ise": 2500,
      "▁eli": 2501,
      "▁ondan": 2502,
      "le": 2503,
      "▁yıg": 2504,
      "▁almanya": 2505,
      "▁kalp": 2506,
      "hal": 2507,
      "▁odada": 2508,
      "▁sınır": 2509,
      "▁gormus": 2510,
      "▁mı": 2511,
      "▁geyik": 2512,
      "▁enf": 2513,
      "▁patır": 2514,
      "ılması": 2515,
      "tia": 2516,
      "▁hakan": 2517,
      "▁isletme": 2518,
      "ısıyla": 2519,
      "▁1.7": 2520,
      "▁hala": 2521,
      "▁9.7": 2522,
      "▁isine": 2523,
      "▁miktarda": 2524,
      "▁di": 2525,
      "▁cocuga": 2526,
      "gar": 2527,
      "▁say": 2528,
      "▁24": 2529,
      "▁getiriyor": 2530,
      "ladıgını": 2531,
      "sinin": 2532,
      "▁mos": 2533,
      "▁lu": 2534,
      "▁tren": 2535,
      "malıdır": 2536,
      "▁oyun": 2537,
      "▁bilmek": 2538,
      "▁farklı": 2539,
      "▁olmadı": 2540,
      "▁iyimser": 2541,
      "lı": 2542,
      "▁kay": 2543,
      "▁dısarı": 2544,
      "▁yan": 2545,
      "▁balık": 2546,
      "▁kıyas": 2547,
      "k": 2548,
      "▁gecirdik": 2549,
      "▁sez": 2550,
      "▁gelsin": 2551,
      "▁ayrılıp": 2552,
      "ard": 2553,
      "ent": 2554,
      "▁saldırı": 2555,
      "▁mavi": 2556,
      "ay": 2557,
      "▁gelecekteki": 2558,
      "▁225": 2559,
      "▁ogle": 2560,
      "ildigi": 2561,
      "ize": 2562,
      "▁erdi": 2563,
      "▁si": 2564,
      "▁rahatsız": 2565,
      "▁cıplak": 2566,
      "▁coc": 2567,
      "▁oakland": 2568,
      "▁ekip": 2569,
      "har": 2570,
      "▁yetkili": 2571,
      "▁uyum": 2572,
      "▁ydık": 2573,
      "▁ol": 2574,
      "▁konut": 2575,
      "▁girmek": 2576,
      "muyor": 2577,
      "▁havaya": 2578,
      "▁em": 2579,
      "▁sekiz": 2580,
      "▁california'ya": 2581,
      "atını": 2582,
      "▁genclik": 2583,
      "iye": 2584,
      "▁arttı": 2585,
      "▁dokuz": 2586,
      "▁kimisi": 2587,
      "▁borsası'nda": 2588,
      "▁ozen": 2589,
      "gil": 2590,
      "▁geril": 2591,
      "▁saglık": 2592,
      "▁ortaya": 2593,
      "aba": 2594,
      "▁harıl": 2595,
      "▁ataturk": 2596,
      "luga": 2597,
      "▁2.1": 2598,
      "u": 2599,
      "▁7.2": 2600,
      "▁gitti": 2601,
      "h": 2602,
      "oma": 2603,
      "'nde": 2604,
      "vik": 2605,
      "▁olduguna": 2606,
      "▁hicbirinin": 2607,
      "▁sebeb": 2608,
      "▁istemez": 2609,
      "▁uzakta": 2610,
      "▁harik": 2611,
      "▁ettik": 2612,
      "▁umit": 2613,
      "▁uy": 2614,
      "▁balk": 2615,
      "▁yel": 2616,
      "▁okumak": 2617,
      "lıgını": 2618,
      "▁kotu": 2619,
      "▁suy": 2620,
      "▁camur": 2621,
      "▁bekledi": 2622,
      "▁guclendir": 2623,
      "oj": 2624,
      "▁arada": 2625,
      "▁or": 2626,
      ".8": 2627,
      "▁dul": 2628,
      "▁teker": 2629,
      "▁marj": 2630,
      "▁kacın": 2631,
      "▁ailelere": 2632,
      "▁elli": 2633,
      "ig": 2634,
      "ald": 2635,
      "▁h": 2636,
      "▁olmayan": 2637,
      "▁evren": 2638,
      "enek": 2639,
      "▁ala": 2640,
      "▁sahipleri": 2641,
      "▁bono": 2642,
      "▁fas": 2643,
      "▁kongr": 2644,
      "ıcık": 2645,
      "▁acisindan": 2646,
      "▁bacak": 2647,
      "lası": 2648,
      "du": 2649,
      "ugun": 2650,
      "▁sahn": 2651,
      "▁islemlerde": 2652,
      "▁kızlar": 2653,
      "▁hug": 2654,
      "▁12'den": 2655,
      "lul": 2656,
      "▁huzur": 2657,
      "▁gelmez": 2658,
      "▁250000": 2659,
      "▁idi": 2660,
      "onu": 2661,
      "▁cirkin": 2662,
      "▁ders": 2663,
      "▁kisilik": 2664,
      "▁dosy": 2665,
      "▁nesil": 2666,
      "▁rıhtım": 2667,
      "▁teslim": 2668,
      "uzel": 2669,
      "▁kontrol": 2670,
      "▁bush": 2671,
      "▁esir": 2672,
      "▁kapasitesi": 2673,
      "▁65": 2674,
      "▁herkes": 2675,
      "▁anad": 2676,
      "▁ev": 2677,
      "▁siv": 2678,
      "▁ifade": 2679,
      "▁duy": 2680,
      "lav": 2681,
      "▁may": 2682,
      "▁lut": 2683,
      "▁uzerinde": 2684,
      "▁yuk": 2685,
      "ger": 2686,
      "▁muz": 2687,
      "▁(": 2688,
      "▁musta": 2689,
      "▁edilecek": 2690,
      "▁olan": 2691,
      "▁1": 2692,
      "'ten": 2693,
      "▁gurultu": 2694,
      "umun": 2695,
      "eder": 2696,
      "▁univ": 2697,
      "▁nih": 2698,
      "▁sorum": 2699,
      "▁karsılık": 2700,
      "▁dusuk": 2701,
      "lisi": 2702,
      "▁birisi": 2703,
      "▁kaya": 2704,
      "▁karıs": 2705,
      "▁sogut": 2706,
      "▁day": 2707,
      "f": 2708,
      "▁gosteren": 2709,
      "▁arizona": 2710,
      "▁komun": 2711,
      "▁sevdigi": 2712,
      "▁listeleyin": 2713,
      "▁kucucuk": 2714,
      "▁kabul": 2715,
      "▁yasındaki": 2716,
      "▁finansal": 2717,
      "▁uzakti": 2718,
      "rik": 2719,
      "▁israil": 2720,
      "sine": 2721,
      "▁kalmadim": 2722,
      "▁beach": 2723,
      "▁seviyesinden": 2724,
      "▁asırı": 2725,
      "▁rob": 2726,
      "▁pap": 2727,
      "▁zinc": 2728,
      "▁kodu": 2729,
      "enk": 2730,
      "▁yoktur": 2731,
      "imizde": 2732,
      "▁william": 2733,
      "▁okum": 2734,
      "bal": 2735,
      "▁tir": 2736,
      "▁od": 2737,
      "landı": 2738,
      "▁tor": 2739,
      "▁urunler": 2740,
      "ayan": 2741,
      "▁geriye": 2742,
      "'luk": 2743,
      "lay": 2744,
      "▁kızar": 2745,
      "▁ilk": 2746,
      "uar": 2747,
      "igi": 2748,
      "▁mahm": 2749,
      "▁teyz": 2750,
      "▁verici": 2751,
      "▁ihtiyacım": 2752,
      "▁dugun": 2753,
      "▁..": 2754,
      "▁yumur": 2755,
      "▁klim": 2756,
      "▁anlamda": 2757,
      "▁erken": 2758,
      "▁kullanıyor": 2759,
      "oks": 2760,
      "▁gec": 2761,
      "▁yarı": 2762,
      "▁yeri": 2763,
      "rum": 2764,
      "▁gerektir": 2765,
      "alama": 2766,
      "indan": 2767,
      "▁farkında": 2768,
      "iskin": 2769,
      "▁birim": 2770,
      "▁kub": 2771,
      "sen": 2772,
      "tıklarını": 2773,
      "ya": 2774,
      "▁91": 2775,
      "▁onların": 2776,
      "▁indi": 2777,
      "ıldıgını": 2778,
      "isler": 2779,
      "▁yuzde": 2780,
      "▁etmektedir": 2781,
      "▁avustralya": 2782,
      "▁kredi": 2783,
      "▁buldum": 2784,
      "▁aks": 2785,
      "ill": 2786,
      "▁tanrı": 2787,
      "▁edilmis": 2788,
      "altı": 2789,
      "▁agzını": 2790,
      "▁isra": 2791,
      "▁yeterliydi": 2792,
      "▁ste": 2793,
      "▁yapmadı": 2794,
      "▁1980": 2795,
      "▁havayollarında": 2796,
      "▁personelleri": 2797,
      "▁kalacak": 2798,
      "▁seattle'den": 2799,
      "0.4": 2800,
      "▁asa": 2801,
      "ke": 2802,
      "▁giz": 2803,
      "▁1\\/4": 2804,
      "ugh": 2805,
      "anet": 2806,
      "manın": 2807,
      "uf": 2808,
      "▁dususle": 2809,
      "▁esi": 2810,
      "▁haklı": 2811,
      "▁busbut": 2812,
      "▁sıc": 2813,
      "▁8": 2814,
      "▁%25": 2815,
      "▁simdilik": 2816,
      "▁iptal": 2817,
      "abet": 2818,
      "▁key": 2819,
      "▁mir": 2820,
      "▁0.9": 2821,
      "▁yahudi": 2822,
      "▁deneme": 2823,
      "▁alım-sat": 2824,
      "▁gay": 2825,
      "et": 2826,
      "enn": 2827,
      "▁yar": 2828,
      "▁umut": 2829,
      "ational": 2830,
      "▁renk": 2831,
      "▁cevre": 2832,
      "ıs": 2833,
      "▁omz": 2834,
      "lukla": 2835,
      "▁so": 2836,
      "mayan": 2837,
      "▁suya": 2838,
      "▁esk": 2839,
      "ledigi": 2840,
      "▁titiz": 2841,
      "diginiz": 2842,
      "▁sub": 2843,
      "▁sınav": 2844,
      "▁long": 2845,
      "▁degildir": 2846,
      "ye": 2847,
      "arında": 2848,
      "▁gunluk": 2849,
      "▁haykır": 2850,
      "agında": 2851,
      "▁9.8": 2852,
      "veland": 2853,
      "▁cıkıp": 2854,
      "▁holding": 2855,
      "▁olay": 2856,
      "uklu": 2857,
      "▁hijyenik": 2858,
      "▁avrup": 2859,
      "▁yız": 2860,
      "▁bodrum": 2861,
      "adan": 2862,
      "▁faaliyet": 2863,
      "▁kapıdan": 2864,
      "dog": 2865,
      "▁sonraki": 2866,
      "rill": 2867,
      "▁rap": 2868,
      "▁gelisim": 2869,
      "ilmek": 2870,
      "acagını": 2871,
      "meni": 2872,
      "▁islemi": 2873,
      "gul": 2874,
      "aliydi": 2875,
      ".70": 2876,
      "▁boyun": 2877,
      "▁baba": 2878,
      "umus": 2879,
      "▁biridir": 2880,
      ".2": 2881,
      "▁eki": 2882,
      "▁bunu": 2883,
      "▁incelem": 2884,
      "▁iri": 2885,
      "▁tamam": 2886,
      "suzluk": 2887,
      "▁tah": 2888,
      "▁servis": 2889,
      "▁takım": 2890,
      "▁sayın": 2891,
      "▁anlas": 2892,
      "▁degisimi": 2893,
      "lerin": 2894,
      "hane": 2895,
      "▁giriste": 2896,
      "▁olmaya": 2897,
      "▁tarihli": 2898,
      "▁calisanlari": 2899,
      "agan": 2900,
      "▁de": 2901,
      "ic": 2902,
      "▁rolu": 2903,
      "▁times": 2904,
      "3.9": 2905,
      "egin": 2906,
      "baz": 2907,
      "▁bar": 2908,
      "▁durur": 2909,
      "▁baslat": 2910,
      "▁muy": 2911,
      "ilere": 2912,
      "▁ailenin": 2913,
      "▁yorgun": 2914,
      "▁hayatta": 2915,
      "▁agzına": 2916,
      "▁isv": 2917,
      "les": 2918,
      "▁bolum": 2919,
      "▁gitmeyi": 2920,
      "izi": 2921,
      "tre": 2922,
      "▁fev": 2923,
      "▁flori": 2924,
      "▁bos": 2925,
      "pıs": 2926,
      "oeni": 2927,
      "▁yapılacak": 2928,
      "▁mısın": 2929,
      "▁saglıklı": 2930,
      "dıgım": 2931,
      "▁-": 2932,
      "▁istiyordu": 2933,
      "▁goze": 2934,
      "▁dusunur": 2935,
      "z": 2936,
      "▁giy": 2937,
      "▁hanim": 2938,
      "kanın": 2939,
      "▁karısık": 2940,
      "▁pus": 2941,
      "▁ecekti": 2942,
      "cik": 2943,
      "▁yet": 2944,
      "▁altern": 2945,
      "▁sene": 2946,
      "▁12.5": 2947,
      "▁yapildi": 2948,
      "▁washington": 2949,
      "▁seyir": 2950,
      "▁misin": 2951,
      "▁ın": 2952,
      "▁sehri": 2953,
      "alandır": 2954,
      "elerin": 2955,
      "90": 2956,
      "veren": 2957,
      "▁yudum": 2958,
      "▁degerli": 2959,
      "▁vasıt": 2960,
      "▁biliyor": 2961,
      "▁seh": 2962,
      "▁yasında": 2963,
      "ai": 2964,
      "▁duruyor": 2965,
      "▁rev": 2966,
      "▁duruma": 2967,
      "▁buy": 2968,
      "▁mel": 2969,
      "▁tahk": 2970,
      "layarak": 2971,
      "▁lak": 2972,
      "▁iktis": 2973,
      "▁yana": 2974,
      "▁kısa": 2975,
      "▁piyasası": 2976,
      "▁sonradan": 2977,
      "▁duruyordu": 2978,
      "▁ut": 2979,
      "tak": 2980,
      "▁beklentiler": 2981,
      "▁acakt": 2982,
      "▁yonetim": 2983,
      "▁bus": 2984,
      "ecekler": 2985,
      "var": 2986,
      "▁devlet": 2987,
      "▁.": 2988,
      ".1": 2989,
      "alan": 2990,
      "eliydi": 2991,
      "▁soyleyebilir": 2992,
      "▁kaydetti": 2993,
      ".45": 2994,
      "▁dogrusu": 2995,
      "▁medya": 2996,
      "▁begendim": 2997,
      "▁osman": 2998,
      "asa": 2999,
      "▁sureci": 3000,
      "▁ku": 3001,
      "landır": 3002,
      "aguar": 3003,
      "▁havada": 3004,
      "s.": 3005,
      "▁dans": 3006,
      "▁ugra": 3007,
      "ort": 3008,
      "▁gosterin": 3009,
      "▁musteri": 3010,
      "▁sup": 3011,
      "▁kara": 3012,
      "▁payı": 3013,
      "▁ederek": 3014,
      "▁york'ta": 3015,
      "orth": 3016,
      "▁%80": 3017,
      "▁sayesinde": 3018,
      "▁tev": 3019,
      "▁oldular": 3020,
      "▁silah": 3021,
      "▁bilmiyor": 3022,
      "▁toront": 3023,
      "▁62": 3024,
      "ates": 3025,
      "ecik": 3026,
      "▁duskun": 3027,
      "▁ucuslarının": 3028,
      "hos": 3029,
      "▁yaparak": 3030,
      "▁dum": 3031,
      "▁adım": 3032,
      "co": 3033,
      "▁zaman": 3034,
      "▁seviyesinde": 3035,
      "▁ydım": 3036,
      "▁baslay": 3037,
      "w": 3038,
      "▁kardes": 3039,
      "▁muhtemelen": 3040,
      "ladık": 3041,
      "▁boyunca": 3042,
      "▁dan": 3043,
      "dılar": 3044,
      "▁parti": 3045,
      "▁herkese": 3046,
      "ayarak": 3047,
      "▁sallan": 3048,
      "▁meden": 3049,
      "▁ulusal": 3050,
      "▁gelenek": 3051,
      "▁1.5": 3052,
      "▁gitmem": 3053,
      "▁sosyal": 3054,
      ".31": 3055,
      "▁ha": 3056,
      "00000": 3057,
      "abiliyor": 3058,
      "▁neyi": 3059,
      "sul": 3060,
      "▁dusur": 3061,
      "▁3.": 3062,
      "▁kendilerinin": 3063,
      "'teki": 3064,
      "cag": 3065,
      "▁mad": 3066,
      "▁sakın": 3067,
      "asının": 3068,
      "▁ayır": 3069,
      "liler": 3070,
      "▁dusundum": 3071,
      "▁yaklas": 3072,
      "▁aracı": 3073,
      "▁kendisine": 3074,
      "ima": 3075,
      "ektif": 3076,
      "lamak": 3077,
      "ıc": 3078,
      "anla": 3079,
      "ek": 3080,
      "▁ederim": 3081,
      "▁secim": 3082,
      "▁ed": 3083,
      "▁kilit": 3084,
      "▁oyunu": 3085,
      "uyorlar": 3086,
      "▁fit": 3087,
      "▁cog": 3088,
      "▁endise": 3089,
      "▁alıyordu": 3090,
      "▁degildim": 3091,
      "ırım": 3092,
      "▁herhan": 3093,
      "▁dug": 3094,
      "▁petersburg": 3095,
      "▁coban": 3096,
      "▁sıy": 3097,
      "▁hızla": 3098,
      "▁britan": 3099,
      "▁uyuy": 3100,
      "▁elini": 3101,
      "lanması": 3102,
      "▁bilinen": 3103,
      "▁alacak": 3104,
      "▁satıs": 3105,
      "▁alt": 3106,
      "▁bany": 3107,
      "▁etmisti": 3108,
      "▁belir": 3109,
      "ların": 3110,
      "▁yurtdı": 3111,
      "isik": 3112,
      "▁fu": 3113,
      "▁58": 3114,
      "▁sinem": 3115,
      "▁burbank": 3116,
      "▁faturam": 3117,
      "▁dah": 3118,
      "▁neler": 3119,
      "▁yatırımcılar": 3120,
      "▁600": 3121,
      "ımız": 3122,
      "▁incel": 3123,
      "▁rahat": 3124,
      "▁yıl": 3125,
      "▁attıgı": 3126,
      "▁gelin": 3127,
      "▁genellikle": 3128,
      "lıyordu": 3129,
      "▁1991": 3130,
      "tan": 3131,
      "▁muhar": 3132,
      "▁sıng": 3133,
      "▁acıl": 3134,
      "ebil": 3135,
      ".": 3136,
      "▁yatırım": 3137,
      "▁gorun": 3138,
      "▁spekul": 3139,
      "▁egz": 3140,
      "▁%1.7": 3141,
      "0": 3142,
      "eydi": 3143,
      "▁hukumeti": 3144,
      "edir": 3145,
      "▁sayf": 3146,
      "uldu": 3147,
      "▁mo": 3148,
      "▁kaldim": 3149,
      "▁satın": 3150,
      "▁kendisi": 3151,
      "▁jos": 3152,
      "|": 3153,
      "▁ikimiz": 3154,
      "ırdı": 3155,
      "▁komitesi": 3156,
      "▁cleveland": 3157,
      "▁bizde": 3158,
      "▁tec": 3159,
      "▁corp.": 3160,
      "▁erk": 3161,
      "▁bastan": 3162,
      "▁koc": 3163,
      "▁sab": 3164,
      "▁sakat": 3165,
      "▁kaldı": 3166,
      "▁jon": 3167,
      "▁suruk": 3168,
      "rli": 3169,
      "l": 3170,
      "▁bes": 3171,
      "▁tum": 3172,
      "ırtı": 3173,
      "▁basv": 3174,
      "▁vadeli": 3175,
      "iyon": 3176,
      "▁oak": 3177,
      "▁99": 3178,
      "▁rady": 3179,
      "etik": 3180,
      "▁rol": 3181,
      "▁yargı": 3182,
      "▁gir": 3183,
      "▁surekli": 3184,
      "▁sıkıntı": 3185,
      "▁bilmez": 3186,
      "▁tab": 3187,
      "▁delta": 3188,
      "aki": 3189,
      "▁gunumuz": 3190,
      "▁kidder": 3191,
      "▁sal": 3192,
      "▁stan": 3193,
      "▁suret": 3194,
      "▁%7.5": 3195,
      "▁hız": 3196,
      "▁anlay": 3197,
      "▁%7.8": 3198,
      "▁francisco'ya": 3199,
      "▁lezzetli": 3200,
      "▁8.3": 3201,
      "▁goz": 3202,
      "‘": 3203,
      "▁taraftar": 3204,
      "▁sert": 3205,
      "ilebilir": 3206,
      "▁bulun": 3207,
      "emey": 3208,
      "▁vır": 3209,
      "▁sif": 3210,
      "▁chp": 3211,
      "▁7.5": 3212,
      "▁belediye": 3213,
      "amet": 3214,
      "▁plas": 3215,
      "▁gidip": 3216,
      "▁eder": 3217,
      "▁yarıs": 3218,
      "ıyoruz": 3219,
      "▁personelin": 3220,
      "▁mol": 3221,
      "▁kok": 3222,
      "▁10": 3223,
      "ısının": 3224,
      "▁bulus": 3225,
      "▁guc": 3226,
      "▁uretimi": 3227,
      "▁350": 3228,
      "chester": 3229,
      "▁33": 3230,
      "▁gecir": 3231,
      "▁cık": 3232,
      "/8": 3233,
      "▁1\\/8": 3234,
      "▁cıg": 3235,
      "▁ticari": 3236,
      "▁basladı": 3237,
      "ob": 3238,
      "▁memnunum": 3239,
      "▁kelime": 3240,
      "▁hepsinin": 3241,
      "▁oda": 3242,
      "▁kazandı": 3243,
      "▁edilen": 3244,
      "ific": 3245,
      "▁vad": 3246,
      "▁/": 3247,
      "ın": 3248,
      "ega": 3249,
      "▁?..": 3250,
      "▁salon": 3251,
      "▁bogaz": 3252,
      "▁dalı": 3253,
      "elerinin": 3254,
      "▁uslu": 3255,
      "ve": 3256,
      "▁cle": 3257,
      "ulur": 3258,
      "▁anadolu": 3259,
      "▁76": 3260,
      "▁cıkarıp": 3261,
      "▁bugune": 3262,
      "▁140": 3263,
      "▁kimden": 3264,
      "▁tıklım": 3265,
      "▁petersburg'a": 3266,
      "acak": 3267,
      "▁hik": 3268,
      "atı": 3269,
      "▁kesin": 3270,
      "lattı": 3271,
      "▁acıklama": 3272,
      "▁tay": 3273,
      "mur": 3274,
      "▁demokrat": 3275,
      "▁hanimdi": 3276,
      "▁ailesi": 3277,
      "▁suren": 3278,
      "▁dobra": 3279,
      "fer": 3280,
      "▁yolunu": 3281,
      "▁44": 3282,
      "▁endi": 3283,
      "▁ayakta": 3284,
      "vır": 3285,
      "▁cem": 3286,
      "▁nash": 3287,
      "▁tıpıs": 3288,
      "yi": 3289,
      "omb": 3290,
      "nin": 3291,
      "▁yemis": 3292,
      "anci": 3293,
      "▁nadir": 3294,
      "▁ucreti": 3295,
      "▁art": 3296,
      "▁bitir": 3297,
      "▁yapma": 3298,
      "▁besin": 3299,
      "▁1989-": 3300,
      "▁makam": 3301,
      "▁olunca": 3302,
      "miyor": 3303,
      "▁nereden": 3304,
      "▁kurtar": 3305,
      "▁hij": 3306,
      "▁takır": 3307,
      "unca": 3308,
      "ebilirdi": 3309,
      "▁hes": 3310,
      "▁birincisi": 3311,
      "▁fatur": 3312,
      "▁istedigim": 3313,
      "▁kardesi": 3314,
      "▁united": 3315,
      "▁asagıda": 3316,
      "tis": 3317,
      "ama": 3318,
      "dal": 3319,
      "dem": 3320,
      "▁dem": 3321,
      "▁ogren": 3322,
      "od": 3323,
      "▁ora": 3324,
      "▁dalgın": 3325,
      "▁calısmaya": 3326,
      "▁cagr": 3327,
      "▁ulas": 3328,
      "▁konus": 3329,
      "▁gozden": 3330,
      "alara": 3331,
      "▁sabır": 3332,
      "▁partiler": 3333,
      "▁kıtır": 3334,
      "▁vade": 3335,
      "ley": 3336,
      "▁uzerinden": 3337,
      "▁0": 3338,
      "▁sorunun": 3339,
      "▁hucr": 3340,
      "▁adamın": 3341,
      "▁gide": 3342,
      "▁gecik": 3343,
      "▁olaganustu": 3344,
      "▁laci": 3345,
      "▁sis": 3346,
      "▁yuruy": 3347,
      "▁oynat": 3348,
      "▁nisp": 3349,
      "dıgında": 3350,
      "▁kr": 3351,
      "▁misafirimiz": 3352,
      "▁mev": 3353,
      "▁dolar": 3354,
      "▁meyv": 3355,
      "▁cekici": 3356,
      "iyorlar": 3357,
      "▁gozleri": 3358,
      "vey": 3359,
      "▁soyles": 3360,
      "▁con": 3361,
      "▁idare": 3362,
      "▁87": 3363,
      "ph": 3364,
      "▁cıkar": 3365,
      "▁1991-19": 3366,
      "▁imkan": 3367,
      "dugunu": 3368,
      "lerdir": 3369,
      "▁'li": 3370,
      "ron": 3371,
      "mesini": 3372,
      "masının": 3373,
      "gından": 3374,
      "▁tam": 3375,
      "▁daima": 3376,
      "▁saf": 3377,
      "▁american": 3378,
      "amb": 3379,
      "alap": 3380,
      "'": 3381,
      "▁eylul": 3382,
      "▁hangisi": 3383,
      "▁dib": 3384,
      "▁parlak": 3385,
      "▁73": 3386,
      "▁pantol": 3387,
      "▁yasıyor": 3388,
      "▁nor": 3389,
      "▁oncesi": 3390,
      "▁mevz": 3391,
      "▁yedi": 3392,
      "▁ustune": 3393,
      "▁tanıs": 3394,
      "eni": 3395,
      "lanır": 3396,
      "ser": 3397,
      "▁=": 3398,
      "▁kil": 3399,
      "sınız": 3400,
      "▁sozcusu": 3401,
      "▁katı": 3402,
      "▁istifa": 3403,
      "lim": 3404,
      "lerine": 3405,
      "▁war": 3406,
      "mustu": 3407,
      "▁sayı": 3408,
      "▁siir": 3409,
      "kı": 3410,
      "▁dilim": 3411,
      "▁107": 3412,
      "▁ual": 3413,
      "ımızda": 3414,
      "▁kalma": 3415,
      "▁500": 3416,
      "emi": 3417,
      "▁elbet": 3418,
      "▁25": 3419,
      "▁mendi": 3420,
      "▁gumbur": 3421,
      "▁sohret": 3422,
      "▁1/2": 3423,
      "imize": 3424,
      "89-": 3425,
      "▁val": 3426,
      "▁calismas": 3427,
      "▁devletin": 3428,
      "▁bask": 3429,
      "▁kasım": 3430,
      "▁un": 3431,
      "▁pantolon": 3432,
      "▁diy": 3433,
      "▁cıkardı": 3434,
      "▁tertemiz": 3435,
      "▁rakı": 3436,
      "▁tesaduf": 3437,
      "▁kade": 3438,
      "▁mahs": 3439,
      "▁meyal": 3440,
      "▁montreal": 3441,
      "leri": 3442,
      "sas": 3443,
      "▁suc": 3444,
      "▁hicbirine": 3445,
      "▁yukselt": 3446,
      "▁donmus": 3447,
      "▁olmasa": 3448,
      "ısın": 3449,
      "▁karsın": 3450,
      "endi": 3451,
      "▁konforlu": 3452,
      "astır": 3453,
      "▁sehre": 3454,
      "irler": 3455,
      "▁9": 3456,
      "▁tırman": 3457,
      "▁80": 3458,
      "▁rich": 3459,
      "olog": 3460,
      "▁sayisi": 3461,
      "▁fak": 3462,
      "▁tesekkur": 3463,
      "▁calısıyordu": 3464,
      "▁cunku": 3465,
      "ayı": 3466,
      "▁tarif": 3467,
      "▁yavas": 3468,
      "esi": 3469,
      "▁zincir": 3470,
      "ıyor": 3471,
      "▁allak": 3472,
      "ano": 3473,
      "▁girmis": 3474,
      "▁birlestir": 3475,
      "▁yaptik": 3476,
      "uste": 3477,
      "▁ihracı": 3478,
      "▁oldur": 3479,
      "▁eser": 3480,
      "▁yurt": 3481,
      "▁sonuna": 3482,
      "▁sirketinin": 3483,
      "▁lı": 3484,
      "il": 3485,
      "esi'nde": 3486,
      "▁pırıl": 3487,
      "▁i": 3488,
      "▁fikir": 3489,
      "▁man": 3490,
      "ıy": 3491,
      "it": 3492,
      "▁degisiklikler": 3493,
      "ıydı": 3494,
      "▁7\\/8": 3495,
      "▁haket": 3496,
      "▁yas": 3497,
      "▁yag": 3498,
      "▁temmuz": 3499,
      "ten": 3500,
      "▁ipotek": 3501,
      "▁pufur": 3502,
      "▁adina": 3503,
      "fik": 3504,
      "▁vatandas": 3505,
      "▁ili": 3506,
      "rup": 3507,
      "▁3": 3508,
      "bil": 3509,
      "-6": 3510,
      "ledi": 3511,
      "’": 3512,
      "gan": 3513,
      "▁kasıgı": 3514,
      "'in": 3515,
      "▁yarar": 3516,
      "▁dizi": 3517,
      "acagımı": 3518,
      "▁baz": 3519,
      "▁market": 3520,
      "▁saglıyor": 3521,
      "izm": 3522,
      "▁kasım'da": 3523,
      "uydu": 3524,
      "▁jur": 3525,
      "▁artarak": 3526,
      "▁tar": 3527,
      "▁ord": 3528,
      "▁rakamlar": 3529,
      "▁lar": 3530,
      "me": 3531,
      "▁yuksekti": 3532,
      "▁halı": 3533,
      "▁onlarla": 3534,
      "▁edilmesi": 3535,
      "▁alk": 3536,
      "▁annemin": 3537,
      "▁kalabal": 3538,
      "ardı": 3539,
      "▁diye": 3540,
      "82": 3541,
      "▁cadır": 3542,
      "iliyordu": 3543,
      "▁0.7": 3544,
      "▁diyen": 3545,
      "▁faydalan": 3546,
      "kal": 3547,
      "▁catıs": 3548,
      "▁mini": 3549,
      "▁kendinde": 3550,
      "bol": 3551,
      "▁edecek": 3552,
      "▁erkekler": 3553,
      "▁hayata": 3554,
      "alt": 3555,
      "▁olacaktır": 3556,
      "▁uluslar": 3557,
      "▁plani": 3558,
      "▁gormedim": 3559,
      ".00": 3560,
      "▁capında": 3561,
      "▁kalitesinden": 3562,
      "▁del": 3563,
      "▁saatleri": 3564,
      "bank": 3565,
      "▁mahkeme": 3566,
      "▁tesp": 3567,
      "onel": 3568,
      "larını": 3569,
      "▁giris": 3570,
      "▁sehrin": 3571,
      "▁hayran": 3572,
      "unun": 3573,
      "▁109": 3574,
      "▁kalb": 3575,
      "▁som": 3576,
      "▁muhaf": 3577,
      "0.1": 3578,
      "▁resim": 3579,
      "ılıgını": 3580,
      "▁ediyordu": 3581,
      "▁tutum": 3582,
      "▁cizgi": 3583,
      "▁hen": 3584,
      "▁sizinle": 3585,
      "ıg": 3586,
      "▁oglu": 3587,
      "▁ihrac": 3588,
      "▁kaba": 3589,
      "▁borsa": 3590,
      "▁milyar": 3591,
      "▁pers": 3592,
      "oc": 3593,
      "▁yanına": 3594,
      "▁havayollarının": 3595,
      "▁bileti": 3596,
      "ebilecegini": 3597,
      "▁yapılandır": 3598,
      "meli": 3599,
      "▁tad": 3600,
      "▁yakin": 3601,
      "▁asl": 3602,
      "▁seyrediyor": 3603,
      "▁yardımcısı": 3604,
      "tas": 3605,
      "▁kendiler": 3606,
      "ustum": 3607,
      "▁84": 3608,
      "▁cetin": 3609,
      "luktan": 3610,
      "▁kendimde": 3611,
      "▁bakıs": 3612,
      "▁sermaye": 3613,
      "▁p": 3614,
      "-1": 3615,
      "▁det": 3616,
      "▁unut": 3617,
      "▁yonetici": 3618,
      "▁no": 3619,
      "▁hasar": 3620,
      "▁merkez": 3621,
      "▁fiyat": 3622,
      "▁oy": 3623,
      "▁gogsun": 3624,
      "▁atlanta'da": 3625,
      "▁yeter": 3626,
      "▁paz": 3627,
      "ond": 3628,
      "at": 3629,
      "▁fok": 3630,
      "▁dolarlık": 3631,
      "▁baslayan": 3632,
      "igin": 3633,
      "▁yen": 3634,
      "▁olmadan": 3635,
      "▁ayn": 3636,
      "uv": 3637,
      "▁begen": 3638,
      "▁acele": 3639,
      "▁adına": 3640,
      "▁ekonomik": 3641,
      "▁bolumu": 3642,
      "likleri": 3643,
      "eligi": 3644,
      "▁colum": 3645,
      "▁ken": 3646,
      "▁dengesi": 3647,
      "▁pul": 3648,
      "larımız": 3649,
      "ram": 3650,
      "▁agır": 3651,
      "▁kid": 3652,
      "▁yenilen": 3653,
      "▁teor": 3654,
      "sın": 3655,
      "irmi": 3656,
      "▁harc": 3657,
      "▁ekipman": 3658,
      "▁ted": 3659,
      "▁vas": 3660,
      "gında": 3661,
      "▁boyut": 3662,
      "▁altına": 3663,
      "▁kırmızı": 3664,
      "▁gerc": 3665,
      "▁kom": 3666,
      "▁artısla": 3667,
      "▁yapmıs": 3668,
      "▁alev": 3669,
      "▁orta": 3670,
      "▁list": 3671,
      "ılır": 3672,
      "'da": 3673,
      "▁sovyet": 3674,
      "▁tehlik": 3675,
      "ate": 3676,
      "▁numaralı": 3677,
      "rı": 3678,
      "▁icecekleri": 3679,
      "▁olsa": 3680,
      "mun": 3681,
      "▁gozlerini": 3682,
      "▁nefret": 3683,
      "▁muhim": 3684,
      "▁zırt": 3685,
      "lıgın": 3686,
      "▁philadelphia": 3687,
      "▁satır": 3688,
      "▁cit": 3689,
      "▁yol": 3690,
      "▁kedi": 3691,
      "dıgımız": 3692,
      "▁saglayacak": 3693,
      "▁enerj": 3694,
      "▁%3.": 3695,
      "▁county": 3696,
      "▁seattle": 3697,
      "▁miami'ye": 3698,
      "▁teh": 3699,
      "▁yolc": 3700,
      "endigi": 3701,
      "▁gosterir": 3702,
      "▁vir": 3703,
      "▁kansas": 3704,
      "▁emin": 3705,
      "tiv": 3706,
      "▁sapk": 3707,
      "▁park": 3708,
      "▁goc": 3709,
      "▁sozcu": 3710,
      "▁cat": 3711,
      "daydı": 3712,
      "cular": 3713,
      "▁yaratı": 3714,
      "▁kuyu": 3715,
      "▁sektor": 3716,
      "bac": 3717,
      "▁gorevl": 3718,
      "ayıf": 3719,
      "▁karsiligini": 3720,
      "lamaya": 3721,
      "▁muhafaz": 3722,
      "▁amerik": 3723,
      "▁tahviller": 3724,
      "▁6.4": 3725,
      "▁rezervasyonu": 3726,
      "▁sahipti": 3727,
      "▁bas": 3728,
      "▁zorlu": 3729,
      "bat": 3730,
      "▁3000": 3731,
      "▁475": 3732,
      "tıgını": 3733,
      "▁istanbul'a": 3734,
      "▁yarın": 3735,
      "▁fiyatlar": 3736,
      "▁gozluk": 3737,
      "▁artır": 3738,
      "▁kalkıp": 3739,
      "▁yesil": 3740,
      "▁ust": 3741,
      "▁geldim": 3742,
      "ım": 3743,
      "▁eglenceli": 3744,
      "▁mart": 3745,
      "▁istanbul'da": 3746,
      "▁bayrak": 3747,
      "▁yuklen": 3748,
      "ılmaya": 3749,
      "in": 3750,
      "▁vi": 3751,
      "ıyorsun": 3752,
      "tıyor": 3753,
      "▁katkıda": 3754,
      "rar": 3755,
      "liginde": 3756,
      "▁aileye": 3757,
      "on": 3758,
      "▁yetistir": 3759,
      "▁birinden": 3760,
      "ecekti": 3761,
      "▁sanayi": 3762,
      "▁tartıs": 3763,
      "▁yukarı": 3764,
      "▁onem": 3765,
      "ımın": 3766,
      "▁kıs": 3767,
      "▁general": 3768,
      "burg": 3769,
      "▁bindokuzyuz": 3770,
      "▁cir": 3771,
      "emin": 3772,
      "▁etkili": 3773,
      "▁aqu": 3774,
      "▁basına": 3775,
      "▁55": 3776,
      "liydi": 3777,
      "▁satım": 3778,
      "▁kost": 3779,
      "▁saati": 3780,
      "uklum": 3781,
      "melerin": 3782,
      "▁erkenden": 3783,
      "▁muam": 3784,
      "asıyla": 3785,
      "▁kak": 3786,
      "r.": 3787,
      "▁gelen": 3788,
      "▁yer": 3789,
      "▁j": 3790,
      "▁mah": 3791,
      "▁ikibiniki": 3792,
      "▁ciftlik": 3793,
      "mar": 3794,
      "▁etmistir": 3795,
      "▁tr": 3796,
      "▁ikibin": 3797,
      "▁universite": 3798,
      "▁kıy": 3799,
      "▁yoksun": 3800,
      "▁doktor": 3801,
      "▁tası": 3802,
      "▁baslan": 3803,
      "▁dusuyor": 3804,
      "▁57": 3805,
      "▁kurum": 3806,
      "▁haksız": 3807,
      "▁arıyorum": 3808,
      "usuna": 3809,
      "▁dol": 3810,
      "liklerini": 3811,
      "meleri": 3812,
      "▁listesini": 3813,
      "▁13.": 3814,
      "95": 3815,
      "lem": 3816,
      "▁muc": 3817,
      "▁tes": 3818,
      "lanma": 3819,
      "tım": 3820,
      "▁harika": 3821,
      "▁ilgisi": 3822,
      "arlan": 3823,
      "ciler": 3824,
      "▁donuk": 3825,
      "▁dey": 3826,
      "▁yatırımcıları": 3827,
      "▁pahalı": 3828,
      "▁degilsiniz": 3829,
      "lardır": 3830,
      "▁birlikte": 3831,
      "muz": 3832,
      "tısı": 3833,
      "▁yasa": 3834,
      "▁mendil": 3835,
      "▁fıldır": 3836,
      "▁hin": 3837,
      "▁duydum": 3838,
      "▁bab": 3839,
      "▁yuzunde": 3840,
      "'ler": 3841,
      "▁niye": 3842,
      "▁arabalar": 3843,
      "▁oranında": 3844,
      "▁dok": 3845,
      "▁yanı": 3846,
      "madan": 3847,
      "▁hata": 3848,
      "▁yaptim": 3849,
      "▁fr": 3850,
      "▁gonder": 3851,
      "▁sag": 3852,
      "▁yetersizdi": 3853,
      "▁baglı": 3854,
      "ira": 3855,
      "▁performans": 3856,
      "ville": 3857,
      "▁tatildi": 3858,
      "▁tarafı": 3859,
      "▁musait": 3860,
      "ıldıgı": 3861,
      "▁hisselerin": 3862,
      "lanan": 3863,
      "▁kulak": 3864,
      "▁jour": 3865,
      "ıyordu": 3866,
      "▁avrupa": 3867,
      "▁temettu": 3868,
      "dirde": 3869,
      "▁hulya": 3870,
      "▁sohbet": 3871,
      "▁duzen": 3872,
      "▁masanın": 3873,
      "▁teminat": 3874,
      "ner": 3875,
      "▁performan": 3876,
      "▁internet": 3877,
      "▁birinci": 3878,
      "ırt": 3879,
      "san": 3880,
      "▁tuketici": 3881,
      "▁sov": 3882,
      "▁carsamba": 3883,
      "fet": 3884,
      "▁bilgisay": 3885,
      "▁super": 3886,
      "▁des": 3887,
      "artman": 3888,
      "▁alkol": 3889,
      "▁simdiye": 3890,
      "▁edilem": 3891,
      "aret": 3892,
      "masın": 3893,
      "urt": 3894,
      "▁senedi": 3895,
      "▁cob": 3896,
      "inal": 3897,
      "▁fısır": 3898,
      "cık": 3899,
      "▁program": 3900,
      "uyordu": 3901,
      "▁konu": 3902,
      "▁kimse": 3903,
      "▁%3.4": 3904,
      "▁tamamen": 3905,
      "▁sam": 3906,
      "▁lacivert": 3907,
      "▁anlasma": 3908,
      "▁kahval": 3909,
      "▁demokratik": 3910,
      ".15": 3911,
      "▁law": 3912,
      "▁ornek": 3913,
      "malı": 3914,
      "▁porcuk": 3915,
      "el": 3916,
      "ıldı": 3917,
      "▁yuzlerce": 3918,
      "gır": 3919,
      "▁'de": 3920,
      "▁aqua": 3921,
      "▁kasır": 3922,
      "▁kardesim": 3923,
      "7.2": 3924,
      "▁taban": 3925,
      "▁ates": 3926,
      "▁varan": 3927,
      "▁saclarını": 3928,
      "eniz": 3929,
      "▁yasat": 3930,
      "▁iliski": 3931,
      "▁kıvr": 3932,
      "▁sız": 3933,
      "▁bize": 3934,
      "▁guleryuz": 3935,
      "▁hakları": 3936,
      "▁bozuk": 3937,
      "▁yak": 3938,
      "▁olmasi": 3939,
      "▁dusen": 3940,
      "▁katildim": 3941,
      "▁kum": 3942,
      "▁ornegin": 3943,
      "▁gıldır": 3944,
      "▁babasının": 3945,
      "▁iyi": 3946,
      "sk": 3947,
      "ısından": 3948,
      "▁olumlu": 3949,
      "▁kosulları": 3950,
      "▁boya": 3951,
      "umu": 3952,
      "▁alabil": 3953,
      "▁ge": 3954,
      "▁lideri": 3955,
      "▁kapat": 3956,
      "▁hepsi": 3957,
      ".08": 3958,
      "▁bıc": 3959,
      "x": 3960,
      "▁phoenix'den": 3961,
      "▁ded": 3962,
      "▁3.7": 3963,
      "▁bunda": 3964,
      "▁metre": 3965,
      "eyman": 3966,
      "uga": 3967,
      "▁kendime": 3968,
      "ex": 3969,
      "▁analistler": 3970,
      "isli": 3971,
      "eceksin": 3972,
      "▁dakikada": 3973,
      "▁secenek": 3974,
      "▁anlamak": 3975,
      "▁sapır": 3976,
      "▁425": 3977,
      "▁klas": 3978,
      "▁dokun": 3979,
      "▁kamp": 3980,
      "▁med": 3981,
      "▁kars": 3982,
      "▁bulunuyor": 3983,
      "▁hisselerini": 3984,
      "▁denizin": 3985,
      "▁planı": 3986,
      "0.": 3987,
      "ediy": 3988,
      "▁129": 3989,
      "▁mal": 3990,
      "▁gidiyorum": 3991,
      "▁tıp": 3992,
      "o": 3993,
      "▁savunma": 3994,
      "esem": 3995,
      "ık": 3996,
      "▁22": 3997,
      "▁dam": 3998,
      "sur": 3999,
      "tmis": 4000,
      "▁merkezli": 4001,
      "▁dusun": 4002,
      "▁b.": 4003,
      "▁tarafa": 4004,
      "▁z": 4005,
      "▁gonul": 4006,
      "ult": 4007,
      "▁doner": 4008,
      "ems": 4009,
      "am": 4010,
      "▁dusunuyor": 4011,
      "en": 4012,
      "▁evet": 4013,
      "▁num": 4014,
      "▁asık": 4015,
      "▁hızlı": 4016,
      "▁ertesi": 4017,
      "▁universit": 4018,
      "▁korumak": 4019,
      "dav": 4020,
      "▁cez": 4021,
      "▁tedav": 4022,
      "▁birimi": 4023,
      "▁endisel": 4024,
      "▁alıcı": 4025,
      "▁me": 4026,
      "▁sark": 4027,
      "▁cami": 4028,
      "▁airlin": 4029,
      "▁hakkında": 4030,
      "▁gozlerim": 4031,
      "▁avrupalı": 4032,
      "▁og": 4033,
      "eci": 4034,
      "▁mor": 4035,
      "▁don": 4036,
      "ret": 4037,
      "ep": 4038,
      "▁26": 4039,
      "▁ikiyuz": 4040,
      "▁first": 4041,
      "▁teb": 4042,
      "▁kızı": 4043,
      "o'ya": 4044,
      "ekul": 4045,
      "▁cas": 4046,
      "▁tatli": 4047,
      "▁degilsin": 4048,
      "▁yakından": 4049,
      "▁dolayı": 4050,
      "▁eroin": 4051,
      "lıkla": 4052,
      "ligine": 4053,
      "▁degisik": 4054,
      "acag": 4055,
      "▁tuy": 4056,
      "mem": 4057,
      "▁185": 4058,
      "'deki": 4059,
      "▁1961": 4060,
      "▁ureticisi": 4061,
      "@": 4062,
      "▁yapar": 4063,
      "▁brit": 4064,
      "nız": 4065,
      "▁olmadi": 4066,
      "▁termal": 4067,
      "▁34": 4068,
      "▁engel": 4069,
      "layı": 4070,
      "▁2005": 4071,
      "▁impar": 4072,
      "▁yuvar": 4073,
      "▁vardı": 4074,
      "▁heyecan": 4075,
      "▁usul": 4076,
      "▁if": 4077,
      "iyiz": 4078,
      "▁ex": 4079,
      "bakır": 4080,
      "▁kahvaltisi": 4081,
      "ansız": 4082,
      "▁ayrıntı": 4083,
      "▁tun": 4084,
      "▁kur": 4085,
      "▁aksam": 4086,
      "▁otobus": 4087,
      "▁ister": 4088,
      "▁kent": 4089,
      "▁senin": 4090,
      "▁zey": 4091,
      "▁yapabilir": 4092,
      "▁isini": 4093,
      "▁city": 4094,
      "leniyor": 4095,
      "▁bakanlıgı": 4096,
      "▁olmadıgını": 4097,
      "egas": 4098,
      "▁isleri": 4099,
      "▁birer": 4100,
      "ilerden": 4101,
      "▁kesti": 4102,
      "▁ilgisiz": 4103,
      "▁uzerindeki": 4104,
      "meyecek": 4105,
      "▁seviy": 4106,
      "▁olmas": 4107,
      "ge": 4108,
      "▁allah": 4109,
      "▁46": 4110,
      "▁saatte": 4111,
      "▁saatlerce": 4112,
      "▁limon": 4113,
      "▁kahkah": 4114,
      "▁titr": 4115,
      "▁degismedi": 4116,
      "id": 4117,
      "atur": 4118,
      "▁bl": 4119,
      "▁67": 4120,
      "iti": 4121,
      "▁tuccar": 4122,
      "▁financi": 4123,
      "▁fiyatlandır": 4124,
      "▁olmak": 4125,
      "▁kazancları": 4126,
      "▁hikay": 4127,
      "▁malzem": 4128,
      "▁yanında": 4129,
      "▁hale": 4130,
      "▁tanık": 4131,
      "mez": 4132,
      "▁aykırı": 4133,
      "▁baslı": 4134,
      "▁%10": 4135,
      "▁w": 4136,
      "▁memph": 4137,
      "▁ard": 4138,
      "▁rum": 4139,
      "to": 4140,
      "▁bende": 4141,
      "ancı": 4142,
      "▁gum": 4143,
      "▁bisik": 4144,
      "▁ortasında": 4145,
      "▁servisi": 4146,
      "▁nedeni": 4147,
      "▁32": 4148,
      "▁avukatlar": 4149,
      "▁izliyor": 4150,
      "▁hot": 4151,
      ".7": 4152,
      "tedir": 4153,
      "▁haf": 4154,
      "ilmisti": 4155,
      "▁salat": 4156,
      "▁iddia": 4157,
      "▁adını": 4158,
      "▁makaleye": 4159,
      ".36": 4160,
      "hangi": 4161,
      "atın": 4162,
      "iran": 4163,
      "▁iskont": 4164,
      "luydu": 4165,
      "▁yalan": 4166,
      "▁fiili": 4167,
      "▁28": 4168,
      "▁nitelik": 4169,
      "▁tu": 4170,
      "▁fırıl": 4171,
      "▁52": 4172,
      "▁%17": 4173,
      "▁boynun": 4174,
      "▁havaalanı": 4175,
      "▁ustelik": 4176,
      "▁yaklasık": 4177,
      "▁alamadim": 4178,
      "verdi": 4179,
      "▁uzum": 4180,
      "andı": 4181,
      "▁prens": 4182,
      "▁atlanta": 4183,
      "1-19": 4184,
      "usuz": 4185,
      "▁pahaliydi": 4186,
      "▁..\"": 4187,
      "▁seyleri": 4188,
      "▁bulunan": 4189,
      "▁olmasına": 4190,
      "▁cocuklara": 4191,
      "▁ceyrek": 4192,
      "▁once": 4193,
      "▁sevgil": 4194,
      "▁sec": 4195,
      "▁devr": 4196,
      "▁sahneye": 4197,
      "▁air": 4198,
      "▁75": 4199,
      "\\/8": 4200,
      "▁esn": 4201,
      "▁isken": 4202,
      "se": 4203,
      "▁imal": 4204,
      "▁hus": 4205,
      "irim": 4206,
      "▁yasam": 4207,
      "▁durdur": 4208,
      "▁antr": 4209,
      "▁zor": 4210,
      "▁keskin": 4211,
      "▁um": 4212,
      "gı": 4213,
      "▁istedim": 4214,
      "▁sofr": 4215,
      "▁ceh": 4216,
      "▁haldır": 4217,
      "▁kendi": 4218,
      "▁onur": 4219,
      "▁cop": 4220,
      "larak": 4221,
      "fa": 4222,
      "anbul": 4223,
      "izik": 4224,
      "▁ustunden": 4225,
      "▁fazlasını": 4226,
      "▁baglan": 4227,
      "▁fikri": 4228,
      "▁red": 4229,
      "a": 4230,
      "▁mot": 4231,
      "ah": 4232,
      "▁verir": 4233,
      "ac": 4234,
      "▁siddet": 4235,
      "▁eyalet": 4236,
      "▁hayatını": 4237,
      "▁konum": 4238,
      "▁mektep": 4239,
      "▁61": 4240,
      "▁yara": 4241,
      "▁mars": 4242,
      "ıpıs": 4243,
      "▁olacak": 4244,
      "liyor": 4245,
      "larca": 4246,
      "▁t": 4247,
      "ısı": 4248,
      "▁senato": 4249,
      "▁yamalak": 4250,
      "▁edil": 4251,
      "▁nesi": 4252,
      "▁tutuk": 4253,
      "aseb": 4254,
      "miyorum": 4255,
      "▁degeri": 4256,
      "▁1995": 4257,
      "bs": 4258,
      "melerini": 4259,
      "orta": 4260,
      "▁yusuf": 4261,
      "▁oakland'dan": 4262,
      "▁muhtem": 4263,
      "obil": 4264,
      "▁duk": 4265,
      "▁siyah": 4266,
      "tıgım": 4267,
      "▁hepsinden": 4268,
      "+": 4269,
      "abını": 4270,
      "▁alakali": 4271,
      "em": 4272,
      "larından": 4273,
      "▁mektup": 4274,
      "▁lob": 4275,
      "▁ziy": 4276,
      "▁dortyuz": 4277,
      "▁kims": 4278,
      "▁besik": 4279,
      "arken": 4280,
      "▁bug": 4281,
      "▁yarım": 4282,
      "▁bilimsel": 4283,
      "▁pes": 4284,
      "'nun": 4285,
      "▁aktivit": 4286,
      "▁olmus": 4287,
      "▁care": 4288,
      "▁haftalık": 4289,
      "cev": 4290,
      "▁tarihinde": 4291,
      "▁agz": 4292,
      "▁agab": 4293,
      "▁guven": 4294,
      "press": 4295,
      "▁fot": 4296,
      "▁hazırlık": 4297,
      "▁edile": 4298,
      "▁paul": 4299,
      "▁kaymak": 4300,
      "▁muzak": 4301,
      "liam": 4302,
      "dum": 4303,
      "leket": 4304,
      "▁afrika": 4305,
      "▁ilgin": 4306,
      "▁international": 4307,
      "▁mayıs": 4308,
      "'ndaki": 4309,
      "-19": 4310,
      "avuz": 4311,
      "▁paket": 4312,
      "▁ey": 4313,
      "ista": 4314,
      "alardan": 4315,
      "▁dısında": 4316,
      "▁oturdu": 4317,
      "▁temizdi": 4318,
      "▁olmam": 4319,
      "▁detay": 4320,
      "▁gunah": 4321,
      "▁bardak": 4322,
      "▁duzelt": 4323,
      "▁surat": 4324,
      "ide": 4325,
      "elerden": 4326,
      "mec": 4327,
      "▁icki": 4328,
      "▁basında": 4329,
      "▁calar": 4330,
      "▁diler": 4331,
      "▁cumartesi": 4332,
      "▁milyardan": 4333,
      "▁...\"": 4334,
      "▁anayasa": 4335,
      "▁milwa": 4336,
      "▁tacoma": 4337,
      "ket": 4338,
      "▁insanı": 4339,
      "▁tuttur": 4340,
      "▁kararı": 4341,
      "▁198": 4342,
      "▁karın": 4343,
      "5'e": 4344,
      "▁tit": 4345,
      "▁aln": 4346,
      "▁perakende": 4347,
      "uru": 4348,
      "▁hukuk": 4349,
      "▁tanım": 4350,
      "▁pah": 4351,
      "▁yine": 4352,
      "▁dert": 4353,
      "▁herif": 4354,
      "▁dost": 4355,
      "▁anne": 4356,
      "of": 4357,
      "▁fir": 4358,
      "indeki": 4359,
      "▁kalem": 4360,
      "▁ceyr": 4361,
      "▁dustu": 4362,
      "▁herkesin": 4363,
      "▁seksen": 4364,
      "gım": 4365,
      "▁sol": 4366,
      "▁ugr": 4367,
      "▁kural": 4368,
      "mekte": 4369,
      "▁not": 4370,
      "▁sair": 4371,
      "▁efendim": 4372,
      "ıstı": 4373,
      "▁savası": 4374,
      "▁bizi": 4375,
      "▁bicim": 4376,
      "▁posta": 4377,
      "▁olabilirdi": 4378,
      "▁7.1": 4379,
      "▁boylu": 4380,
      "ood": 4381,
      "gen": 4382,
      "elik": 4383,
      "▁sorustur": 4384,
      "isiz": 4385,
      "enler": 4386,
      "▁ets": 4387,
      "▁s": 4388,
      "-4": 4389,
      "▁fabrik": 4390,
      "ka": 4391,
      "▁gerekti": 4392,
      "▁agustos'ta": 4393,
      "att": 4394,
      "▁tatlı": 4395,
      "▁hal": 4396,
      "▁reh": 4397,
      "▁durgun": 4398,
      "40": 4399,
      "▁ref": 4400,
      "▁karsıya": 4401,
      "▁ile": 4402,
      "▁seri": 4403,
      "▁aracılıgıyla": 4404,
      "ank": 4405,
      "▁kamyon": 4406,
      "▁koy": 4407,
      "ich": 4408,
      "▁lan": 4409,
      "▁siyas": 4410,
      "▁sekl": 4411,
      "▁buraya": 4412,
      "▁ip": 4413,
      "▁cıkan": 4414,
      "▁derec": 4415,
      "▁taks": 4416,
      "▁dedi": 4417,
      "▁geliyordu": 4418,
      "▁ilgil": 4419,
      "▁ucretleri": 4420,
      "akin": 4421,
      "▁silin": 4422,
      "▁gorusuldu": 4423,
      "▁ogretmen": 4424,
      "▁mat": 4425,
      "akende": 4426,
      "▁fat": 4427,
      "amayacagını": 4428,
      "▁yolu": 4429,
      "ilm": 4430,
      "▁bit": 4431,
      "▁16": 4432,
      "▁ici": 4433,
      "▁ten": 4434,
      "▁ask": 4435,
      "▁miy": 4436,
      "▁im": 4437,
      "ho": 4438,
      "▁siparis": 4439,
      "▁nufus": 4440,
      "larının": 4441,
      "▁basım": 4442,
      "▁tefek": 4443,
      "▁unlu": 4444,
      "▁yıllarda": 4445,
      "▁%14": 4446,
      "oloj": 4447,
      "▁2.5": 4448,
      "▁it": 4449,
      "▁yab": 4450,
      "▁hatta": 4451,
      "▁anı": 4452,
      "▁sy": 4453,
      "▁sonra": 4454,
      "▁buna": 4455,
      "▁dolayi": 4456,
      "alarını": 4457,
      "▁turku": 4458,
      "▁aray": 4459,
      "▁ingiltere": 4460,
      "▁traf": 4461,
      "macı": 4462,
      "erin": 4463,
      "▁tahvilleri": 4464,
      "ilerini": 4465,
      "▁kanal": 4466,
      "▁acent": 4467,
      "▁obur": 4468,
      "▁tekrar": 4469,
      "▁odalar": 4470,
      "▁mısır": 4471,
      "miyordu": 4472,
      "▁nik": 4473,
      "gini": 4474,
      "▁tip": 4475,
      "istik": 4476,
      "▁197": 4477,
      "▁japon": 4478,
      "▁kek": 4479,
      "▁sıg": 4480,
      "▁kanı": 4481,
      "▁oyuncak": 4482,
      "▁manc": 4483,
      "▁bununla": 4484,
      "▁proj": 4485,
      "▁1\\/": 4486,
      "siz": 4487,
      "▁eglen": 4488,
      "▁odedigim": 4489,
      "emem": 4490,
      "▁isci": 4491,
      "85": 4492,
      "9": 4493,
      "▁sob": 4494,
      "▁donem": 4495,
      "▁senar": 4496,
      "ba": 4497,
      "▁calısır": 4498,
      "eket": 4499,
      "▁harp": 4500,
      "asız": 4501,
      "egim": 4502,
      "▁omr": 4503,
      "▁kaynagı": 4504,
      "▁dallas'ta": 4505,
      "mistir": 4506,
      "▁frank": 4507,
      "▁4.6": 4508,
      "▁%4.8": 4509,
      "▁dik": 4510,
      "▁vapur": 4511,
      "▁goturdu": 4512,
      "ıf": 4513,
      "mel": 4514,
      "ons": 4515,
      "▁zayifti": 4516,
      "▁perd": 4517,
      "▁planlam": 4518,
      "▁vurgul": 4519,
      "▁kayb": 4520,
      "▁ucu": 4521,
      "▁hang": 4522,
      "▁sayet": 4523,
      "▁nedenlerden": 4524,
      ".0": 4525,
      "▁ulkemiz": 4526,
      "▁s&p": 4527,
      "-2": 4528,
      "▁olmalıydı": 4529,
      "▁huk": 4530,
      "▁devral": 4531,
      "agından": 4532,
      "▁biriydi": 4533,
      "▁balayi": 4534,
      "alarının": 4535,
      "▁konuk": 4536,
      "▁egemen": 4537,
      "cıların": 4538,
      "▁maas": 4539,
      "diginde": 4540,
      "▁merh": 4541,
      "▁detroit'e": 4542,
      "len": 4543,
      "▁zira": 4544,
      "▁national": 4545,
      "▁meger": 4546,
      "▁bey": 4547,
      "▁ur": 4548,
      "▁tercih": 4549,
      "▁zeytin": 4550,
      "lıgı": 4551,
      "▁ef": 4552,
      "▁yı": 4553,
      "▁rut": 4554,
      "▁matem": 4555,
      "▁.8": 4556,
      "▁gayret": 4557,
      "▁resmen": 4558,
      "▁olun": 4559,
      "al": 4560,
      "▁0.1": 4561,
      "etir": 4562,
      "▁aktar": 4563,
      "▁bilgisayar": 4564,
      "▁uygul": 4565,
      "▁he": 4566,
      "liyorum": 4567,
      "▁temsil": 4568,
      "▁sana": 4569,
      "aydı": 4570,
      "▁nedir": 4571,
      "▁ihracat": 4572,
      "▁gercek": 4573,
      "lan": 4574,
      "▁canı": 4575,
      "▁fakat": 4576,
      "▁mood": 4577,
      "▁anayas": 4578,
      "▁saatlerde": 4579,
      "▁lok": 4580,
      "ens": 4581,
      "▁kemik": 4582,
      "▁kenara": 4583,
      "▁kavram": 4584,
      "amam": 4585,
      "▁49": 4586,
      "cuk": 4587,
      "giniz": 4588,
      "kur": 4589,
      "uk": 4590,
      "▁yonet": 4591,
      "ede": 4592,
      "▁tartısmalar": 4593,
      "uyorlardı": 4594,
      "▁karg": 4595,
      "▁atan": 4596,
      "▁tahmini": 4597,
      "▁begenmedim": 4598,
      "▁takv": 4599,
      "▁eskiden": 4600,
      "▁contin": 4601,
      "▁etme": 4602,
      "▁getirir": 4603,
      "▁yardımcı": 4604,
      "▁hali": 4605,
      "▁fırsat": 4606,
      "ar": 4607,
      "▁senator": 4608,
      "▁gidis": 4609,
      "▁dukkan": 4610,
      "ayet": 4611,
      "▁azdi": 4612,
      "▁ist": 4613,
      "esinde": 4614,
      "▁bel": 4615,
      "▁portf": 4616,
      "ılacak": 4617,
      "▁2002": 4618,
      "(": 4619,
      "..": 4620,
      "tep": 4621,
      "▁james": 4622,
      "▁gibi": 4623,
      "▁belli": 4624,
      "tere": 4625,
      "▁neresi": 4626,
      "▁af": 4627,
      "▁aktarmalı": 4628,
      "ku": 4629,
      "yum": 4630,
      "▁umur": 4631,
      "▁damak": 4632,
      "▁halde": 4633,
      "▁icten": 4634,
      "▁43": 4635,
      "▁istiyor": 4636,
      "yn": 4637,
      "▁cesitlilik": 4638,
      "han": 4639,
      "▁gon": 4640,
      "g": 4641,
      "uma": 4642,
      "▁galib": 4643,
      "lli": 4644,
      "▁duvara": 4645,
      "ily": 4646,
      "▁olmustu": 4647,
      "▁parayı": 4648,
      "57": 4649,
      "▁hedefi": 4650,
      "▁cıkmıs": 4651,
      "▁1989-8": 4652,
      "ong": 4653,
      "anları": 4654,
      "▁dak": 4655,
      "▁yerinden": 4656,
      "ici": 4657,
      "▁sap": 4658,
      "▁washington'a": 4659,
      "▁5-1": 4660,
      "▁adalet": 4661,
      "▁bulmadim": 4662,
      "▁1992": 4663,
      "ru": 4664,
      "lesti": 4665,
      "▁hizmet": 4666,
      "ical": 4667,
      "acagim": 4668,
      "▁gonullu": 4669,
      "ilig": 4670,
      "▁seg": 4671,
      "▁alb": 4672,
      "▁sunuyor": 4673,
      "/": 4674,
      "▁onc": 4675,
      "▁emir": 4676,
      "▁konferans": 4677,
      "▁otelin": 4678,
      "▁21:00-22:30": 4679,
      "▁duygu": 4680,
      "▁sona": 4681,
      "▁isterim": 4682,
      "▁hadi": 4683,
      "▁acıp": 4684,
      "▁geri": 4685,
      "▁bazıların": 4686,
      "▁olur": 4687,
      "▁acil": 4688,
      "▁yonelik": 4689,
      "▁uc": 4690,
      "mesin": 4691,
      "osunda": 4692,
      "▁cıkıyor": 4693,
      "layıp": 4694,
      "▁kapandı": 4695,
      "▁fazla": 4696,
      "gimiz": 4697,
      "▁carol": 4698,
      "vert": 4699,
      "▁bosalt": 4700,
      "▁aleyh": 4701,
      "▁zar": 4702,
      "▁yerini": 4703,
      "▁zir": 4704,
      "▁protest": 4705,
      "▁piyasada": 4706,
      "▁rehberimiz": 4707,
      "▁chic": 4708,
      "▁7.9": 4709,
      "▁phil": 4710,
      "▁": 4711,
      "une": 4712,
      "▁kısk": 4713,
      "▁toplum": 4714,
      "amamıs": 4715,
      "▁dolap": 4716,
      "▁herhal": 4717,
      "▁sacları": 4718,
      "▁%6.90": 4719,
      "▁kerem": 4720,
      "▁gerekc": 4721,
      "abilecegini": 4722,
      "▁havayollarını": 4723,
      "▁umuyor": 4724,
      "▁son": 4725,
      "▁olacagı": 4726,
      "▁basarılı": 4727,
      "cılık": 4728,
      "▁rez": 4729,
      "n": 4730,
      "▁dus": 4731,
      "▁hacı": 4732,
      "'si": 4733,
      "▁dusmus": 4734,
      "▁netic": 4735,
      "▁fıkır": 4736,
      "lere": 4737,
      "▁kalmadigim": 4738,
      "ock": 4739,
      "▁ulk": 4740,
      "nik": 4741,
      "▁$": 4742,
      "▁fiyati": 4743,
      "uyle": 4744,
      "▁basit": 4745,
      "▁hissesi": 4746,
      "▁pay": 4747,
      "▁ittif": 4748,
      "▁sınız": 4749,
      "▁2000": 4750,
      "asyon": 4751,
      "asını": 4752,
      "▁ford": 4753,
      "cinin": 4754,
      "may": 4755,
      "▁uste": 4756,
      "▁bilet": 4757,
      "▁bulmak": 4758,
      "ahtar": 4759,
      "▁yakalan": 4760,
      "▁maliyeti": 4761,
      "▁.)": 4762,
      "▁dısarıda": 4763,
      "mustur": 4764,
      "▁bahc": 4765,
      "▁acılan": 4766,
      "▁haziran": 4767,
      "elikle": 4768,
      "▁epey": 4769,
      "▁toparlan": 4770,
      "▁eksik": 4771,
      "▁burun": 4772,
      "west": 4773,
      "▁kul": 4774,
      "▁bakan": 4775,
      "▁aldır": 4776,
      "kei": 4777,
      "▁dolasır": 4778,
      "▁kampan": 4779,
      "▁%22": 4780,
      "▁ediyor": 4781,
      "▁edecegini": 4782,
      "▁pan": 4783,
      "▁haz": 4784,
      "▁fransız": 4785,
      "▁komisyonlar": 4786,
      "▁belirli": 4787,
      "▁sekil": 4788,
      "▁tex": 4789,
      "edim": 4790,
      "▁abd'nin": 4791,
      "▁ruh": 4792,
      "▁olcu": 4793,
      "aj": 4794,
      "▁bilgilendir": 4795,
      "amayacak": 4796,
      "irdi": 4797,
      "cak": 4798,
      "▁dık": 4799,
      "▁ab": 4800,
      "ham": 4801,
      "▁%8": 4802,
      "mıyor": 4803,
      "▁bundan": 4804,
      "▁gunler": 4805,
      "cin": 4806,
      "▁takip": 4807,
      "▁ordu": 4808,
      "digi": 4809,
      "ese": 4810,
      "arl": 4811,
      "▁hut": 4812,
      "▁ele": 4813,
      "▁mutluluk": 4814,
      "▁cıyak": 4815,
      "▁mur": 4816,
      "▁sac": 4817,
      "▁oakland'a": 4818,
      "usun": 4819,
      "▁gosterebilir": 4820,
      "lilig": 4821,
      "▁satıslar": 4822,
      "▁fiyatları": 4823,
      "▁mutf": 4824,
      "▁paylas": 4825,
      "▁su": 4826,
      "ızı": 4827,
      "▁tom": 4828,
      "▁gucu": 4829,
      "▁halka": 4830,
      "ilir": 4831,
      "▁veririm": 4832,
      "▁masal": 4833,
      "▁beklentim": 4834,
      "din": 4835,
      "▁hav": 4836,
      "be": 4837,
      "ımızı": 4838,
      "▁mitchell": 4839,
      "▁yuzden": 4840,
      "▁marka": 4841,
      "▁tadi": 4842,
      "▁korfez": 4843,
      "▁--": 4844,
      "▁yıldır": 4845,
      "amay": 4846,
      "11": 4847,
      "▁kan": 4848,
      "▁araya": 4849,
      "ice": 4850,
      "▁systems": 4851,
      "▁washington'dan": 4852,
      "aların": 4853,
      "▁pamuk": 4854,
      "ts": 4855,
      "▁mus": 4856,
      "▁derli": 4857,
      "▁ic": 4858,
      "▁sirketler": 4859,
      "ga": 4860,
      "48": 4861,
      "ud": 4862,
      "▁hacim": 4863,
      "▁hul": 4864,
      "▁basa": 4865,
      "▁satıl": 4866,
      "▁suruyor": 4867,
      "▁har": 4868,
      "▁mum": 4869,
      "edil": 4870,
      "▁oyuncu": 4871,
      "▁kasab": 4872,
      "▁bekliyor": 4873,
      "▁kullan": 4874,
      "▁muhtemel": 4875,
      "▁sıcak": 4876,
      "▁tır": 4877,
      "isyon": 4878,
      "8": 4879,
      "▁nori": 4880,
      "▁jose'ye": 4881,
      "stems": 4882,
      "▁hepimiz": 4883,
      "gılan": 4884,
      "▁varacak": 4885,
      "▁felaket": 4886,
      "▁zengin": 4887,
      "▁gey": 4888,
      "'yu": 4889,
      "▁ceb": 4890,
      "▁muhal": 4891,
      "▁luk": 4892,
      "▁saygı": 4893,
      "▁desik": 4894,
      "▁ız": 4895,
      "ekler": 4896,
      "▁olmustur": 4897,
      "▁birka": 4898,
      "▁paranin": 4899,
      "▁sezon": 4900,
      "▁ner": 4901,
      "▁fort": 4902,
      "▁hukumet": 4903,
      "▁kım": 4904,
      "▁acar": 4905,
      "▁ves": 4906,
      "▁kibar": 4907,
      "memiz": 4908,
      "▁gelecek": 4909,
      "▁ipek": 4910,
      ")": 4911,
      "▁biber": 4912,
      "▁veriyorum": 4913,
      "▁vermek": 4914,
      "▁le": 4915,
      "layacak": 4916,
      "aturk": 4917,
      "▁oglen": 4918,
      "▁l": 4919,
      "▁ecz": 4920,
      "▁er": 4921,
      "▁38": 4922,
      "im": 4923,
      "eceg": 4924,
      "▁cumhurbaskan": 4925,
      "▁yoneticileri": 4926,
      "aga": 4927,
      "▁muh": 4928,
      "▁105": 4929,
      "▁kuc": 4930,
      "dok": 4931,
      "/4": 4932,
      "▁fonu": 4933,
      "▁av": 4934,
      "▁odak": 4935,
      "▁muhab": 4936,
      "▁polon": 4937,
      "▁en": 4938,
      "▁turlu": 4939,
      "▁secen": 4940,
      "▁yav": 4941,
      "abı": 4942,
      "▁katlı": 4943,
      "0'": 4944,
      "▁aj": 4945,
      "vili": 4946,
      "▁50": 4947,
      "▁ucusunuz": 4948,
      "▁count": 4949,
      "35": 4950,
      "▁etmem": 4951,
      "▁fi": 4952,
      "▁iliskiler": 4953,
      "▁kot": 4954,
      "ung": 4955,
      "▁ulasım": 4956,
      "▁0.3": 4957,
      "▁yken": 4958,
      "▁urk": 4959,
      "emedik": 4960,
      "▁atıl": 4961,
      "▁buc": 4962,
      "▁anim": 4963,
      "▁dil": 4964,
      "▁bulundugu": 4965,
      "▁dunyanın": 4966,
      "aya": 4967,
      "▁tez": 4968,
      "▁burokr": 4969,
      "▁olus": 4970,
      "▁heyec": 4971,
      "▁seyahat": 4972,
      "▁avukat": 4973,
      "▁dc": 4974,
      "▁tım": 4975,
      "▁icecekler": 4976,
      "▁kendin": 4977,
      "asında": 4978,
      "▁beh": 4979,
      "▁bez": 4980,
      "oz": 4981,
      "▁rom": 4982,
      "madım": 4983,
      "'nı": 4984,
      "ele": 4985,
      "ala": 4986,
      "▁ettir": 4987,
      "▁%4": 4988,
      "atır": 4989,
      "▁bildirdi": 4990,
      "▁alımı": 4991,
      "y'nin": 4992,
      "▁etmis": 4993,
      "▁ozgur": 4994,
      "▁haberi": 4995,
      "▁isp": 4996,
      "▁cek": 4997,
      "▁kapının": 4998,
      "elerde": 4999,
      "▁istemiyorum": 5000,
      "▁cincinnati'den": 5001,
      "▁olumsuz": 5002,
      "▁nisan'da": 5003,
      "▁1.3": 5004,
      "▁kisiler": 5005,
      "▁borcu": 5006,
      "amadik": 5007,
      "yo": 5008,
      "▁sirketlerin": 5009,
      "▁ikti": 5010,
      ".85": 5011,
      "▁kıbr": 5012,
      "▁portakal": 5013,
      "▁1/8": 5014,
      "eyen": 5015,
      "▁ucuslar": 5016,
      "▁cocuklar": 5017,
      "▁polis": 5018,
      "▁eastern": 5019,
      "▁elbette": 5020,
      "▁zorunda": 5021,
      "ton": 5022,
      "▁reform": 5023,
      "▁yam": 5024,
      "▁kesinlikle": 5025,
      "▁denizinden": 5026,
      "▁baslamıstı": 5027,
      "▁2009": 5028,
      "▁etm": 5029,
      "▁fab": 5030,
      "▁dusuktu": 5031,
      "—": 5032,
      "▁kıyaslan": 5033,
      "▁sh": 5034,
      "▁ilgilen": 5035,
      "sı": 5036,
      "'yı": 5037,
      "yas": 5038,
      "▁isin": 5039,
      "▁hop": 5040,
      "lendir": 5041,
      "▁top": 5042,
      "ograf": 5043,
      "▁benim": 5044,
      "▁ho": 5045,
      "▁ydı": 5046,
      "▁birlik": 5047,
      "▁yasadıgı": 5048,
      "ersin": 5049,
      "▁kirp": 5050,
      "▁dair": 5051,
      "▁birimiz": 5052,
      "▁degerlendiririm": 5053,
      "imiz": 5054,
      "▁300": 5055,
      "▁akıl": 5056,
      "▁cır": 5057,
      "▁basarı": 5058,
      "▁partisi": 5059,
      "'le": 5060,
      "iligi": 5061,
      "▁sadece": 5062,
      "▁1989": 5063,
      "gru": 5064,
      "▁sel": 5065,
      "▁elektrik": 5066,
      "▁zamanı": 5067,
      ".39": 5068,
      "▁icinde": 5069,
      "una": 5070,
      "baskan": 5071,
      "azı": 5072,
      "▁tabur": 5073,
      "ov": 5074,
      "▁din": 5075,
      "▁model": 5076,
      "▁%85": 5077,
      "▁tutun": 5078,
      "▁dusunc": 5079,
      "digine": 5080,
      "man": 5081,
      "abilmek": 5082,
      "▁havalim": 5083,
      "▁mesut": 5084,
      "▁hafif": 5085,
      "▁corp": 5086,
      "▁veya": 5087,
      "▁birbirimize": 5088,
      "lerde": 5089,
      "▁ede": 5090,
      "▁ogr": 5091,
      "▁stok": 5092,
      "▁duv": 5093,
      "ıtır": 5094,
      "▁san": 5095,
      "ento": 5096,
      "rem": 5097,
      "▁yasama": 5098,
      "▁patlıcan": 5099,
      "ileri": 5100,
      "▁inan": 5101,
      "cesine": 5102,
      "▁sahne": 5103,
      "▁etmez": 5104,
      "▁pir": 5105,
      "▁dolay": 5106,
      "▁girdik": 5107,
      "▁dur": 5108,
      "▁karayolu": 5109,
      "hu": 5110,
      "▁hom": 5111,
      "lum": 5112,
      "emb": 5113,
      "▁matematik": 5114,
      "imin": 5115,
      "▁ilgisizdi": 5116,
      "▁dusman": 5117,
      "▁misafir": 5118,
      "▁diyorlar": 5119,
      "▁sahibi": 5120,
      "gah": 5121,
      "▁istif": 5122,
      "▁animasyon": 5123,
      "▁sistem": 5124,
      "▁2.7": 5125,
      "▁kısmını": 5126,
      "▁k": 5127,
      "▁olmayacak": 5128,
      "▁aga": 5129,
      "ori": 5130,
      "▁gov": 5131,
      "▁mud": 5132,
      "▁1974": 5133,
      "▁olmadıgı": 5134,
      "▁istanbul'un": 5135,
      "▁azal": 5136,
      "▁musun": 5137,
      "▁cogunlukla": 5138,
      "▁ucuncu": 5139,
      "▁8.8": 5140,
      "▁bayram": 5141,
      "▁0.2": 5142,
      "ediye": 5143,
      "madıgı": 5144,
      "d.": 5145,
      "ran": 5146,
      "▁1000": 5147,
      "▁yoksul": 5148,
      "▁araz": 5149,
      "▁cel": 5150,
      "toru": 5151,
      "▁gittikce": 5152,
      "▁savur": 5153,
      "afir": 5154,
      "▁leh": 5155,
      "▁gunleri": 5156,
      "sanız": 5157,
      "▁ney": 5158,
      ".03": 5159,
      "▁hap": 5160,
      "▁fakir": 5161,
      "ecektir": 5162,
      "bas": 5163,
      "▁tamamlan": 5164,
      "▁mun": 5165,
      "cileri": 5166,
      "mıslar": 5167,
      "▁yoksa": 5168,
      "▁tac": 5169,
      "▁fedakar": 5170,
      "▁sarhos": 5171,
      "▁deg": 5172,
      "▁varmıs": 5173,
      "▁bekledigim": 5174,
      "▁yeg": 5175,
      "yeni": 5176,
      "▁turb": 5177,
      "ıl": 5178,
      "▁taht": 5179,
      "por": 5180,
      "▁%7.875": 5181,
      "▁diger": 5182,
      "▁tutmak": 5183,
      "inde": 5184,
      "▁esya": 5185,
      "set": 5186,
      "▁kıp": 5187,
      "▁kafa": 5188,
      "ng": 5189,
      "▁lezzetleri": 5190,
      "▁baktı": 5191,
      "▁karmas": 5192,
      "imden": 5193,
      "▁pek": 5194,
      "▁americ": 5195,
      "erdi": 5196,
      "▁7": 5197,
      "amaya": 5198,
      "▁havaalanından": 5199,
      "isi": 5200,
      "▁sanki": 5201,
      "32": 5202,
      "▁yerine": 5203,
      "▁otur": 5204,
      "▁vucut": 5205,
      "▁kucuk": 5206,
      "▁7/8": 5207,
      "▁c": 5208,
      "lah": 5209,
      "▁yapmayı": 5210,
      "▁onu": 5211,
      "▁odaya": 5212,
      "uyu": 5213,
      "'s": 5214,
      "▁isler": 5215,
      "aca": 5216,
      "▁birbirinin": 5217,
      "▁lehman": 5218,
      "▁ucusları": 5219,
      "lendi": 5220,
      "▁195": 5221,
      "▁acı": 5222,
      "▁artan": 5223,
      "ali": 5224,
      "maması": 5225,
      "▁demokr": 5226,
      "lif": 5227,
      "▁mill": 5228,
      "▁temiz": 5229,
      "▁boston'a": 5230,
      ".23": 5231,
      "4000": 5232,
      "▁ugras": 5233,
      "▁wil": 5234,
      "▁isvicre": 5235,
      "▁herk": 5236,
      "▁profesyonel": 5237,
      "dikleri": 5238,
      "▁seviyede": 5239,
      "▁pittsburgh'tan": 5240,
      "▁kırm": 5241,
      "▁onlara": 5242,
      "▁beden": 5243,
      "▁110": 5244,
      "▁new": 5245,
      "▁karıstır": 5246,
      "▁carsaf": 5247,
      "▁diyordu": 5248,
      "▁hicbir": 5249,
      "▁arkadası": 5250,
      "ilerine": 5251,
      "▁us": 5252,
      "ligini": 5253,
      "▁indianapolis": 5254,
      "▁geldigini": 5255,
      "gunde": 5256,
      "5000": 5257,
      "▁becer": 5258,
      "▁caresiz": 5259,
      "▁kemal": 5260,
      "▁ihtiyacı": 5261,
      ".55": 5262,
      "seniz": 5263,
      "▁oyle": 5264,
      "▁duyar": 5265,
      "amaz": 5266,
      "▁bor": 5267,
      "▁derece": 5268,
      "▁diyar": 5269,
      "udum": 5270,
      "▁lou": 5271,
      "▁yorum": 5272,
      "emis": 5273,
      "▁diplom": 5274,
      "▁la": 5275,
      "▁kaliforniya": 5276,
      "▁daha": 5277,
      "▁acaktı": 5278,
      "▁firmalar": 5279,
      "▁yaprak": 5280,
      "▁degisiklik": 5281,
      "\\/32": 5282,
      "ıyla": 5283,
      "▁zav": 5284,
      "▁kav": 5285,
      "▁fen": 5286,
      "▁geor": 5287,
      "▁devrim": 5288,
      "ad": 5289,
      "▁stu": 5290,
      "▁gorev": 5291,
      "▁worth": 5292,
      "▁git": 5293,
      "▁sms": 5294,
      "ılma": 5295,
      "▁delik": 5296,
      "▁salt": 5297,
      "▁cılgın": 5298,
      "unc": 5299,
      "edi": 5300,
      "▁politika": 5301,
      "…": 5302,
      "▁yayım": 5303,
      "89": 5304,
      "▁burada": 5305,
      "▁op": 5306,
      "ince": 5307,
      "▁havaliman": 5308,
      "▁176": 5309,
      "▁68": 5310,
      "▁415": 5311,
      "mamıs": 5312,
      "▁cıkart": 5313,
      "tanın": 5314,
      "▁isbir": 5315,
      "okr": 5316,
      "lıg": 5317,
      "▁gecmiste": 5318,
      "ebilirim": 5319,
      "▁ciz": 5320,
      "larına": 5321,
      "▁900": 5322,
      "▁yaptı": 5323,
      "nun": 5324,
      "▁mucadel": 5325,
      "▁2003": 5326,
      "ers": 5327,
      "▁yapılır": 5328,
      "mamak": 5329,
      "estir": 5330,
      "▁6.25": 5331,
      "▁kaybol": 5332,
      "medigini": 5333,
      "5'ten": 5334,
      "erve": 5335,
      "▁oturup": 5336,
      "▁27": 5337,
      "▁halkın": 5338,
      "▁koylu": 5339,
      "▁iti": 5340,
      "elerini": 5341,
      "detti": 5342,
      "▁ortada": 5343,
      "oya": 5344,
      "▁pr": 5345,
      "▁serin": 5346,
      "2": 5347,
      "▁olsun": 5348,
      "▁eylem": 5349,
      "▁acıldı": 5350,
      "▁geldi": 5351,
      "▁ig": 5352,
      "▁tuv": 5353,
      "▁olması": 5354,
      "taki": 5355,
      "▁kalit": 5356,
      "▁temizlik": 5357,
      "▁kalkıs": 5358,
      "▁yerler": 5359,
      "▁102": 5360,
      "▁tuket": 5361,
      "▁cer": 5362,
      "▁californ": 5363,
      "▁guleryuzlu": 5364,
      "▁onları": 5365,
      "▁bakar": 5366,
      "dikten": 5367,
      "larında": 5368,
      "▁dom": 5369,
      "▁fing": 5370,
      "▁hamam": 5371,
      "▁alındı": 5372,
      "enkul": 5373,
      "▁sıgın": 5374,
      "▁hayır": 5375,
      "▁geceleri": 5376,
      "av": 5377,
      "▁bil": 5378,
      "▁tıpkı": 5379,
      "▁luks": 5380,
      "▁ameliyat": 5381,
      "▁tamir": 5382,
      "▁com": 5383,
      "▁mevzu": 5384,
      "esindeki": 5385,
      "▁…": 5386,
      "▁yeten": 5387,
      "▁cumhuriyeti": 5388,
      "▁dc'den": 5389,
      "▁yılının": 5390,
      "▁laf": 5391,
      "amıs": 5392,
      "▁komur": 5393,
      "▁degerlendir": 5394,
      "▁mak": 5395,
      "▁kopek": 5396,
      "▁kocaman": 5397,
      "osy": 5398,
      "▁11": 5399,
      "lardaki": 5400,
      "kel": 5401,
      "▁sok": 5402,
      "▁hosuma": 5403,
      "if": 5404,
      "▁tahta": 5405,
      "▁sozcuk": 5406,
      "▁ticareti": 5407,
      "asından": 5408,
      "▁oldukları": 5409,
      "▁cıvıl": 5410,
      "▁john": 5411,
      "▁kalk": 5412,
      "#": 5413,
      "▁yapın": 5414,
      "▁seye": 5415,
      "▁durumda": 5416,
      "▁yenil": 5417,
      "aat": 5418,
      "▁nev": 5419,
      "▁5'ten": 5420,
      "edef": 5421,
      ":": 5422,
      "▁chicago'ya": 5423,
      "▁hurriyet": 5424,
      "▁tedarik": 5425,
      "▁francisco": 5426,
      "▁bilgis": 5427,
      "▁yoluyla": 5428,
      "▁acaba": 5429,
      "▁sizlere": 5430,
      "iyeti": 5431,
      "eyerek": 5432,
      "▁calısmalar": 5433,
      "▁cıl": 5434,
      "▁kısıt": 5435,
      "iforn": 5436,
      "ite": 5437,
      "▁degilmis": 5438,
      "▁japonya": 5439,
      "▁ilan": 5440,
      "ker": 5441,
      "▁kalkıslı": 5442,
      "oth": 5443,
      "▁ısı": 5444,
      "▁yıllarca": 5445,
      "saf": 5446,
      "iyet": 5447,
      "▁tabi": 5448,
      "udu": 5449,
      "dokuz": 5450,
      "▁alın": 5451,
      "▁olduklarını": 5452,
      "▁donus": 5453,
      "▁4.8": 5454,
      "▁112": 5455,
      "▁mektu": 5456,
      "▁mıy": 5457,
      "iden": 5458,
      "▁66": 5459,
      "▁dagın": 5460,
      "▁saglayan": 5461,
      "▁var": 5462,
      "▁tarz": 5463,
      "ilmesi": 5464,
      "▁alak": 5465,
      "kin": 5466,
      "▁getirmek": 5467,
      "o'dan": 5468,
      "▁hur": 5469,
      "▁okur": 5470,
      "▁parlam": 5471,
      "▁terk": 5472,
      "▁enerji": 5473,
      "maktan": 5474,
      "▁rad": 5475,
      "▁okudu": 5476,
      "▁bunun": 5477,
      "▁mikr": 5478,
      "likler": 5479,
      "hut": 5480,
      "▁bul": 5481,
      "▁eliyle": 5482,
      "▁girdi": 5483,
      "▁plastik": 5484,
      "▁yaptık": 5485,
      "▁sas": 5486,
      "▁arasında": 5487,
      "ly": 5488,
      "▁etmedi": 5489,
      "▁biz": 5490,
      "▁hizmeti": 5491,
      "▁diren": 5492,
      "iz": 5493,
      "▁karsilamadi": 5494,
      "0000": 5495,
      "▁korun": 5496,
      "gine": 5497,
      "▁3/": 5498,
      "▁kavus": 5499,
      "▁sisman": 5500,
      "bes": 5501,
      "▁tahmin": 5502,
      "▁odeme": 5503,
      "▁nit": 5504,
      "▁sahil": 5505,
      "▁lık": 5506,
      "▁adamları": 5507,
      "▁ustunde": 5508,
      "▁kamu": 5509,
      "▁fonlar": 5510,
      "▁vasıtasıyla": 5511,
      "▁alman": 5512,
      "bilir": 5513,
      "ortaj": 5514,
      "▁adlı": 5515,
      "▁olmalı": 5516,
      "▁lis": 5517,
      "ick": 5518,
      "▁boston'dan": 5519,
      "▁bilim": 5520,
      "▁prob": 5521,
      "▁kısmen": 5522,
      "65": 5523,
      "▁continental": 5524,
      "▁tesadu": 5525,
      "lor": 5526,
      "\"": 5527,
      "2:30": 5528,
      "▁senet": 5529,
      "▁avustral": 5530,
      "eginde": 5531,
      "▁suresi": 5532,
      "▁kop": 5533,
      "▁gidi": 5534,
      "dı": 5535,
      "▁ilet": 5536,
      "▁strate": 5537,
      "arlar": 5538,
      "das": 5539,
      "▁ucyuz": 5540,
      "▁lif": 5541,
      "onom": 5542,
      "▁organ": 5543,
      "▁%15": 5544,
      "▁ib": 5545,
      "▁gunun": 5546,
      "▁ayında": 5547,
      "▁pencer": 5548,
      "▁sın": 5549,
      "▁mim": 5550,
      "▁lazım": 5551,
      "▁geliri": 5552,
      "▁city'e": 5553,
      "▁abd": 5554,
      "▁alem": 5555,
      "▁lir": 5556,
      "▁islemlerinde": 5557,
      "▁lastik": 5558,
      "▁bekleyen": 5559,
      "▁lakin": 5560,
      "▁birinin": 5561,
      "▁ka": 5562,
      "▁gob": 5563,
      "▁birkac": 5564,
      "▁iyiydi": 5565,
      "tıkca": 5566,
      "denin": 5567,
      "▁elimi": 5568,
      "y's": 5569,
      "tigini": 5570,
      "isti": 5571,
      "▁cev": 5572,
      "▁profesyon": 5573,
      "▁kompoz": 5574,
      "dıkları": 5575,
      "▁her": 5576,
      "▁kendisini": 5577,
      "▁korkut": 5578,
      "▁teknoloj": 5579,
      "gunda": 5580,
      "▁form": 5581,
      "▁42": 5582,
      "▁halihaz": 5583,
      "▁birey": 5584,
      "▁etkin": 5585,
      ".12": 5586,
      "▁tulum": 5587,
      "lemeye": 5588,
      "▁cig": 5589,
      "▁ogrenciler": 5590,
      "▁parcası": 5591,
      "▁fotograf": 5592,
      "▁icra": 5593,
      "▁co.": 5594,
      "▁$'a": 5595,
      "inc": 5596,
      "ının": 5597,
      "▁sarkı": 5598,
      "emli": 5599,
      "▁baslamıs": 5600,
      "▁oldum": 5601,
      "ahmet": 5602,
      "▁tuken": 5603,
      "▁bence": 5604,
      "▁bay": 5605,
      "▁sasır": 5606,
      "▁aras": 5607,
      "▁sever": 5608,
      "▁uyandır": 5609,
      "8'de": 5610,
      "4.8": 5611,
      "▁ener": 5612,
      "▁ola": 5613,
      "▁got": 5614,
      "▁aksamı": 5615,
      "ersiz": 5616,
      "mesine": 5617,
      "▁toplu": 5618,
      "▁barda": 5619,
      "▁pisti": 5620,
      "▁kadınların": 5621,
      "istin": 5622,
      "▁“": 5623,
      "luyor": 5624,
      "ektr": 5625,
      "vel": 5626,
      "▁kendinizi": 5627,
      "▁iceri": 5628,
      "▁fokur": 5629,
      "lanmıs": 5630,
      "▁ihal": 5631,
      "▁vererek": 5632,
      "▁ulke": 5633,
      "leyen": 5634,
      "▁pilot": 5635,
      "▁rekor": 5636,
      "▁sans": 5637,
      "'y": 5638,
      "▁ataturk'un": 5639,
      "ans": 5640,
      "▁merdi": 5641,
      "leriyle": 5642,
      "oster": 5643,
      "▁uygulama": 5644,
      "▁ustlen": 5645,
      "esif": 5646,
      "▁cumhurbaskanı": 5647,
      "▁emekli": 5648,
      "▁gordugum": 5649,
      "▁108": 5650,
      "eye": 5651,
      "▁anda": 5652,
      "▁yeniden": 5653,
      "▁ahlak": 5654,
      "▁olanak": 5655,
      "ılmıstır": 5656,
      "▁makine": 5657,
      "▁hakk": 5658,
      "adı": 5659,
      "▁temet": 5660,
      "ecegiz": 5661,
      "▁onay": 5662,
      "ova": 5663,
      "▁gel": 5664,
      "▁ları": 5665,
      "▁boyn": 5666,
      "▁annem": 5667,
      "▁deprem": 5668,
      "▁vah": 5669,
      "▁yarat": 5670,
      "4'te": 5671,
      "ilerinin": 5672,
      "ile": 5673,
      "gor": 5674,
      "▁birbucuk": 5675,
      "▁maliyet": 5676,
      "▁okun": 5677,
      "mey": 5678,
      "roit": 5679,
      "▁1.": 5680,
      "▁teknoloji": 5681,
      "▁azınlık": 5682,
      "ev": 5683,
      "▁sonrası": 5684,
      "acılar": 5685,
      "madigim": 5686,
      "▁sabit": 5687,
      "▁kas": 5688,
      "▁5\\/8": 5689,
      "▁tap": 5690,
      "▁bıyık": 5691,
      "▁aradilar": 5692,
      ".875": 5693,
      "▁dedik": 5694,
      "▁ittifak": 5695,
      "▁ode": 5696,
      "▁ceza": 5697,
      "▁uzman": 5698,
      "▁gorduk": 5699,
      "▁finanse": 5700,
      "▁kapısını": 5701,
      "▁agacın": 5702,
      "▁lezzetliydi": 5703,
      "▁komisyon": 5704,
      "▁enflasyon": 5705,
      "▁aldigim": 5706,
      "▁ogl": 5707,
      "▁yardım": 5708,
      "▁vur": 5709,
      "▁oturan": 5710,
      "usunun": 5711,
      "▁eas": 5712,
      "igini": 5713,
      "▁sinir": 5714,
      "kiz": 5715,
      "▁paran": 5716,
      "▁tipik": 5717,
      "yası": 5718,
      "▁sonu": 5719,
      "▁pol": 5720,
      "▁beyaz": 5721,
      "▁faiz": 5722,
      "▁soylen": 5723,
      "liligi": 5724,
      "▁cogal": 5725,
      "▁ay": 5726,
      "▁terc": 5727,
      "▁grup": 5728,
      "▁gen": 5729,
      "luluk": 5730,
      "▁8.4": 5731,
      "*": 5732,
      "▁%": 5733,
      "larımı": 5734,
      "▁zorluk": 5735,
      "▁98": 5736,
      "61": 5737,
      "▁95": 5738,
      "▁1979": 5739,
      "▁199": 5740,
      "age": 5741,
      "▁ingilizce": 5742,
      "▁36": 5743,
      "▁roportaj": 5744,
      "▁hasır": 5745,
      "▁vardi": 5746,
      "▁ydu": 5747,
      "▁yapım": 5748,
      "▁coktu": 5749,
      "▁yabancı": 5750,
      "▁gidebilir": 5751,
      "acaktır": 5752,
      "▁bazi": 5753,
      "▁gozuk": 5754,
      "▁biles": 5755,
      "▁bedel": 5756,
      "▁cift": 5757,
      "lugunu": 5758,
      "▁dov": 5759,
      "▁milyona": 5760,
      "ang": 5761,
      "▁insanları": 5762,
      "▁andır": 5763,
      "▁sepet": 5764,
      "▁fabrika": 5765,
      "▁yem": 5766,
      "▁ucuslarını": 5767,
      "▁tarihi": 5768,
      "▁%6.4": 5769,
      "▁sık": 5770,
      "ıt": 5771,
      "▁destek": 5772,
      "pa": 5773,
      "ume": 5774,
      "▁seninle": 5775,
      "▁196": 5776,
      "▁nis": 5777,
      "▁1/": 5778,
      "memek": 5779,
      "▁bireysel": 5780,
      "▁endeks": 5781,
      "▁listel": 5782,
      "▁panik": 5783,
      "isel": 5784,
      "▁gosterdi": 5785,
      "int": 5786,
      "▁musa": 5787,
      "▁3\\/8": 5788,
      "▁bitti": 5789,
      "cagız": 5790,
      "▁anım": 5791,
      "▁sonr": 5792,
      "▁str": 5793,
      "bi": 5794,
      "▁1.2": 5795,
      "tur": 5796,
      "▁sozunu": 5797,
      "ith": 5798,
      "▁gecen": 5799,
      "▁sermay": 5800,
      "▁noktası": 5801,
      "mus": 5802,
      "▁kendimi": 5803,
      "▁dır": 5804,
      "▁hitap": 5805,
      "on'un": 5806,
      "▁2.2": 5807,
      "dan": 5808,
      "▁sokak": 5809,
      "zi": 5810,
      "aması": 5811,
      "▁cadd": 5812,
      "▁basladım": 5813,
      "▁kaydı": 5814,
      "▁uygulam": 5815,
      "▁poz": 5816,
      "▁icine": 5817,
      "▁icimde": 5818,
      "▁sirketi": 5819,
      "▁%18": 5820,
      "▁bol": 5821,
      "lasyon": 5822,
      "dar": 5823,
      "▁edec": 5824,
      "▁asıl": 5825,
      "▁cil": 5826,
      "▁'nin": 5827,
      "▁sen": 5828,
      "iyoruz": 5829,
      "▁bahset": 5830,
      "▁hos": 5831,
      "▁dolandır": 5832,
      "▁duydu": 5833,
      "▁2.6": 5834,
      "▁tedir": 5835,
      "▁eski": 5836,
      "m": 5837,
      "ırak": 5838,
      "▁moda": 5839,
      "3.2": 5840,
      "▁soylem": 5841,
      "▁anal": 5842,
      "▁uygundu": 5843,
      "▁kusursuz": 5844,
      "▁tic": 5845,
      "▁sur": 5846,
      "▁komut": 5847,
      "elere": 5848,
      "▁endustr": 5849,
      "▁iy": 5850,
      "▁gazete": 5851,
      "▁gerektigini": 5852,
      "▁ayakkabı": 5853,
      "▁philadelphia'ya": 5854,
      "▁aralık": 5855,
      "▁ayrıldı": 5856,
      "ısız": 5857,
      "▁ocak": 5858,
      "dıgınız": 5859,
      "▁varsa": 5860,
      "▁fayd": 5861,
      "'un": 5862,
      "▁b": 5863,
      "▁komsu": 5864,
      "amda": 5865,
      "▁toronto'dan": 5866,
      "▁4.5": 5867,
      "▁dolara": 5868,
      ".75": 5869,
      "mini": 5870,
      "▁yetis": 5871,
      "'lik": 5872,
      "▁5": 5873,
      "▁teskil": 5874,
      "▁verimli": 5875,
      "▁eh": 5876,
      "▁vatand": 5877,
      "▁etrafında": 5878,
      "ogu": 5879,
      "▁darbe": 5880,
      "lbu": 5881,
      "▁orada": 5882,
      "▁sure": 5883,
      "▁isteyen": 5884,
      "▁yuz": 5885,
      "▁pla": 5886,
      "lerdi": 5887,
      "▁hisseler": 5888,
      "▁30": 5889,
      "▁gem": 5890,
      "muyordu": 5891,
      "▁250": 5892,
      "▁vardır": 5893,
      "▁iht": 5894,
      "▁supur": 5895,
      "▁sars": 5896,
      "▁89": 5897,
      "▁nerede": 5898,
      "▁eglenc": 5899,
      "▁mail": 5900,
      "is": 5901,
      "▁hast": 5902,
      "▁vazgec": 5903,
      "▁kabil": 5904,
      "▁yavr": 5905,
      "▁2016": 5906,
      "▁vak": 5907,
      "▁mucadele": 5908,
      "▁columbus'tan": 5909,
      "ul": 5910,
      "ılmıs": 5911,
      "▁seattle'ye": 5912,
      "▁diyorum": 5913,
      "lardı": 5914,
      "▁odem": 5915,
      "▁21": 5916,
      "▁malzemeler": 5917,
      "▁teklifi": 5918,
      "▁turkiye'de": 5919,
      "▁gozu": 5920,
      "▁lutf": 5921,
      "▁kavr": 5922,
      "▁4.9": 5923,
      "▁yonetimi": 5924,
      "▁baska": 5925,
      "iness": 5926,
      "omet": 5927,
      "▁cıkmaz": 5928,
      "▁masaya": 5929,
      "▁metal": 5930,
      "▁bardagı": 5931,
      "▁personellerin": 5932,
      "det": 5933,
      ".25": 5934,
      "▁tuc": 5935,
      "▁elestir": 5936,
      "▁duvarlar": 5937,
      "'ı": 5938,
      "mak": 5939,
      "▁yay": 5940,
      "▁kalkıyor": 5941,
      "▁gelmedi": 5942,
      "oker": 5943,
      "▁banyo": 5944,
      "isinin": 5945,
      "▁amma": 5946,
      "▁sus": 5947,
      "▁peters": 5948,
      "▁gre": 5949,
      "▁ag": 5950,
      "▁rengi": 5951,
      "▁hukumetin": 5952,
      "▁onunde": 5953,
      "art": 5954,
      "elerek": 5955,
      "▁mukemmel": 5956,
      "lt": 5957,
      "▁veto": 5958,
      "▁355": 5959,
      "vek": 5960,
      "▁nar": 5961,
      "▁attı": 5962,
      "▁gazet": 5963,
      "▁fes": 5964,
      "▁sosy": 5965,
      "▁%0.3": 5966,
      "▁listeleyebilir": 5967,
      "▁ucan": 5968,
      "ari": 5969,
      "▁york": 5970,
      "▁gokyuz": 5971,
      "▁ko": 5972,
      "▁uyar": 5973,
      "▁cay": 5974,
      "▁_": 5975,
      "lastı": 5976,
      "▁kactı": 5977,
      "▁arkasına": 5978,
      "▁kusur": 5979,
      "▁siyasi": 5980,
      "▁personellerden": 5981,
      "▁satan": 5982,
      "ginde": 5983,
      "ug": 5984,
      "cisi": 5985,
      "▁st.": 5986,
      "las": 5987,
      "▁basladık": 5988,
      "▁a.": 5989,
      "▁bal": 5990,
      "▁dolardan": 5991,
      "▁chicago": 5992,
      "▁pac": 5993,
      "▁ulasıl": 5994,
      "▁gecmis": 5995,
      "▁n": 5996,
      "▁asag": 5997,
      "▁zamanda": 5998,
      "▁mes": 5999,
      "▁satıcı": 6000,
      "▁vef": 6001,
      "▁cam": 6002,
      "-": 6003,
      "▁muzakere": 6004,
      "▁bugday": 6005,
      "▁rıh": 6006,
      "▁'lu": 6007,
      "▁”": 6008,
      "▁yaptir": 6009,
      "▁qu": 6010,
      "isin": 6011,
      "▁nasdaq": 6012,
      "'tan": 6013,
      "ilik": 6014,
      "lardan": 6015,
      "▁halbuki": 6016,
      "eral": 6017,
      "▁california": 6018,
      "▁ı": 6019,
      "▁yasayan": 6020,
      "▁ugram": 6021,
      "ris": 6022,
      "ach": 6023,
      "▁gece": 6024,
      "▁mulk": 6025,
      "▁kendisin": 6026,
      "dedil": 6027,
      "▁mırıldan": 6028,
      "▁hakkındaki": 6029,
      "▁arac": 6030,
      "ih": 6031,
      "▁kalabalikti": 6032,
      "tıs": 6033,
      "▁sesi": 6034,
      "▁izlen": 6035,
      "siyon": 6036,
      "▁min": 6037,
      "dun": 6038,
      "▁kahvaltı": 6039,
      "▁cur": 6040,
      "▁geriledi": 6041,
      "▁gecm": 6042,
      "ere": 6043,
      "▁ciddi": 6044,
      "uyoruz": 6045,
      "▁kadını": 6046,
      "lık": 6047,
      "▁muzik": 6048,
      "▁sampiyon": 6049,
      "'taki": 6050,
      "emiyor": 6051,
      "ulmus": 6052,
      "▁sev": 6053,
      "▁iz": 6054,
      "▁hoca": 6055,
      "▁ot": 6056,
      "▁islem": 6057,
      "▁sorumluluk": 6058,
      "alım": 6059,
      "tar": 6060,
      "▁mırıl": 6061,
      "▁def": 6062,
      "▁ca": 6063,
      "▁arasından": 6064,
      "unt": 6065,
      "▁oluyor": 6066,
      "▁%5.4": 6067,
      "▁gm": 6068,
      "▁birtakım": 6069,
      "▁%3.43": 6070,
      "▁yat": 6071,
      "▁arkadas": 6072,
      "▁cleveland'a": 6073,
      "▁et": 6074,
      "▁serv": 6075,
      "▁aralarında": 6076,
      "▁elma": 6077,
      "▁chicag": 6078,
      "kırk": 6079,
      "gını": 6080,
      "▁yalap": 6081,
      "▁duser": 6082,
      "▁george": 6083,
      "kın": 6084,
      "▁yandan": 6085,
      "▁sevg": 6086,
      "▁amer": 6087,
      "▁lungur": 6088,
      "▁hizmetinden": 6089,
      "▁yıllar": 6090,
      "iyas": 6091,
      "88": 6092,
      "▁hasan": 6093,
      "▁neh": 6094,
      "▁nesn": 6095,
      "sil": 6096,
      "▁gr": 6097,
      "kti": 6098,
      "▁sokaga": 6099,
      "▁yuzyıl": 6100,
      "▁ihtim": 6101,
      "iyorlardı": 6102,
      "▁demis": 6103,
      "unce": 6104,
      "'ya": 6105,
      "ze": 6106,
      "▁sırtında": 6107,
      "ri": 6108,
      "▁ama": 6109,
      "▁ve": 6110,
      "▁dr.": 6111,
      "▁3\\/4": 6112,
      "ca": 6113,
      "▁gez": 6114,
      "▁arasındaki": 6115,
      "▁deney": 6116,
      "tiy": 6117,
      "uldugunu": 6118,
      "▁buldu": 6119,
      "2-23": 6120,
      "▁saray": 6121,
      "ik": 6122,
      "▁yapti": 6123,
      "▁cik": 6124,
      "▁sevgi": 6125,
      "▁u": 6126,
      "▁alım": 6127,
      "▁isters": 6128,
      "▁mıdır": 6129,
      "iri": 6130,
      "▁icme": 6131,
      "▁cıkacak": 6132,
      "▁itibaren": 6133,
      "▁milyondan": 6134,
      "▁ayı": 6135,
      "▁ahmet": 6136,
      "oyu": 6137,
      "▁kendimize": 6138,
      "bah": 6139,
      "erek": 6140,
      "▁otelde": 6141,
      "▁kanıt": 6142,
      "▁cabuk": 6143,
      "▁puana": 6144,
      "[UNK]": 6145,
      "▁hatır": 6146,
      "lama": 6147,
      "eyle": 6148,
      "ınız": 6149,
      "▁birles": 6150,
      "▁sey": 6151,
      "ısık": 6152,
      "ıldır": 6153,
      "▁degerinde": 6154,
      "acagına": 6155,
      "'na": 6156,
      "▁kaybet": 6157,
      "▁dikkatli": 6158,
      "des": 6159,
      "▁gidecek": 6160,
      "▁amerikalı": 6161,
      "▁nuk": 6162,
      "▁peynir": 6163,
      "▁kitaplar": 6164,
      "▁buyur": 6165,
      "ington": 6166,
      "▁sesini": 6167,
      "▁kuv": 6168,
      "▁karsıl": 6169,
      "eyince": 6170,
      "1.2": 6171,
      "▁kaybeden": 6172,
      "▁can": 6173,
      "▁maz": 6174,
      "siyonu": 6175,
      "▁duyur": 6176,
      "▁baker": 6177,
      "▁bilmiyorum": 6178,
      "▁mahalle": 6179,
      "bire": 6180,
      "▁ulus": 6181,
      "▁yen'den": 6182,
      "▁beklenen": 6183,
      "eme": 6184,
      "▁elbise": 6185,
      "▁dc'ye": 6186,
      "▁dor": 6187,
      "hat": 6188,
      "▁gene": 6189,
      "▁gelistir": 6190,
      "▁elinden": 6191,
      "▁edin": 6192,
      "abiliriz": 6193,
      "▁kararsizim": 6194,
      "▁itir": 6195,
      "▁bıraktı": 6196,
      "▁aradi": 6197,
      "▁donemde": 6198,
      "▁tuf": 6199,
      "ısında": 6200,
      "▁ler": 6201,
      "▁gorunuyordu": 6202,
      "▁saskın": 6203,
      "▁cum": 6204,
      "▁4'ten": 6205,
      "▁ankara": 6206,
      "▁philadelphia'dan": 6207,
      "ırıl": 6208,
      "▁istiyoruz": 6209,
      "agi": 6210,
      "▁fazlası": 6211,
      "▁kası": 6212,
      "▁lake": 6213,
      "▁maden": 6214,
      "▁beydi": 6215,
      "▁stratej": 6216,
      "eviz": 6217,
      "▁%2": 6218,
      "▁tatil": 6219,
      "▁davran": 6220,
      "▁insanın": 6221,
      "▁jaguar": 6222,
      "chell": 6223,
      "▁yiz": 6224,
      "▁odalari": 6225,
      "▁anket": 6226,
      "▁aralık'ta": 6227,
      "▁fiyatlarını": 6228,
      "▁cevirdi": 6229,
      "▁mik": 6230,
      "▁alternatif": 6231,
      "ed": 6232,
      "▁onlar": 6233,
      "▁sahip": 6234,
      "▁gidiyor": 6235,
      "▁ayrıl": 6236,
      "▁soyluyor": 6237,
      "▁rehber": 6238,
      "▁dogru": 6239,
      "▁insanlar": 6240,
      "▁kızgın": 6241,
      "onik": 6242,
      "▁lo": 6243,
      "▁yasamadik": 6244,
      "22": 6245,
      "▁%5": 6246,
      "▁ozet": 6247,
      "▁hakim": 6248,
      "▁deh": 6249,
      "▁2.4": 6250,
      "▁dergi": 6251,
      "▁aktarma": 6252,
      "▁radyo": 6253,
      "▁sog": 6254,
      "▁donup": 6255,
      "▁almaya": 6256,
      "▁bugunku": 6257,
      "uz": 6258,
      "▁baslıyor": 6259,
      "▁patlı": 6260,
      "▁bed": 6261,
      "▁ediliyor": 6262,
      "ota": 6263,
      "▁bon": 6264,
      "▁ikna": 6265,
      "dol": 6266,
      "▁tavsiye": 6267,
      "digimiz": 6268,
      "▁hev": 6269,
      "vest": 6270,
      "▁hanimla": 6271,
      "onun": 6272,
      "▁nakit": 6273,
      "▁evlen": 6274,
      "▁olc": 6275,
      "▁kır": 6276,
      "ası": 6277,
      "▁geleneksel": 6278,
      "▁orman": 6279,
      "sun": 6280,
      "alarla": 6281,
      "▁gitmis": 6282,
      "▁cinc": 6283,
      "▁1.6": 6284,
      "▁bilin": 6285,
      "▁bod": 6286,
      "yız": 6287,
      "▁buh": 6288,
      "▁odamiz": 6289,
      "9.8": 6290,
      "iyak": 6291,
      "▁beklent": 6292,
      "ekim": 6293,
      "elen": 6294,
      "▁zorunlu": 6295,
      "▁odam": 6296,
      "▁asam": 6297,
      "▁memphis'ten": 6298,
      "▁ısın": 6299,
      "▁inti": 6300,
      "▁sorunu": 6301,
      "lerimi": 6302,
      "▁trilyon": 6303,
      "▁hakik": 6304,
      "▁muhtesem": 6305,
      "▁sigar": 6306,
      "▁arkadasim": 6307,
      "▁tem": 6308,
      "▁gi": 6309,
      "▁dagıt": 6310,
      "ti": 6311,
      "▁sattı": 6312,
      "▁tampa'dan": 6313,
      "all": 6314,
      "yalı": 6315,
      "yıl": 6316,
      "▁goster": 6317,
      "▁ucaga": 6318,
      "▁vakti": 6319,
      "▁onumuzdeki": 6320,
      "▁ramiz": 6321,
      "kil": 6322,
      "▁71": 6323,
      "'ye": 6324,
      "▁begendik": 6325,
      "▁busbutun": 6326,
      "▁havaalan": 6327,
      "per": 6328,
      "▁nikah": 6329,
      "▁kendisinde": 6330,
      "▁coktan": 6331,
      "▁tehdit": 6332,
      "laka": 6333,
      "▁seyi": 6334,
      "▁56": 6335,
      "▁gidiyoruz": 6336,
      "▁merk": 6337,
      "▁ince": 6338,
      "anlar": 6339,
      "kat": 6340,
      "▁calı": 6341,
      "▁worth'a": 6342,
      "▁buyuk": 6343,
      "▁%7": 6344,
      "▁sıv": 6345,
      "▁teler": 6346,
      "▁yetkililer": 6347,
      "▁galiba": 6348,
      "▁performansi": 6349,
      "▁yun": 6350,
      "▁neden": 6351,
      "lass": 6352,
      "▁yıgın": 6353,
      "asır": 6354,
      "▁isle": 6355,
      "▁tasıy": 6356,
      "amıstı": 6357,
      "▁kahv": 6358,
      "isini": 6359,
      "▁tanı": 6360,
      "▁namaz": 6361,
      "▁servet": 6362,
      "▁yuksek": 6363,
      "▁seyler": 6364,
      "lerimiz": 6365,
      "▁konusuyor": 6366,
      "▁denver'den": 6367,
      "his": 6368,
      "▁beraber": 6369,
      "▁kah": 6370,
      "tıktan": 6371,
      "▁hamle": 6372,
      "ot": 6373,
      "▁karsılan": 6374,
      "▁angel": 6375,
      "▁kalitesi": 6376,
      "▁nokt": 6377,
      "▁diyerek": 6378,
      "▁pirinc": 6379,
      "▁gozlem": 6380,
      "▁newark'tan": 6381,
      "eler": 6382,
      "▁ısrar": 6383,
      "▁vat": 6384,
      "▁odaydi": 6385,
      "▁grev": 6386,
      "▁ver": 6387,
      "abilir": 6388,
      "▁prot": 6389,
      "▁derler": 6390,
      "▁fırladı": 6391,
      "▁gunu": 6392,
      "meler": 6393,
      "▁sonuc": 6394,
      "▁vermeye": 6395,
      "lerindeki": 6396,
      "▁mali": 6397,
      "▁dalga": 6398,
      "▁'l": 6399,
      "mistim": 6400,
      "ili": 6401,
      "▁kes": 6402,
      "▁petersburg'dan": 6403,
      "▁biliyorum": 6404,
      "▁bolg": 6405,
      "▁salı": 6406,
      "▁imparator": 6407,
      "lamıs": 6408,
      "▁heves": 6409,
      "▁edi": 6410,
      "▁wh": 6411,
      "▁ettim": 6412,
      "ildi": 6413,
      "▁ihtil": 6414,
      "▁ilisk": 6415,
      "lar": 6416,
      "stit": 6417,
      "▁artıs": 6418,
      "▁seviye": 6419,
      "akk": 6420,
      "ij": 6421,
      "▁durum": 6422,
      "acagım": 6423,
      "madik": 6424,
      "▁personeller": 6425,
      "▁toplantıda": 6426,
      "▁ticaret": 6427,
      "▁banka": 6428,
      "▁bun": 6429,
      "▁am": 6430,
      "▁vası": 6431,
      "for": 6432,
      "▁pa": 6433,
      "ılık": 6434,
      "ucuk": 6435,
      "sin": 6436,
      "▁yapıs": 6437,
      "19": 6438,
      "arak": 6439,
      "▁ortam": 6440,
      "'i": 6441,
      "▁icin": 6442,
      "▁komutan": 6443,
      "bası": 6444,
      "▁3.9": 6445,
      "esine": 6446,
      "imini": 6447,
      "▁gecici": 6448,
      "▁denize": 6449,
      "▁e": 6450,
      "▁etkil": 6451,
      "lugun": 6452,
      "▁ital": 6453,
      "▁dar": 6454,
      "▁yuzu": 6455,
      "▁alınan": 6456,
      "▁yasamak": 6457,
      "adu": 6458,
      "▁nus": 6459,
      "dam": 6460,
      "▁eger": 6461,
      "▁kef": 6462,
      "▁cevr": 6463,
      "▁tiyat": 6464,
      "▁meyve": 6465,
      "▁bekler": 6466,
      "▁yoneticisi": 6467,
      "▁64": 6468,
      "▁agabey": 6469,
      "ven": 6470,
      "van": 6471,
      "▁nez": 6472,
      "▁nashville": 6473,
      "▁trafik": 6474,
      "tex": 6475,
      "iler": 6476,
      "▁zamandan": 6477,
      "▁disiplin": 6478,
      "sık": 6479,
      "2.9": 6480,
      "alı": 6481,
      "ekli": 6482,
      "▁film": 6483,
      "▁koyun": 6484,
      "ilerin": 6485,
      "▁olanaklarını": 6486,
      "elig": 6487,
      "▁siddetli": 6488,
      "▁ettigi": 6489,
      "▁verin": 6490,
      "▁sayıl": 6491,
      "▁ilgilendi": 6492,
      "▁kalmak": 6493,
      "lestir": 6494,
      "▁cif": 6495,
      "aber": 6496,
      "▁mec": 6497,
      "▁yeterince": 6498,
      "ess": 6499,
      "▁fık": 6500,
      "▁gordum": 6501,
      "▁arzu": 6502,
      "▁nuf": 6503,
      "um": 6504,
      "▁imalat": 6505,
      "▁tasır": 6506,
      "▁sovyetler": 6507,
      "▁cıktım": 6508,
      "antaj": 6509,
      "▁ikib": 6510,
      "alıgı": 6511,
      "▁muduru": 6512,
      "▁yasan": 6513,
      "▁oluyordu": 6514,
      "▁th": 6515,
      "▁dallas'a": 6516,
      "▁gev": 6517,
      "▁diz": 6518,
      "▁vazif": 6519,
      "rol": 6520,
      "▁bakalım": 6521,
      "▁tiril": 6522,
      "▁at": 6523,
      "▁gid": 6524,
      "▁bah": 6525,
      "acagı": 6526,
      "dınız": 6527,
      "masıyla": 6528,
      "▁arıyor": 6529,
      "▁kuzu": 6530,
      "▁ait": 6531,
      "▁konforu": 6532,
      "▁haziran'da": 6533,
      "rin": 6534,
      "let": 6535,
      "38": 6536,
      "▁hastalık": 6537,
      "amıyorum": 6538,
      "likle": 6539,
      "▁mu": 6540,
      ".51": 6541,
      "▁tesis": 6542,
      "larıyla": 6543,
      "unlu": 6544,
      "'te": 6545,
      "gumuz": 6546,
      "▁yetersiz": 6547,
      "ete": 6548,
      "▁yasadı": 6549,
      "▁golge": 6550,
      "▁sut": 6551,
      "▁ind": 6552,
      "ırı": 6553,
      "▁yahut": 6554,
      "ver": 6555,
      "elerle": 6556,
      "▁soru": 6557,
      "▁dre": 6558,
      "▁mer": 6559,
      "1": 6560,
      "masını": 6561,
      "▁merhaba": 6562,
      "▁peyn": 6563,
      "▁geldik": 6564,
      "laya": 6565,
      "▁cuma": 6566,
      "▁29": 6567,
      "▁benz": 6568,
      "line": 6569,
      "▁olagan": 6570,
      "▁azın": 6571,
      "▁sıkır": 6572,
      "`": 6573,
      "'ta": 6574,
      "▁soguktu": 6575,
      "▁nere": 6576,
      "▁cennet": 6577,
      "ika": 6578,
      "lıyor": 6579,
      "▁sent": 6580,
      "ıda": 6581,
      "▁atar": 6582,
      "▁bekley": 6583,
      "▁anlattı": 6584,
      "▁buyut": 6585,
      "▁almadim": 6586,
      "iski": 6587,
      "▁vegas'a": 6588,
      "▁bilesik": 6589,
      "de": 6590,
      "▁seneye": 6591,
      "ulup": 6592,
      "▁0.0": 6593,
      "ebilir": 6594,
      "▁yuvarlak": 6595,
      "unuyor": 6596,
      "▁beyle": 6597,
      "ılıyor": 6598,
      "▁3/8": 6599,
      "▁fer": 6600,
      "iv": 6601,
      "▁col": 6602,
      "▁rakam": 6603,
      "▁beklen": 6604,
      "▁ederiz": 6605,
      "▁bet": 6606,
      "▁kendilerini": 6607,
      "an": 6608,
      "▁fazlas": 6609,
      "▁tane": 6610,
      "▁donan": 6611,
      "▁altı": 6612,
      "▁kahr": 6613,
      "▁yemeklerini": 6614,
      "ladıgı": 6615,
      "▁ucak": 6616,
      "▁ilgiliydi": 6617,
      "▁cd": 6618,
      "▁komisyonu": 6619,
      "▁dusunceler": 6620,
      "aket": 6621,
      "▁yuv": 6622,
      "▁tey": 6623,
      "▁3.6": 6624,
      "usu": 6625,
      "▁karayol": 6626,
      "▁seyr": 6627,
      "▁kendine": 6628,
      "▁aldıgını": 6629,
      "▁rezervasyon": 6630,
      "isinden": 6631,
      "▁yerinde": 6632,
      "acagız": 6633,
      "▁kız": 6634,
      "▁bilir": 6635,
      "▁etmesi": 6636,
      "lasan": 6637,
      "▁futbol": 6638,
      "▁zih": 6639,
      "▁verme": 6640,
      "▁ufakti": 6641,
      "▁rakip": 6642,
      "▁fıkı": 6643,
      "▁lt": 6644,
      "▁teklif": 6645,
      "▁emniyet": 6646,
      "▁kurdu": 6647,
      "▁guzeldi": 6648,
      "ımda": 6649,
      "▁kateg": 6650,
      "▁2.": 6651,
      "▁indirim": 6652,
      "▁kesint": 6653,
      "atlar": 6654,
      "▁bahsederim": 6655,
      "▁durdu": 6656,
      "▁bilg": 6657,
      "▁sorun": 6658,
      "▁ikibinuc": 6659,
      "▁operasyon": 6660,
      "uy": 6661,
      "ige": 6662,
      "▁esit": 6663,
      "▁il": 6664,
      "▁kaliteli": 6665,
      "▁dava": 6666,
      "onelik": 6667,
      "▁yog": 6668,
      "▁os": 6669,
      "▁agac": 6670,
      "▁aileler": 6671,
      "▁48": 6672,
      "▁ben": 6673,
      "ene": 6674,
      "▁sagladı": 6675,
      "'li": 6676,
      "▁rapor": 6677,
      "▁oldu": 6678,
      "▁olanakları": 6679,
      "▁hat": 6680,
      "▁munasebet": 6681,
      "▁hangileri": 6682,
      "▁onun": 6683,
      "9.3": 6684,
      "▁inanc": 6685,
      "ege": 6686,
      "▁ıskar": 6687,
      "▁yık": 6688,
      "▁93": 6689,
      "▁disip": 6690,
      "oh": 6691,
      "tuk": 6692,
      "▁kullanmadim": 6693,
      "▁lek": 6694,
      "▁mez": 6695,
      "▁milwaukee'ye": 6696,
      "▁ongor": 6697,
      "▁gerci": 6698,
      "ınıza": 6699,
      "abilirdi": 6700,
      "▁egitim": 6701,
      "▁hem": 6702,
      "amadan": 6703,
      "▁etmeyi": 6704,
      "lerinde": 6705,
      "▁geldigi": 6706,
      "▁sonbahar": 6707,
      "▁sakal": 6708,
      "▁cor": 6709,
      "▁havayolu": 6710,
      "▁yapılıyor": 6711,
      "▁gosterg": 6712,
      "▁dep": 6713,
      "inize": 6714,
      "▁sonrasında": 6715,
      "▁isi": 6716,
      "eyip": 6717,
      "▁koltuk": 6718,
      "▁cim": 6719,
      "■": 6720,
      "▁dolu": 6721,
      "▁kad": 6722,
      "ledim": 6723,
      "▁degil": 6724,
      "▁10'dan": 6725,
      "gi": 6726,
      "▁8.5": 6727,
      "ara": 6728,
      "▁sistemi": 6729,
      "▁istihdam": 6730,
      "▁1998": 6731,
      "▁azalt": 6732,
      "az": 6733,
      "▁odan": 6734,
      "▁kagı": 6735,
      "▁ila": 6736,
      "fez": 6737,
      "▁ayaga": 6738,
      "ustos": 6739,
      "▁yuzune": 6740,
      "ıng": 6741,
      "▁yans": 6742,
      "adaki": 6743,
      "afet": 6744,
      "[MASK]": 6745,
      "▁degisim": 6746,
      "sunuz": 6747,
      "ames": 6748,
      "▁oturu": 6749,
      "alarından": 6750,
      "lulu": 6751,
      "▁ettiler": 6752,
      "▁fil": 6753,
      "▁verdigim": 6754,
      "▁kadınlar": 6755,
      "dig": 6756,
      "20": 6757,
      "▁gar": 6758,
      "▁kime": 6759,
      "usunda": 6760,
      "▁besyuz": 6761,
      "▁yolda": 6762,
      "▁kulub": 6763,
      "a'nın": 6764,
      "▁ufak": 6765,
      "▁yemeklerinden": 6766,
      "▁basını": 6767,
      "▁anlayıs": 6768,
      "▁hun": 6769,
      "▁kisi": 6770,
      "sizlik": 6771,
      "▁sa": 6772,
      "isten": 6773,
      "uler": 6774,
      "▁francisco'dan": 6775,
      "▁89-": 6776,
      "▁degilse": 6777,
      "tif": 6778,
      "▁kriz": 6779,
      "▁modern": 6780,
      "▁tamamladı": 6781,
      "ol": 6782,
      "▁ruy": 6783,
      "esinden": 6784,
      "▁boston": 6785,
      "lerce": 6786,
      "▁huz": 6787,
      "▁ancak": 6788,
      "▁yurut": 6789,
      "▁oyn": 6790,
      "▁tutuyor": 6791,
      "00": 6792,
      "▁maliyetleri": 6793,
      "▁ilgili": 6794,
      "oglu": 6795,
      "5.": 6796,
      "▁sigara": 6797,
      "▁ymis": 6798,
      "▁tesisti": 6799,
      "isinde": 6800,
      "▁evde": 6801,
      "eg": 6802,
      "▁ph": 6803,
      "sına": 6804,
      "▁curuk": 6805,
      "▁toprak": 6806,
      "▁icecek": 6807,
      "eten": 6808,
      "▁diego'ya": 6809,
      "loy": 6810,
      "▁degistir": 6811,
      "▁bahar": 6812,
      "▁olcude": 6813,
      "▁orlando'ya": 6814,
      "ılmaz": 6815,
      "ıyorlar": 6816,
      "▁dayalı": 6817,
      "▁diyarbakır": 6818,
      "▁dili": 6819,
      "▁suredir": 6820,
      "ayım": 6821,
      "▁dunya": 6822,
      "▁sanat": 6823,
      "▁sip": 6824,
      "▁paraya": 6825,
      "dek": 6826,
      "▁800": 6827,
      "▁gelirler": 6828,
      "▁gittim": 6829,
      "▁150": 6830,
      "▁insanların": 6831,
      "atik": 6832,
      "▁uzer": 6833,
      "▁aydın": 6834,
      "▁kahvalt": 6835,
      "▁hepsini": 6836,
      "▁uzaktan": 6837,
      "tın": 6838,
      "▁gosteriyor": 6839,
      "eyin": 6840,
      "inden": 6841,
      "▁garson": 6842,
      "▁yapması": 6843,
      "▁5.1": 6844,
      "▁kayık": 6845,
      "▁lutfen": 6846,
      "▁emtia": 6847,
      "ch": 6848,
      "▁elinde": 6849,
      "▁kusk": 6850,
      "▁yeteri": 6851,
      "tik": 6852,
      "▁phoenix'e": 6853,
      "▁acıdan": 6854,
      "▁bost": 6855,
      "▁yasal": 6856,
      "▁tedavul": 6857,
      "▁finans": 6858,
      "▁mc": 6859,
      "▁pıtır": 6860,
      "anmıs": 6861,
      "▁goren": 6862,
      "▁cab": 6863,
      "tılar": 6864,
      "▁12": 6865,
      ".76": 6866,
      "▁urunleri": 6867,
      "▁goruyor": 6868,
      "▁6'dan": 6869,
      "e": 6870,
      "▁dondur": 6871,
      "▁capital": 6872,
      "▁han": 6873,
      "isk": 6874,
      "▁fay": 6875,
      "▁iceren": 6876,
      "▁sirket": 6877,
      "▁ıskarta": 6878,
      "▁standart": 6879,
      "▁2.8": 6880,
      "▁oldugu": 6881,
      "▁ortalam": 6882,
      "▁ah": 6883,
      "ha": 6884,
      "▁muhalef": 6885,
      "▁piyasalar": 6886,
      "nek": 6887,
      "▁bocek": 6888,
      ".43": 6889,
      "mayı": 6890,
      "▁felsef": 6891,
      "▁verdigi": 6892,
      "▁:": 6893,
      "inizi": 6894,
      "▁r": 6895,
      "ow": 6896,
      "ce": 6897,
      "▁canım": 6898,
      "▁ucusu": 6899,
      "▁magaz": 6900,
      "undaki": 6901,
      "▁gectik": 6902,
      "▁bilmem": 6903,
      "▁egil": 6904,
      "yak": 6905,
      "▁eg": 6906,
      "▁muyuz": 6907,
      "▁iken": 6908,
      "▁nic": 6909,
      "▁kitabı": 6910,
      "▁ekibi": 6911,
      "▁ail": 6912,
      "▁eks": 6913,
      "▁ban": 6914,
      "raz": 6915,
      "ıcı": 6916,
      "▁cogunun": 6917,
      "larla": 6918,
      "▁dahi": 6919,
      "▁cid": 6920,
      "sızlık": 6921,
      "▁elindeki": 6922,
      "▁kotuydu": 6923,
      "▁bro": 6924,
      "▁yontem": 6925,
      "cı": 6926,
      "▁resepsiyon": 6927,
      "▁sokakta": 6928,
      "yiz": 6929,
      "▁dunku": 6930,
      "edik": 6931,
      "kun": 6932,
      "▁yetmis": 6933,
      "▁arttır": 6934,
      "▁cekin": 6935,
      "raf": 6936,
      "▁sofor": 6937,
      "▁verdiler": 6938,
      "▁kalır": 6939,
      "–": 6940,
      "▁ontari": 6941,
      "emez": 6942,
      "sız": 6943,
      "▁harikaydi": 6944,
      "▁uzerine": 6945,
      "▁birkacı": 6946,
      "iyetini": 6947,
      "▁%8.2": 6948,
      "▁houston'dan": 6949,
      "▁miyim": 6950,
      "▁yildi": 6951,
      "eh": 6952,
      "▁deniz": 6953,
      "▁kapan": 6954,
      "▁halbu": 6955,
      "unde": 6956,
      "nam": 6957,
      "▁ofk": 6958,
      "▁zen": 6959,
      "▁akl": 6960,
      "▁birisine": 6961,
      "▁lisans": 6962,
      "unda": 6963,
      "▁%3.1": 6964,
      "▁sayılı": 6965,
      "▁haval": 6966,
      "▁hangi": 6967,
      "▁verecek": 6968,
      "▁degiliz": 6969,
      "dor": 6970,
      "▁alıp": 6971,
      "anc": 6972,
      "▁is": 6973,
      "▁calisanlar": 6974,
      "▁uzun": 6975,
      "asyonu": 6976,
      "▁saat": 6977,
      "▁sos": 6978,
      "▁toronto'ya": 6979,
      "▁ediyoruz": 6980,
      "atif": 6981,
      "▁lim": 6982,
      "▁carp": 6983,
      "▁f": 6984,
      "▁omuz": 6985,
      "▁ileri": 6986,
      "▁kopar": 6987,
      "▁yardim": 6988,
      "▁takdirde": 6989,
      "▁arz": 6990,
      "lıga": 6991,
      "lulugu": 6992,
      "▁dallas'tan": 6993,
      "▁tasarruf": 6994,
      "▁airlines'in": 6995,
      "▁kons": 6996,
      "▁sig": 6997,
      "▁3\\/": 6998,
      "'yi": 6999,
      "▁iran": 7000,
      "▁dinlemek": 7001,
      ".625": 7002,
      "▁hil": 7003,
      "acı": 7004,
      "▁doldur": 7005,
      "▁tencer": 7006,
      "▁odadan": 7007,
      "▁vakt": 7008,
      "▁ch": 7009,
      "bar": 7010,
      "etin": 7011,
      "▁karısı": 7012,
      "▁ihtiyac": 7013,
      "tigi": 7014,
      "▁sah": 7015,
      "▁aslan": 7016,
      "▁uz": 7017,
      "▁dow": 7018,
      "▁ceket": 7019,
      "▁oc": 7020,
      "▁ekmek": 7021,
      "▁koca": 7022,
      "▁kaldıgı": 7023,
      "▁istedigini": 7024,
      "▁ayrıca": 7025,
      "▁kutup": 7026,
      "mıstı": 7027,
      "▁ac": 7028,
      "▁kud": 7029,
      "iya": 7030,
      "gın": 7031,
      "dis": 7032,
      "▁indianapolis'ten": 7033,
      "▁yerden": 7034,
      "▁yemekler": 7035,
      "icileri": 7036,
      "biye": 7037,
      "▁financial": 7038,
      "▁sandal": 7039,
      "▁denk": 7040,
      "ılım": 7041,
      "▁77": 7042,
      "▁puanlama": 7043,
      "▁ra": 7044,
      "▁binlerce": 7045,
      "▁yaptır": 7046,
      "▁arası": 7047,
      "▁yıllardır": 7048,
      "▁zayif": 7049,
      "▁cinsel": 7050,
      "▁sekilde": 7051,
      "▁otel": 7052,
      "▁getir": 7053,
      "inda": 7054,
      "▁aktiv": 7055,
      "tıg": 7056,
      "▁iskel": 7057,
      "alak": 7058,
      "▁olustur": 7059,
      "amdan": 7060,
      "di": 7061,
      "▁5.3": 7062,
      "▁istih": 7063,
      "▁yazı": 7064,
      "▁bufe": 7065,
      "▁yemekleri": 7066,
      "▁ali": 7067,
      "▁montre": 7068,
      "▁cesitliligi": 7069,
      "mam": 7070,
      "▁icim": 7071,
      "▁evine": 7072,
      "▁ham": 7073,
      "▁komp": 7074,
      "▁lynch": 7075,
      "▁sırt": 7076,
      "▁bors": 7077,
      "▁alay": 7078,
      "▁yansı": 7079,
      "▁icerisinde": 7080,
      "taj": 7081,
      "isiyle": 7082,
      "▁vit": 7083,
      "kul": 7084,
      "▁surdu": 7085,
      "ey": 7086,
      "▁sizin": 7087,
      "ecegimiz": 7088,
      "medigi": 7089,
      "arası": 7090,
      "▁kimsenin": 7091,
      "▁prof": 7092,
      "▁7.7": 7093,
      "memisti": 7094,
      "ece": 7095,
      "▁kup": 7096,
      "▁eve": 7097,
      "▁dakika": 7098,
      "▁uretim": 7099,
      "sa": 7100,
      "▁etk": 7101,
      "▁lira": 7102,
      "▁hepsine": 7103,
      "▁4.": 7104,
      "▁smith": 7105,
      "▁yi": 7106,
      "▁ce": 7107,
      "▁irak": 7108,
      "▁bizimle": 7109,
      "medik": 7110,
      "▁yemegi": 7111,
      "▁gelir": 7112,
      "▁dolan": 7113,
      "▁cap": 7114,
      "▁organizasyon": 7115,
      "▁cizg": 7116,
      "▁kullanım": 7117,
      "▁etraf": 7118,
      "▁belki": 7119,
      "▁hissed": 7120,
      "▁minneapolis'e": 7121,
      "▁dieg": 7122,
      "▁karmasık": 7123,
      "▁tespit": 7124,
      "▁63": 7125,
      "▁aksama": 7126,
      "meyi": 7127,
      "▁personeli": 7128,
      "▁satısları": 7129,
      "▁cinayet": 7130,
      "▁altın": 7131,
      "▁kendim": 7132,
      "▁51": 7133,
      "[PAD]": 7134,
      "▁olamaz": 7135,
      "▁aklı": 7136,
      "▁ingil": 7137,
      "▁tasar": 7138,
      "▁pe": 7139,
      "▁%0.2": 7140,
      "unup": 7141,
      "ibe": 7142,
      "but": 7143,
      "sat": 7144,
      "▁onlem": 7145,
      "masız": 7146,
      "▁hele": 7147,
      "▁sizi": 7148,
      "▁kenar": 7149,
      "ıya": 7150,
      "▁cey": 7151,
      "▁sendik": 7152,
      "anın": 7153,
      "▁olsaydı": 7154,
      "agına": 7155,
      "▁ise": 7156,
      "▁edip": 7157,
      "meye": 7158,
      "kara": 7159,
      "▁temizlen": 7160,
      "emedi": 7161,
      "▁kral": 7162,
      "dern": 7163,
      "▁guleryuzluydu": 7164,
      "memis": 7165,
      "▁hazine": 7166,
      "dıktan": 7167,
      "▁pant": 7168,
      "anti": 7169,
      "▁res": 7170,
      "▁konumundan": 7171,
      "▁ismi": 7172,
      ":00": 7173,
      "▁gecirdi": 7174,
      "▁mehmet": 7175,
      "▁54": 7176,
      "▁tasıyor": 7177,
      "▁ozel": 7178,
      "▁tampa": 7179,
      "ayacak": 7180,
      "▁gu": 7181,
      "▁90": 7182,
      "allı": 7183,
      "▁raki": 7184,
      "▁olabilir": 7185,
      "▁sular": 7186,
      "lemis": 7187,
      "do": 7188,
      "▁dudak": 7189,
      "▁mustafa": 7190,
      "enin": 7191,
      "▁naz": 7192,
      "▁2.9": 7193,
      "▁ilginc": 7194,
      "▁ogrenmek": 7195,
      "▁kaybı": 7196,
      "▁zamanlarda": 7197,
      "▁tabak": 7198,
      "▁baglantı": 7199,
      "rat": 7200,
      "\\/": 7201,
      "lerim": 7202,
      "▁69": 7203,
      "▁kayıt": 7204,
      "▁tırn": 7205,
      "▁yah": 7206,
      "sekiz": 7207,
      "▁alım-satım": 7208,
      "eleri": 7209,
      "▁ticarette": 7210,
      "▁yakindi": 7211,
      "▁ekm": 7212,
      "▁cumhur": 7213,
      "ısına": 7214,
      "▁155": 7215,
      "▁ikinci": 7216,
      "▁guvenilir": 7217,
      "▁huc": 7218,
      "▁iki": 7219,
      "▁ogret": 7220,
      "▁gecti": 7221,
      "▁lond": 7222,
      "par": 7223,
      "ksen": 7224,
      "▁havayol": 7225,
      "abz": 7226,
      "▁ekonom": 7227,
      "100": 7228,
      "yuz": 7229,
      "▁sinirli": 7230,
      "▁yurtdıs": 7231,
      "▁uyustur": 7232,
      "▁cal": 7233,
      "si": 7234,
      "med": 7235,
      "▁mem": 7236,
      "▁edebiyat": 7237,
      "▁masa": 7238,
      "▁utan": 7239,
      "▁tehdi": 7240,
      "▁bircog": 7241,
      "▁altında": 7242,
      "▁dalg": 7243,
      "▁ragmen": 7244,
      "▁sanatcı": 7245,
      "▁baskanı": 7246,
      "▁pet": 7247,
      "▁bina": 7248,
      "▁asır": 7249,
      "▁ih": 7250,
      "▁verilm": 7251,
      "▁mesel": 7252,
      "biy": 7253,
      "ani": 7254,
      "▁97": 7255,
      "▁alanda": 7256,
      "▁butun": 7257,
      "asıyor": 7258,
      "▁street": 7259,
      "▁sm": 7260,
      "▁kampanya": 7261,
      "▁bin": 7262,
      "▁kıdem": 7263,
      "▁direk": 7264,
      "▁orn": 7265,
      "▁misiniz": 7266,
      "▁mod": 7267,
      "▁verebilirim": 7268,
      "ahat": 7269,
      "meden": 7270,
      "▁gunlerde": 7271,
      "▁icindeki": 7272,
      "▁fizik": 7273,
      "▁ser": 7274,
      "▁gidec": 7275,
      "▁vergisi": 7276,
      "▁tasıyan": 7277,
      "elle": 7278,
      "▁arkad": 7279,
      "arım": 7280,
      "gimi": 7281,
      "ew": 7282,
      "▁danıs": 7283,
      "ren": 7284,
      "eyim": 7285,
      "▁sul": 7286,
      "▁baltimore": 7287,
      "▁baltimore'ye": 7288,
      "▁sit": 7289,
      "2'den": 7290,
      "▁bahs": 7291,
      "▁hanım": 7292,
      "▁ilgi": 7293,
      "wn": 7294,
      "▁detroit": 7295,
      "▁nelerdir": 7296,
      "▁ad": 7297,
      "adi": 7298,
      "▁newark'a": 7299,
      "▁dusunuyorum": 7300,
      "▁cocuk": 7301,
      "▁fet": 7302,
      "▁babası": 7303,
      "gim": 7304,
      "▁cocuklu": 7305,
      "▁univers": 7306,
      "▁anahtar": 7307,
      "▁acıklan": 7308,
      "▁calısıyor": 7309,
      "tal": 7310,
      "istim": 7311,
      "▁dolas": 7312,
      "elerine": 7313,
      "ustral": 7314,
      "▁nec": 7315,
      "▁koruy": 7316,
      "▁sayg": 7317,
      "▁vurdu": 7318,
      "bucuk": 7319,
      "▁bulunmaktadır": 7320,
      "▁verim": 7321,
      "▁kong": 7322,
      "▁denem": 7323,
      "▁bırak": 7324,
      "▁yiyecek": 7325,
      "▁derin": 7326,
      "▁alcak": 7327,
      "yen": 7328,
      "▁gerceklestir": 7329,
      "▁ayhan": 7330,
      "▁endis": 7331,
      "▁durus": 7332,
      "▁uyesi": 7333,
      "▁she": 7334,
      "▁size": 7335,
      "▁doları": 7336,
      "ebilmek": 7337,
      "liy": 7338,
      "▁kisiyi": 7339,
      "▁finansman": 7340,
      "▁gures": 7341,
      "▁ceyrekte": 7342,
      "▁gorunuyor": 7343,
      "▁kurtaj": 7344,
      "▁men": 7345,
      "▁pos": 7346,
      "makla": 7347,
      "▁tasın": 7348,
      "na": 7349,
      "sar": 7350,
      "ub": 7351,
      "embe": 7352,
      "▁nihayet": 7353,
      "▁derecede": 7354,
      "▁bag": 7355,
      "▁biriler": 7356,
      "ını": 7357,
      "cının": 7358,
      "4.5": 7359,
      "▁sik": 7360,
      "dini": 7361,
      "leyerek": 7362,
      "mi": 7363,
      "\\": 7364,
      "▁gorul": 7365,
      "▁thom": 7366,
      "▁tan": 7367,
      "yasal": 7368,
      "▁ydim": 7369,
      "▁1987": 7370,
      "▁anay": 7371,
      "▁kanat": 7372,
      "▁bagıs": 7373,
      "▁devralma": 7374,
      "kırı": 7375,
      "idi": 7376,
      "▁kapas": 7377,
      "st": 7378,
      "inin": 7379,
      "▁diego'dan": 7380,
      "▁hizmetten": 7381,
      "▁yaptılar": 7382,
      "▁cesitleri": 7383,
      "▁cıkarıyor": 7384,
      "unden": 7385,
      "▁rey": 7386,
      "dat": 7387,
      "▁haft": 7388,
      "▁yerde": 7389,
      "▁hepsin": 7390,
      "▁kursun": 7391,
      "iber": 7392,
      "cılar": 7393,
      "▁yapacak": 7394,
      "▁itiraz": 7395,
      "▁domates": 7396,
      "ecek": 7397,
      "▁145": 7398,
      "▁bile": 7399,
      "▁1990": 7400,
      "▁nes": 7401,
      "ladılar": 7402,
      "▁gulums": 7403,
      "hur": 7404,
      "▁big": 7405,
      "▁ek": 7406,
      "▁fikr": 7407,
      "▁restor": 7408,
      "▁yonel": 7409,
      "▁amc": 7410,
      "▁islerini": 7411,
      "▁alma": 7412,
      "▁saglam": 7413,
      "▁toh": 7414,
      "▁cogunu": 7415,
      "▁ortal": 7416,
      "▁kayn": 7417,
      "▁kiler": 7418,
      "▁elb": 7419,
      "▁8.9": 7420,
      "▁etti": 7421,
      "usal": 7422,
      "▁mevduat": 7423,
      "▁soyler": 7424,
      "▁acıklam": 7425,
      "▁yani": 7426,
      "▁iflas": 7427,
      "▁hab": 7428,
      "▁19": 7429,
      "ucu": 7430,
      "b.": 7431,
      "▁halinde": 7432,
      "bus": 7433,
      "▁bulabilir": 7434,
      "▁yunan": 7435,
      "irken": 7436,
      "dunuz": 7437,
      "obr": 7438,
      "ami": 7439,
      "ında": 7440,
      "▁gere": 7441,
      "▁35": 7442,
      "▁kir": 7443,
      "esiyle": 7444,
      "▁yor": 7445,
      "ee": 7446,
      "▁komit": 7447,
      "nal": 7448,
      "▁yiy": 7449,
      "▁bırakıp": 7450,
      "▁vatan": 7451,
      "▁103": 7452,
      "▁miktar": 7453,
      "lamayı": 7454,
      "▁vaz": 7455,
      "▁kol": 7456,
      "▁kuru": 7457,
      "▁birbirinden": 7458,
      "▁ucusta": 7459,
      "▁fonları": 7460,
      "endir": 7461,
      "▁catlak": 7462,
      "luk": 7463,
      "dir": 7464,
      "▁gelip": 7465,
      "▁ispan": 7466,
      "▁yonetic": 7467,
      ".3": 7468,
      "masından": 7469,
      "elendir": 7470,
      "▁karakter": 7471,
      "▁sayısı": 7472,
      "▁bulundu": 7473,
      "umuz": 7474,
      "eledi": 7475,
      "▁eksikligi": 7476,
      "▁yapan": 7477,
      "▁psik": 7478,
      "▁listele": 7479,
      "▁varlık": 7480,
      "▁'d": 7481,
      "up": 7482,
      "▁gozlu": 7483,
      "▁acısından": 7484,
      "▁kutu": 7485,
      "▁dest": 7486,
      "▁cı": 7487,
      "▁birine": 7488,
      "▁birbirini": 7489,
      "teb": 7490,
      "der": 7491,
      "mada": 7492,
      "mıyordu": 7493,
      "ji": 7494,
      "▁birdenbire": 7495,
      "▁gizli": 7496,
      "ulen": 7497,
      "'e": 7498,
      "▁miami": 7499,
      "▁robert": 7500,
      "▁1.1": 7501,
      "▁dig": 7502,
      "as": 7503,
      "ikler": 7504,
      "▁bagır": 7505,
      "▁las": 7506,
      "▁doga": 7507,
      "lilik": 7508,
      "▁tokyo": 7509,
      "▁kurulu": 7510,
      "▁emeklilik": 7511,
      "orm": 7512,
      "▁parasını": 7513,
      "▁kampanyalardan": 7514,
      "▁hareketi": 7515,
      "▁gib": 7516,
      "▁beyan": 7517,
      "▁evden": 7518,
      "▁yazar": 7519,
      "inip": 7520,
      "▁ulkede": 7521,
      "▁kontr": 7522,
      "▁mecbur": 7523,
      "▁den": 7524,
      "▁gunes": 7525,
      "▁temel": 7526,
      "▁nokta": 7527,
      "itt": 7528,
      "▁devam": 7529,
      "▁rast": 7530,
      "▁anlat": 7531,
      "esel": 7532,
      "▁az": 7533,
      "▁suyu": 7534,
      "▁yirmi": 7535,
      "▁fiyata": 7536,
      "gımız": 7537,
      "eti": 7538,
      "▁uzat": 7539,
      "▁avuc": 7540,
      "▁uretic": 7541,
      "▁nicin": 7542,
      "▁neyin": 7543,
      "▁meslek": 7544,
      "▁uzak": 7545,
      "imli": 7546,
      "▁haydi": 7547,
      "▁minim": 7548,
      "agını": 7549,
      "q": 7550,
      "umlu": 7551,
      "▁renkli": 7552,
      "▁mey": 7553,
      "▁doların": 7554,
      "or": 7555,
      "cusu": 7556,
      ".53": 7557,
      "▁3/4": 7558,
      "▁ediyorum": 7559,
      "▁barıs": 7560,
      "▁mid": 7561,
      "▁odey": 7562,
      "ire": 7563,
      "▁recep": 7564,
      "▁dile": 7565,
      "▁cok": 7566,
      "▁nef": 7567,
      "▁zeki": 7568,
      "▁northwest": 7569,
      "are": 7570,
      "▁111": 7571,
      "▁ren": 7572,
      "▁elim": 7573,
      "▁meclis": 7574,
      "▁bankalar": 7575,
      "▁angeles'e": 7576,
      "▁south": 7577,
      "▁bic": 7578,
      "▁met": 7579,
      "▁dobr": 7580,
      "eyh": 7581,
      "ılmıstı": 7582,
      "▁olursa": 7583,
      "▁animasyonlar": 7584,
      "▁ortak": 7585,
      "▁seyden": 7586,
      "iddet": 7587,
      ".19": 7588,
      "ligi": 7589,
      "▁bugun": 7590,
      "he": 7591,
      "▁oburu": 7592,
      "▁basarili": 7593,
      "yan": 7594,
      "▁gonl": 7595,
      "▁0.": 7596,
      "▁icini": 7597,
      "▁kocası": 7598,
      "▁;": 7599,
      "emmel": 7600,
      "▁erkek": 7601,
      "▁sonunda": 7602,
      "▁%12": 7603,
      "▁merkezine": 7604,
      "tim": 7605,
      "▁plan": 7606,
      "▁karsılas": 7607,
      "gunu": 7608,
      "▁yuzlu": 7609,
      "▁hisseye": 7610,
      "▁dortluk": 7611,
      "▁bunlar": 7612,
      "▁olm": 7613,
      "aydi": 7614,
      "▁numar": 7615,
      "▁yim": 7616,
      "▁cogu": 7617,
      "ut": 7618,
      "ack": 7619,
      "▁iliskileri": 7620,
      "▁emek": 7621,
      "▁buz": 7622,
      "▁sonucu": 7623,
      "▁mola": 7624,
      "▁izley": 7625,
      "▁hani": 7626,
      "▁tesekkurler": 7627,
      "▁gordugu": 7628,
      "▁corba": 7629,
      "ir": 7630,
      "▁aydınlık": 7631,
      "▁yuzme": 7632,
      "▁dısarıya": 7633,
      "▁yon": 7634,
      "▁beyin": 7635,
      "▁kiz": 7636,
      "▁ayar": 7637,
      "dular": 7638,
      "▁pacific": 7639,
      "▁belirtti": 7640,
      "ever": 7641,
      "▁kadının": 7642,
      "▁dal": 7643,
      "0.3": 7644,
      "imdi": 7645,
      "▁siz": 7646,
      "▁yemeklerin": 7647,
      "▁verildi": 7648,
      "▁ber": 7649,
      "▁bura": 7650,
      "▁tasarru": 7651,
      "ı": 7652,
      "rilyon": 7653,
      "▁zır": 7654,
      "▁yapılmıs": 7655,
      "▁isit": 7656,
      "uncu": 7657,
      "▁oraya": 7658,
      "▁houston'a": 7659,
      "▁kendileri": 7660,
      "▁evinde": 7661,
      "▁kalmıstı": 7662,
      "▁direkt": 7663,
      "▁topr": 7664,
      "▁olmay": 7665,
      "▁yasar": 7666,
      "▁dedigi": 7667,
      "dedi": 7668,
      "arı": 7669,
      "▁uyan": 7670,
      "▁ısık": 7671,
      "▁tuttu": 7672,
      "ebilecek": 7673,
      "▁makal": 7674,
      "▁as": 7675,
      "▁atlan": 7676,
      "▁yumusak": 7677,
      "▁programı": 7678,
      "▁nur": 7679,
      "▁resmi": 7680,
      "can": 7681,
      "▁durgunluk": 7682,
      "▁mav": 7683,
      "elli": 7684,
      "▁747": 7685,
      "▁koydu": 7686,
      "▁tohum": 7687,
      "▁ucagın": 7688,
      "▁45": 7689,
      "lastır": 7690,
      "▁oglum": 7691,
      "▁kultur": 7692,
      "▁.\"": 7693,
      "▁zarar": 7694,
      "▁ellerinde": 7695,
      "▁bakanı": 7696,
      "▁kararlı": 7697,
      "▁corap": 7698,
      "aklı": 7699,
      "undan": 7700,
      "lu": 7701,
      "dak": 7702,
      "kan": 7703,
      "sal": 7704,
      "▁pazartesi": 7705,
      "and": 7706,
      "akal": 7707,
      "sef": 7708,
      "▁derhal": 7709,
      "▁aptal": 7710,
      "▁2.3": 7711,
      "▁s&": 7712,
      "▁bec": 7713,
      "▁sir": 7714,
      "▁toplam": 7715,
      "▁yuregi": 7716,
      "▁kaliteye": 7717,
      "▁dıs": 7718,
      "▁kep": 7719,
      "lerini": 7720,
      "ıh": 7721,
      "layan": 7722,
      "tel": 7723,
      "ırk": 7724,
      "lasmıs": 7725,
      "iyordu": 7726,
      "▁kose": 7727,
      "▁aksamları": 7728,
      "▁ayakk": 7729,
      "▁bıy": 7730,
      "▁gecesi": 7731,
      "niyet": 7732,
      "madı": 7733,
      "land": 7734,
      "▁gogus": 7735,
      "urdu": 7736,
      "▁sil": 7737,
      "dur": 7738,
      "▁bazıları": 7739,
      "▁masraf": 7740,
      "ur": 7741,
      "▁city'den": 7742,
      "▁sav": 7743,
      "▁kun": 7744,
      "▁charlotte'ye": 7745,
      "▁kumar": 7746,
      "▁olayı": 7747,
      "▁vol": 7748,
      "▁%3.5": 7749,
      "▁bakkal": 7750,
      "▁orlando": 7751,
      "larımızı": 7752,
      "maları": 7753,
      "osu": 7754,
      "▁demektir": 7755,
      "▁heykel": 7756,
      "▁soylemek": 7757,
      "%": 7758,
      "ust": 7759,
      "▁kapattı": 7760,
      "▁sers": 7761,
      "▁artısı": 7762,
      "▁parm": 7763,
      "▁mas": 7764,
      "▁kon": 7765,
      "10": 7766,
      "▁ceken": 7767,
      "6.6": 7768,
      "▁manz": 7769,
      "tıgı": 7770,
      "▁bazılarının": 7771,
      "▁fasul": 7772,
      "▁savun": 7773,
      "▁minne": 7774,
      "esin": 7775,
      "▁cr": 7776,
      "▁sikayet": 7777,
      "ması": 7778,
      "timore": 7779,
      "alet": 7780,
      "esiz": 7781,
      "▁sozles": 7782,
      "▁es": 7783,
      "▁korkunc": 7784,
      "▁mis": 7785,
      "▁henuz": 7786,
      "▁anlam": 7787,
      "▁nazik": 7788,
      "ilerek": 7789,
      "ende": 7790,
      "▁uyku": 7791,
      "ları": 7792,
      "adet": 7793,
      "▁itibar": 7794,
      "eyecek": 7795,
      "▁demek": 7796,
      "ediyor": 7797,
      "▁denilen": 7798,
      "▁tanın": 7799,
      "▁soyluyorlar": 7800,
      "dut": 7801,
      "▁sirketleri": 7802,
      "▁sigorta": 7803,
      "▁kasık": 7804,
      "▁insa": 7805,
      "'u": 7806,
      "000": 7807,
      "mesinden": 7808,
      "▁manzarasi": 7809,
      "▁ysa": 7810,
      "▁yur": 7811,
      "?": 7812,
      "▁taleb": 7813,
      "▁duzenlem": 7814,
      "▁karsılastır": 7815,
      "▁olmaktan": 7816,
      "▁hayret": 7817,
      "▁atmak": 7818,
      "digini": 7819,
      "▁koyu": 7820,
      "▁yararlı": 7821,
      "▁yuc": 7822,
      "▁tabii": 7823,
      "▁kal": 7824,
      "▁korku": 7825,
      "▁alacaklı": 7826,
      "▁sim": 7827,
      "▁yok": 7828,
      "▁hicbiri": 7829,
      "▁hiz": 7830,
      ".5": 7831,
      "▁devir": 7832,
      "▁sun": 7833,
      "▁pembe": 7834,
      "dıklarını": 7835,
      "lenmis": 7836,
      "ustu": 7837,
      "▁kopru": 7838,
      "ave": 7839,
      "▁yum": 7840,
      "▁ikisinin": 7841,
      "▁almıs": 7842,
      "da": 7843,
      "i": 7844,
      "▁aman": 7845,
      "▁vuc": 7846,
      "▁1985": 7847,
      "▁'": 7848,
      "▁huseyin": 7849,
      "kır": 7850,
      "es": 7851,
      "▁iktidar": 7852,
      "▁alti": 7853,
      "▁veriyor": 7854,
      "▁franc": 7855,
      "▁id": 7856,
      "▁miz": 7857,
      "▁kapı": 7858,
      "▁ucusların": 7859,
      "miz": 7860,
      "▁ibaret": 7861,
      "▁elde": 7862,
      "▁amac": 7863,
      "▁cep": 7864,
      "▁pisir": 7865,
      "un": 7866,
      "▁konuda": 7867,
      "▁142": 7868,
      "▁ibrahim": 7869,
      "▁far": 7870,
      "▁1984": 7871,
      "▁varıyor": 7872,
      "▁mon": 7873,
      "▁kere": 7874,
      "▁kurulan": 7875,
      "▁alkıs": 7876,
      "▁serp": 7877,
      "▁zamanla": 7878,
      "▁class": 7879,
      "▁basar": 7880,
      "▁love": 7881,
      "▁yuzey": 7882,
      "▁yahu": 7883,
      "tor": 7884,
      "one": 7885,
      "▁edilir": 7886,
      "▁oturma": 7887,
      "▁and": 7888,
      "▁yıla": 7889,
      "▁dogr": 7890,
      "'ndan": 7891,
      "abi": 7892,
      "▁6": 7893,
      "▁cocukları": 7894,
      "aa": 7895,
      "otuz": 7896,
      "▁yanak": 7897,
      "▁135": 7898,
      "▁olup": 7899,
      "▁bakim": 7900,
      "▁ihtimal": 7901,
      "ia": 7902,
      "orp": 7903,
      "▁sozlerine": 7904,
      "ıyorum": 7905,
      "▁mark": 7906,
      "aman": 7907,
      "▁ayda": 7908,
      "▁icinden": 7909,
      "▁mesela": 7910,
      "ez": 7911,
      "▁cıp": 7912,
      "/8'e": 7913,
      "▁kab": 7914,
      "▁korum": 7915,
      "▁iyilestir": 7916,
      "▁yere": 7917,
      "maktadır": 7918,
      "▁indir": 7919,
      "▁bak": 7920,
      "min": 7921,
      "ding": 7922,
      "▁oteldi": 7923,
      "▁konfer": 7924,
      "▁kokulu": 7925,
      "▁5/8": 7926,
      "'nda": 7927,
      "mamalı": 7928,
      "▁akr": 7929,
      "ılıp": 7930,
      "▁yırt": 7931,
      "▁batı": 7932,
      "▁nob": 7933,
      "▁duserek": 7934,
      "rah": 7935,
      "iyorum": 7936,
      "▁nefes": 7937,
      "fur": 7938,
      "▁yangın": 7939,
      "und": 7940,
      "▁almayı": 7941,
      "▁columbus": 7942,
      "▁indianapolis'e": 7943,
      "▁sekret": 7944,
      "▁yap": 7945,
      "▁duny": 7946,
      "met": 7947,
      "ıyı": 7948,
      "▁31": 7949,
      "▁hi": 7950,
      "▁cekiyor": 7951,
      "▁aramız": 7952,
      "▁seker": 7953,
      "1'de": 7954,
      "▁turkiye'nin": 7955,
      "▁sozleri": 7956,
      "▁sıkı": 7957,
      "▁arkadaslar": 7958,
      "▁pam": 7959,
      "ız": 7960,
      "raj": 7961,
      "▁denver": 7962,
      "▁raporu": 7963,
      "lıktan": 7964,
      "▁altıncı": 7965,
      "▁baglantılı": 7966,
      "▁hor": 7967,
      "▁mobil": 7968,
      "eld": 7969,
      "enc": 7970,
      "▁tutarında": 7971,
      "▁istiyorlar": 7972,
      "istir": 7973,
      "▁turk": 7974,
      "▁ederdi": 7975,
      "▁donuyor": 7976,
      "▁uyk": 7977,
      "▁superdi": 7978,
      "▁ası": 7979,
      "ato": 7980,
      "▁kurb": 7981,
      "▁kendisinin": 7982,
      "▁otek": 7983,
      "erk": 7984,
      "▁%7.": 7985,
      "▁borc": 7986,
      "▁atıyor": 7987,
      "isse": 7988,
      "▁north": 7989,
      "▁gerek": 7990,
      "▁lor": 7991,
      "▁gercekten": 7992,
      "▁genislet": 7993,
      "siniz": 7994,
      "▁faz": 7995,
      "anı": 7996,
      "lugu": 7997,
      "▁naci": 7998,
      "igit": 7999,
      "▁duyg": 8000,
      "▁akın": 8001,
      "▁buradan": 8002,
      "elerinden": 8003,
      "▁eris": 8004,
      "zira": 8005,
      "▁1960": 8006,
      "ıstır": 8007,
      "lesine": 8008,
      "▁ces": 8009,
      "▁gibiydi": 8010,
      "▁davranıs": 8011,
      "▁hır": 8012,
      "▁yapılan": 8013,
      "▁fazlay": 8014,
      "▁intern": 8015,
      "▁72": 8016,
      "_": 8017,
      "▁kapalı": 8018,
      "▁kılı": 8019,
      "os": 8020,
      "▁kurtul": 8021,
      "▁kendimizi": 8022,
      "▁oteki": 8023,
      "▁industri": 8024,
      "▁83": 8025,
      "▁%9.": 8026,
      "ısını": 8027,
      "anlık": 8028,
      "ayla": 8029,
      "▁burası": 8030,
      "acılıgı": 8031,
      "▁edir": 8032,
      "▁bankası": 8033,
      "▁sarı": 8034,
      "ta": 8035,
      "▁fena": 8036,
      "▁125": 8037,
      "▁giydi": 8038,
      "▁turu": 8039,
      "▁motor": 8040,
      "▁yitir": 8041,
      "▁pur": 8042,
      "▁portfoy": 8043,
      "tiler": 8044,
      "▁izm": 8045,
      "▁kaldır": 8046,
      "▁calısmak": 8047,
      "▁om": 8048,
      "▁caba": 8049,
      "▁kork": 8050,
      "▁gore": 8051,
      "ab": 8052,
      "liye": 8053,
      "mektedir": 8054,
      "▁butce": 8055,
      "ini": 8056,
      "diler": 8057,
      "▁sabah": 8058,
      "mamıstı": 8059,
      "▁sorular": 8060,
      "▁bunları": 8061,
      "anlı": 8062,
      "urlar": 8063,
      "phia": 8064,
      "lılık": 8065,
      "▁86": 8066,
      "ist": 8067,
      "▁1999": 8068,
      "▁rest": 8069,
      "enz": 8070,
      "forman": 8071,
      "▁alarak": 8072,
      "▁donustur": 8073,
      "▁cagır": 8074,
      "gileri": 8075,
      "▁700": 8076,
      "▁%27": 8077,
      "▁egem": 8078,
      "▁fır": 8079,
      "▁kıv": 8080,
      "iza": 8081,
      "▁sizler": 8082,
      "▁ort": 8083,
      "▁personelden": 8084,
      "▁konumunu": 8085,
      "▁kard": 8086,
      "▁adet": 8087,
      "anda": 8088,
      "▁sergil": 8089,
      "▁yerli": 8090,
      "▁fatih": 8091,
      "▁gelgelelim": 8092,
      "▁sanay": 8093,
      "▁milliyet": 8094,
      "▁ceker": 8095,
      "▁dos": 8096,
      "▁sehir": 8097,
      "▁topu": 8098,
      "▁aklına": 8099,
      "▁hisset": 8100,
      "▁yedek": 8101,
      "gele": 8102,
      "▁fl": 8103,
      "▁...": 8104,
      "'ne": 8105,
      "▁kadeh": 8106,
      "▁shearson": 8107,
      "▁yukselerek": 8108,
      "ledik": 8109,
      "▁paris": 8110,
      "▁onde": 8111,
      "▁saglamak": 8112,
      "gına": 8113,
      "°": 8114,
      "▁annesi": 8115,
      "▁est": 8116,
      "▁nas": 8117,
      "▁ruzgar": 8118,
      "▁sahib": 8119,
      "rub": 8120,
      "zet": 8121,
      "▁bosluk": 8122,
      "▁hiss": 8123,
      "iydi": 8124,
      "▁kahraman": 8125,
      "isle": 8126,
      "▁yagm": 8127,
      "dıgına": 8128,
      "▁elleri": 8129,
      "▁pil": 8130,
      "▁130": 8131,
      "▁aksi": 8132,
      "vil": 8133,
      "▁cagdas": 8134,
      "cilik": 8135,
      "deki": 8136,
      "ale": 8137,
      "▁gecer": 8138,
      "ment": 8139,
      "ormal": 8140,
      "▁suz": 8141,
      "cal": 8142,
      "▁)": 8143,
      "amadim": 8144,
      "oy": 8145,
      "▁on": 8146,
      "▁iletisim": 8147,
      "▁sayılır": 8148,
      "▁uyarı": 8149,
      "▁avantaj": 8150,
      "ayıp": 8151,
      "isleri": 8152,
      "▁15": 8153,
      "▁camasır": 8154,
      "▁18.": 8155,
      "▁boylece": 8156,
      "▁ithalat": 8157,
      "meyen": 8158,
      "▁yurudu": 8159,
      "▁otom": 8160,
      "▁bunların": 8161,
      "▁kirli": 8162,
      "▁of": 8163,
      "lıkta": 8164,
      "▁muhendis": 8165,
      "▁karsı": 8166,
      "▁aldım": 8167,
      "▁bitk": 8168,
      "undeki": 8169,
      "▁gor": 8170,
      "▁ikram": 8171,
      "▁mumkun": 8172,
      "▁cukur": 8173,
      "▁homur": 8174,
      "▁edici": 8175,
      "ımdan": 8176,
      "▁bizim": 8177,
      "▁deyip": 8178,
      "▁calısan": 8179,
      "asındaki": 8180,
      "sarı": 8181,
      "andan": 8182,
      "▁bolun": 8183,
      "▁%7.7": 8184,
      "▁bazı": 8185,
      "▁boy": 8186,
      "lenir": 8187,
      "▁danısman": 8188,
      "▁ajans": 8189,
      "▁sizleri": 8190,
      "▁angeles": 8191
    },
    "merges": [
      [
        "sin",
        "de"
      ],
      [
        "▁yak",
        "alan"
      ],
      [
        "m",
        "iyor"
      ],
      [
        "▁sip",
        "ar"
      ],
      [
        "▁direk",
        "t"
      ],
      [
        "▁b",
        "eden"
      ],
      [
        "▁bir",
        "ligi"
      ],
      [
        "▁o",
        "t"
      ],
      [
        "3",
        "7"
      ],
      [
        "▁un",
        "ut"
      ],
      [
        "▁n",
        "o"
      ],
      [
        "ik",
        "a"
      ],
      [
        "▁o",
        "bur"
      ],
      [
        "oloj",
        "ik"
      ],
      [
        "▁alt",
        "ında"
      ],
      [
        "▁c",
        "ev"
      ],
      [
        "▁b",
        "ırak"
      ],
      [
        "▁k",
        "abil"
      ],
      [
        "▁meydan",
        "a"
      ],
      [
        "▁of",
        "k"
      ],
      [
        "▁taz",
        "e"
      ],
      [
        "▁olu",
        "yor"
      ],
      [
        "▁hayat",
        "ın"
      ],
      [
        "▁par",
        "anın"
      ],
      [
        "▁tekn",
        "oloj"
      ],
      [
        "▁%3.",
        "5"
      ],
      [
        "ad",
        "ar"
      ],
      [
        "▁sen",
        "in"
      ],
      [
        "▁yap",
        "mak"
      ],
      [
        "▁montreal",
        "'a"
      ],
      [
        "▁tacoma",
        "'ya"
      ],
      [
        "ist",
        "i"
      ],
      [
        "▁tesek",
        "kur"
      ],
      [
        "▁lu",
        "b"
      ],
      [
        "▁7",
        "2"
      ],
      [
        "▁m",
        "it"
      ],
      [
        "c",
        "ut"
      ],
      [
        "▁insa",
        "at"
      ],
      [
        "▁geril",
        "edi"
      ],
      [
        "un",
        "lu"
      ],
      [
        "▁gib",
        "iydi"
      ],
      [
        "▁tası",
        "yan"
      ],
      [
        "▁an",
        "cak"
      ],
      [
        "d",
        "aki"
      ],
      [
        "▁sag",
        "lıyor"
      ],
      [
        "k",
        "ar"
      ],
      [
        "▁hal",
        "ihaz"
      ],
      [
        "siy",
        "on"
      ],
      [
        "▁alman",
        "ya"
      ],
      [
        "1",
        ".2"
      ],
      [
        "▁kendim",
        "ize"
      ],
      [
        "lı",
        "k"
      ],
      [
        "▁bo",
        "y"
      ],
      [
        "ler",
        "ini"
      ],
      [
        "▁mı",
        "y"
      ],
      [
        "▁ucus",
        "a"
      ],
      [
        "▁red",
        "detti"
      ],
      [
        "▁is",
        "let"
      ],
      [
        "les",
        "mis"
      ],
      [
        "▁phil",
        "adelphia"
      ],
      [
        "▁oda",
        "dan"
      ],
      [
        "▁ihrac",
        "at"
      ],
      [
        "n",
        "i"
      ],
      [
        "▁kur",
        "ulu"
      ],
      [
        "▁cumhur",
        "iyet"
      ],
      [
        "at",
        "ını"
      ],
      [
        "▁ot",
        "el"
      ],
      [
        "▁gar",
        "son"
      ],
      [
        "lık",
        "ta"
      ],
      [
        "▁ney",
        "se"
      ],
      [
        "▁fon",
        "ları"
      ],
      [
        "ır",
        "ı"
      ],
      [
        "▁5",
        "4"
      ],
      [
        "e",
        "w"
      ],
      [
        "ce",
        "sine"
      ],
      [
        "▁og",
        "lu"
      ],
      [
        "▁ak",
        "tif"
      ],
      [
        "▁havalim",
        "an"
      ],
      [
        "l",
        "ası"
      ],
      [
        "▁hazırlan",
        "ısı"
      ],
      [
        "▁dedi",
        "k"
      ],
      [
        "▁mad",
        "de"
      ],
      [
        "▁mi",
        "s"
      ],
      [
        "▁git",
        "mem"
      ],
      [
        "▁cık",
        "maz"
      ],
      [
        "▁bey",
        "di"
      ],
      [
        "▁t",
        "am"
      ],
      [
        "▁h",
        "ay"
      ],
      [
        "▁ilgil",
        "ilerdi"
      ],
      [
        "▁yap",
        "tik"
      ],
      [
        "▁mes",
        "el"
      ],
      [
        "▁ver",
        "erek"
      ],
      [
        "▁cık",
        "ıp"
      ],
      [
        "▁sac",
        "ları"
      ],
      [
        "▁d",
        "av"
      ],
      [
        "▁siz",
        "ler"
      ],
      [
        "ley",
        "erek"
      ],
      [
        "▁at",
        "mak"
      ],
      [
        "▁gec",
        "mis"
      ],
      [
        "▁don",
        "uyor"
      ],
      [
        "▁kat",
        "ıldı"
      ],
      [
        "▁alt",
        "i"
      ],
      [
        "▁yan",
        "dan"
      ],
      [
        "▁calıs",
        "ması"
      ],
      [
        "▁goz",
        "unu"
      ],
      [
        "▁d",
        "ay"
      ],
      [
        "▁k",
        "ayı"
      ],
      [
        "▁sok",
        "ak"
      ],
      [
        "ecek",
        "sin"
      ],
      [
        "am",
        "ıs"
      ],
      [
        "▁r",
        "ol"
      ],
      [
        "▁uy",
        "ustur"
      ],
      [
        "▁v",
        "az"
      ],
      [
        "▁el",
        "imi"
      ],
      [
        "▁al",
        "eyh"
      ],
      [
        "▁cek",
        "en"
      ],
      [
        "▁d",
        "iy"
      ],
      [
        "d",
        "um"
      ],
      [
        "ı",
        "f"
      ],
      [
        "▁u",
        "al"
      ],
      [
        "m",
        "aları"
      ],
      [
        "▁d",
        "iyorum"
      ],
      [
        "▁har",
        "c"
      ],
      [
        "▁ner",
        "esi"
      ],
      [
        "▁p",
        "eki"
      ],
      [
        "▁kor",
        "uy"
      ],
      [
        "▁soz",
        "cuk"
      ],
      [
        "ul",
        "an"
      ],
      [
        "b",
        "ilir"
      ],
      [
        "▁olm",
        "uyor"
      ],
      [
        "▁y",
        "im"
      ],
      [
        "▁kap",
        "at"
      ],
      [
        "▁anay",
        "asa"
      ],
      [
        "▁birbir",
        "ine"
      ],
      [
        "▁bil",
        "iyorum"
      ],
      [
        "▁sık",
        "ıstır"
      ],
      [
        "▁cocuk",
        "ları"
      ],
      [
        "▁kayb",
        "ı"
      ],
      [
        "89",
        "-"
      ],
      [
        "▁kav",
        "r"
      ],
      [
        "▁h",
        "ic"
      ],
      [
        "▁olum",
        "lu"
      ],
      [
        "ev",
        "i"
      ],
      [
        "▁s",
        "ep"
      ],
      [
        "▁kul",
        "ub"
      ],
      [
        "g",
        "umuz"
      ],
      [
        "▁bas",
        "k"
      ],
      [
        "▁bin",
        "dokuzyuz"
      ],
      [
        "▁ozel",
        "likle"
      ],
      [
        "▁basv",
        "ur"
      ],
      [
        "▁gi",
        "d"
      ],
      [
        "▁",
        "lu"
      ],
      [
        "▁gel",
        "gelelim"
      ],
      [
        "▁can",
        "t"
      ],
      [
        "▁mak",
        "am"
      ],
      [
        "▁j",
        "ohn"
      ],
      [
        "▁sig",
        "ort"
      ],
      [
        "▁yuz",
        "den"
      ],
      [
        "▁havayol",
        "larının"
      ],
      [
        "▁j",
        "os"
      ],
      [
        "el",
        "i"
      ],
      [
        "▁m",
        "ir"
      ],
      [
        "▁cif",
        "t"
      ],
      [
        "▁haz",
        "iran"
      ],
      [
        "it",
        "i"
      ],
      [
        "g",
        "ım"
      ],
      [
        "der",
        "n"
      ],
      [
        "▁tur",
        "ist"
      ],
      [
        "▁ucus",
        "u"
      ],
      [
        "▁ic",
        "me"
      ],
      [
        "es",
        "ti"
      ],
      [
        "▁",
        "it"
      ],
      [
        "▁u",
        "vey"
      ],
      [
        "▁top",
        "lum"
      ],
      [
        "ır",
        "k"
      ],
      [
        "▁dı",
        "r"
      ],
      [
        "▁z",
        "ey"
      ],
      [
        "▁ayr",
        "ılan"
      ],
      [
        "▁olmak",
        "tan"
      ],
      [
        "8",
        "8"
      ],
      [
        "t",
        "or"
      ],
      [
        "▁bor",
        "cu"
      ],
      [
        "▁bost",
        "on"
      ],
      [
        "▁alın",
        "an"
      ],
      [
        "h",
        "al"
      ],
      [
        "▁say",
        "g"
      ],
      [
        "4",
        "7"
      ],
      [
        "▁om",
        "z"
      ],
      [
        "malı",
        "dır"
      ],
      [
        "▁",
        "."
      ],
      [
        "▁tac",
        "oma"
      ],
      [
        "▁bek",
        "liyor"
      ],
      [
        "lu",
        "gunu"
      ],
      [
        "▁su",
        "z"
      ],
      [
        "iz",
        "ik"
      ],
      [
        "▁br",
        "it"
      ],
      [
        "en",
        "e"
      ],
      [
        "▁uygul",
        "am"
      ],
      [
        "▁oran",
        "ında"
      ],
      [
        "▁",
        "n"
      ],
      [
        "am",
        "aya"
      ],
      [
        "▁p",
        "us"
      ],
      [
        "▁t",
        "av"
      ],
      [
        "▁piyas",
        "anın"
      ],
      [
        "▁1.",
        "1"
      ],
      [
        "▁k",
        "ırk"
      ],
      [
        "▁gorus",
        "meler"
      ],
      [
        "▁eksik",
        "ligi"
      ],
      [
        "d",
        "uk"
      ],
      [
        "▁mahkem",
        "esi"
      ],
      [
        "▁yap",
        "arak"
      ],
      [
        "▁f",
        "as"
      ],
      [
        "i",
        "ly"
      ],
      [
        "▁%",
        "9"
      ],
      [
        "▁a",
        "mma"
      ],
      [
        "▁t",
        "ay"
      ],
      [
        "erk",
        "en"
      ],
      [
        "▁iy",
        "il"
      ],
      [
        "▁c",
        "it"
      ],
      [
        "▁al",
        "i"
      ],
      [
        "▁et",
        "tir"
      ],
      [
        "▁yok",
        "tu"
      ],
      [
        "▁ilgil",
        "i"
      ],
      [
        "o",
        "br"
      ],
      [
        "▁istiyor",
        "uz"
      ],
      [
        "gun",
        "a"
      ],
      [
        "▁konum",
        "undan"
      ],
      [
        "▁m",
        "id"
      ],
      [
        "ley",
        "ip"
      ],
      [
        "▁gor",
        "uyorum"
      ],
      [
        "▁mo",
        "dern"
      ],
      [
        "▁yuksel",
        "t"
      ],
      [
        ":",
        "30"
      ],
      [
        "▁guleryuz",
        "luydu"
      ],
      [
        "▁on",
        "em"
      ],
      [
        "▁g",
        "iydi"
      ],
      [
        "▁s",
        "ar"
      ],
      [
        "▁kar",
        "n"
      ],
      [
        "▁an",
        "t"
      ],
      [
        "▁mahal",
        "le"
      ],
      [
        "▁giz",
        "li"
      ],
      [
        "▁art",
        "ık"
      ],
      [
        "▁nuf",
        "us"
      ],
      [
        "▁kat",
        "lı"
      ],
      [
        "▁b",
        "ina"
      ],
      [
        "▁birbir",
        "i"
      ],
      [
        "t",
        "is"
      ],
      [
        "f",
        "i"
      ],
      [
        "0.",
        "8"
      ],
      [
        "▁gen",
        "eral"
      ],
      [
        "▁dusuk",
        "tu"
      ],
      [
        "▁p",
        "ap"
      ],
      [
        "▁ken",
        "ara"
      ],
      [
        "▁bey",
        "az"
      ],
      [
        "m",
        "elerin"
      ],
      [
        "▁m",
        "obil"
      ],
      [
        "▁d",
        "iyor"
      ],
      [
        "▁8",
        "3"
      ],
      [
        "▁yak",
        "al"
      ],
      [
        "▁ma",
        "as"
      ],
      [
        "▁bulun",
        "an"
      ],
      [
        "▁ac",
        "ar"
      ],
      [
        "▁bas",
        "layacak"
      ],
      [
        "▁kıyas",
        "lan"
      ],
      [
        "▁hat",
        "ır"
      ],
      [
        "▁sın",
        "ız"
      ],
      [
        "▁sa",
        "una"
      ],
      [
        "▁isvic",
        "re"
      ],
      [
        "is",
        "indan"
      ],
      [
        "▁r",
        "ich"
      ],
      [
        "▁cincinnati",
        "'ye"
      ],
      [
        "▁sur",
        "en"
      ],
      [
        "▁",
        "in"
      ],
      [
        "▁bil",
        "iyor"
      ],
      [
        "▁tuh",
        "af"
      ],
      [
        "y",
        "i"
      ],
      [
        "▁kurul",
        "us"
      ],
      [
        "lay",
        "arak"
      ],
      [
        "▁f",
        "eder"
      ],
      [
        "is",
        "inin"
      ],
      [
        "▁ak",
        "tiv"
      ],
      [
        "▁ıs",
        "ıl"
      ],
      [
        "▁birbirler",
        "iyle"
      ],
      [
        "▁s",
        "ez"
      ],
      [
        "▁must",
        "eri"
      ],
      [
        "s",
        "ek"
      ],
      [
        "'n",
        "da"
      ],
      [
        "▁olm",
        "as"
      ],
      [
        "▁es",
        "t"
      ],
      [
        "ag",
        "uar"
      ],
      [
        "▁tut",
        "tu"
      ],
      [
        "▁fır",
        "ladı"
      ],
      [
        "▁kan",
        "al"
      ],
      [
        "▁bekledi",
        "gini"
      ],
      [
        "▁uc",
        "us"
      ],
      [
        "if",
        "orn"
      ],
      [
        "▁oran",
        "i"
      ],
      [
        "▁ikibin",
        "uc"
      ],
      [
        "du",
        "lar"
      ],
      [
        "c",
        "in"
      ],
      [
        "iyet",
        "i"
      ],
      [
        "di",
        "g"
      ],
      [
        "▁uc",
        "uz"
      ],
      [
        "m",
        "esini"
      ],
      [
        "▁kis",
        "iler"
      ],
      [
        "in",
        "dan"
      ],
      [
        "i",
        "di"
      ],
      [
        "▁ediyor",
        "lar"
      ],
      [
        "4",
        "2"
      ],
      [
        "▁civ",
        "arı"
      ],
      [
        "▁miktar",
        "da"
      ],
      [
        "▁p",
        "e"
      ],
      [
        "eler",
        "ek"
      ],
      [
        "▁deng",
        "esi"
      ],
      [
        "▁ucus",
        "unuz"
      ],
      [
        "00",
        "000"
      ],
      [
        "ay",
        "ol"
      ],
      [
        "▁w",
        "orth"
      ],
      [
        "▁azın",
        "lık"
      ],
      [
        "▁f",
        "a"
      ],
      [
        "▁dev",
        "am"
      ],
      [
        "▁y",
        "mis"
      ],
      [
        "▁l",
        "ond"
      ],
      [
        "▁y",
        "uz"
      ],
      [
        "▁is",
        "it"
      ],
      [
        "▁tampa",
        "'ya"
      ],
      [
        "di",
        "ler"
      ],
      [
        "▁k",
        "ım"
      ],
      [
        "▁",
        "`"
      ],
      [
        "ark",
        "en"
      ],
      [
        "▁..",
        "\""
      ],
      [
        "▁sur",
        "e"
      ],
      [
        "▁n",
        "orth"
      ],
      [
        "g",
        "e"
      ],
      [
        "▁uz",
        "an"
      ],
      [
        "▁n",
        "ik"
      ],
      [
        "▁kendisin",
        "den"
      ],
      [
        "▁halk",
        "ın"
      ],
      [
        "oy",
        "a"
      ],
      [
        "▁basladı",
        "lar"
      ],
      [
        "▁",
        "h"
      ],
      [
        "▁oldu",
        "gunu"
      ],
      [
        "et",
        "in"
      ],
      [
        "▁cı",
        "yak"
      ],
      [
        "u",
        "tur"
      ],
      [
        "lar",
        "i"
      ],
      [
        "▁as",
        "agı"
      ],
      [
        "ec",
        "e"
      ],
      [
        "▁beklen",
        "tiler"
      ],
      [
        "t",
        "ur"
      ],
      [
        "▁dc",
        "'den"
      ],
      [
        "▁l",
        "ove"
      ],
      [
        "ab",
        "z"
      ],
      [
        "▁ha",
        "lbu"
      ],
      [
        "▁i",
        "d"
      ],
      [
        "l",
        "ine"
      ],
      [
        "▁kimse",
        "ye"
      ],
      [
        "▁1.",
        "000"
      ],
      [
        "▁sosy",
        "al"
      ],
      [
        "▁cık",
        "ınca"
      ],
      [
        "▁fab",
        "rik"
      ],
      [
        "▁goz",
        "lem"
      ],
      [
        "ab",
        "i"
      ],
      [
        "g",
        "ı"
      ],
      [
        "sin",
        "in"
      ],
      [
        "▁tur",
        "lu"
      ],
      [
        "▁tab",
        "ak"
      ],
      [
        "▁yol",
        "unda"
      ],
      [
        "▁degiller",
        "di"
      ],
      [
        "▁c",
        "ir"
      ],
      [
        "du",
        "gu"
      ],
      [
        "▁f",
        "at"
      ],
      [
        "▁kurb",
        "an"
      ],
      [
        "▁z",
        "ehir"
      ],
      [
        "▁b",
        "eh"
      ],
      [
        "▁dog",
        "r"
      ],
      [
        "▁s",
        "y"
      ],
      [
        "ers",
        "in"
      ],
      [
        "▁duv",
        "ara"
      ],
      [
        "ini",
        "ki"
      ],
      [
        "▁hijyen",
        "ik"
      ],
      [
        "▁a.b.",
        "d."
      ],
      [
        "▁o",
        "den"
      ],
      [
        "▁h",
        "az"
      ],
      [
        "▁k",
        "ot"
      ],
      [
        "▁n",
        "aci"
      ],
      [
        "▁gel",
        "di"
      ],
      [
        "▁pr",
        "ogram"
      ],
      [
        "▁4",
        "."
      ],
      [
        "▁kap",
        "ali"
      ],
      [
        "▁kan",
        "un"
      ],
      [
        "▁lt",
        "d."
      ],
      [
        "▁kal",
        "madı"
      ],
      [
        "▁vucu",
        "d"
      ],
      [
        "▁v",
        "ir"
      ],
      [
        "▁et",
        "medi"
      ],
      [
        "▁ben",
        "den"
      ],
      [
        "b",
        "et"
      ],
      [
        "▁kendin",
        "den"
      ],
      [
        "▁odalar",
        "i"
      ],
      [
        "an",
        "mıs"
      ],
      [
        "▁yan",
        "ak"
      ],
      [
        "▁bul",
        "an"
      ],
      [
        "▁mal",
        "iyeti"
      ],
      [
        "▁gorevl",
        "isi"
      ],
      [
        "▁is",
        "ler"
      ],
      [
        "▁sekil",
        "de"
      ],
      [
        "g",
        "an"
      ],
      [
        "▁hap",
        "is"
      ],
      [
        "▁fiyat",
        "i"
      ],
      [
        "▁gun",
        "umuz"
      ],
      [
        "▁kaliforn",
        "iya"
      ],
      [
        "▁pac",
        "ific"
      ],
      [
        "an",
        "ları"
      ],
      [
        "es",
        "tir"
      ],
      [
        "▁onc",
        "esi"
      ],
      [
        "▁k",
        "r"
      ],
      [
        "▁kucuk",
        "tu"
      ],
      [
        "▁kit",
        "ap"
      ],
      [
        "▁al",
        "man"
      ],
      [
        "▁mat",
        "em"
      ],
      [
        "▁bu",
        "cuk"
      ],
      [
        "m",
        "ed"
      ],
      [
        "▁cev",
        "ap"
      ],
      [
        "▁yak",
        "ından"
      ],
      [
        "▁ihtiy",
        "ac"
      ],
      [
        "▁%4",
        ".8"
      ],
      [
        "▁n",
        "er"
      ],
      [
        "▁he",
        "m"
      ],
      [
        "▁m",
        "ar"
      ],
      [
        "▁s",
        "uya"
      ],
      [
        "▁f",
        "u"
      ],
      [
        "▁mut",
        "luluk"
      ],
      [
        "▁6",
        "9"
      ],
      [
        "▁ucus",
        "lar"
      ],
      [
        "▁%3.4",
        "3"
      ],
      [
        "alar",
        "dan"
      ],
      [
        "▁5",
        "0"
      ],
      [
        "▁diy",
        "en"
      ],
      [
        "▁toplantı",
        "da"
      ],
      [
        "▁m",
        "endi"
      ],
      [
[...]
