{
  "version": "1.0",
  "truncation": null,
  "padding": null,
  "added_tokens": [
    {
      "id": 730,
      "content": "[SEP]",
      "single_word": false,
      "lstrip": false,
      "rstrip": false,
      "normalized": false,
      "special": true
    },
    {
      "id": 1137,
      "content": "[MASK]",
      "single_word": false,
      "lstrip": false,
      "rstrip": false,
      "normalized": false,
      "special": true
    },
    {
      "id": 1944,
      "content": "[PAD]",
      "single_word": false,
      "lstrip": false,
      "rstrip": false,
      "normalized": false,
      "special": true
    },
    {
      "id": 3141,
      "content": "[CLS]",
      "single_word": false,
      "lstrip": false,
      "rstrip": false,
      "normalized": false,
      "special": true
    },
    {
      "id": 4009,
      "content": "[UNK]",
      "single_word": false,
      "lstrip": false,
      "rstrip": false,
      "normalized": false,
      "special": true
    }
  ],
  "normalizer": {
    "type": "Sequence",
    "normalizers": [
      {
        "type": "NFD"
      },
      {
        "type": "Lowercase"
      },
      {
        "type": "StripAccents"
      }
    ]
  },
  "pre_tokenizer": {
    "type": "Sequence",
    "pretokenizers": [
      {
        "type": "Metaspace",
        "replacement": "▁",
        "prepend_scheme": "always",
        "split": true
      }
    ]
  },
  "post_processor": {
    "type": "TemplateProcessing",
    "single": [
      {
        "SpecialToken": {
          "id": "[CLS]",
          "type_id": 0
        }
      },
      {
        "Sequence": {
          "id": "A",
          "type_id": 0
        }
      },
      {
        "SpecialToken": {
          "id": "[SEP]",
          "type_id": 0
        }
      }
    ],
    "pair": [
      {
        "SpecialToken": {
          "id": "[CLS]",
          "type_id": 0
        }
      },
      {
        "Sequence": {
          "id": "A",
          "type_id": 0
        }
      },
      {
        "SpecialToken": {
          "id": "[SEP]",
          "type_id": 0
        }
      },
      {
        "Sequence": {
          "id": "B",
          "type_id": 1
        }
      },
      {
        "SpecialToken": {
          "id": "[SEP]",
          "type_id": 1
        }
      }
    ],
    "special_tokens": {
      "[CLS]": {
        "id": "[CLS]",
        "ids": [
          3141
        ],
        "tokens": [
          "[CLS]"
        ]
      },
      "[SEP]": {
        "id": "[SEP]",
        "ids": [
          730
        ],
        "tokens": [
          "[SEP]"
        ]
      }
    }
  },
  "decoder": {
    "type": "Metaspace",
    "replacement": "▁",
    "prepend_scheme": "always",
    "split": true
  },
  "model": {
    "type": "BPE",
    "dropout": null,
    "unk_token": "[UNK]",
    "continuing_subword_prefix": null,
    "end_of_word_suffix": null,
    "fuse_unk": false,
    "byte_fallback": false,
    "ignore_merges": false,
    "vocab": {
      "▁bizden": 0,
      "▁sikin": 1,
      "ısında": 2,
      "hangi": 3,
      "▁ler": 4,
      "iran": 5,
      "t": 6,
      "ental": 7,
      "luydu": 8,
      "▁araba": 9,
      "gur": 10,
      "▁yalan": 11,
      "▁cum": 12,
      "▁ekledi": 13,
      "▁28": 14,
      "▁alan": 15,
      "▁ankara": 16,
      "uh": 17,
      "▁philadelphia'dan": 18,
      "qu": 19,
      "▁degillerdi": 20,
      "▁tu": 21,
      "ırıl": 22,
      "▁fırıl": 23,
      "▁dikkat": 24,
      "lıgına": 25,
      "▁52": 26,
      "▁dir": 27,
      "ken": 28,
      "▁%17": 29,
      "▁kası": 30,
      "▁al": 31,
      "▁lake": 32,
      "▁dev": 33,
      "▁beydi": 34,
      "▁stratej": 35,
      "eviz": 36,
      "▁kongre": 37,
      "▁%2": 38,
      "▁tatil": 39,
      "▁&": 40,
      "▁havaalanı": 41,
      "▁yaklasık": 42,
      "▁davran": 43,
      "▁insanın": 44,
      "yet": 45,
      "▁alamadim": 46,
      "▁mi": 47,
      "elim": 48,
      "adel": 49,
      "▁ucuyor": 50,
      "▁anket": 51,
      "▁atlanta": 52,
      "1-19": 53,
      "▁pahaliydi": 54,
      "▁..\"": 55,
      "iyi": 56,
      "▁coz": 57,
      "▁urun": 58,
      "▁bulunan": 59,
      "▁guzel": 60,
      "▁ceyrek": 61,
      "▁mik": 62,
      "▁once": 63,
      "▁istem": 64,
      "▁iyice": 65,
      "▁sevgil": 66,
      "ed": 67,
      "▁onlar": 68,
      "▁sahip": 69,
      "▁gund": 70,
      "▁sec": 71,
      "▁gidiyor": 72,
      "▁ayrıl": 73,
      "▁soyluyor": 74,
      "▁devr": 75,
      "▁rehber": 76,
      "▁dogru": 77,
      "dıg": 78,
      "▁insanlar": 79,
      "▁air": 80,
      "▁tek": 81,
      "▁75": 82,
      "▁istik": 83,
      "sel": 84,
      "\\/8": 85,
      "▁otuz": 86,
      "▁kazan": 87,
      "onik": 88,
      "se": 89,
      "▁lo": 90,
      "▁niyet": 91,
      "▁hukum": 92,
      "▁hus": 93,
      "irim": 94,
      "▁tal": 95,
      "▁yasam": 96,
      "▁sebep": 97,
      "▁oysa": 98,
      "isim": 99,
      "▁%5": 100,
      "▁durdur": 101,
      "▁zor": 102,
      "▁um": 103,
      "gı": 104,
      "▁iliskin": 105,
      "▁personel": 106,
      "digim": 107,
      "▁haldır": 108,
      "▁sog": 109,
      "unu": 110,
      "▁kendi": 111,
      "▁olar": 112,
      "ilen": 113,
      "uz": 114,
      "▁%0": 115,
      "▁baslıyor": 116,
      "▁otelden": 117,
      "▁bed": 118,
      "▁beri": 119,
      "▁sikinti": 120,
      "larda": 121,
      "▁bon": 122,
      "▁dog": 123,
      "larak": 124,
      "fa": 125,
      "anbul": 126,
      "▁pazar": 127,
      "teki": 128,
      "▁tavsiye": 129,
      "▁parca": 130,
      "▁baglan": 131,
      "▁23": 132,
      "d": 133,
      "▁red": 134,
      "a": 135,
      "digimiz": 136,
      "▁mot": 137,
      "▁kadın": 138,
      "ah": 139,
      "▁obu": 140,
      "ac": 141,
      "▁verir": 142,
      "▁siddet": 143,
      "▁degilim": 144,
      "▁cak": 145,
      "▁fark": 146,
      "▁nakit": 147,
      "▁22-23": 148,
      "▁per": 149,
      "▁olc": 150,
      "▁kır": 151,
      "ası": 152,
      "▁has": 153,
      "▁ayni": 154,
      "▁konum": 155,
      "sun": 156,
      "pr": 157,
      "alarla": 158,
      "ıpıs": 159,
      "▁end": 160,
      "▁cinc": 161,
      "▁beni": 162,
      "▁olacak": 163,
      "liyor": 164,
      "▁1.6": 165,
      "▁ekonomi": 166,
      "▁t": 167,
      "▁bilin": 168,
      "ısı": 169,
      "▁lezzet": 170,
      "▁yamalak": 171,
      "▁hemen": 172,
      "▁edil": 173,
      "▁%1": 174,
      "iyak": 175,
      "▁nedeniyle": 176,
      "▁odamiz": 177,
      "▁yuzunden": 178,
      "elen": 179,
      "miyorum": 180,
      "orta": 181,
      ",": 182,
      "▁odam": 183,
      "tılı": 184,
      "▁zay": 185,
      "▁70": 186,
      "▁ayak": 187,
      "▁oakland'dan": 188,
      "▁60": 189,
      "▁sorunu": 190,
      "▁birinde": 191,
      "▁aldıgı": 192,
      "▁muhtem": 193,
      "obil": 194,
      "▁duk": 195,
      "▁beye": 196,
      "▁siyah": 197,
      "+": 198,
      "▁muhtesem": 199,
      "▁mit": 200,
      "▁tut": 201,
      "em": 202,
      "larından": 203,
      "▁mektup": 204,
      "▁tem": 205,
      "▁gi": 206,
      "▁dagıt": 207,
      "rek": 208,
      "▁`": 209,
      "▁bakıyor": 210,
      "▁ez": 211,
      "ti": 212,
      "▁ziy": 213,
      "▁chicago'dan": 214,
      "▁tı": 215,
      "fi": 216,
      "all": 217,
      "dıgını": 218,
      "tır": 219,
      "▁yerel": 220,
      "▁kims": 221,
      "▁der": 222,
      "arken": 223,
      "▁rec": 224,
      "▁saldır": 225,
      "▁iddia": 226,
      "yıl": 227,
      "▁dogu": 228,
      "6": 229,
      "▁yemek": 230,
      "▁yarım": 231,
      "▁gelmis": 232,
      "▁goster": 233,
      "'nun": 234,
      "▁onumuzdeki": 235,
      "dın": 236,
      "▁olmus": 237,
      "▁degiller": 238,
      "dim": 239,
      "▁bek": 240,
      "'ye": 241,
      "ef": 242,
      "▁agz": 243,
      "ost": 244,
      "ash": 245,
      "▁aynı": 246,
      "▁havaalan": 247,
      "▁guven": 248,
      "▁onune": 249,
      "▁fot": 250,
      "per": 251,
      "▁paul": 252,
      "▁must": 253,
      "▁bircok": 254,
      "▁agustos": 255,
      "'dan": 256,
      "▁yatırımcı": 257,
      "▁yım": 258,
      "laka": 259,
      "▁seyi": 260,
      "dum": 261,
      "gu": 262,
      "▁ov": 263,
      "▁meydan": 264,
      "leket": 265,
      "▁merk": 266,
      "▁ince": 267,
      "anlar": 268,
      "▁international": 269,
      "▁mayıs": 270,
      "▁kis": 271,
      "-19": 272,
      "▁g": 273,
      "lerle": 274,
      "▁ey": 275,
      "urken": 276,
      "kat": 277,
      "alardan": 278,
      "dık": 279,
      "▁bagım": 280,
      "▁dısında": 281,
      "▁li": 282,
      "▁kac": 283,
      "▁buyuk": 284,
      "▁temizdi": 285,
      "▁%7": 286,
      "ogram": 287,
      "▁analist": 288,
      "▁yun": 289,
      "▁neden": 290,
      "▁guney": 291,
      "lass": 292,
      "▁veren": 293,
      "asır": 294,
      "▁kadar": 295,
      "▁dı": 296,
      "ıkır": 297,
      "ladı": 298,
      "▁yalnızca": 299,
      "iss": 300,
      "▁zayıf": 301,
      "▁kahv": 302,
      "isini": 303,
      "▁bazen": 304,
      "▁tanı": 305,
      "likte": 306,
      "▁borsası": 307,
      "ide": 308,
      "▁,": 309,
      "▁test": 310,
      "elerden": 311,
      "▁gotur": 312,
      "▁basında": 313,
      "▁yuksek": 314,
      "▁seyler": 315,
      "ıp": 316,
      "▁cumartesi": 317,
      "▁...\"": 318,
      "▁wall": 319,
      "▁denver'den": 320,
      "▁ker": 321,
      "▁milwa": 322,
      "▁tık": 323,
      "ket": 324,
      "▁beraber": 325,
      "▁an": 326,
      "▁okul": 327,
      "eli": 328,
      "utur": 329,
      "▁simdi": 330,
      "▁kah": 331,
      "ap": 332,
      "▁198": 333,
      "▁madd": 334,
      "egini": 335,
      "agı": 336,
      "ot": 337,
      "▁amerikan": 338,
      "▁tit": 339,
      "▁surec": 340,
      "▁yasak": 341,
      "▁angel": 342,
      "▁kalitesi": 343,
      "▁nokt": 344,
      "uru": 345,
      "▁hukuk": 346,
      "▁otomobil": 347,
      "emiz": 348,
      "▁tanım": 349,
      "▁pah": 350,
      "▁yine": 351,
      "ak": 352,
      "eler": 353,
      "▁oner": 354,
      "▁ucretin": 355,
      "▁dost": 356,
      "amak": 357,
      "cısı": 358,
      "▁insan": 359,
      "▁vat": 360,
      "of": 361,
      "▁anne": 362,
      "▁yıldız": 363,
      "erken": 364,
      "▁fir": 365,
      "▁odaydi": 366,
      "li": 367,
      "indeki": 368,
      "▁ver": 369,
      "abilir": 370,
      "▁muht": 371,
      "lig": 372,
      "la": 373,
      "▁ya": 374,
      "▁dustu": 375,
      "▁gunu": 376,
      "▁haber": 377,
      "▁olabil": 378,
      "meler": 379,
      "▁sonuc": 380,
      "ustr": 381,
      "alanı": 382,
      "▁calısma": 383,
      "▁mali": 384,
      "iniz": 385,
      "▁birbirler": 386,
      "▁imz": 387,
      "▁aktif": 388,
      "▁sol": 389,
      "▁baltimore'den": 390,
      "ukee": 391,
      "ili": 392,
      "▁hafta": 393,
      "▁kes": 394,
      "▁ugr": 395,
      "▁pitt": 396,
      ">": 397,
      "▁yaptıgı": 398,
      "▁fut": 399,
      "▁kapsam": 400,
      "▁kural": 401,
      "▁zev": 402,
      "r": 403,
      "▁but": 404,
      "▁kuzey": 405,
      "▁not": 406,
      "▁gun": 407,
      "▁onunla": 408,
      "lara": 409,
      "▁genc": 410,
      "▁bolg": 411,
      "▁salı": 412,
      "▁cekti": 413,
      "▁dayan": 414,
      "▁oranı": 415,
      "lamıs": 416,
      "lenen": 417,
      "▁mıs": 418,
      "▁bizi": 419,
      "▁profes": 420,
      "5-1": 421,
      "▁edi": 422,
      "▁bicim": 423,
      "▁bizler": 424,
      "▁po": 425,
      "▁aylık": 426,
      "”": 427,
      "▁ettim": 428,
      "▁yapı": 429,
      "▁olabilirdi": 430,
      "uluyor": 431,
      "▁indian": 432,
      "▁birin": 433,
      "ildi": 434,
      "alarına": 435,
      "▁hisse": 436,
      "▁zaten": 437,
      "elik": 438,
      "▁kurulus": 439,
      "isiz": 440,
      "enler": 441,
      "▁ilisk": 442,
      "lar": 443,
      "▁kalın": 444,
      "▁artıs": 445,
      "'den": 446,
      "mis": 447,
      "ij": 448,
      "duk": 449,
      "▁durum": 450,
      "▁ets": 451,
      "▁iddi": 452,
      "▁yukseldi": 453,
      "acagım": 454,
      "▁s": 455,
      "-4": 456,
      "4": 457,
      "ır": 458,
      "ums": 459,
      "▁zevk": 460,
      "omur": 461,
      "▁st": 462,
      "▁ucrete": 463,
      "ka": 464,
      "▁personeller": 465,
      "▁bası": 466,
      "▁fabrik": 467,
      "▁ticaret": 468,
      "▁turkiye": 469,
      "▁banka": 470,
      "att": 471,
      "▁bun": 472,
      "▁tatlı": 473,
      "ci": 474,
      "▁baskı": 475,
      "▁hal": 476,
      "▁reh": 477,
      "ok": 478,
      "▁durgun": 479,
      "▁ref": 480,
      "▁1.8": 481,
      "▁am": 482,
      "▁ile": 483,
      "tı": 484,
      "▁el": 485,
      "for": 486,
      "ank": 487,
      "ılık": 488,
      "▁katıl": 489,
      "▁pa": 490,
      "ucuk": 491,
      "▁koy": 492,
      "eki": 493,
      "sin": 494,
      "ich": 495,
      "▁talep": 496,
      "▁siyas": 497,
      "arak": 498,
      "19": 499,
      "▁ip": 500,
      "▁ortam": 501,
      "'i": 502,
      "▁icin": 503,
      "▁sunları": 504,
      "▁cıkan": 505,
      "▁derec": 506,
      "▁dedi": 507,
      "esine": 508,
      "▁gal": 509,
      "▁ilgil": 510,
      "daki": 511,
      "▁denize": 512,
      "▁e": 513,
      "▁yetkil": 514,
      "▁etkil": 515,
      "lugun": 516,
      "▁fik": 517,
      "▁gorusuldu": 518,
      "▁dar": 519,
      "▁yuzu": 520,
      "▁ogretmen": 521,
      "▁mat": 522,
      "lam": 523,
      "▁yolu": 524,
      "ydi": 525,
      "ina": 526,
      "▁beb": 527,
      "ilm": 528,
      "▁bit": 529,
      "▁16": 530,
      "▁jones": 531,
      "▁ici": 532,
      "▁ten": 533,
      "▁ask": 534,
      "▁eger": 535,
      "▁ıs": 536,
      "▁sof": 537,
      "▁risk": 538,
      "▁miy": 539,
      "eb": 540,
      "▁im": 541,
      "yle": 542,
      "▁cevr": 543,
      "▁tiyat": 544,
      "larının": 545,
      "▁ihtiyar": 546,
      "▁ne": 547,
      ";": 548,
      "▁sı": 549,
      "ven": 550,
      "van": 551,
      "▁sınıf": 552,
      "evizyon": 553,
      "▁fon": 554,
      "▁tefek": 555,
      "▁dedim": 556,
      "▁nashville": 557,
      "▁%14": 558,
      "iler": 559,
      "oloj": 560,
      "'n": 561,
      "malar": 562,
      "▁kend": 563,
      "▁it": 564,
      "▁kam": 565,
      "▁yab": 566,
      "▁2": 567,
      "ugu": 568,
      "▁hatta": 569,
      "30": 570,
      "▁sonra": 571,
      "▁parc": 572,
      "▁buna": 573,
      "▁rus": 574,
      "▁kagıt": 575,
      "alarını": 576,
      "▁dolayi": 577,
      "▁1\\/2": 578,
      "alı": 579,
      "apolis": 580,
      "ekli": 581,
      "amadı": 582,
      "▁gormek": 583,
      "▁film": 584,
      "▁siy": 585,
      "▁yardimci": 586,
      "▁re": 587,
      "▁koyun": 588,
      "▁cesit": 589,
      "ilerin": 590,
      "adar": 591,
      "▁%30": 592,
      "▁ettigi": 593,
      "makta": 594,
      "▁sef": 595,
      "ilerini": 596,
      "▁ilgilendi": 597,
      "▁spor": 598,
      "tr": 599,
      "▁tekrar": 600,
      "▁odalar": 601,
      "lestir": 602,
      "▁ihr": 603,
      "▁ekim": 604,
      "▁nik": 605,
      "gini": 606,
      "▁cif": 607,
      "▁kıymet": 608,
      "aber": 609,
      "▁mec": 610,
      "▁tip": 611,
      "▁!": 612,
      "ess": 613,
      "▁merak": 614,
      "▁197": 615,
      "▁fık": 616,
      "istik": 617,
      "▁japon": 618,
      "▁gordum": 619,
      "▁adı": 620,
      "▁kanı": 621,
      "▁tarih": 622,
      "▁piyas": 623,
      "▁inc.": 624,
      "um": 625,
      "▁belirt": 626,
      "▁bununla": 627,
      "alarında": 628,
      "▁proj": 629,
      "▁1\\/": 630,
      "▁benimle": 631,
      "▁kanun": 632,
      "siz": 633,
      "▁eglen": 634,
      "▁odedigim": 635,
      "emem": 636,
      "▁soyle": 637,
      "▁ikib": 638,
      "$": 639,
      "▁sır": 640,
      "9": 641,
      "▁ert": 642,
      "▁donem": 643,
      "alıgı": 644,
      "▁yasan": 645,
      "▁th": 646,
      "▁tekn": 647,
      "ba": 648,
      "eket": 649,
      "▁yılın": 650,
      "asız": 651,
      "▁cent": 652,
      "▁dallas'a": 653,
      "▁gev": 654,
      "▁diz": 655,
      "rol": 656,
      "▁etmek": 657,
      "▁mısıl": 658,
      "mistir": 659,
      "▁tiril": 660,
      "▁at": 661,
      "▁kez": 662,
      "▁gid": 663,
      "▁ep": 664,
      "▁bah": 665,
      "▁%4.8": 666,
      "▁dik": 667,
      "acagı": 668,
      "▁milli": 669,
      "▁uluslararası": 670,
      "▁kampanyalar": 671,
      "▁karsısında": 672,
      "tık": 673,
      "mel": 674,
      "▁ait": 675,
      "ihaz": 676,
      "▁reddetti": 677,
      "▁persembe": 678,
      "'ın": 679,
      "let": 680,
      "misler": 681,
      "▁hastalık": 682,
      "ane": 683,
      "likle": 684,
      "▁ucuz": 685,
      "▁mu": 686,
      "▁kaf": 687,
      "▁kayb": 688,
      "▁tesis": 689,
      "▁yaptirmadim": 690,
      ".0": 691,
      "-2": 692,
      "▁davet": 693,
      "larıyla": 694,
      "▁huk": 695,
      "▁hisseleri": 696,
      "▁reklam": 697,
      "'te": 698,
      "alarının": 699,
      "▁co": 700,
      "gumuz": 701,
      "▁girisim": 702,
      "▁yetersiz": 703,
      "▁kap": 704,
      "▁kalan": 705,
      "▁charl": 706,
      "▁sist": 707,
      "▁sut": 708,
      "ruk": 709,
      "▁yeterli": 710,
      "▁cen": 711,
      "len": 712,
      "▁deger": 713,
      "inci": 714,
      "▁\"": 715,
      "ırı": 716,
      "▁tuk": 717,
      "▁gitmek": 718,
      "▁yahut": 719,
      "▁halen": 720,
      "ver": 721,
      "▁yalnız": 722,
      "ecegim": 723,
      "▁dogrudan": 724,
      "▁avuk": 725,
      "▁bey": 726,
      "▁soru": 727,
      "▁ti": 728,
      "▁yaptirdi": 729,
      "[SEP]": 730,
      "▁mer": 731,
      "▁bat": 732,
      "1": 733,
      "▁ur": 734,
      "▁tercih": 735,
      "masını": 736,
      "▁vegas": 737,
      "▁zamanlar": 738,
      "▁ok": 739,
      "▁lez": 740,
      "lıgı": 741,
      "▁ef": 742,
      "▁peyn": 743,
      "gmen": 744,
      "▁icer": 745,
      "▁sınıfı": 746,
      "▁cuma": 747,
      "▁konusunda": 748,
      "▁29": 749,
      "▁doları'na": 750,
      "medim": 751,
      "▁benz": 752,
      "▁problem": 753,
      "▁guvenlik": 754,
      "▁kırık": 755,
      "▁kuvvet": 756,
      "al": 757,
      "ufur": 758,
      "etir": 759,
      "▁sıkır": 760,
      "▁aktar": 761,
      "`": 762,
      "▁havuz": 763,
      "▁tok": 764,
      "▁bilgisayar": 765,
      "▁uygul": 766,
      "'ta": 767,
      "▁alır": 768,
      "▁he": 769,
      "▁denver'e": 770,
      "▁temsil": 771,
      "▁sana": 772,
      "▁nere": 773,
      "ika": 774,
      "aydı": 775,
      "▁nedir": 776,
      "▁hay": 777,
      "lıyor": 778,
      "▁kısm": 779,
      "▁gercek": 780,
      "lan": 781,
      "▁sent": 782,
      "▁fakat": 783,
      "▁lok": 784,
      "ec": 785,
      "ens": 786,
      "▁sefer": 787,
      "▁ruz": 788,
      "▁ba": 789,
      "▁49": 790,
      "cuk": 791,
      "▁benden": 792,
      "▁gorunce": 793,
      "▁vegas'a": 794,
      "iski": 795,
      "▁v": 796,
      "▁ilgilendiler": 797,
      "kur": 798,
      "uk": 799,
      "▁yonet": 800,
      "de": 801,
      "ede": 802,
      "▁dusus": 803,
      "ebilir": 804,
      "▁hac": 805,
      "▁ark": 806,
      "▁begenmedim": 807,
      "amıyor": 808,
      "▁du": 809,
      "unuyor": 810,
      "azım": 811,
      "▁%3": 812,
      "▁biri": 813,
      "▁contin": 814,
      "▁beyle": 815,
      "ılıyor": 816,
      "▁kendilerine": 817,
      "lerinin": 818,
      "tu": 819,
      "▁etme": 820,
      "bul": 821,
      "▁fer": 822,
      "iv": 823,
      "▁col": 824,
      "▁gok": 825,
      "▁etmeye": 826,
      "▁yardımcı": 827,
      "▁hedef": 828,
      "ise": 829,
      ".9": 830,
      "▁ideal": 831,
      "3": 832,
      "▁rakam": 833,
      "▁ondan": 834,
      "▁beklen": 835,
      "aları": 836,
      "le": 837,
      "▁calis": 838,
      "▁mıydı": 839,
      "▁ederiz": 840,
      "▁kalp": 841,
      "hal": 842,
      "ar": 843,
      "▁rak": 844,
      "an": 845,
      "▁phoeni": 846,
      "▁kendilerini": 847,
      "▁islet": 848,
      "▁gidis": 849,
      "▁sınır": 850,
      "▁dukkan": 851,
      "▁tane": 852,
      "ayet": 853,
      "▁azdi": 854,
      "▁mı": 855,
      "▁ist": 856,
      "esinde": 857,
      "▁bel": 858,
      "▁enf": 859,
      "▁kisisel": 860,
      "▁patır": 861,
      "▁newark": 862,
      "▁cag": 863,
      "ılması": 864,
      "▁altı": 865,
      "▁ucak": 866,
      "▁ilgiliydi": 867,
      "ılacak": 868,
      "▁isletme": 869,
      "ısıyla": 870,
      "ulu": 871,
      "▁hala": 872,
      "aket": 873,
      "(": 874,
      "ladım": 875,
      "▁yuv": 876,
      "..": 877,
      "▁di": 878,
      "▁havuzu": 879,
      "gar": 880,
      "▁gibi": 881,
      "▁belli": 882,
      "▁say": 883,
      "cok": 884,
      "tere": 885,
      "ına": 886,
      "▁af": 887,
      "medi": 888,
      "▁aktarmalı": 889,
      "ku": 890,
      "▁vucu": 891,
      "▁istedi": 892,
      "▁24": 893,
      "usu": 894,
      "▁karayol": 895,
      "▁halde": 896,
      "▁seyr": 897,
      "▁kendine": 898,
      "▁onceden": 899,
      "▁43": 900,
      "▁rezervasyon": 901,
      "▁istiyor": 902,
      "▁lu": 903,
      "yn": 904,
      "▁oyun": 905,
      "▁farklı": 906,
      "han": 907,
      "▁gon": 908,
      "g": 909,
      "uma": 910,
      "lli": 911,
      "acagız": 912,
      "negin": 913,
      "▁yerinde": 914,
      "lı": 915,
      "▁galib": 916,
      "▁kay": 917,
      "▁kız": 918,
      "▁dısarı": 919,
      "siye": 920,
      "ily": 921,
      "▁yan": 922,
      "▁se": 923,
      "▁balık": 924,
      "▁bilir": 925,
      "▁kıyas": 926,
      "k": 927,
      "▁sez": 928,
      "▁futbol": 929,
      "▁peki": 930,
      "▁fıkı": 931,
      "▁teklif": 932,
      "▁cıkmıs": 933,
      "ard": 934,
      "ong": 935,
      "▁guzeldi": 936,
      "▁1989-8": 937,
      "ent": 938,
      "ımda": 939,
      "▁dak": 940,
      "ici": 941,
      "▁sap": 942,
      "▁washington'a": 943,
      "▁mavi": 944,
      "▁5-1": 945,
      "ay": 946,
      "▁ihtiy": 947,
      "ru": 948,
      "▁alabilir": 949,
      "▁bir": 950,
      "▁hizmet": 951,
      "▁17": 952,
      "▁ogle": 953,
      "ize": 954,
      "▁bilg": 955,
      "▁si": 956,
      "▁sorun": 957,
      "▁soz": 958,
      "uy": 959,
      "▁operasyon": 960,
      "▁los": 961,
      "▁il": 962,
      "ılı": 963,
      "▁tel": 964,
      "▁kaliteli": 965,
      "▁dava": 966,
      "ilig": 967,
      "onelik": 968,
      "▁pas": 969,
      "▁coc": 970,
      "▁oakland": 971,
      "lanıyor": 972,
      "▁ekip": 973,
      "▁yog": 974,
      "▁os": 975,
      "▁agac": 976,
      "▁uyum": 977,
      "▁aileler": 978,
      "/": 979,
      "▁onc": 980,
      "▁48": 981,
      "▁ol": 982,
      "▁ben": 983,
      "▁yal": 984,
      "▁konut": 985,
      "ene": 986,
      "▁otelin": 987,
      "▁21:00-22:30": 988,
      "muyor": 989,
      "▁rapor": 990,
      "▁duygu": 991,
      "▁sona": 992,
      "▁em": 993,
      "▁bu": 994,
      "▁oldu": 995,
      "su": 996,
      "▁sekiz": 997,
      "▁hadi": 998,
      "▁hat": 999,
      "▁geri": 1000,
      "▁olur": 1001,
      "▁yonelik": 1002,
      "▁uc": 1003,
      "▁hangileri": 1004,
      "▁onun": 1005,
      "▁konak": 1006,
      "▁yuksel": 1007,
      "iye": 1008,
      "▁gelis": 1009,
      "▁arttı": 1010,
      "▁dokuz": 1011,
      "gil": 1012,
      "▁mul": 1013,
      "▁geril": 1014,
      "▁saglık": 1015,
      "▁ortaya": 1016,
      "aba": 1017,
      "▁harıl": 1018,
      "▁ataturk": 1019,
      "layıp": 1020,
      "▁kapandı": 1021,
      "▁katil": 1022,
      "ege": 1023,
      "▁fazla": 1024,
      "▁rekabet": 1025,
      "▁duz": 1026,
      "u": 1027,
      "gimiz": 1028,
      "▁tahvil": 1029,
      ".000": 1030,
      "▁yık": 1031,
      "▁kalite": 1032,
      "oh": 1033,
      "▁gitti": 1034,
      "tuk": 1035,
      "▁menkul": 1036,
      "h": 1037,
      "▁kullanmadim": 1038,
      "▁mez": 1039,
      "'nde": 1040,
      "oma": 1041,
      "▁milwaukee'ye": 1042,
      "▁ongor": 1043,
      "▁zar": 1044,
      "▁olum": 1045,
      "▁egitim": 1046,
      "▁olduguna": 1047,
      "▁dısı": 1048,
      "▁chic": 1049,
      "▁hem": 1050,
      "▁phil": 1051,
      "▁": 1052,
      "▁yapmak": 1053,
      "▁tur": 1054,
      "une": 1055,
      "lerinde": 1056,
      "▁harik": 1057,
      "▁ettik": 1058,
      "▁toplum": 1059,
      "▁uy": 1060,
      "▁cor": 1061,
      "▁mac": 1062,
      "▁havayolu": 1063,
      "▁kısı": 1064,
      "▁puan": 1065,
      "▁izin": 1066,
      "▁yel": 1067,
      "lıgını": 1068,
      "▁dep": 1069,
      "▁%6.90": 1070,
      "▁isi": 1071,
      "▁fingir": 1072,
      "▁kotu": 1073,
      "▁suy": 1074,
      "▁koltuk": 1075,
      "cut": 1076,
      "■": 1077,
      "▁bekledi": 1078,
      "▁dolu": 1079,
      "▁kad": 1080,
      "▁kayı": 1081,
      "oj": 1082,
      "▁arab": 1083,
      "tin": 1084,
      "▁artık": 1085,
      "▁arada": 1086,
      "▁gayet": 1087,
      "▁or": 1088,
      ".8": 1089,
      "▁degil": 1090,
      "▁son": 1091,
      "▁basarılı": 1092,
      "lo": 1093,
      "gi": 1094,
      "▁rez": 1095,
      "ara": 1096,
      "n": 1097,
      "▁dus": 1098,
      "ni": 1099,
      "▁kacın": 1100,
      "▁emin": 1101,
      "▁ailelere": 1102,
      "▁azalt": 1103,
      "▁fıkır": 1104,
      "az": 1105,
      "lere": 1106,
      "▁atlanta'dan": 1107,
      "▁fıs": 1108,
      "▁elli": 1109,
      "▁kat": 1110,
      "▁ila": 1111,
      "ig": 1112,
      "ısır": 1113,
      "▁agız": 1114,
      "▁h": 1115,
      "▁olmayan": 1116,
      "▁ulk": 1117,
      "enek": 1118,
      "gis": 1119,
      "▁fas": 1120,
      "ustos": 1121,
      "▁$": 1122,
      "▁fiyati": 1123,
      "uyle": 1124,
      "▁basit": 1125,
      "▁hazır": 1126,
      "ıng": 1127,
      "▁acıkladı": 1128,
      "▁yans": 1129,
      "▁pay": 1130,
      "▁acisindan": 1131,
      "p": 1132,
      "adaki": 1133,
      "lası": 1134,
      "du": 1135,
      "ugun": 1136,
      "[MASK]": 1137,
      "ro": 1138,
      "sunuz": 1139,
      "asyon": 1140,
      "asını": 1141,
      "ator": 1142,
      "▁sahn": 1143,
      "▁ettiler": 1144,
      "▁fil": 1145,
      "▁verdigim": 1146,
      "lul": 1147,
      "▁kadınlar": 1148,
      "dig": 1149,
      "ing": 1150,
      "▁seviyesine": 1151,
      "may": 1152,
      "▁bilet": 1153,
      "▁bulmak": 1154,
      "▁idi": 1155,
      "▁gar": 1156,
      "▁.)": 1157,
      "▁soy": 1158,
      "onu": 1159,
      "▁hol": 1160,
      "mustur": 1161,
      "▁bahc": 1162,
      "a'nın": 1163,
      "▁port": 1164,
      "▁ufak": 1165,
      "▁ders": 1166,
      "▁haziran": 1167,
      "▁basını": 1168,
      "▁yemeklerinden": 1169,
      "▁kisi": 1170,
      "sizlik": 1171,
      "▁sa": 1172,
      "▁teslim": 1173,
      "isten": 1174,
      "▁yuks": 1175,
      "▁eksik": 1176,
      "vıl": 1177,
      "uzel": 1178,
      "west": 1179,
      "▁kontrol": 1180,
      "▁konfor": 1181,
      "▁bush": 1182,
      "▁kul": 1183,
      "▁francisco'dan": 1184,
      "▁bakan": 1185,
      "▁89-": 1186,
      "▁degilse": 1187,
      "tif": 1188,
      "▁herkes": 1189,
      "ol": 1190,
      "esinden": 1191,
      "▁boston": 1192,
      "▁anad": 1193,
      "▁ev": 1194,
      "▁normaldi": 1195,
      "▁ifade": 1196,
      "▁duy": 1197,
      "▁ediyor": 1198,
      "▁kampan": 1199,
      "lerce": 1200,
      "▁may": 1201,
      "▁%22": 1202,
      "▁huz": 1203,
      "▁feder": 1204,
      "▁tep": 1205,
      "▁haz": 1206,
      "▁ancak": 1207,
      "▁pan": 1208,
      "▁oyn": 1209,
      "▁fransız": 1210,
      "▁lut": 1211,
      "▁uzerinde": 1212,
      "▁yurut": 1213,
      "▁yuk": 1214,
      "om": 1215,
      "00": 1216,
      "▁aile": 1217,
      "▁sekil": 1218,
      "ger": 1219,
      "▁muz": 1220,
      "▁yaz": 1221,
      "▁ilgili": 1222,
      "▁(": 1223,
      "▁musta": 1224,
      "▁memur": 1225,
      "oglu": 1226,
      "▁ruh": 1227,
      "▁olcu": 1228,
      "▁olan": 1229,
      "▁1": 1230,
      "'ten": 1231,
      "aj": 1232,
      "▁milwaukee'den": 1233,
      "▁tesisti": 1234,
      "irdi": 1235,
      "isinde": 1236,
      "cak": 1237,
      "eder": 1238,
      "▁univ": 1239,
      "▁ab": 1240,
      "▁nih": 1241,
      "▁sorum": 1242,
      "▁dusuk": 1243,
      "▁evde": 1244,
      "unku": 1245,
      "▁%8": 1246,
      "eg": 1247,
      "▁ph": 1248,
      "▁birisi": 1249,
      "ham": 1250,
      "mıyor": 1251,
      "▁fiyatı": 1252,
      "▁bundan": 1253,
      "▁toprak": 1254,
      "▁icecek": 1255,
      "▁karıs": 1256,
      "▁asagı": 1257,
      "▁takip": 1258,
      "▁sin": 1259,
      "digi": 1260,
      "▁degistir": 1261,
      "arl": 1262,
      "ese": 1263,
      "▁day": 1264,
      "▁ele": 1265,
      "mesi": 1266,
      "f": 1267,
      "▁aslında": 1268,
      "▁cıyak": 1269,
      "▁olcude": 1270,
      "▁orlando'ya": 1271,
      "▁listeleyin": 1272,
      "▁pis": 1273,
      "men": 1274,
      "▁mur": 1275,
      "▁sac": 1276,
      "▁oakland'a": 1277,
      "▁kabul": 1278,
      "ılmaz": 1279,
      "ıyorlar": 1280,
      "▁soguk": 1281,
      "rik": 1282,
      "▁satıslar": 1283,
      "▁kalmadim": 1284,
      "ecegini": 1285,
      "▁fiyatları": 1286,
      "ayım": 1287,
      "▁asırı": 1288,
      "▁dunya": 1289,
      "▁su": 1290,
      "▁sanat": 1291,
      "ızı": 1292,
      "▁sip": 1293,
      "enk": 1294,
      "▁oteli": 1295,
      "ilir": 1296,
      "dek": 1297,
      "▁okum": 1298,
      "▁veririm": 1299,
      "▁tir": 1300,
      "▁grub": 1301,
      "“": 1302,
      "lek": 1303,
      "▁od": 1304,
      "▁insanların": 1305,
      "landı": 1306,
      "▁hav": 1307,
      "▁tor": 1308,
      "atik": 1309,
      "be": 1310,
      "din": 1311,
      "▁uzer": 1312,
      ":00-22:30": 1313,
      "ımızı": 1314,
      "ayan": 1315,
      "▁yuzden": 1316,
      "▁aydın": 1317,
      "lay": 1318,
      "▁hepsini": 1319,
      "lin": 1320,
      "▁--": 1321,
      "▁ilk": 1322,
      "uar": 1323,
      "▁gosteriyor": 1324,
      "eyin": 1325,
      "amay": 1326,
      "inden": 1327,
      "▁sade": 1328,
      "▁lutfen": 1329,
      "▁kan": 1330,
      "▁ihtiyacım": 1331,
      "▁..": 1332,
      "▁toplantı": 1333,
      "▁anlamda": 1334,
      "▁erken": 1335,
      "ilecek": 1336,
      "den": 1337,
      "▁uzan": 1338,
      "ice": 1339,
      "ch": 1340,
      "▁elinde": 1341,
      "▁gec": 1342,
      "▁yarı": 1343,
      "tik": 1344,
      "rum": 1345,
      "us": 1346,
      "▁washington'dan": 1347,
      "▁bost": 1348,
      "aların": 1349,
      "indan": 1350,
      "wa": 1351,
      "iy": 1352,
      "▁birim": 1353,
      "▁%13": 1354,
      "sen": 1355,
      "▁finans": 1356,
      "ya": 1357,
      "▁mus": 1358,
      "▁onların": 1359,
      "▁derli": 1360,
      "▁ic": 1361,
      "▁beklem": 1362,
      "▁indi": 1363,
      "▁sirketler": 1364,
      "▁herhangi": 1365,
      "▁mc": 1366,
      "▁hesap": 1367,
      "isler": 1368,
      "▁yuzde": 1369,
      "▁pıtır": 1370,
      "ga": 1371,
      "egi": 1372,
      "​": 1373,
      "▁kredi": 1374,
      "▁cab": 1375,
      "tılar": 1376,
      "▁aks": 1377,
      "ill": 1378,
      "▁12": 1379,
      "ud": 1380,
      "▁buldum": 1381,
      "▁a": 1382,
      "▁goruyor": 1383,
      "e": 1384,
      "▁han": 1385,
      "ayol": 1386,
      "isk": 1387,
      "▁fay": 1388,
      "▁sirket": 1389,
      "▁har": 1390,
      "▁mum": 1391,
      "▁vakit": 1392,
      "agın": 1393,
      "▁sipar": 1394,
      "▁oyuncu": 1395,
      "▁oldugu": 1396,
      "▁bekliyor": 1397,
      "▁kullan": 1398,
      "▁sıcak": 1399,
      "▁personelleri": 1400,
      "▁hak": 1401,
      "▁tır": 1402,
      "▁yeni": 1403,
      "isyon": 1404,
      "ke": 1405,
      "8": 1406,
      "▁giz": 1407,
      "▁hepimiz": 1408,
      "▁tim": 1409,
      "manın": 1410,
      "▁ah": 1411,
      "ha": 1412,
      "uf": 1413,
      "mıstır": 1414,
      "▁onemli": 1415,
      "nek": 1416,
      "mayı": 1417,
      "▁8": 1418,
      "▁%25": 1419,
      "abet": 1420,
      "▁zengin": 1421,
      "▁verdigi": 1422,
      "▁key": 1423,
      "▁:": 1424,
      "▁ceb": 1425,
      "▁r": 1426,
      "sak": 1427,
      "ce": 1428,
      "▁mir": 1429,
      "y": 1430,
      "▁olanaklari": 1431,
      "orn": 1432,
      "▁desik": 1433,
      "▁ucusu": 1434,
      "▁37": 1435,
      "ekler": 1436,
      "▁birka": 1437,
      "▁gorus": 1438,
      "▁yildiz": 1439,
      "▁tav": 1440,
      "▁ner": 1441,
      "▁magaz": 1442,
      "▁fort": 1443,
      "▁gay": 1444,
      "et": 1445,
      "▁hukumet": 1446,
      "▁birbirine": 1447,
      "iliyor": 1448,
      "▁egil": 1449,
      "▁yar": 1450,
      "yak": 1451,
      "▁umut": 1452,
      "▁eg": 1453,
      "ational": 1454,
      "▁renk": 1455,
      "ıs": 1456,
      "▁telef": 1457,
      "▁sp": 1458,
      "▁gelecek": 1459,
      ")": 1460,
      "▁roman": 1461,
      "▁ail": 1462,
      "▁eks": 1463,
      "▁ban": 1464,
      "▁so": 1465,
      "ıcı": 1466,
      "mayan": 1467,
      "▁esk": 1468,
      "▁nisan": 1469,
      "▁veriyorum": 1470,
      "▁vermek": 1471,
      "▁le": 1472,
      "ulan": 1473,
      "▁sub": 1474,
      "larla": 1475,
      "layacak": 1476,
      "aturk": 1477,
      "▁dahi": 1478,
      "ustuk": 1479,
      "▁l": 1480,
      "▁cid": 1481,
      "sızlık": 1482,
      "▁degildir": 1483,
      "ye": 1484,
      "arında": 1485,
      "▁er": 1486,
      "▁gunluk": 1487,
      "▁ilac": 1488,
      "▁y": 1489,
      "▁kotuydu": 1490,
      "▁ki": 1491,
      "▁38": 1492,
      "im": 1493,
      "cı": 1494,
      "eceg": 1495,
      "veland": 1496,
      "aga": 1497,
      "▁muh": 1498,
      "▁kuc": 1499,
      "▁olay": 1500,
      "▁imkanlari": 1501,
      "▁avrup": 1502,
      "▁gereken": 1503,
      "▁av": 1504,
      "kun": 1505,
      "raf": 1506,
      "▁en": 1507,
      "adan": 1508,
      "▁faaliyet": 1509,
      "▁turlu": 1510,
      "▁pat": 1511,
      "dog": 1512,
      "▁sonraki": 1513,
      "▁yav": 1514,
      "ydı": 1515,
      "–": 1516,
      "abı": 1517,
      "▁kit": 1518,
      "0'": 1519,
      "5": 1520,
      "emez": 1521,
      "sız": 1522,
      "▁aj": 1523,
      "▁50": 1524,
      "kuz": 1525,
      "▁uzerine": 1526,
      "▁adeta": 1527,
      "▁birden": 1528,
      "▁sessiz": 1529,
      "▁in": 1530,
      "▁rap": 1531,
      "larım": 1532,
      "▁%8.2": 1533,
      "acagını": 1534,
      "▁miyim": 1535,
      "▁yildi": 1536,
      "gul": 1537,
      "aliydi": 1538,
      "▁acık": 1539,
      "eh": 1540,
      "elerinde": 1541,
      "ast": 1542,
      "▁etmem": 1543,
      "▁deniz": 1544,
      "▁kapan": 1545,
      "▁fi": 1546,
      "▁wash": 1547,
      "▁baba": 1548,
      "unde": 1549,
      "umus": 1550,
      "▁kot": 1551,
      "alık": 1552,
      "▁ulasım": 1553,
      "ung": 1554,
      ".2": 1555,
      "▁bunu": 1556,
      "▁eki": 1557,
      "▁tamam": 1558,
      "▁zen": 1559,
      "▁akl": 1560,
      "er": 1561,
      "unda": 1562,
      "rak": 1563,
      "▁tah": 1564,
      "▁servis": 1565,
      "▁takım": 1566,
      "▁anlas": 1567,
      "▁%3.1": 1568,
      "▁haval": 1569,
      "lerin": 1570,
      "▁hangi": 1571,
      "▁telefonla": 1572,
      "▁anim": 1573,
      "▁karar": 1574,
      "▁dil": 1575,
      "▁meh": 1576,
      "▁dunyanın": 1577,
      "aya": 1578,
      "▁alıp": 1579,
      "▁tez": 1580,
      "anc": 1581,
      "uston": 1582,
      "▁heyec": 1583,
      "▁seyahat": 1584,
      "istan": 1585,
      "▁olus": 1586,
      "tir": 1587,
      "agan": 1588,
      "▁avukat": 1589,
      "▁yagmur": 1590,
      "▁dc": 1591,
      "▁de": 1592,
      "▁tım": 1593,
      "▁onumuz": 1594,
      "▁hasta": 1595,
      "▁is": 1596,
      "▁olma": 1597,
      "▁calisanlar": 1598,
      "▁uzun": 1599,
      "ic": 1600,
      "▁kans": 1601,
      "▁ide": 1602,
      "▁kendin": 1603,
      "asyonu": 1604,
      "▁saat": 1605,
      "asında": 1606,
      "▁mahkem": 1607,
      "▁ediyoruz": 1608,
      "atif": 1609,
      "oz": 1610,
      "▁lim": 1611,
      "▁carp": 1612,
      "egin": 1613,
      "▁bunlardan": 1614,
      "▁bar": 1615,
      "mayacak": 1616,
      "▁insaat": 1617,
      "▁fa": 1618,
      "egen": 1619,
      "▁rom": 1620,
      "▁gog": 1621,
      "▁1/4": 1622,
      "▁kel": 1623,
      "maz": 1624,
      "▁fin": 1625,
      "▁isk": 1626,
      "ilere": 1627,
      "cu": 1628,
      "ele": 1629,
      "▁yorgun": 1630,
      "▁f": 1631,
      "ala": 1632,
      "▁yapmaya": 1633,
      "les": 1634,
      "gum": 1635,
      "▁bolum": 1636,
      "▁ileri": 1637,
      "izi": 1638,
      "▁%4": 1639,
      "tre": 1640,
      "▁yardim": 1641,
      "▁bos": 1642,
      "▁arz": 1643,
      "lıga": 1644,
      "▁sart": 1645,
      "atır": 1646,
      "▁bildirdi": 1647,
      "tern": 1648,
      "▁dallas'tan": 1649,
      "pıs": 1650,
      "▁kons": 1651,
      "oeni": 1652,
      "▁yapılacak": 1653,
      "▁sig": 1654,
      "▁mısın": 1655,
      "▁etmis": 1656,
      "▁ozgur": 1657,
      "'yi": 1658,
      "▁cek": 1659,
      "elerde": 1660,
      "dıgım": 1661,
      "sik": 1662,
      "▁-": 1663,
      "▁istemiyorum": 1664,
      "z": 1665,
      "▁giy": 1666,
      "▁hanim": 1667,
      "og": 1668,
      "gin": 1669,
      "▁1.3": 1670,
      "▁dun": 1671,
      "▁hava": 1672,
      "▁yet": 1673,
      "acı": 1674,
      "▁doldur": 1675,
      "▁ch": 1676,
      "▁sene": 1677,
      "'a": 1678,
      "yo": 1679,
      "bar": 1680,
      "▁washington": 1681,
      "etin": 1682,
      "▁%99": 1683,
      "▁misin": 1684,
      "▁ihtiyac": 1685,
      "tigi": 1686,
      "elerin": 1687,
      "▁memnun": 1688,
      "▁sah": 1689,
      "▁ann": 1690,
      "▁ucuslar": 1691,
      "eyen": 1692,
      "▁uz": 1693,
      "▁cocuklar": 1694,
      "▁tat": 1695,
      "unuz": 1696,
      "▁biliyor": 1697,
      "b": 1698,
      "ya'nın": 1699,
      "▁sırada": 1700,
      "lım": 1701,
      "▁seh": 1702,
      "▁car": 1703,
      "▁yasında": 1704,
      "86": 1705,
      "▁dow": 1706,
      "▁duruyor": 1707,
      "ant": 1708,
      "▁derg": 1709,
      "▁buy": 1710,
      "layarak": 1711,
      "▁lak": 1712,
      "▁yana": 1713,
      "ont": 1714,
      "▁kısa": 1715,
      "▁oc": 1716,
      "▁zorunda": 1717,
      "ton": 1718,
      "ustur": 1719,
      "▁ekmek": 1720,
      "mer": 1721,
      "▁mutlu": 1722,
      "▁kesinlikle": 1723,
      "▁yam": 1724,
      "▁koca": 1725,
      "▁ayrıca": 1726,
      "▁etm": 1727,
      "▁bekleniyor": 1728,
      "ki": 1729,
      "▁fab": 1730,
      "mıstı": 1731,
      "—": 1732,
      "▁dusuktu": 1733,
      "▁sh": 1734,
      "▁ilgilen": 1735,
      "sı": 1736,
      "tak": 1737,
      "▁arastır": 1738,
      "'yı": 1739,
      "▁ac": 1740,
      "▁lezzeti": 1741,
      "iya": 1742,
      "▁yonetim": 1743,
      "▁dis": 1744,
      "▁bus": 1745,
      "lendir": 1746,
      "▁isin": 1747,
      "▁kalkan": 1748,
      "▁top": 1749,
      "▁devlet": 1750,
      "gın": 1751,
      "menin": 1752,
      "ograf": 1753,
      ".1": 1754,
      "dis": 1755,
      "▁.": 1756,
      "▁benim": 1757,
      "▁por": 1758,
      "▁yemekler": 1759,
      "▁vermis": 1760,
      "▁ho": 1761,
      "▁indianapolis'ten": 1762,
      "▁ydı": 1763,
      "▁birlik": 1764,
      "alan": 1765,
      "▁kosul": 1766,
      "ılım": 1767,
      "▁ra": 1768,
      "▁dair": 1769,
      "▁arası": 1770,
      "▁zayif": 1771,
      "gıc": 1772,
      "▁malz": 1773,
      "imiz": 1774,
      "▁sekilde": 1775,
      "▁300": 1776,
      "▁akıl": 1777,
      "▁otel": 1778,
      "▁getir": 1779,
      "inda": 1780,
      "▁begendim": 1781,
      "▁osman": 1782,
      "▁cır": 1783,
      "asa": 1784,
      "▁aktiv": 1785,
      "'le": 1786,
      "tıg": 1787,
      "ıntı": 1788,
      "iligi": 1789,
      "alak": 1790,
      "landır": 1791,
      "▁sadece": 1792,
      "▁olustur": 1793,
      "▁1989": 1794,
      "▁biraz": 1795,
      "di": 1796,
      "gru": 1797,
      "▁sel": 1798,
      "▁ozellikle": 1799,
      "▁elektrik": 1800,
      "▁yazı": 1801,
      "▁istih": 1802,
      "ort": 1803,
      "▁gosterin": 1804,
      "▁yemekleri": 1805,
      "▁musteri": 1806,
      "▁ali": 1807,
      "▁montre": 1808,
      "▁icinde": 1809,
      "mam": 1810,
      "una": 1811,
      "▁sup": 1812,
      "▁kara": 1813,
      "esini": 1814,
      "▁ederek": 1815,
      "▁ham": 1816,
      "▁komp": 1817,
      "ov": 1818,
      "af": 1819,
      "▁din": 1820,
      "orth": 1821,
      "▁sırt": 1822,
      "▁%80": 1823,
      "▁%85": 1824,
      "▁tutun": 1825,
      "▁dusunc": 1826,
      "▁bors": 1827,
      "erv": 1828,
      "taj": 1829,
      "▁silah": 1830,
      "man": 1831,
      "▁toront": 1832,
      "ey": 1833,
      "▁havalim": 1834,
      "▁sizin": 1835,
      "ates": 1836,
      "▁normal": 1837,
      "▁hafif": 1838,
      "▁corp": 1839,
      "arası": 1840,
      "▁veya": 1841,
      "ecik": 1842,
      "▁soh": 1843,
      "▁prof": 1844,
      "ligin": 1845,
      "lerde": 1846,
      "▁ede": 1847,
      "▁dum": 1848,
      "-23": 1849,
      "▁ik": 1850,
      "▁adım": 1851,
      "▁stok": 1852,
      "co": 1853,
      "▁zaman": 1854,
      "▁kup": 1855,
      "▁eve": 1856,
      "▁duv": 1857,
      "▁dakika": 1858,
      "▁uretim": 1859,
      "sa": 1860,
      "ıtır": 1861,
      "▁san": 1862,
      "▁etk": 1863,
      "rem": 1864,
      "eden": 1865,
      "iste": 1866,
      "▁yasama": 1867,
      "w": 1868,
      "ileri": 1869,
      "▁kardes": 1870,
      "▁sını": 1871,
      "ıma": 1872,
      "▁iste": 1873,
      "▁inan": 1874,
      "▁boyunca": 1875,
      "▁yi": 1876,
      "ladık": 1877,
      "▁dan": 1878,
      "dılar": 1879,
      "▁ce": 1880,
      "▁dolay": 1881,
      "▁parti": 1882,
      "▁herkese": 1883,
      "▁dur": 1884,
      "▁karayolu": 1885,
      "hu": 1886,
      "▁bizimle": 1887,
      "lum": 1888,
      "▁ulusal": 1889,
      "▁ziyaret": 1890,
      "ag": 1891,
      "medik": 1892,
      "▁yemegi": 1893,
      "▁1.5": 1894,
      "▁gelir": 1895,
      "▁istanbul": 1896,
      "▁sosyal": 1897,
      "samba": 1898,
      "▁ha": 1899,
      "imin": 1900,
      "▁cap": 1901,
      "▁dusman": 1902,
      "▁taz": 1903,
      "▁misafir": 1904,
      "▁etraf": 1905,
      "▁cicek": 1906,
      "ade": 1907,
      "▁dusur": 1908,
      "▁sahibi": 1909,
      "▁``": 1910,
      "gah": 1911,
      "▁belki": 1912,
      "▁istif": 1913,
      "▁3.": 1914,
      "▁animasyon": 1915,
      "▁kolay": 1916,
      "▁sistem": 1917,
      "▁2.7": 1918,
      "▁kitap": 1919,
      "▁mad": 1920,
      "▁diyor": 1921,
      "▁dieg": 1922,
      "▁degis": 1923,
      "▁k": 1924,
      "asının": 1925,
      "▁cıtır": 1926,
      "▁ayır": 1927,
      "▁yaklas": 1928,
      "ori": 1929,
      "▁kendisine": 1930,
      "meyi": 1931,
      "▁personeli": 1932,
      "ima": 1933,
      "▁ortalama": 1934,
      "▁hayvan": 1935,
      "lamak": 1936,
      "ıc": 1937,
      "▁denizi": 1938,
      "▁altın": 1939,
      "madim": 1940,
      "▁kendim": 1941,
      "ek": 1942,
      "▁ederim": 1943,
      "[PAD]": 1944,
      "▁piyasa": 1945,
      "▁51": 1946,
      "▁secim": 1947,
      "▁ed": 1948,
      "▁oden": 1949,
      "▁efendi": 1950,
      "▁olmadıgı": 1951,
      "▁ingil": 1952,
      "▁tasar": 1953,
      "uyorlar": 1954,
      "lemek": 1955,
      "▁%0.2": 1956,
      "▁azal": 1957,
      "▁musun": 1958,
      "▁cog": 1959,
      "c": 1960,
      "▁ucuncu": 1961,
      "▁ogleden": 1962,
      "▁yılı": 1963,
      "ra": 1964,
      "▁bayram": 1965,
      "▁karsılık": 1966,
      "ediye": 1967,
      "sat": 1968,
      "ırım": 1969,
      "ran": 1970,
      "▁ayrı": 1971,
      "ell": 1972,
      "▁eskiydi": 1973,
      "▁cel": 1974,
      "▁petersburg": 1975,
      "masız": 1976,
      "▁hele": 1977,
      "▁sak": 1978,
      "▁hızla": 1979,
      "▁sizi": 1980,
      "afir": 1981,
      "▁gunleri": 1982,
      "▁ney": 1983,
      "▁mevcut": 1984,
      "▁bildir": 1985,
      "▁satıs": 1986,
      "▁alacak": 1987,
      "▁hap": 1988,
      "ohn": 1989,
      "▁alt": 1990,
      "▁kenar": 1991,
      "▁cey": 1992,
      "▁belir": 1993,
      "mıs": 1994,
      "ecektir": 1995,
      "bas": 1996,
      "ların": 1997,
      "▁mun": 1998,
      "cileri": 1999,
      "mıslar": 2000,
      "▁yoksa": 2001,
      "anın": 2002,
      "▁tac": 2003,
      "ark": 2004,
      "▁seb": 2005,
      "▁faturam": 2006,
      "▁deg": 2007,
      "agına": 2008,
      "▁dah": 2009,
      "▁ise": 2010,
      "▁edip": 2011,
      "meye": 2012,
      "kara": 2013,
      "▁ulasımı": 2014,
      "ıl": 2015,
      "emedi": 2016,
      "▁neler": 2017,
      "▁rek": 2018,
      "▁%7.875": 2019,
      "▁guleryuzluydu": 2020,
      "▁yatırımcılar": 2021,
      "ımız": 2022,
      "▁tas": 2023,
      "▁diger": 2024,
      "▁gul": 2025,
      "▁incel": 2026,
      "▁gider": 2027,
      "memis": 2028,
      "▁rahat": 2029,
      "inde": 2030,
      "▁hazine": 2031,
      "▁cumhuriyet": 2032,
      "▁res": 2033,
      "dıktan": 2034,
      "▁yıl": 2035,
      "siy": 2036,
      "▁defa": 2037,
      ":00": 2038,
      "▁genellikle": 2039,
      "▁aktarmasız": 2040,
      "▁mehmet": 2041,
      "ng": 2042,
      "▁cic": 2043,
      "laması": 2044,
      "tan": 2045,
      "imden": 2046,
      "▁sıng": 2047,
      "▁ozel": 2048,
      "▁tampa": 2049,
      "▁acıl": 2050,
      "ebil": 2051,
      "▁pek": 2052,
      ".": 2053,
      "▁yatırım": 2054,
      "▁gorun": 2055,
      "▁karak": 2056,
      "▁americ": 2057,
      "erdi": 2058,
      "▁kalab": 2059,
      "▁7": 2060,
      "▁201": 2061,
      "ayacak": 2062,
      "▁%1.7": 2063,
      "isi": 2064,
      "▁gu": 2065,
      "0": 2066,
      "▁sanki": 2067,
      "32": 2068,
      "amaya": 2069,
      "edir": 2070,
      "▁gordu": 2071,
      "eydi": 2072,
      "▁yerine": 2073,
      "uldu": 2074,
      "▁otur": 2075,
      "▁kaldim": 2076,
      "▁satın": 2077,
      "▁kucuk": 2078,
      "▁mo": 2079,
      "▁olabilir": 2080,
      "▁deng": 2081,
      "▁c": 2082,
      "lah": 2083,
      "▁kendisi": 2084,
      "|": 2085,
      "▁jos": 2086,
      "▁mustafa": 2087,
      "ırdı": 2088,
      "enin": 2089,
      "▁naz": 2090,
      "▁onu": 2091,
      "uyu": 2092,
      "'s": 2093,
      "▁cleveland": 2094,
      "▁endek": 2095,
      "aca": 2096,
      "▁bizde": 2097,
      "▁tak": 2098,
      "▁isler": 2099,
      "▁''": 2100,
      "▁alıs": 2101,
      "▁tec": 2102,
      "▁corp.": 2103,
      "▁erk": 2104,
      "▁ucusları": 2105,
      "cek": 2106,
      "\\/": 2107,
      "lerim": 2108,
      "lendi": 2109,
      "leme": 2110,
      "uya": 2111,
      "▁kazanc": 2112,
      "▁acı": 2113,
      "▁kayıt": 2114,
      "▁pittsburgh": 2115,
      "▁koc": 2116,
      "▁havayolları": 2117,
      "▁mek": 2118,
      "sekiz": 2119,
      "eleri": 2120,
      "▁dallas": 2121,
      "▁sab": 2122,
      "ali": 2123,
      "▁kaldı": 2124,
      "▁demokr": 2125,
      "▁jon": 2126,
      "lif": 2127,
      "rli": 2128,
      "▁cumhur": 2129,
      "evi": 2130,
      "l": 2131,
      "▁par": 2132,
      "ısına": 2133,
      "▁temiz": 2134,
      "▁bes": 2135,
      "▁dag": 2136,
      "eyn": 2137,
      "▁boston'a": 2138,
      "▁ikinci": 2139,
      "▁tum": 2140,
      "▁kelim": 2141,
      "▁basv": 2142,
      "▁dim": 2143,
      "▁vadeli": 2144,
      "iyon": 2145,
      "▁oak": 2146,
      "▁iki": 2147,
      "▁ogret": 2148,
      "▁gecti": 2149,
      "▁rol": 2150,
      "▁lond": 2151,
      "ime": 2152,
      "▁herk": 2153,
      "▁gir": 2154,
      "▁surekli": 2155,
      "▁havayol": 2156,
      "▁tab": 2157,
      "▁ekonom": 2158,
      "▁delta": 2159,
      "aki": 2160,
      "eyi": 2161,
      "yuz": 2162,
      "▁sal": 2163,
      "▁stan": 2164,
      "▁ona": 2165,
      "▁%7.5": 2166,
      "▁hız": 2167,
      "dikleri": 2168,
      "▁cal": 2169,
      "▁anlay": 2170,
      "▁%7.8": 2171,
      "▁mar": 2172,
      "si": 2173,
      "▁francisco'ya": 2174,
      "▁m": 2175,
      "▁pittsburgh'tan": 2176,
      "▁kırm": 2177,
      "▁lezzetli": 2178,
      "▁onlara": 2179,
      "▁goz": 2180,
      "‘": 2181,
      "▁new": 2182,
      "▁karıstır": 2183,
      "▁bayan": 2184,
      "▁sert": 2185,
      "yor": 2186,
      "▁bulun": 2187,
      "▁hicbir": 2188,
      "emey": 2189,
      "▁mem": 2190,
      "eri": 2191,
      "▁edebiyat": 2192,
      "▁vır": 2193,
      "▁geciyor": 2194,
      "▁duvar": 2195,
      "▁utan": 2196,
      "ilerine": 2197,
      "▁sıngır": 2198,
      "▁altında": 2199,
      "▁dalg": 2200,
      "▁us": 2201,
      "ligini": 2202,
      "▁birbiri": 2203,
      "▁gidip": 2204,
      "▁eder": 2205,
      "▁indianapolis": 2206,
      "▁soyley": 2207,
      "▁mol": 2208,
      "▁kok": 2209,
      "▁10": 2210,
      "ısının": 2211,
      "▁guc": 2212,
      "▁kemal": 2213,
      "▁bur": 2214,
      "▁gecir": 2215,
      "▁cık": 2216,
      "▁boz": 2217,
      "gel": 2218,
      "▁ragmen": 2219,
      "▁oyle": 2220,
      "▁baskanı": 2221,
      "amaz": 2222,
      "▁bor": 2223,
      "▁seni": 2224,
      "▁duyar": 2225,
      "▁pet": 2226,
      "▁ih": 2227,
      "dız": 2228,
      "▁mesel": 2229,
      "▁ticari": 2230,
      "▁basladı": 2231,
      "▁sabahı": 2232,
      "ob": 2233,
      "▁derece": 2234,
      "▁butun": 2235,
      "asıyor": 2236,
      "day": 2237,
      "▁street": 2238,
      "▁memnunum": 2239,
      "▁sm": 2240,
      "▁hepsinin": 2241,
      "▁lou": 2242,
      "▁yorum": 2243,
      "▁oda": 2244,
      "▁bin": 2245,
      "▁edilen": 2246,
      "▁direk": 2247,
      "▁kazandı": 2248,
      "▁misiniz": 2249,
      "▁vad": 2250,
      "▁/": 2251,
      "ın": 2252,
      "ahat": 2253,
      "▁toplan": 2254,
      "meden": 2255,
      "▁?..": 2256,
      "▁salon": 2257,
      "▁la": 2258,
      "ınc": 2259,
      "▁daha": 2260,
      "▁ser": 2261,
      "▁tuz": 2262,
      "▁bogaz": 2263,
      "▁degisiklik": 2264,
      "ıyla": 2265,
      "elerinin": 2266,
      "▁arkad": 2267,
      "▁kav": 2268,
      "▁fel": 2269,
      "▁cle": 2270,
      "▁fen": 2271,
      "ve": 2272,
      "▁anadolu": 2273,
      "▁isten": 2274,
      "▁dort": 2275,
      "▁sıra": 2276,
      "ad": 2277,
      "▁danıs": 2278,
      "▁tıklım": 2279,
      "ren": 2280,
      "acak": 2281,
      "▁gorev": 2282,
      "atı": 2283,
      "eyim": 2284,
      "▁kesin": 2285,
      "ibar": 2286,
      "▁git": 2287,
      "▁hik": 2288,
      "▁worth": 2289,
      "▁adi": 2290,
      "▁tay": 2291,
      "=": 2292,
      "▁sul": 2293,
      "mur": 2294,
      "▁tarafından": 2295,
      "▁kuz": 2296,
      "ber": 2297,
      "▁salt": 2298,
      "▁baltimore": 2299,
      "▁delik": 2300,
      "▁hanimdi": 2301,
      "▁dobra": 2302,
      "fer": 2303,
      "aten": 2304,
      "unc": 2305,
      "▁baltimore'ye": 2306,
      "▁ydi": 2307,
      "▁evi": 2308,
      "edi": 2309,
      "▁44": 2310,
      "▁tıpıs": 2311,
      "…": 2312,
      "vır": 2313,
      "▁bahs": 2314,
      "▁cem": 2315,
      "89": 2316,
      "▁nash": 2317,
      "▁burada": 2318,
      "▁hanım": 2319,
      "▁ilgi": 2320,
      "tadır": 2321,
      "nin": 2322,
      "▁detroit": 2323,
      "▁op": 2324,
      "▁nelerdir": 2325,
      "▁1988": 2326,
      "▁ad": 2327,
      "adi": 2328,
      "son": 2329,
      "ince": 2330,
      "▁cocuk": 2331,
      "mamıs": 2332,
      "gim": 2333,
      "▁cocuklu": 2334,
      "▁ucreti": 2335,
      "▁univers": 2336,
      "▁acıklan": 2337,
      "▁art": 2338,
      "▁calısıyor": 2339,
      "▁bitir": 2340,
      "tal": 2341,
      "▁istiyorum": 2342,
      "▁yapma": 2343,
      "▁1989-": 2344,
      "▁ardından": 2345,
      "▁dolas": 2346,
      "okr": 2347,
      "lıg": 2348,
      "istim": 2349,
      "elerine": 2350,
      "▁ciz": 2351,
      "ayi": 2352,
      "▁pu": 2353,
      "larına": 2354,
      "miyor": 2355,
      "▁yaptı": 2356,
      "▁nereden": 2357,
      "▁4": 2358,
      "yon": 2359,
      "▁kurtar": 2360,
      "▁hij": 2361,
      "nun": 2362,
      "▁seatt": 2363,
      "▁mucadel": 2364,
      "▁takır": 2365,
      "unca": 2366,
      "▁kov": 2367,
      "▁hes": 2368,
      "ers": 2369,
      "▁bana": 2370,
      "estir": 2371,
      "▁verim": 2372,
      "▁fatur": 2373,
      "▁kong": 2374,
      "▁gaz": 2375,
      "▁kos": 2376,
      "uluk": 2377,
      "▁united": 2378,
      "▁bırak": 2379,
      "▁yiyecek": 2380,
      "▁sor": 2381,
      "ama": 2382,
      "dal": 2383,
      "▁ir": 2384,
      "dem": 2385,
      "▁dem": 2386,
      "▁derin": 2387,
      "▁27": 2388,
      "yen": 2389,
      "▁ogren": 2390,
      "▁gerceklestir": 2391,
      "▁iti": 2392,
      "elerini": 2393,
      "!": 2394,
      "detti": 2395,
      "▁duzel": 2396,
      "od": 2397,
      "▁sehr": 2398,
      "▁kıl": 2399,
      "▁pr": 2400,
      "▁calıs": 2401,
      "ımıza": 2402,
      "2": 2403,
      "▁olsun": 2404,
      "▁eylem": 2405,
      "▁ulas": 2406,
      "▁konus": 2407,
      "▁size": 2408,
      "▁geldi": 2409,
      "alara": 2410,
      "▁doları": 2411,
      "▁ig": 2412,
      "▁oldukca": 2413,
      "▁kıtır": 2414,
      "ley": 2415,
      "▁olması": 2416,
      "taki": 2417,
      "▁kalit": 2418,
      "▁temizlik": 2419,
      "▁uzerinden": 2420,
      "▁0": 2421,
      "▁kalkıs": 2422,
      "▁dogal": 2423,
      "▁tuket": 2424,
      "▁cer": 2425,
      "▁40": 2426,
      "▁californ": 2427,
      "▁gide": 2428,
      "▁gecik": 2429,
      "▁guleryuzlu": 2430,
      "▁louis": 2431,
      "▁sis": 2432,
      "dik": 2433,
      "▁onları": 2434,
      "▁yuruy": 2435,
      "larında": 2436,
      "▁genis": 2437,
      "▁fing": 2438,
      "dıgında": 2439,
      "▁dom": 2440,
      "▁gorunuyor": 2441,
      "▁tef": 2442,
      "▁hamam": 2443,
      "enkul": 2444,
      "▁kr": 2445,
      "emek": 2446,
      "▁misafirimiz": 2447,
      "▁hayır": 2448,
      "▁mev": 2449,
      "av": 2450,
      "▁bil": 2451,
      "▁dolar": 2452,
      "iyorlar": 2453,
      "▁gozleri": 2454,
      "▁gercekles": 2455,
      "▁bıraktı": 2456,
      "na": 2457,
      "▁com": 2458,
      "▁kim": 2459,
      "ırlar": 2460,
      "ub": 2461,
      "embe": 2462,
      "ph": 2463,
      "▁cıkar": 2464,
      "▁…": 2465,
      "▁1991-19": 2466,
      "▁imkan": 2467,
      "dugunu": 2468,
      "▁bag": 2469,
      "▁gom": 2470,
      "ını": 2471,
      "mesini": 2472,
      "▁laf": 2473,
      "masının": 2474,
      "amıs": 2475,
      "▁degerlendir": 2476,
      "▁tam": 2477,
      "▁mak": 2478,
      "▁kopek": 2479,
      "ation": 2480,
      "osy": 2481,
      "▁sik": 2482,
      "▁11": 2483,
      "mi": 2484,
      "\\": 2485,
      "kel": 2486,
      "▁saf": 2487,
      "▁sok": 2488,
      "▁gorul": 2489,
      "▁tan": 2490,
      "▁american": 2491,
      "▁kor": 2492,
      "▁1987": 2493,
      "alap": 2494,
      "▁alıyor": 2495,
      "amb": 2496,
      "'": 2497,
      "if": 2498,
      "ati": 2499,
      "▁eylul": 2500,
      "▁hangisi": 2501,
      "▁dib": 2502,
      "▁%20": 2503,
      "▁kapas": 2504,
      "asından": 2505,
      "▁konumu": 2506,
      "st": 2507,
      "uyorum": 2508,
      "▁yasıyor": 2509,
      "inin": 2510,
      "re": 2511,
      "▁yedi": 2512,
      "▁ustune": 2513,
      "▁be": 2514,
      "▁didik": 2515,
      "▁boyle": 2516,
      "▁cıvıl": 2517,
      "eni": 2518,
      "▁bog": 2519,
      "▁14": 2520,
      "▁kahve": 2521,
      "▁john": 2522,
      "lanır": 2523,
      "unden": 2524,
      "▁kalk": 2525,
      "▁sirketin": 2526,
      "▁orland": 2527,
      "▁%9": 2528,
      "#": 2529,
      "▁haft": 2530,
      "▁=": 2531,
      "▁yerde": 2532,
      "▁durumda": 2533,
      "▁kil": 2534,
      "▁hepsin": 2535,
      "sınız": 2536,
      "▁sozcusu": 2537,
      "cılar": 2538,
      "aat": 2539,
      "inn": 2540,
      "esil": 2541,
      "▁yapacak": 2542,
      "edef": 2543,
      "lim": 2544,
      "▁cin": 2545,
      ":": 2546,
      "▁airlines": 2547,
      "▁francisco": 2548,
      "▁miydi": 2549,
      "'de": 2550,
      "lerine": 2551,
      "ecek": 2552,
      "▁bile": 2553,
      "▁bilgis": 2554,
      "mustu": 2555,
      "ılıgı": 2556,
      "▁1990": 2557,
      "▁nes": 2558,
      "▁sayı": 2559,
      "▁siir": 2560,
      "▁pitts": 2561,
      "iyeti": 2562,
      "▁soyledi": 2563,
      "kı": 2564,
      "hur": 2565,
      "▁cıl": 2566,
      "▁ek": 2567,
      "▁kısıt": 2568,
      "iforn": 2569,
      "▁ger": 2570,
      "ite": 2571,
      "▁kalma": 2572,
      "▁yonel": 2573,
      "▁500": 2574,
      "emi": 2575,
      "▁ton": 2576,
      "▁elbet": 2577,
      "▁25": 2578,
      "▁egit": 2579,
      "▁kı": 2580,
      "▁ilan": 2581,
      "▁alma": 2582,
      "▁gumbur": 2583,
      "▁saglam": 2584,
      "▁1/2": 2585,
      "▁ortal": 2586,
      "▁kayn": 2587,
      "'nın": 2588,
      "imize": 2589,
      "▁ısı": 2590,
      "▁etti": 2591,
      "▁bo": 2592,
      "89-": 2593,
      "▁elb": 2594,
      "iyet": 2595,
      "▁tabi": 2596,
      "udu": 2597,
      "▁ucus": 2598,
      "▁*": 2599,
      "▁alın": 2600,
      "▁ana": 2601,
      "▁soyler": 2602,
      "▁donus": 2603,
      "▁yılında": 2604,
      "▁bask": 2605,
      "▁kasım": 2606,
      "▁demir": 2607,
      "▁un": 2608,
      "▁acıklam": 2609,
      "sim": 2610,
      "▁mektu": 2611,
      "▁mıy": 2612,
      "▁yani": 2613,
      "▁diy": 2614,
      "▁!..": 2615,
      "▁cıkardı": 2616,
      "▁hab": 2617,
      "▁19": 2618,
      "ucu": 2619,
      "▁halinde": 2620,
      "bus": 2621,
      "▁meyal": 2622,
      "▁montreal": 2623,
      "leri": 2624,
      "sas": 2625,
      "▁evin": 2626,
      "▁kucuktu": 2627,
      "▁suc": 2628,
      "▁var": 2629,
      "obr": 2630,
      "▁bank": 2631,
      "ilmesi": 2632,
      "ami": 2633,
      "▁yukselt": 2634,
      "ında": 2635,
      "▁35": 2636,
      "'nin": 2637,
      "▁alak": 2638,
      "kin": 2639,
      "▁sakin": 2640,
      "o'dan": 2641,
      "▁karsın": 2642,
      "ısın": 2643,
      "▁hur": 2644,
      "endi": 2645,
      "▁verilen": 2646,
      "▁kir": 2647,
      "▁ayr": 2648,
      "esiyle": 2649,
      "▁yor": 2650,
      "ee": 2651,
      "▁kaynak": 2652,
      "irler": 2653,
      "▁9": 2654,
      "▁isim": 2655,
      "▁yiy": 2656,
      "▁fak": 2657,
      "▁tesekkur": 2658,
      "▁miktar": 2659,
      "-22:30": 2660,
      "▁vaz": 2661,
      "ada": 2662,
      "▁kol": 2663,
      "▁unit": 2664,
      "▁rad": 2665,
      "▁bunun": 2666,
      "▁cunku": 2667,
      "maktan": 2668,
      "endir": 2669,
      "ayı": 2670,
      "hut": 2671,
      "▁bul": 2672,
      "luk": 2673,
      "dir": 2674,
      "▁gelip": 2675,
      "▁tarif": 2676,
      "▁yavas": 2677,
      "▁gunku": 2678,
      "▁gittik": 2679,
      "▁girdi": 2680,
      "▁yonetic": 2681,
      ".3": 2682,
      "▁yaptık": 2683,
      "esi": 2684,
      "▁bilgi": 2685,
      "ıyor": 2686,
      "▁allak": 2687,
      "▁sas": 2688,
      "ındaki": 2689,
      "▁bulundu": 2690,
      "▁arasında": 2691,
      "umuz": 2692,
      "▁oldur": 2693,
      "ly": 2694,
      "▁eser": 2695,
      "▁biz": 2696,
      "▁hizmeti": 2697,
      "▁yapan": 2698,
      "iz": 2699,
      "▁ar": 2700,
      "▁yurt": 2701,
      "v": 2702,
      "ya'da": 2703,
      "0000": 2704,
      "▁konustu": 2705,
      "▁3/": 2706,
      "▁listele": 2707,
      "▁iler": 2708,
      "▁varlık": 2709,
      "▁'d": 2710,
      "▁kurumsal": 2711,
      "up": 2712,
      "▁lı": 2713,
      "bes": 2714,
      "▁tahmin": 2715,
      "▁dest": 2716,
      "▁cı": 2717,
      "▁birine": 2718,
      "▁uret": 2719,
      "der": 2720,
      "▁nit": 2721,
      "il": 2722,
      "▁ustunde": 2723,
      "ji": 2724,
      "▁kamu": 2725,
      "▁pırıl": 2726,
      "▁birdenbire": 2727,
      "▁alman": 2728,
      "▁gizli": 2729,
      "▁i": 2730,
      "▁fikir": 2731,
      "▁man": 2732,
      "▁olmalı": 2733,
      "▁lis": 2734,
      "ıy": 2735,
      "'e": 2736,
      "it": 2737,
      "lak": 2738,
      "▁boston'dan": 2739,
      "▁adam": 2740,
      "▁bilim": 2741,
      "▁miami": 2742,
      "▁1.1": 2743,
      "▁yas": 2744,
      "▁dig": 2745,
      "▁yag": 2746,
      "▁temmuz": 2747,
      "ten": 2748,
      "as": 2749,
      "▁haline": 2750,
      "▁prob": 2751,
      "▁pufur": 2752,
      "▁bagır": 2753,
      "▁las": 2754,
      "▁kurt": 2755,
      "lilik": 2756,
      "▁ili": 2757,
      "rup": 2758,
      "▁kurulu": 2759,
      "▁olacagını": 2760,
      "▁continental": 2761,
      "▁3": 2762,
      "▁west": 2763,
      "\"": 2764,
      "2:30": 2765,
      "▁sordu": 2766,
      "orm": 2767,
      "▁senet": 2768,
      "-6": 2769,
      "▁kop": 2770,
      "ledi": 2771,
      "’": 2772,
      "dı": 2773,
      "▁gidi": 2774,
      "gan": 2775,
      "▁ilet": 2776,
      "▁yazar": 2777,
      "▁dahil": 2778,
      "▁kontr": 2779,
      "▁strate": 2780,
      "'in": 2781,
      "▁den": 2782,
      "▁gunes": 2783,
      "arlar": 2784,
      "▁temel": 2785,
      "ısıl": 2786,
      "das": 2787,
      "▁kuy": 2788,
      "▁nokta": 2789,
      "itt": 2790,
      "▁savas": 2791,
      "▁devam": 2792,
      "onom": 2793,
      "▁yılda": 2794,
      "▁baz": 2795,
      "▁anlat": 2796,
      "▁rast": 2797,
      "▁organ": 2798,
      "▁%15": 2799,
      "▁ib": 2800,
      "▁ayında": 2801,
      "izm": 2802,
      "▁pencer": 2803,
      "esel": 2804,
      "▁sın": 2805,
      "uydu": 2806,
      "▁az": 2807,
      "▁suyu": 2808,
      "▁yirmi": 2809,
      "▁artarak": 2810,
      "▁fiyata": 2811,
      "▁tar": 2812,
      "▁lazım": 2813,
      "eti": 2814,
      "▁city'e": 2815,
      "▁lar": 2816,
      "▁uzat": 2817,
      "me": 2818,
      "▁yuksekti": 2819,
      "▁avuc": 2820,
      "▁abd": 2821,
      "▁uretic": 2822,
      "▁uzak": 2823,
      "imli": 2824,
      "▁20": 2825,
      "▁lir": 2826,
      "agını": 2827,
      "▁alk": 2828,
      "▁kaliforn": 2829,
      "pan": 2830,
      "▁birinin": 2831,
      "▁ka": 2832,
      "q": 2833,
      "▁birkac": 2834,
      "▁iyiydi": 2835,
      "ardı": 2836,
      "▁diye": 2837,
      "▁ucmak": 2838,
      "tigini": 2839,
      "▁mey": 2840,
      "ler": 2841,
      "isti": 2842,
      "esinin": 2843,
      "or": 2844,
      "▁cev": 2845,
      "cusu": 2846,
      "▁oldugun": 2847,
      "▁ediyorum": 2848,
      "olu": 2849,
      "kal": 2850,
      "dıkları": 2851,
      "▁her": 2852,
      "bol": 2853,
      "▁edecek": 2854,
      "▁kendisini": 2855,
      "▁teknoloj": 2856,
      ".4": 2857,
      "mal": 2858,
      "▁federal": 2859,
      "ire": 2860,
      "▁ters": 2861,
      "▁42": 2862,
      "▁cok": 2863,
      "alt": 2864,
      "▁nef": 2865,
      "▁olacaktır": 2866,
      "are": 2867,
      "▁uluslar": 2868,
      "abilecek": 2869,
      "▁gormedim": 2870,
      "▁lider": 2871,
      "▁askeri": 2872,
      "▁yapıyor": 2873,
      "▁ren": 2874,
      "▁fotograf": 2875,
      "▁del": 2876,
      "bank": 2877,
      "▁co.": 2878,
      "▁bic": 2879,
      "inc": 2880,
      "ının": 2881,
      "onel": 2882,
      "▁met": 2883,
      "▁gerekiyor": 2884,
      "larını": 2885,
      "▁sunu": 2886,
      "▁dobr": 2887,
      "▁baslamıs": 2888,
      "▁giris": 2889,
      "▁oldum": 2890,
      "unun": 2891,
      "▁yaslı": 2892,
      "▁olursa": 2893,
      "▁resim": 2894,
      "▁bence": 2895,
      "▁bay": 2896,
      "▁ortak": 2897,
      "▁sasır": 2898,
      "▁seyden": 2899,
      "iddet": 2900,
      "▁ediyordu": 2901,
      "▁aras": 2902,
      "▁%51": 2903,
      "ligi": 2904,
      "leb": 2905,
      "▁bugun": 2906,
      "he": 2907,
      "yan": 2908,
      "▁yoktu": 2909,
      "▁0.": 2910,
      "▁ener": 2911,
      "▁hen": 2912,
      "▁cincinnati": 2913,
      "▁got": 2914,
      "▁ettigini": 2915,
      "ıg": 2916,
      "▁civ": 2917,
      "▁ihrac": 2918,
      "▁;": 2919,
      "▁aksamı": 2920,
      "45": 2921,
      "emmel": 2922,
      "▁borsa": 2923,
      "ersiz": 2924,
      "▁temizligi": 2925,
      "▁erkek": 2926,
      "▁sonunda": 2927,
      "mesine": 2928,
      "▁milyar": 2929,
      "▁%12": 2930,
      "▁pers": 2931,
      "▁merkezine": 2932,
      "▁isaret": 2933,
      "oc": 2934,
      "tim": 2935,
      "▁plan": 2936,
      "▁karsılas": 2937,
      "▁“": 2938,
      "gunu": 2939,
      "▁mut": 2940,
      "luyor": 2941,
      "ektr": 2942,
      "▁yuzlu": 2943,
      "▁birbirlerine": 2944,
      "▁polit": 2945,
      "vel": 2946,
      "meli": 2947,
      "ından": 2948,
      "▁york'tan": 2949,
      "▁bunlar": 2950,
      "▁iceri": 2951,
      "▁yakin": 2952,
      "o'nun": 2953,
      "▁asl": 2954,
      "▁fokur": 2955,
      "▁olm": 2956,
      "▁yardımcısı": 2957,
      "aydi": 2958,
      "▁numar": 2959,
      "▁politik": 2960,
      "tas": 2961,
      "lanmıs": 2962,
      "▁cogu": 2963,
      "ut": 2964,
      "▁kendiler": 2965,
      "ustum": 2966,
      "▁emek": 2967,
      "leyen": 2968,
      "▁buz": 2969,
      "▁bakıs": 2970,
      "uc": 2971,
      "▁sermaye": 2972,
      "▁pilot": 2973,
      "▁mag": 2974,
      "▁p": 2975,
      "▁tesekkurler": 2976,
      "-1": 2977,
      "kar": 2978,
      "▁sans": 2979,
      "ir": 2980,
      "lik": 2981,
      "▁yuzme": 2982,
      "▁det": 2983,
      "▁unut": 2984,
      "▁yon": 2985,
      "'y": 2986,
      "▁inc": 2987,
      "▁olarak": 2988,
      "ans": 2989,
      "dular": 2990,
      "▁merdi": 2991,
      "leriyle": 2992,
      "oster": 2993,
      "▁merkez": 2994,
      "▁belirtti": 2995,
      "▁fiyat": 2996,
      "▁dal": 2997,
      "▁oy": 2998,
      "▁yeter": 2999,
      "imdi": 3000,
      "▁41": 3001,
      "▁siz": 3002,
      "eye": 3003,
      "▁paz": 3004,
      "ond": 3005,
      "at": 3006,
      "▁anda": 3007,
      "▁ber": 3008,
      "▁yeniden": 3009,
      "dugu": 3010,
      "▁cevap": 3011,
      "▁fok": 3012,
      "▁dolarlık": 3013,
      "▁yanl": 3014,
      "isindan": 3015,
      "▁mil": 3016,
      "masına": 3017,
      "▁olanak": 3018,
      "▁hakk": 3019,
      "adı": 3020,
      "▁karsil": 3021,
      "ı": 3022,
      "▁onay": 3023,
      "ter": 3024,
      "▁hareket": 3025,
      "▁yanlıs": 3026,
      "▁gel": 3027,
      "▁yen": 3028,
      "burgh": 3029,
      "▁ayn": 3030,
      "dım": 3031,
      "▁annem": 3032,
      "▁oldugunu": 3033,
      "uncu": 3034,
      "▁deprem": 3035,
      "uv": 3036,
      "▁kendileri": 3037,
      "▁begen": 3038,
      "▁mudur": 3039,
      "▁%2.7": 3040,
      "▁yarat": 3041,
      "▁degildi": 3042,
      "▁ekonomik": 3043,
      "ile": 3044,
      "gor": 3045,
      "▁ken": 3046,
      "▁ter": 3047,
      ".50": 3048,
      "▁maliyet": 3049,
      "arı": 3050,
      "mey": 3051,
      "usunu": 3052,
      "▁mahk": 3053,
      "roit": 3054,
      "▁1.": 3055,
      "larımız": 3056,
      "▁uyan": 3057,
      "ram": 3058,
      "▁ısık": 3059,
      "ital": 3060,
      "▁agır": 3061,
      "▁tuttu": 3062,
      "▁as": 3063,
      "▁atlan": 3064,
      "▁makal": 3065,
      "sem": 3066,
      "ev": 3067,
      "sın": 3068,
      "▁hey": 3069,
      "irmi": 3070,
      "acılar": 3071,
      "▁resmi": 3072,
      "iyor": 3073,
      "▁harc": 3074,
      "can": 3075,
      "▁ted": 3076,
      "▁sabit": 3077,
      "▁kas": 3078,
      "▁mav": 3079,
      "gında": 3080,
      "▁altına": 3081,
      "duncu": 3082,
      "▁kırmızı": 3083,
      "▁kom": 3084,
      "mas": 3085,
      "▁artısla": 3086,
      "▁dedik": 3087,
      "▁ode": 3088,
      "▁eden": 3089,
      "▁uzman": 3090,
      "baren": 3091,
      "▁orta": 3092,
      "▁45": 3093,
      "▁list": 3094,
      "lastır": 3095,
      "ılır": 3096,
      "'da": 3097,
      "▁kultur": 3098,
      "▁.\"": 3099,
      "▁kumas": 3100,
      "▁sovyet": 3101,
      "▁zarar": 3102,
      "▁tehlik": 3103,
      "▁cıktı": 3104,
      "▁komisyon": 3105,
      "ate": 3106,
      "▁enflasyon": 3107,
      "▁arka": 3108,
      "▁yardım": 3109,
      "yla": 3110,
      "▁vur": 3111,
      "rı": 3112,
      "aklı": 3113,
      "undan": 3114,
      "▁olsa": 3115,
      "lu": 3116,
      "igini": 3117,
      "▁part": 3118,
      "ine": 3119,
      "▁sinir": 3120,
      "dak": 3121,
      "▁charlotte": 3122,
      "kiz": 3123,
      "▁gozlerini": 3124,
      "kan": 3125,
      "sal": 3126,
      "▁pazartesi": 3127,
      "and": 3128,
      "imizin": 3129,
      "▁hastan": 3130,
      "▁zırt": 3131,
      "sizdi": 3132,
      "lıgın": 3133,
      "▁pol": 3134,
      "▁beyaz": 3135,
      "▁sir": 3136,
      "▁faiz": 3137,
      "▁toplam": 3138,
      "▁soylen": 3139,
      "▁#": 3140,
      "[CLS]": 3141,
      "▁ay": 3142,
      "▁dıs": 3143,
      "ımı": 3144,
      "▁philadelphia": 3145,
      "▁cit": 3146,
      "apol": 3147,
      "▁yol": 3148,
      "lerini": 3149,
      "▁terc": 3150,
      "▁cevir": 3151,
      "▁grup": 3152,
      "layan": 3153,
      "ırk": 3154,
      "▁gen": 3155,
      "uyla": 3156,
      "▁%3.": 3157,
      "luluk": 3158,
      "▁elektr": 3159,
      "op": 3160,
      "▁ithal": 3161,
      "*": 3162,
      "▁%": 3163,
      "▁seattle": 3164,
      "iyordu": 3165,
      "▁guler": 3166,
      "acık": 3167,
      "▁doy": 3168,
      "▁miami'ye": 3169,
      "▁ısıl": 3170,
      "▁teh": 3171,
      "▁yolc": 3172,
      "▁ayakk": 3173,
      "61": 3174,
      "ata": 3175,
      "madı": 3176,
      "land": 3177,
      "erler": 3178,
      "▁199": 3179,
      "urdu": 3180,
      "▁kansas": 3181,
      "▁birini": 3182,
      "bur": 3183,
      "▁uf": 3184,
      "▁sil": 3185,
      "dur": 3186,
      "tiv": 3187,
      "▁bazıları": 3188,
      "encer": 3189,
      "▁36": 3190,
      "▁hasır": 3191,
      "▁park": 3192,
      "ur": 3193,
      "▁pittsburgh'a": 3194,
      "▁sav": 3195,
      "yse": 3196,
      "▁vardi": 3197,
      "te": 3198,
      "▁city'den": 3199,
      "▁ydu": 3200,
      "▁cat": 3201,
      "▁yabancı": 3202,
      "▁onceki": 3203,
      "▁sektor": 3204,
      "▁bazi": 3205,
      "est": 3206,
      "▁%3.5": 3207,
      "▁biles": 3208,
      "▁cift": 3209,
      "ayıf": 3210,
      "maları": 3211,
      "osu": 3212,
      "▁dov": 3213,
      "▁karsiligini": 3214,
      "ilerdi": 3215,
      "lamaya": 3216,
      "▁amerik": 3217,
      "▁tahviller": 3218,
      "▁faal": 3219,
      "▁mukemmeldi": 3220,
      "%": 3221,
      "ust": 3222,
      "▁rezervasyonu": 3223,
      "▁insanları": 3224,
      "▁atlanta'ya": 3225,
      "j": 3226,
      "▁bas": 3227,
      "▁yem": 3228,
      "isine": 3229,
      "▁ucuslarını": 3230,
      "▁makin": 3231,
      "▁tarihi": 3232,
      "tıgını": 3233,
      "▁mas": 3234,
      "▁ug": 3235,
      "▁%6.4": 3236,
      "▁kon": 3237,
      "▁yarın": 3238,
      "10": 3239,
      "▁hizmetleri": 3240,
      "▁fiyatlar": 3241,
      "▁sık": 3242,
      "ıt": 3243,
      "▁destek": 3244,
      "pa": 3245,
      "ume": 3246,
      "▁artır": 3247,
      "▁kalkıp": 3248,
      "▁yesil": 3249,
      "ma": 3250,
      "▁ust": 3251,
      "ım": 3252,
      "tıgı": 3253,
      "▁ilg": 3254,
      "▁manz": 3255,
      "▁mart": 3256,
      "▁savun": 3257,
      "▁196": 3258,
      "▁minne": 3259,
      "▁nis": 3260,
      "esin": 3261,
      "▁sikayet": 3262,
      "abil": 3263,
      "ması": 3264,
      "▁dav": 3265,
      "timore": 3266,
      "▁1/": 3267,
      "alet": 3268,
      "misti": 3269,
      "cog": 3270,
      "in": 3271,
      "tıyor": 3272,
      "▁endeks": 3273,
      "esiz": 3274,
      "▁listel": 3275,
      "isel": 3276,
      "▁gosterdi": 3277,
      "▁cesitli": 3278,
      "▁okuy": 3279,
      "rar": 3280,
      "▁musa": 3281,
      "▁sozles": 3282,
      "▁es": 3283,
      "on": 3284,
      "▁ara": 3285,
      "▁birbir": 3286,
      "▁mis": 3287,
      "▁henuz": 3288,
      "▁anlam": 3289,
      "▁tartıs": 3290,
      "▁yukarı": 3291,
      "▁onem": 3292,
      "▁endeksi": 3293,
      "ende": 3294,
      "▁kıs": 3295,
      "ları": 3296,
      "▁sonr": 3297,
      "▁str": 3298,
      "burg": 3299,
      "bi": 3300,
      "▁1.2": 3301,
      "▁general": 3302,
      "▁itibar": 3303,
      "tur": 3304,
      "▁cir": 3305,
      "emin": 3306,
      "▁gecen": 3307,
      "▁sermay": 3308,
      "▁kar": 3309,
      "▁basına": 3310,
      "▁yogun": 3311,
      "▁tezgah": 3312,
      "▁55": 3313,
      "▁demek": 3314,
      "ip": 3315,
      "liydi": 3316,
      "mus": 3317,
      "▁sat": 3318,
      "ediyor": 3319,
      "▁satım": 3320,
      "▁dır": 3321,
      "▁200": 3322,
      "▁kendimi": 3323,
      "uklum": 3324,
      "▁kost": 3325,
      "artesi": 3326,
      "dan": 3327,
      "asıyla": 3328,
      "▁sigorta": 3329,
      "▁sokak": 3330,
      "▁gelen": 3331,
      "aması": 3332,
      "▁insa": 3333,
      "'u": 3334,
      "br": 3335,
      "▁yakın": 3336,
      "000": 3337,
      "75": 3338,
      "▁pır": 3339,
      "▁yer": 3340,
      "▁j": 3341,
      "dıgı": 3342,
      "▁mah": 3343,
      "▁net": 3344,
      "▁yerles": 3345,
      "▁yur": 3346,
      "▁%6": 3347,
      "▁icine": 3348,
      "▁tutar": 3349,
      "?": 3350,
      "▁geliyor": 3351,
      "▁sirketi": 3352,
      "▁%18": 3353,
      "▁%50": 3354,
      "▁poz": 3355,
      "▁bol": 3356,
      "▁tr": 3357,
      "lasyon": 3358,
      "dar": 3359,
      "&": 3360,
      "▁edec": 3361,
      "▁ye": 3362,
      "▁almak": 3363,
      "▁kıy": 3364,
      "▁doktor": 3365,
      "▁ucret": 3366,
      "imde": 3367,
      "▁tası": 3368,
      "▁baslan": 3369,
      "▁57": 3370,
      "▁kurum": 3371,
      "▁asıl": 3372,
      "▁genel": 3373,
      "▁dol": 3374,
      "digini": 3375,
      "▁cont": 3376,
      "▁cil": 3377,
      "ılan": 3378,
      "▁'nin": 3379,
      "▁oldugum": 3380,
      "▁merkezi": 3381,
      "▁sen": 3382,
      "gun": 3383,
      "meleri": 3384,
      "▁tabii": 3385,
      "▁kal": 3386,
      "lem": 3387,
      "▁hos": 3388,
      "▁muc": 3389,
      "alarda": 3390,
      "bak": 3391,
      "▁sim": 3392,
      "▁tes": 3393,
      "hi": 3394,
      "▁yok": 3395,
      "▁hicbiri": 3396,
      "▁hiz": 3397,
      ".5": 3398,
      "tım": 3399,
      "▁eski": 3400,
      "▁harika": 3401,
      "m": 3402,
      "ırak": 3403,
      "▁sun": 3404,
      "arlan": 3405,
      "ciler": 3406,
      "dıklarını": 3407,
      "▁soylem": 3408,
      "lenmis": 3409,
      "ustu": 3410,
      "▁anal": 3411,
      "▁tic": 3412,
      "▁sur": 3413,
      "▁yum": 3414,
      "▁birlikte": 3415,
      "ore": 3416,
      "muz": 3417,
      "urlu": 3418,
      "▁edildi": 3419,
      "idik": 3420,
      "▁yasa": 3421,
      "▁almıs": 3422,
      "da": 3423,
      "elere": 3424,
      "▁fıldır": 3425,
      "i": 3426,
      "▁guclu": 3427,
      "▁endustr": 3428,
      "▁iy": 3429,
      "▁hin": 3430,
      "▁'": 3431,
      "▁gerektigini": 3432,
      "▁bab": 3433,
      "es": 3434,
      "kır": 3435,
      "▁para": 3436,
      "▁philadelphia'ya": 3437,
      "▁veriyor": 3438,
      "▁franc": 3439,
      "▁id": 3440,
      "▁memphis": 3441,
      "lige": 3442,
      "▁kapı": 3443,
      "▁ucusların": 3444,
      "▁dok": 3445,
      "▁yanı": 3446,
      "madan": 3447,
      "'daki": 3448,
      "▁aralık": 3449,
      "agıt": 3450,
      "▁elde": 3451,
      "▁uygun": 3452,
      "ısız": 3453,
      "▁amac": 3454,
      "▁fr": 3455,
      "▁ocak": 3456,
      "▁bakım": 3457,
      "▁varsa": 3458,
      "▁cep": 3459,
      "▁kendini": 3460,
      "un": 3461,
      "▁%11": 3462,
      "▁fayd": 3463,
      "▁konuda": 3464,
      "'un": 3465,
      "▁b": 3466,
      "▁gonder": 3467,
      "▁sag": 3468,
      "▁yetersizdi": 3469,
      "▁mon": 3470,
      "▁baglı": 3471,
      "▁kere": 3472,
      "▁azından": 3473,
      "otte": 3474,
      "▁performans": 3475,
      "▁muster": 3476,
      "bet": 3477,
      "▁rezerv": 3478,
      "ville": 3479,
      "▁dolara": 3480,
      "mini": 3481,
      "▁musait": 3482,
      "▁yetis": 3483,
      "▁class": 3484,
      "vet": 3485,
      "▁5": 3486,
      "▁basar": 3487,
      "lanan": 3488,
      "▁kulak": 3489,
      "▁nasıl": 3490,
      "▁oper": 3491,
      "▁kem": 3492,
      "tor": 3493,
      "▁hic": 3494,
      "ıyordu": 3495,
      "▁orada": 3496,
      "▁sure": 3497,
      "▁isteyen": 3498,
      "▁yuz": 3499,
      "▁avrupa": 3500,
      "▁dogr": 3501,
      "'ndan": 3502,
      "▁6": 3503,
      "lerdi": 3504,
      "▁hisseler": 3505,
      "▁30": 3506,
      "▁neredeyse": 3507,
      "▁duzen": 3508,
      "sam": 3509,
      "▁olup": 3510,
      "▁gem": 3511,
      "▁kimi": 3512,
      "▁d": 3513,
      "ia": 3514,
      "innati": 3515,
      "▁ul": 3516,
      "▁vardır": 3517,
      "▁iht": 3518,
      "ıyorum": 3519,
      "▁mark": 3520,
      "aman": 3521,
      "ez": 3522,
      "▁kab": 3523,
      "▁nerede": 3524,
      "ana": 3525,
      "▁yere": 3526,
      "maktadır": 3527,
      "is": 3528,
      "▁hast": 3529,
      "▁indir": 3530,
      "▁bak": 3531,
      "▁performan": 3532,
      "▁ciyak": 3533,
      "▁vazgec": 3534,
      "min": 3535,
      "▁oteldi": 3536,
      "▁birinci": 3537,
      "asi": 3538,
      "ırt": 3539,
      "san": 3540,
      "▁for": 3541,
      "▁vak": 3542,
      "'nda": 3543,
      "ul": 3544,
      "ılmıs": 3545,
      "▁seattle'ye": 3546,
      "▁batı": 3547,
      "lardı": 3548,
      "▁odem": 3549,
      "▁sov": 3550,
      "▁carsamba": 3551,
      "▁houston": 3552,
      "▁duserek": 3553,
      "ib": 3554,
      "▁21": 3555,
      "fet": 3556,
      "▁bilgisay": 3557,
      "▁super": 3558,
      "▁simdiye": 3559,
      "iyorum": 3560,
      "fur": 3561,
      "aret": 3562,
      "▁lutf": 3563,
      "ert": 3564,
      "urt": 3565,
      "▁senedi": 3566,
      "ilmis": 3567,
      "▁baska": 3568,
      "ecegi": 3569,
      "▁vergi": 3570,
      "▁fısır": 3571,
      "▁program": 3572,
      "▁yıllık": 3573,
      "lat": 3574,
      "▁yap": 3575,
      "uyordu": 3576,
      "▁duny": 3577,
      "▁konu": 3578,
      "met": 3579,
      "▁100": 3580,
      "ıyı": 3581,
      "▁kimse": 3582,
      "▁31": 3583,
      "▁%3.4": 3584,
      "▁hi": 3585,
      "▁tamamen": 3586,
      "▁verdi": 3587,
      "▁sam": 3588,
      "det": 3589,
      ".25": 3590,
      "▁tuc": 3591,
      "▁seker": 3592,
      "▁br": 3593,
      "▁anlasma": 3594,
      "▁elestir": 3595,
      "▁stand": 3596,
      "▁kahval": 3597,
      "'ı": 3598,
      "mak": 3599,
      "▁yay": 3600,
      "▁televizyon": 3601,
      "▁kalkıyor": 3602,
      "▁ornek": 3603,
      "malı": 3604,
      "▁ma": 3605,
      "▁sıkı": 3606,
      "isinin": 3607,
      "▁porcuk": 3608,
      "el": 3609,
      "▁durumu": 3610,
      "ern": 3611,
      "ıldı": 3612,
      "▁sus": 3613,
      "▁peters": 3614,
      "ız": 3615,
      "▁denver": 3616,
      "▁ag": 3617,
      "▁'de": 3618,
      "uyor": 3619,
      "▁onunde": 3620,
      "art": 3621,
      "elerek": 3622,
      "▁.'": 3623,
      "▁parmak": 3624,
      "▁benzer": 3625,
      "▁millet": 3626,
      "▁ates": 3627,
      "▁mecl": 3628,
      "▁mukemmel": 3629,
      "▁?": 3630,
      "▁memleket": 3631,
      "▁varan": 3632,
      "▁18": 3633,
      "lt": 3634,
      "▁duzey": 3635,
      "enc": 3636,
      "▁bize": 3637,
      "▁guleryuz": 3638,
      "imizi": 3639,
      "▁olduk": 3640,
      "▁yak": 3641,
      "▁kus": 3642,
      "▁olmasi": 3643,
      "▁kum": 3644,
      "▁ornegin": 3645,
      "▁gıldır": 3646,
      "▁attı": 3647,
      "▁gazet": 3648,
      "▁do": 3649,
      "▁sosy": 3650,
      ":30": 3651,
      "▁%0.3": 3652,
      "istir": 3653,
      "▁iyi": 3654,
      "▁turk": 3655,
      "sk": 3656,
      "ısından": 3657,
      "▁hayal": 3658,
      "▁olumlu": 3659,
      "umu": 3660,
      "▁39": 3661,
      "▁superdi": 3662,
      "ari": 3663,
      "▁katkı": 3664,
      "▁cocugun": 3665,
      "▁dondu": 3666,
      "s": 3667,
      "▁ge": 3668,
      "▁york": 3669,
      "▁ko": 3670,
      "▁kapat": 3671,
      "maya": 3672,
      "▁hepsi": 3673,
      "erk": 3674,
      "x": 3675,
      "▁cay": 3676,
      "suz": 3677,
      "▁%7.": 3678,
      "lastı": 3679,
      "▁borc": 3680,
      ".6": 3681,
      "▁phoenix": 3682,
      "▁kusur": 3683,
      "▁siyasi": 3684,
      "ug": 3685,
      "▁gerek": 3686,
      "▁st.": 3687,
      "cisi": 3688,
      "▁kendime": 3689,
      "las": 3690,
      "lari": 3691,
      "▁gercekten": 3692,
      "▁a.": 3693,
      "▁bal": 3694,
      "▁dolardan": 3695,
      "▁kayıp": 3696,
      "▁analistler": 3697,
      "siniz": 3698,
      "▁faz": 3699,
      "▁pac": 3700,
      "net": 3701,
      "▁sapır": 3702,
      "anı": 3703,
      "▁amerika": 3704,
      "▁muk": 3705,
      "▁dokun": 3706,
      "lugu": 3707,
      "▁gecmis": 3708,
      "▁hijyen": 3709,
      "▁n": 3710,
      "▁oz": 3711,
      "▁duyg": 3712,
      "rim": 3713,
      "▁kars": 3714,
      "▁edeb": 3715,
      "▁o": 3716,
      "▁hayat": 3717,
      "▁onlardan": 3718,
      "▁bulunuyor": 3719,
      "▁zamanda": 3720,
      "▁mes": 3721,
      "▁13": 3722,
      "▁yetk": 3723,
      "▁tesisten": 3724,
      "mek": 3725,
      "ıstır": 3726,
      "▁ces": 3727,
      "▁cam": 3728,
      "-": 3729,
      "ne": 3730,
      "0.": 3731,
      "▁yetkilileri": 3732,
      "▁mal": 3733,
      "▁hır": 3734,
      "▁”": 3735,
      "▁yapılan": 3736,
      "▁yaptir": 3737,
      "bu": 3738,
      "manı": 3739,
      "▁intern": 3740,
      "eet": 3741,
      "o": 3742,
      "_": 3743,
      "▁kapalı": 3744,
      "▁savunma": 3745,
      "esem": 3746,
      "'tan": 3747,
      "os": 3748,
      "▁kurtul": 3749,
      "dır": 3750,
      "ikti": 3751,
      "ık": 3752,
      "ilik": 3753,
      "▁22": 3754,
      "▁dam": 3755,
      "lardan": 3756,
      "eral": 3757,
      "▁california": 3758,
      "▁dusun": 3759,
      "▁z": 3760,
      "▁gonul": 3761,
      "ult": 3762,
      "▁ta": 3763,
      "ısını": 3764,
      "▁%9.": 3765,
      "anlık": 3766,
      "ayla": 3767,
      "▁gece": 3768,
      "ach": 3769,
      "▁kendisin": 3770,
      "▁tesisin": 3771,
      "am": 3772,
      "▁asla": 3773,
      "▁dusunuyor": 3774,
      "7": 3775,
      "amız": 3776,
      "▁yayın": 3777,
      "ih": 3778,
      "▁arac": 3779,
      "▁petrol": 3780,
      "-200": 3781,
      "en": 3782,
      "▁evet": 3783,
      "▁surdur": 3784,
      "▁sarı": 3785,
      "ta": 3786,
      "▁num": 3787,
      "▁fena": 3788,
      "iyle": 3789,
      "tıs": 3790,
      "▁motor": 3791,
      "▁sesi": 3792,
      "▁ec": 3793,
      "▁hızlı": 3794,
      "▁universit": 3795,
      "siyon": 3796,
      "▁min": 3797,
      "▁uzere": 3798,
      "dun": 3799,
      "▁taraf": 3800,
      "▁cur": 3801,
      "dav": 3802,
      "▁te": 3803,
      "▁cez": 3804,
      "▁tedav": 3805,
      "tiler": 3806,
      "▁ap": 3807,
      "▁%6.9": 3808,
      "ere": 3809,
      "▁ustu": 3810,
      "▁alıcı": 3811,
      "▁kaldır": 3812,
      "▁ciddi": 3813,
      "▁sark": 3814,
      "▁om": 3815,
      "▁halk": 3816,
      "▁hakkında": 3817,
      "▁airlin": 3818,
      "lık": 3819,
      "▁muzik": 3820,
      "▁telefon": 3821,
      "emiyor": 3822,
      "▁kork": 3823,
      "▁og": 3824,
      "ulmus": 3825,
      "▁sev": 3826,
      "ab": 3827,
      "▁iz": 3828,
      "▁ot": 3829,
      "▁islem": 3830,
      "mektedir": 3831,
      "eci": 3832,
      "▁gore": 3833,
      "ini": 3834,
      "diler": 3835,
      "alım": 3836,
      "▁sabah": 3837,
      "▁ak": 3838,
      "▁kırk": 3839,
      "tar": 3840,
      "▁mor": 3841,
      "▁bunları": 3842,
      "▁don": 3843,
      "ret": 3844,
      "ep": 3845,
      "▁26": 3846,
      "iyat": 3847,
      "▁def": 3848,
      "anlı": 3849,
      "ebi": 3850,
      "ardan": 3851,
      "phia": 3852,
      "lılık": 3853,
      "ist": 3854,
      "▁ca": 3855,
      "▁sem": 3856,
      "▁first": 3857,
      "▁mily": 3858,
      "▁kızı": 3859,
      "▁rest": 3860,
      "▁cogun": 3861,
      "forman": 3862,
      "▁nak": 3863,
      "▁cagır": 3864,
      "gileri": 3865,
      "▁oluyor": 3866,
      "▁%27": 3867,
      "o'ya": 3868,
      "▁ingiliz": 3869,
      "▁fır": 3870,
      "▁org": 3871,
      "▁kıv": 3872,
      "▁%5.4": 3873,
      "▁lung": 3874,
      "▁%3.43": 3875,
      "▁dolayı": 3876,
      "▁sigort": 3877,
      "▁yat": 3878,
      "▁arkadas": 3879,
      "▁sizler": 3880,
      "lıkla": 3881,
      "▁ort": 3882,
      "▁gorur": 3883,
      "▁et": 3884,
      "▁serv": 3885,
      "▁degisik": 3886,
      "acag": 3887,
      "mem": 3888,
      "▁kard": 3889,
      "▁adet": 3890,
      "anda": 3891,
      "▁chicag": 3892,
      "'deki": 3893,
      "gını": 3894,
      "▁milyon": 3895,
      "▁yalap": 3896,
      "@": 3897,
      "▁yapar": 3898,
      "▁baskan": 3899,
      "adelphia": 3900,
      "kın": 3901,
      "▁dos": 3902,
      "▁sehir": 3903,
      "nız": 3904,
      "▁yandan": 3905,
      "▁lungur": 3906,
      "▁amer": 3907,
      "▁karanlık": 3908,
      "▁olmadi": 3909,
      "▁hisset": 3910,
      "▁milwaukee": 3911,
      "▁34": 3912,
      "▁yıllar": 3913,
      "iyas": 3914,
      "yalar": 3915,
      "▁...": 3916,
      "▁asker": 3917,
      "▁gitt": 3918,
      "sil": 3919,
      "▁gr": 3920,
      "▁kurul": 3921,
      "▁yukselerek": 3922,
      "▁pasa": 3923,
      "▁engel": 3924,
      "▁kaldik": 3925,
      "°": 3926,
      "'ya": 3927,
      "lerden": 3928,
      "▁kut": 3929,
      "asına": 3930,
      "ri": 3931,
      "▁vardı": 3932,
      "▁ama": 3933,
      "▁ve": 3934,
      "▁giden": 3935,
      "▁kıymetler": 3936,
      "▁heyecan": 3937,
      "▁nas": 3938,
      "▁ruzgar": 3939,
      "lerinden": 3940,
      "▁if": 3941,
      "▁sahib": 3942,
      "rub": 3943,
      "ca": 3944,
      "▁gez": 3945,
      "▁arasındaki": 3946,
      "zet": 3947,
      "▁oran": 3948,
      "▁deney": 3949,
      "alar": 3950,
      "▁aldı": 3951,
      "2-23": 3952,
      "▁hiss": 3953,
      "iydi": 3954,
      "medigini": 3955,
      "▁saray": 3956,
      "ansız": 3957,
      "isco": 3958,
      "ik": 3959,
      "▁yagm": 3960,
      "▁pil": 3961,
      "▁kur": 3962,
      "▁aksam": 3963,
      "▁cik": 3964,
      "▁u": 3965,
      "▁babam": 3966,
      "▁alım": 3967,
      "92": 3968,
      "bir": 3969,
      "▁ister": 3970,
      "▁kent": 3971,
      "vil": 3972,
      "▁senin": 3973,
      "▁gur": 3974,
      "iri": 3975,
      "▁actı": 3976,
      "▁city": 3977,
      "▁olmadıgını": 3978,
      "▁evvel": 3979,
      "▁itibaren": 3980,
      "egas": 3981,
      "▁milyondan": 3982,
      "▁ayı": 3983,
      "▁birer": 3984,
      "cilik": 3985,
      "▁ilgisiz": 3986,
      "ınca": 3987,
      "bah": 3988,
      "deki": 3989,
      "erek": 3990,
      "▁gecer": 3991,
      "▁uzerindeki": 3992,
      "▁seviy": 3993,
      "▁hep": 3994,
      "ormal": 3995,
      "▁suz": 3996,
      "▁tesek": 3997,
      "▁yola": 3998,
      "ge": 3999,
      "amadim": 4000,
      "▁)": 4001,
      "oy": 4002,
      "▁allah": 4003,
      "▁on": 4004,
      "▁ucusa": 4005,
      "▁kaz": 4006,
      "▁46": 4007,
      "▁titr": 4008,
      "[UNK]": 4009,
      "▁hatır": 4010,
      "lama": 4011,
      "id": 4012,
      "ayıp": 4013,
      "eyle": 4014,
      "atur": 4015,
      "▁bl": 4016,
      "ınız": 4017,
      "isleri": 4018,
      "▁15": 4019,
      "▁birles": 4020,
      "imi": 4021,
      "▁boylece": 4022,
      "▁kalmıs": 4023,
      "▁sey": 4024,
      "▁olmak": 4025,
      "ısık": 4026,
      "ıldır": 4027,
      "meyen": 4028,
      "▁hikay": 4029,
      "▁otom": 4030,
      "▁bunların": 4031,
      "'na": 4032,
      "▁yanında": 4033,
      "▁hale": 4034,
      "▁malzem": 4035,
      "mez": 4036,
      "apon": 4037,
      "▁kaybet": 4038,
      "25": 4039,
      "▁ses": 4040,
      "▁of": 4041,
      "▁gol": 4042,
      "ustri": 4043,
      "▁karsı": 4044,
      "ington": 4045,
      "▁yatak": 4046,
      "▁kuv": 4047,
      "▁karsıl": 4048,
      "▁yumus": 4049,
      "▁%10": 4050,
      "▁w": 4051,
      "▁sek": 4052,
      "▁memph": 4053,
      "▁ard": 4054,
      "undeki": 4055,
      "▁gor": 4056,
      "▁nok": 4057,
      "▁can": 4058,
      "▁mumkun": 4059,
      "▁bende": 4060,
      "rily": 4061,
      "apur": 4062,
      "ancı": 4063,
      "▁gum": 4064,
      "▁bilmiyorum": 4065,
      "▁homur": 4066,
      "▁oldug": 4067,
      "bire": 4068,
      "▁sar": 4069,
      "▁ulus": 4070,
      "▁yapıl": 4071,
      "▁servisi": 4072,
      "▁bizim": 4073,
      "eme": 4074,
      "▁calısan": 4075,
      "▁32": 4076,
      "▁dor": 4077,
      "▁dc'ye": 4078,
      "▁olmaz": 4079,
      "▁bazı": 4080,
      "▁boy": 4081,
      "▁da": 4082,
      "▁%7.7": 4083,
      "▁gene": 4084,
      "▁gelistir": 4085,
      "▁edin": 4086,
      ".7": 4087,
      "tedir": 4088,
      "▁haf": 4089,
      "▁kutur": 4090,
      "gec": 4091,
      "▁angeles": 4092,
      "▁itir": 4093,
      "▁aradi": 4094,
      "▁dek": 4095
    },
    "merges": [
      [
        "▁k",
        "op"
      ],
      [
        "lul",
        "uk"
      ],
      [
        "▁aktar",
        "malı"
      ],
      [
        "▁bay",
        "ram"
      ],
      [
        "▁yan",
        "ı"
      ],
      [
        "▁k",
        "ısı"
      ],
      [
        "▁hiz",
        "met"
      ],
      [
        "di",
        "gi"
      ],
      [
        "m",
        "iyor"
      ],
      [
        "▁kıymet",
        "ler"
      ],
      [
        "▁az",
        "al"
      ],
      [
        "▁sip",
        "ar"
      ],
      [
        "▁tu",
        "r"
      ],
      [
        "▁os",
        "man"
      ],
      [
        "▁or",
        "negin"
      ],
      [
        "▁dıs",
        "arı"
      ],
      [
        ".",
        "0"
      ],
      [
        "▁d",
        "eg"
      ],
      [
        "▁4",
        "3"
      ],
      [
        "▁sak",
        "in"
      ],
      [
        "▁c",
        "il"
      ],
      [
        "▁%3.",
        "1"
      ],
      [
        "▁p",
        "iyas"
      ],
      [
        "c",
        "ı"
      ],
      [
        "▁b",
        "o"
      ],
      [
        "▁o",
        "t"
      ],
      [
        "▁l",
        "ist"
      ],
      [
        "▁kal",
        "p"
      ],
      [
        "▁un",
        "ut"
      ],
      [
        "ik",
        "a"
      ],
      [
        "ak",
        "et"
      ],
      [
        "▁mu",
        "h"
      ],
      [
        "▁cal",
        "ıs"
      ],
      [
        "▁must",
        "er"
      ],
      [
        "▁alt",
        "ında"
      ],
      [
        "▁c",
        "ev"
      ],
      [
        "▁m",
        "u"
      ],
      [
        "es",
        "i"
      ],
      [
        "▁b",
        "ırak"
      ],
      [
        "as",
        "ını"
      ],
      [
        "▁do",
        "v"
      ],
      [
        "▁s",
        "tan"
      ],
      [
        "▁m",
        "ısıl"
      ],
      [
        "▁bir",
        "cok"
      ],
      [
        "ac",
        "ı"
      ],
      [
        "u",
        "du"
      ],
      [
        "▁c",
        "iyak"
      ],
      [
        "▁egit",
        "im"
      ],
      [
        "▁b",
        "l"
      ],
      [
        "▁gi",
        "den"
      ],
      [
        "ması",
        "z"
      ],
      [
        "▁lutf",
        "en"
      ],
      [
        "an",
        "c"
      ],
      [
        "tim",
        "ore"
      ],
      [
        "▁",
        ","
      ],
      [
        "▁b",
        "an"
      ],
      [
        "▁yav",
        "as"
      ],
      [
        "▁tekn",
        "oloj"
      ],
      [
        "▁%3.",
        "5"
      ],
      [
        "ad",
        "ar"
      ],
      [
        "▁sen",
        "in"
      ],
      [
        "▁yap",
        "mak"
      ],
      [
        "▁y",
        "ag"
      ],
      [
        "▁kapan",
        "dı"
      ],
      [
        "▁",
        "/"
      ],
      [
        "▁ch",
        "ic"
      ],
      [
        "▁ka",
        "c"
      ],
      [
        "as",
        "ında"
      ],
      [
        "ist",
        "i"
      ],
      [
        "▁tesek",
        "kur"
      ],
      [
        "▁gor",
        "medim"
      ],
      [
        "ec",
        "ik"
      ],
      [
        "▁21",
        ":00-22:30"
      ],
      [
        "▁m",
        "it"
      ],
      [
        "▁a",
        "z"
      ],
      [
        "c",
        "ut"
      ],
      [
        "▁insa",
        "at"
      ],
      [
        "▁s",
        "up"
      ],
      [
        "▁199",
        "0"
      ],
      [
        "▁ek",
        "im"
      ],
      [
        "▁or",
        "anı"
      ],
      [
        "▁an",
        "cak"
      ],
      [
        "d",
        "aki"
      ],
      [
        "c",
        "o"
      ],
      [
        "▁",
        "p"
      ],
      [
        "▁kon",
        "um"
      ],
      [
        "k",
        "ar"
      ],
      [
        "▁",
        "9"
      ],
      [
        "siy",
        "on"
      ],
      [
        "▁onlar",
        "ı"
      ],
      [
        "▁d",
        "et"
      ],
      [
        "'n",
        "ın"
      ],
      [
        "al",
        "ap"
      ],
      [
        "▁ed",
        "in"
      ],
      [
        "m",
        "enin"
      ],
      [
        "▁yan",
        "l"
      ],
      [
        "b",
        "a"
      ],
      [
        "▁ih",
        "r"
      ],
      [
        "▁do",
        "lay"
      ],
      [
        "unc",
        "a"
      ],
      [
        "m",
        "is"
      ],
      [
        "i",
        "c"
      ],
      [
        "eler",
        "i"
      ],
      [
        "▁bo",
        "y"
      ],
      [
        "lı",
        "k"
      ],
      [
        "ler",
        "ini"
      ],
      [
        "r",
        "um"
      ],
      [
        "▁kal",
        "k"
      ],
      [
        "▁!",
        ".."
      ],
      [
        "og",
        "lu"
      ],
      [
        "▁par",
        "c"
      ],
      [
        "▁mı",
        "y"
      ],
      [
        "▁ucus",
        "a"
      ],
      [
        "▁red",
        "detti"
      ],
      [
        "e",
        "t"
      ],
      [
        "▁g",
        "u"
      ],
      [
        "▁is",
        "let"
      ],
      [
        "▁bak",
        "ım"
      ],
      [
        "▁memph",
        "is"
      ],
      [
        "▁phil",
        "adelphia"
      ],
      [
        "▁c",
        "unku"
      ],
      [
        "▁merk",
        "ez"
      ],
      [
        "▁r",
        "uh"
      ],
      [
        "▁got",
        "ur"
      ],
      [
        "er",
        "t"
      ],
      [
        "m",
        "e"
      ],
      [
        "ir",
        "an"
      ],
      [
        "em",
        "ey"
      ],
      [
        "▁bil",
        "et"
      ],
      [
        "n",
        "i"
      ],
      [
        "▁gercek",
        "les"
      ],
      [
        "▁c",
        "um"
      ],
      [
        "▁kur",
        "ulu"
      ],
      [
        "▁cumhur",
        "iyet"
      ],
      [
        "i",
        "h"
      ],
      [
        "▁kı",
        "v"
      ],
      [
        "▁ot",
        "el"
      ],
      [
        "▁sirket",
        "i"
      ],
      [
        "▁uc",
        "ret"
      ],
      [
        "imiz",
        "e"
      ],
      [
        "edi",
        "ye"
      ],
      [
        "ır",
        "ı"
      ],
      [
        "▁cor",
        "p"
      ],
      [
        "▁",
        "&"
      ],
      [
        "▁bir",
        "bir"
      ],
      [
        "▁hal",
        "a"
      ],
      [
        "▁iy",
        "ice"
      ],
      [
        "▁g",
        "it"
      ],
      [
        "▁ak",
        "tif"
      ],
      [
        "▁",
        "el"
      ],
      [
        "▁cic",
        "ek"
      ],
      [
        "▁al",
        "ıcı"
      ],
      [
        "▁mem",
        "ur"
      ],
      [
        "▁g",
        "rup"
      ],
      [
        "▁ask",
        "eri"
      ],
      [
        "l",
        "ası"
      ],
      [
        "▁dedi",
        "k"
      ],
      [
        "▁s",
        "av"
      ],
      [
        "▁1",
        "."
      ],
      [
        "▁do",
        "lar"
      ],
      [
        "o",
        "mur"
      ],
      [
        "▁ne",
        "y"
      ],
      [
        "vel",
        "and"
      ],
      [
        "s",
        "ı"
      ],
      [
        "▁aktar",
        "masız"
      ],
      [
        "ik",
        "ti"
      ],
      [
        "▁mi",
        "s"
      ],
      [
        "▁bey",
        "di"
      ],
      [
        "▁t",
        "am"
      ],
      [
        "▁h",
        "ay"
      ],
      [
        "▁p",
        "ıtır"
      ],
      [
        "lik",
        "le"
      ],
      [
        "▁mal",
        "z"
      ],
      [
        "▁p",
        "asa"
      ],
      [
        "▁",
        "k"
      ],
      [
        "▁s",
        "ay"
      ],
      [
        "▁mes",
        "el"
      ],
      [
        "▁%",
        "0"
      ],
      [
        "▁d",
        "av"
      ],
      [
        "▁ac",
        "isindan"
      ],
      [
        "▁birlik",
        "te"
      ],
      [
        "▁siz",
        "ler"
      ],
      [
        "▁mal",
        "i"
      ],
      [
        "▁y",
        "un"
      ],
      [
        "im",
        "di"
      ],
      [
        "▁gec",
        "mis"
      ],
      [
        "▁bab",
        "a"
      ],
      [
        "▁an",
        "da"
      ],
      [
        "▁s",
        "iy"
      ],
      [
        "▁ser",
        "may"
      ],
      [
        "▁yan",
        "dan"
      ],
      [
        "asyon",
        "u"
      ],
      [
        "▁g",
        "rub"
      ],
      [
        "am",
        "ıyor"
      ],
      [
        "▁uc",
        "uncu"
      ],
      [
        "▁yonet",
        "ic"
      ],
      [
        "▁d",
        "ay"
      ],
      [
        "▁har",
        "ika"
      ],
      [
        "▁k",
        "ayı"
      ],
      [
        "▁4",
        "0"
      ],
      [
        "▁ucus",
        "ların"
      ],
      [
        "▁kahv",
        "e"
      ],
      [
        "ab",
        "et"
      ],
      [
        "▁sok",
        "ak"
      ],
      [
        "am",
        "ıs"
      ],
      [
        "▁r",
        "ol"
      ],
      [
        "▁ulas",
        "ım"
      ],
      [
        "▁v",
        "az"
      ],
      [
        "p",
        "er"
      ],
      [
        "alar",
        "ın"
      ],
      [
        "▁chic",
        "ag"
      ],
      [
        "▁ber",
        "aber"
      ],
      [
        "▁kap",
        "an"
      ],
      [
        "▁bas",
        "ına"
      ],
      [
        "▁yer",
        "ine"
      ],
      [
        "▁genel",
        "likle"
      ],
      [
        "t",
        "ım"
      ],
      [
        "▁k",
        "am"
      ],
      [
        "enc",
        "er"
      ],
      [
        "▁d",
        "iy"
      ],
      [
        "▁hast",
        "alık"
      ],
      [
        "▁tık",
        "lım"
      ],
      [
        "d",
        "um"
      ],
      [
        "ler",
        "de"
      ],
      [
        "▁c",
        "el"
      ],
      [
        "▁sen",
        "edi"
      ],
      [
        "▁k",
        "os"
      ],
      [
        "▁begen",
        "medim"
      ],
      [
        "at",
        "en"
      ],
      [
        "▁sor",
        "du"
      ],
      [
        "len",
        "mis"
      ],
      [
        "m",
        "aları"
      ],
      [
        "▁y",
        "alap"
      ],
      [
        "▁har",
        "c"
      ],
      [
        "▁p",
        "er"
      ],
      [
        "▁on",
        "c"
      ],
      [
        "▁yıl",
        "ında"
      ],
      [
        "▁bu",
        "r"
      ],
      [
        "in",
        "de"
      ],
      [
        "▁mahk",
        "em"
      ],
      [
        "▁p",
        "eki"
      ],
      [
        ".",
        "9"
      ],
      [
        "▁5",
        "7"
      ],
      [
        "▁yap",
        "tir"
      ],
      [
        "▁sup",
        "er"
      ],
      [
        "acag",
        "ım"
      ],
      [
        "ul",
        "an"
      ],
      [
        "is",
        "s"
      ],
      [
        "'",
        "tan"
      ],
      [
        "▁b",
        "iz"
      ],
      [
        "▁soy",
        "len"
      ],
      [
        "▁",
        "#"
      ],
      [
        "ili",
        "gi"
      ],
      [
        "▁birka",
        "c"
      ],
      [
        "▁a",
        "y"
      ],
      [
        "▁r",
        "uz"
      ],
      [
        "▁baz",
        "i"
      ],
      [
        "os",
        "y"
      ],
      [
        "▁kap",
        "at"
      ],
      [
        "▁birbir",
        "ine"
      ],
      [
        "▁cid",
        "di"
      ],
      [
        "ap",
        "on"
      ],
      [
        "▁ol",
        "c"
      ],
      [
        "89",
        "-"
      ],
      [
        "▁ort",
        "ak"
      ],
      [
        "m",
        "ur"
      ],
      [
        "▁denver",
        "'den"
      ],
      [
        "a",
        "c"
      ],
      [
        "▁hav",
        "uz"
      ],
      [
        "l",
        "emek"
      ],
      [
        "▁har",
        "ik"
      ],
      [
        "v",
        "et"
      ],
      [
        "s",
        "an"
      ],
      [
        "dı",
        "lar"
      ],
      [
        "ıl",
        "ır"
      ],
      [
        "▁zen",
        "gin"
      ],
      [
        "▁tit",
        "r"
      ],
      [
        "▁h",
        "ic"
      ],
      [
        "▁kalit",
        "esi"
      ],
      [
        "ım",
        "ı"
      ],
      [
        "k",
        "ı"
      ],
      [
        "▁h",
        "ep"
      ],
      [
        "▁s",
        "eb"
      ],
      [
        "▁uc",
        "ak"
      ],
      [
        "ız",
        "ı"
      ],
      [
        "an",
        "ın"
      ],
      [
        "ort",
        "h"
      ],
      [
        "ur",
        "du"
      ],
      [
        "▁al",
        "abilir"
      ],
      [
        "▁olum",
        "lu"
      ],
      [
        "▁%2",
        "0"
      ],
      [
        "ev",
        "i"
      ],
      [
        "▁ver",
        "iyor"
      ],
      [
        "▁'",
        "nin"
      ],
      [
        "▁islet",
        "me"
      ],
      [
        "▁w",
        "est"
      ],
      [
        "▁m",
        "erk"
      ],
      [
        "g",
        "umuz"
      ],
      [
        "▁yemek",
        "leri"
      ],
      [
        "ım",
        "da"
      ],
      [
        "▁bas",
        "k"
      ],
      [
        "s",
        "iniz"
      ],
      [
        "▁v",
        "at"
      ],
      [
        "n",
        "a"
      ],
      [
        "ın",
        "c"
      ],
      [
        "▁seh",
        "ir"
      ],
      [
        "ler",
        "e"
      ],
      [
        "▁ozel",
        "likle"
      ],
      [
        "eler",
        "inde"
      ],
      [
        "▁art",
        "ıs"
      ],
      [
        "▁h",
        "ab"
      ],
      [
        "▁fık",
        "ır"
      ],
      [
        "ay",
        "et"
      ],
      [
        "▁gi",
        "d"
      ],
      [
        "▁sal",
        "t"
      ],
      [
        "▁",
        "lu"
      ],
      [
        "▁",
        "”"
      ],
      [
        "▁s",
        "ab"
      ],
      [
        "in",
        "e"
      ],
      [
        "iler",
        "ine"
      ],
      [
        "▁j",
        "ohn"
      ],
      [
        "▁il",
        "isk"
      ],
      [
        "▁b",
        "ek"
      ],
      [
        "ler",
        "le"
      ],
      [
        "▁r",
        "ap"
      ],
      [
        "▁sig",
        "ort"
      ],
      [
        "▁yuz",
        "den"
      ],
      [
        "▁uret",
        "ic"
      ],
      [
        "▁ul",
        "us"
      ],
      [
        "lıg",
        "a"
      ],
      [
        "▁gun",
        "luk"
      ],
      [
        "▁az",
        "ından"
      ],
      [
        "▁j",
        "os"
      ],
      [
        "▁gaz",
        "et"
      ],
      [
        "el",
        "i"
      ],
      [
        "▁",
        "ve"
      ],
      [
        "▁r",
        "en"
      ],
      [
        "▁if",
        "ade"
      ],
      [
        "▁b",
        "uy"
      ],
      [
        "1",
        "-19"
      ],
      [
        "▁ken",
        "di"
      ],
      [
        "▁bas",
        "lan"
      ],
      [
        "▁dur",
        "umu"
      ],
      [
        "▁m",
        "ir"
      ],
      [
        "▁cif",
        "t"
      ],
      [
        "il",
        "ir"
      ],
      [
        "▁haz",
        "iran"
      ],
      [
        "▁t",
        "eh"
      ],
      [
        "▁anal",
        "ist"
      ],
      [
        "dık",
        "ları"
      ],
      [
        "▁it",
        "hal"
      ],
      [
        "unc",
        "u"
      ],
      [
        "b",
        "u"
      ],
      [
        "▁kendiler",
        "ine"
      ],
      [
        "tı",
        "g"
      ],
      [
        "▁ay",
        "n"
      ],
      [
        "▁in",
        "san"
      ],
      [
        "▁ucus",
        "u"
      ],
      [
        "▁",
        "it"
      ],
      [
        "-",
        "19"
      ],
      [
        "▁top",
        "lum"
      ],
      [
        "▁3",
        "0"
      ],
      [
        "ır",
        "k"
      ],
      [
        "▁dı",
        "r"
      ],
      [
        "▁oldug",
        "u"
      ],
      [
        "t",
        "ar"
      ],
      [
        "on",
        "t"
      ],
      [
        "t",
        "or"
      ],
      [
        "ad",
        "an"
      ],
      [
        "▁bost",
        "on"
      ],
      [
        "▁basar",
        "ılı"
      ],
      [
        "▁kus",
        "ur"
      ],
      [
        "k",
        "ur"
      ],
      [
        "▁dol",
        "ay"
      ],
      [
        "em",
        "em"
      ],
      [
        "▁p",
        "ol"
      ],
      [
        "h",
        "al"
      ],
      [
        "▁biz",
        "i"
      ],
      [
        "▁neler",
        "dir"
      ],
      [
        "▁unit",
        "ed"
      ],
      [
        "▁",
        "."
      ],
      [
        "▁bek",
        "liyor"
      ],
      [
        "▁su",
        "z"
      ],
      [
        "▁su",
        "r"
      ],
      [
        "▁sey",
        "ahat"
      ],
      [
        "▁mek",
        "tu"
      ],
      [
        "▁bir",
        "lik"
      ],
      [
        "ı",
        "ng"
      ],
      [
        "y",
        "di"
      ],
      [
        "un",
        "un"
      ],
      [
        "en",
        "e"
      ],
      [
        "▁sıng",
        "ır"
      ],
      [
        "k",
        "an"
      ],
      [
        "▁y",
        "em"
      ],
      [
        "in",
        "da"
      ],
      [
        "▁fen",
        "a"
      ],
      [
        "'n",
        "de"
      ],
      [
        "▁montre",
        "al"
      ],
      [
        "p",
        "ıs"
      ],
      [
        "▁",
        "n"
      ],
      [
        "am",
        "aya"
      ],
      [
        "▁t",
        "av"
      ],
      [
        "▁uz",
        "ere"
      ],
      [
        "▁ver",
        "irim"
      ],
      [
        "▁1.",
        "1"
      ],
      [
        "▁deniz",
        "e"
      ],
      [
        "alar",
        "la"
      ],
      [
        "▁k",
        "ırk"
      ],
      [
        "ul",
        "t"
      ],
      [
        "▁sav",
        "un"
      ],
      [
        "d",
        "uk"
      ],
      [
        "ıyor",
        "du"
      ],
      [
        "▁hiss",
        "eler"
      ],
      [
        "7",
        "5"
      ],
      [
        "▁il",
        "gil"
      ],
      [
        "es",
        "t"
      ],
      [
        "▁f",
        "as"
      ],
      [
        "i",
        "ly"
      ],
      [
        "▁%",
        "9"
      ],
      [
        "▁t",
        "ay"
      ],
      [
        "▁g",
        "ir"
      ],
      [
        "▁eg",
        "it"
      ],
      [
        "erk",
        "en"
      ],
      [
        "▁etti",
        "gini"
      ],
      [
        "o",
        "br"
      ],
      [
        "▁c",
        "it"
      ],
      [
        "▁al",
        "i"
      ],
      [
        "▁",
        "ef"
      ],
      [
        "▁yok",
        "tu"
      ],
      [
        "▁ilgil",
        "i"
      ],
      [
        "▁y",
        "er"
      ],
      [
        "t",
        "r"
      ],
      [
        "▁dan",
        "ıs"
      ],
      [
        "▁bir",
        "ine"
      ],
      [
        "▁f",
        "i"
      ],
      [
        "▁soz",
        "les"
      ],
      [
        "▁r",
        "e"
      ],
      [
        "▁",
        "al"
      ],
      [
        "▁hay",
        "at"
      ],
      [
        "▁al",
        "ma"
      ],
      [
        "▁guven",
        "lik"
      ],
      [
        "s",
        "t"
      ],
      [
        "▁4",
        "9"
      ],
      [
        "-",
        "6"
      ],
      [
        "▁1.",
        "5"
      ],
      [
        "▁yuksel",
        "t"
      ],
      [
        ":",
        "30"
      ],
      [
        "▁guleryuz",
        "luydu"
      ],
      [
        "▁5",
        "2"
      ],
      [
        "es",
        "iz"
      ],
      [
        "ag",
        "ı"
      ],
      [
        "▁on",
        "em"
      ],
      [
        "▁k",
        "av"
      ],
      [
        "▁s",
        "ar"
      ],
      [
        "u",
        "ng"
      ],
      [
        "▁s",
        "or"
      ],
      [
        "▁m",
        "et"
      ],
      [
        "▁giz",
        "li"
      ],
      [
        "▁b",
        "ag"
      ],
      [
        "▁art",
        "ık"
      ],
      [
        "▁fa",
        "al"
      ],
      [
        "▁de",
        "sik"
      ],
      [
        "▁kur",
        "tar"
      ],
      [
        "▁y",
        "irmi"
      ],
      [
        "▁kim",
        "se"
      ],
      [
        "▁kars",
        "il"
      ],
      [
        "▁7",
        "0"
      ],
      [
        "s",
        "ız"
      ],
      [
        "▁k",
        "ay"
      ],
      [
        "▁bas",
        "it"
      ],
      [
        "▁birbir",
        "i"
      ],
      [
        "e",
        "c"
      ],
      [
        "▁gun",
        "ey"
      ],
      [
        "▁tek",
        "lif"
      ],
      [
        "▁a",
        "t"
      ],
      [
        "f",
        "i"
      ],
      [
        "▁e",
        "lli"
      ],
      [
        "▁dus",
        "un"
      ],
      [
        "▁gen",
        "eral"
      ],
      [
        "▁d",
        "ar"
      ],
      [
        "▁cog",
        "u"
      ],
      [
        "▁dusuk",
        "tu"
      ],
      [
        "▁d",
        "or"
      ],
      [
        "g",
        "ar"
      ],
      [
        "▁bey",
        "az"
      ],
      [
        "g",
        "or"
      ],
      [
        "▁list",
        "el"
      ],
      [
        "▁on",
        "er"
      ],
      [
        "▁d",
        "iyor"
      ],
      [
        "▁d",
        "ost"
      ],
      [
        "t",
        "e"
      ],
      [
        "▁endek",
        "si"
      ],
      [
        "▁bulun",
        "an"
      ],
      [
        "▁",
        "b"
      ],
      [
        "lar",
        "ımız"
      ],
      [
        "da",
        "v"
      ],
      [
        "▁son",
        "uc"
      ],
      [
        "▁ih",
        "t"
      ],
      [
        "o",
        "z"
      ],
      [
        "▁hat",
        "ır"
      ],
      [
        "o",
        "r"
      ],
      [
        "l",
        "ılık"
      ],
      [
        "os",
        "u"
      ],
      [
        "▁%5",
        "1"
      ],
      [
        "▁198",
        "8"
      ],
      [
        "▁yuk",
        "s"
      ],
      [
        "ı",
        "k"
      ],
      [
        "▁c",
        "al"
      ],
      [
        "▁memnun",
        "um"
      ],
      [
        "▁?",
        ".."
      ],
      [
        "is",
        "indan"
      ],
      [
        "▁h",
        "as"
      ],
      [
        "iy",
        "on"
      ],
      [
        "gil",
        "eri"
      ],
      [
        "▁altın",
        "da"
      ],
      [
        "▁",
        "in"
      ],
      [
        "▁bil",
        "iyor"
      ],
      [
        "l",
        "ay"
      ],
      [
        "ır",
        "t"
      ],
      [
        "▁y",
        "du"
      ],
      [
        "▁bic",
        "im"
      ],
      [
        "▁kon",
        "g"
      ],
      [
        "▁ev",
        "de"
      ],
      [
        "▁kurul",
        "us"
      ],
      [
        "▁cocuk",
        "lu"
      ],
      [
        "iler",
        "i"
      ],
      [
        "▁",
        "s"
      ],
      [
        "▁def",
        "a"
      ],
      [
        "▁coc",
        "ugun"
      ],
      [
        "▁h",
        "i"
      ],
      [
        ".",
        "."
      ],
      [
        "lay",
        "arak"
      ],
      [
        "▁yuks",
        "el"
      ],
      [
        "▁g",
        "ayet"
      ],
      [
        "'",
        "den"
      ],
      [
        "▁b",
        "os"
      ],
      [
        "▁f",
        "eder"
      ],
      [
        "▁p",
        "ers"
      ],
      [
        "is",
        "inin"
      ],
      [
        "▁ak",
        "tiv"
      ],
      [
        "▁uzer",
        "indeki"
      ],
      [
        "▁bildir",
        "di"
      ],
      [
        "▁o",
        "lar"
      ],
      [
        "▁1",
        "6"
      ],
      [
        "ya",
        "'da"
      ],
      [
        "▁5",
        "1"
      ],
      [
        "n",
        "ız"
      ],
      [
        "▁s",
        "ez"
      ],
      [
        "▁must",
        "eri"
      ],
      [
        "▁or",
        "land"
      ],
      [
        "▁li",
        "der"
      ],
      [
        "▁b",
        "ey"
      ],
      [
        "▁s",
        "ec"
      ],
      [
        "'n",
        "da"
      ],
      [
        "▁m",
        "av"
      ],
      [
        "▁soz",
        "cusu"
      ],
      [
        "ay",
        "ım"
      ],
      [
        "▁ayak",
        "k"
      ],
      [
        "▁ol",
        "mus"
      ],
      [
        "▁tut",
        "tu"
      ],
      [
        "▁kendiler",
        "i"
      ],
      [
        "▁n",
        "ih"
      ],
      [
        "ac",
        "ag"
      ],
      [
        "t",
        "ı"
      ],
      [
        "▁h",
        "es"
      ],
      [
        "▁uc",
        "us"
      ],
      [
        "▁kon",
        "s"
      ],
      [
        "▁listel",
        "e"
      ],
      [
        "if",
        "orn"
      ],
      [
        "ag",
        "an"
      ],
      [
        "▁der",
        "g"
      ],
      [
        "las",
        "yon"
      ],
      [
        "▁personel",
        "i"
      ],
      [
        "▁3",
        "/"
      ],
      [
        "▁m",
        "ay"
      ],
      [
        "for",
        "man"
      ],
      [
        "du",
        "lar"
      ],
      [
        "▁s",
        "is"
      ],
      [
        "q",
        "u"
      ],
      [
        "▁s",
        "imdi"
      ],
      [
        "iyet",
        "i"
      ],
      [
        "di",
        "g"
      ],
      [
        "l",
        "ah"
      ],
      [
        "▁uc",
        "uz"
      ],
      [
        "m",
        "esini"
      ],
      [
        "ladı",
        "k"
      ],
      [
        "in",
        "dan"
      ],
      [
        "▁kar",
        "s"
      ],
      [
        "▁yap",
        "tık"
      ],
      [
        "▁b",
        "ed"
      ],
      [
        "2",
        "-23"
      ],
      [
        "i",
        "m"
      ],
      [
        "▁oz",
        "el"
      ],
      [
        "▁ban",
        "ka"
      ],
      [
        "▁belirt",
        "ti"
      ],
      [
        "▁3",
        "9"
      ],
      [
        "▁d",
        "is"
      ],
      [
        "eler",
        "ek"
      ],
      [
        "▁al",
        "lah"
      ],
      [
        "▁st",
        "."
      ],
      [
        "▁s",
        "uyu"
      ],
      [
        "▁ev",
        "e"
      ],
      [
        "g",
        "is"
      ],
      [
        "▁tes",
        "isti"
      ],
      [
        "▁ko",
        "ca"
      ],
      [
        "ay",
        "ol"
      ],
      [
        "▁",
        "cok"
      ],
      [
        "▁w",
        "orth"
      ],
      [
        "▁kard",
        "es"
      ],
      [
        "or",
        "e"
      ],
      [
        "▁f",
        "a"
      ],
      [
        "▁dev",
        "am"
      ],
      [
        "▁s",
        "arı"
      ],
      [
        "▁l",
        "ond"
      ],
      [
        "▁y",
        "uz"
      ],
      [
        "uz",
        "el"
      ],
      [
        "d",
        "al"
      ],
      [
        "di",
        "ler"
      ],
      [
        "ark",
        "en"
      ],
      [
        "▁s",
        "ip"
      ],
      [
        "▁ol",
        "du"
      ],
      [
        "▁fatur",
        "am"
      ],
      [
        "▁tamam",
        "en"
      ],
      [
        "▁6",
        "0"
      ],
      [
        "▁i",
        "z"
      ],
      [
        "▁f",
        "az"
      ],
      [
        "▁..",
        "\""
      ],
      [
        "▁sur",
        "e"
      ],
      [
        "n",
        "ek"
      ],
      [
        "▁",
        "un"
      ],
      [
        "g",
        "e"
      ],
      [
        "▁h",
        "ij"
      ],
      [
        "▁uz",
        "an"
      ],
      [
        "▁n",
        "ik"
      ],
      [
        "▁var",
        "sa"
      ],
      [
        "▁sın",
        "ır"
      ],
      [
        "▁",
        "h"
      ],
      [
        "▁ne",
        "ler"
      ],
      [
        "▁oldu",
        "gunu"
      ],
      [
        "et",
        "in"
      ],
      [
        "▁yer",
        "inde"
      ],
      [
        "u",
        "tur"
      ],
      [
        "▁cı",
        "yak"
      ],
      [
        "lar",
        "i"
      ],
      [
        "▁p",
        "il"
      ],
      [
        "▁r",
        "ast"
      ],
      [
        "▁as",
        "agı"
      ],
      [
        "▁or",
        "g"
      ],
      [
        "▁ar",
        "k"
      ],
      [
        "i",
        "j"
      ],
      [
        "▁sahib",
        "i"
      ],
      [
        "▁bir",
        "i"
      ],
      [
        "▁bu",
        "t"
      ],
      [
        "t",
        "ur"
      ],
      [
        "▁g",
        "ay"
      ],
      [
        "f",
        "a"
      ],
      [
        "b",
        "ir"
      ],
      [
        "▁washington",
        "'dan"
      ],
      [
        "▁s",
        "ı"
      ],
      [
        "▁haf",
        "ta"
      ],
      [
        "▁y",
        "di"
      ],
      [
        "dı",
        "z"
      ],
      [
        "dı",
        "r"
      ],
      [
        "▁herk",
        "es"
      ],
      [
        "▁k",
        "ol"
      ],
      [
        "▁ok",
        "uy"
      ],
      [
        "▁ulus",
        "lar"
      ],
      [
        "▁bek",
        "lem"
      ],
      [
        "alar",
        "da"
      ],
      [
        "▁i",
        "d"
      ],
      [
        "tı",
        "lar"
      ],
      [
        "t",
        "an"
      ],
      [
        "▁l",
        "ir"
      ],
      [
        "▁g",
        "iy"
      ],
      [
        "▁sosy",
        "al"
      ],
      [
        "▁sınıf",
        "ı"
      ],
      [
        "▁fr",
        "ansız"
      ],
      [
        "▁fab",
        "rik"
      ],
      [
        "▁gel",
        "mis"
      ],
      [
        "▁gel",
        "ecek"
      ],
      [
        "▁atlan",
        "ta"
      ],
      [
        "▁d",
        "ı"
      ],
      [
        "g",
        "ı"
      ],
      [
        "▁ol",
        "us"
      ],
      [
        "▁s",
        "af"
      ],
      [
        "▁tur",
        "lu"
      ],
      [
        "▁yer",
        "el"
      ],
      [
        "▁yap",
        "ar"
      ],
      [
        "o",
        "y"
      ],
      [
        "▁degiller",
        "di"
      ],
      [
        "▁",
        "edi"
      ],
      [
        "▁s",
        "of"
      ],
      [
        "▁res",
        "mi"
      ],
      [
        "y",
        "a"
      ],
      [
        "▁c",
        "ir"
      ],
      [
        "▁gec",
        "ti"
      ],
      [
        "▁t",
        "ar"
      ],
      [
        "du",
        "gu"
      ],
      [
        "▁t",
        "or"
      ],
      [
        "▁dog",
        "r"
      ],
      [
        "▁h",
        "a"
      ],
      [
        "k",
        "ır"
      ],
      [
        "▁git",
        "mek"
      ],
      [
        "▁hay",
        "ır"
      ],
      [
        "▁ham",
        "am"
      ],
      [
        "m",
        "alı"
      ],
      [
        "ev",
        "iz"
      ],
      [
        "▁dol",
        "as"
      ],
      [
        "▁o",
        "den"
      ],
      [
        "▁h",
        "az"
      ],
      [
        "▁sek",
        "er"
      ],
      [
        "▁h",
        "o"
      ],
      [
        "is",
        "ine"
      ],
      [
        "▁k",
        "ot"
      ],
      [
        "▁hız",
        "lı"
      ],
      [
        "4",
        "5"
      ],
      [
        "▁nere",
        "den"
      ],
      [
        "▁b",
        "ak"
      ],
      [
        "▁gel",
        "di"
      ],
      [
        "ar",
        "ında"
      ],
      [
        "▁n",
        "ak"
      ],
      [
        "▁var",
        "lık"
      ],
      [
        "▁bab",
        "am"
      ],
      [
        "▁r",
        "ahat"
      ],
      [
        "▁1/",
        "4"
      ],
      [
        "▁%7.8",
        "75"
      ],
      [
        "▁yet",
        "is"
      ],
      [
        "▁s",
        "o"
      ],
      [
        "en",
        "t"
      ],
      [
        "on",
        "om"
      ],
      [
        "is",
        "ki"
      ],
      [
        "▁pr",
        "ogram"
      ],
      [
        "▁kab",
        "ul"
      ],
      [
        "ı",
        "n"
      ],
      [
        "▁t",
        "uc"
      ],
      [
        "'n",
        "dan"
      ],
      [
        "▁kan",
        "un"
      ],
      [
        "o",
        "l"
      ],
      [
        "tı",
        "yor"
      ],
      [
        "▁s",
        "ur"
      ],
      [
        "▁bun",
        "lar"
      ],
      [
        "m",
        "in"
      ],
      [
        "▁te",
        "dav"
      ],
      [
        "▁gidi",
        "s"
      ],
      [
        "▁olm",
        "az"
      ],
      [
        "▁sen",
        "i"
      ],
      [
        "▁d",
        "o"
      ],
      [
        "a",
        "di"
      ],
      [
        "▁k",
        "ar"
      ],
      [
        "▁k",
        "or"
      ],
      [
        "▁h",
        "an"
      ],
      [
        "▁gel",
        "en"
      ],
      [
        "▁har",
        "ıl"
      ],
      [
        "▁ort",
        "aya"
      ],
      [
        "▁bilgisay",
        "ar"
      ],
      [
        "▁rez",
        "erv"
      ],
      [
        "imiz",
        "in"
      ],
      [
        "on",
        "ik"
      ],
      [
        "▁d",
        "obr"
      ],
      [
        "▁s",
        "an"
      ],
      [
        "▁d",
        "ur"
      ],
      [
        "em",
        "e"
      ],
      [
        "ıs",
        "ı"
      ],
      [
        "▁k",
        "ost"
      ],
      [
        "▁ben",
        "den"
      ],
      [
        "▁t",
        "r"
      ],
      [
        "g",
        "ur"
      ],
      [
        "b",
        "et"
      ],
      [
        "▁t",
        "ers"
      ],
      [
        "▁y",
        "ık"
      ],
      [
        "▁kap",
        "sam"
      ],
      [
        "▁is",
        "ler"
      ],
      [
        "▁k",
        "uc"
      ],
      [
        "alar",
        "ına"
      ],
      [
        "▁d",
        "an"
      ],
      [
        "▁bas",
        "lamıs"
      ],
      [
        "las",
        "tır"
      ],
      [
        "▁mis",
        "afir"
      ],
      [
        "▁sekil",
        "de"
      ],
      [
        "g",
        "an"
      ],
      [
        "c",
        "ak"
      ],
      [
        "ist",
        "ir"
      ],
      [
        "▁b",
        "eni"
      ],
      [
        "▁z",
        "ırt"
      ],
      [
        "▁bor",
        "c"
      ],
      [
        "▁fiyat",
        "i"
      ],
      [
        "▁do",
        "gru"
      ],
      [
        "▁ayn",
        "i"
      ],
      [
        "▁h",
        "at"
      ],
      [
        "r",
        "up"
      ],
      [
        "d",
        "ir"
      ],
      [
        "lar",
        "a"
      ],
      [
        "a",
        "de"
      ],
      [
        "▁vegas",
        "'a"
      ],
      [
        "'",
        "e"
      ],
      [
        "▁b",
        "eye"
      ],
      [
        "00",
        "00"
      ],
      [
        "▁di",
        "k"
      ],
      [
        "▁il",
        "gi"
      ],
      [
        "ac",
        "ak"
      ],
      [
        "▁deg",
        "er"
      ],
      [
        "es",
        "tir"
      ],
      [
        "um",
        "e"
      ],
      [
        "▁ch",
        "arl"
      ],
      [
        "in",
        "n"
      ],
      [
        "▁ker",
        "e"
      ],
      [
        "▁k",
        "r"
      ],
      [
        "▁kucuk",
        "tu"
      ],
      [
        "▁kit",
        "ap"
      ],
      [
        "▁al",
        "man"
      ],
      [
        "▁kullan",
        "madim"
      ],
      [
        "▁",
        "“"
      ],
      [
        "▁b",
        "og"
      ],
      [
        "▁ol",
        "sa"
      ],
      [
        "▁bir",
        "az"
      ],
      [
        "ıl",
        "ım"
      ],
      [
        "▁cev",
        "ap"
      ],
      [
        "▁ihtiy",
        "ac"
      ],
      [
        "▁kal",
        "dır"
      ],
      [
        "▁t",
        "e"
      ],
      [
        "▁b",
        "er"
      ],
      [
        "ıyor",
        "um"
      ],
      [
        "▁%4",
        ".8"
      ],
      [
        "▁n",
        "er"
      ],
      [
        "acı",
        "lar"
      ],
      [
        "ur",
        "ken"
      ],
      [
        "▁goster",
        "iyor"
      ],
      [
        "▁ag",
        "ustos"
      ],
      [
        "▁c",
        "inc"
      ],
      [
        "▁yeter",
        "li"
      ],
      [
        "▁fay",
        "d"
      ],
      [
        "s",
        "ik"
      ],
      [
        "▁he",
        "m"
      ],
      [
        "▁m",
        "ar"
      ],
      [
        "▁ucus",
        "lar"
      ],
      [
        "▁%3.4",
        "3"
      ],
      [
        "ab",
        "a"
      ],
      [
        "en",
        "dir"
      ],
      [
        "alar",
        "dan"
      ],
      [
        "▁5",
        "0"
      ],
      [
        "▁t",
        "ip"
      ],
      [
        "▁bit",
        "ir"
      ],
      [
        "▁gen",
        "is"
      ],
      [
        "▁bel",
        "ki"
      ],
      [
        "▁pet",
        "ers"
      ],
      [
        "▁city",
        "'e"
      ],
      [
        "▁od",
        "em"
      ],
      [
        "ı",
        "s"
      ],
      [
        "▁baltimore",
        "'ye"
      ],
      [
        "▁v",
        "egas"
      ],
      [
        "▁rek",
        "lam"
      ],
      [
        "ler",
        "iyle"
      ],
      [
        "▁kol",
        "tuk"
      ],
      [
        "l",
        "as"
      ],
      [
        "▁k",
        "is"
      ],
      [
        "▁ak",
        "tar"
      ],
      [
        "▁p",
        "itt"
      ],
      [
        "▁'",
        "d"
      ],
      [
        "▁ar",
        "ac"
      ],
      [
        "▁siz",
        "i"
      ],
      [
        "▁z",
        "or"
      ],
      [
        "▁t",
        "iyat"
      ],
      [
        "'",
        "ı"
      ],
      [
        "▁ogle",
        "den"
      ],
      [
        "is",
        "leri"
      ],
      [
        "▁gi",
        "bi"
      ],
      [
        "▁gen",
        "e"
      ],
      [
        "▁u",
        "m"
      ],
      [
        "l",
        "i"
      ],
      [
        "▁ya",
        "hut"
      ],
      [
        "oh",
        "n"
      ],
      [
        "▁faal",
        "iyet"
      ],
      [
        "▁y",
        "onel"
      ],
      [
        "▁yap",
        "ı"
      ],
      [
        "▁yap",
        "tı"
      ],
      [
        "▁a",
        "dım"
      ],
      [
        "▁oyun",
        "cu"
      ],
      [
        "▁zaman",
        "lar"
      ],
      [
        "ay",
        "ı"
      ],
      [
        "'",
        "da"
      ],
      [
        "sun",
        "uz"
      ],
      [
        "▁kıy",
        "met"
      ],
      [
        "s",
        "im"
      ],
      [
        "▁uy",
        "an"
      ],
      [
        "▁bal",
        "ık"
      ],
      [
        "▁den",
        "iz"
      ],
      [
        "acag",
        "ız"
      ],
      [
        "▁kendisin",
        "e"
      ],
      [
        "▁par",
        "a"
      ],
      [
        "u",
        "g"
      ],
      [
        "▁t",
        "ı"
      ],
      [
        "▁f",
        "ing"
      ],
      [
        "ıs",
        "ının"
      ],
      [
        "▁guzel",
        "di"
      ],
      [
        "u",
        "b"
      ],
      [
        "▁an",
        "im"
      ],
      [
        "▁temiz",
        "lik"
      ],
      [
        "▁z",
        "en"
      ],
      [
        "▁%0",
        ".3"
      ],
      [
        "▁mi",
        "sin"
      ],
      [
        "o",
        "t"
      ],
      [
        "l",
        "es"
      ],
      [
        "▁merkez",
        "ine"
      ],
      [
        "mas",
        "ının"
      ],
      [
        "d",
        "et"
      ],
      [
        "▁p",
        "lan"
      ],
      [
        "▁yar",
        "at"
      ],
      [
        "▁amer",
        "ik"
      ],
      [
        "ır",
        "ak"
      ],
      [
        "▁o",
        "r"
      ],
      [
        "▁c",
        "ay"
      ],
      [
        "ler",
        "in"
      ],
      [
        "▁dal",
        "las"
      ],
      [
        "▁mem",
        "leket"
      ],
      [
        "▁id",
        "di"
      ],
      [
        "▁g",
        "ar"
      ],
      [
        "▁tarih",
        "i"
      ],
      [
        "▁s",
        "t"
      ],
      [
        "il",
        "i"
      ],
      [
        "▁yanl",
        "ıs"
      ],
      [
        "ası",
        "yor"
      ],
      [
        "▁ic",
        "i"
      ],
      [
        "▁la",
        "f"
      ],
      [
        "u",
        "s"
      ],
      [
        "▁at",
        "es"
      ],
      [
        "▁m",
        "ez"
      ],
      [
        "▁lou",
        "is"
      ],
      [
        "▁m",
        "ec"
      ],
      [
        "in",
        "in"
      ],
      [
        "ecek",
        "tir"
      ],
      [
        "an",
        "k"
      ],
      [
        "▁%6",
        ".4"
      ],
      [
        "▁y",
        "um"
      ],
      [
        "mıs",
        "tır"
      ],
      [
        "s",
        "ak"
      ],
      [
        "▁savun",
        "ma"
      ],
      [
        "▁yol",
        "a"
      ],
      [
        "▁k",
        "ı"
      ],
      [
        "▁el",
        "de"
      ],
      [
        "▁",
        "vır"
      ],
      [
        "▁ulas",
        "ımı"
      ],
      [
        "▁onun",
        "la"
      ],
      [
        "▁o",
        "cak"
      ],
      [
        "▁degil",
        "se"
      ],
      [
        "▁-",
        "-"
      ],
      [
        "▁ben",
        "ce"
      ],
      [
        "dıg",
        "ım"
      ],
      [
        "▁milwaukee",
        "'ye"
      ],
      [
        "e",
        "di"
      ],
      [
        "▁h",
        "iz"
      ],
      [
        "▁hav",
        "ayol"
      ],
      [
        "▁t",
        "ut"
      ],
      [
        "▁i",
        "ti"
      ],
      [
        "iz",
        "e"
      ],
      [
        "ur",
        "lu"
      ],
      [
        "▁at",
        "aturk"
      ],
      [
        "▁m",
        "is"
      ],
      [
        "co",
        "k"
      ],
      [
        "▁kendi",
        "mi"
      ],
      [
        "▁yon",
        "et"
      ],
      [
        "▁do",
        "kuz"
      ],
      [
        "er",
        "di"
      ],
      [
        "▁",
        "ep"
      ],
      [
        "▁s",
        "iz"
      ],
      [
        "▁r",
        "ef"
      ],
      [
        "▁yuz",
        "u"
      ],
      [
        "▁n",
        "eler"
      ],
      [
        "▁ben",
        "de"
      ],
      [
        "▁kal",
        "dim"
      ],
      [
        "▁b",
        "ol"
      ],
      [
        "v",
        "an"
      ],
      [
        "▁fiyat",
        "a"
      ],
      [
        "▁p",
        "oz"
      ],
      [
        "▁hic",
        "bir"
      ],
      [
        "▁onlar",
        "ın"
      ],
      [
        "▁",
        "ustu"
      ],
      [
        "am",
        "ası"
      ],
      [
        "▁guleryuz",
        "lu"
      ],
      [
        "▁gel",
        "istir"
      ],
      [
        "▁ucret",
        "i"
      ],
      [
        "▁yur",
        "ut"
      ],
      [
        "▁dog",
        "ru"
      ],
      [
        "▁k",
        "af"
      ],
      [
        "▁ust",
        "unde"
      ],
      [
        "t",
        "ır"
      ],
      [
        "▁t",
        "ur"
      ],
      [
        "▁yemek",
        "ler"
      ],
      [
        "▁do",
        "w"
      ],
      [
        "am",
        "b"
      ],
      [
        "▁de",
        "gis"
      ],
      [
        "▁d",
        "iz"
      ],
      [
        "▁o",
        "f"
      ],
      [
        "▁cık",
        "mıs"
      ],
      [
        "▁hav",
        "al"
      ],
      [
        "▁ay",
        "ında"
      ],
      [
        "▁res",
        "im"
      ],
      [
        "▁bog",
        "az"
      ],
      [
        "a",
        "dı"
      ],
      [
        "▁sav",
        "as"
      ],
      [
        "▁ag",
        "ız"
      ],
      [
        "5",
        "-1"
      ],
      [
        "▁yap",
        "an"
      ],
      [
        "▁g",
        "r"
      ],
      [
        "▁199",
        "1-19"
      ],
      [
        "lig",
        "e"
      ],
      [
        "ab",
        "ilir"
      ],
      [
        "▁b",
        "us"
      ],
      [
        "▁s",
        "ok"
      ],
      [
        "ek",
        "li"
      ],
      [
        "▁biz",
        "ler"
      ],
      [
        "▁edi",
        "l"
      ],
      [
        "▁kıy",
        "as"
      ],
      [
        "ey",
        "e"
      ],
      [
        "▁k",
        "ut"
      ],
      [
        "lı",
        "m"
      ],
      [
        "▁degil",
        "ler"
      ],
      [
        "e",
        "de"
      ],
      [
        "▁b",
        "uz"
      ],
      [
        "▁g",
        "ez"
      ],
      [
        "uy",
        "du"
      ],
      [
        "in",
        "c"
      ],
      [
        "▁al",
        "amadim"
      ],
      [
        "▁haf",
        "if"
      ],
      [
        "▁g",
        "ec"
      ],
      [
        "▁insan",
        "ları"
      ],
      [
        "▁mi",
        "y"
      ],
      [
        "tı",
        "gını"
      ],
      [
        "▁miy",
        "im"
      ],
      [
        "▁5",
        "00"
      ],
      [
        "▁k",
        "o"
      ],
      [
        "0",
        "0"
      ],
      [
        "s",
        "em"
      ],
      [
        "▁el",
        "e"
      ],
      [
        ".2",
        "5"
      ],
      [
        "▁d",
        "ok"
      ],
      [
        "▁yet",
        "k"
      ],
      [
        "d",
        "ay"
      ],
      [
        "▁al",
        "mak"
      ],
      [
        "ılı",
        "gı"
      ],
      [
        "▁c",
        "eb"
      ],
      [
        "▁er",
        "t"
      ],
      [
        "ey",
        "le"
      ],
      [
        "▁edi",
        "p"
      ],
      [
        "▁sat",
        "ım"
      ],
      [
        "▁mily",
        "ar"
      ],
      [
        "▁c",
        "ic"
      ],
      [
        "'",
        "ye"
      ],
      [
        "▁1/",
        "2"
      ],
      [
        "▁feder",
        "al"
      ],
      [
        "▁ekonom",
        "i"
      ],
      [
        "▁k",
        "ur"
      ],
      [
        "▁s",
        "ek"
      ],
      [
        "▁c",
        "ep"
      ],
      [
        "▁sev",
        "gil"
      ],
      [
        "▁dallas",
        "'tan"
      ],
      [
        "m",
        "em"
      ],
      [
        "▁m",
        "ı"
      ],
      [
        "▁d",
        "est"
      ],
      [
        "s",
        "ın"
      ],
      [
        "▁y",
        "el"
      ],
      [
        "▁ol",
        "duk"
      ],
      [
        "▁sin",
        "ir"
      ],
      [
        "l",
        "y"
      ],
      [
        "▁den",
        "ver"
      ],
      [
        "▁s",
        "uy"
      ],
      [
        "▁faz",
        "la"
      ],
      [
        "▁ver",
        "digim"
      ],
      [
        "l",
        "a"
      ],
      [
        "▁c",
        "ab"
      ],
      [
        "▁ik",
        "i"
      ],
      [
        "▁b",
        "or"
      ],
      [
        "▁s",
        "osy"
      ],
      [
        "▁yetersiz",
        "di"
      ],
      [
        "▁d",
        "ek"
      ],
      [
        "▁%6",
        ".9"
      ],
      [
        "▁bal",
        "timore"
      ],
      [
        "ul",
        "mus"
      ],
      [
        "▁olur",
        "sa"
      ],
      [
        "▁doları",
        "'na"
      ],
      [
        "c",
        "usu"
      ],
      [
        "▁dedi",
        "m"
      ],
      [
        "▁tam",
        "am"
      ],
      [
        "b",
        "ol"
      ],
      [
        "▁o",
        "da"
      ],
      [
        "▁h",
        "ır"
      ],
      [
        "▁d",
        "uy"
      ],
      [
        "▁et",
        "raf"
      ],
      [
        "ıs",
        "ız"
      ],
      [
        ":",
        "00"
      ],
      [
        "'",
        "dan"
      ],
      [
        "m",
        "er"
      ],
      [
        "▁s",
        "ır"
      ],
      [
        "▁yan",
        "ında"
      ],
      [
        "▁birbirler",
        "ine"
      ],
      [
        "u",
        "v"
      ],
      [
        "▁",
        "m"
      ],
      [
        "li",
        "gini"
      ],
      [
        "man",
        "ın"
      ],
      [
        "▁ne",
        "den"
      ],
      [
        "e",
        "f"
      ],
      [
        "▁k",
        "oc"
      ],
      [
        "▁rom",
        "an"
      ],
      [
        "▁%",
        "6"
      ],
      [
        "y",
        "se"
      ],
      [
        "▁cinc",
        "innati"
      ],
      [
        "en",
        "c"
      ],
      [
        "'n",
        "in"
      ],
      [
        "▁sur",
        "dur"
      ],
      [
        "▁an",
        "las"
      ],
      [
        "▁b",
        "en"
      ],
      [
        "▁tabi",
        "i"
      ],
      [
        "▁ger",
        "cek"
      ],
      [
        "uy",
        "la"
      ],
      [
        "ob",
        "il"
      ],
      [
        "▁misafir",
        "imiz"
      ],
      [
        "▁kendi",
        "ler"
      ],
      [
        "iyor",
        "du"
      ],
      [
        "l",
        "an"
      ],
      [
        "▁gidi",
        "yor"
      ],
      [
        "▁bil",
        "dir"
      ],
      [
        "▁birbir",
        "ler"
      ],
      [
        "as",
        "ından"
      ],
      [
        "▁p",
        "ac"
      ],
      [
        "▁anad",
        "olu"
      ],
      [
        "▁ag",
        "ır"
      ],
      [
        "e",
        "le"
      ],
      [
        "ok",
        "r"
      ],
      [
        "or",
        "n"
      ],
      [
        "▁sek",
        "il"
      ],
      [
        "▁k",
        "ayıp"
      ],
      [
        "▁m",
        "o"
      ],
      [
        "m",
        "uyor"
      ],
      [
        "▁kars",
        "ısında"
      ],
      [
        "▁%5",
        ".4"
      ],
      [
        "ı",
        "pıs"
      ],
      [
        "el",
        "ik"
      ],
      [
        "ul",
        "du"
      ],
      [
        "▁kıs",
        "m"
      ],
      [
        "la",
        "dı"
      ],
      [
        "▁uluslar",
        "arası"
      ],
      [
        "▁m",
        "ur"
      ],
      [
        "▁oy",
        "sa"
      ],
      [
        "▁y",
        "uk"
      ],
      [
        "is",
        "inde"
      ],
      [
        "l",
        "uydu"
      ],
      [
        "▁iti",
        "baren"
      ],
      [
        "▁",
        "j"
      ],
      [
        "▁ag",
        "ac"
      ],
      [
        "▁contin",
        "ental"
      ],
      [
        "iy",
        "as"
      ],
      [
        "▁dog",
        "u"
      ],
      [
        "▁onumuz",
        "deki"
      ],
      [
        "lam",
        "ak"
      ],
      [
        "▁r",
        "om"
      ],
      [
        "me",
        "den"
      ],
      [
        "▁hey",
        "ec"
      ],
      [
        "t",
        "edir"
      ],
      [
        "▁dol",
        "u"
      ],
      [
        "▁yaklas",
        "ık"
      ],
      [
        "lıg",
        "ın"
      ],
      [
        "h",
        "i"
      ],
      [
        "l",
        "at"
      ],
      [
        "iy",
        "i"
      ],
      [
        "▁kal",
        "ma"
      ],
      [
        "▁m",
        "an"
      ],
      [
        "▁koy",
        "un"
      ],
      [
        "ede",
        "f"
      ],
      [
        "▁o",
        "l"
      ],
      [
        "un",
        "a"
      ],
      [
        "b",
        "ar"
      ],
      [
        "'y",
        "e"
      ],
      [
        "k",
        "ın"
      ],
      [
        "an",
        "bul"
      ],
      [
        "ic",
        "e"
      ],
      [
        "uk",
        "ee"
      ],
      [
        "a",
        "k"
      ],
      [
        "▁b",
        "egen"
      ],
      [
        "▁kot",
        "uydu"
      ],
      [
        "▁yay",
        "ın"
      ],
      [
        "ıl",
        "ı"
      ],
      [
        "▁yetkil",
        "ileri"
      ],
      [
        "▁has",
        "tan"
      ],
      [
        "▁tek",
        "n"
      ],
      [
        "▁u",
        "y"
      ],
      [
        "▁tem",
        "el"
      ],
      [
        "▁s",
        "ag"
      ],
      [
        "ti",
        "gini"
      ],
      [
        "▁peters",
        "burg"
      ],
      [
        "▁o",
        "p"
      ],
      [
        "▁%3",
        "0"
      ],
      [
        "▁in",
        "ce"
      ],
      [
        "▁ar",
        "ka"
      ],
      [
        "▁airlin",
        "es"
      ],
      [
        "▁corp",
        "."
      ],
      [
        "or",
        "ta"
      ],
      [
        "▁tar",
        "af"
      ],
      [
        "▁ilgil",
        "iydi"
      ],
      [
        "is",
        "el"
      ],
      [
        "▁yol",
        "u"
      ],
      [
        "▁dem",
        "ir"
      ],
      [
        "'n",
        "un"
      ],
      [
        "▁kontr",
        "ol"
      ],
      [
        "ıs",
        "ır"
      ],
      [
        "▁b",
        "e"
      ],
      [
        "eler",
        "den"
      ],
      [
        "▁den",
        "ey"
      ],
      [
        "m",
        "ustu"
      ],
      [
        "es",
        "ini"
      ],
      [
        "▁sik",
        "ayet"
      ],
      [
        "▁",
        "as"
      ],
      [
        "▁ver",
        "im"
      ],
      [
        "▁d",
        "ag"
      ],
      [
        "▁kampan",
        "yalar"
      ],
      [
        "▁rezerv",
        "asyon"
      ],
      [
        "▁birin",
        "de"
      ],
      [
        "m",
        "eler"
      ],
      [
        "▁av",
        "rup"
      ],
      [
        "▁sa",
        "de"
      ],
      [
        "▁1\\/",
        "2"
      ],
      [
        "▁tat",
        "lı"
      ],
      [
        "▁g",
        "ur"
      ],
      [
        "▁",
        "i"
      ],
      [
        "ıl",
        "dı"
      ],
      [
        "ar",
        "lan"
      ],
      [
        "▁sag",
        "lık"
      ],
      [
        "▁sor",
        "un"
      ],
      [
        "▁kim",
        "i"
      ],
      [
        "▁s",
        "unu"
      ],
      [
        "'y",
        "ı"
      ],
      [
        "ler",
        "inin"
      ],
      [
        "▁ev",
        "in"
      ],
      [
        "l",
        "uk"
      ],
      [
        "b",
        "r"
      ],
      [
        "ların",
        "ın"
      ],
      [
        "▁",
        "gi"
      ],
      [
        "sız",
        "lık"
      ],
      [
        "▁b",
        "il"
      ],
      [
        "▁h",
        "am"
      ],
      [
        "▁bors",
        "ası"
      ],
      [
        "t",
        "ik"
      ],
      [
        "▁du",
        "k"
      ],
      [
        "lan",
        "ır"
      ],
      [
        "▁aras",
        "ındaki"
      ],
      [
        "s",
        "uz"
      ],
      [
        "▁h",
        "os"
      ],
      [
        "▁min",
        "ne"
      ],
      [
        "▁",
        "es"
      ],
      [
        "m",
        "us"
      ],
      [
        "▁l",
        "as"
      ],
      [
        "ası",
        "z"
      ],
      [
        "▁hal",
        "en"
      ],
      [
        "▁tal",
        "ep"
      ],
      [
        "▁baltimore",
        "'den"
      ],
      [
        "g",
        "unu"
      ],
      [
        "▁le",
        "z"
      ],
      [
        "▁piyas",
        "a"
      ],
      [
        "▁",
        "d"
      ],
      [
        "▁sını",
        "f"
      ],
      [
        "▁vaz",
        "gec"
      ],
      [
        "▁h",
        "ey"
      ],
      [
        "ation",
        "al"
      ],
      [
        "m",
        "ıyor"
      ],
      [
        "m",
        "uz"
      ],
      [
        "▁k",
        "ız"
      ],
      [
        "▁dav",
        "a"
      ],
      [
        "▁kal",
        "mıs"
      ],
      [
        "mi",
        "s"
      ],
      [
        "▁s",
        "ey"
      ],
      [
        "▁v",
        "ar"
      ],
      [
        "c",
        "iler"
      ],
      [
        "ir",
        "e"
      ],
      [
        "m",
        "ıs"
      ],
      [
        "w",
        "est"
      ],
      [
        "▁man",
        "z"
      ],
      [
        "▁tir",
        "il"
      ],
      [
        "▁3",
        "6"
      ],
      [
        "r",
        "i"
      ],
      [
        "▁bir",
        "inci"
      ],
      [
        "▁hal",
        "de"
      ],
      [
        "▁tut",
        "ar"
      ],
      [
        "▁r",
        "isk"
      ],
      [
        "l",
        "t"
      ],
      [
        "eler",
        "ini"
      ],
      [
        "▁d",
        "os"
      ],
      [
        "▁karayol",
        "u"
      ],
      [
        "▁olm",
        "ayan"
      ],
      [
        "▁yab",
        "ancı"
      ],
      [
        "▁on",
        "gor"
      ],
      [
        "▁ist",
        "ik"
      ],
      [
        "▁ort",
        "al"
      ],
      [
        "di",
        "r"
      ],
      [
        "▁mev",
        "cut"
      ],
      [
        "▁telefon",
        "la"
      ],
      [
        "t",
        "im"
      ],
      [
        "v",
        "ır"
      ],
      [
        "lı",
        "gı"
      ],
      [
        "▁hen",
        "uz"
      ],
      [
        "▁et",
        "k"
      ],
      [
        "u",
        "yor"
      ],
      [
        "▁uz",
        "ak"
      ],
      [
        "ol",
        "oj"
      ],
      [
        "an",
        "s"
      ],
      [
        "▁c",
        "ez"
      ],
      [
        "▁gor",
        "du"
      ],
      [
        "▁mil",
        "let"
      ],
      [
        "▁mah",
        "k"
      ],
      [
        "▁gor",
        "mek"
      ],
      [
        "8",
        "9"
      ],
      [
        "▁yuksel",
        "di"
      ],
      [
        "▁der",
        "ec"
      ],
      [
        "▁deg",
        "istir"
      ],
      [
        "l",
        "u"
      ],
      [
        "▁i",
        "li"
      ],
      [
        "▁calıs",
        "an"
      ],
      [
        "▁it",
        "ibar"
      ],
      [
        "p",
        "h"
      ],
      [
        "uy",
        "le"
      ],
      [
        "▁m",
        "enkul"
      ],
      [
        "ır",
        "ıl"
      ],
      [
        "▁dah",
        "il"
      ],
      [
        "d",
        "ar"
      ],
      [
        "▁kar",
        "d"
      ],
      [
        "i",
        "g"
      ],
      [
        "▁al",
        "acak"
      ],
      [
        "ası",
        "yla"
      ],
      [
        "▁ail",
        "e"
      ],
      [
        "▁c",
        "es"
      ],
      [
        "▁yur",
        "uy"
      ],
      [
        "▁sef",
        "er"
      ],
      [
        "▁b",
        "ut"
      ],
      [
        "▁bun",
        "a"
      ],
      [
        "▁d",
        "c"
      ],
      [
        "s",
        "en"
      ],
      [
        "▁kul",
        "ak"
      ],
      [
        "i",
        "b"
      ],
      [
        "et",
        "i"
      ],
      [
        "▁s",
        "iyas"
      ],
      [
        "▁t",
        "ır"
      ],
      [
        "▁dep",
        "rem"
      ],
      [
        "▁yıl",
        "lar"
      ],
      [
        "▁yaz",
        "ar"
      ],
      [
        "ot",
        "te"
      ],
      [
        "▁h",
        "ik"
      ],
      [
        "▁p",
        "h"
      ],
      [
        "▁par",
        "mak"
      ],
      [
        "iy",
        "a"
      ],
      [
        "f",
        "et"
      ],
      [
        "h",
        "a"
      ],
      [
        ".",
        "000"
      ],
      [
        "▁y",
        "al"
      ],
      [
        "▁s",
        "ik"
      ],
      [
        "▁an",
        "lam"
      ],
      [
        "ag",
        "ın"
      ],
      [
        "▁hem",
        "en"
      ],
      [
        "▁fr",
        "anc"
      ],
      [
        "▁nash",
        "ville"
      ],
      [
        "▁se",
        "k"
      ],
      [
        "m",
        "en"
      ],
      [
        "b",
        "ank"
      ],
      [
        "▁det",
        "roit"
      ],
      [
        "▁mot",
        "or"
      ],
      [
        "▁milwaukee",
        "'den"
      ],
      [
        "▁1.",
        "8"
      ],
      [
        "t",
        "ak"
      ],
      [
        "▁d",
        "idik"
      ],
      [
        "▁b",
        "ur"
      ],
      [
        "▁sı",
        "cak"
      ],
      [
        "▁hal",
        "e"
      ],
      [
        "▁kay",
        "bet"
      ],
      [
        "▁dolar",
        "dan"
      ],
      [
        "▁k",
        "uy"
      ],
      [
        "i",
        "s"
      ],
      [
        "▁t",
        "ac"
      ],
      [
        "▁ver",
        "iyorum"
      ],
      [
        "▁n",
        "um"
      ],
      [
        "dig",
        "im"
      ],
      [
        "▁mus",
        "a"
      ],
      [
        "▁ol",
        "dur"
      ],
      [
        "▁ilg",
        "isiz"
      ],
      [
        "ah",
        "at"
      ],
      [
        "▁b",
        "eri"
      ],
      [
        "▁d",
        "ik"
      ],
      [
        "▁bor",
        "sa"
      ],
      [
        "▁uc",
        "mak"
      ],
      [
        "k",
        "uz"
      ],
      [
        "▁gor",
        "us"
      ],
      [
        "abil",
        "ecek"
      ],
      [
        "▁ak",
        "l"
      ],
      [
        "▁ban",
        "k"
      ],
      [
        "▁t",
        "ef"
      ],
      [
        "y",
        "et"
      ],
      [
        "▁19",
        "89-"
      ],
      [
        "e",
        "k"
      ],
      [
        "h",
        "an"
      ],
      [
        "o",
        "'nun"
      ],
      [
        "d",
        "as"
      ],
      [
        "▁k",
        "ır"
      ],
      [
        "▁ol",
        "acagını"
      ],
      [
        "▁kars",
        "ılık"
      ],
      [
        "▁ek",
        "onom"
      ],
      [
        "▁kol",
        "ay"
      ],
      [
        "er",
        "k"
      ],
      [
        "l",
        "ek"
      ],
      [
        "▁kor",
        "k"
      ],
      [
        "▁boston",
        "'a"
      ],
      [
        "▁s",
        "im"
      ],
      [
        "▁bulun",
        "du"
      ],
      [
        "▁pers",
        "onel"
      ],
      [
        "▁",
        "y"
      ],
      [
        "▁sur",
        "ekli"
      ],
      [
        "▁tes",
        "t"
      ],
      [
        "▁univers",
        "it"
      ],
      [
        "l",
        "ilik"
      ],
      [
        "▁oper",
        "asyon"
      ],
      [
        "▁",
        "a"
      ],
      [
        "▁f",
        "ay"
      ],
      [
        "d",
        "i"
      ],
      [
        "a",
        "n"
      ],
      [
        "▁w",
        "ash"
      ],
      [
        "em",
        "in"
      ],
      [
        "'",
        "ta"
      ],
      [
        "▁2",
        "4"
      ],
      [
        "▁h",
        "omur"
      ],
      [
        "▁ingil",
        "iz"
      ],
      [
        "0",
        "'"
      ],
      [
        "▁kaz",
        "an"
      ],
      [
        "▁il",
        "g"
      ],
      [
        "ig",
        "ini"
      ],
      [
        "c",
        "isi"
      ],
      [
        "es",
        "e"
      ],
      [
        "un",
        "u"
      ],
      [
        "▁k",
        "ac"
      ],
      [
        "▁turk",
        "iye"
      ],
      [
        "▁uz",
        "er"
      ],
      [
        "▁d",
        "im"
      ],
      [
        "ler",
        "ine"
      ],
      [
        "▁ka",
        "h"
      ],
      [
        "g",
        "im"
      ],
      [
        "▁yiy",
        "ecek"
      ],
      [
        "▁kalit",
        "eli"
      ],
      [
        "▁sey",
        "i"
      ],
      [
        "▁ar",
        "ada"
      ],
      [
        "▁muht",
        "esem"
      ],
      [
        "▁edeb",
        "iyat"
      ],
      [
        "▁de",
        "k"
      ],
      [
        "▁yardım",
        "cısı"
      ],
      [
        "▁miy",
        "di"
      ],
      [
        "▁s",
        "eh"
      ],
      [
        "▁san",
        "ki"
      ],
      [
        "ı",
        "m"
      ],
      [
        "s",
        "e"
      ],
      [
        "▁dus",
        "uk"
      ],
      [
        "iy",
        "at"
      ],
      [
        "im",
        "den"
      ],
      [
        "▁kap",
        "ı"
      ],
      [
        "▁",
        "("
      ],
      [
        "▁m",
        "ek"
      ],
      [
        "▁kur",
        "ul"
      ],
      [
        "▁olma",
        "dıgını"
      ],
      [
        "▁gon",
        "der"
      ],
      [
        "▁bil",
        "im"
      ],
      [
        "▁sar",
        "ay"
      ],
      [
        "es",
        "il"
      ],
      [
        "▁19",
        "7"
      ],
      [
        "▁s",
        "ak"
      ],
      [
        "k",
        "en"
      ],
      [
        "▁g",
        "iz"
      ],
      [
        "▁ki",
        "m"
      ],
      [
        "▁art",
        "arak"
      ],
      [
        "▁198",
        "9"
      ],
      [
        "lam",
        "ıs"
      ],
      [
        "▁her",
        "k"
      ],
      [
        "r",
        "a"
      ],
      [
        "sam",
        "ba"
      ],
      [
        "b",
        "ur"
      ],
      [
        "▁in",
        "an"
      ],
      [
        "▁kar",
        "a"
      ],
      [
        "▁",
        "…"
      ],
      [
        "▁yar",
        "dım"
      ],
      [
        "▁b",
        "el"
      ],
      [
        "ı",
        "cı"
      ],
      [
        "▁a",
        "f"
      ],
      [
        "t",
        "er"
      ],
      [
        "m",
        "aya"
      ],
      [
        "▁ol",
        "sun"
      ],
      [
        "ları",
        "yla"
      ],
      [
        "s",
        "il"
      ],
      [
        "t",
        "eki"
      ],
      [
        "▁tı",
        "k"
      ],
      [
        "z",
        "et"
      ],
      [
        "▁paz",
        "ar"
      ],
      [
        "▁d",
        "ak"
      ],
      [
        "▁gir",
        "isim"
      ],
      [
        "▁az",
        "alt"
      ],
      [
        "▁c",
        "a"
      ],
      [
        "▁biz",
        "den"
      ],
      [
        "▁hava",
        "alan"
      ],
      [
        "▁simdi",
        "ye"
      ],
      [
        "▁h",
        "av"
      ],
      [
        "▁ver",
        "mek"
      ],
      [
        "▁dus",
        "man"
      ],
      [
        "eler",
        "e"
      ],
      [
        "▁is",
        "i"
      ],
      [
        "▁y",
        "on"
      ],
      [
        "u",
        "gun"
      ],
      [
        "▁c",
        "o"
      ],
      [
        "▁g",
        "ok"
      ],
      [
        "▁bunlar",
        "ın"
      ],
      [
        "▁ist",
        "iyorum"
      ],
      [
        "▁k",
        "utur"
      ],
      [
        "▁%1",
        "4"
      ],
      [
        "▁gercek",
        "lestir"
      ],
      [
        "a",
        "g"
      ],
      [
        "▁",
        "at"
      ],
      [
        "▁%3",
        ".4"
      ],
      [
        "inn",
        "ati"
      ],
      [
        "uyor",
        "um"
      ],
      [
        "ar",
        "ası"
      ],
      [
        "ler",
        "di"
      ],
      [
        "▁kalk",
        "ıp"
      ],
      [
        "▁ot",
        "eli"
      ],
      [
        "ladı",
        "m"
      ],
      [
        "▁da",
        "hi"
      ],
      [
        "▁2",
        "7"
      ],
      [
        "▁tes",
        "ek"
      ],
      [
        "n",
        "e"
      ],
      [
        "a",
        "b"
      ],
      [
        "u",
        "m"
      ],
      [
        "r",
        "an"
      ],
      [
        "o",
        "eni"
      ],
      [
        "dık",
        "larını"
      ],
      [
        "▁eder",
        "im"
      ],
      [
        "▁a",
        "il"
      ],
      [
        "▁y",
        "emek"
      ],
      [
        "▁han",
        "gi"
      ],
      [
        "i",
        "v"
      ],
      [
        "ır",
        "dı"
      ],
      [
        "ag",
        "ını"
      ],
      [
        "▁yas",
        "a"
      ],
      [
        "on",
        "elik"
      ],
      [
        "▁c",
        "an"
      ],
      [
        "al",
        "ık"
      ],
      [
        "▁s",
        "em"
      ],
      [
        "ey",
        "n"
      ],
      [
        "▁k",
        "ul"
      ],
      [
        "a",
        "s"
      ],
      [
        "▁al",
        "ım"
      ],
      [
        "▁ver",
        "digi"
      ],
      [
        "▁yaz",
        "ı"
      ],
      [
        "▁univ",
        "ers"
      ],
      [
        "▁f",
        "ab"
      ],
      [
        "▁seviy",
        "esine"
      ],
      [
        "▁bak",
        "ıyor"
      ],
      [
        "du",
        "gunu"
      ],
      [
        "man",
        "ı"
      ],
      [
        "▁han",
        "gileri"
      ],
      [
        "al",
        "i"
      ],
      [
        "▁kar",
        "anlık"
      ],
      [
        "▁cont",
        "in"
      ],
      [
        "▁francisco",
        "'ya"
      ],
      [
        "lik",
        "te"
      ],
      [
        "▁tem",
        "muz"
      ],
      [
        "▁bak",
        "ıs"
      ],
      [
        "▁s",
        "ın"
      ],
      [
        "k",
        "e"
      ],
      [
        "▁d",
        "em"
      ],
      [
        "▁r",
        "ad"
      ],
      [
        "▁s",
        "og"
      ],
      [
        "3",
        "2"
      ],
      [
        "▁mag",
        "az"
      ],
      [
        "▁t",
        "ed"
      ],
      [
        "▁v",
        "ur"
      ],
      [
        "mıs",
        "lar"
      ],
      [
        "▁2",
        ".7"
      ],
      [
        "▁yapıl",
        "acak"
      ],
      [
        "▁str",
        "eet"
      ],
      [
        "k",
        "ara"
      ],
      [
        "▁s",
        "er"
      ],
      [
        "as",
        "i"
      ],
      [
        "▁olabilir",
        "di"
      ],
      [
        "▁c",
        "at"
      ],
      [
        "▁fot",
        "ograf"
      ],
      [
        "m",
        "istir"
      ],
      [
        "▁r",
        "us"
      ],
      [
        "▁k",
        "ey"
      ],
      [
        "▁yas",
        "an"
      ],
      [
        "▁bun",
        "u"
      ],
      [
        "g",
        "ın"
      ],
      [
        "▁gi",
        "de"
      ],
      [
        "▁d",
        "og"
      ],
      [
        "d",
        "a"
      ],
      [
        "al",
        "anı"
      ],
      [
        "is",
        "ler"
      ],
      [
        "▁a",
        "dı"
      ],
      [
        "h",
        "u"
      ],
      [
        "▁m",
        "ag"
      ],
      [
        "ad",
        "ı"
      ],
      [
        "▁ek",
        "ledi"
      ],
      [
        "▁b",
        "oz"
      ],
      [
        "en",
        "di"
      ],
      [
        "▁d",
        "er"
      ],
      [
        "▁on",
        "un"
      ],
      [
        "g",
        "er"
      ],
      [
        "▁%1",
        "7"
      ],
      [
        "▁konus",
        "unda"
      ],
      [
        "▁on",
        "une"
      ],
      [
        "▁gen",
        "c"
      ],
      [
        "▁dc",
        "'ye"
      ],
      [
        "▁por",
        "cuk"
      ],
      [
        "▁mik",
        "tar"
      ],
      [
        "▁or",
        "an"
      ],
      [
        "l",
        "am"
      ],
      [
        "▁y",
        "edi"
      ],
      [
        "▁gel",
        "ir"
      ],
      [
        "▁fok",
        "ur"
      ],
      [
        "▁goster",
        "in"
      ],
      [
        "▁uy",
        "gul"
      ],
      [
        "▁esk",
        "iydi"
      ],
      [
        "▁soy",
        "ler"
      ],
      [
        "▁sah",
        "ip"
      ],
      [
        "l",
        "ayan"
      ],
      [
        "▁ur",
        "un"
      ],
      [
        "e",
        "n"
      ],
      [
        "▁k",
        "om"
      ],
      [
        "▁sen",
        "et"
      ],
      [
        "ıyor",
        "lar"
      ],
      [
        "on",
        "el"
      ],
      [
        "▁kal",
        "it"
      ],
      [
        "▁u",
        "g"
      ],
      [
        "el",
        "en"
      ],
      [
        "u",
        "z"
      ],
      [
        "▁tor",
        "ont"
      ],
      [
        "u",
        "r"
      ],
      [
        "l",
        "ey"
      ],
      [
        "▁haz",
        "ine"
      ],
      [
        "er",
        "n"
      ],
      [
        "▁kır",
        "ık"
      ],
      [
        "medi",
        "gini"
      ],
      [
        "▁p",
        "ah"
      ],
      [
        "ist",
        "an"
      ],
      [
        "▁oldugu",
        "m"
      ],
      [
        "r",
        "uk"
      ],
      [
        "▁onlar",
        "dan"
      ],
      [
        "▁mektu",
        "p"
      ],
      [
        "▁yetk",
        "il"
      ],
      [
        "▁sikin",
        "ti"
      ],
      [
        "d",
        "an"
      ],
      [
        "o",
        "'ya"
      ],
      [
        "a",
        "h"
      ],
      [
        "▁birden",
        "bire"
      ],
      [
        "▁s",
        "ıkır"
      ],
      [
        "▁kom",
        "isyon"
      ],
      [
        "ust",
        "on"
      ],
      [
        "▁fut",
        "bol"
      ],
      [
        "▁pet",
        "rol"
      ],
      [
        "▁bas",
        "lıyor"
      ],
      [
        "▁ev",
        "vel"
      ],
      [
        "▁ha",
        "y"
      ],
      [
        "ler",
        "i"
      ],
      [
        "▁gec",
        "iyor"
      ],
      [
        "▁t",
        "im"
      ],
      [
        "▁bas",
        "ladı"
      ],
      [
        "▁hal",
        "k"
      ],
      [
        "▁alt",
        "ı"
      ],
      [
        "▁cey",
        "rek"
      ],
      [
        "▁1.",
        "2"
      ],
      [
        "li",
        "f"
      ],
      [
        "▁",
        "u"
      ],
      [
        "▁ver",
        "en"
      ],
      [
        "en",
        "de"
      ],
      [
        "▁el",
        "b"
      ],
      [
        "▁f",
        "ot"
      ],
      [
        "lam",
        "aya"
      ],
      [
        "ey",
        "in"
      ],
      [
        "▁",
        "ısıl"
      ],
      [
        "acag",
        "ını"
      ],
      [
        "▁y",
        "et"
      ],
      [
        "em",
        "mel"
      ],
      [
        "▁%1",
        ".7"
      ],
      [
        "ley",
        "en"
      ],
      [
        "er",
        "al"
      ],
      [
        "▁de",
        "n"
      ],
      [
        "as",
        "yon"
      ],
      [
        "t",
        "ıs"
      ],
      [
        "▁et",
        "s"
      ],
      [
        "l",
        "iydi"
      ],
      [
        "▁a",
        "p"
      ],
      [
        "▁yar",
        "ın"
      ],
      [
        "ıs",
        "ın"
      ],
      [
        "im",
        "i"
      ],
      [
        "▁il",
        "et"
      ],
      [
        "at",
        "i"
      ],
      [
        "▁yemekler",
        "inden"
      ],
      [
        "▁m",
        "ey"
      ],
      [
        "▁%7.",
        "7"
      ],
      [
        "▁yas",
        "lı"
      ],
      [
        "▁n",
        "it"
      ],
      [
        "▁bazı",
        "ları"
      ],
      [
        "e",
        "gin"
      ],
      [
        "u",
        "d"
      ],
      [
        "▁in",
        "tern"
      ],
      [
        "▁seb",
        "ep"
      ],
      [
        "▁ol",
        "dum"
      ],
      [
        "mak",
        "tan"
      ],
      [
        "▁kendi",
        "m"
      ],
      [
        "▁tu",
        "k"
      ],
      [
        "▁ces",
        "it"
      ],
      [
        "▁kon",
        "u"
      ],
      [
        "▁sek",
        "tor"
      ],
      [
        "▁sır",
        "a"
      ],
      [
        "▁tef",
        "ek"
      ],
      [
        "▁un",
        "it"
      ],
      [
        "▁an",
        "ket"
      ],
      [
        "▁f",
        "or"
      ],
      [
        "a",
        "v"
      ],
      [
        "▁fa",
        "iz"
      ],
      [
        "▁denver",
        "'e"
      ],
      [
        "▁pr",
        "oj"
      ],
      [
        "▁j",
        "on"
      ],
      [
        "▁l",
        "u"
      ],
      [
        "▁k",
        "im"
      ],
      [
        "▁h",
        "ol"
      ],
      [
        "s",
        "el"
      ],
      [
        "▁ilgil",
        "endi"
      ],
      [
        "at",
        "es"
      ],
      [
        "▁t",
        "ak"
      ],
      [
        "▁",
        "cog"
      ],
      [
        "\\/",
        "8"
      ],
      [
        "r",
        "u"
      ],
      [
        "dig",
        "ini"
      ],
      [
        "▁m",
        "c"
      ],
      [
        "▁s",
        "ol"
      ],
      [
        "▁k",
        "elim"
      ],
      [
        "▁ik",
        "inci"
      ],
      [
        "▁oy",
        "n"
      ],
      [
        "▁vad",
        "eli"
      ],
      [
        "▁baz",
        "ı"
      ],
      [
        "▁",
        "ısı"
      ],
      [
        "▁g",
        "unu"
      ],
      [
        "▁son",
        "ra"
      ],
      [
        "m",
        "el"
      ],
      [
        "e",
        "b"
      ],
      [
        "▁o",
        "c"
      ],
      [
        "▁ay",
        "dın"
      ],
      [
        "6",
        "1"
      ],
      [
        "ımız",
        "a"
      ],
      [
        "iler",
        "ini"
      ],
      [
        "▁2",
        "2"
      ],
      [
        "al",
        "a"
      ],
      [
        "▁k",
        "oy"
      ],
      [
        "am",
        "i"
      ],
      [
        "el",
        "e"
      ],
      [
        "s",
        "k"
      ],
      [
        "▁1",
        "7"
      ],
      [
        "alar",
        "ını"
      ],
      [
        "▁gor",
        "ur"
      ],
      [
        "▁yet",
        "er"
      ],
      [
        "▁h",
        "iss"
      ],
      [
        "▁iy",
        "i"
      ],
      [
        "▁ken",
        "ar"
      ],
      [
        "▁kon",
        "umu"
      ],
      [
        "▁d",
        "ol"
      ],
      [
        "it",
        "e"
      ],
      [
        "▁anlas",
        "ma"
      ],
      [
        "▁once",
        "den"
      ],
      [
        "▁c",
        "iz"
      ],
      [
        "f",
        "or"
      ],
      [
        "▁fiyat",
        "lar"
      ],
      [
        "t",
        "en"
      ],
      [
        "▁s",
        "us"
      ],
      [
        "ı",
        "y"
      ],
      [
        "ıl",
        "maz"
      ],
      [
        "▁yet",
        "ersiz"
      ],
      [
        "▁otel",
        "in"
      ],
      [
        "▁m",
        "ik"
      ],
      [
        "▁artıs",
        "la"
      ],
      [
        "e",
        "s"
      ],
      [
        "il",
        "ik"
      ],
      [
        "▁h",
        "aber"
      ],
      [
        "ti",
        "f"
      ],
      [
        "▁deniz",
        "i"
      ],
      [
        "▁y",
        "esil"
      ],
      [
        "as",
        "a"
      ],
      [
        "lar",
        "ım"
      ],
      [
        "lıg",
        "ına"
      ],
      [
        "▁dur",
        "dur"
      ],
      [
        "▁fak",
        "at"
      ],
      [
        "l",
        "et"
      ],
      [
        "er",
        "s"
      ],
      [
        "▁ann",
        "em"
      ],
      [
        "▁ol",
        "up"
      ],
      [
        "▁s",
        "uz"
      ],
      [
        "▁ist",
        "iyor"
      ],
      [
        "g",
        "ını"
      ],
      [
        "▁f",
        "r"
      ],
      [
        "lı",
        "g"
      ],
      [
        "▁b",
        "al"
      ],
      [
        "▁bir",
        "den"
      ],
      [
        "▁bag",
        "lı"
      ],
      [
        "▁in",
        "dir"
      ],
      [
        "▁ne",
        "w"
      ],
      [
        "alar",
        "ında"
      ],
      [
        "g",
        "ini"
      ],
      [
        "▁d",
        "us"
      ],
      [
        "▁bag",
        "lan"
      ],
      [
        "ar",
        "et"
      ],
      [
        "▁biz",
        "e"
      ],
      [
        "▁gec",
        "e"
      ],
      [
        "▁y",
        "ay"
      ],
      [
        "▁yar",
        "ım"
      ],
      [
        "▁et",
        "me"
      ],
      [
        "▁c",
        "ok"
      ],
      [
        "▁or",
        "t"
      ],
      [
        "▁ist",
        "anbul"
      ],
      [
        "▁it",
        "ir"
      ],
      [
        "▁kend",
        "ini"
      ],
      [
        "▁k",
        "ent"
      ],
      [
        "▁uc",
        "uyor"
      ],
      [
        "'",
        "ın"
      ],
      [
        "v",
        "er"
      ],
      [
        "▁d",
        "uz"
      ],
      [
        "▁t",
        "em"
      ],
      [
        "y",
        "or"
      ],
      [
        "▁d",
        "ıs"
      ],
      [
        "▁duny",
        "anın"
      ],
      [
        "▁jon",
        "es"
      ],
      [
        "r",
        "ek"
      ],
      [
        "▁y",
        "iy"
      ],
      [
        "▁h",
        "ar"
      ],
      [
        "▁ide",
        "al"
      ],
      [
        "▁ba",
        "h"
      ],
      [
        "▁hay",
        "van"
      ],
      [
        "▁prof",
        "es"
      ],
      [
        "ati",
        "on"
      ],
      [
        "▁hep",
        "sin"
      ],
      [
        "▁gerek",
        "tigini"
      ],
      [
        "▁kar",
        "ayol"
      ],
      [
        "▁yaptir",
        "madim"
      ],
      [
        "▁k",
        "ıtır"
      ],
      [
        "ek",
        "tr"
      ],
      [
        "▁r",
        "es"
      ],
      [
        "▁huk",
        "um"
      ],
      [
        "▁c",
        "ek"
      ],
      [
        "▁insan",
        "lar"
      ],
      [
        "▁yem",
        "egi"
      ],
      [
        "▁%1",
        "2"
      ],
      [
        "u",
        "y"
      ],
      [
        "▁angel",
        "es"
      ],
      [
        "▁bel",
        "ir"
      ],
      [
        "▁2",
        "1"
      ],
      [
        "▁eks",
        "ik"
      ],
      [
        "▁normal",
        "di"
      ],
      [
        "▁t",
        "er"
      ],
      [
        "k",
        "el"
      ],
      [
        "▁dogru",
        "dan"
      ],
      [
        "or",
        "m"
      ],
      [
        "▁tav",
        "siye"
      ],
      [
        "os",
        "t"
      ],
      [
        "▁s",
        "ap"
      ],
      [
        "ey",
        "im"
      ],
      [
        "▁toplan",
        "tı"
      ],
      [
        "as",
        "ının"
      ],
      [
        "▁or",
        "nek"
      ],
      [
        "t",
        "ık"
      ],
      [
        "eceg",
        "i"
      ],
      [
        "▁dav",
        "ran"
      ],
      [
        "▁yam",
        "alak"
      ],
      [
        "▁dun",
        "y"
      ],
      [
        "d",
        "u"
      ],
      [
        "▁m",
        "eh"
      ],
      [
        "sin",
        "iz"
      ],
      [
        "▁on",
        "ay"
      ],
      [
        "▁s",
        "uc"
      ],
      [
        "▁",
        "g"
      ],
      [
        "ar",
        "lar"
      ],
      [
        "▁s",
        "en"
      ],
      [
        "t",
        "iler"
      ],
      [
        "▁kr",
        "edi"
      ],
      [
        "▁k",
        "em"
      ],
      [
        "▁strate",
        "j"
      ],
      [
        "▁mem",
        "nun"
      ],
      [
        "▁u",
        "tan"
      ],
      [
        "▁b",
        "in"
      ],
      [
        "▁i",
        "la"
      ],
      [
        "ib",
        "ar"
      ],
      [
        "e",
        "h"
      ],
      [
        "ler",
        "inde"
      ],
      [
        "im",
        "a"
      ],
      [
        "▁",
        "4"
      ],
      [
        "▁b",
        "ul"
      ],
      [
        "in",
        "deki"
      ],
      [
        "at",
        "a"
      ],
      [
        "▁m",
        "ak"
      ],
      [
        "▁c",
        "ır"
      ],
      [
        "ro",
        "it"
      ],
      [
        "▁ken",
        "d"
      ],
      [
        "▁ne",
        "dir"
      ],
      [
        "▁1.",
        "3"
      ],
      [
        "▁ben",
        "im"
      ],
      [
        "▁d",
        "en"
      ],
      [
        "▁2",
        "5"
      ],
      [
        "▁o",
        "ak"
      ],
      [
        "▁f",
        "iyat"
      ],
      [
        "▁yuz",
        "de"
      ],
      [
        "ih",
        "az"
      ],
      [
        "▁",
        "ler"
      ],
      [
        "▁k",
        "er"
      ],
      [
        "▁kendi",
        "sin"
      ],
      [
        "▁kaz",
        "anc"
      ],
      [
        "h",
        "am"
      ],
      [
        "▁",
        "89-"
      ],
      [
        "▁ist",
        "e"
      ],
      [
        "▁kong",
        "re"
      ],
      [
        "▁var",
        "di"
      ],
      [
        "▁acık",
        "lam"
      ],
      [
        "▁tem",
        "sil"
      ],
      [
        "▁erk",
        "ek"
      ],
      [
        "▁is",
        "t"
      ],
      [
        "▁ac",
        "ıl"
      ],
      [
        "ı",
        "tır"
      ],
      [
        "▁dal",
        "g"
      ],
      [
        "el",
        "l"
      ],
      [
        "ların",
        "dan"
      ],
      [
        "▁bırak",
        "tı"
      ],
      [
        "▁d",
        "ers"
      ],
      [
        "am",
        "a"
      ],
      [
        "▁listel",
        "eyin"
      ],
      [
        "▁ol",
        "uyor"
      ],
      [
        "▁iz",
        "in"
      ],
      [
        "▁b",
        "on"
      ],
      [
        "▁y",
        "ab"
      ],
      [
        "u",
        "ru"
      ],
      [
        "▁%1",
        "1"
      ],
      [
        "▁end",
        "ustr"
      ],
      [
        "▁yan",
        "s"
      ],
      [
        "am",
        "az"
      ],
      [
        "▁endek",
        "s"
      ],
      [
        "d",
        "ek"
      ],
      [
        "o",
        "f"
      ],
      [
        "lan",
        "ıyor"
      ],
      [
        "▁",
        "\""
      ],
      [
        "▁y",
        "ine"
      ],
      [
        "ic",
        "h"
      ],
      [
        "iler",
        "e"
      ],
      [
        "▁",
        "erk"
      ],
      [
        "▁p",
        "as"
      ],
      [
        "▁h",
        "e"
      ],
      [
        "▁m",
        "em"
      ],
      [
        "▁pah",
        "aliydi"
      ],
      [
        "▁oy",
        "un"
      ],
      [
        "gi",
        "l"
      ],
      [
        "▁birin",
        "in"
      ],
      [
        "▁dir",
        "ek"
      ],
      [
        "▁s",
        "e"
      ],
      [
        "ag",
        "ına"
      ],
      [
        "las",
        "tı"
      ],
      [
        "▁bunlar",
        "ı"
      ],
      [
        "ent",
        "al"
      ],
      [
        "▁v",
        "ucu"
      ],
      [
        "li",
        "k"
      ],
      [
        "▁hat",
        "ta"
      ],
      [
        "▁",
        "am"
      ],
      [
        "▁b",
        "un"
      ],
      [
        "▁soy",
        "ledi"
      ],
      [
        "▁ev",
        "i"
      ],
      [
        "▁dobr",
        "a"
      ],
      [
        "▁",
        "emek"
      ],
      [
        "▁",
        "7"
      ],
      [
        "▁nak",
        "it"
      ],
      [
        "m",
        "esi"
      ],
      [
        "▁%1",
        "5"
      ],
      [
        "▁f",
        "ut"
      ],
      [
        "am",
        "an"
      ],
      [
        "▁havayol",
        "ları"
      ],
      [
        "▁soy",
        "ley"
      ],
      [
        "▁i",
        "de"
      ],
      [
        "▁ed",
        "erek"
      ],
      [
        "d",
        "ır"
      ],
      [
        "ıs",
        "ıl"
      ],
      [
        "▁dav",
        "et"
      ],
      [
        "▁d",
        "e"
      ],
      [
        "▁.",
        "'"
      ],
      [
        "▁francisco",
        "'dan"
      ],
      [
        "▁ak",
        "sam"
      ],
      [
        "▁ıs",
        "ık"
      ],
      [
        "▁tes",
        "lim"
      ],
      [
        "▁m",
        "er"
      ],
      [
        "▁a",
        "."
      ],
      [
        "▁%7",
        "."
      ],
      [
        "▁oldug",
        "unu"
      ],
      [
        "um",
        "us"
      ],
      [
        "as",
        "t"
      ],
      [
        "▁an",
        "n"
      ],
      [
        "▁hav",
        "a"
      ],
      [
        "▁",
        "ir"
      ],
      [
        "3",
        "0"
      ],
      [
        "▁o",
        "larak"
      ],
      [
        "▁s",
        "il"
      ],
      [
        "▁istem",
        "iyorum"
      ],
      [
        "▁kap",
        "alı"
      ],
      [
        "▁im",
        "z"
      ],
      [
        "i",
        "yle"
      ],
      [
        "um",
        "uz"
      ],
      [
        "▁al",
        "dıgı"
      ],
      [
        "▁yap",
        "ıyor"
      ],
      [
        "▁bil",
        "e"
      ],
      [
        "s",
        "al"
      ],
      [
        "ec",
        "i"
      ],
      [
        "▁olm",
        "asi"
      ],
      [
        "▁kısı",
        "t"
      ],
      [
        "▁cek",
        "ti"
      ],
      [
        "▁cum",
        "artesi"
      ],
      [
        "▁p",
        "encer"
      ],
      [
        "▁num",
        "ar"
      ],
      [
        "ay",
        "la"
      ],
      [
        "00",
        "0"
      ],
      [
        "8",
        "6"
      ],
      [
        "▁l",
        "os"
      ],
      [
        "▁s",
        "ev"
      ],
      [
        "r",
        "am"
      ],
      [
        "▁",
        "eg"
      ],
      [
        "▁al",
        "an"
      ],
      [
        "▁m",
        "ust"
      ],
      [
        "▁sor",
        "um"
      ],
      [
        "▁d",
        "il"
      ],
      [
        "▁huk",
        "uk"
      ],
      [
        "▁sal",
        "on"
      ],
      [
        "unu",
        "yor"
      ],
      [
        "▁pitts",
        "burgh"
      ],
      [
        "-2",
        "00"
      ],
      [
        "▁t",
        "uz"
      ],
      [
        "g",
        "il"
      ],
      [
        "▁in",
        "c"
      ],
      [
        "\\",
        "/"
      ],
      [
        ".",
        "4"
      ],
      [
        "▁an",
        "al"
      ],
      [
        "m",
        "al"
      ],
      [
        "▁indian",
        "apolis"
      ],
      [
        "l",
        "eket"
      ],
      [
        "▁s",
        "ist"
      ],
      [
        "▁kam",
        "pan"
      ],
      [
        "▁degisik",
        "lik"
      ],
      [
        "▁g",
        "em"
      ],
      [
        "▁s",
        "tr"
      ],
      [
        "en",
        "k"
      ],
      [
        "▁c",
        "am"
      ],
      [
        "▁or",
        "ta"
      ],
      [
        "▁et",
        "tiler"
      ],
      [
        "▁d",
        "ev"
      ],
      [
        "▁ortal",
        "ama"
      ],
      [
        "▁sab",
        "it"
      ],
      [
        "▁kalk",
        "ıyor"
      ],
      [
        "▁h",
        "af"
      ],
      [
        "c",
        "h"
      ],
      [
        "▁uf",
        "ak"
      ],
      [
        "▁",
        "v"
      ],
      [
        "▁i",
        "f"
      ],
      [
        "▁ek",
        "ip"
      ],
      [
        "iy",
        "et"
      ],
      [
        "▁%7.",
        "5"
      ],
      [
        "f",
        "ur"
      ],
      [
        "▁on",
        "unde"
      ],
      [
        "▁di",
        "ger"
      ],
      [
        "▁kalk",
        "ıs"
      ],
      [
        "▁1",
        "1"
      ],
      [
        "▁ses",
        "siz"
      ],
      [
        "▁ger",
        "il"
      ],
      [
        "▁b",
        "oy"
      ],
      [
        "u",
        "t"
      ],
      [
        "▁c",
        "ey"
      ],
      [
        "▁ra",
        "gmen"
      ],
      [
        "▁g",
        "og"
      ],
      [
        "▁k",
        "us"
      ],
      [
        "ay",
        "di"
      ],
      [
        "an",
        "d"
      ],
      [
        "se",
        "kiz"
      ],
      [
        "v",
        "en"
      ],
      [
        "▁av",
        "uc"
      ],
      [
        "▁ac",
        "ı"
      ],
      [
        "▁ac",
        "tı"
      ],
      [
        "i",
        "z"
      ],
      [
        "i",
        "r"
      ],
      [
        "▁ab",
        "d"
      ],
      [
        "ac",
        "h"
      ],
      [
        "o",
        "'dan"
      ],
      [
        "▁i",
        "le"
      ],
      [
        "es",
        "in"
      ],
      [
        "▁g",
        "er"
      ],
      [
        "v",
        "ıl"
      ],
      [
        "▁y",
        "ar"
      ],
      [
        "y",
        "o"
      ],
      [
        "atur",
        "k"
      ],
      [
        "▁k",
        "uz"
      ],
      [
        "m",
        "ası"
      ],
      [
        "es",
        "s"
      ],
      [
        "▁indi",
        "an"
      ],
      [
        "▁y",
        "ana"
      ],
      [
        "▁k",
        "ıs"
      ],
      [
        "▁s",
        "ut"
      ],
      [
        "▁tar",
        "if"
      ],
      [
        "▁yas",
        "am"
      ],
      [
        "at",
        "t"
      ],
      [
        "▁bor",
        "s"
      ],
      [
        "s",
        "in"
      ],
      [
        "▁sey",
        "ler"
      ],
      [
        "▁pittsburgh",
        "'a"
      ],
      [
        "▁is",
        "aret"
      ],
      [
        "it",
        "t"
      ],
      [
        "▁yap",
        "ıl"
      ],
      [
        "et",
        "ir"
      ],
      [
        "▁h",
        "ur"
      ],
      [
        "▁1",
        "5"
      ],
      [
        "ir",
        "im"
      ],
      [
        "▁t",
        "en"
      ],
      [
        "'",
        "de"
      ],
      [
        "▁ol",
        "abilir"
      ],
      [
        "▁miami",
        "'ye"
      ],
      [
        "c",
        "ileri"
      ],
      [
        "▁",
        "et"
      ],
      [
        "▁a",
        "b"
      ],
      [
        "mıs",
        "tı"
      ],
      [
        "y",
        "an"
      ],
      [
        "▁aksam",
        "ı"
      ],
      [
        "p",
        "a"
      ],
      [
        "lar",
        "ı"
      ],
      [
        "▁ard",
        "ından"
      ],
      [
        "▁kahv",
        "al"
      ],
      [
        "▁ol",
        "m"
      ],
      [
        "▁mıs",
        "ın"
      ],
      [
        "▁has",
        "t"
      ],
      [
        "i",
        "d"
      ],
      [
        "▁gor",
        "unuyor"
      ],
      [
        "im",
        "iz"
      ],
      [
        "▁um",
        "ut"
      ],
      [
        "▁fark",
        "lı"
      ],
      [
        "▁imkan",
        "lari"
      ],
      [
        "▁de",
        "gil"
      ],
      [
        "▁m",
        "ol"
      ],
      [
        "a",
        "m"
      ],
      [
        "▁sah",
        "n"
      ],
      [
        "un",
        "den"
      ],
      [
        "▁boston",
        "'dan"
      ],
      [
        "▁f",
        "ort"
      ],
      [
        ".",
        "7"
      ],
      [
        "▁guler",
        "yuz"
      ],
      [
        "k",
        "al"
      ],
      [
        "o",
        "p"
      ],
      [
        "▁c",
        "ik"
      ],
      [
        "us",
        "t"
      ],
      [
        "lar",
        "da"
      ],
      [
        "▁n",
        "iyet"
      ],
      [
        "alar",
        "a"
      ],
      [
        "▁sade",
        "ce"
      ],
      [
        "▁yar",
        "ı"
      ],
      [
        "▁str",
        "ate"
      ],
      [
        "em",
        "i"
      ],
      [
        "▁hep",
        "imiz"
      ],
      [
        "▁p",
        "a"
      ],
      [
        "▁ediyor",
        "du"
      ],
      [
        "▁hepsin",
        "in"
      ],
      [
        "as",
        "ır"
      ],
      [
        "▁y",
        "as"
      ],
      [
        "▁k",
        "ap"
      ],
      [
        "▁iht",
        "iy"
      ],
      [
        "eler",
        "in"
      ],
      [
        "ma",
        "dı"
      ],
      [
        "eb",
        "il"
      ],
      [
        "▁kans",
        "as"
      ],
      [
        "▁stan",
        "d"
      ],
      [
        "▁.",
        "."
      ],
      [
        "▁p",
        "az"
      ],
      [
        "▁s",
        "p"
      ],
      [
        "ilm",
        "esi"
      ],
      [
        "▁var",
        "dı"
      ],
      [
        "s",
        "on"
      ],
      [
        "▁m",
        "us"
      ],
      [
        "▁d",
        "elik"
      ],
      [
        "▁gorus",
        "uldu"
      ],
      [
        "▁k",
        "en"
      ],
      [
        "▁y",
        "i"
      ],
      [
        "us",
        "u"
      ],
      [
        "▁an",
        "gel"
      ],
      [
        "ab",
        "ı"
      ],
      [
        "▁kon",
        "for"
      ],
      [
        "▁",
        ")"
      ],
      [
        "▁k",
        "ıl"
      ],
      [
        "r",
        "et"
      ],
      [
        "v",
        "e"
      ],
      [
        "▁soy",
        "lem"
      ],
      [
        "▁bunlar",
        "dan"
      ],
      [
        "n",
        "in"
      ],
      [
        "▁c",
        "id"
      ],
      [
        "l",
        "ar"
      ],
      [
        "▁bas",
        "v"
      ],
      [
        "▁kis",
        "isel"
      ],
      [
        "▁m",
        "uz"
      ],
      [
        "▁philadelphia",
        "'ya"
      ],
      [
        "m",
        "ayı"
      ],
      [
        "▁sirket",
        "in"
      ],
      [
        "▁ic",
        "ecek"
      ],
      [
        "▁olma",
        "sı"
      ],
      [
        "a",
        "j"
      ],
      [
        "▁ann",
        "e"
      ],
      [
        "▁bu",
        "n"
      ],
      [
        "lı",
        "yor"
      ],
      [
        "l",
        "iyor"
      ],
      [
        "▁m",
        "ot"
      ],
      [
        "▁lo",
        "u"
      ],
      [
        "▁",
        "lar"
      ],
      [
        "▁",
        "2"
      ],
      [
        "▁yaptı",
        "gı"
      ],
      [
        "▁al",
        "t"
      ],
      [
        "▁tahvil",
        "ler"
      ],
      [
        "▁%5",
        "0"
      ],
      [
        "b",
        "ak"
      ],
      [
        "▁ode",
        "digim"
      ],
      [
        "▁hes",
        "ap"
      ],
      [
        "▁t",
        "ık"
      ],
      [
        "s",
        "un"
      ],
      [
        "ı",
        "g"
      ],
      [
        "▁et",
        "mis"
      ],
      [
        "▁",
        "5-1"
      ],
      [
        "▁du",
        "m"
      ],
      [
        "▁goster",
        "di"
      ],
      [
        "▁el",
        "ektr"
      ],
      [
        "▁kac",
        "ın"
      ],
      [
        "▁goz",
        "leri"
      ],
      [
        "▁ok",
        "ul"
      ],
      [
        "iz",
        "m"
      ],
      [
        "an",
        "a"
      ],
      [
        "'",
        "le"
      ],
      [
        "v",
        "il"
      ],
      [
        "e",
        "lik"
      ],
      [
        "▁%",
        "4"
      ],
      [
        "▁ogret",
        "men"
      ],
      [
        "▁k",
        "adar"
      ],
      [
        "▁g",
        "ol"
      ],
      [
        "▁a",
        "c"
      ],
      [
        "k",
        "in"
      ],
      [
        "▁en",
        "er"
      ],
      [
        "▁m",
        "or"
      ],
      [
        "▁",
        "!"
      ],
      [
        "▁ilgilendi",
        "ler"
      ],
      [
        "▁lak",
        "e"
      ],
      [
        "▁",
        "0."
      ],
      [
        "▁s",
        "el"
      ],
      [
        "a",
        "'nın"
      ],
      [
        "▁",
        "ay"
      ],
      [
        "o",
        "k"
      ],
      [
        "og",
        "ram"
      ],
      [
        "▁bil",
        "miyorum"
      ],
      [
        "ist",
        "ik"
      ],
      [
        "▁kal",
        "madim"
      ],
      [
        "▁ediyor",
        "uz"
      ],
      [
        "il",
        "iyor"
      ],
      [
        "▁4",
        "4"
      ],
      [
        "lan",
        "dı"
      ],
      [
        "anc",
        "ı"
      ],
      [
        "d",
        "ik"
      ],
      [
        "ler",
        "inden"
      ],
      [
        "▁ad",
        "am"
      ],
      [
        "▁p",
        "at"
      ],
      [
        "▁gor",
        "ul"
      ],
      [
        "▁a",
        "h"
      ],
      [
        "▁dor",
        "t"
      ],
      [
        "a",
        "z"
      ],
      [
        "lu",
        "yor"
      ],
      [
        "lan",
        "mıs"
      ],
      [
        "▁i",
        "p"
      ],
      [
        "▁",
        "iy"
      ],
      [
        "▁d",
        "el"
      ],
      [
        "dı",
        "gı"
      ],
      [
        "▁seh",
        "r"
      ],
      [
        "ey",
        "di"
      ],
      [
        "g",
        "el"
      ],
      [
        "▁kal",
        "dik"
      ],
      [
        "li",
        "gin"
      ],
      [
        "▁m",
        "uc"
      ],
      [
        "▁mer",
        "ak"
      ],
      [
        "▁et",
        "m"
      ],
      [
        "▁kurt",
        "ul"
      ],
      [
        "▁ziy",
        "aret"
      ],
      [
        "▁nas",
        "ıl"
      ],
      [
        "lar",
        "ına"
      ],
      [
        "i",
        "y"
      ],
      [
        "ayı",
        "p"
      ],
      [
        "▁3",
        "."
      ],
      [
        "▁b",
        "ah"
      ],
      [
        "lam",
        "ası"
      ],
      [
        "▁ol",
        "ma"
      ],
      [
        "▁og",
        "ren"
      ],
      [
        "i",
        "a"
      ],
      [
        "ar",
        "i"
      ],
      [
        "▁dus",
        "erek"
      ],
      [
        "▁do",
        "k"
      ],
      [
        "▁f",
        "ok"
      ],
      [
        "n",
        "un"
      ],
      [
        "▁g",
        "ot"
      ],
      [
        "▁degil",
        "dir"
      ],
      [
        "▁yal",
        "nız"
      ],
      [
        "▁mey",
        "dan"
      ],
      [
        "▁2",
        "3"
      ],
      [
        "▁has",
        "ır"
      ],
      [
        "ıs",
        "ına"
      ],
      [
        "ist",
        "im"
      ],
      [
        "▁beklen",
        "iyor"
      ],
      [
        "▁",
        "1"
      ],
      [
        "▁p",
        "ufur"
      ],
      [
        "in",
        "g"
      ],
      [
        "ey",
        "en"
      ],
      [
        "▁fiyat",
        "ı"
      ],
      [
        "▁ayn",
        "ı"
      ],
      [
        "▁kal",
        "ab"
      ],
      [
        "▁o",
        "de"
      ],
      [
        "m",
        "edi"
      ],
      [
        "mas",
        "ına"
      ],
      [
        "▁yardim",
        "ci"
      ],
      [
        "un",
        "ku"
      ],
      [
        "▁nere",
        "de"
      ],
      [
        "a",
        "d"
      ],
      [
        "ını",
        "z"
      ],
      [
        "▁gitt",
        "ik"
      ],
      [
        "ıl",
        "ıyor"
      ],
      [
        "▁siz",
        "e"
      ],
      [
        "▁v",
        "ak"
      ],
      [
        "▁k",
        "il"
      ],
      [
        "lu",
        "gu"
      ],
      [
        "▁dur",
        "uyor"
      ],
      [
        "m",
        "eyen"
      ],
      [
        "len",
        "dir"
      ],
      [
        "▁g",
        "or"
      ],
      [
        "ar",
        "d"
      ],
      [
        "uyor",
        "lar"
      ],
      [
        "▁kay",
        "n"
      ],
      [
        "▁se",
        "m"
      ],
      [
        "-2",
        "2:30"
      ],
      [
        "l",
        "e"
      ],
      [
        "is",
        "i"
      ],
      [
        "b",
        "er"
      ],
      [
        "▁sat",
        "ın"
      ],
      [
        "ma",
        "dan"
      ],
      [
        "▁boyle",
        "ce"
      ],
      [
        "▁san",
        "s"
      ],
      [
        "ay",
        "dı"
      ],
      [
        "▁bas",
        "kı"
      ],
      [
        "▁%",
        "7"
      ],
      [
        "k",
        "un"
      ],
      [
        "▁york",
        "'tan"
      ],
      [
        "▁calıs",
        "ıyor"
      ],
      [
        "▁kal",
        "iforn"
      ],
      [
        "▁franc",
        "isco"
      ],
      [
        "▁karıs",
        "tır"
      ],
      [
        "▁ar",
        "ası"
      ],
      [
        "▁2",
        "00"
      ],
      [
        "lar",
        "dan"
      ],
      [
        "▁yak",
        "ın"
      ],
      [
        "▁anim",
        "asyon"
      ],
      [
        "▁",
        "5"
      ],
      [
        "▁kur",
        "um"
      ],
      [
        "▁h",
        "ız"
      ],
      [
        "▁gor",
        "un"
      ],
      [
        "▁",
        "ic"
      ],
      [
        "▁sabah",
        "ı"
      ],
      [
        "iz",
        "i"
      ],
      [
        "e",
        "m"
      ],
      [
        "▁g",
        "uc"
      ],
      [
        "▁otel",
        "di"
      ],
      [
        "▁y",
        "a"
      ],
      [
        "▁g",
        "en"
      ],
      [
        "▁i",
        "k"
      ],
      [
        "▁calis",
        "anlar"
      ],
      [
        "▁al",
        "ır"
      ],
      [
        "ur",
        "u"
      ],
      [
        "▁s",
        "oz"
      ],
      [
        "d",
        "ak"
      ],
      [
        "▁kesin",
        "likle"
      ],
      [
        ".",
        "2"
      ],
      [
        "hu",
        "t"
      ],
      [
        "al",
        "iydi"
      ],
      [
        "▁f",
        "ır"
      ],
      [
        "▁y",
        "az"
      ],
      [
        "▁an",
        "lay"
      ],
      [
        "mek",
        "tedir"
      ],
      [
        "▁da",
        "n"
      ],
      [
        "▁aras",
        "ında"
      ],
      [
        "▁sal",
        "dır"
      ],
      [
        "an",
        "lı"
      ],
      [
        "il",
        "e"
      ],
      [
        "▁etti",
        "gi"
      ],
      [
        "▁t",
        "um"
      ],
      [
        "▁u",
        "z"
      ],
      [
        "▁charl",
        "otte"
      ],
      [
        "▁has",
        "ta"
      ],
      [
        "l",
        "ı"
      ],
      [
        "im",
        "li"
      ],
      [
        "▁ar",
        "alık"
      ],
      [
        "dık",
        "tan"
      ],
      [
        "es",
        "inin"
      ],
      [
        "es",
        "em"
      ],
      [
        "'",
        "deki"
      ],
      [
        "▁olar",
        "ak"
      ],
      [
        "▁ar",
        "adi"
      ],
      [
        "dı",
        "k"
      ],
      [
        "▁kadın",
        "lar"
      ],
      [
        "▁duz",
        "ey"
      ],
      [
        "▁ad",
        "et"
      ],
      [
        "▁y",
        "an"
      ],
      [
        "▁p",
        "u"
      ],
      [
        "en",
        "in"
      ],
      [
        "▁y",
        "uv"
      ],
      [
        "▁r",
        "enk"
      ],
      [
        "▁ili",
        "sk"
      ],
      [
        "▁k",
        "isi"
      ],
      [
        "▁gor",
        "dum"
      ],
      [
        "▁m",
        "il"
      ],
      [
        "▁yalnız",
        "ca"
      ],
      [
        "▁tic",
        "aret"
      ],
      [
        "▁as",
        "ırı"
      ],
      [
        "▁at",
        "tı"
      ],
      [
        "▁guc",
        "lu"
      ],
      [
        "en",
        "s"
      ],
      [
        "is",
        "yon"
      ],
      [
        "ol",
        "u"
      ],
      [
        "▁s",
        "ark"
      ],
      [
        "▁il",
        "an"
      ],
      [
        "▁tes",
        "is"
      ],
      [
        "▁on",
        "a"
      ],
      [
        "dıg",
        "ını"
      ],
      [
        "▁ucret",
        "e"
      ],
      [
        "▁et",
        "tim"
      ],
      [
        "▁pil",
        "ot"
      ],
      [
        "▁lez",
        "zet"
      ],
      [
        "▁cit",
        "y"
      ],
      [
        "▁ol",
        "um"
      ],
      [
        "▁cocuk",
        "lar"
      ],
      [
        "t",
        "al"
      ],
      [
        "▁siyas",
        "i"
      ],
      [
        "▁v",
        "er"
      ],
      [
        "▁%2",
        "7"
      ],
      [
        "▁californ",
        "ia"
      ],
      [
        "▁hal",
        "dır"
      ],
      [
        "▁pa",
        "ul"
      ],
      [
        "▁karsıl",
        "as"
      ],
      [
        "gı",
        "c"
      ],
      [
        "m",
        "isti"
      ],
      [
        "▁par",
        "ti"
      ],
      [
        "▁yıl",
        "dız"
      ],
      [
        "▁tı",
        "m"
      ],
      [
        "▁seatt",
        "le"
      ],
      [
        "▁tak",
        "ım"
      ],
      [
        "▁oldugun",
        "a"
      ],
      [
        "▁hukum",
        "et"
      ],
      [
        "us",
        "unu"
      ],
      [
        "a",
        "y"
      ],
      [
        "lu",
        "gun"
      ],
      [
        "al",
        "et"
      ],
      [
        "v",
        "el"
      ],
      [
        "▁su",
        "b"
      ],
      [
        "▁y",
        "at"
      ],
      [
        "▁j",
        "apon"
      ],
      [
        ".",
        "1"
      ],
      [
        "▁yog",
        "un"
      ],
      [
        "dıg",
        "ında"
      ],
      [
        "▁lezzet",
        "i"
      ],
      [
        "▁g",
        "e"
      ],
      [
        "▁gun",
        "leri"
      ],
      [
        "i",
        "yak"
      ],
      [
        "d",
        "ın"
      ],
      [
        "▁sag",
        "lam"
      ],
      [
        "▁z",
        "ev"
      ],
      [
        "ar",
        "a"
      ],
      [
        "▁as",
        "l"
      ],
      [
        "▁kas",
        "ım"
      ],
      [
        "mem",
        "is"
      ],
      [
        "▁s",
        "art"
      ],
      [
        "iy",
        "or"
      ],
      [
        "▁kat",
        "kı"
      ],
      [
        "ul",
        "uyor"
      ],
      [
        "d",
        "og"
      ],
      [
        "l",
[...]
