{
  "version": "1.0",
  "truncation": null,
  "padding": null,
  "added_tokens": [
    {
      "id": 584,
      "content": "[UNK]",
      "single_word": false,
      "lstrip": false,
      "rstrip": false,
      "normalized": false,
      "special": true
    },
    {
      "id": 830,
      "content": "[MASK]",
      "single_word": false,
      "lstrip": false,
      "rstrip": false,
      "normalized": false,
      "special": true
    },
    {
      "id": 4254,
      "content": "[CLS]",
      "single_word": false,
      "lstrip": false,
      "rstrip": false,
      "normalized": false,
      "special": true
    },
    {
      "id": 5642,
      "content": "[SEP]",
      "single_word": false,
      "lstrip": false,
      "rstrip": false,
      "normalized": false,
      "special": true
    },
    {
      "id": 6059,
      "content": "[PAD]",
      "single_word": false,
      "lstrip": false,
      "rstrip": false,
      "normalized": false,
      "special": true
    }
  ],
  "normalizer": {
    "type": "Sequence",
    "normalizers": [
      {
        "type": "NFD"
      },
      {
        "type": "Lowercase"
      },
      {
        "type": "StripAccents"
      }
    ]
  },
  "pre_tokenizer": {
    "type": "Sequence",
    "pretokenizers": [
      {
        "type": "Metaspace",
        "replacement": "▁",
        "prepend_scheme": "always",
        "split": true
      }
    ]
  },
  "post_processor": {
    "type": "TemplateProcessing",
    "single": [
      {
        "SpecialToken": {
          "id": "[CLS]",
          "type_id": 0
        }
      },
      {
        "Sequence": {
          "id": "A",
          "type_id": 0
        }
      },
      {
        "SpecialToken": {
          "id": "[SEP]",
          "type_id": 0
        }
      }
    ],
    "pair": [
      {
        "SpecialToken": {
          "id": "[CLS]",
          "type_id": 0
        }
      },
      {
        "Sequence": {
          "id": "A",
          "type_id": 0
        }
      },
      {
        "SpecialToken": {
          "id": "[SEP]",
          "type_id": 0
        }
      },
      {
        "Sequence": {
          "id": "B",
          "type_id": 1
        }
      },
      {
        "SpecialToken": {
          "id": "[SEP]",
          "type_id": 1
        }
      }
    ],
    "special_tokens": {
      "[CLS]": {
        "id": "[CLS]",
        "ids": [
          4254
        ],
        "tokens": [
          "[CLS]"
        ]
      },
      "[SEP]": {
        "id": "[SEP]",
        "ids": [
          5642
        ],
        "tokens": [
          "[SEP]"
        ]
      }
    }
  },
  "decoder": {
    "type": "Metaspace",
    "replacement": "▁",
    "prepend_scheme": "always",
    "split": true
  },
  "model": {
    "type": "Unigram",
    "unk_id": 584,
    "vocab": [
      [
        "6",
        -6.952477388401526
      ],
      [
        "▁omzun",
        -10.629718119823114
      ],
      [
        "▁civi",
        -10.233413491425264
      ],
      [
        "dıgını",
        -8.246037365990563
      ],
      [
        "▁newark'ta",
        -9.63982172993768
      ],
      [
        "▁olmakta",
        -10.109797613195536
      ],
      [
        "▁yapabil",
        -10.374606403870704
      ],
      [
        "e",
        -4.410994530981027
      ],
      [
        "▁ucu",
        -9.034688092910065
      ],
      [
        "▁nerde",
        -10.135576152353247
      ],
      [
        "▁sımsı",
        -10.521511267741563
      ],
      [
        "▁bedava",
        -10.574135973500443
      ],
      [
        "▁cakıl",
        -10.65710578371507
      ],
      [
        "▁gercek",
        -8.136759230517583
      ],
      [
        "▁62.",
        -10.93445556329254
      ],
      [
        "▁yavru",
        -9.854084613507847
      ],
      [
        "▁her",
        -4.351819211849485
      ],
      [
        "▁katildi",
        -9.913050761950933
      ],
      [
        "▁kurul",
        -9.449451825335782
      ],
      [
        "lerdi",
        -10.730951152828887
      ],
      [
        "▁michael",
        -10.574124682692943
      ],
      [
        "▁saatlerde",
        -9.595547342393395
      ],
      [
        "onlar",
        -9.411444122687692
      ],
      [
        "▁sesler",
        -10.165714579708016
      ],
      [
        "▁dustugu",
        -10.5246499860141
      ],
      [
        "▁kuyruk",
        -10.817670426241843
      ],
      [
        "mız",
        -8.159392057993998
      ],
      [
        "▁gectigi",
        -10.273890726413834
      ],
      [
        "▁islem",
        -8.294074838440173
      ],
      [
        "kim",
        -9.596563809862902
      ],
      [
        "▁dogum",
        -9.846045224095967
      ],
      [
        "▁besiktas",
        -10.471493933444059
      ],
      [
        "▁kurtarma",
        -10.218307964493093
      ],
      [
        "▁okuyu",
        -10.525922126942776
      ],
      [
        "▁oyuncu",
        -9.457375160174882
      ],
      [
        "▁yasıyor",
        -9.265574274606745
      ],
      [
        "c",
        -7.005945777813378
      ],
      [
        "gimiz",
        -8.765037967170969
      ],
      [
        "▁etkisi",
        -9.547243508701287
      ],
      [
        "iniz",
        -10.108904679601515
      ],
      [
        "▁piyasası",
        -9.378997081135992
      ],
      [
        "▁kanada",
        -9.57030238917243
      ],
      [
        "▁nere",
        -10.39977854144181
      ],
      [
        "▁gri",
        -10.257301448399955
      ],
      [
        "▁fırladı",
        -10.078832446656842
      ],
      [
        "950",
        -10.998314967311511
      ],
      [
        "▁inanıyor",
        -9.600924725803615
      ],
      [
        "▁yumruk",
        -10.532133770652464
      ],
      [
        "ff",
        -9.524781249910944
      ],
      [
        "tur",
        -7.886228925077593
      ],
      [
        "lanma",
        -8.534962582287223
      ],
      [
        "▁haklı",
        -9.756570762582564
      ],
      [
        "2.1",
        -10.060658786717287
      ],
      [
        "▁yon",
        -7.834262314247808
      ],
      [
        "bil",
        -8.408178538578948
      ],
      [
        "▁kesti",
        -9.763395312664379
      ],
      [
        "▁sandıgı",
        -10.233957394406042
      ],
      [
        "yla",
        -6.818437337461875
      ],
      [
        ".2",
        -10.72452353329508
      ],
      [
        "▁oyuncak",
        -10.254053099730768
      ],
      [
        "lerle",
        -7.7701544609857285
      ],
      [
        "▁ydı",
        -7.2089507199542044
      ],
      [
        "sem",
        -9.477484702991127
      ],
      [
        "▁icer",
        -8.730846400257693
      ],
      [
        "▁%1",
        -10.278719016848093
      ],
      [
        "▁ayrıntı",
        -9.71936599132769
      ],
      [
        "22",
        -10.719045026475124
      ],
      [
        "▁firma",
        -8.945068607856141
      ],
      [
        "▁mezun",
        -10.381354893152437
      ],
      [
        "▁kurulmus",
        -10.698892860939768
      ],
      [
        "ledigi",
        -9.604448424316566
      ],
      [
        "▁edecek",
        -8.806606393927595
      ],
      [
        "▁yolunda",
        -10.044985376919332
      ],
      [
        "▁itiraz",
        -9.71923591789442
      ],
      [
        "▁tez",
        -10.167022585455104
      ],
      [
        "▁araba",
        -8.08824198209259
      ],
      [
        "▁hepimizi",
        -9.081385122939912
      ],
      [
        "▁satıl",
        -9.5185319818145
      ],
      [
        "▁meksika",
        -10.521493471264254
      ],
      [
        "▁hangi",
        -7.234503359905556
      ],
      [
        "▁tedarik",
        -10.423875415702605
      ],
      [
        "▁eksikligi",
        -10.025337444103702
      ],
      [
        "▁emre",
        -10.109404375365184
      ],
      [
        "▁yas",
        -8.187689806581407
      ],
      [
        "▁ingiltere'de",
        -10.70707159796644
      ],
      [
        "▁uretimi",
        -9.568202515804217
      ],
      [
        "▁kontrol",
        -8.956756142562636
      ],
      [
        "▁vapur",
        -9.475627644610098
      ],
      [
        "▁yanın",
        -9.741603035048948
      ],
      [
        "▁der",
        -8.43471961232163
      ],
      [
        "▁cıkıyor",
        -9.141097125816547
      ],
      [
        "▁toplay",
        -10.743056639017743
      ],
      [
        "▁800",
        -9.860106262832037
      ],
      [
        "▁muhtac",
        -10.521506399338955
      ],
      [
        "▁yukarıda",
        -10.317133105498684
      ],
      [
        "▁duyuru",
        -10.22315406922657
      ],
      [
        "▁dervis",
        -10.688534115146659
      ],
      [
        "▁fonu",
        -9.983580912204955
      ],
      [
        "▁ankara'y",
        -10.690305450432
      ],
      [
        "▁vergisi",
        -10.24962521602294
      ],
      [
        "▁meyhane",
        -10.471502051195703
      ],
      [
        "▁filistin",
        -10.574125397532635
      ],
      [
        "▁vurdu",
        -9.347790668773566
      ],
      [
        "▁devre",
        -9.771982008136266
      ],
      [
        "6.1",
        -10.523354865358952
      ],
      [
        "▁bonoları",
        -10.548811240603467
      ],
      [
        "▁insa",
        -9.334715046996422
      ],
      [
        "ine",
        -7.035742526227952
      ],
      [
        "▁minder",
        -10.751171408010205
      ],
      [
        "▁altmıs",
        -9.585953801299627
      ],
      [
        "▁worth'da",
        -9.944127578245439
      ],
      [
        "▁telas",
        -10.022669583534613
      ],
      [
        "▁sal",
        -8.344668123724029
      ],
      [
        "▁new",
        -7.453804286357297
      ],
      [
        "▁d",
        -8.747837876481228
      ],
      [
        "la",
        -5.9388589579733875
      ],
      [
        "▁oyma",
        -10.829264966490335
      ],
      [
        "▁masraf",
        -9.55042010124829
      ],
      [
        "▁isterdi",
        -10.559444742700329
      ],
      [
        "▁siddet",
        -9.19598804049054
      ],
      [
        "▁gozle",
        -10.28050720142354
      ],
      [
        "▁iki",
        -4.84812175613624
      ],
      [
        "-",
        -5.224644862667953
      ],
      [
        "▁tutma",
        -9.559951320571079
      ],
      [
        "▁profesyonel",
        -9.980434515402658
      ],
      [
        "▁aglama",
        -9.9122881567047
      ],
      [
        "▁yangın",
        -9.975688286630803
      ],
      [
        "▁aldigim",
        -9.882084425494803
      ],
      [
        "▁tı",
        -10.992942583622574
      ],
      [
        "▁22.",
        -9.951591424162933
      ],
      [
        "▁sinirli",
        -10.096218377006174
      ],
      [
        "▁emlak",
        -10.424580423905445
      ],
      [
        "▁1.6",
        -8.971239292048033
      ],
      [
        "▁sana",
        -7.031446902661547
      ],
      [
        "mem",
        -9.76338876706618
      ],
      [
        "▁edecegim",
        -10.353995229658567
      ],
      [
        "▁birileri",
        -9.482485129175965
      ],
      [
        "▁onyedi",
        -10.921018666201677
      ],
      [
        "▁ticari",
        -9.031867716077759
      ],
      [
        "▁domuz",
        -10.84471690075965
      ],
      [
        "t",
        -6.307256664581648
      ],
      [
        "▁olmak",
        -10.570745522825971
      ],
      [
        "▁satma",
        -9.60838372811806
      ],
      [
        "▁yarın",
        -8.590247534985837
      ],
      [
        "▁akraba",
        -10.378438974211598
      ],
      [
        "▁surekli",
        -8.55402646451098
      ],
      [
        "▁civarı",
        -9.812355072157736
      ],
      [
        "▁bagırıyor",
        -10.388703169203858
      ],
      [
        "▁bakanlıgı",
        -9.777191067926644
      ],
      [
        "'da",
        -7.309163195936353
      ],
      [
        "▁yasadık",
        -10.508307440617028
      ],
      [
        "▁arta",
        -9.455345945424874
      ],
      [
        "▁ilham",
        -10.253513341087995
      ],
      [
        "▁ucusunuz",
        -10.017933186892794
      ],
      [
        "▁sah",
        -9.525941946567098
      ],
      [
        "▁v",
        -9.826033055058556
      ],
      [
        "▁elimi",
        -10.07351286800639
      ],
      [
        "▁hava",
        -7.811994756531721
      ],
      [
        "ladıgı",
        -9.63258508317368
      ],
      [
        "▁yetkilisi",
        -10.506834349365505
      ],
      [
        "▁varıs",
        -10.837466694669292
      ],
      [
        "▁3",
        -9.467192472601777
      ],
      [
        "sa",
        -9.687890704303967
      ],
      [
        "▁haydi",
        -10.161020935939735
      ],
      [
        "▁telefonla",
        -9.28211281389747
      ],
      [
        "bunlar",
        -10.166677767552747
      ],
      [
        "▁atıldı",
        -10.552421562788147
      ],
      [
        "▁tutuldu",
        -10.858446076254417
      ],
      [
        "▁afrika",
        -10.142063008263612
      ],
      [
        "▁direkt",
        -9.980020390842801
      ],
      [
        "▁calismasi",
        -10.334962904977509
      ],
      [
        "▁depremin",
        -10.48981663642478
      ],
      [
        "▁kulagım",
        -10.751425968036141
      ],
      [
        "dort",
        -8.300701135237919
      ],
      [
        "▁duygularını",
        -10.41206812841466
      ],
      [
        "▁becer",
        -10.443929940554657
      ],
      [
        "a'nın",
        -9.305311309569202
      ],
      [
        "▁cogunda",
        -10.93680925498924
      ],
      [
        "19",
        -11.864564628225484
      ],
      [
        "▁kıbrıs",
        -10.107578943536808
      ],
      [
        "▁muhafazakar",
        -10.335100521049227
      ],
      [
        "▁naci",
        -10.14837049312243
      ],
      [
        "▁1960",
        -9.847398297535513
      ],
      [
        "▁angeles",
        -10.072923360712705
      ],
      [
        "▁perakende",
        -9.93314329799678
      ],
      [
        "▁par",
        -9.067684364952367
      ],
      [
        "▁sevme",
        -9.858921828762487
      ],
      [
        "@",
        -12.809526790838987
      ],
      [
        "▁katılan",
        -10.576473342575525
      ],
      [
        "▁romancı",
        -10.604965557427823
      ],
      [
        "sanız",
        -9.833853027931092
      ],
      [
        "▁yemis",
        -9.5976336112993
      ],
      [
        "▁emri",
        -10.301603840723665
      ],
      [
        "▁daral",
        -10.177190893278745
      ],
      [
        "▁restoran",
        -9.457763387945466
      ],
      [
        "nizi",
        -9.673548805952013
      ],
      [
        "▁icecek",
        -9.877445998993108
      ],
      [
        "▁puanlama",
        -10.007256090372458
      ],
      [
        "▁omer",
        -9.841493752279684
      ],
      [
        "▁nufuz",
        -10.889103284350988
      ],
      [
        "▁parlak",
        -9.773300469165749
      ],
      [
        "▁onu",
        -5.86245400157231
      ],
      [
        "▁tulum",
        -10.746941552672666
      ],
      [
        "▁ziyade",
        -9.896636261914333
      ],
      [
        "▁baskısı",
        -10.546546073074445
      ],
      [
        "▁ceviz",
        -10.334956858450319
      ],
      [
        "▁si",
        -8.672083505214713
      ],
      [
        "▁oglum",
        -9.624209445679094
      ],
      [
        "▁azalt",
        -9.809881030605352
      ],
      [
        "▁sehrinde",
        -10.675869924319269
      ],
      [
        "bizim",
        -9.761518336533253
      ],
      [
        "▁kenar",
        -9.397472382092069
      ],
      [
        "▁gezme",
        -10.574248153461632
      ],
      [
        "▁boynunda",
        -10.746144496713027
      ],
      [
        "▁tarihte",
        -10.19917069335832
      ],
      [
        "▁canta",
        -9.824978580980046
      ],
      [
        "▁odunc",
        -10.447583064226007
      ],
      [
        "misti",
        -7.996022752246036
      ],
      [
        "▁%7.",
        -11.075594433443909
      ],
      [
        "▁fizik",
        -10.177818185017127
      ],
      [
        "▁cincinnati'",
        -10.290128680391245
      ],
      [
        "2000",
        -10.360151570583378
      ],
      [
        "▁duzen",
        -8.751287276716841
      ],
      [
        "▁dudakları",
        -9.938215334145736
      ],
      [
        "der",
        -8.511186152524536
      ],
      [
        "▁ogrenmek",
        -9.846857056962367
      ],
      [
        "▁brown",
        -10.574140029450394
      ],
      [
        "▁ucretleri",
        -9.44083715686303
      ],
      [
        "▁adamın",
        -9.398106958738694
      ],
      [
        "lu",
        -10.540402499714833
      ],
      [
        "2",
        -6.4595835472024214
      ],
      [
        "▁soru",
        -8.721494587904822
      ],
      [
        "▁actı",
        -8.56896487394787
      ],
      [
        "layınca",
        -10.387788907941026
      ],
      [
        "lasan",
        -10.050095006058786
      ],
      [
        "▁bakıyor",
        -9.151591553603286
      ],
      [
        "▁olmalıdır",
        -10.481260726726013
      ],
      [
        "▁hur",
        -9.94292742528334
      ],
      [
        "▁ucu",
        -9.239929097601554
      ],
      [
        "▁hediye",
        -10.142062722774227
      ],
      [
        "▁calis",
        -9.326506881397057
      ],
      [
        "▁27",
        -7.710104612445034
      ],
      [
        "▁gelme",
        -9.290353479910454
      ],
      [
        "▁elbet",
        -9.116261975251655
      ],
      [
        "▁siddetle",
        -10.466975103673349
      ],
      [
        "▁he",
        -6.007693112883406
      ],
      [
        "▁tuttugu",
        -10.44689970325902
      ],
      [
        "▁kusur",
        -9.443135901782508
      ],
      [
        "▁yazıyor",
        -10.32669823734709
      ],
      [
        "▁guler",
        -8.186717627250845
      ],
      [
        "mont",
        -10.793871410804048
      ],
      [
        "▁66",
        -10.834958921941555
      ],
      [
        "▁hasta",
        -8.475713216976555
      ],
      [
        "dum",
        -8.765968894649912
      ],
      [
        "▁eklen",
        -10.297905306728815
      ],
      [
        "▁baslıca",
        -10.62981340646865
      ],
      [
        "▁col",
        -9.862291427009412
      ],
      [
        "▁cumhuriyetci",
        -10.48175025355568
      ],
      [
        "▁sokakta",
        -9.829158274924959
      ],
      [
        "▁ozelligi",
        -10.512155709394541
      ],
      [
        "▁brothers",
        -10.751003762772708
      ],
      [
        "▁etmesi",
        -9.714404916657793
      ],
      [
        "▁sade",
        -7.316177005778322
      ],
      [
        "▁calısması",
        -10.346846606648294
      ],
      [
        "izim",
        -10.10999845894959
      ],
      [
        "▁18.7",
        -10.655048398053445
      ],
      [
        "▁birlikte",
        -8.408555546501644
      ],
      [
        "▁memnun",
        -6.422501566831746
      ],
      [
        "▁tuketim",
        -10.145231748550781
      ],
      [
        "▁ogrendi",
        -10.10986091712587
      ],
      [
        "9",
        -9.137202930801585
      ],
      [
        "▁ucuslarını",
        -7.789999309236502
      ],
      [
        "▁alt",
        -8.853778980841685
      ],
      [
        "3",
        -6.917042067206594
      ],
      [
        "▁rumeli",
        -10.818040290364348
      ],
      [
        "▁doktor",
        -8.777423484441915
      ],
      [
        "▁kapandı",
        -8.244242436213796
      ],
      [
        "▁alınma",
        -10.315148839248035
      ],
      [
        "▁ikna",
        -10.334965055749926
      ],
      [
        "▁lig",
        -10.476150793466715
      ],
      [
        "▁vur",
        -8.835411267316559
      ],
      [
        "▁husus",
        -9.610648647804796
      ],
      [
        "850",
        -10.782958740504103
      ],
      [
        "▁titrey",
        -10.723032352933862
      ],
      [
        "▁yoneticiler",
        -10.360852170072572
      ],
      [
        "▁15",
        -7.200442600775433
      ],
      [
        "▁'yd",
        -10.140773474257456
      ],
      [
        "▁saygı",
        -9.158562300574676
      ],
      [
        "▁sapka",
        -9.766802223419766
      ],
      [
        "▁amca",
        -9.654974569481555
      ],
      [
        "▁faiz",
        -8.191467534537658
      ],
      [
        "▁seviyor",
        -10.611187528155252
      ],
      [
        "▁7.8",
        -10.097820971109448
      ],
      [
        "▁painewebber",
        -10.817670414560327
      ],
      [
        "▁meze",
        -10.634066616799307
      ],
      [
        "▁nere",
        -9.042275396247186
      ],
      [
        "▁kos",
        -8.777721072170577
      ],
      [
        "▁tabiat",
        -10.180548729692882
      ],
      [
        "▁resim",
        -9.055370581841869
      ],
      [
        "0",
        -8.865420295759161
      ],
      [
        "▁kıyaslan",
        -9.757036413371697
      ],
      [
        "▁mukemmel",
        -8.575741854544475
      ],
      [
        "▁kuralları",
        -10.244249795820819
      ],
      [
        "▁bru",
        -10.52296819471913
      ],
      [
        "▁itiraf",
        -10.041988422926737
      ],
      [
        "▁0.4",
        -9.905857409742325
      ],
      [
        "▁sacı",
        -10.6349630700042
      ],
      [
        "inizi",
        -9.983238270862586
      ],
      [
        "65",
        -9.675037765306438
      ],
      [
        "▁astı",
        -10.11425813157659
      ],
      [
        "▁1987'de",
        -10.88910415097308
      ],
      [
        "▁aldat",
        -10.346399913268623
      ],
      [
        "▁kacırdı",
        -10.312372821059133
      ],
      [
        "▁ucunu",
        -10.646869683689443
      ],
      [
        "▁eris",
        -9.929470444938062
      ],
      [
        "▁kan",
        -8.337108475575775
      ],
      [
        "si",
        -5.7866612787678005
      ],
      [
        "usines",
        -10.788593262417393
      ],
      [
        "▁sermaye",
        -8.842827726174754
      ],
      [
        "ustur",
        -9.028855357473493
      ],
      [
        "▁mesut",
        -10.424383188074657
      ],
      [
        "▁burnu",
        -10.107843196185502
      ],
      [
        "memis",
        -9.627691622270566
      ],
      [
        "oru",
        -10.203952345947865
      ],
      [
        "dan",
        -5.5978885566371055
      ],
      [
        "▁5.2",
        -9.986562517576044
      ],
      [
        "▁aslın",
        -8.606880240905216
      ],
      [
        "g",
        -7.334280021086101
      ],
      [
        "▁dis",
        -8.778937382643715
      ],
      [
        "▁otu",
        -9.62229282447634
      ],
      [
        "▁yukselen",
        -10.053892367596621
      ],
      [
        "▁belirle",
        -9.736045311189915
      ],
      [
        "▁tanıdı",
        -10.007316586149727
      ],
      [
        "▁mutlulugu",
        -10.883106661022259
      ],
      [
        "▁bitti",
        -9.75190049821913
      ],
      [
        "▁sor",
        -9.32012446854935
      ],
      [
        "ilmis",
        -9.03465198706554
      ],
      [
        "▁1.05",
        -10.674560221169152
      ],
      [
        "aj",
        -9.225832067556524
      ],
      [
        "▁gelmedi",
        -9.531583000571326
      ],
      [
        "▁kac",
        -8.465416840291955
      ],
      [
        "▁dagın",
        -10.65975843656725
      ],
      [
        "isi",
        -9.47389260963525
      ],
      [
        "▁kentin",
        -10.11256191711674
      ],
      [
        "▁izni",
        -10.470223934381728
      ],
      [
        "▁aldi",
        -9.858544975706632
      ],
      [
        "▁calısıl",
        -10.441184148543437
      ],
      [
        "▁yazılım",
        -10.191230030622965
      ],
      [
        "▁fir",
        -10.051478231144406
      ],
      [
        "▁yam",
        -11.429855101809457
      ],
      [
        "▁tarif",
        -10.165265863513586
      ],
      [
        "leyecegi",
        -10.396319015392443
      ],
      [
        "▁dedikleri",
        -10.484343352405768
      ],
      [
        "fa",
        -8.881202802097874
      ],
      [
        "se",
        -7.027893800229051
      ],
      [
        "imiz",
        -8.544494370514176
      ],
      [
        "▁tutun",
        -9.235838383823651
      ],
      [
        "▁ici",
        -8.483524967772738
      ],
      [
        "dım",
        -8.727289002243714
      ],
      [
        "▁guluyor",
        -10.426395998657888
      ],
      [
        "in",
        -9.31817253420266
      ],
      [
        "▁chp",
        -10.21138357568872
      ],
      [
        "la",
        -7.417516293723048
      ],
      [
        "i'ni",
        -9.515019325333485
      ],
      [
        "▁birbirlerin",
        -8.356805554692865
      ],
      [
        "▁agaclar",
        -9.900763072432454
      ],
      [
        "▁verilmesi",
        -10.429666453818367
      ],
      [
        "▁ithal",
        -10.42246724802983
      ],
      [
        "▁seklinde",
        -9.71947625254723
      ],
      [
        "▁care",
        -9.368000562047142
      ],
      [
        "▁nashville'",
        -10.3932581306818
      ],
      [
        "▁gures",
        -10.047415778159916
      ],
      [
        "▁muz",
        -10.050504923414021
      ],
      [
        "'s",
        -9.620973501839297
      ],
      [
        "▁gidiyor",
        -8.581544182838512
      ],
      [
        "▁cent",
        -8.864544991519532
      ],
      [
        "nı",
        -7.71052470967095
      ],
      [
        "▁5",
        -6.399179993357795
      ],
      [
        "▁moda",
        -9.960203953058183
      ],
      [
        "▁pilav",
        -10.688554585495726
      ],
      [
        "▁disi",
        -10.464076972051974
      ],
      [
        "▁cesitli",
        -8.922709171086947
      ],
      [
        "▁aranma",
        -10.559690572720955
      ],
      [
        "▁cinsel",
        -10.07629409083702
      ],
      [
        "▁rıza",
        -10.253279357190898
      ],
      [
        "vi",
        -8.43958836157342
      ],
      [
        "▁savas",
        -8.635287500683862
      ],
      [
        "▁ucte",
        -10.496238531617946
      ],
      [
        "▁fonları",
        -9.628316814594603
      ],
      [
        "▁sizin",
        -7.4886096173651
      ],
      [
        "▁tıpkı",
        -9.95105043704857
      ],
      [
        "▁alabilir",
        -9.260914237717966
      ],
      [
        "▁olacak",
        -10.653978238680095
      ],
      [
        "▁gunes",
        -8.500909090332016
      ],
      [
        "▁6.9",
        -10.346919540327479
      ],
      [
        "▁paul'",
        -9.813102822175036
      ],
      [
        "▁anda",
        -8.058954089642068
      ],
      [
        "'e",
        -8.084843082147824
      ],
      [
        "▁gecerli",
        -9.84826168723846
      ],
      [
        "▁anadolu",
        -9.472195255620296
      ],
      [
        "86",
        -10.339443531285527
      ],
      [
        "▁orhan",
        -10.472603389682146
      ],
      [
        "▁tanım",
        -9.85846466811569
      ],
      [
        "▁tak",
        -10.208637830224545
      ],
      [
        "▁tr",
        -9.39339067065392
      ],
      [
        "▁nerede",
        -9.827874280805622
      ],
      [
        "▁tanık",
        -9.77333315736007
      ],
      [
        "▁komitesi",
        -10.06931292334155
      ],
      [
        "▁acıklaya",
        -10.728876889800603
      ],
      [
        "▁sen",
        -6.208861544610927
      ],
      [
        "▁hazırladıgı",
        -10.752452110124947
      ],
      [
        "▁gelistirme",
        -9.532081725761376
      ],
      [
        "▁erken",
        -7.613447407443573
      ],
      [
        "▁gorunur",
        -10.54014173579108
      ],
      [
        "▁dikis",
        -10.703426515387449
      ],
      [
        "▁alıcılar",
        -10.350297822306347
      ],
      [
        "▁ler",
        -9.237594244454714
      ],
      [
        "▁erkek",
        -8.52378179548634
      ],
      [
        "▁90",
        -9.764304110553487
      ],
      [
        "▁sos",
        -10.282245598550276
      ],
      [
        "▁cumhuriyeti",
        -10.221539979387193
      ],
      [
        "▁john",
        -9.790484771218491
      ],
      [
        "▁suruklen",
        -10.69331317310117
      ],
      [
        "▁derece",
        -8.323828921824372
      ],
      [
        "▁hayatımda",
        -10.819041260047083
      ],
      [
        "▁cekilmis",
        -10.567242928534357
      ],
      [
        "▁gul",
        -8.21699785261342
      ],
      [
        "▁milliyet",
        -10.50451888760546
      ],
      [
        "▁gidiyordu",
        -9.963985756548723
      ],
      [
        "▁dibin",
        -10.432630921858406
      ],
      [
        "▁8'de",
        -9.769124279801412
      ],
      [
        "▁tumu",
        -10.094893177816253
      ],
      [
        "▁hızı",
        -10.211355443566214
      ],
      [
        "▁yuzunde",
        -8.640897136033953
      ],
      [
        "▁mac",
        -8.535883157199516
      ],
      [
        "▁ziyaret",
        -9.116292201093211
      ],
      [
        "▁gulumsey",
        -10.817672318633262
      ],
      [
        "▁kurallar",
        -10.301876411606766
      ],
      [
        "▁gunun",
        -9.901722472109352
      ],
      [
        "▁mesgul",
        -10.142080304312731
      ],
      [
        "▁sam",
        -9.296344944262952
      ],
      [
        "▁saglık",
        -9.045742778286627
      ],
      [
        "▁kendimde",
        -9.632540964210538
      ],
      [
        "▁kadınlar",
        -8.783563107225259
      ],
      [
        "▁!",
        -9.510406401262047
      ],
      [
        "▁vurma",
        -10.186481248179335
      ],
      [
        "▁konforu",
        -9.956604487071683
      ],
      [
        "▁dukkan",
        -9.461304308729595
      ],
      [
        "▁ib",
        -9.010902212036658
      ],
      [
        "▁basar",
        -9.44772935644378
      ],
      [
        "▁dayanır",
        -10.389585827748892
      ],
      [
        "▁karyola",
        -10.88911698527686
      ],
      [
        "sak",
        -9.361730064096676
      ],
      [
        "▁",
        -0.7142778471973958
      ],
      [
        "ya",
        -10.818797471308109
      ],
      [
        "▁esir",
        -10.09647547187507
      ],
      [
        "▁turist",
        -10.144254783913565
      ],
      [
        "▁yazma",
        -9.61315556263236
      ],
      [
        "▁belirgin",
        -10.763053101962182
      ],
      [
        "▁sınıfı",
        -8.94900196463377
      ],
      [
        "▁yemeklerde",
        -9.420066152347932
      ],
      [
        "▁4.6",
        -10.156452873367982
      ],
      [
        "▁hasan",
        -9.68910945505435
      ],
      [
        "▁futbolcu",
        -10.442447008596051
      ],
      [
        "▁giydi",
        -10.617453642570593
      ],
      [
        "▁gorduk",
        -9.537040042881477
      ],
      [
        "▁muddet",
        -10.471493191131861
      ],
      [
        "▁hanim",
        -7.4981611549188205
      ],
      [
        "▁18.6",
        -10.65780741258353
      ],
      [
        "▁duzenlene",
        -10.414629439673742
      ],
      [
        "▁nor",
        -10.181002915108293
      ],
      [
        "▁kurum",
        -9.87877028343312
      ],
      [
        "▁sozlesme",
        -9.03117662867184
      ],
      [
        "86",
        -12.153008031101201
      ],
      [
        "sunuz",
        -8.571917383166053
      ],
      [
        "ak",
        -7.804092858450923
      ],
      [
        "▁sınırlı",
        -10.366167288948207
      ],
      [
        "▁ic",
        -7.8440489735178724
      ],
      [
        "▁titriyordu",
        -10.7532001502334
      ],
      [
        ".50",
        -9.474023788463791
      ],
      [
        "▁ikiy",
        -10.599484296448376
      ],
      [
        "▁sahipleri",
        -9.591920782152458
      ],
      [
        "▁surdurdu",
        -10.75293689514454
      ],
      [
        "▁tukenme",
        -10.824064722214787
      ],
      [
        "▁dokme",
        -10.505354520589071
      ],
      [
        "▁hareketi",
        -9.89462250494311
      ],
      [
        "sin",
        -10.559756008826753
      ],
      [
        "▁yapması",
        -9.907022089145066
      ],
      [
        "▁sent",
        -9.025788965226313
      ],
      [
        "▁isi",
        -8.248272358505172
      ],
      [
        "▁viski",
        -10.521549351339207
      ],
      [
        "▁ilginc",
        -10.010908268933454
      ],
      [
        "▁mudur",
        -10.569581647065483
      ],
      [
        "▁airlines",
        -8.783020267119287
      ],
      [
        "1.6",
        -10.028008202536643
      ],
      [
        "▁olduk",
        -8.74444408949176
      ],
      [
        "▁uste",
        -9.798390019246927
      ],
      [
        "▁coktan",
        -9.751338899077698
      ],
      [
        "▁abla",
        -9.617669581982993
      ],
      [
        "▁pul",
        -10.04496622147291
      ],
      [
        "▁ezi",
        -10.088318388356342
      ],
      [
        "▁sakız",
        -10.819257077485146
      ],
      [
        "land",
        -9.899262470982897
      ],
      [
        "▁rol",
        -9.480527091612444
      ],
      [
        "▁tıbbi",
        -10.751003840990233
      ],
      [
        "tu",
        -9.158395043648547
      ],
      [
        "▁8.9",
        -10.558512057576548
      ],
      [
        "▁rutubet",
        -10.521493096036403
      ],
      [
        "▁bereket",
        -10.629697386887191
      ],
      [
        "▁tehdidi",
        -10.57412487027102
      ],
      [
        "▁buray",
        -9.847806866873915
      ],
      [
        "dim",
        -8.926831132052726
      ],
      [
        "9.4",
        -10.687779410694938
      ],
      [
        "ısı",
        -11.051820260445027
      ],
      [
        "▁dun",
        -7.826398011993958
      ],
      [
        "▁meclisi",
        -10.300894839605649
      ],
      [
        "lerin",
        -10.512831345665763
      ],
      [
        "larımız",
        -9.020294738849586
      ],
      [
        "▁gonullu",
        -10.110736063509357
      ],
      [
        "▁jul",
        -10.86846560773703
      ],
      [
        "42",
        -10.270328648458687
      ],
      [
        "33",
        -10.603264245695037
      ],
      [
        "▁imkanı",
        -10.603960384655014
      ],
      [
        "▁analistlerin",
        -10.536224752078258
      ],
      [
        "▁charlotte'",
        -9.784643236532078
      ],
      [
        "▁uretiyor",
        -10.694932944301307
      ],
      [
        "▁durust",
        -10.525869136362763
      ],
      [
        "▁tavan",
        -9.703575973439985
      ],
      [
        "▁okuyan",
        -10.294857784791501
      ],
      [
        "▁80",
        -9.245377230161239
      ],
      [
        "▁dilim",
        -9.607766052755228
      ],
      [
        "lanmaya",
        -10.135471328179788
      ],
      [
        "▁baz",
        -8.458083637762032
      ],
      [
        "▁milwaukee'",
        -9.177545651179486
      ],
      [
        "▁holding",
        -9.69650685182459
      ],
      [
        "sı",
        -6.088644918240215
      ],
      [
        "▁yuz",
        -7.387323089183921
      ],
      [
        "▁tatli",
        -10.5757952500677
      ],
      [
        "▁one",
        -9.780608105965431
      ],
      [
        "▁harca",
        -9.646331906854613
      ],
      [
        "▁almanya'",
        -10.402272417071801
      ],
      [
        "▁sinyal",
        -10.753913271651836
      ],
      [
        "▁5.7",
        -10.983174100380875
      ],
      [
        "▁cıv",
        -10.472988799486036
      ],
      [
        "▁kına",
        -10.346514663271517
      ],
      [
        "▁4.5",
        -10.026499913016705
      ],
      [
        "▁dolasma",
        -10.581899859041597
      ],
      [
        "▁pamuk",
        -9.980449595335054
      ],
      [
        "▁okuyor",
        -10.340971564326098
      ],
      [
        "▁40",
        -7.973724781961952
      ],
      [
        "3'te",
        -10.641166143661891
      ],
      [
        "▁banyo",
        -9.712915344102331
      ],
      [
        "▁1.2",
        -8.718415128083837
      ],
      [
        "▁mevsim",
        -9.815393397600811
      ],
      [
        "▁ise",
        -8.056628568626724
      ],
      [
        "▁hedef",
        -9.296299211539097
      ],
      [
        "▁gayret",
        -10.107579803340592
      ],
      [
        "▁195",
        -10.49161701629287
      ],
      [
        "▁tav",
        -9.659974888518777
      ],
      [
        "▁19.",
        -10.17752749623879
      ],
      [
        "▁planlıyor",
        -9.85334194732961
      ],
      [
        "▁nar",
        -10.296521569204158
      ],
      [
        "▁kumar",
        -10.381364086882323
      ],
      [
        "▁yeteri",
        -9.941718280904844
      ],
      [
        "▁geciyor",
        -9.352200166382847
      ],
      [
        "▁185",
        -9.97629674574324
      ],
      [
        "▁zi",
        -9.749058550494292
      ],
      [
        "ut",
        -10.419403069519229
      ],
      [
        "▁nedenle",
        -9.653806577926003
      ],
      [
        "▁yumusak",
        -9.74838551728406
      ],
      [
        "▁%2.",
        -13.02711898195927
      ],
      [
        "▁milletin",
        -10.257391511606986
      ],
      [
        "▁neleri",
        -10.96127278360716
      ],
      [
        "madı",
        -8.882315141522712
      ],
      [
        "▁tesir",
        -10.25477363660398
      ],
      [
        "▁okun",
        -10.05853243486691
      ],
      [
        "▁tatlı",
        -8.882869845085505
      ],
      [
        "▁degiller",
        -8.877110792197561
      ],
      [
        "52",
        -10.399541748581326
      ],
      [
        "▁surada",
        -10.888683670775977
      ],
      [
        "▁islerin",
        -10.15622243178843
      ],
      [
        "▁elini",
        -9.102965542093251
      ],
      [
        "▁butce",
        -9.309989176722215
      ],
      [
        "▁canı",
        -9.950573602283152
      ],
      [
        "[UNK]",
        0.0
      ],
      [
        "▁tadim",
        -10.117087340673578
      ],
      [
        "▁eksikti",
        -10.655512360291896
      ],
      [
        "▁getirebilir",
        -10.756676493850872
      ],
      [
        "▁surdugu",
        -10.668686023943636
      ],
      [
        "▁1991'de",
        -10.889098986609586
      ],
      [
        "ecektir",
        -9.66594686173596
      ],
      [
        "▁kalıyor",
        -9.612277711280267
      ],
      [
        "▁yetmis",
        -9.21282420643573
      ],
      [
        "▁kıymet",
        -9.73909446485012
      ],
      [
        "▁cogunlukla",
        -10.14393350694342
      ],
      [
        "▁maden",
        -9.761503839453257
      ],
      [
        "▁sel",
        -9.625724596960536
      ],
      [
        "▁harc",
        -9.974960248835366
      ],
      [
        "▁konumunda",
        -10.284744973911236
      ],
      [
        "▁donus",
        -7.669670357515666
      ],
      [
        "rım",
        -9.849896926772363
      ],
      [
        "stro",
        -10.264351420267193
      ],
      [
        "gim",
        -8.731230172836106
      ],
      [
        "▁millet",
        -8.963817901732712
      ],
      [
        "▁canım",
        -9.913831718741562
      ],
      [
        "cilerin",
        -10.01193223993138
      ],
      [
        "▁tane",
        -8.764369691714045
      ],
      [
        "x",
        -8.401334689086998
      ],
      [
        "▁8.5",
        -10.09862692703964
      ],
      [
        "mizi",
        -8.736981238319057
      ],
      [
        "▁bulan",
        -9.92506307275407
      ],
      [
        "▁icini",
        -10.23525312097263
      ],
      [
        "lugunu",
        -9.145209917538182
      ],
      [
        "▁ucretlerini",
        -9.763360119206116
      ],
      [
        "▁unutu",
        -10.112393814178478
      ],
      [
        "▁ederi",
        -7.542584919993139
      ],
      [
        "ici",
        -8.810588874178183
      ],
      [
        "35",
        -10.186138600263162
      ],
      [
        "▁otorite",
        -10.889111235762563
      ],
      [
        "▁bulus",
        -9.649402351538852
      ],
      [
        "▁elimde",
        -10.225590467681428
      ],
      [
        "▁avustralya",
        -10.253274563369315
      ],
      [
        "▁journal",
        -10.142061719494142
      ],
      [
        "▁lık",
        -9.145996749068345
      ],
      [
        "▁corba",
        -9.344464772402112
      ],
      [
        "▁sorunları",
        -9.796330331429068
      ],
      [
        "▁bolum",
        -9.200070459549064
      ],
      [
        "▁felaket",
        -9.67428493513026
      ],
      [
        "▁diyalog",
        -10.889100578616628
      ],
      [
        "%9",
        -12.047781401844517
      ],
      [
        "▁and",
        -10.56197173637589
      ],
      [
        "▁deneyim",
        -9.65799772001771
      ],
      [
        "▁olabilecegini",
        -9.929018536590394
      ],
      [
        "▁bardak",
        -9.552712182710714
      ],
      [
        "▁toronto'",
        -9.665913887891254
      ],
      [
        "ye",
        -8.241620446734029
      ],
      [
        "▁ustlen",
        -10.103282271402703
      ],
      [
        "▁coz",
        -9.753150408431743
      ],
      [
        "lıgımı",
        -10.58766026184622
      ],
      [
        "▁baltimore'",
        -7.908793860399558
      ],
      [
        "▁vo",
        -10.564901535592229
      ],
      [
        "▁isbirligi",
        -10.17781015003272
      ],
      [
        "▁sirke",
        -10.566750513316578
      ],
      [
        "▁gorun",
        -8.90770399620942
      ],
      [
        "▁rakamları",
        -10.14946957096617
      ],
      [
        "▁alısveris",
        -9.440219914039089
      ],
      [
        "▁rezervasyonu",
        -8.931588052743212
      ],
      [
        "▁francisco'",
        -7.255288254347211
      ],
      [
        "lıyor",
        -8.017839169535893
      ],
      [
        "▁gorustu",
        -9.495769878240559
      ],
      [
        "mi",
        -8.269716776373524
      ],
      [
        "50",
        -8.746174993512678
      ],
      [
        "dugumuz",
        -10.665366476449574
      ],
      [
        "▁sahte",
        -10.180067003600024
      ],
      [
        "▁persembe",
        -8.313045156886972
      ],
      [
        "▁konusur",
        -9.904554084404978
      ],
      [
        "3",
        -9.34589958345266
      ],
      [
        "▁lastik",
        -10.425347371338084
      ],
      [
        "▁yatı",
        -10.298790420178932
      ],
      [
        "kadar",
        -7.631631929124872
      ],
      [
        "▁girmek",
        -10.27128364035634
      ],
      [
        "▁memnuniyeti",
        -10.046340620325761
      ],
      [
        "6.25",
        -9.773362979470317
      ],
      [
        "▁yerin",
        -8.25260437936402
      ],
      [
        "▁peki",
        -9.31872558286591
      ],
      [
        "▁vefa",
        -10.522942017973705
      ],
      [
        "▁eli",
        -8.68981035039803
      ],
      [
        "▁ihtiyar",
        -9.00901855154684
      ],
      [
        "▁ihtiyatlı",
        -10.691300006805342
      ],
      [
        "▁derin",
        -8.471847951460523
      ],
      [
        "▁bunu",
        -6.098683502847974
      ],
      [
        "▁sesle",
        -10.07494008666365
      ],
      [
        "▁p",
        -8.169461255172358
      ],
      [
        "▁yasası",
        -10.039157628467656
      ],
      [
        "▁vurul",
        -10.505486572227266
      ],
      [
        "▁ele",
        -8.607704254524478
      ],
      [
        "▁bilme",
        -9.825535096588236
      ],
      [
        "▁koca",
        -8.63177509205703
      ],
      [
        "▁zamanlarda",
        -9.425880557532125
      ],
      [
        "ha",
        -11.873864725637612
      ],
      [
        "ıcı",
        -8.695126740203811
      ],
      [
        "▁hazine",
        -8.808808857215908
      ],
      [
        "▁noktası",
        -9.989750933176387
      ],
      [
        "▁acar",
        -9.771212409159427
      ],
      [
        "bizi",
        -10.708189506520814
      ],
      [
        "▁gudu",
        -10.718777496774397
      ],
      [
        "▁mi",
        -8.36941878191682
      ],
      [
        "▁'",
        -9.107607116574506
      ],
      [
        "▁nedeni",
        -8.774179843818473
      ],
      [
        "▁bolumu",
        -9.63615132408492
      ],
      [
        "▁varmıs",
        -10.288945619800549
      ],
      [
        "▁universite",
        -9.152416752567689
      ],
      [
        "▁0.3",
        -9.730163952983364
      ],
      [
        "▁edebi",
        -10.185046050157595
      ],
      [
        "▁ustunde",
        -8.312544960929632
      ],
      [
        "▁yemeklerini",
        -10.37053380335622
      ],
      [
        "▁yıla",
        -9.58960630408781
      ],
      [
        "▁hakan",
        -10.1981690732023
      ],
      [
        "▁tersine",
        -10.221666332983117
      ],
      [
        "▁2008",
        -10.209748231789517
      ],
      [
        "▁yayım",
        -10.360768890028101
      ],
      [
        "▁gitti",
        -8.22618241737927
      ],
      [
        "▁camasır",
        -9.674661922026335
      ],
      [
        "▁ornek",
        -9.128960707938782
      ],
      [
        "▁tohum",
        -10.07424998986513
      ],
      [
        "▁elli",
        -8.16695250231819
      ],
      [
        "▁tabi",
        -9.312545653488943
      ],
      [
        "vı",
        -10.422371062606647
      ],
      [
        "▁ettigini",
        -9.233084316748311
      ],
      [
        "▁politikasını",
        -10.848074565250975
      ],
      [
        "▁aradi",
        -8.585857290110614
      ],
      [
        "ir",
        -7.694350183988116
      ],
      [
        "▁25.8",
        -10.559813350085005
      ],
      [
        "▁nakit",
        -9.38945114288889
      ],
      [
        "▁hic",
        -9.677431314152003
      ],
      [
        "▁edilir",
        -9.89678457297736
      ],
      [
        "▁zayif",
        -9.340968959920838
      ],
      [
        "▁metal",
        -10.016114232301529
      ],
      [
        "▁gormek",
        -8.982804741136782
      ],
      [
        "▁memur",
        -9.284244250347577
      ],
      [
        "▁1.8",
        -9.088566293567371
      ],
      [
        "▁yiyor",
        -10.274839400487728
      ],
      [
        "'nın",
        -7.660124819603142
      ],
      [
        "▁faaliyetleri",
        -10.025744659045111
      ],
      [
        "▁parti",
        -8.620807326401994
      ],
      [
        "▁suc",
        -8.93371611776077
      ],
      [
        "▁rende",
        -10.633732148769582
      ],
      [
        "ını",
        -9.93219484581724
      ],
      [
        "▁260",
        -10.758500857706526
      ],
      [
        "▁sınır",
        -8.8923762040333
      ],
      [
        "▁duzeyde",
        -10.639363551347719
      ],
      [
        "▁agac",
        -8.96293733464711
      ],
      [
        "▁hakkında",
        -7.859874816286479
      ],
      [
        "▁calisanlar",
        -9.241054249761126
      ],
      [
        "▁raf",
        -9.773126146964248
      ],
      [
        "▁the",
        -9.868895467144338
      ],
      [
        "ridge",
        -10.818101681602998
      ],
      [
        "▁oturma",
        -9.506945590917317
      ],
      [
        "▁gelebilir",
        -10.636841022830765
      ],
      [
        "▁miydi",
        -8.422154298711042
      ],
      [
        "▁senato",
        -9.811073773194241
      ],
      [
        "▁protokol",
        -10.574124669155093
      ],
      [
        "▁baska",
        -7.489745087433294
      ],
      [
        "▁universitesi'n",
        -10.744305311410447
      ],
      [
        "bu",
        -9.059031027377305
      ],
      [
        "▁fas",
        -9.887860958725186
      ],
      [
        "▁cesaret",
        -10.163441158532098
      ],
      [
        "▁atlanta'da",
        -7.885822903654595
      ],
      [
        "▁dibinde",
        -10.286188072073731
      ],
      [
        "▁anca",
        -7.684326379094093
      ],
      [
        "▁sozcu",
        -8.4611837479406
      ],
      [
        "▁dokundu",
        -10.576174102058356
      ],
      [
        "▁secim",
        -8.535865074687074
      ],
      [
        "▁kurgu",
        -10.822564260794383
      ],
      [
        "▁han",
        -9.49276689201952
      ],
      [
        "▁canlı",
        -9.342525527174425
      ],
      [
        "ladım",
        -9.800251714640352
      ],
      [
        "▁mısın",
        -9.040550319257685
      ],
      [
        "▁bahce",
        -8.474833243135071
      ],
      [
        "▁potansiyel",
        -9.841330728491325
      ],
      [
        "▁kilo",
        -10.334992197421203
      ],
      [
        "medigini",
        -9.995222321250099
      ],
      [
        "▁kurtaj",
        -9.894821825500678
      ],
      [
        "eri",
        -9.367381273065828
      ],
      [
        "▁deneme",
        -9.195190818358627
      ],
      [
        "▁ilgilen",
        -10.399708242569892
      ],
      [
        "▁istasyon",
        -10.29921466651611
      ],
      [
        "gibi",
        -7.880345455995306
      ],
      [
        "▁kucu",
        -9.669004179417293
      ],
      [
        "▁sistemi",
        -9.276786234947764
      ],
      [
        "▁alakali",
        -9.986962515665862
      ],
      [
        "5'te",
        -9.865832437260718
      ],
      [
        "▁urunler",
        -9.77823040762151
      ],
      [
        "▁kardesi",
        -9.976522397483322
      ],
      [
        "▁madde",
        -8.700368233834542
      ],
      [
        "elim",
        -9.814675164154092
      ],
      [
        "▁engin",
        -10.304427150782292
      ],
      [
        "▁atlanta'",
        -7.885193825135213
      ],
      [
        "▁kısmı",
        -9.343759976343765
      ],
      [
        "▁unsurlar",
        -10.817689191613304
      ],
      [
        "▁kırmızı",
        -8.734423389057127
      ],
      [
        "▁polis",
        -9.293725708042377
      ],
      [
        "▁olumu",
        -9.876727586368336
      ],
      [
        "▁degildi",
        -4.719105511077978
      ],
      [
        "▁yemekler",
        -7.6400570460729345
      ],
      [
        "▁gunku",
        -9.195057517064832
      ],
      [
        "▁etkili",
        -10.14311961284851
      ],
      [
        "▁konusuyor",
        -9.397632518442673
      ],
      [
        "▁cemiyet",
        -10.474694634176494
      ],
      [
        "▁kamyon",
        -9.512334854170492
      ],
      [
        "▁mevki",
        -10.634333180120972
      ],
      [
        "▁ırk",
        -10.68972109814998
      ],
      [
        ".",
        -1.165430537910785
      ],
      [
        "▁guney",
        -9.090019751241172
      ],
      [
        "▁yapmıyor",
        -10.740200881004228
      ],
      [
        "▁model",
        -9.631678319155615
      ],
      [
        "▁cikolata",
        -10.889099017549142
      ],
      [
        "▁sekilde",
        -7.577520250795854
      ],
      [
        "▁tesekkurler",
        -9.147127993126317
      ],
      [
        "▁bileti",
        -9.524939875434423
      ],
      [
        "▁yakalama",
        -10.819798230248068
      ],
      [
        "ıldıgını",
        -9.958065747749375
      ],
      [
        "▁gordugu",
        -9.819419321939652
      ],
      [
        "▁miras",
        -9.981934014457547
      ],
      [
        "▁za",
        -8.971338778871417
      ],
      [
        "▁2.62",
        -10.62755014061802
      ],
      [
        "'la",
        -9.637397767556415
      ],
      [
        "▁girdi",
        -8.65418605878775
      ],
      [
        "▁bayram",
        -9.129047330627184
      ],
      [
        "▁louis",
        -10.547654466930233
      ],
      [
        "▁ah",
        -8.924114014808062
      ],
      [
        "▁turkiye'",
        -9.116694596598368
      ],
      [
        "▁rakip",
        -9.86769815140083
      ],
      [
        "ya",
        -8.492646272106997
      ],
      [
        ".",
        -9.216358711206778
      ],
      [
        ".5",
        -9.430731754711667
      ],
      [
        "▁yan",
        -7.648486210138145
      ],
      [
        "▁kur",
        -8.580715257192875
      ],
      [
        "▁field'",
        -10.574183053447703
      ],
      [
        "▁getirme",
        -10.099222615286518
      ],
      [
        "▁hızlı",
        -8.863553769647464
      ],
      [
        "▁hale",
        -8.258474026691875
      ],
      [
        "asyonu",
        -10.212487660643832
      ],
      [
        "▁ucunda",
        -9.863612457682166
      ],
      [
        "▁kadar",
        -8.944260445479614
      ],
      [
        "▁it",
        -8.72662537277547
      ],
      [
        "▁agustos'ta",
        -9.406320243568532
      ],
      [
        "▁bolumunde",
        -10.429442471374564
      ],
      [
        "▁detay",
        -9.98211846409962
      ],
      [
        "▁isteme",
        -9.97243919680092
      ],
      [
        "[MASK]",
        0.0
      ],
      [
        "unları",
        -10.14889697635057
      ],
      [
        "▁yumu",
        -10.819730178470548
      ],
      [
        "▁pay",
        -8.229525212738322
      ],
      [
        "▁davası",
        -10.178020772275506
      ],
      [
        "▁st",
        -7.637369072750257
      ],
      [
        "▁musteriler",
        -9.73155343585614
      ],
      [
        "▁eglendir",
        -10.72403722055119
      ],
      [
        "▁tor",
        -9.57225748050509
      ],
      [
        "▁oldurdu",
        -10.867519125400138
      ],
      [
        "▁saffet",
        -10.52149526226108
      ],
      [
        "▁onem",
        -8.836000378409379
      ],
      [
        "80'",
        -10.8013213199013
      ],
      [
        "▁ydu",
        -8.242796498591797
      ],
      [
        "▁yap",
        -7.93555258368514
      ],
      [
        "▁gencler",
        -10.249373669344896
      ],
      [
        ".25",
        -9.611101879508695
      ],
      [
        "▁acıklanmadı",
        -9.531230549986912
      ],
      [
        "▁gibi",
        -10.886178225453097
      ],
      [
        "▁asla",
        -9.117855530163345
      ],
      [
        "▁bircok",
        -6.16939360399842
      ],
      [
        "kendini",
        -10.382347996438032
      ],
      [
        "▁kaptır",
        -10.695498201534264
      ],
      [
        "▁ailesi",
        -9.613605897476265
      ],
      [
        "▁katılıyor",
        -10.584549948239196
      ],
      [
        "▁otelde",
        -9.009205370734115
      ],
      [
        "▁kurtul",
        -9.85389827401038
      ],
      [
        "▁kenarın",
        -10.741386015187137
      ],
      [
        "▁gozu",
        -8.772318232696295
      ],
      [
        "kca",
        -8.414062765520764
      ],
      [
        "yedi",
        -8.957221228301936
      ],
      [
        "▁tazminat",
        -10.253274565137994
      ],
      [
        "▁gerektigi",
        -10.766653436593398
      ],
      [
        "ılmaz",
        -10.344287665033722
      ],
      [
        "▁ajans",
        -10.356244657853836
      ],
      [
        "d",
        -7.120797305704386
      ],
      [
        "▁yapısı",
        -10.23899353630618
      ],
      [
        "▁halat",
        -10.423201886847915
      ],
      [
        "'ın",
        -7.256697443237829
      ],
      [
        "▁dedikodu",
        -10.471510963135348
      ],
      [
        "5",
        -6.257519171130608
      ],
      [
        "▁rekor",
        -9.867689574126977
      ],
      [
        "sizligi",
        -10.012624267733086
      ],
      [
        "▁kayboldu",
        -10.75100390539925
      ],
      [
        "▁gorunen",
        -10.049192737141702
      ],
      [
        "▁kaldır",
        -8.989994602349785
      ],
      [
        "▁%6.",
        -11.265292792325486
      ],
      [
        "▁basını",
        -8.884750452171389
      ],
      [
        "▁alır",
        -8.818305882787573
      ],
      [
        "▁egi",
        -10.286434976840532
      ],
      [
        "▁oldurul",
        -10.260784582611967
      ],
      [
        "▁rastladı",
        -10.872902717877766
      ],
      [
        "labilir",
        -10.435095283843562
      ],
      [
        "▁nesil",
        -10.338629373462988
      ],
      [
        "▁louis'",
        -10.004135471656042
      ],
      [
        "▁kıymetler",
        -8.40222748602255
      ],
      [
        "▁mart",
        -9.180585597171822
      ],
      [
        "oku",
        -11.357596923554132
      ],
      [
        "▁koydugu",
        -10.607740893887895
      ],
      [
        "▁cap",
        -9.325019566674142
      ],
      [
        "▁yerler",
        -9.575747449741144
      ],
      [
        "▁baskanlıgı",
        -10.355634601645576
      ],
      [
        "▁gazeteci",
        -9.964846711475397
      ],
      [
        "▁cik",
        -9.920385766646664
      ],
      [
        "▁oldurme",
        -10.384732778679545
      ],
      [
        "▁cigne",
        -10.695714319483791
      ],
      [
        "▁dogrusu",
        -9.525092831088527
      ],
      [
        "▁moody'",
        -10.382561759047341
      ],
      [
        "&",
        -7.474416782928894
      ],
      [
        "▁girisim",
        -9.185938571114667
      ],
      [
        "▁bitir",
        -9.484337319084354
      ],
      [
        "▁koymak",
        -10.449641319996246
      ],
      [
        "▁130",
        -9.402318196754825
      ],
      [
        "ımız",
        -9.071110820090983
      ],
      [
        "▁aydınlat",
        -10.631512412456727
      ],
      [
        "siz",
        -7.218518435662804
      ],
      [
        "▁hedefi",
        -10.244629177028115
      ],
      [
        "▁istemez",
        -10.020349353363843
      ],
      [
        "▁ogrencilerin",
        -10.841022367812784
      ],
      [
        "sızın",
        -10.443956130538044
      ],
      [
        "▁ediliyor",
        -9.501805514156345
      ],
      [
        "▁gonlu",
        -10.101140979745646
      ],
      [
        "let",
        -8.949439147705776
      ],
      [
        "▁w",
        -8.78192893173829
      ],
      [
        "ıp",
        -7.294215657061424
      ],
      [
        "▁tahvil",
        -8.48052807640628
      ],
      [
        "u",
        -5.830923563296427
      ],
      [
        "▁taban",
        -9.765733182466676
      ],
      [
        "22.",
        -10.97819844542476
      ],
      [
        "▁oysa",
        -8.598002639171483
      ],
      [
        "▁sahipti",
        -10.165434574733963
      ],
      [
        "-200",
        -11.81277952887254
      ],
      [
        "▁nobet",
        -10.685392848860383
      ],
      [
        "▁fenerbahce",
        -10.521493086096271
      ],
      [
        "▁adet",
        -8.16744476881232
      ],
      [
        "▁20",
        -7.105754316792156
      ],
      [
        "▁komisyonu",
        -9.489747175392582
      ],
      [
        "▁gorusmelerin",
        -10.72481773236635
      ],
      [
        "▁ruhunu",
        -10.85423968293662
      ],
      [
        "▁muhak",
        -10.424389911111506
      ],
      [
        "800",
        -10.755244719420281
      ],
      [
        "▁olacak",
        -7.858687050642194
      ],
      [
        "▁test",
        -9.115896564326468
      ],
      [
        "▁duy",
        -9.710268093397463
      ],
      [
        "▁sisman",
        -10.254247962592249
      ],
      [
        "▁ciz",
        -9.525743126975973
      ],
      [
        "▁destekli",
        -9.768755716084161
      ],
      [
        "▁depremde",
        -10.655959363577523
      ],
      [
        "▁temizlikte",
        -10.3839006612981
      ],
      [
        "▁yonetim",
        -8.366874817943568
      ],
      [
        "▁vegas",
        -10.602770972498595
      ],
      [
        "▁dinlenme",
        -10.476645382158434
      ],
      [
        "▁arasın",
        -9.799645093679787
      ],
      [
        "▁uretil",
        -10.34105419337224
      ],
      [
        "▁plan",
        -8.334484840943766
      ],
      [
        "▁hayatını",
        -9.935583699139073
      ],
      [
        "▁endustriyel",
        -10.47153095929551
      ],
      [
        "▁25",
        -7.6585169186170114
      ],
      [
        "▁olimpiyat",
        -10.751003760874077
      ],
      [
        "▁istedim",
        -9.965234610874058
      ],
      [
        "00",
        -8.310518358353914
      ],
      [
        "▁adamı",
        -9.373397236299887
      ],
      [
        "▁%0.",
        -12.810336710195683
      ],
      [
        "▁has",
        -8.833741744446874
      ],
      [
        "▁bulundugu",
        -9.264544834917654
      ],
      [
        "▁dikkatli",
        -10.235471451929225
      ],
      [
        "▁kulubu",
        -10.629686169912372
      ],
      [
        "▁altı",
        -9.841563011175616
      ],
      [
        "▁herif",
        -9.653121085323196
      ],
      [
        "10",
        -12.42111486297959
      ],
      [
        "▁getirilme",
        -10.561970847091526
      ],
      [
        "ise",
        -9.285473386053635
      ],
      [
        "▁7.1",
        -10.77984840303767
      ],
      [
        "15.1",
        -10.946795802785784
      ],
      [
        "▁aileler",
        -8.05861373732693
      ],
      [
        "▁eski",
        -7.206429051403973
      ],
      [
        "▁13",
        -8.043983628244806
      ],
      [
        "▁ulkeleri",
        -10.390589389248156
      ],
      [
        "▁havuz",
        -8.305497712908295
      ],
      [
        "▁milwaukee'de",
        -9.212976565743165
      ],
      [
        "▁okudugu",
        -10.60174201525301
      ],
      [
        "▁disiplin",
        -10.177777082664253
      ],
      [
        "▁6.7",
        -10.380704618024017
      ],
      [
        "▁bilmiyordu",
        -10.75693863814969
      ],
      [
        "▁telgraf",
        -10.471493085779912
      ],
      [
        "▁otel",
        -7.292082584975071
      ],
      [
        "▁goremedi",
        -10.33532770550435
      ],
      [
        "%7",
        -13.006976400583135
      ],
      [
        "▁sa",
        -8.328952601184692
      ],
      [
        "▁cogunlugu",
        -10.53345277299504
      ],
      [
        "▁fal",
        -10.011622822539348
      ],
      [
        "▁birin",
        -9.181865945293579
      ],
      [
        "▁fiyatlarını",
        -9.24538521909923
      ],
      [
        "▁dur",
        -7.454968144923029
      ],
      [
        "▁neler",
        -8.468540397938536
      ],
      [
        "▁cesitlilik",
        -10.113060062802553
      ],
      [
        "kendi",
        -9.171575624838027
      ],
      [
        "▁mitchell",
        -10.107578944064073
      ],
      [
        "▁111",
        -10.487099343946664
      ],
      [
        "bası",
        -9.290120709733777
      ],
      [
        "▁azaldı",
        -10.257937180261196
      ],
      [
        "2.7",
        -10.202973943298872
      ],
      [
        "▁ordusu",
        -10.447695680414578
      ],
      [
        "ster",
        -10.103537862241462
      ],
      [
        "▁alakasi",
        -10.266012708015829
      ],
      [
        "▁yasanan",
        -9.980590154628945
      ],
      [
        "um",
        -6.42069731151916
      ],
      [
        "▁seftali",
        -10.817670478264855
      ],
      [
        "▁11",
        -10.52321463444259
      ],
      [
        "gen",
        -9.09719772184926
      ],
      [
        "emez",
        -9.175609019898694
      ],
      [
        "▁be",
        -9.393500170655983
      ],
      [
        "'u",
        -9.159138694245566
      ],
      [
        "a",
        -11.929949797425069
      ],
      [
        "▁ka",
        -7.68213850993996
      ],
      [
        "▁ser",
        -8.65754086087382
      ],
      [
        "▁saatte",
        -10.06269684748523
      ],
      [
        "▁yapacagını",
        -10.222036001616825
      ],
      [
        "▁perisan",
        -10.818080301894271
      ],
      [
        "▁dudak",
        -10.655754482771368
      ],
      [
        "▁kafes",
        -10.468959512437094
      ],
      [
        "▁vi",
        -8.853268483256468
      ],
      [
        "9.3",
        -10.445475024389438
      ],
      [
        "▁gitmis",
        -9.658975400436553
      ],
      [
        "▁odeme",
        -8.548949071382381
      ],
      [
        "▁hissetti",
        -9.730367762439334
      ],
      [
        "▁sular",
        -9.790409828762776
      ],
      [
        "mayan",
        -8.903881813128107
      ],
      [
        "▁yatagı",
        -9.84449991860342
      ],
      [
        "▁cemal",
        -10.81965334244655
      ],
      [
        "▁zamanlar",
        -9.112328419306861
      ],
      [
        "▁tar",
        -9.349853087315903
      ],
      [
        "▁sigortacı",
        -10.144125150289295
      ],
      [
        "▁sorar",
        -10.632581375100504
      ],
      [
        "▁columbus'",
        -9.982793847352783
      ],
      [
        "▁kusagı",
        -10.575815112007042
      ],
      [
        "▁bahis",
        -10.751017778810425
      ],
      [
        "▁izin",
        -8.85003240066871
      ],
      [
        "▁efsane",
        -10.041996477051118
      ],
      [
        "▁yonetme",
        -9.947868812278
      ],
      [
        "▁hasret",
        -10.630428304098967
      ],
      [
        "▁reklam",
        -8.715403198158757
      ],
      [
        "▁zı",
        -12.278377134489126
      ],
      [
        "▁kot",
        -10.560549384103348
      ],
      [
        "▁etmedi",
        -9.279384917044208
      ],
      [
        "▁atlanta",
        -8.662777513685452
      ],
      [
        "▁adını",
        -9.446254320300515
      ],
      [
        "▁cbs",
        -10.378448199232192
      ],
      [
        "▁eroin",
        -10.01093325537737
      ],
      [
        "▁tespit",
        -10.142062853536492
      ],
      [
        "▁kese",
        -9.403060731056307
      ],
      [
        "ris",
        -9.427260181237214
      ],
      [
        "23",
        -9.967191016733029
      ],
      [
        "▁dusunmuyor",
        -9.475902813227172
      ],
      [
        "▁gevse",
        -9.790692782588794
      ],
      [
        "▁cıkma",
        -9.066464085869006
      ],
      [
        "▁umumi",
        -10.757420415099196
      ],
      [
        "▁des",
        -9.84014740970324
      ],
      [
        "▁rapor",
        -8.936479499053158
      ],
      [
        "cısı",
        -9.859761304179852
      ],
      [
        "▁yaptıgını",
        -9.85911195633048
      ],
      [
        "k",
        -8.180812786693185
      ],
      [
        "▁on",
        -8.09825374244956
      ],
      [
        "▁tahsil",
        -10.424163282272065
      ],
      [
        "▁kurus",
        -9.963119973573217
      ],
      [
        "▁milyar",
        -5.740472206460095
      ],
      [
        "”",
        -9.789649445909061
      ],
      [
        "▁515",
        -10.997139819900935
      ],
      [
        "▁bay",
        -6.458055198961823
      ],
      [
        "▁toplumun",
        -10.213207651287412
      ],
      [
        "▁tuttu",
        -8.961960777149391
      ],
      [
        "▁insan",
        -7.450550653102511
      ],
      [
        "▁mevcuttu",
        -10.802212392468695
      ],
      [
        "onu",
        -9.841348721145147
      ],
      [
        "▁programları",
        -10.055006029758276
      ],
      [
        "▁lideri",
        -9.998434853475281
      ],
      [
        "▁ilgiliydi",
        -7.712200228442427
      ],
      [
        "▁sendika",
        -9.424086349777436
      ],
      [
        "▁kendisini",
        -7.291834468436704
      ],
      [
        "▁yuku",
        -10.218474162736936
      ],
      [
        "▁ikibin",
        -10.531438624027286
      ],
      [
        "mayacak",
        -8.87377562419263
      ],
      [
        "▁muhendis",
        -9.742490800762607
      ],
      [
        "▁basta",
        -9.72322171952117
      ],
      [
        "▁ozgur",
        -9.722521773505491
      ],
      [
        "▁miami",
        -10.6274343250132
      ],
      [
        "maz",
        -8.489341071370454
      ],
      [
        "▁balkon",
        -10.142189625218546
      ],
      [
        "▁milyon",
        -8.51878392569524
      ],
      [
        "▁kategori",
        -10.293274583754766
      ],
      [
        "▁1991-199",
        -11.945824767265377
      ],
      [
        "▁acıyor",
        -10.213974536426182
      ],
      [
        "▁aklın",
        -9.66175043727021
      ],
      [
        "b",
        -7.6122555161090055
      ],
      [
        "▁iceriyor",
        -9.6554219537945
      ],
      [
        "▁za",
        -11.938950486359477
      ],
      [
        "▁zil",
        -10.246790598539757
      ],
      [
        "mıs",
        -6.736030956282016
      ],
      [
        "▁di",
        -7.057769738788028
      ],
      [
        "▁tasın",
        -10.008920617413843
      ],
      [
        "▁yeryuzu",
        -10.814651112086365
      ],
      [
        "▁gorusu",
        -9.76874998829378
      ],
      [
        "▁ucuslar",
        -7.011132878332026
      ],
      [
        "▁bell",
        -10.160180261418715
      ],
      [
        "%0.2",
        -13.660889112491354
      ],
      [
        "▁oyunlar",
        -10.246457254786547
      ],
      [
        "▁phoenix'",
        -9.697446784216913
      ],
      [
        "▁gazeteciler",
        -10.887982236772162
      ],
      [
        "▁uc",
        -8.523173369708694
      ],
      [
        "▁durumlarda",
        -10.64172600378378
      ],
      [
        "ane",
        -10.11265940363915
      ],
      [
        "▁isletme",
        -8.553726385252425
      ],
      [
        "meyecegi",
        -9.548666706195917
      ],
      [
        "ıyorlar",
        -9.31656897407343
      ],
      [
        "ov",
        -9.318848761846976
      ],
      [
        "▁supur",
        -10.688626391402089
      ],
      [
        "▁kapagı",
        -10.706963015069368
      ],
      [
        "▁annem",
        -8.574076688058888
      ],
      [
        "▁ney",
        -8.827870655904642
      ],
      [
        "▁cit",
        -10.597675959549855
      ],
      [
        "▁200",
        -8.144482062339698
      ],
      [
        "▁can",
        -7.9919279218885775
      ],
      [
        "▁ogren",
        -9.581020923244097
      ],
      [
        "60",
        -9.56421121851256
      ],
      [
        "▁coktu",
        -9.748320266990344
      ],
      [
        "▁destekley",
        -10.362085949755862
      ],
      [
        "▁kural",
        -10.172185091222477
      ],
      [
        "▁saati",
        -9.859173056924263
      ],
      [
        "▁konya",
        -10.411479371163761
      ],
      [
        "▁degisikligi",
        -10.461791018160994
      ],
      [
        "▁fort",
        -9.119306679294407
      ],
      [
        "yordu",
        -8.599788741484877
      ],
      [
        "▁finans",
        -8.899603429099129
      ],
      [
        "▁as",
        -7.744324459543808
      ],
      [
        "▁duydu",
        -9.278935578307266
      ],
      [
        "▁ulasılama",
        -9.631332144487205
      ],
      [
        "vet",
        -9.819184973962571
      ],
      [
        "▁tembel",
        -10.81769089819013
      ],
      [
        "▁ha",
        -9.661661106856688
      ],
      [
        "▁duygusu",
        -10.343324220331608
      ],
      [
        "▁likidite",
        -10.817670429917303
      ],
      [
        "▁geldiginde",
        -10.760164168072757
      ],
      [
        "▁hal",
        -8.56042355446673
      ],
      [
        "▁aga",
        -9.611558002621612
      ],
      [
        "▁umutsuz",
        -10.690302679025574
      ],
      [
        "▁kaydı",
        -9.866094862577109
      ],
      [
        "▁dogan",
        -9.698828227677193
      ],
      [
        "▁co",
        -10.859016870384503
      ],
      [
        "▁ihtiyacları",
        -10.309629693531459
      ],
      [
        "▁kopegi",
        -10.472068475809019
      ],
      [
        "▁kod",
        -10.682864620578702
      ],
      [
        "▁tuhaf",
        -9.867647410360581
      ],
      [
        "▁satan",
        -10.082181311214152
      ],
      [
        "▁dip",
        -10.400348789389836
      ],
      [
        "▁show",
        -10.574313810050871
      ],
      [
        "▁mesru",
        -10.521530683547306
      ],
      [
        "▁dovus",
        -10.629738648632019
      ],
      [
        "▁celal",
        -10.472768214694081
      ],
      [
        "▁kriz",
        -10.56854697476653
      ],
      [
        "▁veriyoru",
        -8.131860050430507
      ],
      [
        "▁ova",
        -10.111043882201189
      ],
      [
        "▁2005",
        -9.970985020907277
      ],
      [
        "ydi",
        -6.578628275021045
      ],
      [
        "▁ali",
        -8.700183122079707
      ],
      [
        "▁eastern",
        -9.980441745355408
      ],
      [
        "so",
        -8.893916647833626
      ],
      [
        "▁4.9",
        -9.954181334929654
      ],
      [
        "▁aktor",
        -10.574720771379653
      ],
      [
        "▁muharebe",
        -10.817670433672932
      ],
      [
        "▁65",
        -10.266959732023034
      ],
      [
        "f",
        -10.183767360572132
      ],
      [
        "▁munasebet",
        -10.334941230086258
      ],
      [
        "▁hotel",
        -10.57443761109398
      ],
      [
        "▁fiyatlandırıl",
        -10.293280366899664
      ],
      [
        "▁hong",
        -9.894711925927307
      ],
      [
        "mezdi",
        -9.927696151071387
      ],
      [
        "▁2000",
        -9.70435989111514
      ],
      [
        "▁hayatta",
        -9.774431604460085
      ],
      [
        "▁dusuk",
        -7.803507151307429
      ],
      [
        "▁rab",
        -10.538076008625467
      ],
      [
        "lmaz",
        -9.522556550844193
      ],
      [
        "▁miktar",
        -10.210539574483992
      ],
      [
        "▁tok",
        -9.377525722203703
      ],
      [
        "▁fatura",
        -9.679715932414096
      ],
      [
        "▁faturami",
        -10.416633861471665
      ],
      [
        "▁kazancı",
        -9.94666052019492
      ],
      [
        "▁is",
        -10.349556061841136
      ],
      [
        "▁nereler",
        -10.327109737456745
      ],
      [
        "▁kapan",
        -9.569597861481114
      ],
      [
        "madıgı",
        -9.690666961226302
      ],
      [
        "▁ulke",
        -8.55678889260026
      ],
      [
        "▁yastık",
        -10.521701526678598
      ],
      [
        "▁tac",
        -10.237905997418775
      ],
      [
        "lendi",
        -8.366460824349062
      ],
      [
        "▁temin",
        -10.822018602385873
      ],
      [
        "▁tuccarlar",
        -10.025351362486775
      ],
      [
        "dolay",
        -9.872246450338713
      ],
      [
        "▁tesiste",
        -9.26418094071046
      ],
      [
        "atı",
        -11.610191654727192
      ],
      [
        "▁karsiligi",
        -9.025523657474125
      ],
      [
        "▁milletvekili",
        -10.37841950289658
      ],
      [
        "▁ekmek",
        -8.925389228099883
      ],
      [
        "▁konu",
        -7.997758690877329
      ],
      [
        "▁kıyafet",
        -9.951023241445938
      ],
      [
        "butun",
        -10.250260120426047
      ],
      [
        "▁ısı",
        -9.22525358177365
      ],
      [
        "▁gorevli",
        -10.321301443527364
      ],
      [
        "ford",
        -10.518553861029552
      ],
      [
        "▁kolu",
        -9.997416947811347
      ],
      [
        "sına",
        -7.105923140220759
      ],
      [
        "elli",
        -10.223140255659835
      ],
      [
        "▁hassas",
        -9.922563858118771
      ],
      [
        "▁ankara",
        -9.64944066948248
      ],
      [
        "▁begenmedi",
        -8.708697964145554
      ],
      [
        "▁sozu",
        -9.000746396855048
      ],
      [
        "▁miktarda",
        -10.222850043698466
      ],
      [
        "▁isleyen",
        -10.822151502860178
      ],
      [
        "▁piyasada",
        -9.471373236211681
      ],
      [
        "▁tap",
        -10.127345740396265
      ],
      [
        "▁sezginler",
        -10.817672964726453
      ],
      [
        "▁genis",
        -7.987447485726512
      ],
      [
        "yorum",
        -8.946856166529045
      ],
      [
        "▁basa",
        -9.078745194056566
      ],
      [
        "▁od",
        -9.965119744804682
      ],
      [
        "▁saman",
        -10.383155185835179
      ],
      [
        "▁cemil",
        -10.576126464138712
      ],
      [
        "▁olmayan",
        -8.611521131527626
      ],
      [
        "▁aksi",
        -9.786844666026198
      ],
      [
        "ig",
        -9.95917323886169
      ],
      [
        "▁korfez",
        -10.42387462916615
      ],
      [
        "▁kontrolu",
        -10.459483779641346
      ],
      [
        "ustu",
        -8.982040162877599
      ],
      [
        "▁karnı",
        -10.305534514113784
      ],
      [
        "▁girme",
        -9.122297378080663
      ],
      [
        "▁baglama",
        -10.526690348254187
      ],
      [
        "▁5.5",
        -9.572967278095836
      ],
      [
        "▁bedel",
        -9.76814060973495
      ],
      [
        "▁olmasa",
        -9.635410247627672
      ],
      [
        "▁hır",
        -10.023388817809268
      ],
      [
        "yol",
        -10.23710081778001
      ],
      [
        "▁gulu",
        -10.491167708417777
      ],
      [
        "▁asagı",
        -8.75935248765628
      ],
      [
        "▁ortasında",
        -9.58366820960227
      ],
      [
        "▁iti",
        -9.711258695462478
      ],
      [
        "▁gorule",
        -10.458195879730585
      ],
      [
        "▁bırakır",
        -10.329528328640462
      ],
      [
        "▁su",
        -7.071073237678398
      ],
      [
        "g",
        -5.007317781712471
      ],
      [
        "▁sert",
        -8.794405422310033
      ],
      [
        "▁buhar",
        -10.522199127437553
      ],
      [
        "▁esra",
        -10.150358819762848
      ],
      [
        "m",
        -9.715460917580959
      ],
      [
        "▁romanı",
        -10.59735489853838
      ],
      [
        "▁arkada",
        -10.236372093481673
      ],
      [
        "▁ilgilenmedi",
        -9.458795189108358
      ],
      [
        "▁soyler",
        -9.21441254282854
      ],
      [
        "▁ortulu",
        -10.689945954727355
      ],
      [
        "5",
        -8.51441408399641
      ],
      [
        "▁kesim",
        -9.935017169725874
      ],
      [
        "▁indi",
        -9.27321935678348
      ],
      [
        "▁karsıya",
        -9.90799742578657
      ],
      [
        "▁kitapları",
        -10.284970826336867
      ],
      [
        "▁bırakmıs",
        -10.327055459528399
      ],
      [
        "▁eri",
        -9.158867927055066
      ],
      [
        "▁elektronik",
        -9.652788975864405
      ],
      [
        "▁saniye",
        -10.338916831739633
      ],
      [
        "▁recete",
        -10.574151067776985
      ],
      [
        "▁dakika",
        -8.698144314667653
      ],
      [
        "▁6.4",
        -9.827243029432221
      ],
      [
        "▁magdur",
        -10.751488605644656
      ],
      [
        "▁mail",
        -9.72168381493179
      ],
      [
        "▁fedakar",
        -10.334951322209724
      ],
      [
        "ogr",
        -6.481195157006846
      ],
      [
        "▁hosgoru",
        -10.889099614191341
      ],
      [
        "▁dondu",
        -8.611501491470381
      ],
      [
        "▁alma",
        -8.172686678726262
      ],
      [
        "▁or",
        -9.479210966397837
      ],
      [
        "▁politik",
        -9.93220526690681
      ],
      [
        "▁soyle",
        -7.7346051787395185
      ],
      [
        "▁soyledigi",
        -10.145913317670955
      ],
      [
        "ktor",
        -10.695187800248904
      ],
      [
        "▁normaldi",
        -9.351150970173828
      ],
      [
        "sa",
        -7.057262485085761
      ],
      [
        "▁masal",
        -9.977449036072514
      ],
      [
        "ki",
        -6.635403197634999
      ],
      [
        "▁ticareti",
        -10.064146848409457
      ],
      [
        "▁ik",
        -10.108787904356568
      ],
      [
        "de",
        -5.900984094940701
      ],
      [
        "▁fakulte",
        -10.334941248361803
      ],
      [
        "▁superdi",
        -9.377990935056525
      ],
      [
        "▁%9",
        -9.782451238871033
      ],
      [
        "▁gorunuyordu",
        -10.08730313407611
      ],
      [
        "▁yazdı",
        -9.934406816841836
      ],
      [
        "▁bin",
        -9.27476798963231
      ],
      [
        "ın",
        -9.40061893710457
      ],
      [
        "▁%0.3",
        -11.442857597144096
      ],
      [
        "▁felsefe",
        -10.074245610347877
      ],
      [
        "▁med",
        -10.531440148649995
      ],
      [
        "▁bildiril",
        -10.615543985762134
      ],
      [
        "▁uyan",
        -9.595543893804168
      ],
      [
        "▁gorunmuyor",
        -10.523372966368518
      ],
      [
        "▁chicago'da",
        -9.398818107098288
      ],
      [
        "▁gazete",
        -8.496686574667939
      ],
      [
        "▁yuru",
        -8.808899994608929
      ],
      [
        "▁tehlikeli",
        -10.539205136091216
      ],
      [
        "ba",
        -9.859568973466363
      ],
      [
        "1.9",
        -10.024497484819797
      ],
      [
        "▁sponsor",
        -10.751003755971006
      ],
      [
        "▁belli",
        -8.603180179958107
      ],
      [
        "▁5",
        -9.726990897745422
      ],
      [
        "▁rehberimiz",
        -9.791242256499022
      ],
      [
        "▁kurumları",
        -10.189358287413153
      ],
      [
        "▁se",
        -8.046552470362972
      ],
      [
        "▁demis",
        -9.47861558033047
      ],
      [
        "▁hayatımız",
        -10.445600846138078
      ],
      [
        "▁7\\/",
        -8.72073896077232
      ],
      [
        "▁tak",
        -8.347319564320312
      ],
      [
        "ham",
        -9.737819148695772
      ],
      [
        "▁cep",
        -9.36481068351269
      ],
      [
        "▁kova",
        -9.782313986127514
      ],
      [
        "▁istanbul'u",
        -9.7634580756946
      ],
      [
        "▁kale",
        -9.611339414565666
      ],
      [
        "▁toz",
        -9.480005276662219
      ],
      [
        "▁yatar",
        -10.634406326321947
      ],
      [
        "▁soylenir",
        -10.821278263249923
      ],
      [
        "▁hasıl",
        -10.303050405006168
      ],
      [
        "▁2.2",
        -9.856266842787118
      ],
      [
        "▁allah'",
        -10.224757787553116
      ],
      [
        "▁muhtemel",
        -9.07921267146616
      ],
      [
        "▁yuzun",
        -9.856677661817068
      ],
      [
        "▁kavra",
        -10.20465823512332
      ],
      [
        "▁goturme",
        -10.785382055569798
      ],
      [
        "▁129",
        -10.694688246814783
      ],
      [
        "▁kesi",
        -9.362708293412878
      ],
      [
        "▁bakan",
        -9.099586211149177
      ],
      [
        "▁halı",
        -10.236797677564917
      ],
      [
        "▁sacları",
        -9.340443041487667
      ],
      [
        "▁musteri",
        -8.88410945016496
      ],
      [
        "▁gonul",
        -9.355370938832596
      ],
      [
        "▁gelmez",
        -10.093775583218466
      ],
      [
        "▁tertemiz",
        -10.423877665851183
      ],
      [
        "s",
        -5.718214439775318
      ],
      [
        "▁olusu",
        -10.110413368235655
      ],
      [
        "▁imaj",
        -10.521936082268152
      ],
      [
        "▁post",
        -10.272855969947578
      ],
      [
        "▁olmadı",
        -9.456472573632343
      ],
      [
        "30.1",
        -11.017175497580483
      ],
      [
        "▁kusu",
        -10.60818489298394
      ],
      [
        "bunun",
        -9.6688069440048
      ],
      [
        "*",
        -8.020174383409994
      ],
      [
        "▁orkestra",
        -10.817670414761404
      ],
      [
        "▁pro",
        -9.510477363128748
      ],
      [
        "▁beklemiyor",
        -10.81914006312915
      ],
      [
        "▁ıs",
        -9.741406588722885
      ],
      [
        "▁san",
        -6.1830390244076225
      ],
      [
        "▁lamba",
        -9.816035801618037
      ],
      [
        "ttı",
        -8.851524135947205
      ],
      [
        "▁nikah",
        -10.334941934046768
      ],
      [
        "▁arazi",
        -9.792599891276168
      ],
      [
        "▁mektubu",
        -10.29327459701475
      ],
      [
        "▁kımılda",
        -10.293274723212233
      ],
      [
        "mal",
        -9.78979526119435
      ],
      [
        "▁verimli",
        -9.656486274018455
      ],
      [
        "▁bizim",
        -9.327696432105359
      ],
      [
        "▁bulunur",
        -10.164512031575082
      ],
      [
        "▁gel",
        -8.426219513261227
      ],
      [
        "▁birbirlerini",
        -8.697935612590925
      ],
      [
        "▁suleyman",
        -10.334942780306985
      ],
      [
        "▁soy",
        -8.84689466714245
      ],
      [
        "▁agrı",
        -9.359691256412702
      ],
      [
        "▁hikaye",
        -9.031867986093049
      ],
      [
        "▁arama",
        -9.196621743326736
      ],
      [
        "▁iskonto",
        -10.3784195442243
      ],
      [
        "▁220",
        -10.933724910244308
      ],
      [
        "▁patlat",
        -10.52409754506975
      ],
      [
        "▁kocası",
        -10.089637694024809
      ],
      [
        "milyon",
        -8.648131795458136
      ],
      [
        "▁kullanır",
        -10.80975916000444
      ],
      [
        "▁radyo",
        -9.358738363916343
      ],
      [
        "▁portfoy",
        -9.841330731002394
      ],
      [
        "bunları",
        -10.202574788724673
      ],
      [
        "field",
        -10.574094527273315
      ],
      [
        "ebilecegi",
        -9.653405080999667
      ],
      [
        "▁kutuphane",
        -10.889101675505286
      ],
      [
        "▁sozler",
        -9.933643101201643
      ],
      [
        "▁hersey",
        -10.471992445472655
      ],
      [
        "im",
        -8.415921563447386
      ],
      [
        "cusu",
        -9.931529375877076
      ],
      [
        "▁kasıgı",
        -9.458048296190785
      ],
      [
        "▁gidiyoru",
        -10.79464297393121
      ],
      [
        "▁cleveland'",
        -9.068251053403635
      ],
      [
        "▁biliyordu",
        -10.392225235692823
      ],
      [
        "▁'",
        -10.174949523657007
      ],
      [
        "vo",
        -10.29653538466908
      ],
      [
        "▁sir",
        -9.288563409388757
      ],
      [
        "▁ekipman",
        -9.951413888670778
      ],
      [
        "▁fazla",
        -6.903578736847439
      ],
      [
        "▁saglıgı",
        -10.112285514644743
      ],
      [
        "▁icere",
        -9.940535742019472
      ],
      [
        "▁kurulusları",
        -10.611851451262334
      ],
      [
        "▁biliyoru",
        -9.814810660185996
      ],
      [
        "▁iddiaları",
        -10.521560839568773
      ],
      [
        "▁89-1",
        -12.227496135076429
      ],
      [
        "di",
        -5.588519822715629
      ],
      [
        "▁politika",
        -9.047494994967925
      ],
      [
        "2.9",
        -10.193359228915181
      ],
      [
        "▁129.",
        -10.196656814001443
      ],
      [
        "▁8.",
        -10.286904554380493
      ],
      [
        "▁kalbi",
        -9.442008355154359
      ],
      [
        "▁tara",
        -9.546493510053107
      ],
      [
        "▁isteri",
        -9.937884771209564
      ],
      [
        "▁worth'",
        -10.322833003736285
      ],
      [
        "▁bizler",
        -8.787743749858901
      ],
      [
        "▁seksen",
        -9.510386021826939
      ],
      [
        "▁yetkisi",
        -10.47737934610369
      ],
      [
        "▁hata",
        -9.199989073598326
      ],
      [
        "▁sev",
        -8.65912987587159
      ],
      [
        "▁uygar",
        -10.688661153779051
      ],
      [
        "ı'nda",
        -9.842375543710912
      ],
      [
        "▁3640",
        -10.889080833602621
      ],
      [
        "▁stres",
        -10.81800841612033
      ],
      [
        "▁yem",
        -10.217691653423632
      ],
      [
        "besyuz",
        -10.872440776529665
      ],
      [
        "8",
        -6.081748992804368
      ],
      [
        "▁sekil",
        -9.739903777052936
      ],
      [
        "▁kisiyi",
        -10.245276151090415
      ],
      [
        "▁yerde",
        -8.188705417868213
      ],
      [
        "▁benzin",
        -9.951653936387416
      ],
      [
        "lemeye",
        -10.098210829040228
      ],
      [
        ".38",
        -10.174863679830818
      ],
      [
        "▁bulmus",
        -10.291987159832793
      ],
      [
        "veya",
        -8.908097765809462
      ],
      [
        "▁soluk",
        -9.727165267188322
      ],
      [
        "▁dısisleri",
        -10.521499687826772
      ],
      [
        "/3",
        -9.631786581367232
      ],
      [
        "▁sarap",
        -10.688970194144941
      ],
      [
        "▁s",
        -8.326142933626855
      ],
      [
        "▁manevra",
        -10.817670446365286
      ],
      [
        "▁12",
        -7.184300623142984
      ],
      [
        "sıyla",
        -8.596125116545778
      ],
      [
        "ulmus",
        -8.822121034818162
      ],
      [
        "▁gormustu",
        -10.505041367354632
      ],
      [
        "▁islerini",
        -9.744253328434317
      ],
      [
        "▁yaka",
        -8.445417824129246
      ],
      [
        "▁istanbul'da",
        -9.515690395455168
      ],
      [
        "▁duyguları",
        -10.188133589922904
      ],
      [
        "▁varsa",
        -9.087884491937654
      ],
      [
        "▁...",
        -13.733825525090591
      ],
      [
        ".19",
        -10.744641564672678
      ],
      [
        "▁faturam",
        -9.054197879896352
      ],
      [
        "▁etraf",
        -9.748400035590109
      ],
      [
        "lemek",
        -9.321822695448809
      ],
      [
        "▁prenses",
        -10.47471408460131
      ],
      [
        "▁boyut",
        -9.525038028855402
      ],
      [
        "▁milli",
        -8.762751657393864
      ],
      [
        "▁9.1",
        -10.909825791463604
      ],
      [
        "▁yapmayı",
        -9.377289550467763
      ],
      [
        "▁mutluluk",
        -10.296424300906587
      ],
      [
        "▁bucuk",
        -10.293974072941978
      ],
      [
        "▁pervane",
        -10.889101774822258
      ],
      [
        "▁ilce",
        -9.847131625118784
      ],
      [
        "irdi",
        -9.56745031809457
      ],
      [
        "▁lider",
        -9.841104780905312
      ],
      [
        "▁bekley",
        -10.108597406920588
      ],
      [
        "ve",
        -8.232581526353126
      ],
      [
        "▁islemler",
        -9.669028493131407
      ],
      [
        "▁kac",
        -8.127145276213017
      ],
      [
        "▁gecme",
        -8.925314948131431
      ],
      [
        "▁caz",
        -10.523407413289496
      ],
      [
        "▁stok",
        -9.908005054215836
      ],
      [
        "▁it",
        -9.328053709760933
      ],
      [
        "▁peri",
        -10.167845235760149
      ],
      [
        "▁kulturu",
        -10.448817618463456
      ],
      [
        "na",
        -8.368796334948598
      ],
      [
        "▁tedbir",
        -9.674284960830855
      ],
      [
        "▁partisi",
        -10.046361467681757
      ],
      [
        "▁tam",
        -7.575890364815526
      ],
      [
        "inde",
        -7.688393861477325
      ],
      [
        "▁bıraktı",
        -8.94459439118248
      ],
      [
        "▁artıs",
        -8.744108654622641
      ],
      [
        "8.5",
        -10.883958863170694
      ],
      [
        "▁gorse",
        -10.180197553338934
      ],
      [
        "meleri",
        -10.145955588781076
      ],
      [
        "▁vermisti",
        -10.264964543739879
      ],
      [
        "▁idi",
        -8.9590315568136
      ],
      [
        "▁kesinti",
        -9.754288171663376
      ],
      [
        "▁herkesi",
        -8.862982706804999
      ],
      [
        "▁secme",
        -10.112875847837747
      ],
      [
        "▁butun",
        -7.1886448927821345
      ],
      [
        "▁142.",
        -10.684765078100533
      ],
      [
        "▁g",
        -8.751385223593633
      ],
      [
        "▁bahsetti",
        -10.221412743925203
      ],
      [
        "▁dagılı",
        -10.495864999253499
      ],
      [
        "▁%51",
        -11.429958966910014
      ],
      [
        "▁armagan",
        -10.6885044236192
      ],
      [
        "▁saskın",
        -9.922554263378874
      ],
      [
        "▁burcu",
        -10.338690433510905
      ],
      [
        "ci",
        -7.061942978204505
      ],
      [
        "▁saglam",
        -9.172638325409228
      ],
      [
        "errill",
        -9.791074596331585
      ],
      [
        "▁eylem",
        -9.186174231178352
      ],
      [
        "▁sordu",
        -8.847382658038043
      ],
      [
        "▁aracları",
        -10.118875316569126
      ],
      [
        "▁derken",
        -9.847173635357322
      ],
      [
        "▁toprag",
        -10.469441671706944
      ],
      [
        "▁yasamı",
        -10.178123317314796
      ],
      [
        "en",
        -7.834124913301681
      ],
      [
        "▁anadolu'da",
        -10.830890730202444
      ],
      [
        "▁degillerdi",
        -7.774122767717512
      ],
      [
        "▁isci",
        -9.24181674151106
      ],
      [
        "▁saz",
        -9.85616180042339
      ],
      [
        "▁1974",
        -10.065244010153869
      ],
      [
        "mesi",
        -8.143995595520975
      ],
      [
        "▁ist",
        -9.750205657333563
      ],
      [
        "▁lif",
        -10.379229682457174
      ],
      [
        "▁dc'de",
        -9.570539723735541
      ],
      [
        "▁uzman",
        -9.304058978937167
      ],
      [
        "▁kendinde",
        -9.477142414608815
      ],
      [
        "emedi",
        -9.645400135693608
      ],
      [
        "▁kudret",
        -10.889099979118894
      ],
      [
        "lesiyor",
        -10.167242895842302
      ],
      [
        "▁nicin",
        -9.894754319412513
      ],
      [
        "▁%11",
        -11.430310812463775
      ],
      [
        "▁gazino",
        -10.629758052192958
      ],
      [
        "sine",
        -7.296950458843385
      ],
      [
        "▁tasarı",
        -10.481128139194267
      ],
      [
        "▁dirsek",
        -10.889138153825707
      ],
      [
        "▁temettu",
        -10.177776035133263
      ],
      [
        "▁gid",
        -9.804885009853617
      ],
      [
        "▁mayıs",
        -9.440724152469613
      ],
      [
        "▁aklı",
        -9.51008558104063
      ],
      [
        "▁saglayacak",
        -10.167046397910541
      ],
      [
        "▁civarında",
        -9.442544381312947
      ],
      [
        "▁saydı",
        -10.300373569536553
      ],
      [
        "ar",
        -10.551958778256276
      ],
      [
        "al",
        -7.589694983473225
      ],
      [
        "▁ahsap",
        -10.817690927110265
      ],
      [
        "▁olanlar",
        -9.85903108694233
      ],
      [
        "hi",
        -10.540451875661907
      ],
      [
        "▁erkegi",
        -10.393137559408006
      ],
      [
        "leri",
        -8.082956769162834
      ],
      [
        "▁toprak",
        -8.971178958501387
      ],
      [
        "▁?",
        -9.499241568895844
      ],
      [
        "▁bolumunu",
        -10.356858828521633
      ],
      [
        "ebiliyor",
        -9.845276047561546
      ],
      [
        "dikleri",
        -9.381924822050026
      ],
      [
        "▁mıyı",
        -9.164916859856662
      ],
      [
        "▁grupları",
        -10.40422749113254
      ],
      [
        "▁43",
        -8.898012167341692
      ],
      [
        "▁stokları",
        -10.196963697609753
      ],
      [
        "▁itaat",
        -10.889156861775234
      ],
      [
        "▁getir",
        -8.84635586038371
      ],
      [
        "cok",
        -7.294857567940702
      ],
      [
        "▁yapti",
        -9.203946515754069
      ],
      [
        "8",
        -9.759045137730839
      ],
      [
        "▁harcamaları",
        -10.378707367887412
      ],
      [
        "▁carsaf",
        -10.673927714176392
      ],
      [
        "▁ayrıldı",
        -9.698752772758823
      ],
      [
        "r",
        -8.24038499361101
      ],
      [
        "lere",
        -7.128410090413862
      ],
      [
        "▁tarih",
        -8.639695258064329
      ],
      [
        "▁titiz",
        -10.378440222753397
      ],
      [
        "▁sempati",
        -10.751003964367587
      ],
      [
        "▁dergi",
        -8.950190369939364
      ],
      [
        "▁dairesi",
        -10.456537387278695
      ],
      [
        "▁peyniri",
        -10.523397358673755
      ],
      [
        "▁carte",
        -10.660830832526129
      ],
      [
        "▁tutmus",
        -10.56890829186273
      ],
      [
        "▁anlasıldı",
        -10.88910015399091
      ],
      [
        "▁edebiyat",
        -9.250764723978843
      ],
      [
        "▁kızıl",
        -10.009122462737775
      ],
      [
        "▁mantık",
        -10.369973897050485
      ],
      [
        "%8",
        -11.906306491240493
      ],
      [
        "▁kasaba",
        -9.490079416320091
      ],
      [
        "▁kap",
        -8.325349301488432
      ],
      [
        "▁kaliteli",
        -8.701566397897041
      ],
      [
        "▁degisiklikleri",
        -10.147233844464903
      ],
      [
        "▁donuk",
        -10.093668799517832
      ],
      [
        "bire",
        -9.213377729081706
      ],
      [
        "▁hicbirini",
        -9.34679240401203
      ],
      [
        "den",
        -8.05560578784303
      ],
      [
        "▁bagıs",
        -9.971533469801361
      ],
      [
        "▁sorumluluk",
        -10.043285220251299
      ],
      [
        "▁fil",
        -10.039142615818697
      ],
      [
        "▁yabanci",
        -10.690035313122324
      ],
      [
        "yı",
        -6.4555593149982675
      ],
      [
        "▁nihayet",
        -9.457787693876421
      ],
      [
        "▁yuzme",
        -8.853102451111422
      ],
      [
        "▁gelisme",
        -9.24152471583866
      ],
      [
        "dum",
        -10.559202719587336
      ],
      [
        "▁ongor",
        -9.815485364958157
      ],
      [
        "▁iliskiler",
        -9.8333166041029
      ],
      [
        "▁cincinnati",
        -10.886794596347087
      ],
      [
        "▁19",
        -7.590840352627737
      ],
      [
        "▁piyasalar",
        -10.157573687196074
      ],
      [
        "▁sırf",
        -10.693111392638398
      ],
      [
        "▁gorusuldu",
        -7.296609558448456
      ],
      [
        "▁yok",
        -6.800579191886873
      ],
      [
        "cı",
        -11.342658004873458
      ],
      [
        "▁us",
        -8.08624754668505
      ],
      [
        "▁donme",
        -9.291787816324362
      ],
      [
        "▁zorla",
        -9.816069752596885
      ],
      [
        "▁kol",
        -8.55665578885389
      ],
      [
        "▁%8",
        -9.680844401386135
      ],
      [
        "▁tat",
        -10.33464225108144
      ],
      [
        "▁car",
        -8.754915892920472
      ],
      [
        "▁ticarette",
        -9.639191662433635
      ],
      [
        "▁emek",
        -10.069295528560716
      ],
      [
        "▁ikinci",
        -7.3457044762511785
      ],
      [
        "▁7.5",
        -9.76680508166515
      ],
      [
        "▁bosluk",
        -10.135788013633597
      ],
      [
        "▁yel",
        -9.696960949730075
      ],
      [
        "▁bisiklet",
        -9.894673555101111
      ],
      [
        "▁sessiz",
        -8.774020766584528
      ],
      [
        "▁misafirimiz",
        -9.091665469775911
      ],
      [
        "▁uvey",
        -10.334941345441775
      ],
      [
        "▁gorevlisi",
        -10.171142733338735
      ],
      [
        "▁kansas",
        -8.805268515758064
      ],
      [
        "lenecek",
        -10.458859513117332
      ],
      [
        "▁istemiyoru",
        -8.205125744021695
      ],
      [
        "▁olacagı",
        -10.887704866136755
      ],
      [
        "▁karıs",
        -9.609454405908398
      ],
      [
        "▁t",
        -9.943348871082272
      ],
      [
        "▁da",
        -8.07797416663135
      ],
      [
        "▁degisimi",
        -9.982065489384466
      ],
      [
        "▁vasıtası",
        -9.98016373878562
      ],
      [
        "▁israil",
        -9.982898053660088
      ],
      [
        "▁paul",
        -10.07984711528706
      ],
      [
        "▁programını",
        -10.798123661195744
      ],
      [
        "▁yunanistan",
        -10.817770353069717
      ],
      [
        "▁burada",
        -8.05341677702537
      ],
      [
        "▁58",
        -10.166226496023125
      ],
      [
        "▁boston",
        -8.070428474771507
      ],
      [
        "▁plani",
        -9.645932103356213
      ],
      [
        "▁sayıda",
        -9.92137854575677
      ],
      [
        "▁defa",
        -8.547178199142845
      ],
      [
        "liginde",
        -9.459761097777399
      ],
      [
        "▁iran",
        -10.742123174274557
      ],
      [
        "▁hukumet",
        -8.523530177945005
      ],
      [
        "▁yarıs",
        -10.328627806018028
      ],
      [
        "▁ulasım",
        -8.884334372697914
      ],
      [
        "▁donuyor",
        -9.455302613235839
      ],
      [
        "▁kalacak",
        -9.554888837464677
      ],
      [
        "▁karsılastı",
        -9.942523559443396
      ],
      [
        "▁yonunde",
        -10.427431652909902
      ],
      [
        "nızı",
        -9.542755061300031
      ],
      [
        "▁0.2",
        -9.200581725524952
      ],
      [
        "▁degerlendiril",
        -10.492673289361463
      ],
      [
        "▁denver'de",
        -7.593590646626524
      ],
      [
        "▁me",
        -8.00239315754073
      ],
      [
        "▁oranını",
        -10.628309569426667
      ],
      [
        "▁fransızca",
        -10.579464055241639
      ],
      [
        "ik",
        -7.880937854500997
      ],
      [
        "▁3000",
        -10.442746850365866
      ],
      [
        "▁eksik",
        -9.212334841893739
      ],
      [
        "ro",
        -8.296630471007447
      ],
      [
        "▁odalar",
        -8.772501561569268
      ],
      [
        "▁cinayet",
        -10.142073748692379
      ],
      [
        "▁kola",
        -10.032058342950014
      ],
      [
        "▁piyasa",
        -7.846222840166742
      ],
      [
        "▁etmeli",
        -10.254277852779747
      ],
      [
        "▁kopu",
        -9.441453125842475
      ],
      [
        "▁yıl",
        -6.934990561513375
      ],
      [
        "lanmıstı",
        -10.052897302187091
      ],
      [
        "▁dusmesi",
        -10.558495976000803
      ],
      [
        "▁olsun",
        -8.156979777045636
      ],
      [
        "gan",
        -8.929018109839223
      ],
      [
        "\"",
        -9.693320734953517
      ],
      [
        "▁catlak",
        -10.424317220581404
      ],
      [
        "▁atesi",
        -10.296994498145734
      ],
      [
        "▁ekstra",
        -10.471494142883365
      ],
      [
        "▁hangisi",
        -7.842202844556418
      ],
      [
        "▁robert",
        -9.894683119149052
      ],
      [
        "▁yapıl",
        -9.74423425413669
      ],
      [
        "▁dul",
        -10.394266729819883
      ],
      [
        "lugun",
        -8.897834233187746
      ],
      [
        "▁yeri",
        -9.184272603602272
      ],
      [
        "▁kirli",
        -9.316813290926447
      ],
      [
        "▁01:",
        -10.887699327039211
      ],
      [
        "▁ingiltere",
        -10.684108362228669
      ],
      [
        "▁digerleri",
        -9.819175940167348
      ],
      [
        "▁yasanma",
        -10.85103377519563
      ],
      [
        "▁heyecanla",
        -10.385597686550373
      ],
      [
        "6.7",
        -10.384362079448348
      ],
      [
        "▁yine",
        -7.685510732076689
      ],
      [
        "▁dururdu",
        -10.635351517175186
      ],
      [
        "▁ticaret",
        -8.732889643887344
      ],
      [
        "▁fo",
        -9.666610988658622
      ],
      [
        "cisi",
        -9.584316028430898
      ],
      [
        "▁a",
        -10.589485858069246
      ],
      [
        "▁siir",
        -8.989751407536517
      ],
      [
        "▁hapis",
        -10.573488002770171
      ],
      [
        "▁seref",
        -10.17783623887612
      ],
      [
        "▁evlilik",
        -10.527342194806842
      ],
      [
        "▁cevabı",
        -10.214813844035234
      ],
      [
        "▁soyleyecek",
        -10.720580859178831
      ],
      [
        "m",
        -5.017397402025318
      ],
      [
        "▁donu",
        -9.484740515466275
      ],
      [
        "▁kendin",
        -7.498032269194095
      ],
      [
        "▁uzerine",
        -7.903182352559121
      ],
      [
        "▁soktu",
        -10.369283902733411
      ],
      [
        "▁da",
        -9.42085224595091
      ],
      [
        "▁op",
        -9.770503383765503
      ],
      [
        "▁ok",
        -9.296819069226252
      ],
      [
        "ilmesi",
        -9.513542506569586
      ],
      [
        "ymıs",
        -10.736864695384593
      ],
      [
        "▁tarife",
        -9.464035887735275
      ],
      [
        "▁bitmis",
        -10.276808295172234
      ],
      [
        "▁ayı",
        -9.038725956090023
      ],
      [
        "▁odaklan",
        -10.107803349519429
      ],
      [
        "ır",
        -8.522366261923944
      ],
      [
        "▁kuru",
        -8.523770070204847
      ],
      [
        "milyar",
        -9.22111722009215
      ],
      [
        "▁olursa",
        -8.818756338566224
      ],
      [
        "▁etmeye",
        -8.955249081254742
      ],
      [
        "▁saglıyor",
        -10.156658489634733
      ],
      [
        "▁sur",
        -8.632946114267424
      ],
      [
        "▁bitme",
        -9.85602328475117
      ],
      [
        "▁%3",
        -10.101956111336264
      ],
      [
        "▁deli",
        -8.858108322032738
      ],
      [
        "ugru",
        -10.426916467258927
      ],
      [
        "▁lin",
        -10.116565498109292
      ],
      [
        "▁getirdi",
        -9.167631897010597
      ],
      [
        "▁yarat",
        -9.773381593790656
      ],
      [
        "▁ekibi",
        -9.389381555074886
      ],
      [
        "▁ısrar",
        -9.815697798159052
      ],
      [
        "▁sektorunde",
        -10.427667562059538
      ],
      [
        "▁'li",
        -9.48474627959969
      ],
      [
        "▁tuket",
        -10.56947364779466
      ],
      [
        "▁tatsız",
        -10.635190919551134
      ],
      [
        "las",
        -8.773080719159806
      ],
      [
        "▁yoneticisi",
        -9.871217700719848
      ],
      [
        "▁onar",
        -10.153632446689144
      ],
      [
        "▁hala",
        -8.107481673687783
      ],
      [
        "▁sarı",
        -8.343853504272627
      ],
      [
        "sın",
        -7.892692676534142
      ],
      [
        "▁gelisi",
        -10.246004029024073
      ],
      [
        "hangi",
        -8.576513639657144
      ],
      [
        "▁tamir",
        -10.018998057963724
      ],
      [
        "▁yuklu",
        -10.346979147919363
      ],
      [
        "imiz",
        -9.87496007417427
      ],
      [
        "▁3558",
        -10.355449281372612
      ],
      [
        "▁istiyordu",
        -9.880962049285728
      ],
      [
        "▁gerektiriyor",
        -10.688551252300446
      ],
      [
        "▁takımını",
        -10.879974147510744
      ],
      [
        "▁urun",
        -9.383472611517261
      ],
      [
        "▁esya",
        -8.96933383787663
      ],
      [
        "nca",
        -8.871592476248708
      ],
      [
        "▁farkında",
        -9.720457082427199
      ],
      [
        "▁cu",
        -9.419480212378659
      ],
      [
        "cuk",
        -9.449351608841166
      ],
      [
        "?",
        -10.629680218481877
      ],
      [
        "▁borcunu",
        -10.718357386207547
      ],
      [
        "sunun",
        -9.78267940313347
      ],
      [
        "▁yararlı",
        -10.367640512184428
      ],
      [
        "▁japonya'",
        -10.291930960461208
      ],
      [
        "in",
        -5.932772081062646
      ],
      [
        "▁141.",
        -10.135400630749881
      ],
      [
        "▁yık",
        -9.46316696019965
      ],
      [
        "▁yasamak",
        -10.116677659854432
      ],
      [
        "▁sevda",
        -10.195734623229773
      ],
      [
        "▁patlama",
        -10.044150839095803
      ],
      [
        "▁sura",
        -10.269194055459815
      ],
      [
        "iy",
        -10.27317174977751
      ],
      [
        "▁tadı",
        -10.48603385709621
      ],
      [
        "ha",
        -8.385989790398618
      ],
      [
        "▁maliyet",
        -9.814818098016314
      ],
      [
        "▁girdik",
        -10.314756009600563
      ],
      [
        "▁ambar",
        -10.52151132166416
      ],
      [
        "▁demekti",
        -10.02695789751671
      ],
      [
        "bu",
        -6.521250950590649
      ],
      [
        "name",
        -9.904412089020202
      ],
      [
        "▁yuvarlak",
        -10.26836172377986
      ],
      [
        "▁yse",
        -8.979056288198866
      ],
      [
        "▁adil",
        -10.535341522916251
      ],
      [
        "▁yakısıklı",
        -10.629680723254285
      ],
      [
        "▁ceviri",
        -10.02095982836591
      ],
      [
        "▁oturdugu",
        -10.192336141282578
      ],
      [
        "▁kelimeler",
        -10.403009642683198
      ],
      [
        "▁yatırımcılar",
        -8.907555110482878
      ],
      [
        "mıslar",
        -9.281692973231866
      ],
      [
        "▁devlet",
        -8.04970073183443
      ],
      [
        "▁dusuncelerini",
        -10.52166826826334
      ],
      [
        "▁balo",
        -10.306804881155518
      ],
      [
        "▁ikincisin",
        -10.991639462621036
      ],
      [
        "▁salon",
        -10.103203379270646
      ],
      [
        "▁hastalıkları",
        -10.65889988391133
      ],
      [
        "▁yanlıs",
        -8.636739530372257
      ],
      [
        "▁park",
        -9.093793282792756
      ],
      [
        "▁etegi",
        -10.768568337595234
      ],
      [
        "▁panama",
        -10.75104623591032
      ],
      [
        "▁hisse",
        -6.86357082270441
      ],
      [
        "▁balık",
        -9.15580067107844
      ],
      [
        "▁inanma",
        -10.157471944955644
      ],
      [
        "once",
        -9.511381666878973
      ],
      [
        "▁geleni",
        -10.237352769467186
      ],
      [
        "top",
        -10.233033928735766
      ],
      [
        "375",
        -9.497796058114288
      ],
      [
        "▁1.85",
        -10.968222535860983
      ],
      [
        "▁ekonomistler",
        -10.818214488766836
      ],
      [
        "▁geride",
        -10.199528058016053
      ],
      [
        "▁balıkcı",
        -9.788525125028139
      ],
      [
        "▁sakat",
        -10.22522695361922
      ],
      [
        "▁arasında",
        -6.703675543688807
      ],
      [
        "▁0.01",
        -10.84995430298201
      ],
      [
        "▁14.",
        -10.184717011698044
      ],
      [
        "▁isin",
        -8.904255942704708
      ],
      [
        "▁guclu",
        -8.48175590626456
      ],
      [
        "▁temizliginde",
        -10.66093291058196
      ],
      [
        "▁buyuk",
        -6.519905376011292
      ],
      [
        "▁mırıldan",
        -10.107578944420009
      ],
      [
        "▁yonetici",
        -9.641891441856636
      ],
      [
        "▁mani",
        -9.703075886160345
      ],
      [
        "▁kisi",
        -7.698265296098292
      ],
      [
        "▁yapmıstı",
        -10.32699498578767
      ],
      [
        "mektedir",
        -8.221768482176973
      ],
      [
        "▁hayal",
        -8.876539421643795
      ],
      [
        "▁karsili",
        -10.286590989499762
      ],
      [
        "▁hissedarları",
        -10.574459071245817
      ],
      [
        "▁3.",
        -7.95981787468102
      ],
      [
        "▁uyelerini",
        -10.786234451215273
      ],
      [
        "▁kendimi",
        -7.677155434190539
      ],
      [
        "▁olusturuyor",
        -10.688581650835419
      ],
      [
        "▁yaban",
        -10.138723918641144
      ],
      [
        "ında",
        -7.869586970723039
      ],
      [
        "yuzd",
        -9.752288594061026
      ],
      [
        "▁muamele",
        -10.253274674011717
      ],
      [
        "▁1961",
        -10.308696760475211
      ],
      [
        "▁gorunme",
        -9.964615182929489
      ],
      [
        "▁alısı",
        -10.586942926977626
      ],
      [
        "▁istatistik",
        -10.688503748045704
      ],
      [
        "▁nasıl",
        -7.725263798863232
      ],
      [
        "▁degisir",
        -10.825712034077966
      ],
      [
        "▁sonun",
        -9.691976571015502
      ],
      [
        "▁ol",
        -10.376470309614628
      ],
      [
        "▁ne",
        -6.285015399419241
      ],
      [
        "▁yardımcısı",
        -9.157048088323332
      ],
      [
        "▁%10",
        -10.75002603065806
      ],
      [
        "▁duran",
        -9.495679396963526
      ],
      [
        "hat",
        -10.213688043524025
      ],
      [
        "▁final",
        -10.75541980303674
      ],
      [
        "da",
        -10.957139774156502
      ],
      [
        "▁oldugunu",
        -7.027662086168486
      ],
      [
        "▁muzik",
        -9.389612087804647
      ],
      [
        "lasır",
        -10.284057949120477
      ],
      [
        "▁1998",
        -10.071219928032773
      ],
      [
        "▁bilimin",
        -10.426509536109823
      ],
      [
        "▁oneri",
        -9.539394755128818
      ],
      [
        "leyen",
        -9.391502895865464
      ],
      [
        "▁kazancları",
        -9.766079533856436
      ],
      [
        "▁emtia",
        -10.293411635080416
      ],
      [
        "▁yeni",
        -6.426881078787229
      ],
      [
        "cun",
        -6.71166408540965
      ],
      [
        "gunu",
        -8.713996574794592
      ],
      [
        "▁fır",
        -9.898729347149688
      ],
      [
        "▁1990",
        -8.286578179816033
      ],
      [
        "▁verebilir",
        -10.519139705624173
      ],
      [
        "▁veren",
        -8.705443955798039
      ],
      [
        "ılması",
        -9.093026629478128
      ],
      [
        "▁gebe",
        -10.850181735365945
      ],
      [
        "n",
        -9.623076971272123
      ],
      [
        "▁bilmiyor",
        -10.407755334095999
      ],
      [
        "▁gitmek",
        -8.937879175095397
      ],
      [
        "▁emin",
        -8.999369084364858
      ],
      [
        "id",
        -9.31941720878529
      ],
      [
        "onları",
        -9.763222161918772
      ],
      [
        "ser",
        -9.78742225093195
      ],
      [
        "▁ikisini",
        -10.856435161678526
      ],
      [
        "▁lira",
        -8.65181933382009
      ],
      [
        "▁guvenlik",
        -9.35572223558346
      ],
      [
        "▁hakları",
        -9.867372834615733
      ],
      [
        "▁vitrin",
        -10.889114567828878
      ],
      [
        "▁gunde",
        -9.024126552997767
      ],
      [
        "▁din",
        -8.508281652827133
      ],
      [
        "▁denver'",
        -7.7624886800322415
      ],
      [
        "▁turizm",
        -10.753395061300672
      ],
      [
        "▁ucak",
        -8.11932503654803
      ],
      [
        "▁donanma",
        -10.629689969866506
      ],
      [
        "▁ve",
        -2.9561960527091937
      ],
      [
        "▁james",
        -10.2932748549756
      ],
      [
        "▁konusu",
        -8.858288025660915
      ],
      [
        "▁neden",
        -7.663804938167919
      ],
      [
        "▁makine",
        -9.04769628446303
      ],
      [
        "▁kalan",
        -8.600638989255724
      ],
      [
        "▁imzaladı",
        -10.633482455370217
      ],
      [
        "▁mil",
        -9.583999365194089
      ],
      [
        "▁gomul",
        -10.297180711487963
      ],
      [
        "▁ihale",
        -9.652546047666167
      ],
      [
        "malıyı",
        -9.833061568630848
      ],
      [
        "▁demek",
        -8.582590246356606
      ],
      [
        "▁ogretmen",
        -9.398758918660395
      ],
      [
        "▁is",
        -6.993170349575007
      ],
      [
        "▁johnson",
        -10.574637400444463
      ],
      [
        "▁hatırlıyor",
        -10.703164232398004
      ],
      [
        "▁kararlı",
        -10.223138884671926
      ],
      [
        "▁tu",
        -6.926966237301801
      ],
      [
        "▁ucyuzatmıs",
        -10.89093260026778
      ],
      [
        "▁yolculugun",
        -10.807021913468093
      ],
      [
        "▁kucuk",
        -7.237283938009055
      ],
      [
        "▁gunleri",
        -9.228535863570645
      ],
      [
        "▁biliyorsun",
        -10.330607604319702
      ],
      [
        "3'",
        -9.885501001310335
      ],
      [
        "▁doneminde",
        -9.756675455561194
      ],
      [
        "▁tekne",
        -9.393574912401553
      ],
      [
        "▁guzel",
        -6.479588680678067
      ],
      [
        "▁2.3",
        -9.999738725484406
      ],
      [
        "▁hissi",
        -10.450864603185668
      ],
      [
        "▁dir",
        -7.302651398842159
      ],
      [
        "▁2001",
        -10.541663483046875
      ],
      [
        "▁alıs",
        -9.34294305188427
      ],
      [
        "▁yasar",
        -9.696669059605235
      ],
      [
        "at",
        -7.500204479421454
      ],
      [
        "▁keman",
        -10.731903084340205
      ],
      [
        "▁ba",
        -8.061565120220623
      ],
      [
        "▁anlayıs",
        -9.868398305015086
      ],
      [
        "▁yaklas",
        -10.009612221763133
      ],
      [
        "▁alet",
        -9.90738877278785
      ],
      [
        "▁yemeklerin",
        -9.797532888705039
      ],
      [
        "▁oteldi",
        -9.098834347258096
      ],
      [
        "▁oldukları",
        -10.170708986990823
      ],
      [
        "▁istedigim",
        -10.070273395580937
      ],
      [
        "▁lezzetleri",
        -9.622163804115715
      ],
      [
        "▁kapattı",
        -9.910192988218782
      ],
      [
        "▁tadin",
        -10.821487830989692
      ],
      [
        "▁tıka",
        -10.229386687238666
      ],
      [
        "55",
        -9.923649040460651
      ],
      [
        "▁meclis",
        -9.402908913670355
      ],
      [
        "sen",
        -8.906673460936581
      ],
      [
        "port",
        -10.059380453376198
      ],
      [
        "lerinde",
        -7.815706081002199
      ],
      [
        "▁cıktı",
        -7.6541005166462215
      ],
      [
        "▁tesebbus",
        -10.688503749496348
      ],
      [
        "▁ihtiyacı",
        -9.74756244854092
      ],
      [
        "▁iliski",
        -8.961147497560347
      ],
      [
        "▁oteki",
        -10.09341093468947
      ],
      [
        "▁ihti",
        -10.573097856618583
      ],
      [
        "▁olusturdu",
        -10.254674508872808
      ],
      [
        "▁yedi",
        -9.14203339143225
      ],
      [
        "▁gerekir",
        -9.301543465695904
      ],
      [
        "▁beygir",
        -10.818576353553349
      ],
      [
        "▁ismini",
        -10.198608409400858
      ],
      [
        "▁kosk",
        -9.953176582578179
      ],
      [
        "▁egri",
        -10.314533994798364
      ],
      [
        "▁kimin",
        -9.228291024408245
      ],
      [
        "▁california",
        -10.569216431119875
      ],
      [
        "▁kapı",
        -7.660598984599577
      ],
      [
        "▁sizi",
        -7.7748653528823155
      ],
      [
        "▁kayded",
        -10.521261369238392
      ],
      [
        "▁merhaba",
        -10.33494196741597
      ],
      [
        "▁1.60",
        -11.018883638092944
      ],
      [
        "▁karma",
        -10.743682419936894
      ],
      [
        "luyor",
        -8.765636194767325
      ],
      [
        "▁ederdi",
        -9.964030930201936
      ],
      [
        "▁keyfi",
        -10.25328285048282
      ],
      [
        "▁sili",
        -9.715896190924814
      ],
      [
        "▁dinliyor",
        -10.159251908098462
      ],
      [
        "▁ti",
        -6.777248598015956
      ],
      [
        "▁daha",
        -5.742934854267505
      ],
      [
        "▁hop",
        -10.388673736145662
      ],
      [
        "▁dert",
        -9.808492680126804
      ],
      [
        "sının",
        -8.115206570933733
      ],
      [
        "▁tanrı",
        -9.600742307383495
      ],
      [
        "▁ydi",
        -6.934268810392528
      ],
      [
        "acagını",
        -8.472016215146569
      ],
      [
        "▁ici",
        -9.295252486345682
      ],
      [
        "▁kapasite",
        -10.183709585137418
      ],
      [
        "▁komunist",
        -10.423874050371044
      ],
      [
        "%10",
        -13.637977411965588
      ],
      [
        "▁dayanısma",
        -10.817672107491253
      ],
      [
        "▁agladı",
        -10.709766742386416
      ],
      [
        "▁okulda",
        -10.388696910150738
      ],
      [
        "malıydı",
        -9.793013522346856
      ],
      [
        "▁konaklama",
        -10.380420407539448
      ],
      [
        "▁gosteri",
        -9.33005511668162
      ],
      [
        "▁cıkardı",
        -8.922693274900691
      ],
      [
        "▁spor",
        -9.144764816927019
      ],
      [
        "▁yonlendirdi",
        -10.253719363495877
      ],
      [
        "▁belirt",
        -9.85735771145453
      ],
      [
        "▁alıyor",
        -8.999094774893514
      ],
      [
        "▁campeau",
        -10.574124680766861
      ],
      [
        "yım",
        -9.530343877842952
      ],
      [
        "▁21.",
        -10.44672806397608
      ],
      [
        "▁muduru",
        -9.289275069447221
      ],
      [
        "▁40000",
        -10.11154233849655
      ],
      [
        "▁baslattı",
        -10.585673322181556
      ],
      [
        "▁huzurlu",
        -10.474092533708603
      ],
      [
        "▁yana",
        -8.215723626907115
      ],
      [
        "▁bir",
        -6.148121758191533
      ],
      [
        ":0",
        -10.853066509912104
      ],
      [
        "▁frank",
        -9.951056329665654
      ],
      [
        "▁alakaliydi",
        -10.381141778868187
      ],
      [
        "cikista",
        -10.524055855505416
      ],
      [
        "'ni",
        -7.794999548823793
      ],
      [
        "▁23",
        -8.253328331934624
      ],
      [
        "▁idi",
        -9.143928234604786
      ],
      [
        "▁yanıt",
        -9.495452652180237
      ],
      [
        "▁bunun",
        -6.1361933051979545
      ],
      [
        "▁takip",
        -9.169065907247838
      ],
      [
        "ng",
        -10.944357968995718
      ],
      [
        "▁vasat",
        -10.378620053008989
      ],
      [
        "layan",
        -8.482094556633179
      ],
      [
        "▁nesnel",
        -10.731295041290362
      ],
      [
        "▁louis'te",
        -10.281580973330303
      ],
      [
        "ıldıgında",
        -10.477524318577007
      ],
      [
        "▁trilyon",
        -8.923424663261219
      ],
      [
        "▁yuzu",
        -8.719369840475336
      ],
      [
        "▁3.6",
        -9.569639768443997
      ],
      [
        "▁hos",
        -8.823651827049636
      ],
      [
        "▁kopek",
        -9.23648856272914
      ],
      [
        "▁15000",
        -10.523997784269115
      ],
      [
        "▁haftada",
        -10.063663605443065
      ],
      [
        "ıldı",
        -8.354696879914187
      ],
      [
        "▁pur",
        -10.299547689904038
      ],
      [
        "lamaz",
        -10.09945362258769
      ],
      [
        "▁davul",
        -10.629685782874294
      ],
      [
        "kuru",
        -10.77169379069894
      ],
      [
        "▁yapılır",
        -9.874243105406098
      ],
      [
        "▁hacı",
        -10.049091893849848
      ],
      [
        "▁chi",
        -10.47750079803262
      ],
      [
        "▁ameliyat",
        -10.293274709268092
      ],
      [
        "▁aklını",
        -10.46731704491777
      ],
      [
        "▁bekledigim",
        -9.85794361781388
      ],
      [
        "▁durumu",
        -8.93191541745772
      ],
      [
        "▁devasa",
        -10.57461557532017
      ],
      [
        "▁bin",
        -6.8178877110926726
      ],
      [
        "san",
        -8.617914690386772
      ],
      [
        "lma",
        -8.941557147725177
      ],
      [
        "▁mustafa",
        -9.067164505691792
      ],
      [
        "▁15.6",
        -10.626211328949372
      ],
      [
        "▁beach'",
        -10.052808639417137
      ],
      [
        "▁hemsire",
        -10.68850464218512
      ],
      [
        "h",
        -6.893785620629456
      ],
      [
        "mıyor",
        -8.898344689984697
      ],
      [
        "▁kum",
        -9.021123785937318
      ],
      [
        "▁peynir",
        -9.569293018721593
      ],
      [
        "▁1.59",
        -10.642903663124859
      ],
      [
        "▁saat",
        -7.392454369201043
      ],
      [
        "▁ra",
        -8.738255253414422
      ],
      [
        "▁kaydedil",
        -10.436274632395982
      ],
      [
        "▁ur",
        -9.591516570086629
      ],
      [
        "▁yazı",
        -8.093476407435546
      ],
      [
        "▁hicbiri",
        -8.42647037794809
      ],
      [
        "▁1963",
        -10.560325746299014
      ],
      [
        "▁verebiliri",
        -10.44401176899759
      ],
      [
        "r",
        -5.386364506545155
      ],
      [
        "▁iste",
        -7.7334779137805425
      ],
      [
        "▁mahkeme",
        -8.896728150729285
      ],
      [
        "▁fiili",
        -10.25336668292909
      ],
      [
        "▁titre",
        -9.752920342466687
      ],
      [
        "▁sır",
        -9.240172301407178
      ],
      [
        "▁huzursuz",
        -10.81880273553708
      ],
      [
        "▁kampanyalarda",
        -10.180435727374286
      ],
      [
        "▁gercegi",
        -10.084480063739164
      ],
      [
        "2'de",
        -10.17036189759133
      ],
      [
        "▁kısme",
        -9.928154470953993
      ],
      [
        "▁10.6",
        -10.963275517375004
      ],
      [
        "▁otobus",
        -9.815734126542722
      ],
      [
        "18",
        -10.39890958852949
      ],
      [
        "▁atma",
        -10.268571627014932
      ],
      [
        "▁ce",
        -8.500765105694798
      ],
      [
        "▁beye",
        -10.058900163462125
      ],
      [
        "▁ası",
        -9.658539896004044
      ],
      [
        "▁kaymakam",
        -10.629683634891435
      ],
      [
        "▁kursun",
        -9.5207290512443
      ],
      [
        "▁ihracat",
        -9.72061987393585
      ],
      [
        "▁yola",
        -9.296420302023852
      ],
      [
        "▁arap",
        -9.81676499578348
      ],
      [
        "ruyor",
        -9.919437084957133
      ],
      [
        "▁24",
        -8.116338891971235
      ],
      [
        "▁kagıdı",
        -10.04174249199922
      ],
      [
        "▁veriri",
        -8.68310552810189
      ],
      [
        "▁isleri",
        -9.632827000028117
      ],
      [
        "▁bildirdi",
        -9.194887155439554
      ],
      [
        "▁donemde",
        -9.328542255936217
      ],
      [
        "▁isgal",
        -10.216285406819772
      ],
      [
        "▁tuz",
        -8.84807103716447
      ],
      [
        "▁dow",
        -9.116876095554199
      ],
      [
        "▁dallas'",
        -8.094345762003726
      ],
      [
        "▁ontario",
        -10.745633599891708
      ],
      [
        "▁olacaktı",
        -9.42330358628412
      ],
      [
        "▁avantaj",
        -10.423874038254011
      ],
      [
        "▁pazartesi",
        -8.06927595790828
      ],
      [
        "z",
        -6.575855094575472
      ],
      [
        "▁yay",
        -9.042249915242653
      ],
      [
        "▁yak",
        -9.354249396044628
      ],
      [
        "▁kisisel",
        -9.342670332899084
      ],
      [
        "▁lokma",
        -10.178304533081542
      ],
      [
        "▁bildiri",
        -10.27169238024936
      ],
      [
        "▁gunumuz",
        -10.044207564198928
      ],
      [
        "▁tarafında",
        -7.425395179848692
      ],
      [
        "▁kabil",
        -9.869743558678028
      ],
      [
        "▁cumle",
        -9.389443455696956
      ],
      [
        "▁cicegi",
        -10.751027937969235
      ],
      [
        "gin",
        -8.613088552117235
      ],
      [
        "▁3'te",
        -10.755429168375228
      ],
      [
        "▁c",
        -12.071827075693937
      ],
      [
        "▁vade",
        -9.656648884749746
      ],
      [
        "▁musa",
        -9.62419780711977
      ],
      [
        "▁sun",
        -8.80510930751134
      ],
      [
        "otuz",
        -10.778920444706205
      ],
      [
        "▁ulasımını",
        -10.473775017370022
      ],
      [
        "dıklarını",
        -9.734938298738149
      ],
      [
        "amadı",
        -9.080378171576264
      ],
      [
        "▁espri",
        -10.889129843907789
      ],
      [
        "niz",
        -8.044469973543261
      ],
      [
        "▁istedi",
        -9.087258944201817
      ],
      [
        "▁sezer",
        -10.692605815348738
      ],
      [
        "25",
        -8.001389963991318
      ],
      [
        "▁cık",
        -8.665034104599595
      ],
      [
        "▁senaryo",
        -10.293274633665792
      ],
      [
        "▁tef",
        -10.163445976690737
      ],
      [
        "▁yasadı",
        -9.893040816911006
      ],
      [
        "▁egili",
        -10.159093105649575
      ],
      [
        "▁piyasasını",
        -10.606704370232206
      ],
      [
        "▁artırma",
        -9.789247485637954
      ],
      [
        "▁arka",
        -8.7907169365659
      ],
      [
        "▁118",
        -10.951670013373654
      ],
      [
        "nu",
        -11.551857311570274
      ],
      [
        "▁kıvır",
        -10.75100387723379
      ],
      [
        "▁gidecegi",
        -10.199222082106287
      ],
      [
        "ucu",
        -8.877184593688174
      ],
      [
        "4.9",
        -10.769308090752189
      ],
      [
        "▁iceri",
        -8.542080710063061
      ],
      [
        "▁550",
        -10.58675290347122
      ],
      [
        "fıkı",
        -12.12103278642654
      ],
      [
        "▁5/",
        -9.813935803487151
      ],
      [
        "▁ecekti",
        -9.815637890076928
      ],
      [
        "▁zorunlu",
        -9.867666172617522
      ],
      [
        "▁yukseltti",
        -10.195835018803194
      ],
      [
        "▁ispanya",
        -10.688504168255234
      ],
      [
        "▁art",
        -7.801558788281897
      ],
      [
        "▁brook",
        -10.521510516665828
      ],
      [
        "▁les",
        -10.241292619129892
      ],
      [
        "▁pisman",
        -10.473143319910605
      ],
      [
        "▁diye",
        -10.048915892086761
      ],
      [
        "bb",
        -10.070017169682261
      ],
      [
        "▁merkez",
        -8.469360679668435
      ],
      [
        "▁kapasitesi",
        -9.863317604130158
      ],
      [
        "▁dusurul",
        -10.736741549803469
      ],
      [
        "▁seri",
        -8.897499556392344
      ],
      [
        "▁hanimla",
        -9.951973050938305
      ],
      [
        "▁belge",
        -9.549277318890313
      ],
      [
        "▁ekim'de",
        -10.57695363741184
      ],
      [
        "▁secenek",
        -10.773779197701884
      ],
      [
        "▁1.",
        -8.798540166567136
      ],
      [
        "▁6.5",
        -10.575469817737618
      ],
      [
        "iz",
        -7.532188226968462
      ],
      [
        "ten",
        -7.034740247172006
      ],
      [
        "▁cekisme",
        -10.818093530302768
      ],
      [
        "▁tacoma'",
        -10.133143444245952
      ],
      [
        "▁perakendeci",
        -10.502319946302121
      ],
      [
        "-1",
        -12.565176054867928
      ],
      [
        "▁birlestir",
        -10.34313526628777
      ],
      [
        "▁329",
        -10.882759451661837
      ],
      [
        "▁sıkıntı",
        -9.043554777971405
      ],
      [
        "▁onumuzde",
        -8.511868125094374
      ],
      [
        "▁catal",
        -10.63500081854502
      ],
      [
        "▁veri",
        -9.453805472639525
      ],
      [
        "▁metre",
        -9.653874649065186
      ],
      [
        "▁halkın",
        -9.827560874955605
      ],
      [
        "▁demir",
        -8.4199930287933
      ],
      [
        "▁cevap",
        -8.620642539698785
      ],
      [
        "▁oldugun",
        -10.612065443969167
      ],
      [
        "▁denile",
        -9.737372234837867
      ],
      [
        "▁sasır",
        -9.49798081917347
      ],
      [
        "▁oburleri",
        -10.32040507106256
      ],
      [
        "▁duru",
        -9.888438380736261
      ],
      [
        "▁goruluyor",
        -10.33214545601994
      ],
      [
        "▁%5.",
        -13.237147461423959
      ],
      [
        "▁tutam",
        -10.530866884607146
      ],
      [
        "▁gunu",
        -7.036545758133444
      ],
      [
        "▁kutlama",
        -10.64272200570058
      ],
      [
        "sever",
        -10.217242204704228
      ],
      [
        "▁bitiyor",
        -10.854363550929989
      ],
      [
        "▁borsası'nda",
        -9.815934073827352
      ],
      [
        "▁sergi",
        -9.252458136607387
      ],
      [
        "▁duzenleme",
        -9.612767113019302
      ],
      [
        "▁may",
        -10.394007433792467
      ],
      [
        "▁duzey",
        -9.403829413913645
      ],
      [
        "▁tepe",
        -9.147367953436568
      ],
      [
        "▁bolgesinde",
        -10.669109249621421
      ],
      [
        "▁mu",
        -6.543499151083323
      ],
      [
        "▁1.57",
        -10.304493896230326
      ],
      [
        "▁paket",
        -9.389386567403799
      ],
      [
        "▁oturmus",
        -9.708413061280883
      ],
      [
        "▁bekledi",
        -9.913866498311354
      ],
      [
        "▁acente",
        -9.951048128377616
      ],
      [
        "▁cıkması",
        -10.309582684444369
      ],
      [
        "▁izleme",
        -9.999093937105828
      ],
      [
        "▁cambaz",
        -10.817685266982217
      ],
      [
        "gım",
        -9.279565655173
      ],
      [
        "▁1100",
        -10.565896809000884
      ],
      [
        "▁analiz",
        -10.139238149133526
      ],
      [
        "▁yarı",
        -8.53236582032709
      ],
      [
        "▁yazdıgı",
        -10.21132962158935
      ],
      [
        "▁yiy",
        -9.922121705214863
      ],
      [
        "▁entari",
        -10.6301144182188
      ],
      [
        "▁calısıyordu",
        -9.936089055479986
      ],
      [
        "▁analizciler",
        -10.25679244165962
      ],
      [
        "sınız",
        -8.745457976912533
      ],
      [
        "▁yonelik",
        -10.804806123131412
      ],
      [
        "▁abd'de",
        -9.908896846140225
      ],
      [
        "▁oranları",
        -9.5637723797069
      ],
      [
        "▁aynı",
        -7.510145428198727
      ],
      [
        "uyordu",
        -8.905305428854515
      ],
      [
        "▁savunma",
        -8.93235468971314
      ],
      [
        "▁1.25",
        -10.228792362022869
      ],
      [
        "▁beklentimi",
        -10.368272402762424
      ],
      [
        "▁toplam",
        -8.554934339752762
      ],
      [
        "▁durumda",
        -8.648813959869576
      ],
      [
        "%7.8",
        -13.327937914282714
      ],
      [
        "▁sizde",
        -9.613044075128913
      ],
      [
        "▁city'",
        -8.758399207044867
      ],
      [
        "▁uyarı",
        -9.899327730522192
      ],
      [
        "▁verdigimiz",
        -10.115233186276258
      ],
      [
        "▁kent",
        -9.021721601195072
      ],
      [
        "ce",
        -8.544836835015023
      ],
      [
        "lanmıs",
        -8.601101863132625
      ],
      [
        "▁atladı",
        -10.547778742899558
      ],
      [
        "39",
        -10.362518549371337
      ],
      [
        "▁sona",
        -9.11002210066461
      ],
      [
        "klarını",
        -8.796624005031015
      ],
      [
        "▁tabir",
        -10.465194559159581
      ],
      [
        "▁yatırımcı",
        -9.52880873466492
      ],
      [
        "▁yardimci",
        -8.805263557316131
      ],
      [
        "▁buyuye",
        -10.340000919502648
      ],
      [
        "▁eti",
        -9.99016355853738
      ],
      [
        "▁puf",
        -10.688562014827086
      ],
      [
        "▁yetkili",
        -9.878633299323152
      ],
      [
        "▁erkan",
        -10.631619959113545
      ],
      [
        "▁sauna",
        -9.816595618896041
      ],
      [
        "▁utan",
        -10.071685556274954
      ],
      [
        "▁yakinlarim",
        -10.689334021707905
      ],
      [
        "▁surpriz",
        -10.889099136737888
      ],
      [
        "▁bana",
        -9.327560699522497
      ],
      [
        "4000",
        -10.33227685369215
      ],
      [
        "▁kuvvetleri",
        -10.11870346292676
      ],
      [
        "14",
        -12.71648030839643
      ],
      [
        "▁verim",
        -9.605587064701869
      ],
      [
        "▁bildir",
        -10.00045882346258
      ],
      [
        "▁ilerledi",
        -10.420917360636999
      ],
      [
        "▁sandık",
        -10.35352966641942
      ],
      [
        "▁uzeri",
        -9.860933022561836
      ],
      [
        "▁yatak",
        -9.67094844412557
      ],
      [
        "▁hijyenik",
        -9.477561425147707
      ],
      [
        "▁gur",
        -9.298924860359286
      ],
      [
        "▁yiyecek",
        -8.615930886079994
      ],
      [
        "▁dustu",
        -7.910566585162171
      ],
      [
        "▁devrim",
        -9.509485230400282
      ],
      [
        "▁ugrama",
        -10.839049722630719
      ],
      [
        "▁korkuyor",
        -10.32513053772814
      ],
      [
        "▁siparis",
        -9.34096688598571
      ],
      [
        "▁gomlegi",
        -10.253283614026719
      ],
      [
        "▁bilmek",
        -9.83468673289488
      ],
      [
        "▁koyuldu",
        -10.47261254933707
      ],
      [
        "▁baglamıs",
        -10.756431394754491
      ],
      [
        "▁olanakları",
        -9.919112317039945
      ],
      [
        "▁1999",
        -9.957080978253066
      ],
      [
        "pır",
        -10.2859360511523
      ],
      [
        "▁vuruyor",
        -10.42422419376344
      ],
      [
        "▁kalmadi",
        -8.257349777743828
      ],
      [
        "▁sikinti",
        -9.09140823815949
      ],
      [
        "▁karsılastırıl",
        -10.178795208232529
      ],
      [
        "100",
        -9.795625293758011
      ],
      [
        "▁anlasması",
        -10.394180363267488
      ],
      [
        "▁basımız",
        -10.749154594025494
      ],
      [
        "▁tampa'da",
        -10.070766325838754
      ],
      [
        "▁market",
        -10.425082802975234
      ],
      [
        "▁icinde",
        -6.864175634434878
      ],
      [
        "▁hamal",
        -10.437363755110553
      ],
      [
        "rak",
        -8.56644890269181
      ],
      [
        "▁twa",
        -9.719384118764127
      ],
      [
        "▁eseri",
        -10.149858073180695
      ],
      [
        "▁temsilci",
        -10.158411737049956
      ],
      [
        "▁edilebilir",
        -10.17866099985504
      ],
      [
        "▁soyleyen",
        -10.259837190662273
      ],
      [
        "▁etkilen",
        -9.969710733543465
      ],
      [
        "▁ulasma",
        -9.839099687240648
      ],
      [
        "▁dinlemek",
        -10.402837634050677
      ],
      [
        "▁cesme",
        -10.178124993081246
      ],
      [
        "▁cag",
        -9.218081768292876
      ],
      [
        "▁baskan",
        -8.181142529676604
      ],
      [
        "▁tesvik",
        -9.512325377166233
      ],
      [
        "cagız",
        -9.181760665440848
      ],
      [
        "▁ettigi",
        -8.850465665004887
      ],
      [
        "▁calısır",
        -9.705683414141571
      ],
      [
        "▁deve",
        -10.373577469696185
      ],
      [
        "▁1\\/",
        -7.7140516848181395
      ],
      [
        "▁kıvra",
        -10.521493443979978
      ],
      [
        "'le",
        -9.37397285553289
      ],
      [
        "▁cocuklu",
        -8.150154710289826
      ],
      [
        "▁tarihini",
        -10.75552010396414
      ],
      [
        "▁pazar",
        -7.822344073549192
      ],
      [
        "▁reddedil",
        -10.817674367612174
      ],
      [
        "72",
        -10.467610741066034
      ],
      [
        "ilen",
        -8.930867582723863
      ],
      [
        "le",
        -6.62633018119359
      ],
      [
        "▁t",
        -13.020326944763562
      ],
      [
        "▁fransa'",
        -10.36069231045549
      ],
      [
        "▁sinan",
        -10.455344623799423
      ],
      [
        "leri",
        -5.710167784007071
      ],
      [
        "▁75.",
        -10.957302314781408
      ],
      [
        "▁olunca",
        -10.014055947702017
      ],
      [
        "▁duyarlı",
        -10.197471974781836
      ],
      [
        "ur",
        -9.723086458638544
      ],
      [
        "▁alacak",
        -9.009209103506457
      ],
      [
        "▁dusman",
        -9.010715577966193
      ],
      [
        "▁kapsamında",
        -10.425898343708521
      ],
      [
        "amıyor",
        -9.501679755688944
      ],
      [
        "▁etrafını",
        -10.764082662352433
      ],
      [
        "▁dokulen",
        -10.818389970518178
      ],
      [
        "▁konak",
        -10.012071651034322
      ],
      [
        "▁bıcak",
        -9.766302303877879
      ],
      [
        "▁acılan",
        -10.210163324675959
      ],
      [
        "▁34",
        -9.06955530779975
      ],
      [
        "nce",
        -9.143429125975697
      ],
      [
        "%6",
        -11.974395327795515
      ],
      [
        "'te",
        -8.749663191370402
      ],
      [
        "y",
        -7.050804997876933
      ],
      [
        "▁acil",
        -10.2140429825434
      ],
      [
        "j",
        -8.633899497362899
      ],
      [
        "gine",
        -9.265712169495476
      ],
      [
        "▁koyma",
        -10.779429963018634
      ],
      [
        "▁pırıl",
        -10.214851237337214
      ],
      [
        "▁ucretini",
        -10.261187541062117
      ],
      [
        "▁39.5",
        -10.180672117659016
      ],
      [
        "▁rakamlar",
        -9.879411561854917
      ],
      [
        "▁cebinde",
        -10.042020995738122
      ],
      [
        "uyor",
        -8.37579668528532
      ],
      [
        "▁suclu",
        -9.963393744544362
      ],
      [
        "ry",
        -9.419901589629184
      ],
      [
        "▁biber",
        -10.107755308748326
      ],
      [
        "▁196",
        -9.2194262247823
      ],
      [
        "ım",
        -8.568093718523716
      ],
      [
        "000",
        -7.492953355410074
      ],
      [
        "300",
        -9.606346454984338
      ],
      [
        "▁havaalanı'nda",
        -10.177957967553755
      ],
      [
        "▁dusundu",
        -9.084162619697482
      ],
      [
        "1",
        -9.311321548328898
      ],
      [
        "▁nesi",
        -9.847091115213182
      ],
      [
        "▁cekmis",
        -10.508385397159133
      ],
      [
        "0-1",
        -13.272259995130508
      ],
      [
        "▁secenekleri",
        -10.609935918972019
      ],
      [
        "▁iyi",
        -5.909018511949251
      ],
      [
        "▁gun",
        -6.835240945056745
      ],
      [
        "▁to",
        -12.751217036694444
      ],
      [
        "▁curuk",
        -10.310046000685487
      ],
      [
        "lerimi",
        -9.64883275392612
      ],
      [
        "▁stanley",
        -10.889103837944901
      ],
      [
        ".3",
        -10.300901600331065
      ],
      [
        "▁bahcede",
        -10.718377236761533
      ],
      [
        "▁bitirme",
        -10.731959859413704
      ],
      [
        "ecegini",
        -8.916333382410148
      ],
      [
        "▁na",
        -8.155169810574176
      ],
      [
        "▁hep",
        -7.783266411636223
      ],
      [
        "▁ak",
        -7.707894282078696
      ],
      [
        "▁kahvaltisi",
        -10.05189037004811
      ],
      [
        "▁dolma",
        -10.559437555568062
      ],
      [
        "▁ne",
        -5.424833690440229
      ],
      [
        "▁misin",
        -6.959349652996775
      ],
      [
        "▁taraftar",
        -10.22347087323022
      ],
      [
        "▁ilan",
        -9.155789358256778
      ],
      [
        "▁cıkardıgı",
        -10.409436273284355
      ],
      [
        "ti",
        -13.256482449366914
      ],
      [
        "▁yonel",
        -9.711596359001351
      ],
      [
        "▁sag",
        -7.961590501526558
      ],
      [
        "▁mektep",
        -10.214832887427463
      ],
      [
        "▁rum",
        -10.065987798570351
      ],
      [
        "▁cozme",
        -10.172502659738718
      ],
      [
        "▁keder",
        -10.473421532146498
      ],
      [
        "▁kagıt",
        -8.84248265258276
      ],
      [
        "ber",
        -10.550620958166068
      ],
      [
        "▁kampanyalar",
        -9.729557279098112
      ],
      [
        "▁film",
        -8.730112802741205
      ],
      [
        "▁1.9",
        -9.91890671326831
      ],
      [
        "▁93",
        -10.812017416707727
      ],
      [
        "▁yiyecekler",
        -9.203478054672193
      ],
      [
        "▁pa",
        -8.319316082123365
      ],
      [
        "▁ceken",
        -9.905069552184518
      ],
      [
        "▁esim",
        -9.658242404640355
      ],
      [
        "lerden",
        -7.535807242600081
      ],
      [
        "▁arizona",
        -10.177776021665364
      ],
      [
        "▁kolları",
        -10.54291149356489
      ],
      [
        "▁bekar",
        -10.576242343581313
      ],
      [
        "▁bakıs",
        -9.055830736089058
      ],
      [
        "▁kaza",
        -8.828034320404488
      ],
      [
        "▁anlamın",
        -9.421695317780152
      ],
      [
        "▁mesaj",
        -9.550595547888351
      ],
      [
        "▁yuzlerce",
        -10.521655087331826
      ],
      [
        "kan",
        -8.859950980731222
      ],
      [
        "▁finansman",
        -9.821695628981761
      ],
      [
        "▁kaplama",
        -10.833470220007662
      ],
      [
        "▁kullanım",
        -9.7563425267874
      ],
      [
        "▁dili",
        -9.39338571275811
      ],
      [
        "▁musun",
        -8.285459285682773
      ],
      [
        "▁erdem",
        -10.522034154821922
      ],
      [
        "▁calar",
        -10.262598564242571
      ],
      [
        "ize",
        -9.091640657655383
      ],
      [
        "87.5",
        -10.15696652924954
      ],
      [
        "▁'",
        -10.755881281258656
      ],
      [
        "▁hatirlam",
        -10.817681647049955
      ],
      [
        "▁hatun",
        -10.81587491015582
      ],
      [
        "yor",
        -7.921136094037257
      ],
      [
        "▁otekinde",
        -10.898874093120668
      ],
      [
        "▁zamanda",
        -8.650641004464497
      ],
      [
        "▁cıglık",
        -10.253275107670323
      ],
      [
        "▁suruyor",
        -9.799307338310534
      ],
      [
        "ılmıstı",
        -10.243406348983966
      ],
      [
        "▁topragı",
        -10.255153415383939
      ],
      [
        "▁kırıl",
        -10.305842382016337
      ],
      [
        "sidir",
        -9.877446609991534
      ],
      [
        "te",
        -6.789272396632518
      ],
      [
        "▁koptu",
        -10.819279817476524
      ],
      [
        "▁kupon",
        -10.380902603987872
      ],
      [
        "▁fiyati",
        -9.047094696351467
      ],
      [
        "▁bush'u",
        -10.609564232817617
      ],
      [
        "▁se",
        -8.252651414677715
      ],
      [
        "fak",
        -9.968882319280926
      ],
      [
        "▁etmeyi",
        -9.850311968081007
      ],
      [
        "▁seslendi",
        -10.428304210876753
      ],
      [
        "▁2016",
        -9.308874043928322
      ],
      [
        "▁ugra",
        -9.030309344495034
      ],
      [
        "ciler",
        -8.905582585661536
      ],
      [
        "▁devir",
        -9.359754680472165
      ],
      [
        "▁sohret",
        -10.378420018229521
      ],
      [
        "▁kultur",
        -9.085285948526355
      ],
      [
        "▁sevinc",
        -9.578964738107029
      ],
      [
        "▁secildi",
        -10.223451712494839
      ],
      [
        "▁artısı",
        -9.688754544621572
      ],
      [
        "–",
        -12.809526790838987
      ],
      [
        "▁ogreniyor",
        -10.855220758419254
      ],
      [
        "▁banka",
        -8.511301136219735
      ],
      [
        "▁odedi",
        -10.240751895307234
      ],
      [
        "▁rezervasyonlar",
        -10.69546197960971
      ],
      [
        "▁koku",
        -8.967187767373986
      ],
      [
        "8'",
        -9.579075072474723
      ],
      [
        "▁pisti",
        -9.963699610492215
      ],
      [
        "▁varlık",
        -9.821618359291021
      ],
      [
        "ama",
        -4.655174814946831
      ],
      [
        "▁ceker",
        -9.661676162108876
      ],
      [
        "▁istekli",
        -10.38221798877743
      ],
      [
        "▁gumus",
        -9.697742952349534
      ],
      [
        "▁geci",
        -8.993537100168297
      ],
      [
        "▁j",
        -9.262677194622775
      ],
      [
        "ayım",
        -9.397847885954413
      ],
      [
        "▁uyku",
        -9.288287758459706
      ],
      [
        "▁ettir",
        -9.744791396747054
      ],
      [
        "19",
        -9.653955124169919
      ],
      [
        "▁amerikan",
        -7.562769141721597
      ],
      [
        "▁bicimi",
        -10.124706047733788
      ],
      [
        "▁sorunlar",
        -10.326755052603366
      ],
      [
        "▁planlama",
        -9.847040703522147
      ],
      [
        "▁mutfak",
        -10.378420124678726
      ],
      [
        "▁sizler",
        -8.499743326726717
      ],
      [
        "▁uf",
        -9.440208921685583
      ],
      [
        "▁payı",
        -9.818271871122993
      ],
      [
        "▁temmuz'da",
        -9.378354352260978
      ],
      [
        "▁durusma",
        -10.27660828549232
      ],
      [
        "▁yonet",
        -9.458534412672076
      ],
      [
        "▁his",
        -9.906495620865922
      ],
      [
        "2",
        -9.343103933683574
      ],
      [
        "▁denen",
        -10.426506082529865
      ],
      [
        "▁paris'te",
        -10.751227715999224
      ],
      [
        "▁badem",
        -10.472013343472764
      ],
      [
        "▁kullandı",
        -10.075498376534858
      ],
      [
        "▁seviyesinde",
        -9.30337169358081
      ],
      [
        "▁kopmus",
        -10.837893138824802
      ],
      [
        "'yi",
        -9.299550392701168
      ],
      [
        "▁temizligi",
        -8.060376852666195
      ],
      [
        "lenen",
        -9.206948117262327
      ],
      [
        "▁resepsiyon",
        -10.334941231257929
      ],
      [
        "▁olanaklarını",
        -10.340547985947946
      ],
      [
        "▁fredd",
        -10.81913637963066
      ],
      [
        "▁kilit",
        -9.870539986694556
      ],
      [
        "▁denetim",
        -10.214820861994584
      ],
      [
        "▁gayri",
        -10.423879762022784
      ],
      [
        "▁kız",
        -7.943973454844125
      ],
      [
        "▁katilma",
        -9.858302519211009
      ],
      [
        "hane",
        -8.90849557000316
      ],
      [
        "lenme",
        -8.542883970635284
      ],
      [
        "▁ucreti",
        -8.32856114653678
      ],
      [
        "▁ates",
        -8.515427091170748
      ],
      [
        "▁eglence",
        -9.164825897555115
      ],
      [
        "▁calgı",
        -10.427916922921373
      ],
      [
        "▁konusunda",
        -8.022827493569924
      ],
      [
        "▁yorum",
        -8.040053218745674
      ],
      [
        "▁halde",
        -8.513364534634807
      ],
      [
        "▁yapılan",
        -8.288521214811809
      ],
      [
        "▁degerlendirme",
        -9.427419755058866
      ],
      [
        "ers",
        -9.755714109721191
      ],
      [
        "▁bulabilir",
        -10.113615171295287
      ],
      [
        "▁esit",
        -9.557885683440238
      ],
      [
        "▁kalma",
        -9.044041222399077
      ],
      [
        ",",
        -8.852441573951296
      ],
      [
        "▁almayı",
        -10.272585630204368
      ],
      [
        "▁surer",
        -10.361102151171131
      ],
      [
        "▁olay",
        -9.135052108834715
      ],
      [
        "▁sagladı",
        -10.20923717233622
      ],
      [
        "sek",
        -9.754123511426966
      ],
      [
        "▁sukur",
        -10.751251230857829
      ],
      [
        "diler",
        -9.765298234363025
      ],
      [
        "▁yırtı",
        -10.107696355724416
      ],
      [
        "▁balayi",
        -10.074625185229383
      ],
      [
        "▁3/4'",
        -10.688503764642089
      ],
      [
        "▁hut",
        -10.243758723724692
      ],
      [
        "nun",
        -8.07222719056628
      ],
      [
        "▁destan",
        -10.691104916114456
      ],
      [
        "▁love",
        -10.336250372826974
      ],
      [
        "'n",
        -8.730262518553364
      ],
      [
        "▁1.37",
        -10.969679322940435
      ],
      [
        "▁tek",
        -7.085450548040491
      ],
      [
        "▁sezonu",
        -10.74683573970022
      ],
      [
        "4",
        -8.951457305826981
      ],
      [
        "mazdı",
        -9.41379194116493
      ],
      [
        "▁yazılı",
        -10.46391039673506
      ],
      [
        "▁olmadıgını",
        -8.755468285150704
      ],
      [
        "▁gosterir",
        -9.725342329544334
      ],
      [
        "▁201",
        -9.176385403819815
      ],
      [
        "▁detroit'",
        -10.283713823053104
      ],
      [
        "▁temsil",
        -9.621943942925537
      ],
      [
        "tı",
        -6.749839283777029
      ],
      [
        "▁gelmis",
        -8.700669212030661
      ],
      [
        "▁ciftlik",
        -10.088064501428857
      ],
      [
        "▁falan",
        -10.016697393565423
      ],
      [
        "▁sirkette",
        -10.088841249233564
      ],
      [
        "▁yuklen",
        -10.09929128274207
      ],
      [
        "▁cuzdan",
        -10.751192213684858
      ],
      [
        "▁yapamaz",
        -10.690489893835451
      ],
      [
        "lerdi",
        -8.214135304055848
      ],
      [
        "▁barıs",
        -9.310786197687534
      ],
      [
        "▁dunyasında",
        -10.625185824800713
      ],
      [
        "egi",
        -8.722547943385237
      ],
      [
        "▁diploma",
        -10.884266245513599
      ],
      [
        "dıgı",
        -8.022580511601854
      ],
      [
        "▁orada",
        -7.788164888452199
      ],
      [
        "▁rusvet",
        -10.751310696980752
      ],
      [
        "▁bosal",
        -9.707683699954686
      ],
      [
        "▁mo",
        -9.075058737263383
      ],
      [
        "▁yumusa",
        -10.326136230714043
      ],
      [
        "▁seviyesin",
        -9.186170296441407
      ],
      [
        "▁%9.6",
        -12.104486163788296
      ],
      [
        "tik",
        -8.436045251048963
      ],
      [
        "▁ileride",
        -10.417178041350896
      ],
      [
        "▁cal",
        -8.947290096899266
      ],
      [
        "▁oner",
        -9.021962272854509
      ],
      [
        "▁big",
        -10.26392929260089
      ],
      [
        "▁uygulamaları",
        -10.446648590037391
      ],
      [
        "ber",
        -9.082771514296471
      ],
      [
        "▁niyeti",
        -10.508182833922048
      ],
      [
        "▁kurtuldu",
        -10.639481505497729
      ],
      [
        "mus",
        -9.456633748399645
      ],
      [
        "▁ugur",
        -9.550419904953786
      ],
      [
        "layacak",
        -9.37328612597204
      ],
      [
        "▁dogma",
        -10.68892057957281
      ],
      [
        "▁bi",
        -9.71364828622677
      ],
      [
        "96",
        -10.048646118105914
      ],
      [
        "▁sozlerini",
        -10.422047786328767
      ],
      [
        "larda",
        -7.428870809801358
      ],
      [
        "▁ediyordu",
        -8.991344637235242
      ],
      [
        "▁4.2",
        -9.925145185427215
      ],
      [
        "ret",
        -9.097056904627987
      ],
      [
        "▁yasak",
        -9.401099244850752
      ],
      [
        "ydı",
        -10.034324810756512
      ],
      [
        "▁etmez",
        -9.669292575286892
      ],
      [
        "▁ardı",
        -9.451458198429824
      ],
      [
        "▁simsek",
        -10.817903602717434
      ],
      [
        "zat",
        -10.273225789937392
      ],
      [
        "▁ayrılı",
        -9.10626722055059
      ],
      [
        "▁ellerini",
        -9.667601177731104
      ],
      [
        "d",
        -5.077362734358636
      ],
      [
        "▁bunda",
        -7.528333776484611
      ],
      [
        "y'",
        -10.006728525881115
      ],
      [
        "▁ceki",
        -9.33598492451205
      ],
      [
        "▁yaz",
        -8.082605247274337
      ],
      [
        "▁basım",
        -9.558068966022633
      ],
      [
        "▁bolunme",
        -10.574203692393166
      ],
      [
        "▁sayı",
        -9.041458915203924
      ],
      [
        "▁kullanıcı",
        -10.523070864669481
      ],
      [
        "▁sebep",
        -9.192530954076423
      ],
      [
        "'te",
        -9.34698740237014
      ],
      [
        "▁mor",
        -9.254979685240937
      ],
      [
        "▁karabiber",
        -10.471493632214138
      ],
      [
        "▁hap",
        -9.662917481172016
      ],
      [
        "▁dolu",
        -8.372847081525235
      ],
      [
        "▁damar",
        -9.900057270344899
      ],
      [
        "▁1988'de",
        -10.42392562932005
      ],
      [
        "▁2.",
        -8.831592292554625
      ],
      [
        "▁bulur",
        -9.711338200874819
      ],
      [
        "mustu",
        -8.484919017961232
      ],
      [
        "▁incecik",
        -10.631055944487477
      ],
      [
        "▁tık",
        -9.434374813701297
      ],
      [
        "▁soyluyor",
        -8.133163427962533
      ],
      [
        "▁icin",
        -8.758185516859182
      ],
      [
        "▁ayrı",
        -8.424465332993629
      ],
      [
        "▁kuvvet",
        -9.18665047708774
      ],
      [
        "de",
        -10.031639799785589
      ],
      [
        "▁temmuz",
        -9.124718223904303
      ],
      [
        "▁diyordu",
        -10.176130968675512
      ],
      [
        "▁cihan",
        -10.295850735011053
      ],
      [
        "▁poli",
        -10.32524015523033
      ],
      [
        "▁6.6",
        -10.9094710982956
      ],
      [
        "▁yigit",
        -10.817671180152827
      ],
      [
        "▁bas",
        -7.5176880265381145
      ],
      [
        "lıgı",
        -7.403067691316598
      ],
      [
        "▁altın",
        -8.051861268165116
      ],
      [
        "lardan",
        -7.707889657614044
      ],
      [
        "▁beklen",
        -9.885151863446886
      ],
      [
        "▁alcal",
        -10.832376363993697
      ],
      [
        "▁yerles",
        -9.604068630305413
      ],
      [
        "▁wall",
        -9.12891520665005
      ],
      [
        "▁nazik",
        -10.01255710222998
      ],
      [
        "▁fi",
        -9.092872102471475
      ],
      [
        "▁gorev",
        -8.573804851928985
      ],
      [
        "▁dunya",
        -7.483605671323565
      ],
      [
        "bel",
        -9.679375237681453
      ],
      [
        "▁1989-1",
        -12.004265881336059
      ],
      [
        "▁soylendi",
        -10.553675997104365
      ],
      [
        "▁itibariyle",
        -9.951606389345182
      ],
      [
        "▁bicimde",
        -9.702513815001838
      ],
      [
        "▁baca",
        -10.43015296625249
      ],
      [
        "▁sars",
        -9.860116580465338
      ],
      [
        "▁altında",
        -7.876964381693434
      ],
      [
        "90",
        -11.08298317323459
      ],
      [
        "▁yun",
        -9.993083304682338
      ],
      [
        "kın",
        -10.080077306966285
      ],
      [
        "▁dısarı",
        -9.10799117227372
      ],
      [
        "▁fabrikası",
        -10.55148326807284
      ],
      [
        "i",
        -4.718025866868599
      ],
      [
        "▁%7.9",
        -11.92034951596998
      ],
      [
        "▁ocak",
        -8.97620279041422
      ],
      [
        "▁lezzetli",
        -8.421223796641424
      ],
      [
        "dokuz.",
        -10.912069309067547
      ],
      [
        "▁bulut",
        -9.591568360820974
      ],
      [
        "midi",
        -10.234213056908338
      ],
      [
        "ılmaya",
        -10.65181092951927
      ],
      [
        "▁yaklastı",
        -10.240737446863324
      ],
      [
        "▁cocukları",
        -9.419174915749126
      ],
      [
        "▁tecrube",
        -10.107578943576684
      ],
      [
        "on",
        -6.971099666334458
      ],
      [
        "▁oray",
        -9.790235082042276
      ],
      [
        "▁vucudu",
        -9.763405575413556
      ],
      [
        "51",
        -10.981441885772222
      ],
      [
        "ell",
        -9.308821838640654
      ],
      [
        "▁dusme",
        -9.535105067407677
      ],
      [
        "▁taklit",
        -10.521635231203906
      ],
      [
        "48",
        -10.060704301262783
      ],
      [
        "▁harita",
        -10.471574494777894
      ],
      [
        "625",
        -9.9510386817464
      ],
      [
        "▁dinleme",
        -10.419725538239813
      ],
      [
        "▁abart",
        -10.472149980046755
      ],
      [
        "▁disinda",
        -10.575538722966826
      ],
      [
        "▁gaf",
        -10.638670204668955
      ],
      [
        "▁gosteriyor",
        -9.034095944266793
      ],
      [
        "sana",
        -10.379928442631538
      ],
      [
        "▁sehre",
        -10.334941681418496
      ],
      [
        "▁sar",
        -8.64171566300738
      ],
      [
        "▁artır",
        -9.552223993987035
      ],
      [
        "▁saclarını",
        -10.028587946606573
      ],
      [
        "▁goruyor",
        -9.167890586067948
      ],
      [
        "den",
        -5.571223649519611
      ],
      [
        "▁kolunu",
        -10.58972488019402
      ],
      [
        "▁sokaklarda",
        -10.70237922706975
      ],
      [
        "▁edip",
        -9.13000508420356
      ],
      [
        "0000",
        -8.492798317148372
      ],
      [
        "▁%99",
        -11.810224773061272
      ],
      [
        "▁mektup",
        -9.40602923949265
      ],
      [
        "▁daire",
        -9.576204338434135
      ],
      [
        "▁10",
        -6.062677737991037
      ],
      [
        "▁basarısız",
        -9.90836686087216
      ],
      [
        "▁ısık",
        -8.97954773251584
      ],
      [
        "▁pe",
        -8.642429134861015
      ],
      [
        "▁bekledigini",
        -10.339875381147328
      ],
      [
        "▁ısıl",
        -10.427403669964907
      ],
      [
        "▁yapılma",
        -9.981869464687122
      ],
      [
        "▁edecegini",
        -9.927876721749636
      ],
      [
        "▁yedi",
        -7.304109590298603
      ],
      [
        "▁cıkı",
        -9.305386909913253
      ],
      [
        "▁tavrı",
        -10.339296273854304
      ],
      [
        "▁kalkan",
        -7.754098524481259
      ],
      [
        "▁36",
        -9.558374476628076
      ],
      [
        "▁kongre",
        -9.031880511532515
      ],
      [
        "▁karısık",
        -9.433208391664591
      ],
      [
        "▁b.",
        -10.640520674321765
      ],
      [
        "▁tablo",
        -9.841445297983942
      ],
      [
        "▁olacagını",
        -9.063567740973012
      ],
      [
        "▁epey",
        -9.69657322225779
      ],
      [
        "e",
        -3.49719760532998
      ],
      [
        "▁genelkurmay",
        -10.88909898688363
      ],
      [
        "lerimizi",
        -9.372266647005711
      ],
      [
        "▁serbest",
        -9.493802604054965
      ],
      [
        "▁beklenmedi",
        -10.61063992242331
      ],
      [
        "▁karton",
        -10.762625880207509
      ],
      [
        "▁reis",
        -10.567193806890094
      ],
      [
        "koy",
        -10.135637094859938
      ],
      [
        "▁canlandır",
        -10.617564790991793
      ],
      [
        "▁uc",
        -5.602242368294277
      ],
      [
        "▁once",
        -7.263909973176916
      ],
      [
        "▁dusunu",
        -10.636733319200289
      ],
      [
        "▁demokrat",
        -9.840883721347229
      ],
      [
        "▁olagan",
        -10.424036160066033
      ],
      [
        "▁sansur",
        -10.818289390575664
      ],
      [
        "▁isler",
        -9.168560076045514
      ],
      [
        "▁ali'",
        -10.867877428873179
      ],
      [
        "baska",
        -10.751556531041588
      ],
      [
        "▁golge",
        -9.104153063061126
      ],
      [
        "▁28",
        -8.315177721371974
      ],
      [
        "▁tenis",
        -10.818012556499813
      ],
      [
        "53",
        -10.073599951881592
      ],
      [
        "▁hayatın",
        -9.397614226592012
      ],
      [
        "▁uydur",
        -10.18209655025352
      ],
      [
        "▁patron",
        -10.378584768638312
      ],
      [
        "elim",
        -9.057787550949875
      ],
      [
        "▁konumu",
        -7.336623383231342
      ],
      [
        "am",
        -10.132659638535351
      ],
      [
        "▁dogu",
        -8.640342676374663
      ],
      [
        "▁kaldıgı",
        -9.748136683210614
      ],
      [
        "▁doktu",
        -10.34364708184075
      ],
      [
        "▁konularda",
        -10.537847894359965
      ],
      [
        "▁yunus",
        -10.472169621210677
      ],
      [
        "▁muyu",
        -10.596733413887762
      ],
      [
        "▁1.0",
        -9.508508305454084
      ],
      [
        "▁bırakma",
        -9.307996760206116
      ],
      [
        "▁ayır",
        -9.25679705890739
      ],
      [
        "▁saban",
        -10.751302569172523
      ],
      [
        "▁oyun",
        -8.670854883900706
      ],
      [
        "▁yuvarla",
        -9.89720625748673
      ],
      [
        "▁diplomat",
        -10.822200225695894
      ],
      [
        "▁sekreter",
        -9.951023536822312
      ],
      [
        "▁baglıdır",
        -10.639700967777555
      ],
      [
        "▁yarısı",
        -9.924809070064459
      ],
      [
        "▁mikro",
        -10.04200366407789
      ],
      [
        "bir",
        -5.321339535278412
      ],
      [
        "▁yelken",
        -10.473354158724533
      ],
      [
        "alım",
        -8.367073362775784
      ],
      [
        "▁%3.7",
        -11.920921912011623
      ],
      [
        "▁265",
        -10.460843441290223
      ],
      [
        "▁114",
        -10.588855785869924
      ],
      [
        "▁isteyen",
        -9.373651763207896
      ],
      [
        "▁baskasın",
        -10.571241141865308
      ],
      [
        "▁calısmaları",
        -10.007567047346729
      ],
      [
        "▁aramızda",
        -10.522709825876971
      ],
      [
        "▁acılıs",
        -10.344554587304081
      ],
      [
        "▁475000",
        -11.00794604535869
      ],
      [
        "▁git",
        -9.11154024213165
      ],
      [
        "▁gir",
        -9.43214881021535
      ],
      [
        "▁maddi",
        -10.629715492574014
      ],
      [
        "▁mesafe",
        -9.867654435841335
      ],
      [
        "meli",
        -9.093973970450724
      ],
      [
        "▁medeniyet",
        -10.293476932771544
      ],
      [
        "7.4",
        -10.58917267964815
      ],
      [
        "88",
        -9.66945625613069
      ],
      [
        "▁hele",
        -10.042198059360931
      ],
      [
        "▁florida'",
        -10.841988043694776
      ],
      [
        "▁senedi",
        -8.297590576164787
      ],
      [
        "▁deniz",
        -7.382472481215862
      ],
      [
        "▁karar",
        -7.873344736235834
      ],
      [
        "▁alay",
        -9.605199337418842
      ],
      [
        "▁a",
        -7.855699585449223
      ],
      [
        "▁ets",
        -9.227510924271202
      ],
      [
        "▁seans",
        -10.81985366006688
      ],
      [
        "▁baslık",
        -10.318203054938023
      ],
      [
        "▁olmuyor",
        -9.77997361042585
      ],
      [
        "▁divan",
        -10.471721782783545
      ],
      [
        "▁tutar",
        -9.139210554372628
      ],
      [
        "degil",
        -8.602188547895151
      ],
      [
        "▁yetersiz",
        -8.126202844061797
      ],
      [
        "▁cocukların",
        -9.73247696236555
      ],
      [
        "▁kanadı",
        -10.522056304214644
      ],
      [
        "▁deney",
        -9.58522356082658
      ],
      [
        "▁fonlar",
        -9.761212066301841
      ],
      [
        "ya",
        -5.177597221399276
      ],
      [
        "▁ayag",
        -9.800697108378197
      ],
      [
        "etti",
        -10.04761359095701
      ],
      [
        "▁siiri",
        -10.468399213316959
      ],
      [
        "▁philadelphia'",
        -8.051030299046827
      ],
      [
        "▁icerisinde",
        -9.42638300084348
      ],
      [
        "▁ilgisizdi",
        -10.015333995335295
      ],
      [
        "▁yazar",
        -8.395601005599557
      ],
      [
        "▁tartısma",
        -9.109870579422633
      ],
      [
        "▁baslayacak",
        -9.924494816000124
      ],
      [
        "iyet",
        -8.54268309006902
      ],
      [
        "▁halkı",
        -9.732760809574799
      ],
      [
        "▁q",
        -10.006129207631517
      ],
      [
        "78",
        -10.462843521678048
      ],
      [
        "amıyoru",
        -10.341658109428028
      ],
      [
        "gımız",
        -9.686128349057217
      ],
      [
        "▁devletin",
        -9.707562343020863
      ],
      [
        "▁anlasılıyor",
        -10.751006228289622
      ],
      [
        "▁sahil",
        -10.139925319846723
      ],
      [
        "sar",
        -9.521658945173073
      ],
      [
        "▁sartları",
        -10.310928748584317
      ],
      [
        "▁ayak",
        -8.658081985692505
      ],
      [
        "▁9",
        -10.043440128669296
      ],
      [
        "▁haberleri",
        -10.359128556442617
      ],
      [
        "1.5",
        -10.363340149990353
      ],
      [
        "▁belirtiyor",
        -10.432394201028128
      ],
      [
        "▁sachs",
        -10.88912602226459
      ],
      [
        "▁gider",
        -8.284973476867268
      ],
      [
        "▁cekmek",
        -10.045694419251838
      ],
      [
        "▁inani",
        -10.416247113452288
      ],
      [
        "▁yakıs",
        -10.335025145317452
      ],
      [
        "▁rast",
        -9.360960374288947
      ],
      [
        "▁vegas'ta",
        -9.842727158641079
      ],
      [
        "muz",
        -9.393994017389765
      ],
      [
        "▁arttırma",
        -10.874604160604251
      ],
      [
        "▁kotuy",
        -8.377229709969175
      ],
      [
        "▁tuy",
        -9.948209413529359
      ],
      [
        "▁bosa",
        -9.966386632322504
      ],
      [
        "▁set",
        -10.508005306710583
      ],
      [
        "▁ucusların",
        -9.264626586058682
      ],
      [
        "▁takvim",
        -10.889168988892845
      ],
      [
        "▁arttı",
        -8.861492183634809
      ],
      [
        "▁klasik",
        -10.214814908017996
      ],
      [
        ".60",
        -10.955725625320385
      ],
      [
        "▁yorgun",
        -9.511247548353214
      ],
      [
        "▁yemek",
        -7.79085926012652
      ],
      [
        "▁buyu",
        -8.98160465913005
      ],
      [
        "▁ustelik",
        -9.697816929728463
      ],
      [
        "degili",
        -11.009634623297783
      ],
      [
        "▁inc",
        -9.008309588701914
      ],
      [
        "▁philadelphia'da",
        -8.321885637313759
      ],
      [
        "▁insanoglu",
        -10.754724459120874
      ],
      [
        "rası",
        -10.607892597440218
      ],
      [
        "▁tahammul",
        -10.751003761774106
      ],
      [
        "ce",
        -6.058259285164985
      ],
      [
        "▁yoksun",
        -10.192114281947237
      ],
      [
        "▁baglantılı",
        -10.432368034540835
      ],
      [
        "lanacak",
        -9.990723319922578
      ],
      [
        "▁genclik",
        -10.353582183443738
      ],
      [
        "▁sayılır",
        -10.374659598834864
      ],
      [
        "▁almanya'da",
        -10.416750735898978
      ],
      [
        "oksa",
        -8.161319445537565
      ],
      [
        "▁vakfı",
        -10.751013237098771
      ],
      [
        "memisti",
        -9.95708797926328
      ],
      [
        "▁oyuncular",
        -10.114788603181687
      ],
      [
        "▁yavas",
        -8.241825602409854
      ],
      [
        "▁bilmedigi",
        -10.512288110917174
      ],
      [
        "▁kurban",
        -9.631351096925671
      ],
      [
        "▁hayalet",
        -10.382583901190129
      ],
      [
        "▁mali",
        -8.625844991628487
      ],
      [
        "▁olmustu",
        -8.808092840118011
      ],
      [
        "▁194",
        -9.43256255240131
      ],
      [
        "▁yu",
        -9.941940758310539
      ],
      [
        "▁7.2",
        -10.324098996964956
      ],
      [
        "66",
        -10.362475678085072
      ],
      [
        "▁yıldırım",
        -10.822943637390514
      ],
      [
        "▁fiyatin",
        -9.419402116717663
      ],
      [
        "rate",
        -10.047948446593583
      ],
      [
        "▁kurulan",
        -10.281288516542855
      ],
      [
        "▁teori",
        -9.790779089937436
      ],
      [
        "▁kazanmıs",
        -10.50618676451692
      ],
      [
        "▁ucusun",
        -9.71990021734492
      ],
      [
        "▁yılın",
        -8.890631012186802
      ],
      [
        "▁sek",
        -9.91414496179247
      ],
      [
        "▁istedigimi",
        -10.610228298766032
      ],
      [
        "▁zor",
        -8.145727617155202
      ],
      [
        "▁biter",
        -10.698242705417469
      ],
      [
        "▁huzun",
        -10.521520197839832
      ],
      [
        "▁cevre",
        -8.530946421317125
      ],
      [
        "su",
        -8.88001573295357
      ],
      [
        "▁dallas'ta",
        -8.122504655281062
      ],
      [
        "ullah",
        -10.48763360295693
      ],
      [
        "▁karın",
        -9.783425189487756
      ],
      [
        "▁gecmiste",
        -10.099971642201774
      ],
      [
        "unun",
        -8.330675715180526
      ],
      [
        "99",
        -10.866053962672542
      ],
      [
        "han",
        -8.645886306000369
      ],
      [
        "▁ayse",
        -9.56426383163425
      ],
      [
        "▁resmi",
        -8.912179447313296
      ],
      [
        "▁acenta",
        -10.629735486346773
      ],
      [
        "bur",
        -9.764709621168153
      ],
      [
        "▁mesel",
        -10.289605420720289
      ],
      [
        "▁pencere",
        -8.821858771539045
      ],
      [
        "▁atar",
        -9.997167527748621
      ],
      [
        "▁musterileri",
        -9.929478883392898
      ],
      [
        "▁yapılıyor",
        -10.295215237758443
      ],
      [
        "28",
        -10.4711976101024
      ],
      [
        "▁kesin",
        -9.402827069345463
      ],
      [
        "tur",
        -8.376133534443191
      ],
      [
        "▁yaptıkları",
        -10.270694370934352
      ],
      [
        "▁-",
        -9.791300196481245
      ],
      [
        "▁bacak",
        -9.671229708175153
      ],
      [
        "▁reform",
        -9.719287888009314
      ],
      [
        "amaz",
        -9.01581716719382
      ],
      [
        "▁12",
        -10.433726382552178
      ],
      [
        "▁pirinc",
        -10.142063579906551
      ],
      [
        "▁yumurta",
        -9.475622089425162
      ],
      [
        "▁turlari",
        -10.52828837218223
      ],
      [
        "▁sabahı",
        -8.2640034243705
      ],
      [
        "▁birilerini",
        -9.970179398692402
      ],
      [
        "▁ohio",
        -10.688506974959042
      ],
      [
        "▁ce",
        -10.27969274777005
      ],
      [
        "▁personellerin",
        -9.33382482390607
      ],
      [
        "ligin",
        -8.845434283024076
      ],
      [
        "yesinde",
        -9.64568661941284
      ],
      [
        "▁standart",
        -9.493802367033174
      ],
      [
        "▁bakın",
        -9.591348455598043
      ],
      [
        "acagım",
        -9.110307861537944
      ],
      [
        "o",
        -10.725630651579849
      ],
      [
        "▁levha",
        -10.81790488298806
      ],
      [
        "▁delta",
        -8.751446600849297
      ],
      [
        "▁destekleme",
        -10.447706379706
      ],
      [
        "▁ima",
        -9.664257072680245
      ],
      [
        "▁sok",
        -8.939135169417433
      ],
      [
        "▁agacı",
        -10.342310692432351
      ],
      [
        "▁fabrika",
        -9.160273693567914
      ],
      [
        "▁minneapolis'te",
        -10.165455948144837
      ],
      [
        "▁attıgı",
        -10.267146145564965
      ],
      [
        "tı",
        -9.880362748676852
      ],
      [
        "▁niha",
        -9.896188275275598
      ],
      [
        "uldu",
        -9.557314781341649
      ],
      [
        "'a",
        -7.888843243050994
      ],
      [
        "▁utanc",
        -10.526398240745834
      ],
      [
        "▁yurt",
        -9.22218737192734
      ],
      [
        "▁parca",
        -8.569789253535468
      ],
      [
        "▁asıl",
        -8.971612475065221
      ],
      [
        "▁kazanan",
        -10.017275392185455
      ],
      [
        "▁devam",
        -7.635577385255431
      ],
      [
        "nız",
        -8.635564710733671
      ],
      [
        "▁indianapolis'te",
        -9.370243856601704
      ],
      [
        "▁vakti",
        -9.265255367419975
      ],
      [
        "▁sakın",
        -9.763092617659156
      ],
      [
        "▁menkul",
        -8.176350205374868
      ],
      [
        "▁cu",
        -12.83005444385433
      ],
      [
        "▁teminat",
        -9.674590808420582
      ],
      [
        "▁serin",
        -9.734680671293923
      ],
      [
        "▁zat",
        -8.50846839387884
      ],
      [
        "▁dag",
        -8.908481372573647
      ],
      [
        "▁noriega",
        -10.856710693969616
      ],
      [
        "▁atlat",
        -10.432551161295958
      ],
      [
        "▁ikibinuc",
        -9.483628766956455
      ],
      [
        "▁olanaklari",
        -8.99777471499169
      ],
      [
        "▁sey",
        -6.478438447907615
      ],
      [
        "▁baglan",
        -9.757014404908798
      ],
      [
        "arı",
        -9.182295171636294
      ],
      [
        "▁durdurma",
        -10.75665735007213
      ],
      [
        "▁andır",
        -10.030061472919417
      ],
      [
        "▁elektrik",
        -9.067165038421745
      ],
      [
        "▁fransa",
        -10.652944640428334
      ],
      [
        "▁borsada",
        -10.581712835319141
      ],
      [
        "▁sıcak",
        -8.611010828119735
      ],
      [
        "▁sayılı",
        -10.244030105611127
      ],
      [
        "▁oray",
        -9.971739109756703
      ],
      [
        "▁metin",
        -10.452619407090808
      ],
      [
        "▁bog",
        -9.188023676163608
      ],
      [
        "▁ny",
        -9.890419351754398
      ],
      [
        "▁sp",
        -9.415372051541251
      ],
      [
        "%7.",
        -14.190853728377771
      ],
      [
        "karsı",
        -9.963012849439925
      ],
      [
        "▁taze",
        -9.265902460458332
      ],
      [
        "▁ayda",
        -10.01045466488932
      ],
      [
        "▁olgu",
        -9.648678895414585
      ],
      [
        "▁ara",
        -7.728826893909262
      ],
      [
        "▁b",
        -5.969960014838198
      ],
      [
        "▁kemal",
        -9.024812576087424
      ],
      [
        "▁karsila",
        -10.777129186352228
      ],
      [
        "▁dahil",
        -8.748036090645808
      ],
      [
        "h",
        -7.700124458784982
      ],
      [
        "▁ata",
        -9.183354449307148
      ],
      [
        "▁safha",
        -10.630682000346418
      ],
      [
        "▁personel",
        -7.293491105750211
      ],
      [
        "▁pek",
        -7.458171528806968
      ],
      [
        "▁international'",
        -10.566444100016906
      ],
      [
        "▁group",
        -10.471494681900719
      ],
      [
        "▁icten",
        -10.26352372437644
      ],
      [
        "▁kazan",
        -8.560448039977574
      ],
      [
        "▁bankası",
        -9.51698621708375
      ],
      [
        "▁yardımcı",
        -8.833802871367839
      ],
      [
        "acak",
        -7.213087048700484
      ],
      [
        "▁edilmisti",
        -10.330412560997257
      ],
      [
        "▁12.3",
        -10.727846952397698
      ],
      [
        "▁hakkındaki",
        -10.136037164339585
      ],
      [
        "▁ilgi",
        -8.16975715295004
      ],
      [
        "▁bagımsız",
        -9.44025535767904
      ],
      [
        "kırk",
        -10.654917249295902
      ],
      [
        "▁mısır",
        -9.570072578232137
      ],
      [
        "▁kat",
        -7.842788133533067
      ],
      [
        "▁bozuk",
        -9.841845264130708
      ],
      [
        "▁vegas'",
        -9.242427447389609
      ],
      [
        "▁dıs",
        -10.130262604639288
      ],
      [
        "▁indirim",
        -9.53540365213223
      ],
      [
        "▁ruya",
        -9.34399147470092
      ],
      [
        "▁komisyoncu",
        -10.712110030152346
      ],
      [
        "▁vah",
        -9.613085966710404
      ],
      [
        "▁inc.",
        -9.03798679024666
      ],
      [
        "▁ytl",
        -10.889125429626056
      ],
      [
        "▁yıgın",
        -9.912869772052478
      ],
      [
        "yirmi",
        -10.79247710181405
      ],
      [
        "▁alamıyor",
        -10.888660775641355
      ],
      [
        "una",
        -8.648437351262054
      ],
      [
        "▁asırı",
        -9.11852784519338
      ],
      [
        "▁yuk",
        -9.327703086115484
      ],
      [
        "▁isciler",
        -9.951691801738807
      ],
      [
        "▁harikayd",
        -9.892752578540218
      ],
      [
        "▁verici",
        -9.572130530490364
      ],
      [
        "▁kullanıl",
        -9.091113408852426
      ],
      [
        "▁securit",
        -10.574133041990933
      ],
      [
        "diklerini",
        -10.28276262081831
      ],
      [
        "▁rolu",
        -9.891337025075929
      ],
      [
        "▁jaguar",
        -9.74248994727827
      ],
      [
        "▁topladı",
        -10.418839976477457
      ],
      [
        "▁sosyalist",
        -10.630311601433593
      ],
      [
        "▁olan",
        -8.129043926954479
      ],
      [
        "▁havalimanı'nda",
        -10.629789944177507
      ],
      [
        "▁aday",
        -9.592293676944857
      ],
      [
        "▁kahvalti",
        -9.400825440841146
      ],
      [
        "▁adam",
        -7.315622935318723
      ],
      [
        "▁197",
        -9.027229195716874
      ],
      [
        "▁north",
        -9.531240554190816
      ],
      [
        "▁9",
        -8.11153621398303
      ],
      [
        "▁degerinde",
        -9.97698122255279
      ],
      [
        "▁memlekette",
        -10.762387909010766
      ],
      [
        "▁katilmadi",
        -10.287119450927655
      ],
      [
        "▁sofra",
        -9.406030018293515
      ],
      [
        "▁darbuka",
        -10.574125619551252
      ],
      [
        "ını",
        -7.066160750082708
      ],
      [
        "▁kaynaklana",
        -10.498160407508479
      ],
      [
        "im",
        -6.9020839104115534
      ],
      [
        "▁yurutme",
        -10.57502692624814
      ],
      [
        "▁cephe",
        -10.107606246438358
      ],
      [
        "▁burası",
        -9.884453531477517
      ],
      [
        "▁iscileri",
        -10.273418774913253
      ],
      [
        "▁acılmıs",
        -10.508273018778178
      ],
      [
        "l",
        -9.263032525714056
      ],
      [
        "▁kırk",
        -7.941980051663087
      ],
      [
        "▁ahır",
        -10.69283367539893
      ],
      [
        "ildi",
        -8.914035533589004
      ],
      [
        "▁bela",
        -10.003833931804824
      ],
      [
        "▁kitle",
        -9.951032865603873
      ],
      [
        "87",
        -9.83586508577357
      ],
      [
        "▁emir",
        -9.459102080348842
      ],
      [
        "▁turkiye'de",
        -9.345182994029965
      ],
      [
        "▁ipotek",
        -9.766299505193459
      ],
      [
        "▁tahvili",
        -10.204038288843881
      ],
      [
        "▁yuksel",
        -8.358763224387788
      ],
      [
        "2.5",
        -9.05423783593148
      ],
      [
        "▁resme",
        -10.010769971554852
      ],
      [
        "▁konferans",
        -10.253274640521024
      ],
      [
        "▁sırasında",
        -9.53357900221595
      ],
      [
        "▁bazi",
        -8.434375528301851
      ],
      [
        "▁tutmak",
        -10.234187984197128
      ],
      [
        "▁un",
        -9.227054490661002
      ],
      [
        "▁edeme",
        -10.295377471198227
      ],
      [
        "▁zahmet",
        -10.574124738869065
      ],
      [
        "▁selam",
        -9.81840824889646
      ],
      [
        "▁kestir",
        -10.39552076599492
      ],
      [
        "▁anlatıyor",
        -10.225161649863548
      ],
      [
        "▁sabun",
        -10.574214424262642
      ],
      [
        "▁aracılıgı",
        -9.895800460374398
      ],
      [
        "▁aqua",
        -10.214813028593895
      ],
      [
        "us",
        -7.905366774980364
      ],
      [
        "lerindeki",
        -9.68335675174458
      ],
      [
        "6.9",
        -10.490354933540225
      ],
      [
        "be",
        -7.837862904171659
      ],
      [
        "▁kırıklıgı",
        -10.146227124762156
      ],
      [
        "▁dur",
        -8.463697207001376
      ],
      [
        "95",
        -9.457815011772302
      ],
      [
        "agı",
        -9.992656147959854
      ],
      [
        "▁heyecan",
        -9.165748199506236
      ],
      [
        "▁onbes",
        -10.616644868922243
      ],
      [
        "▁boyun",
        -9.197555483758903
      ],
      [
        "▁sıcra",
        -10.722864521678616
      ],
      [
        "▁hesab",
        -10.571782717325185
      ],
      [
        "▁alanı",
        -10.13667478408903
      ],
      [
        "▁ulas",
        -8.808042276070003
      ],
      [
        "▁lake",
        -8.769402712778202
      ],
      [
        "▁silah",
        -8.871982715989972
      ],
      [
        "▁kalk",
        -8.898990944089455
      ],
      [
        "▁rota",
        -10.137719178353294
      ],
      [
        "▁hey",
        -9.896551820200996
      ],
      [
        "▁kaldırım",
        -9.845483327737744
      ],
      [
        "▁10.",
        -10.142417948451719
      ],
      [
        "ktan",
        -7.957607770419855
      ],
      [
        "▁olaylar",
        -9.71007097015891
      ],
      [
        "▁sukr",
        -10.82322320417992
      ],
      [
        "1.7",
        -10.932427490878277
      ],
      [
        "yuzseksen",
        -10.322102061271394
      ],
      [
        "▁kuruldu",
        -10.69520776308297
      ],
      [
        "▁planı",
        -9.397366236252369
      ],
      [
        "▁pacific",
        -10.107578943572662
      ],
      [
        "▁cekici",
        -9.985960513430355
      ],
      [
        "▁acmak",
        -10.390258932702697
      ],
      [
        "▁gerek",
        -9.094802343360127
      ],
      [
        "▁yayıncı",
        -10.611533610360663
      ],
      [
        "▁kav",
        -8.717378593026726
      ],
      [
        "▁bakıyordu",
        -9.750072395361812
      ],
      [
        "▁makul",
        -10.379955470427626
      ],
      [
        "mekte",
        -9.58561124895199
      ],
      [
        "▁yaklası",
        -7.751527077944114
      ],
      [
        "▁sesini",
        -10.090799897598945
      ],
      [
        "▁yım",
        -8.74331923090018
      ],
      [
        "y",
        -6.612915594115095
      ],
      [
        "4'te",
        -9.688561657049068
      ],
      [
        "▁vermek",
        -8.564093889660121
      ],
      [
        "▁birbirleri",
        -10.091690509749295
      ],
      [
        "'",
        -7.22494589067983
      ],
      [
        "▁9.8",
        -10.158639728355025
      ],
      [
        "izm",
        -9.416770415692755
      ],
      [
        "198",
        -13.651276886405912
      ],
      [
        "11",
        -12.812006644751335
      ],
      [
        "▁yuruyor",
        -10.653345407976445
      ],
      [
        "▁kayıplar",
        -10.124076839692929
      ],
      [
        "▁kaldı",
        -8.34472827461364
      ],
      [
        "sini",
        -7.094163112955828
      ],
      [
        "▁bagladı",
        -9.967758952938215
      ],
      [
        "▁ugrun",
        -10.471693305897759
      ],
      [
        "▁buku",
        -10.887602199027912
      ],
      [
        ":30",
        -11.315077693448156
      ],
      [
        "▁olma",
        -8.248146990054208
      ],
      [
        "▁zengin",
        -8.532673260543072
      ],
      [
        "▁mal",
        -8.31951874108272
      ],
      [
        "kaya",
        -10.436958962555947
      ],
      [
        "▁vurguladı",
        -10.632166266752241
      ],
      [
        "▁cu",
        -9.97138401281963
      ],
      [
        "▁hicbirin",
        -10.472486812302424
      ],
      [
        "▁etmiyor",
        -9.569390715526428
      ],
      [
        "▁ihracları",
        -10.559673784449414
      ],
      [
        "ut",
        -8.693171139669278
      ],
      [
        "▁mendil",
        -9.951103153900014
      ],
      [
        "32",
        -8.876639540153514
      ],
      [
        "04",
        -10.929346160396829
      ],
      [
        "▁hijyen",
        -10.515990675952636
      ],
      [
        "bindokuzyuz",
        -10.616152285005132
      ],
      [
        "▁sigara",
        -9.079215372639588
      ],
      [
        ":",
        -10.07424561020224
      ],
      [
        "▁ongordu",
        -10.806009280949256
      ],
      [
        "▁giymis",
        -10.37470977119461
      ],
      [
        "▁her",
        -8.00187748027372
      ],
      [
        "▁155",
        -10.621880712506266
      ],
      [
        "▁vakıf",
        -10.423874313832975
      ],
      [
        "▁bakimsiz",
        -10.214824166146926
      ],
      [
        "▁kus",
        -8.660055442751798
      ],
      [
        "▁bufe",
        -9.951097596829259
      ],
      [
        "▁kurtulma",
        -10.190405301639887
      ],
      [
        "▁gelince",
        -9.426209908355585
      ],
      [
        "▁savur",
        -9.996884130717943
      ],
      [
        "▁zarif",
        -10.423992679759277
      ],
      [
        "olar",
        -7.153116283606411
      ],
      [
        "mayacagını",
        -9.656478786409107
      ],
      [
        "▁tanı",
        -8.583795566249574
      ],
      [
        "du",
        -6.383537373424577
      ],
      [
        "▁soyleyebilir",
        -9.868034645740668
      ],
      [
        "▁62",
        -9.493396921642924
      ],
      [
        "9.7",
        -10.820567425992959
      ],
      [
        "▁54",
        -9.86365687298155
      ],
      [
        "el",
        -10.64194359725727
      ],
      [
        "4",
        -9.5754158912283
      ],
      [
        "meyen",
        -9.107896051054789
      ],
      [
        "manın",
        -9.559319113053485
      ],
      [
        "▁haziran'da",
        -9.724899502437088
      ],
      [
        "6.6",
        -9.959554949826867
      ],
      [
        "▁bebek",
        -9.742511144861492
      ],
      [
        "▁cehennem",
        -10.521493084582064
      ],
      [
        "▁korunma",
        -10.590693918007563
      ],
      [
        "▁egitim",
        -8.605464871059318
      ],
      [
        "▁po",
        -8.85550896645185
      ],
      [
        "si",
        -10.840103462583878
      ],
      [
        "▁yolculuk",
        -9.743522578239505
      ],
      [
        "ligi",
        -7.640063061180054
      ],
      [
        "seniz",
        -9.822215895102605
      ],
      [
        "▁lo",
        -8.764482937697466
      ],
      [
        "▁nokta",
        -8.681120617588949
      ],
      [
        "▁konforlu",
        -9.295419573048747
      ],
      [
        "▁ihlal",
        -10.817670933999121
      ],
      [
        "▁ayrılan",
        -10.013916056725668
      ],
      [
        "▁girdigi",
        -10.332355932161942
      ],
      [
        "▁yolun",
        -9.735105898347063
      ],
      [
        "▁tanrı'",
        -10.40060406264804
      ],
      [
        "▁geciriyor",
[...]
