{
  "version": "1.0",
  "truncation": null,
  "padding": null,
  "added_tokens": [
    {
      "id": 5307,
      "content": "[PAD]",
      "single_word": false,
      "lstrip": false,
      "rstrip": false,
      "normalized": false,
      "special": true
    },
    {
      "id": 6095,
      "content": "[UNK]",
      "single_word": false,
      "lstrip": false,
      "rstrip": false,
      "normalized": false,
      "special": true
    },
    {
      "id": 6561,
      "content": "[SEP]",
      "single_word": false,
      "lstrip": false,
      "rstrip": false,
      "normalized": false,
      "special": true
    },
    {
      "id": 10819,
      "content": "[CLS]",
      "single_word": false,
      "lstrip": false,
      "rstrip": false,
      "normalized": false,
      "special": true
    },
    {
      "id": 13297,
      "content": "[MASK]",
      "single_word": false,
      "lstrip": false,
      "rstrip": false,
      "normalized": false,
      "special": true
    }
  ],
  "normalizer": {
    "type": "Sequence",
    "normalizers": [
      {
        "type": "NFD"
      },
      {
        "type": "Lowercase"
      },
      {
        "type": "StripAccents"
      }
    ]
  },
  "pre_tokenizer": {
    "type": "Sequence",
    "pretokenizers": [
      {
        "type": "Metaspace",
        "replacement": "▁",
        "prepend_scheme": "always",
        "split": true
      }
    ]
  },
  "post_processor": {
    "type": "TemplateProcessing",
    "single": [
      {
        "SpecialToken": {
          "id": "[CLS]",
          "type_id": 0
        }
      },
      {
        "Sequence": {
          "id": "A",
          "type_id": 0
        }
      },
      {
        "SpecialToken": {
          "id": "[SEP]",
          "type_id": 0
        }
      }
    ],
    "pair": [
      {
        "SpecialToken": {
          "id": "[CLS]",
          "type_id": 0
        }
      },
      {
        "Sequence": {
          "id": "A",
          "type_id": 0
        }
      },
      {
        "SpecialToken": {
          "id": "[SEP]",
          "type_id": 0
        }
      },
      {
        "Sequence": {
          "id": "B",
          "type_id": 1
        }
      },
      {
        "SpecialToken": {
          "id": "[SEP]",
          "type_id": 1
        }
      }
    ],
    "special_tokens": {
      "[CLS]": {
        "id": "[CLS]",
        "ids": [
          10819
        ],
        "tokens": [
          "[CLS]"
        ]
      },
      "[SEP]": {
        "id": "[SEP]",
        "ids": [
          6561
        ],
        "tokens": [
          "[SEP]"
        ]
      }
    }
  },
  "decoder": {
    "type": "Metaspace",
    "replacement": "▁",
    "prepend_scheme": "always",
    "split": true
  },
  "model": {
    "type": "WordPiece",
    "unk_token": "[UNK]",
    "continuing_subword_prefix": "##",
    "max_input_chars_per_word": 100,
    "vocab": {
      "##mik": 0,
      "▁tahkik": 1,
      "▁cehenn": 2,
      "▁odaya": 3,
      "▁yurdum": 4,
      "▁yakasına": 5,
      "▁efendi": 6,
      "▁verilmis": 7,
      "▁isveren": 8,
      "▁kanunu": 9,
      "##dıgını": 10,
      "▁129": 11,
      "▁kısa": 12,
      "▁bebek": 13,
      "▁yonetiminin": 14,
      "▁sahneye": 15,
      "▁kini": 16,
      "▁cocugu": 17,
      "▁koylerde": 18,
      "▁lill": 19,
      "▁'l": 20,
      "▁ekonomistler": 21,
      "▁gozlu": 22,
      "##amıyor": 23,
      "▁1/8": 24,
      "▁250000": 25,
      "▁gund": 26,
      "▁indianapolis'ten": 27,
      "##'unu": 28,
      "▁yapılı": 29,
      "▁olmamıstı": 30,
      "▁fazlaydi": 31,
      "▁allak": 32,
      "▁fidan": 33,
      "##3": 34,
      "▁emrah": 35,
      "##ikli": 36,
      "▁yetis": 37,
      "▁sikint": 38,
      "▁hızlıca": 39,
      "▁haberleri": 40,
      "▁istemiyorum": 41,
      "▁sevdigim": 42,
      "▁veriyordu": 43,
      "▁elektrikli": 44,
      "▁mich": 45,
      "▁tıb": 46,
      "▁yargı": 47,
      "▁yaslarında": 48,
      "▁kata": 49,
      "▁belirley": 50,
      "▁hissenin": 51,
      "▁miydin": 52,
      "▁ustur": 53,
      "##mesinin": 54,
      "##lugunun": 55,
      "▁alıskan": 56,
      "▁buyukluk": 57,
      "▁ros": 58,
      "▁seye": 59,
      "▁mesaf": 60,
      "▁sarı": 61,
      "##imis": 62,
      "##acagınız": 63,
      "▁perakende": 64,
      "##lerimizi": 65,
      "##deniz": 66,
      "▁profesyonel": 67,
      "▁23": 68,
      "##sler": 69,
      "##”": 70,
      "##mamıs": 71,
      "▁mustes": 72,
      "▁sıra": 73,
      "▁baslık": 74,
      "▁berlin": 75,
      "##asına": 76,
      "▁gorevli": 77,
      "##r.": 78,
      "▁had": 79,
      "▁kamar": 80,
      "▁ko": 81,
      "##rahim": 82,
      "▁alakali": 83,
      "▁ymis": 84,
      "▁burbank'tan": 85,
      "##urlar": 86,
      "##gel": 87,
      "▁okulun": 88,
      "▁gayet": 89,
      "##idir": 90,
      "▁ag": 91,
      "▁deniyor": 92,
      "##imler": 93,
      "▁secur": 94,
      "▁veh": 95,
      "▁orland": 96,
      "▁jose'ye": 97,
      "▁ancak": 98,
      "▁sisman": 99,
      "▁12.5": 100,
      "▁oranı": 101,
      "▁kemik": 102,
      "▁indiana": 103,
      "▁paul": 104,
      "▁halkı": 105,
      "▁eline": 106,
      "##gumu": 107,
      "▁unvan": 108,
      "▁gosterge": 109,
      "▁tanrı'nın": 110,
      "▁kendileri": 111,
      "▁devir": 112,
      "▁muv": 113,
      "▁kursu": 114,
      "##ememis": 115,
      "##4": 116,
      "▁ederdi": 117,
      "▁plas": 118,
      "▁ua": 119,
      "▁kerv": 120,
      "▁iddia": 121,
      "▁amel": 122,
      "▁yıgılmıs": 123,
      "▁yavrusu": 124,
      "▁kapsamlı": 125,
      "##luktan": 126,
      "▁konusmak": 127,
      "▁volkan": 128,
      "▁500": 129,
      "▁canavar": 130,
      "▁pantol": 131,
      "##eme": 132,
      "##ili": 133,
      "▁she": 134,
      "▁19.51": 135,
      "##ur": 136,
      "##ti": 137,
      "##iyorlardı": 138,
      "▁iyisi": 139,
      "▁susuz": 140,
      "▁nori": 141,
      "▁hareketi": 142,
      "##lk": 143,
      "▁22.6": 144,
      "▁bitk": 145,
      "##■": 146,
      "▁isaretleri": 147,
      "▁bulamaz": 148,
      "▁izlen": 149,
      "▁oc": 150,
      "▁ulkeye": 151,
      "▁124": 152,
      "▁yuruyor": 153,
      "▁olabilirdi": 154,
      "▁havayolunun": 155,
      "▁huv": 156,
      "▁hi": 157,
      "##eci": 158,
      "▁fakultesi": 159,
      "▁dis": 160,
      "▁mantıksız": 161,
      "▁itibar": 162,
      "▁dolandır": 163,
      "▁merkeze": 164,
      "▁ayırt": 165,
      "▁kılı": 166,
      "▁muf": 167,
      "▁muthis": 168,
      "▁olumsuzluk": 169,
      "▁bizzat": 170,
      "▁soyle": 171,
      "▁gulunc": 172,
      "▁uygunsuz": 173,
      "▁hane": 174,
      "▁anlattı": 175,
      "▁piskin": 176,
      "▁ayse": 177,
      "▁kahkah": 178,
      "▁beb": 179,
      "▁muzakere": 180,
      "▁balo": 181,
      "▁ahir": 182,
      "▁dagılmıs": 183,
      "▁1.22": 184,
      "▁dogrul": 185,
      "##sak": 186,
      "▁beyg": 187,
      "▁kuvvetleri": 188,
      "▁bunu": 189,
      "##5.": 190,
      "▁kagıda": 191,
      "▁piyasa": 192,
      "▁merdivenleri": 193,
      "##hem": 194,
      "r": 195,
      "▁idi": 196,
      "▁sasırtıcı": 197,
      "▁araya": 198,
      "##ibet": 199,
      "▁indi": 200,
      "▁karsılık": 201,
      "##mustur": 202,
      "##aj": 203,
      "##nam": 204,
      "▁bell": 205,
      "▁gecirdik": 206,
      "##lemeye": 207,
      "▁yurek": 208,
      "▁katilmadim": 209,
      "##eyrek": 210,
      "▁1500": 211,
      "##38": 212,
      "▁hava": 213,
      "▁gosterdi": 214,
      "▁milletvek": 215,
      "▁yumurta": 216,
      "▁geldik": 217,
      "▁gostermis": 218,
      "▁not": 219,
      "##ulup": 220,
      "▁5.8": 221,
      "##ırlar": 222,
      "▁cır": 223,
      "▁toh": 224,
      "▁sım": 225,
      "▁planlar": 226,
      "▁merksamer": 227,
      "##rol": 228,
      "##emey": 229,
      "▁gozlerim": 230,
      "▁rak": 231,
      "▁ihtilal": 232,
      "▁adamının": 233,
      "▁eastern'in": 234,
      "##ıldım": 235,
      "▁alanı": 236,
      "▁lin": 237,
      "▁simdiki": 238,
      "▁pesinde": 239,
      "▁takv": 240,
      "▁)": 241,
      "▁ilgin": 242,
      "▁onunu": 243,
      "▁eris": 244,
      "▁olusturmak": 245,
      "▁yemeklerden": 246,
      "▁ugruna": 247,
      "▁halbu": 248,
      "▁sul": 249,
      "▁ex": 250,
      "▁savur": 251,
      "▁edilm": 252,
      "##liydi": 253,
      "▁yaklasım": 254,
      "▁okuma": 255,
      "▁fot": 256,
      "##bilir": 257,
      "▁zeytin": 258,
      "▁kızın": 259,
      "w": 260,
      "▁uzakti": 261,
      "▁doktorlar": 262,
      "▁aldik": 263,
      "##ırk": 264,
      "▁toplum": 265,
      "▁ihtil": 266,
      "▁gosterebilir": 267,
      "▁taahh": 268,
      "▁millet": 269,
      "##han": 270,
      "▁kabul": 271,
      "▁suphe": 272,
      "▁denizci": 273,
      "▁ucurt": 274,
      "▁gas": 275,
      "▁samimiyet": 276,
      "▁chat": 277,
      "▁takılmıs": 278,
      "▁columbus'a": 279,
      "▁oyley": 280,
      "▁tavır": 281,
      "▁ellerini": 282,
      "▁otlar": 283,
      "▁1.21": 284,
      "▁unis": 285,
      "▁4.5": 286,
      "▁izledi": 287,
      "▁icme": 288,
      "▁organ": 289,
      "▁enf": 290,
      "▁yalan": 291,
      "▁fa": 292,
      "##amıyordu": 293,
      "▁ozenle": 294,
      "▁arkadan": 295,
      "▁nobet": 296,
      "▁aydan": 297,
      "##iles": 298,
      "▁wh": 299,
      "▁depr": 300,
      "##per": 301,
      "▁tane": 302,
      "▁ikiyuzkırkyedi": 303,
      "▁630": 304,
      "▁hayvanlar": 305,
      "▁oglan": 306,
      "▁renkli": 307,
      "▁toplantıs": 308,
      "▁patlat": 309,
      "▁arkasındaki": 310,
      "▁161.5": 311,
      "▁gercek": 312,
      "▁geldiginde": 313,
      "▁=": 314,
      "▁muhareb": 315,
      "▁donald": 316,
      "▁belirterek": 317,
      "▁yanlis": 318,
      "▁seda": 319,
      "▁bilgis": 320,
      "▁tırn": 321,
      "▁aydınlık": 322,
      "##say": 323,
      "▁sebeb": 324,
      "##375": 325,
      "▁sahibinin": 326,
      "▁kalabalıgı": 327,
      "▁iyiye": 328,
      "▁sehrinden": 329,
      "▁kıdemli": 330,
      "▁aracları": 331,
      "▁polonya": 332,
      "▁bilgili": 333,
      "▁66": 334,
      "▁11:5": 335,
      "▁turgut": 336,
      "▁worth'a": 337,
      "##..": 338,
      "▁hayata": 339,
      "##malarını": 340,
      "##lılıgını": 341,
      "##atır": 342,
      "▁bosan": 343,
      "▁rall": 344,
      "▁numar": 345,
      "▁gittigim": 346,
      "▁avukat": 347,
      "▁ba": 348,
      "▁dantel": 349,
      "##er'in": 350,
      "##ıldıgında": 351,
      "▁kor": 352,
      "▁denizciler": 353,
      "##anoz": 354,
      "▁sh": 355,
      "##ununun": 356,
      "##oci": 357,
      "▁duzenley": 358,
      "##b.": 359,
      "▁gurult": 360,
      "▁84": 361,
      "▁performansı": 362,
      "▁vurur": 363,
      "▁donemlerinde": 364,
      "▁hararet": 365,
      "▁kuram": 366,
      "▁arb": 367,
      "▁kr": 368,
      "▁baglantı": 369,
      "▁binaen": 370,
      "▁first": 371,
      "▁muhar": 372,
      "##alı": 373,
      "▁vaktim": 374,
      "▁tiyatr": 375,
      "▁yoneticiler": 376,
      "▁pom": 377,
      "##endir": 378,
      "▁sukun": 379,
      "▁kazanclar": 380,
      "▁teseb": 381,
      "▁kendim": 382,
      "▁ithalatı": 383,
      "▁acıga": 384,
      "##-merkezli": 385,
      "▁kh": 386,
      "▁yaratıcı": 387,
      "▁ayrılıp": 388,
      "▁19.9": 389,
      "##ebilir": 390,
      "##emden": 391,
      "▁yurutme": 392,
      "▁sav": 393,
      "▁tadına": 394,
      "▁tarlayı": 395,
      "▁yaptıgı": 396,
      "▁desen": 397,
      "▁sınıfı": 398,
      "##onom": 399,
      "##rir": 400,
      "▁doktorların": 401,
      "▁incecik": 402,
      "▁verilir": 403,
      "▁oldug": 404,
      "##sadı": 405,
      "▁'li": 406,
      "▁baktım": 407,
      "▁iciniz": 408,
      "▁analizciler": 409,
      "▁koyu": 410,
      "▁tasımacılıgı": 411,
      "▁otobus": 412,
      "▁bozuk": 413,
      "▁corb": 414,
      "##63": 415,
      "▁yapabilir": 416,
      "▁yıllar": 417,
      "▁psikolojik": 418,
      "▁onemli": 419,
      "▁yasarken": 420,
      "▁etstur": 421,
      "▁somur": 422,
      "▁vucudum": 423,
      "▁olduk": 424,
      "▁olsaydı": 425,
      "▁0.0108": 426,
      "##ys": 427,
      "▁beklenmedik": 428,
      "▁davanın": 429,
      "▁krav": 430,
      "▁catlak": 431,
      "▁44.3": 432,
      "##ligi": 433,
      "▁durusma": 434,
      "▁iktis": 435,
      "▁baslayacagını": 436,
      "▁firmaları": 437,
      "▁kadınları": 438,
      "##isyon": 439,
      "▁kosu": 440,
      "▁lungur": 441,
      "▁serisi": 442,
      "▁ev": 443,
      "▁esiyle": 444,
      "▁kapıları": 445,
      "▁asf": 446,
      "▁alsın": 447,
      "▁muhalefet": 448,
      "▁seyrediyor": 449,
      "##.23": 450,
      "##isiniz": 451,
      "▁43.3": 452,
      "▁uretimi": 453,
      "▁kendisini": 454,
      "▁gizli": 455,
      "▁tah": 456,
      "▁bilez": 457,
      "▁acıklayan": 458,
      "##uma": 459,
      "▁ekmek": 460,
      "▁hasan": 461,
      "▁angeles'e": 462,
      "▁odedi": 463,
      "##eyaz": 464,
      "▁zirv": 465,
      "▁etti": 466,
      "##diginden": 467,
      "▁saglar": 468,
      "▁kafası": 469,
      "▁talep": 470,
      "▁sakız": 471,
      "▁sorunların": 472,
      "▁2.77": 473,
      "▁n.": 474,
      "▁helms": 475,
      "▁bayram": 476,
      "▁bolgesel": 477,
      "▁am": 478,
      "##cel": 479,
      "##'daki": 480,
      "▁kesif": 481,
      "▁kaynar": 482,
      "▁1991": 483,
      "▁uygulan": 484,
      "▁satır": 485,
      "▁populer": 486,
      "▁ozelligi": 487,
      "##viri": 488,
      "▁baslangıc": 489,
      "▁kayda": 490,
      "▁isci": 491,
      "##meyen": 492,
      "▁kagıdı": 493,
      "▁59": 494,
      "▁hatır": 495,
      "▁acmıs": 496,
      "##cher": 497,
      "▁surpriz": 498,
      "▁1.4": 499,
      "▁0.0": 500,
      "▁dunyanın": 501,
      "▁koyun": 502,
      "▁kalmıstı": 503,
      "##sal": 504,
      "▁yos": 505,
      "▁begenmedik": 506,
      "▁7.25": 507,
      "▁sırı": 508,
      "▁siyasal": 509,
      "▁sır": 510,
      "##bab": 511,
      "##igini": 512,
      "▁soylenir": 513,
      "▁okuyup": 514,
      "▁kaynaklanan": 515,
      "##endim": 516,
      "▁dususten": 517,
      "▁sorumluluk": 518,
      "▁bul": 519,
      "▁denver'e": 520,
      "▁cıp": 521,
      "▁zem": 522,
      "▁surpr": 523,
      "##ete": 524,
      "▁yapıstır": 525,
      "▁hastane": 526,
      "##-2": 527,
      "▁rum": 528,
      "##atlar": 529,
      "##'e": 530,
      "▁konul": 531,
      "▁dere": 532,
      "▁6.7": 533,
      "##25000": 534,
      "▁cocuklarının": 535,
      "▁buyumeye": 536,
      "##ulmustur": 537,
      "▁yetmi": 538,
      "▁kitaplar": 539,
      "▁york'tan": 540,
      "##isiyle": 541,
      "▁$'a": 542,
      "##ilmisti": 543,
      "▁kasık": 544,
      "▁zur": 545,
      "▁manevi": 546,
      "▁ulasmak": 547,
      "▁475": 548,
      "##lanmaya": 549,
      "▁asistan": 550,
      "▁sof": 551,
      "##tefik": 552,
      "▁baslıyor": 553,
      "▁deyince": 554,
      "▁projeyi": 555,
      "▁kurk": 556,
      "▁ekran": 557,
      "▁mes": 558,
      "▁kucuk": 559,
      "▁isleyen": 560,
      "▁ictik": 561,
      "▁;": 562,
      "▁inanıyorum": 563,
      "▁kuyum": 564,
      "▁senedi": 565,
      "▁niyet": 566,
      "##aklı": 567,
      "##maması": 568,
      "▁dalar": 569,
      "▁oncesi": 570,
      "▁yurumek": 571,
      "▁buz": 572,
      "##cılara": 573,
      "▁etmesine": 574,
      "▁yoneldi": 575,
      "##tiniz": 576,
      "▁gercekles": 577,
      "▁silkin": 578,
      "▁milwaukee'ye": 579,
      "▁utanc": 580,
      "##usunda": 581,
      "##unce": 582,
      "▁madd": 583,
      "##amadıgı": 584,
      "▁hırs": 585,
      "▁telerate": 586,
      "▁amir": 587,
      "##ca": 588,
      "▁arti": 589,
      "##iyeli": 590,
      "##met": 591,
      "▁mev": 592,
      "▁yavru": 593,
      "▁aittir": 594,
      "▁142": 595,
      "▁field'e": 596,
      "##6.6": 597,
      "▁ılım": 598,
      "▁zorlastır": 599,
      "▁hafif": 600,
      "▁yuzme": 601,
      "##larımızın": 602,
      "▁sunuyor": 603,
      "▁ihtiyacını": 604,
      "▁kuzey": 605,
      "▁yaptirmadim": 606,
      "▁cami": 607,
      "##dıgımda": 608,
      "▁ugrasıyor": 609,
      "▁veril": 610,
      "▁del": 611,
      "▁serit": 612,
      "▁sarılmıs": 613,
      "▁kuzu": 614,
      "▁dayak": 615,
      "▁birbirinden": 616,
      "▁gorsel": 617,
      "▁color": 618,
      "▁boston'a": 619,
      "▁ihtiyarın": 620,
      "▁tif": 621,
      "▁kilo": 622,
      "▁enter": 623,
      "▁direktoru": 624,
      "▁kaldıraclı": 625,
      "▁anlamıs": 626,
      "▁listesini": 627,
      "▁oykusu": 628,
      "▁eglence": 629,
      "##asa": 630,
      "▁california": 631,
      "▁muhal": 632,
      "##lının": 633,
      "▁tutum": 634,
      "▁yoksun": 635,
      "▁140": 636,
      "▁anap": 637,
      "▁hem": 638,
      "▁dagıtım": 639,
      "▁kodu": 640,
      "##agı": 641,
      "▁ses": 642,
      "▁yatagı": 643,
      "▁nihayet": 644,
      "##oglu'nun": 645,
      "▁alf": 646,
      "▁indirdi": 647,
      "##ılıgında": 648,
      "##lasması": 649,
      "▁dusunuyor": 650,
      "▁saatini": 651,
      "▁ertugrul": 652,
      "▁cıkmasına": 653,
      "##uya": 654,
      "▁insanı": 655,
      "##liligi": 656,
      "▁sekizinci": 657,
      "▁akr": 658,
      "▁yaklasıyor": 659,
      "▁kacırdı": 660,
      "▁14.5": 661,
      "▁toz": 662,
      "▁ozet": 663,
      "▁368": 664,
      "▁muhalleb": 665,
      "▁anda": 666,
      "▁b.": 667,
      "▁donuk": 668,
      "▁yumur": 669,
      "##pan": 670,
      "▁pas": 671,
      "▁adam": 672,
      "##yım": 673,
      "▁merkezine": 674,
      "▁sırada": 675,
      "▁meydanı": 676,
      "##acagını": 677,
      "▁konfor": 678,
      "▁ihrac": 679,
      "▁gorundu": 680,
      "▁ucretlerini": 681,
      "##1": 682,
      "##ilerinden": 683,
      "▁degildiler": 684,
      "##ekler": 685,
      "▁refah": 686,
      "▁cıkarmadan": 687,
      "▁arap": 688,
      "▁masadan": 689,
      "▁gerekirdi": 690,
      "▁vererek": 691,
      "##amdan": 692,
      "▁tecavuz": 693,
      "▁kıskanc": 694,
      "▁geciyordu": 695,
      "▁acıklı": 696,
      "▁ucretler": 697,
      "▁etrafını": 698,
      "▁serk": 699,
      "▁148": 700,
      "▁tahsis": 701,
      "##kuz": 702,
      "▁ceviri": 703,
      "▁lok": 704,
      "▁ocagı": 705,
      "▁acıkca": 706,
      "##ni": 707,
      "▁seyrediyordu": 708,
      "▁korun": 709,
      "▁burhan": 710,
      "##elerinde": 711,
      "▁gorunumu": 712,
      "▁destek": 713,
      "▁olimpiyat": 714,
      "▁750": 715,
      "##sap": 716,
      "▁agacın": 717,
      "▁akan": 718,
      "▁zihn": 719,
      "▁ziy": 720,
      "▁birisi": 721,
      "▁sogan": 722,
      "▁bitirdi": 723,
      "▁basladı": 724,
      "▁166": 725,
      "▁10'dan": 726,
      "▁data": 727,
      "▁erit": 728,
      "▁olayı": 729,
      "▁yuf": 730,
      "▁cene": 731,
      "▁yukselen": 732,
      "▁etki": 733,
      "##ezz": 734,
      "##arlar": 735,
      "▁dunyaya": 736,
      "▁cob": 737,
      "▁agzı": 738,
      "▁uzanan": 739,
      "▁doc": 740,
      "▁massachusetts": 741,
      "▁tasır": 742,
      "▁iler": 743,
      "##man'ın": 744,
      "▁kasabaya": 745,
      "▁bugunun": 746,
      "##igine": 747,
      "##lenmis": 748,
      "▁termal": 749,
      "▁oncelik": 750,
      "▁bitim": 751,
      "▁geride": 752,
      "##laması": 753,
      "▁muster": 754,
      "▁birimi": 755,
      "▁degismedi": 756,
      "▁aradilar": 757,
      "▁satılık": 758,
      "##cut": 759,
      "▁unsur": 760,
      "##del": 761,
      "▁edebilir": 762,
      "##siye": 763,
      "▁tol": 764,
      "▁omr": 765,
      "▁tem": 766,
      "##dort": 767,
      "▁dam": 768,
      "▁cekiliyor": 769,
      "▁doktu": 770,
      "▁fabrik": 771,
      "▁hindistan": 772,
      "▁olmasın": 773,
      "▁odem": 774,
      "▁sistem": 775,
      "▁mab": 776,
      "##enkul": 777,
      "▁bes": 778,
      "▁yatırımcının": 779,
      "##ge": 780,
      "▁gulumsedi": 781,
      "▁yum": 782,
      "▁kapıyı": 783,
      "▁art": 784,
      "##tıcı": 785,
      "##ens": 786,
      "▁salonu": 787,
      "▁mevdu": 788,
      "##cekti": 789,
      "##lerimin": 790,
      "▁ink": 791,
      "▁merdi": 792,
      "▁tarihinde": 793,
      "▁yaralan": 794,
      "▁suret": 795,
      "▁hizmette": 796,
      "▁cirkin": 797,
      "▁cerrah": 798,
      "▁yılını": 799,
      "▁yanakları": 800,
      "▁kıskan": 801,
      "▁cansu": 802,
      "▁agaclar": 803,
      "▁kolundan": 804,
      "▁'dir": 805,
      "##alarıyla": 806,
      "▁gel": 807,
      "▁celebi": 808,
      "▁dibinde": 809,
      "▁meb": 810,
      "▁orgutu": 811,
      "▁penc": 812,
      "▁kal": 813,
      "▁gorunum": 814,
      "##tz": 815,
      "▁yemek": 816,
      "##ılma": 817,
      "▁intihar": 818,
      "▁istedigimi": 819,
      "▁bors": 820,
      "▁fet": 821,
      "▁yaptıkları": 822,
      "▁gorustu": 823,
      "▁gecme": 824,
      "▁alakasi": 825,
      "##irlik": 826,
      "▁ekonomisi": 827,
      "▁munasebet": 828,
      "▁uzman": 829,
      "▁sindir": 830,
      "▁lakin": 831,
      "▁kızını": 832,
      "##50": 833,
      "▁sıfır": 834,
      "▁dokun": 835,
      "▁bicim": 836,
      "▁378": 837,
      "▁gecmiste": 838,
      "##lukla": 839,
      "▁mudur": 840,
      "##abı": 841,
      "▁fiyatlandır": 842,
      "▁anlasmayı": 843,
      "▁atese": 844,
      "▁etmeyen": 845,
      "▁dizinin": 846,
      "▁ucsuz": 847,
      "##mıyoruz": 848,
      "##aber": 849,
      "▁kardesinin": 850,
      "▁eseri": 851,
      "▁cekilm": 852,
      "▁kapak": 853,
      "▁bilgisi": 854,
      "▁43": 855,
      "▁kolları": 856,
      "▁baslayan": 857,
      "▁huk": 858,
      "▁benz": 859,
      "▁belinde": 860,
      "▁kapıda": 861,
      "▁duduk": 862,
      "▁sachs": 863,
      "##liy": 864,
      "▁1994": 865,
      "▁erede": 866,
      "##ısları": 867,
      "▁programın": 868,
      "▁degisimi": 869,
      "##lendirmek": 870,
      "##digimiz": 871,
      "▁cisim": 872,
      "##mus": 873,
      "▁kesme": 874,
      "▁fikir": 875,
      "##sı": 876,
      "▁fasul": 877,
      "##itt": 878,
      "▁yurum": 879,
      "▁erhan": 880,
      "##ula": 881,
      "▁duracak": 882,
      "▁nis": 883,
      "▁hissedarların": 884,
      "##erj": 885,
      "▁sertifik": 886,
      "▁fazlası": 887,
      "▁ayag": 888,
      "##medik": 889,
      "▁kelimeler": 890,
      "▁burc": 891,
      "▁dalkavuk": 892,
      "▁kredisi": 893,
      "##ane": 894,
      "##mama": 895,
      "▁kiral": 896,
      "##mayan": 897,
      "▁cia": 898,
      "▁otur": 899,
      "▁muall": 900,
      "##ecektir": 901,
      "▁sosyalist": 902,
      "▁balik": 903,
      "▁hissettim": 904,
      "▁acaktı": 905,
      "▁gerceklesti": 906,
      "▁vazgecti": 907,
      "▁11.5": 908,
      "##isini": 909,
      "▁gidebil": 910,
      "▁universite": 911,
      "▁tech": 912,
      "##anmıs": 913,
      "▁ontario'dan": 914,
      "▁kartal": 915,
      "▁cıkıyor": 916,
      "▁tutmus": 917,
      "##'unun": 918,
      "▁kavr": 919,
      "##ough": 920,
      "▁mıydım": 921,
      "▁past": 922,
      "▁f.": 923,
      "##teri": 924,
      "▁kıyas": 925,
      "▁etkileri": 926,
      "▁denil": 927,
      "▁guzel": 928,
      "▁fre": 929,
      "▁400000": 930,
      "▁suya": 931,
      "▁metal": 932,
      "▁mudahale": 933,
      "▁ciyak": 934,
      "▁mid": 935,
      "##enmis": 936,
      "##luydu": 937,
      "##ırdı": 938,
      "▁banyosu": 939,
      "##amadik": 940,
      "##utur": 941,
      "▁ilgi": 942,
      "ı": 943,
      "▁promosyon": 944,
      "▁sımsıkı": 945,
      "▁3554": 946,
      "▁ual": 947,
      "▁usx": 948,
      "##ala": 949,
      "▁ucum": 950,
      "▁hacmi": 951,
      "▁yas": 952,
      "▁inen": 953,
      "▁beni": 954,
      "▁enerj": 955,
      "##ıma": 956,
      "▁dikkatini": 957,
      "▁yasıyoruz": 958,
      "##umu": 959,
      "▁okula": 960,
      "▁siyaset": 961,
      "▁seneye": 962,
      "▁ayrılan": 963,
      "▁evlen": 964,
      "▁keske": 965,
      "▁yedi": 966,
      "▁uygul": 967,
      "##danoz": 968,
      "##mıyorlar": 969,
      "▁yururken": 970,
      "▁9.78": 971,
      "▁ulkemiz": 972,
      "▁tac": 973,
      "##tir": 974,
      "▁hepsinde": 975,
      "▁fenerbahce": 976,
      "##ily": 977,
      "▁yuzd": 978,
      "▁canan": 979,
      "▁biber": 980,
      "▁tecrub": 981,
      "▁zorun": 982,
      "▁pilotların": 983,
      "##ato": 984,
      "▁ressam": 985,
      "▁say": 986,
      "▁hastan": 987,
      "▁alay": 988,
      "▁securities": 989,
      "▁bankalarındaki": 990,
      "▁analiz": 991,
      "▁invest": 992,
      "▁isterseniz": 993,
      "▁vaat": 994,
      "▁vizyon": 995,
      "##vah": 996,
      "▁kadar": 997,
      "▁%9": 998,
      "▁baslangıcta": 999,
      "##lam": 1000,
      "▁dagın": 1001,
      "▁geregi": 1002,
      "▁ajansı": 1003,
      "##.79": 1004,
      "▁6.2": 1005,
      "▁1995'te": 1006,
      "▁bufe": 1007,
      "▁tahm": 1008,
      "▁dolas": 1009,
      "##s'ın": 1010,
      "▁istedi": 1011,
      "▁kararlı": 1012,
      "▁1\\/": 1013,
      "##evizyon": 1014,
      "▁gorur": 1015,
      "##'na": 1016,
      "▁inerek": 1017,
      "▁avrupalı": 1018,
      "▁izin": 1019,
      "▁hareketle": 1020,
      "▁tahk": 1021,
      "▁seyden": 1022,
      "▁dururdu": 1023,
      "##uyordu": 1024,
      "▁kahvalt": 1025,
      "##2.76": 1026,
      "▁girdiler": 1027,
      "▁giyin": 1028,
      "##bac": 1029,
      "▁onların": 1030,
      "##arında": 1031,
      "▁hesabı": 1032,
      "##muyor": 1033,
      "##dukca": 1034,
      "▁gelmeye": 1035,
      "##hos": 1036,
      "▁babam": 1037,
      "##'": 1038,
      "##iniki": 1039,
      "▁mcc": 1040,
      "▁hilmi": 1041,
      "▁cokus": 1042,
      "##siy": 1043,
      "▁1648": 1044,
      "▁cadır": 1045,
      "▁gordun": 1046,
      "▁alısık": 1047,
      "▁gelirken": 1048,
      "▁karsilama": 1049,
      "##.78": 1050,
      "##z": 1051,
      "##/8'e": 1052,
      "##way": 1053,
      "##gmen": 1054,
      "▁170": 1055,
      "▁kadife": 1056,
      "▁kopegi": 1057,
      "▁andan": 1058,
      "▁gorunt": 1059,
      "##ag": 1060,
      "▁sa": 1061,
      "▁1936": 1062,
      "▁1989-8": 1063,
      "▁ken": 1064,
      "▁a": 1065,
      "▁durumuna": 1066,
      "▁basımda": 1067,
      "▁senaryo": 1068,
      "▁elimizde": 1069,
      "▁goturecek": 1070,
      "▁&": 1071,
      "▁goz": 1072,
      "##larında": 1073,
      "▁atesten": 1074,
      "▁must": 1075,
      "▁imz": 1076,
      "▁bazi": 1077,
      "▁kayık": 1078,
      "▁odası": 1079,
      "▁tuzlu": 1080,
      "▁sabah": 1081,
      "▁evini": 1082,
      "##ladıgı": 1083,
      "▁damar": 1084,
      "##mezdi": 1085,
      "##duklarını": 1086,
      "##gac": 1087,
      "▁gormedi": 1088,
      "##izle": 1089,
      "▁ispanya": 1090,
      "▁birbiriyle": 1091,
      "▁oh": 1092,
      "##erler": 1093,
      "▁bıyık": 1094,
      "##inc": 1095,
      "##sına": 1096,
      "▁kazancları": 1097,
      "▁calisanlarin": 1098,
      "▁0.95": 1099,
      "▁piyasalarda": 1100,
      "▁kirlilik": 1101,
      "▁etmeyi": 1102,
      "##oll": 1103,
      "##elerinin": 1104,
      "▁operasyon": 1105,
      "▁bitki": 1106,
      "▁213": 1107,
      "▁temettu": 1108,
      "▁oldurmek": 1109,
      "▁cık": 1110,
      "##ski": 1111,
      "##ide": 1112,
      "▁gom": 1113,
      "##raz": 1114,
      "▁suat": 1115,
      "▁pc": 1116,
      "▁cogunlugu": 1117,
      "▁pismis": 1118,
      "▁yasına": 1119,
      "▁warner": 1120,
      "▁incelen": 1121,
      "▁266": 1122,
      "##iyetli": 1123,
      "##lerde": 1124,
      "▁bus": 1125,
      "▁kavus": 1126,
      "▁uykusuz": 1127,
      "▁karsiligini": 1128,
      "##larımı": 1129,
      "##kb": 1130,
      "▁2.73": 1131,
      "##umuzu": 1132,
      "▁q": 1133,
      "▁varmak": 1134,
      "##ileri": 1135,
      "##apol": 1136,
      "▁def": 1137,
      "▁verilen": 1138,
      "##enek": 1139,
      "▁sultan": 1140,
      "##tu": 1141,
      "▁ogrendi": 1142,
      "▁beyz": 1143,
      "##heim": 1144,
      "▁rab": 1145,
      "▁karsılan": 1146,
      "▁turizm": 1147,
      "##:30": 1148,
      "▁mukad": 1149,
      "▁gozlerle": 1150,
      "▁taksit": 1151,
      "▁cevresel": 1152,
      "▁sınırlarını": 1153,
      "▁yorgunluk": 1154,
      "▁bolumu": 1155,
      "##ustral": 1156,
      "▁fiyatlarını": 1157,
      "▁tanım": 1158,
      "▁gununun": 1159,
      "##y": 1160,
      "▁bakimsiz": 1161,
      "##0.1": 1162,
      "▁savunma": 1163,
      "▁video": 1164,
      "▁ucusu": 1165,
      "▁kurut": 1166,
      "▁vermis": 1167,
      "▁oranda": 1168,
      "▁204": 1169,
      "##lagı": 1170,
      "▁olan": 1171,
      "##asındaki": 1172,
      "▁hut": 1173,
      "▁sular": 1174,
      "▁kiralama": 1175,
      "##ydı": 1176,
      "▁charlotte'ye": 1177,
      "##liyorum": 1178,
      "▁yaptıg": 1179,
      "▁%51": 1180,
      "##sali": 1181,
      "▁?": 1182,
      "##ilerde": 1183,
      "▁gidiyorum": 1184,
      "▁kontrolunu": 1185,
      "▁sıkıntı": 1186,
      "▁karton": 1187,
      "▁asırı": 1188,
      "##yı": 1189,
      "##besyuz": 1190,
      "▁avans": 1191,
      "▁olasılıkla": 1192,
      "▁kalmıstır": 1193,
      "▁aramak": 1194,
      "▁sanız": 1195,
      "▁atan": 1196,
      "▁sessizce": 1197,
      "##9.8": 1198,
      "▁4.92": 1199,
      "▁50000": 1200,
      "▁dusuruyor": 1201,
      "▁fiyatlarının": 1202,
      "##abında": 1203,
      "▁gitmez": 1204,
      "▁milliyet": 1205,
      "▁kanalı": 1206,
      "##layıcı": 1207,
      "▁duruyorlar": 1208,
      "▁sekl": 1209,
      "▁bogaz": 1210,
      "▁dusmanı": 1211,
      "▁nisp": 1212,
      "▁odalari": 1213,
      "▁mahal": 1214,
      "▁oyleyse": 1215,
      "▁18": 1216,
      "##eleriyle": 1217,
      "▁once": 1218,
      "##iciler": 1219,
      "▁evlat": 1220,
      "▁soyledi": 1221,
      "▁komisyonları": 1222,
      "##ass": 1223,
      "▁samim": 1224,
      "▁cif": 1225,
      "##lt": 1226,
      "▁sende": 1227,
      "▁%30": 1228,
      "▁entar": 1229,
      "▁alıyorlar": 1230,
      "▁eklendi": 1231,
      "▁kazandı": 1232,
      "##3.5": 1233,
      "▁cekistir": 1234,
      "▁ten": 1235,
      "▁2.23": 1236,
      "▁zavallı": 1237,
      "▁olaganustu": 1238,
      "▁ortu": 1239,
      "▁birtak": 1240,
      "▁yasa": 1241,
      "##melerin": 1242,
      "▁sınıflandır": 1243,
      "▁fat": 1244,
      "▁rıza": 1245,
      "▁surec": 1246,
      "##.12": 1247,
      "▁hepsinden": 1248,
      "▁baslamak": 1249,
      "▁376": 1250,
      "▁oakland'a": 1251,
      "▁sand": 1252,
      "▁sk": 1253,
      "▁17": 1254,
      "▁parcalar": 1255,
      "▁kalkıp": 1256,
      "▁31": 1257,
      "##ınız": 1258,
      "▁kil": 1259,
      "▁wil": 1260,
      "▁piyasasında": 1261,
      "▁olsun": 1262,
      "▁sahan": 1263,
      "##usa": 1264,
      "▁olaydan": 1265,
      "▁12": 1266,
      "▁ren": 1267,
      "▁hanimdi": 1268,
      "▁kestir": 1269,
      "▁gosterecek": 1270,
      "▁akp": 1271,
      "▁limuzin": 1272,
      "▁giydir": 1273,
      "▁basketbol": 1274,
      "##cılıgın": 1275,
      "##89-": 1276,
      "##tug": 1277,
      "▁kaleci": 1278,
      "##iha": 1279,
      "▁satıs": 1280,
      "▁bolumunu": 1281,
      "▁kısı": 1282,
      "▁kambur": 1283,
      "▁haftaya": 1284,
      "▁insallah": 1285,
      "▁loc": 1286,
      "▁muhtelif": 1287,
      "▁kardesi": 1288,
      "▁baklav": 1289,
      "▁korkutucu": 1290,
      "▁bin": 1291,
      "▁tiksin": 1292,
      "▁zaman": 1293,
      "▁city": 1294,
      "▁dov": 1295,
      "##ima": 1296,
      "▁lam": 1297,
      "▁uzlas": 1298,
      "▁doldur": 1299,
      "▁maliyet": 1300,
      "▁bozul": 1301,
      "▁gezi": 1302,
      "##t'in": 1303,
      "▁duyurdu": 1304,
      "▁ikisi": 1305,
      "▁pisir": 1306,
      "▁sevk": 1307,
      "▁sor": 1308,
      "▁dusundu": 1309,
      "▁683": 1310,
      "▁sayg": 1311,
      "▁esyalar": 1312,
      "▁degin": 1313,
      "▁8.1": 1314,
      "▁manhattan": 1315,
      "▁isken": 1316,
      "##agını": 1317,
      "▁vol": 1318,
      "▁alabilir": 1319,
      "##mos": 1320,
      "##es'in": 1321,
      "▁anlıslanabilirlik": 1322,
      "▁havalimanı'nda": 1323,
      "##ight": 1324,
      "▁iktisat": 1325,
      "##alas": 1326,
      "▁har": 1327,
      "▁tır": 1328,
      "▁rezervasyonu": 1329,
      "▁otomobiller": 1330,
      "▁lob": 1331,
      "▁pozit": 1332,
      "▁cift": 1333,
      "▁tabidir": 1334,
      "▁acmayı": 1335,
      "▁gelenek": 1336,
      "▁azami": 1337,
      "▁ili": 1338,
      "▁futbol": 1339,
      "▁burnun": 1340,
      "▁ayagını": 1341,
      "0": 1342,
      "▁kesin": 1343,
      "▁baz": 1344,
      "▁ip": 1345,
      "##mes": 1346,
      "▁turlar": 1347,
      "▁dar": 1348,
      "▁fabrikayı": 1349,
      "##abilmis": 1350,
      "▁yarar": 1351,
      "▁onayladı": 1352,
      "▁gelmiyor": 1353,
      "##field": 1354,
      "▁12:": 1355,
      "▁uc": 1356,
      "##irler": 1357,
      "▁sokagın": 1358,
      "▁sar": 1359,
      "▁yaptıgım": 1360,
      "▁kadın": 1361,
      "##bay": 1362,
      "▁%4.8": 1363,
      "▁devrimci": 1364,
      "▁kalkan": 1365,
      "▁batılı": 1366,
      "▁ticari": 1367,
      "▁h": 1368,
      "▁iyi": 1369,
      "##esti": 1370,
      "##amadan": 1371,
      "##eliyiz": 1372,
      "▁saclı": 1373,
      "▁ici": 1374,
      "##lesi": 1375,
      "▁neh": 1376,
      "##uyle": 1377,
      "▁cesur": 1378,
      "##lastır": 1379,
      "▁derl": 1380,
      "##mektir": 1381,
      "▁rezalet": 1382,
      "▁teneke": 1383,
      "▁grand": 1384,
      "▁luft": 1385,
      "▁kans": 1386,
      "▁tanesi": 1387,
      "▁dayan": 1388,
      "▁inter": 1389,
      "▁0.9": 1390,
      "▁saglık": 1391,
      "▁mesaj": 1392,
      "##ating": 1393,
      "▁bizler": 1394,
      "8": 1395,
      "▁evvela": 1396,
      "▁esim": 1397,
      "##uyu": 1398,
      "▁getirebilir": 1399,
      "▁olunca": 1400,
      "##ladıgını": 1401,
      "▁ingil": 1402,
      "##tuk": 1403,
      "##tı": 1404,
      "##urdu": 1405,
      "▁saban": 1406,
      "##yak": 1407,
      "▁direktor": 1408,
      "▁emir": 1409,
      "▁a.": 1410,
      "▁ceket": 1411,
      "##aba": 1412,
      "▁basak": 1413,
      "##dınız": 1414,
      "▁onundeki": 1415,
      "▁anlıs": 1416,
      "▁nav": 1417,
      "##cisi": 1418,
      "▁kov": 1419,
      "▁hizmet": 1420,
      "▁kapıya": 1421,
      "##abet": 1422,
      "▁199": 1423,
      "▁indianapolis'e": 1424,
      "##ebiliriz": 1425,
      "▁final": 1426,
      "▁t": 1427,
      "▁denli": 1428,
      "▁doneme": 1429,
      "▁gormustum": 1430,
      "##ilerini": 1431,
      "▁ortam": 1432,
      "▁kaymakam": 1433,
      "▁hok": 1434,
      "▁176": 1435,
      "##lamada": 1436,
      "▁ısıklı": 1437,
      "▁bagımsız": 1438,
      "▁boston'da": 1439,
      "##ola": 1440,
      "▁onemi": 1441,
      "##ligim": 1442,
      "▁bosal": 1443,
      "##16": 1444,
      "▁sarar": 1445,
      "2": 1446,
      "▁havuzlar": 1447,
      "”": 1448,
      "▁program": 1449,
      "▁onerdi": 1450,
      "▁mobilyalar": 1451,
      "▁cikmadi": 1452,
      "▁yansıt": 1453,
      "▁taz": 1454,
      "▁uyar": 1455,
      "▁seyret": 1456,
      "##leb": 1457,
      "▁1979": 1458,
      "▁ailece": 1459,
      "▁ediliyor": 1460,
      "▁cer": 1461,
      "▁sayıda": 1462,
      "##otuz": 1463,
      "▁sadakat": 1464,
      "##rim": 1465,
      "▁38.50": 1466,
      "▁puanlama": 1467,
      "##esel": 1468,
      "▁piyasanın": 1469,
      "▁ets": 1470,
      "▁hewlett": 1471,
      "##yon": 1472,
      "▁bilgil": 1473,
      "▁dusunuyorum": 1474,
      "▁arastırmalar": 1475,
      "▁pesinden": 1476,
      "▁8.32": 1477,
      "▁yonde": 1478,
      "▁karam": 1479,
      "▁kuyruk": 1480,
      "▁icecekleri": 1481,
      "▁yoluna": 1482,
      "▁oncelikle": 1483,
      "▁umit": 1484,
      "▁baskal": 1485,
      "▁gonlunu": 1486,
      "##ck": 1487,
      "▁ceng": 1488,
      "▁niss": 1489,
      "##var": 1490,
      "▁gundur": 1491,
      "▁rutubet": 1492,
      "▁48": 1493,
      "▁acent": 1494,
      "▁103": 1495,
      "▁ifsa": 1496,
      "▁dok": 1497,
      "▁belgeler": 1498,
      "▁malı": 1499,
      "▁kahval": 1500,
      "▁coc": 1501,
      "▁konforlu": 1502,
      "▁olmasa": 1503,
      "##izasyon": 1504,
      "▁esi": 1505,
      "▁deri": 1506,
      "▁yukum": 1507,
      "▁1.79": 1508,
      "▁civ": 1509,
      "▁babama": 1510,
      "▁bitmis": 1511,
      "▁edecekti": 1512,
      "▁rehberlik": 1513,
      "▁kahvenin": 1514,
      "▁kalanlar": 1515,
      "▁newark": 1516,
      "▁ruzgarı": 1517,
      "##astır": 1518,
      "▁mecmu": 1519,
      "▁tic": 1520,
      "▁muhabbet": 1521,
      "▁jet": 1522,
      "▁enflasyonun": 1523,
      "##agının": 1524,
      "▁real": 1525,
      "▁mavi": 1526,
      "▁26.23": 1527,
      "▁arbitraj": 1528,
      "##/16": 1529,
      "▁geri": 1530,
      "▁duyarl": 1531,
      "##isel": 1532,
      "▁yat": 1533,
      "▁haket": 1534,
      "▁pilotlar": 1535,
      "▁105": 1536,
      "▁topa": 1537,
      "##tan": 1538,
      "##ıla": 1539,
      "▁parki": 1540,
      "▁bindokuzyuzotuz": 1541,
      "▁il": 1542,
      "▁fırsatı": 1543,
      "##lamıstır": 1544,
      "▁icindeydi": 1545,
      "##latan": 1546,
      "##ott": 1547,
      "▁hanımı": 1548,
      "▁bilimin": 1549,
      "▁kusak": 1550,
      "▁gazel": 1551,
      "▁kamyon": 1552,
      "▁kalmıyor": 1553,
      "▁devleti": 1554,
      "▁emperyal": 1555,
      "▁dinam": 1556,
      "▁yasındaki": 1557,
      "##iyla": 1558,
      "##ren": 1559,
      "▁dunyası": 1560,
      "▁erzurum": 1561,
      "##dag": 1562,
      "▁pah": 1563,
      "▁yılmaz": 1564,
      "##ısında": 1565,
      "##one": 1566,
      "##akin": 1567,
      "▁ucyuz": 1568,
      "▁odeyecek": 1569,
      "##ace": 1570,
      "▁sez": 1571,
      "▁burus": 1572,
      "##suzluk": 1573,
      "##imizi": 1574,
      "▁can": 1575,
      "##ilya": 1576,
      "▁tıkır": 1577,
      "▁oteldi": 1578,
      "▁cekerdi": 1579,
      "##meliyim": 1580,
      "▁koylu": 1581,
      "▁nezaket": 1582,
      "##ational": 1583,
      "▁cın": 1584,
      "▁950": 1585,
      "▁bununla": 1586,
      "▁kost": 1587,
      "▁ellerinde": 1588,
      "▁r.": 1589,
      "▁inan": 1590,
      "▁yavuz": 1591,
      "▁ima": 1592,
      "▁derece": 1593,
      "▁urun": 1594,
      "▁quebec": 1595,
      "##dern": 1596,
      "▁tuketiciler": 1597,
      "##inip": 1598,
      "▁hissesini": 1599,
      "▁yolu": 1600,
      "▁doldurdu": 1601,
      "##sinin": 1602,
      "##turk": 1603,
      "▁tabur": 1604,
      "##ersiniz": 1605,
      "▁bakanlıgı'nın": 1606,
      "▁latif": 1607,
      "▁komite": 1608,
      "▁korku": 1609,
      "##oj": 1610,
      "▁indir": 1611,
      "##ındır": 1612,
      "▁westinghouse": 1613,
      "▁nokta": 1614,
      "▁bulunmaktadır": 1615,
      "▁gorusmeler": 1616,
      "▁trilyon": 1617,
      "▁gidis": 1618,
      "▁5\\/8": 1619,
      "▁1.52": 1620,
      "▁sadece": 1621,
      "▁cekip": 1622,
      "▁desteklen": 1623,
      "##isiydi": 1624,
      "▁bekliyorum": 1625,
      "▁ihracları": 1626,
      "##abildigi": 1627,
      "▁islam": 1628,
      "▁agacların": 1629,
      "▁golg": 1630,
      "▁cenaz": 1631,
      "##abilirsiniz": 1632,
      "▁dib": 1633,
      "##izin": 1634,
      "▁suruk": 1635,
      "▁reding": 1636,
      "##feld": 1637,
      "▁editor": 1638,
      "▁yiyor": 1639,
      "▁sun": 1640,
      "▁7.1": 1641,
      "▁piyango": 1642,
      "▁arkasını": 1643,
      "##.70": 1644,
      "▁kararsizim": 1645,
      "▁iktidara": 1646,
      "▁1/2": 1647,
      "▁29.6": 1648,
      "▁bonoları": 1649,
      "▁raporu": 1650,
      "▁benimle": 1651,
      "##kın": 1652,
      "▁fig": 1653,
      "##kla": 1654,
      "▁burası": 1655,
      "▁sandıgı": 1656,
      "##'nde": 1657,
      "##\\/": 1658,
      "##5'ten": 1659,
      "##ics": 1660,
      "▁ucusların": 1661,
      "▁amc": 1662,
      "▁paralel": 1663,
      "##zal": 1664,
      "##ph": 1665,
      "▁sıcaktan": 1666,
      "▁enstitusu": 1667,
      "▁karabiber": 1668,
      "▁kendisi": 1669,
      "##.66": 1670,
      "▁kandil": 1671,
      "▁mr.": 1672,
      "##manı": 1673,
      "▁gerektigini": 1674,
      "▁18.65": 1675,
      "▁etkinlikler": 1676,
      "▁peki": 1677,
      "▁bası": 1678,
      "##co": 1679,
      "##isk": 1680,
      "▁calısacak": 1681,
      "▁veren": 1682,
      "▁kapsam": 1683,
      "▁tahvili": 1684,
      "▁anlattım": 1685,
      "▁talebin": 1686,
      "▁baslar": 1687,
      "▁fener": 1688,
      "▁chp": 1689,
      "▁tex": 1690,
      "##0.7": 1691,
      "▁dimdik": 1692,
      "▁kesintiler": 1693,
      "▁oakland": 1694,
      "▁hakediyor": 1695,
      "##cu": 1696,
      "▁medeniyet": 1697,
      "##uculuk": 1698,
      "▁vazif": 1699,
      "##lıklarını": 1700,
      "▁nisan'da": 1701,
      "▁dolasıp": 1702,
      "▁mıydık": 1703,
      "▁ilisk": 1704,
      "▁edilebilir": 1705,
      "▁pat": 1706,
      "##dim": 1707,
      "▁hew": 1708,
      "▁duvarın": 1709,
      "▁bogazici": 1710,
      "▁meyve": 1711,
      "▁ertesi": 1712,
      "▁vuc": 1713,
      "▁kimseyi": 1714,
      "▁herif": 1715,
      "▁etmisler": 1716,
      "##mma": 1717,
      "▁bildirildi": 1718,
      "▁deg": 1719,
      "▁3.7": 1720,
      "▁corp.'un": 1721,
      "▁aradi": 1722,
      "▁istediler": 1723,
      "▁hollanda": 1724,
      "▁tırman": 1725,
      "▁dolarına": 1726,
      "▁oakland'dan": 1727,
      "▁roman": 1728,
      "▁islemlerin": 1729,
      "▁yaptı": 1730,
      "▁alıyordu": 1731,
      "##iyeleri": 1732,
      "▁futbolcu": 1733,
      "▁155": 1734,
      "▁topluma": 1735,
      "▁prensip": 1736,
      "##330": 1737,
      "▁musta": 1738,
      "▁meydan": 1739,
      "▁minder": 1740,
      "▁esyaları": 1741,
      "▁isletmeler": 1742,
      "##.00": 1743,
      "▁faktor": 1744,
      "##azlıgı": 1745,
      "▁endise": 1746,
      "▁ol": 1747,
      "▁devlet": 1748,
      "▁mahkemede": 1749,
      "▁stanley": 1750,
      "▁tesh": 1751,
      "▁tav": 1752,
      "▁4487": 1753,
      "##ediler": 1754,
      "▁03:25": 1755,
      "▁yapmaktadır": 1756,
      "▁secmek": 1757,
      "▁tıpkı": 1758,
      "▁yanında": 1759,
      "▁cografya": 1760,
      "▁kisiler": 1761,
      "▁palt": 1762,
      "▁kavg": 1763,
      "▁hurr": 1764,
      "##fez": 1765,
      "##dar": 1766,
      "▁mez": 1767,
      "▁uygundu": 1768,
      "▁evet": 1769,
      "▁tenha": 1770,
      "\\": 1771,
      "▁telgraf": 1772,
      "##ısıp": 1773,
      "▁mahkeme": 1774,
      "▁zinc": 1775,
      "▁kahveci": 1776,
      "▁toronto'dan": 1777,
      "▁ask": 1778,
      "▁yasanan": 1779,
      "▁mitchell": 1780,
      "▁toplam": 1781,
      "##cil": 1782,
      "▁kızdır": 1783,
      "▁cana": 1784,
      "##lesine": 1785,
      "##larımız": 1786,
      "▁dan": 1787,
      "▁sikinti": 1788,
      "▁hasta": 1789,
      "▁yuzlu": 1790,
      "▁dıs": 1791,
      "▁delta": 1792,
      "▁baslaması": 1793,
      "##lıg": 1794,
      "▁hay": 1795,
      "##lanacak": 1796,
      "##issiz": 1797,
      "▁tesisleri": 1798,
      "##lesen": 1799,
      "##lim": 1800,
      "▁sepet": 1801,
      "##nik": 1802,
      "▁pudra": 1803,
      "##l": 1804,
      "▁amac": 1805,
      "▁stu": 1806,
      "▁sit": 1807,
      "▁toparlanma": 1808,
      "▁yardımcısıydı": 1809,
      "##dogu": 1810,
      "##ance": 1811,
      "▁davran": 1812,
      "▁dag": 1813,
      "▁puruz": 1814,
      "▁atık": 1815,
      "##ınızı": 1816,
      "▁konusma": 1817,
      "##yeni": 1818,
      "##9": 1819,
      "▁yemekler": 1820,
      "▁at": 1821,
      "▁edemey": 1822,
      "##-1": 1823,
      "▁mans": 1824,
      "▁imam": 1825,
      "▁neyi": 1826,
      "▁kend": 1827,
      "▁basrol": 1828,
      "▁saldırgan": 1829,
      "##ize": 1830,
      "##medim": 1831,
      "##amızın": 1832,
      "▁havuz": 1833,
      "##ıyorlar": 1834,
      "▁saray'ın": 1835,
      "##ern": 1836,
      "▁olcu": 1837,
      "▁mahmut": 1838,
      "##hi": 1839,
      "▁bilinc": 1840,
      "▁teras": 1841,
      "▁tahta": 1842,
      "▁proje": 1843,
      "▁hissede": 1844,
      "##inden": 1845,
      "▁seyi": 1846,
      "▁edici": 1847,
      "▁cıkarmıs": 1848,
      "▁detroit": 1849,
      "▁dip": 1850,
      "##leyip": 1851,
      "▁(": 1852,
      "▁gunune": 1853,
      "▁rey": 1854,
      "▁mixte": 1855,
      "▁vas": 1856,
      "▁ediyorum": 1857,
      "▁orman": 1858,
      "▁89": 1859,
      "##aktan": 1860,
      "▁kerp": 1861,
      "##ulmus": 1862,
      "▁seyir": 1863,
      "▁makam": 1864,
      "▁sutu": 1865,
      "▁sapk": 1866,
      "▁tutan": 1867,
      "▁tesiste": 1868,
      "▁babasından": 1869,
      "▁urkut": 1870,
      "▁102.06": 1871,
      "▁reklamlar": 1872,
      "▁ote": 1873,
      "▁cebinden": 1874,
      "▁yuvarlak": 1875,
      "##alanı": 1876,
      "▁koruma": 1877,
      "▁cıkması": 1878,
      "▁kesik": 1879,
      "##irli": 1880,
      "▁ceph": 1881,
      "▁varlık": 1882,
      "▁v": 1883,
      "▁sistemini": 1884,
      "##bindokuzyuzdoksansekiz": 1885,
      "▁fulton": 1886,
      "▁ansik": 1887,
      "▁dokuz": 1888,
      "▁25.96": 1889,
      "▁studyo": 1890,
      "▁makinesi": 1891,
      "##ler": 1892,
      "▁baglan": 1893,
      "▁zapt": 1894,
      "▁tesek": 1895,
      "▁aylarında": 1896,
      "▁fed": 1897,
      "▁seattle'den": 1898,
      "▁'dı": 1899,
      "▁kocası": 1900,
      "▁ihmal": 1901,
      "##yasını": 1902,
      "▁%5": 1903,
      "▁cezb": 1904,
      "▁kazanmak": 1905,
      "##des": 1906,
      "▁ayrica": 1907,
      "##ince": 1908,
      "##isindeki": 1909,
      "▁gectiler": 1910,
      "▁sahis": 1911,
      "##erve": 1912,
      "▁yaptir": 1913,
      "##jr": 1914,
      "▁201": 1915,
      "▁tesaduf": 1916,
      "▁baykal": 1917,
      "▁acakt": 1918,
      "▁cıkarıyor": 1919,
      "▁vec": 1920,
      "##ogu": 1921,
      "▁dede": 1922,
      "▁bilmiyordu": 1923,
      "▁listelenen": 1924,
      "##ish": 1925,
      "##lay": 1926,
      "▁10.625": 1927,
      "▁gecenin": 1928,
      "##rey": 1929,
      "▁kef": 1930,
      "▁%13": 1931,
      "▁jac": 1932,
      "##acan": 1933,
      "▁oynuyor": 1934,
      "▁jandarma": 1935,
      "▁0.31": 1936,
      "▁tep": 1937,
      "##imizin": 1938,
      "▁izleyen": 1939,
      "▁denver'den": 1940,
      "##dıgına": 1941,
      "▁isbirligi": 1942,
      "##amb": 1943,
      "▁ii": 1944,
      "▁tavr": 1945,
      "▁fiyatını": 1946,
      "##adın": 1947,
      "##ıyı": 1948,
      "▁topluluk": 1949,
      "##'luk": 1950,
      "▁imis": 1951,
      "▁zamanı": 1952,
      "▁hizmete": 1953,
      "▁taraftar": 1954,
      "▁umur": 1955,
      "##.24": 1956,
      "▁vesik": 1957,
      "▁sendika": 1958,
      "▁yazısı": 1959,
      "▁iliskisi": 1960,
      "▁suclu": 1961,
      "▁fac": 1962,
      "▁yemegi": 1963,
      "▁ayrılmak": 1964,
      "##625": 1965,
      "▁grubunun": 1966,
      "▁tamamen": 1967,
      "▁guvert": 1968,
      "▁herhal": 1969,
      "▁ayrıntı": 1970,
      "▁sebze": 1971,
      "##il": 1972,
      "##ardı": 1973,
      "##ville": 1974,
      "▁herkese": 1975,
      "##>": 1976,
      "▁bakıyorum": 1977,
      "▁kendisin": 1978,
      "▁ucer": 1979,
      "▁derken": 1980,
      "▁fıskır": 1981,
      "▁anadolu": 1982,
      "▁obu": 1983,
      "##manda": 1984,
      "▁ilgilendiler": 1985,
      "▁nar": 1986,
      "▁yorum": 1987,
      "▁karıstı": 1988,
      "##osunun": 1989,
      "▁istemek": 1990,
      "▁kuc": 1991,
      "▁pist": 1992,
      "▁icerisinde": 1993,
      "##ırda": 1994,
      "##ilmeye": 1995,
      "▁boyutu": 1996,
      "##urcuk": 1997,
      "##ain": 1998,
      "▁ulkede": 1999,
      "▁tasıdı": 2000,
      "▁panik": 2001,
      "▁kumsali": 2002,
      "▁dostlar": 2003,
      "▁lal": 2004,
      "##tein": 2005,
      "▁kızım": 2006,
      "▁fiyata": 2007,
      "▁birey": 2008,
      "▁recet": 2009,
      "(": 2010,
      "▁6.31": 2011,
      "##mem": 2012,
      "▁piyano": 2013,
      "▁amr": 2014,
      "▁bine": 2015,
      "▁phoenix'den": 2016,
      "##okr": 2017,
      "▁cah": 2018,
      "##ırım": 2019,
      "▁album": 2020,
      "##larımıza": 2021,
      "##eye": 2022,
      "▁kocaman": 2023,
      "▁mangal": 2024,
      "▁helmsley": 2025,
      "▁dagıtır": 2026,
      "▁yogurt": 2027,
      "▁esv": 2028,
      "##apark": 2029,
      "▁141.70": 2030,
      "▁dolardı": 2031,
      "##tısını": 2032,
      "▁ederler": 2033,
      "▁okullar": 2034,
      "▁dusuyor": 2035,
      "▁veyahut": 2036,
      "▁kartı": 2037,
      "▁kadınlara": 2038,
      "▁ederken": 2039,
      "##koy": 2040,
      "▁oldugumuz": 2041,
      "▁montreal'dan": 2042,
      "##ecegini": 2043,
      "▁chicago'dan": 2044,
      "##eksu": 2045,
      "▁balta": 2046,
      "▁sik": 2047,
      "##era": 2048,
      "▁karsilamadi": 2049,
      "▁bosa": 2050,
      "##0.4": 2051,
      "▁ucusuna": 2052,
      "▁hedefleri": 2053,
      "▁yapamam": 2054,
      "▁iskele": 2055,
      "▁dow": 2056,
      "▁parıl": 2057,
      "▁isg": 2058,
      "▁cograf": 2059,
      "▁6.000": 2060,
      "##ikten": 2061,
      "##60": 2062,
      "▁vermeye": 2063,
      "▁sevimli": 2064,
      "▁97": 2065,
      "▁gıldır": 2066,
      "▁vurus": 2067,
      "▁univers": 2068,
      "##sizim": 2069,
      "▁ruzg": 2070,
      "▁onder": 2071,
      "▁belirtildi": 2072,
      "▁cogunun": 2073,
      "##cusu": 2074,
      "▁darbe": 2075,
      "▁2.79": 2076,
      "##asur": 2077,
      "▁kle": 2078,
      "▁mevzuat": 2079,
      "▁san": 2080,
      "▁ortusu": 2081,
      "▁bulamıyor": 2082,
      "##asıdır": 2083,
      "▁denizde": 2084,
      "▁u": 2085,
      "▁gram": 2086,
      "##dilar": 2087,
      "▁2002": 2088,
      "▁billur": 2089,
      "▁kimya": 2090,
      "▁mccaw": 2091,
      "▁giden": 2092,
      "▁babanın": 2093,
      "▁milyondan": 2094,
      "▁havlular": 2095,
      "▁gelmis": 2096,
      "▁avuk": 2097,
      "▁turkiye'yi": 2098,
      "▁hol": 2099,
      "▁sozcu": 2100,
      "▁surun": 2101,
      "##om": 2102,
      "▁erdir": 2103,
      "▁dikkat": 2104,
      "▁iste": 2105,
      "▁kızlarla": 2106,
      "▁duzenlen": 2107,
      "▁265": 2108,
      "▁mesa": 2109,
      "▁teskil": 2110,
      "▁kurek": 2111,
      "▁neleri": 2112,
      "▁eb": 2113,
      "▁nereye": 2114,
      "##roit": 2115,
      "▁dinlen": 2116,
      "▁emanet": 2117,
      "##.46": 2118,
      "##likleri": 2119,
      "@": 2120,
      "▁1'den": 2121,
      "▁haps": 2122,
      "▁yargıl": 2123,
      "▁gene": 2124,
      "##toru": 2125,
      "##erek": 2126,
      "▁mart'ta": 2127,
      "▁gelistirmek": 2128,
      "▁milyardan": 2129,
      "##lebilir": 2130,
      "▁sure": 2131,
      "▁4.3": 2132,
      "▁taahhut": 2133,
      "##risin": 2134,
      "##ilan": 2135,
      "▁cıkar": 2136,
      "▁gon": 2137,
      "##omosyon": 2138,
      "▁aslına": 2139,
      "##nes": 2140,
      "▁isaret": 2141,
      "▁ucyuzyetmis": 2142,
      "▁kimseler": 2143,
      "▁duyar": 2144,
      "▁yapacagız": 2145,
      "##4.4": 2146,
      "▁tarafsız": 2147,
      "▁birimizin": 2148,
      "▁45": 2149,
      "##tigim": 2150,
      "▁4.2": 2151,
      "▁kolaylastır": 2152,
      "▁ayrıldı": 2153,
      "##calı": 2154,
      "▁40": 2155,
      "##istim": 2156,
      "▁yaprakları": 2157,
      "▁kahvalti": 2158,
      "▁associates": 2159,
      "▁huzun": 2160,
      "▁ıs": 2161,
      "▁fikirler": 2162,
      "▁personelin": 2163,
      "▁seyr": 2164,
      "##uler": 2165,
      "##egiyle": 2166,
      "▁fısır": 2167,
      "▁yetersizligi": 2168,
      "▁koy": 2169,
      "▁yaptim": 2170,
      "▁cincinnati": 2171,
      "▁amacı": 2172,
      "▁serp": 2173,
      "▁arabası": 2174,
      "##as": 2175,
      "##ara": 2176,
      "▁alısver": 2177,
      "▁cogumuz": 2178,
      "▁intik": 2179,
      "##memek": 2180,
      "▁kahverengi": 2181,
      "##tep": 2182,
      "▁gunun": 2183,
      "▁kemer": 2184,
      "##dayan": 2185,
      "▁ortal": 2186,
      "▁hadis": 2187,
      "▁ciddi": 2188,
      "▁kurumlar": 2189,
      "▁akdeniz": 2190,
      "##emeyen": 2191,
      "##niyet": 2192,
      "##tede": 2193,
      "▁95.2": 2194,
      "##dah": 2195,
      "▁imparatorlugu": 2196,
      "▁soyles": 2197,
      "▁pabuc": 2198,
      "▁insanları": 2199,
      "##larca": 2200,
      "##sizligi": 2201,
      "▁1.11": 2202,
      "##ginin": 2203,
      "▁sokaklarda": 2204,
      "▁bahset": 2205,
      "▁gelismeler": 2206,
      "▁hicbir": 2207,
      "##edin": 2208,
      "▁1981": 2209,
      "▁kıdem": 2210,
      "▁gid": 2211,
      "##doksan": 2212,
      "##.08": 2213,
      "▁arkası": 2214,
      "▁olurlar": 2215,
      "▁tereyagı": 2216,
      "##meni": 2217,
      "##bet": 2218,
      "▁acente": 2219,
      "##ames": 2220,
      "##ous": 2221,
      "▁gey": 2222,
      "▁boyunda": 2223,
      "▁gecim": 2224,
      "▁koyde": 2225,
      "▁zamandan": 2226,
      "▁gecmisi": 2227,
      "##ila": 2228,
      "##mız": 2229,
      "▁yaklasık": 2230,
      "▁gozune": 2231,
      "##ugh": 2232,
      "▁kullanır": 2233,
      "##ces": 2234,
      "##ulen": 2235,
      "▁ayni": 2236,
      "▁gorevi": 2237,
      "▁agladı": 2238,
      "▁kondur": 2239,
      "▁bırakır": 2240,
      "▁kusu": 2241,
      "▁getirmek": 2242,
      "▁newark'a": 2243,
      "▁seninle": 2244,
      "▁mi": 2245,
      "▁dil": 2246,
      "##9'da": 2247,
      "▁bilen": 2248,
      "▁ist": 2249,
      "▁ker": 2250,
      "▁programı": 2251,
      "▁yaratı": 2252,
      "▁italya": 2253,
      "▁oburleri": 2254,
      "▁ayakkabı": 2255,
      "##%": 2256,
      "▁kullanılan": 2257,
      "▁gorulen": 2258,
      "▁kus": 2259,
      "▁kud": 2260,
      "▁calısıyorum": 2261,
      "▁karsıladı": 2262,
      "##lendi": 2263,
      "▁622": 2264,
      "▁kesiyor": 2265,
      "▁sorular": 2266,
      "▁kurtulur": 2267,
      "▁nasdaq": 2268,
      "▁resim": 2269,
      "▁yalı": 2270,
      "▁saglıgı": 2271,
      "▁cimento": 2272,
      "▁bulent": 2273,
      "▁selim": 2274,
      "▁sanmıyorum": 2275,
      "▁international": 2276,
      "▁kem": 2277,
      "▁dergiler": 2278,
      "▁115": 2279,
      "##omb": 2280,
      "▁amerikan": 2281,
      "##land": 2282,
      "▁be": 2283,
      "▁belirli": 2284,
      "▁olacagını": 2285,
      "▁mısınız": 2286,
      "▁aylarda": 2287,
      "▁otekinden": 2288,
      "▁acisindan": 2289,
      "▁basladıgı": 2290,
      "▁dumanı": 2291,
      "▁koprunun": 2292,
      "##furt": 2293,
      "▁girdim": 2294,
      "▁kateg": 2295,
      "▁guber": 2296,
      "▁dolar": 2297,
      "▁enstit": 2298,
      "▁acıklıyor": 2299,
      "▁tası": 2300,
      "▁korumak": 2301,
      "##tis": 2302,
      "▁kızıl": 2303,
      "▁teyz": 2304,
      "▁durdu": 2305,
      "▁pasa'nın": 2306,
      "▁surede": 2307,
      "▁laci": 2308,
      "##ullah": 2309,
      "▁daldı": 2310,
      "▁birer": 2311,
      "▁cocuklu": 2312,
      "▁sevg": 2313,
      "▁hikaye": 2314,
      "##amayacak": 2315,
      "▁arkamdan": 2316,
      "##lice": 2317,
      "▁yek": 2318,
      "▁yakında": 2319,
      "▁147": 2320,
      "▁mulkiyet": 2321,
      "▁ent": 2322,
      "▁savunuyor": 2323,
      "▁doyum": 2324,
      "▁tucc": 2325,
      "▁kayıp": 2326,
      "##for": 2327,
      "▁kadınların": 2328,
      "▁kalıcı": 2329,
      "▁bunlara": 2330,
      "▁telefonla": 2331,
      "##baum": 2332,
      "▁sef": 2333,
      "▁dısarı": 2334,
      "▁bolgenin": 2335,
      "▁agır": 2336,
      "##ayıf": 2337,
      "##ations": 2338,
      "▁yuzles": 2339,
      "▁ettiginiz": 2340,
      "▁suleyman": 2341,
      "##mamak": 2342,
      "▁birbirinin": 2343,
      "##laya": 2344,
      "▁tefek": 2345,
      "▁indianapolis": 2346,
      "▁nikkei": 2347,
      "▁kaynaklan": 2348,
      "##lips": 2349,
      "##kur": 2350,
      "##anlık": 2351,
      "▁eylul": 2352,
      "▁sanatcılar": 2353,
      "▁ikibucuk": 2354,
      "▁istanbul'u": 2355,
      "##7.9": 2356,
      "▁3.9": 2357,
      "▁beyin": 2358,
      "▁calısan": 2359,
      "##lg": 2360,
      "▁1.7": 2361,
      "▁uyelik": 2362,
      "##tikleri": 2363,
      "▁sakallı": 2364,
      "▁ekledi": 2365,
      "##gimi": 2366,
      "▁peynir": 2367,
      "▁toplayan": 2368,
      "▁boynunda": 2369,
      "##'dan": 2370,
      "▁cek": 2371,
      "▁tanın": 2372,
      "▁1/": 2373,
      "##emesi": 2374,
      "▁boncuk": 2375,
      "▁et": 2376,
      "##orp": 2377,
      "▁cikol": 2378,
      "##ilerdi": 2379,
      "▁roportaj": 2380,
      "▁dogran": 2381,
      "▁varol": 2382,
      "▁calgı": 2383,
      "▁alabildigine": 2384,
      "▁kedi": 2385,
      "##lige": 2386,
      "▁muslum": 2387,
      "▁adamdı": 2388,
      "##3.8": 2389,
      "▁otob": 2390,
      "▁nut": 2391,
      "▁sir": 2392,
      "▁gidiyorduk": 2393,
      "▁nashville": 2394,
      "##likler": 2395,
      "##antaj": 2396,
      "##ker": 2397,
      "▁yetkisi": 2398,
      "▁olcum": 2399,
      "▁karsın": 2400,
      "▁isleri": 2401,
      "▁sent": 2402,
      "▁vaktiyle": 2403,
      "##umus": 2404,
      "▁hic": 2405,
      "▁otor": 2406,
      "##if": 2407,
      "▁degilsin": 2408,
      "▁islev": 2409,
      "▁projesi": 2410,
      "▁desteklemek": 2411,
      "▁suresini": 2412,
      "▁yem": 2413,
      "▁475000": 2414,
      "##meniz": 2415,
      "▁atılmıs": 2416,
      "##'yı": 2417,
      "▁guv": 2418,
      "##sine": 2419,
      "▁dengesiz": 2420,
      "▁3135": 2421,
      "▁icten": 2422,
      "▁calisan": 2423,
      "##arya": 2424,
      "▁--": 2425,
      "▁siddet": 2426,
      "##ıstı": 2427,
      "▁artır": 2428,
      "▁%6.90": 2429,
      "▁agresif": 2430,
      "##izik": 2431,
      "▁makin": 2432,
      "▁sekreteri": 2433,
      "##kul": 2434,
      "▁gelirse": 2435,
      "▁ayı": 2436,
      "##urlu": 2437,
      "##lebilecek": 2438,
      "▁cozmek": 2439,
      "##abilecek": 2440,
      "▁yaradılıs": 2441,
      "▁yatak": 2442,
      "##gunuz": 2443,
      "▁52": 2444,
      "▁kategorisi": 2445,
      "▁cuk": 2446,
      "▁tasıyor": 2447,
      "▁bun": 2448,
      "▁cazib": 2449,
      "▁ailesini": 2450,
      "▁varmıs": 2451,
      "▁hac": 2452,
      "▁odenecek": 2453,
      "##unun": 2454,
      "▁haval": 2455,
      "▁yenilg": 2456,
      "▁os": 2457,
      "▁besi": 2458,
      "▁ozver": 2459,
      "##sanız": 2460,
      "▁karsiladi": 2461,
      "▁mikr": 2462,
      "##adir": 2463,
      "##g": 2464,
      "▁ilgiliydiler": 2465,
      "##onk": 2466,
      "▁den": 2467,
      "▁hakim": 2468,
      "▁kacınılmaz": 2469,
      "▁telefon": 2470,
      "##2'ye": 2471,
      "▁aklım": 2472,
      "▁saglam": 2473,
      "▁umut": 2474,
      "▁duzel": 2475,
      "▁abart": 2476,
      "##lon": 2477,
      "▁atılım": 2478,
      "▁ortaklıgı": 2479,
      "▁tadını": 2480,
      "▁muamele": 2481,
      "##yiz": 2482,
      "▁hızlandır": 2483,
      "▁cant": 2484,
      "▁borcun": 2485,
      "##ihaz": 2486,
      "▁etmekte": 2487,
      "▁kib": 2488,
      "▁etm": 2489,
      "▁durumunu": 2490,
      "▁avrupa'ya": 2491,
      "▁vaziyet": 2492,
      "▁milyarını": 2493,
      "▁degismis": 2494,
      "▁tab": 2495,
      "##8.3": 2496,
      "▁”": 2497,
      "▁hukuk": 2498,
      "▁kad": 2499,
      "##sk": 2500,
      "##ısık": 2501,
      "▁fatura": 2502,
      "##memistir": 2503,
      "##ebon": 2504,
      "▁35000": 2505,
      "▁olurum": 2506,
      "▁hah": 2507,
      "▁518": 2508,
      "▁saygı": 2509,
      "▁deli": 2510,
      "##amadım": 2511,
      "▁olmas": 2512,
      "▁kızar": 2513,
      "▁urunleri": 2514,
      "▁orta": 2515,
      "##ko": 2516,
      "##meler": 2517,
      "▁salata": 2518,
      "##egas": 2519,
      "▁ikisini": 2520,
      "##dıklarını": 2521,
      "▁bina": 2522,
      "▁hız": 2523,
      "▁soyleyerek": 2524,
      "▁beach": 2525,
      "##age": 2526,
      "▁dern": 2527,
      "▁rekabetin": 2528,
      "▁tavsan": 2529,
      "##0.000": 2530,
      "▁tazmin": 2531,
      "▁gunlerini": 2532,
      "▁yapabil": 2533,
      "▁haber": 2534,
      "▁saffet": 2535,
      "▁balkan": 2536,
      "▁yuzyılda": 2537,
      "▁olabilecek": 2538,
      "▁sikintimiz": 2539,
      "▁yuruyordu": 2540,
      "▁gorusleri": 2541,
      "##ho": 2542,
      "▁hani": 2543,
      "▁jo": 2544,
      "▁tatildi": 2545,
      "▁fi": 2546,
      "▁jack": 2547,
      "##allah": 2548,
      "▁60000": 2549,
      "▁kalkacak": 2550,
      "▁15.8": 2551,
      "▁veya": 2552,
      "▁sacları": 2553,
      "▁kıbrıs": 2554,
      "▁kimsen": 2555,
      "▁evimizde": 2556,
      "▁avsar": 2557,
      "▁bilimi": 2558,
      "▁dolaylı": 2559,
      "▁sual": 2560,
      "▁saga": 2561,
      "▁banka": 2562,
      "▁com": 2563,
      "▁hosuma": 2564,
      "▁ye": 2565,
      "##ost": 2566,
      "▁fred": 2567,
      "▁anal": 2568,
      "▁karar": 2569,
      "▁montreal": 2570,
      "▁gelecekteki": 2571,
      "▁avustralya": 2572,
      "▁hatirlamiyorum": 2573,
      "##alarla": 2574,
      "▁kap": 2575,
      "##nut": 2576,
      "▁tr": 2577,
      "##\\/8'e": 2578,
      "▁sezl": 2579,
      "##gam": 2580,
      "##in": 2581,
      "▁vuruyor": 2582,
      "##23": 2583,
      "▁irf": 2584,
      "▁dusunun": 2585,
      "▁konusuyorlar": 2586,
      "##lusu": 2587,
      "▁buklum": 2588,
      "##tısına": 2589,
      "▁sınır": 2590,
      "▁tekerlek": 2591,
      "▁imaj": 2592,
      "▁orada": 2593,
      "▁misin": 2594,
      "c": 2595,
      "▁hın": 2596,
      "▁olanaklari": 2597,
      "▁ondokuz": 2598,
      "##kım": 2599,
      "##43": 2600,
      "##duncu": 2601,
      "▁kaldı": 2602,
      "▁kaliforn": 2603,
      "▁revize": 2604,
      "▁gune": 2605,
      "##kırı": 2606,
      "▁hayatımız": 2607,
      "▁columbia": 2608,
      "▁istemiyor": 2609,
      "▁baban": 2610,
      "▁tramv": 2611,
      "▁dogu'da": 2612,
      "▁yerler": 2613,
      "▁gozleri": 2614,
      "▁adeta": 2615,
      "▁acıklama": 2616,
      "▁1.42": 2617,
      "▁kimsenin": 2618,
      "▁intern": 2619,
      "▁altından": 2620,
      "▁mıdır": 2621,
      "▁iskel": 2622,
      "▁bek": 2623,
      "▁uzerindeydi": 2624,
      "▁muj": 2625,
      "##o'ya": 2626,
      "▁kumral": 2627,
      "▁istiklal": 2628,
      "▁sosyal": 2629,
      "▁min": 2630,
      "▁yasın": 2631,
      "▁senetlerinin": 2632,
      "▁6.9": 2633,
      "▁tanıs": 2634,
      "▁bosluk": 2635,
      "▁calısıyorlar": 2636,
      "▁lik": 2637,
      "##onspor": 2638,
      "▁hilm": 2639,
      "▁inkıl": 2640,
      "##trust": 2641,
      "▁hisseye": 2642,
      "▁onc": 2643,
      "▁bacak": 2644,
      "▁mısın": 2645,
      "▁teknede": 2646,
      "▁dosem": 2647,
      "▁uzaklastır": 2648,
      "##sas": 2649,
      "▁sayın": 2650,
      "▁catısma": 2651,
      "##amıyorum": 2652,
      "##son'un": 2653,
      "▁tesisten": 2654,
      "▁lezzetsiz": 2655,
      "##mekle": 2656,
      "##eyici": 2657,
      "▁otuz": 2658,
      "▁dikti": 2659,
      "▁ceyrekte": 2660,
      "▁haram": 2661,
      "##aten": 2662,
      "▁bakanlar": 2663,
      "▁bilgilendirilmek": 2664,
      "▁inis": 2665,
      "▁gozle": 2666,
      "##ansiy": 2667,
      "▁gunes": 2668,
      "##ımı": 2669,
      "##eceksin": 2670,
      "▁iptal": 2671,
      "▁ism": 2672,
      "▁istanbul'a": 2673,
      "▁bob": 2674,
      "▁icermektedir": 2675,
      "▁islemciler": 2676,
      "##alamak": 2677,
      "▁bircogu": 2678,
      "▁bahar": 2679,
      "▁nedense": 2680,
      "▁pkk": 2681,
      "▁uzul": 2682,
      "##cr": 2683,
      "##4'de": 2684,
      "##gum": 2685,
      "▁berbat": 2686,
      "▁cumle": 2687,
      "▁dusundum": 2688,
      "▁muvaff": 2689,
      "▁listeleyin": 2690,
      "▁kullanılmıs": 2691,
      "##lerce": 2692,
      "▁pacific": 2693,
      "▁cic": 2694,
      "▁alabil": 2695,
      "##ısal": 2696,
      "▁dort": 2697,
      "▁ikinc": 2698,
      "▁…": 2699,
      "▁menfa": 2700,
      "▁odada": 2701,
      "▁goremedim": 2702,
      "##esindeki": 2703,
      "▁milyonluk": 2704,
      "##yol": 2705,
      "▁altmıs": 2706,
      "▁jos": 2707,
      "▁tuh": 2708,
      "▁kurtarma": 2709,
      "##paz": 2710,
      "▁petrol": 2711,
      "▁2009": 2712,
      "▁ne": 2713,
      "▁kitab": 2714,
      "▁masal": 2715,
      "▁tamir": 2716,
      "▁kendisinden": 2717,
      "▁cle": 2718,
      "▁parkta": 2719,
      "##likti": 2720,
      "▁apartman": 2721,
      "▁fonu": 2722,
      "▁ediyor": 2723,
      "▁japon": 2724,
      "▁bitisik": 2725,
      "▁sokul": 2726,
      "▁trelleb": 2727,
      "▁koye": 2728,
      "##araj": 2729,
      "▁dolusu": 2730,
      "▁um": 2731,
      "##dikleri": 2732,
      "▁komsu": 2733,
      "▁elimde": 2734,
      "▁animasyon": 2735,
      "##over": 2736,
      "▁austral": 2737,
      "▁kisiye": 2738,
      "##apur": 2739,
      "▁oradaki": 2740,
      "▁olaca": 2741,
      "▁kaybetti": 2742,
      "##gis": 2743,
      "▁surer": 2744,
      "▁hukumeti": 2745,
      "▁avrupa": 2746,
      "▁airlines'in": 2747,
      "▁om": 2748,
      "▁nuf": 2749,
      "▁cam": 2750,
      "▁brez": 2751,
      "##tıgı": 2752,
      "▁lufthansa": 2753,
      "▁serbest": 2754,
      "▁inat": 2755,
      "▁yavasca": 2756,
      "▁piyas": 2757,
      "▁geciriyor": 2758,
      "##mini": 2759,
      "▁uste": 2760,
      "##lasıp": 2761,
      "▁dey": 2762,
      "▁toprak": 2763,
      "▁rezerv": 2764,
      "▁sehrinde": 2765,
      "▁olup": 2766,
      "▁2007'nin": 2767,
      "▁bahcı": 2768,
      "▁set": 2769,
      "▁beline": 2770,
      "▁rıhtım": 2771,
      "▁duy": 2772,
      "▁lar": 2773,
      "▁eagle": 2774,
      "▁kısır": 2775,
      "##'ini": 2776,
      "▁strate": 2777,
      "▁dob": 2778,
      "▁hayatın": 2779,
      "##ade": 2780,
      "▁istemeye": 2781,
      "##olm": 2782,
      "▁koruyor": 2783,
      "##eleyen": 2784,
      "##vek": 2785,
      "▁yapılandır": 2786,
      "▁keb": 2787,
      "6": 2788,
      "▁acıktı": 2789,
      "▁baslamıstı": 2790,
      "▁havuzdan": 2791,
      "▁un": 2792,
      "▁alar": 2793,
      "##al": 2794,
      "▁adamın": 2795,
      "▁...": 2796,
      "▁agb": 2797,
      "▁britan": 2798,
      "##ista": 2799,
      "▁bahce": 2800,
      "##lıydı": 2801,
      "##erdi": 2802,
      "▁%20": 2803,
      "▁yapmadıgını": 2804,
      "▁sapt": 2805,
      "▁munaseb": 2806,
      "##tılar": 2807,
      "▁muess": 2808,
      "▁birkacının": 2809,
      "▁fran": 2810,
      "▁tuhaf": 2811,
      "▁duygularını": 2812,
      "▁edecegim": 2813,
      "▁malz": 2814,
      "▁hus": 2815,
      "▁haric": 2816,
      "▁ucte": 2817,
      "▁hosnut": 2818,
      "##ydi": 2819,
      "▁gecmisti": 2820,
      "▁merkur": 2821,
      "▁gorevlisi": 2822,
      "▁oyunlar": 2823,
      "##ilig": 2824,
      "▁2.1": 2825,
      "▁zevk": 2826,
      "▁matematik": 2827,
      "▁sanatcı": 2828,
      "▁kuz": 2829,
      "▁askerler": 2830,
      "▁ettigimiz": 2831,
      "▁saglamak": 2832,
      "▁depremden": 2833,
      "▁pir": 2834,
      "▁surat": 2835,
      "▁bereket": 2836,
      "##orm": 2837,
      "##ımdaki": 2838,
      "▁ogrenc": 2839,
      "##zet": 2840,
      "##.0": 2841,
      "▁verileri": 2842,
      "##isyen": 2843,
      "▁tasarısı": 2844,
      "▁sizde": 2845,
      "▁saati": 2846,
      "▁zıp": 2847,
      "▁pittsburgh'tan": 2848,
      "▁durum": 2849,
      "##udum": 2850,
      "▁sokaga": 2851,
      "▁kenarına": 2852,
      "▁201622": 2853,
      "▁titiz": 2854,
      "▁bilmiyoruz": 2855,
      "▁o'": 2856,
      "▁bel": 2857,
      "##cul": 2858,
      "▁yeter": 2859,
      "▁ogret": 2860,
      "▁yuze": 2861,
      "▁ode": 2862,
      "▁birlesme": 2863,
      "##:00": 2864,
      "▁algı": 2865,
      "▁ilce": 2866,
      "▁atila": 2867,
      "▁karasu": 2868,
      "▁budak": 2869,
      "▁yeng": 2870,
      "‘": 2871,
      "▁yılında": 2872,
      "##ınıza": 2873,
      "▁kararın": 2874,
      "▁borsası'nda": 2875,
      "▁bildigi": 2876,
      "▁toplanan": 2877,
      "##tem": 2878,
      "##'m": 2879,
      "▁varlıklar": 2880,
      "▁santa": 2881,
      "##istir": 2882,
      "##oster": 2883,
      "▁anlıslanabilir": 2884,
      "▁ankete": 2885,
      "▁kaps": 2886,
      "▁kenara": 2887,
      "▁zorla": 2888,
      "##hard": 2889,
      "▁indian": 2890,
      "##cog": 2891,
      "▁yasemin": 2892,
      "▁siyas": 2893,
      "▁800": 2894,
      "▁jfk": 2895,
      "▁yapmadim": 2896,
      "▁kondu": 2897,
      "▁trafik": 2898,
      "▁oynayacak": 2899,
      "▁res": 2900,
      "▁yılan": 2901,
      "▁iliskin": 2902,
      "##'a": 2903,
      "▁duydu": 2904,
      "▁kırp": 2905,
      "▁keci": 2906,
      "▁terzi": 2907,
      "▁p&g": 2908,
      "▁seyh": 2909,
      "▁nek": 2910,
      "▁`": 2911,
      "##urdan": 2912,
      "▁uzaklastı": 2913,
      "##uza": 2914,
      "▁doktorun": 2915,
      "▁istekli": 2916,
      "##tının": 2917,
      "##mektedir": 2918,
      "▁sirketler": 2919,
      "▁aldıgını": 2920,
      "▁sonucları": 2921,
      "▁iyiles": 2922,
      "▁1961": 2923,
      "▁arizona": 2924,
      "▁isini": 2925,
      "▁atmosfer": 2926,
      "##ginde": 2927,
      "▁mutemadiyen": 2928,
      "▁mukelle": 2929,
      "▁inanılmaz": 2930,
      "##mesinde": 2931,
      "▁imtiy": 2932,
      "##til": 2933,
      "▁1.06": 2934,
      "▁terbiye": 2935,
      "▁mufet": 2936,
      "▁mekana": 2937,
      "▁41.60": 2938,
      "##oglu": 2939,
      "##ıydı": 2940,
      "▁selam": 2941,
      "▁94": 2942,
      "##mıyordu": 2943,
      "▁filmi": 2944,
      "▁olma": 2945,
      "▁britanya": 2946,
      "▁lut": 2947,
      "▁baslamadan": 2948,
      "▁odami": 2949,
      "##!": 2950,
      "##amayacagını": 2951,
      "▁baltimore'ye": 2952,
      "▁dim": 2953,
      "##eriya": 2954,
      "▁1.26": 2955,
      "▁kendinin": 2956,
      "##achusetts": 2957,
      "▁%2.7": 2958,
      "▁42": 2959,
      "▁golgesinde": 2960,
      "##dat": 2961,
      "▁gerdan": 2962,
      "##emizin": 2963,
      "##oya": 2964,
      "▁mel": 2965,
      "▁yapıyoruz": 2966,
      "▁mahk": 2967,
      "▁icimi": 2968,
      "##lık": 2969,
      "▁degerinde": 2970,
      "##fa": 2971,
      "▁bulup": 2972,
      "##ısına": 2973,
      "##bel": 2974,
      "##tum": 2975,
      "▁yun": 2976,
      "▁ontario": 2977,
      "▁7.98": 2978,
      "##anan": 2979,
      "▁sok": 2980,
      "##ustri": 2981,
      "▁bizlerin": 2982,
      "▁sorusturma": 2983,
      "▁tasıt": 2984,
      "▁oglunun": 2985,
      "▁dobra": 2986,
      "▁dunyada": 2987,
      "▁elemanlar": 2988,
      "▁0.24": 2989,
      "▁asagıda": 2990,
      "▁kriz": 2991,
      "##80": 2992,
      "▁bagısık": 2993,
      "##omet": 2994,
      "▁yeteri": 2995,
      "##uman": 2996,
      "▁hicbirisi": 2997,
      "▁tin": 2998,
      "▁basbak": 2999,
      "▁onar": 3000,
      "▁sacma": 3001,
      "▁chase": 3002,
      "▁hizmetten": 3003,
      "▁cocukca": 3004,
      "▁yemeklerini": 3005,
      "▁koru": 3006,
      "▁vadesi": 3007,
      "##emezsin": 3008,
      "▁cim": 3009,
      "##bul": 3010,
      "▁kumas": 3011,
      "▁teslim": 3012,
      "▁temizlikte": 3013,
      "##sizdi": 3014,
      "▁domates": 3015,
      "▁uygulama": 3016,
      "▁raf": 3017,
      "▁gorunur": 3018,
      "▁zamankinden": 3019,
      "▁karsılastırıldıgında": 3020,
      "▁verdigimiz": 3021,
      "##imizden": 3022,
      "▁dumduz": 3023,
      "▁cumhur": 3024,
      "▁mintan": 3025,
      "##/8": 3026,
      "▁ran": 3027,
      "▁uzaga": 3028,
      "▁saman": 3029,
      "▁cumhuriyetci": 3030,
      "▁benim": 3031,
      "▁27.5": 3032,
      "▁tur": 3033,
      "▁his": 3034,
      "▁vasıf": 3035,
      "▁asans": 3036,
      "▁noel": 3037,
      "▁eminim": 3038,
      "▁.8": 3039,
      "▁genellikle": 3040,
      "▁ailesi": 3041,
      "▁oldukları": 3042,
      "##sah": 3043,
      "▁pop": 3044,
      "▁anlamı": 3045,
      "##are": 3046,
      "▁bos": 3047,
      "##meden": 3048,
      "▁hat": 3049,
      "##ice": 3050,
      "▁eskiydi": 3051,
      "##unlu": 3052,
      "▁gunde": 3053,
      "▁jose'den": 3054,
      "▁konusmaya": 3055,
      "##lig": 3056,
      "▁diyebilirim": 3057,
      "▁musterileri": 3058,
      "▁portfoy": 3059,
      "▁havlu": 3060,
      "▁teb": 3061,
      "▁gazeteler": 3062,
      "▁bulamay": 3063,
      "▁corba": 3064,
      "▁mukemmel": 3065,
      "▁inc.'in": 3066,
      "▁duyan": 3067,
      "▁650": 3068,
      "▁havuzu": 3069,
      "▁sınav": 3070,
      "▁cayır": 3071,
      "▁dustuk": 3072,
      "▁avantaj": 3073,
      "▁varlıgını": 3074,
      "▁santorini": 3075,
      "##emem": 3076,
      "▁fannie": 3077,
      "▁sirket": 3078,
      "▁konuma": 3079,
      "▁insanların": 3080,
      "▁ederek": 3081,
      "▁gre": 3082,
      "▁ad": 3083,
      "##maktan": 3084,
      "▁korkuyor": 3085,
      "##vermis": 3086,
      "##abını": 3087,
      "##emistir": 3088,
      "▁avut": 3089,
      "▁480": 3090,
      "▁vucuda": 3091,
      "##tex": 3092,
      "▁ihtilaf": 3093,
      "▁tumu": 3094,
      "▁temizligi": 3095,
      "▁sog": 3096,
      "▁org": 3097,
      "##goz": 3098,
      "▁bilgilerini": 3099,
      "▁mum": 3100,
      "▁pencerenin": 3101,
      "▁atlanta'ya": 3102,
      "##olog": 3103,
      "▁hırsızlık": 3104,
      "▁fransa'nın": 3105,
      "▁koseye": 3106,
      "▁acik": 3107,
      "▁yt": 3108,
      "▁mutab": 3109,
      "▁sanatkar": 3110,
      "##asır": 3111,
      "▁sormak": 3112,
      "▁kims": 3113,
      "##iy": 3114,
      "▁ozellikle": 3115,
      "▁adında": 3116,
      "▁ilg": 3117,
      "##ikti": 3118,
      "▁tamamlanması": 3119,
      "▁donemi": 3120,
      "▁memnunum": 3121,
      "##ib": 3122,
      "##mazlar": 3123,
      "▁pekala": 3124,
      "▁itib": 3125,
      "▁philip": 3126,
      "▁kime": 3127,
      "▁holly": 3128,
      "▁kalitesi": 3129,
      "▁466": 3130,
      "##eld": 3131,
      "▁yenilen": 3132,
      "▁durmadan": 3133,
      "▁mikrop": 3134,
      "##etir": 3135,
      "▁banyo": 3136,
      "▁samimi": 3137,
      "▁teksas": 3138,
      "▁sonr": 3139,
      "##fon": 3140,
      "▁sureci": 3141,
      "▁yasıyor": 3142,
      "▁birbirini": 3143,
      "▁soyledik": 3144,
      "▁'di": 3145,
      "▁mir": 3146,
      "▁duzenleyen": 3147,
      "▁uretiyor": 3148,
      "▁atıyor": 3149,
      "▁oteden": 3150,
      "▁iy": 3151,
      "▁duymuyor": 3152,
      "▁bilin": 3153,
      "▁ankara": 3154,
      "▁sarsın": 3155,
      "▁cizgi": 3156,
      "##tıgını": 3157,
      "▁pac": 3158,
      "##atur": 3159,
      "▁rakamları": 3160,
      "▁baskent": 3161,
      "▁birinde": 3162,
      "##bol": 3163,
      "▁sehri": 3164,
      "▁fiyatlarındaki": 3165,
      "▁beyzbol": 3166,
      "▁5.9": 3167,
      "▁katında": 3168,
      "##ektr": 3169,
      "▁dinler": 3170,
      "▁goruyorum": 3171,
      "▁gozlerimi": 3172,
      "▁calısıyor": 3173,
      "##ilebilir": 3174,
      "▁kokulu": 3175,
      "##abilirler": 3176,
      "▁verimli": 3177,
      "▁petro": 3178,
      "##gım": 3179,
      "▁sonraki": 3180,
      "##4.5": 3181,
      "##.375": 3182,
      "▁saglıyor": 3183,
      "▁bıyıkları": 3184,
      "##lanıyor": 3185,
      "##fet": 3186,
      "▁paylas": 3187,
      "▁cıkart": 3188,
      "▁yazan": 3189,
      "##elif": 3190,
      "▁yapması": 3191,
      "▁yayınlan": 3192,
      "▁gorusu": 3193,
      "▁tal": 3194,
      "▁tutuk": 3195,
      "▁corap": 3196,
      "▁yemegin": 3197,
      "▁dusunmuyorum": 3198,
      "▁kurdular": 3199,
      "▁gogsun": 3200,
      "▁teror": 3201,
      "▁208": 3202,
      "▁patlıcan": 3203,
      "▁actıgı": 3204,
      "▁tavrı": 3205,
      "▁hattı": 3206,
      "▁ilgisizdi": 3207,
      "▁kapısında": 3208,
      "▁bakkal": 3209,
      "▁141.90": 3210,
      "▁temp": 3211,
      "##mi": 3212,
      "▁bilincli": 3213,
      "▁sı": 3214,
      "▁genelinde": 3215,
      "▁kampanyalardan": 3216,
      "▁amerika": 3217,
      "##ilen": 3218,
      "##ift": 3219,
      "##ales": 3220,
      "##90": 3221,
      "##9.9": 3222,
      "##2:30": 3223,
      "▁iltif": 3224,
      "##isin": 3225,
      "##stil": 3226,
      "▁florida": 3227,
      "▁tesir": 3228,
      "▁soyleniyor": 3229,
      "▁katib": 3230,
      "▁22-23": 3231,
      "▁aldıgımız": 3232,
      "▁tutma": 3233,
      "▁jose": 3234,
      "▁olus": 3235,
      "▁7'den": 3236,
      "▁yardımc": 3237,
      "▁kenar": 3238,
      "##tre": 3239,
      "▁simdiden": 3240,
      "##lumu": 3241,
      "▁parm": 3242,
      "▁geleni": 3243,
      "▁8.5": 3244,
      "▁haberler": 3245,
      "▁papaz": 3246,
      "▁kambiyo": 3247,
      "▁katildim": 3248,
      "##lama": 3249,
      "##lıgından": 3250,
      "▁sif": 3251,
      "##oniki": 3252,
      "▁kaba": 3253,
      "▁maas": 3254,
      "▁etrafı": 3255,
      "▁olum": 3256,
      "▁kapanıs": 3257,
      "▁gazetesinin": 3258,
      "▁cekilmesi": 3259,
      "▁oyalan": 3260,
      "▁derv": 3261,
      "▁miktar": 3262,
      "▁cevre": 3263,
      "▁cadde": 3264,
      "▁bulgur": 3265,
      "▁campe": 3266,
      "▁varil": 3267,
      "▁uzunca": 3268,
      "##lılar": 3269,
      "##etts": 3270,
      "▁planı": 3271,
      "▁kampanyası": 3272,
      "▁odun": 3273,
      "▁yeten": 3274,
      "▁gunlerce": 3275,
      "▁%85": 3276,
      "##yıl": 3277,
      "▁portf": 3278,
      "▁soyun": 3279,
      "▁1.": 3280,
      "▁huner": 3281,
      "▁25": 3282,
      "▁sorunlarının": 3283,
      "▁112": 3284,
      "▁noh": 3285,
      "##-s": 3286,
      "▁kupon": 3287,
      "▁25.000": 3288,
      "▁70'e": 3289,
      "▁soyledim": 3290,
      "▁abon": 3291,
      "##ums": 3292,
      "▁mucadel": 3293,
      "▁dısındaki": 3294,
      "▁cercevesinde": 3295,
      "▁dolma": 3296,
      "▁anladı": 3297,
      "▁tanıy": 3298,
      "▁kaldırım": 3299,
      "▁109": 3300,
      "▁sımsık": 3301,
      "▁guzelce": 3302,
      "▁0.6": 3303,
      "▁dc'de": 3304,
      "▁oak": 3305,
      "##delen": 3306,
      "##iyiz": 3307,
      "▁yelpaz": 3308,
      "▁6'dan": 3309,
      "▁515": 3310,
      "▁ogretmen": 3311,
      "▁g.": 3312,
      "▁buyuk": 3313,
      "##ub": 3314,
      "##ebil": 3315,
      "▁500'u": 3316,
      "##verdi": 3317,
      "##iger": 3318,
      "▁ayaklı": 3319,
      "▁karlar": 3320,
      "##tıyor": 3321,
      "▁kıraathan": 3322,
      "▁karsılıgını": 3323,
      "▁acılıyor": 3324,
      "▁1973": 3325,
      "▁tumuyle": 3326,
      "▁kim": 3327,
      "▁temiz": 3328,
      "▁esy": 3329,
      "▁boeing": 3330,
      "▁yengec": 3331,
      "▁oda": 3332,
      "##lesinde": 3333,
      "##sev": 3334,
      "▁sen": 3335,
      "▁uzeri": 3336,
      "▁dahilinde": 3337,
      "##larınız": 3338,
      "▁degerlendiril": 3339,
      "▁titreyerek": 3340,
      "##'yu": 3341,
      "▁91/2": 3342,
      "▁570": 3343,
      "▁yakin": 3344,
      "▁ray": 3345,
      "▁dul": 3346,
      "▁ras": 3347,
      "▁titriyordu": 3348,
      "▁philadelphia": 3349,
      "▁dong": 3350,
      "▁rutin": 3351,
      "▁tavan": 3352,
      "##isler": 3353,
      "▁mahkemesi": 3354,
      "##lerdir": 3355,
      "##uzel": 3356,
      "▁69": 3357,
      "▁karab": 3358,
      "▁yanından": 3359,
      "▁yonu": 3360,
      "▁arif": 3361,
      "▁bulgar": 3362,
      "▁basvuru": 3363,
      "▁arm": 3364,
      "▁fikr": 3365,
      "▁281": 3366,
      "▁sekilde": 3367,
      "##rum": 3368,
      "##alandı": 3369,
      "▁mumu": 3370,
      "▁donen": 3371,
      "##masi": 3372,
      "▁etkisi": 3373,
      "▁havayı": 3374,
      "▁25.8": 3375,
      "▁conn": 3376,
      "##ımdan": 3377,
      "▁johnson": 3378,
      "▁uysal": 3379,
      "▁babamı": 3380,
      "▁1900": 3381,
      "##iliyor": 3382,
      "▁kadir": 3383,
      "##.88": 3384,
      "##alan": 3385,
      "▁yayın": 3386,
      "▁10.3": 3387,
      "▁muhtem": 3388,
      "▁orgut": 3389,
      "▁ortada": 3390,
      "##-b": 3391,
      "##ic": 3392,
      "##detti": 3393,
      "▁yurt": 3394,
      "▁kulag": 3395,
      "▁gelistirme": 3396,
      "##753": 3397,
      "▁orn": 3398,
      "▁santral": 3399,
      "▁acıkla": 3400,
      "##esil": 3401,
      "##qu": 3402,
      "▁iad": 3403,
      "##edecek": 3404,
      "▁akrab": 3405,
      "▁fil": 3406,
      "▁9.81": 3407,
      "##on": 3408,
      "▁temin": 3409,
      "▁sum": 3410,
      "▁sirkete": 3411,
      "##abilir": 3412,
      "##esiyle": 3413,
      "▁mater": 3414,
      "##larımla": 3415,
      "▁kusk": 3416,
      "▁uzere": 3417,
      "▁mahm": 3418,
      "##ord": 3419,
      "▁yana": 3420,
      "▁825": 3421,
      "▁bırakıp": 3422,
      "▁ediyorlardı": 3423,
      "##amayız": 3424,
      "▁19.7": 3425,
      "▁achen": 3426,
      "▁2659.2": 3427,
      "▁kotules": 3428,
      "##ami": 3429,
      "##ich": 3430,
      "▁1989": 3431,
      "▁bazılarına": 3432,
      "##gıcı": 3433,
      "##ijinal": 3434,
      "##leye": 3435,
      "##esco": 3436,
      "▁kanaat": 3437,
      "▁japonya'nın": 3438,
      "▁dizgin": 3439,
      "▁dokunulmaz": 3440,
      "▁100": 3441,
      "▁nush": 3442,
      "▁nes": 3443,
      "▁muraca": 3444,
      "▁tadima": 3445,
      "▁satısını": 3446,
      "▁baskı": 3447,
      "▁tercih": 3448,
      "▁katk": 3449,
      "▁havanın": 3450,
      "▁cagr": 3451,
      "▁evir": 3452,
      "##iyorum": 3453,
      "▁yazıyor": 3454,
      "▁vb": 3455,
      "▁tespit": 3456,
      "▁1.38": 3457,
      "▁topragın": 3458,
      "▁odasında": 3459,
      "▁yoluyla": 3460,
      "▁asarak": 3461,
      "▁kullanılıyor": 3462,
      "▁ucumuz": 3463,
      "▁parmakları": 3464,
      "##125": 3465,
      "▁girip": 3466,
      "▁diye": 3467,
      "▁buldular": 3468,
      "▁852": 3469,
      "▁35": 3470,
      "▁ettik": 3471,
      "##ak": 3472,
      "▁1": 3473,
      "##dıgından": 3474,
      "▁abdul": 3475,
      "▁onunden": 3476,
      "▁fevkalade": 3477,
      "▁%99": 3478,
      "▁yakın": 3479,
      "▁dakik": 3480,
      "▁degisken": 3481,
      "##miz": 3482,
      "▁bayıl": 3483,
      "▁yahut": 3484,
      "▁yuzunde": 3485,
      "▁89.6": 3486,
      "▁kadını": 3487,
      "▁hu": 3488,
      "▁binmis": 3489,
      "▁irak'ta": 3490,
      "▁camur": 3491,
      "▁varsa": 3492,
      "##dıgın": 3493,
      "▁adlandırıyor": 3494,
      "▁alternatif": 3495,
      "▁seatt": 3496,
      "▁sozune": 3497,
      "▁ozgun": 3498,
      "▁dostu": 3499,
      "▁gelisim": 3500,
      "▁vardi": 3501,
      "h": 3502,
      "▁bekar": 3503,
      "▁daml": 3504,
      "▁1.03": 3505,
      "5": 3506,
      "▁yuzden": 3507,
      "▁pl": 3508,
      "▁bagırsak": 3509,
      "▁sayfa": 3510,
      "▁id": 3511,
      "▁fuj": 3512,
      "##kab": 3513,
      "▁yabancı": 3514,
      "##acıkta": 3515,
      "▁bulur": 3516,
      "▁adamları": 3517,
      "▁dibine": 3518,
      "▁deneyimli": 3519,
      "▁puan": 3520,
      "▁kotu": 3521,
      "##ons": 3522,
      "▁kork": 3523,
      "▁oylama": 3524,
      "▁522": 3525,
      "##eyecegini": 3526,
      "▁seferinde": 3527,
      "▁'lı": 3528,
      "▁sirkette": 3529,
      "▁arsız": 3530,
      "##baz": 3531,
      "▁yanı": 3532,
      "▁him": 3533,
      "▁ap": 3534,
      "▁akım": 3535,
      "▁konumda": 3536,
      "▁tev": 3537,
      "▁yıg": 3538,
      "▁stat": 3539,
      "▁ney": 3540,
      "▁esnasında": 3541,
      "▁kendimize": 3542,
      "▁dama": 3543,
      "##ield": 3544,
      "▁yetki": 3545,
      "▁zayif": 3546,
      "##nin": 3547,
      "▁cıkardı": 3548,
      "##00'den": 3549,
      "##ımları": 3550,
      "▁yurumeye": 3551,
      "▁zorluyor": 3552,
      "▁kızına": 3553,
      "▁sonuna": 3554,
      "▁kemal": 3555,
      "##ogramı": 3556,
      "▁dayat": 3557,
      "##inson": 3558,
      "▁iti": 3559,
      "▁fos": 3560,
      "▁civarı": 3561,
      "▁icini": 3562,
      "▁sozde": 3563,
      "▁pap": 3564,
      "##alanmıs": 3565,
      "▁2.45": 3566,
      "▁istedik": 3567,
      "##umuza": 3568,
      "▁ogluna": 3569,
      "▁soyleyebilir": 3570,
      "▁kun": 3571,
      "▁beyler": 3572,
      "▁doludur": 3573,
      "▁tacirler": 3574,
      "##leyici": 3575,
      "▁dak": 3576,
      "▁gaziantep": 3577,
      "▁urunu": 3578,
      "▁'ydi": 3579,
      "▁lıgı": 3580,
      "▁tokyo": 3581,
      "##on'un": 3582,
      "▁kaldırma": 3583,
      "▁konu": 3584,
      "▁alacagım": 3585,
      "##adag": 3586,
      "▁parayla": 3587,
      "▁sartları": 3588,
      "▁iskem": 3589,
      "##lasmıstı": 3590,
      "▁yası": 3591,
      "▁karamsar": 3592,
      "▁yonuyle": 3593,
      "▁askı": 3594,
      "##iyorlar": 3595,
      "▁citicorp": 3596,
      "▁bora": 3597,
      "▁almalar": 3598,
      "▁agaclarının": 3599,
      "▁business": 3600,
      "▁santor": 3601,
      "▁iyice": 3602,
      "##ser": 3603,
      "##ılsın": 3604,
      "##med": 3605,
      "▁yaramaz": 3606,
      "▁resmin": 3607,
      "▁otomotiv": 3608,
      "▁biten": 3609,
      "##zer": 3610,
      "▁mens": 3611,
      "▁unut": 3612,
      "▁sirk": 3613,
      "##iligi": 3614,
      "▁vs": 3615,
      "##ladı": 3616,
      "▁yapamaz": 3617,
      "##ix": 3618,
      "▁35587.85": 3619,
      "##go": 3620,
      "##tral": 3621,
      "##agıt": 3622,
      "▁gunlerden": 3623,
      "▁10": 3624,
      "▁hurmet": 3625,
      "▁halen": 3626,
      "▁mood": 3627,
      "##dirdi": 3628,
      "##.97": 3629,
      "▁iliskileri": 3630,
      "▁yolun": 3631,
      "▁artan": 3632,
      "▁dırlar": 3633,
      "▁birinin": 3634,
      "▁onde": 3635,
      "▁baska": 3636,
      "##ıyım": 3637,
      "##tık": 3638,
      "##.96": 3639,
      "▁yakalandı": 3640,
      "##der": 3641,
      "▁haziran": 3642,
      "▁ucretli": 3643,
      "▁yatır": 3644,
      "▁hasret": 3645,
      "▁elem": 3646,
      "##dız": 3647,
      "▁tulb": 3648,
      "▁bi": 3649,
      "▁amerikalılar": 3650,
      "▁gitmisti": 3651,
      "▁war": 3652,
      "▁baglilik": 3653,
      "▁kazıy": 3654,
      "▁kacta": 3655,
      "▁hep": 3656,
      "##bur": 3657,
      "▁sel": 3658,
      "▁muz": 3659,
      "▁asker": 3660,
      "▁aydın": 3661,
      "▁mantık": 3662,
      "##ecilik": 3663,
      "▁eksiksiz": 3664,
      "##lasan": 3665,
      "▁operasyonlarını": 3666,
      "▁gm": 3667,
      "▁journal'ın": 3668,
      "##ına": 3669,
      "▁hav": 3670,
      "▁durgun": 3671,
      "##.5": 3672,
      "▁hareketler": 3673,
      "▁1925": 3674,
      "▁bulabil": 3675,
      "##onel": 3676,
      "##.2": 3677,
      "▁verirler": 3678,
      "▁gozume": 3679,
      "▁quot": 3680,
      "▁%0.2": 3681,
      "▁derdi": 3682,
      "##digimi": 3683,
      "▁ve": 3684,
      "##deydin": 3685,
      "▁gozalt": 3686,
      "▁altın": 3687,
      "▁polis": 3688,
      "▁olaylar": 3689,
      "▁cesaret": 3690,
      "▁segment": 3691,
      "▁kotuydu": 3692,
      "▁eglen": 3693,
      "▁hizmetleri": 3694,
      "▁hemen": 3695,
      "▁odak": 3696,
      "##ikatur": 3697,
      "##illa": 3698,
      "▁vade": 3699,
      "##emiyordu": 3700,
      "##ıntı": 3701,
      "▁yon": 3702,
      "▁hey": 3703,
      "▁b.a.t": 3704,
      "▁1.1": 3705,
      "▁sal": 3706,
      "▁sahiptir": 3707,
      "▁muhab": 3708,
      "▁soylendi": 3709,
      "▁teknoloji": 3710,
      "▁ver": 3711,
      "▁olmayan": 3712,
      "▁bankası": 3713,
      "▁bosalt": 3714,
      "▁26000": 3715,
      "##leyen": 3716,
      "▁mukemmeldi": 3717,
      "▁york'taki": 3718,
      "##ya": 3719,
      "▁ilgilenmedi": 3720,
      "▁edecektir": 3721,
      "▁icer": 3722,
      "▁solda": 3723,
      "##ers": 3724,
      "▁hazırlanan": 3725,
      "##bil": 3726,
      "##ıcılar": 3727,
      "▁talip": 3728,
      "▁sicak": 3729,
      "▁yollar": 3730,
      "▁birak": 3731,
      "##suzdu": 3732,
      "▁karsılastırılabilir": 3733,
      "▁malzemeleri": 3734,
      "▁101": 3735,
      "▁koydular": 3736,
      "##luguna": 3737,
      "▁david": 3738,
      "▁kaptan": 3739,
      "▁carc": 3740,
      "▁indirimi": 3741,
      "▁gectigini": 3742,
      "▁%15": 3743,
      "▁co": 3744,
      "▁yasını": 3745,
      "▁ucmanın": 3746,
      "##'den": 3747,
      "▁northwest": 3748,
      "▁salın": 3749,
      "▁skandal": 3750,
      "▁saka": 3751,
      "▁dest": 3752,
      "▁hum": 3753,
      "▁elleri": 3754,
      "##ze": 3755,
      "▁isra": 3756,
      "▁bekliyordu": 3757,
      "▁ch": 3758,
      "▁yılki": 3759,
      "▁calısanların": 3760,
      "##az": 3761,
      "##elin": 3762,
      "▁calisanlardan": 3763,
      "▁yonetmen": 3764,
      "▁yayım": 3765,
      "▁yaklasımı": 3766,
      "▁yureginde": 3767,
      "▁odadan": 3768,
      "▁dedi": 3769,
      "##anı": 3770,
      "▁senedir": 3771,
      "##att": 3772,
      "▁kullanabil": 3773,
      "##icileri": 3774,
      "▁sabahı": 3775,
      "##1.2": 3776,
      "▁sp": 3777,
      "▁planlıyor": 3778,
      "▁mendi": 3779,
      "##dig": 3780,
      "##enn": 3781,
      "▁fan": 3782,
      "▁sokuldu": 3783,
      "▁dusunuyordu": 3784,
      "▁konusu": 3785,
      "▁yusuf": 3786,
      "##onelik": 3787,
      "▁olc": 3788,
      "▁bunlarda": 3789,
      "##p": 3790,
      "▁ortalık": 3791,
      "▁eger": 3792,
      "▁bahceli": 3793,
      "▁olmasına": 3794,
      "▁islemeli": 3795,
      "##kiz": 3796,
      "▁eas": 3797,
      "▁fab": 3798,
      "▁netic": 3799,
      "▁average": 3800,
      "▁qu": 3801,
      "▁gozunun": 3802,
      "▁etmeyecegini": 3803,
      "▁temsilcisi": 3804,
      "##bar": 3805,
      "▁bilmiyor": 3806,
      "▁perisan": 3807,
      "▁cin": 3808,
      "▁kredi": 3809,
      "##ıldıgı": 3810,
      "▁ikili": 3811,
      "▁kural": 3812,
      "▁harek": 3813,
      "▁luzum": 3814,
      "▁bolg": 3815,
      "▁kadınla": 3816,
      "▁milyarlar": 3817,
      "##'ne": 3818,
      "##landır": 3819,
      "##orn": 3820,
      "##ilt": 3821,
      "▁taylor": 3822,
      "▁avcı": 3823,
      "▁406": 3824,
      "##una": 3825,
      "▁1996": 3826,
      "▁yaz": 3827,
      "##rilyon": 3828,
      "▁9.5": 3829,
      "▁havaalanı": 3830,
      "▁bagı": 3831,
      "▁bw": 3832,
      "##web": 3833,
      "▁1977": 3834,
      "▁cektir": 3835,
      "##af": 3836,
      "▁city'den": 3837,
      "▁on": 3838,
      "▁kilomet": 3839,
      "▁isinden": 3840,
      "▁hedef": 3841,
      "▁etmiyor": 3842,
      "▁oyuncak": 3843,
      "▁pasif": 3844,
      "▁kentin": 3845,
      "##antep": 3846,
      "▁degildi": 3847,
      "▁temer": 3848,
      "▁ipotek": 3849,
      "##rken": 3850,
      "▁konser": 3851,
      "##anın": 3852,
      "##anlar": 3853,
      "▁nihai": 3854,
      "▁166.9": 3855,
      "▁kuvvetli": 3856,
      "▁sozles": 3857,
      "▁cılgın": 3858,
      "▁aktivite": 3859,
      "##siniz": 3860,
      "▁goturuyor": 3861,
      "▁ortasında": 3862,
      "▁alana": 3863,
      "▁``": 3864,
      "▁sizler": 3865,
      "▁asli": 3866,
      "▁arınc": 3867,
      "▁sesler": 3868,
      "▁sasır": 3869,
      "▁kolalı": 3870,
      "▁salona": 3871,
      "▁lerin": 3872,
      "▁reklam": 3873,
      "▁kadıkoy": 3874,
      "▁1960'": 3875,
      "▁32.125": 3876,
      "▁1.90": 3877,
      "##liklerini": 3878,
      "▁secenekleri": 3879,
      "▁satımı": 3880,
      "##ası": 3881,
      "▁dısına": 3882,
      "▁kulak": 3883,
      "▁istanbul'dan": 3884,
      "▁olmadi": 3885,
      "▁yetkili": 3886,
      "##landıgı": 3887,
      "▁17.01": 3888,
      "▁atacak": 3889,
      "##ars": 3890,
      "▁gazino": 3891,
      "▁qx": 3892,
      "▁ilgiliydi": 3893,
      "▁olabil": 3894,
      "##sek": 3895,
      "▁oy": 3896,
      "▁cocukların": 3897,
      "▁secim": 3898,
      "▁profesyon": 3899,
      "▁oyunun": 3900,
      "▁kısın": 3901,
      "▁beraber": 3902,
      "▁diego'ya": 3903,
      "▁gunler": 3904,
      "##bat": 3905,
      "▁pır": 3906,
      "##meyi": 3907,
      "▁veriyorum": 3908,
      "##amazdı": 3909,
      "▁tartısma": 3910,
      "▁yurtdisin": 3911,
      "▁seydir": 3912,
      "▁bazı": 3913,
      "▁alaka": 3914,
      "▁goremedik": 3915,
      "##ip": 3916,
      "▁cins": 3917,
      "▁ugras": 3918,
      "▁54": 3919,
      "▁neg": 3920,
      "▁%0.3": 3921,
      "▁olanagı": 3922,
      "▁gozet": 3923,
      "▁kapısından": 3924,
      "##fe": 3925,
      "▁agr": 3926,
      "##ikat": 3927,
      "▁oranının": 3928,
      "▁sirketlerini": 3929,
      "▁altust": 3930,
      "▁oldugunda": 3931,
      "▁ab": 3932,
      "▁dolayi": 3933,
      "▁hayır": 3934,
      "▁mav": 3935,
      "▁montreal'a": 3936,
      "▁mudahal": 3937,
      "▁silin": 3938,
      "▁yarattı": 3939,
      "▁yumru": 3940,
      "##ber": 3941,
      "▁uzuntu": 3942,
      "▁vazgec": 3943,
      "▁oluk": 3944,
      "▁yolunu": 3945,
      "##madıgı": 3946,
      "##ları": 3947,
      "▁parasını": 3948,
      "▁akadem": 3949,
      "▁4200'e": 3950,
      "▁roy": 3951,
      "##dilm": 3952,
      "##ann": 3953,
      "▁yasamadik": 3954,
      "▁kapladı": 3955,
      "##-": 3956,
      "▁in": 3957,
      "▁mevki": 3958,
      "▁tavuk": 3959,
      "##uldu": 3960,
      "▁oku": 3961,
      "▁adamla": 3962,
      "▁hasarı": 3963,
      "▁tersine": 3964,
      "▁vakt": 3965,
      "##sınız": 3966,
      "##lana": 3967,
      "▁giyinmis": 3968,
      "##yas": 3969,
      "▁lan": 3970,
      "##.95": 3971,
      "▁otelin": 3972,
      "▁yavrum": 3973,
      "▁medeni": 3974,
      "▁gurultu": 3975,
      "▁kaybeden": 3976,
      "##im": 3977,
      "##ilerine": 3978,
      "▁elbet": 3979,
      "▁ısın": 3980,
      "##lulugu": 3981,
      "▁1.08": 3982,
      "▁avrup": 3983,
      "▁goren": 3984,
      "▁asagıdaki": 3985,
      "▁dalgası": 3986,
      "▁burcu": 3987,
      "▁kapısını": 3988,
      "▁uygulanan": 3989,
      "▁lezzetliydi": 3990,
      "▁kust": 3991,
      "▁etk": 3992,
      "##isti": 3993,
      "##tedir": 3994,
      "▁heyeti": 3995,
      "▁dusundur": 3996,
      "▁kanad": 3997,
      "▁sayi": 3998,
      "##ımızı": 3999,
      "##*": 4000,
      "▁anlayan": 4001,
      "▁uretim": 4002,
      "##larıyla": 4003,
      "▁alıyor": 4004,
      "▁bonosu": 4005,
      "▁isteyecek": 4006,
      "##leme": 4007,
      "▁anlatmak": 4008,
      "▁donat": 4009,
      "##umuzde": 4010,
      "▁nufuz": 4011,
      "▁kaliteli": 4012,
      "##tcı": 4013,
      "▁pe": 4014,
      "▁topunuz": 4015,
      "▁yardıma": 4016,
      "▁sakat": 4017,
      "##ebilecegini": 4018,
      "▁sanatı": 4019,
      "##icisi": 4020,
      "▁yıla": 4021,
      "▁ucrete": 4022,
      "▁uretimin": 4023,
      "▁dokundu": 4024,
      "▁rah": 4025,
      "▁yukselmistir": 4026,
      "▁telefonu": 4027,
      "▁malzemesi": 4028,
      "▁ikibinuc'te": 4029,
      "##93": 4030,
      "▁web": 4031,
      "▁zır": 4032,
      "▁acaba": 4033,
      "▁altına": 4034,
      "▁worth'dan": 4035,
      "##iste": 4036,
      "▁sayisi": 4037,
      "##amamıs": 4038,
      "##esidir": 4039,
      "▁maymun": 4040,
      "##miyorum": 4041,
      "▁arabanın": 4042,
      "##fur": 4043,
      "▁birbucuk": 4044,
      "▁34": 4045,
      "▁karıstırın": 4046,
      "▁bec": 4047,
      "##teler": 4048,
      "##taj": 4049,
      "▁3.45": 4050,
      "##use": 4051,
      "▁tet": 4052,
      "▁memuriyet": 4053,
      "##ikler": 4054,
      "▁mesin": 4055,
      "▁er": 4056,
      "▁parcasını": 4057,
      "▁sorunları": 4058,
      "##ebilecek": 4059,
      "▁kullanılır": 4060,
      "##elop": 4061,
      "##di": 4062,
      "▁br": 4063,
      "▁kalabalik": 4064,
      "##ster": 4065,
      "▁dısarıdan": 4066,
      "▁arası": 4067,
      "▁oyuna": 4068,
      "▁restor": 4069,
      "##emiz": 4070,
      "##olf": 4071,
      "▁kaldırılması": 4072,
      "▁%25": 4073,
      "▁alan": 4074,
      "##0000": 4075,
      "▁dediler": 4076,
      "▁gencler": 4077,
      "▁yarıs": 4078,
      "▁ozellestir": 4079,
      "▁bakıma": 4080,
      "▁3.2": 4081,
      "▁getirdi": 4082,
      "▁listele": 4083,
      "▁26": 4084,
      "##aydın": 4085,
      "▁kırlangıc": 4086,
      "▁kir": 4087,
      "▁yabanci": 4088,
      "▁faaliyet": 4089,
      "▁kerim": 4090,
      "▁elinde": 4091,
      "▁almaya": 4092,
      "▁jand": 4093,
      "▁ajans": 4094,
      "##2": 4095,
      "##lestirdi": 4096,
      "▁tutun": 4097,
      "▁makine": 4098,
      "▁gerisi": 4099,
      "▁rjr": 4100,
      "##eler": 4101,
      "▁festiv": 4102,
      "##a'da": 4103,
      "▁yirmisekiz": 4104,
      "▁tahmini": 4105,
      "▁yapıyorlar": 4106,
      "##alog": 4107,
      "▁basarıya": 4108,
      "▁kafasını": 4109,
      "▁olumsuz": 4110,
      "▁rustu": 4111,
      "▁bıraktım": 4112,
      "▁sing": 4113,
      "##os'un": 4114,
      "▁ailesinin": 4115,
      "▁yapıldıgı": 4116,
      "##seri": 4117,
      "##amda": 4118,
      "▁cekim": 4119,
      "▁capında": 4120,
      "##afet": 4121,
      "##dev": 4122,
      "▁payını": 4123,
      "▁dalmıs": 4124,
      "##tur": 4125,
      "▁1.71": 4126,
      "▁birincisi": 4127,
      "▁surerek": 4128,
      "##net": 4129,
      "▁kullanarak": 4130,
      "y": 4131,
      "▁4.8": 4132,
      "##6.5": 4133,
      "▁karsılıgında": 4134,
      "▁masaj": 4135,
      "##van": 4136,
      "▁kaydeden": 4137,
      "##likte": 4138,
      "▁bog": 4139,
      "▁acıyor": 4140,
      "##ısın": 4141,
      "▁gozlem": 4142,
      "▁soy": 4143,
      "▁177": 4144,
      "▁cezasını": 4145,
      "▁armagan": 4146,
      "##ith": 4147,
      "▁katana": 4148,
      "▁belle": 4149,
      "▁yerlere": 4150,
      "##4.8": 4151,
      "▁musterilere": 4152,
      "▁suslu": 4153,
      "▁oylesine": 4154,
      "▁muhtar": 4155,
      "▁2.90": 4156,
      "▁eserleri": 4157,
      "▁diyarbakır": 4158,
      "▁havuzundan": 4159,
      "▁subv": 4160,
      "##kanlı": 4161,
      "##amayan": 4162,
      "▁gecmiyor": 4163,
      "##ılıgıyla": 4164,
      "▁radikal": 4165,
      "▁darb": 4166,
      "▁birkac": 4167,
      "##inaden": 4168,
      "▁600": 4169,
      "##acagımı": 4170,
      "▁anim": 4171,
      "▁kavur": 4172,
      "▁ısır": 4173,
      "##ess": 4174,
      "▁almadim": 4175,
      "▁diego": 4176,
      "##0'": 4177,
      "▁ihtiyat": 4178,
      "▁patates": 4179,
      "▁ilgisiz": 4180,
      "▁ekleyerek": 4181,
      "▁satmayı": 4182,
      "▁direkt": 4183,
      "▁de": 4184,
      "##30": 4185,
      "##'nu": 4186,
      "▁tamamladı": 4187,
      "##cının": 4188,
      "▁muzaffer": 4189,
      "▁sesini": 4190,
      "##eyim": 4191,
      "▁gir": 4192,
      "▁iflas": 4193,
      "▁musik": 4194,
      "▁200000": 4195,
      "##ld": 4196,
      "▁duzine": 4197,
      "▁itibariyle": 4198,
      "▁kazanc": 4199,
      "##ılmak": 4200,
      "▁ydik": 4201,
      "▁halihazırda": 4202,
      "▁olmasıdır": 4203,
      "▁kızının": 4204,
      "▁mutem": 4205,
      "▁karanlık": 4206,
      "▁giymis": 4207,
      "▁cagrı": 4208,
      "▁times": 4209,
      "▁abd'ye": 4210,
      "▁ornegin": 4211,
      "▁tasıy": 4212,
      "▁fut": 4213,
      "##acagız": 4214,
      "▁1974": 4215,
      "▁ihtiyac": 4216,
      "▁hamle": 4217,
      "▁mart": 4218,
      "▁yse": 4219,
      "▁kontrol": 4220,
      "▁yapr": 4221,
      "▁j": 4222,
      "▁bekir": 4223,
      "▁marat": 4224,
      "▁hosgor": 4225,
      "▁sıt": 4226,
      "▁karadeniz": 4227,
      "▁hacm": 4228,
      "▁yapının": 4229,
      "▁oz": 4230,
      "▁piy": 4231,
      "##vıl": 4232,
      "▁yansıtıyor": 4233,
      "x": 4234,
      "▁korkunc": 4235,
      "▁merrill": 4236,
      "▁bitmisti": 4237,
      "▁alevi": 4238,
      "▁kullanmaya": 4239,
      "▁bileti": 4240,
      "##ans": 4241,
      "▁aramayin": 4242,
      "▁koskoca": 4243,
      "▁eksi": 4244,
      "▁mam": 4245,
      "▁ulkeleri": 4246,
      "##vili": 4247,
      "##he": 4248,
      "##ladın": 4249,
      "▁herkesin": 4250,
      "▁2.2": 4251,
      "▁kamuoy": 4252,
      "▁zat": 4253,
      "▁odayı": 4254,
      "▁sonra": 4255,
      "##ısı": 4256,
      "▁gemiydi": 4257,
      "▁duz": 4258,
      "##.1": 4259,
      "▁87": 4260,
      "##gının": 4261,
      "▁minnet": 4262,
      "▁kalabalikti": 4263,
      "##aydı": 4264,
      "##ya'da": 4265,
      "=": 4266,
      "▁olarak": 4267,
      "▁odamdan": 4268,
      "▁625.4": 4269,
      "##tıkları": 4270,
      "▁194": 4271,
      "▁kurmus": 4272,
      "##meleri": 4273,
      "▁kırıl": 4274,
      "▁communications": 4275,
      "▁stone": 4276,
      "▁don": 4277,
      "▁sizlere": 4278,
      "▁tavsiye": 4279,
      "▁kurnaz": 4280,
      "##layı": 4281,
      "▁mic": 4282,
      "▁mos": 4283,
      "▁yasamın": 4284,
      "▁psil": 4285,
      "▁cuz": 4286,
      "4": 4287,
      "▁ekip": 4288,
      "▁yuzum": 4289,
      "▁ilave": 4290,
      "▁si": 4291,
      "▁yasında": 4292,
      "▁konut": 4293,
      "▁arabalar": 4294,
      "▁carpıs": 4295,
      "▁yaptıgını": 4296,
      "##`": 4297,
      "▁magaza": 4298,
      "▁gorundugu": 4299,
      "▁porcuk": 4300,
      "▁toplayıp": 4301,
      "▁baglantılı": 4302,
      "▁ret": 4303,
      "▁gitar": 4304,
      "▁marifet": 4305,
      "▁belirlenen": 4306,
      "▁tutsak": 4307,
      "▁reddet": 4308,
      "▁isyan": 4309,
      "▁asansor": 4310,
      "▁toparlan": 4311,
      "▁degilse": 4312,
      "▁calısmak": 4313,
      "##ime": 4314,
      "##ıslar": 4315,
      "▁burosunda": 4316,
      "▁if": 4317,
      "##'sı": 4318,
      "▁e": 4319,
      "▁perdesi": 4320,
      "▁ulkeler": 4321,
      "▁kisiyi": 4322,
      "##eleri": 4323,
      "▁karları": 4324,
      "▁acmıstır": 4325,
      "▁3/8": 4326,
      "▁lerdir": 4327,
      "▁hukm": 4328,
      "▁islemlerine": 4329,
      "▁haftada": 4330,
      "##imi": 4331,
      "▁pasa": 4332,
      "▁hukmet": 4333,
      "##tın": 4334,
      "▁bond": 4335,
      "▁yaparken": 4336,
      "##46": 4337,
      "▁elle": 4338,
      "▁epey": 4339,
      "▁hukum": 4340,
      "▁pufur": 4341,
      "▁haldun": 4342,
      "##so": 4343,
      "##bos": 4344,
      "▁bakıyor": 4345,
      "▁ucus": 4346,
      "▁yuruyen": 4347,
      "▁havuzun": 4348,
      "▁yasadık": 4349,
      "▁endustrisi": 4350,
      "▁yaman": 4351,
      "▁9": 4352,
      "▁faz": 4353,
      "▁tahıl": 4354,
      "##ilecek": 4355,
      "▁pur": 4356,
      "##'nı": 4357,
      "▁calıstım": 4358,
      "▁kendimden": 4359,
      "▁uzadı": 4360,
      "▁geldigimiz": 4361,
      "▁konuları": 4362,
      "▁5.7": 4363,
      "▁111": 4364,
      "▁yakısıklı": 4365,
      "▁beyle": 4366,
      "▁otoy": 4367,
      "##ft": 4368,
      "▁haklarını": 4369,
      "▁ucuslar": 4370,
      "▁amacıyla": 4371,
      "▁cag": 4372,
      "▁arabaya": 4373,
      "##bes": 4374,
      "▁basladılar": 4375,
      "▁oldukca": 4376,
      "##giniz": 4377,
      "▁aradan": 4378,
      "▁gecm": 4379,
      "##dı": 4380,
      "▁almayı": 4381,
      "##duy": 4382,
      "▁3.13": 4383,
      "##acasına": 4384,
      "##subishi": 4385,
      "▁aylar": 4386,
      "▁kimlik": 4387,
      "▁ho": 4388,
      "g": 4389,
      "▁ayakk": 4390,
      "▁polit": 4391,
      "▁elver": 4392,
      "▁stok": 4393,
      "▁nihat": 4394,
      "▁meclis": 4395,
      "▁425000": 4396,
      "▁kılıc": 4397,
      "▁tutustur": 4398,
      "▁kapının": 4399,
      "▁far": 4400,
      "▁,": 4401,
      "▁cıkabilir": 4402,
      "▁nuri": 4403,
      "▁safh": 4404,
      "▁ameliyat": 4405,
      "▁508": 4406,
      "▁kayısı": 4407,
      "▁iskence": 4408,
      "▁aldık": 4409,
      "▁yitir": 4410,
      "▁board": 4411,
      "▁besinci": 4412,
      "##pus": 4413,
      "##ama": 4414,
      "▁emeklilik": 4415,
      "▁40.4": 4416,
      "▁zer": 4417,
      "▁tanıtım": 4418,
      "▁yerine": 4419,
      "▁cicek": 4420,
      "##kaya": 4421,
      "▁prenses": 4422,
      "▁kıymet": 4423,
      "▁somut": 4424,
      "▁bitir": 4425,
      "▁kalma": 4426,
      "▁duran": 4427,
      "▁baslayacak": 4428,
      "▁serseri": 4429,
      "▁kelep": 4430,
      "▁meydana": 4431,
      "▁soyluyorum": 4432,
      "##radı": 4433,
      "▁yavas": 4434,
      "▁kendileriyle": 4435,
      "▁2.75": 4436,
      "▁durumdan": 4437,
      "▁cıkmadı": 4438,
      "▁sipar": 4439,
      "▁2662.91": 4440,
      "▁ragmen": 4441,
      "##dor": 4442,
      "▁musa": 4443,
      "▁ismet": 4444,
      "▁almaktadır": 4445,
      "▁salt": 4446,
      "▁nakit": 4447,
      "▁300": 4448,
      "##masını": 4449,
      "▁gidilebilecek": 4450,
      "▁vardır": 4451,
      "▁hakem": 4452,
      "▁w": 4453,
      "▁ymıs": 4454,
      "▁6.76": 4455,
      "▁israil": 4456,
      "▁planlarını": 4457,
      "▁temelinde": 4458,
      "▁kisiden": 4459,
      "▁sahipti": 4460,
      "▁yene": 4461,
      "##guzel": 4462,
      "▁fasuly": 4463,
      "▁uzak": 4464,
      "▁cekiyor": 4465,
      "▁sears": 4466,
      "▁gecis": 4467,
      "##ma": 4468,
      "▁fiyati": 4469,
      "▁yaban": 4470,
      "▁saglayacak": 4471,
      "▁net": 4472,
      "▁uctu": 4473,
      "▁orani": 4474,
      "▁bakan": 4475,
      "##luga": 4476,
      "##mıslar": 4477,
      "▁herk": 4478,
      "▁sonradan": 4479,
      "▁siper": 4480,
      "▁toplulugun": 4481,
      "▁birimize": 4482,
      "▁gov": 4483,
      "##ilmemis": 4484,
      "▁kurdugu": 4485,
      "##lasır": 4486,
      "▁havaalanından": 4487,
      "##ligini": 4488,
      "▁yetmez": 4489,
      "▁zafer": 4490,
      "▁yorg": 4491,
      "▁tehlike": 4492,
      "▁onunla": 4493,
      "▁yiyecekler": 4494,
      "▁olmuyor": 4495,
      "##dog": 4496,
      "▁agzını": 4497,
      "▁doksaniki": 4498,
      "▁caz": 4499,
      "▁buyukel": 4500,
      "▁yatırımları": 4501,
      "▁hayal": 4502,
      "##esyon": 4503,
      "##isi": 4504,
      "▁bey": 4505,
      "##izdi": 4506,
      "▁ithalat": 4507,
      "▁hayv": 4508,
      "##-c": 4509,
      "▁hazırlanıyor": 4510,
      "▁83": 4511,
      "▁smith": 4512,
      "▁iletisim": 4513,
      "▁tipik": 4514,
      "▁olurdum": 4515,
      "▁hazine": 4516,
      "▁cd": 4517,
      "▁ogle": 4518,
      "##otik": 4519,
      "▁vegas'a": 4520,
      "▁kurulunun": 4521,
      "▁severim": 4522,
      "▁komisyon": 4523,
      "▁derinden": 4524,
      "▁konuk": 4525,
      "##lanarak": 4526,
      "▁21.": 4527,
      "##larının": 4528,
      "▁fik": 4529,
      "▁vilayet": 4530,
      "▁duzenlenen": 4531,
      "▁1.25": 4532,
      "##ds": 4533,
      "▁yazıyı": 4534,
      "▁925": 4535,
      "▁biter": 4536,
      "▁ikib": 4537,
      "##cılık": 4538,
      "##mam": 4539,
      "▁bozulmus": 4540,
      "▁zamanla": 4541,
      "▁bulunmak": 4542,
      "▁cincinnati'ye": 4543,
      "▁atol": 4544,
      "##ledik": 4545,
      "▁ingiliz": 4546,
      "▁daglar": 4547,
      "▁seytan": 4548,
      "##istiy": 4549,
      "▁kalb": 4550,
      "▁memur": 4551,
      "▁ayna": 4552,
      "▁baslıca": 4553,
      "▁saatlerdeki": 4554,
      "##.c": 4555,
      "▁gore": 4556,
      "▁ortamı": 4557,
      "▁gelmesi": 4558,
      "▁kaydet": 4559,
      "##eceginden": 4560,
      "▁adnan": 4561,
      "▁asama": 4562,
      "▁hangisi": 4563,
      "▁maddi": 4564,
      "▁omrunde": 4565,
      "▁mevcuttur": 4566,
      "▁fırsat": 4567,
      "▁istasyonu": 4568,
      "▁amerika'nın": 4569,
      "▁borc": 4570,
      "▁dunya'nın": 4571,
      "▁diyarbakır'a": 4572,
      "▁mor": 4573,
      "##lasın": 4574,
      "▁muhafaza": 4575,
      "▁odul": 4576,
      "##emex": 4577,
      "▁nadi": 4578,
      "▁samet": 4579,
      "##ici": 4580,
      "##larına": 4581,
      "▁tutus": 4582,
      "▁begenmedim": 4583,
      "##gim": 4584,
      "▁surecinde": 4585,
      "▁sadak": 4586,
      "##dokuzyuzdoksan": 4587,
      "▁duvarda": 4588,
      "▁yavr": 4589,
      "▁sanırım": 4590,
      "▁sebebini": 4591,
      "▁kuslar": 4592,
      "##bir": 4593,
      "##0'lik": 4594,
      "▁1.5795": 4595,
      "▁telafi": 4596,
      "▁haksızlık": 4597,
      "▁kesinlikle": 4598,
      "▁iliskiler": 4599,
      "▁isletiyor": 4600,
      "▁universit": 4601,
      "▁strateji": 4602,
      "##elmis": 4603,
      "##oln": 4604,
      "▁kalitesinden": 4605,
      "▁doner": 4606,
      "##ıyorlardı": 4607,
      "▁bulanık": 4608,
      "##ihat": 4609,
      "▁arkadasım": 4610,
      "▁odan": 4611,
      "▁dua": 4612,
      "▁katrilyon": 4613,
      "▁hayvan": 4614,
      "▁resepsiyon": 4615,
      "▁torun": 4616,
      "▁cıt": 4617,
      "▁digital": 4618,
      "▁oncesine": 4619,
      "##org": 4620,
      "▁ısıkları": 4621,
      "▁yazmak": 4622,
      "##sunuz": 4623,
      "##ebec": 4624,
      "▁kasaba": 4625,
      "▁egitimi": 4626,
      "▁05.": 4627,
      "▁arkadasını": 4628,
      "▁gece": 4629,
      "##den": 4630,
      "▁ydim": 4631,
      "▁arkamda": 4632,
      "▁isbir": 4633,
      "▁cokmus": 4634,
      "##'lik": 4635,
      "▁oyna": 4636,
      "▁alab": 4637,
      "▁kurallar": 4638,
      "##lanan": 4639,
      "▁kullanmadim": 4640,
      "▁odaydi": 4641,
      "▁gosterirler": 4642,
      "▁yaparlar": 4643,
      "▁he": 4644,
      "##ilir": 4645,
      "▁isimler": 4646,
      "▁1.45": 4647,
      "▁olanaklarını": 4648,
      "▁itir": 4649,
      "▁222": 4650,
      "##dıgında": 4651,
      "▁edilmektedir": 4652,
      "▁kendilerinden": 4653,
      "▁guzeldi": 4654,
      "▁duman": 4655,
      "▁kalmadigim": 4656,
      "▁dinlenmek": 4657,
      "▁w.": 4658,
      "▁1.875": 4659,
      "▁essiz": 4660,
      "▁birles": 4661,
      "▁seattle": 4662,
      "▁bebegi": 4663,
      "##-m": 4664,
      "▁layık": 4665,
      "##muyordu": 4666,
      "▁caddenin": 4667,
      "▁cezası": 4668,
      "▁kalması": 4669,
      "▁toronto'ya": 4670,
      "##6'ya": 4671,
      "##e": 4672,
      "▁islemler": 4673,
      "▁koyup": 4674,
      "▁yıllardır": 4675,
      "▁saglay": 4676,
      "##elenen": 4677,
      "▁2.50": 4678,
      "▁kot": 4679,
      "▁959.3": 4680,
      "##emek": 4681,
      "▁2003": 4682,
      "▁28": 4683,
      "▁degisiklikleri": 4684,
      "##ket": 4685,
      "▁bela": 4686,
      "▁karmasık": 4687,
      "▁arkada": 4688,
      "▁sunları": 4689,
      "▁gittim": 4690,
      "▁ifad": 4691,
      "▁gorunmuyor": 4692,
      "▁kez": 4693,
      "▁6.6": 4694,
      "▁kosa": 4695,
      "▁2017": 4696,
      "▁500000": 4697,
      "▁zeytinyagı": 4698,
      "▁doları'nda": 4699,
      "▁etmeye": 4700,
      "▁sarap": 4701,
      "▁bankacı": 4702,
      "▁zih": 4703,
      "▁icra": 4704,
      "▁191": 4705,
      "▁herkesten": 4706,
      "##'lu": 4707,
      "▁sandaly": 4708,
      "▁salınc": 4709,
      "▁bom": 4710,
      "▁bolum": 4711,
      "▁keleb": 4712,
      "▁1997": 4713,
      "▁bakım": 4714,
      "▁birileri": 4715,
      "▁dusup": 4716,
      "▁bilesik": 4717,
      "▁ikisinin": 4718,
      "▁seylere": 4719,
      "▁22.": 4720,
      "▁associ": 4721,
      "##egin": 4722,
      "##amaz": 4723,
      "##ilerinin": 4724,
      "##ilmez": 4725,
      "##altı": 4726,
      "##igit": 4727,
      "▁cıktıgını": 4728,
      "▁lutfen": 4729,
      "▁sapka": 4730,
      "▁diktator": 4731,
      "▁piyasasının": 4732,
      "▁cip": 4733,
      "▁secimi": 4734,
      "##otte": 4735,
      "▁sabahın": 4736,
      "▁edemiyor": 4737,
      "▁tarafın": 4738,
      "##bus": 4739,
      "##ps": 4740,
      "▁korktu": 4741,
      "▁1989-": 4742,
      "▁edip": 4743,
      "▁1960": 4744,
      "▁bran": 4745,
      "▁kalite": 4746,
      "▁gercekci": 4747,
      "▁tahammul": 4748,
      "▁isletme": 4749,
      "##2.91": 4750,
      "▁yoktu": 4751,
      "▁arat": 4752,
      "▁ih": 4753,
      "▁zul": 4754,
      "▁'dır": 4755,
      "▁duzlem": 4756,
      "▁ayın": 4757,
      "▁ik": 4758,
      "▁ureticiler": 4759,
      "▁konaklama": 4760,
      "▁boylu": 4761,
      "▁ilerledi": 4762,
      "▁onlarda": 4763,
      "▁oturma": 4764,
      "▁goruldu": 4765,
      "▁dostum": 4766,
      "▁nedim": 4767,
      "▁adamlarının": 4768,
      "▁ziyaret": 4769,
      "▁rahmet": 4770,
      "##bo": 4771,
      "▁read": 4772,
      "▁hediye": 4773,
      "▁william": 4774,
      "▁cit": 4775,
      "▁duyunca": 4776,
      "▁te": 4777,
      "▁kaldıgı": 4778,
      "▁cetin": 4779,
      "##taraf": 4780,
      "▁dogmus": 4781,
      "##ındak": 4782,
      "##acaklarını": 4783,
      "▁doların": 4784,
      "▁hiss": 4785,
      "##likten": 4786,
      "##medi": 4787,
      "##fi": 4788,
      "▁oyn": 4789,
      "▁gozunu": 4790,
      "▁abd'nin": 4791,
      "▁abdullah": 4792,
      "▁yaratan": 4793,
      "▁ecevit": 4794,
      "▁destekli": 4795,
      "▁ekonomist": 4796,
      "▁resesyon": 4797,
      "##arlık": 4798,
      "▁nedenle": 4799,
      "##lısı": 4800,
      "▁yanını": 4801,
      "▁hugo": 4802,
      "▁isciyi": 4803,
      "▁dukkanın": 4804,
      "▁danısmanlık": 4805,
      "▁9.7": 4806,
      "▁ugur": 4807,
      "▁ingilizce": 4808,
      "▁katlı": 4809,
      ";": 4810,
      "##na": 4811,
      "▁degerlendirmek": 4812,
      "▁yog": 4813,
      "▁ticareti": 4814,
      "▁pasap": 4815,
      "▁senden": 4816,
      "▁hakikat": 4817,
      "▁gunden": 4818,
      "##bine": 4819,
      "▁kısk": 4820,
      "▁ust": 4821,
      "##amlı": 4822,
      "▁bug": 4823,
      "▁memnun": 4824,
      "▁idare": 4825,
      "##pa": 4826,
      "▁pay": 4827,
      "##ginden": 4828,
      "##aliydi": 4829,
      "▁kararlastır": 4830,
      "▁ettikten": 4831,
      "▁agac": 4832,
      "▁27": 4833,
      "##larsa": 4834,
      "▁olumune": 4835,
      "▁dalgaliydi": 4836,
      "##ındaydı": 4837,
      "▁cra": 4838,
      "▁yerlesik": 4839,
      "##'n": 4840,
      "##ilip": 4841,
      "▁miy": 4842,
      "##dadı": 4843,
      "##irmi": 4844,
      "##ligine": 4845,
      "▁havaya": 4846,
      "▁bakınız": 4847,
      "▁dusmek": 4848,
      "▁sci": 4849,
      "▁akıllı": 4850,
      "▁yemin": 4851,
      "▁sırtını": 4852,
      "▁ayrılık": 4853,
      "▁edilec": 4854,
      "##ois": 4855,
      "▁dengeli": 4856,
      "▁12.3": 4857,
      "▁duzenleyici": 4858,
      "▁mısır": 4859,
      "▁sorustur": 4860,
      "▁29": 4861,
      "##mıstım": 4862,
      "▁soylemek": 4863,
      "▁53": 4864,
      "▁dallas": 4865,
      "##ee": 4866,
      "##sık": 4867,
      "▁542": 4868,
      "▁yapmıslar": 4869,
      "▁kaydetti": 4870,
      "▁yı": 4871,
      "▁rub": 4872,
      "▁tutarak": 4873,
      "▁temerrut": 4874,
      "▁sola": 4875,
      "##pi": 4876,
      "▁detay": 4877,
      "▁didik": 4878,
      "▁durdur": 4879,
      "▁kaldır": 4880,
      "##'da": 4881,
      "##uldugu": 4882,
      "▁cadd": 4883,
      "##ledi": 4884,
      "▁ramaz": 4885,
      "##res": 4886,
      "▁kapasitesine": 4887,
      "▁temel": 4888,
      "▁seviyede": 4889,
      "▁yank": 4890,
      "▁yurd": 4891,
      "▁lobi": 4892,
      "▁kalırdı": 4893,
      "▁vergi": 4894,
      "##can": 4895,
      "▁verebilirim": 4896,
      "▁dalk": 4897,
      "##anco": 4898,
      "##ro": 4899,
      "▁guver": 4900,
      "▁teklifi": 4901,
      "▁dr": 4902,
      "▁beton": 4903,
      "▁elektronik": 4904,
      "##.05": 4905,
      "▁askeri": 4906,
      "▁1.58": 4907,
      "##medigini": 4908,
      "▁saldırı": 4909,
      "▁telas": 4910,
      "##nan": 4911,
      "▁oynak": 4912,
      "▁viraj": 4913,
      "▁dengel": 4914,
      "▁elini": 4915,
      "##evi": 4916,
      "▁memph": 4917,
      "▁yaslı": 4918,
      "▁islemlerinde": 4919,
      "▁birimleri": 4920,
      "▁sayı": 4921,
      "▁bulas": 4922,
      "▁sinemaya": 4923,
      "▁gelerek": 4924,
      "▁ogut": 4925,
      "▁asil": 4926,
      "▁tatlilar": 4927,
      "▁temmuz'da": 4928,
      "▁icmek": 4929,
      "▁%7.": 4930,
      "▁belki": 4931,
      "▁med": 4932,
      "▁sansur": 4933,
      "##lanması": 4934,
      "▁tepk": 4935,
      "##cet": 4936,
      "▁kapalı": 4937,
      "▁0.3": 4938,
      "▁biy": 4939,
      "▁odalardan": 4940,
      "##.62": 4941,
      "▁muhendislik": 4942,
      "▁gozluk": 4943,
      "▁doyur": 4944,
      "▁vasat": 4945,
      "▁yarısına": 4946,
      "▁6.5": 4947,
      "##ılım": 4948,
      "▁senetleri": 4949,
      "▁igne": 4950,
      "▁saglıklı": 4951,
      "▁uret": 4952,
      "▁calismasina": 4953,
      "▁tarafına": 4954,
      "##baren": 4955,
      "▁yuzune": 4956,
      "##irken": 4957,
      "▁sise": 4958,
      "▁pak": 4959,
      "▁3": 4960,
      "▁gozlerini": 4961,
      "▁secenek": 4962,
      "▁yorul": 4963,
      "▁hort": 4964,
      "▁yaptirmadigim": 4965,
      "▁olayların": 4966,
      "##ılmıs": 4967,
      "▁tarl": 4968,
      "▁asılı": 4969,
      "##i'nin": 4970,
      "▁soba": 4971,
      "▁100000": 4972,
      "▁ekonomik": 4973,
      "▁8.75": 4974,
      "##gunden": 4975,
      "▁belirtmek": 4976,
      "▁ayarlan": 4977,
      "▁lezzetleri": 4978,
      "##lm": 4979,
      "▁geliyor": 4980,
      "▁kuf": 4981,
      "▁yansı": 4982,
      "▁dalgalar": 4983,
      "▁lu": 4984,
      "▁tayyip": 4985,
      "▁av": 4986,
      "##eliyim": 4987,
      "▁santaj": 4988,
      "##ındık": 4989,
      "##ısıyla": 4990,
      "▁koleksiyon": 4991,
      "▁istendi": 4992,
      "▁cıktım": 4993,
      "##yuzotuz": 4994,
      "▁300000": 4995,
      "▁altern": 4996,
      "▁%2": 4997,
      "▁3\\/4": 4998,
      "7": 4999,
      "▁love": 5000,
      "▁bilirdi": 5001,
      "▁borsa": 5002,
      "▁numaralı": 5003,
      "##esiye": 5004,
      "##inde": 5005,
      "▁dalı": 5006,
      "##k": 5007,
      "▁ek": 5008,
      "▁bro": 5009,
      "▁fedakarlık": 5010,
      "▁tarihli": 5011,
      "##ruk": 5012,
      "▁evin": 5013,
      "▁duskun": 5014,
      "▁gormeden": 5015,
      "##isim": 5016,
      "▁standart": 5017,
      "▁cevr": 5018,
      "▁38": 5019,
      "▁meclisi": 5020,
      "▁onunde": 5021,
      "##lıkla": 5022,
      "▁gozlerinin": 5023,
      "▁dairesine": 5024,
      "▁alcak": 5025,
      "##&t": 5026,
      "▁107": 5027,
      "▁cagırdı": 5028,
      "▁inanmak": 5029,
      "▁cekic": 5030,
      "▁sivri": 5031,
      "##'te": 5032,
      "▁farklılık": 5033,
      "▁tehdi": 5034,
      "▁1.8470": 5035,
      "▁ayagı": 5036,
      "▁dyp": 5037,
      "▁ayla": 5038,
      "▁masası": 5039,
      "▁aldan": 5040,
      "▁istat": 5041,
      "##ledigini": 5042,
      "▁savr": 5043,
      "##encer": 5044,
      "##lik": 5045,
      "▁evvel": 5046,
      "▁tip": 5047,
      "▁yapildi": 5048,
      "▁charles": 5049,
      "##lesin": 5050,
      "▁vatandas": 5051,
      "▁hazret": 5052,
      "▁fiyatlı": 5053,
      "##li": 5054,
      "▁gecmeye": 5055,
      "▁degerler": 5056,
      "##mann": 5057,
      "▁ayrildik": 5058,
      "▁ele": 5059,
      "▁cehre": 5060,
      "▁eyalet": 5061,
      "▁helal": 5062,
      "▁sehrine": 5063,
      "▁gerekiyor": 5064,
      "##emeyecegim": 5065,
      "▁24": 5066,
      "▁birini": 5067,
      "▁gunesli": 5068,
      "▁lap": 5069,
      "▁donuyor": 5070,
      "▁sas": 5071,
      "▁dusecek": 5072,
      "##len": 5073,
      "##cın": 5074,
      "▁levent": 5075,
      "▁haluk": 5076,
      "▁giriste": 5077,
      "▁zararı": 5078,
      "▁fıldır": 5079,
      "##vi": 5080,
      "▁kat": 5081,
      "▁okurdu": 5082,
      "▁karmakar": 5083,
      "▁anayasa": 5084,
      "▁mola": 5085,
      "##dur": 5086,
      "▁%80": 5087,
      "▁buna": 5088,
      "▁onyedi": 5089,
      "▁taraf": 5090,
      "▁girmek": 5091,
      "n": 5092,
      "▁dav": 5093,
      "▁agırlık": 5094,
      "##aca": 5095,
      "▁1986": 5096,
      "▁verim": 5097,
      "▁kesip": 5098,
      "▁kullanıl": 5099,
      "##-a": 5100,
      "##emiyorum": 5101,
      "##agi": 5102,
      "▁pantolon": 5103,
      "▁yiyip": 5104,
      "▁koyar": 5105,
      "▁tesebbus": 5106,
      "▁buzlu": 5107,
      "▁yolculugun": 5108,
      "▁hur": 5109,
      "▁hucr": 5110,
      "##15": 5111,
      "▁kaybetmis": 5112,
      "▁0.010": 5113,
      "▁odenmemis": 5114,
      "▁getirileri": 5115,
      "▁kalmadik": 5116,
      "▁ac": 5117,
      "▁azalt": 5118,
      "▁bircokları": 5119,
      "▁ste": 5120,
      "##2'den": 5121,
      "▁kolayca": 5122,
      "▁elestir": 5123,
      "▁ciro": 5124,
      "▁yemekten": 5125,
      "▁gunlerde": 5126,
      "##.01": 5127,
      "▁olen": 5128,
      "▁ergen": 5129,
      "▁ortaydi": 5130,
      "▁maliye": 5131,
      "##hire": 5132,
      "▁hastanın": 5133,
      "▁balıgı": 5134,
      "▁edilemez": 5135,
      "▁konuyla": 5136,
      "▁uyus": 5137,
      "▁gorec": 5138,
      "▁kaptır": 5139,
      "▁kıc": 5140,
      "▁eastern": 5141,
      "▁seyirci": 5142,
      "▁deng": 5143,
      "▁siddetli": 5144,
      "▁guvenli": 5145,
      "▁seviyesinde": 5146,
      "▁anlamak": 5147,
      "▁1.6145": 5148,
      "##inizle": 5149,
      "▁cebine": 5150,
      "▁10.": 5151,
      "▁kultur": 5152,
      "▁garson": 5153,
      "▁direk": 5154,
      "▁sagır": 5155,
      "▁katıl": 5156,
      "▁dini": 5157,
      "▁ayaklarının": 5158,
      "▁memnundum": 5159,
      "▁1.02": 5160,
      "##alarım": 5161,
      "##macılar": 5162,
      "▁sabırsız": 5163,
      "##irse": 5164,
      "▁davranislari": 5165,
      "▁mektep": 5166,
      "▁bekler": 5167,
      "▁1.3": 5168,
      "##ye": 5169,
      "▁muhasebe": 5170,
      "##avv": 5171,
      "##abilirdim": 5172,
      "##ansız": 5173,
      "##edim": 5174,
      "▁arabacı": 5175,
      "▁tik": 5176,
      "▁cekici": 5177,
      "▁unu": 5178,
      "▁ım": 5179,
      "##fer": 5180,
      "▁goruluyor": 5181,
      "▁gelmeden": 5182,
      "▁maliyeti": 5183,
      "▁duymus": 5184,
      "▁gosterin": 5185,
      "▁kur'an": 5186,
      "▁faiz": 5187,
      "##madı": 5188,
      "▁ihracı": 5189,
      "▁evi": 5190,
      "▁kacamak": 5191,
      "▁planın": 5192,
      "▁nas": 5193,
      "▁erkege": 5194,
      "▁borcunu": 5195,
      "▁sayıl": 5196,
      "▁ins": 5197,
      "▁kapan": 5198,
      "▁giyim": 5199,
      "▁haliyle": 5200,
      "▁kactı": 5201,
      "▁kardesim": 5202,
      "▁sozlerine": 5203,
      "▁duyur": 5204,
      "▁politikası": 5205,
      "▁kom": 5206,
      "▁parti": 5207,
      "##cesine": 5208,
      "▁tarafını": 5209,
      "▁tutar": 5210,
      "▁sup": 5211,
      "▁ılık": 5212,
      "▁rıh": 5213,
      "▁bana": 5214,
      "▁romantik": 5215,
      "▁teor": 5216,
      "▁anad": 5217,
      "▁3'ten": 5218,
      "##.625": 5219,
      "▁tanr": 5220,
      "▁sohbet": 5221,
      "▁dusunceler": 5222,
      "▁halil": 5223,
      "▁kızdı": 5224,
      "##leriniz": 5225,
      "▁kırk": 5226,
      "▁ugram": 5227,
      "▁cocuklarını": 5228,
      "▁suyuna": 5229,
      "##attı": 5230,
      "▁nik": 5231,
      "▁deprem": 5232,
      "▁575": 5233,
      "▁sehit": 5234,
      "▁ilgilenmiyor": 5235,
      "▁oyunc": 5236,
      "▁francisco'da": 5237,
      "##tuel": 5238,
      "▁yi": 5239,
      "▁aktor": 5240,
      "▁turlu": 5241,
      "▁zeyt": 5242,
      "▁yatırımcılar": 5243,
      "▁erbakan": 5244,
      "▁columbus": 5245,
      "▁3\\/8": 5246,
      "▁top": 5247,
      "▁siir": 5248,
      "##cum": 5249,
      "▁bakalım": 5250,
      "##lerle": 5251,
      "$": 5252,
      "▁197": 5253,
      "▁hır": 5254,
      "▁abd'de": 5255,
      "##7.5": 5256,
      "##ılmaz": 5257,
      "##ılan": 5258,
      "▁getir": 5259,
      "▁cı": 5260,
      "▁ilgilenmediler": 5261,
      "##ale": 5262,
      "▁kisi": 5263,
      "▁ekm": 5264,
      "▁hınc": 5265,
      "▁toreni": 5266,
      "##eksiyon": 5267,
      "##pe": 5268,
      "▁olusuyor": 5269,
      "##an'a": 5270,
      "▁olculu": 5271,
      "▁terk": 5272,
      "▁ittifak": 5273,
      "▁gecmeden": 5274,
      "▁suruklen": 5275,
      "▁mobil": 5276,
      "##30'dan": 5277,
      "▁boyun": 5278,
      "##ner": 5279,
      "▁supur": 5280,
      "▁muham": 5281,
      "▁tepki": 5282,
      "▁gag": 5283,
      "##gimiz": 5284,
      "▁kayn": 5285,
      "▁istanbul'un": 5286,
      "v": 5287,
      "▁savun": 5288,
      "##edildi": 5289,
      "##c": 5290,
      "▁hikmet": 5291,
      "▁deney": 5292,
      "▁erz": 5293,
      "▁versiyonu": 5294,
      "▁sahil": 5295,
      "▁yemegini": 5296,
      "▁cember": 5297,
      "##.85": 5298,
      "▁alırdı": 5299,
      "▁114": 5300,
      "▁veriyoruz": 5301,
      "##mezse": 5302,
      "##par": 5303,
      "##atını": 5304,
      "▁190": 5305,
      "▁gunlerinde": 5306,
      "[PAD]": 5307,
      "▁mustesar": 5308,
      "▁arab": 5309,
      "▁yakinlar": 5310,
      "▁1.0": 5311,
      "▁boyu": 5312,
      "▁budur": 5313,
      "▁uyk": 5314,
      "▁karak": 5315,
      "▁aga": 5316,
      "▁kira": 5317,
      "##cayı": 5318,
      "▁gerek": 5319,
      "▁baskaları": 5320,
      "##dukları": 5321,
      "▁muay": 5322,
      "▁bizimle": 5323,
      "▁gonzal": 5324,
      "▁dai": 5325,
      "▁kolu": 5326,
      "▁kaleme": 5327,
      "▁performan": 5328,
      "##nun": 5329,
      "▁eder": 5330,
      "▁lezizdi": 5331,
      "##suz": 5332,
      "▁parca": 5333,
      "▁plana": 5334,
      "▁75": 5335,
      "##hane": 5336,
      "##0.9": 5337,
      "▁oyku": 5338,
      "##dak": 5339,
      "▁dursun": 5340,
      "▁tek": 5341,
      "▁ugrayacak": 5342,
      "▁iltifat": 5343,
      "▁cıkarmaya": 5344,
      "▁ulus": 5345,
      "##forman": 5346,
      "▁211": 5347,
      "▁gru": 5348,
      "▁yardı": 5349,
      "▁cicekli": 5350,
      "▁sezonu": 5351,
      "▁bulbul": 5352,
      "▁bazilari": 5353,
      "▁kucums": 5354,
      "▁yayınlar": 5355,
      "▁uslup": 5356,
      "▁sayısını": 5357,
      "▁mahs": 5358,
      "▁ulasım": 5359,
      "▁francisco": 5360,
      "▁mute": 5361,
      "▁ortaklık": 5362,
      "▁londra": 5363,
      "▁harap": 5364,
      "▁tesisi": 5365,
      "##\\/32": 5366,
      "▁oranlarının": 5367,
      "▁sokaktan": 5368,
      "##ihan": 5369,
      "##bek": 5370,
      "▁serin": 5371,
      "▁edi": 5372,
      "▁guleryuzluydu": 5373,
      "##aseb": 5374,
      "▁yanıp": 5375,
      "##emedigi": 5376,
      "▁anlar": 5377,
      "▁tavla": 5378,
      "▁alkıs": 5379,
      "##diginiz": 5380,
      "▁havuzlari": 5381,
      "▁borsası'ndaki": 5382,
      "##yedi": 5383,
      "##ev": 5384,
      "▁koku": 5385,
      "▁5.94": 5386,
      "##egiz": 5387,
      "▁burun": 5388,
      "▁arkadası": 5389,
      "##iri": 5390,
      "▁nihal": 5391,
      "▁birlesik": 5392,
      "▁amcam": 5393,
      "▁ile": 5394,
      "▁405": 5395,
      "▁yagmur": 5396,
      "##acagından": 5397,
      "▁faizli": 5398,
      "▁gosterdigini": 5399,
      "▁64": 5400,
      "▁bunları": 5401,
      "▁akısı": 5402,
      "▁degerlendirme": 5403,
      "▁7.8": 5404,
      "▁yılının": 5405,
      "##pson": 5406,
      "▁tacoma'dan": 5407,
      "##dugu": 5408,
      "▁bekledigi": 5409,
      "▁eki": 5410,
      "▁tasları": 5411,
      "▁yapma": 5412,
      "▁sıc": 5413,
      "##isco": 5414,
      "##lilerin": 5415,
      "▁aynen": 5416,
      "▁sayan": 5417,
      "▁yukseldi": 5418,
      "▁gozlerinden": 5419,
      "▁ugradı": 5420,
      "##tas": 5421,
      "▁bm": 5422,
      "##71": 5423,
      "▁yerlerini": 5424,
      "▁sirketleri": 5425,
      "##dıgı": 5426,
      "##ada": 5427,
      "▁arkadaslar": 5428,
      "##hami": 5429,
      "##ıklar": 5430,
      "▁1.50": 5431,
      "▁adım": 5432,
      "▁vali": 5433,
      "▁edilecek": 5434,
      "▁etmey": 5435,
      "##adav": 5436,
      "▁mih": 5437,
      "▁yuru": 5438,
      "▁usa": 5439,
      "▁cep": 5440,
      "▁cinc": 5441,
      "▁biriktir": 5442,
      "▁fıs": 5443,
      "▁13": 5444,
      "▁kup": 5445,
      "▁tampa'dan": 5446,
      "▁pin": 5447,
      "▁begendim": 5448,
      "##i": 5449,
      "▁aramız": 5450,
      "##usuyla": 5451,
      "▁sevda": 5452,
      "▁buluyor": 5453,
      "▁muayene": 5454,
      "▁arz": 5455,
      "▁dislerini": 5456,
      "▁kavram": 5457,
      "▁yapılmıs": 5458,
      "##eginde": 5459,
      "▁bazında": 5460,
      "▁aglamaya": 5461,
      "##acaksın": 5462,
      "▁rahat": 5463,
      "##ult": 5464,
      "▁ohi": 5465,
      "▁tatili": 5466,
      "▁yoz": 5467,
      "▁karsilayan": 5468,
      "▁ayık": 5469,
      "▁abi": 5470,
      "▁ilgisini": 5471,
      "▁as": 5472,
      "##lardı": 5473,
      "▁zamanda": 5474,
      "##ısındaki": 5475,
      "▁end": 5476,
      "▁raki": 5477,
      "▁92": 5478,
      "▁mahf": 5479,
      "▁mitsubishi": 5480,
      "▁catır": 5481,
      "▁oranını": 5482,
      "&": 5483,
      "##cok": 5484,
      "▁sizden": 5485,
      "▁oynan": 5486,
      "▁mana": 5487,
      "##ega'nın": 5488,
      "▁canadian": 5489,
      "▁kollarını": 5490,
      "▁oyunu": 5491,
      "▁askın": 5492,
      "▁devreye": 5493,
      "▁kalıyor": 5494,
      "▁1966": 5495,
      "##d": 5496,
      "▁kalkıslı": 5497,
      "▁grev": 5498,
      "##duktan": 5499,
      "##.76": 5500,
      "▁vurmus": 5501,
      "▁yukarıda": 5502,
      "▁em": 5503,
      "▁yemeklerde": 5504,
      "##edik": 5505,
      "##egine": 5506,
      "▁torb": 5507,
      "▁surdurdu": 5508,
      "▁kargo": 5509,
      "▁takımın": 5510,
      "▁ruy": 5511,
      "▁ic": 5512,
      "##ecegin": 5513,
      "##lıgında": 5514,
      "##okul": 5515,
      "▁sınıfın": 5516,
      "▁tarihin": 5517,
      "▁150000": 5518,
      "▁iceriden": 5519,
      "##lım": 5520,
      "▁arasındaki": 5521,
      "▁gordugum": 5522,
      "▁kulah": 5523,
      "▁arasından": 5524,
      "▁mek": 5525,
      "##ark": 5526,
      "▁merkezli": 5527,
      "▁yazdıgı": 5528,
      "▁cekmec": 5529,
      "▁hayatta": 5530,
      "##ay": 5531,
      "▁guvenilir": 5532,
      "▁balkon": 5533,
      "▁fenerbah": 5534,
      "▁oturup": 5535,
      "▁ideolojik": 5536,
      "##2.9": 5537,
      "▁imtiyaz": 5538,
      "##lendir": 5539,
      "##oloj": 5540,
      "▁gundem": 5541,
      "▁dc": 5542,
      "▁cet": 5543,
      "▁murekk": 5544,
      "▁muhafazakar": 5545,
      "▁corp.": 5546,
      "▁evinin": 5547,
      "##a'ya": 5548,
      "▁yolcu": 5549,
      "▁asık": 5550,
      "##idi": 5551,
      "▁dolandırıcılık": 5552,
      "▁1761": 5553,
      "▁go": 5554,
      "▁seyahat": 5555,
      "##ech": 5556,
      "▁sana": 5557,
      "##lamadan": 5558,
      "##ors": 5559,
      "##ysa": 5560,
      "▁atları": 5561,
      "▁0.2": 5562,
      "▁planlamam": 5563,
      "▁dahası": 5564,
      "▁konusuyor": 5565,
      "▁feder": 5566,
      "▁ri": 5567,
      "?": 5568,
      "▁tenis": 5569,
      "▁bugday": 5570,
      "▁luz": 5571,
      "▁vermedi": 5572,
      "▁olumu": 5573,
      "▁ısrar": 5574,
      "▁onu": 5575,
      "##misti": 5576,
      "▁kategor": 5577,
      "▁81": 5578,
      "▁aksamki": 5579,
      "▁kent": 5580,
      "▁dır": 5581,
      "▁count": 5582,
      "▁halleri": 5583,
      "▁yesil": 5584,
      "▁gecirir": 5585,
      "▁nissan": 5586,
      "▁yanıyordu": 5587,
      "▁iktidar": 5588,
      "▁andıran": 5589,
      "##:0": 5590,
      "▁kuba": 5591,
      "▁boru": 5592,
      "▁hon": 5593,
      "▁elime": 5594,
      "##dedil": 5595,
      "▁kırıklıgına": 5596,
      "▁yapmadı": 5597,
      "▁gonder": 5598,
      "▁kısaca": 5599,
      "##ha": 5600,
      "▁lor": 5601,
      "##-23": 5602,
      "▁kum": 5603,
      "▁phoeni": 5604,
      "##obal": 5605,
      "▁tımar": 5606,
      "##1.9": 5607,
      "▁tanıyor": 5608,
      "▁maruz": 5609,
      "▁muhtac": 5610,
      "##ıl": 5611,
      "…": 5612,
      "▁optik": 5613,
      "▁1999": 5614,
      "▁eleman": 5615,
      "▁yardım": 5616,
      "##ograf": 5617,
      "▁33": 5618,
      "▁cincinnati'den": 5619,
      "▁yans": 5620,
      "##ısıl": 5621,
      "##elig": 5622,
      "##resi": 5623,
      "▁gorunmek": 5624,
      "▁performansi": 5625,
      "▁1991'de": 5626,
      "▁ef": 5627,
      "▁yargıc": 5628,
      "▁comert": 5629,
      "▁journal": 5630,
      "##uel": 5631,
      "▁yasamak": 5632,
      "##lemek": 5633,
      "▁konforluydu": 5634,
      "▁degildik": 5635,
      "▁ipot": 5636,
      "##mesine": 5637,
      "▁yahudi": 5638,
      "▁jersey": 5639,
      "▁ormanın": 5640,
      "▁efendim": 5641,
      "##ega": 5642,
      "##avuz": 5643,
      "▁1987": 5644,
      "##lasmıs": 5645,
      "##tel": 5646,
      "##memektedir": 5647,
      "##r": 5648,
      "▁heyecanla": 5649,
      "▁gelmez": 5650,
      "▁rus": 5651,
      "▁ilkbahar": 5652,
      "▁ilan": 5653,
      "▁kalmayı": 5654,
      "▁siiri": 5655,
      "▁halde": 5656,
      "##satı": 5657,
      "▁dl": 5658,
      "▁beklentimin": 5659,
      "##ya'nın": 5660,
      "▁ce": 5661,
      "▁ucuslarını": 5662,
      "▁sonuclarını": 5663,
      "##61": 5664,
      "▁tarihten": 5665,
      "▁sallayarak": 5666,
      "▁sermaye": 5667,
      "▁goruyordu": 5668,
      "▁ucusunu": 5669,
      "▁yuksek": 5670,
      "▁21:00-22:30": 5671,
      "▁negatif": 5672,
      "▁sirketini": 5673,
      "▁milyon": 5674,
      "▁basladım": 5675,
      "▁ozellikleri": 5676,
      "##“": 5677,
      "▁gıda": 5678,
      "▁kulfet": 5679,
      "##abilmek": 5680,
      "▁anlasılıyor": 5681,
      "▁'de": 5682,
      "▁duygu": 5683,
      "▁kaybederek": 5684,
      "▁sekil": 5685,
      "▁gur": 5686,
      "▁calısma": 5687,
      "▁cizg": 5688,
      "▁cas": 5689,
      "▁olmamıs": 5690,
      "▁spekulasyon": 5691,
      "▁ak": 5692,
      "▁imkan": 5693,
      "▁topraga": 5694,
      "▁anlatım": 5695,
      "##ne": 5696,
      "##dos": 5697,
      "##ilerle": 5698,
      "##ıyan": 5699,
      "##kır": 5700,
      "##.3": 5701,
      "▁memlekette": 5702,
      "▁erkek": 5703,
      "▁hayat": 5704,
      "▁ilgilendir": 5705,
      "▁bagları": 5706,
      "▁y": 5707,
      "##akları": 5708,
      "▁7.52": 5709,
      "▁uye": 5710,
      "▁kitapları": 5711,
      "▁digerleri": 5712,
      "▁1.6030": 5713,
      "▁172": 5714,
      "▁sov": 5715,
      "▁zeki": 5716,
      "▁bon": 5717,
      "▁icerir": 5718,
      "▁kalem": 5719,
      "##tmis": 5720,
      "▁sendik": 5721,
      "##ıpıs": 5722,
      "##'nun": 5723,
      "▁yildi": 5724,
      "▁dikkatle": 5725,
      "▁getirildi": 5726,
      "▁brothers": 5727,
      "##wa": 5728,
      "▁guzelligi": 5729,
      "▁yonelt": 5730,
      "▁paya": 5731,
      "▁ayrıntılı": 5732,
      "##leleri": 5733,
      "▁ihale": 5734,
      "▁ders": 5735,
      "##les": 5736,
      "▁onceki": 5737,
      "▁coskun": 5738,
      "▁ucaklar": 5739,
      "▁temsilciler": 5740,
      "▁1992'de": 5741,
      "▁almadan": 5742,
      "##cal": 5743,
      "▁ay": 5744,
      "▁doga": 5745,
      "▁olmayacagını": 5746,
      "l": 5747,
      "▁ceza": 5748,
      "##akıllı": 5749,
      "##ısıydı": 5750,
      "##boy": 5751,
      "##ınca": 5752,
      "▁ucuslarla": 5753,
      "▁danısman": 5754,
      "▁yaprak": 5755,
      "▁odeme": 5756,
      "##emde": 5757,
      "▁faaliyetleri": 5758,
      "▁cicegi": 5759,
      "▁pilav": 5760,
      "▁karısık": 5761,
      "▁national": 5762,
      "▁dekorasyonu": 5763,
      "▁evlilig": 5764,
      "▁mal": 5765,
      "##am": 5766,
      "▁ceyr": 5767,
      "▁sofraya": 5768,
      "▁muaf": 5769,
      "##ug": 5770,
      "▁dagdan": 5771,
      "##rat": 5772,
      "▁muhafaz": 5773,
      "▁girmez": 5774,
      "▁zay": 5775,
      "▁yeg": 5776,
      "▁universitesi'nde": 5777,
      "##sm": 5778,
      "▁parmagını": 5779,
      "▁miami'ye": 5780,
      "▁doktora": 5781,
      "▁cıglık": 5782,
      "##izmin": 5783,
      "▁gittigi": 5784,
      "##'dir": 5785,
      "▁850": 5786,
      "▁caresiz": 5787,
      "▁degmis": 5788,
      "▁tavana": 5789,
      "##ıyoruz": 5790,
      "##eviz": 5791,
      "##elen": 5792,
      "▁fatur": 5793,
      "▁analistler": 5794,
      "▁kopuk": 5795,
      "▁yıkan": 5796,
      "▁sab": 5797,
      "##yi": 5798,
      "▁ikiye": 5799,
      "▁kendisine": 5800,
      "▁istah": 5801,
      "##sil": 5802,
      "##maca": 5803,
      "▁talih": 5804,
      "##acının": 5805,
      "▁ucagın": 5806,
      "##untu": 5807,
      "▁maliyetleri": 5808,
      "##iza": 5809,
      "##ay'ın": 5810,
      "▁sterlin": 5811,
      "▁gunese": 5812,
      "##ırt": 5813,
      "▁dudak": 5814,
      "▁uygar": 5815,
      "##ıb": 5816,
      "▁kayb": 5817,
      "-": 5818,
      "##eder": 5819,
      "##aza": 5820,
      "▁kendilerine": 5821,
      "▁finanse": 5822,
      "##cika": 5823,
      "▁brad": 5824,
      "▁geliyordu": 5825,
      "▁sunun": 5826,
      "▁fikirleri": 5827,
      "##uslar": 5828,
      "▁cocuklarına": 5829,
      "▁isvic": 5830,
      "##negin": 5831,
      "##usten": 5832,
      "▁haiz": 5833,
      "▁aldılar": 5834,
      "▁4.75": 5835,
      "##lesti": 5836,
      "##0.60": 5837,
      "▁koyuldu": 5838,
      "▁yalap": 5839,
      "▁esvap": 5840,
      "▁tatil": 5841,
      "▁ysa": 5842,
      "##ecek": 5843,
      "▁nerelere": 5844,
      "+": 5845,
      "##edeki": 5846,
      "▁zorluk": 5847,
      "▁alet": 5848,
      "▁kucucuk": 5849,
      "▁keyifli": 5850,
      "▁olanakları": 5851,
      "##atap": 5852,
      "##ente": 5853,
      "▁prot": 5854,
      "▁mevsim": 5855,
      "▁amer": 5856,
      "▁dekorasyon": 5857,
      "▁201622.": 5858,
      "▁oldurme": 5859,
      "▁control": 5860,
      "▁dondurdu": 5861,
      "▁edile": 5862,
      "▁kız": 5863,
      "##adan": 5864,
      "▁taks": 5865,
      "▁turkiye": 5866,
      "▁altı": 5867,
      "▁thatcher": 5868,
      "##lah": 5869,
      "##hay": 5870,
      "▁oper": 5871,
      "##.19": 5872,
      "##u": 5873,
      "▁endustrinin": 5874,
      "##ucunun": 5875,
      "▁gununu": 5876,
      "▁muyum": 5877,
      "▁gu": 5878,
      "##daki": 5879,
      "▁ız": 5880,
      "▁etek": 5881,
      "▁desik": 5882,
      "▁rahatsızlık": 5883,
      "▁birinci": 5884,
      "▁yıllarında": 5885,
      "*": 5886,
      "▁temas": 5887,
      "##memiz": 5888,
      "▁calisirim": 5889,
      "##arn": 5890,
      "▁incel": 5891,
      "▁terc": 5892,
      "##irleri": 5893,
      "▁basbakanlık": 5894,
      "##'ı": 5895,
      "▁odulu": 5896,
      "▁arada": 5897,
      "▁vatan": 5898,
      "▁patron": 5899,
      "##ru": 5900,
      "##iyoruz": 5901,
      "▁sarısın": 5902,
      "##dy": 5903,
      "▁bulasık": 5904,
      "▁topr": 5905,
      "▁pic": 5906,
      "▁buldugu": 5907,
      "–": 5908,
      "▁harp": 5909,
      "▁severek": 5910,
      "##orth": 5911,
      "##amadık": 5912,
      "▁karsiligi": 5913,
      "▁dikilmis": 5914,
      "##unu": 5915,
      "▁herhalde": 5916,
      "▁birazcık": 5917,
      "##biye": 5918,
      "▁ihlal": 5919,
      "▁bayramı": 5920,
      "##leri": 5921,
      "##eller": 5922,
      "▁sedef": 5923,
      "▁0.13": 5924,
      "▁agab": 5925,
      "▁planda": 5926,
      "##cek": 5927,
      "▁gelinceye": 5928,
      "▁0.5": 5929,
      "▁chic": 5930,
      "▁that": 5931,
      "▁cekmek": 5932,
      "▁hatir": 5933,
      "▁baslandı": 5934,
      "##68": 5935,
      "##ing": 5936,
      "▁cab": 5937,
      "##ico": 5938,
      "▁fit": 5939,
      "▁azı": 5940,
      "##'u": 5941,
      "▁kahveren": 5942,
      "▁dusunduk": 5943,
      "▁yani": 5944,
      "▁.3": 5945,
      "▁ortalamaydi": 5946,
      "▁isle": 5947,
      "##lanta": 5948,
      "▁dolardır": 5949,
      "##ildi": 5950,
      "▁gl": 5951,
      "▁yaparım": 5952,
      "##me": 5953,
      "▁olmalıydı": 5954,
      "▁som": 5955,
      "▁kapısı": 5956,
      "▁surum": 5957,
      "##ladıkları": 5958,
      "▁hamam": 5959,
      "##nek": 5960,
      "▁yegen": 5961,
      "##@": 5962,
      "▁ettigim": 5963,
      "##oth": 5964,
      "##bas": 5965,
      "▁derya": 5966,
      "▁tasarru": 5967,
      "##eceg": 5968,
      "▁put": 5969,
      "##54": 5970,
      "##mayı": 5971,
      "▁bazılarımız": 5972,
      "▁izleri": 5973,
      "##tal": 5974,
      "##muslar": 5975,
      "▁dogasi": 5976,
      "▁havayolları": 5977,
      "▁1245": 5978,
      "▁1.84": 5979,
      "▁sedir": 5980,
      "##eyin": 5981,
      "▁minne": 5982,
      "▁soyluyordu": 5983,
      "▁demokratlar": 5984,
      "▁hızı": 5985,
      "##ımız": 5986,
      "##akar": 5987,
      "▁duruma": 5988,
      "##tik": 5989,
      "##aket": 5990,
      "▁olusturuyor": 5991,
      "##eley": 5992,
      "▁tatlı": 5993,
      "##ıyla": 5994,
      "▁sersem": 5995,
      "▁olmaktan": 5996,
      "##emezsiniz": 5997,
      "##elerine": 5998,
      "▁batır": 5999,
      "▁ipek": 6000,
      "▁gunlerin": 6001,
      "▁ozur": 6002,
      "##arda": 6003,
      "▁kerpic": 6004,
      "##tıp": 6005,
      "##idik": 6006,
      "##olojik": 6007,
      "▁attılar": 6008,
      "▁olmak": 6009,
      "▁dusmustu": 6010,
      "▁acıkladı": 6011,
      "##lerden": 6012,
      "▁kaldik": 6013,
      "▁berek": 6014,
      "▁degn": 6015,
      "▁tuttum": 6016,
      "▁fir": 6017,
      "▁donem": 6018,
      "▁benzeri": 6019,
      "▁halef": 6020,
      "##lesmis": 6021,
      "▁lezzeti": 6022,
      "##eyle": 6023,
      "▁otekine": 6024,
      "##eyen": 6025,
      "▁3.46": 6026,
      "##ediy": 6027,
      "▁ulasan": 6028,
      "##larıma": 6029,
      "▁yanar": 6030,
      "##mistim": 6031,
      "▁yuk": 6032,
      "▁kule": 6033,
      "▁eglenc": 6034,
      "▁manevra": 6035,
      "##'ın": 6036,
      "##enler": 6037,
      "▁onumuzde": 6038,
      "▁bindokuzyuz": 6039,
      "##lastı": 6040,
      "▁cir": 6041,
      "▁beach'a": 6042,
      "##irmis": 6043,
      "▁musteriler": 6044,
      "▁kagıt": 6045,
      "q": 6046,
      "▁etmek": 6047,
      "▁bankalar": 6048,
      "▁kod": 6049,
      "##mislerdi": 6050,
      "##'in": 6051,
      "▁airlines": 6052,
      "##ayık": 6053,
      "▁ltd.": 6054,
      "▁istenen": 6055,
      "▁kiler": 6056,
      "▁kıyısında": 6057,
      "▁miami'den": 6058,
      "▁healt": 6059,
      "▁yumus": 6060,
      "▁932": 6061,
      "##dım": 6062,
      "##usun": 6063,
      "▁han": 6064,
      "##asından": 6065,
      "▁mekaniz": 6066,
      "##acık": 6067,
      "##esiydi": 6068,
      "▁okumak": 6069,
      "▁bulacak": 6070,
      "##ulmaz": 6071,
      "▁dolastım": 6072,
      "▁kabın": 6073,
      "▁sorar": 6074,
      "▁nedir": 6075,
      "▁sac": 6076,
      "▁carpıcı": 6077,
      "▁lacivert": 6078,
      "▁buyum": 6079,
      "##ıcılık": 6080,
      "▁cil": 6081,
      "▁bulam": 6082,
      "▁gunduz": 6083,
      "▁88": 6084,
      "##madi": 6085,
      "##ehan": 6086,
      "▁irad": 6087,
      "▁kıl": 6088,
      "##lekli": 6089,
      "▁ind": 6090,
      "##vir": 6091,
      "▁bık": 6092,
      "▁nitelik": 6093,
      "##etle": 6094,
      "[UNK]": 6095,
      "▁ucunu": 6096,
      "▁antren": 6097,
      "▁dediko": 6098,
      "▁yonetici": 6099,
      "▁nal": 6100,
      "▁olacak": 6101,
      "▁bulmak": 6102,
      "▁55": 6103,
      "##omur": 6104,
      "##.98": 6105,
      "▁servet": 6106,
      "##ore": 6107,
      "▁kast": 6108,
      "▁urk": 6109,
      "▁fesi": 6110,
      "▁guzelim": 6111,
      "▁alınan": 6112,
      "##dem": 6113,
      "▁dallas'ta": 6114,
      "##azi": 6115,
      "▁bang": 6116,
      "▁umdugunu": 6117,
      "▁diri": 6118,
      "▁acma": 6119,
      "▁pırıl": 6120,
      "##ılmayan": 6121,
      "▁tap": 6122,
      "▁planının": 6123,
      "▁resmen": 6124,
      "▁dolasıyor": 6125,
      "▁vucu": 6126,
      "▁neresinde": 6127,
      "##lat": 6128,
      "##ks": 6129,
      "▁philadelphia'ya": 6130,
      "▁8.59": 6131,
      "▁77": 6132,
      "▁nev": 6133,
      "▁gorusmedim": 6134,
      "▁selcuk": 6135,
      "▁kırkaltı": 6136,
      "##sub": 6137,
      "▁hissed": 6138,
      "▁alb": 6139,
      "▁elbise": 6140,
      "▁okyan": 6141,
      "▁mani": 6142,
      "▁olsunlar": 6143,
      "##0.": 6144,
      "▁iseniz": 6145,
      "▁borsasında": 6146,
      "▁sayılı": 6147,
      "▁vermiyor": 6148,
      "▁deyisle": 6149,
      "▁tasliydi": 6150,
      "▁duydum": 6151,
      "▁tatilimiz": 6152,
      "▁sorumlulugunu": 6153,
      "▁sınırları": 6154,
      "▁vahsi": 6155,
      "▁102": 6156,
      "▁d": 6157,
      "▁surdugu": 6158,
      "▁mud": 6159,
      "##aa": 6160,
      "▁meseleler": 6161,
      "▁sigortacılar": 6162,
      "▁listeleyebilir": 6163,
      "▁oto": 6164,
      "##alarda": 6165,
      "##'nda": 6166,
      "##isan": 6167,
      "▁tut": 6168,
      "▁buradan": 6169,
      "▁lag": 6170,
      "▁1.9": 6171,
      "▁izmir": 6172,
      "▁prosedur": 6173,
      "▁henuz": 6174,
      "▁gulus": 6175,
      "▁kalab": 6176,
      "▁fransa": 6177,
      "▁bazıları": 6178,
      "▁bulmustu": 6179,
      "▁bilgilendirme": 6180,
      "▁duk": 6181,
      "##j.": 6182,
      "##y's": 6183,
      "▁alısılmadık": 6184,
      "▁kasabada": 6185,
      "▁sattı": 6186,
      "▁kimse": 6187,
      "▁uyum": 6188,
      "##erin": 6189,
      "▁lider": 6190,
      "▁duzeni": 6191,
      "▁ger": 6192,
      "▁minneapolis'ten": 6193,
      "##nol": 6194,
      "▁prov": 6195,
      "##edigi": 6196,
      "▁havayollarında": 6197,
      "##mamız": 6198,
      "▁guldu": 6199,
      "▁kendilerini": 6200,
      "▁hazin": 6201,
      "▁tir": 6202,
      "▁s&p": 6203,
      "##uncu": 6204,
      "##ekk": 6205,
      "▁dy": 6206,
      "▁46": 6207,
      "▁%3.1": 6208,
      "▁saime": 6209,
      "▁disi": 6210,
      "▁atar": 6211,
      "▁sehirler": 6212,
      "##itte": 6213,
      "##acaklar": 6214,
      "##larız": 6215,
      "##asip": 6216,
      "▁cıkıs": 6217,
      "▁acan": 6218,
      "▁acabilir": 6219,
      "▁yurtdısında": 6220,
      "##6'dan": 6221,
      "▁baslarında": 6222,
      "▁badan": 6223,
      "▁bunlar": 6224,
      "▁yedide": 6225,
      "▁kurdu": 6226,
      "▁buhran": 6227,
      "▁1/2'den": 6228,
      "▁tedir": 6229,
      "▁teklifleri": 6230,
      "▁labor": 6231,
      "▁broker": 6232,
      "▁kaya": 6233,
      "▁2.000": 6234,
      "▁hec": 6235,
      "▁paraya": 6236,
      "##akk": 6237,
      "##-packard": 6238,
      "▁yit": 6239,
      "▁tuccar": 6240,
      "▁kanada": 6241,
      "▁bit": 6242,
      "▁gorun": 6243,
      "▁buy": 6244,
      "▁giy": 6245,
      "▁verici": 6246,
      "▁risk": 6247,
      "▁hakları": 6248,
      "▁gazi": 6249,
      "▁calısanları": 6250,
      "▁arkadasim": 6251,
      "▁atı": 6252,
      "▁viy": 6253,
      "▁isler": 6254,
      "▁otomatik": 6255,
      "▁": 6256,
      "▁duzgun": 6257,
      "##eles": 6258,
      "▁vaka": 6259,
      "▁yukseldigini": 6260,
      "▁ford": 6261,
      "##30000": 6262,
      "##uf": 6263,
      "▁sanayicileri": 6264,
      "▁demis": 6265,
      "▁ulkenin": 6266,
      "▁eski": 6267,
      "##indi": 6268,
      "▁alındı": 6269,
      "▁palto": 6270,
      "▁tasf": 6271,
      "▁dogrultusunda": 6272,
      "##b": 6273,
      "▁nimet": 6274,
      "▁7.5": 6275,
      "▁sic": 6276,
      "▁ettiklerini": 6277,
      "▁sınırlı": 6278,
      "▁tedirgin": 6279,
      "▁hangisini": 6280,
      "▁yataktan": 6281,
      "▁dusmus": 6282,
      "##iyim": 6283,
      "▁ustun": 6284,
      "##eceksiniz": 6285,
      "▁prob": 6286,
      "▁riskli": 6287,
      "▁ertel": 6288,
      "▁muduru": 6289,
      "▁alas": 6290,
      "▁heves": 6291,
      "▁bucuk": 6292,
      "▁kelimesi": 6293,
      "▁grupları": 6294,
      "##ıcının": 6295,
      "##ce": 6296,
      "##ılıgın": 6297,
      "▁baltimore": 6298,
      "▁th": 6299,
      "▁biliyordu": 6300,
      "▁psik": 6301,
      "▁5.": 6302,
      "▁insaat": 6303,
      "##ly": 6304,
      "▁rusya": 6305,
      "▁guvercin": 6306,
      "▁yır": 6307,
      "##igh": 6308,
      "▁mil": 6309,
      "▁yepyeni": 6310,
      "##8'e": 6311,
      "▁sesiyle": 6312,
      "##'ten": 6313,
      "▁olusturdu": 6314,
      "▁dusundugum": 6315,
      "▁husus": 6316,
      "▁dusurdu": 6317,
      "▁nil": 6318,
      "▁harıl": 6319,
      "##uyoruz": 6320,
      "##iski": 6321,
      "▁62": 6322,
      "▁potansiyel": 6323,
      "▁cehr": 6324,
      "##agından": 6325,
      "▁balık": 6326,
      "▁anım": 6327,
      "▁yasıyorum": 6328,
      "▁beydi": 6329,
      "▁insanlardan": 6330,
      "▁hayatımda": 6331,
      "▁tesvik": 6332,
      "▁mutf": 6333,
      "▁calısmalar": 6334,
      "▁rec": 6335,
      "▁materyal": 6336,
      "▁personel": 6337,
      "▁veririm": 6338,
      "▁bulundugunu": 6339,
      "▁1998": 6340,
      "▁sm": 6341,
      "▁kullandıkları": 6342,
      "▁fal": 6343,
      "##anik": 6344,
      "▁moda": 6345,
      "▁electric": 6346,
      "##ısmıs": 6347,
      "▁.65": 6348,
      "▁degerlendir": 6349,
      "▁dava": 6350,
      "▁olmalı": 6351,
      "▁makaleye": 6352,
      "▁korudu": 6353,
      "▁depremde": 6354,
      "▁isten": 6355,
      "▁gorebilir": 6356,
      "▁alım-sat": 6357,
      "##9.4": 6358,
      "▁muracaat": 6359,
      "▁oldur": 6360,
      "▁hepiniz": 6361,
      "▁takım": 6362,
      "▁aldim": 6363,
      "▁tarafı": 6364,
      "▁guvertede": 6365,
      "▁bay": 6366,
      "▁uyeleri": 6367,
      "▁harcam": 6368,
      "▁koyarak": 6369,
      "▁kapasite": 6370,
      "▁arttır": 6371,
      "##imat": 6372,
      "▁6.25": 6373,
      "▁odemis": 6374,
      "▁geyik": 6375,
      "##elerek": 6376,
      "▁demokrasi": 6377,
      "▁acıklay": 6378,
      "▁bill": 6379,
      "▁antr": 6380,
      "▁doviz": 6381,
      "▁konum": 6382,
      "▁yab": 6383,
      "▁aleyh": 6384,
      "▁anlatmaya": 6385,
      "▁fen": 6386,
      "##baska": 6387,
      "##ımda": 6388,
      "▁birbirimizi": 6389,
      "▁sıkıntılı": 6390,
      "▁zey": 6391,
      "▁cos": 6392,
      "##affer": 6393,
      "▁duvarı": 6394,
      "▁8": 6395,
      "▁yapmıs": 6396,
      "▁yasadı": 6397,
      "▁suphesiz": 6398,
      "▁orgu": 6399,
      "▁8.9": 6400,
      "##a.": 6401,
      "▁ustesinden": 6402,
      "##a'dan": 6403,
      "##ılıga": 6404,
      "##cak": 6405,
      "▁gibiydi": 6406,
      "▁karara": 6407,
      "▁gorus": 6408,
      "▁cocukluk": 6409,
      "▁icti": 6410,
      "▁fazlasını": 6411,
      "▁9.88": 6412,
      "##ates": 6413,
      "▁3.35": 6414,
      "▁beden": 6415,
      "##.6": 6416,
      "##demir": 6417,
      "▁hakkinda": 6418,
      "▁guclu": 6419,
      "▁icindeki": 6420,
      "▁manev": 6421,
      "▁gonderdi": 6422,
      "▁suda": 6423,
      "▁muzigi": 6424,
      "▁nispeten": 6425,
      "▁burbank'a": 6426,
      "▁sanatın": 6427,
      "##ri": 6428,
      "▁okudu": 6429,
      "▁isimiz": 6430,
      "▁ihtimalle": 6431,
      "▁lira": 6432,
      "##ıllı": 6433,
      "▁haziran'da": 6434,
      "##lanmak": 6435,
      "##bin": 6436,
      "▁power": 6437,
      "▁hel": 6438,
      "##burg": 6439,
      "##ılıyordu": 6440,
      "##kim": 6441,
      "▁topladı": 6442,
      "▁rot": 6443,
      "▁bankacılık": 6444,
      "▁sunul": 6445,
      "▁basımıza": 6446,
      "▁motors": 6447,
      "##nala": 6448,
      "▁cuma": 6449,
      "▁protok": 6450,
      "▁akc": 6451,
      "▁bizleri": 6452,
      "▁imal": 6453,
      "▁musterilerin": 6454,
      "##/4": 6455,
      "##85": 6456,
      "▁mul": 6457,
      "▁transfer": 6458,
      "▁cıkag": 6459,
      "▁baskanı": 6460,
      "▁yumusak": 6461,
      "##au": 6462,
      "▁milyona": 6463,
      "▁bura": 6464,
      "▁atlanta'da": 6465,
      "##eff": 6466,
      "▁senem": 6467,
      "▁lyn": 6468,
      "▁20.": 6469,
      "##'uncu": 6470,
      "##ısından": 6471,
      "▁nec": 6472,
      "▁jeff": 6473,
      "▁olanlar": 6474,
      "##yasal": 6475,
      "##sir": 6476,
      "##uyorlar": 6477,
      "▁kalacaktır": 6478,
      "▁annesinin": 6479,
      "▁sonuc": 6480,
      "##kat": 6481,
      "▁1993": 6482,
      "▁bagırarak": 6483,
      "▁gordum": 6484,
      "▁telekom": 6485,
      "▁fokur": 6486,
      "▁alamadim": 6487,
      "##aff": 6488,
      "##ilmeli": 6489,
      "##omu": 6490,
      "▁gelip": 6491,
      "▁yadig": 6492,
      "##oma": 6493,
      "▁215": 6494,
      "▁164830000": 6495,
      "##imiz": 6496,
      "▁gozyası": 6497,
      "▁kazancların": 6498,
      "▁benziyordu": 6499,
      "▁ail": 6500,
      "▁a.b.d.": 6501,
      "▁mer": 6502,
      "▁yuksekti": 6503,
      "▁benden": 6504,
      "▁yagı": 6505,
      "##230": 6506,
      "▁540": 6507,
      "▁komutan": 6508,
      "##osa": 6509,
      "▁cay": 6510,
      "##inci": 6511,
      "##eveyn": 6512,
      "▁yarısını": 6513,
      "##eyn": 6514,
      "##ayacak": 6515,
      "▁hicbirimiz": 6516,
      "▁'y": 6517,
      "▁erdi": 6518,
      "▁813": 6519,
      "▁inip": 6520,
      "##ardan": 6521,
      "▁yerden": 6522,
      "▁ozgu": 6523,
      "▁engellemek": 6524,
      "▁vır": 6525,
      "##se": 6526,
      "##lıgım": 6527,
      "▁mask": 6528,
      "▁duyuldu": 6529,
      "▁2004": 6530,
      "▁hersey": 6531,
      "▁ayaklarını": 6532,
      "▁biri": 6533,
      "▁zengindi": 6534,
      "▁hazır": 6535,
      "▁kapıl": 6536,
      "##sik": 6537,
      "▁gercekte": 6538,
      "▁inadına": 6539,
      "▁feda": 6540,
      "▁canlı": 6541,
      "▁sureli": 6542,
      "▁lif": 6543,
      "▁yolsuz": 6544,
      "▁sanay": 6545,
      "▁havaalanı'ndan": 6546,
      "▁hukumete": 6547,
      "▁kar": 6548,
      "▁angel": 6549,
      "▁80": 6550,
      "▁mik": 6551,
      "▁raporda": 6552,
      "▁emniyet": 6553,
      "▁turklerin": 6554,
      "▁protokol": 6555,
      "##elerle": 6556,
      "##kti": 6557,
      "▁yil": 6558,
      "##icinin": 6559,
      "▁puanlarim": 6560,
      "[SEP]": 6561,
      "▁graf": 6562,
      "▁8.8": 6563,
      "##mamıstı": 6564,
      "▁trabz": 6565,
      "▁alarak": 6566,
      "▁diyet": 6567,
      "▁fey": 6568,
      "▁manzar": 6569,
      "▁turden": 6570,
      "▁yururluge": 6571,
      "##oyla": 6572,
      "▁1937": 6573,
      "▁neden": 6574,
      "##hasır": 6575,
      "▁41": 6576,
      "▁pesine": 6577,
      "##tansiy": 6578,
      "##larındaki": 6579,
      "▁olas": 6580,
      "##abi": 6581,
      "▁rehberi": 6582,
      "▁barıs": 6583,
      "▁kızart": 6584,
      "▁muhalif": 6585,
      "▁caf": 6586,
      "▁seans": 6587,
      "▁odalı": 6588,
      "▁derecede": 6589,
      "##ısını": 6590,
      "##lılıgı": 6591,
      "▁ovun": 6592,
      "▁mis": 6593,
      "▁onlardan": 6594,
      "▁kadınlar": 6595,
      "▁hakk": 6596,
      "▁ulkelerde": 6597,
      "▁tedavi": 6598,
      "▁yetenek": 6599,
      "▁istanbul'da": 6600,
      "▁aram": 6601,
      "▁sekizonikibindokuzyuzdoksansekiz": 6602,
      "##madım": 6603,
      "▁basındaki": 6604,
      "▁inmis": 6605,
      "▁sırası": 6606,
      "##memeye": 6607,
      "##ır": 6608,
      "▁pamuk": 6609,
      "▁va": 6610,
      "▁hukumet": 6611,
      "▁525000": 6612,
      "▁mat": 6613,
      "▁girisim": 6614,
      "▁gonl": 6615,
      "▁guardi": 6616,
      "▁aqu": 6617,
      "▁cans": 6618,
      "▁nasıl": 6619,
      "▁ortalıgı": 6620,
      "▁rend": 6621,
      "##it'in": 6622,
      "##zi": 6623,
      "▁piyasaları": 6624,
      "▁yırt": 6625,
      "▁cocuga": 6626,
      "▁bulundugu": 6627,
      "##ton": 6628,
      "▁yıldız": 6629,
      "▁sevim": 6630,
      "▁en": 6631,
      "##eldi": 6632,
      "▁pencere": 6633,
      "▁olabilecegi": 6634,
      "▁4145": 6635,
      "▁arayan": 6636,
      "##4.9": 6637,
      "▁hanima": 6638,
      "▁1946'da": 6639,
      "##arası": 6640,
      "▁vak": 6641,
      "▁noktaya": 6642,
      "▁yuzer": 6643,
      "##'nunla": 6644,
      "▁tabi": 6645,
      "▁mechul": 6646,
      "▁resour": 6647,
      "▁odalar": 6648,
      "▁dunku": 6649,
      "▁1.847": 6650,
      "##ımızda": 6651,
      "##iyordum": 6652,
      "##emiyor": 6653,
      "▁mac": 6654,
      "▁ondan": 6655,
      "▁house": 6656,
      "▁kurs": 6657,
      "▁yerlerden": 6658,
      "▁ucusla": 6659,
      "▁pencereden": 6660,
      "▁macta": 6661,
      "▁mo": 6662,
      "▁20.000": 6663,
      "▁alındıgında": 6664,
      "▁aras": 6665,
      "▁leblebi": 6666,
      "##87": 6667,
      "▁anlatır": 6668,
      "▁haklar": 6669,
      "▁vietnam": 6670,
      "▁koruk": 6671,
      "▁dokuluyor": 6672,
      "##.90": 6673,
      "##ine": 6674,
      "▁rahatlat": 6675,
      "▁198120000": 6676,
      "▁ob": 6677,
      "▁komit": 6678,
      "▁44": 6679,
      "▁bakımdan": 6680,
      "▁toplu": 6681,
      "##7.8": 6682,
      "▁serhat": 6683,
      "▁british": 6684,
      "##ksen": 6685,
      "▁tuccarlar": 6686,
      "▁kalmak": 6687,
      "▁teh": 6688,
      "##dıgının": 6689,
      "▁isleme": 6690,
      "##lestir": 6691,
      "▁ki": 6692,
      "##ter": 6693,
      "▁bilhassa": 6694,
      "##mediler": 6695,
      "##ia": 6696,
      "▁komur": 6697,
      "▁verdikleri": 6698,
      "##lisi": 6699,
      "▁yazılan": 6700,
      "▁tarihleri": 6701,
      "▁karma": 6702,
      "▁296": 6703,
      "▁mukaf": 6704,
      "▁hen": 6705,
      "▁elif": 6706,
      "▁opsiyonu": 6707,
      "▁etrafta": 6708,
      "▁birimidir": 6709,
      "##mayla": 6710,
      "▁yonlendir": 6711,
      "▁ayrım": 6712,
      "▁yurudu": 6713,
      "##nas": 6714,
      "##bak": 6715,
      "▁fiyatina": 6716,
      "##ıg": 6717,
      "##zo": 6718,
      "▁gitmedi": 6719,
      "▁dikis": 6720,
      "▁rastlan": 6721,
      "▁istifa": 6722,
      "▁heyec": 6723,
      "▁hatırlat": 6724,
      "▁otuzbes": 6725,
      "▁mendil": 6726,
      "▁dilim": 6727,
      "▁bakar": 6728,
      "▁hisseler": 6729,
      "▁benzin": 6730,
      "▁olanları": 6731,
      "▁temizlikten": 6732,
      "▁kanser": 6733,
      "▁ozg": 6734,
      "##-4": 6735,
      "▁casus": 6736,
      "▁inc.,": 6737,
      "▁hatun": 6738,
      "▁hepsini": 6739,
      "▁iht": 6740,
      "##larim": 6741,
      "▁dant": 6742,
      "▁sahte": 6743,
      "▁muzaker": 6744,
      "##eyi": 6745,
      "▁nerede": 6746,
      "##ciligi": 6747,
      "▁satıslar": 6748,
      "▁fin": 6749,
      "▁dah": 6750,
      "##.72": 6751,
      "##yaları": 6752,
      "▁goc": 6753,
      "▁olanlara": 6754,
      "▁irs": 6755,
      "▁doneminde": 6756,
      "▁yardim": 6757,
      "##al'ın": 6758,
      "▁dolarlık": 6759,
      "▁memphis": 6760,
      "##asız": 6761,
      "##7.7": 6762,
      "▁ilgisinden": 6763,
      "▁francisco'dan": 6764,
      "▁veto": 6765,
      "##erk": 6766,
      "▁aer": 6767,
      "▁attım": 6768,
      "▁zarif": 6769,
      "▁sektoru": 6770,
      "▁seyde": 6771,
      "▁erdeydin": 6772,
      "▁sahn": 6773,
      "▁ulasıl": 6774,
      "▁harc": 6775,
      "▁kırmızı": 6776,
      "▁rakı": 6777,
      "##anta": 6778,
      "##dirde": 6779,
      "▁gununde": 6780,
      "▁girisimi": 6781,
      "##anti": 6782,
      "▁ikiyuzkırk": 6783,
      "##ırı": 6784,
      "▁ilgisi": 6785,
      "▁30": 6786,
      "▁yorgun": 6787,
      "▁erdem": 6788,
      "▁artcı": 6789,
      "▁yuce": 6790,
      "▁guleryuzlulerdi": 6791,
      "▁aqua": 6792,
      "▁hab": 6793,
      "▁yonlendirdi": 6794,
      "▁hoc": 6795,
      "##er": 6796,
      "▁suradan": 6797,
      "▁muhabiri": 6798,
      "##mesi": 6799,
      "▁ustune": 6800,
      "▁kompleks": 6801,
      "##celi": 6802,
      "▁karlı": 6803,
      "▁birkacı": 6804,
      "##leriyle": 6805,
      "▁arazi": 6806,
      "▁ortalıkta": 6807,
      "▁ogrendim": 6808,
      "▁8.7": 6809,
      "▁etkil": 6810,
      "▁medya": 6811,
      "▁530": 6812,
      "▁petersburg'dan": 6813,
      "▁dongu": 6814,
      "▁nic": 6815,
      "▁goster": 6816,
      "▁verg": 6817,
      "##-sat": 6818,
      "▁yap": 6819,
      "▁esiyor": 6820,
      "▁gidelim": 6821,
      "▁evde": 6822,
      "▁kacar": 6823,
      "▁kesmis": 6824,
      "▁her": 6825,
      "##p.": 6826,
      "▁carsaf": 6827,
      "##unca": 6828,
      "▁misafirimiz": 6829,
      "##ras": 6830,
      "▁milano": 6831,
      "▁durup": 6832,
      "▁%27": 6833,
      "▁baker": 6834,
      "▁eh": 6835,
      "▁ucyuzyirmi": 6836,
      "▁vaz": 6837,
      "▁m80": 6838,
      "##lif": 6839,
      "▁pik": 6840,
      "##biy": 6841,
      "▁itfa": 6842,
      "▁hamal": 6843,
      "▁41.3": 6844,
      "##layacak": 6845,
      "##agın": 6846,
      "▁ikincisi": 6847,
      "▁ydum": 6848,
      "##tiv": 6849,
      "▁toplandı": 6850,
      "▁dogdu": 6851,
      "▁satıcılar": 6852,
      "##tıgımız": 6853,
      "▁muazzam": 6854,
      "##este": 6855,
      "##nal": 6856,
      "▁sıcr": 6857,
      "▁galip": 6858,
      "##dır": 6859,
      "▁yıllık": 6860,
      "▁buro": 6861,
      "▁hasar": 6862,
      "▁duygusal": 6863,
      "▁saha": 6864,
      "▁neredeyse": 6865,
      "▁aklına": 6866,
      "▁nih": 6867,
      "▁kazanclarını": 6868,
      "▁uymadi": 6869,
      "▁buldu": 6870,
      "##3'te": 6871,
      "▁soguktu": 6872,
      "##xel": 6873,
      "▁pazartesi": 6874,
      "##dıktan": 6875,
      "▁hacı": 6876,
      "▁rumeli": 6877,
      "▁salonunda": 6878,
      "▁insa": 6879,
      "▁nereler": 6880,
      "##'taki": 6881,
      "▁odenek": 6882,
      "▁konmus": 6883,
      "▁devralma": 6884,
      "▁turkler": 6885,
      "▁141": 6886,
      "▁gelelim": 6887,
      "▁pazarda": 6888,
      "▁allian": 6889,
      "##din": 6890,
      "##v": 6891,
      "▁uygulamaya": 6892,
      "##22": 6893,
      "▁bilgisayar-pr": 6894,
      "##elleb": 6895,
      "▁145.45": 6896,
      "▁imalat": 6897,
      "▁seher": 6898,
      "▁evrensel": 6899,
      "▁sarhos": 6900,
      "▁alıstır": 6901,
      "▁busbut": 6902,
      "▁hisseyle": 6903,
      "▁internet": 6904,
      "▁550": 6905,
      "▁hazırlanısı": 6906,
      "▁ucuslarınız": 6907,
      "▁cıkardık": 6908,
      "▁kesfet": 6909,
      "▁cerey": 6910,
      "▁reddetti": 6911,
      "▁2023": 6912,
      "▁veda": 6913,
      "▁%1.7": 6914,
      "##iyle": 6915,
      "▁diyor": 6916,
      "##lamayı": 6917,
      "##00000": 6918,
      "▁persembe": 6919,
      "▁yayıldı": 6920,
      "▁muzak": 6921,
      "▁engelken": 6922,
      "▁pu": 6923,
      "##etini": 6924,
      "▁olumlu": 6925,
      "▁emine": 6926,
      "▁maksim": 6927,
      "▁kirec": 6928,
      "▁kasvet": 6929,
      "▁yazılı": 6930,
      "▁hangisine": 6931,
      "▁abla": 6932,
      "▁bakıs": 6933,
      "##aret": 6934,
      "▁etmiyorum": 6935,
      "##rut": 6936,
      "▁bunda": 6937,
      "▁ansiklop": 6938,
      "▁romanı": 6939,
      "▁girmeden": 6940,
      "▁rekabet": 6941,
      "▁okulda": 6942,
      "##gı": 6943,
      "▁umumi": 6944,
      "▁750000": 6945,
      "▁thom": 6946,
      "▁kabil": 6947,
      "▁aklından": 6948,
      "▁aracılıgıyla": 6949,
      "▁dusen": 6950,
      "▁kendisiyle": 6951,
      "▁devri": 6952,
      "▁hastalık": 6953,
      "##iss": 6954,
      "▁uyandır": 6955,
      "▁pazarlık": 6956,
      "▁7.7": 6957,
      "▁reddediyor": 6958,
      "▁?..": 6959,
      "##erse": 6960,
      "▁faydalı": 6961,
      "▁asagida": 6962,
      "▁biniki": 6963,
      "▁hamile": 6964,
      "▁alabilmek": 6965,
      "▁turuncu": 6966,
      "▁farz": 6967,
      "##9'a": 6968,
      "▁simdiye": 6969,
      "▁det": 6970,
      "▁antal": 6971,
      "▁musteri": 6972,
      "▁tumunu": 6973,
      "▁miktarda": 6974,
      "▁l.": 6975,
      "▁50": 6976,
      "▁continental": 6977,
      "##casına": 6978,
      "▁kentte": 6979,
      "j": 6980,
      "▁prosed": 6981,
      "▁so": 6982,
      "▁olacagına": 6983,
      "▁siniz": 6984,
      "##20000": 6985,
      "▁sildi": 6986,
      "▁cesitlilik": 6987,
      "▁post": 6988,
      "##burgh": 6989,
      "▁cat": 6990,
      "##abilecegi": 6991,
      "▁olusturdugu": 6992,
      "▁cakıl": 6993,
      "▁bakıyordu": 6994,
      "##gileri": 6995,
      "▁ehemm": 6996,
      "▁olayları": 6997,
      "▁agz": 6998,
      "▁tug": 6999,
      "▁otelde": 7000,
      "▁kıp": 7001,
      "##57": 7002,
      "▁uzunt": 7003,
      "▁cesitliydi": 7004,
      "▁ersin": 7005,
      "▁andır": 7006,
      "▁donmek": 7007,
      "▁yuzu": 7008,
      "▁trabzonspor": 7009,
      "▁salomon": 7010,
      "▁ender": 7011,
      "##elemek": 7012,
      "▁ons": 7013,
      "▁arıyor": 7014,
      "▁mali": 7015,
      "##anla": 7016,
      "##igim": 7017,
      "▁niyeti": 7018,
      "##dalar": 7019,
      "▁yapti": 7020,
      "##ahat": 7021,
      "▁faturamin": 7022,
      "▁isterse": 7023,
      "▁birbirlerini": 7024,
      "▁tartısmalar": 7025,
      "##adem": 7026,
      "##vari": 7027,
      "▁etmedi": 7028,
      "▁atıyordu": 7029,
      "▁gosteren": 7030,
      "##bi": 7031,
      "▁12.9": 7032,
      "▁tokat": 7033,
      "▁duzeyinde": 7034,
      "▁shearson": 7035,
      "▁bayat": 7036,
      "▁olmaktadır": 7037,
      "##luy": 7038,
      "▁yanlısı": 7039,
      "▁dunyadaki": 7040,
      "##eg": 7041,
      "▁$": 7042,
      "▁saglayan": 7043,
      "▁neyse": 7044,
      "▁tam": 7045,
      "▁sın": 7046,
      "##chester": 7047,
      "▁ozgurluk": 7048,
      "▁cambaz": 7049,
      "▁memleket": 7050,
      "##mun": 7051,
      "▁boyuna": 7052,
      "▁1.80": 7053,
      "▁group": 7054,
      "▁charl": 7055,
      "▁geminin": 7056,
      "▁niz": 7057,
      "##ılarak": 7058,
      "##sar": 7059,
      "▁rastgele": 7060,
      "▁atti": 7061,
      "▁yetersizdi": 7062,
      "##gından": 7063,
      "▁verdigi": 7064,
      "▁getirisi": 7065,
      "▁kokain": 7066,
      "##mıssın": 7067,
      "▁bildik": 7068,
      "▁yazma": 7069,
      "▁kazancı": 7070,
      "▁damat": 7071,
      "▁gevs": 7072,
      "##ılıgı": 7073,
      "▁ali": 7074,
      "▁dos": 7075,
      "▁iskar": 7076,
      "##alama": 7077,
      "▁muhtesem": 7078,
      "▁mevzu": 7079,
      "▁defa": 7080,
      "▁7.4": 7081,
      "##oglan": 7082,
      "▁yasadıgı": 7083,
      "▁aldigim": 7084,
      "##ısının": 7085,
      "▁one": 7086,
      "▁aktiviteler": 7087,
      "▁oldugunu": 7088,
      "▁gidi": 7089,
      "▁yapmıstı": 7090,
      "▁4.25": 7091,
      "▁esat": 7092,
      "▁2.": 7093,
      "▁uyuy": 7094,
      "▁sınıf": 7095,
      "##imizde": 7096,
      "▁aksamları": 7097,
      "▁america": 7098,
      "▁savcı": 7099,
      "▁ordek": 7100,
      "▁bulmaya": 7101,
      "▁hizmetlerini": 7102,
      "##ebilen": 7103,
      "▁yemis": 7104,
      "▁esliginde": 7105,
      "▁geldi": 7106,
      "▁corry": 7107,
      "▁bugun": 7108,
      "▁nisan": 7109,
      "▁arıyorum": 7110,
      "▁genc": 7111,
      "▁2659.22": 7112,
      "▁ilker": 7113,
      "▁rotar": 7114,
      "▁10'": 7115,
      "##pen": 7116,
      "▁dergisi": 7117,
      "##edil": 7118,
      "▁iddi": 7119,
      "▁mahkemesinde": 7120,
      "▁zordur": 7121,
      "▁cevir": 7122,
      "▁bonolar": 7123,
      "##ci": 7124,
      "▁york'a": 7125,
      "▁hazırlamıs": 7126,
      "▁tenek": 7127,
      "▁sorgul": 7128,
      "▁rej": 7129,
      "▁ark": 7130,
      "##en": 7131,
      "▁kendilerinin": 7132,
      "▁azıcık": 7133,
      "▁yarı": 7134,
      "▁kazanır": 7135,
      "▁yaradı": 7136,
      "##7.2": 7137,
      "▁yapacagını": 7138,
      "▁hizmeti": 7139,
      "▁tum": 7140,
      "▁onume": 7141,
      "▁istediklerini": 7142,
      "▁duvarları": 7143,
      "▁mektub": 7144,
      "▁l": 7145,
      "##bu": 7146,
      "▁oldugundan": 7147,
      "##la": 7148,
      "▁gelisen": 7149,
      "##48": 7150,
      "▁gormeye": 7151,
      "▁hicbirine": 7152,
      "▁sahtek": 7153,
      "▁900": 7154,
      "##j": 7155,
      "▁gunah": 7156,
      "▁fırladı": 7157,
      "▁besyuzelli": 7158,
      "▁hatırlam": 7159,
      "▁aklını": 7160,
      "##meye": 7161,
      "##undeki": 7162,
      "▁sozlesme": 7163,
      "▁krem": 7164,
      "▁kadro": 7165,
      "▁cekin": 7166,
      "##ana": 7167,
      "▁22.125": 7168,
      "▁hardal": 7169,
      "▁ulasımını": 7170,
      "▁yenil": 7171,
      "▁bankaya": 7172,
      "▁nez": 7173,
      "##mısım": 7174,
      "▁yeterliydi": 7175,
      "▁tolga": 7176,
      "▁ted": 7177,
      "▁suruldu": 7178,
      "##w": 7179,
      "▁kalitesizdi": 7180,
      "▁vermisler": 7181,
      "▁kan": 7182,
      "▁unuttur": 7183,
      "▁kıymetleri": 7184,
      "##cag": 7185,
      "▁hanım'ın": 7186,
      "▁sanslı": 7187,
      "▁esra": 7188,
      "▁baskan": 7189,
      "▁tahviller": 7190,
      "▁midir": 7191,
      "▁reserve": 7192,
      "▁franklin": 7193,
      "##.33": 7194,
      "▁americ": 7195,
      "##iel": 7196,
      "▁kuralları": 7197,
      "▁aktarmasız": 7198,
      "▁rezervasyon": 7199,
      "▁yetkilileri": 7200,
      "▁california'dan": 7201,
      "▁kosar": 7202,
      "▁icecekler": 7203,
      "▁kog": 7204,
      "▁kompoz": 7205,
      "▁anlamda": 7206,
      "▁parkı": 7207,
      "▁onalt": 7208,
      "▁etmesi": 7209,
      "##yan": 7210,
      "▁vurguladı": 7211,
      "▁hangi": 7212,
      "▁sam": 7213,
      "▁filiz": 7214,
      "▁bekledigim": 7215,
      "▁japonların": 7216,
      "▁genislet": 7217,
      "▁mıymıs": 7218,
      "▁colum": 7219,
      "▁birimiz": 7220,
      "▁gostergeleri": 7221,
      "▁birilerinin": 7222,
      "▁1959": 7223,
      "▁cozul": 7224,
      "##ekul": 7225,
      "▁yamalak": 7226,
      "▁ogrenci": 7227,
      "▁slog": 7228,
      "▁camı": 7229,
      "▁cıkmıyor": 7230,
      "▁gozlerine": 7231,
      "▁duyguları": 7232,
      "▁uzmanlar": 7233,
      "▁vat": 7234,
      "▁yasan": 7235,
      "##ebi": 7236,
      "▁merdiv": 7237,
      "▁lak": 7238,
      "▁zorunda": 7239,
      "▁tanık": 7240,
      "▁uzan": 7241,
      "▁206": 7242,
      "▁borsanın": 7243,
      "▁sevincle": 7244,
      "▁tacoma": 7245,
      "▁kullandıgı": 7246,
      "##lum": 7247,
      "▁yurttas": 7248,
      "▁gonul": 7249,
      "▁hor": 7250,
      "##alanan": 7251,
      "▁olamaz": 7252,
      "▁muthisti": 7253,
      "▁korkuyorum": 7254,
      "##ıyorsun": 7255,
      "▁cıkaracak": 7256,
      "▁dahi": 7257,
      "▁finc": 7258,
      "##74": 7259,
      "▁assets": 7260,
      "▁st.": 7261,
      "##​": 7262,
      "▁gereksin": 7263,
      "##usuz": 7264,
      "##enz": 7265,
      "##azım": 7266,
      "▁hissesi": 7267,
      "▁bende": 7268,
      "##ectr": 7269,
      "▁sırtına": 7270,
      "▁mci": 7271,
      "##ento": 7272,
      "▁ceker": 7273,
      "▁anlasmalar": 7274,
      "▁sebz": 7275,
      "▁analistleri": 7276,
      "▁kapıcı": 7277,
      "▁pek": 7278,
      "▁!": 7279,
      "▁insanlar": 7280,
      "▁nac": 7281,
      "##4.1": 7282,
      "▁baskanın": 7283,
      "▁camasır": 7284,
      "▁grubun": 7285,
      "▁etmekle": 7286,
      "##kaz": 7287,
      "▁orası": 7288,
      "▁oglu": 7289,
      "▁sist": 7290,
      "##.125": 7291,
      "##.48": 7292,
      "##'ye": 7293,
      "▁yatırım": 7294,
      "▁cocukları": 7295,
      "▁hesap": 7296,
      "##tıklarını": 7297,
      "▁york'ta": 7298,
      "▁animator": 7299,
      "▁verdik": 7300,
      "▁orhan": 7301,
      "▁345": 7302,
      "▁verme": 7303,
      "##olk": 7304,
      "▁yuvar": 7305,
      "▁12'den": 7306,
      "▁bagımlı": 7307,
      "▁masasında": 7308,
      "##taydı": 7309,
      "▁muyuz": 7310,
      "##ıncı": 7311,
      "▁bahan": 7312,
      "▁fırt": 7313,
      "##iyet": 7314,
      "▁fah": 7315,
      "▁imkanlarindan": 7316,
      "▁calıstıgını": 7317,
      "▁konusmanın": 7318,
      "##yaz": 7319,
      "##luyordu": 7320,
      "##munic": 7321,
      "▁duyuyorum": 7322,
      "▁yasin": 7323,
      "▁komisyonlar": 7324,
      "▁gecesi": 7325,
      "▁sahin": 7326,
      "▁bakmak": 7327,
      "▁yazlık": 7328,
      "▁depo": 7329,
      "▁oder": 7330,
      "▁gulums": 7331,
      "##deri": 7332,
      "##kk": 7333,
      "##.51": 7334,
      "▁asset": 7335,
      "▁giz": 7336,
      "▁melek": 7337,
      "##agıyla": 7338,
      "▁sozlesmesi": 7339,
      "▁bırakarak": 7340,
      "▁girdi": 7341,
      "▁ign": 7342,
      "▁sonunda": 7343,
      "▁atıldı": 7344,
      "▁mimari": 7345,
      "##acılara": 7346,
      "##por": 7347,
      "▁yuzyılın": 7348,
      "▁12000": 7349,
      "##'ım": 7350,
      "▁yo": 7351,
      "##icilerin": 7352,
      "##atın": 7353,
      "▁unutmus": 7354,
      "▁varsay": 7355,
      "▁cıkmak": 7356,
      "▁suları": 7357,
      "▁63": 7358,
      "▁kargas": 7359,
      "▁ulk": 7360,
      "##ret": 7361,
      "▁sip": 7362,
      "##elerinden": 7363,
      "▁gorusmek": 7364,
      "▁hall": 7365,
      "▁lokasyonu": 7366,
      "▁imparator": 7367,
      "▁taleb": 7368,
      "▁brown": 7369,
      "▁taklit": 7370,
      "▁study": 7371,
      "▁defter": 7372,
      "##imdi": 7373,
      "▁sec": 7374,
      "▁istihbar": 7375,
      "▁klas": 7376,
      "▁nerelerde": 7377,
      "▁batar": 7378,
      "▁itibaren": 7379,
      "##anlarla": 7380,
      "▁gonzalez": 7381,
      "▁karal": 7382,
      "▁yaptır": 7383,
      "##ilmaz": 7384,
      "▁yanas": 7385,
      "▁yetkilisi": 7386,
      "▁noktası": 7387,
      "▁etkinlik": 7388,
      "▁zeh": 7389,
      "▁phoenix'e": 7390,
      "##acaktır": 7391,
      "▁kole": 7392,
      "▁tren": 7393,
      "▁basma": 7394,
      "▁hata": 7395,
      "▁dolara": 7396,
      "▁tatile": 7397,
      "▁beyefendi": 7398,
      "▁islere": 7399,
      "▁lir": 7400,
      "▁63.52": 7401,
      "▁toplantıda": 7402,
      "▁bayiler": 7403,
      "▁dr.": 7404,
      "▁protesto": 7405,
      "▁ilgili": 7406,
      "▁sık": 7407,
      "##.45": 7408,
      "▁dukkan": 7409,
      "▁planlanıyor": 7410,
      "▁vazo": 7411,
      "##.53": 7412,
      "▁birbirler": 7413,
      "##ona": 7414,
      "##iyor": 7415,
      "▁pozisyon": 7416,
      "▁otek": 7417,
      "##adaki": 7418,
      "##lak": 7419,
      "▁babası": 7420,
      "##is'in": 7421,
      "▁sirketlerinin": 7422,
      "▁beri": 7423,
      "▁hisselerini": 7424,
      "##lilig": 7425,
      "▁esp": 7426,
      "▁hissedarlar": 7427,
      "▁general": 7428,
      "##000": 7429,
      "▁hukmu": 7430,
      "▁aclıktan": 7431,
      "▁tramvay": 7432,
      "▁unif": 7433,
      "▁saclarını": 7434,
      "▁mont": 7435,
      "▁genislem": 7436,
      "▁1.72": 7437,
      "##el": 7438,
      "▁tokyo'da": 7439,
      "▁150": 7440,
      "▁oynat": 7441,
      "▁kaldim": 7442,
      "##acılar": 7443,
      "▁federal": 7444,
      "▁ayakta": 7445,
      "▁annesini": 7446,
      "##ut": 7447,
      "##lugundan": 7448,
      "▁rakib": 7449,
      "▁industri": 7450,
      "▁hafız": 7451,
      "##osunda": 7452,
      "▁cenaze": 7453,
      "▁tedavulde": 7454,
      "▁yonel": 7455,
      "▁dedikleri": 7456,
      "##lıgı": 7457,
      "▁guzeli": 7458,
      "▁3/32": 7459,
      "▁daima": 7460,
      "▁istedim": 7461,
      "##mail": 7462,
      "▁kadif": 7463,
      "##iran": 7464,
      "▁krenz": 7465,
      "##3:": 7466,
      "▁gob": 7467,
      "▁ucuslarda": 7468,
      "▁amex": 7469,
      "▁sezlong": 7470,
      "##gunun": 7471,
      "##‘": 7472,
      "▁vurdum": 7473,
      "▁arayıp": 7474,
      "▁almamıs": 7475,
      "▁1963": 7476,
      "▁cıktı": 7477,
      "▁527": 7478,
      "▁kileri": 7479,
      "##dıgımı": 7480,
      "▁gib": 7481,
      "▁re": 7482,
      "▁yanındaki": 7483,
      "▁fırlamıs": 7484,
      "##ıyordu": 7485,
      "##livan": 7486,
      "▁ona": 7487,
      "##atlı": 7488,
      "▁gozlerinde": 7489,
      "▁dalları": 7490,
      "##iydi": 7491,
      "▁mim": 7492,
      "▁%5.4": 7493,
      "▁numaraları": 7494,
      "##emb": 7495,
      "▁cog": 7496,
      "▁padisah": 7497,
      "▁arar": 7498,
      "▁acacak": 7499,
      "▁domuz": 7500,
      "▁kapasitesi": 7501,
      "##onik": 7502,
      "▁bar": 7503,
      "▁kilis": 7504,
      "▁atak": 7505,
      "▁eser": 7506,
      "▁bazılarını": 7507,
      "##malıydı": 7508,
      "▁sıyır": 7509,
      "▁misk": 7510,
      "▁paul'a": 7511,
      "▁kavustur": 7512,
      "▁141.45": 7513,
      "##akkak": 7514,
      "▁temizlen": 7515,
      "▁bulunuyordu": 7516,
      "▁potansiy": 7517,
      "##ınıyor": 7518,
      "▁ortalaması": 7519,
      "▁merc": 7520,
      "▁tutuyor": 7521,
      "▁yontem": 7522,
      "▁ayaz": 7523,
      "▁cıkmaz": 7524,
      "▁atlı": 7525,
      "▁otele": 7526,
      "▁bambaska": 7527,
      "▁holding": 7528,
      "▁yatırımı": 7529,
      "▁mevduat": 7530,
      "▁roma": 7531,
      "▁puanlık": 7532,
      "▁buyur": 7533,
      "▁kurumu": 7534,
      "▁gelirleri": 7535,
      "##caktır": 7536,
      "▁cevresi": 7537,
      "▁masayı": 7538,
      "##amayı": 7539,
      "▁biles": 7540,
      "▁sizinle": 7541,
      "▁74": 7542,
      "▁duv": 7543,
      "##ant": 7544,
      "▁kaliteye": 7545,
      "▁ayrı": 7546,
      "▁topu": 7547,
      "▁hastalı": 7548,
      "▁trav": 7549,
      "▁menfaat": 7550,
      "##cev": 7551,
      "▁yapım": 7552,
      "▁ton": 7553,
      "▁sanıyor": 7554,
      "##ız": 7555,
      "▁par": 7556,
      "##aktadır": 7557,
      "▁manz": 7558,
      "▁edilmistir": 7559,
      "##atil": 7560,
      "▁bilemiyorum": 7561,
      "▁bilmem": 7562,
      "▁fırtın": 7563,
      "▁betim": 7564,
      "▁dunya": 7565,
      "▁niyetinde": 7566,
      "▁!..": 7567,
      "##isa": 7568,
      "▁mon": 7569,
      "##eyince": 7570,
      "▁sakin": 7571,
      "▁etkilen": 7572,
      "▁klor": 7573,
      "▁chan": 7574,
      "▁gelmisti": 7575,
      "▁mırıldandı": 7576,
      "▁286": 7577,
      "▁calkal": 7578,
      "▁yazının": 7579,
      "##tigi": 7580,
      "##bakır": 7581,
      "##asmıs": 7582,
      "##'la": 7583,
      "▁suru": 7584,
      "▁fuz": 7585,
      "▁99.14": 7586,
      "▁denizin": 7587,
      "▁annem": 7588,
      "##artesi": 7589,
      "##oru": 7590,
      "##ekom": 7591,
      "▁tuketici": 7592,
      "##unuz": 7593,
      "▁algılan": 7594,
      "▁tutmak": 7595,
      "▁ustunde": 7596,
      "##bs": 7597,
      "##.31": 7598,
      "▁cıktık": 7599,
      "▁korsan": 7600,
      "##300": 7601,
      "▁mahkemeye": 7602,
      "##afir": 7603,
      "▁doluydu": 7604,
      "▁gezin": 7605,
      "▁5.4": 7606,
      "▁ecekti": 7607,
      "▁ilgil": 7608,
      "▁ikide": 7609,
      "▁geldiniz": 7610,
      "▁yıpran": 7611,
      "##mas": 7612,
      "▁genelkurmay": 7613,
      "▁actım": 7614,
      "▁inanc": 7615,
      "▁faydalan": 7616,
      "##h": 7617,
      "##96": 7618,
      "▁gumbur": 7619,
      "▁algıl": 7620,
      "▁gecer": 7621,
      "##kelam": 7622,
      "##gunu": 7623,
      "▁maden": 7624,
      "▁sinirli": 7625,
      "▁ozlem": 7626,
      "▁paribas": 7627,
      "▁gazete": 7628,
      "▁endustriyel": 7629,
      "▁dukkanı": 7630,
      "▁kızları": 7631,
      "▁yankılan": 7632,
      "▁bulgaristan": 7633,
      "▁tit": 7634,
      "▁5.2": 7635,
      "▁kurulu'nun": 7636,
      "##mayacagı": 7637,
      "▁fransızca": 7638,
      "▁cef": 7639,
      "▁balıkcı": 7640,
      "##ilere": 7641,
      "▁mektu": 7642,
      "##olik": 7643,
      "▁rengi": 7644,
      "▁intel": 7645,
      "▁kahr": 7646,
      "▁ny": 7647,
      "▁cekiyordu": 7648,
      "▁sozunu": 7649,
      "##su": 7650,
      "▁kırm": 7651,
      "▁gomlek": 7652,
      "▁dumen": 7653,
      "▁gelirlerinin": 7654,
      "▁saatte": 7655,
      "▁laz": 7656,
      "▁meseleyi": 7657,
      "▁konumu": 7658,
      "▁karsilik": 7659,
      "▁inc.": 7660,
      "▁bilgisayarlar": 7661,
      "▁iliskili": 7662,
      "▁tuken": 7663,
      "##ox": 7664,
      "##75": 7665,
      "##elerce": 7666,
      "▁seklinde": 7667,
      "▁paraları": 7668,
      "##yu": 7669,
      "##e'de": 7670,
      "▁agrı": 7671,
      "▁oranlar": 7672,
      "▁kanep": 7673,
      "▁capkın": 7674,
      "▁120": 7675,
      "▁kon": 7676,
      "▁dilerim": 7677,
      "##mıstır": 7678,
      "##le": 7679,
      "▁0.1": 7680,
      "##dimiza": 7681,
      "▁ortamda": 7682,
      "▁muhakkak": 7683,
      "▁mutluluk": 7684,
      "##ishi": 7685,
      "▁yanıyor": 7686,
      "▁lodos": 7687,
      "▁bak": 7688,
      "▁nese": 7689,
      "▁dieg": 7690,
      "▁nok": 7691,
      "▁calmaya": 7692,
      "##11": 7693,
      "▁belirttigim": 7694,
      "▁murekkep": 7695,
      "▁bozdu": 7696,
      "▁edinmek": 7697,
      "▁kısmen": 7698,
      "▁goldman": 7699,
      "▁haz": 7700,
      "##man": 7701,
      "▁nadir": 7702,
      "▁ilgileniyor": 7703,
      "##cik": 7704,
      "▁istek": 7705,
      "##.4": 7706,
      "▁durdurdu": 7707,
      "▁991": 7708,
      "▁matba": 7709,
      "▁yanık": 7710,
      "##abilirim": 7711,
      "▁rep": 7712,
      "▁icimden": 7713,
      "▁kullan": 7714,
      "▁tahrik": 7715,
      "▁birisine": 7716,
      "▁calısması": 7717,
      "▁ucundan": 7718,
      "▁erdogan": 7719,
      "▁kayak": 7720,
      "▁hızla": 7721,
      "▁giderek": 7722,
      "##ie": 7723,
      "▁devamli": 7724,
      "▁atladı": 7725,
      "▁kayseri": 7726,
      "▁7'de": 7727,
      "▁18.": 7728,
      "▁01": 7729,
      "▁bulut": 7730,
      "▁esrar": 7731,
      "▁gay": 7732,
      "▁alın": 7733,
      "##adılar": 7734,
      "▁/": 7735,
      "▁71": 7736,
      "▁pittsburgh'ta": 7737,
      "▁geldikleri": 7738,
      "▁basından": 7739,
      "##maya": 7740,
      "##9'un": 7741,
      "▁best": 7742,
      "▁onlem": 7743,
      "▁okum": 7744,
      "▁senar": 7745,
      "##ole": 7746,
      "▁bırakıyor": 7747,
      "▁evrenin": 7748,
      "▁alık": 7749,
      "▁est": 7750,
      "##'tan": 7751,
      "▁surecin": 7752,
      "▁ogul": 7753,
      "▁patlıc": 7754,
      "▁filozof": 7755,
      "▁ruz": 7756,
      "▁iceri": 7757,
      "▁but": 7758,
      "▁performans": 7759,
      "▁belirtti": 7760,
      "▁agustos'ta": 7761,
      "##emedi": 7762,
      "▁verirdi": 7763,
      "▁ankara'ya": 7764,
      "▁atıs": 7765,
      "▁degir": 7766,
      "▁uyku": 7767,
      "▁kazanarak": 7768,
      "▁oldugun": 7769,
      "##atik": 7770,
      "##amadılar": 7771,
      "▁oncesinde": 7772,
      "▁tarife": 7773,
      "##ki": 7774,
      "▁world": 7775,
      "▁kokuyordu": 7776,
      "▁alt": 7777,
      "▁istiyorum": 7778,
      "▁fizik": 7779,
      "▁uyarı": 7780,
      "▁atlat": 7781,
      "##gumuz": 7782,
      "▁kidder": 7783,
      "▁malzemeler": 7784,
      "▁verdigini": 7785,
      "##/32": 7786,
      "▁kararını": 7787,
      "##ıver": 7788,
      "▁2005'e": 7789,
      "▁fes": 7790,
      "▁dogu": 7791,
      "▁esmer": 7792,
      "##usunun": 7793,
      "▁613": 7794,
      "▁gordu": 7795,
      "##eket": 7796,
      "▁olursa": 7797,
      "▁cinayet": 7798,
      "▁1930": 7799,
      "##eh": 7800,
      "##amayacagim": 7801,
      "▁bastır": 7802,
      "▁dayanıklı": 7803,
      "##unik": 7804,
      "▁vide": 7805,
      "##ele": 7806,
      "▁09:": 7807,
      "▁gec": 7808,
      "##3.9": 7809,
      "▁donmus": 7810,
      "##lendiriyor": 7811,
      "▁hoca": 7812,
      "▁arkasından": 7813,
      "▁organizasyon": 7814,
      "▁az": 7815,
      "▁fayd": 7816,
      "▁cırp": 7817,
      "▁gerekir": 7818,
      "▁sigortası": 7819,
      "▁butc": 7820,
      "▁hesaba": 7821,
      "▁birilerini": 7822,
      "▁senetlerine": 7823,
      "▁davranıs": 7824,
      "▁ucusunuz": 7825,
      "▁aynada": 7826,
      "▁laik": 7827,
      "##ılırsa": 7828,
      "▁kongre": 7829,
      "##tap": 7830,
      "▁yok": 7831,
      "##'ya": 7832,
      "▁temizlik": 7833,
      "▁cevik": 7834,
      "▁atmaya": 7835,
      "##tanın": 7836,
      "▁cosk": 7837,
      "▁degistirdi": 7838,
      "▁iyidir": 7839,
      "▁atıp": 7840,
      "##indan": 7841,
      "▁peyn": 7842,
      "▁anlasmaz": 7843,
      "▁1850": 7844,
      "##efendi": 7845,
      "▁98": 7846,
      "##lugunu": 7847,
      "▁kahkaha": 7848,
      "▁hatırlıyorum": 7849,
      "##tıgım": 7850,
      "▁brit": 7851,
      "▁guleryuz": 7852,
      "▁332": 7853,
      "##jektif": 7854,
      "▁stratej": 7855,
      "▁tv": 7856,
      "##imle": 7857,
      "##ayet": 7858,
      "▁fark": 7859,
      "##unc": 7860,
      "##larin": 7861,
      "▁vef": 7862,
      "▁41.2": 7863,
      "##.7": 7864,
      "▁huy": 7865,
      "▁dokul": 7866,
      "##rup": 7867,
      "▁yasından": 7868,
      "▁26.1": 7869,
      "▁sebebi": 7870,
      "▁dususu": 7871,
      "▁yargıtay": 7872,
      "▁turb": 7873,
      "▁kaygı": 7874,
      "▁gıc": 7875,
      "##cuk": 7876,
      "▁tasv": 7877,
      "▁yonet": 7878,
      "▁duru": 7879,
      "▁pahali": 7880,
      "##cısı": 7881,
      "▁muhtemelen": 7882,
      "##isten": 7883,
      "##luyorlar": 7884,
      "▁tesadu": 7885,
      "▁paranın": 7886,
      "##ali": 7887,
      "▁big": 7888,
      "▁kravat": 7889,
      "▁latin": 7890,
      "▁oturmus": 7891,
      "▁1.23": 7892,
      "▁yonelik": 7893,
      "▁kasıgı": 7894,
      "▁gidil": 7895,
      "##digince": 7896,
      "▁bekledi": 7897,
      "▁ogleden": 7898,
      "▁normaldi": 7899,
      "▁pentagon": 7900,
      "▁teler": 7901,
      "##ick": 7902,
      "▁bacagını": 7903,
      "▁otede": 7904,
      "▁kansas": 7905,
      "##'nin": 7906,
      "▁vasıt": 7907,
      "▁lilly": 7908,
      "▁unlu": 7909,
      "##_": 7910,
      "▁yardimci": 7911,
      "▁iz": 7912,
      "▁yazık": 7913,
      "▁sıvı": 7914,
      "▁yolunda": 7915,
      "▁dayanır": 7916,
      "▁yerde": 7917,
      "▁alır": 7918,
      "▁diniz": 7919,
      "▁degerlendiririm": 7920,
      "##cinin": 7921,
      "▁baslangıcı": 7922,
      "▁sıp": 7923,
      "##agımı": 7924,
      "▁perakendeciler": 7925,
      "##lal": 7926,
      "▁huzursuz": 7927,
      "##azı": 7928,
      "##ney": 7929,
      "▁fakir": 7930,
      "▁deh": 7931,
      "▁kamp": 7932,
      "▁hatice": 7933,
      "▁maalesef": 7934,
      "▁nın": 7935,
      "▁sundu": 7936,
      "##amanın": 7937,
      "##sın": 7938,
      "##veti": 7939,
      "▁ti": 7940,
      "▁dusunmeye": 7941,
      "##an'ın": 7942,
      "▁illa": 7943,
      "##atas": 7944,
      "▁mudu": 7945,
      "▁raporları": 7946,
      "▁gerekti": 7947,
      "##yse": 7948,
      "▁2000": 7949,
      "▁sonbah": 7950,
      "▁merkez": 7951,
      "▁yiyeceklerin": 7952,
      "##ınızda": 7953,
      "▁kapat": 7954,
      "▁282": 7955,
      "##sinden": 7956,
      "##cide": 7957,
      "▁yazılmıs": 7958,
      "##amıs": 7959,
      "▁paralar": 7960,
      "▁olmadıgını": 7961,
      "▁vadesiz": 7962,
      "▁kuvvet": 7963,
      "▁192": 7964,
      "▁0.10": 7965,
      "▁topcu": 7966,
      "▁do": 7967,
      "▁deligi": 7968,
      "##menin": 7969,
      "▁baglıdır": 7970,
      "##ait": 7971,
      "▁gordugumuz": 7972,
      "▁mı": 7973,
      "▁lis": 7974,
      "##ozof": 7975,
      "▁ettiler": 7976,
      "##0.33": 7977,
      "▁lou": 7978,
      "▁donemde": 7979,
      "▁bono": 7980,
      "▁umuyor": 7981,
      "▁pel": 7982,
      "▁basınc": 7983,
      "▁iki": 7984,
      "▁degil": 7985,
      "▁dolayı": 7986,
      "▁bakanı": 7987,
      "▁spons": 7988,
      "##ji": 7989,
      "▁bilgisayar": 7990,
      "▁kımıl": 7991,
      "##ede": 7992,
      "▁agız": 7993,
      "▁dist": 7994,
      "▁pansiyon": 7995,
      "▁govde": 7996,
      "▁1969": 7997,
      "▁zinciri": 7998,
      "▁tarafından": 7999,
      "▁devre": 8000,
      "▁yapil": 8001,
      "##san": 8002,
      "▁vadede": 8003,
      "▁kaldım": 8004,
      "▁nuk": 8005,
      "▁birbirlerinin": 8006,
      "▁baskasın": 8007,
      "▁'": 8008,
      "▁minimum": 8009,
      "▁arız": 8010,
      "▁kısm": 8011,
      "##lanın": 8012,
      "##ıcı": 8013,
      "▁pazarı": 8014,
      "▁sonucunda": 8015,
      "▁tabii": 8016,
      "▁renkleri": 8017,
      "▁dakika": 8018,
      "##ack": 8019,
      "▁tahminler": 8020,
      "▁yapı": 8021,
      "▁enflasyon": 8022,
      "▁zen": 8023,
      "▁cihaz": 8024,
      "▁hele": 8025,
      "▁1.91": 8026,
      "▁genclerin": 8027,
      "▁aln": 8028,
      "▁aktivit": 8029,
      "▁cesitliligi": 8030,
      "▁yıcı": 8031,
      "##.55": 8032,
      "▁sahili": 8033,
      "##veland": 8034,
      "▁reviz": 8035,
      "▁82.1": 8036,
      "▁birtakım": 8037,
      "##inize": 8038,
      "▁nukleer": 8039,
      "▁imkanlari": 8040,
      "▁4'ten": 8041,
      "▁manville": 8042,
      "▁birbirlerinden": 8043,
      "▁isgucu": 8044,
      "▁sivr": 8045,
      "▁kendimi": 8046,
      "▁b": 8047,
      "▁gosterg": 8048,
      "##agında": 8049,
      "▁yak": 8050,
      "▁gecerli": 8051,
      "▁hurriyet": 8052,
      "▁kesf": 8053,
      "##o'dan": 8054,
      "##ell": 8055,
      "▁hong": 8056,
      "▁parayı": 8057,
      "▁s.": 8058,
      "▁odalarin": 8059,
      "▁kalktım": 8060,
      "▁biridir": 8061,
      "▁1.63": 8062,
      "##imizda": 8063,
      "▁gozde": 8064,
      "▁kesmek": 8065,
      "##iyon": 8066,
      "▁bulun": 8067,
      "▁bilirler": 8068,
      "▁sunan": 8069,
      "▁torp": 8070,
      "##inizde": 8071,
      "##iyak": 8072,
      "▁yukseltti": 8073,
      "▁campeau": 8074,
      "▁aldat": 8075,
      "▁washington": 8076,
      "▁no": 8077,
      "▁kasırga": 8078,
      "##ar": 8079,
      "▁ed": 8080,
      "▁bayan": 8081,
      "▁cumartesi": 8082,
      "▁halihaz": 8083,
      "▁hırsız": 8084,
      "▁turkiye'ye": 8085,
      "▁eksikligi": 8086,
      "▁350": 8087,
      "▁hepimizi": 8088,
      "▁istiyordum": 8089,
      "▁yah": 8090,
      "▁numara": 8091,
      "▁bakısı": 8092,
      "▁calısmaya": 8093,
      "▁agar": 8094,
      "##andan": 8095,
      "##sira": 8096,
      "▁civar": 8097,
      "▁251": 8098,
      "▁gucluk": 8099,
      "##fih": 8100,
      "▁icinizde": 8101,
      "##atla": 8102,
      "##adına": 8103,
      "▁edilir": 8104,
      "▁mahrum": 8105,
      "▁yuks": 8106,
      "▁yeni": 8107,
      "▁bilirim": 8108,
      "##gin": 8109,
      "▁industrial": 8110,
      "▁yapamayacagim": 8111,
      "▁otellerde": 8112,
      "▁reklamları": 8113,
      "▁sonuclar": 8114,
      "▁olanı": 8115,
      "▁ali'nin": 8116,
      "##ustan": 8117,
      "##lav": 8118,
      "▁neyin": 8119,
      "▁degis": 8120,
      "▁yirmibir": 8121,
      "▁fiyatlara": 8122,
      "▁kaz": 8123,
      "▁davası": 8124,
      "▁it": 8125,
      "##hur": 8126,
      "##malıdır": 8127,
      "▁kulturel": 8128,
      "▁operator": 8129,
      "▁toplantısında": 8130,
      "▁akıyor": 8131,
      "▁fabrika": 8132,
      "▁hamuru": 8133,
      "▁rom": 8134,
      "▁buruk": 8135,
      "▁candan": 8136,
      "▁tar": 8137,
      "▁azından": 8138,
      "▁aldıgı": 8139,
      "##ris": 8140,
      "##ku": 8141,
      "▁icimde": 8142,
      "▁basbakan": 8143,
      "▁cagır": 8144,
      "▁gosteriyor": 8145,
      "##mustum": 8146,
      "##organ": 8147,
      "▁bolun": 8148,
      "##ugum": 8149,
      "▁527.39": 8150,
      "▁40.1": 8151,
      "##ader": 8152,
      "▁haklarının": 8153,
      "▁tutarında": 8154,
      "##'an": 8155,
      "▁tasıma": 8156,
      "▁giys": 8157,
      "▁col": 8158,
      "▁gazetesi": 8159,
      "▁nere": 8160,
      "▁degilmis": 8161,
      "▁havayol": 8162,
      "▁ertelen": 8163,
      "##ısır": 8164,
      "▁silk": 8165,
      "▁kas": 8166,
      "▁acıklanmadı": 8167,
      "▁calıyor": 8168,
      "▁dusunc": 8169,
      "##ref": 8170,
      "▁calıs": 8171,
      "▁yuksel": 8172,
      "##cıların": 8173,
      "▁yalın": 8174,
      "##sel": 8175,
      "▁tarihini": 8176,
      "##agındaki": 8177,
      "▁fiyatlarında": 8178,
      "▁well": 8179,
      "▁satısları": 8180,
      "▁cıkmıstı": 8181,
      "▁getirdigi": 8182,
      "▁hakkını": 8183,
      "▁sanal": 8184,
      "▁04": 8185,
      "▁kırac": 8186,
      "##rap": 8187,
      "▁kurmak": 8188,
      "▁tuylu": 8189,
      "▁47": 8190,
      "▁asl": 8191,
      "▁teklifini": 8192,
      "▁listel": 8193,
      "▁adımlarla": 8194,
      "▁odanın": 8195,
      "▁sigar": 8196,
      "▁yad": 8197,
      "▁derde": 8198,
      "▁okuldan": 8199,
      "▁tuvalet": 8200,
      "▁ciz": 8201,
      "▁ını": 8202,
      "##at": 8203,
      "▁poz": 8204,
      "▁sevinc": 8205,
      "▁gomle": 8206,
      "##uc": 8207,
      "▁49": 8208,
      "▁ayarlanabilir": 8209,
      "▁le": 8210,
      "▁kons": 8211,
      "##esi'ne": 8212,
      "▁cihan": 8213,
      "##enen": 8214,
      "▁sebep": 8215,
      "▁olmustu": 8216,
      "▁belirgin": 8217,
      "▁kl": 8218,
      "▁hicbiri": 8219,
      "▁saray": 8220,
      "##alarına": 8221,
      "▁konustuk": 8222,
      "##tone": 8223,
      "▁romanc": 8224,
      "▁dısarıda": 8225,
      "▁pen": 8226,
      "▁hile": 8227,
      "▁eylem": 8228,
      "##'i": 8229,
      "##ftadır": 8230,
      "##eki": 8231,
      "▁besik": 8232,
      "▁cogu": 8233,
      "▁diyorum": 8234,
      "▁degisiyor": 8235,
      "▁mad": 8236,
      "▁sahipleri": 8237,
      "▁kendiliginden": 8238,
      "▁turn": 8239,
      "▁veremeyecegim": 8240,
      "▁zehir": 8241,
      "▁icli": 8242,
      "##dırlar": 8243,
      "▁sivrisin": 8244,
      "##misler": 8245,
      "##iyas": 8246,
      "▁yaptirdi": 8247,
      "▁muam": 8248,
      "▁karmakarısık": 8249,
      "▁kaldıgını": 8250,
      "▁meg": 8251,
      "▁irak": 8252,
      "▁cıg": 8253,
      "▁ucmak": 8254,
      "▁begen": 8255,
      "##dedildi": 8256,
      "##op": 8257,
      "▁buny": 8258,
      "▁bankaları": 8259,
      "##anlı": 8260,
      "▁musunuz": 8261,
      "##yalar": 8262,
      "▁gar": 8263,
      "▁birisini": 8264,
      "▁harikaydi": 8265,
      "▁pil": 8266,
      "▁yolda": 8267,
      "▁busbutun": 8268,
      "##ltı": 8269,
      "▁franc": 8270,
      "▁guclendir": 8271,
      "▁yanıl": 8272,
      "▁jr": 8273,
      "▁seviye": 8274,
      "3": 8275,
      "▁telefonda": 8276,
      "▁fiyatlari": 8277,
      "▁uzmanı": 8278,
      "▁kapsamında": 8279,
      "▁agzına": 8280,
      "▁klima": 8281,
      "▁okan": 8282,
      "▁karısının": 8283,
      "▁buldum": 8284,
      "▁cev": 8285,
      "▁drexel": 8286,
      "##ah": 8287,
      "▁seyleri": 8288,
      "▁bizlere": 8289,
      "##9'dan": 8290,
      "▁konferans": 8291,
      "▁duzenlemeleri": 8292,
      "▁kufur": 8293,
      "▁breeden": 8294,
      "▁dugum": 8295,
      "##loy": 8296,
      "▁sektorunde": 8297,
      "▁cız": 8298,
      "##akat": 8299,
      "##tor": 8300,
      "▁varacak": 8301,
      "▁bayagi": 8302,
      "▁ulasıyor": 8303,
      "▁sırasıyla": 8304,
      "▁gormek": 8305,
      "▁haydi": 8306,
      "▁anlasılan": 8307,
      "##lbu": 8308,
      "▁yayımlanan": 8309,
      "##eli": 8310,
      "▁1.5": 8311,
      "▁yım": 8312,
      "##larak": 8313,
      "##.": 8314,
      "##tar": 8315,
      "▁istegi": 8316,
      "▁dik": 8317,
      "▁alacagını": 8318,
      "▁ikibinbir": 8319,
      "##dikal": 8320,
      "▁7.9": 8321,
      "▁degismeden": 8322,
      "▁erk": 8323,
      "▁memnuniyeti": 8324,
      "▁firmanın": 8325,
      "▁sesi": 8326,
      "▁temizliginden": 8327,
      "▁men": 8328,
      "▁vermisti": 8329,
      "##ugu": 8330,
      "▁zayıf": 8331,
      "##urt": 8332,
      "##zin": 8333,
      "##pıs": 8334,
      "##port": 8335,
      "▁yalancı": 8336,
      "▁onur": 8337,
      "▁verilmesi": 8338,
      "▁yuzunden": 8339,
      "▁allah'a": 8340,
      "##tip": 8341,
      "▁olmamakla": 8342,
      "▁pazarın": 8343,
      "▁kaf": 8344,
      "▁hayret": 8345,
      "▁cıkardıgı": 8346,
      "##pal": 8347,
      "▁gordugunuz": 8348,
      "▁muht": 8349,
      "▁1.19": 8350,
      "##:11": 8351,
      "▁beyef": 8352,
      "▁bekledigini": 8353,
      "▁oynar": 8354,
      "##kam": 8355,
      "▁afgan": 8356,
      "▁yiz": 8357,
      "▁istihdam": 8358,
      "▁george": 8359,
      "##raf": 8360,
      "▁dersiniz": 8361,
      "▁duyduk": 8362,
      "▁139": 8363,
      "▁da": 8364,
      "▁alırım": 8365,
      "▁bayr": 8366,
      "##mede": 8367,
      "▁ramiz": 8368,
      "##14": 8369,
      "▁boc": 8370,
      "▁calıstır": 8371,
      "▁sabahleyin": 8372,
      "e": 8373,
      "##mm": 8374,
      "▁yolculuk": 8375,
      "##iden": 8376,
      "▁yiyen": 8377,
      "##esinde": 8378,
      "▁petersburg'a": 8379,
      "▁kıvr": 8380,
      "▁%50": 8381,
      "▁meksika": 8382,
      "##laki": 8383,
      "▁biricik": 8384,
      "##tım": 8385,
      "▁dor": 8386,
      "##s.": 8387,
      "▁oldugu": 8388,
      "##ulebilir": 8389,
      "▁yarısı": 8390,
      "##arı": 8391,
      "▁verecektir": 8392,
      "▁bunyesinde": 8393,
      "▁cleveland'dan": 8394,
      "##lamıstı": 8395,
      "▁kullandı": 8396,
      "▁duzeyde": 8397,
      "▁dususun": 8398,
      "▁gidiyordu": 8399,
      "▁konuya": 8400,
      "▁edilem": 8401,
      "▁red": 8402,
      "▁kurumları": 8403,
      "##duz": 8404,
      "▁baskalarına": 8405,
      "##anet": 8406,
      "▁topragı": 8407,
      "▁alınır": 8408,
      "▁silik": 8409,
      "▁gok": 8410,
      "▁ceo": 8411,
      "▁tahvillerin": 8412,
      "##elerdir": 8413,
      "▁getiri": 8414,
      "▁tesekkur": 8415,
      "▁girdik": 8416,
      "##6'da": 8417,
      "##isleri": 8418,
      "▁temsil": 8419,
      "##larımın": 8420,
      "▁beklenen": 8421,
      "▁borclu": 8422,
      "▁1200": 8423,
      "##gunda": 8424,
      "▁salonda": 8425,
      "##rı": 8426,
      "##makla": 8427,
      "▁ro": 8428,
      "▁endustri": 8429,
      "▁tw": 8430,
      "▁ayagında": 8431,
      "▁kaldık": 8432,
      "▁istif": 8433,
      "##ıntıları": 8434,
      "▁kıt": 8435,
      "##dedi": 8436,
      "▁sozlerini": 8437,
      "▁bagdas": 8438,
      "##mekte": 8439,
      "▁evrak": 8440,
      "▁akıs": 8441,
      "▁yasası": 8442,
      "▁sadık": 8443,
      "▁arı": 8444,
      "▁yapacagim": 8445,
      "▁beklen": 8446,
      "▁incelem": 8447,
      "▁kalkarak": 8448,
      "▁n": 8449,
      "▁key": 8450,
      "▁ilham": 8451,
      "▁whit": 8452,
      "▁dayanarak": 8453,
      "##ranc": 8454,
      "▁hala": 8455,
      "▁kendimde": 8456,
      "▁nusret": 8457,
      "▁memuru": 8458,
      "▁acıyordu": 8459,
      "▁yatıyordu": 8460,
      "▁tartısmaya": 8461,
      "▁kendisinde": 8462,
      "▁tak": 8463,
      "▁olcut": 8464,
      "▁gubre": 8465,
      "▁konsol": 8466,
      "▁biz": 8467,
      "▁ustunden": 8468,
      "▁verdiginiz": 8469,
      "▁gorgu": 8470,
      "▁kinden": 8471,
      "▁liralık": 8472,
      "▁108": 8473,
      "▁havaalanı'nda": 8474,
      "▁abd'li": 8475,
      "▁inek": 8476,
      "▁rehber": 8477,
      "▁hareketli": 8478,
      "▁5'te": 8479,
      "##munications": 8480,
      "▁houston'dan": 8481,
      "▁esk": 8482,
      "▁toplan": 8483,
      "▁cesidi": 8484,
      "##...": 8485,
      "▁munhasır": 8486,
      "##tiy": 8487,
      "##ayla": 8488,
      "▁cesitleri": 8489,
      "▁bastı": 8490,
      "▁dustugu": 8491,
      "▁hasır": 8492,
      "##36": 8493,
      "##ilm": 8494,
      "##.15": 8495,
      "▁bakınca": 8496,
      "▁fist": 8497,
      "▁rakipler": 8498,
      "▁tedav": 8499,
      "▁3000": 8500,
      "▁basarili": 8501,
      "▁itaat": 8502,
      "▁teorik": 8503,
      "##1'e": 8504,
      "▁cey": 8505,
      "▁yenilik": 8506,
      "##7": 8507,
      "▁oglen": 8508,
      "##sekiz": 8509,
      "▁geceleri": 8510,
      "▁parası": 8511,
      "▁donup": 8512,
      "##eyerek": 8513,
      "▁eliyle": 8514,
      "▁avukatlar": 8515,
      "##lunun": 8516,
      "##aclı": 8517,
      "▁yosun": 8518,
      "▁day": 8519,
      "▁vi": 8520,
      "##mıyorum": 8521,
      "##manız": 8522,
      "##aco": 8523,
      "▁kopr": 8524,
      "▁partisi": 8525,
      "▁etken": 8526,
      "▁evinden": 8527,
      "##alarak": 8528,
      "▁hissediyorum": 8529,
      "▁basarılı": 8530,
      "▁personellerden": 8531,
      "▁capital": 8532,
      "##die": 8533,
      "▁kırık": 8534,
      "▁ettin": 8535,
      "▁tered": 8536,
      "##iligin": 8537,
      "▁700": 8538,
      "▁kapasit": 8539,
      "▁parcası": 8540,
      "▁at&t": 8541,
      "▁anadolu'da": 8542,
      "##emizi": 8543,
      "▁binlerce": 8544,
      "▁cikiyordu": 8545,
      "▁sf": 8546,
      "##gil": 8547,
      "▁kalıp": 8548,
      "▁gunumuzde": 8549,
      "p": 8550,
      "##rını": 8551,
      "##ige": 8552,
      "▁okurken": 8553,
      "##86": 8554,
      "##istan": 8555,
      "▁garip": 8556,
      "▁ilkeleri": 8557,
      "▁bugunlerde": 8558,
      "▁ramp": 8559,
      "▁delikanlı": 8560,
      "▁carsı": 8561,
      "##dıgım": 8562,
      "▁sebeplerden": 8563,
      "▁kıyaslanabilir": 8564,
      "▁diyar": 8565,
      "##s": 8566,
      "▁sabır": 8567,
      "▁2600": 8568,
      "▁buranın": 8569,
      "▁surgun": 8570,
      "▁agı": 8571,
      "▁otuzaltı": 8572,
      "▁kısım": 8573,
      "▁isteyenler": 8574,
      "▁kurul": 8575,
      "▁elindeki": 8576,
      "##eliyor": 8577,
      "▁ley": 8578,
      "▁isa": 8579,
      "##inal": 8580,
      "##tıktan": 8581,
      "▁ar": 8582,
      "▁karaya": 8583,
      "▁dog": 8584,
      "##ık": 8585,
      "##alarında": 8586,
      "▁vermeyen": 8587,
      "##unla": 8588,
      "▁yep": 8589,
      "▁takiben": 8590,
      "▁bolumunun": 8591,
      "##tain": 8592,
      "▁kongr": 8593,
      "▁calısanı": 8594,
      "##89": 8595,
      "##abın": 8596,
      "▁canlan": 8597,
      "▁esnaf": 8598,
      "##'une": 8599,
      "▁ısı": 8600,
      "##meyin": 8601,
      "▁eli": 8602,
      "▁gorunen": 8603,
      "▁buc": 8604,
      "##cıya": 8605,
      "▁akl": 8606,
      "##gıc": 8607,
      "##'sini": 8608,
      "##uz": 8609,
      "▁beklem": 8610,
      "##olun": 8611,
      "▁milwaukee'den": 8612,
      "▁dusun": 8613,
      "▁hayatını": 8614,
      "▁jaguar": 8615,
      "▁buradaki": 8616,
      "▁durumun": 8617,
      "▁seh": 8618,
      "▁lynch": 8619,
      "▁evren": 8620,
      "▁hun": 8621,
      "▁getiren": 8622,
      "▁kalkıs": 8623,
      "▁partiler": 8624,
      "▁yandı": 8625,
      "▁yuku": 8626,
      "▁454": 8627,
      "▁nashville'den": 8628,
      "▁degisikligi": 8629,
      "▁dosy": 8630,
      "▁olacagı": 8631,
      "▁basladıgını": 8632,
      "▁toronto": 8633,
      "▁tıp": 8634,
      "▁ayır": 8635,
      "##y'nin": 8636,
      "▁dolduran": 8637,
      "##1.4": 8638,
      "▁finansman": 8639,
      "▁kibar": 8640,
      "##atmıs": 8641,
      "▁bilet": 8642,
      "##sem": 8643,
      "▁isters": 8644,
      "▁hoslan": 8645,
      "▁8.4": 8646,
      "##off": 8647,
      "▁ytl": 8648,
      "▁i": 8649,
      "▁toplamak": 8650,
      "##gage": 8651,
      "▁1.750": 8652,
      "▁yatırımcıların": 8653,
      "▁ge": 8654,
      "▁katı": 8655,
      "##875": 8656,
      "##0": 8657,
      "▁yatkın": 8658,
      "▁sekizoniki": 8659,
      "▁bursa": 8660,
      "▁askerlik": 8661,
      "##lendirme": 8662,
      "▁kurtulmak": 8663,
      "##aze": 8664,
      "▁cekis": 8665,
      "##ınıp": 8666,
      "▁bilinmeyen": 8667,
      "▁kaydı": 8668,
      "##lıs": 8669,
      "##stit": 8670,
      "▁kıraat": 8671,
      "▁berrak": 8672,
      "▁angeles": 8673,
      "▁sonucu": 8674,
      "##esin": 8675,
      "▁su": 8676,
      "▁adi": 8677,
      "▁gorusuldu": 8678,
      "##fik": 8679,
      "##amın": 8680,
      "▁1.000": 8681,
      "▁kibr": 8682,
      "▁nab": 8683,
[...]
