{
  "version": "1.0",
  "truncation": null,
  "padding": null,
  "added_tokens": [
    {
      "id": 388,
      "content": "[SEP]",
      "single_word": false,
      "lstrip": false,
      "rstrip": false,
      "normalized": false,
      "special": true
    },
    {
      "id": 1561,
      "content": "[CLS]",
      "single_word": false,
      "lstrip": false,
      "rstrip": false,
      "normalized": false,
      "special": true
    },
    {
      "id": 6156,
      "content": "[UNK]",
      "single_word": false,
      "lstrip": false,
      "rstrip": false,
      "normalized": false,
      "special": true
    },
    {
      "id": 6745,
      "content": "[MASK]",
      "single_word": false,
      "lstrip": false,
      "rstrip": false,
      "normalized": false,
      "special": true
    },
    {
      "id": 7136,
      "content": "[PAD]",
      "single_word": false,
      "lstrip": false,
      "rstrip": false,
      "normalized": false,
      "special": true
    }
  ],
  "normalizer": {
    "type": "Sequence",
    "normalizers": [
      {
        "type": "NFD"
      },
      {
        "type": "Lowercase"
      },
      {
        "type": "StripAccents"
      }
    ]
  },
  "pre_tokenizer": {
    "type": "Sequence",
    "pretokenizers": [
      {
        "type": "Metaspace",
        "replacement": "▁",
        "prepend_scheme": "always",
        "split": true
      }
    ]
  },
  "post_processor": {
    "type": "TemplateProcessing",
    "single": [
      {
        "SpecialToken": {
          "id": "[CLS]",
          "type_id": 0
        }
      },
      {
        "Sequence": {
          "id": "A",
          "type_id": 0
        }
      },
      {
        "SpecialToken": {
          "id": "[SEP]",
          "type_id": 0
        }
      }
    ],
    "pair": [
      {
        "SpecialToken": {
          "id": "[CLS]",
          "type_id": 0
        }
      },
      {
        "Sequence": {
          "id": "A",
          "type_id": 0
        }
      },
      {
        "SpecialToken": {
          "id": "[SEP]",
          "type_id": 0
        }
      },
      {
        "Sequence": {
          "id": "B",
          "type_id": 1
        }
      },
      {
        "SpecialToken": {
          "id": "[SEP]",
          "type_id": 1
        }
      }
    ],
    "special_tokens": {
      "[CLS]": {
        "id": "[CLS]",
        "ids": [
          1561
        ],
        "tokens": [
          "[CLS]"
        ]
      },
      "[SEP]": {
        "id": "[SEP]",
        "ids": [
          388
        ],
        "tokens": [
          "[SEP]"
        ]
      }
    }
  },
  "decoder": {
    "type": "Metaspace",
    "replacement": "▁",
    "prepend_scheme": "always",
    "split": true
  },
  "model": {
    "type": "WordPiece",
    "unk_token": "[UNK]",
    "continuing_subword_prefix": "##",
    "max_input_chars_per_word": 100,
    "vocab": {
      "▁sikin": 0,
      "##ıyorlar": 1,
      "▁muthis": 2,
      "▁araba": 3,
      "▁ekledi": 4,
      "▁giderek": 5,
      "▁yil": 6,
      "▁yaptıgını": 7,
      "▁yasası": 8,
      "▁vakıf": 9,
      "##digimiz": 10,
      "▁degillerdi": 11,
      "▁tahsil": 12,
      "▁universitesi": 13,
      "▁bıcak": 14,
      "▁mevsim": 15,
      "▁olas": 16,
      "▁al": 17,
      "▁dev": 18,
      "▁halkı": 19,
      "▁oldugumuz": 20,
      "▁kongre": 21,
      "##ligin": 22,
      "▁&": 23,
      "##ustum": 24,
      "▁emre": 25,
      "##can": 26,
      "▁mi": 27,
      "##yim": 28,
      "▁munaseb": 29,
      "▁mutlaka": 30,
      "##ip": 31,
      "##ort": 32,
      "▁kimsen": 33,
      "▁istem": 34,
      "▁iyice": 35,
      "##tep": 36,
      "##er": 37,
      "▁ulkenin": 38,
      "▁tul": 39,
      "▁tek": 40,
      "##lulu": 41,
      "▁samp": 42,
      "▁subat": 43,
      "▁kazan": 44,
      "▁hukum": 45,
      "▁10000": 46,
      "##d.": 47,
      "▁ucretini": 48,
      "▁duzgun": 49,
      "▁yaralan": 50,
      "##abiliyor": 51,
      "##erv": 52,
      "▁%0": 53,
      "▁sikinti": 54,
      "▁gerekli": 55,
      "▁pazar": 56,
      "▁tik": 57,
      "▁23": 58,
      "d": 59,
      "▁ortadan": 60,
      "##0.3": 61,
      "##ers": 62,
      "▁obu": 63,
      "##gımız": 64,
      "▁atesi": 65,
      "▁amel": 66,
      "▁cak": 67,
      "▁meydana": 68,
      "▁fark": 69,
      "▁per": 70,
      "##ebilirim": 71,
      "##all": 72,
      "▁ayni": 73,
      "▁ismini": 74,
      "▁kart": 75,
      "##dunuz": 76,
      "##imde": 77,
      "▁basarısız": 78,
      "▁cesi": 79,
      "##eyn": 80,
      "##ap": 81,
      "▁tesisi": 82,
      "▁oldugundan": 83,
      "▁%1": 84,
      "▁nedeniyle": 85,
      "##lu": 86,
      "▁altından": 87,
      "##66": 88,
      "▁kuvvetli": 89,
      "##mar": 90,
      "##esem": 91,
      "▁donemi": 92,
      "##tanın": 93,
      "▁arasına": 94,
      "▁ayak": 95,
      "▁klasik": 96,
      "##verdi": 97,
      "▁etkisi": 98,
      "##are": 99,
      "▁birinde": 100,
      "##elig": 101,
      "##enkul": 102,
      "▁cozum": 103,
      "##imize": 104,
      "▁beye": 105,
      "▁fazlaydi": 106,
      "▁garanti": 107,
      "▁hit": 108,
      "▁acıklanmadı": 109,
      "▁tut": 110,
      "▁bakıyor": 111,
      "▁ez": 112,
      "▁birbirimiz": 113,
      "##acılıgı": 114,
      "##lerine": 115,
      "▁yerel": 116,
      "▁gro": 117,
      "▁der": 118,
      "##siyonu": 119,
      "▁saldır": 120,
      "▁acik": 121,
      "▁elbis": 122,
      "▁yazık": 123,
      "6": 124,
      "##detti": 125,
      "##80": 126,
      "▁karsısına": 127,
      "##unuz": 128,
      "##elerine": 129,
      "▁degiller": 130,
      "▁kestir": 131,
      "##lendir": 132,
      "▁aynı": 133,
      "##ilerini": 134,
      "▁eylul'de": 135,
      "▁onune": 136,
      "▁must": 137,
      "##isiyle": 138,
      "▁bircok": 139,
      "▁hassas": 140,
      "▁birileri": 141,
      "▁uydur": 142,
      "▁ov": 143,
      "▁meydan": 144,
      "▁guver": 145,
      "##’": 146,
      "▁kis": 147,
      "▁caz": 148,
      "##muyor": 149,
      "##ise": 150,
      "##aman": 151,
      "▁gozet": 152,
      "▁belg": 153,
      "##imiz": 154,
      "▁bagım": 155,
      "▁osmanlı": 156,
      "▁kac": 157,
      "▁191": 158,
      "##ex": 159,
      "▁oteller": 160,
      "##leb": 161,
      "▁kadar": 162,
      "▁dı": 163,
      "▁aksine": 164,
      "▁dip": 165,
      "##art": 166,
      "##ali": 167,
      "▁yapıldı": 168,
      "##ce": 169,
      "▁test": 170,
      "##isine": 171,
      "▁yit": 172,
      "▁lab": 173,
      "▁gotur": 174,
      "##anci": 175,
      "▁lub": 176,
      "▁wall": 177,
      "##ith": 178,
      "▁cekir": 179,
      "▁yasak": 180,
      "##imser": 181,
      "▁yiyecekler": 182,
      "▁itiraf": 183,
      "▁ozgu": 184,
      "##lige": 185,
      "▁insan": 186,
      "▁yarısı": 187,
      "▁senden": 188,
      "##anda": 189,
      "▁yolculuk": 190,
      "▁rot": 191,
      "▁ya": 192,
      "▁haber": 193,
      "##uzel": 194,
      "▁cıkıs": 195,
      "▁temmuz'da": 196,
      "##oloj": 197,
      "▁imz": 198,
      "▁birbirler": 199,
      "▁ulastı": 200,
      "▁hafta": 201,
      "▁fut": 202,
      ">": 203,
      "▁yaptıgı": 204,
      "▁kapsam": 205,
      "▁zev": 206,
      "r": 207,
      "▁kuzey": 208,
      "▁gun": 209,
      "▁louis'e": 210,
      "▁onunla": 211,
      "▁194": 212,
      "▁genc": 213,
      "▁cekti": 214,
      "▁ediyorlar": 215,
      "▁oranı": 216,
      "▁toz": 217,
      "▁olanlar": 218,
      "▁yoldan": 219,
      "▁oksur": 220,
      "▁yapabil": 221,
      "▁bizler": 222,
      "▁konusur": 223,
      "▁aylık": 224,
      "▁yapı": 225,
      "▁yakal": 226,
      "▁birin": 227,
      "▁tazmin": 228,
      "##.0": 229,
      "##ediye": 230,
      "▁nobet": 231,
      "##esini": 232,
      "##ts": 233,
      "▁kalın": 234,
      "##ırak": 235,
      "##iye": 236,
      "▁manzar": 237,
      "##ardı": 238,
      "▁100000": 239,
      "##isi": 240,
      "▁st": 241,
      "▁ucrete": 242,
      "▁turkiye": 243,
      "▁baskı": 244,
      "▁5.9": 245,
      "##ması": 246,
      "##ke": 247,
      "##61": 248,
      "▁yurum": 249,
      "▁iskonto": 250,
      "▁londra": 251,
      "##ug": 252,
      "▁sunları": 253,
      "##iss": 254,
      "▁ibm": 255,
      "▁hacmi": 256,
      "▁mahkum": 257,
      "▁calıstır": 258,
      "▁terbiy": 259,
      "▁cıkmıstı": 260,
      "▁gal": 261,
      "▁yetkil": 262,
      "▁fik": 263,
      "▁karı": 264,
      "▁beb": 265,
      "▁yatır": 266,
      "▁risk": 267,
      "▁dunyayı": 268,
      "##-200": 269,
      "▁getiri": 270,
      "▁ihtiyar": 271,
      ";": 272,
      "▁akıllı": 273,
      "▁arb": 274,
      "▁sı": 275,
      "##.75": 276,
      "##cılar": 277,
      "▁iyisi": 278,
      "▁dedim": 279,
      "▁telas": 280,
      "▁cozul": 281,
      "▁dostu": 282,
      "▁kend": 283,
      "▁toplantıs": 284,
      "▁kam": 285,
      "▁montreal'a": 286,
      "▁parc": 287,
      "▁1\\/2": 288,
      "▁gormek": 289,
      "##med": 290,
      "##85": 291,
      "▁siy": 292,
      "▁yardimci": 293,
      "##'ne": 294,
      "▁kendilerinden": 295,
      "▁firması": 296,
      "▁%30": 297,
      "▁a.b.": 298,
      "##ligine": 299,
      "▁ihr": 300,
      "▁ekim": 301,
      "##5'ten": 302,
      "▁kıymet": 303,
      "▁bilen": 304,
      "▁!": 305,
      "▁merak": 306,
      "##lastır": 307,
      "##and": 308,
      "▁paranın": 309,
      "▁adı": 310,
      "▁defter": 311,
      "▁personellerinden": 312,
      "▁tarih": 313,
      "▁the": 314,
      "##meli": 315,
      "##imet": 316,
      "##kar": 317,
      "##sat": 318,
      "##masından": 319,
      "▁isciler": 320,
      "##lemis": 321,
      "▁benimle": 322,
      "▁kanun": 323,
      "##lanması": 324,
      "▁cekip": 325,
      "##dut": 326,
      "▁soyle": 327,
      "$": 328,
      "▁sır": 329,
      "▁rahatti": 330,
      "▁ert": 331,
      "▁mich": 332,
      "##lerini": 333,
      "##liginde": 334,
      "##abi": 335,
      "▁gomlek": 336,
      "##emez": 337,
      "▁ugur": 338,
      "▁mısıl": 339,
      "##sı": 340,
      "▁ep": 341,
      "▁halihazırda": 342,
      "##iliyor": 343,
      "▁abdul": 344,
      "▁milli": 345,
      "▁uluslararası": 346,
      "▁kampanyalar": 347,
      "▁karsısında": 348,
      "##irler": 349,
      "##asız": 350,
      "▁reddetti": 351,
      "▁persembe": 352,
      "▁ucuz": 353,
      "##arson": 354,
      "▁abd'de": 355,
      "##eyi": 356,
      "▁yaptirmadim": 357,
      "##ilmesini": 358,
      "▁ice": 359,
      "▁kullanılıyor": 360,
      "▁baslık": 361,
      "##od": 362,
      "▁dusunmuyor": 363,
      "▁orgut": 364,
      "▁yakında": 365,
      "##lay": 366,
      "▁gecerli": 367,
      "##sir": 368,
      "▁kap": 369,
      "##asıyor": 370,
      "▁subay": 371,
      "▁sist": 372,
      "▁bosal": 373,
      "▁20.": 374,
      "▁bilgiye": 375,
      "##des": 376,
      "▁muslum": 377,
      "▁cen": 378,
      "##ems": 379,
      "▁oturuyor": 380,
      "▁deger": 381,
      "▁bolgede": 382,
      "▁dogum": 383,
      "##uston": 384,
      "##emiyorum": 385,
      "▁memnunuz": 386,
      "▁yaptirdi": 387,
      "[SEP]": 388,
      "▁1997": 389,
      "##et": 390,
      "##ang": 391,
      "▁zamanlar": 392,
      "##gunuz": 393,
      "▁ok": 394,
      "▁gelmisti": 395,
      "▁lez": 396,
      "##liydi": 397,
      "▁ydik": 398,
      "▁icer": 399,
      "▁sınıfı": 400,
      "▁doları'na": 401,
      "▁kırık": 402,
      "▁kuvvet": 403,
      "##eyim": 404,
      "▁erdog": 405,
      "▁tok": 406,
      "▁sıf": 407,
      "▁alır": 408,
      "▁adamı": 409,
      "##ıng": 410,
      "##gelelim": 411,
      "##ecegim": 412,
      "▁hay": 413,
      "▁olu": 414,
      "▁palt": 415,
      "##ada": 416,
      "##ansiyon": 417,
      "▁5.5": 418,
      "▁texas": 419,
      "▁hicbirini": 420,
      "##gıc": 421,
      "##el": 422,
      "▁ilgilendiler": 423,
      "▁seyin": 424,
      "▁girip": 425,
      "▁dusus": 426,
      "##tre": 427,
      "▁hac": 428,
      "▁sivil": 429,
      "##eyin": 430,
      "▁du": 431,
      "▁dusurdu": 432,
      "▁ayarlan": 433,
      "▁biri": 434,
      "▁uygulan": 435,
      "▁kisinin": 436,
      "▁pop": 437,
      "▁gerceklesti": 438,
      "▁ons": 439,
      "▁etmeye": 440,
      "▁hedef": 441,
      "##ilm": 442,
      "▁ideal": 443,
      "3": 444,
      "▁idar": 445,
      "▁mıydı": 446,
      "▁calis": 447,
      "##ont": 448,
      "##uga": 449,
      "##7.2": 450,
      "▁merrill": 451,
      "▁ım": 452,
      "▁lev": 453,
      "▁rak": 454,
      "▁secildi": 455,
      "▁phoeni": 456,
      "▁islet": 457,
      "##isler": 458,
      "▁kisisel": 459,
      "▁verdim": 460,
      "▁newark": 461,
      "▁cag": 462,
      "▁yargıc": 463,
      "▁sevinc": 464,
      "▁yataklar": 465,
      "▁istikrar": 466,
      "▁digerleri": 467,
      "▁havuzu": 468,
      "##apur": 469,
      "▁vucu": 470,
      "▁ifad": 471,
      "▁istedi": 472,
      "▁cekmek": 473,
      "▁sic": 474,
      "▁basından": 475,
      "▁doneminde": 476,
      "▁olgun": 477,
      "▁islemler": 478,
      "▁onceden": 479,
      "##yn": 480,
      "##ayıf": 481,
      "▁se": 482,
      "▁ucretlerini": 483,
      "▁havuzlari": 484,
      "##igin": 485,
      "##og": 486,
      "▁peki": 487,
      "▁deri": 488,
      "▁dagı": 489,
      "##kiz": 490,
      "##gul": 491,
      "▁durumunda": 492,
      "▁lik": 493,
      "▁adama": 494,
      "##tı": 495,
      "▁kimin": 496,
      "##larca": 497,
      "▁sabaha": 498,
      "▁sorunları": 499,
      "##amda": 500,
      "▁ihtiy": 501,
      "▁tedavulde": 502,
      "▁alabilir": 503,
      "##tis": 504,
      "▁bir": 505,
      "▁17": 506,
      "##ler": 507,
      "▁soz": 508,
      "##eliydi": 509,
      "##yedi": 510,
      "▁odanın": 511,
      "▁finc": 512,
      "▁los": 513,
      "▁tel": 514,
      "##on'un": 515,
      "▁ucusun": 516,
      "▁derl": 517,
      "▁pas": 518,
      "##ach": 519,
      "▁odanin": 520,
      "▁verg": 521,
      "##gım": 522,
      "▁yal": 523,
      "##.5": 524,
      "##acagına": 525,
      "##emb": 526,
      "▁bu": 527,
      "▁gozunu": 528,
      "▁konak": 529,
      "▁yuksel": 530,
      "▁gelis": 531,
      "##ene": 532,
      "▁restoran": 533,
      "▁mul": 534,
      "▁minneapolis": 535,
      "▁katil": 536,
      "▁rekabet": 537,
      "▁duz": 538,
      "▁tahvil": 539,
      "▁zehir": 540,
      "▁golg": 541,
      "▁kalite": 542,
      "▁menkul": 543,
      "##layı": 544,
      "▁piy": 545,
      "▁kapasit": 546,
      "▁olum": 547,
      "▁dısı": 548,
      "▁seref": 549,
      "##ım": 550,
      "▁doları'ndan": 551,
      "▁yapmak": 552,
      "▁tur": 553,
      "##tadır": 554,
      "▁tepki": 555,
      "▁mac": 556,
      "▁kısı": 557,
      "▁soylediler": 558,
      "▁puan": 559,
      "▁izin": 560,
      "##set": 561,
      "▁fingir": 562,
      "##egin": 563,
      "##yol": 564,
      "▁rej": 565,
      "▁getiren": 566,
      "▁kayı": 567,
      "▁kosk": 568,
      "▁arab": 569,
      "▁artık": 570,
      "▁kullanılan": 571,
      "▁gayet": 572,
      "##ro": 573,
      "##du": 574,
      "▁elden": 575,
      "▁verdigimiz": 576,
      "▁atlanta'dan": 577,
      "▁fıs": 578,
      "▁bucuk": 579,
      "▁kat": 580,
      "▁141": 581,
      "▁firma": 582,
      "▁agız": 583,
      "▁ayse": 584,
      "▁milyonluk": 585,
      "▁hazır": 586,
      "▁acıkladı": 587,
      "▁mahall": 588,
      "▁fransa": 589,
      "p": 590,
      "▁yerlestir": 591,
      "▁duzenlenen": 592,
      "##bs": 593,
      "▁05.": 594,
      "##‘": 595,
      "▁bık": 596,
      "▁girer": 597,
      "##tern": 598,
      "▁seviyesine": 599,
      "▁kapıya": 600,
      "▁soy": 601,
      "▁hol": 602,
      "▁arayan": 603,
      "▁muda": 604,
      "▁kurus": 605,
      "▁port": 606,
      "##mistir": 607,
      "▁garip": 608,
      "▁mermer": 609,
      "▁yuks": 610,
      "▁kimyasal": 611,
      "▁konfor": 612,
      "▁usta": 613,
      "##iv": 614,
      "▁2017": 615,
      "▁normaldi": 616,
      "▁sesleri": 617,
      "▁feder": 618,
      "▁tep": 619,
      "##ur": 620,
      "▁alamadik": 621,
      "▁aile": 622,
      "▁yukseltti": 623,
      "▁mahal": 624,
      "▁yaz": 625,
      "▁hazırlanısı": 626,
      "▁memur": 627,
      "▁piyasanın": 628,
      "▁yse": 629,
      "▁milwaukee'den": 630,
      "##eye": 631,
      "##antaj": 632,
      "▁parcaları": 633,
      "##bank": 634,
      "▁fiyatı": 635,
      "▁kaybetti": 636,
      "▁turkler": 637,
      "##taki": 638,
      "##lıkları": 639,
      "##90": 640,
      "▁doksan": 641,
      "▁tanıt": 642,
      "##ladı": 643,
      "##ılır": 644,
      "▁asagı": 645,
      "▁yaklasimi": 646,
      "▁sin": 647,
      "▁hissedar": 648,
      "▁aslında": 649,
      "▁pis": 650,
      "▁soguk": 651,
      "##ancı": 652,
      "▁yurek": 653,
      "▁izmir": 654,
      "▁istasyon": 655,
      "##amadım": 656,
      "▁kalabalık": 657,
      "▁oteli": 658,
      "▁planlıyor": 659,
      "##oy": 660,
      "▁grub": 661,
      "“": 662,
      "▁1.000": 663,
      "▁cant": 664,
      "▁hayli": 665,
      "##afir": 666,
      "▁endustri": 667,
      "▁cesaret": 668,
      "▁ziyade": 669,
      "##eket": 670,
      "▁sade": 671,
      "##av": 672,
      "▁teknik": 673,
      "▁toplantı": 674,
      "▁uzan": 675,
      "▁suru": 676,
      "▁business": 677,
      "▁altmıs": 678,
      "▁ucusunu": 679,
      "▁ihtiyat": 680,
      "▁izledi": 681,
      "##ıp": 682,
      "##uya": 683,
      "##aat": 684,
      "▁%13": 685,
      "▁david": 686,
      "▁beklem": 687,
      "▁tersine": 688,
      "##s'in": 689,
      "##acaktır": 690,
      "▁havası": 691,
      "▁herhangi": 692,
      "▁falan": 693,
      "▁hesap": 694,
      "##ıcılık": 695,
      "▁gecip": 696,
      "▁filan": 697,
      "##ustu": 698,
      "​": 699,
      "▁senetleri": 700,
      "▁a": 701,
      "▁soyleyen": 702,
      "▁kitab": 703,
      "▁vakit": 704,
      "▁karn": 705,
      "##iyim": 706,
      "▁sipar": 707,
      "##iyoruz": 708,
      "##izik": 709,
      "▁hak": 710,
      "▁yeni": 711,
      "▁buf": 712,
      "▁gorunen": 713,
      "▁tim": 714,
      "##co": 715,
      "▁onemli": 716,
      "▁1500": 717,
      "##cılık": 718,
      "##adan": 719,
      "▁olmuyor": 720,
      "y": 721,
      "▁olanaklari": 722,
      "▁serg": 723,
      "▁buyum": 724,
      "▁4.2": 725,
      "##ildik": 726,
      "▁edebilir": 727,
      "▁37": 728,
      "##madıgı": 729,
      "▁gorus": 730,
      "▁yildiz": 731,
      "▁tav": 732,
      "##elerin": 733,
      "▁sıkın": 734,
      "▁birbirine": 735,
      "▁ote": 736,
      "▁atese": 737,
      "##sal": 738,
      "##ken": 739,
      "▁telef": 740,
      "▁sp": 741,
      "▁dipl": 742,
      "▁roman": 743,
      "▁british": 744,
      "▁hazin": 745,
      "▁nisan": 746,
      "##'i": 747,
      "▁alısveris": 748,
      "▁1.25": 749,
      "▁ilac": 750,
      "▁y": 751,
      "▁ki": 752,
      "▁canlı": 753,
      "▁sad": 754,
      "▁teksas": 755,
      "▁benzin": 756,
      "▁imkanlari": 757,
      "▁gereken": 758,
      "▁sım": 759,
      "▁mekan": 760,
      "▁insanlara": 761,
      "##aydi": 762,
      "▁pat": 763,
      "▁ederken": 764,
      "▁kit": 765,
      "5": 766,
      "▁zek": 767,
      "##mekten": 768,
      "##obil": 769,
      "##ahat": 770,
      "▁olmamıs": 771,
      "##edir": 772,
      "▁adeta": 773,
      "▁birden": 774,
      "▁sessiz": 775,
      "##iyorlar": 776,
      "▁in": 777,
      "▁derken": 778,
      "▁190": 779,
      "▁istir": 780,
      "▁nice": 781,
      "▁dısına": 782,
      "##undan": 783,
      "▁acık": 784,
      "▁wash": 785,
      "▁antik": 786,
      "▁giren": 787,
      "▁53": 788,
      "##gec": 789,
      "▁telefonla": 790,
      "▁karar": 791,
      "▁mantık": 792,
      "▁meh": 793,
      "▁karlı": 794,
      "▁yagmur": 795,
      "##embe": 796,
      "##oster": 797,
      "▁onumuz": 798,
      "▁hasta": 799,
      "▁olma": 800,
      "▁kans": 801,
      "▁ide": 802,
      "▁kurk": 803,
      "▁suyun": 804,
      "▁ikisi": 805,
      "▁kızın": 806,
      "##lıgı": 807,
      "▁mahkem": 808,
      "▁fiyatina": 809,
      "▁arm": 810,
      "▁kaptan": 811,
      "##ıyordu": 812,
      "▁bunlardan": 813,
      "▁insaat": 814,
      "▁birtak": 815,
      "▁fa": 816,
      "▁gog": 817,
      "▁mıyım": 818,
      "▁alınması": 819,
      "▁1/4": 820,
      "▁kel": 821,
      "▁isk": 822,
      "▁fin": 823,
      "▁yapmaya": 824,
      "▁sch": 825,
      "##umlu": 826,
      "##ama": 827,
      "▁yildizli": 828,
      "▁sart": 829,
      "▁giriyor": 830,
      "##zi": 831,
      "▁yuzluydu": 832,
      "##ville": 833,
      "▁ster": 834,
      "##eb": 835,
      "▁dun": 836,
      "##mayı": 837,
      "▁yasanan": 838,
      "▁hava": 839,
      "▁kanada": 840,
      "▁buny": 841,
      "##ulur": 842,
      "▁taze": 843,
      "▁tutan": 844,
      "##ları": 845,
      "▁%99": 846,
      "##son": 847,
      "▁zarif": 848,
      "##ıg": 849,
      "##dir": 850,
      "▁memnun": 851,
      "▁ann": 852,
      "##itt": 853,
      "▁tat": 854,
      "▁geride": 855,
      "▁charlotte'den": 856,
      "b": 857,
      "▁sırada": 858,
      "▁fan": 859,
      "▁car": 860,
      "##inci": 861,
      "▁soluk": 862,
      "▁avrupa'da": 863,
      "▁derg": 864,
      "▁muay": 865,
      "▁5.2": 866,
      "##inden": 867,
      "▁tepk": 868,
      "▁arabayı": 869,
      "▁mutlu": 870,
      "##etik": 871,
      "##ıldıgını": 872,
      "▁anlamına": 873,
      "▁seniz": 874,
      "▁journal": 875,
      "▁kımıl": 876,
      "▁bekleniyor": 877,
      "▁hayatın": 878,
      "##ecegimiz": 879,
      "▁yapıp": 880,
      "▁arastır": 881,
      "##ad": 882,
      "▁lezzeti": 883,
      "##timore": 884,
      "▁dis": 885,
      "▁cırp": 886,
      "▁kalkan": 887,
      "▁tutar": 888,
      "##ıyorsun": 889,
      "##tin": 890,
      "▁por": 891,
      "▁vermis": 892,
      "▁kaliteliydi": 893,
      "▁resep": 894,
      "▁giderken": 895,
      "▁kosul": 896,
      "▁400": 897,
      "▁ardı": 898,
      "##yon": 899,
      "▁malz": 900,
      "▁2004": 901,
      "▁dakik": 902,
      "▁mutfak": 903,
      "▁sesle": 904,
      "##ist": 905,
      "##miyordu": 906,
      "##/4": 907,
      "▁temin": 908,
      "▁lamb": 909,
      "##but": 910,
      "▁biraz": 911,
      "▁ozellikle": 912,
      "##lek": 913,
      "##alarda": 914,
      "▁ulasılamadı": 915,
      "##mma": 916,
      "▁piyasaya": 917,
      "▁bahseder": 918,
      "▁olmayı": 919,
      "##ite": 920,
      "##lal": 921,
      "▁kızıl": 922,
      "▁zarf": 923,
      "##det": 924,
      "▁kapsamlı": 925,
      "▁normal": 926,
      "▁soh": 927,
      "▁senetlerinin": 928,
      "▁bizleri": 929,
      "▁115": 930,
      "▁kisilerin": 931,
      "▁ik": 932,
      "▁cumle": 933,
      "##lıg": 934,
      "##as": 935,
      "▁istek": 936,
      "##ere": 937,
      "##meyecek": 938,
      "▁sını": 939,
      "▁iste": 940,
      "##astır": 941,
      "##v": 942,
      "##dıgından": 943,
      "▁dunyaya": 944,
      "▁aktivite": 945,
      "##alt": 946,
      "▁7.8": 947,
      "##madik": 948,
      "##baz": 949,
      "##oker": 950,
      "##.31": 951,
      "##iser": 952,
      "▁ziyaret": 953,
      "▁sultan": 954,
      "▁istanbul": 955,
      "▁gozler": 956,
      "##'ı": 957,
      "▁taz": 958,
      "▁muhaseb": 959,
      "▁genelde": 960,
      "▁59": 961,
      "##artman": 962,
      "##afet": 963,
      "▁cicek": 964,
      "▁``": 965,
      "▁400000": 966,
      "▁kolay": 967,
      "▁kitap": 968,
      "▁diyor": 969,
      "▁degis": 970,
      "▁cıtır": 971,
      "▁hayvan": 972,
      "▁ortalama": 973,
      "▁denizi": 974,
      "▁piyasa": 975,
      "▁birik": 976,
      "▁teklifini": 977,
      "▁oden": 978,
      "▁efendi": 979,
      "▁gormuyor": 980,
      "▁karan": 981,
      "▁yanıt": 982,
      "c": 983,
      "▁yolcu": 984,
      "▁ogleden": 985,
      "▁yılı": 986,
      "▁onsekiz": 987,
      "▁dalgalan": 988,
      "##emedik": 989,
      "▁kimseye": 990,
      "▁cbs": 991,
      "##tur": 992,
      "▁ayrı": 993,
      "▁eskiydi": 994,
      "▁yasay": 995,
      "##tigi": 996,
      "▁sak": 997,
      "▁zavallı": 998,
      "##sak": 999,
      "▁mevcut": 1000,
      "▁bildir": 1001,
      "##ımız": 1002,
      "##acılık": 1003,
      "▁hapis": 1004,
      "▁2008": 1005,
      "▁seb": 1006,
      "▁gecenin": 1007,
      "##asıdır": 1008,
      "▁bell": 1009,
      "▁toren": 1010,
      "##'": 1011,
      "##sul": 1012,
      "▁yemeklerden": 1013,
      "▁ulasımı": 1014,
      "##>": 1015,
      "▁rek": 1016,
      "▁tutul": 1017,
      "##\\/8": 1018,
      "▁$'dan": 1019,
      "▁gul": 1020,
      "▁tas": 1021,
      "▁gider": 1022,
      "##dik": 1023,
      "▁cumhuriyet": 1024,
      "##ole": 1025,
      "##ulan": 1026,
      "▁sise": 1027,
      "▁defa": 1028,
      "▁aktarmasız": 1029,
      "##45": 1030,
      "▁cic": 1031,
      "▁kısın": 1032,
      "▁odul": 1033,
      "▁deneyim": 1034,
      "▁karak": 1035,
      "▁cocugu": 1036,
      "▁201": 1037,
      "▁kalab": 1038,
      "▁siyaset": 1039,
      "##kil": 1040,
      "▁gordu": 1041,
      "##dır": 1042,
      "▁nam": 1043,
      "##niyet": 1044,
      "##'deki": 1045,
      "##masız": 1046,
      "▁deng": 1047,
      "▁kılıc": 1048,
      "##alı": 1049,
      "▁van": 1050,
      "▁basvur": 1051,
      "▁tavuk": 1052,
      "▁endek": 1053,
      "▁268": 1054,
      "▁tak": 1055,
      "▁''": 1056,
      "▁alıs": 1057,
      "▁sicak": 1058,
      "▁kopr": 1059,
      "##ısır": 1060,
      "▁kazanc": 1061,
      "▁pittsburgh": 1062,
      "▁havayolları": 1063,
      "▁mek": 1064,
      "##dav": 1065,
      "▁dallas": 1066,
      "▁gomle": 1067,
      "▁karsilama": 1068,
      "##agından": 1069,
      "▁ikiye": 1070,
      "##'e": 1071,
      "▁par": 1072,
      "##ustuk": 1073,
      "▁mesaj": 1074,
      "▁darb": 1075,
      "▁dag": 1076,
      "▁verdik": 1077,
      "▁kelim": 1078,
      "▁dim": 1079,
      "##alım": 1080,
      "▁getirdi": 1081,
      "▁hakkinda": 1082,
      "##say": 1083,
      "▁kisiye": 1084,
      "▁mimar": 1085,
      "##asyonu": 1086,
      "▁ona": 1087,
      "##mal": 1088,
      "▁boru": 1089,
      "▁tahvili": 1090,
      "▁mar": 1091,
      "▁m": 1092,
      "▁aldılar": 1093,
      "▁haric": 1094,
      "▁1.0": 1095,
      "▁bayan": 1096,
      "▁satılan": 1097,
      "##mamalı": 1098,
      "##ydi": 1099,
      "▁yerleri": 1100,
      "▁geciyor": 1101,
      "▁duvar": 1102,
      "##.7": 1103,
      "▁sıngır": 1104,
      "▁birbirlerini": 1105,
      "▁cub": 1106,
      "##”": 1107,
      "▁birbiri": 1108,
      "▁kacak": 1109,
      "##me": 1110,
      "▁soyley": 1111,
      "▁saatlerinde": 1112,
      "▁kazancı": 1113,
      "▁bur": 1114,
      "▁cad": 1115,
      "▁potansiy": 1116,
      "▁boz": 1117,
      "▁seni": 1118,
      "##ans": 1119,
      "▁sabahı": 1120,
      "##uyor": 1121,
      "##atik": 1122,
      "▁numara": 1123,
      "##agan": 1124,
      "▁pey": 1125,
      "▁toplan": 1126,
      "▁anladı": 1127,
      "▁alıskan": 1128,
      "▁tuz": 1129,
      "##amayacagını": 1130,
      "##'nda": 1131,
      "##ell": 1132,
      "▁fel": 1133,
      "▁isten": 1134,
      "▁dort": 1135,
      "▁sıra": 1136,
      "##enek": 1137,
      "▁yatırımcıların": 1138,
      "▁denver'de": 1139,
      "▁tezgah": 1140,
      "##gi": 1141,
      "##ayıp": 1142,
      "▁nereye": 1143,
      "▁fe": 1144,
      "▁birisini": 1145,
      "##cısı": 1146,
      "▁adi": 1147,
      "=": 1148,
      "▁tarafından": 1149,
      "▁kuz": 1150,
      "▁plaj": 1151,
      "##rem": 1152,
      "▁evi": 1153,
      "▁duzenli": 1154,
      "▁ydi": 1155,
      "##ten": 1156,
      "▁yut": 1157,
      "##n": 1158,
      "▁kıyafet": 1159,
      "▁1988": 1160,
      "##kı": 1161,
      "▁basbakan": 1162,
      "##iger": 1163,
      "▁kalktı": 1164,
      "▁yelpaz": 1165,
      "▁tucc": 1166,
      "▁buyuy": 1167,
      "▁istiyorum": 1168,
      "▁kalmadı": 1169,
      "▁ardından": 1170,
      "##mustur": 1171,
      "##iyat": 1172,
      "▁yapmaktan": 1173,
      "▁pu": 1174,
      "▁4": 1175,
      "##ult": 1176,
      "##o": 1177,
      "▁seatt": 1178,
      "▁serb": 1179,
      "##unuyor": 1180,
      "▁q": 1181,
      "▁kov": 1182,
      "##hi": 1183,
      "▁sizden": 1184,
      "▁analiz": 1185,
      "▁merkeze": 1186,
      "▁bana": 1187,
      "▁6.9": 1188,
      "##isti": 1189,
      "##tra": 1190,
      "▁kucak": 1191,
      "▁gaz": 1192,
      "▁kos": 1193,
      "▁bakarak": 1194,
      "▁sor": 1195,
      "##alarında": 1196,
      "▁ir": 1197,
      "▁birligi": 1198,
      "▁sayıda": 1199,
      "▁amerika": 1200,
      "▁duzel": 1201,
      "!": 1202,
      "▁sehr": 1203,
      "▁taraftan": 1204,
      "▁kıl": 1205,
      "▁calıs": 1206,
      "##dor": 1207,
      "▁3.1": 1208,
      "▁ick": 1209,
      "▁oldukca": 1210,
      "##36": 1211,
      "##diler": 1212,
      "##ari": 1213,
      "##one": 1214,
      "##ran": 1215,
      "##he": 1216,
      "▁dogal": 1217,
      "▁agrı": 1218,
      "▁40": 1219,
      "▁turist": 1220,
      "▁esy": 1221,
      "▁louis": 1222,
      "##-m": 1223,
      "▁genis": 1224,
      "▁arap": 1225,
      "▁sum": 1226,
      "▁tef": 1227,
      "▁belirsiz": 1228,
      "▁gormez": 1229,
      "▁arkadasım": 1230,
      "▁j.": 1231,
      "▁bisiklet": 1232,
      "##dog": 1233,
      "▁gercekles": 1234,
      "##lamıstı": 1235,
      "▁kahvalti": 1236,
      "▁kim": 1237,
      "##abilmek": 1238,
      "▁gom": 1239,
      "▁giyin": 1240,
      "##usuz": 1241,
      "▁ların": 1242,
      "##imli": 1243,
      "##ısıl": 1244,
      "##iliyordu": 1245,
      "▁kor": 1246,
      "##esine": 1247,
      "##lıgını": 1248,
      "▁alıyor": 1249,
      "▁%20": 1250,
      "▁konumu": 1251,
      "##lıgında": 1252,
      "▁buyume": 1253,
      "▁benziyor": 1254,
      "▁basın": 1255,
      "▁mevdu": 1256,
      "▁be": 1257,
      "##allı": 1258,
      "▁didik": 1259,
      "▁boyle": 1260,
      "▁eb": 1261,
      "▁isvic": 1262,
      "▁bog": 1263,
      "▁kahve": 1264,
      "▁14": 1265,
      "▁seklinde": 1266,
      "▁sirketin": 1267,
      "▁orland": 1268,
      "▁%9": 1269,
      "▁kalmaya": 1270,
      "▁sozu": 1271,
      "▁trust": 1272,
      "##les": 1273,
      "▁mosk": 1274,
      "▁cin": 1275,
      "▁airlines": 1276,
      "##ol": 1277,
      "▁miydi": 1278,
      "▁olurdu": 1279,
      "▁anlama": 1280,
      "▁pitts": 1281,
      "##luga": 1282,
      "▁soyledi": 1283,
      "##di": 1284,
      "▁ger": 1285,
      "▁potansiyel": 1286,
      "##—": 1287,
      "##ligini": 1288,
      "##ıyorum": 1289,
      "▁ton": 1290,
      "▁tv": 1291,
      "▁taslar": 1292,
      "▁egit": 1293,
      "▁kı": 1294,
      "▁bo": 1295,
      "##lıktan": 1296,
      "▁saman": 1297,
      "▁zamana": 1298,
      "▁*": 1299,
      "▁bastır": 1300,
      "▁ucus": 1301,
      "##ini": 1302,
      "▁kurban": 1303,
      "▁ana": 1304,
      "▁konusmalar": 1305,
      "▁yılında": 1306,
      "▁otob": 1307,
      "▁demir": 1308,
      "▁huy": 1309,
      "▁tuhaf": 1310,
      "▁!..": 1311,
      "▁yolun": 1312,
      "▁krizi": 1313,
      "▁miami'den": 1314,
      "▁dediler": 1315,
      "##–": 1316,
      "▁evin": 1317,
      "▁kucuktu": 1318,
      "▁bank": 1319,
      "▁div": 1320,
      "▁bulur": 1321,
      "##iyeti": 1322,
      "▁sakin": 1323,
      "##sın": 1324,
      "▁verilen": 1325,
      "▁twa": 1326,
      "▁ayr": 1327,
      "##iness": 1328,
      "▁yıldan": 1329,
      "▁populer": 1330,
      "▁kaynak": 1331,
      "##'nin": 1332,
      "▁tuccarlar": 1333,
      "▁uvey": 1334,
      "▁isim": 1335,
      "▁sozler": 1336,
      "▁denet": 1337,
      "▁calisan": 1338,
      "##'li": 1339,
      "▁unit": 1340,
      "▁baslayacak": 1341,
      "##/8'e": 1342,
      "▁gunku": 1343,
      "##isleri": 1344,
      "##ucu": 1345,
      "▁gunduz": 1346,
      "▁gittik": 1347,
      "▁bilgi": 1348,
      "##ational": 1349,
      "▁doviz": 1350,
      "▁grubu": 1351,
      "▁ar": 1352,
      "v": 1353,
      "##mem": 1354,
      "▁kokusu": 1355,
      "▁konustu": 1356,
      "▁iler": 1357,
      "▁kurumsal": 1358,
      "##aci": 1359,
      "▁uret": 1360,
      "##dat": 1361,
      "##eh": 1362,
      "▁zihn": 1363,
      "▁dogur": 1364,
      "##'nun": 1365,
      "▁istemedi": 1366,
      "##o'ya": 1367,
      "▁adam": 1368,
      "##ahmet": 1369,
      "▁haline": 1370,
      "▁italyan": 1371,
      "▁gazi": 1372,
      "▁kurt": 1373,
      "##2.9": 1374,
      "▁olacagını": 1375,
      "▁bicimde": 1376,
      "##cesi": 1377,
      "▁west": 1378,
      "▁tedbir": 1379,
      "▁sordu": 1380,
      "##amı": 1381,
      "▁sendika": 1382,
      "▁yansıt": 1383,
      "##dık": 1384,
      "▁dahil": 1385,
      "▁cos": 1386,
      "▁gurult": 1387,
      "▁kuy": 1388,
      "##vik": 1389,
      "▁savas": 1390,
      "▁florida": 1391,
      "##ıcak": 1392,
      "▁yılda": 1393,
      "▁musunuz": 1394,
      "##liginin": 1395,
      "▁gumus": 1396,
      "▁dinlen": 1397,
      "▁destekli": 1398,
      "##lerdi": 1399,
      "##imin": 1400,
      "▁mahkemesi": 1401,
      "##urt": 1402,
      "##diginde": 1403,
      "▁oyku": 1404,
      "▁gıda": 1405,
      "▁bulbul": 1406,
      "▁yed": 1407,
      "▁hakkı": 1408,
      "▁sıkıstır": 1409,
      "▁gunden": 1410,
      "▁gazetec": 1411,
      "▁20": 1412,
      "▁kaliforn": 1413,
      "##vet": 1414,
      "▁ucmak": 1415,
      "▁1981": 1416,
      "##alarını": 1417,
      "##ohn": 1418,
      "▁oldugun": 1419,
      "▁alısver": 1420,
      "▁vasat": 1421,
      "##len": 1422,
      "##use": 1423,
      "##amm": 1424,
      "▁federal": 1425,
      "##asında": 1426,
      "▁bebek": 1427,
      "▁ters": 1428,
      "▁ny": 1429,
      "▁cet": 1430,
      "▁midir": 1431,
      "▁lider": 1432,
      "▁askeri": 1433,
      "▁yapıyor": 1434,
      "▁kalıyor": 1435,
      "▁zirv": 1436,
      "▁gerekiyor": 1437,
      "▁sunu": 1438,
      "▁birbiriyle": 1439,
      "▁yaslı": 1440,
      "▁acıkca": 1441,
      "▁adlandır": 1442,
      "##ir": 1443,
      "##em": 1444,
      "▁%51": 1445,
      "▁yoktu": 1446,
      "▁buyudu": 1447,
      "▁bilgisi": 1448,
      "▁cincinnati": 1449,
      "▁ettigini": 1450,
      "▁civ": 1451,
      "▁ankete": 1452,
      "▁temizligi": 1453,
      "▁iceriye": 1454,
      "▁burn": 1455,
      "▁anlıyor": 1456,
      "▁isaret": 1457,
      "▁cleveland'dan": 1458,
      "##tari": 1459,
      "▁arkasından": 1460,
      "▁mut": 1461,
      "▁basta": 1462,
      "▁birbirlerine": 1463,
      "##nam": 1464,
      "▁polit": 1465,
      "▁york'tan": 1466,
      "▁politik": 1467,
      "▁lakırtı": 1468,
      "##imizde": 1469,
      "▁edecegim": 1470,
      "▁inanıyor": 1471,
      "##udu": 1472,
      "##mamız": 1473,
      "▁sauna": 1474,
      "▁arastırma": 1475,
      "##'de": 1476,
      "##dikten": 1477,
      "▁mag": 1478,
      "##ki": 1479,
      "##sef": 1480,
      "▁calısması": 1481,
      "▁inc": 1482,
      "▁olarak": 1483,
      "##ver": 1484,
      "▁iyil": 1485,
      "▁ogul": 1486,
      "##ıydı": 1487,
      "▁yen'e": 1488,
      "▁tavır": 1489,
      "▁41": 1490,
      "▁cercev": 1491,
      "##alak": 1492,
      "##ırt": 1493,
      "▁ariz": 1494,
      "▁cıkınca": 1495,
      "▁cevap": 1496,
      "▁yanl": 1497,
      "▁mil": 1498,
      "▁odun": 1499,
      "##eyip": 1500,
      "▁tumu": 1501,
      "▁karsil": 1502,
      "▁hareket": 1503,
      "▁yanlıs": 1504,
      "▁olası": 1505,
      "##'ten": 1506,
      "##ında": 1507,
      "▁oldugunu": 1508,
      "▁havuzlar": 1509,
      "▁kısmı": 1510,
      "▁mudur": 1511,
      "▁ikincisi": 1512,
      "▁%2.7": 1513,
      "▁gayrimenkul": 1514,
      "▁degildi": 1515,
      "▁kalkar": 1516,
      "##eniz": 1517,
      "▁edilebilir": 1518,
      "▁ter": 1519,
      "▁express": 1520,
      "▁mahk": 1521,
      "##amaya": 1522,
      "▁fran": 1523,
      "##ons": 1524,
      "▁piyasaları": 1525,
      "▁oynuyor": 1526,
      "▁memphis'e": 1527,
      "▁boyu": 1528,
      "##ec": 1529,
      "▁hey": 1530,
      "▁sabahın": 1531,
      "▁dorduncu": 1532,
      "▁babamın": 1533,
      "▁guvenli": 1534,
      "##iskin": 1535,
      "▁gectigimiz": 1536,
      "▁eden": 1537,
      "▁fener": 1538,
      "##ato": 1539,
      "▁dilek": 1540,
      "▁kumas": 1541,
      "▁damar": 1542,
      "▁cıktı": 1543,
      "▁berbat": 1544,
      "##akal": 1545,
      "▁arka": 1546,
      "##bac": 1547,
      "▁bilgil": 1548,
      "▁dım": 1549,
      "▁arkasında": 1550,
      "▁part": 1551,
      "▁krav": 1552,
      "▁charlotte": 1553,
      "▁hastan": 1554,
      "##'in": 1555,
      "##mazdı": 1556,
      "▁yerlerde": 1557,
      "##daydı": 1558,
      "##int": 1559,
      "▁#": 1560,
      "[CLS]": 1561,
      "▁murat": 1562,
      "▁birbirimizi": 1563,
      "▁cevir": 1564,
      "▁asil": 1565,
      "▁elektr": 1566,
      "##hangi": 1567,
      "▁istedigi": 1568,
      "##abilecek": 1569,
      "▁ithal": 1570,
      "▁vek": 1571,
      "▁etkilen": 1572,
      "▁yeryuz": 1573,
      "▁guler": 1574,
      "##bol": 1575,
      "▁doy": 1576,
      "▁ısıl": 1577,
      "▁birini": 1578,
      "▁uf": 1579,
      "##leyin": 1580,
      "▁466": 1581,
      "▁delikanlı": 1582,
      "▁pittsburgh'a": 1583,
      "##0000": 1584,
      "##ant": 1585,
      "##ıstır": 1586,
      "##'ndaki": 1587,
      "▁onceki": 1588,
      "##ersey": 1589,
      "▁nikkei": 1590,
      "##tmis": 1591,
      "▁basladılar": 1592,
      "▁dinliyor": 1593,
      "▁ltd.": 1594,
      "▁rah": 1595,
      "##leket": 1596,
      "▁faal": 1597,
      "▁mukemmeldi": 1598,
      "▁rop": 1599,
      "▁atlanta'ya": 1600,
      "j": 1601,
      "▁makin": 1602,
      "▁ofis": 1603,
      "▁ug": 1604,
      "##yen": 1605,
      "▁hizmetleri": 1606,
      "▁havalimanı": 1607,
      "▁seyret": 1608,
      "##fer": 1609,
      "▁ilg": 1610,
      "▁amacıyla": 1611,
      "▁neye": 1612,
      "▁bulmaya": 1613,
      "##bi": 1614,
      "▁sezl": 1615,
      "▁koz": 1616,
      "▁dav": 1617,
      "▁muhendi": 1618,
      "▁ıcı": 1619,
      "▁gune": 1620,
      "##..": 1621,
      "▁agzı": 1622,
      "##ırlar": 1623,
      "▁pahali": 1624,
      "▁dogan": 1625,
      "▁cesitli": 1626,
      "▁okuy": 1627,
      "##lerim": 1628,
      "▁ara": 1629,
      "▁birbir": 1630,
      "##larının": 1631,
      "▁endeksi": 1632,
      "▁fed": 1633,
      "▁yaygın": 1634,
      "##lanmıs": 1635,
      "▁kar": 1636,
      "▁bulmus": 1637,
      "▁yogun": 1638,
      "▁bakır": 1639,
      "▁elektronik": 1640,
      "##lık": 1641,
      "▁biy": 1642,
      "▁gemi": 1643,
      "▁sat": 1644,
      "##saf": 1645,
      "▁200": 1646,
      "▁les": 1647,
      "##luluk": 1648,
      "##cok": 1649,
      "▁elem": 1650,
      "##ade": 1651,
      "##eyerek": 1652,
      "▁yakın": 1653,
      "▁skan": 1654,
      "▁pır": 1655,
      "▁net": 1656,
      "▁neyse": 1657,
      "▁yerles": 1658,
      "▁%6": 1659,
      "▁geliyor": 1660,
      "▁edebil": 1661,
      "▁%50": 1662,
      "▁kendisiyle": 1663,
      "##!": 1664,
      "&": 1665,
      "▁ye": 1666,
      "▁almak": 1667,
      "▁kirliydi": 1668,
      "##miyor": 1669,
      "▁telerate": 1670,
      "##uldugu": 1671,
      "▁ucret": 1672,
      "▁husus": 1673,
      "▁turkce": 1674,
      "##t": 1675,
      "▁genel": 1676,
      "▁cont": 1677,
      "##acılar": 1678,
      "▁oldugum": 1679,
      "##larımız": 1680,
      "▁merkezi": 1681,
      "##ij": 1682,
      "##ha": 1683,
      "▁kendimiz": 1684,
      "##hal": 1685,
      "▁sanırım": 1686,
      "▁yusu": 1687,
      "▁isletmeler": 1688,
      "##da": 1689,
      "##uyu": 1690,
      "▁askın": 1691,
      "▁serbest": 1692,
      "▁edildi": 1693,
      "▁kuf": 1694,
      "▁ign": 1695,
      "##lik": 1696,
      "▁guclu": 1697,
      "▁para": 1698,
      "▁tiyatr": 1699,
      "▁talih": 1700,
      "▁memphis": 1701,
      "▁odasına": 1702,
      "▁cın": 1703,
      "▁cuk": 1704,
      "▁ozlem": 1705,
      "▁jersey": 1706,
      "##8'de": 1707,
      "##sarı": 1708,
      "▁bomb": 1709,
      "▁uygun": 1710,
      "▁engin": 1711,
      "▁ceviz": 1712,
      "##diginiz": 1713,
      "▁goruyorum": 1714,
      "▁1986": 1715,
      "▁bakım": 1716,
      "▁trans": 1717,
      "##arik": 1718,
      "▁kendini": 1719,
      "▁yuklu": 1720,
      "▁%11": 1721,
      "▁ayın": 1722,
      "▁nashville'den": 1723,
      "▁azından": 1724,
      "▁muster": 1725,
      "▁hoslan": 1726,
      "▁orne": 1727,
      "▁rezerv": 1728,
      "##iyordum": 1729,
      "##oeni": 1730,
      "▁kıt": 1731,
      "▁8'den": 1732,
      "▁durmadan": 1733,
      "▁koltu": 1734,
      "▁bulan": 1735,
      "▁nasıl": 1736,
      "▁oper": 1737,
      "##est": 1738,
      "▁kem": 1739,
      "▁gunde": 1740,
      "▁orlando'dan": 1741,
      "▁satısa": 1742,
      "▁hic": 1743,
      "##tıs": 1744,
      "▁gorustuk": 1745,
      "▁blok": 1746,
      "##ical": 1747,
      "▁dusundu": 1748,
      "▁neredeyse": 1749,
      "▁agırlık": 1750,
      "▁kimi": 1751,
      "▁d": 1752,
      "▁ul": 1753,
      "##op": 1754,
      "##larla": 1755,
      "▁vic": 1756,
      "▁agr": 1757,
      "▁ciyak": 1758,
      "▁suk": 1759,
      "▁for": 1760,
      "▁istedik": 1761,
      "##ilerden": 1762,
      "▁sıfır": 1763,
      "▁keyif": 1764,
      "##yuz": 1765,
      "##uste": 1766,
      "▁houston": 1767,
      "▁detroit'ten": 1768,
      "▁vergi": 1769,
      "▁yıllık": 1770,
      "##asından": 1771,
      "##inal": 1772,
      "##eyince": 1773,
      "▁cıkmak": 1774,
      "▁100": 1775,
      "##emey": 1776,
      "▁tanesi": 1777,
      "▁verdi": 1778,
      "▁bolge": 1779,
      "##tım": 1780,
      "▁br": 1781,
      "▁stand": 1782,
      "▁plaji": 1783,
      "▁televizyon": 1784,
      "▁bekledigini": 1785,
      "▁birbirlerinin": 1786,
      "▁konusu": 1787,
      "▁ma": 1788,
      "##miyorum": 1789,
      "▁3.5": 1790,
      "▁mide": 1791,
      "▁durumu": 1792,
      "▁gayrim": 1793,
      "▁onca": 1794,
      "▁.'": 1795,
      "▁hizmete": 1796,
      "▁olusan": 1797,
      "▁parmak": 1798,
      "▁benzer": 1799,
      "▁millet": 1800,
      "▁mecl": 1801,
      "▁?": 1802,
      "▁memleket": 1803,
      "▁18": 1804,
      "▁vegas'tan": 1805,
      "▁duzey": 1806,
      "##ence": 1807,
      "▁yemeklerde": 1808,
      "▁uyusturucu": 1809,
      "▁olduk": 1810,
      "##ıldıgı": 1811,
      "▁kus": 1812,
      "▁itibariyle": 1813,
      "▁do": 1814,
      "▁kesildi": 1815,
      "▁hayal": 1816,
      "▁uzay": 1817,
      "▁gorulen": 1818,
      "▁39": 1819,
      "##\\": 1820,
      "▁katkı": 1821,
      "▁cocugun": 1822,
      "▁dondu": 1823,
      "▁bagımsız": 1824,
      "▁one": 1825,
      "s": 1826,
      "▁boc": 1827,
      "▁88": 1828,
      "▁efsan": 1829,
      "▁pozisyon": 1830,
      "▁sasırtıcı": 1831,
      "▁ada": 1832,
      "▁phoenix": 1833,
      "▁nedenle": 1834,
      "▁gergin": 1835,
      "##ai": 1836,
      "▁kayıp": 1837,
      "▁kabar": 1838,
      "▁sırasında": 1839,
      "▁muk": 1840,
      "▁hijyen": 1841,
      "##loy": 1842,
      "▁oz": 1843,
      "▁westchester": 1844,
      "##lar": 1845,
      "▁edeb": 1846,
      "▁o": 1847,
      "##.43": 1848,
      "▁hayat": 1849,
      "▁onlardan": 1850,
      "▁13": 1851,
      "▁yetk": 1852,
      "▁tesisten": 1853,
      "▁bulas": 1854,
      "▁gorevlisi": 1855,
      "##42": 1856,
      "▁japonya'nın": 1857,
      "▁yetkilileri": 1858,
      "▁101": 1859,
      "▁cekil": 1860,
      "▁dinlem": 1861,
      "▁fal": 1862,
      "##57": 1863,
      "▁davası": 1864,
      "##amet": 1865,
      "##ca": 1866,
      "▁oranları": 1867,
      "▁bilinc": 1868,
      "▁ta": 1869,
      "▁harekete": 1870,
      "▁tesisin": 1871,
      "▁kayak": 1872,
      "▁asla": 1873,
      "▁lyn": 1874,
      "7": 1875,
      "▁yayın": 1876,
      "▁petrol": 1877,
      "▁gulus": 1878,
      "▁surdur": 1879,
      "##rum": 1880,
      "##es": 1881,
      "▁herkesten": 1882,
      "▁kalmadik": 1883,
      "▁sahin": 1884,
      "▁annesinin": 1885,
      "▁ec": 1886,
      "▁etken": 1887,
      "##ılıgıyla": 1888,
      "▁uzere": 1889,
      "##ates": 1890,
      "##ılık": 1891,
      "▁taraf": 1892,
      "▁aday": 1893,
      "▁te": 1894,
      "▁ayrım": 1895,
      "▁ap": 1896,
      "▁ustu": 1897,
      "▁%6.9": 1898,
      "##le": 1899,
      "##malı": 1900,
      "▁eline": 1901,
      "▁halk": 1902,
      "▁vermedi": 1903,
      "▁cincinnati'ye": 1904,
      "▁denen": 1905,
      "▁telefon": 1906,
      "▁ayrılan": 1907,
      "▁sevk": 1908,
      "▁kırk": 1909,
      "▁ak": 1910,
      "▁zafer": 1911,
      "##mamıstı": 1912,
      "▁sem": 1913,
      "▁mily": 1914,
      "▁cogun": 1915,
      "▁nak": 1916,
      "▁tuh": 1917,
      "##aseb": 1918,
      "▁0.25": 1919,
      "▁sozlesmesi": 1920,
      "##ersin": 1921,
      "▁ingiliz": 1922,
      "▁org": 1923,
      "▁minneapolis'ten": 1924,
      "▁3.4": 1925,
      "▁lung": 1926,
      "##b": 1927,
      "▁sigort": 1928,
      "##ugh": 1929,
      "▁saga": 1930,
      "▁gorur": 1931,
      "▁esim": 1932,
      "##sen": 1933,
      "▁tampa'ya": 1934,
      "▁aran": 1935,
      "▁ferah": 1936,
      "##ılıgını": 1937,
      "##ginde": 1938,
      "▁oyk": 1939,
      "##isse": 1940,
      "▁milyon": 1941,
      "##oru": 1942,
      "##rat": 1943,
      "▁baskan": 1944,
      "▁dolayısıyla": 1945,
      "▁karanlık": 1946,
      "▁oturmus": 1947,
      "▁milwaukee": 1948,
      "▁asker": 1949,
      "▁gitt": 1950,
      "▁a.b.d.": 1951,
      "▁koku": 1952,
      "▁sanız": 1953,
      "▁kurul": 1954,
      "▁ır": 1955,
      "▁pasa": 1956,
      "##il": 1957,
      "▁kaldik": 1958,
      "##ık": 1959,
      "▁ederler": 1960,
      "▁kut": 1961,
      "▁temp": 1962,
      "##lerde": 1963,
      "▁milletvek": 1964,
      "##azım": 1965,
      "▁giden": 1966,
      "▁kıymetler": 1967,
      "##roit": 1968,
      "▁37.5": 1969,
      "##ica": 1970,
      "▁ozgurluk": 1971,
      "▁birlesik": 1972,
      "##ibar": 1973,
      "▁carsı": 1974,
      "##ich": 1975,
      "▁oran": 1976,
      "▁ellerini": 1977,
      "##'te": 1978,
      "##ay": 1979,
      "▁3.3": 1980,
      "▁aldı": 1981,
      "##agını": 1982,
      "▁cins": 1983,
      "##aga": 1984,
      "▁babam": 1985,
      "▁gur": 1986,
      "##l": 1987,
      "▁actı": 1988,
      "##laması": 1989,
      "▁celik": 1990,
      "▁patates": 1991,
      "▁1.4": 1992,
      "▁evvel": 1993,
      "▁ilgilenmedi": 1994,
      "▁birbirleriyle": 1995,
      "##our": 1996,
      "▁tacoma'ya": 1997,
      "##ba": 1998,
      "▁hep": 1999,
      "▁tesek": 2000,
      "▁yola": 2001,
      "##lukla": 2002,
      "▁ucusa": 2003,
      "▁kaz": 2004,
      "▁oradan": 2005,
      "▁suleyman": 2006,
      "##mesine": 2007,
      "##tak": 2008,
      "▁4.3": 2009,
      "▁mısınız": 2010,
      "▁kalmıs": 2011,
      "##hut": 2012,
      "▁tug": 2013,
      "##ektr": 2014,
      "▁sende": 2015,
      "▁kapali": 2016,
      "▁ses": 2017,
      "▁gol": 2018,
      "##ile": 2019,
      "▁yatak": 2020,
      "▁yumus": 2021,
      "▁esas": 2022,
      "##r.": 2023,
      "▁sek": 2024,
      "▁nok": 2025,
      "▁yapacagını": 2026,
      "▁oldug": 2027,
      "▁sar": 2028,
      "▁yapıl": 2029,
      "##st": 2030,
      "▁ogrenci": 2031,
      "▁jose": 2032,
      "▁olmaz": 2033,
      "▁da": 2034,
      "##ıldı": 2035,
      "▁yolunda": 2036,
      "▁kutur": 2037,
      "▁dek": 2038,
      "▁sebebi": 2039,
      "▁bizden": 2040,
      "##gal": 2041,
      "▁toronto": 2042,
      "t": 2043,
      "▁750": 2044,
      "##aba": 2045,
      "▁etmey": 2046,
      "▁alan": 2047,
      "▁karsiladi": 2048,
      "▁ipot": 2049,
      "▁raf": 2050,
      "##iyel": 2051,
      "▁dikkat": 2052,
      "▁gelince": 2053,
      "▁dir": 2054,
      "▁alakaliydi": 2055,
      "▁kaps": 2056,
      "▁oyna": 2057,
      "▁yonlendir": 2058,
      "▁gezin": 2059,
      "▁hastalı": 2060,
      "▁olmasını": 2061,
      "##rol": 2062,
      "▁omer": 2063,
      "▁karab": 2064,
      "▁tasım": 2065,
      "▁ucuyor": 2066,
      "▁basbak": 2067,
      "##.3": 2068,
      "▁coz": 2069,
      "▁soyledik": 2070,
      "▁urun": 2071,
      "▁guzel": 2072,
      "##leriyle": 2073,
      "##sim": 2074,
      "##0.1": 2075,
      "▁ani": 2076,
      "▁madde": 2077,
      "##g": 2078,
      "▁gund": 2079,
      "##land": 2080,
      "##'ta": 2081,
      "▁leri": 2082,
      "##madi": 2083,
      "##tay": 2084,
      "▁yaglı": 2085,
      "▁katilmak": 2086,
      "▁istik": 2087,
      "▁otuz": 2088,
      "##daki": 2089,
      "##ital": 2090,
      "▁niyet": 2091,
      "▁tal": 2092,
      "▁sebep": 2093,
      "▁oysa": 2094,
      "▁karsılıklı": 2095,
      "##cog": 2096,
      "▁iliskin": 2097,
      "▁personel": 2098,
      "##kur": 2099,
      "##dim": 2100,
      "##ustral": 2101,
      "##pa": 2102,
      "##'yı": 2103,
      "▁merdiven": 2104,
      "▁havlu": 2105,
      "▁olar": 2106,
      "▁selam": 2107,
      "##alarına": 2108,
      "##deri": 2109,
      "▁otelden": 2110,
      "##'ndan": 2111,
      "▁beri": 2112,
      "##leniyor": 2113,
      "▁cocukların": 2114,
      "▁dog": 2115,
      "##asın": 2116,
      "▁parca": 2117,
      "▁kadın": 2118,
      "##.23": 2119,
      "▁cihaz": 2120,
      "▁degilim": 2121,
      "▁verdigini": 2122,
      "▁zaf": 2123,
      "▁duygusal": 2124,
      "▁22-23": 2125,
      "##isle": 2126,
      "▁has": 2127,
      "▁gerekir": 2128,
      "##ınıyor": 2129,
      "▁end": 2130,
      "##lerinden": 2131,
      "▁beni": 2132,
      "▁ekonomi": 2133,
      "▁lezzet": 2134,
      "▁mudahal": 2135,
      "▁hemen": 2136,
      "▁kategor": 2137,
      "##-p": 2138,
      "▁yuzunden": 2139,
      "▁alaka": 2140,
      "▁hissediyor": 2141,
      "##dıgım": 2142,
      "##ft": 2143,
      "▁yumurta": 2144,
      "▁sorumlu": 2145,
      "▁tecrub": 2146,
      ",": 2147,
      "▁sahiptir": 2148,
      "▁zay": 2149,
      "▁70": 2150,
      "##irdi": 2151,
      "▁kendinize": 2152,
      "▁had": 2153,
      "##larak": 2154,
      "##at": 2155,
      "▁aldıgı": 2156,
      "▁60": 2157,
      "##irmi": 2158,
      "##a'nın": 2159,
      "▁mit": 2160,
      "▁durak": 2161,
      "▁yuzunu": 2162,
      "##adar": 2163,
      "▁`": 2164,
      "▁hırsız": 2165,
      "##te": 2166,
      "▁chicago'dan": 2167,
      "▁hoc": 2168,
      "▁tı": 2169,
      "##eri": 2170,
      "##osu": 2171,
      "▁sep": 2172,
      "▁pro": 2173,
      "▁rec": 2174,
      "▁metr": 2175,
      "▁vucud": 2176,
      "▁bakıyordu": 2177,
      "▁kıbrıs": 2178,
      "▁dogu": 2179,
      "▁yemek": 2180,
      "▁gelmis": 2181,
      "▁yukselen": 2182,
      "▁morgan": 2183,
      "▁kendisinden": 2184,
      "##egi": 2185,
      "##enin": 2186,
      "▁kullanıl": 2187,
      "##ıcık": 2188,
      "▁bek": 2189,
      "##cilerin": 2190,
      "##inip": 2191,
      "##madigim": 2192,
      "▁farklılık": 2193,
      "▁agustos": 2194,
      "▁ortaydi": 2195,
      "▁sozlesme": 2196,
      "##amadı": 2197,
      "##rily": 2198,
      "▁yatırımcı": 2199,
      "##om": 2200,
      "▁yım": 2201,
      "▁oglan": 2202,
      "▁alet": 2203,
      "##asındaki": 2204,
      "##5.": 2205,
      "▁g": 2206,
      "##ye": 2207,
      "▁ustun": 2208,
      "▁gorusmeler": 2209,
      "##amamıs": 2210,
      "▁hong": 2211,
      "▁li": 2212,
      "##ılıp": 2213,
      "▁aldim": 2214,
      "▁ero": 2215,
      "▁baslarında": 2216,
      "##se": 2217,
      "▁analist": 2218,
      "▁bunlara": 2219,
      "##lig": 2220,
      "##la": 2221,
      "▁guney": 2222,
      "▁veren": 2223,
      "##?": 2224,
      "▁eglence": 2225,
      "▁yalnızca": 2226,
      "##ton": 2227,
      "▁zayıf": 2228,
      "▁bazen": 2229,
      "▁,": 2230,
      "▁borsası": 2231,
      "##isten": 2232,
      "##47": 2233,
      "▁suyunu": 2234,
      "▁maruz": 2235,
      "▁ker": 2236,
      "▁tık": 2237,
      "▁york'a": 2238,
      "##kei": 2239,
      "▁an": 2240,
      "##tia": 2241,
      "▁okul": 2242,
      "##26": 2243,
      "▁simdi": 2244,
      "▁sevin": 2245,
      "##ek": 2246,
      "▁madd": 2247,
      "##mez": 2248,
      "▁barın": 2249,
      "▁satısı": 2250,
      "▁amerikan": 2251,
      "▁surec": 2252,
      "▁buk": 2253,
      "▁78": 2254,
      "##met": 2255,
      "##meyi": 2256,
      "▁otomobil": 2257,
      "▁yazılım": 2258,
      "▁onunden": 2259,
      "▁1.9": 2260,
      "##ildi": 2261,
      "▁tablo": 2262,
      "▁oner": 2263,
      "▁ucretin": 2264,
      "##emedi": 2265,
      "▁sonucları": 2266,
      "▁yıldız": 2267,
      "▁muht": 2268,
      "▁otele": 2269,
      "##memis": 2270,
      "##may": 2271,
      "▁olabil": 2272,
      "▁calısma": 2273,
      "▁aktif": 2274,
      "▁baltimore'den": 2275,
      "▁geleni": 2276,
      "▁pitt": 2277,
      "##dukları": 2278,
      "##ayacak": 2279,
      "##imi": 2280,
      "##digini": 2281,
      "▁but": 2282,
      "##unce": 2283,
      "▁hel": 2284,
      "▁dayan": 2285,
      "##lem": 2286,
      "▁profes": 2287,
      "▁mıs": 2288,
      "##ale": 2289,
      "▁takdir": 2290,
      "▁po": 2291,
      "##dız": 2292,
      "”": 2293,
      "▁katıldı": 2294,
      "▁indian": 2295,
      "▁hindistan": 2296,
      "▁kurulus": 2297,
      "▁pesinde": 2298,
      "▁hisse": 2299,
      "▁zaten": 2300,
      "▁konusma": 2301,
      "##etin": 2302,
      "##tıgım": 2303,
      "▁120": 2304,
      "▁iddi": 2305,
      "▁yukseldi": 2306,
      "▁zevk": 2307,
      "▁hepimizi": 2308,
      "##ayım": 2309,
      "4": 2310,
      "##-4": 2311,
      "##elendir": 2312,
      "##umus": 2313,
      "▁bası": 2314,
      "▁hurr": 2315,
      "##umda": 2316,
      "▁gam": 2317,
      "▁yeme": 2318,
      "▁baslar": 2319,
      "##sınız": 2320,
      "▁konuyu": 2321,
      "▁1.8": 2322,
      "##ew": 2323,
      "▁el": 2324,
      "▁katıl": 2325,
      "▁ilave": 2326,
      "▁katılım": 2327,
      "▁talep": 2328,
      "##ızı": 2329,
      "##alarının": 2330,
      "▁bulut": 2331,
      "▁orani": 2332,
      "##gumuz": 2333,
      "▁oyunun": 2334,
      "▁vet": 2335,
      "▁baktım": 2336,
      "▁civarı": 2337,
      "▁tesvik": 2338,
      "▁47": 2339,
      "▁eti": 2340,
      "##lım": 2341,
      "▁ant": 2342,
      "▁jones": 2343,
      "▁yumurt": 2344,
      "▁kacır": 2345,
      "▁ob": 2346,
      "▁aram": 2347,
      "▁omur": 2348,
      "▁ıs": 2349,
      "▁sof": 2350,
      "▁mezar": 2351,
      "##ik": 2352,
      "▁musteriler": 2353,
      "##esinde": 2354,
      "▁ne": 2355,
      "##0'": 2356,
      "▁ymıs": 2357,
      "▁haftada": 2358,
      "▁sınıf": 2359,
      "▁fon": 2360,
      "##bal": 2361,
      "▁insana": 2362,
      "▁kuvvetleri": 2363,
      "▁veril": 2364,
      "▁suph": 2365,
      "▁2": 2366,
      "▁rus": 2367,
      "##abiliriz": 2368,
      "▁kagıt": 2369,
      "▁pal": 2370,
      "##lası": 2371,
      "##de": 2372,
      "▁dusunce": 2373,
      "▁re": 2374,
      "▁cesit": 2375,
      "▁tiyatro": 2376,
      "▁cekildi": 2377,
      "##ilen": 2378,
      "##elli": 2379,
      "▁gurur": 2380,
      "▁sef": 2381,
      "##mesi": 2382,
      "▁spor": 2383,
      "##id": 2384,
      "##ekul": 2385,
      "##48": 2386,
      "▁burbank'a": 2387,
      "▁soyledim": 2388,
      "▁haberdar": 2389,
      "▁direktoru": 2390,
      "##malarına": 2391,
      "▁piyas": 2392,
      "▁inc.": 2393,
      "▁etmiyor": 2394,
      "▁belirt": 2395,
      "##esinin": 2396,
      "▁sonuclar": 2397,
      "##ner": 2398,
      "▁hepimizin": 2399,
      "▁duran": 2400,
      "▁sorgul": 2401,
      "##edik": 2402,
      "##lerindeki": 2403,
      "▁hayv": 2404,
      "▁dekor": 2405,
      "▁civarında": 2406,
      "##elerde": 2407,
      "▁kapıyı": 2408,
      "▁harcam": 2409,
      "▁kazanan": 2410,
      "▁tekn": 2411,
      "▁3.8": 2412,
      "▁yılın": 2413,
      "##une": 2414,
      "▁cent": 2415,
      "▁etmek": 2416,
      "▁duman": 2417,
      "##izi": 2418,
      "▁kez": 2419,
      "▁herhalde": 2420,
      "▁bahce": 2421,
      "▁yararlan": 2422,
      "▁bakımından": 2423,
      "▁dob": 2424,
      "▁perde": 2425,
      "▁dunyada": 2426,
      "##liye": 2427,
      "##ut": 2428,
      "##6.6": 2429,
      "▁kaf": 2430,
      "▁iceriyor": 2431,
      "▁ilgililerdi": 2432,
      "▁angeles'ten": 2433,
      "▁miras": 2434,
      "▁davet": 2435,
      "▁hisseleri": 2436,
      "##casına": 2437,
      "▁reklam": 2438,
      "▁81": 2439,
      "##gılan": 2440,
      "##fa": 2441,
      "▁co": 2442,
      "▁girisim": 2443,
      "▁altındaki": 2444,
      "▁kalan": 2445,
      "▁charl": 2446,
      "##ron": 2447,
      "▁nasda": 2448,
      "##amayacak": 2449,
      "##temiz": 2450,
      "▁yeterli": 2451,
      "▁deli": 2452,
      "##ltı": 2453,
      "▁\"": 2454,
      "▁85": 2455,
      "▁tuk": 2456,
      "▁gitmek": 2457,
      "▁halen": 2458,
      "▁hayatı": 2459,
      "▁yalnız": 2460,
      "##imini": 2461,
      "▁dogrudan": 2462,
      "▁avuk": 2463,
      "▁mesaf": 2464,
      "▁ti": 2465,
      "▁bat": 2466,
      "##ılım": 2467,
      "▁vegas": 2468,
      "▁corb": 2469,
      "▁onda": 2470,
      "▁konusunda": 2471,
      "▁problem": 2472,
      "▁guvenlik": 2473,
      "##asyon": 2474,
      "▁havuz": 2475,
      "▁saz": 2476,
      "##sk": 2477,
      "▁sifir": 2478,
      "##acagı": 2479,
      "##mun": 2480,
      "▁denver'e": 2481,
      "▁kendinden": 2482,
      "##okr": 2483,
      "▁ortalık": 2484,
      "▁bakın": 2485,
      "##9.8": 2486,
      "▁kısm": 2487,
      "▁donen": 2488,
      "##ka": 2489,
      "##istik": 2490,
      "▁hazırlan": 2491,
      "▁binbir": 2492,
      "▁sefer": 2493,
      "▁olabilecegini": 2494,
      "##liyordu": 2495,
      "▁ruz": 2496,
      "▁takımı": 2497,
      "▁ba": 2498,
      "##mesin": 2499,
      "▁yont": 2500,
      "▁gorunce": 2501,
      "▁baslangıc": 2502,
      "▁benden": 2503,
      "##fik": 2504,
      "▁v": 2505,
      "##irken": 2506,
      "▁kavg": 2507,
      "▁ii": 2508,
      "▁post": 2509,
      "##ayan": 2510,
      "▁diken": 2511,
      "▁ark": 2512,
      "##anları": 2513,
      "##sin": 2514,
      "▁%3": 2515,
      "▁kendilerine": 2516,
      "▁faktor": 2517,
      "##ıkır": 2518,
      "##ave": 2519,
      "▁gold": 2520,
      "▁gok": 2521,
      "▁eli": 2522,
      "▁ondan": 2523,
      "▁yıg": 2524,
      "▁almanya": 2525,
      "▁kalp": 2526,
      "▁odada": 2527,
      "##ator": 2528,
      "▁sınır": 2529,
      "▁gormus": 2530,
      "▁mı": 2531,
      "▁geyik": 2532,
      "▁enf": 2533,
      "▁patır": 2534,
      "▁hakan": 2535,
      "▁isletme": 2536,
      "▁1.7": 2537,
      "▁hala": 2538,
      "##'yi": 2539,
      "▁isine": 2540,
      "▁miktarda": 2541,
      "▁di": 2542,
      "▁cocuga": 2543,
      "▁say": 2544,
      "##in": 2545,
      "▁24": 2546,
      "▁getiriyor": 2547,
      "▁mos": 2548,
      "▁lu": 2549,
      "▁tren": 2550,
      "▁oyun": 2551,
      "▁bilmek": 2552,
      "▁farklı": 2553,
      "▁olmadı": 2554,
      "▁iyimser": 2555,
      "▁kay": 2556,
      "##isim": 2557,
      "▁dısarı": 2558,
      "##uh": 2559,
      "▁yan": 2560,
      "▁balık": 2561,
      "▁kıyas": 2562,
      "k": 2563,
      "▁gecirdik": 2564,
      "▁sez": 2565,
      "▁gelsin": 2566,
      "##:00-22:30": 2567,
      "▁ayrılıp": 2568,
      "##sizlik": 2569,
      "▁saldırı": 2570,
      "▁mavi": 2571,
      "##.38": 2572,
      "▁gelecekteki": 2573,
      "▁225": 2574,
      "▁ogle": 2575,
      "##alama": 2576,
      "▁erdi": 2577,
      "▁si": 2578,
      "▁rahatsız": 2579,
      "##adı": 2580,
      "##adu": 2581,
      "▁cıplak": 2582,
      "▁coc": 2583,
      "▁oakland": 2584,
      "▁ekip": 2585,
      "▁yetkili": 2586,
      "▁uyum": 2587,
      "▁ydık": 2588,
      "##uyle": 2589,
      "▁ol": 2590,
      "▁konut": 2591,
      "##er'in": 2592,
      "▁girmek": 2593,
      "▁havaya": 2594,
      "##muz": 2595,
      "▁em": 2596,
      "▁sekiz": 2597,
      "▁california'ya": 2598,
      "##mıyordu": 2599,
      "##m": 2600,
      "##lemek": 2601,
      "▁genclik": 2602,
      "▁arttı": 2603,
      "▁dokuz": 2604,
      "▁kimisi": 2605,
      "##unca": 2606,
      "▁ozen": 2607,
      "▁borsası'nda": 2608,
      "▁geril": 2609,
      "▁saglık": 2610,
      "▁ortaya": 2611,
      "##ment": 2612,
      "▁harıl": 2613,
      "▁ataturk": 2614,
      "▁2.1": 2615,
      "u": 2616,
      "##endir": 2617,
      "▁gitti": 2618,
      "h": 2619,
      "##.55": 2620,
      "▁olduguna": 2621,
      "##of": 2622,
      "▁hicbirinin": 2623,
      "▁sebeb": 2624,
      "▁istemez": 2625,
      "▁uzakta": 2626,
      "▁harik": 2627,
      "▁ettik": 2628,
      "▁umit": 2629,
      "▁uy": 2630,
      "▁balk": 2631,
      "##estir": 2632,
      "▁yel": 2633,
      "▁okumak": 2634,
      "▁kotu": 2635,
      "▁suy": 2636,
      "▁camur": 2637,
      "▁bekledi": 2638,
      "▁guclendir": 2639,
      "▁arada": 2640,
      "▁or": 2641,
      "##y": 2642,
      "▁dul": 2643,
      "▁teker": 2644,
      "▁marj": 2645,
      "▁kacın": 2646,
      "▁ailelere": 2647,
      "##lav": 2648,
      "▁elli": 2649,
      "##oc": 2650,
      "##ukee": 2651,
      "▁h": 2652,
      "▁olmayan": 2653,
      "▁evren": 2654,
      "▁ala": 2655,
      "▁sahipleri": 2656,
      "▁bono": 2657,
      "▁fas": 2658,
      "▁kongr": 2659,
      "##kanın": 2660,
      "##92": 2661,
      "##inin": 2662,
      "##laya": 2663,
      "▁acisindan": 2664,
      "▁bacak": 2665,
      "##her": 2666,
      "▁sahn": 2667,
      "▁islemlerde": 2668,
      "▁kızlar": 2669,
      "▁hug": 2670,
      "##cal": 2671,
      "▁12'den": 2672,
      "▁huzur": 2673,
      "##orth": 2674,
      "▁gelmez": 2675,
      "▁250000": 2676,
      "##ılma": 2677,
      "▁idi": 2678,
      "##ag": 2679,
      "▁cirkin": 2680,
      "▁ders": 2681,
      "▁kisilik": 2682,
      "##lat": 2683,
      "▁dosy": 2684,
      "▁nesil": 2685,
      "▁rıhtım": 2686,
      "▁teslim": 2687,
      "##_": 2688,
      "▁kontrol": 2689,
      "▁bush": 2690,
      "▁esir": 2691,
      "▁kapasitesi": 2692,
      "▁65": 2693,
      "▁herkes": 2694,
      "##acak": 2695,
      "▁anad": 2696,
      "▁ev": 2697,
      "▁siv": 2698,
      "▁ifade": 2699,
      "▁duy": 2700,
      "▁may": 2701,
      "▁lut": 2702,
      "▁uzerinde": 2703,
      "▁yuk": 2704,
      "##ing": 2705,
      "▁muz": 2706,
      "##malıdır": 2707,
      "▁(": 2708,
      "▁musta": 2709,
      "▁edilecek": 2710,
      "▁olan": 2711,
      "▁1": 2712,
      "▁gurultu": 2713,
      "▁univ": 2714,
      "▁nih": 2715,
      "##uk": 2716,
      "▁sorum": 2717,
      "▁dusuk": 2718,
      "▁karsılık": 2719,
      "##ısıyla": 2720,
      "##liklerini": 2721,
      "##cagız": 2722,
      "▁birisi": 2723,
      "▁kaya": 2724,
      "##mu": 2725,
      "##manın": 2726,
      "▁karıs": 2727,
      "▁sogut": 2728,
      "▁day": 2729,
      "f": 2730,
      "▁gosteren": 2731,
      "▁arizona": 2732,
      "▁komun": 2733,
      "▁sevdigi": 2734,
      "▁listeleyin": 2735,
      "▁kucucuk": 2736,
      "▁kabul": 2737,
      "▁yasındaki": 2738,
      "▁finansal": 2739,
      "▁uzakti": 2740,
      "##edim": 2741,
      "▁israil": 2742,
      "##eti": 2743,
      "##liyorum": 2744,
      "▁kalmadim": 2745,
      "▁beach": 2746,
      "▁seviyesinden": 2747,
      "▁asırı": 2748,
      "##bur": 2749,
      "▁pap": 2750,
      "▁rob": 2751,
      "▁zinc": 2752,
      "▁kodu": 2753,
      "##mesinin": 2754,
      "▁yoktur": 2755,
      "▁william": 2756,
      "▁okum": 2757,
      "▁tir": 2758,
      "##egen": 2759,
      "▁od": 2760,
      "▁tor": 2761,
      "▁urunler": 2762,
      "▁geriye": 2763,
      "##ırdı": 2764,
      "##elerek": 2765,
      "##innati": 2766,
      "▁kızar": 2767,
      "▁ilk": 2768,
      "▁mahm": 2769,
      "▁teyz": 2770,
      "▁verici": 2771,
      "##abz": 2772,
      "▁ihtiyacım": 2773,
      "▁dugun": 2774,
      "▁..": 2775,
      "▁yumur": 2776,
      "▁anlamda": 2777,
      "▁erken": 2778,
      "▁kullanıyor": 2779,
      "▁gec": 2780,
      "▁yarı": 2781,
      "▁yeri": 2782,
      "▁gerektir": 2783,
      "##=": 2784,
      "▁farkında": 2785,
      "##4": 2786,
      "▁birim": 2787,
      "▁kub": 2788,
      "##esi'nde": 2789,
      "▁onların": 2790,
      "##iyor": 2791,
      "▁indi": 2792,
      "▁yuzde": 2793,
      "▁etmektedir": 2794,
      "##sunuz": 2795,
      "##unu": 2796,
      "▁avustralya": 2797,
      "▁kredi": 2798,
      "▁buldum": 2799,
      "▁aks": 2800,
      "▁tanrı": 2801,
      "▁edilmis": 2802,
      "▁agzını": 2803,
      "▁isra": 2804,
      "##ihaz": 2805,
      "▁yeterliydi": 2806,
      "▁ste": 2807,
      "▁yapmadı": 2808,
      "▁1980": 2809,
      "##lamaya": 2810,
      "##isk": 2811,
      "##'yu": 2812,
      "##ladıgı": 2813,
      "▁havayollarında": 2814,
      "▁personelleri": 2815,
      "▁kalacak": 2816,
      "▁seattle'den": 2817,
      "##65": 2818,
      "▁asa": 2819,
      "##muyordu": 2820,
      "▁giz": 2821,
      "▁1\\/4": 2822,
      "▁dususle": 2823,
      "▁esi": 2824,
      "▁haklı": 2825,
      "▁busbut": 2826,
      "▁sıc": 2827,
      "▁8": 2828,
      "▁%25": 2829,
      "▁simdilik": 2830,
      "##iri": 2831,
      "▁iptal": 2832,
      "▁key": 2833,
      "▁mir": 2834,
      "##amadik": 2835,
      "▁0.9": 2836,
      "▁yahudi": 2837,
      "▁deneme": 2838,
      "▁alım-sat": 2839,
      "▁gay": 2840,
      "▁yar": 2841,
      "▁umut": 2842,
      "▁renk": 2843,
      "▁cevre": 2844,
      "##isel": 2845,
      "▁omz": 2846,
      "▁so": 2847,
      "▁suya": 2848,
      "▁esk": 2849,
      "▁titiz": 2850,
      "▁sub": 2851,
      "▁sınav": 2852,
      "▁long": 2853,
      "▁degildir": 2854,
      "▁gunluk": 2855,
      "▁haykır": 2856,
      "▁9.8": 2857,
      "▁cıkıp": 2858,
      "##enler": 2859,
      "▁holding": 2860,
      "▁olay": 2861,
      "▁hijyenik": 2862,
      "▁avrup": 2863,
      "##ıl": 2864,
      "▁yız": 2865,
      "##mam": 2866,
      "▁bodrum": 2867,
      "##ret": 2868,
      "▁faaliyet": 2869,
      "▁kapıdan": 2870,
      "##50": 2871,
      "▁sonraki": 2872,
      "##ami": 2873,
      "▁rap": 2874,
      "▁gelisim": 2875,
      "##ley": 2876,
      "▁islemi": 2877,
      "##mustu": 2878,
      "▁boyun": 2879,
      "##kara": 2880,
      "▁baba": 2881,
      "##ham": 2882,
      "▁biridir": 2883,
      "▁eki": 2884,
      "▁bunu": 2885,
      "▁incelem": 2886,
      "▁iri": 2887,
      "▁tamam": 2888,
      "##ehir": 2889,
      "▁tah": 2890,
      "▁servis": 2891,
      "▁takım": 2892,
      "▁sayın": 2893,
      "▁anlas": 2894,
      "▁degisimi": 2895,
      "##dur": 2896,
      "▁giriste": 2897,
      "▁olmaya": 2898,
      "##alap": 2899,
      "▁tarihli": 2900,
      "▁calisanlari": 2901,
      "##mak": 2902,
      "▁de": 2903,
      "##ru": 2904,
      "▁rolu": 2905,
      "##abını": 2906,
      "▁times": 2907,
      "▁bar": 2908,
      "▁durur": 2909,
      "▁baslat": 2910,
      "##anlı": 2911,
      "▁muy": 2912,
      "▁ailenin": 2913,
      "▁yorgun": 2914,
      "▁hayatta": 2915,
      "▁agzına": 2916,
      "▁isv": 2917,
      "##eyh": 2918,
      "▁bolum": 2919,
      "▁gitmeyi": 2920,
      "##chell": 2921,
      "▁flori": 2922,
      "▁bos": 2923,
      "▁fev": 2924,
      "##ove": 2925,
      "▁yapılacak": 2926,
      "▁mısın": 2927,
      "▁saglıklı": 2928,
      "##ların": 2929,
      "##9-": 2930,
      "▁-": 2931,
      "▁istiyordu": 2932,
      "▁goze": 2933,
      "▁dusunur": 2934,
      "z": 2935,
      "▁giy": 2936,
      "▁hanim": 2937,
      "▁karısık": 2938,
      "##rub": 2939,
      "▁pus": 2940,
      "▁ecekti": 2941,
      "▁yet": 2942,
      "▁altern": 2943,
      "▁sene": 2944,
      "▁12.5": 2945,
      "▁yapildi": 2946,
      "##cileri": 2947,
      "▁washington": 2948,
      "▁seyir": 2949,
      "▁misin": 2950,
      "▁ın": 2951,
      "##asıyla": 2952,
      "▁sehri": 2953,
      "▁yudum": 2954,
      "##w": 2955,
      "##ri": 2956,
      "▁degerli": 2957,
      "##gin": 2958,
      "▁biliyor": 2959,
      "▁vasıt": 2960,
      "▁seh": 2961,
      "▁yasında": 2962,
      "▁rev": 2963,
      "▁duruyor": 2964,
      "▁duruma": 2965,
      "▁buy": 2966,
      "▁mel": 2967,
      "▁tahk": 2968,
      "▁lak": 2969,
      "▁iktis": 2970,
      "##encer": 2971,
      "▁yana": 2972,
      "##mıs": 2973,
      "▁kısa": 2974,
      "##lerce": 2975,
      "##igini": 2976,
      "##lıga": 2977,
      "▁piyasası": 2978,
      "▁sonradan": 2979,
      "▁duruyordu": 2980,
      "##esti": 2981,
      "▁ut": 2982,
      "##ilmaz": 2983,
      "▁beklentiler": 2984,
      "▁acakt": 2985,
      "##onik": 2986,
      "▁yonetim": 2987,
      "▁bus": 2988,
      "##yas": 2989,
      "▁devlet": 2990,
      "▁.": 2991,
      "##ılmaz": 2992,
      "##osy": 2993,
      "▁soyleyebilir": 2994,
      "▁kaydetti": 2995,
      "▁dogrusu": 2996,
      "▁medya": 2997,
      "▁begendim": 2998,
      "▁osman": 2999,
      "##1'de": 3000,
      "##sel": 3001,
      "▁sureci": 3002,
      "##oj": 3003,
      "▁ku": 3004,
      "##oma": 3005,
      "##den": 3006,
      "▁havada": 3007,
      "▁dans": 3008,
      "##ladık": 3009,
      "##.": 3010,
      "##etti": 3011,
      "▁ugra": 3012,
      "▁gosterin": 3013,
      "▁musteri": 3014,
      "▁sup": 3015,
      "▁kara": 3016,
      "▁payı": 3017,
      "▁ederek": 3018,
      "▁york'ta": 3019,
      "▁%80": 3020,
      "▁sayesinde": 3021,
      "▁tev": 3022,
      "▁oldular": 3023,
      "▁silah": 3024,
      "▁bilmiyor": 3025,
      "▁toront": 3026,
      "▁62": 3027,
      "##lis": 3028,
      "▁duskun": 3029,
      "▁ucuslarının": 3030,
      "▁yaparak": 3031,
      "##eyecek": 3032,
      "▁dum": 3033,
      "##lastı": 3034,
      "▁adım": 3035,
      "▁zaman": 3036,
      "▁seviyesinde": 3037,
      "▁ydım": 3038,
      "▁baslay": 3039,
      "w": 3040,
      "▁kardes": 3041,
      "▁muhtemelen": 3042,
      "▁boyunca": 3043,
      "▁dan": 3044,
      "▁parti": 3045,
      "▁herkese": 3046,
      "##lerle": 3047,
      "▁sallan": 3048,
      "▁meden": 3049,
      "▁ulusal": 3050,
      "##siz": 3051,
      "▁gelenek": 3052,
      "##akar": 3053,
      "▁1.5": 3054,
      "##ih": 3055,
      "▁gitmem": 3056,
      "▁sosyal": 3057,
      "▁ha": 3058,
      "##ısının": 3059,
      "▁neyi": 3060,
      "▁dusur": 3061,
      "▁3.": 3062,
      "▁kendilerinin": 3063,
      "▁mad": 3064,
      "▁sakın": 3065,
      "##abilir": 3066,
      "##for": 3067,
      "▁ayır": 3068,
      "##masıyla": 3069,
      "▁dusundum": 3070,
      "▁yaklas": 3071,
      "▁aracı": 3072,
      "▁kendisine": 3073,
      "##das": 3074,
      "▁ederim": 3075,
      "▁secim": 3076,
      "▁ed": 3077,
      "▁kilit": 3078,
      "▁oyunu": 3079,
      "##bin": 3080,
      "▁fit": 3081,
      "▁cog": 3082,
      "▁endise": 3083,
      "▁alıyordu": 3084,
      "##ugun": 3085,
      "##indan": 3086,
      "▁degildim": 3087,
      "▁herhan": 3088,
      "▁dug": 3089,
      "▁petersburg": 3090,
      "▁coban": 3091,
      "▁sıy": 3092,
      "▁hızla": 3093,
      "▁britan": 3094,
      "▁uyuy": 3095,
      "##d": 3096,
      "▁elini": 3097,
      "▁bilinen": 3098,
      "▁alacak": 3099,
      "▁satıs": 3100,
      "##3.8": 3101,
      "▁alt": 3102,
      "▁bany": 3103,
      "##38": 3104,
      "▁etmisti": 3105,
      "▁belir": 3106,
      "▁yurtdı": 3107,
      "▁fu": 3108,
      "##aturk": 3109,
      "##ilerle": 3110,
      "▁58": 3111,
      "▁sinem": 3112,
      "▁burbank": 3113,
      "▁faturam": 3114,
      "##bakır": 3115,
      "▁dah": 3116,
      "##rar": 3117,
      "▁neler": 3118,
      "##60": 3119,
      "▁yatırımcılar": 3120,
      "▁600": 3121,
      "▁incel": 3122,
      "▁rahat": 3123,
      "##amıstı": 3124,
      "▁yıl": 3125,
      "▁attıgı": 3126,
      "▁gelin": 3127,
      "▁genellikle": 3128,
      "##inde": 3129,
      "##oya": 3130,
      "▁1991": 3131,
      "▁muhar": 3132,
      "▁sıng": 3133,
      "▁acıl": 3134,
      ".": 3135,
      "▁yatırım": 3136,
      "▁gorun": 3137,
      "##par": 3138,
      "##ob": 3139,
      "▁spekul": 3140,
      "▁egz": 3141,
      "##asa": 3142,
      "▁%1.7": 3143,
      "##sam": 3144,
      "0": 3145,
      "##maktan": 3146,
      "▁hukumeti": 3147,
      "▁sayf": 3148,
      "▁mo": 3149,
      "▁kaldim": 3150,
      "▁satın": 3151,
      "▁kendisi": 3152,
      "▁jos": 3153,
      "|": 3154,
      "▁ikimiz": 3155,
      "▁komitesi": 3156,
      "▁cleveland": 3157,
      "▁bizde": 3158,
      "▁tec": 3159,
      "▁corp.": 3160,
      "##gis": 3161,
      "▁erk": 3162,
      "▁bastan": 3163,
      "##tu": 3164,
      "▁koc": 3165,
      "##kal": 3166,
      "##su": 3167,
      "##ul": 3168,
      "▁sab": 3169,
      "▁sakat": 3170,
      "▁kaldı": 3171,
      "▁jon": 3172,
      "▁suruk": 3173,
      "##arlar": 3174,
      "l": 3175,
      "##esiyle": 3176,
      "▁bes": 3177,
      "##yiz": 3178,
      "▁tum": 3179,
      "▁basv": 3180,
      "▁vadeli": 3181,
      "▁oak": 3182,
      "▁99": 3183,
      "▁rady": 3184,
      "▁rol": 3185,
      "▁yargı": 3186,
      "▁gir": 3187,
      "▁surekli": 3188,
      "▁sıkıntı": 3189,
      "▁bilmez": 3190,
      "▁tab": 3191,
      "##alardan": 3192,
      "▁delta": 3193,
      "▁gunumuz": 3194,
      "▁kidder": 3195,
      "##anla": 3196,
      "▁sal": 3197,
      "▁stan": 3198,
      "▁suret": 3199,
      "##'a": 3200,
      "##ah": 3201,
      "##ogram": 3202,
      "▁%7.5": 3203,
      "▁hız": 3204,
      "▁anlay": 3205,
      "▁%7.8": 3206,
      "▁francisco'ya": 3207,
      "▁lezzetli": 3208,
      "▁8.3": 3209,
      "▁goz": 3210,
      "##inda": 3211,
      "‘": 3212,
      "▁taraftar": 3213,
      "##ahtar": 3214,
      "▁sert": 3215,
      "▁bulun": 3216,
      "▁vır": 3217,
      "▁sif": 3218,
      "▁chp": 3219,
      "▁7.5": 3220,
      "▁belediye": 3221,
      "▁plas": 3222,
      "▁gidip": 3223,
      "▁eder": 3224,
      "▁yarıs": 3225,
      "##lt": 3226,
      "▁personelin": 3227,
      "▁mol": 3228,
      "▁kok": 3229,
      "▁10": 3230,
      "▁bulus": 3231,
      "▁350": 3232,
      "▁guc": 3233,
      "##gar": 3234,
      "▁uretimi": 3235,
      "▁33": 3236,
      "▁cık": 3237,
      "▁gecir": 3238,
      "##amıs": 3239,
      "▁1\\/8": 3240,
      "▁cıg": 3241,
      "▁ticari": 3242,
      "▁basladı": 3243,
      "▁memnunum": 3244,
      "▁kelime": 3245,
      "▁hepsinin": 3246,
      "▁oda": 3247,
      "▁kazandı": 3248,
      "▁edilen": 3249,
      "##agının": 3250,
      "##ram": 3251,
      "▁vad": 3252,
      "▁/": 3253,
      "▁?..": 3254,
      "▁salon": 3255,
      "▁bogaz": 3256,
      "##32": 3257,
      "##kırk": 3258,
      "▁uslu": 3259,
      "▁cle": 3260,
      "▁cıkarıp": 3261,
      "▁anadolu": 3262,
      "▁76": 3263,
      "▁bugune": 3264,
      "▁140": 3265,
      "▁kimden": 3266,
      "##enn": 3267,
      "▁tıklım": 3268,
      "▁petersburg'a": 3269,
      "▁hik": 3270,
      "▁kesin": 3271,
      "▁acıklama": 3272,
      "▁tay": 3273,
      "▁demokrat": 3274,
      "▁hanimdi": 3275,
      "▁suren": 3276,
      "▁ailesi": 3277,
      "▁dobra": 3278,
      "▁yolunu": 3279,
      "▁44": 3280,
      "##ulugun": 3281,
      "▁endi": 3282,
      "▁ayakta": 3283,
      "##ıb": 3284,
      "▁cem": 3285,
      "▁nash": 3286,
      "▁tıpıs": 3287,
      "▁yemis": 3288,
      "##ven": 3289,
      "▁nadir": 3290,
      "##-23": 3291,
      "##ern": 3292,
      "▁ucreti": 3293,
      "▁art": 3294,
      "▁bitir": 3295,
      "##ısık": 3296,
      "▁yapma": 3297,
      "##edil": 3298,
      "▁1989-": 3299,
      "▁makam": 3300,
      "▁olunca": 3301,
      "##akende": 3302,
      "▁nereden": 3303,
      "▁kurtar": 3304,
      "▁hij": 3305,
      "▁takır": 3306,
      "##likleri": 3307,
      "▁hes": 3308,
      "##af": 3309,
      "▁birincisi": 3310,
      "##unda": 3311,
      "▁fatur": 3312,
      "##ev": 3313,
      "▁istedigim": 3314,
      "▁kardesi": 3315,
      "▁united": 3316,
      "##ıma": 3317,
      "▁asagıda": 3318,
      "▁dem": 3319,
      "##larında": 3320,
      "▁ogren": 3321,
      "##imdi": 3322,
      "▁ora": 3323,
      "▁dalgın": 3324,
      "▁calısmaya": 3325,
      "▁cagr": 3326,
      "▁ulas": 3327,
      "▁konus": 3328,
      "▁gozden": 3329,
      "▁partiler": 3330,
      "▁sabır": 3331,
      "##luk": 3332,
      "▁kıtır": 3333,
      "▁vade": 3334,
      "▁uzerinden": 3335,
      "▁0": 3336,
      "▁sorunun": 3337,
      "##hane": 3338,
      "▁hucr": 3339,
      "▁adamın": 3340,
      "▁gide": 3341,
      "▁gecik": 3342,
      "▁olaganustu": 3343,
      "▁laci": 3344,
      "▁sis": 3345,
      "▁yuruy": 3346,
      "▁oynat": 3347,
      "##lasyon": 3348,
      "▁nisp": 3349,
      "▁kr": 3350,
      "▁misafirimiz": 3351,
      "▁mev": 3352,
      "▁dolar": 3353,
      "▁meyv": 3354,
      "▁cekici": 3355,
      "##iyet": 3356,
      "▁gozleri": 3357,
      "▁soyles": 3358,
      "▁con": 3359,
      "▁idare": 3360,
      "▁87": 3361,
      "▁cıkar": 3362,
      "▁1991-19": 3363,
      "▁imkan": 3364,
      "▁'li": 3365,
      "##pan": 3366,
      "▁tam": 3367,
      "##(": 3368,
      "##lanan": 3369,
      "▁daima": 3370,
      "##cak": 3371,
      "▁saf": 3372,
      "##digi": 3373,
      "▁american": 3374,
      "'": 3375,
      "##bir": 3376,
      "▁eylul": 3377,
      "##esindeki": 3378,
      "▁hangisi": 3379,
      "##ahh": 3380,
      "▁dib": 3381,
      "▁parlak": 3382,
      "▁73": 3383,
      "▁pantol": 3384,
      "▁yasıyor": 3385,
      "▁nor": 3386,
      "▁oncesi": 3387,
      "##.00": 3388,
      "▁mevz": 3389,
      "▁yedi": 3390,
      "▁ustune": 3391,
      "▁tanıs": 3392,
      "##acagız": 3393,
      "##teb": 3394,
      "##mıyorum": 3395,
      "▁=": 3396,
      "▁kil": 3397,
      "##sız": 3398,
      "##'ın": 3399,
      "▁sozcusu": 3400,
      "▁katı": 3401,
      "▁istifa": 3402,
      "##endim": 3403,
      "##lıgından": 3404,
      "##seksen": 3405,
      "▁war": 3406,
      "▁sayı": 3407,
      "▁siir": 3408,
      "##z": 3409,
      "▁dilim": 3410,
      "▁107": 3411,
      "▁ual": 3412,
      "▁kalma": 3413,
      "▁500": 3414,
      "▁elbet": 3415,
      "▁25": 3416,
      "▁mendi": 3417,
      "##misti": 3418,
      "##ate": 3419,
      "▁gumbur": 3420,
      "▁sohret": 3421,
      "▁1/2": 3422,
      "▁val": 3423,
      "▁calismas": 3424,
      "##ee": 3425,
      "##lass": 3426,
      "▁devletin": 3427,
      "##gından": 3428,
      "##ımızdan": 3429,
      "▁bask": 3430,
      "▁kasım": 3431,
      "▁un": 3432,
      "##phia": 3433,
      "##'den": 3434,
      "##ın": 3435,
      "▁pantolon": 3436,
      "##ekler": 3437,
      "▁diy": 3438,
      "▁cıkardı": 3439,
      "##ıda": 3440,
      "▁tertemiz": 3441,
      "▁rakı": 3442,
      "▁tesaduf": 3443,
      "##larını": 3444,
      "▁kade": 3445,
      "▁mahs": 3446,
      "▁meyal": 3447,
      "▁montreal": 3448,
      "##andan": 3449,
      "##ılıyor": 3450,
      "▁suc": 3451,
      "▁yukselt": 3452,
      "##b.": 3453,
      "▁donmus": 3454,
      "▁olmasa": 3455,
      "▁karsın": 3456,
      "▁konforlu": 3457,
      "▁sehre": 3458,
      "##ess": 3459,
      "▁9": 3460,
      "▁tırman": 3461,
      "▁80": 3462,
      "▁rich": 3463,
      "##onel": 3464,
      "▁sayisi": 3465,
      "##maması": 3466,
      "▁fak": 3467,
      "▁tesekkur": 3468,
      "▁calısıyordu": 3469,
      "▁cunku": 3470,
      "▁tarif": 3471,
      "▁yavas": 3472,
      "##sik": 3473,
      "▁zincir": 3474,
      "##egim": 3475,
      "##raf": 3476,
      "▁allak": 3477,
      "▁girmis": 3478,
      "▁birlestir": 3479,
      "▁yaptik": 3480,
      "▁ihracı": 3481,
      "▁oldur": 3482,
      "▁eser": 3483,
      "▁yurt": 3484,
      "##gmen": 3485,
      "##°": 3486,
      "▁sonuna": 3487,
      "▁sirketinin": 3488,
      "▁lı": 3489,
      "##lbu": 3490,
      "▁pırıl": 3491,
      "▁i": 3492,
      "▁fikir": 3493,
      "▁man": 3494,
      "▁degisiklikler": 3495,
      "▁7\\/8": 3496,
      "▁haket": 3497,
      "▁yas": 3498,
      "▁yag": 3499,
      "▁temmuz": 3500,
      "▁ipotek": 3501,
      "▁pufur": 3502,
      "▁adina": 3503,
      "▁vatandas": 3504,
      "▁ili": 3505,
      "##mamak": 3506,
      "##alık": 3507,
      "▁3": 3508,
      "##lemeye": 3509,
      "##amb": 3510,
      "’": 3511,
      "##eydi": 3512,
      "▁kasıgı": 3513,
      "##tir": 3514,
      "##88": 3515,
      "▁yarar": 3516,
      "▁dizi": 3517,
      "▁market": 3518,
      "▁baz": 3519,
      "▁saglıyor": 3520,
      "▁kasım'da": 3521,
      "▁jur": 3522,
      "▁artarak": 3523,
      "▁tar": 3524,
      "▁ord": 3525,
      "▁rakamlar": 3526,
      "▁lar": 3527,
      "▁yuksekti": 3528,
      "##au": 3529,
      "▁halı": 3530,
      "▁onlarla": 3531,
      "▁edilmesi": 3532,
      "▁alk": 3533,
      "##imizin": 3534,
      "▁annemin": 3535,
      "▁kalabal": 3536,
      "▁diye": 3537,
      "▁cadır": 3538,
      "▁0.7": 3539,
      "▁diyen": 3540,
      "▁faydalan": 3541,
      "##h": 3542,
      "▁catıs": 3543,
      "##rin": 3544,
      "▁mini": 3545,
      "▁kendinde": 3546,
      "▁edecek": 3547,
      "##cekti": 3548,
      "▁erkekler": 3549,
      "▁hayata": 3550,
      "▁olacaktır": 3551,
      "▁uluslar": 3552,
      "▁plani": 3553,
      "▁gormedim": 3554,
      "▁capında": 3555,
      "##5000": 3556,
      "▁kalitesinden": 3557,
      "##anın": 3558,
      "▁del": 3559,
      "##hur": 3560,
      "▁saatleri": 3561,
      "▁mahkeme": 3562,
      "▁tesp": 3563,
      "##br": 3564,
      "##|": 3565,
      "▁giris": 3566,
      "▁sehrin": 3567,
      "▁hayran": 3568,
      "▁109": 3569,
      "▁kalb": 3570,
      "▁som": 3571,
      "▁muhaf": 3572,
      "##asının": 3573,
      "▁resim": 3574,
      "▁ediyordu": 3575,
      "▁tutum": 3576,
      "▁cizgi": 3577,
      "▁hen": 3578,
      "##'n": 3579,
      "▁sizinle": 3580,
      "▁oglu": 3581,
      "▁ihrac": 3582,
      "▁kaba": 3583,
      "##ekim": 3584,
      "▁borsa": 3585,
      "##anet": 3586,
      "▁milyar": 3587,
      "▁pers": 3588,
      "##0": 3589,
      "▁yanına": 3590,
      "##amayan": 3591,
      "##ihan": 3592,
      "▁havayollarının": 3593,
      "▁bileti": 3594,
      "##olog": 3595,
      "▁yapılandır": 3596,
      "▁tad": 3597,
      "▁yakin": 3598,
      "▁asl": 3599,
      "▁seyrediyor": 3600,
      "▁yardımcısı": 3601,
      "##eder": 3602,
      "▁kendiler": 3603,
      "▁84": 3604,
      "▁cetin": 3605,
      "▁kendimde": 3606,
      "▁bakıs": 3607,
      "▁sermaye": 3608,
      "▁p": 3609,
      "##ısında": 3610,
      "▁det": 3611,
      "▁unut": 3612,
      "▁yonetici": 3613,
      "▁no": 3614,
      "▁hasar": 3615,
      "▁merkez": 3616,
      "▁fiyat": 3617,
      "▁oy": 3618,
      "▁gogsun": 3619,
      "##.6": 3620,
      "▁yeter": 3621,
      "▁atlanta'da": 3622,
      "▁paz": 3623,
      "##iyi": 3624,
      "▁fok": 3625,
      "▁dolarlık": 3626,
      "▁baslayan": 3627,
      "##ısı": 3628,
      "▁yen": 3629,
      "▁olmadan": 3630,
      "▁ayn": 3631,
      "▁begen": 3632,
      "##uler": 3633,
      "##bul": 3634,
      "▁acele": 3635,
      "▁adına": 3636,
      "▁ekonomik": 3637,
      "▁bolumu": 3638,
      "▁colum": 3639,
      "▁ken": 3640,
      "##'lik": 3641,
      "▁dengesi": 3642,
      "▁pul": 3643,
      "▁agır": 3644,
      "▁kid": 3645,
      "▁yenilen": 3646,
      "▁teor": 3647,
      "##yla": 3648,
      "▁harc": 3649,
      "▁ekipman": 3650,
      "▁ted": 3651,
      "▁vas": 3652,
      "▁boyut": 3653,
      "▁altına": 3654,
      "▁kırmızı": 3655,
      "▁gerc": 3656,
      "▁kom": 3657,
      "▁artısla": 3658,
      "##ediy": 3659,
      "▁yapmıs": 3660,
      "##zet": 3661,
      "▁alev": 3662,
      "▁orta": 3663,
      "▁list": 3664,
      "▁sovyet": 3665,
      "▁tehlik": 3666,
      "##tıkları": 3667,
      "##orn": 3668,
      "▁numaralı": 3669,
      "##azı": 3670,
      "##do": 3671,
      "▁icecekleri": 3672,
      "▁olsa": 3673,
      "##seniz": 3674,
      "##elikle": 3675,
      "##ledik": 3676,
      "▁gozlerini": 3677,
      "##uy": 3678,
      "▁nefret": 3679,
      "##ding": 3680,
      "▁muhim": 3681,
      "▁zırt": 3682,
      "▁philadelphia": 3683,
      "▁satır": 3684,
      "▁cit": 3685,
      "▁yol": 3686,
      "▁kedi": 3687,
      "##lasma": 3688,
      "▁saglayacak": 3689,
      "▁enerj": 3690,
      "▁%3.": 3691,
      "##lisi": 3692,
      "##yle": 3693,
      "▁county": 3694,
      "▁seattle": 3695,
      "##ati": 3696,
      "▁miami'ye": 3697,
      "▁teh": 3698,
      "▁yolc": 3699,
      "▁gosterir": 3700,
      "##i": 3701,
      "▁vir": 3702,
      "▁kansas": 3703,
      "▁emin": 3704,
      "▁sapk": 3705,
      "##agına": 3706,
      "▁park": 3707,
      "▁goc": 3708,
      "▁sozcu": 3709,
      "▁cat": 3710,
      "▁yaratı": 3711,
      "##ulması": 3712,
      "▁sektor": 3713,
      "▁gorevl": 3714,
      "▁karsiligini": 3715,
      "▁muhafaz": 3716,
      "▁amerik": 3717,
      "▁tahviller": 3718,
      "▁6.4": 3719,
      "▁rezervasyonu": 3720,
      "▁sahipti": 3721,
      "▁bas": 3722,
      "▁zorlu": 3723,
      "##%": 3724,
      "▁475": 3725,
      "▁istanbul'a": 3726,
      "##ıyor": 3727,
      "▁yarın": 3728,
      "##6": 3729,
      "▁fiyatlar": 3730,
      "##eyle": 3731,
      "▁gozluk": 3732,
      "▁artır": 3733,
      "##ina": 3734,
      "▁kalkıp": 3735,
      "▁yesil": 3736,
      "▁ust": 3737,
      "▁geldim": 3738,
      "▁eglenceli": 3739,
      "▁mart": 3740,
      "▁istanbul'da": 3741,
      "▁bayrak": 3742,
      "▁yuklen": 3743,
      "##ark": 3744,
      "▁vi": 3745,
      "▁katkıda": 3746,
      "##lugu": 3747,
      "##ıyı": 3748,
      "##00000": 3749,
      "▁aileye": 3750,
      "▁yetistir": 3751,
      "##pe": 3752,
      "▁birinden": 3753,
      "▁sanayi": 3754,
      "▁tartıs": 3755,
      "▁yukarı": 3756,
      "▁onem": 3757,
      "##ori": 3758,
      "▁kıs": 3759,
      "▁general": 3760,
      "▁bindokuzyuz": 3761,
      "▁cir": 3762,
      "▁etkili": 3763,
      "▁aqu": 3764,
      "▁basına": 3765,
      "▁55": 3766,
      "▁satım": 3767,
      "▁kost": 3768,
      "##unden": 3769,
      "▁saati": 3770,
      "##emis": 3771,
      "▁erkenden": 3772,
      "▁muam": 3773,
      "▁kak": 3774,
      "▁gelen": 3775,
      "▁yer": 3776,
      "▁j": 3777,
      "▁mah": 3778,
      "▁ikibiniki": 3779,
      "##*": 3780,
      "▁ciftlik": 3781,
      "▁etmistir": 3782,
      "▁tr": 3783,
      "▁ikibin": 3784,
      "##8": 3785,
      "##amıyor": 3786,
      "▁universite": 3787,
      "▁kıy": 3788,
      "▁yoksun": 3789,
      "▁doktor": 3790,
      "▁tası": 3791,
      "▁baslan": 3792,
      "▁dusuyor": 3793,
      "##dıkca": 3794,
      "▁57": 3795,
      "##acık": 3796,
      "▁kurum": 3797,
      "▁haksız": 3798,
      "▁arıyorum": 3799,
      "##dirde": 3800,
      "▁dol": 3801,
      "##.2": 3802,
      "##elerinin": 3803,
      "▁13.": 3804,
      "▁listesini": 3805,
      "##emiz": 3806,
      "▁muc": 3807,
      "▁tes": 3808,
      "##.45": 3809,
      "##omet": 3810,
      "##chester": 3811,
      "##ecegi": 3812,
      "▁harika": 3813,
      "▁ilgisi": 3814,
      "##ya": 3815,
      "▁donuk": 3816,
      "##ebilir": 3817,
      "##arken": 3818,
      "▁yatırımcıları": 3819,
      "▁pahalı": 3820,
      "▁degilsiniz": 3821,
      "▁birlikte": 3822,
      "▁yasa": 3823,
      "▁mendil": 3824,
      "▁fıldır": 3825,
      "▁hin": 3826,
      "▁duydum": 3827,
      "▁bab": 3828,
      "##cut": 3829,
      "▁yuzunde": 3830,
      "▁niye": 3831,
      "▁arabalar": 3832,
      "▁oranında": 3833,
      "▁dok": 3834,
      "▁yanı": 3835,
      "▁hata": 3836,
      "▁yaptim": 3837,
      "▁fr": 3838,
      "##ilerdi": 3839,
      "##yse": 3840,
      "▁gonder": 3841,
      "▁sag": 3842,
      "▁yetersizdi": 3843,
      "▁baglı": 3844,
      "##“": 3845,
      "▁performans": 3846,
      "▁tatildi": 3847,
      "▁tarafı": 3848,
      "▁musait": 3849,
      "▁hisselerin": 3850,
      "▁kulak": 3851,
      "##p": 3852,
      "##anti": 3853,
      "##ikti": 3854,
      "▁jour": 3855,
      "##ota": 3856,
      "▁avrupa": 3857,
      "▁temettu": 3858,
      "▁hulya": 3859,
      "##$": 3860,
      "##2-23": 3861,
      "▁sohbet": 3862,
      "▁duzen": 3863,
      "##dıktan": 3864,
      "##inizi": 3865,
      "▁masanın": 3866,
      "##lil": 3867,
      "▁teminat": 3868,
      "##tıklarını": 3869,
      "##ti": 3870,
      "▁performan": 3871,
      "▁internet": 3872,
      "##gum": 3873,
      "▁birinci": 3874,
      "##tıktan": 3875,
      "##lah": 3876,
      "▁tuketici": 3877,
      "▁sov": 3878,
      "▁carsamba": 3879,
      "▁des": 3880,
      "▁bilgisay": 3881,
      "▁super": 3882,
      "##aladı": 3883,
      "▁alkol": 3884,
      "##egini": 3885,
      "▁simdiye": 3886,
      "▁edilem": 3887,
      "▁senedi": 3888,
      "▁cob": 3889,
      "▁fısır": 3890,
      "▁program": 3891,
      "▁konu": 3892,
      "▁kimse": 3893,
      "▁%3.4": 3894,
      "##cusu": 3895,
      "##'y": 3896,
      "▁tamamen": 3897,
      "▁sam": 3898,
      "▁lacivert": 3899,
      "▁anlasma": 3900,
      "▁kahval": 3901,
      "▁demokratik": 3902,
      "##arım": 3903,
      "##ita": 3904,
      "##medigini": 3905,
      "▁law": 3906,
      "▁ornek": 3907,
      "▁porcuk": 3908,
      "▁yuzlerce": 3909,
      "##eligi": 3910,
      "▁'de": 3911,
      "▁aqua": 3912,
      "▁kasır": 3913,
      "▁kardesim": 3914,
      "##ırtı": 3915,
      "▁taban": 3916,
      "▁ates": 3917,
      "##tere": 3918,
      "▁varan": 3919,
      "▁saclarını": 3920,
      "##kırı": 3921,
      "▁yasat": 3922,
      "▁iliski": 3923,
      "▁kıvr": 3924,
      "▁sız": 3925,
      "▁bize": 3926,
      "▁guleryuz": 3927,
      "▁hakları": 3928,
      "▁bozuk": 3929,
      "▁yak": 3930,
      "▁olmasi": 3931,
      "▁dusen": 3932,
      "▁katildim": 3933,
      "▁kum": 3934,
      "▁ornegin": 3935,
      "▁gıldır": 3936,
      "▁babasının": 3937,
      "##ektif": 3938,
      "▁iyi": 3939,
      "▁olumlu": 3940,
      "▁kosulları": 3941,
      "▁boya": 3942,
      "▁alabil": 3943,
      "##ga": 3944,
      "▁ge": 3945,
      "##esinden": 3946,
      "▁lideri": 3947,
      "▁kapat": 3948,
      "▁hepsi": 3949,
      "▁bıc": 3950,
      "x": 3951,
      "▁phoenix'den": 3952,
      "▁ded": 3953,
      "▁3.7": 3954,
      "▁bunda": 3955,
      "▁metre": 3956,
      "▁kendime": 3957,
      "▁analistler": 3958,
      "▁dakikada": 3959,
      "##4.5": 3960,
      "▁secenek": 3961,
      "▁anlamak": 3962,
      "▁sapır": 3963,
      "▁425": 3964,
      "▁klas": 3965,
      "▁dokun": 3966,
      "▁kamp": 3967,
      "▁med": 3968,
      "▁kars": 3969,
      "##ibe": 3970,
      "▁bulunuyor": 3971,
      "▁hisselerini": 3972,
      "▁denizin": 3973,
      "▁planı": 3974,
      "##1-": 3975,
      "▁129": 3976,
      "▁mal": 3977,
      "▁gidiyorum": 3978,
      "▁tıp": 3979,
      "##ald": 3980,
      "o": 3981,
      "##amıyorum": 3982,
      "▁savunma": 3983,
      "##ikler": 3984,
      "▁22": 3985,
      "▁dam": 3986,
      "▁merkezli": 3987,
      "▁dusun": 3988,
      "##ona": 3989,
      "▁b.": 3990,
      "▁tarafa": 3991,
      "▁z": 3992,
      "▁gonul": 3993,
      "▁doner": 3994,
      "▁dusunuyor": 3995,
      "▁evet": 3996,
      "##mer": 3997,
      "##mis": 3998,
      "▁num": 3999,
      "▁asık": 4000,
      "▁hızlı": 4001,
      "▁ertesi": 4002,
      "▁universit": 4003,
      "▁korumak": 4004,
      "##ını": 4005,
      "▁cez": 4006,
      "▁tedav": 4007,
      "▁birimi": 4008,
      "▁endisel": 4009,
      "▁alıcı": 4010,
      "▁me": 4011,
      "▁sark": 4012,
      "▁cami": 4013,
      "▁airlin": 4014,
      "▁hakkında": 4015,
      "##ph": 4016,
      "▁gozlerim": 4017,
      "##net": 4018,
      "▁avrupalı": 4019,
      "##dım": 4020,
      "▁og": 4021,
      "##tiler": 4022,
      "▁mor": 4023,
      "▁don": 4024,
      "▁26": 4025,
      "▁ikiyuz": 4026,
      "##tif": 4027,
      "▁first": 4028,
      "▁teb": 4029,
      "▁kızı": 4030,
      "▁cas": 4031,
      "▁tatli": 4032,
      "##wood": 4033,
      "▁degilsin": 4034,
      "▁yakından": 4035,
      "▁dolayı": 4036,
      "▁eroin": 4037,
      "##iber": 4038,
      "##alandır": 4039,
      "##mini": 4040,
      "▁degisik": 4041,
      "▁tuy": 4042,
      "▁185": 4043,
      "▁1961": 4044,
      "▁ureticisi": 4045,
      "@": 4046,
      "▁yapar": 4047,
      "▁brit": 4048,
      "##nal": 4049,
      "▁olmadi": 4050,
      "▁termal": 4051,
      "##ledigi": 4052,
      "▁34": 4053,
      "##on": 4054,
      "##'u": 4055,
      "▁engel": 4056,
      "▁2005": 4057,
      "▁impar": 4058,
      "##ıcı": 4059,
      "▁yuvar": 4060,
      "▁vardı": 4061,
      "▁heyecan": 4062,
      "▁usul": 4063,
      "▁if": 4064,
      "##uar": 4065,
      "▁ex": 4066,
      "▁kahvaltisi": 4067,
      "▁ayrıntı": 4068,
      "##.70": 4069,
      "▁tun": 4070,
      "▁kur": 4071,
      "▁aksam": 4072,
      "▁otobus": 4073,
      "##.19": 4074,
      "▁ister": 4075,
      "▁kent": 4076,
      "▁senin": 4077,
      "▁zey": 4078,
      "▁yapabilir": 4079,
      "▁isini": 4080,
      "▁city": 4081,
      "##.4": 4082,
      "▁bakanlıgı": 4083,
      "▁olmadıgını": 4084,
      "▁isleri": 4085,
      "▁birer": 4086,
      "▁kesti": 4087,
      "▁ilgisiz": 4088,
      "##0.4": 4089,
      "##ume": 4090,
      "##:00": 4091,
      "▁uzerindeki": 4092,
      "▁seviy": 4093,
      "▁olmas": 4094,
      "##ograf": 4095,
      "▁allah": 4096,
      "##tik": 4097,
      "▁46": 4098,
      "▁saatte": 4099,
      "##iste": 4100,
      "▁saatlerce": 4101,
      "▁limon": 4102,
      "▁kahkah": 4103,
      "▁titr": 4104,
      "▁degismedi": 4105,
      "▁bl": 4106,
      "▁67": 4107,
      "▁tuccar": 4108,
      "##.05": 4109,
      "▁financi": 4110,
      "▁fiyatlandır": 4111,
      "▁olmak": 4112,
      "▁kazancları": 4113,
      "▁hikay": 4114,
      "##ub": 4115,
      "▁malzem": 4116,
      "▁yanında": 4117,
      "▁hale": 4118,
      "▁tanık": 4119,
      "##ende": 4120,
      "▁aykırı": 4121,
      "##masında": 4122,
      "▁baslı": 4123,
      "##li": 4124,
      "▁%10": 4125,
      "▁w": 4126,
      "##ast": 4127,
      "▁memph": 4128,
      "▁ard": 4129,
      "▁rum": 4130,
      "▁bende": 4131,
      "▁gum": 4132,
      "##aber": 4133,
      "▁bisik": 4134,
      "▁ortasında": 4135,
      "##lardı": 4136,
      "▁servisi": 4137,
      "▁nedeni": 4138,
      "▁32": 4139,
      "▁avukatlar": 4140,
      "▁izliyor": 4141,
      "##ayi": 4142,
      "▁hot": 4143,
      "▁haf": 4144,
      "▁salat": 4145,
      "▁iddia": 4146,
      "▁adını": 4147,
      "##lesti": 4148,
      "▁makaleye": 4149,
      "##istin": 4150,
      "##ladım": 4151,
      "▁iskont": 4152,
      "▁yalan": 4153,
      "▁fiili": 4154,
      "▁28": 4155,
      "▁nitelik": 4156,
      "▁tu": 4157,
      "▁fırıl": 4158,
      "▁52": 4159,
      "▁%17": 4160,
      "▁boynun": 4161,
      "##landır": 4162,
      "##madıgını": 4163,
      "▁havaalanı": 4164,
      "▁ustelik": 4165,
      "▁yaklasık": 4166,
      "##bus": 4167,
      "▁alamadim": 4168,
      "▁uzum": 4169,
      "▁prens": 4170,
      "▁atlanta": 4171,
      "▁pahaliydi": 4172,
      "▁..\"": 4173,
      "▁seyleri": 4174,
      "▁bulunan": 4175,
      "▁olmasına": 4176,
      "▁cocuklara": 4177,
      "▁ceyrek": 4178,
      "▁once": 4179,
      "▁sevgil": 4180,
      "##tuk": 4181,
      "##sek": 4182,
      "▁sec": 4183,
      "▁devr": 4184,
      "##na": 4185,
      "##sini": 4186,
      "▁sahneye": 4187,
      "▁air": 4188,
      "▁75": 4189,
      "##ından": 4190,
      "▁esn": 4191,
      "▁isken": 4192,
      "▁imal": 4193,
      "##var": 4194,
      "▁hus": 4195,
      "##isinden": 4196,
      "##ecekler": 4197,
      "▁yasam": 4198,
      "▁durdur": 4199,
      "▁antr": 4200,
      "▁zor": 4201,
      "▁keskin": 4202,
      "▁um": 4203,
      "##urlar": 4204,
      "▁istedim": 4205,
      "▁sofr": 4206,
      "▁ceh": 4207,
      "▁haldır": 4208,
      "▁kendi": 4209,
      "▁onur": 4210,
      "▁cop": 4211,
      "##gunu": 4212,
      "##lıdır": 4213,
      "##giniz": 4214,
      "▁ustunden": 4215,
      "▁fazlasını": 4216,
      "▁baglan": 4217,
      "▁fikri": 4218,
      "▁red": 4219,
      "a": 4220,
      "▁mot": 4221,
      "##ot": 4222,
      "▁verir": 4223,
      "##lasan": 4224,
      "▁siddet": 4225,
      "##ud": 4226,
      "▁eyalet": 4227,
      "▁hayatını": 4228,
      "▁konum": 4229,
      "▁mektep": 4230,
      "##sem": 4231,
      "▁61": 4232,
      "▁yara": 4233,
      "▁mars": 4234,
      "##ilecek": 4235,
      "##vil": 4236,
      "▁olacak": 4237,
      "▁t": 4238,
      "▁senato": 4239,
      "▁yamalak": 4240,
      "##melidir": 4241,
      "▁edil": 4242,
      "▁nesi": 4243,
      "▁tutuk": 4244,
      "▁degeri": 4245,
      "▁1995": 4246,
      "▁yusuf": 4247,
      "▁oakland'dan": 4248,
      "##ydı": 4249,
      "▁muhtem": 4250,
      "▁duk": 4251,
      "##teki": 4252,
      "▁siyah": 4253,
      "▁hepsinden": 4254,
      "+": 4255,
      "▁alakali": 4256,
      "▁mektup": 4257,
      "▁lob": 4258,
      "##uyoruz": 4259,
      "▁ziy": 4260,
      "▁dortyuz": 4261,
      "▁kims": 4262,
      "▁besik": 4263,
      "##lum": 4264,
      "▁bug": 4265,
      "##raz": 4266,
      "▁yarım": 4267,
      "▁bilimsel": 4268,
      "▁pes": 4269,
      "▁aktivit": 4270,
      "▁olmus": 4271,
      "▁care": 4272,
      "▁haftalık": 4273,
      "▁tarihinde": 4274,
      "▁agz": 4275,
      "##'tan": 4276,
      "▁agab": 4277,
      "▁guven": 4278,
      "▁fot": 4279,
      "▁hazırlık": 4280,
      "▁edile": 4281,
      "▁paul": 4282,
      "▁kaymak": 4283,
      "▁muzak": 4284,
      "##liler": 4285,
      "▁afrika": 4286,
      "##uc": 4287,
      "▁ilgin": 4288,
      "▁international": 4289,
      "▁mayıs": 4290,
      "▁paket": 4291,
      "▁ey": 4292,
      "##erk": 4293,
      "▁dısında": 4294,
      "▁oturdu": 4295,
      "▁temizdi": 4296,
      "▁olmam": 4297,
      "▁detay": 4298,
      "▁gunah": 4299,
      "##ust": 4300,
      "▁bardak": 4301,
      "▁duzelt": 4302,
      "##maya": 4303,
      "##unc": 4304,
      "▁surat": 4305,
      "##usun": 4306,
      "▁icki": 4307,
      "▁basında": 4308,
      "▁calar": 4309,
      "▁diler": 4310,
      "##lenen": 4311,
      "##ket": 4312,
      "▁cumartesi": 4313,
      "▁milyardan": 4314,
      "▁...\"": 4315,
      "▁anayasa": 4316,
      "▁milwa": 4317,
      "▁tacoma": 4318,
      "▁insanı": 4319,
      "▁tuttur": 4320,
      "##vert": 4321,
      "▁kararı": 4322,
      "##tın": 4323,
      "▁198": 4324,
      "▁karın": 4325,
      "##ire": 4326,
      "##rut": 4327,
      "▁tit": 4328,
      "▁aln": 4329,
      "▁perakende": 4330,
      "▁hukuk": 4331,
      "▁tanım": 4332,
      "▁pah": 4333,
      "▁yine": 4334,
      "##maz": 4335,
      "▁herif": 4336,
      "▁dert": 4337,
      "▁dost": 4338,
      "▁anne": 4339,
      "▁fir": 4340,
      "▁kalem": 4341,
      "▁ceyr": 4342,
      "▁dustu": 4343,
      "▁herkesin": 4344,
      "##adaki": 4345,
      "▁seksen": 4346,
      "▁sol": 4347,
      "##ilmesi": 4348,
      "##lardır": 4349,
      "##leyici": 4350,
      "▁ugr": 4351,
      "▁kural": 4352,
      "##edef": 4353,
      "##dal": 4354,
      "▁not": 4355,
      "##ilmez": 4356,
      "▁sair": 4357,
      "##;": 4358,
      "▁efendim": 4359,
      "##adel": 4360,
      "▁savası": 4361,
      "##ınca": 4362,
      "▁bizi": 4363,
      "##masını": 4364,
      "##oth": 4365,
      "▁bicim": 4366,
      "▁posta": 4367,
      "▁olabilirdi": 4368,
      "##alanı": 4369,
      "▁7.1": 4370,
      "▁boylu": 4371,
      "##ır": 4372,
      "▁sorustur": 4373,
      "##ciler": 4374,
      "##3.9": 4375,
      "##eviz": 4376,
      "##abil": 4377,
      "▁ets": 4378,
      "##ustri": 4379,
      "▁s": 4380,
      "▁fabrik": 4381,
      "▁gerekti": 4382,
      "##+": 4383,
      "▁agustos'ta": 4384,
      "##dam": 4385,
      "##lamıs": 4386,
      "▁tatlı": 4387,
      "▁hal": 4388,
      "▁reh": 4389,
      "▁durgun": 4390,
      "▁ref": 4391,
      "▁karsıya": 4392,
      "▁ile": 4393,
      "▁seri": 4394,
      "▁aracılıgıyla": 4395,
      "##emem": 4396,
      "▁kamyon": 4397,
      "##agıt": 4398,
      "▁koy": 4399,
      "▁lan": 4400,
      "▁siyas": 4401,
      "▁sekl": 4402,
      "▁buraya": 4403,
      "▁ip": 4404,
      "##wa": 4405,
      "▁cıkan": 4406,
      "##abet": 4407,
      "##ıntı": 4408,
      "▁derec": 4409,
      "▁taks": 4410,
      "▁dedi": 4411,
      "▁geliyordu": 4412,
      "▁ilgil": 4413,
      "##ig": 4414,
      "▁ucretleri": 4415,
      "▁silin": 4416,
      "▁gorusuldu": 4417,
      "▁ogretmen": 4418,
      "▁mat": 4419,
      "▁fat": 4420,
      "▁yolu": 4421,
      "##asını": 4422,
      "▁bit": 4423,
      "▁16": 4424,
      "##'nın": 4425,
      "##leme": 4426,
      "▁ici": 4427,
      "▁ten": 4428,
      "▁ask": 4429,
      "▁miy": 4430,
      "▁im": 4431,
      "▁siparis": 4432,
      "##iski": 4433,
      "▁nufus": 4434,
      "##lardan": 4435,
      "##yız": 4436,
      "##abı": 4437,
      "##00": 4438,
      "▁basım": 4439,
      "▁tefek": 4440,
      "▁unlu": 4441,
      "▁yıllarda": 4442,
      "##eceksin": 4443,
      "▁%14": 4444,
      "▁2.5": 4445,
      "▁it": 4446,
      "▁yab": 4447,
      "▁hatta": 4448,
      "▁anı": 4449,
      "▁sy": 4450,
      "▁sonra": 4451,
      "▁buna": 4452,
      "▁dolayi": 4453,
      "▁turku": 4454,
      "▁aray": 4455,
      "##ıs": 4456,
      "▁ingiltere": 4457,
      "▁traf": 4458,
      "▁tahvilleri": 4459,
      "▁kanal": 4460,
      "▁acent": 4461,
      "▁obur": 4462,
      "▁tekrar": 4463,
      "▁odalar": 4464,
      "▁mısır": 4465,
      "▁nik": 4466,
      "▁tip": 4467,
      "▁197": 4468,
      "##layıp": 4469,
      "▁japon": 4470,
      "▁kek": 4471,
      "▁sıg": 4472,
      "▁kanı": 4473,
      "▁oyuncak": 4474,
      "##ine": 4475,
      "▁bununla": 4476,
      "▁manc": 4477,
      "##ilmis": 4478,
      "##mektedir": 4479,
      "▁proj": 4480,
      "▁1\\/": 4481,
      "▁eglen": 4482,
      "▁isci": 4483,
      "▁odedigim": 4484,
      "##aret": 4485,
      "9": 4486,
      "▁sob": 4487,
      "▁donem": 4488,
      "▁senar": 4489,
      "##suzluk": 4490,
      "▁calısır": 4491,
      "▁harp": 4492,
      "▁omr": 4493,
      "▁kaynagı": 4494,
      "##dıklarını": 4495,
      "▁dallas'ta": 4496,
      "▁frank": 4497,
      "▁4.6": 4498,
      "▁%4.8": 4499,
      "▁dik": 4500,
      "▁vapur": 4501,
      "▁goturdu": 4502,
      "##dem": 4503,
      "▁zayifti": 4504,
      "▁perd": 4505,
      "▁planlam": 4506,
      "##baren": 4507,
      "▁vurgul": 4508,
      "##'s": 4509,
      "##ov": 4510,
      "▁kayb": 4511,
      "▁ucu": 4512,
      "▁hang": 4513,
      "▁nedenlerden": 4514,
      "▁ulkemiz": 4515,
      "##s.": 4516,
      "▁s&p": 4517,
      "##rahim": 4518,
      "##-sat": 4519,
      "▁olmalıydı": 4520,
      "▁huk": 4521,
      "▁devral": 4522,
      "▁biriydi": 4523,
      "##has": 4524,
      "▁balayi": 4525,
      "▁konuk": 4526,
      "▁egemen": 4527,
      "▁maas": 4528,
      "▁merh": 4529,
      "▁detroit'e": 4530,
      "##ch": 4531,
      "##lattı": 4532,
      "▁zira": 4533,
      "##arında": 4534,
      "▁national": 4535,
      "▁meger": 4536,
      "▁bey": 4537,
      "##tıgı": 4538,
      "##gil": 4539,
      "▁ur": 4540,
      "▁tercih": 4541,
      "▁zeytin": 4542,
      "▁ef": 4543,
      "##ırıl": 4544,
      "▁yı": 4545,
      "▁rut": 4546,
      "##esi": 4547,
      "##undaki": 4548,
      "▁matem": 4549,
      "##madan": 4550,
      "▁.8": 4551,
      "▁gayret": 4552,
      "▁resmen": 4553,
      "▁olun": 4554,
      "▁0.1": 4555,
      "▁aktar": 4556,
      "▁bilgisayar": 4557,
      "##bil": 4558,
      "▁uygul": 4559,
      "##memisti": 4560,
      "▁he": 4561,
      "##aydı": 4562,
      "▁temsil": 4563,
      "▁sana": 4564,
      "##mey": 4565,
      "▁nedir": 4566,
      "##gında": 4567,
      "▁ihracat": 4568,
      "##ani": 4569,
      "##yı": 4570,
      "##uye": 4571,
      "▁gercek": 4572,
      "▁canı": 4573,
      "▁fakat": 4574,
      "▁mood": 4575,
      "▁anayas": 4576,
      "▁saatlerde": 4577,
      "▁lok": 4578,
      "▁kemik": 4579,
      "▁kenara": 4580,
      "▁kavram": 4581,
      "▁49": 4582,
      "##endi": 4583,
      "##16": 4584,
      "##laka": 4585,
      "▁yonet": 4586,
      "##cek": 4587,
      "##ash": 4588,
      "##amın": 4589,
      "▁tartısmalar": 4590,
      "▁karg": 4591,
      "▁atan": 4592,
      "▁tahmini": 4593,
      "▁begenmedim": 4594,
      "▁takv": 4595,
      "▁eskiden": 4596,
      "##uz": 4597,
      "▁contin": 4598,
      "##agın": 4599,
      "##iza": 4600,
      "▁etme": 4601,
      "##re": 4602,
      "▁getirir": 4603,
      "##rill": 4604,
      "##let": 4605,
      "▁yardımcı": 4606,
      "##uru": 4607,
      "##lanır": 4608,
      "##'ler": 4609,
      "▁hali": 4610,
      "##rup": 4611,
      "▁fırsat": 4612,
      "##ız": 4613,
      "##dikleri": 4614,
      "▁senator": 4615,
      "##umuz": 4616,
      "▁gidis": 4617,
      "▁dukkan": 4618,
      "▁azdi": 4619,
      "▁ist": 4620,
      "▁bel": 4621,
      "▁portf": 4622,
      "##osunda": 4623,
      "##macı": 4624,
      "▁2002": 4625,
      "(": 4626,
      "▁james": 4627,
      "▁gibi": 4628,
      "▁belli": 4629,
      "##eci": 4630,
      "▁neresi": 4631,
      "▁af": 4632,
      "▁aktarmalı": 4633,
      "##burg": 4634,
      "▁umur": 4635,
      "▁damak": 4636,
      "▁halde": 4637,
      "##akat": 4638,
      "▁icten": 4639,
      "▁43": 4640,
      "##isli": 4641,
      "▁tefe": 4642,
      "▁istiyor": 4643,
      "▁cesitlilik": 4644,
      "▁galib": 4645,
      "▁gon": 4646,
      "g": 4647,
      "▁duvara": 4648,
      "▁olmustu": 4649,
      "▁parayı": 4650,
      "##.25": 4651,
      "▁hedefi": 4652,
      "##emmel": 4653,
      "##bası": 4654,
      "##30": 4655,
      "▁cıkmıs": 4656,
      "▁1989-8": 4657,
      "▁dak": 4658,
      "▁yerinden": 4659,
      "▁sap": 4660,
      "▁washington'a": 4661,
      "▁5-1": 4662,
      "▁adalet": 4663,
      "▁bulmadim": 4664,
      "▁1992": 4665,
      "##undeki": 4666,
      "▁hizmet": 4667,
      "##cel": 4668,
      "▁gonullu": 4669,
      "##alarından": 4670,
      "##rilyon": 4671,
      "▁seg": 4672,
      "##erdi": 4673,
      "▁alb": 4674,
      "##ginden": 4675,
      "##hos": 4676,
      "▁sunuyor": 4677,
      "/": 4678,
      "▁onc": 4679,
      "▁emir": 4680,
      "▁konferans": 4681,
      "▁otelin": 4682,
      "##to": 4683,
      "▁21:00-22:30": 4684,
      "▁duygu": 4685,
      "▁sona": 4686,
      "▁isterim": 4687,
      "##istan": 4688,
      "▁hadi": 4689,
      "▁acıp": 4690,
      "▁geri": 4691,
      "▁bazıların": 4692,
      "▁olur": 4693,
      "▁acil": 4694,
      "▁yonelik": 4695,
      "▁uc": 4696,
      "▁cıkıyor": 4697,
      "▁kapandı": 4698,
      "▁fazla": 4699,
      "▁carol": 4700,
      "▁bosalt": 4701,
      "##elim": 4702,
      "▁aleyh": 4703,
      "▁zar": 4704,
      "▁yerini": 4705,
      "▁zir": 4706,
      "▁protest": 4707,
      "▁piyasada": 4708,
      "▁rehberimiz": 4709,
      "▁chic": 4710,
      "▁7.9": 4711,
      "▁phil": 4712,
      "▁": 4713,
      "##ilerine": 4714,
      "##tiy": 4715,
      "▁kısk": 4716,
      "▁toplum": 4717,
      "▁dolap": 4718,
      "##gın": 4719,
      "▁herhal": 4720,
      "##sanız": 4721,
      "▁sacları": 4722,
      "▁%6.90": 4723,
      "▁kerem": 4724,
      "##ıklı": 4725,
      "▁gerekc": 4726,
      "##aların": 4727,
      "##acı": 4728,
      "##s": 4729,
      "▁havayollarını": 4730,
      "▁umuyor": 4731,
      "▁son": 4732,
      "▁olacagı": 4733,
      "▁basarılı": 4734,
      "▁rez": 4735,
      "n": 4736,
      "▁dus": 4737,
      "▁hacı": 4738,
      "▁dusmus": 4739,
      "▁netic": 4740,
      "▁fıkır": 4741,
      "▁kalmadigim": 4742,
      "##dugunu": 4743,
      "##unku": 4744,
      "▁ulk": 4745,
      "##uf": 4746,
      "▁$": 4747,
      "▁fiyati": 4748,
      "▁hissesi": 4749,
      "▁basit": 4750,
      "##ef": 4751,
      "▁pay": 4752,
      "##'ye": 4753,
      "##paz": 4754,
      "▁ittif": 4755,
      "##sine": 4756,
      "▁sınız": 4757,
      "▁2000": 4758,
      "##inc": 4759,
      "▁ford": 4760,
      "▁uste": 4761,
      "▁bilet": 4762,
      "▁bulmak": 4763,
      "▁yakalan": 4764,
      "▁maliyeti": 4765,
      "##siyon": 4766,
      "▁.)": 4767,
      "▁dısarıda": 4768,
      "▁bahc": 4769,
      "▁acılan": 4770,
      "##abilecegini": 4771,
      "▁haziran": 4772,
      "##emedim": 4773,
      "▁epey": 4774,
      "▁toparlan": 4775,
      "▁eksik": 4776,
      "##edeki": 4777,
      "▁burun": 4778,
      "▁kul": 4779,
      "▁bakan": 4780,
      "▁aldır": 4781,
      "##raj": 4782,
      "▁dolasır": 4783,
      "▁kampan": 4784,
      "##ısız": 4785,
      "▁ediyor": 4786,
      "▁%22": 4787,
      "##ter": 4788,
      "##ren": 4789,
      "▁edecegini": 4790,
      "▁pan": 4791,
      "▁haz": 4792,
      "▁fransız": 4793,
      "▁komisyonlar": 4794,
      "▁belirli": 4795,
      "▁sekil": 4796,
      "▁tex": 4797,
      "##rik": 4798,
      "▁abd'nin": 4799,
      "▁ruh": 4800,
      "▁olcu": 4801,
      "▁bilgilendir": 4802,
      "▁dık": 4803,
      "▁ab": 4804,
      "▁%8": 4805,
      "▁bundan": 4806,
      "▁gunler": 4807,
      "▁takip": 4808,
      "▁ordu": 4809,
      "##tık": 4810,
      "▁hut": 4811,
      "▁ele": 4812,
      "▁mutluluk": 4813,
      "▁cıyak": 4814,
      "##'daki": 4815,
      "▁mur": 4816,
      "▁sac": 4817,
      "▁oakland'a": 4818,
      "▁gosterebilir": 4819,
      "▁satıslar": 4820,
      "▁fiyatları": 4821,
      "▁mutf": 4822,
      "▁paylas": 4823,
      "▁su": 4824,
      "▁tom": 4825,
      "▁gucu": 4826,
      "▁halka": 4827,
      "##ore": 4828,
      "▁veririm": 4829,
      "##cıları": 4830,
      "▁masal": 4831,
      "▁beklentim": 4832,
      "##lim": 4833,
      "▁hav": 4834,
      "##erve": 4835,
      "##mıstır": 4836,
      "▁mitchell": 4837,
      "▁yuzden": 4838,
      "▁marka": 4839,
      "##artesi": 4840,
      "##2:30": 4841,
      "▁tadi": 4842,
      "▁korfez": 4843,
      "##ınızı": 4844,
      "▁--": 4845,
      "▁yıldır": 4846,
      "▁kan": 4847,
      "▁araya": 4848,
      "##ılmıstır": 4849,
      "##isini": 4850,
      "▁systems": 4851,
      "##dak": 4852,
      "▁washington'dan": 4853,
      "##dınız": 4854,
      "##edi": 4855,
      "▁pamuk": 4856,
      "##las": 4857,
      "▁mus": 4858,
      "##4000": 4859,
      "▁derli": 4860,
      "▁ic": 4861,
      "##ilir": 4862,
      "▁sirketler": 4863,
      "##un": 4864,
      "##lerinde": 4865,
      "▁hacim": 4866,
      "▁hul": 4867,
      "▁basa": 4868,
      "▁satıl": 4869,
      "▁suruyor": 4870,
      "▁har": 4871,
      "▁mum": 4872,
      "▁oyuncu": 4873,
      "##ladıgını": 4874,
      "▁kasab": 4875,
      "▁bekliyor": 4876,
      "▁kullan": 4877,
      "▁muhtemel": 4878,
      "##7": 4879,
      "▁sıcak": 4880,
      "▁tır": 4881,
      "8": 4882,
      "▁nori": 4883,
      "▁jose'ye": 4884,
      "##iyle": 4885,
      "▁hepimiz": 4886,
      "##unun": 4887,
      "▁varacak": 4888,
      "▁felaket": 4889,
      "▁zengin": 4890,
      "▁gey": 4891,
      "▁ceb": 4892,
      "▁muhal": 4893,
      "▁luk": 4894,
      "▁saygı": 4895,
      "▁desik": 4896,
      "▁ız": 4897,
      "▁olmustur": 4898,
      "▁birka": 4899,
      "▁paranin": 4900,
      "##ardan": 4901,
      "▁sezon": 4902,
      "▁ner": 4903,
      "▁fort": 4904,
      "▁hukumet": 4905,
      "▁kım": 4906,
      "▁acar": 4907,
      "##ilerek": 4908,
      "▁ves": 4909,
      "##.50": 4910,
      "▁kibar": 4911,
      "▁gelecek": 4912,
      "▁ipek": 4913,
      ")": 4914,
      "▁biber": 4915,
      "##uyla": 4916,
      "##kır": 4917,
      "##dort": 4918,
      "▁veriyorum": 4919,
      "▁vermek": 4920,
      "▁le": 4921,
      "##ımı": 4922,
      "##asi": 4923,
      "▁oglen": 4924,
      "▁l": 4925,
      "▁ecz": 4926,
      "▁er": 4927,
      "▁38": 4928,
      "▁cumhurbaskan": 4929,
      "##asına": 4930,
      "▁yoneticileri": 4931,
      "▁105": 4932,
      "▁muh": 4933,
      "▁kuc": 4934,
      "##ily": 4935,
      "▁fonu": 4936,
      "▁av": 4937,
      "##35": 4938,
      "▁odak": 4939,
      "▁muhab": 4940,
      "▁polon": 4941,
      "▁en": 4942,
      "▁turlu": 4943,
      "▁secen": 4944,
      "▁yav": 4945,
      "▁katlı": 4946,
      "▁aj": 4947,
      "▁50": 4948,
      "▁ucusunuz": 4949,
      "▁count": 4950,
      "##larımızı": 4951,
      "##altı": 4952,
      "##ni": 4953,
      "##ill": 4954,
      "▁etmem": 4955,
      "▁fi": 4956,
      "▁iliskiler": 4957,
      "##alara": 4958,
      "▁kot": 4959,
      "▁ulasım": 4960,
      "▁0.3": 4961,
      "▁yken": 4962,
      "▁urk": 4963,
      "▁atıl": 4964,
      "▁buc": 4965,
      "##cev": 4966,
      "##ana": 4967,
      "##a.": 4968,
      "▁anim": 4969,
      "▁dil": 4970,
      "▁bulundugu": 4971,
      "▁dunyanın": 4972,
      "##enen": 4973,
      "▁tez": 4974,
      "▁burokr": 4975,
      "▁olus": 4976,
      "##acagım": 4977,
      "▁heyec": 4978,
      "▁seyahat": 4979,
      "##ıldır": 4980,
      "▁avukat": 4981,
      "▁dc": 4982,
      "▁tım": 4983,
      "▁icecekler": 4984,
      "▁kendin": 4985,
      "▁beh": 4986,
      "▁bez": 4987,
      "▁rom": 4988,
      "##ustur": 4989,
      "##000": 4990,
      "##uldugunu": 4991,
      "##oyu": 4992,
      "▁ettir": 4993,
      "▁%4": 4994,
      "▁bildirdi": 4995,
      "▁alımı": 4996,
      "##tum": 4997,
      "##5": 4998,
      "##ika": 4999,
      "▁etmis": 5000,
      "▁ozgur": 5001,
      "▁haberi": 5002,
      "▁isp": 5003,
      "▁cek": 5004,
      "▁kapının": 5005,
      "▁istemiyorum": 5006,
      "▁cincinnati'den": 5007,
      "▁olumsuz": 5008,
      "▁nisan'da": 5009,
      "##ide": 5010,
      "▁1.3": 5011,
      "▁kisiler": 5012,
      "▁borcu": 5013,
      "##sizim": 5014,
      "▁sirketlerin": 5015,
      "▁ikti": 5016,
      "▁portakal": 5017,
      "▁kıbr": 5018,
      "▁1/8": 5019,
      "##gru": 5020,
      "▁ucuslar": 5021,
      "##ilebilir": 5022,
      "▁cocuklar": 5023,
      "##cuk": 5024,
      "▁polis": 5025,
      "##lerdir": 5026,
      "▁eastern": 5027,
      "##apon": 5028,
      "▁elbette": 5029,
      "▁zorunda": 5030,
      "##ber": 5031,
      "##ya'da": 5032,
      "▁reform": 5033,
      "▁yam": 5034,
      "▁kesinlikle": 5035,
      "▁denizinden": 5036,
      "##aca": 5037,
      "▁baslamıstı": 5038,
      "▁2009": 5039,
      "▁etm": 5040,
      "▁fab": 5041,
      "▁dusuktu": 5042,
      "—": 5043,
      "▁kıyaslan": 5044,
      "▁sh": 5045,
      "▁ilgilen": 5046,
      "▁isin": 5047,
      "##likte": 5048,
      "▁hop": 5049,
      "▁top": 5050,
      "▁benim": 5051,
      "##gine": 5052,
      "▁ho": 5053,
      "▁ydı": 5054,
      "▁birlik": 5055,
      "▁yasadıgı": 5056,
      "▁kirp": 5057,
      "▁dair": 5058,
      "##asır": 5059,
      "▁birimiz": 5060,
      "▁degerlendiririm": 5061,
      "##'na": 5062,
      "▁300": 5063,
      "▁akıl": 5064,
      "▁cır": 5065,
      "▁basarı": 5066,
      "##amdan": 5067,
      "▁partisi": 5068,
      "##man": 5069,
      "▁sadece": 5070,
      "▁1989": 5071,
      "▁sel": 5072,
      "▁elektrik": 5073,
      "##eral": 5074,
      "▁zamanı": 5075,
      "▁icinde": 5076,
      "▁tabur": 5077,
      "▁din": 5078,
      "▁model": 5079,
      "▁%85": 5080,
      "▁tutun": 5081,
      "▁dusunc": 5082,
      "##meye": 5083,
      "##erse": 5084,
      "▁havalim": 5085,
      "▁mesut": 5086,
      "##gunde": 5087,
      "##idi": 5088,
      "▁hafif": 5089,
      "▁corp": 5090,
      "▁veya": 5091,
      "▁birbirimize": 5092,
      "##mamıs": 5093,
      "##.51": 5094,
      "▁ede": 5095,
      "▁ogr": 5096,
      "▁stok": 5097,
      "##sızlık": 5098,
      "▁duv": 5099,
      "▁san": 5100,
      "▁yasama": 5101,
      "▁patlıcan": 5102,
      "##apol": 5103,
      "▁inan": 5104,
      "▁sahne": 5105,
      "▁etmez": 5106,
      "▁pir": 5107,
      "▁dolay": 5108,
      "▁girdik": 5109,
      "▁dur": 5110,
      "▁karayolu": 5111,
      "▁hom": 5112,
      "##atın": 5113,
      "##iyorlardı": 5114,
      "##fez": 5115,
      "##ıyoruz": 5116,
      "##ıyla": 5117,
      "▁matematik": 5118,
      "▁ilgisizdi": 5119,
      "##gan": 5120,
      "▁dusman": 5121,
      "##sun": 5122,
      "▁misafir": 5123,
      "##yak": 5124,
      "▁diyorlar": 5125,
      "##ebilmek": 5126,
      "▁sahibi": 5127,
      "▁istif": 5128,
      "▁animasyon": 5129,
      "▁sistem": 5130,
      "▁2.7": 5131,
      "▁kısmını": 5132,
      "##onu": 5133,
      "▁k": 5134,
      "▁olmayacak": 5135,
      "▁aga": 5136,
      "▁gov": 5137,
      "▁mud": 5138,
      "▁1974": 5139,
      "##efe": 5140,
      "▁olmadıgı": 5141,
      "▁istanbul'un": 5142,
      "▁azal": 5143,
      "▁musun": 5144,
      "▁cogunlukla": 5145,
      "▁ucuncu": 5146,
      "▁8.8": 5147,
      "▁bayram": 5148,
      "##rah": 5149,
      "▁0.2": 5150,
      "##dedil": 5151,
      "##ıtır": 5152,
      "▁1000": 5153,
      "▁yoksul": 5154,
      "▁araz": 5155,
      "▁cel": 5156,
      "▁gittikce": 5157,
      "##lıgın": 5158,
      "▁savur": 5159,
      "▁leh": 5160,
      "▁gunleri": 5161,
      "▁ney": 5162,
      "▁hap": 5163,
      "##ele": 5164,
      "▁fakir": 5165,
      "##kun": 5166,
      "▁tamamlan": 5167,
      "▁mun": 5168,
      "##aki": 5169,
      "▁yoksa": 5170,
      "##rl": 5171,
      "▁tac": 5172,
      "▁fedakar": 5173,
      "▁sarhos": 5174,
      "▁deg": 5175,
      "▁varmıs": 5176,
      "▁bekledigim": 5177,
      "##ebilecegini": 5178,
      "##ayarak": 5179,
      "▁yeg": 5180,
      "▁turb": 5181,
      "▁taht": 5182,
      "▁%7.875": 5183,
      "##masına": 5184,
      "▁diger": 5185,
      "##amak": 5186,
      "▁tutmak": 5187,
      "▁esya": 5188,
      "##tılar": 5189,
      "▁kıp": 5190,
      "▁kafa": 5191,
      "▁lezzetleri": 5192,
      "##erken": 5193,
      "▁baktı": 5194,
      "▁karmas": 5195,
      "▁pek": 5196,
      "##aj": 5197,
      "▁americ": 5198,
      "▁7": 5199,
      "▁havaalanından": 5200,
      "▁sanki": 5201,
      "▁yerine": 5202,
      "▁otur": 5203,
      "▁vucut": 5204,
      "▁kucuk": 5205,
      "##u": 5206,
      "▁c": 5207,
      "▁yapmayı": 5208,
      "▁7/8": 5209,
      "##.03": 5210,
      "▁onu": 5211,
      "▁odaya": 5212,
      "▁isler": 5213,
      "▁birbirinin": 5214,
      "▁lehman": 5215,
      "▁ucusları": 5216,
      "##ington": 5217,
      "▁195": 5218,
      "##ince": 5219,
      "▁acı": 5220,
      "▁artan": 5221,
      "▁demokr": 5222,
      "▁mill": 5223,
      "▁temiz": 5224,
      "##dıgı": 5225,
      "▁boston'a": 5226,
      "##per": 5227,
      "##kul": 5228,
      "▁ugras": 5229,
      "▁wil": 5230,
      "▁isvicre": 5231,
      "▁herk": 5232,
      "##ilig": 5233,
      "▁profesyonel": 5234,
      "##arlan": 5235,
      "▁seviyede": 5236,
      "▁pittsburgh'tan": 5237,
      "▁kırm": 5238,
      "▁onlara": 5239,
      "▁beden": 5240,
      "▁110": 5241,
      "▁new": 5242,
      "▁karıstır": 5243,
      "▁carsaf": 5244,
      "##bah": 5245,
      "▁diyordu": 5246,
      "##ındaki": 5247,
      "▁hicbir": 5248,
      "▁arkadası": 5249,
      "##ekli": 5250,
      "##ost": 5251,
      "▁us": 5252,
      "##gır": 5253,
      "▁indianapolis": 5254,
      "▁geldigini": 5255,
      "▁becer": 5256,
      "▁caresiz": 5257,
      "##otte": 5258,
      "▁kemal": 5259,
      "▁ihtiyacı": 5260,
      "▁oyle": 5261,
      "▁duyar": 5262,
      "▁bor": 5263,
      "##ımları": 5264,
      "##memek": 5265,
      "▁derece": 5266,
      "▁diyar": 5267,
      "##kti": 5268,
      "▁lou": 5269,
      "▁yorum": 5270,
      "##ib": 5271,
      "▁diplom": 5272,
      "▁la": 5273,
      "▁kaliforniya": 5274,
      "##amay": 5275,
      "▁daha": 5276,
      "▁acaktı": 5277,
      "▁firmalar": 5278,
      "▁yaprak": 5279,
      "▁degisiklik": 5280,
      "▁zav": 5281,
      "##evi": 5282,
      "▁kav": 5283,
      "▁fen": 5284,
      "▁geor": 5285,
      "##dek": 5286,
      "▁devrim": 5287,
      "▁stu": 5288,
      "##ra": 5289,
      "▁gorev": 5290,
      "▁worth": 5291,
      "▁git": 5292,
      "▁sms": 5293,
      "▁delik": 5294,
      "▁salt": 5295,
      "##meyin": 5296,
      "▁cılgın": 5297,
      "▁politika": 5298,
      "##lanıyor": 5299,
      "##ası": 5300,
      "▁yayım": 5301,
      "…": 5302,
      "##iyordu": 5303,
      "▁burada": 5304,
      "##lıyor": 5305,
      "▁op": 5306,
      "▁havaliman": 5307,
      "▁176": 5308,
      "▁415": 5309,
      "▁68": 5310,
      "##aa": 5311,
      "▁cıkart": 5312,
      "▁isbir": 5313,
      "▁gecmiste": 5314,
      "##ecegine": 5315,
      "##.65": 5316,
      "▁ciz": 5317,
      "▁900": 5318,
      "▁yaptı": 5319,
      "▁mucadel": 5320,
      "▁2003": 5321,
      "##larından": 5322,
      "▁yapılır": 5323,
      "##erin": 5324,
      "▁6.25": 5325,
      "▁kaybol": 5326,
      "▁oturup": 5327,
      "▁27": 5328,
      "▁halkın": 5329,
      "▁koylu": 5330,
      "▁iti": 5331,
      "▁ortada": 5332,
      "##ırken": 5333,
      "▁pr": 5334,
      "##isiz": 5335,
      "▁serin": 5336,
      "2": 5337,
      "▁olsun": 5338,
      "▁eylem": 5339,
      "▁acıldı": 5340,
      "▁geldi": 5341,
      "##/32": 5342,
      "▁ig": 5343,
      "▁tuv": 5344,
      "▁olması": 5345,
      "▁kalit": 5346,
      "▁temizlik": 5347,
      "▁kalkıs": 5348,
      "▁yerler": 5349,
      "▁102": 5350,
      "▁tuket": 5351,
      "▁cer": 5352,
      "▁californ": 5353,
      "##ista": 5354,
      "##akin": 5355,
      "▁guleryuzlu": 5356,
      "##unup": 5357,
      "▁onları": 5358,
      "##memiz": 5359,
      "▁bakar": 5360,
      "▁dom": 5361,
      "▁fing": 5362,
      "▁hamam": 5363,
      "▁alındı": 5364,
      "▁sıgın": 5365,
      "##amız": 5366,
      "▁hayır": 5367,
      "▁geceleri": 5368,
      "▁bil": 5369,
      "▁tıpkı": 5370,
      "##medik": 5371,
      "▁luks": 5372,
      "▁ameliyat": 5373,
      "▁tamir": 5374,
      "▁com": 5375,
      "▁mevzu": 5376,
      "▁…": 5377,
      "##forman": 5378,
      "▁yeten": 5379,
      "##9": 5380,
      "##a": 5381,
      "##lari": 5382,
      "▁cumhuriyeti": 5383,
      "▁dc'den": 5384,
      "▁yılının": 5385,
      "▁laf": 5386,
      "▁komur": 5387,
      "▁degerlendir": 5388,
      "▁mak": 5389,
      "▁kopek": 5390,
      "▁kocaman": 5391,
      "▁11": 5392,
      "▁sok": 5393,
      "▁hosuma": 5394,
      "▁tahta": 5395,
      "▁sozcuk": 5396,
      "▁ticareti": 5397,
      "##iki": 5398,
      "##tıkca": 5399,
      "▁oldukları": 5400,
      "##an": 5401,
      "##ard": 5402,
      "▁cıvıl": 5403,
      "##iz": 5404,
      "▁john": 5405,
      "▁kalk": 5406,
      "##evizyon": 5407,
      "#": 5408,
      "▁yapın": 5409,
      "▁seye": 5410,
      "▁durumda": 5411,
      "##lıgıyla": 5412,
      "▁yenil": 5413,
      "##dum": 5414,
      "▁nev": 5415,
      "▁5'ten": 5416,
      "##alarla": 5417,
      ":": 5418,
      "##fet": 5419,
      "▁chicago'ya": 5420,
      "▁hurriyet": 5421,
      "▁tedarik": 5422,
      "▁francisco": 5423,
      "▁bilgis": 5424,
      "▁yoluyla": 5425,
      "▁acaba": 5426,
      "▁sizlere": 5427,
      "##um": 5428,
      "▁calısmalar": 5429,
      "▁cıl": 5430,
      "##larda": 5431,
      "▁kısıt": 5432,
      "▁degilmis": 5433,
      "▁japonya": 5434,
      "▁ilan": 5435,
      "##lesi": 5436,
      "▁kalkıslı": 5437,
      "▁ısı": 5438,
      "▁yıllarca": 5439,
      "▁tabi": 5440,
      "▁alın": 5441,
      "##ugu": 5442,
      "▁olduklarını": 5443,
      "▁donus": 5444,
      "▁4.8": 5445,
      "▁mektu": 5446,
      "▁mıy": 5447,
      "▁66": 5448,
      "##ileri": 5449,
      "##izm": 5450,
      "##eden": 5451,
      "▁dagın": 5452,
      "▁saglayan": 5453,
      "##lo": 5454,
      "##ustos": 5455,
      "▁var": 5456,
      "▁tarz": 5457,
      "##gileri": 5458,
      "▁alak": 5459,
      "▁getirmek": 5460,
      "##ucuk": 5461,
      "▁hur": 5462,
      "##lere": 5463,
      "▁okur": 5464,
      "▁parlam": 5465,
      "▁terk": 5466,
      "▁enerji": 5467,
      "##lam": 5468,
      "▁rad": 5469,
      "▁okudu": 5470,
      "▁bunun": 5471,
      "▁mikr": 5472,
      "##ent": 5473,
      "▁bul": 5474,
      "▁eliyle": 5475,
      "▁girdi": 5476,
      "▁plastik": 5477,
      "▁yaptık": 5478,
      "▁sas": 5479,
      "▁arasında": 5480,
      "▁etmedi": 5481,
      "▁biz": 5482,
      "▁hizmeti": 5483,
      "▁diren": 5484,
      "▁karsilamadi": 5485,
      "▁korun": 5486,
      "▁3/": 5487,
      "▁kavus": 5488,
      "##nun": 5489,
      "▁sisman": 5490,
      "▁tahmin": 5491,
      "##:30": 5492,
      "▁odeme": 5493,
      "▁nit": 5494,
      "▁sahil": 5495,
      "▁lık": 5496,
      "▁adamları": 5497,
      "▁ustunde": 5498,
      "▁kamu": 5499,
      "▁fonlar": 5500,
      "▁vasıtasıyla": 5501,
      "▁alman": 5502,
      "▁adlı": 5503,
      "▁olmalı": 5504,
      "▁lis": 5505,
      "##'da": 5506,
      "▁boston'dan": 5507,
      "▁bilim": 5508,
      "▁prob": 5509,
      "▁kısmen": 5510,
      "##cilik": 5511,
      "▁continental": 5512,
      "▁tesadu": 5513,
      "##lak": 5514,
      "\"": 5515,
      "▁senet": 5516,
      "▁avustral": 5517,
      "▁suresi": 5518,
      "▁kop": 5519,
      "##malarını": 5520,
      "▁gidi": 5521,
      "▁ilet": 5522,
      "##emli": 5523,
      "##kat": 5524,
      "▁strate": 5525,
      "##iyorum": 5526,
      "##ıt": 5527,
      "▁ucyuz": 5528,
      "▁lif": 5529,
      "▁organ": 5530,
      "▁%15": 5531,
      "▁ib": 5532,
      "▁gunun": 5533,
      "▁ayında": 5534,
      "##ak": 5535,
      "▁pencer": 5536,
      "##imleri": 5537,
      "▁sın": 5538,
      "▁mim": 5539,
      "▁lazım": 5540,
      "▁geliri": 5541,
      "▁city'e": 5542,
      "##ly": 5543,
      "▁abd": 5544,
      "##ilere": 5545,
      "▁alem": 5546,
      "▁lir": 5547,
      "▁islemlerinde": 5548,
      "▁lastik": 5549,
      "▁bekleyen": 5550,
      "▁lakin": 5551,
      "▁birinin": 5552,
      "▁ka": 5553,
      "▁gob": 5554,
      "##sizdi": 5555,
      "▁iyiydi": 5556,
      "▁birkac": 5557,
      "▁elimi": 5558,
      "##vili": 5559,
      "##press": 5560,
      "▁cev": 5561,
      "##veland": 5562,
      "▁profesyon": 5563,
      "▁kompoz": 5564,
      "▁her": 5565,
      "##ısını": 5566,
      "▁kendisini": 5567,
      "▁korkut": 5568,
      "▁teknoloj": 5569,
      "##ara": 5570,
      "##dıg": 5571,
      "▁form": 5572,
      "##uyorlar": 5573,
      "##ond": 5574,
      "##dig": 5575,
      "##avuz": 5576,
      "▁halihaz": 5577,
      "##&": 5578,
      "▁birey": 5579,
      "##por": 5580,
      "##ecekti": 5581,
      "▁42": 5582,
      "▁etkin": 5583,
      "▁tulum": 5584,
      "▁cig": 5585,
      "▁ogrenciler": 5586,
      "##mesiyle": 5587,
      "▁parcası": 5588,
      "▁fotograf": 5589,
      "▁icra": 5590,
      "▁co.": 5591,
      "▁$'a": 5592,
      "▁sarkı": 5593,
      "▁baslamıs": 5594,
      "▁oldum": 5595,
      "▁tuken": 5596,
      "##:": 5597,
      "##eni": 5598,
      "▁bence": 5599,
      "▁bay": 5600,
      "▁sasır": 5601,
      "##ufur": 5602,
      "▁aras": 5603,
      "▁sever": 5604,
      "▁uyandır": 5605,
      "▁ener": 5606,
      "▁ola": 5607,
      "▁got": 5608,
      "▁aksamı": 5609,
      "##dıgımız": 5610,
      "▁toplu": 5611,
      "▁barda": 5612,
      "▁pisti": 5613,
      "▁kadınların": 5614,
      "▁“": 5615,
      "▁kendinizi": 5616,
      "##imizi": 5617,
      "##lılık": 5618,
      "▁iceri": 5619,
      "▁fokur": 5620,
      "▁ihal": 5621,
      "▁vererek": 5622,
      "▁ulke": 5623,
      "##elerini": 5624,
      "##bel": 5625,
      "▁pilot": 5626,
      "▁rekor": 5627,
      "▁sans": 5628,
      "##75": 5629,
      "▁ataturk'un": 5630,
      "##luktan": 5631,
      "▁merdi": 5632,
      "▁uygulama": 5633,
      "▁ustlen": 5634,
      "▁cumhurbaskanı": 5635,
      "▁emekli": 5636,
      "▁gordugum": 5637,
      "▁108": 5638,
      "##ınız": 5639,
      "##esin": 5640,
      "▁anda": 5641,
      "▁yeniden": 5642,
      "▁ahlak": 5643,
      "▁olanak": 5644,
      "▁makine": 5645,
      "▁hakk": 5646,
      "▁temet": 5647,
      "▁onay": 5648,
      "##ira": 5649,
      "▁gel": 5650,
      "▁ları": 5651,
      "▁boyn": 5652,
      "##ser": 5653,
      "##wn": 5654,
      "▁annem": 5655,
      "▁deprem": 5656,
      "##igit": 5657,
      "▁vah": 5658,
      "##ac": 5659,
      "▁yarat": 5660,
      "##cesine": 5661,
      "##lamalar": 5662,
      "▁birbucuk": 5663,
      "##sil": 5664,
      "▁maliyet": 5665,
      "▁okun": 5666,
      "▁1.": 5667,
      "##87": 5668,
      "▁teknoloji": 5669,
      "▁azınlık": 5670,
      "##uv": 5671,
      "▁sonrası": 5672,
      "##ı": 5673,
      "##'la": 5674,
      "##eo": 5675,
      "##ayet": 5676,
      "▁sabit": 5677,
      "▁kas": 5678,
      "▁5\\/8": 5679,
      "##2": 5680,
      "▁tap": 5681,
      "##lugun": 5682,
      "▁bıyık": 5683,
      "▁aradilar": 5684,
      "▁dedik": 5685,
      "▁ittifak": 5686,
      "▁ode": 5687,
      "▁ceza": 5688,
      "▁uzman": 5689,
      "▁gorduk": 5690,
      "▁finanse": 5691,
      "▁kapısını": 5692,
      "▁agacın": 5693,
      "▁lezzetliydi": 5694,
      "▁komisyon": 5695,
      "##iyetini": 5696,
      "▁enflasyon": 5697,
      "▁aldigim": 5698,
      "▁ogl": 5699,
      "▁yardım": 5700,
      "▁vur": 5701,
      "▁oturan": 5702,
      "##kın": 5703,
      "▁eas": 5704,
      "##ker": 5705,
      "▁sinir": 5706,
      "##ental": 5707,
      "▁paran": 5708,
      "##ladılar": 5709,
      "▁tipik": 5710,
      "▁sonu": 5711,
      "##likten": 5712,
      "##urdu": 5713,
      "▁pol": 5714,
      "▁beyaz": 5715,
      "▁faiz": 5716,
      "▁soylen": 5717,
      "##4.8": 5718,
      "▁cogal": 5719,
      "▁ay": 5720,
      "##qu": 5721,
      "▁terc": 5722,
      "▁grup": 5723,
      "##ijinal": 5724,
      "▁gen": 5725,
      "##4'te": 5726,
      "▁8.4": 5727,
      "*": 5728,
      "▁%": 5729,
      "▁zorluk": 5730,
      "##mek": 5731,
      "▁98": 5732,
      "▁95": 5733,
      "▁1979": 5734,
      "▁199": 5735,
      "##mesini": 5736,
      "▁ingilizce": 5737,
      "▁36": 5738,
      "▁roportaj": 5739,
      "▁hasır": 5740,
      "▁vardi": 5741,
      "▁ydu": 5742,
      "▁yapım": 5743,
      "▁coktu": 5744,
      "▁yabancı": 5745,
      "▁gidebilir": 5746,
      "##rek": 5747,
      "▁bazi": 5748,
      "▁biles": 5749,
      "▁gozuk": 5750,
      "▁bedel": 5751,
      "▁cift": 5752,
      "##/8": 5753,
      "▁dov": 5754,
      "##isinin": 5755,
      "##iyas": 5756,
      "##ulmus": 5757,
      "##orta": 5758,
      "▁insanları": 5759,
      "▁andır": 5760,
      "▁sepet": 5761,
      "▁fabrika": 5762,
      "##acaklar": 5763,
      "▁yem": 5764,
      "##ed": 5765,
      "▁ucuslarını": 5766,
      "##bas": 5767,
      "▁tarihi": 5768,
      "▁%6.4": 5769,
      "##eg": 5770,
      "▁sık": 5771,
      "▁destek": 5772,
      "##25": 5773,
      "▁seninle": 5774,
      "##ulup": 5775,
      "▁196": 5776,
      "▁nis": 5777,
      "▁1/": 5778,
      "##dılar": 5779,
      "▁bireysel": 5780,
      "▁endeks": 5781,
      "▁listel": 5782,
      "▁panik": 5783,
      "▁gosterdi": 5784,
      "##nek": 5785,
      "##ilik": 5786,
      "▁musa": 5787,
      "##agi": 5788,
      "▁3\\/8": 5789,
      "▁bitti": 5790,
      "##anmıs": 5791,
      "▁anım": 5792,
      "▁sonr": 5793,
      "▁str": 5794,
      "▁1.2": 5795,
      "##umun": 5796,
      "##uldu": 5797,
      "▁sozunu": 5798,
      "▁gecen": 5799,
      "▁sermay": 5800,
      "▁noktası": 5801,
      "▁kendimi": 5802,
      "▁dır": 5803,
      "▁hitap": 5804,
      "##j": 5805,
      "▁2.2": 5806,
      "##eginden": 5807,
      "##stit": 5808,
      "##sinde": 5809,
      "##lıgına": 5810,
      "▁sokak": 5811,
      "▁cadd": 5812,
      "##ının": 5813,
      "▁basladım": 5814,
      "▁kaydı": 5815,
      "▁uygulam": 5816,
      "##att": 5817,
      "▁poz": 5818,
      "▁icine": 5819,
      "##up": 5820,
      "▁icimde": 5821,
      "▁sirketi": 5822,
      "▁%18": 5823,
      "##.625": 5824,
      "▁bol": 5825,
      "##liy": 5826,
      "▁edec": 5827,
      "##ormal": 5828,
      "##gim": 5829,
      "##manı": 5830,
      "##icileri": 5831,
      "▁asıl": 5832,
      "▁cil": 5833,
      "▁'nin": 5834,
      "▁sen": 5835,
      "##dıgında": 5836,
      "▁bahset": 5837,
      "▁hos": 5838,
      "▁dolandır": 5839,
      "##ısın": 5840,
      "▁duydu": 5841,
      "▁2.6": 5842,
      "##dy": 5843,
      "▁eski": 5844,
      "m": 5845,
      "▁moda": 5846,
      "▁soylem": 5847,
      "▁anal": 5848,
      "▁uygundu": 5849,
      "▁kusursuz": 5850,
      "##ia": 5851,
      "▁tic": 5852,
      "##ortaj": 5853,
      "▁sur": 5854,
      "##lif": 5855,
      "##imden": 5856,
      "##meler": 5857,
      "▁komut": 5858,
      "▁endustr": 5859,
      "▁iy": 5860,
      "▁gazete": 5861,
      "##deki": 5862,
      "▁gerektigini": 5863,
      "##lanma": 5864,
      "▁ayakkabı": 5865,
      "▁philadelphia'ya": 5866,
      "▁aralık": 5867,
      "▁ayrıldı": 5868,
      "##ebil": 5869,
      "▁ocak": 5870,
      "▁varsa": 5871,
      "##yan": 5872,
      "▁fayd": 5873,
      "▁b": 5874,
      "▁komsu": 5875,
      "▁toronto'dan": 5876,
      "▁4.5": 5877,
      "▁dolara": 5878,
      "▁yetis": 5879,
      "▁5": 5880,
      "▁teskil": 5881,
      "▁verimli": 5882,
      "▁eh": 5883,
      "##oglu": 5884,
      "▁vatand": 5885,
      "▁etrafında": 5886,
      "▁darbe": 5887,
      "▁orada": 5888,
      "▁sure": 5889,
      "##lor": 5890,
      "▁isteyen": 5891,
      "▁yuz": 5892,
      "##yım": 5893,
      "##mıyor": 5894,
      "▁pla": 5895,
      "▁hisseler": 5896,
      "▁30": 5897,
      "▁gem": 5898,
      "▁250": 5899,
      "##ugunu": 5900,
      "▁vardır": 5901,
      "##liginden": 5902,
      "▁iht": 5903,
      "##iy": 5904,
      "▁supur": 5905,
      "▁sars": 5906,
      "▁89": 5907,
      "▁nerede": 5908,
      "▁eglenc": 5909,
      "▁mail": 5910,
      "▁hast": 5911,
      "▁vazgec": 5912,
      "##oks": 5913,
      "##yasal": 5914,
      "##men": 5915,
      "▁kabil": 5916,
      "##tr": 5917,
      "▁yavr": 5918,
      "▁2016": 5919,
      "##enz": 5920,
      "▁vak": 5921,
      "▁mucadele": 5922,
      "▁columbus'tan": 5923,
      "▁seattle'ye": 5924,
      "##gıl": 5925,
      "▁diyorum": 5926,
      "▁odem": 5927,
      "▁21": 5928,
      "##aten": 5929,
      "▁malzemeler": 5930,
      "▁teklifi": 5931,
      "▁turkiye'de": 5932,
      "##.375": 5933,
      "▁gozu": 5934,
      "▁lutf": 5935,
      "▁kavr": 5936,
      "▁4.9": 5937,
      "▁yonetimi": 5938,
      "▁baska": 5939,
      "##ji": 5940,
      "▁cıkmaz": 5941,
      "▁masaya": 5942,
      "##ledi": 5943,
      "▁metal": 5944,
      "##unt": 5945,
      "##lli": 5946,
      "▁bardagı": 5947,
      "▁personellerin": 5948,
      "▁tuc": 5949,
      "▁elestir": 5950,
      "▁duvarlar": 5951,
      "##ılmıs": 5952,
      "##baskan": 5953,
      "▁yay": 5954,
      "##ligi": 5955,
      "##■": 5956,
      "▁kalkıyor": 5957,
      "##ımın": 5958,
      "▁gelmedi": 5959,
      "▁banyo": 5960,
      "▁amma": 5961,
      "▁sus": 5962,
      "▁peters": 5963,
      "▁gre": 5964,
      "##\"": 5965,
      "##2.1": 5966,
      "▁ag": 5967,
      "▁rengi": 5968,
      "▁hukumetin": 5969,
      "##tex": 5970,
      "##liam": 5971,
      "▁onunde": 5972,
      "##esif": 5973,
      "▁mukemmel": 5974,
      "##yıl": 5975,
      "▁veto": 5976,
      "▁355": 5977,
      "##kin": 5978,
      "▁nar": 5979,
      "▁attı": 5980,
      "▁gazet": 5981,
      "▁fes": 5982,
      "▁sosy": 5983,
      "▁%0.3": 5984,
      "▁listeleyebilir": 5985,
      "▁ucan": 5986,
      "##iddet": 5987,
      "▁york": 5988,
      "▁gokyuz": 5989,
      "▁ko": 5990,
      "▁uyar": 5991,
      "##tim": 5992,
      "▁cay": 5993,
      "##ayı": 5994,
      "▁_": 5995,
      "▁kactı": 5996,
      "##gının": 5997,
      "▁arkasına": 5998,
      "▁kusur": 5999,
      "▁siyasi": 6000,
      "▁personellerden": 6001,
      "▁satan": 6002,
      "##age": 6003,
      "##ılabilir": 6004,
      "▁st.": 6005,
      "▁basladık": 6006,
      "▁a.": 6007,
      "▁bal": 6008,
      "▁dolardan": 6009,
      "▁chicago": 6010,
      "▁pac": 6011,
      "▁ulasıl": 6012,
      "▁gecmis": 6013,
      "▁n": 6014,
      "▁asag": 6015,
      "▁zamanda": 6016,
      "▁mes": 6017,
      "▁satıcı": 6018,
      "▁vef": 6019,
      "##iforn": 6020,
      "▁cam": 6021,
      "-": 6022,
      "##oh": 6023,
      "▁bugday": 6024,
      "▁rıh": 6025,
      "▁muzakere": 6026,
      "▁'lu": 6027,
      "▁”": 6028,
      "▁yaptir": 6029,
      "##arası": 6030,
      "##9.3": 6031,
      "##fi": 6032,
      "▁qu": 6033,
      "▁nasdaq": 6034,
      "▁halbuki": 6035,
      "▁california": 6036,
      "▁ı": 6037,
      "▁yasayan": 6038,
      "##ova": 6039,
      "▁ugram": 6040,
      "▁mulk": 6041,
      "▁gece": 6042,
      "▁kendisin": 6043,
      "▁mırıldan": 6044,
      "▁hakkındaki": 6045,
      "▁arac": 6046,
      "##bucuk": 6047,
      "##eceg": 6048,
      "##uyorum": 6049,
      "▁kalabalikti": 6050,
      "##rı": 6051,
      "##ılmıstı": 6052,
      "▁sesi": 6053,
      "▁izlen": 6054,
      "▁min": 6055,
      "▁kahvaltı": 6056,
      "▁cur": 6057,
      "▁geriledi": 6058,
      "▁gecm": 6059,
      "##idik": 6060,
      "▁ciddi": 6061,
      "▁kadını": 6062,
      "▁muzik": 6063,
      "▁sampiyon": 6064,
      "##vır": 6065,
      "▁sev": 6066,
      "▁iz": 6067,
      "##larındaki": 6068,
      "##aya": 6069,
      "▁ot": 6070,
      "▁islem": 6071,
      "▁hoca": 6072,
      "▁sorumluluk": 6073,
      "▁mırıl": 6074,
      "##iniz": 6075,
      "▁def": 6076,
      "##ulmaz": 6077,
      "▁ca": 6078,
      "▁arasından": 6079,
      "##dıkları": 6080,
      "▁oluyor": 6081,
      "##eten": 6082,
      "▁%5.4": 6083,
      "▁gm": 6084,
      "▁birtakım": 6085,
      "▁%3.43": 6086,
      "##y'nin": 6087,
      "▁yat": 6088,
      "▁arkadas": 6089,
      "##bire": 6090,
      "▁cleveland'a": 6091,
      "▁et": 6092,
      "▁serv": 6093,
      "##rika": 6094,
      "##his": 6095,
      "▁aralarında": 6096,
      "▁elma": 6097,
      "##am": 6098,
      "▁chicag": 6099,
      "▁yalap": 6100,
      "▁duser": 6101,
      "▁george": 6102,
      "##tıyor": 6103,
      "▁yandan": 6104,
      "▁sevg": 6105,
      "▁amer": 6106,
      "▁lungur": 6107,
      "▁hizmetinden": 6108,
      "▁yıllar": 6109,
      "##saydı": 6110,
      "▁hasan": 6111,
      "▁neh": 6112,
      "▁nesn": 6113,
      "##11": 6114,
      "▁gr": 6115,
      "▁sokaga": 6116,
      "▁yuzyıl": 6117,
      "▁ihtim": 6118,
      "▁demis": 6119,
      "##kuz": 6120,
      "▁sırtında": 6121,
      "##@": 6122,
      "▁ama": 6123,
      "▁ve": 6124,
      "▁dr.": 6125,
      "##uncu": 6126,
      "##eli": 6127,
      "▁3\\/4": 6128,
      "▁gez": 6129,
      "▁arasındaki": 6130,
      "▁deney": 6131,
      "##eme": 6132,
      "▁buldu": 6133,
      "▁saray": 6134,
      "##gimi": 6135,
      "▁yapti": 6136,
      "▁cik": 6137,
      "▁sevgi": 6138,
      "▁u": 6139,
      "▁alım": 6140,
      "▁isters": 6141,
      "▁mıdır": 6142,
      "▁icme": 6143,
      "▁cıkacak": 6144,
      "▁itibaren": 6145,
      "▁milyondan": 6146,
      "▁ayı": 6147,
      "▁ahmet": 6148,
      "▁kendimize": 6149,
      "##omb": 6150,
      "▁otelde": 6151,
      "▁kanıt": 6152,
      "##melerini": 6153,
      "▁cabuk": 6154,
      "▁puana": 6155,
      "[UNK]": 6156,
      "▁hatır": 6157,
      "##ecek": 6158,
      "##ez": 6159,
      "##ester": 6160,
      "##tar": 6161,
      "##kan": 6162,
      "▁birles": 6163,
      "##ulen": 6164,
      "##egine": 6165,
      "##leri": 6166,
      "▁sey": 6167,
      "▁degerinde": 6168,
      "▁kaybet": 6169,
      "▁dikkatli": 6170,
      "▁gidecek": 6171,
      "▁amerikalı": 6172,
      "▁nuk": 6173,
      "▁peynir": 6174,
      "##lerimi": 6175,
      "▁kitaplar": 6176,
      "▁buyur": 6177,
      "▁sesini": 6178,
      "▁kuv": 6179,
      "##samba": 6180,
      "##mistim": 6181,
      "▁karsıl": 6182,
      "##mazlar": 6183,
      "▁kaybeden": 6184,
      "▁can": 6185,
      "▁maz": 6186,
      "▁duyur": 6187,
      "▁baker": 6188,
      "▁bilmiyorum": 6189,
      "▁mahalle": 6190,
      "▁ulus": 6191,
      "##`": 6192,
      "▁yen'den": 6193,
      "##cu": 6194,
      "▁beklenen": 6195,
      "▁elbise": 6196,
      "▁dc'ye": 6197,
      "▁dor": 6198,
      "▁gene": 6199,
      "▁gelistir": 6200,
      "▁elinden": 6201,
      "▁edin": 6202,
      "##ige": 6203,
      "▁kararsizim": 6204,
      "▁itir": 6205,
      "▁bıraktı": 6206,
      "▁aradi": 6207,
      "##iyon": 6208,
      "▁donemde": 6209,
      "▁tuf": 6210,
      "##mayacak": 6211,
      "▁ler": 6212,
      "##abilirdi": 6213,
      "▁gorunuyordu": 6214,
      "▁saskın": 6215,
      "▁cum": 6216,
      "▁4'ten": 6217,
      "##ımızı": 6218,
      "▁ankara": 6219,
      "▁philadelphia'dan": 6220,
      "##tısı": 6221,
      "▁istiyoruz": 6222,
      "▁fazlası": 6223,
      "▁kası": 6224,
      "▁lake": 6225,
      "▁maden": 6226,
      "##luyor": 6227,
      "▁beydi": 6228,
      "▁stratej": 6229,
      "▁%2": 6230,
      "##sa": 6231,
      "▁tatil": 6232,
      "##tiv": 6233,
      "▁davran": 6234,
      "▁insanın": 6235,
      "##olojik": 6236,
      "▁jaguar": 6237,
      "▁odalari": 6238,
      "▁anket": 6239,
      "▁aralık'ta": 6240,
      "##ila": 6241,
      "▁fiyatlarını": 6242,
      "▁cevirdi": 6243,
      "##nız": 6244,
      "▁mik": 6245,
      "▁alternatif": 6246,
      "##isyon": 6247,
      "▁onlar": 6248,
      "▁sahip": 6249,
      "▁gidiyor": 6250,
      "▁ayrıl": 6251,
      "▁soyluyor": 6252,
      "▁rehber": 6253,
      "▁dogru": 6254,
      "##unde": 6255,
      "▁insanlar": 6256,
      "##uklu": 6257,
      "▁kızgın": 6258,
      "##tel": 6259,
      "▁lo": 6260,
      "▁yasamadik": 6261,
      "▁%5": 6262,
      "▁ozet": 6263,
      "▁hakim": 6264,
      "##.52": 6265,
      "▁deh": 6266,
      "▁2.4": 6267,
      "▁dergi": 6268,
      "▁aktarma": 6269,
      "▁radyo": 6270,
      "▁sog": 6271,
      "▁donup": 6272,
      "▁almaya": 6273,
      "▁bugunku": 6274,
      "▁baslıyor": 6275,
      "▁patlı": 6276,
      "▁bed": 6277,
      "▁ediliyor": 6278,
      "▁bon": 6279,
      "▁ikna": 6280,
      "▁tavsiye": 6281,
      "▁hev": 6282,
      "▁hanimla": 6283,
      "▁nakit": 6284,
      "▁evlen": 6285,
      "▁olc": 6286,
      "▁kır": 6287,
      "▁geleneksel": 6288,
      "▁orman": 6289,
      "##lulugu": 6290,
      "▁gitmis": 6291,
      "▁cinc": 6292,
      "▁1.6": 6293,
      "▁bilin": 6294,
      "▁bod": 6295,
      "##lıyordu": 6296,
      "▁buh": 6297,
      "▁odamiz": 6298,
      "▁beklent": 6299,
      "▁zorunlu": 6300,
      "▁odam": 6301,
      "▁asam": 6302,
      "▁memphis'ten": 6303,
      "##ımıza": 6304,
      "▁ısın": 6305,
      "##-": 6306,
      "▁inti": 6307,
      "▁sorunu": 6308,
      "▁trilyon": 6309,
      "▁hakik": 6310,
      "▁muhtesem": 6311,
      "▁sigar": 6312,
      "##anlık": 6313,
      "▁arkadasim": 6314,
      "▁tem": 6315,
      "▁gi": 6316,
      "▁dagıt": 6317,
      "▁sattı": 6318,
      "▁tampa'dan": 6319,
      "▁goster": 6320,
      "▁ucaga": 6321,
      "▁vakti": 6322,
      "▁onumuzdeki": 6323,
      "▁ramiz": 6324,
      "##dugu": 6325,
      "▁71": 6326,
      "▁begendik": 6327,
      "▁busbutun": 6328,
      "▁havaalan": 6329,
      "##ruk": 6330,
      "▁nikah": 6331,
      "##ala": 6332,
      "▁coktan": 6333,
      "▁tehdit": 6334,
      "##elerle": 6335,
      "▁seyi": 6336,
      "▁56": 6337,
      "▁gidiyoruz": 6338,
      "▁merk": 6339,
      "▁ince": 6340,
      "##ılı": 6341,
      "▁calı": 6342,
      "##sızın": 6343,
      "▁worth'a": 6344,
      "▁buyuk": 6345,
      "▁%7": 6346,
      "▁sıv": 6347,
      "▁teler": 6348,
      "▁yetkililer": 6349,
      "▁galiba": 6350,
      "▁performansi": 6351,
      "▁yun": 6352,
      "▁neden": 6353,
      "##deniz": 6354,
      "▁yıgın": 6355,
      "▁isle": 6356,
      "▁tasıy": 6357,
      "##edigini": 6358,
      "▁kahv": 6359,
      "▁tanı": 6360,
      "##.1": 6361,
      "##ecik": 6362,
      "▁namaz": 6363,
      "##endigi": 6364,
      "▁servet": 6365,
      "▁yuksek": 6366,
      "▁seyler": 6367,
      "##fur": 6368,
      "▁konusuyor": 6369,
      "▁denver'den": 6370,
      "▁beraber": 6371,
      "▁kah": 6372,
      "▁hamle": 6373,
      "▁karsılan": 6374,
      "##…": 6375,
      "▁angel": 6376,
      "▁kalitesi": 6377,
      "▁nokt": 6378,
      "▁diyerek": 6379,
      "▁pirinc": 6380,
      "##enk": 6381,
      "##amaz": 6382,
      "##ve": 6383,
      "▁gozlem": 6384,
      "▁newark'tan": 6385,
      "▁ısrar": 6386,
      "##apolis": 6387,
      "▁vat": 6388,
      "▁odaydi": 6389,
      "▁grev": 6390,
      "##'ya": 6391,
      "▁ver": 6392,
      "▁derler": 6393,
      "▁prot": 6394,
      "▁fırladı": 6395,
      "▁gunu": 6396,
      "▁sonuc": 6397,
      "##gur": 6398,
      "▁vermeye": 6399,
      "▁dalga": 6400,
      "▁mali": 6401,
      "▁'l": 6402,
      "▁kes": 6403,
      "▁petersburg'dan": 6404,
      "##ede": 6405,
      "##be": 6406,
      "▁biliyorum": 6407,
      "▁bolg": 6408,
      "##e": 6409,
      "▁salı": 6410,
      "▁imparator": 6411,
      "▁heves": 6412,
      "▁edi": 6413,
      "▁wh": 6414,
      "▁ettim": 6415,
      "##atlar": 6416,
      "▁ihtil": 6417,
      "▁ilisk": 6418,
      "▁artıs": 6419,
      "##arak": 6420,
      "▁seviye": 6421,
      "▁durum": 6422,
      "##layarak": 6423,
      "##mıstı": 6424,
      "##dın": 6425,
      "▁personeller": 6426,
      "▁toplantıda": 6427,
      "▁ticaret": 6428,
      "##89-": 6429,
      "▁banka": 6430,
      "▁bun": 6431,
      "##bak": 6432,
      "##mayan": 6433,
      "##istir": 6434,
      "▁am": 6435,
      "▁vası": 6436,
      "▁pa": 6437,
      "▁yapıs": 6438,
      "##.76": 6439,
      "##dol": 6440,
      "▁ortam": 6441,
      "▁icin": 6442,
      "▁komutan": 6443,
      "▁3.9": 6444,
      "##'nde": 6445,
      "▁gecici": 6446,
      "▁denize": 6447,
      "▁e": 6448,
      "▁etkil": 6449,
      "▁ital": 6450,
      "▁dar": 6451,
      "▁yuzu": 6452,
      "##ece": 6453,
      "▁alınan": 6454,
      "▁yasamak": 6455,
      "##otuz": 6456,
      "▁nus": 6457,
      "▁eger": 6458,
      "##ısına": 6459,
      "▁cevr": 6460,
      "▁tiyat": 6461,
      "##melerin": 6462,
      "▁meyve": 6463,
      "▁bekler": 6464,
      "▁yoneticisi": 6465,
      "▁64": 6466,
      "▁agabey": 6467,
      "##ese": 6468,
      "##.000": 6469,
      "▁nez": 6470,
      "▁nashville": 6471,
      "##han": 6472,
      "▁trafik": 6473,
      "##ge": 6474,
      "##ete": 6475,
      "▁zamandan": 6476,
      "##mel": 6477,
      "##bes": 6478,
      "▁disiplin": 6479,
      "##aguar": 6480,
      "▁film": 6481,
      "▁koyun": 6482,
      "##ael": 6483,
      "▁olanaklarını": 6484,
      "▁siddetli": 6485,
      "▁ettigi": 6486,
      "##mayın": 6487,
      "▁verin": 6488,
      "##west": 6489,
      "▁sayıl": 6490,
      "##nan": 6491,
      "▁ilgilendi": 6492,
      "▁kalmak": 6493,
      "##bar": 6494,
      "▁cif": 6495,
      "##lıklar": 6496,
      "▁mec": 6497,
      "▁yeterince": 6498,
      "▁fık": 6499,
      "##cının": 6500,
      "##umu": 6501,
      "▁gordum": 6502,
      "##sas": 6503,
      "▁arzu": 6504,
      "▁nuf": 6505,
      "▁imalat": 6506,
      "##usuna": 6507,
      "▁tasır": 6508,
      "▁sovyetler": 6509,
      "▁cıktım": 6510,
      "▁ikib": 6511,
      "##denin": 6512,
      "▁muduru": 6513,
      "▁yasan": 6514,
      "▁oluyordu": 6515,
      "▁th": 6516,
      "##meden": 6517,
      "▁dallas'a": 6518,
      "▁gev": 6519,
      "▁diz": 6520,
      "▁vazif": 6521,
      "##udum": 6522,
      "▁bakalım": 6523,
      "▁tiril": 6524,
      "▁at": 6525,
      "▁gid": 6526,
      "##agı": 6527,
      "##larıyla": 6528,
      "▁bah": 6529,
      "##emek": 6530,
      "▁arıyor": 6531,
      "▁kuzu": 6532,
      "▁ait": 6533,
      "▁konforu": 6534,
      "▁haziran'da": 6535,
      "##tıcı": 6536,
      "▁hastalık": 6537,
      "▁mu": 6538,
      "##lasmıs": 6539,
      "▁tesis": 6540,
      "##ısından": 6541,
      "▁yetersiz": 6542,
      "▁yasadı": 6543,
      "▁golge": 6544,
      "##gu": 6545,
      "▁sut": 6546,
      "▁ind": 6547,
      "▁yahut": 6548,
      "▁soru": 6549,
      "▁mer": 6550,
      "1": 6551,
      "▁merhaba": 6552,
      "▁peyn": 6553,
      "##una": 6554,
      "▁geldik": 6555,
      "##iti": 6556,
      "▁cuma": 6557,
      "▁29": 6558,
      "▁benz": 6559,
      "##line": 6560,
      "##madım": 6561,
      "##ıstı": 6562,
      "▁olagan": 6563,
      "##ku": 6564,
      "▁sıkır": 6565,
      "▁azın": 6566,
      "`": 6567,
      "##iyiz": 6568,
      "▁soguktu": 6569,
      "▁nere": 6570,
      "##az": 6571,
      "▁cennet": 6572,
      "##uma": 6573,
      "##ebi": 6574,
      "▁sent": 6575,
      "▁atar": 6576,
      "##etir": 6577,
      "▁bekley": 6578,
      "##sar": 6579,
      "▁anlattı": 6580,
      "▁buyut": 6581,
      "▁almadim": 6582,
      "##yeni": 6583,
      "▁vegas'a": 6584,
      "▁bilesik": 6585,
      "▁seneye": 6586,
      "▁0.0": 6587,
      "##ock": 6588,
      "▁yuvarlak": 6589,
      "▁beyle": 6590,
      "▁3/8": 6591,
      "▁fer": 6592,
      "▁col": 6593,
      "##mas": 6594,
      "##isik": 6595,
      "▁rakam": 6596,
      "▁beklen": 6597,
      "▁ederiz": 6598,
      "▁bet": 6599,
      "##eki": 6600,
      "▁kendilerini": 6601,
      "▁fazlas": 6602,
      "▁tane": 6603,
      "▁donan": 6604,
      "##ımızda": 6605,
      "▁altı": 6606,
      "▁kahr": 6607,
      "▁yemeklerini": 6608,
      "##gını": 6609,
      "▁ucak": 6610,
      "##alet": 6611,
      "▁ilgiliydi": 6612,
      "▁cd": 6613,
      "▁komisyonu": 6614,
      "▁dusunceler": 6615,
      "▁yuv": 6616,
      "▁tey": 6617,
      "##usunda": 6618,
      "▁3.6": 6619,
      "▁karayol": 6620,
      "##uluk": 6621,
      "▁seyr": 6622,
      "##yor": 6623,
      "▁kendine": 6624,
      "▁aldıgını": 6625,
      "▁rezervasyon": 6626,
      "##ng": 6627,
      "##acagim": 6628,
      "##min": 6629,
      "▁yerinde": 6630,
      "▁kız": 6631,
      "##day": 6632,
      "▁bilir": 6633,
      "▁etmesi": 6634,
      "▁futbol": 6635,
      "▁zih": 6636,
      "##ersiz": 6637,
      "▁verme": 6638,
      "▁ufakti": 6639,
      "▁rakip": 6640,
      "▁fıkı": 6641,
      "▁lt": 6642,
      "##lenir": 6643,
      "▁teklif": 6644,
      "▁emniyet": 6645,
      "##iya": 6646,
      "##dar": 6647,
      "▁kurdu": 6648,
      "▁guzeldi": 6649,
      "##mıslar": 6650,
      "▁kateg": 6651,
      "▁2.": 6652,
      "▁indirim": 6653,
      "▁kesint": 6654,
      "▁bahsederim": 6655,
      "##'dan": 6656,
      "##eginde": 6657,
      "▁bilg": 6658,
      "▁durdu": 6659,
      "▁sorun": 6660,
      "▁ikibinuc": 6661,
      "▁operasyon": 6662,
      "##us": 6663,
      "▁esit": 6664,
      "▁il": 6665,
      "▁kaliteli": 6666,
      "▁dava": 6667,
      "##dedi": 6668,
      "▁yog": 6669,
      "▁os": 6670,
      "▁agac": 6671,
      "▁aileler": 6672,
      "▁48": 6673,
      "▁ben": 6674,
      "##ıc": 6675,
      "##ansız": 6676,
      "▁sagladı": 6677,
      "##ack": 6678,
      "▁rapor": 6679,
      "▁oldu": 6680,
      "▁olanakları": 6681,
      "▁hat": 6682,
      "##gen": 6683,
      "▁munasebet": 6684,
      "▁hangileri": 6685,
      "▁onun": 6686,
      "##kel": 6687,
      "##dokuz": 6688,
      "▁inanc": 6689,
      "▁ıskar": 6690,
      "▁yık": 6691,
      "▁disip": 6692,
      "##os": 6693,
      "▁kullanmadim": 6694,
      "##eler": 6695,
      "▁lek": 6696,
      "▁mez": 6697,
      "▁milwaukee'ye": 6698,
      "▁ongor": 6699,
      "##yet": 6700,
      "##si": 6701,
      "▁gerci": 6702,
      "▁egitim": 6703,
      "##biy": 6704,
      "▁hem": 6705,
      "▁etmeyi": 6706,
      "##siy": 6707,
      "##ane": 6708,
      "▁geldigi": 6709,
      "▁sonbahar": 6710,
      "##tor": 6711,
      "▁cor": 6712,
      "▁havayolu": 6713,
      "▁sakal": 6714,
      "▁yapılıyor": 6715,
      "▁gosterg": 6716,
      "▁dep": 6717,
      "▁sonrasında": 6718,
      "▁isi": 6719,
      "##lin": 6720,
      "▁koltuk": 6721,
      "▁cim": 6722,
      "■": 6723,
      "▁dolu": 6724,
      "▁kad": 6725,
      "##ecegiz": 6726,
      "▁degil": 6727,
      "##yal": 6728,
      "▁10'dan": 6729,
      "▁sistemi": 6730,
      "▁istihdam": 6731,
      "▁1998": 6732,
      "▁azalt": 6733,
      "##lan": 6734,
      "▁odan": 6735,
      "▁kagı": 6736,
      "▁ila": 6737,
      "▁ayaga": 6738,
      "##lerden": 6739,
      "##mesinden": 6740,
      "▁yuzune": 6741,
      "##amanın": 6742,
      "▁yans": 6743,
      "##larına": 6744,
      "[MASK]": 6745,
      "▁degisim": 6746,
      "▁oturu": 6747,
      "##larım": 6748,
      "▁ettiler": 6749,
      "▁fil": 6750,
      "▁verdigim": 6751,
      "▁kadınlar": 6752,
      "##ıya": 6753,
      "##iyak": 6754,
      "##ıy": 6755,
      "##tılı": 6756,
      "##ultu": 6757,
      "▁gar": 6758,
      "##ya'nın": 6759,
      "▁kime": 6760,
      "▁besyuz": 6761,
      "▁yolda": 6762,
      "▁kulub": 6763,
      "##uklum": 6764,
      "▁ufak": 6765,
      "▁yemeklerinden": 6766,
      "▁basını": 6767,
      "▁anlayıs": 6768,
      "▁hun": 6769,
      "▁kisi": 6770,
      "##cakt": 6771,
      "▁sa": 6772,
      "##uyordu": 6773,
      "##enc": 6774,
      "▁francisco'dan": 6775,
      "##atır": 6776,
      "▁89-": 6777,
      "##elle": 6778,
      "▁degilse": 6779,
      "##'un": 6780,
      "##lit": 6781,
      "▁kriz": 6782,
      "▁modern": 6783,
      "▁tamamladı": 6784,
      "▁ruy": 6785,
      "▁boston": 6786,
      "▁huz": 6787,
      "▁ancak": 6788,
      "▁yurut": 6789,
      "▁oyn": 6790,
      "▁tutuyor": 6791,
      "▁maliyetleri": 6792,
      "▁ilgili": 6793,
      "##suz": 6794,
      "▁sigara": 6795,
      "▁ymis": 6796,
      "##ayla": 6797,
      "▁tesisti": 6798,
      "##'le": 6799,
      "##emi": 6800,
      "##ıza": 6801,
      "▁evde": 6802,
      "##larımı": 6803,
      "▁ph": 6804,
      "##acagımı": 6805,
      "##ic": 6806,
      "▁curuk": 6807,
      "▁toprak": 6808,
      "▁icecek": 6809,
      "▁diego'ya": 6810,
      "▁degistir": 6811,
      "▁bahar": 6812,
      "▁olcude": 6813,
      "▁orlando'ya": 6814,
      "##elerden": 6815,
      "▁dayalı": 6816,
      "▁diyarbakır": 6817,
      "▁dili": 6818,
      "▁suredir": 6819,
      "##madı": 6820,
      "▁dunya": 6821,
      "▁sanat": 6822,
      "▁sip": 6823,
      "▁paraya": 6824,
      "##atif": 6825,
      "##urken": 6826,
      "▁800": 6827,
      "▁gelirler": 6828,
      "▁gittim": 6829,
      "▁150": 6830,
      "▁insanların": 6831,
      "##lara": 6832,
      "▁uzer": 6833,
      "▁aydın": 6834,
      "▁kahvalt": 6835,
      "▁hepsini": 6836,
      "▁uzaktan": 6837,
      "##x": 6838,
      "##biye": 6839,
      "##ung": 6840,
      "▁gosteriyor": 6841,
      "▁garson": 6842,
      "▁yapması": 6843,
      "▁5.1": 6844,
      "▁kayık": 6845,
      "▁lutfen": 6846,
      "##0.": 6847,
      "##eyen": 6848,
      "▁emtia": 6849,
      "▁elinde": 6850,
      "▁kusk": 6851,
      "▁yeteri": 6852,
      "##ums": 6853,
      "▁phoenix'e": 6854,
      "▁acıdan": 6855,
      "▁bost": 6856,
      "▁yasal": 6857,
      "▁tedavul": 6858,
      "▁finans": 6859,
      "##acag": 6860,
      "▁mc": 6861,
      "##gah": 6862,
      "▁pıtır": 6863,
      "▁goren": 6864,
      "▁cab": 6865,
      "▁12": 6866,
      "▁urunleri": 6867,
      "▁goruyor": 6868,
      "▁6'dan": 6869,
      "##andı": 6870,
      "e": 6871,
      "▁dondur": 6872,
      "▁capital": 6873,
      "##ildigi": 6874,
      "▁han": 6875,
      "▁fay": 6876,
      "▁iceren": 6877,
      "##yum": 6878,
      "▁sirket": 6879,
      "▁ıskarta": 6880,
      "▁standart": 6881,
      "▁2.8": 6882,
      "▁oldugu": 6883,
      "##ong": 6884,
      "##cinin": 6885,
      "##maları": 6886,
      "▁ortalam": 6887,
      "▁ah": 6888,
      "▁muhalef": 6889,
      "▁piyasalar": 6890,
      "▁bocek": 6891,
      "##ici": 6892,
      "##bahar": 6893,
      "▁felsef": 6894,
      "▁verdigi": 6895,
      "▁:": 6896,
      "▁r": 6897,
      "▁canım": 6898,
      "▁ucusu": 6899,
      "##ens": 6900,
      "##cag": 6901,
      "▁magaz": 6902,
      "##meyen": 6903,
      "▁gectik": 6904,
      "▁bilmem": 6905,
      "▁egil": 6906,
      "▁eg": 6907,
      "##maktadır": 6908,
      "##\\/32": 6909,
      "##it": 6910,
      "▁iken": 6911,
      "▁nic": 6912,
      "##dular": 6913,
      "▁kitabı": 6914,
      "▁ekibi": 6915,
      "▁ail": 6916,
      "▁eks": 6917,
      "▁ban": 6918,
      "##1.2": 6919,
      "▁cogunun": 6920,
      "##)": 6921,
      "▁dahi": 6922,
      "▁cid": 6923,
      "##erler": 6924,
      "▁elindeki": 6925,
      "▁kotuydu": 6926,
      "▁bro": 6927,
      "▁yontem": 6928,
      "▁resepsiyon": 6929,
      "▁sokakta": 6930,
      "▁dunku": 6931,
      "##ilmisti": 6932,
      "▁yetmis": 6933,
      "▁arttır": 6934,
      "▁cekin": 6935,
      "▁sofor": 6936,
      "▁verdiler": 6937,
      "##vel": 6938,
      "▁kalır": 6939,
      "–": 6940,
      "▁ontari": 6941,
      "▁harikaydi": 6942,
      "▁uzerine": 6943,
      "▁birkacı": 6944,
      "▁'ni": 6945,
      "▁%8.2": 6946,
      "▁houston'dan": 6947,
      "▁miyim": 6948,
      "▁yildi": 6949,
      "##sinin": 6950,
      "##fe": 6951,
      "▁deniz": 6952,
      "▁kapan": 6953,
      "##larınız": 6954,
      "▁halbu": 6955,
      "▁ofk": 6956,
      "▁zen": 6957,
      "▁akl": 6958,
      "▁lisans": 6959,
      "##olu": 6960,
      "##ecektir": 6961,
      "▁%3.1": 6962,
      "▁sayılı": 6963,
      "▁haval": 6964,
      "▁hangi": 6965,
      "▁verecek": 6966,
      "▁degiliz": 6967,
      "##guna": 6968,
      "▁alıp": 6969,
      "##ok": 6970,
      "##ksen": 6971,
      "▁is": 6972,
      "▁calisanlar": 6973,
      "▁uzun": 6974,
      "▁saat": 6975,
      "##ılacak": 6976,
      "▁sos": 6977,
      "▁toronto'ya": 6978,
      "▁ediyoruz": 6979,
      "▁lim": 6980,
      "▁carp": 6981,
      "##masın": 6982,
      "##.08": 6983,
      "▁f": 6984,
      "##c": 6985,
      "▁omuz": 6986,
      "▁ileri": 6987,
      "▁kopar": 6988,
      "▁yardim": 6989,
      "▁takdirde": 6990,
      "▁arz": 6991,
      "▁dallas'tan": 6992,
      "▁tasarruf": 6993,
      "▁airlines'in": 6994,
      "▁kons": 6995,
      "▁sig": 6996,
      "##ime": 6997,
      "▁3\\/": 6998,
      "▁iran": 6999,
      "##adir": 7000,
      "##makla": 7001,
      "▁dinlemek": 7002,
      "▁hil": 7003,
      "##k": 7004,
      "##3.2": 7005,
      "▁doldur": 7006,
      "▁tencer": 7007,
      "▁odadan": 7008,
      "▁vakt": 7009,
      "▁ch": 7010,
      "▁karısı": 7011,
      "▁ihtiyac": 7012,
      "##aklı": 7013,
      "▁sah": 7014,
      "▁aslan": 7015,
      "##lıgının": 7016,
      "▁uz": 7017,
      "##likle": 7018,
      "▁dow": 7019,
      "##iciler": 7020,
      "##emin": 7021,
      "▁ceket": 7022,
      "##f": 7023,
      "▁oc": 7024,
      "▁ekmek": 7025,
      "▁koca": 7026,
      "▁kaldıgı": 7027,
      "▁istedigini": 7028,
      "▁ayrıca": 7029,
      "▁kutup": 7030,
      "##pr": 7031,
      "▁ac": 7032,
      "##ow": 7033,
      "##misler": 7034,
      "▁indianapolis'ten": 7035,
      "▁yerden": 7036,
      "▁yemekler": 7037,
      "▁financial": 7038,
      "▁sandal": 7039,
      "▁denk": 7040,
      "▁77": 7041,
      "▁puanlama": 7042,
      "▁ra": 7043,
      "▁binlerce": 7044,
      "▁yaptır": 7045,
      "▁arası": 7046,
      "▁yıllardır": 7047,
      "▁zayif": 7048,
      "▁cinsel": 7049,
      "##lilig": 7050,
      "▁sekilde": 7051,
      "▁otel": 7052,
      "▁getir": 7053,
      "▁aktiv": 7054,
      "▁iskel": 7055,
      "▁olustur": 7056,
      "##liyor": 7057,
      "▁5.3": 7058,
      "##alan": 7059,
      "▁istih": 7060,
      "▁yazı": 7061,
      "▁bufe": 7062,
      "▁yemekleri": 7063,
      "▁ali": 7064,
      "▁montre": 7065,
      "▁cesitliligi": 7066,
      "▁icim": 7067,
      "##amadan": 7068,
      "▁evine": 7069,
      "##bet": 7070,
      "##dern": 7071,
      "▁ham": 7072,
      "▁komp": 7073,
      "▁lynch": 7074,
      "▁sırt": 7075,
      "##und": 7076,
      "▁bors": 7077,
      "##ata": 7078,
      "▁alay": 7079,
      "▁yansı": 7080,
      "▁icerisinde": 7081,
      "▁vit": 7082,
      "▁surdu": 7083,
      "▁sizin": 7084,
      "▁kimsenin": 7085,
      "##tır": 7086,
      "▁prof": 7087,
      "##ınıza": 7088,
      "##is": 7089,
      "▁7.7": 7090,
      "##alar": 7091,
      "##inn": 7092,
      "▁kup": 7093,
      "▁eve": 7094,
      "▁dakika": 7095,
      "▁uretim": 7096,
      "▁etk": 7097,
      "▁lira": 7098,
      "▁hepsine": 7099,
      "▁4.": 7100,
      "▁smith": 7101,
      "##20": 7102,
      "▁yi": 7103,
      "##ci": 7104,
      "##amadim": 7105,
      "▁ce": 7106,
      "▁irak": 7107,
      "##95": 7108,
      "▁bizimle": 7109,
      "##yası": 7110,
      "▁yemegi": 7111,
      "▁gelir": 7112,
      "##iligi": 7113,
      "▁dolan": 7114,
      "▁cap": 7115,
      "▁organizasyon": 7116,
      "▁cizg": 7117,
      "##lıkta": 7118,
      "▁kullanım": 7119,
      "▁etraf": 7120,
      "▁belki": 7121,
      "▁hissed": 7122,
      "▁minneapolis'e": 7123,
      "▁dieg": 7124,
      "##layan": 7125,
      "▁karmasık": 7126,
      "▁tespit": 7127,
      "▁63": 7128,
      "▁aksama": 7129,
      "▁personeli": 7130,
      "▁satısları": 7131,
      "▁cinayet": 7132,
      "▁altın": 7133,
      "▁kendim": 7134,
      "▁51": 7135,
      "[PAD]": 7136,
      "▁olamaz": 7137,
      "▁aklı": 7138,
      "##ick": 7139,
      "▁ingil": 7140,
      "▁tasar": 7141,
      "▁pe": 7142,
      "▁%0.2": 7143,
      "##y's": 7144,
      "▁onlem": 7145,
      "##distan": 7146,
      "▁hele": 7147,
      "▁sizi": 7148,
      "▁kenar": 7149,
      "▁cey": 7150,
      "▁sendik": 7151,
      "###": 7152,
      "▁olsaydı": 7153,
      "##esiz": 7154,
      "▁ise": 7155,
      "▁edip": 7156,
      "##o'nun": 7157,
      "▁temizlen": 7158,
      "▁kral": 7159,
      "##ta": 7160,
      "▁guleryuzluydu": 7161,
      "##izasyon": 7162,
      "##3": 7163,
      "▁hazine": 7164,
      "▁pant": 7165,
      "▁res": 7166,
      "▁konumundan": 7167,
      "▁ismi": 7168,
      "▁gecirdi": 7169,
      "##uyorlardı": 7170,
      "▁mehmet": 7171,
      "##37": 7172,
      "▁54": 7173,
      "▁tasıyor": 7174,
      "▁ozel": 7175,
      "▁tampa": 7176,
      "▁gu": 7177,
      "▁90": 7178,
      "##mus": 7179,
      "▁raki": 7180,
      "▁olabilir": 7181,
      "▁sular": 7182,
      "▁dudak": 7183,
      "▁mustafa": 7184,
      "▁2.9": 7185,
      "▁naz": 7186,
      "##ınc": 7187,
      "##akk": 7188,
      "▁ilginc": 7189,
      "▁ogrenmek": 7190,
      "▁kaybı": 7191,
      "##ırım": 7192,
      "▁zamanlarda": 7193,
      "▁tabak": 7194,
      "▁baglantı": 7195,
      "▁69": 7196,
      "##menin": 7197,
      "▁kayıt": 7198,
      "▁tırn": 7199,
      "▁yah": 7200,
      "▁alım-satım": 7201,
      "▁ticarette": 7202,
      "▁yakindi": 7203,
      "##atı": 7204,
      "▁ekm": 7205,
      "##lerimiz": 7206,
      "▁cumhur": 7207,
      "##medigi": 7208,
      "##gına": 7209,
      "##siniz": 7210,
      "▁155": 7211,
      "▁ikinci": 7212,
      "▁guvenilir": 7213,
      "▁huc": 7214,
      "##onom": 7215,
      "##0.7": 7216,
      "##-22:30": 7217,
      "▁iki": 7218,
      "▁ogret": 7219,
      "▁gecti": 7220,
      "▁lond": 7221,
      "▁havayol": 7222,
      "▁ekonom": 7223,
      "##amam": 7224,
      "##ben": 7225,
      "▁sinirli": 7226,
      "##q": 7227,
      "##har": 7228,
      "##eledi": 7229,
      "##arl": 7230,
      "▁yurtdıs": 7231,
      "##ze": 7232,
      "▁uyustur": 7233,
      "▁cal": 7234,
      "##siye": 7235,
      "##onelik": 7236,
      "##egas": 7237,
      "##​": 7238,
      "▁mem": 7239,
      "▁edebiyat": 7240,
      "▁masa": 7241,
      "▁utan": 7242,
      "▁tehdi": 7243,
      "▁bircog": 7244,
      "▁altında": 7245,
      "▁dalg": 7246,
      "##acagını": 7247,
      "▁ragmen": 7248,
      "▁sanatcı": 7249,
      "##ation": 7250,
      "▁baskanı": 7251,
      "▁pet": 7252,
      "▁bina": 7253,
      "▁asır": 7254,
      "##dı": 7255,
      "▁ih": 7256,
      "▁verilm": 7257,
      "▁mesel": 7258,
      "▁97": 7259,
      "▁alanda": 7260,
      "##ann": 7261,
      "▁butun": 7262,
      "▁street": 7263,
      "▁sm": 7264,
      "▁kampanya": 7265,
      "▁bin": 7266,
      "▁kıdem": 7267,
      "▁direk": 7268,
      "▁orn": 7269,
      "▁misiniz": 7270,
      "▁mod": 7271,
      "▁verebilirim": 7272,
      "##ili": 7273,
      "▁gunlerde": 7274,
      "▁icindeki": 7275,
      "▁fizik": 7276,
      "▁ser": 7277,
      "##ega": 7278,
      "▁gidec": 7279,
      "▁vergisi": 7280,
      "▁tasıyan": 7281,
      "##rak": 7282,
      "▁arkad": 7283,
      "##yalar": 7284,
      "▁danıs": 7285,
      "▁sul": 7286,
      "▁baltimore": 7287,
      "▁baltimore'ye": 7288,
      "▁sit": 7289,
      "##ento": 7290,
      "▁bahs": 7291,
      "##ılmaya": 7292,
      "##dıgına": 7293,
      "▁hanım": 7294,
      "▁ilgi": 7295,
      "▁detroit": 7296,
      "##iler": 7297,
      "▁nelerdir": 7298,
      "▁ad": 7299,
      "▁newark'a": 7300,
      "▁dusunuyorum": 7301,
      "▁fet": 7302,
      "▁cocuk": 7303,
      "▁babası": 7304,
      "▁anahtar": 7305,
      "▁cocuklu": 7306,
      "▁univers": 7307,
      "▁acıklan": 7308,
      "▁calısıyor": 7309,
      "##gimiz": 7310,
      "▁dolas": 7311,
      "▁nec": 7312,
      "##adi": 7313,
      "▁koruy": 7314,
      "▁sayg": 7315,
      "▁vurdu": 7316,
      "▁bulunmaktadır": 7317,
      "##27": 7318,
      "▁verim": 7319,
      "##'nı": 7320,
      "##adelphia": 7321,
      "▁kong": 7322,
      "▁denem": 7323,
      "▁bırak": 7324,
      "▁yiyecek": 7325,
      "▁derin": 7326,
      "▁alcak": 7327,
      "▁ayhan": 7328,
      "▁gerceklestir": 7329,
      "##lıkla": 7330,
      "▁endis": 7331,
      "▁durus": 7332,
      "▁uyesi": 7333,
      "▁she": 7334,
      "##cıların": 7335,
      "##ustr": 7336,
      "▁size": 7337,
      "▁doları": 7338,
      "▁kisiyi": 7339,
      "##taj": 7340,
      "▁finansman": 7341,
      "▁gures": 7342,
      "▁ceyrekte": 7343,
      "##iran": 7344,
      "▁gorunuyor": 7345,
      "▁kurtaj": 7346,
      "▁men": 7347,
      "##tıg": 7348,
      "▁pos": 7349,
      "##uluyor": 7350,
      "▁tasın": 7351,
      "##lamak": 7352,
      "##ever": 7353,
      "▁nihayet": 7354,
      "▁derecede": 7355,
      "▁bag": 7356,
      "▁biriler": 7357,
      "##layacak": 7358,
      "##ırk": 7359,
      "▁sik": 7360,
      "\\": 7361,
      "▁gorul": 7362,
      "▁thom": 7363,
      "▁tan": 7364,
      "##inize": 7365,
      "▁ydim": 7366,
      "##lamayı": 7367,
      "▁1987": 7368,
      "▁anay": 7369,
      "▁kanat": 7370,
      "▁bagıs": 7371,
      "▁devralma": 7372,
      "▁kapas": 7373,
      "##al": 7374,
      "▁diego'dan": 7375,
      "▁hizmetten": 7376,
      "##ho": 7377,
      "▁yaptılar": 7378,
      "▁cesitleri": 7379,
      "▁cıkarıyor": 7380,
      "▁rey": 7381,
      "##ood": 7382,
      "##tal": 7383,
      "▁haft": 7384,
      "▁yerde": 7385,
      "▁hepsin": 7386,
      "▁kursun": 7387,
      "##cik": 7388,
      "▁yapacak": 7389,
      "##ger": 7390,
      "##aları": 7391,
      "##tıgını": 7392,
      "▁itiraz": 7393,
      "▁domates": 7394,
      "##uydu": 7395,
      "##tansiy": 7396,
      "▁bile": 7397,
      "▁145": 7398,
      "##iyer": 7399,
      "▁1990": 7400,
      "##ımda": 7401,
      "▁nes": 7402,
      "▁gulums": 7403,
      "▁big": 7404,
      "▁ek": 7405,
      "▁fikr": 7406,
      "▁restor": 7407,
      "##ris": 7408,
      "##masının": 7409,
      "▁yonel": 7410,
      "▁amc": 7411,
      "▁islerini": 7412,
      "##en": 7413,
      "▁alma": 7414,
      "▁saglam": 7415,
      "##86": 7416,
      "▁toh": 7417,
      "▁cogunu": 7418,
      "▁ortal": 7419,
      "▁kayn": 7420,
      "▁kiler": 7421,
      "▁elb": 7422,
      "▁mevduat": 7423,
      "▁etti": 7424,
      "##istim": 7425,
      "##1-19": 7426,
      "▁soyler": 7427,
      "▁acıklam": 7428,
      "##ne": 7429,
      "##elik": 7430,
      "▁yani": 7431,
      "▁iflas": 7432,
      "▁hab": 7433,
      "▁19": 7434,
      "##urlu": 7435,
      "▁halinde": 7436,
      "##agon": 7437,
      "##ımızın": 7438,
      "▁bulabilir": 7439,
      "▁yunan": 7440,
      "##medi": 7441,
      "##ey": 7442,
      "##tan": 7443,
      "##adem": 7444,
      "▁gere": 7445,
      "▁35": 7446,
      "##vi": 7447,
      "##lebilir": 7448,
      "▁kir": 7449,
      "▁yor": 7450,
      "▁komit": 7451,
      "▁yiy": 7452,
      "▁bırakıp": 7453,
      "▁vatan": 7454,
      "▁103": 7455,
      "##digim": 7456,
      "▁miktar": 7457,
      "▁vaz": 7458,
      "▁kol": 7459,
      "▁kuru": 7460,
      "▁birbirinden": 7461,
      "▁ucusta": 7462,
      "▁fonları": 7463,
      "▁catlak": 7464,
      "▁gelip": 7465,
      "▁ispan": 7466,
      "▁yonetic": 7467,
      "##san": 7468,
      "▁karakter": 7469,
      "▁sayısı": 7470,
      "▁bulundu": 7471,
      "▁eksikligi": 7472,
      "▁yapan": 7473,
      "▁psik": 7474,
      "##lesmis": 7475,
      "▁listele": 7476,
      "##vıl": 7477,
      "▁varlık": 7478,
      "▁'d": 7479,
      "##/": 7480,
      "▁gozlu": 7481,
      "▁acısından": 7482,
      "▁kutu": 7483,
      "▁dest": 7484,
      "▁cı": 7485,
      "▁birine": 7486,
      "▁birbirini": 7487,
      "##esil": 7488,
      "##ert": 7489,
      "▁birdenbire": 7490,
      "##lesine": 7491,
      "▁gizli": 7492,
      "▁miami": 7493,
      "▁robert": 7494,
      "▁1.1": 7495,
      "▁dig": 7496,
      "▁bagır": 7497,
      "▁las": 7498,
      "▁doga": 7499,
      "▁tokyo": 7500,
      "▁kurulu": 7501,
      "##lerdeki": 7502,
      "##ayol": 7503,
      "▁emeklilik": 7504,
      "##larken": 7505,
      "▁parasını": 7506,
      "##yo": 7507,
      "##aliydi": 7508,
      "▁kampanyalardan": 7509,
      "▁hareketi": 7510,
      "##cular": 7511,
      "##bu": 7512,
      "##anbul": 7513,
      "▁gib": 7514,
      "▁beyan": 7515,
      "▁evden": 7516,
      "▁yazar": 7517,
      "##anlar": 7518,
      "▁ulkede": 7519,
      "▁kontr": 7520,
      "▁mecbur": 7521,
      "▁den": 7522,
      "##ep": 7523,
      "▁gunes": 7524,
      "▁temel": 7525,
      "##ıf": 7526,
      "▁nokta": 7527,
      "##esel": 7528,
      "▁devam": 7529,
      "▁rast": 7530,
      "▁anlat": 7531,
      "##mi": 7532,
      "##uth": 7533,
      "▁az": 7534,
      "▁suyu": 7535,
      "▁yirmi": 7536,
      "▁fiyata": 7537,
      "##gumu": 7538,
      "▁uzat": 7539,
      "▁avuc": 7540,
      "▁uretic": 7541,
      "▁nicin": 7542,
      "▁neyin": 7543,
      "▁meslek": 7544,
      "▁uzak": 7545,
      "▁haydi": 7546,
      "##cisi": 7547,
      "▁minim": 7548,
      "q": 7549,
      "##lestir": 7550,
      "▁renkli": 7551,
      "▁mey": 7552,
      "▁doların": 7553,
      "##landı": 7554,
      "▁3/4": 7555,
      "▁ediyorum": 7556,
      "▁barıs": 7557,
      "▁mid": 7558,
      "##elen": 7559,
      "▁odey": 7560,
      "##cı": 7561,
      "##ırı": 7562,
      "▁recep": 7563,
      "▁dile": 7564,
      "▁cok": 7565,
      "▁nef": 7566,
      "▁zeki": 7567,
      "▁northwest": 7568,
      "##ebilecek": 7569,
      "##amiz": 7570,
      "▁111": 7571,
      "▁ren": 7572,
      "▁elim": 7573,
      "▁meclis": 7574,
      "▁bankalar": 7575,
      "▁angeles'e": 7576,
      "▁south": 7577,
      "▁bic": 7578,
      "▁met": 7579,
      "##adet": 7580,
      "##igi": 7581,
      "##lenmis": 7582,
      "▁olursa": 7583,
      "##hat": 7584,
      "▁animasyonlar": 7585,
      "##19": 7586,
      "##-1": 7587,
      "▁ortak": 7588,
      "▁seyden": 7589,
      "▁bugun": 7590,
      "▁oburu": 7591,
      "▁basarili": 7592,
      "▁gonl": 7593,
      "▁0.": 7594,
      "▁icini": 7595,
      "##-2": 7596,
      "▁kocası": 7597,
      "##.875": 7598,
      "▁;": 7599,
      "▁erkek": 7600,
      "▁sonunda": 7601,
      "▁%12": 7602,
      "▁merkezine": 7603,
      "##r": 7604,
      "▁karsılas": 7605,
      "▁plan": 7606,
      "##ebilirdi": 7607,
      "##isindan": 7608,
      "▁yuzlu": 7609,
      "▁hisseye": 7610,
      "▁dortluk": 7611,
      "##miz": 7612,
      "▁bunlar": 7613,
      "##agım": 7614,
      "▁olm": 7615,
      "▁numar": 7616,
      "##ıldıgında": 7617,
      "▁yim": 7618,
      "▁cogu": 7619,
      "##-6": 7620,
      "##eleri": 7621,
      "▁iliskileri": 7622,
      "▁emek": 7623,
      "▁buz": 7624,
      "▁sonucu": 7625,
      "▁mola": 7626,
      "##kah": 7627,
      "▁izley": 7628,
      "▁hani": 7629,
      "▁tesekkurler": 7630,
      "▁gordugu": 7631,
      "▁corba": 7632,
      "▁aydınlık": 7633,
      "▁yuzme": 7634,
      "▁dısarıya": 7635,
      "▁yon": 7636,
      "▁beyin": 7637,
      "▁kiz": 7638,
      "▁ayar": 7639,
      "##dokuzyuz": 7640,
      "▁pacific": 7641,
      "▁belirtti": 7642,
      "▁kadının": 7643,
      "▁dal": 7644,
      "##iden": 7645,
      "▁siz": 7646,
      "▁yemeklerin": 7647,
      "##ab": 7648,
      "##madim": 7649,
      "▁verildi": 7650,
      "##im": 7651,
      "▁ber": 7652,
      "##elere": 7653,
      "▁bura": 7654,
      "##gor": 7655,
      "##agında": 7656,
      "▁tasarru": 7657,
      "ı": 7658,
      "##ecegini": 7659,
      "##tigini": 7660,
      "▁zır": 7661,
      "##burgh": 7662,
      "▁yapılmıs": 7663,
      "▁isit": 7664,
      "##2'den": 7665,
      "▁oraya": 7666,
      "▁houston'a": 7667,
      "▁kendileri": 7668,
      "▁evinde": 7669,
      "▁kalmıstı": 7670,
      "▁direkt": 7671,
      "▁topr": 7672,
      "##eleriyle": 7673,
      "##40": 7674,
      "▁olmay": 7675,
      "##iydi": 7676,
      "▁yasar": 7677,
      "▁dedigi": 7678,
      "▁uyan": 7679,
      "▁ısık": 7680,
      "##medim": 7681,
      "▁tuttu": 7682,
      "▁makal": 7683,
      "▁as": 7684,
      "▁atlan": 7685,
      "▁yumusak": 7686,
      "##bat": 7687,
      "▁programı": 7688,
      "▁nur": 7689,
      "▁resmi": 7690,
      "##sekiz": 7691,
      "##sına": 7692,
      "▁durgunluk": 7693,
      "▁mav": 7694,
      "##.9": 7695,
      "##ediyor": 7696,
      "##82": 7697,
      "▁747": 7698,
      "▁koydu": 7699,
      "▁tohum": 7700,
      "▁ucagın": 7701,
      "##ank": 7702,
      "▁45": 7703,
      "▁oglum": 7704,
      "▁kultur": 7705,
      "▁.\"": 7706,
      "##don": 7707,
      "##isinde": 7708,
      "▁zarar": 7709,
      "▁ellerinde": 7710,
      "▁bakanı": 7711,
      "▁kararlı": 7712,
      "▁corap": 7713,
      "##ific": 7714,
      "##.8": 7715,
      "##gel": 7716,
      "▁pazartesi": 7717,
      "▁derhal": 7718,
      "▁aptal": 7719,
      "▁2.3": 7720,
      "▁s&": 7721,
      "▁bec": 7722,
      "##ırda": 7723,
      "##ames": 7724,
      "▁sir": 7725,
      "▁toplam": 7726,
      "##ılması": 7727,
      "▁kaliteye": 7728,
      "▁yuregi": 7729,
      "▁dıs": 7730,
      "▁kep": 7731,
      "##oloji": 7732,
      "▁kose": 7733,
      "▁aksamları": 7734,
      "##ish": 7735,
      "##vek": 7736,
      "▁ayakk": 7737,
      "▁bıy": 7738,
      "▁gecesi": 7739,
      "▁gogus": 7740,
      "▁sil": 7741,
      "▁bazıları": 7742,
      "▁masraf": 7743,
      "##dırdı": 7744,
      "▁city'den": 7745,
      "▁sav": 7746,
      "▁kun": 7747,
      "##indeki": 7748,
      "▁charlotte'ye": 7749,
      "▁kumar": 7750,
      "▁olayı": 7751,
      "▁vol": 7752,
      "##ulu": 7753,
      "▁%3.5": 7754,
      "▁bakkal": 7755,
      "▁orlando": 7756,
      "▁demektir": 7757,
      "##oz": 7758,
      "▁heykel": 7759,
      "▁soylemek": 7760,
      "%": 7761,
      "##leyip": 7762,
      "▁sers": 7763,
      "▁kapattı": 7764,
      "▁artısı": 7765,
      "##ogu": 7766,
      "##leyerek": 7767,
      "▁parm": 7768,
      "▁mas": 7769,
      "▁kon": 7770,
      "▁ceken": 7771,
      "##irim": 7772,
      "##lamaları": 7773,
      "##8'den": 7774,
      "▁manz": 7775,
      "▁bazılarının": 7776,
      "▁fasul": 7777,
      "▁savun": 7778,
      "##diniz": 7779,
      "▁minne": 7780,
      "##.125": 7781,
      "▁cr": 7782,
      "▁sikayet": 7783,
      "##der": 7784,
      "##yalı": 7785,
      "##i'nin": 7786,
      "##dıgını": 7787,
      "▁sozles": 7788,
      "▁es": 7789,
      "▁korkunc": 7790,
      "##unlu": 7791,
      "▁mis": 7792,
      "▁henuz": 7793,
      "▁anlam": 7794,
      "▁nazik": 7795,
      "##anc": 7796,
      "▁uyku": 7797,
      "▁itibar": 7798,
      "##digine": 7799,
      "##eyebilir": 7800,
      "##ano": 7801,
      "##utur": 7802,
      "▁demek": 7803,
      "##aket": 7804,
      "▁denilen": 7805,
      "▁tanın": 7806,
      "##veren": 7807,
      "▁soyluyorlar": 7808,
      "▁sirketleri": 7809,
      "##dis": 7810,
      "▁sigorta": 7811,
      "▁kasık": 7812,
      "▁insa": 7813,
      "##gun": 7814,
      "▁manzarasi": 7815,
      "##tedir": 7816,
      "##meni": 7817,
      "▁yur": 7818,
      "?": 7819,
      "##ledim": 7820,
      "▁taleb": 7821,
      "##'luk": 7822,
      "▁duzenlem": 7823,
      "▁karsılastır": 7824,
      "##usunun": 7825,
      "▁olmaktan": 7826,
      "▁hayret": 7827,
      "##eld": 7828,
      "▁atmak": 7829,
      "##leyen": 7830,
      "##yi": 7831,
      "##rim": 7832,
      "▁koyu": 7833,
      "▁yararlı": 7834,
      "▁yuc": 7835,
      "##mustum": 7836,
      "▁tabii": 7837,
      "▁kal": 7838,
      "▁korku": 7839,
      "▁alacaklı": 7840,
      "▁sim": 7841,
      "▁yok": 7842,
      "▁hicbiri": 7843,
      "##ına": 7844,
      "▁hiz": 7845,
      "▁devir": 7846,
      "▁sun": 7847,
      "▁pembe": 7848,
      "▁kopru": 7849,
      "▁yum": 7850,
      "▁ikisinin": 7851,
      "##mec": 7852,
      "▁almıs": 7853,
      "i": 7854,
      "▁aman": 7855,
      "▁vuc": 7856,
      "▁1985": 7857,
      "▁'": 7858,
      "▁huseyin": 7859,
      "▁iktidar": 7860,
      "▁veriyor": 7861,
      "▁franc": 7862,
      "▁id": 7863,
      "▁miz": 7864,
      "▁kapı": 7865,
      "▁ucusların": 7866,
      "▁ibaret": 7867,
      "▁elde": 7868,
      "▁amac": 7869,
      "▁cep": 7870,
      "▁pisir": 7871,
      "▁konuda": 7872,
      "▁ibrahim": 7873,
      "##usu": 7874,
      "##toru": 7875,
      "##ice": 7876,
      "▁far": 7877,
      "▁varıyor": 7878,
      "▁mon": 7879,
      "▁kere": 7880,
      "▁kurulan": 7881,
      "##8'e": 7882,
      "▁alkıs": 7883,
      "▁serp": 7884,
      "##tek": 7885,
      "##gunda": 7886,
      "▁zamanla": 7887,
      "##ry": 7888,
      "##makta": 7889,
      "##ps": 7890,
      "▁class": 7891,
      "##dan": 7892,
      "##orm": 7893,
      "##aması": 7894,
      "▁basar": 7895,
      "##'taki": 7896,
      "▁love": 7897,
      "▁yuzey": 7898,
      "▁yahu": 7899,
      "##likler": 7900,
      "▁edilir": 7901,
      "##usunu": 7902,
      "▁oturma": 7903,
      "▁and": 7904,
      "▁yıla": 7905,
      "▁dogr": 7906,
      "▁6": 7907,
      "▁cocukları": 7908,
      "▁yanak": 7909,
      "▁135": 7910,
      "▁olup": 7911,
      "▁bakim": 7912,
      "▁ihtimal": 7913,
      "##malar": 7914,
      "▁sozlerine": 7915,
      "▁mark": 7916,
      "▁ayda": 7917,
      "▁icinden": 7918,
      "▁mesela": 7919,
      "▁cıp": 7920,
      "##erek": 7921,
      "▁kab": 7922,
      "▁korum": 7923,
      "▁iyilestir": 7924,
      "▁yere": 7925,
      "##arı": 7926,
      "▁indir": 7927,
      "▁bak": 7928,
      "##eyman": 7929,
      "##ilerin": 7930,
      "▁oteldi": 7931,
      "▁konfer": 7932,
      "▁kokulu": 7933,
      "▁5/8": 7934,
      "▁akr": 7935,
      "▁yırt": 7936,
      "▁batı": 7937,
      "▁nob": 7938,
      "▁duserek": 7939,
      "##dun": 7940,
      "▁nefes": 7941,
      "▁yangın": 7942,
      "##or": 7943,
      "▁almayı": 7944,
      "▁columbus": 7945,
      "▁indianapolis'e": 7946,
      "##ize": 7947,
      "▁sekret": 7948,
      "▁yap": 7949,
      "▁duny": 7950,
      "▁31": 7951,
      "▁hi": 7952,
      "▁cekiyor": 7953,
      "▁aramız": 7954,
      "▁seker": 7955,
      "▁turkiye'nin": 7956,
      "▁sozleri": 7957,
      "##22": 7958,
      "▁sıkı": 7959,
      "##iniki": 7960,
      "##tas": 7961,
      "▁arkadaslar": 7962,
      "▁pam": 7963,
      "▁denver": 7964,
      "▁raporu": 7965,
      "##anı": 7966,
      "▁altıncı": 7967,
      "▁baglantılı": 7968,
      "▁hor": 7969,
      "▁mobil": 7970,
      "##lı": 7971,
      "▁tutarında": 7972,
      "##mada": 7973,
      "##orp": 7974,
      "▁istiyorlar": 7975,
      "▁turk": 7976,
      "▁ederdi": 7977,
      "▁donuyor": 7978,
      "▁uyk": 7979,
      "##sur": 7980,
      "##lilik": 7981,
      "##usal": 7982,
      "▁superdi": 7983,
      "▁ası": 7984,
      "##istler": 7985,
      "##,": 7986,
      "##van": 7987,
      "▁kurb": 7988,
      "##o'dan": 7989,
      "▁kendisinin": 7990,
      "▁otek": 7991,
      "▁%7.": 7992,
      "▁borc": 7993,
      "▁atıyor": 7994,
      "▁north": 7995,
      "▁gerek": 7996,
      "▁lor": 7997,
      "##if": 7998,
      "▁gercekten": 7999,
      "▁genislet": 8000,
      "##ma": 8001,
      "▁faz": 8002,
      "▁naci": 8003,
      "▁duyg": 8004,
      "▁akın": 8005,
      "▁buradan": 8006,
      "▁eris": 8007,
      "▁1960": 8008,
      "##dıgınız": 8009,
      "▁ces": 8010,
      "▁gibiydi": 8011,
      "▁davranıs": 8012,
      "▁hır": 8013,
      "▁yapılan": 8014,
      "▁fazlay": 8015,
      "##\\/": 8016,
      "▁intern": 8017,
      "▁72": 8018,
      "_": 8019,
      "▁kapalı": 8020,
      "##isco": 8021,
      "##lerin": 8022,
      "▁kılı": 8023,
      "##gı": 8024,
      "▁kurtul": 8025,
      "▁kendimizi": 8026,
      "##1": 8027,
      "##gini": 8028,
      "▁industri": 8029,
      "▁oteki": 8030,
      "##din": 8031,
      "##atur": 8032,
      "▁83": 8033,
      "##100": 8034,
      "▁%9.": 8035,
      "▁burası": 8036,
      "▁edir": 8037,
      "▁bankası": 8038,
      "##lul": 8039,
      "##10": 8040,
      "##lasıyor": 8041,
      "▁sarı": 8042,
      "▁fena": 8043,
      "▁125": 8044,
      "▁giydi": 8045,
      "▁turu": 8046,
      "▁motor": 8047,
      "▁yitir": 8048,
      "▁pur": 8049,
      "▁portfoy": 8050,
      "##mac": 8051,
      "▁izm": 8052,
      "▁kaldır": 8053,
      "##ımdan": 8054,
      "▁calısmak": 8055,
      "▁om": 8056,
      "##'teki": 8057,
      "##elerinde": 8058,
      "▁caba": 8059,
      "▁kork": 8060,
      "▁gore": 8061,
      "▁butce": 8062,
      "▁sabah": 8063,
      "▁sorular": 8064,
      "▁bunları": 8065,
      "##duk": 8066,
      "##mekte": 8067,
      "▁86": 8068,
      "▁1999": 8069,
      "▁rest": 8070,
      "▁alarak": 8071,
      "▁donustur": 8072,
      "▁cagır": 8073,
      "##lerimizi": 8074,
      "▁700": 8075,
      "▁%27": 8076,
      "▁egem": 8077,
      "##adılar": 8078,
      "▁fır": 8079,
      "##bilir": 8080,
      "##ar": 8081,
      "▁kıv": 8082,
      "▁sizler": 8083,
      "▁ort": 8084,
      "▁personelden": 8085,
      "▁konumunu": 8086,
      "##ayın": 8087,
      "##eet": 8088,
      "##atin": 8089,
      "▁kard": 8090,
      "▁adet": 8091,
      "##luydu": 8092,
      "▁sergil": 8093,
      "▁yerli": 8094,
      "▁fatih": 8095,
      "##duncu": 8096,
      "▁gelgelelim": 8097,
      "##onun": 8098,
      "▁sanay": 8099,
      "▁milliyet": 8100,
      "▁ceker": 8101,
      "▁dos": 8102,
      "▁sehir": 8103,
      "▁topu": 8104,
      "▁aklına": 8105,
      "▁hisset": 8106,
      "▁yedek": 8107,
      "▁fl": 8108,
      "▁...": 8109,
      "▁kadeh": 8110,
      "▁shearson": 8111,
      "▁yukselerek": 8112,
      "▁paris": 8113,
      "▁onde": 8114,
      "▁saglamak": 8115,
      "##ıh": 8116,
      "##lendi": 8117,
      "°": 8118,
      "##ılan": 8119,
      "##.85": 8120,
      "▁annesi": 8121,
      "▁est": 8122,
      "▁nas": 8123,
      "▁ruzgar": 8124,
      "##ima": 8125,
      "▁sahib": 8126,
      "▁bosluk": 8127,
      "▁hiss": 8128,
      "▁kahraman": 8129,
      "▁yagm": 8130,
      "▁elleri": 8131,
      "▁pil": 8132,
      "▁130": 8133,
      "▁aksi": 8134,
      "##ilerinin": 8135,
      "▁cagdas": 8136,
      "##emiyor": 8137,
      "##alıgı": 8138,
      "▁gecer": 8139,
      "##lerinin": 8140,
      "▁suz": 8141,
      "▁)": 8142,
      "##vey": 8143,
      "##ege": 8144,
      "▁on": 8145,
      "▁iletisim": 8146,
      "▁sayılır": 8147,
      "▁uyarı": 8148,
      "##stems": 8149,
      "##lama": 8150,
      "##ılıgı": 8151,
      "##meleri": 8152,
      "▁avantaj": 8153,
      "##lugunu": 8154,
      "▁15": 8155,
      "▁camasır": 8156,
      "▁18.": 8157,
      "▁boylece": 8158,
      "##liligi": 8159,
      "▁ithalat": 8160,
      "##cılı": 8161,
      "▁yurudu": 8162,
      "▁otom": 8163,
      "▁bunların": 8164,
      "▁kirli": 8165,
      "▁of": 8166,
      "▁muhendis": 8167,
      "▁karsı": 8168,
      "▁aldım": 8169,
      "▁bitk": 8170,
      "▁gor": 8171,
      "▁ikram": 8172,
      "▁mumkun": 8173,
      "##an'ın": 8174,
      "##cık": 8175,
      "##elerinden": 8176,
      "▁homur": 8177,
      "▁cukur": 8178,
      "▁edici": 8179,
      "▁bizim": 8180,
      "▁calısan": 8181,
      "##gele": 8182,
      "▁bolun": 8183,
      "▁%7.7": 8184,
      "▁bazı": 8185,
      "▁boy": 8186,
      "▁danısman": 8187,
      "▁ajans": 8188,
      "##ahi": 8189,
      "##isin": 8190,
      "▁angeles": 8191
    }
  }
}