{
  "version": "1.0",
  "truncation": null,
  "padding": null,
  "added_tokens": [
    {
      "id": 359,
      "content": "[CLS]",
      "single_word": false,
      "lstrip": false,
      "rstrip": false,
      "normalized": false,
      "special": true
    },
    {
      "id": 1116,
      "content": "[UNK]",
      "single_word": false,
      "lstrip": false,
      "rstrip": false,
      "normalized": false,
      "special": true
    },
    {
      "id": 1627,
      "content": "[MASK]",
      "single_word": false,
      "lstrip": false,
      "rstrip": false,
      "normalized": false,
      "special": true
    },
    {
      "id": 3135,
      "content": "[SEP]",
      "single_word": false,
      "lstrip": false,
      "rstrip": false,
      "normalized": false,
      "special": true
    },
    {
      "id": 3930,
      "content": "[PAD]",
      "single_word": false,
      "lstrip": false,
      "rstrip": false,
      "normalized": false,
      "special": true
    }
  ],
  "normalizer": {
    "type": "Sequence",
    "normalizers": [
      {
        "type": "NFD"
      },
      {
        "type": "Lowercase"
      },
      {
        "type": "StripAccents"
      }
    ]
  },
  "pre_tokenizer": {
    "type": "Sequence",
    "pretokenizers": [
      {
        "type": "Metaspace",
        "replacement": "▁",
        "prepend_scheme": "always",
        "split": true
      }
    ]
  },
  "post_processor": {
    "type": "TemplateProcessing",
    "single": [
      {
        "SpecialToken": {
          "id": "[CLS]",
          "type_id": 0
        }
      },
      {
        "Sequence": {
          "id": "A",
          "type_id": 0
        }
      },
      {
        "SpecialToken": {
          "id": "[SEP]",
          "type_id": 0
        }
      }
    ],
    "pair": [
      {
        "SpecialToken": {
          "id": "[CLS]",
          "type_id": 0
        }
      },
      {
        "Sequence": {
          "id": "A",
          "type_id": 0
        }
      },
      {
        "SpecialToken": {
          "id": "[SEP]",
          "type_id": 0
        }
      },
      {
        "Sequence": {
          "id": "B",
          "type_id": 1
        }
      },
      {
        "SpecialToken": {
          "id": "[SEP]",
          "type_id": 1
        }
      }
    ],
    "special_tokens": {
      "[CLS]": {
        "id": "[CLS]",
        "ids": [
          359
        ],
        "tokens": [
          "[CLS]"
        ]
      },
      "[SEP]": {
        "id": "[SEP]",
        "ids": [
          3135
        ],
        "tokens": [
          "[SEP]"
        ]
      }
    }
  },
  "decoder": {
    "type": "Metaspace",
    "replacement": "▁",
    "prepend_scheme": "always",
    "split": true
  },
  "model": {
    "type": "Unigram",
    "unk_id": 1116,
    "vocab": [
      [
        "ıldı",
        -7.98171182176457
      ],
      [
        "6",
        -6.952477388401526
      ],
      [
        "▁man",
        -8.226679467352335
      ],
      [
        "▁mehmet",
        -9.11791054761839
      ],
      [
        "▁yapıldı",
        -9.763785865719944
      ],
      [
        "▁muhtesem",
        -9.381930519699651
      ],
      [
        "▁yardımcı",
        -8.966371922118196
      ],
      [
        "ydı",
        -7.762278865229849
      ],
      [
        "▁teslim",
        -9.488094516046676
      ],
      [
        "▁26",
        -8.156620768428361
      ],
      [
        "▁yargı",
        -9.373615531980963
      ],
      [
        "▁bulunuyor",
        -9.326382841484813
      ],
      [
        "▁sin",
        -8.914369183033312
      ],
      [
        "▁alkol",
        -9.899661567773386
      ],
      [
        "▁kullanmadi",
        -8.911728151505134
      ],
      [
        "▁delikanlı",
        -9.472218079334432
      ],
      [
        "25",
        -8.001389963991318
      ],
      [
        "▁karısı",
        -9.634546810128938
      ],
      [
        "▁belge",
        -9.397553610595327
      ],
      [
        "▁cagır",
        -9.239822263970211
      ],
      [
        "bir",
        -5.321339535278411
      ],
      [
        "u",
        -5.066036806639431
      ],
      [
        "▁yapma",
        -8.418393442857358
      ],
      [
        "acak",
        -7.134853170385037
      ],
      [
        "▁iliski",
        -8.357990449141619
      ],
      [
        "▁oldugu",
        -9.124071369111872
      ],
      [
        "▁havayolu",
        -9.106923008328682
      ],
      [
        "▁onda",
        -7.567065664976884
      ],
      [
        "▁her",
        -4.351819211849485
      ],
      [
        "▁holding",
        -9.827755111467587
      ],
      [
        "ının",
        -7.511108721156491
      ],
      [
        "sıyla",
        -8.655109323276587
      ],
      [
        "▁basını",
        -9.040417234711573
      ],
      [
        "▁meger",
        -9.113731181418167
      ],
      [
        "▁sınıf",
        -8.39914720988987
      ],
      [
        "▁sozlesme",
        -8.823767818934813
      ],
      [
        "▁uzman",
        -9.107022615792317
      ],
      [
        "▁bekledigim",
        -9.876718643091479
      ],
      [
        "▁isci",
        -8.805369153753556
      ],
      [
        "▁veriyoru",
        -8.273166441701859
      ],
      [
        "▁havaalanı",
        -9.686071372919479
      ],
      [
        "▁yuksek",
        -7.6366032460836175
      ],
      [
        "onlar",
        -9.411444122687692
      ],
      [
        "abı",
        -8.806417144117615
      ],
      [
        "▁kazan",
        -8.2048554090186
      ],
      [
        "▁talebi",
        -9.92198400956778
      ],
      [
        "▁yerde",
        -8.334472081088059
      ],
      [
        "▁karıs",
        -8.905492161254562
      ],
      [
        "▁biz",
        -5.694005228019038
      ],
      [
        "▁guclu",
        -8.615319163489094
      ],
      [
        "kim",
        -9.596563809862902
      ],
      [
        "ildi",
        -8.01594957056753
      ],
      [
        "acagım",
        -8.912840254655515
      ],
      [
        "▁gorustu",
        -9.62920071410168
      ],
      [
        "▁hayvan",
        -9.129111683623776
      ],
      [
        "nız",
        -8.667558238461883
      ],
      [
        "▁yetisti",
        -9.719457351423177
      ],
      [
        "▁alma",
        -8.058754871713925
      ],
      [
        "▁utan",
        -9.504745316985991
      ],
      [
        "▁sarı",
        -8.410566010900784
      ],
      [
        "malı",
        -8.6571758920209
      ],
      [
        "▁olmayan",
        -8.744900237626066
      ],
      [
        "▁mezar",
        -9.589104511377666
      ],
      [
        "▁cıkar",
        -7.494545400675159
      ],
      [
        "ılacak",
        -9.459886432946673
      ],
      [
        "▁tabak",
        -9.874082518069827
      ],
      [
        "▁bo",
        -7.7575763592408835
      ],
      [
        "▁sabah",
        -7.475867209501228
      ],
      [
        "▁sar",
        -8.04497084428236
      ],
      [
        "▁gonder",
        -8.960826639427896
      ],
      [
        "03",
        -12.526590051914726
      ],
      [
        "▁dum",
        -7.613297299305508
      ],
      [
        "▁s",
        -12.083159505724957
      ],
      [
        "lanması",
        -9.384492991043452
      ],
      [
        "▁yuru",
        -8.26962531226005
      ],
      [
        "▁cin",
        -8.880960358299852
      ],
      [
        "▁ufak",
        -8.848529693629924
      ],
      [
        "tur",
        -7.886228925077593
      ],
      [
        "▁turkce",
        -9.665978850032685
      ],
      [
        "up",
        -7.598889178310598
      ],
      [
        "yi",
        -6.715046823876086
      ],
      [
        "▁cesitli",
        -8.806413343093737
      ],
      [
        "▁ort",
        -9.324583980457227
      ],
      [
        "liyor",
        -8.283412909873395
      ],
      [
        "ınca",
        -8.328044938778891
      ],
      [
        "▁hasta",
        -8.607328354018001
      ],
      [
        "▁degisim",
        -9.232188448144342
      ],
      [
        "▁tekrar",
        -8.140593433254258
      ],
      [
        "▁toprak",
        -8.965033517257393
      ],
      [
        "▁%11",
        -11.430310812463777
      ],
      [
        "▁saat",
        -7.228944779513362
      ],
      [
        "▁geli",
        -8.962898624253523
      ],
      [
        "▁getirdi",
        -9.221866789327024
      ],
      [
        "▁tuketici",
        -9.367644261695261
      ],
      [
        "un",
        -11.506828243750975
      ],
      [
        "be",
        -7.239008559173965
      ],
      [
        "▁fırsat",
        -9.339773953998057
      ],
      [
        "cı",
        -6.8411421657188605
      ],
      [
        "▁1.",
        -8.798540166567136
      ],
      [
        "▁300",
        -8.446205231310003
      ],
      [
        "5'",
        -9.230181957844804
      ],
      [
        "▁sayfa",
        -9.572577075181211
      ],
      [
        "nda",
        -8.120883562464737
      ],
      [
        "▁basarısız",
        -9.70247602624455
      ],
      [
        "▁yemekler",
        -7.733305670827239
      ],
      [
        "▁'y",
        -12.499910982439719
      ],
      [
        "▁ydı",
        -7.2089507199542044
      ],
      [
        "▁p",
        -12.931071006350244
      ],
      [
        "▁olmasa",
        -9.711716610257339
      ],
      [
        "lasmıs",
        -9.48235628716766
      ],
      [
        "▁israil",
        -9.805556238463774
      ],
      [
        "▁yel",
        -9.364721690919714
      ],
      [
        "▁vegas'",
        -9.349850389243503
      ],
      [
        "▁baslangıc",
        -9.411129236916102
      ],
      [
        "▁4.",
        -9.203855788183088
      ],
      [
        "▁karayolu",
        -8.636237975329585
      ],
      [
        "rek",
        -8.68358475618227
      ],
      [
        "▁kas",
        -8.300165634075803
      ],
      [
        "▁dibin",
        -9.784998742712537
      ],
      [
        "▁far",
        -9.583882714285949
      ],
      [
        "mesi",
        -7.996286468815175
      ],
      [
        "tti",
        -8.47049517042036
      ],
      [
        "▁olumlu",
        -9.429160449642504
      ],
      [
        "▁etmekte",
        -9.666068775442342
      ],
      [
        "▁birbiri",
        -8.835210247566256
      ],
      [
        "▁dile",
        -9.079088492353069
      ],
      [
        "▁git",
        -9.217702181258726
      ],
      [
        "▁fotograf",
        -9.235001923831412
      ],
      [
        "mıyor",
        -8.141477950611971
      ],
      [
        "▁arttı",
        -8.946888952902082
      ],
      [
        "▁kaybetti",
        -9.554227109760342
      ],
      [
        "▁alın",
        -8.046131971465012
      ],
      [
        "▁mu",
        -6.543499151083324
      ],
      [
        "il",
        -8.647156063981056
      ],
      [
        "ar",
        -10.551958778256278
      ],
      [
        "▁gazete",
        -8.484558903031953
      ],
      [
        "▁yana",
        -8.26114955683115
      ],
      [
        "▁sayı",
        -8.191815144122277
      ],
      [
        "meleri",
        -9.521446768078546
      ],
      [
        "▁soyley",
        -9.012474258793855
      ],
      [
        "▁yapmaya",
        -9.401387193661357
      ],
      [
        "▁%0.2",
        -10.876871859234017
      ],
      [
        "▁hepimizi",
        -9.081385122939912
      ],
      [
        "▁komite",
        -9.662440684556739
      ],
      [
        "▁urunleri",
        -9.157491601232389
      ],
      [
        "▁sergi",
        -9.387237179518559
      ],
      [
        "arak",
        -5.754384822440516
      ],
      [
        "▁kamyon",
        -9.643613079029965
      ],
      [
        "▁%3.8",
        -12.2298689641572
      ],
      [
        "▁gozlu",
        -9.75260002590107
      ],
      [
        "▁duygu",
        -8.308151214682091
      ],
      [
        "▁uzan",
        -9.382001499230213
      ],
      [
        "▁elektrik",
        -9.198413518486081
      ],
      [
        "▁dogrusu",
        -9.659299916601306
      ],
      [
        "▁okuma",
        -9.153775104149766
      ],
      [
        "▁elbet",
        -9.247529470571948
      ],
      [
        "▁yardımcısı",
        -9.287574419940885
      ],
      [
        "▁bilimsel",
        -9.742938216359722
      ],
      [
        "▁89-",
        -13.463494214945312
      ],
      [
        "diy",
        -5.510942966786964
      ],
      [
        "▁lazım",
        -9.096061030367224
      ],
      [
        "▁memleket",
        -9.2226560308027
      ],
      [
        "▁gunleri",
        -9.368335222725378
      ],
      [
        "▁gunku",
        -9.326794118446909
      ],
      [
        "▁kardesi",
        -9.176752825443604
      ],
      [
        "▁baltimore'",
        -8.039628490487903
      ],
      [
        "▁hissetti",
        -9.834692088320676
      ],
      [
        "▁hırsız",
        -9.898789632580193
      ],
      [
        "▁garson",
        -9.8978555920366
      ],
      [
        "▁kalktı",
        -9.492286170788681
      ],
      [
        "va",
        -7.210022431828942
      ],
      [
        "▁artır",
        -9.380009423641216
      ],
      [
        "lan",
        -6.687348394916658
      ],
      [
        "▁mana",
        -9.455218696408778
      ],
      [
        ",",
        -2.073968199337104
      ],
      [
        "▁dolas",
        -8.92355343919327
      ],
      [
        "▁degeri",
        -9.614784030557676
      ],
      [
        "▁oldugunu",
        -7.159231166583403
      ],
      [
        "▁erken",
        -7.7449771234475895
      ],
      [
        "▁baktı",
        -8.768471921163208
      ],
      [
        "▁af",
        -9.010217767605173
      ],
      [
        "▁ates",
        -8.490636100668112
      ],
      [
        "▁hoca",
        -8.931254917342269
      ],
      [
        "▁esas",
        -9.675282516069041
      ],
      [
        "▁otur",
        -8.84079811473283
      ],
      [
        "▁seyler",
        -8.389467777516103
      ],
      [
        "▁dusunuyoru",
        -9.80835735980842
      ],
      [
        "▁isi",
        -8.28172190169338
      ],
      [
        "▁koyu",
        -9.26803252801719
      ],
      [
        "sekiz",
        -8.816713050654164
      ],
      [
        "8",
        -9.75904513773084
      ],
      [
        "▁televizyon",
        -9.272980444086404
      ],
      [
        "▁zorlu",
        -9.532250868081988
      ],
      [
        "▁tercih",
        -8.136399356196023
      ],
      [
        "▁yerin",
        -8.420931670712411
      ],
      [
        "▁taban",
        -9.537960905900913
      ],
      [
        "r",
        -8.240384993611011
      ],
      [
        "▁pahali",
        -8.744530098194137
      ],
      [
        "siyon",
        -8.803850646092986
      ],
      [
        "abilecegini",
        -9.940969119377181
      ],
      [
        "▁bay",
        -6.4969584944481715
      ],
      [
        "▁mini",
        -9.128285233470033
      ],
      [
        "▁altmıs",
        -9.585953801299627
      ],
      [
        "▁kıs",
        -8.052215019698782
      ],
      [
        "▁44",
        -9.186140534000469
      ],
      [
        "▁jo",
        -9.61171300025979
      ],
      [
        "▁ar",
        -7.795934983906904
      ],
      [
        "▁kadın",
        -7.519355847956054
      ],
      [
        "▁insan",
        -7.43474952312182
      ],
      [
        "▁yen",
        -8.819349156316546
      ],
      [
        "ur",
        -9.723086458638548
      ],
      [
        "▁degerlendirir",
        -9.774926877776943
      ],
      [
        "▁ayır",
        -9.159927669876998
      ],
      [
        "▁umit",
        -9.923417345952897
      ],
      [
        "▁bilet",
        -9.067291709145813
      ],
      [
        "lanır",
        -9.165613900976947
      ],
      [
        "▁arzu",
        -9.704532547074175
      ],
      [
        "▁cık",
        -8.268994274767113
      ],
      [
        "oku",
        -11.357596923554134
      ],
      [
        "▁bes",
        -8.97001699334199
      ],
      [
        "3'",
        -9.338681500981842
      ],
      [
        "%8",
        -11.906306491240494
      ],
      [
        "▁dans",
        -9.904430102548712
      ],
      [
        "▁hepsin",
        -9.136321815355377
      ],
      [
        "▁kullanım",
        -9.926657720461112
      ],
      [
        "▁am",
        -8.351838422124183
      ],
      [
        "▁denge",
        -9.440389556756443
      ],
      [
        "▁iki",
        -4.84812175613624
      ],
      [
        "▁esna",
        -9.746692740984454
      ],
      [
        "rak",
        -6.450553508797672
      ],
      [
        "▁mor",
        -8.915628936790837
      ],
      [
        "nin",
        -6.325801806260994
      ],
      [
        "ten",
        -6.76571010123871
      ],
      [
        "▁buray",
        -9.61582519346415
      ],
      [
        "▁ken",
        -6.528281609910964
      ],
      [
        "bi",
        -7.786051841493481
      ],
      [
        "▁oakland'",
        -9.010062451976967
      ],
      [
        "▁askeri",
        -9.320796217654388
      ],
      [
        "▁nefes",
        -9.42626568919552
      ],
      [
        "▁orta",
        -7.109048410703266
      ],
      [
        "▁toronto'da",
        -9.62243488353961
      ],
      [
        "▁indirim",
        -9.672342322911225
      ],
      [
        "▁yatak",
        -9.087260192882367
      ],
      [
        "&",
        -7.474416782928896
      ],
      [
        "▁olduk",
        -8.403540058912242
      ],
      [
        "▁sizde",
        -9.613044075128913
      ],
      [
        "ell",
        -8.985153745845299
      ],
      [
        "▁burada",
        -7.918770060234484
      ],
      [
        "ta",
        -7.825751804999858
      ],
      [
        "isi",
        -8.596873926061912
      ],
      [
        "▁fı",
        -10.30638076063471
      ],
      [
        "▁dogru",
        -7.823167852843882
      ],
      [
        "▁gittigi",
        -9.717799621535365
      ],
      [
        "▁kimsey",
        -8.57854400842489
      ],
      [
        "co",
        -7.973488916364465
      ],
      [
        "sam",
        -9.153526985492856
      ],
      [
        "▁1.6",
        -8.971239292048033
      ],
      [
        "▁san",
        -8.769387182055988
      ],
      [
        "▁yık",
        -8.882488047796942
      ],
      [
        "▁sıg",
        -9.391445185531294
      ],
      [
        "▁ayrı",
        -8.31243187314766
      ],
      [
        "▁asker",
        -8.960179558229704
      ],
      [
        "▁sana",
        -7.031446902661547
      ],
      [
        "dıgında",
        -9.274944603347647
      ],
      [
        "▁temsilci",
        -9.53477263973522
      ],
      [
        "ce",
        -8.544836835015023
      ],
      [
        "ri",
        -6.984296069084161
      ],
      [
        "▁iflas",
        -9.921949726572105
      ],
      [
        "larımı",
        -9.551658991996812
      ],
      [
        "▁carp",
        -9.155739374925366
      ],
      [
        "▁yok",
        -6.880206553914906
      ],
      [
        "cı",
        -11.34265800487346
      ],
      [
        "▁yanda",
        -9.581330661805524
      ],
      [
        "west",
        -9.133903334395868
      ],
      [
        "▁enflasyon",
        -9.520610621885105
      ],
      [
        "port",
        -9.557004008212232
      ],
      [
        "▁sikinti",
        -9.222657196429008
      ],
      [
        "▁rahatsız",
        -9.592074692156512
      ],
      [
        "▁peki",
        -9.446494641611709
      ],
      [
        "▁%8",
        -9.680844401386137
      ],
      [
        "▁sogu",
        -9.619507765927027
      ],
      [
        "al",
        -11.50900390930352
      ],
      [
        "▁birlikte",
        -8.53978008109738
      ],
      [
        "▁international",
        -9.537277235693281
      ],
      [
        "▁getirme",
        -9.78098562119316
      ],
      [
        "▁birileri",
        -9.482485129175965
      ],
      [
        "▁yakın",
        -8.046105017961292
      ],
      [
        "▁gercekte",
        -8.569900678008958
      ],
      [
        "ırdı",
        -8.6557344872212
      ],
      [
        "▁bende",
        -7.864745660393515
      ],
      [
        "▁evde",
        -8.869529297188187
      ],
      [
        "%7.",
        -14.190853728377773
      ],
      [
        "▁sorunu",
        -9.033023743568608
      ],
      [
        "en",
        -5.998904542421549
      ],
      [
        "▁pittsburgh",
        -8.834743347726484
      ],
      [
        "▁cevap",
        -8.751903498805078
      ],
      [
        "▁100",
        -7.323281198345844
      ],
      [
        "▁doktor",
        -8.736821148762276
      ],
      [
        "gu",
        -7.002228349152346
      ],
      [
        "t",
        -6.307256664581648
      ],
      [
        "▁adet",
        -8.299820026155404
      ],
      [
        "▁bekliyor",
        -8.767550165590148
      ],
      [
        "▁gorun",
        -7.989398104297026
      ],
      [
        "▁kural",
        -9.259219366042885
      ],
      [
        "▁y",
        -8.273434547613135
      ],
      [
        "▁baskan",
        -8.193533261538985
      ],
      [
        "▁personeli",
        -9.0602481585388
      ],
      [
        "dım",
        -8.408313124615084
      ],
      [
        "ana",
        -4.716492099178145
      ],
      [
        "▁calisanlari",
        -9.811442890001226
      ],
      [
        "biz",
        -9.163017848330604
      ],
      [
        "imi",
        -8.173564068595436
      ],
      [
        "▁karsilama",
        -9.850757587950326
      ],
      [
        "lıkta",
        -9.035784432988528
      ],
      [
        "▁gitme",
        -8.561805540938881
      ],
      [
        "sen",
        -8.793550102835168
      ],
      [
        "▁degilse",
        -8.67508121348586
      ],
      [
        "▁yolculuk",
        -9.875255226856927
      ],
      [
        "▁temsil",
        -9.744802800918883
      ],
      [
        "ev",
        -11.809602426827798
      ],
      [
        "▁pi",
        -8.50481623888562
      ],
      [
        "▁saldırı",
        -9.66569813356259
      ],
      [
        "▁francisco'da",
        -8.773008226747738
      ],
      [
        "▁care",
        -9.521568657991004
      ],
      [
        "▁yukseldi",
        -7.927147913076655
      ],
      [
        "▁birinde",
        -8.152972439331311
      ],
      [
        "▁yukarı",
        -9.163135277092621
      ],
      [
        "▁sayısı",
        -9.607582476147186
      ],
      [
        "▁ustun",
        -8.34081716786637
      ],
      [
        "▁ugra",
        -8.602874556196538
      ],
      [
        "sa",
        -9.687890704303967
      ],
      [
        "ktan",
        -8.06294448844352
      ],
      [
        "▁duvar",
        -8.405732706980263
      ],
      [
        "▁banka",
        -8.22863087725518
      ],
      [
        "▁ogretmen",
        -9.064173185122463
      ],
      [
        "▁devlet",
        -8.180144794439668
      ],
      [
        "▁acıklama",
        -8.93104922886528
      ],
      [
        "▁%7.7",
        -11.120674655466068
      ],
      [
        "▁sahi",
        -8.774162223856722
      ],
      [
        "▁ister",
        -8.461141765324777
      ],
      [
        "▁gurultu",
        -9.606869852445683
      ],
      [
        "▁yasam",
        -8.60250179409385
      ],
      [
        "▁yedi",
        -9.348775710887438
      ],
      [
        "▁anayasa",
        -9.589267605119176
      ],
      [
        "▁lira",
        -8.78330835128318
      ],
      [
        "▁izin",
        -8.986342644727685
      ],
      [
        "7/",
        -9.640234913681336
      ],
      [
        "▁sh",
        -9.211448091064455
      ],
      [
        "▁gr",
        -8.65834947036678
      ],
      [
        "▁lu",
        -9.307224296284241
      ],
      [
        "▁yeterli",
        -8.579436602679303
      ],
      [
        "▁geciyor",
        -9.346847561423957
      ],
      [
        "nızı",
        -9.532832227753374
      ],
      [
        "liydi",
        -8.215657485717394
      ],
      [
        "▁6",
        -7.0338405742876775
      ],
      [
        "eger",
        -6.87329914079828
      ],
      [
        "▁oturma",
        -9.662464738210264
      ],
      [
        "▁kadının",
        -9.661666674239978
      ],
      [
        "▁jose'",
        -9.8975773446219
      ],
      [
        "[CLS]",
        0.0
      ],
      [
        "▁annem",
        -8.505711696356052
      ],
      [
        "▁istasyon",
        -9.897584525431423
      ],
      [
        "▁merkezin",
        -9.274558039366852
      ],
      [
        "uyor",
        -7.474684082033634
      ],
      [
        "dort",
        -8.300701135237919
      ],
      [
        "at",
        -6.864024170952208
      ],
      [
        "▁cicek",
        -9.013111211489669
      ],
      [
        "▁can",
        -7.711652745246474
      ],
      [
        "▁guven",
        -8.364905849349483
      ],
      [
        "▁sec",
        -8.722552694314736
      ],
      [
        "▁adı",
        -8.787562180224416
      ],
      [
        "▁ru",
        -8.775269578744147
      ],
      [
        "▁inanıyor",
        -9.742411008509904
      ],
      [
        "dıklarını",
        -9.522017751202538
      ],
      [
        "▁cag",
        -9.125655136347477
      ],
      [
        "landı",
        -7.736316922162501
      ],
      [
        "▁bugun",
        -7.773253140044549
      ],
      [
        "▁kalma",
        -8.417689083765408
      ],
      [
        "▁1991",
        -8.737957349104708
      ],
      [
        "▁davet",
        -9.411777347204454
      ],
      [
        "▁lı",
        -7.292870104275155
      ],
      [
        "▁kir",
        -9.172231795358856
      ],
      [
        "▁york",
        -8.260330809334352
      ],
      [
        "%7",
        -13.006976400583136
      ],
      [
        "▁0.1",
        -9.205788647950406
      ],
      [
        "ti",
        -6.147019618394737
      ],
      [
        "▁derin",
        -8.622110740291518
      ],
      [
        "▁toplam",
        -8.713591460912568
      ],
      [
        "▁belir",
        -8.968987588287892
      ],
      [
        "▁bolum",
        -9.131452302587608
      ],
      [
        "de",
        -5.712287164527462
      ],
      [
        "sinde",
        -7.376199384409418
      ],
      [
        "▁kalkıyor",
        -9.377261048298358
      ],
      [
        "▁gelisme",
        -9.328736594089701
      ],
      [
        "▁koy",
        -7.7608972794856
      ],
      [
        "▁borc",
        -8.227774933745913
      ],
      [
        "▁ra",
        -9.245496693429814
      ],
      [
        "cu",
        -8.943905749479217
      ],
      [
        "▁satıs",
        -8.284986300785768
      ],
      [
        "▁yemek",
        -7.8366504589594275
      ],
      [
        "▁onu",
        -5.86245400157231
      ],
      [
        "▁soyu",
        -9.895751968604566
      ],
      [
        "▁ikisi",
        -9.471197700667371
      ],
      [
        "mesini",
        -8.71257271960513
      ],
      [
        "malıdır",
        -9.392479578562575
      ],
      [
        "s",
        -6.621907703193311
      ],
      [
        "▁hakim",
        -9.609524030300243
      ],
      [
        "lendiril",
        -9.61070739630008
      ],
      [
        "▁sabit",
        -9.353584926558861
      ],
      [
        "▁baltimore",
        -9.453896005508657
      ],
      [
        "▁montreal'",
        -9.595406822923195
      ],
      [
        "▁1\\/",
        -7.7140516848181395
      ],
      [
        "00",
        -9.62136154185098
      ],
      [
        "18",
        -12.105479095657515
      ],
      [
        "ustur",
        -8.57913183690498
      ],
      [
        "madı",
        -8.479082401796951
      ],
      [
        "▁zamanlar",
        -9.245296436527727
      ],
      [
        "▁tanı",
        -7.866231480237896
      ],
      [
        "▁orada",
        -8.546951822982006
      ],
      [
        "▁2.4",
        -9.51132940065262
      ],
      [
        "if",
        -8.320450407507982
      ],
      [
        "▁rast",
        -9.176334485020508
      ],
      [
        "gun",
        -8.411989867056507
      ],
      [
        "a",
        -11.92994979742507
      ],
      [
        "▁onun",
        -8.721998097028802
      ],
      [
        "le",
        -6.62633018119359
      ],
      [
        "▁otel",
        -7.342137325474617
      ],
      [
        "▁sev",
        -7.841390771695485
      ],
      [
        "▁edin",
        -8.910437045661322
      ],
      [
        "▁beni",
        -9.404093750351866
      ],
      [
        "bir",
        -9.545123950984518
      ],
      [
        "▁oran",
        -8.45381499352556
      ],
      [
        "▁erkekler",
        -9.414916844909502
      ],
      [
        "k",
        -8.180812786693188
      ],
      [
        "▁daim",
        -9.539267423507583
      ],
      [
        "▁fatura",
        -9.808350691856628
      ],
      [
        "▁uygun",
        -7.7323735480501865
      ],
      [
        "▁ise",
        -8.206277181065557
      ],
      [
        "▁kızı",
        -8.385740695734391
      ],
      [
        "▁devri",
        -9.50495412908283
      ],
      [
        "▁yuregi",
        -9.554262055677935
      ],
      [
        "▁bur",
        -8.165638143690838
      ],
      [
        "▁10000",
        -9.57507675825101
      ],
      [
        "▁yerinde",
        -8.973651775341516
      ],
      [
        "er",
        -6.317287842165637
      ],
      [
        "ebilir",
        -7.428256328907694
      ],
      [
        "▁ustunde",
        -8.445880248513777
      ],
      [
        "emiyor",
        -9.109793854806359
      ],
      [
        "▁mantık",
        -9.625195461858329
      ],
      [
        "▁da",
        -9.420852245950911
      ],
      [
        "▁yardım",
        -8.414896876047703
      ],
      [
        "▁hayatın",
        -9.221624267853446
      ],
      [
        "▁sanayi",
        -9.32674064933965
      ],
      [
        "▁1.4",
        -8.80854670130023
      ],
      [
        "▁ra",
        -8.053191411831143
      ],
      [
        "eyim",
        -9.433253555681913
      ],
      [
        "dıgımız",
        -9.939216705890605
      ],
      [
        "mıstır",
        -8.52406905666259
      ],
      [
        "▁naz",
        -9.349281360469675
      ],
      [
        "▁`",
        -10.52550487288217
      ],
      [
        "▁odamiz",
        -9.363540036846452
      ],
      [
        "ır",
        -8.522366261923946
      ],
      [
        "iyeti",
        -8.900904763757794
      ],
      [
        "▁davranıs",
        -9.45812686359387
      ],
      [
        "miz",
        -7.864422688859889
      ],
      [
        "iyorlar",
        -9.004627336749742
      ],
      [
        "▁mc",
        -9.216536341684872
      ],
      [
        "▁dil",
        -8.358391811749737
      ],
      [
        "▁telefon",
        -8.46681560524587
      ],
      [
        "gunu",
        -8.723887627584766
      ],
      [
        "▁%3",
        -10.101956111336266
      ],
      [
        "mazdı",
        -9.459250341350788
      ],
      [
        "▁bırakma",
        -9.510069905633138
      ],
      [
        "▁mıydı",
        -8.489729860708078
      ],
      [
        "▁iri",
        -9.573171419173605
      ],
      [
        "▁secme",
        -9.912827310998146
      ],
      [
        "▁isin",
        -9.014607584537863
      ],
      [
        "▁tahmin",
        -8.174678132467914
      ],
      [
        "▁j",
        -8.358691229792537
      ],
      [
        "lik",
        -6.483570365688331
      ],
      [
        "▁okul",
        -8.386398661127298
      ],
      [
        "▁gereken",
        -9.322285533392128
      ],
      [
        "▁ayna",
        -9.38790824651294
      ],
      [
        "2",
        -6.4595835472024214
      ],
      [
        "▁sirketin",
        -8.508958905985443
      ],
      [
        "▁sorun",
        -8.031173147178858
      ],
      [
        "gin",
        -8.426214247501704
      ],
      [
        "▁hadi",
        -9.402590035263621
      ],
      [
        "▁ye",
        -8.609225475774311
      ],
      [
        "ımızda",
        -9.463543668519087
      ],
      [
        "▁ford",
        -9.879120759571935
      ],
      [
        "▁t",
        -8.484029689646023
      ],
      [
        "▁kaldı",
        -8.481267753370577
      ],
      [
        "▁gecmis",
        -8.444499314222082
      ],
      [
        "cıları",
        -9.105653373066364
      ],
      [
        "▁cal",
        -8.343034192650116
      ],
      [
        "▁rakı",
        -9.788217958298379
      ],
      [
        "▁yemeklerinde",
        -9.60690170437325
      ],
      [
        "lige",
        -9.013126390602185
      ],
      [
        "▁yuzu",
        -8.447171577379716
      ],
      [
        "▁veri",
        -9.391796727538852
      ],
      [
        "▁dede",
        -9.57975026961092
      ],
      [
        "▁fark",
        -8.7011388217084
      ],
      [
        "▁hen",
        -8.362054560890522
      ],
      [
        "▁34",
        -9.06955530779975
      ],
      [
        "▁27",
        -7.710104612445034
      ],
      [
        "▁ucu",
        -9.239929097601554
      ],
      [
        "▁satma",
        -9.918684152075542
      ],
      [
        "▁animasyon",
        -8.411926451759186
      ],
      [
        "▁yay",
        -8.62564212531997
      ],
      [
        "▁california'",
        -9.885737154686058
      ],
      [
        "y",
        -7.050804997876933
      ],
      [
        "▁petersburg'",
        -9.662437031291418
      ],
      [
        "▁egili",
        -9.557993754923071
      ],
      [
        "▁on",
        -7.700150654774277
      ],
      [
        "▁katilma",
        -9.441534116952486
      ],
      [
        "▁he",
        -6.007693112883406
      ],
      [
        "ınız",
        -9.216641912703256
      ],
      [
        "▁geriledi",
        -9.731897819804754
      ],
      [
        "dar",
        -8.483794931262242
      ],
      [
        "▁oden",
        -9.25049482729335
      ],
      [
        "ilmis",
        -8.306599104433328
      ],
      [
        "lastırma",
        -9.700084222025435
      ],
      [
        "▁sesi",
        -9.119940064653967
      ],
      [
        "▁kes",
        -8.290994761137343
      ],
      [
        "ecegim",
        -9.249607183040313
      ],
      [
        "▁196",
        -9.2194262247823
      ],
      [
        "ım",
        -8.568093718523716
      ],
      [
        "000",
        -7.492953355410074
      ],
      [
        "300",
        -9.606346454984338
      ],
      [
        "lenir",
        -9.478575123896054
      ],
      [
        "▁hangi",
        -6.907736328796224
      ],
      [
        "is",
        -7.1308264400667065
      ],
      [
        "▁turk",
        -7.728511882274977
      ],
      [
        "▁yani",
        -6.940966782202292
      ],
      [
        "▁dow",
        -9.249697153798527
      ],
      [
        "li",
        -5.284557323569377
      ],
      [
        "▁ikinci",
        -8.955184784343789
      ],
      [
        "g",
        -6.636533682042966
      ],
      [
        "▁olusu",
        -9.891425614496164
      ],
      [
        "2'de",
        -9.921511828037541
      ],
      [
        "▁yumurta",
        -9.606869014535924
      ],
      [
        "▁son",
        -6.756372569164154
      ],
      [
        "▁oda",
        -6.827318493496094
      ],
      [
        "▁indir",
        -9.47249412423285
      ],
      [
        "▁havuzu",
        -8.35754737847261
      ],
      [
        "▁komsu",
        -9.331217300789806
      ],
      [
        "▁sı",
        -13.077029596797782
      ],
      [
        "▁orlando'",
        -9.045054959624025
      ],
      [
        "amaz",
        -8.493881577327123
      ],
      [
        "▁seviye",
        -9.0802649801795
      ],
      [
        "▁bush",
        -9.473108151555515
      ],
      [
        "gı",
        -6.9036165819882065
      ],
      [
        "▁maka",
        -9.156089624158138
      ],
      [
        "▁kasım",
        -9.185480855480305
      ],
      [
        "▁duser",
        -9.628299969020807
      ],
      [
        "3",
        -8.86527590944667
      ],
      [
        "▁kendiniz",
        -9.659975854683289
      ],
      [
        "▁doları",
        -8.5292984276086
      ],
      [
        "▁calısma",
        -8.102801672166072
      ],
      [
        "ginde",
        -9.256312057752641
      ],
      [
        "▁tanım",
        -9.350657733400638
      ],
      [
        "bircok",
        -9.673910155888947
      ],
      [
        "▁1989-8",
        -11.134501819180723
      ],
      [
        "meye",
        -7.830894294974238
      ],
      [
        "10",
        -8.671631989924691
      ],
      [
        "▁galiba",
        -9.701297194821874
      ],
      [
        "ey",
        -8.5985782372202
      ],
      [
        "▁suphe",
        -9.353561093159783
      ],
      [
        "'da",
        -7.104243501951545
      ],
      [
        "▁diyor",
        -7.6705930823745225
      ],
      [
        "▁miktar",
        -9.339682741751426
      ],
      [
        "dir",
        -7.578919477114084
      ],
      [
        "▁oyun",
        -8.059444319201884
      ],
      [
        "▁baslayan",
        -9.646759565086256
      ],
      [
        "▁k",
        -7.4153801024934385
      ],
      [
        "w",
        -7.745543900936054
      ],
      [
        "▁sirket",
        -7.378385332011397
      ],
      [
        "▁ne",
        -5.424833690440229
      ],
      [
        "▁misin",
        -6.959349652996775
      ],
      [
        "dik",
        -7.84104521199231
      ],
      [
        "▁ayag",
        -9.701100014351084
      ],
      [
        "▁lake",
        -8.901072374212006
      ],
      [
        "▁kisi",
        -7.711517460489275
      ],
      [
        "▁isletme",
        -8.685093583378752
      ],
      [
        "ho",
        -9.373322718181466
      ],
      [
        "yıp",
        -8.63210240462549
      ],
      [
        "▁sir",
        -9.210350487834894
      ],
      [
        "n",
        -3.8127588826541015
      ],
      [
        "▁15",
        -7.200442600775433
      ],
      [
        "▁yapacagı",
        -9.665874563172583
      ],
      [
        "▁inceleme",
        -9.736538504459816
      ],
      [
        "▁verme",
        -8.309440150302972
      ],
      [
        "▁sorusturma",
        -9.8504977078064
      ],
      [
        "▁ucuz",
        -7.874505307509717
      ],
      [
        "▁3\\/",
        -8.417597687511622
      ],
      [
        "▁ikibiniki",
        -9.484213962934435
      ],
      [
        "▁1991-199",
        -11.945824767265378
      ],
      [
        "ch",
        -7.91914995566932
      ],
      [
        "▁istanbul'u",
        -9.917328861964682
      ],
      [
        "▁bulama",
        -9.321424377065032
      ],
      [
        "▁yildiz",
        -9.411141344012842
      ],
      [
        "m",
        -3.95258899655599
      ],
      [
        "▁otomobil",
        -8.848349392606263
      ],
      [
        "'e",
        -8.05683679560542
      ],
      [
        "▁bırakı",
        -9.331060202309818
      ],
      [
        "▁ta",
        -7.040978547830226
      ],
      [
        "▁sun",
        -8.429457170599616
      ],
      [
        "▁charlotte'",
        -9.915873297708668
      ],
      [
        "▁sent",
        -9.172448494973436
      ],
      [
        "z",
        -14.190753728377773
      ],
      [
        "▁guleryuzlu",
        -8.490250375429138
      ],
      [
        "▁fer",
        -8.86135246381119
      ],
      [
        "▁asla",
        -8.941661671978654
      ],
      [
        "▁kapat",
        -8.998941795654417
      ],
      [
        "a'nın",
        -9.062021205373767
      ],
      [
        "▁kisisel",
        -9.474530773815632
      ],
      [
        "▁za",
        -11.938950486359479
      ],
      [
        "198",
        -13.651276886405913
      ],
      [
        "▁el",
        -7.67013717194777
      ],
      [
        "▁keskin",
        -9.662930976418822
      ],
      [
        "▁olmadıgını",
        -8.887071605079296
      ],
      [
        "▁edilen",
        -8.56085855666207
      ],
      [
        "'ni",
        -7.6142010964226285
      ],
      [
        "▁street",
        -9.272980940124093
      ],
      [
        "▁eri",
        -9.399253732152665
      ],
      [
        "dim",
        -7.428725877552781
      ],
      [
        "▁4",
        -9.237475727051283
      ],
      [
        "ydu",
        -8.780846685632234
      ],
      [
        "▁hamam",
        -9.39795088789963
      ],
      [
        "'i",
        -8.699709342885477
      ],
      [
        "▁gunu",
        -7.0885398595106786
      ],
      [
        "▁bekle",
        -8.142429476172495
      ],
      [
        ":30",
        -11.315077693448158
      ],
      [
        "▁me",
        -7.606735313883577
      ],
      [
        "nden",
        -8.025034340980254
      ],
      [
        "▁tarihi",
        -9.05402231796101
      ],
      [
        "▁dusus",
        -8.45464891906829
      ],
      [
        "▁1.5",
        -8.706118280921126
      ],
      [
        "lerde",
        -7.550748624395028
      ],
      [
        "▁cıkıyor",
        -9.303929089123182
      ],
      [
        "larını",
        -6.280612265041208
      ],
      [
        "▁sozcu",
        -8.465539242716442
      ],
      [
        "▁nakit",
        -9.520884104335874
      ],
      [
        "▁or",
        -7.981185643670469
      ],
      [
        "▁arı",
        -9.307641275476165
      ],
      [
        "▁isaret",
        -9.085387218212837
      ],
      [
        "▁soyler",
        -9.384621725798192
      ],
      [
        "▁arz",
        -9.592150530847618
      ],
      [
        "▁musun",
        -8.285459285682773
      ],
      [
        "▁los",
        -8.794507608278273
      ],
      [
        "▁acık",
        -7.67673720628257
      ],
      [
        "▁basvur",
        -9.456615917113677
      ],
      [
        "▁otelin",
        -8.419365159458527
      ],
      [
        "▁gorur",
        -9.48198771409221
      ],
      [
        "▁senin",
        -6.975285892300653
      ],
      [
        "▁kopu",
        -9.512454934003651
      ],
      [
        "▁aynı",
        -7.6416311809589725
      ],
      [
        "birinde",
        -9.596124906648416
      ],
      [
        "▁fiyatları",
        -8.474233616881529
      ],
      [
        "▁akıl",
        -9.126712317500164
      ],
      [
        "▁guney",
        -9.078880037566947
      ],
      [
        "▁oray",
        -9.58672821004198
      ],
      [
        "▁cozul",
        -9.875576676822972
      ],
      [
        "▁atıl",
        -9.33530550348869
      ],
      [
        "▁tesis",
        -7.304298948699808
      ],
      [
        "▁gelme",
        -8.615284990481932
      ],
      [
        "▁3.5",
        -8.92963682318138
      ],
      [
        "▁kagıt",
        -8.791002462386043
      ],
      [
        "ze",
        -7.5863020157264645
      ],
      [
        "▁sonraki",
        -9.401397874466273
      ],
      [
        "▁amerikan",
        -7.695337787897906
      ],
      [
        "▁yol",
        -7.508836754864665
      ],
      [
        "▁198",
        -13.999596592358095
      ],
      [
        "▁eden",
        -7.990850018570512
      ],
      [
        "▁north",
        -9.662439117998822
      ],
      [
        "▁ilgilendi",
        -7.700510878397004
      ],
      [
        "▁9",
        -8.111536213983028
      ],
      [
        "▁otu",
        -9.62229282447634
      ],
      [
        "▁ap",
        -9.337799653288135
      ],
      [
        "▁kucuk",
        -7.369111363231277
      ],
      [
        "mak",
        -6.757687944352113
      ],
      [
        "▁ismi",
        -9.538716737898902
      ],
      [
        "1'",
        -9.690327734277053
      ],
      [
        "▁uyku",
        -9.074834103682743
      ],
      [
        "▁kac",
        -8.465416840291955
      ],
      [
        "▁gormek",
        -9.131041768174025
      ],
      [
        "▁olma",
        -7.7981672658848105
      ],
      [
        "▁ha",
        -9.66166110685669
      ],
      [
        "▁chicago'da",
        -9.532543856824201
      ],
      [
        "▁keyif",
        -9.741706474475194
      ],
      [
        "▁dusunce",
        -8.739561380085066
      ],
      [
        "▁bal",
        -8.743150179064244
      ],
      [
        "▁hemen",
        -7.835487817301122
      ],
      [
        "▁talep",
        -9.053825120458068
      ],
      [
        "z",
        -5.578889197422031
      ],
      [
        "▁2016",
        -9.308874043928322
      ],
      [
        "▁uy",
        -9.094522260370116
      ],
      [
        "▁verici",
        -9.705575258177799
      ],
      [
        "▁ithalat",
        -9.741684922331197
      ],
      [
        "▁sorunları",
        -9.425974670333805
      ],
      [
        "▁kalacak",
        -9.68901912747388
      ],
      [
        "mesine",
        -9.28788679024574
      ],
      [
        "▁gecen",
        -7.740156578856176
      ],
      [
        "▁yaptı",
        -8.04343072860232
      ],
      [
        "▁adım",
        -8.595047796208686
      ],
      [
        "di",
        -5.4733509014408135
      ],
      [
        "▁faaliyet",
        -8.62943910027159
      ],
      [
        "▁cıkma",
        -8.608755600597515
      ],
      [
        "▁kahvalti",
        -9.10692136826535
      ],
      [
        "▁cent",
        -8.863460204735116
      ],
      [
        "▁olacaktı",
        -9.448998980874432
      ],
      [
        "▁oluyor",
        -8.422392824418143
      ],
      [
        "c",
        -12.52551320592358
      ],
      [
        "▁ciz",
        -9.425577815666575
      ],
      [
        "▁havuz",
        -8.431273178524808
      ],
      [
        "▁donme",
        -9.555437637584113
      ],
      [
        "▁hulya",
        -9.87388622716131
      ],
      [
        "digi",
        -7.99030721541986
      ],
      [
        "lanan",
        -8.378359011494926
      ],
      [
        "do",
        -8.446486448208345
      ],
      [
        "oglu",
        -8.520689787439132
      ],
      [
        "ba",
        -6.935744026012334
      ],
      [
        "▁du",
        -6.33322890003446
      ],
      [
        "▁evvel",
        -9.701801514736013
      ],
      [
        "r",
        -4.4202910241579785
      ],
      [
        "he",
        -9.642327013437182
      ],
      [
        "du",
        -6.212810006052852
      ],
      [
        "in",
        -9.31817253420266
      ],
      [
        "▁%10",
        -10.750026030658061
      ],
      [
        "la",
        -7.417516293723048
      ],
      [
        "ma",
        -12.810082874936368
      ],
      [
        "▁birbirlerin",
        -8.356805554692865
      ],
      [
        "▁basar",
        -9.588057309971248
      ],
      [
        "da",
        -10.957139774156504
      ],
      [
        "▁yapı",
        -7.698452381668765
      ],
      [
        "dikleri",
        -8.949614844174896
      ],
      [
        "ecek",
        -7.173481796611207
      ],
      [
        "▁karısık",
        -9.566820363338161
      ],
      [
        "90",
        -9.626223619391586
      ],
      [
        "▁yahu",
        -9.850622815513148
      ],
      [
        "ama",
        -4.655174814946831
      ],
      [
        "ge",
        -7.345533937294331
      ],
      [
        "▁kalp",
        -9.414752420043028
      ],
      [
        "▁bazılarını",
        -9.09894749944287
      ],
      [
        "▁sohbet",
        -9.805533009087016
      ],
      [
        "▁1980",
        -9.541001181325427
      ],
      [
        "▁sam",
        -8.94105453006788
      ],
      [
        "▁vapur",
        -9.60690420242475
      ],
      [
        "yse",
        -9.25516519263973
      ],
      [
        "▁garanti",
        -9.589016854240052
      ],
      [
        "ra",
        -11.810406533935817
      ],
      [
        "▁gidi",
        -9.168934209705439
      ],
      [
        "▁dunyada",
        -9.460184252004323
      ],
      [
        "▁personelin",
        -9.502678754151127
      ],
      [
        "▁tokyo",
        -9.554230580794302
      ],
      [
        "▁soyle",
        -7.664439107648782
      ],
      [
        "▁tam",
        -7.650208858215884
      ],
      [
        "▁a",
        -7.833600143780994
      ],
      [
        "▁once",
        -5.94700837285271
      ],
      [
        "▁go",
        -8.977930279160033
      ],
      [
        "▁ol",
        -5.815072017605014
      ],
      [
        "▁merak",
        -8.975483288384803
      ],
      [
        "▁etkisi",
        -9.587435909451585
      ],
      [
        "19",
        -9.653955124169919
      ],
      [
        "▁5",
        -6.399179993357795
      ],
      [
        "▁gosteriyor",
        -9.190690712429031
      ],
      [
        "▁francisco'",
        -7.385385412695491
      ],
      [
        "▁garip",
        -9.572018954643635
      ],
      [
        "▁milyon",
        -8.650041828704888
      ],
      [
        "▁on",
        -6.257864441783672
      ],
      [
        "▁konusuyor",
        -9.545441908765984
      ],
      [
        "▁kredi",
        -8.227367814183824
      ],
      [
        "asyon",
        -8.450715029804062
      ],
      [
        "▁anı",
        -9.601094548607406
      ],
      [
        "an",
        -6.656574563908451
      ],
      [
        "▁sizler",
        -8.499743326726717
      ],
      [
        "▁temizligi",
        -8.116102342209278
      ],
      [
        "▁dus",
        -7.871546835520541
      ],
      [
        "▁anne",
        -8.830709429049364
      ],
      [
        "▁fabrika",
        -9.064134520055097
      ],
      [
        "▁cig",
        -9.60042815896055
      ],
      [
        "▁%4.",
        -12.580596872868544
      ],
      [
        "▁goruyor",
        -8.87877544428404
      ],
      [
        "▁sigara",
        -9.210472484920356
      ],
      [
        "▁ediyordu",
        -9.128789525870886
      ],
      [
        "'y",
        -11.971100622608022
      ],
      [
        "▁donus",
        -7.667555876818271
      ],
      [
        "▁charlotte'de",
        -9.857893883012197
      ],
      [
        "4.5",
        -9.340653624415177
      ],
      [
        "yla",
        -7.037844550513474
      ],
      [
        "yal",
        -10.3596129754452
      ],
      [
        "▁bilinc",
        -9.723087339942415
      ],
      [
        "▁han",
        -9.213827384475724
      ],
      [
        "to",
        -8.279992367275327
      ],
      [
        "▁amerikalı",
        -9.576667375948265
      ],
      [
        "▁gene",
        -9.002290911526096
      ],
      [
        "▁sak",
        -8.605434358879016
      ],
      [
        "▁onlarda",
        -8.606170649037105
      ],
      [
        "▁sov",
        -9.941180665733338
      ],
      [
        "▁edip",
        -9.262409421000559
      ],
      [
        "▁sendika",
        -9.557039092684757
      ],
      [
        "▁iletisim",
        -9.805542171902413
      ],
      [
        "▁saglaya",
        -9.760545848485926
      ],
      [
        "▁islemlerinde",
        -9.921854800058066
      ],
      [
        "▁ot",
        -9.079567500892967
      ],
      [
        "▁kapalı",
        -9.198839901769006
      ],
      [
        "▁kelime",
        -8.775483650262114
      ],
      [
        "▁istedigi",
        -8.92038787432433
      ],
      [
        "i",
        -9.483528417945884
      ],
      [
        "cu",
        -7.386324579594437
      ],
      [
        "▁zamanda",
        -8.793111838864204
      ],
      [
        "gını",
        -8.004760248338489
      ],
      [
        "▁ny",
        -9.87589933174581
      ],
      [
        "▁kac",
        -7.563528189341894
      ],
      [
        "30",
        -8.377779257492136
      ],
      [
        "ulmus",
        -8.664001811977696
      ],
      [
        "▁butun",
        -7.320066118285893
      ],
      [
        "▁gemi",
        -8.665762528385407
      ],
      [
        "▁doneminde",
        -9.882150013443102
      ],
      [
        "▁mo",
        -8.377082828174977
      ],
      [
        "▁ısık",
        -9.132981307442629
      ],
      [
        "▁hazır",
        -7.923905940490553
      ],
      [
        "▁kanıt",
        -9.573176044459636
      ],
      [
        "▁sen",
        -6.208861544610927
      ],
      [
        "ımı",
        -8.436737978513747
      ],
      [
        "▁makine",
        -8.927492150961356
      ],
      [
        "▁elbise",
        -9.38194095392842
      ],
      [
        "▁ilet",
        -9.794053875274123
      ],
      [
        "emedi",
        -9.15661830716655
      ],
      [
        "▁bardagı",
        -9.874771085948447
      ],
      [
        "▁yapmak",
        -8.254886784183245
      ],
      [
        "13",
        -12.652351546617641
      ],
      [
        "ol",
        -7.733599142865259
      ],
      [
        ".",
        -6.78086863364489
      ],
      [
        "▁bilme",
        -8.477424632587251
      ],
      [
        "▁kalır",
        -9.615432739311931
      ],
      [
        "ck",
        -8.384154969846952
      ],
      [
        "▁ler",
        -9.237594244454714
      ],
      [
        "▁hayal",
        -8.650794325249107
      ],
      [
        "▁veriyor",
        -8.707409781254238
      ],
      [
        "meyecek",
        -9.08643894374838
      ],
      [
        "a",
        -3.8827810269345218
      ],
      [
        "▁cevre",
        -8.526452211711884
      ],
      [
        "▁op",
        -8.835435380948336
      ],
      [
        "▁ofis",
        -9.09614249584351
      ],
      [
        "▁kap",
        -7.599853925628213
      ],
      [
        "▁derece",
        -8.454021837807272
      ],
      [
        "dıkları",
        -9.211374691377248
      ],
      [
        "▁edecek",
        -8.781433902946226
      ],
      [
        "▁ge",
        -8.429077056775967
      ],
      [
        "▁gayrimenkul",
        -9.850482361674558
      ],
      [
        "▁salt",
        -8.85349889096462
      ],
      [
        "▁89",
        -9.66064125857968
      ],
      [
        "kı",
        -11.75119610731039
      ],
      [
        "▁internet",
        -9.850482482152524
      ],
      [
        "▁kon",
        -8.060135471592279
      ],
      [
        "▁ilgisi",
        -9.355467525657417
      ],
      [
        "pa",
        -11.647155356026659
      ],
      [
        "▁insanların",
        -9.029446971844333
      ],
      [
        "▁hizmette",
        -9.914182209709342
      ],
      [
        "▁kesti",
        -9.538674686536321
      ],
      [
        "▁gozu",
        -8.540741737129036
      ],
      [
        "20",
        -8.933298701372465
      ],
      [
        "t",
        -8.962720578188764
      ],
      [
        "▁anlamın",
        -9.594978883272496
      ],
      [
        "▁zı",
        -9.490951659566086
      ],
      [
        "▁%2.",
        -13.027118981959273
      ],
      [
        ";",
        -5.880553062631291
      ],
      [
        "iyor",
        -7.29114343780122
      ],
      [
        "▁asık",
        -9.645042107326656
      ],
      [
        "m",
        -9.715460917580963
      ],
      [
        "▁olması",
        -8.433172748902734
      ],
      [
        "▁tamam",
        -7.885878223582846
      ],
      [
        "ben",
        -8.122680783913847
      ],
      [
        "-199",
        -12.82544972799749
      ],
      [
        "▁2-",
        -12.96331608058175
      ],
      [
        "%3",
        -12.572089405969253
      ],
      [
        "9",
        -9.914101251060508
      ],
      [
        "▁dısarı",
        -9.236600402090598
      ],
      [
        "▁gazeteci",
        -9.762523126801538
      ],
      [
        "▁gozlerini",
        -9.058302106856157
      ],
      [
        "▁kendimde",
        -9.632540964210538
      ],
      [
        "mektedir",
        -8.306258285265738
      ],
      [
        "▁vatandas",
        -9.80603155539233
      ],
      [
        "un",
        -6.367823876770297
      ],
      [
        "▁gec",
        -8.030956531254429
      ],
      [
        "▁icerisinde",
        -9.556089285191252
      ],
      [
        "▁airlines",
        -8.911330258510297
      ],
      [
        "▁sanat",
        -8.545507137221904
      ],
      [
        "▁acılma",
        -9.924218326077728
      ],
      [
        "▁baslay",
        -9.59251124950066
      ],
      [
        "▁alıyor",
        -9.066356820808736
      ],
      [
        "p",
        -5.474414383137878
      ],
      [
        "▁genc",
        -7.807739584309089
      ],
      [
        "▁tutma",
        -9.410953863471837
      ],
      [
        "▁fo",
        -9.607134886815253
      ],
      [
        "acagı",
        -8.659319427319453
      ],
      [
        "▁201",
        -9.176385403819815
      ],
      [
        "dir",
        -6.138212601783725
      ],
      [
        "▁bunlar",
        -6.623126046805661
      ],
      [
        "▁yalnız",
        -7.695007277182477
      ],
      [
        "▁arama",
        -9.432469218722359
      ],
      [
        "▁uzaklas",
        -9.766075470855721
      ],
      [
        "▁siz",
        -6.276467912461138
      ],
      [
        "`",
        -5.1791608978587025
      ],
      [
        "▁sac",
        -8.574665602057562
      ],
      [
        "▁bulan",
        -9.62294223693075
      ],
      [
        "▁tasarruf",
        -9.57146776842228
      ],
      [
        "ci",
        -6.671020570236158
      ],
      [
        "▁destek",
        -8.264329068991175
      ],
      [
        "man",
        -7.529511808292365
      ],
      [
        "▁resim",
        -9.187075349405626
      ],
      [
        "▁italya",
        -9.762531984039766
      ],
      [
        "▁barıs",
        -9.443151475153945
      ],
      [
        "▁yuzunde",
        -8.746966149394707
      ],
      [
        "▁oturu",
        -9.140911036925347
      ],
      [
        "▁evi",
        -9.02985464991513
      ],
      [
        "▁ulas",
        -8.655885149117948
      ],
      [
        "▁et",
        -7.840673585820713
      ],
      [
        "▁gul",
        -7.848042943245606
      ],
      [
        "▁yeme",
        -8.88645219671799
      ],
      [
        "▁ilac",
        -8.95645993623459
      ],
      [
        "egi",
        -8.722547943385237
      ],
      [
        "▁risk",
        -9.075336264938038
      ],
      [
        "▁mıs",
        -8.221270484658733
      ],
      [
        "▁orada",
        -7.788164888452199
      ],
      [
        "1",
        -9.729838450046955
      ],
      [
        "▁etmisti",
        -9.71581062978339
      ],
      [
        "ıcı",
        -8.440463202812825
      ],
      [
        "4'",
        -9.769475374857358
      ],
      [
        "▁eris",
        -9.569838814992318
      ],
      [
        "▁ihtimal",
        -9.762586409052885
      ],
      [
        "lerinde",
        -7.802808672810941
      ],
      [
        "▁yeter",
        -8.740496094437493
      ],
      [
        "▁yaka",
        -8.422080760017103
      ],
      [
        "▁uye",
        -8.86438474464746
      ],
      [
        "▁konus",
        -9.095959130913485
      ],
      [
        "▁fransız",
        -9.325973765114693
      ],
      [
        "▁%9",
        -9.782451238871037
      ],
      [
        "lasma",
        -9.006550872083258
      ],
      [
        "ir",
        -6.856115855285548
      ],
      [
        "ak",
        -7.804092858450923
      ],
      [
        "▁yetis",
        -9.249843700110972
      ],
      [
        "1",
        -6.878332744407707
      ],
      [
        "▁hijyenik",
        -9.607126345094809
      ],
      [
        "tar",
        -8.711723895039809
      ],
      [
        ".50",
        -9.474023788463791
      ],
      [
        "▁havalimanı",
        -9.681696611935493
      ],
      [
        "▁ucak",
        -8.250880891948643
      ],
      [
        "▁kalkıs",
        -9.45285239969202
      ],
      [
        "▁tefe",
        -9.162034969752785
      ],
      [
        "▁birinci",
        -8.96495750903286
      ],
      [
        "▁almanya'",
        -9.76427788100498
      ],
      [
        "mus",
        -9.456633748399645
      ],
      [
        "▁herkes",
        -6.889554463084344
      ],
      [
        "▁eglence",
        -8.984823275571426
      ],
      [
        "▁f",
        -10.863911410280293
      ],
      [
        "▁ortalama",
        -8.446967447662862
      ],
      [
        "▁kullan",
        -7.886867775114281
      ],
      [
        "bil",
        -8.275073873101139
      ],
      [
        "▁secim",
        -8.668288883023028
      ],
      [
        "▁bası",
        -8.857179086963992
      ],
      [
        "▁bakar",
        -9.781050782641666
      ],
      [
        "▁tesekkur",
        -8.511621790976722
      ],
      [
        "'le",
        -9.487327393534338
      ],
      [
        "▁haziran'da",
        -9.857330398399316
      ],
      [
        "▁cocuk",
        -7.673146275306841
      ],
      [
        "▁dondu",
        -8.621560331014656
      ],
      [
        "▁bankacı",
        -9.755120405306098
      ],
      [
        "▁elinde",
        -8.234616776314255
      ],
      [
        "▁nashville'",
        -9.643569107545932
      ],
      [
        "▁beyaz",
        -8.192140240294478
      ],
      [
        "▁hikaye",
        -9.163118306644172
      ],
      [
        "▁tutun",
        -9.405979937786046
      ],
      [
        "▁um",
        -8.665381838540917
      ],
      [
        "tu",
        -9.158395043648547
      ],
      [
        "▁si",
        -8.274621359408918
      ],
      [
        "▁eve",
        -8.345862684696199
      ],
      [
        "▁kullanma",
        -9.872205587975383
      ],
      [
        "▁konusunda",
        -8.153593479893706
      ],
      [
        "d",
        -5.077362734358636
      ],
      [
        "▁var",
        -5.978396975439737
      ],
      [
        "▁istedi",
        -8.782288647385682
      ],
      [
        "▁guzel",
        -6.610772685846024
      ],
      [
        "alım",
        -8.484803755924158
      ],
      [
        "▁acaktı",
        -9.638713908165618
      ],
      [
        "▁artık",
        -7.589058675110769
      ],
      [
        "▁kadar",
        -9.076692001063382
      ],
      [
        "%10",
        -13.63797741196559
      ],
      [
        "▁kıyı",
        -9.175380726074948
      ],
      [
        "▁sonucları",
        -9.651239637513537
      ],
      [
        "▁continental",
        -9.0434085560732
      ],
      [
        "▁varlıklar",
        -9.606732349719607
      ],
      [
        "▁toplantı",
        -8.831665279062832
      ],
      [
        "▁soguk",
        -8.957066142034716
      ],
      [
        "▁birim",
        -9.070750242020715
      ],
      [
        "▁ask",
        -9.309955959627597
      ],
      [
        "dim",
        -8.926831132052726
      ],
      [
        "ısı",
        -11.051820260445027
      ],
      [
        "▁bunda",
        -7.528333776484611
      ],
      [
        "▁balıkcı",
        -9.917044515705228
      ],
      [
        "▁senedi",
        -8.420969091255706
      ],
      [
        "▁zor",
        -8.294723702269208
      ],
      [
        "▁bilgisayar",
        -8.433088973603027
      ],
      [
        "▁hızlı",
        -8.996139561653989
      ],
      [
        "▁kayded",
        -9.902727651754386
      ],
      [
        "▁kalın",
        -9.39667522303321
      ],
      [
        "▁radyo",
        -9.43492899717652
      ],
      [
        "lenen",
        -9.117324239414941
      ],
      [
        "▁new",
        -7.546074582004401
      ],
      [
        "▁koca",
        -8.427908643773
      ],
      [
        "▁bildirdi",
        -9.348365591008722
      ],
      [
        "85",
        -9.244543557811305
      ],
      [
        "▁sapka",
        -9.89850737575829
      ],
      [
        "▁yapılan",
        -8.257288011986699
      ],
      [
        "▁artısla",
        -8.803162178598198
      ],
      [
        "▁dakika",
        -8.6294421736407
      ],
      [
        "▁huzur",
        -9.353582167665897
      ],
      [
        "▁cıkmıs",
        -8.939284244124563
      ],
      [
        "▁yılın",
        -9.010886544277813
      ],
      [
        "▁zorunda",
        -8.909671941379216
      ],
      [
        "'te",
        -9.34698740237014
      ],
      [
        "▁dordu",
        -8.829957619883997
      ],
      [
        "▁tarafında",
        -7.55686314661109
      ],
      [
        "ot",
        -9.093682363971517
      ],
      [
        "▁persembe",
        -8.444293426746388
      ],
      [
        "▁vardır",
        -8.54751006580419
      ],
      [
        "▁80",
        -9.245377230161239
      ],
      [
        "ımız",
        -8.856429950142456
      ],
      [
        "▁reddetti",
        -9.129021497856145
      ],
      [
        "▁ihtiyar",
        -9.14029596454324
      ],
      [
        "▁yatırım",
        -8.298549136963107
      ],
      [
        "lanmıs",
        -8.707073062265101
      ],
      [
        "▁bulmak",
        -9.388011901594673
      ],
      [
        "▁kasıgı",
        -9.589078705190616
      ],
      [
        "▁isle",
        -8.882978411916213
      ],
      [
        "larımızı",
        -9.268199030264709
      ],
      [
        "▁eylem",
        -9.31743143754035
      ],
      [
        "▁basbakan",
        -9.589016140414497
      ],
      [
        "ha",
        -7.420619587517812
      ],
      [
        "dıgı",
        -7.656045753875683
      ],
      [
        "▁2.",
        -8.831592292554625
      ],
      [
        "▁konforlu",
        -9.42766997511411
      ],
      [
        "7",
        -6.877042668686723
      ],
      [
        "▁pır",
        -9.196406829614833
      ],
      [
        "▁cogu",
        -8.617349793483148
      ],
      [
        "▁oner",
        -9.070397187156534
      ],
      [
        "▁kirli",
        -9.526103529302056
      ],
      [
        "▁yuz",
        -7.387323089183921
      ],
      [
        "▁cadde",
        -9.625065346025135
      ],
      [
        "▁ucuncu",
        -9.64360305457842
      ],
      [
        "▁31",
        -7.811440546527198
      ],
      [
        "▁alaka",
        -8.576933083371939
      ],
      [
        "▁bizde",
        -7.888273266411787
      ],
      [
        "▁fort",
        -9.254487851113394
      ],
      [
        "▁manzara",
        -9.235002295111173
      ],
      [
        "▁ayrılı",
        -9.259615324761995
      ],
      [
        "▁mutlu",
        -8.7673902939732
      ],
      [
        "▁bir",
        -2.2851356391202717
      ],
      [
        "▁plan",
        -7.920818416940781
      ],
      [
        "7",
        -8.823662300763893
      ],
      [
        "▁ordu",
        -9.125611569361139
      ],
      [
        "ydi",
        -9.086654733732615
      ],
      [
        "ku",
        -11.295142931456333
      ],
      [
        "▁40",
        -7.973724781961952
      ],
      [
        "pı",
        -10.338625050062623
      ],
      [
        "malıydı",
        -9.84744769072077
      ],
      [
        "▁cılgın",
        -9.897552792237853
      ],
      [
        "▁1.2",
        -8.718415128083837
      ],
      [
        "▁avukat",
        -8.918247362514066
      ],
      [
        "▁yılı",
        -9.327346073167664
      ],
      [
        "lerin",
        -6.400645793880925
      ],
      [
        "▁yıl",
        -6.96141510817018
      ],
      [
        "▁etmis",
        -8.907419701281253
      ],
      [
        "3.5",
        -9.478301416158967
      ],
      [
        "▁super",
        -9.206290197632955
      ],
      [
        "du",
        -9.107384677214492
      ],
      [
        "▁bakma",
        -9.683980506121848
      ],
      [
        "▁bekley",
        -9.502408979445557
      ],
      [
        "ıyordu",
        -7.666698771758724
      ],
      [
        "▁mumkun",
        -9.023106489712
      ],
      [
        "▁birisini",
        -9.720694529423557
      ],
      [
        ")",
        -6.121952843531647
      ],
      [
        "▁gonlu",
        -9.68210456997894
      ],
      [
        "▁tehlike",
        -9.24750207211744
      ],
      [
        "▁kopar",
        -9.882339984023908
      ],
      [
        "▁suyu",
        -8.590211462043719
      ],
      [
        "▁yontem",
        -9.80581720426972
      ],
      [
        "lere",
        -7.1509989948674395
      ],
      [
        "▁taksi",
        -9.547075464856736
      ],
      [
        "▁oturmus",
        -9.842894257451315
      ],
      [
        "gimiz",
        -8.647807937458651
      ],
      [
        "▁beraber",
        -8.35880103338355
      ],
      [
        "▁celik",
        -9.701176386073218
      ],
      [
        "▁attı",
        -8.759317236217075
      ],
      [
        "▁mahkeme",
        -8.850140086010766
      ],
      [
        "▁milli",
        -8.894537831119287
      ],
      [
        "▁dudakları",
        -9.92267975413634
      ],
      [
        "▁ihtiyacım",
        -8.351949682142013
      ],
      [
        "▁icin",
        -8.812912050493708
      ],
      [
        "▁koru",
        -8.700439532367955
      ],
      [
        "▁plaj",
        -9.589230116730944
      ],
      [
        "▁acıldı",
        -9.481269269931289
      ],
      [
        "▁uzay",
        -9.80586674345604
      ],
      [
        "▁kriz",
        -9.353704203745174
      ],
      [
        "▁yitir",
        -9.72134859262042
      ],
      [
        "▁6'da",
        -9.828776318719507
      ],
      [
        "bası",
        -9.3851796509446
      ],
      [
        "▁verimli",
        -9.790661426015562
      ],
      [
        "▁degiller",
        -8.877110792197561
      ],
      [
        "▁arac",
        -9.106878625159624
      ],
      [
        "▁atı",
        -8.994733127921997
      ],
      [
        "▁motor",
        -9.210478850770361
      ],
      [
        "lamıs",
        -8.778812729954648
      ],
      [
        "kar",
        -8.07067482211367
      ],
      [
        "[UNK]",
        0.0
      ],
      [
        "▁za",
        -7.711127411336931
      ],
      [
        "▁edildi",
        -8.79093319875535
      ],
      [
        "▁olursa",
        -8.95081832868394
      ],
      [
        "▁fiyat",
        -7.366693589993076
      ],
      [
        "▁nokta",
        -8.427554513767902
      ],
      [
        "i",
        -4.718025866868599
      ],
      [
        "yon",
        -8.70954671904753
      ],
      [
        "▁suclama",
        -9.878465380263393
      ],
      [
        "q",
        -9.367467255310546
      ],
      [
        "▁ajans",
        -9.805537591295257
      ],
      [
        "▁yoktu",
        -7.2643413677875355
      ],
      [
        "▁deneyim",
        -9.790561879280364
      ],
      [
        "on",
        -6.971099666334458
      ],
      [
        "▁girme",
        -9.062719136571985
      ],
      [
        "▁sınıfı",
        -9.109212138472834
      ],
      [
        "▁arkadası",
        -9.491386480291494
      ],
      [
        "▁yetmis",
        -9.21282420643573
      ],
      [
        "ini",
        -6.770297403916858
      ],
      [
        "▁tut",
        -8.149257436143316
      ],
      [
        "▁bagıs",
        -9.88080921371049
      ],
      [
        "▁piyasa",
        -7.486292197812665
      ],
      [
        "▁sebep",
        -9.085314867192245
      ],
      [
        "▁bog",
        -9.187217146357828
      ],
      [
        "▁wall",
        -9.2601777810731
      ],
      [
        "▁elestiri",
        -9.741959677252225
      ],
      [
        "▁sehrin",
        -9.340324785944738
      ],
      [
        "05.",
        -9.557435032262553
      ],
      [
        "gel",
        -9.270411228329191
      ],
      [
        "▁bırak",
        -8.22565139429119
      ],
      [
        "▁sende",
        -9.565810326593109
      ],
      [
        "▁gun",
        -6.775725017676719
      ],
      [
        "▁hep",
        -7.914543983865233
      ],
      [
        "sında",
        -7.409959481900812
      ],
      [
        "▁37",
        -9.086485923493704
      ],
      [
        "dır",
        -6.571884490825628
      ],
      [
        "kan",
        -7.946790936061732
      ],
      [
        "▁z",
        -11.475475111137184
      ],
      [
        "lıyor",
        -7.7098869087420505
      ],
      [
        "▁car",
        -8.379057545643345
      ],
      [
        "▁general",
        -9.33972487213114
      ],
      [
        "▁alır",
        -8.968403085814433
      ],
      [
        "▁cana",
        -9.372347559051352
      ],
      [
        "makta",
        -8.642769265600247
      ],
      [
        "▁yaklasimi",
        -9.874182003758166
      ],
      [
        "▁cekme",
        -9.099754384912659
      ],
      [
        "▁miami'",
        -9.306947430677104
      ],
      [
        "▁yar",
        -9.417808307064544
      ],
      [
        "▁milyar",
        -9.129068258602373
      ],
      [
        "▁va",
        -8.105134914675286
      ],
      [
        "▁odun",
        -9.45720782383625
      ],
      [
        "ow",
        -9.46399757085942
      ],
      [
        "▁musteri",
        -8.669696487145378
      ],
      [
        "ebilmek",
        -9.80318224039241
      ],
      [
        "▁rehberimiz",
        -9.922499585483877
      ],
      [
        "▁ediliyor",
        -9.657756306678278
      ],
      [
        "ydi",
        -6.774885580510061
      ],
      [
        "0000",
        -8.492798317148372
      ],
      [
        "▁tarih",
        -8.283331975052906
      ],
      [
        "▁10",
        -6.062677737991037
      ],
      [
        "ken",
        -7.2516443925503875
      ],
      [
        "▁cuma",
        -8.184062646167437
      ],
      [
        "▁lık",
        -9.145996749068345
      ],
      [
        "▁baltimore'de",
        -8.54941092612653
      ],
      [
        "▁belli",
        -8.741412963639458
      ],
      [
        "▁bulundu",
        -9.034663058318515
      ],
      [
        "▁ku",
        -8.078068271721804
      ],
      [
        "▁ayagı",
        -9.559600227442456
      ],
      [
        "▁beni",
        -6.136918772172588
      ],
      [
        "▁kendini",
        -6.832826224031008
      ],
      [
        "▁birlesi",
        -9.831681169245844
      ],
      [
        "▁deger",
        -8.018115702628636
      ],
      [
        "▁twa",
        -9.85052510584886
      ],
      [
        "▁erkek",
        -8.662139027653502
      ],
      [
        "▁buyu",
        -8.354671806237898
      ],
      [
        "▁zafer",
        -9.783827466153104
      ],
      [
        "▁kese",
        -9.736010785200172
      ],
      [
        "▁tesiste",
        -9.480323431943567
      ],
      [
        "lerdi",
        -8.220154558282262
      ],
      [
        "▁199",
        -9.359959182241319
      ],
      [
        "birkac",
        -9.543123612950462
      ],
      [
        "45",
        -9.168439653504848
      ],
      [
        "▁hangi",
        -7.366812081839488
      ],
      [
        "▁proje",
        -9.043414049593856
      ],
      [
        "layan",
        -8.424435212607793
      ],
      [
        "▁strateji",
        -9.27298044503739
      ],
      [
        "▁ucan",
        -9.66507085177363
      ],
      [
        "▁yetkilileri",
        -8.932921136772732
      ],
      [
        "▁yapıyor",
        -8.497261919339142
      ],
      [
        "▁sikayet",
        -9.520610734917089
      ],
      [
        "▁gerekli",
        -9.54925138065137
      ],
      [
        "▁mute",
        -9.350369379116017
      ],
      [
        "▁kesi",
        -8.628174444927335
      ],
      [
        "▁mesaj",
        -9.681997432188773
      ],
      [
        "▁durumu",
        -9.062665124884667
      ],
      [
        "▁ri",
        -8.831120752442544
      ],
      [
        "ga",
        -7.066949136890427
      ],
      [
        "▁hır",
        -9.40051887408427
      ],
      [
        "▁yedi",
        -7.304109590298603
      ],
      [
        "▁gaz",
        -8.744070444358616
      ],
      [
        "▁edebilir",
        -9.574829856299083
      ],
      [
        "▁bahce",
        -8.502291834204868
      ],
      [
        "▁ton",
        -9.388301370019493
      ],
      [
        "ın",
        -6.256359955516132
      ],
      [
        "▁boyut",
        -9.655464131910016
      ],
      [
        "'u",
        -9.247240191756605
      ],
      [
        "mi",
        -8.269716776373524
      ],
      [
        "▁gozlem",
        -9.620079635820577
      ],
      [
        "▁36",
        -9.558374476628076
      ],
      [
        "50",
        -8.746174993512678
      ],
      [
        "▁se",
        -7.4890105461366225
      ],
      [
        "4-",
        -13.308189085778404
      ],
      [
        "▁varan",
        -8.4128285136543
      ],
      [
        "▁konumu",
        -7.418244903004192
      ],
      [
        "▁zamanlarda",
        -9.558823130189648
      ],
      [
        "▁caba",
        -8.84920062876624
      ],
      [
        "maz",
        -7.887499600633965
      ],
      [
        "▁oyuncu",
        -8.966512885675026
      ],
      [
        "▁biz",
        -8.780758450832561
      ],
      [
        "▁milwaukee'de",
        -9.344816832573994
      ],
      [
        "kadar",
        -7.631631929124872
      ],
      [
        "▁ucreti",
        -8.448115198684285
      ],
      [
        "▁pro",
        -8.99526896600566
      ],
      [
        "e",
        -3.49719760532998
      ],
      [
        "▁verilen",
        -9.228756912446434
      ],
      [
        "▁bizi",
        -7.022754278498933
      ],
      [
        "▁tav",
        -9.536931673839018
      ],
      [
        "▁olmak",
        -7.962749480730372
      ],
      [
        "▁suru",
        -8.510530533774979
      ],
      [
        "lıgı",
        -7.337049702844419
      ],
      [
        "hal",
        -9.184832335593242
      ],
      [
        "lerimi",
        -9.387985779140172
      ],
      [
        "0",
        -8.50048615858372
      ],
      [
        "▁turkiye'",
        -9.060754253390945
      ],
      [
        "▁kapı",
        -7.578234147472067
      ],
      [
        "▁biraz",
        -7.073090129269313
      ],
      [
        "lendi",
        -8.198189590052912
      ],
      [
        "▁bıcak",
        -9.897563067671516
      ],
      [
        "▁etrafında",
        -9.764551055659235
      ],
      [
        "▁iste",
        -7.453103563293496
      ],
      [
        "▁uzat",
        -9.174979478715818
      ],
      [
        "▁odedigim",
        -8.77106571963941
      ],
      [
        "cileri",
        -9.215541930659665
      ],
      [
        "▁bunu",
        -6.098683502847974
      ],
      [
        "▁adam",
        -7.420864008087739
      ],
      [
        "7.5",
        -9.20992259280443
      ],
      [
        "▁dc'de",
        -9.703787813595424
      ],
      [
        "▁sokak",
        -9.175506189851074
      ],
      [
        "deki",
        -8.15935428451636
      ],
      [
        "ilir",
        -8.851032378964824
      ],
      [
        "lanma",
        -8.157361514699256
      ],
      [
        "▁temel",
        -8.648028472447798
      ],
      [
        "▁uc",
        -5.602242368294277
      ],
      [
        "▁verdigim",
        -8.959234337284522
      ],
      [
        "ator",
        -9.142909390511385
      ],
      [
        "▁personel",
        -7.41905135581655
      ],
      [
        "▁aileler",
        -8.150102571626874
      ],
      [
        "▁kasaba",
        -9.36780509427335
      ],
      [
        "▁degisiklikler",
        -9.431026902901106
      ],
      [
        "▁kendilerin",
        -8.352079679002113
      ],
      [
        "▁ortasında",
        -9.723226925664042
      ],
      [
        "tir",
        -7.5411492978378964
      ],
      [
        "▁d",
        -8.063555699702881
      ],
      [
        "▁hepsi",
        -6.842946748412163
      ],
      [
        "▁misafirimiz",
        -9.222961496193491
      ],
      [
        "▁mukemmeldi",
        -9.338972951493695
      ],
      [
        "▁beraber",
        -9.106927281891192
      ],
      [
        "▁az",
        -6.954130594423254
      ],
      [
        "les",
        -8.457631366099562
      ],
      [
        "▁tuz",
        -8.991067728663129
      ],
      [
        "▁28",
        -8.315177721371974
      ],
      [
        "ım",
        -7.469901599322844
      ],
      [
        "▁ugur",
        -9.681671354305498
      ],
      [
        "▁bez",
        -9.651642863447933
      ],
      [
        "▁salı",
        -8.195592363186137
      ],
      [
        "▁ke",
        -7.803806647397788
      ],
      [
        "▁surdu",
        -8.821901354819992
      ],
      [
        "cılar",
        -8.401498106379062
      ],
      [
        "▁washington'",
        -8.999286435431847
      ],
      [
        "▁yerini",
        -9.475387390648184
      ],
      [
        "▁1/",
        -7.649302820350562
      ],
      [
        "▁...",
        -13.733825525090593
      ],
      [
        "▁bakımından",
        -9.806001809434822
      ],
      [
        "▁zengin",
        -8.663922140885557
      ],
      [
        "▁bastır",
        -9.861613552166855
      ],
      [
        "elim",
        -8.828792806678448
      ],
      [
        "▁hak",
        -7.927231744417667
      ],
      [
        "▁%3.",
        -11.182099154216546
      ],
      [
        "▁dik",
        -8.32777577528379
      ],
      [
        "u",
        -5.348489171982953
      ],
      [
        "c",
        -6.500079705136615
      ],
      [
        "▁ters",
        -9.494020090169247
      ],
      [
        "%2",
        -11.706131327571025
      ],
      [
        "▁corp",
        -9.804747230480096
      ],
      [
        "▁bell",
        -9.886870646495854
      ],
      [
        "yor",
        -7.617656977770153
      ],
      [
        "▁ahlak",
        -9.743145604579295
      ],
      [
        "▁yargıc",
        -9.889334826820837
      ],
      [
        "▁1.0",
        -9.508508305454084
      ],
      [
        "▁'",
        -9.107607116574506
      ],
      [
        "▁meydan",
        -8.95515102641152
      ],
      [
        "▁kus",
        -8.330249515904718
      ],
      [
        "▁lezzeti",
        -9.528783336427082
      ],
      [
        "▁dedi",
        -6.874959217606895
      ],
      [
        "▁0.3",
        -9.730163952983364
      ],
      [
        "▁boyle",
        -7.262541292284436
      ],
      [
        "▁sek",
        -9.32727940997091
      ],
      [
        ":00",
        -11.867128241260916
      ],
      [
        "▁kol",
        -8.135764175946209
      ],
      [
        "▁guleryuzluydu",
        -9.286323329392511
      ],
      [
        "▁gezi",
        -9.240934321944327
      ],
      [
        "vet",
        -9.586227756356836
      ],
      [
        "▁hepimiz",
        -8.170111195120999
      ],
      [
        "▁ulasımı",
        -8.976087389174857
      ],
      [
        "▁resmi",
        -9.04351530172958
      ],
      [
        "y'",
        -9.686867251031844
      ],
      [
        "▁istanbul",
        -9.303940825471502
      ],
      [
        "na",
        -8.3687963349486
      ],
      [
        "se",
        -6.618819252400144
      ],
      [
        "▁avrupa",
        -8.684758527404552
      ],
      [
        "▁duman",
        -9.442904597027706
      ],
      [
        "▁yo",
        -9.257991067880312
      ],
      [
        "▁zarar",
        -8.791010007049026
      ],
      [
        "▁gerek",
        -8.143857126941171
      ],
      [
        "▁taraf",
        -8.64490381803304
      ],
      [
        "▁elli",
        -8.16695250231819
      ],
      [
        "lerinin",
        -7.520489075482882
      ],
      [
        "gım",
        -9.0899123506026
      ],
      [
        "▁koku",
        -9.01964351877452
      ],
      [
        "▁kamu",
        -9.084800595363909
      ],
      [
        "▁tacoma'",
        -9.897547729702978
      ],
      [
        "▁hepsini",
        -7.524949703003487
      ],
      [
        "mis",
        -9.010241858862782
      ],
      [
        "▁nisan",
        -8.900983438231027
      ],
      [
        "▁abla",
        -9.760297061201772
      ],
      [
        "▁bi",
        -7.917590276746912
      ],
      [
        "88",
        -9.66945625613069
      ],
      [
        "ir",
        -7.694350183988116
      ],
      [
        "▁bag",
        -8.100038376507634
      ],
      [
        "▁yavas",
        -8.24107390291609
      ],
      [
        "tim",
        -8.888841118162386
      ],
      [
        "▁sirketler",
        -9.208166391050705
      ],
      [
        "▁gibi",
        -4.36209696709702
      ],
      [
        "▁haric",
        -9.67598489736719
      ],
      [
        "▁iki",
        -8.725516837596965
      ],
      [
        "▁hic",
        -9.677431314152003
      ],
      [
        "▁misafir",
        -9.085032989692246
      ],
      [
        "▁kaliforniya",
        -9.504217126410813
      ],
      [
        "▁dokuz",
        -7.886432727260862
      ],
      [
        "-1",
        -12.56517605486793
      ],
      [
        "▁bul",
        -7.575700402682138
      ],
      [
        "▁ayakta",
        -9.662513786500114
      ],
      [
        "▁gok",
        -9.200744137364786
      ],
      [
        "▁hareket",
        -7.784078309776468
      ],
      [
        "▁ti",
        -10.486432351554733
      ],
      [
        "▁hakkin",
        -9.556390606450844
      ],
      [
        "▁su",
        -11.80979213488054
      ],
      [
        "▁saglık",
        -8.855786171398048
      ],
      [
        "▁karıstır",
        -9.277040876316056
      ],
      [
        "ret",
        -8.049460337356075
      ],
      [
        "▁imkan",
        -9.38171852283874
      ],
      [
        "▁defter",
        -9.537282400445884
      ],
      [
        "▁prens",
        -9.663528743551531
      ],
      [
        "▁1.8",
        -9.088566293567371
      ],
      [
        "der",
        -8.29490596031634
      ],
      [
        "▁hala",
        -8.159993883685313
      ],
      [
        "22",
        -10.719045026475126
      ],
      [
        "ver",
        -7.983146522857149
      ],
      [
        "▁dikkat",
        -8.352853640052917
      ],
      [
        "▁ankara",
        -9.163239261004122
      ],
      [
        "▁havayolları",
        -8.285473147991134
      ],
      [
        "▁gormedi",
        -9.021505873913782
      ],
      [
        "▁rezervasyon",
        -9.09418789216437
      ],
      [
        "▁600",
        -9.671999014576087
      ],
      [
        "y",
        -12.399764499659206
      ],
      [
        "▁kanun",
        -8.937032383106835
      ],
      [
        "▁ic",
        -7.503048676817552
      ],
      [
        "▁tahta",
        -9.154470121427078
      ],
      [
        "degil",
        -8.602188547895151
      ],
      [
        "▁merkezli",
        -9.697255635541515
      ],
      [
        "▁nasıl",
        -7.856533560673513
      ],
      [
        "▁yazı",
        -7.8905692324169525
      ],
      [
        "▁altı",
        -6.8870572946492
      ],
      [
        "▁gece",
        -7.5080070768359155
      ],
      [
        "meyecegi",
        -9.324460334413718
      ],
      [
        "▁devam",
        -7.7669171643148465
      ],
      [
        "▁havayollarını",
        -9.46065202017002
      ],
      [
        "▁toronto'",
        -9.795887677588835
      ],
      [
        "ne",
        -7.927966661887857
      ],
      [
        "▁iz",
        -8.10766924320539
      ],
      [
        "cak",
        -8.300738455665638
      ],
      [
        "▁ruzgar",
        -9.174744236523505
      ],
      [
        "▁cabuk",
        -9.606871281823697
      ],
      [
        "▁miydi",
        -8.422154298711042
      ],
      [
        "so",
        -8.824376372642286
      ],
      [
        "▁eli",
        -8.64622060611577
      ],
      [
        "▁kısa",
        -8.115742947729554
      ],
      [
        "▁uzerine",
        -8.034442847111976
      ],
      [
        "ut",
        -7.916874898360179
      ],
      [
        "▁46",
        -9.512874120224891
      ],
      [
        "digini",
        -8.18075205188335
      ],
      [
        "▁basarı",
        -9.236408284960723
      ],
      [
        "▁baska",
        -7.489745087433294
      ],
      [
        "lar",
        -4.8399050141436195
      ],
      [
        "▁olmasi",
        -8.873741082383937
      ],
      [
        "ed",
        -8.541863363687119
      ],
      [
        "▁kurumsal",
        -9.326430318623899
      ],
      [
        "tik",
        -7.876585261670358
      ],
      [
        "▁kalk",
        -8.703230371013039
      ],
      [
        "▁umut",
        -9.223395678831928
      ],
      [
        "▁toz",
        -9.615816817395611
      ],
      [
        "▁sap",
        -8.671124779848451
      ],
      [
        "▁futbol",
        -9.299125391578931
      ],
      [
        "▁bakanlıgı",
        -9.564656521405434
      ],
      [
        "▁japon",
        -8.641859502009371
      ],
      [
        "▁boyu",
        -9.666309223597143
      ],
      [
        "▁lo",
        -8.480069028557155
      ],
      [
        "sal",
        -8.284346147276374
      ],
      [
        "▁kim",
        -6.756681330532899
      ],
      [
        "%1",
        -10.967803638388563
      ],
      [
        "ma",
        -8.868442509925302
      ],
      [
        "f",
        -6.202104662029809
      ],
      [
        "▁gelistir",
        -9.413645875737874
      ],
      [
        "▁eglen",
        -9.830939093817609
      ],
      [
        "▁islemler",
        -9.191523399335555
      ],
      [
        "▁tesvik",
        -9.643570154341482
      ],
      [
        "▁to",
        -8.824428738587017
      ],
      [
        "▁gecti",
        -8.168153341379806
      ],
      [
        "▁hisse",
        -6.839308677971812
      ],
      [
        "▁kalan",
        -8.737993569363509
      ],
      [
        "▁tartısma",
        -9.006442064333271
      ],
      [
        "▁1000",
        -8.872740737215933
      ],
      [
        "▁ilave",
        -9.681714479297355
      ],
      [
        "▁kazandı",
        -8.965724253453981
      ],
      [
        "▁grubu",
        -9.186513615338946
      ],
      [
        "6",
        -8.621834869164504
      ],
      [
        "▁kav",
        -8.45090524120771
      ],
      [
        "▁ilgilenmedi",
        -9.593728500356356
      ],
      [
        "tı",
        -9.880362748676855
      ],
      [
        "bb",
        -9.770133315934762
      ],
      [
        "▁baslat",
        -9.878798072590538
      ],
      [
        "ktor",
        -9.909561041696445
      ],
      [
        "▁mısın",
        -9.040550319257685
      ],
      [
        "▁yıldız",
        -9.520724163460894
      ],
      [
        "/",
        -5.95097924957408
      ],
      [
        "▁donu",
        -9.114137421568806
      ],
      [
        "▁av",
        -8.468560086587932
      ],
      [
        "▁karsı",
        -6.409335831396301
      ],
      [
        "▁kırmızı",
        -8.865723473747288
      ],
      [
        "▁parcası",
        -9.512313897770273
      ],
      [
        "▁mes",
        -8.845562235621095
      ],
      [
        "▁ingiltere",
        -9.827755088862594
      ],
      [
        "▁yapan",
        -8.528281464029808
      ],
      [
        "▁tane",
        -8.67751980998735
      ],
      [
        "▁petrol",
        -8.94577108111692
      ],
      [
        "▁bulun",
        -8.123345738050878
      ],
      [
        "▁mucadele",
        -9.198412924139983
      ],
      [
        "▁yarım",
        -9.203308097160026
      ],
      [
        "▁newark'",
        -9.757455077030215
      ],
      [
        "▁uyan",
        -9.174110193975366
      ],
      [
        "▁amerika",
        -9.293544299359153
      ],
      [
        "acagını",
        -8.363219839019813
      ],
      [
        "▁vakti",
        -9.396719815598193
      ],
      [
        "▁hale",
        -8.351613114130021
      ],
      [
        "▁golge",
        -9.235959989195603
      ],
      [
        "san",
        -8.040444113682927
      ],
      [
        "▁sunu",
        -9.919030871467974
      ],
      [
        "▁turkiye'de",
        -9.481882778926334
      ],
      [
        "▁kazı",
        -9.928540875213807
      ],
      [
        "▁%27",
        -11.811170483524602
      ],
      [
        "▁kodu",
        -9.614308400115998
      ],
      [
        "gibi",
        -7.880345455995306
      ],
      [
        "%4",
        -13.042585516553878
      ],
      [
        "▁duyu",
        -9.104336880759345
      ],
      [
        "5000",
        -9.57246777405449
      ],
      [
        "us",
        -7.383660151917159
      ],
      [
        "▁john",
        -9.537326184353338
      ],
      [
        "?",
        -8.89256977613255
      ],
      [
        "'a",
        -7.790828757597828
      ],
      [
        "▁bakan",
        -9.23317448722969
      ],
      [
        "▁kahve",
        -8.358009659353769
      ],
      [
        "-",
        -5.2246448626679545
      ],
      [
        "▁direkt",
        -9.762583204389372
      ],
      [
        "▁zeytin",
        -9.701275707733014
      ],
      [
        "▁anladı",
        -9.608203626274303
      ],
      [
        "▁tipi",
        -9.473684659509816
      ],
      [
        "%7.8",
        -13.327937914282716
      ],
      [
        "▁vucudu",
        -9.82650084492038
      ],
      [
        "▁kotu",
        -7.904677003430491
      ],
      [
        "▁konu",
        -7.8399904739307065
      ],
      [
        "▁tası",
        -8.087699177030249
      ],
      [
        "▁kira",
        -8.898863789157382
      ],
      [
        "▁olabilir",
        -7.64881851960099
      ],
      [
        "%6",
        -11.97439532779552
      ],
      [
        "▁butu",
        -7.424468291977726
      ],
      [
        "▁bacak",
        -9.79350154958923
      ],
      [
        "▁oldugun",
        -9.233028249942823
      ],
      [
        "▁pek",
        -7.581858543356458
      ],
      [
        "ni",
        -6.857968644351618
      ],
      [
        "▁?",
        -9.499241568895846
      ],
      [
        "▁bu",
        -7.621593344777599
      ],
      [
        "▁geri",
        -7.491589438067955
      ],
      [
        "▁tı",
        -10.992942583622575
      ],
      [
        "dı",
        -6.1358751041387105
      ],
      [
        "▁muzik",
        -9.52068753135805
      ],
      [
        "manın",
        -9.015404034099223
      ],
      [
        "se",
        -9.197145699308903
      ],
      [
        "▁yonel",
        -9.352548702808207
      ],
      [
        "?",
        -4.996963842095797
      ],
      [
        "▁aslın",
        -8.73963190967883
      ],
      [
        "▁kırı",
        -9.009744422203816
      ],
      [
        "▁ticaret",
        -8.517018773958494
      ],
      [
        "▁belirsiz",
        -9.880749385789153
      ],
      [
        "▁s",
        -7.777255275763156
      ],
      [
        "▁dusunmuyor",
        -9.607525540965955
      ],
      [
        "▁calıs",
        -8.548375837102729
      ],
      [
        "▁olumsuz",
        -9.555358461550039
      ],
      [
        "▁giriste",
        -9.726619358696338
      ],
      [
        "▁vermis",
        -9.146104576460658
      ],
      [
        "▁mavi",
        -8.995816429010254
      ],
      [
        "v",
        -6.868202503363126
      ],
      [
        "▁omru",
        -9.923592972385563
      ],
      [
        "siniz",
        -8.521756178789774
      ],
      [
        "▁yaprak",
        -9.68413374768824
      ],
      [
        "▁etmiyor",
        -9.180805034151348
      ],
      [
        "▁degildi",
        -4.719105511077978
      ],
      [
        "▁olmaya",
        -9.57658948070318
      ],
      [
        "▁yıldır",
        -9.647725293708161
      ],
      [
        "▁yakin",
        -8.805713752881257
      ],
      [
        "▁gonul",
        -9.096078190504329
      ],
      [
        "▁tv",
        -9.652735066119657
      ],
      [
        "x",
        -8.153096863108221
      ],
      [
        "▁insanın",
        -8.955546267834542
      ],
      [
        "▁dengesi",
        -9.875516874814522
      ],
      [
        "▁ay",
        -7.069124010889534
      ],
      [
        "▁mah",
        -8.429582511857944
      ],
      [
        "▁kaybed",
        -9.427082649629192
      ],
      [
        "lerle",
        -7.8287328541978916
      ],
      [
        "▁onunde",
        -8.434986918892859
      ],
      [
        "▁avrupa'da",
        -9.89902895650412
      ],
      [
        "▁adalet",
        -9.92244512092648
      ],
      [
        "▁1.3",
        -8.686349043806365
      ],
      [
        "sız",
        -7.224419997636255
      ],
      [
        "▁tiyatro",
        -9.04340857339323
      ],
      [
        "▁gordu",
        -8.024611646527566
      ],
      [
        "oksa",
        -8.161319445537565
      ],
      [
        "▁bol",
        -8.659778829696618
      ],
      [
        "▁sahne",
        -9.024670236054263
      ],
      [
        "▁altın",
        -8.171740913888097
      ],
      [
        "▁din",
        -8.341682940248582
      ],
      [
        "▁gunde",
        -8.822518272037563
      ],
      [
        "var",
        -9.150245563695082
      ],
      [
        "mustu",
        -8.219941710422113
      ],
      [
        "▁insanları",
        -9.553906337549524
      ],
      [
        "▁faiz",
        -8.32334642276488
      ],
      [
        "▁kalitesi",
        -7.870373323819473
      ],
      [
        "▁boya",
        -9.148196018257398
      ],
      [
        "s",
        -9.016033344580624
      ],
      [
        "20",
        -12.693313178038208
      ],
      [
        "▁tahvil",
        -8.436508556430194
      ],
      [
        "14",
        -12.716480308396433
      ],
      [
        "▁cocukları",
        -9.16189188680963
      ],
      [
        "▁zincir",
        -9.625052861498835
      ],
      [
        "lar",
        -7.961244385437585
      ],
      [
        "▁satım",
        -9.000215219457933
      ],
      [
        "▁ce",
        -7.312424224017104
      ],
      [
        "▁ceyrekte",
        -9.461207360795441
      ],
      [
        "▁louis'",
        -9.563847891016705
      ],
      [
        "unla",
        -8.358546932063435
      ],
      [
        "▁fıkı",
        -10.04396486979278
      ],
      [
        "▁ucagın",
        -9.776197227557276
      ],
      [
        "▁sair",
        -9.454743346314444
      ],
      [
        "▁194",
        -9.43256255240131
      ],
      [
        "▁harikayd",
        -9.79363559666815
      ],
      [
        "▁giris",
        -9.27168674375114
      ],
      [
        "mez",
        -7.966032239842323
      ],
      [
        "▁getiri",
        -8.418042104055711
      ],
      [
        "▁usul",
        -9.629849716896587
      ],
      [
        "▁alem",
        -9.787348666305498
      ],
      [
        "ya",
        -8.492646272106997
      ],
      [
        "▁oyku",
        -9.279437891112675
      ],
      [
        "▁ucusu",
        -7.821426409487176
      ],
      [
        "ttı",
        -8.58301489695798
      ],
      [
        "▁yansıt",
        -9.32970958929494
      ],
      [
        ".",
        -9.216358711206778
      ],
      [
        ".5",
        -9.430731754711667
      ],
      [
        "ku",
        -7.404675337709749
      ],
      [
        "▁calısıyor",
        -8.666483576301236
      ],
      [
        "iki",
        -7.943918474887292
      ],
      [
        "sınız",
        -8.857608028473955
      ],
      [
        "▁ticarette",
        -9.77415307661832
      ],
      [
        "▁yapmayı",
        -9.512023894982693
      ],
      [
        "leyici",
        -9.17725780250159
      ],
      [
        "'y",
        -7.7045624983505485
      ],
      [
        "▁his",
        -9.589272132199506
      ],
      [
        ".75",
        -9.547328211014653
      ],
      [
        "lemek",
        -9.115870751068055
      ],
      [
        "▁adi",
        -9.443897130884189
      ],
      [
        "▁veya",
        -5.844024816361816
      ],
      [
        "▁il",
        -8.073530653197789
      ],
      [
        "pır",
        -10.285936051152301
      ],
      [
        "l",
        -6.217016596249758
      ],
      [
        "▁kontrol",
        -8.882762880020342
      ],
      [
        "su",
        -8.88001573295357
      ],
      [
        "▁de",
        -9.29558926803189
      ],
      [
        "▁1",
        -5.813826883250212
      ],
      [
        "▁it",
        -8.72662537277547
      ],
      [
        "▁yaz",
        -7.713235021453993
      ],
      [
        "▁bildir",
        -8.935599490700557
      ],
      [
        "▁wa",
        -9.483213495090515
      ],
      [
        "▁bitir",
        -9.107660513046941
      ],
      [
        "[MASK]",
        0.0
      ],
      [
        "▁erte",
        -9.065240612478433
      ],
      [
        "▁telefonla",
        -9.41182571381123
      ],
      [
        "40",
        -9.130324045984203
      ],
      [
        "19",
        -11.864564628225486
      ],
      [
        "▁belirt",
        -8.50489332013164
      ],
      [
        "▁verdi",
        -7.965840250586235
      ],
      [
        "▁ak",
        -7.3559190785113024
      ],
      [
        "ac",
        -8.823144997137888
      ],
      [
        "ne",
        -6.357626487097869
      ],
      [
        "uldu",
        -8.445374852116384
      ],
      [
        "▁bekleniyor",
        -9.301145561571756
      ],
      [
        "▁las",
        -8.630428849450396
      ],
      [
        "▁zevk",
        -9.247502906126225
      ],
      [
        "▁kaya",
        -9.08509937476154
      ],
      [
        "▁yemeklerde",
        -9.569522251926918
      ],
      [
        "ında",
        -7.517546670685457
      ],
      [
        "ucu",
        -8.37037521319038
      ],
      [
        "▁geldigi",
        -9.122232409390278
      ],
      [
        "▁dizi",
        -9.26470750318023
      ],
      [
        "▁yuzluydu",
        -9.762952995554771
      ],
      [
        "▁jaguar",
        -9.873738313217594
      ],
      [
        "▁ydu",
        -8.242796498591797
      ],
      [
        "▁g",
        -11.181084115905492
      ],
      [
        "▁kitap",
        -8.373612802686614
      ],
      [
        "▁alıcı",
        -9.371798358243392
      ],
      [
        ".25",
        -9.611101879508695
      ],
      [
        "▁gitti",
        -8.141531186532381
      ],
      [
        "gımız",
        -9.562711791738167
      ],
      [
        "▁kostu",
        -9.894397845894908
      ],
      [
        "▁sessiz",
        -8.907891827926756
      ],
      [
        "▁-",
        -9.791300196481245
      ],
      [
        "▁ileri",
        -8.808493621832575
      ],
      [
        "▁hic",
        -7.180893811282072
      ],
      [
        "▁belirle",
        -9.382607038461654
      ],
      [
        "▁yeri",
        -9.361245770727574
      ],
      [
        "▁yanıt",
        -9.632435651230795
      ],
      [
        "▁bircok",
        -6.16939360399842
      ],
      [
        "▁c",
        -6.816578132283233
      ],
      [
        "▁sevinc",
        -9.71654953647515
      ],
      [
        "ıyla",
        -7.990726813705478
      ],
      [
        "▁dal",
        -8.446432586825377
      ],
      [
        "▁us",
        -8.10895479599213
      ],
      [
        "▁seyi",
        -8.676874569626904
      ],
      [
        "▁zayif",
        -9.47223307397908
      ],
      [
        "▁daha",
        -5.874280914192662
      ],
      [
        "▁milwaukee'",
        -9.308364528652957
      ],
      [
        "maya",
        -7.227138544981184
      ],
      [
        "lestirme",
        -9.561555464305062
      ],
      [
        "yedi",
        -8.957221228301936
      ],
      [
        "fı",
        -12.849601984454036
      ],
      [
        "▁%",
        -11.674862837859802
      ],
      [
        "▁denver'",
        -7.892196145062766
      ],
      [
        "▁dusun",
        -8.621348753324359
      ],
      [
        "▁sevgili",
        -9.496281200749177
      ],
      [
        "▁30",
        -6.961537307481505
      ],
      [
        "evi",
        -9.140727321390322
      ],
      [
        "cik",
        -8.921699593206476
      ],
      [
        "▁duyar",
        -9.285931808452847
      ],
      [
        "leyen",
        -8.802170370723436
      ],
      [
        "▁tavır",
        -9.852180806080144
      ],
      [
        "▁muhtemel",
        -9.210460976466836
      ],
      [
        "o",
        -10.725630651579849
      ],
      [
        "▁model",
        -9.763794982628859
      ],
      [
        "▁osmanlı",
        -9.684072863671343
      ],
      [
        "…",
        -11.80952679083899
      ],
      [
        "▁oteli",
        -9.129345289380222
      ],
      [
        "▁yogun",
        -9.199418033690248
      ],
      [
        "▁arada",
        -8.591437720470925
      ],
      [
        "▁belirtti",
        -9.156595510007552
      ],
      [
        "v",
        -5.244896794061084
      ],
      [
        "▁oy",
        -8.313309470368463
      ],
      [
        "▁cumartesi",
        -8.622678548849034
      ],
      [
        "cak",
        -5.694975210288684
      ],
      [
        "▁t",
        -13.020326944763564
      ],
      [
        "medi",
        -8.376061968734932
      ],
      [
        "▁tahvilleri",
        -9.43431349028672
      ],
      [
        "▁tutu",
        -8.653020593594436
      ],
      [
        "\"",
        -3.89364669064185
      ],
      [
        "'",
        -7.18621962003384
      ],
      [
        "▁yuz",
        -8.010916192805436
      ],
      [
        "▁pahalı",
        -9.783821241195165
      ],
      [
        "▁arastırma",
        -8.742815553106459
      ],
      [
        "▁harcama",
        -9.258745796755306
      ],
      [
        "il",
        -6.926965214072123
      ],
      [
        "▁kucuktu",
        -8.633908669763107
      ],
      [
        "agı",
        -8.25682913668491
      ],
      [
        "altı",
        -8.424785572045806
      ],
      [
        "▁%7.",
        -11.07559443344391
      ],
      [
        "▁bicimde",
        -9.839245516401283
      ],
      [
        "▁kendisinde",
        -8.786059734983755
      ],
      [
        "▁ediyor",
        -7.107172282704473
      ],
      [
        "▁hu",
        -8.06140734502391
      ],
      [
        "▁kabul",
        -7.921155790269446
      ],
      [
        "▁bahseder",
        -9.607163873266147
      ],
      [
        "▁denile",
        -9.876884645999422
      ],
      [
        "▁agız",
        -9.427195465071602
      ],
      [
        "▁igne",
        -9.873741020242068
      ],
      [
        "▁simdi",
        -7.272086153548058
      ],
      [
        "▁kalmadi",
        -8.321287913235585
      ],
      [
        "▁bagımlı",
        -9.92195949412623
      ],
      [
        "▁unutma",
        -9.737694608692717
      ],
      [
        "medigini",
        -9.677551197501796
      ],
      [
        "▁'d",
        -13.349940624756915
      ],
      [
        "▁bro",
        -9.628012783465262
      ],
      [
        "▁kalabalık",
        -9.662438033163372
      ],
      [
        "▁duy",
        -8.866238153057882
      ],
      [
        "▁1989",
        -7.7880954400216265
      ],
      [
        "ber",
        -8.481812016020683
      ],
      [
        "dılar",
        -9.007439067398249
      ],
      [
        "▁universite",
        -9.064033428367068
      ],
      [
        "▁agzı",
        -9.139175121805325
      ],
      [
        "▁seviyesinde",
        -9.433355586558147
      ],
      [
        "▁cerceve",
        -9.827755231342692
      ],
      [
        "▁dok",
        -8.816856926354895
      ],
      [
        "gında",
        -8.752684464541293
      ],
      [
        "▁bekleme",
        -9.492747276868595
      ],
      [
        "▁denver'de",
        -7.7256954894843215
      ],
      [
        "▁alım",
        -8.188870091243746
      ],
      [
        "▁angeles'",
        -9.33741070848474
      ],
      [
        "▁for",
        -9.45104720170286
      ],
      [
        "▁hali",
        -8.75161665019306
      ],
      [
        "▁gitmis",
        -9.46803809967171
      ],
      [
        "▁oburu",
        -9.457000074137701
      ],
      [
        "▁dısında",
        -8.893407663840645
      ],
      [
        "lı",
        -5.558009199672869
      ],
      [
        "▁ekmek",
        -9.05594697726847
      ],
      [
        "▁uyar",
        -9.086571401415334
      ],
      [
        "▁dusunme",
        -9.141033126020327
      ],
      [
        "▁gelen",
        -7.789444802507401
      ],
      [
        "▁yardimci",
        -8.936512176426413
      ],
      [
        "▁130",
        -9.402318196754825
      ],
      [
        "lıkla",
        -9.015083223077728
      ],
      [
        "▁ettigi",
        -8.98066494572488
      ],
      [
        "▁ikibinuc",
        -9.483628766956455
      ],
      [
        "▁kok",
        -8.959710086676633
      ],
      [
        "ladıgı",
        -9.240889418111042
      ],
      [
        "▁gelecek",
        -8.452772240904034
      ],
      [
        "arı",
        -9.182295171636294
      ],
      [
        "mayan",
        -8.878691304125441
      ],
      [
        "▁etki",
        -8.323570310069286
      ],
      [
        "bu",
        -10.475098792750922
      ],
      [
        "sı",
        -5.801029226295396
      ],
      [
        "▁%4",
        -10.363704693096357
      ],
      [
        "▁yonet",
        -9.544470441883156
      ],
      [
        "▁yıllarda",
        -9.535178082870342
      ],
      [
        "▁agustos'ta",
        -9.537608820934494
      ],
      [
        "▁anlasma",
        -8.312964440162599
      ],
      [
        "▁baslıyor",
        -9.585089640050704
      ],
      [
        "▁salon",
        -9.501295752718562
      ],
      [
        "▁yaptirdi",
        -9.151795606984052
      ],
      [
        "▁beri",
        -9.230233891142023
      ],
      [
        "▁etti",
        -6.879784313061134
      ],
      [
        "dugu",
        -8.45954055665963
      ],
      [
        "▁be",
        -7.506736331154971
      ],
      [
        "▁bagır",
        -9.011015852511203
      ],
      [
        "▁55",
        -9.177819608601558
      ],
      [
        "lendirdi",
        -9.460532032542542
      ],
      [
        "mus",
        -7.083867982188077
      ],
      [
        "▁vi",
        -8.30380592537962
      ],
      [
        "▁begenmedi",
        -8.839946311558851
      ],
      [
        "▁yonetimi",
        -9.599495899940592
      ],
      [
        "0-1",
        -13.27225999513051
      ],
      [
        "ta",
        -6.364411403452837
      ],
      [
        "▁na",
        -7.442627275235236
      ],
      [
        "▁unlu",
        -9.727393634988672
      ],
      [
        "▁senetleri",
        -9.158518858065289
      ],
      [
        ":",
        -5.200922476649726
      ],
      [
        "▁ulasılama",
        -9.762656842119853
      ],
      [
        "nun",
        -8.168935252858324
      ],
      [
        "▁oysa",
        -8.598002639171483
      ],
      [
        "▁k",
        -9.253332953015757
      ],
      [
        "200",
        -13.183875010531716
      ],
      [
        "▁20",
        -7.105754316792156
      ],
      [
        "▁3.1",
        -9.54319243005556
      ],
      [
        "likle",
        -8.362443712004549
      ],
      [
        "▁sarkı",
        -9.095325632117142
      ],
      [
        "▁sahibi",
        -8.848892736215712
      ],
      [
        "▁uretim",
        -9.25973945112009
      ],
      [
        "im",
        -6.472100042134998
      ],
      [
        "▁baglı",
        -8.619400849291068
      ],
      [
        "▁gerceklestir",
        -9.292163903124809
      ],
      [
        "▁pazartesi",
        -8.200530237779951
      ],
      [
        "▁cat",
        -8.789603549585518
      ],
      [
        "▁bu",
        -3.220688816836356
      ],
      [
        "h",
        -7.700124458784982
      ],
      [
        "▁do",
        -9.18663526880855
      ],
      [
        "▁edecegi",
        -9.79655655829401
      ],
      [
        "▁alıs",
        -8.845445589550213
      ],
      [
        "ından",
        -8.199685595901304
      ],
      [
        "▁kaynak",
        -8.559784641518728
      ],
      [
        "▁vermek",
        -8.710805753583932
      ],
      [
        "▁gorme",
        -8.846902374372146
      ],
      [
        "▁yazma",
        -9.657408497654169
      ],
      [
        "▁baslar",
        -9.381504381417287
      ],
      [
        "▁kumas",
        -9.320365621282567
      ],
      [
        "ril",
        -10.35952688725795
      ],
      [
        "▁gelecegi",
        -9.717601044634494
      ],
      [
        "▁film",
        -8.85704856401772
      ],
      [
        "▁kim",
        -8.856197328222297
      ],
      [
        "▁25",
        -7.6585169186170114
      ],
      [
        "▁serbest",
        -9.625052229583407
      ],
      [
        "▁vardi",
        -8.10597749684517
      ],
      [
        "ligini",
        -8.438370515682045
      ],
      [
        "ip",
        -7.574603668617782
      ],
      [
        "nı",
        -7.932349173880769
      ],
      [
        "▁amac",
        -8.551868968475976
      ],
      [
        "▁dar",
        -8.548805104061678
      ],
      [
        "▁gorul",
        -8.652576574138823
      ],
      [
        "▁firma",
        -8.79881336896851
      ],
      [
        "▁tavsiye",
        -7.484460935271921
      ],
      [
        "▁getir",
        -8.045737047917324
      ],
      [
        "▁eg",
        -8.641332056786379
      ],
      [
        "hane",
        -8.306119784970171
      ],
      [
        "00",
        -8.310518358353914
      ],
      [
        "▁arkadas",
        -8.474654912208072
      ],
      [
        "▁maas",
        -9.777992081127637
      ],
      [
        "▁gelenek",
        -9.785998757429173
      ],
      [
        "▁muhafaza",
        -9.897547701486832
      ],
      [
        "▁halin",
        -9.102843763310231
      ],
      [
        "▁degili",
        -7.3367447943537805
      ],
      [
        "ti",
        -13.256482449366915
      ],
      [
        "▁ad",
        -8.180176155087413
      ],
      [
        "▁ek",
        -7.9458786915230935
      ],
      [
        "▁baslama",
        -9.530895841294232
      ],
      [
        "▁yasa",
        -7.312566142834832
      ],
      [
        "▁sinema",
        -9.611209256354861
      ],
      [
        "▁cil",
        -9.191918214740726
      ],
      [
        "ise",
        -9.285473386053635
      ],
      [
        "amadı",
        -8.646689093628334
      ],
      [
        "dı",
        -11.064690274314689
      ],
      [
        "▁tartıs",
        -9.866683405622059
      ],
      [
        "▁anadolu",
        -9.367645816504128
      ],
      [
        "cu",
        -11.312055730562165
      ],
      [
        "▁alacak",
        -9.146173348778962
      ],
      [
        "4",
        -8.91321612378993
      ],
      [
        "▁198",
        -6.9751098025940985
      ],
      [
        "eci",
        -11.809606674317426
      ],
      [
        "▁neden",
        -7.411773487781502
      ],
      [
        "▁verir",
        -8.978525160466871
      ],
      [
        "▁bicim",
        -9.127665322224153
      ],
      [
        "▁13",
        -8.043983628244806
      ],
      [
        "zi",
        -8.208036986252152
      ],
      [
        "▁liste",
        -9.506746055426465
      ],
      [
        "▁sevin",
        -9.62490442093237
      ],
      [
        "▁gidiyor",
        -8.441072997515164
      ],
      [
        "▁it",
        -8.794598392806796
      ],
      [
        "▁ulus",
        -9.57061221320928
      ],
      [
        "▁burun",
        -9.759475362055609
      ],
      [
        "▁tel",
        -9.02568645669047
      ],
      [
        "▁bulus",
        -9.440945763968909
      ],
      [
        "▁uzak",
        -8.669226906142686
      ],
      [
        "▁asırı",
        -9.239202211630396
      ],
      [
        "▁aktarmalı",
        -9.189959352571236
      ],
      [
        "▁miyi",
        -7.919809520676319
      ],
      [
        "▁askı",
        -9.724606038241628
      ],
      [
        "▁banyo",
        -9.411131305734678
      ],
      [
        "▁camasır",
        -9.805543917070791
      ],
      [
        "▁iktidar",
        -9.873738234541635
      ],
      [
        "▁uzun",
        -7.455025669325789
      ],
      [
        "▁emin",
        -9.147249346876208
      ],
      [
        "u",
        -11.808339418053766
      ],
      [
        "▁bebek",
        -9.873864809857473
      ],
      [
        "▁51",
        -9.143002594478848
      ],
      [
        "▁araba",
        -8.022995583233863
      ],
      [
        "▁met",
        -9.04108061443829
      ],
      [
        "▁dusuk",
        -7.934941242012329
      ],
      [
        "%",
        -14.190853728377773
      ],
      [
        "▁co",
        -7.487167566081312
      ],
      [
        "▁bilim",
        -8.596276822269136
      ],
      [
        "▁dur",
        -7.454968144923029
      ],
      [
        "▁neler",
        -8.468540397938536
      ],
      [
        "▁takımı",
        -9.708143805869849
      ],
      [
        "▁aktif",
        -9.32707692423886
      ],
      [
        "▁hafif",
        -8.449944117120241
      ],
      [
        "▁hisseleri",
        -8.66845443867452
      ],
      [
        "uc",
        -8.613245906554088
      ],
      [
        "▁kaybı",
        -9.82954525802449
      ],
      [
        "kendi",
        -9.171575624838027
      ],
      [
        "▁hastalık",
        -9.349422649107591
      ],
      [
        "▁teori",
        -9.922458229581457
      ],
      [
        "▁agac",
        -8.423087586742806
      ],
      [
        "▁yarat",
        -9.283716421615075
      ],
      [
        "▁paket",
        -9.520734581567527
      ],
      [
        "▁kuru",
        -8.438951846819977
      ],
      [
        "▁alay",
        -9.584405526588375
      ],
      [
        "▁18",
        -8.02303047947422
      ],
      [
        "▁odalari",
        -9.53403577787872
      ],
      [
        "▁goren",
        -9.426382496631518
      ],
      [
        "um",
        -6.342031287832066
      ],
      [
        "▁yagmur",
        -9.299173014503914
      ],
      [
        "▁durgun",
        -9.313189999174602
      ],
      [
        "▁mulk",
        -9.522855099514986
      ],
      [
        "sını",
        -7.13641564281425
      ],
      [
        "'ın",
        -7.3547460505853115
      ],
      [
        "▁guc",
        -8.255113925898229
      ],
      [
        "▁kapan",
        -9.45292805903405
      ],
      [
        "▁so",
        -5.155031048800389
      ],
      [
        "▁burbank'",
        -9.850482391739074
      ],
      [
        "▁fiyati",
        -9.195402717711701
      ],
      [
        "▁mali",
        -8.791549040500692
      ],
      [
        "▁bic",
        -9.869997025198597
      ],
      [
        "▁savcı",
        -9.739838986457366
      ],
      [
        "▁olan",
        -8.129043926954479
      ],
      [
        "▁kendim",
        -8.054983220327934
      ],
      [
        "▁be",
        -9.393500170655983
      ],
      [
        "▁rahat",
        -8.182280061750072
      ],
      [
        "▁ola",
        -6.380018922623658
      ],
      [
        "lugunu",
        -9.015820467976488
      ],
      [
        "▁koylu",
        -9.517461531219423
      ],
      [
        "▁bedel",
        -9.903752769394895
      ],
      [
        "▁kendilerini",
        -7.912494984556227
      ],
      [
        "▁aklı",
        -8.51251435322138
      ],
      [
        "▁atlanta'da",
        -8.018942464540036
      ],
      [
        "▁ec",
        -9.770326026475466
      ],
      [
        "▁durum",
        -8.415223909775452
      ],
      [
        "▁gumus",
        -9.831014536232313
      ],
      [
        "▁ka",
        -7.0394861384462875
      ],
      [
        "▁ho",
        -8.396877419325644
      ],
      [
        "▁zaman",
        -6.87734921626849
      ],
      [
        "▁soy",
        -8.761512637552668
      ],
      [
        "▁197",
        -9.027229195716874
      ],
      [
        "errill",
        -9.923218357429972
      ],
      [
        "▁yat",
        -8.365640590777497
      ],
      [
        "▁durma",
        -9.389881771640361
      ],
      [
        "▁dev",
        -8.862008926988302
      ],
      [
        "▁ederi",
        -7.705729927883231
      ],
      [
        "▁yiy",
        -9.358039043323831
      ],
      [
        "▁gozleri",
        -8.435323053889054
      ],
      [
        "▁yuvarla",
        -9.488936920194643
      ],
      [
        "os",
        -8.715161685915856
      ],
      [
        "▁musait",
        -9.003438443754945
      ],
      [
        "▁kansas",
        -8.936532958255325
      ],
      [
        "▁normal",
        -9.31805171506012
      ],
      [
        "▁peynir",
        -9.367644820877384
      ],
      [
        "▁kalıyor",
        -9.789799761113075
      ],
      [
        "▁fi",
        -7.905032211994399
      ],
      [
        "▁sa",
        -7.058721000505687
      ],
      [
        "seniz",
        -9.727799265245029
      ],
      [
        "▁gerceklesti",
        -9.8241174811166
      ],
      [
        "▁defa",
        -8.679369722622454
      ],
      [
        "▁ur",
        -9.155759490078008
      ],
      [
        "00-",
        -11.772156729223715
      ],
      [
        "▁ilgili",
        -7.324171353172152
      ],
      [
        "▁elektronik",
        -9.783793735996175
      ],
      [
        "▁yam",
        -11.429855101809459
      ],
      [
        "▁do",
        -7.762827266133984
      ],
      [
        "▁kimi",
        -7.206057973870431
      ],
      [
        "larımız",
        -9.086395310634032
      ],
      [
        "▁felaket",
        -9.805534524388866
      ],
      [
        "▁kırk",
        -7.941980051663087
      ],
      [
        "sunu",
        -8.55691237153896
      ],
      [
        "▁gizli",
        -9.085306514629556
      ],
      [
        "▁civarında",
        -9.571986970351299
      ],
      [
        "▁oldugunu",
        -8.734847030904774
      ],
      [
        "▁bey",
        -6.63940555064487
      ],
      [
        "–",
        -12.809526790838989
      ],
      [
        "▁boy",
        -8.542169799067416
      ],
      [
        "▁uzerinde",
        -7.497277329203945
      ],
      [
        "an'ın",
        -9.34888920956653
      ],
      [
        "▁benze",
        -9.409287100517904
      ],
      [
        "▁cocugun",
        -9.380961425110307
      ],
      [
        "ır",
        -6.807285059183476
      ],
      [
        "2.5",
        -9.05423783593148
      ],
      [
        "▁iceri",
        -8.520485515942802
      ],
      [
        "e",
        -10.216012375803206
      ],
      [
        "luga",
        -9.649800112857818
      ],
      [
        "▁donem",
        -8.877299497124529
      ],
      [
        "▁bazi",
        -8.434375528301851
      ],
      [
        "▁millet",
        -8.84850661818345
      ],
      [
        "▁edeme",
        -9.544313000989302
      ],
      [
        "▁eksik",
        -9.131500790966406
      ],
      [
        "▁oyna",
        -8.180252492335844
      ],
      [
        "▁tak",
        -8.124764519415884
      ],
      [
        "▁gorunuyor",
        -8.923844578680528
      ],
      [
        "▁tok",
        -9.276426033620773
      ],
      [
        "▁sorumlu",
        -9.352910939866767
      ],
      [
        "▁%7.5",
        -11.120962033768349
      ],
      [
        "▁pu",
        -11.408164597291648
      ],
      [
        "▁ozellikle",
        -8.143868757945008
      ],
      [
        "ris",
        -9.225381196676278
      ],
      [
        "▁ardı",
        -9.598355190212782
      ],
      [
        "▁yayın",
        -8.509906062672579
      ],
      [
        "▁merkez",
        -8.5808129832079
      ],
      [
        "n",
        -9.623076971272127
      ],
      [
        "▁hava",
        -7.668905527279637
      ],
      [
        "▁analistler",
        -8.93214640442354
      ],
      [
        "▁sevdigi",
        -9.618936798713126
      ],
      [
        "▁danısman",
        -9.411128589373835
      ],
      [
        "95",
        -9.457815011772302
      ],
      [
        "▁alabilir",
        -9.389406890530598
      ],
      [
        "▁anlatı",
        -9.63152272533894
      ],
      [
        "▁ruya",
        -9.483658865106538
      ],
      [
        "▁burnu",
        -9.796847282756502
      ],
      [
        "▁sa",
        -7.406443483500909
      ],
      [
        "▁bozul",
        -9.789970248332624
      ],
      [
        "▁burada",
        -8.17934174242976
      ],
      [
        "ların",
        -6.231394799792546
      ],
      [
        "2",
        -9.343103933683576
      ],
      [
        "▁canlı",
        -9.479312062453747
      ],
      [
        "▁nihayet",
        -9.589062398266645
      ],
      [
        "v",
        -11.12474086345478
      ],
      [
        "▁aksamı",
        -9.40375316312441
      ],
      [
        "▁seyred",
        -9.64404952703428
      ],
      [
        "▁kalbi",
        -9.576029644947184
      ],
      [
        "▁milyar",
        -5.740472206460095
      ],
      [
        "▁san",
        -6.189193146120398
      ],
      [
        "▁asagı",
        -8.850041933812255
      ],
      [
        "larında",
        -7.585806175449083
      ],
      [
        "mis",
        -6.829142570161516
      ],
      [
        "▁endeksi",
        -8.79077120144036
      ],
      [
        "sel",
        -7.860708098218264
      ],
      [
        "▁tek",
        -7.125949620796007
      ],
      [
        "▁gormus",
        -9.671701018456169
      ],
      [
        "▁cogu",
        -7.787547373785652
      ],
      [
        "▁hasar",
        -9.576162872873063
      ],
      [
        "▁basın",
        -7.968851528175901
      ],
      [
        "▁onları",
        -6.252431044542778
      ],
      [
        "▁biri",
        -7.301416674230442
      ],
      [
        "▁satıl",
        -9.292978203988014
      ],
      [
        "sini",
        -7.111281122541552
      ],
      [
        "▁kanada",
        -9.701993366923986
      ],
      [
        "▁hafta",
        -7.6661365232580305
      ],
      [
        "▁kendisini",
        -7.291834468436704
      ],
      [
        "▁para",
        -7.0525286347883895
      ],
      [
        "▁gerek",
        -9.094802343360127
      ],
      [
        "larından",
        -7.990028012935645
      ],
      [
        "▁kum",
        -8.857953291553388
      ],
      [
        "▁ogle",
        -7.603474277144901
      ],
      [
        "▁gecir",
        -8.511647180989259
      ],
      [
        "▁anket",
        -8.6925124280536
      ],
      [
        "▁7",
        -9.214875501642393
      ],
      [
        "▁sizin",
        -7.488609617365101
      ],
      [
        "ce",
        -5.94936691041149
      ],
      [
        "▁yasayan",
        -9.80745056962258
      ],
      [
        "▁aldı",
        -7.641145762489193
      ],
      [
        "▁bizleri",
        -9.582690225371444
      ],
      [
        "▁ne",
        -6.243207469966276
      ],
      [
        "▁ideal",
        -9.42605640672912
      ],
      [
        "'",
        -9.468205875807458
      ],
      [
        "▁kaydetti",
        -9.850485978397437
      ],
      [
        "▁sını",
        -9.67537730256433
      ],
      [
        "lastı",
        -8.442542069160437
      ],
      [
        "ala",
        -12.195342830818472
      ],
      [
        "caktır",
        -9.66342893916657
      ],
      [
        "mayı",
        -7.882346387926568
      ],
      [
        "▁tuttu",
        -8.89055622941563
      ],
      [
        "mam",
        -9.051727593098487
      ],
      [
        "lıklar",
        -9.062044936281978
      ],
      [
        "kları",
        -8.64846256397854
      ],
      [
        "▁yım",
        -8.74331923090018
      ],
      [
        "▁raf",
        -9.74288056958666
      ],
      [
        "▁sasır",
        -9.625728772999857
      ],
      [
        "▁parlak",
        -9.898644023089899
      ],
      [
        "▁yolda",
        -9.22438181281646
      ],
      [
        "▁egitim",
        -8.736684331122754
      ],
      [
        "4'te",
        -9.688561657049068
      ],
      [
        "▁ip",
        -9.194568194956116
      ],
      [
        "▁kahvaltı",
        -9.850482363873136
      ],
      [
        "▁an",
        -7.190513088742224
      ],
      [
        "▁elleri",
        -9.29996520553288
      ],
      [
        "▁dost",
        -8.893707026411365
      ],
      [
        "ton",
        -8.213879650619416
      ],
      [
        "yle",
        -8.001576640012933
      ],
      [
        "5'te",
        -9.818480545665762
      ],
      [
        "▁ets",
        -9.165445117868003
      ],
      [
        "▁di",
        -7.057769738788028
      ],
      [
        "▁kıymet",
        -9.877139173615873
      ],
      [
        "bas",
        -9.392307425498197
      ],
      [
        "8'",
        -9.456022346869528
      ],
      [
        "▁yarar",
        -9.552047230555115
      ],
      [
        "▁!",
        -9.510406401262049
      ],
      [
        "bu",
        -6.521250950590648
      ],
      [
        "▁s",
        -7.442766271790305
      ],
      [
        "▁ez",
        -8.878581905288296
      ],
      [
        "▁kalite",
        -8.357724325812594
      ],
      [
        "hat",
        -7.20213160897583
      ],
      [
        "▁aile",
        -7.7113472200892685
      ],
      [
        "iz",
        -7.423531956578175
      ],
      [
        "▁calısan",
        -8.53364658661918
      ],
      [
        "▁olmadi",
        -8.792196392843708
      ],
      [
        "▁tu",
        -7.716030085250396
      ],
      [
        "▁kurtar",
        -9.386586979761653
      ],
      [
        "▁sezon",
        -9.66328503127754
      ],
      [
        "▁urun",
        -8.76219260535343
      ],
      [
        "▁saglam",
        -9.017533519167648
      ],
      [
        "sın",
        -8.044919295447183
      ],
      [
        "▁bunları",
        -6.675178153881778
      ],
      [
        "1989-8",
        -14.177268616744923
      ],
      [
        "▁onem",
        -8.786787059537106
      ],
      [
        "▁aydın",
        -9.064861755413258
      ],
      [
        "▁olanakları",
        -9.611486155039309
      ],
      [
        "▁philadelphia",
        -9.28001291495189
      ],
      [
        "▁",
        -0.7142778471973976
      ],
      [
        "▁oluyordu",
        -9.766548999809203
      ],
      [
        "ya",
        -10.81879747130811
      ],
      [
        "'in",
        -6.955273848296498
      ],
      [
        "re",
        -8.455478699837244
      ],
      [
        "▁mu",
        -7.14820493193073
      ],
      [
        "▁actı",
        -8.56734834400709
      ],
      [
        "▁sehir",
        -8.187371232028607
      ],
      [
        "▁arkasında",
        -9.23638524391791
      ],
      [
        "sına",
        -7.105978658625742
      ],
      [
        "▁pazar",
        -7.836911768575396
      ],
      [
        "lik",
        -8.863920459242864
      ],
      [
        "▁sofra",
        -9.537287043727831
      ],
      [
        "▁ver",
        -7.499335220794954
      ],
      [
        "▁yazar",
        -8.529694171258011
      ],
      [
        "▁kent",
        -8.860963015045154
      ],
      [
        "▁verecek",
        -9.629140104509595
      ],
      [
        "▁ney",
        -8.827870655904642
      ],
      [
        "32",
        -8.876639540153514
      ],
      [
        "▁ev",
        -7.107720455711907
      ],
      [
        "▁geldi",
        -7.298143374510296
      ],
      [
        "▁yumusak",
        -9.873740078859395
      ],
      [
        "▁200",
        -8.144482062339698
      ],
      [
        "▁duk",
        -8.799410016204437
      ],
      [
        "▁tor",
        -9.207584062042002
      ],
      [
        "▁ter",
        -7.771308922344725
      ],
      [
        "▁oakland'da",
        -9.497255858464289
      ],
      [
        "ecegi",
        -8.641340618154462
      ],
      [
        "▁eyalet",
        -9.554234679076025
      ],
      [
        "ndan",
        -7.969574643771401
      ],
      [
        "▁19",
        -9.043963626811182
      ],
      [
        "leme",
        -8.522100345145603
      ],
      [
        "▁konut",
        -9.55877425604506
      ],
      [
        "▁sakin",
        -8.642368384187272
      ],
      [
        "▁gaye",
        -8.026258026882394
      ],
      [
        "60",
        -9.56421121851256
      ],
      [
        "▁saha",
        -9.246387948705358
      ],
      [
        "▁fre",
        -9.444787766768734
      ],
      [
        "▁zayıf",
        -8.900319032238205
      ],
      [
        "sının",
        -7.903025344159838
      ],
      [
        "bire",
        -9.343351773940302
      ],
      [
        "▁mısır",
        -9.70141502787359
      ],
      [
        "▁heyecan",
        -9.033204984321506
      ],
      [
        "dur",
        -7.599162758891827
      ],
      [
        "▁%9.6",
        -12.104486163788298
      ],
      [
        "▁tarafta",
        -9.473431239403826
      ],
      [
        "▁ya",
        -7.535684456996982
      ],
      [
        "▁hayat",
        -8.405118853258545
      ],
      [
        "ecektir",
        -9.476101130732733
      ],
      [
        "▁seattle'",
        -9.023103465152506
      ],
      [
        "▁11",
        -7.696498369092425
      ],
      [
        "▁ac",
        -7.1958454024466825
      ],
      [
        "▁savunma",
        -9.063721482683444
      ],
      [
        "n",
        -3.5812099110230626
      ],
      [
        "▁sistem",
        -8.907238366261153
      ],
      [
        "▁gorus",
        -8.531314646631202
      ],
      [
        "30",
        -12.083484989621075
      ],
      [
        "▁olur",
        -7.831528637037798
      ],
      [
        "senin",
        -8.862336679571293
      ],
      [
        "▁damak",
        -9.691862476272116
      ],
      [
        "olar",
        -7.153116283606411
      ],
      [
        "▁magaza",
        -9.247502215121928
      ],
      [
        "▁fena",
        -8.888153707871714
      ],
      [
        "▁etraf",
        -9.084282524962287
      ],
      [
        "▁bayram",
        -9.260502326938695
      ],
      [
        "▁abd'",
        -9.605321911213917
      ],
      [
        "▁olcu",
        -9.050360034669506
      ],
      [
        "▁mal",
        -8.365686107022203
      ],
      [
        "▁dusunuyor",
        -8.881897349876896
      ],
      [
        "▁w",
        -8.373659810070095
      ],
      [
        "▁deli",
        -8.812753026740555
      ],
      [
        "▁dinle",
        -9.036957764472742
      ],
      [
        "▁pa",
        -7.625150484708501
      ],
      [
        "▁dayan",
        -8.640002560281598
      ],
      [
        "▁oldugum",
        -9.376119671988727
      ],
      [
        "▁ayakkabı",
        -9.488094339988052
      ],
      [
        "▁allah",
        -9.516426720942961
      ],
      [
        "▁62",
        -9.493396921642924
      ],
      [
        "▁dusunur",
        -9.814094402860832
      ],
      [
        "▁ucag",
        -9.32696226230263
      ],
      [
        "▁ucmak",
        -8.672860764704229
      ],
      [
        "▁aktarmasız",
        -8.643353216011683
      ],
      [
        "oz",
        -8.978374483908956
      ],
      [
        "▁kendi",
        -9.608142175442634
      ],
      [
        "ca",
        -8.817379179509366
      ],
      [
        "nin",
        -9.301884204327274
      ],
      [
        "once",
        -9.511381666878972
      ],
      [
        "4",
        -9.5754158912283
      ],
      [
        "61",
        -13.225441943691433
      ],
      [
        "rken",
        -8.055919429806615
      ],
      [
        "yiz",
        -9.259809697696888
      ],
      [
        "1",
        -8.609559587766825
      ],
      [
        "▁yapılmıs",
        -9.64913347152352
      ],
      [
        "▁gosterdi",
        -8.974571709330565
      ],
      [
        "▁korkunc",
        -9.851236568189025
      ],
      [
        "sine",
        -7.271669172708771
      ],
      [
        "▁sıra",
        -8.159291058843905
      ],
      [
        "uk",
        -8.359112610324992
      ],
      [
        "▁sey",
        -6.518081937684776
      ],
      [
        "▁dur",
        -8.249595472337987
      ],
      [
        "muyor",
        -8.835587540823061
      ],
      [
        "▁iyiydi",
        -6.566074828464216
      ],
      [
        "nde",
        -7.9393035710755235
      ],
      [
        "▁halde",
        -8.64848598859118
      ],
      [
        "▁un",
        -8.604892661039983
      ],
      [
        "▁pı",
        -11.055086030260906
      ],
      [
        "▁pantolon",
        -9.921937944403474
      ],
      [
        "uyordu",
        -8.216611616602513
      ],
      [
        "▁bulundugu",
        -9.404094335825665
      ],
      [
        "▁yarın",
        -8.742073188846115
      ],
      [
        "sin",
        -7.658419155902921
      ],
      [
        "lıgında",
        -9.254816083056024
      ],
      [
        "so",
        -8.893916647833626
      ],
      [
        "▁art",
        -7.873378643675457
      ],
      [
        "▁politika",
        -8.66908928272775
      ],
      [
        "▁vadeli",
        -8.56050813174603
      ],
      [
        "▁yet",
        -9.48187345673886
      ],
      [
        "▁ha",
        -8.423620049332474
      ],
      [
        "▁dag",
        -8.344630522069467
      ],
      [
        "▁ihale",
        -9.783797174444869
      ],
      [
        "▁lezzet",
        -7.7349774512220275
      ],
      [
        "cilik",
        -9.22398875101973
      ],
      [
        "▁basta",
        -9.545262691566423
      ],
      [
        "▁asıl",
        -9.00825555823684
      ],
      [
        "▁sozu",
        -9.148616284309032
      ],
      [
        "▁surekli",
        -8.685418464697246
      ],
      [
        "▁dusman",
        -8.946328870009975
      ],
      [
        "▁sen",
        -9.121787454579671
      ],
      [
        "▁temmuz'da",
        -9.510737540379655
      ],
      [
        "▁uygulama",
        -9.115322921105077
      ],
      [
        "▁sanatcı",
        -9.821254349500336
      ],
      [
        "▁cok",
        -5.160251942740835
      ],
      [
        "▁uygula",
        -9.465508774201654
      ],
      [
        "▁bazı",
        -9.116953235889788
      ],
      [
        "▁ingiliz",
        -9.219993780423414
      ],
      [
        "▁ilgilen",
        -9.127614083772865
      ],
      [
        "▁piyasası",
        -9.3417725445772
      ],
      [
        "▁2000",
        -9.70435989111514
      ],
      [
        "▁sonra",
        -6.9045431313874674
      ],
      [
        "iyle",
        -7.470003093095651
      ],
      [
        "▁gunlerde",
        -9.556296807668932
      ],
      [
        "▁verim",
        -9.532600450997515
      ],
      [
        "▁mimar",
        -9.828094681643353
      ],
      [
        "▁memnun",
        -6.506467693929535
      ],
      [
        "▁bayan",
        -8.821671064238881
      ],
      [
        "▁pozisyon",
        -9.805532871055737
      ],
      [
        "▁olacagını",
        -9.196040188549869
      ],
      [
        "▁efendi",
        -8.974074470851983
      ],
      [
        "ması",
        -7.299996024308091
      ],
      [
        "▁gosterin",
        -8.050817889615079
      ],
      [
        "▁sor",
        -9.08893757446559
      ],
      [
        "llah",
        -9.493837023662515
      ],
      [
        "nla",
        -9.58078058821545
      ],
      [
        "de",
        -10.03163979978559
      ],
      [
        "▁satısları",
        -9.22877065965331
      ],
      [
        "▁okudu",
        -9.530172755599544
      ],
      [
        "mekte",
        -9.245618230846606
      ],
      [
        "▁bak",
        -7.631341638724533
      ],
      [
        "▁belki",
        -8.26584655745798
      ],
      [
        "▁uret",
        -8.63471157660124
      ],
      [
        "▁kaliteli",
        -8.862492001849827
      ],
      [
        "hicbir",
        -9.453110688665925
      ],
      [
        "nın",
        -6.337308552389939
      ],
      [
        "▁birden",
        -8.578522157895563
      ],
      [
        "▁kalem",
        -9.318053344147012
      ],
      [
        "▁goturdu",
        -9.776763444204459
      ],
      [
        "▁h",
        -11.551346784897673
      ],
      [
        "▁malzemeler",
        -9.710650921203612
      ],
      [
        "▁perakende",
        -9.606868862994515
      ],
      [
        "gu",
        -11.556704943236587
      ],
      [
        "▁houston'",
        -9.745959552265198
      ],
      [
        "▁bar",
        -8.272031870584165
      ],
      [
        "▁tabii",
        -9.11576868289755
      ],
      [
        "icin",
        -7.2082679688354006
      ],
      [
        "'",
        -4.8924320266455865
      ],
      [
        "▁ihrac",
        -9.061776251205892
      ],
      [
        "▁su",
        -6.908456969426191
      ],
      [
        "▁almıs",
        -9.265047611626755
      ],
      [
        "t",
        -5.041052590442877
      ],
      [
        "▁kara",
        -7.792541754393853
      ],
      [
        "▁yoneticileri",
        -9.647662048539507
      ],
      [
        "▁boy",
        -6.883728100908438
      ],
      [
        "▁net",
        -8.896612413878566
      ],
      [
        "atı",
        -11.610191654727192
      ],
      [
        "ff",
        -9.313864607431142
      ],
      [
        "▁ya",
        -5.833491254611257
      ],
      [
        "▁sır",
        -8.472108786206935
      ],
      [
        "▁onsekiz",
        -9.701498442636145
      ],
      [
        "▁mevsim",
        -9.68183370338932
      ],
      [
        "▁ara",
        -7.36500669311084
      ],
      [
        "▁22",
        -8.076066059236702
      ],
      [
        "▁yak",
        -8.519221287100493
      ],
      [
        "▁kavram",
        -9.655793731582957
      ],
      [
        "han",
        -8.457808318731372
      ],
      [
        "▁yapılacak",
        -8.900716668737005
      ],
      [
        "▁aldıgı",
        -9.144539697205246
      ],
      [
        "▁hukum",
        -9.409588419129705
      ],
      [
        "▁cıkan",
        -9.119299072294059
      ],
      [
        "▁ki",
        -4.577539143697806
      ],
      [
        "▁sp",
        -9.123659900175852
      ],
      [
        "▁cesaret",
        -9.89755561729001
      ],
      [
        "*",
        -8.020174383409998
      ],
      [
        "lerinden",
        -7.891840775863265
      ],
      [
        "▁yasında",
        -8.588453649365125
      ],
      [
        "▁uzakta",
        -9.743338519839732
      ],
      [
        "90",
        -11.082983173234592
      ],
      [
        "madıgı",
        -9.61827410001321
      ],
      [
        "▁evin",
        -8.663737617926397
      ],
      [
        "▁rezervasyonu",
        -9.066034492364379
      ],
      [
        "▁saf",
        -9.172798689459414
      ],
      [
        "▁ben",
        -4.922539844232007
      ],
      [
        "▁kıyasla",
        -9.506647975991758
      ],
      [
        "▁yas",
        -7.98724187589289
      ],
      [
        "es",
        -12.62948940381247
      ],
      [
        "▁ustu",
        -8.957153922530765
      ],
      [
        "▁sistemi",
        -9.342819354940062
      ],
      [
        "▁girdi",
        -8.553496388378658
      ],
      [
        "▁sinir",
        -8.957347939651598
      ],
      [
        "▁zehir",
        -9.87373848098847
      ],
      [
        "▁yılda",
        -9.151389516648244
      ],
      [
        "▁sekilde",
        -7.708834763014894
      ],
      [
        "▁kal",
        -7.951632083014778
      ],
      [
        "ılmıs",
        -8.18607130662625
      ],
      [
        "▁gelecekte",
        -9.838156679551439
      ],
      [
        "▁%3.4",
        -11.443083918441491
      ],
      [
        "ley",
        -8.289482455828967
      ],
      [
        "▁tatlı",
        -9.013294844603763
      ],
      [
        "▁katkı",
        -9.129369352195809
      ],
      [
        "▁secil",
        -9.495297156598156
      ],
      [
        "▁asama",
        -9.852035716276127
      ],
      [
        "▁sok",
        -8.595510385524342
      ],
      [
        "ng",
        -10.94435796899572
      ],
      [
        "▁dc'",
        -9.31263158597374
      ],
      [
        "o",
        -4.4249591214071105
      ],
      [
        "▁yil",
        -9.719256891949518
      ],
      [
        "▁birik",
        -9.662170978337823
      ],
      [
        "▁kere",
        -8.61697783363022
      ],
      [
        "“",
        -9.075235279699385
      ],
      [
        "▁kampanyalar",
        -9.381312534900747
      ],
      [
        "▁rol",
        -9.32253493009968
      ],
      [
        "▁alamadi",
        -8.918392517382621
      ],
      [
        "▁yorgun",
        -9.32598349494523
      ],
      [
        "▁edil",
        -8.502129398715322
      ],
      [
        "▁bit",
        -8.369653039097201
      ],
      [
        "▁o",
        -7.246881459662394
      ],
      [
        "d",
        -6.383845784902341
      ],
      [
        "▁ata",
        -8.737961819521404
      ],
      [
        "▁muduru",
        -9.432622215885642
      ],
      [
        "inci",
        -9.37785935291702
      ],
      [
        "▁degistir",
        -8.699117458246068
      ],
      [
        "▁okur",
        -9.496319512318431
      ],
      [
        "▁hi",
        -8.497350589849942
      ],
      [
        "▁bahar",
        -9.783854198829275
      ],
      [
        "▁denk",
        -9.730162792437195
      ],
      [
        "▁ucuyor",
        -9.065487849211845
      ],
      [
        "ına",
        -6.789832208832737
      ],
      [
        "iye",
        -6.892607271260933
      ],
      [
        "▁duyma",
        -9.840625553041958
      ],
      [
        "▁kayıt",
        -9.441435528801206
      ],
      [
        "▁35",
        -8.676949231489617
      ],
      [
        "▁oto",
        -9.634758037458395
      ],
      [
        "▁kotuy",
        -8.441330608771551
      ],
      [
        "inde",
        -7.3884875646813795
      ],
      [
        "▁5.5",
        -9.572967278095836
      ],
      [
        "▁vazgec",
        -9.441205535976014
      ],
      [
        "▁hesab",
        -9.72130207515452
      ],
      [
        "▁yabancı",
        -8.514972216448108
      ],
      [
        "▁mı",
        -11.773248092011569
      ],
      [
        "ur",
        -6.821673418853204
      ],
      [
        "▁sultan",
        -9.873844106165574
      ],
      [
        "id",
        -9.1330564605156
      ],
      [
        "▁yuzme",
        -8.985309998857227
      ],
      [
        "▁karı",
        -9.058101322975368
      ],
      [
        "▁kampanya",
        -9.923000589560283
      ],
      [
        "▁des",
        -9.714112605344798
      ],
      [
        "▁%99",
        -11.810224773061273
      ],
      [
        "meyi",
        -8.58203407665128
      ],
      [
        "▁odeme",
        -8.678260766111254
      ],
      [
        "▁bilir",
        -8.878878589577653
      ],
      [
        "▁firs",
        -8.928818816761709
      ],
      [
        "▁grup",
        -8.955825712173406
      ],
      [
        "▁da",
        -4.365731738433244
      ],
      [
        "▁no",
        -8.824692142194548
      ],
      [
        "g",
        -5.007317781712471
      ],
      [
        "▁borsa",
        -8.61915094800245
      ],
      [
        "▁cap",
        -9.129782184781174
      ],
      [
        "mıslar",
        -9.189288183054117
      ],
      [
        "▁18.",
        -9.72340881564127
      ],
      [
        "▁hos",
        -8.621274134607873
      ],
      [
        "lamak",
        -8.843156834835497
      ],
      [
        "▁yolu",
        -8.465758704852515
      ],
      [
        "%9",
        -12.047781401844519
      ],
      [
        "▁biliyor",
        -8.665071704032787
      ],
      [
        "bu",
        -8.138319709316665
      ],
      [
        "▁agustos",
        -8.918067885303433
      ],
      [
        "▁cam",
        -8.35924827183523
      ],
      [
        "▁bogaz",
        -9.382053157340334
      ],
      [
        "▁gevse",
        -9.921957093150304
      ],
      [
        "ve",
        -7.779753755469324
      ],
      [
        "▁lutfe",
        -7.844065902122526
      ],
      [
        "▁ardında",
        -8.953131766114446
      ],
      [
        "▁kur",
        -7.555847888351495
      ],
      [
        "▁dogu",
        -8.304801207226781
      ],
      [
        "!",
        -5.681525786294376
      ],
      [
        "▁araya",
        -9.305544375630882
      ],
      [
        "▁ucretleri",
        -9.583657731727486
      ],
      [
        "▁ekonomik",
        -9.07146676145911
      ],
      [
        "5",
        -8.51441408399641
      ],
      [
        "▁",
        -2.091718453959686
      ],
      [
        "tim",
        -8.85835951425771
      ],
      [
        "larla",
        -7.749765044486775
      ],
      [
        "▁boyun",
        -9.342496468519837
      ],
      [
        "▁mac",
        -8.635118720758964
      ],
      [
        "▁bat",
        -9.299938751860935
      ],
      [
        "▁usta",
        -9.243274755519156
      ],
      [
        "▁kır",
        -7.988080465774058
      ],
      [
        "▁fiyatlar",
        -9.088233630673564
      ],
      [
        "▁iliski",
        -7.241096103232949
      ],
      [
        "▁zi",
        -8.843721243824106
      ],
      [
        "31",
        -12.68710890116767
      ],
      [
        "▁kulak",
        -9.31508915699926
      ],
      [
        "▁finans",
        -9.029978976694245
      ],
      [
        "▁inan",
        -8.442947264747797
      ],
      [
        "hangi",
        -8.461425620153111
      ],
      [
        "'nde",
        -9.121876960693832
      ],
      [
        "▁husus",
        -9.742602213233937
      ],
      [
        "▁kalabalik",
        -9.827755393150179
      ],
      [
        "layacak",
        -9.191495603151708
      ],
      [
        "▁karar",
        -7.759016611522166
      ],
      [
        "▁francisco",
        -8.408573907345014
      ],
      [
        "▁kemal",
        -9.023184521533135
      ],
      [
        "ogr",
        -6.481195157006846
      ],
      [
        "▁kardes",
        -9.272319815851667
      ],
      [
        "▁or",
        -9.479210966397837
      ],
      [
        "e",
        -4.340098415044341
      ],
      [
        "ya",
        -5.196586832465009
      ],
      [
        "niz",
        -8.207416305249547
      ],
      [
        "▁2.5",
        -9.228150996259865
      ],
      [
        "▁oldugu",
        -7.512446456642
      ],
      [
        "▁dustu",
        -7.915686337483025
      ],
      [
        "▁tutarında",
        -9.87493982572404
      ],
      [
        "▁program",
        -8.517729235665133
      ],
      [
        "▁basarılı",
        -9.27705615947293
      ],
      [
        "ki",
        -6.635403197634999
      ],
      [
        "▁kendisi",
        -7.037718950108059
      ],
      [
        "▁avuc",
        -9.507121370847862
      ],
      [
        "sunuz",
        -8.632728012507808
      ],
      [
        "▁kolay",
        -8.309341215112328
      ],
      [
        "▁yapacak",
        -9.048068986463022
      ],
      [
        "▁yapılma",
        -9.616313829426595
      ],
      [
        "▁seyahat",
        -9.053722260293124
      ],
      [
        "▁kuzey",
        -9.299157942156583
      ],
      [
        "▁personeller",
        -7.877886057395565
      ],
      [
        "▁ici",
        -8.48223560473928
      ],
      [
        "▁buyume",
        -9.153896459243965
      ],
      [
        "bin",
        -9.513672347460165
      ],
      [
        "▁yasıyor",
        -9.407937625929206
      ],
      [
        "▁bana",
        -9.460614380987973
      ],
      [
        "▁ihti",
        -9.553495960545401
      ],
      [
        "▁cıkarma",
        -9.315046638636627
      ],
      [
        "▁karsılık",
        -9.32908148425348
      ],
      [
        "▁elma",
        -9.534019046141879
      ],
      [
        "▁alısveris",
        -9.571469837854803
      ],
      [
        "▁ydi",
        -6.934268810392527
      ],
      [
        "▁dusmus",
        -9.491439717502244
      ],
      [
        "▁philadelphia'",
        -8.179964548809405
      ],
      [
        "ın",
        -9.40061893710457
      ],
      [
        "▁dusen",
        -9.588180718667756
      ],
      [
        "▁gol",
        -8.880966867755362
      ],
      [
        "bur",
        -8.936997762491368
      ],
      [
        "▁ekledi",
        -9.216237394346155
      ],
      [
        "b",
        -4.751618902518525
      ],
      [
        "▁gecici",
        -9.767085361175297
      ],
      [
        "▁dergi",
        -9.09048778836318
      ],
      [
        "▁sık",
        -8.089565960988912
      ],
      [
        "▁united",
        -8.714291540611633
      ],
      [
        "▁mutlak",
        -9.537295197250156
      ],
      [
        "▁pittsburgh'ta",
        -8.114142360331929
      ],
      [
        "▁buz",
        -9.110523629566138
      ],
      [
        "▁5'te",
        -9.594362042057778
      ],
      [
        "▁dıs",
        -8.899841045991028
      ],
      [
        "▁kurdu",
        -9.641638357163632
      ],
      [
        "▁hicbir",
        -5.961517491993648
      ],
      [
        "degildi",
        -8.151181688592365
      ],
      [
        "▁hızla",
        -9.008253103574525
      ],
      [
        "15",
        -9.045844818969567
      ],
      [
        "ha",
        -11.873864725637613
      ],
      [
        "ayım",
        -9.247742273556243
      ],
      [
        "▁yaklası",
        -7.845042333818168
      ],
      [
        "▁baska",
        -7.484803895056222
      ],
      [
        "klerini",
        -8.800109689397672
      ],
      [
        "▁inc",
        -8.885113296427438
      ],
      [
        "▁uluslararası",
        -9.456590081863837
      ],
      [
        "▁arka",
        -8.577101399159439
      ],
      [
        "▁g",
        -7.658193288774599
      ],
      [
        "▁deyi",
        -9.435001615412133
      ],
      [
        "▁se",
        -8.046552470362972
      ],
      [
        "▁sur",
        -8.29228943811585
      ],
      [
        "miyor",
        -8.05741961247411
      ],
      [
        "▁beklenen",
        -9.898874366002008
      ],
      [
        "ko",
        -8.271774102754684
      ],
      [
        "▁ber",
        -9.076171493326072
      ],
      [
        "▁zamanı",
        -9.555000226428188
      ],
      [
        "tum",
        -8.604569100470624
      ],
      [
        "▁7\\/",
        -8.72073896077232
      ],
      [
        "▁lev",
        -9.790569276175905
      ],
      [
        "▁cocugu",
        -9.27564718541457
      ],
      [
        "▁bin",
        -8.578448827751698
      ],
      [
        "▁biri",
        -8.65567549976959
      ],
      [
        "b",
        -11.061781342297014
      ],
      [
        "▁siir",
        -8.916728431222293
      ],
      [
        "▁rehber",
        -9.151363824517517
      ],
      [
        "▁isler",
        -9.295780364858913
      ],
      [
        "▁uzu",
        -9.290737765322937
      ],
      [
        "▁mı",
        -5.660593134567461
      ],
      [
        "▁planı",
        -9.514887530863795
      ],
      [
        "▁gecer",
        -8.944810243755875
      ],
      [
        "▁yemekleri",
        -7.785992053377188
      ],
      [
        "or",
        -7.270989667158372
      ],
      [
        "inin",
        -7.6777347223791566
      ],
      [
        "▁duruyor",
        -9.208739050527772
      ],
      [
        "da",
        -5.39390264925453
      ],
      [
        "▁don",
        -8.085097536466154
      ],
      [
        "sı",
        -10.411260938343812
      ],
      [
        "▁gunes",
        -8.481867040667385
      ],
      [
        "▁gider",
        -8.386731565862725
      ],
      [
        "▁onay",
        -8.877432251859087
      ],
      [
        "▁c",
        -12.071827075693939
      ],
      [
        "gen",
        -8.703204219276316
      ],
      [
        "▁yatırımcılar",
        -8.678011983001205
      ],
      [
        "▁diego'",
        -9.129021551880367
      ],
      [
        "▁demir",
        -8.508340950784893
      ],
      [
        "ıl",
        -7.592816088662454
      ],
      [
        "▁abd",
        -8.07037445041481
      ],
      [
        "▁hizmeti",
        -8.443700695608582
      ],
      [
        "▁yiyecek",
        -8.75795556282776
      ],
      [
        "▁york'ta",
        -8.945834623848455
      ],
      [
        "▁memphis'",
        -9.33967082842921
      ],
      [
        "▁su",
        -5.781887426912386
      ],
      [
        "▁seni",
        -7.053578087856503
      ],
      [
        "▁ucusunu",
        -9.564892383787457
      ],
      [
        "▁dogal",
        -9.33197621515475
      ],
      [
        "d",
        -9.78181740642139
      ],
      [
        "yle",
        -7.237237409706429
      ],
      [
        "#",
        -10.35952679083899
      ],
      [
        "▁hal",
        -8.450919343447282
      ],
      [
        "▁olurdu",
        -9.65652464556386
      ],
      [
        "bunun",
        -9.6688069440048
      ],
      [
        "ası",
        -11.234917962788039
      ],
      [
        "▁%",
        -6.30458812668807
      ],
      [
        "▁ba",
        -7.796867541496939
      ],
      [
        "▁ucretin",
        -9.285715758767534
      ],
      [
        "250000",
        -9.683004935867471
      ],
      [
        "▁soz",
        -7.7961218616382135
      ],
      [
        "▁savas",
        -8.790530757623742
      ],
      [
        ".61",
        -13.61469673427371
      ],
      [
        "▁komur",
        -9.92219762158513
      ],
      [
        "ilen",
        -8.526926934220192
      ],
      [
        "bazı",
        -9.354229368387426
      ],
      [
        "▁idi",
        -9.279724974868017
      ],
      [
        "lenme",
        -8.35370413250547
      ],
      [
        "▁gelmis",
        -8.834015998354513
      ],
      [
        "erek",
        -6.875524530808318
      ],
      [
        "iyet",
        -8.373399281275294
      ],
      [
        "larındaki",
        -9.36970916372233
      ],
      [
        "▁darbe",
        -9.59118388240925
      ],
      [
        "▁koruma",
        -9.549868816670191
      ],
      [
        "-4",
        -11.354791702071255
      ],
      [
        "▁not",
        -9.313960224414828
      ],
      [
        "▁soluk",
        -9.856846324813562
      ],
      [
        "r",
        -4.97743597776997
      ],
      [
        "▁fak",
        -6.308009083831862
      ],
      [
        "70",
        -9.357341639530752
      ],
      [
        "▁parti",
        -8.53545613758497
      ],
      [
        "▁hamle",
        -9.4850098146078
      ],
      [
        "▁%51",
        -11.429958966910018
      ],
      [
        "▁kitabı",
        -9.163116083249538
      ],
      [
        "▁dalga",
        -8.722883638657859
      ],
      [
        "ler",
        -8.561113245009482
      ],
      [
        "▁ymis",
        -9.402459541327215
      ],
      [
        "▁mis",
        -8.616742931913802
      ],
      [
        "▁birbirlerini",
        -8.697935612590925
      ],
      [
        "▁bulunan",
        -8.994823029584463
      ],
      [
        "▁16",
        -8.02885064101159
      ],
      [
        "▁sunu",
        -8.409463169953643
      ],
      [
        "▁stok",
        -9.47255134728999
      ],
      [
        "ıyorlar",
        -8.868011892160618
      ],
      [
        "▁sınır",
        -8.721957436863526
      ],
      [
        "lma",
        -8.864598838845549
      ],
      [
        "eden",
        -8.921348628135153
      ],
      [
        "▁cıktı",
        -7.712117888798581
      ],
      [
        "▁cevir",
        -8.663983996078189
      ],
      [
        "isinda",
        -9.027387132627288
      ],
      [
        "milyon",
        -8.648131795458136
      ],
      [
        "nu",
        -11.551857311570275
      ],
      [
        "▁mola",
        -9.636850629990585
      ],
      [
        "sh",
        -8.99236699193084
      ],
      [
        "▁alan",
        -7.853189429621455
      ],
      [
        "▁calısır",
        -9.859080155771515
      ],
      [
        "▁endeks",
        -9.31281965181999
      ],
      [
        "▁d",
        -6.165377115707738
      ],
      [
        "▁komisyon",
        -9.202885023532346
      ],
      [
        "▁3.6",
        -9.569639768443995
      ],
      [
        "fıkı",
        -12.121032786426541
      ],
      [
        "▁ekim",
        -8.869772168819278
      ],
      [
        "▁rus",
        -9.173328039635443
      ],
      [
        "▁gelir",
        -7.465344611169389
      ],
      [
        "▁olmus",
        -8.45781904329469
      ],
      [
        "▁tr",
        -8.723836337422345
      ],
      [
        "▁parmak",
        -9.154034980554057
      ],
      [
        "▁sektor",
        -8.759770108453967
      ],
      [
        "▁gid",
        -8.591546361214755
      ],
      [
        "ıs",
        -11.178255072128348
      ],
      [
        "▁ab",
        -8.42302885260879
      ],
      [
        "▁47",
        -9.61058556895992
      ],
      [
        "▁gezdi",
        -9.80939262816504
      ],
      [
        "▁doku",
        -8.51744931834645
      ],
      [
        "▁pilot",
        -9.45661064623526
      ],
      [
        "ist",
        -8.493387358005808
      ],
      [
        "im",
        -8.415921563447386
      ],
      [
        "▁neresi",
        -9.4401415114116
      ],
      [
        "▁l",
        -8.204460461541336
      ],
      [
        "▁soyledi",
        -6.839448271494699
      ],
      [
        "▁ucuslar",
        -7.138376759710007
      ],
      [
        "▁pas",
        -9.290989183966172
      ],
      [
        "▁hakkı",
        -9.018460528822224
      ],
      [
        "▁donuyor",
        -9.623407931412366
      ],
      [
        "▁hasan",
        -9.836620148175465
      ],
      [
        "▁sebebi",
        -9.721282098707656
      ],
      [
        "▁acab",
        -9.793466999758483
      ],
      [
        "suz",
        -7.538236236895094
      ],
      [
        "▁yon",
        -7.716716944858178
      ],
      [
        "▁v",
        -8.111888822248401
      ],
      [
        "▁kendimiz",
        -8.276308296546611
      ],
      [
        "▁boston'da",
        -7.429198951722499
      ],
      [
        "▁halk",
        -8.746318360611731
      ],
      [
        "▁idare",
        -9.06413610146795
      ],
      [
        "lugu",
        -8.202548525656908
      ],
      [
        "▁topla",
        -8.886949861207563
      ],
      [
        "▁olmadı",
        -9.603460150816424
      ],
      [
        "▁orman",
        -9.469967951551478
      ],
      [
        "lama",
        -7.422114001130329
      ],
      [
        "▁operasyon",
        -9.285968106990943
      ],
      [
        "7",
        -9.393360759411731
      ],
      [
        "▁aradi",
        -8.740246179361836
      ],
      [
        "▁doldur",
        -8.692930138028816
      ],
      [
        "ro",
        -7.988062877111954
      ],
      [
        "▁20.",
        -9.359450144603569
      ],
      [
        "umuz",
        -8.521476467286739
      ],
      [
        "▁istiyor",
        -8.393024316538071
      ],
      [
        "misti",
        -7.848123000385339
      ],
      [
        "▁anlama",
        -8.721464997410827
      ],
      [
        "▁listesini",
        -9.852125034551769
      ],
      [
        "▁baba",
        -8.27266577856849
      ],
      [
        "▁toplu",
        -9.595264424364444
      ],
      [
        "ince",
        -8.35243644791643
      ],
      [
        "yesinde",
        -9.472963265384633
      ],
      [
        "▁yolunu",
        -9.852357584246512
      ],
      [
        "▁istemiyoru",
        -8.318074147553173
      ],
      [
        "▁gelince",
        -9.558278677176986
      ],
      [
        "ger",
        -9.016631229168553
      ],
      [
        "▁haziran",
        -9.4067446838758
      ],
      [
        "▁sabahı",
        -8.411055888340478
      ],
      [
        "▁kocaman",
        -9.66434521800886
      ],
      [
        "▁ucuslarını",
        -7.917683987874872
      ],
      [
        "▁ilk",
        -7.031268230285256
      ],
      [
        "▁21",
        -8.036347926270897
      ],
      [
        "'daki",
        -8.772255652759478
      ],
      [
        "▁hatır",
        -8.645656428421134
      ],
      [
        "hi",
        -7.873816430168646
      ],
      [
        "ladı",
        -7.31748361839111
      ],
      [
        "▁dis",
        -8.684989702191261
      ],
      [
        "▁kısmı",
        -9.495651854111408
      ],
      [
        "▁sure",
        -7.523871883224283
      ],
      [
        "▁kez",
        -8.280257124235352
      ],
      [
        "▁doga",
        -8.783404389415669
      ],
      [
        "▁edilmis",
        -9.478236003944193
      ],
      [
        "▁tarihinde",
        -9.661907143676558
      ],
      [
        "▁aktarma",
        -9.678528059654681
      ],
      [
        "vi",
        -7.848383984312016
      ],
      [
        "▁koydu",
        -9.223085794931604
      ],
      [
        "▁yara",
        -8.346862351014725
      ],
      [
        "▁bizler",
        -8.787743749858901
      ],
      [
        "h",
        -12.699415987488301
      ],
      [
        "▁ayak",
        -8.35536771551008
      ],
      [
        "▁seksen",
        -9.510386021826939
      ],
      [
        "▁hap",
        -9.203349003359474
      ],
      [
        "gine",
        -9.186686381246188
      ],
      [
        "li",
        -8.963794952668183
      ],
      [
        "madıgını",
        -9.794139674343036
      ],
      [
        "▁paul'",
        -9.922140290706277
      ],
      [
        "▁annesi",
        -9.271820463094294
      ],
      [
        "▁oz",
        -8.063872323235081
      ],
      [
        "▁mesele",
        -9.235143527065194
      ],
      [
        "▁17",
        -7.930073394966318
      ],
      [
        "onun",
        -8.69465956388141
      ],
      [
        "▁lynch",
        -9.921938091487279
      ],
      [
        "▁yere",
        -8.44989386899102
      ],
      [
        "inden",
        -7.92471973110301
      ],
      [
        "▁durdu",
        -8.752251993872182
      ],
      [
        "▁enerji",
        -9.299131264308524
      ],
      [
        "▁%5.",
        -13.23714746142396
      ],
      [
        "▁sonuc",
        -8.394707707610692
      ],
      [
        "▁yarı",
        -8.130753887953134
      ],
      [
        "8",
        -6.081748992804368
      ],
      [
        "▁titre",
        -9.554293445211464
      ],
      [
        "▁21",
        -11.495656579969074
      ],
      [
        "8",
        -8.604452423102636
      ],
      [
        "▁lar",
        -9.208435305133122
      ],
      [
        "▁top",
        -8.2881513403224
      ],
      [
        "2-",
        -11.482629028872132
      ],
      [
        "▁deney",
        -9.715431947037306
      ],
      [
        "▁ib",
        -8.877387599196943
      ],
      [
        "veya",
        -8.908097765809462
      ],
      [
        "urdu",
        -9.08635682341076
      ],
      [
        "▁yer",
        -7.3069040404823085
      ],
      [
        "▁14",
        -8.071408203960582
      ],
      [
        "▁tedbir",
        -9.80553501290812
      ],
      [
        "uz",
        -8.872095029722393
      ],
      [
        "▁obur",
        -9.764203541894267
      ],
      [
        "▁st",
        -7.61138685974235
      ],
      [
        "/3",
        -9.631786581367232
      ],
      [
        "▁tabi",
        -8.874998617858447
      ],
      [
        "▁amca",
        -9.791571769876482
      ],
      [
        "▁arkadasları",
        -9.677644726897602
      ],
      [
        "▁mer",
        -8.502834582094199
      ],
      [
        "▁milyon",
        -5.185931877072128
      ],
      [
        "▁paylas",
        -9.541132742694925
      ],
      [
        "▁boston",
        -8.202084344082927
      ],
      [
        "inler",
        -9.147359778007079
      ],
      [
        "▁tas",
        -7.792435507116451
      ],
      [
        "'n",
        -8.496960206853736
      ],
      [
        "▁guvenlik",
        -9.48280301472835
      ],
      [
        "▁2",
        -6.394889887602322
      ],
      [
        "▁renkli",
        -9.580952553533354
      ],
      [
        "▁12",
        -7.184300623142984
      ],
      [
        "ans",
        -9.063333249514454
      ],
      [
        "ledi",
        -8.261038339514975
      ],
      [
        "▁menkul",
        -8.307598889343152
      ],
      [
        "▁say",
        -8.341536908956405
      ],
      [
        "▁kultur",
        -8.984314360215901
      ],
      [
        "cagız",
        -9.042107885452184
      ],
      [
        "▁hep",
        -9.68908962305779
      ],
      [
        "▁ceyrek",
        -9.03019504418868
      ],
      [
        "▁vakit",
        -9.29920118514579
      ],
      [
        "a",
        -4.0160794371592585
      ],
      [
        "▁hepsinde",
        -8.889580223615383
      ],
      [
        "▁kos",
        -8.31338795790058
      ],
      [
        "▁ellerinde",
        -9.639749208132475
      ],
      [
        "▁sefer",
        -8.86538716690461
      ],
      [
        "▁kiler",
        -8.93960715202065
      ],
      [
        ".",
        -1.1654305379107868
      ],
      [
        "▁gelmisti",
        -9.883240059986793
      ],
      [
        "▁bakıyordu",
        -9.884945907582129
      ],
      [
        "▁diy",
        -8.508341801792039
      ],
      [
        "▁atlanta'",
        -8.014927430151854
      ],
      [
        "▁tum",
        -5.009593977490714
      ],
      [
        "▁ipotek",
        -9.897547807130666
      ],
      [
        "▁ocak",
        -9.108811352930033
      ],
      [
        "▁oteki",
        -9.711756816128133
      ],
      [
        "▁bile",
        -7.031450716300776
      ],
      [
        "▁fayda",
        -9.106968034315145
      ],
      [
        "▁sil",
        -9.049463807677089
      ],
      [
        "siniz",
        -8.3561252313234
      ],
      [
        "▁bardak",
        -9.685739396807193
      ],
      [
        "▁batı",
        -8.609024426064071
      ],
      [
        "▁istanbul'",
        -9.813054337919445
      ],
      [
        "▁ustelik",
        -9.827865540448459
      ],
      [
        "yip",
        -9.007819406626659
      ],
      [
        "▁bagımsız",
        -9.571470665793326
      ],
      [
        "'te",
        -8.622279853861192
      ],
      [
        "▁hayatı",
        -9.212900102301507
      ],
      [
        "▁herif",
        -9.785189740231456
      ],
      [
        "▁gecme",
        -8.882730743176861
      ],
      [
        "▁ayrıldı",
        -9.831890728694816
      ],
      [
        "▁etmek",
        -8.20320669186932
      ],
      [
        "▁temizlik",
        -8.387477879017505
      ],
      [
        "▁niyet",
        -9.263990881402176
      ],
      [
        "luk",
        -7.025066765147559
      ],
      [
        "▁vah",
        -9.75653395876256
      ],
      [
        "zo",
        -9.42791278694568
      ],
      [
        "gi",
        -6.994324594509247
      ],
      [
        "▁ataturk",
        -9.557003857833479
      ],
      [
        "▁de",
        -7.37226461477792
      ],
      [
        "11",
        -9.219857971516147
      ],
      [
        "mıs",
        -6.710114346512352
      ],
      [
        "▁cesit",
        -7.2392222221460605
      ],
      [
        "▁gorusuldu",
        -7.427912107398445
      ],
      [
        "9",
        -8.231584331106369
      ],
      [
        "▁yetkili",
        -9.050101179575705
      ],
      [
        "▁servis",
        -8.516376663610476
      ],
      [
        "▁198",
        -9.003378477605025
      ],
      [
        "▁4",
        -6.935914569979488
      ],
      [
        "▁lu",
        -11.607158865473217
      ],
      [
        "▁pencere",
        -8.807021446082938
      ],
      [
        "▁firması",
        -9.722674719772833
      ],
      [
        "ra",
        -5.994280594177726
      ],
      [
        "lara",
        -7.141457153298999
      ],
      [
        "ler",
        -5.054731739971512
      ],
      [
        "▁nerede",
        -7.982980169462512
      ],
      [
        "'ı",
        -8.883924867073162
      ],
      [
        "ap",
        -10.192721962100757
      ],
      [
        "▁",
        -5.105726649038706
      ],
      [
        "▁gu",
        -11.453395732365175
      ],
      [
        "▁varsa",
        -9.237823455022518
      ],
      [
        "▁degisme",
        -9.547091579272639
      ],
      [
        "▁tampa'",
        -9.606878131908905
      ],
      [
        "▁ala",
        -8.640586208908413
      ],
      [
        "▁kapandı",
        -8.375989663491875
      ],
      [
        "▁yonetici",
        -8.943926815954768
      ],
      [
        "▁gordugu",
        -9.325441102882655
      ],
      [
        "▁ols",
        -9.308168117671995
      ],
      [
        "una",
        -7.966414912610614
      ],
      [
        "▁sart",
        -9.187338510675335
      ],
      [
        "▁cagrı",
        -9.591823405025615
      ],
      [
        "▁babam",
        -8.640499533371717
      ],
      [
        "'ta",
        -8.657385157731326
      ],
      [
        "▁ortak",
        -8.701280447876895
      ],
      [
        "▁yuzyıl",
        -9.571652246906853
      ],
      [
        "▁idi",
        -8.9590315568136
      ],
      [
        "▁takı",
        -9.759185156766144
      ],
      [
        "▁herkesi",
        -8.862982706804999
      ],
      [
        "▁ayrıntı",
        -9.85071025155997
      ],
      [
        "▁takım",
        -8.955128210019677
      ],
      [
        "unun",
        -7.908108434107679
      ],
      [
        "▁etmedi",
        -9.442675002563305
      ],
      [
        "▁benim",
        -5.9820268329993915
      ],
      [
        "▁gogsu",
        -9.828418173407313
      ],
      [
        "sa",
        -6.777202496139996
      ],
      [
        "▁onlar",
        -6.033271387593335
      ],
      [
        "▁merkezi",
        -8.458082322756454
      ],
      [
        "▁yılında",
        -8.705167510341163
      ],
      [
        "▁gelisi",
        -9.48199411878009
      ],
      [
        "▁aksam",
        -7.383190788050967
      ],
      [
        "▁doları'n",
        -9.303878000686755
      ],
      [
        "▁spor",
        -9.280114193903099
      ],
      [
        "▁baskanı",
        -8.301994869794399
      ],
      [
        "▁japonya'",
        -9.557286680202928
      ],
      [
        "▁koltug",
        -9.742039020680785
      ],
      [
        "▁hukumet",
        -8.223341073956716
      ],
      [
        "▁teminat",
        -9.805534541734072
      ],
      [
        "▁kuyu",
        -9.854527028365863
      ],
      [
        "ran",
        -7.7327336098447335
      ],
      [
        "▁pay",
        -8.201367469234238
      ],
      [
        "▁ayni",
        -9.325001183433221
      ],
      [
        "▁reklam",
        -8.670990373276279
      ],
      [
        "▁bina",
        -9.132140564434634
      ],
      [
        "▁washington",
        -8.311594872156448
      ],
      [
        "▁hukuk",
        -9.151641017407169
      ],
      [
        "▁ual",
        -9.721741189895525
      ],
      [
        "▁gerekir",
        -9.439004531686372
      ],
      [
        "tı",
        -6.368773774738938
      ],
      [
        "▁siparis",
        -9.472215347544708
      ],
      [
        "lesme",
        -8.874911028834683
      ],
      [
        "▁degil",
        -5.112904891209204
      ],
      [
        "▁doksan",
        -9.193311985443783
      ],
      [
        "▁kopru",
        -9.571511786246601
      ],
      [
        "▁verdigi",
        -8.82291885238747
      ],
      [
        "unda",
        -8.392218006405606
      ],
      [
        "▁aylık",
        -8.969345716281367
      ],
      [
        "▁gerektigin",
        -9.096227519344469
      ],
      [
        "▁goster",
        -6.53042524126925
      ],
      [
        "▁sak",
        -9.207539794145411
      ],
      [
        "▁ayında",
        -8.491606762320979
      ],
      [
        "—",
        -12.809526790838989
      ],
      [
        "▁bank",
        -9.377138823894153
      ],
      [
        "▁kat",
        -7.6549025140239895
      ],
      [
        "▁oldu",
        -6.801167042509035
      ],
      [
        "▁gorusme",
        -8.777274441178651
      ],
      [
        "▁sosyal",
        -8.918246767367318
      ],
      [
        "▁la",
        -7.893414478354586
      ],
      [
        "▁kaygı",
        -9.90340805937846
      ],
      [
        "▁has",
        -8.691796002635648
      ],
      [
        "▁ulasım",
        -8.881983015309995
      ],
      [
        "mu",
        -9.445715218130426
      ],
      [
        "▁yı",
        -9.218269508698501
      ],
      [
        "▁ro",
        -8.146865707032182
      ],
      [
        "▁meclis",
        -9.186514031228917
      ],
      [
        "▁pasa",
        -9.19174109987297
      ],
      [
        "▁mahalle",
        -9.312469966340569
      ],
      [
        "▁vurgu",
        -9.59111464800371
      ],
      [
        "en",
        -7.834124913301681
      ],
      [
        "la",
        -11.941373154467021
      ],
      [
        "▁ima",
        -9.155296885648317
      ],
      [
        "▁islem",
        -7.9005860070698875
      ],
      [
        "▁korku",
        -8.498976735223408
      ],
      [
        "▁sirketleri",
        -9.29915633786522
      ],
      [
        "lu",
        -6.38707145165585
      ],
      [
        "▁soyleme",
        -9.158957769063477
      ],
      [
        "▁degillerdi",
        -7.774122767717512
      ],
      [
        "▁8",
        -8.034759464810683
      ],
      [
        "▁ma",
        -7.233198400196357
      ],
      [
        "▁kosulları",
        -9.692462456152258
      ],
      [
        "lerden",
        -7.565442477045693
      ],
      [
        "▁posta",
        -9.607485848407304
      ],
      [
        "▁tarz",
        -9.813883920663887
      ],
      [
        "▁cıkardı",
        -8.983645534966252
      ],
      [
        "son",
        -8.43401492905808
      ],
      [
        "▁ettigini",
        -9.359288298928384
      ],
      [
        "leri",
        -5.565141998264982
      ],
      [
        "kten",
        -8.362329636799577
      ],
      [
        "ve",
        -5.892970926178803
      ],
      [
        "9",
        -7.050563821011689
      ],
      [
        "ar",
        -6.546141619663375
      ],
      [
        "▁di",
        -8.034078821976046
      ],
      [
        "▁oranları",
        -9.559009147312093
      ],
      [
        "▁hata",
        -9.345117620653916
      ],
      [
        "▁onun",
        -5.488682034044008
      ],
      [
        "▁ilan",
        -9.289202738761684
      ],
      [
        "▁engel",
        -9.01862368506421
      ],
      [
        "▁kendinde",
        -9.477142414608815
      ],
      [
        "▁davran",
        -8.954189108711457
      ],
      [
        "'yi",
        -9.33884895894499
      ],
      [
        "▁dusme",
        -9.430473322057022
      ],
      [
        "▁insanlar",
        -8.148819349433044
      ],
      [
        "▁tık",
        -9.196474036464853
      ],
      [
        "lesti",
        -8.906539338487862
      ],
      [
        "▁tedavulde",
        -9.721275645956705
      ],
      [
        "daki",
        -7.7022055843250055
      ],
      [
        "▁te",
        -7.110402857827855
      ],
      [
        "▁vardı",
        -7.755388673641701
      ],
      [
        "▁elde",
        -8.482649075121927
      ],
      [
        "▁cay",
        -8.807376618830693
      ],
      [
        "▁%",
        -8.936707931200921
      ],
      [
        "▁hastane",
        -9.461684858184961
      ],
      [
        "meden",
        -9.33021385949047
      ],
      [
        "▁adina",
        -9.382752716498798
      ],
      [
        "▁itibar",
        -9.720744470430763
      ],
      [
        "▁baz",
        -8.596324861113123
      ],
      [
        "▁ses",
        -7.951284172194162
      ],
      [
        "bilir",
        -9.408501336803319
      ],
      [
        "▁koltuk",
        -9.426160551725932
      ],
      [
        "▁fazla",
        -6.967186291424922
      ],
      [
        "▁tekne",
        -9.527982572842262
      ],
      [
        "▁sekil",
        -9.872081980767828
      ],
      [
        "▁soru",
        -8.423923527372274
      ],
      [
        "gına",
        -8.751286994560324
      ],
      [
        "+",
        -12.809526790838989
      ],
      [
        "▁%6.",
        -11.265292792325488
      ],
      [
        "7'",
        -9.563016863003803
      ],
      [
        "▁benzer",
        -8.651833051624152
      ],
      [
        "de",
        -5.950856761464086
      ],
      [
        "tır",
        -7.4628463012851265
      ],
      [
        "▁199",
        -12.077407608052262
      ],
      [
        "▁ornek",
        -9.2603243934755
      ],
      [
        "ucu",
        -9.522373099117019
      ],
      [
        "▁sever",
        -9.703562452324071
      ],
      [
        "▁dort",
        -6.461747336534862
      ],
      [
        "▁dususle",
        -9.604126184667777
      ],
      [
        "▁kendisin",
        -7.170173991469403
      ],
      [
        "▁tren",
        -9.44831167588904
      ],
      [
        "▁tarafı",
        -9.616148944776409
      ],
      [
        "125",
        -9.016701583305009
      ],
      [
        "▁silah",
        -9.00327701781331
      ],
      [
        "▁olay",
        -8.615048158576991
      ],
      [
        "▁gucu",
        -9.38779825739449
      ],
      [
        "▁basladı",
        -7.609873282892031
      ],
      [
        "▁cakı",
        -9.638604689673324
      ],
      [
        "50000",
        -9.481042297468452
      ],
      [
        "▁ulusal",
        -8.99394983103991
      ],
      [
        "▁hanım",
        -8.680193415955312
      ],
      [
        "istan",
        -8.969416474519537
      ],
      [
        "▁worth",
        -9.944610167052428
      ],
      [
        "@",
        -12.809526790838989
      ],
      [
        "▁kıymetler",
        -8.53169811339971
      ],
      [
        "ser",
        -8.923152278026187
      ],
      [
        "▁oakland",
        -9.452501024440167
      ],
      [
        "▁cu",
        -12.830054443854332
      ],
      [
        "▁cleveland'",
        -9.198412709298616
      ],
      [
        "▁sozleri",
        -9.451378316067832
      ],
      [
        "yacak",
        -9.30119291587988
      ],
      [
        "▁yuzunu",
        -9.634731074496935
      ],
      [
        "▁tarla",
        -9.329720850708576
      ],
      [
        "▁yaptıgı",
        -8.715902121622396
      ],
      [
        "ırım",
        -9.16753364698605
      ],
      [
        "▁adını",
        -9.574691224638944
      ],
      [
        "▁birini",
        -7.9901088460014265
      ],
      [
        "5",
        -6.257519171130609
      ],
      [
        "leri",
        -8.082956769162834
      ],
      [
        "▁eylul",
        -8.685201514237363
      ],
      [
        "lerimiz",
        -9.310410320483001
      ],
      [
        "▁gunah",
        -9.829143951762873
      ],
      [
        "meli",
        -8.691313475915864
      ],
      [
        "▁okuy",
        -9.131088986877453
      ],
      [
        "▁ozgur",
        -9.400195547303284
      ],
      [
        "▁dır",
        -6.97794736662211
      ],
      [
        "▁sut",
        -9.014554190031607
      ],
      [
        "▁uc",
        -8.160726900928129
      ],
      [
        "ici",
        -8.501012356898944
      ],
      [
        "▁olacagı",
        -9.47468416334059
      ],
      [
        "▁hacim",
        -9.50436534545878
      ],
      [
        "▁etme",
        -8.140974042550798
      ],
      [
        "▁41",
        -9.259593764400314
      ],
      [
        "▁ga",
        -8.311090641472514
      ],
      [
        "▁isini",
        -9.749057416885261
      ],
      [
        "incisi",
        -9.637134642514823
      ],
      [
        "▁city'de",
        -9.312646657761949
      ],
      [
        "▁an",
        -7.349697230620575
      ],
      [
        "▁bun",
        -7.028846573070744
      ],
      [
        "▁yemis",
        -9.737024902542931
      ],
      [
        "▁ayrıca",
        -7.864226462882698
      ],
      [
        "▁gel",
        -7.946828807175535
      ],
      [
        "▁yetersiz",
        -8.256088837128235
      ],
      [
        "▁vade",
        -9.100111203949218
      ],
      [
        "▁sıkıntı",
        -9.174842152768768
      ],
      [
        "▁rakam",
        -8.955133482792467
      ],
      [
        "▁yakında",
        -9.582664473403767
      ],
      [
        "▁siyah",
        -8.751939226027702
      ],
      [
        "▁60",
        -8.47541441656007
      ],
      [
        "ila",
        -9.418211542129413
      ],
      [
        "▁en",
        -6.028148110845544
      ],
      [
        "▁yetki",
        -9.720337143137272
      ],
      [
        "at",
        -6.734542760195388
      ],
      [
        "▁mıyı",
        -9.164916859856662
      ],
      [
        "▁ilgi",
        -8.297227697354101
      ],
      [
        "▁rengi",
        -9.363995769462814
      ],
      [
        "▁tavan",
        -9.786862498536344
      ],
      [
        "▁43",
        -8.898012167341692
      ],
      [
        "▁mis",
        -9.439033990428584
      ],
      [
        "te",
        -12.812262232465853
      ],
      [
        "▁ders",
        -9.013517857627756
      ],
      [
        "yordu",
        -8.632994416366177
      ],
      [
        "tif",
        -8.843012155640835
      ],
      [
        "-200",
        -11.812779528872541
      ],
      [
        "ugru",
        -9.879475805489358
      ],
      [
        "▁kurul",
        -8.905559985505477
      ],
      [
        "cok",
        -7.294857567940702
      ],
      [
        "▁test",
        -9.156252237311653
      ],
      [
        "▁gar",
        -9.647788017934232
      ],
      [
        "▁2",
        -8.796394779857174
      ],
      [
        "el",
        -7.297324857139882
      ],
      [
        "▁ucus",
        -6.9288721081593865
      ],
      [
        "ebilecegini",
        -9.698079026102175
      ],
      [
        "▁soyluyor",
        -8.264482407494576
      ],
      [
        "▁cift",
        -8.288174800712527
      ],
      [
        "rım",
        -9.468443151705905
      ],
      [
        "▁b",
        -5.9699600148381995
      ],
      [
        "▁beklenti",
        -9.107360490685645
      ],
      [
        "▁icki",
        -9.577466233682017
      ],
      [
        "▁olayı",
        -9.823412271189435
      ],
      [
        "▁birinci",
        -8.089958419469509
      ],
      [
        "▁dosya",
        -9.643769849948558
      ],
      [
        "▁atlanta",
        -8.793267934565353
      ],
      [
        "ıvı",
        -11.887579079084775
      ],
      [
        "▁in",
        -7.629074608450538
      ],
      [
        "▁kalmıs",
        -9.44287128400586
      ],
      [
        "▁savası",
        -9.510040484330762
      ],
      [
        "▁cizgi",
        -9.412355034095427
      ],
      [
        "▁kendileri",
        -8.465864262322565
      ],
      [
        "bunu",
        -9.672897037845939
      ],
      [
        "su",
        -6.723454897549134
      ],
      [
        "▁yesil",
        -8.848504735915256
      ],
      [
        "▁birbirini",
        -8.552309948605377
      ],
      [
        "▁sahip",
        -7.759291297934946
      ],
      [
        "▁karsılas",
        -9.819646982875819
      ],
      [
        "abilmek",
        -9.765790863530071
      ],
      [
        "lardı",
        -7.71524242944083
      ],
      [
        "i",
        -4.740012405433118
      ],
      [
        "▁giden",
        -7.8030545502980795
      ],
      [
        "▁siyasi",
        -9.488173941928665
      ],
      [
        "▁h",
        -8.072987773019255
      ],
      [
        "▁sokag",
        -9.67330342756873
      ],
      [
        "beni",
        -9.715159833517442
      ],
      [
        "▁icin",
        -3.695592988678742
      ],
      [
        "'un",
        -7.727563025353448
      ],
      [
        "▁bel",
        -8.903652505780478
      ],
      [
        "cı",
        -9.105755383544302
      ],
      [
        "▁is",
        -6.78242612850941
      ],
      [
        "▁carpı",
        -9.615015611034574
      ],
      [
        "abilecek",
        -9.142224217233025
      ],
      [
        "▁ni",
        -8.292132732159178
      ],
      [
        "▁mi",
        -7.81084334140385
      ],
      [
        "▁calıstı",
        -8.815998548043893
      ],
      [
        "▁komisyonu",
        -9.636630445179387
      ],
      [
        "▁%1",
        -8.947074690717066
      ],
      [
        "▁sigorta",
        -8.663921273229818
      ],
      [
        "▁nu",
        -8.711134042620685
      ],
      [
        "▁pe",
        -8.343859291737363
      ],
      [
        "▁hat",
        -9.344135932731984
      ],
      [
        "lesmis",
        -9.467082426304277
      ],
      [
        "den",
        -8.05560578784303
      ],
      [
        "▁hicbirini",
        -9.34679240401203
      ],
      [
        "▁numara",
        -8.706939579406214
      ],
      [
        "▁%0.",
        -12.810336710195685
      ],
      [
        "▁%8.",
        -13.38161600072496
      ],
      [
        "▁odalar",
        -8.830121871684652
      ],
      [
        "▁dostu",
        -9.489384888375138
      ],
      [
        "▁ikisi",
        -9.316595908415728
      ],
      [
        "▁tepki",
        -9.456731488040536
      ],
      [
        "▁yerlesti",
        -9.62837664041978
      ],
      [
        "▁gelmedi",
        -9.693994871723568
      ],
      [
        "▁yonetim",
        -8.458736511838152
      ],
      [
        "▁imza",
        -9.260168571009888
      ],
      [
        "▁kaza",
        -8.968228139306593
      ],
      [
        "▁veril",
        -8.70233332987107
      ],
      [
        "▁m",
        -12.81292342695711
      ],
      [
        "▁phoenix'",
        -9.82701112660871
      ],
      [
        "imiz",
        -8.353084106296084
      ],
      [
        "ra",
        -6.907926446946047
      ],
      [
        "▁19",
        -7.590840352627737
      ],
      [
        "▁bas",
        -7.1984323794792875
      ],
      [
        "▁alev",
        -9.882491566623289
      ],
      [
        "bes",
        -8.256481570860622
      ],
      [
        "▁gotur",
        -9.006764860388326
      ],
      [
        "mısını",
        -9.042412961741162
      ],
      [
        "dum",
        -8.169115766068105
      ],
      [
        "▁45",
        -8.6417252970266
      ],
      [
        "sek",
        -9.210737728370637
      ],
      [
        "▁dusundu",
        -9.162203334202655
      ],
      [
        "▁ihracat",
        -9.855679197226879
      ],
      [
        "▁arkadaslar",
        -9.437717865336083
      ],
      [
        "▁per",
        -9.31664410223674
      ],
      [
        "▁cogunu",
        -8.76036576942584
      ],
      [
        "|",
        -12.809526790838989
      ],
      [
        "▁muh",
        -8.483521521470948
      ],
      [
        "[SEP]",
        0.0
      ],
      [
        "▁ust",
        -8.362029928305347
      ],
      [
        "▁hız",
        -9.343656525685727
      ],
      [
        "▁ogren",
        -8.321502998182062
      ],
      [
        "▁ulke",
        -8.144777348870903
      ],
      [
        "di",
        -9.629472024909338
      ],
      [
        "ci",
        -11.309728575382351
      ],
      [
        "'de",
        -7.446120015545725
      ],
      [
        "▁uyu",
        -8.654281321381694
      ],
      [
        "▁bankası",
        -9.67410786160378
      ],
      [
        "▁ceki",
        -8.258600632188461
      ],
      [
        "▁ekonomi",
        -8.299291012169952
      ],
      [
        "▁ikinci",
        -7.3457044762511785
      ],
      [
        "$",
        -7.518283183533239
      ],
      [
        "▁babası",
        -9.248175527694059
      ],
      [
        "▁cep",
        -9.527323992844288
      ],
      [
        "▁teknoloji",
        -9.117922671096878
      ],
      [
        "▁class",
        -8.98373038043219
      ],
      [
        "▁siddet",
        -9.074661137948173
      ],
      [
        "▁ofke",
        -9.662442063194947
      ],
      [
        "▁birin",
        -9.18186594529358
      ],
      [
        "▁olanaklari",
        -9.129024211094729
      ],
      [
        "▁to",
        -12.751217036694445
      ],
      [
        "▁gibiydi",
        -9.82847958110099
      ],
      [
        "bo",
        -8.202992735796595
      ],
      [
        "▁roman",
        -8.796310476530703
      ],
      [
        "▁olmasını",
        -9.81942244831414
      ],
      [
        "gan",
        -8.16058792153985
      ],
      [
        "75",
        -8.267419933820554
      ],
      [
        "▁yaslı",
        -9.184257924499216
      ],
      [
        "▁omuz",
        -9.742050783643558
      ],
      [
        "▁puan",
        -6.96975942908762
      ],
      [
        "▁bazı",
        -5.798457711104905
      ],
      [
        "▁yanında",
        -8.57235435978041
      ],
      [
        "▁superdi",
        -9.509955376381544
      ],
      [
        "\"",
        -9.488088094145542
      ],
      [
        "▁denizi",
        -7.8309481361032915
      ],
      [
        "▁57",
        -8.71809689298287
      ],
      [
        "▁kendi",
        -5.6647228416722895
      ],
      [
        "▁bir",
        -6.182887497119687
      ],
      [
        "lara",
        -8.904550957896586
      ],
      [
        "▁buyuk",
        -6.6398219996684125
      ],
      [
        "tur",
        -8.130622006048076
      ],
      [
        "nc",
        -8.861003512036103
      ],
      [
        "▁duz",
        -8.71501380095264
      ],
      [
        "▁hayır",
        -9.27493116945532
      ],
      [
        "unc",
        -6.804290499659833
      ],
      [
        "▁goz",
        -7.504298648327472
      ],
      [
        "▁konfor",
        -9.486377989081436
      ],
      [
        "digim",
        -8.825358052051326
      ],
      [
        "▁lider",
        -9.140379437159137
      ],
      [
        "▁sona",
        -9.303088000144363
      ],
      [
        "ak",
        -10.007494695036996
      ],
      [
        "ul",
        -7.179133489161897
      ],
      [
        "▁londra",
        -9.62505080181477
      ],
      [
        "▁fu",
        -9.074324492866356
      ],
      [
        "▁1.7",
        -8.760341410648229
      ],
      [
        "▁dı",
        -6.2730598118254735
      ],
      [
        "▁fır",
        -9.282504400647131
      ],
      [
        "▁mi",
        -6.260535099972343
      ],
      [
        "▁faturam",
        -8.953934754302455
      ],
      [
        "s",
        -5.241252115111797
      ],
      [
        "▁madde",
        -8.831642517151689
      ],
      [
        "▁kayna",
        -8.83403776268149
      ],
      [
        "▁kafa",
        -8.396068171707228
      ],
      [
        "▁400",
        -9.513158611518943
      ],
      [
        "▁il",
        -7.476214463926909
      ],
      [
        "▁dagıt",
        -8.967339177722355
      ],
      [
        "▁balık",
        -9.295587506837895
      ],
      [
        "▁yan",
        -7.5302662753455545
      ],
      [
        "▁devir",
        -9.4947990172934
      ],
      [
        "mayacagı",
        -9.431770675963483
      ],
      [
        "or",
        -11.285911387029632
      ],
      [
        "▁0.2",
        -9.200581725524952
      ],
      [
        "▁yavru",
        -9.681669748481376
      ],
      [
        "▁kalkı",
        -9.402503364372018
      ],
      [
        ".4",
        -10.830378826620755
      ],
      [
        "▁almak",
        -8.296348127812829
      ],
      [
        "▁duzen",
        -8.27110918034082
      ],
      [
        "▁emekli",
        -9.666644577999758
      ],
      [
        "dıgını",
        -8.065789548020145
      ],
      [
        "▁sırada",
        -9.05706106421231
      ],
      [
        "▁personelleri",
[...]
