{
  "version": "1.0",
  "truncation": null,
  "padding": null,
  "added_tokens": [
    {
      "id": 1451,
      "content": "[CLS]",
      "single_word": false,
      "lstrip": false,
      "rstrip": false,
      "normalized": false,
      "special": true
    },
    {
      "id": 2749,
      "content": "[MASK]",
      "single_word": false,
      "lstrip": false,
      "rstrip": false,
      "normalized": false,
      "special": true
    },
    {
      "id": 5542,
      "content": "[PAD]",
      "single_word": false,
      "lstrip": false,
      "rstrip": false,
      "normalized": false,
      "special": true
    },
    {
      "id": 5974,
      "content": "[UNK]",
      "single_word": false,
      "lstrip": false,
      "rstrip": false,
      "normalized": false,
      "special": true
    },
    {
      "id": 7889,
      "content": "[SEP]",
      "single_word": false,
      "lstrip": false,
      "rstrip": false,
      "normalized": false,
      "special": true
    }
  ],
  "normalizer": {
    "type": "Sequence",
    "normalizers": [
      {
        "type": "NFD"
      },
      {
        "type": "Lowercase"
      },
      {
        "type": "StripAccents"
      }
    ]
  },
  "pre_tokenizer": {
    "type": "Sequence",
    "pretokenizers": [
      {
        "type": "Metaspace",
        "replacement": "▁",
        "prepend_scheme": "always",
        "split": true
      }
    ]
  },
  "post_processor": {
    "type": "TemplateProcessing",
    "single": [
      {
        "SpecialToken": {
          "id": "[CLS]",
          "type_id": 0
        }
      },
      {
        "Sequence": {
          "id": "A",
          "type_id": 0
        }
      },
      {
        "SpecialToken": {
          "id": "[SEP]",
          "type_id": 0
        }
      }
    ],
    "pair": [
      {
        "SpecialToken": {
          "id": "[CLS]",
          "type_id": 0
        }
      },
      {
        "Sequence": {
          "id": "A",
          "type_id": 0
        }
      },
      {
        "SpecialToken": {
          "id": "[SEP]",
          "type_id": 0
        }
      },
      {
        "Sequence": {
          "id": "B",
          "type_id": 1
        }
      },
      {
        "SpecialToken": {
          "id": "[SEP]",
          "type_id": 1
        }
      }
    ],
    "special_tokens": {
      "[CLS]": {
        "id": "[CLS]",
        "ids": [
          1451
        ],
        "tokens": [
          "[CLS]"
        ]
      },
      "[SEP]": {
        "id": "[SEP]",
        "ids": [
          7889
        ],
        "tokens": [
          "[SEP]"
        ]
      }
    }
  },
  "decoder": {
    "type": "Metaspace",
    "replacement": "▁",
    "prepend_scheme": "always",
    "split": true
  },
  "model": {
    "type": "Unigram",
    "unk_id": 5974,
    "vocab": [
      [
        "▁ac",
        -7.700227612167611
      ],
      [
        "▁koyuldu",
        -10.47261254933707
      ],
      [
        "▁egil",
        -10.315024270805681
      ],
      [
        "▁newark'ta",
        -9.63982172993768
      ],
      [
        "5.2",
        -9.764068700776681
      ],
      [
        "▁getiri",
        -8.579937206413666
      ],
      [
        "▁geciril",
        -10.753618718671454
      ],
      [
        "9.8",
        -10.89906866214311
      ],
      [
        "abet",
        -10.878411470113907
      ],
      [
        "ısı",
        -11.051820260445027
      ],
      [
        "86",
        -12.153008031101203
      ],
      [
        "▁mitchell",
        -10.107578944064073
      ],
      [
        "▁hafif",
        -8.429934681377908
      ],
      [
        "▁cogunlukla",
        -10.14393350694342
      ],
      [
        "▁4.3",
        -10.313143091053458
      ],
      [
        "▁yapımı",
        -10.85772571595563
      ],
      [
        "▁goruyoru",
        -10.32807231395195
      ],
      [
        "▁ticari",
        -9.031867716077759
      ],
      [
        "▁electric",
        -10.817670414576693
      ],
      [
        "yi",
        -6.640022799222128
      ],
      [
        "▁klasik",
        -10.214814908017996
      ],
      [
        "▁verdigi",
        -8.763131553512274
      ],
      [
        "erek",
        -6.809115460188123
      ],
      [
        "si",
        -10.840103462583878
      ],
      [
        "▁yı",
        -9.218269508698501
      ],
      [
        "▁dalgın",
        -10.3350800808391
      ],
      [
        "lenecek",
        -10.458859513117332
      ],
      [
        "mustu",
        -8.484919017961232
      ],
      [
        "▁ipek",
        -9.816068687913443
      ],
      [
        "ız",
        -8.32788040606879
      ],
      [
        "▁odeyecek",
        -10.751039513776972
      ],
      [
        "▁durumlarda",
        -10.64172600378378
      ],
      [
        "▁ettigi",
        -8.850465665004887
      ],
      [
        "▁kirpikleri",
        -10.694764454386114
      ],
      [
        "▁ici",
        -8.48352496777274
      ],
      [
        "▁yapabil",
        -10.374606403870704
      ],
      [
        "▁degilsin",
        -10.284233516698823
      ],
      [
        "%2",
        -11.706131327571025
      ],
      [
        "▁piyasaları",
        -9.822073260933497
      ],
      [
        "▁selim",
        -10.634848000921924
      ],
      [
        "▁sehrin",
        -9.47963531004413
      ],
      [
        "▁anlasılıyor",
        -10.751006228289622
      ],
      [
        "▁arastırma",
        -8.747177360936744
      ],
      [
        "▁yaptıgını",
        -9.85911195633048
      ],
      [
        "▁yazık",
        -10.117258731433244
      ],
      [
        "▁gizle",
        -10.381583872588617
      ],
      [
        "▁dunyada",
        -9.29593818115158
      ],
      [
        "▁yargı",
        -9.378076521979013
      ],
      [
        "▁%9.6",
        -12.104486163788298
      ],
      [
        "▁worth",
        -10.66013335947656
      ],
      [
        "ın",
        -11.343039948114084
      ],
      [
        "a",
        -11.92994979742507
      ],
      [
        "ulmus",
        -8.822121034818162
      ],
      [
        "▁kulubu",
        -10.629686169912372
      ],
      [
        "▁peki",
        -9.318725582865909
      ],
      [
        "|",
        -12.809526790838989
      ],
      [
        "▁konumu",
        -7.336623383231342
      ],
      [
        "▁hasret",
        -10.630428304098967
      ],
      [
        "▁ad",
        -8.444900142286714
      ],
      [
        "▁kelimeler",
        -10.403009642683196
      ],
      [
        "%7",
        -13.006976400583136
      ],
      [
        "▁basarısız",
        -9.90836686087216
      ],
      [
        "▁kaz",
        -10.149650317293492
      ],
      [
        "ci",
        -7.061942978204505
      ],
      [
        "▁eti",
        -9.990163558537379
      ],
      [
        "▁beri",
        -9.08902147961673
      ],
      [
        "▁bagır",
        -9.33538743517568
      ],
      [
        "▁am",
        -9.401108724093437
      ],
      [
        "▁et",
        -8.122474839755366
      ],
      [
        "▁da",
        -8.07797416663135
      ],
      [
        "▁%7.9",
        -11.920349515969981
      ],
      [
        "%4",
        -13.042585516553878
      ],
      [
        "▁sauna",
        -9.816595618896041
      ],
      [
        "▁ellerinde",
        -9.502788420232609
      ],
      [
        "uldu",
        -9.557314781341649
      ],
      [
        "▁hayvan",
        -9.299381126029562
      ],
      [
        "▁nobetci",
        -10.691696866522673
      ],
      [
        "▁sor",
        -9.32012446854935
      ],
      [
        "▁ayarlan",
        -10.125778862168085
      ],
      [
        "▁mırıldan",
        -10.107578944420009
      ],
      [
        "▁getirdigi",
        -10.261815962189903
      ],
      [
        "▁ilk",
        -6.955808584260358
      ],
      [
        "▁apartman",
        -10.107579717583226
      ],
      [
        "▁plaj",
        -9.45784178486685
      ],
      [
        "▁tablo",
        -9.841445297983942
      ],
      [
        "agı",
        -9.992656147959854
      ],
      [
        "▁gorunuyor",
        -9.02771534586531
      ],
      [
        "▁nerede",
        -9.827874280805622
      ],
      [
        "▁alır",
        -8.818305882787573
      ],
      [
        "▁",
        -2.091718453959686
      ],
      [
        "▁yolu",
        -8.619671921373826
      ],
      [
        "▁tırnak",
        -10.471494337620252
      ],
      [
        "▁baskanı",
        -8.164488624005804
      ],
      [
        "▁teksas",
        -10.177843536537509
      ],
      [
        "▁donemi",
        -9.988200071016138
      ],
      [
        "▁sizler",
        -8.499743326726717
      ],
      [
        "▁pek",
        -7.458171528806968
      ],
      [
        "'s",
        -9.620973501839298
      ],
      [
        "dıgında",
        -9.604382277317377
      ],
      [
        "▁kalkıyor",
        -9.242340198902848
      ],
      [
        "ktor",
        -10.695187800248904
      ],
      [
        "▁rehber",
        -9.22746199240527
      ],
      [
        "▁ekstra",
        -10.471494142883365
      ],
      [
        "dıgı",
        -8.022580511601854
      ],
      [
        "▁stokları",
        -10.196963697609753
      ],
      [
        "▁hos",
        -8.823651827049636
      ],
      [
        "▁107",
        -9.958900496961556
      ],
      [
        "▁tu",
        -8.589763158792202
      ],
      [
        "▁davet",
        -9.494032192960482
      ],
      [
        "di",
        -5.588519822715628
      ],
      [
        "▁gerceklestiril",
        -10.452957997588998
      ],
      [
        "▁iptal",
        -10.107629662722672
      ],
      [
        "▁5\\/",
        -9.38837327942467
      ],
      [
        "▁haber",
        -8.105322967915626
      ],
      [
        "▁diye",
        -10.048915892086763
      ],
      [
        "▁kıymet",
        -9.73909446485012
      ],
      [
        "▁yazar",
        -8.395601005599557
      ],
      [
        "▁gidere",
        -10.15678629031916
      ],
      [
        "▁yım",
        -8.74331923090018
      ],
      [
        "am",
        -10.132659638535351
      ],
      [
        "▁ha",
        -8.475808603366957
      ],
      [
        "▁muhendis",
        -9.742490800762608
      ],
      [
        "▁kili",
        -10.290343088760416
      ],
      [
        "▁tavrı",
        -10.339296273854304
      ],
      [
        "▁1983",
        -10.347090297617484
      ],
      [
        "▁bulasık",
        -10.889122420832992
      ],
      [
        "abiliyor",
        -9.599090175810002
      ],
      [
        "▁departman",
        -10.688503749684553
      ],
      [
        "▁seattle'de",
        -10.340182354042929
      ],
      [
        "▁otu",
        -9.62229282447634
      ],
      [
        "▁yıldır",
        -9.835799418353396
      ],
      [
        "▁surdurme",
        -10.574938769844966
      ],
      [
        "▁basladıgı",
        -10.028185337792276
      ],
      [
        "▁ipoteg",
        -10.75100413147009
      ],
      [
        "▁dısisleri",
        -10.521499687826772
      ],
      [
        "▁bayag",
        -10.583623353243947
      ],
      [
        "▁oakland'da",
        -9.365191324221826
      ],
      [
        "▁roma",
        -10.532882572059524
      ],
      [
        "inin",
        -7.92095891312098
      ],
      [
        "▁yola",
        -9.296420302023854
      ],
      [
        "▁gelecegini",
        -10.527597778008145
      ],
      [
        "▁geride",
        -10.199528058016053
      ],
      [
        "▁sigortası",
        -10.435894337039185
      ],
      [
        "8",
        -9.465744679121464
      ],
      [
        "lasıyor",
        -9.993365497441872
      ],
      [
        "ım",
        -8.123389753396308
      ],
      [
        "▁idare",
        -9.162506613518358
      ],
      [
        "▁dar",
        -8.576260056544443
      ],
      [
        "▁sustu",
        -10.643723188583143
      ],
      [
        "▁cıkarma",
        -9.281868096923358
      ],
      [
        "▁bagladı",
        -9.967758952938215
      ],
      [
        "▁bıcak",
        -9.766302303877879
      ],
      [
        "▁evren",
        -9.841246052968136
      ],
      [
        "▁ihtiyatlı",
        -10.691300006805342
      ],
      [
        "▁%99",
        -11.810224773061273
      ],
      [
        "bunun",
        -9.6688069440048
      ],
      [
        "▁ısıl",
        -10.427403669964907
      ],
      [
        "▁acenta",
        -10.629735486346773
      ],
      [
        "▁verim",
        -9.605587064701869
      ],
      [
        "gimiz",
        -10.423125727388728
      ],
      [
        "▁giriste",
        -9.593514493596306
      ],
      [
        "lastı",
        -8.551164395583438
      ],
      [
        "▁orada",
        -8.430366099457045
      ],
      [
        "▁kriz",
        -9.732284952974737
      ],
      [
        "▁yasama",
        -9.178060433589454
      ],
      [
        "▁sırtın",
        -10.370891507137312
      ],
      [
        "▁olabilecegini",
        -9.929018536590394
      ],
      [
        "▁mu",
        -8.087440077312545
      ],
      [
        "▁koridor",
        -10.471494258382059
      ],
      [
        "▁dunya",
        -7.4836056713235655
      ],
      [
        "meyecegi",
        -9.548666706195917
      ],
      [
        "▁hayat",
        -8.402161546244686
      ],
      [
        "▁aydın",
        -9.651277282306598
      ],
      [
        "▁fakulte",
        -10.334941248361803
      ],
      [
        "▁fo",
        -9.66661098865862
      ],
      [
        "▁ucusların",
        -9.264626586058682
      ],
      [
        "▁giren",
        -9.954825605691852
      ],
      [
        "▁yatır",
        -9.97290869193885
      ],
      [
        "250000",
        -9.68300493586747
      ],
      [
        "▁bazı",
        -5.798457711104905
      ],
      [
        "▁gecikme",
        -9.868096573372432
      ],
      [
        "▁ikram",
        -10.253246388690261
      ],
      [
        "27",
        -12.479618671514109
      ],
      [
        "▁numara",
        -8.575693033693039
      ],
      [
        "ona",
        -9.617245440447812
      ],
      [
        "▁dusunul",
        -10.323592114131687
      ],
      [
        "▁eder",
        -8.034338216864347
      ],
      [
        "▁kala",
        -10.380254636935419
      ],
      [
        "oyu",
        -10.825250138469524
      ],
      [
        "▁8.",
        -10.286904554380493
      ],
      [
        "▁bulama",
        -9.377108561388749
      ],
      [
        "▁yapmadi",
        -10.189628763976724
      ],
      [
        "▁normaldi",
        -9.351150970173828
      ],
      [
        "▁oyuncular",
        -10.114788603181687
      ],
      [
        "▁cakmak",
        -10.817688454403452
      ],
      [
        "▁george",
        -10.010737994794905
      ],
      [
        "layabilir",
        -10.246638292102542
      ],
      [
        "▁diploma",
        -10.884266245513597
      ],
      [
        "tı",
        -9.880362748676855
      ],
      [
        "▁bulun",
        -8.355433502188314
      ],
      [
        "ren",
        -8.672080989529746
      ],
      [
        "▁yukarıda",
        -10.317133105498684
      ],
      [
        "▁basar",
        -9.44772935644378
      ],
      [
        "▁tutam",
        -10.530866884607146
      ],
      [
        "▁istedigim",
        -10.070273395580937
      ],
      [
        "▁arz",
        -9.45361070562554
      ],
      [
        "▁duzelt",
        -10.303163586441286
      ],
      [
        "verir",
        -10.286877614339838
      ],
      [
        ".38",
        -10.174863679830818
      ],
      [
        "▁ceviri",
        -10.02095982836591
      ],
      [
        "ını",
        -9.93219484581724
      ],
      [
        "▁hafiflet",
        -10.597015729397636
      ],
      [
        "▁mıs",
        -8.221270484658733
      ],
      [
        "▁programları",
        -10.055006029758276
      ],
      [
        "▁geriledi",
        -9.602159636646665
      ],
      [
        "▁ha",
        -8.423620049332474
      ],
      [
        "▁muhtemel",
        -9.07921267146616
      ],
      [
        "▁dondu",
        -8.611501491470381
      ],
      [
        "▁caz",
        -10.523407413289497
      ],
      [
        "▁zarfın",
        -10.769408836192753
      ],
      [
        "625",
        -9.9510386817464
      ],
      [
        "/",
        -9.631263806694347
      ],
      [
        "▁42",
        -8.71427175632828
      ],
      [
        "izm",
        -9.416770415692755
      ],
      [
        "▁heyeti",
        -10.378511145544149
      ],
      [
        "▁ibaret",
        -10.042002215983098
      ],
      [
        "▁y",
        -8.273434547613135
      ],
      [
        "▁birisini",
        -9.720694529423557
      ],
      [
        "▁birlesi",
        -9.70484708536594
      ],
      [
        "▁degiller",
        -8.877110792197561
      ],
      [
        "▁kedi",
        -9.585738963697938
      ],
      [
        "me",
        -10.00146619084744
      ],
      [
        "▁pır",
        -9.196406829614833
      ],
      [
        "madı",
        -8.88231514152271
      ],
      [
        "▁san",
        -6.1830390244076225
      ],
      [
        "▁dede",
        -9.428530216762605
      ],
      [
        "▁mus",
        -8.161837378504368
      ],
      [
        "▁ulusal",
        -8.862421130654113
      ],
      [
        "▁fırca",
        -10.524843553805638
      ],
      [
        "▁sez",
        -9.52536722368228
      ],
      [
        "▁kopya",
        -10.584783842626534
      ],
      [
        "▁28.",
        -10.331057611006262
      ],
      [
        "▁dukkanı",
        -9.94525415066962
      ],
      [
        "da",
        -10.957139774156504
      ],
      [
        "▁yararlan",
        -9.965439522212657
      ],
      [
        "▁saatleri",
        -10.233604857380737
      ],
      [
        "▁alanı",
        -10.136674784089028
      ],
      [
        "▁umursa",
        -10.817676358293165
      ],
      [
        "▁ceza",
        -8.901591744280497
      ],
      [
        "klarını",
        -8.796624005031015
      ],
      [
        "▁adi",
        -9.457598457259028
      ],
      [
        "▁yigit",
        -10.817671180152827
      ],
      [
        "▁stein",
        -10.818647671239717
      ],
      [
        "▁za",
        -11.938950486359479
      ],
      [
        "▁acıldı",
        -9.392586353756851
      ],
      [
        "para",
        -10.886605679488204
      ],
      [
        "sında",
        -7.578648854023125
      ],
      [
        "▁hele",
        -10.042198059360931
      ],
      [
        "▁istanbul",
        -9.173459040666376
      ],
      [
        "▁bagı",
        -10.165490475059308
      ],
      [
        "▁1.2",
        -8.718415128083837
      ],
      [
        "▁yazılmıs",
        -10.489592715868067
      ],
      [
        "ip",
        -7.606095423406281
      ],
      [
        "48",
        -10.060704301262783
      ],
      [
        "▁cem",
        -10.03442563404514
      ],
      [
        "▁erdogan",
        -10.553301654876797
      ],
      [
        "▁mini",
        -9.32624704544002
      ],
      [
        "▁katıldı",
        -9.839286254205959
      ],
      [
        "▁dudakları",
        -9.938215334145736
      ],
      [
        "▁gitmisti",
        -10.545330877155031
      ],
      [
        "▁fır",
        -9.898729347149688
      ],
      [
        "▁bıcagı",
        -10.817679981125773
      ],
      [
        "▁ayrıldı",
        -9.698752772758823
      ],
      [
        "▁boru",
        -9.808880079416458
      ],
      [
        "▁edemiyor",
        -10.293854281625137
      ],
      [
        "▁...",
        -13.733825525090593
      ],
      [
        "▁nor",
        -10.181002915108294
      ],
      [
        "bası",
        -9.290120709733777
      ],
      [
        "▁onemsiz",
        -10.525642141387651
      ],
      [
        "▁amac",
        -8.957653428878137
      ],
      [
        "▁kez",
        -8.14507382326915
      ],
      [
        "yorum",
        -8.946856166529047
      ],
      [
        "▁dengeli",
        -10.491002864780715
      ],
      [
        "▁iceriyor",
        -9.6554219537945
      ],
      [
        "▁icini",
        -10.23525312097263
      ],
      [
        "▁teklifler",
        -10.149821715069667
      ],
      [
        "▁verin",
        -9.46195110732942
      ],
      [
        "▁insanı",
        -9.573466506152267
      ],
      [
        "▁baglamıs",
        -10.756431394754491
      ],
      [
        "▁oyun",
        -8.670854883900704
      ],
      [
        "▁hem",
        -9.309032353492633
      ],
      [
        "▁kacırma",
        -10.817802801320209
      ],
      [
        "rek",
        -9.200730105097179
      ],
      [
        "▁resepsiyon",
        -10.334941231257929
      ],
      [
        "▁tasarım",
        -10.307379948913892
      ],
      [
        "▁arka",
        -8.7907169365659
      ],
      [
        "50",
        -8.746174993512678
      ],
      [
        "▁oya",
        -9.886432280746579
      ],
      [
        "00",
        -11.587869998328102
      ],
      [
        "▁bekliyor",
        -8.839152378518573
      ],
      [
        "▁tef",
        -10.163445976690737
      ],
      [
        "▁olmak",
        -7.8947653113846235
      ],
      [
        "▁yatıyor",
        -10.622720010399023
      ],
      [
        "▁coktu",
        -9.748320266990344
      ],
      [
        "cık",
        -8.472175722843179
      ],
      [
        "▁1999",
        -9.957080978253066
      ],
      [
        "▁115",
        -10.738518260013485
      ],
      [
        "▁%",
        -9.500485810466254
      ],
      [
        "yıp",
        -8.772739222759103
      ],
      [
        "anı",
        -10.808690440604535
      ],
      [
        ".5'",
        -10.42233068495542
      ],
      [
        "▁ma",
        -8.179273104008894
      ],
      [
        "▁yakısıklı",
        -10.629680723254285
      ],
      [
        "▁tr",
        -9.393390670653922
      ],
      [
        "▁gecmiste",
        -10.099971642201774
      ],
      [
        "▁goturme",
        -10.785382055569796
      ],
      [
        "▁sonun",
        -9.691976571015502
      ],
      [
        "▁basa",
        -9.07874519405657
      ],
      [
        "▁buyuye",
        -10.340000919502648
      ],
      [
        "▁dava",
        -8.074656569048901
      ],
      [
        "▁yılında",
        -8.570616454790331
      ],
      [
        "▁bulundugu",
        -9.264544834917654
      ],
      [
        "▁ilham",
        -10.253513341087995
      ],
      [
        "▁li",
        -7.775344169606043
      ],
      [
        "▁cıkacak",
        -9.870423075668356
      ],
      [
        "mont",
        -10.793871410804048
      ],
      [
        "▁kurmus",
        -10.569405525753224
      ],
      [
        "▁hukumdar",
        -10.751782812307644
      ],
      [
        "▁turkiye",
        -8.695942301703797
      ],
      [
        "▁kuralları",
        -10.244249795820819
      ],
      [
        "▁alına",
        -9.725431556387049
      ],
      [
        "▁cep",
        -9.364810683512692
      ],
      [
        "▁duruyor",
        -9.077778328145477
      ],
      [
        "▁mutfag",
        -9.951023209980189
      ],
      [
        "▁sikayet",
        -9.38936238752455
      ],
      [
        "–",
        -12.809526790838989
      ],
      [
        "▁krenz",
        -10.75100430655326
      ],
      [
        "▁denizi",
        -7.775535882675613
      ],
      [
        "▁kabil",
        -9.869743558678028
      ],
      [
        "▁genisleme",
        -10.648203094253695
      ],
      [
        "vi",
        -8.43958836157342
      ],
      [
        "▁ozur",
        -10.181349045366016
      ],
      [
        "▁deyi",
        -9.453100511106971
      ],
      [
        "▁icecek",
        -9.877445998993108
      ],
      [
        "▁orgu",
        -10.62895046164457
      ],
      [
        "▁3/4'",
        -10.688503764642089
      ],
      [
        "'ın",
        -7.256697443237829
      ],
      [
        "▁olsa",
        -8.368437622571143
      ],
      [
        "▁buyu",
        -8.98160465913005
      ],
      [
        "▁imkanlari",
        -8.986770943484926
      ],
      [
        "▁hamam",
        -9.265803622911932
      ],
      [
        "landıgını",
        -10.138677179634266
      ],
      [
        "3/",
        -10.921871214404954
      ],
      [
        "▁aktarmasız",
        -8.512073042010577
      ],
      [
        "6",
        -9.6814032168264
      ],
      [
        "▁4.8",
        -10.58612821686715
      ],
      [
        "▁olmadi",
        -8.653142360379096
      ],
      [
        "▁besiktas",
        -10.471493933444059
      ],
      [
        "▁surdu",
        -9.646675967911131
      ],
      [
        "dır",
        -6.723396107358676
      ],
      [
        "▁ti",
        -10.486432351554733
      ],
      [
        "▁iki",
        -8.928103951949264
      ],
      [
        "▁belirsiz",
        -9.748206993898751
      ],
      [
        "▁donanma",
        -10.629689969866506
      ],
      [
        "▁77",
        -9.84103054110708
      ],
      [
        "▁barıs",
        -9.310786197687534
      ],
      [
        "▁kadeh",
        -10.107612500507487
      ],
      [
        "▁%3.",
        -11.182099154216546
      ],
      [
        "▁dugum",
        -10.828433626992025
      ],
      [
        "▁babası",
        -9.29982138653721
      ],
      [
        "▁fredd",
        -10.819136379630653
      ],
      [
        "▁depo",
        -9.815728726472877
      ],
      [
        "▁900",
        -9.844393640014774
      ],
      [
        "▁polis",
        -9.293725708042377
      ],
      [
        "ans",
        -9.765393024041215
      ],
      [
        "▁ulu",
        -10.42852124822684
      ],
      [
        "▁\"",
        -10.637826183352754
      ],
      [
        "▁104",
        -10.462214676458556
      ],
      [
        "▁kucak",
        -10.253969978785463
      ],
      [
        "▁adım",
        -8.45871418574487
      ],
      [
        "▁icer",
        -8.730846400257693
      ],
      [
        "ne",
        -7.927966661887857
      ],
      [
        "▁duzenlene",
        -10.414629439673742
      ],
      [
        "▁kanat",
        -9.92961300887051
      ],
      [
        "▁turun",
        -10.231635701695302
      ],
      [
        "▁iceride",
        -10.304839305601226
      ],
      [
        "ıyla",
        -8.230585959435993
      ],
      [
        "▁kibar",
        -10.010738572158939
      ],
      [
        "▁yansıt",
        -9.679420261562422
      ],
      [
        "▁durak",
        -10.109021928875329
      ],
      [
        "lma",
        -8.941557147725177
      ],
      [
        "▁degisim",
        -9.612395860162874
      ],
      [
        "▁anadolu'da",
        -10.830890730202444
      ],
      [
        "▁kıdem",
        -10.522884734851615
      ],
      [
        "▁tehdit",
        -10.010737876411332
      ],
      [
        "▁bitme",
        -9.856023284751172
      ],
      [
        "▁rende",
        -10.633732148769582
      ],
      [
        "▁bur",
        -8.350448928901471
      ],
      [
        "▁tahvil",
        -8.48052807640628
      ],
      [
        "▁kurtul",
        -9.85389827401038
      ],
      [
        "▁kuzu",
        -10.012118422618252
      ],
      [
        "▁seksen",
        -9.510386021826939
      ],
      [
        "25000",
        -10.08621304387279
      ],
      [
        "▁yi",
        -9.990655862087861
      ],
      [
        "lesme",
        -9.054716825709907
      ],
      [
        "30000",
        -10.729387378770138
      ],
      [
        "▁sutu",
        -10.257088368719659
      ],
      [
        "mus",
        -7.420619994540678
      ],
      [
        "▁haziran'da",
        -9.724899502437088
      ],
      [
        "diginde",
        -9.907196848543704
      ],
      [
        "▁kasaba",
        -9.490079416320091
      ],
      [
        "▁konusunda",
        -8.022827493569924
      ],
      [
        "▁ilis",
        -10.258477183881912
      ],
      [
        "32",
        -8.876639540153514
      ],
      [
        "lerinin",
        -7.6038969193046215
      ],
      [
        "▁beklentimi",
        -10.368272402762424
      ],
      [
        "▁meze",
        -10.634066616799307
      ],
      [
        "▁konut",
        -9.406111897412245
      ],
      [
        "▁uzay",
        -9.674404410537944
      ],
      [
        "▁gereken",
        -9.186411519601512
      ],
      [
        "▁jandarma",
        -10.751003752606403
      ],
      [
        "▁uyeleri",
        -10.116880937393168
      ],
      [
        "▁bosuna",
        -10.819666833062703
      ],
      [
        "▁yayınladı",
        -10.744450514064617
      ],
      [
        "▁top",
        -8.24980650107046
      ],
      [
        "▁londra",
        -9.917357478745062
      ],
      [
        "▁sayısını",
        -10.256304437544298
      ],
      [
        "▁%8.2",
        -11.920938577525046
      ],
      [
        "▁tuvalet",
        -10.471493575804558
      ],
      [
        "▁vuruyor",
        -10.42422419376344
      ],
      [
        "▁konumunu",
        -9.959548461450899
      ],
      [
        "▁ikiyuz",
        -10.584957844453116
      ],
      [
        "▁verildi",
        -9.56294454314321
      ],
      [
        "▁olası",
        -9.179665841997405
      ],
      [
        "▁rub",
        -10.36587586590152
      ],
      [
        "▁marj",
        -10.109329748674382
      ],
      [
        "▁nerede",
        -7.982980169462512
      ],
      [
        "▁ucagın",
        -9.697748818104806
      ],
      [
        "▁tamamlanması",
        -10.52442701691756
      ],
      [
        "▁yukarı",
        -9.363623747666995
      ],
      [
        "▁kay",
        -8.751567809573865
      ],
      [
        "▁nisan",
        -9.00850888203296
      ],
      [
        "▁oldu",
        -6.635919377322157
      ],
      [
        "abilecegi",
        -9.270801377423556
      ],
      [
        "▁bireysel",
        -10.215141577697151
      ],
      [
        "doksan",
        -10.280845400016329
      ],
      [
        "▁semsiye",
        -10.889102035858901
      ],
      [
        "▁ideoloji",
        -10.21481309470826
      ],
      [
        "▁ikinci",
        -8.823909503574232
      ],
      [
        "▁tasıdı",
        -10.273761469041073
      ],
      [
        "▁bul",
        -7.970692714516275
      ],
      [
        "▁curu",
        -10.199987910919916
      ],
      [
        "▁bozuk",
        -9.84184526413071
      ],
      [
        "▁19",
        -9.328962958017106
      ],
      [
        "▁sarar",
        -10.47749554584439
      ],
      [
        "▁devir",
        -9.359754680472165
      ],
      [
        "medigi",
        -9.94393328715676
      ],
      [
        "▁francisco'",
        -7.255288254347211
      ],
      [
        "▁saglıgı",
        -10.112285514644743
      ],
      [
        "▁hissetti",
        -9.730367762439334
      ],
      [
        "▁tasımacılıgı",
        -10.751040147731887
      ],
      [
        "▁rengi",
        -9.27356823161644
      ],
      [
        "▁fener",
        -10.07466143311028
      ],
      [
        "▁yuzme",
        -8.853102451111422
      ],
      [
        "▁houston'",
        -9.61651089866104
      ],
      [
        "▁babamı",
        -9.969890481591332
      ],
      [
        "▁lisan",
        -10.746541108190552
      ],
      [
        "▁nu",
        -9.741558200759126
      ],
      [
        "gel",
        -9.270411228329191
      ],
      [
        "▁kayded",
        -10.521261369238392
      ],
      [
        "▁yukseltti",
        -10.195835018803194
      ],
      [
        "▁yapıstır",
        -10.664336778638656
      ],
      [
        "▁sekiz",
        -7.532759790075625
      ],
      [
        "▁lık",
        -9.145996749068345
      ],
      [
        "▁sebze",
        -10.177776927924905
      ],
      [
        "▁ithalat",
        -9.611215366451535
      ],
      [
        "▁saniye",
        -10.338916831739633
      ],
      [
        "▁urkut",
        -10.889106395843287
      ],
      [
        "▁kayıt",
        -9.310024037926404
      ],
      [
        "▁dolastı",
        -9.845477263149817
      ],
      [
        "▁anlamın",
        -9.421695317780152
      ],
      [
        "▁109",
        -10.300749207696247
      ],
      [
        "▁dogum",
        -9.846045224095967
      ],
      [
        "▁alacagı",
        -10.268799829384639
      ],
      [
        "▁met",
        -9.410710102272
      ],
      [
        "▁gercekte",
        -8.420751397274612
      ],
      [
        "▁cekildi",
        -9.926826102533475
      ],
      [
        "▁kurulusu",
        -10.064060349927681
      ],
      [
        "▁belirle",
        -9.736045311189915
      ],
      [
        "▁yel",
        -9.696960949730075
      ],
      [
        "▁koc",
        -10.270325287437473
      ],
      [
        "▁sahane",
        -10.479827023562327
      ],
      [
        "▁ru",
        -9.990242028489483
      ],
      [
        "▁hay",
        -9.068780009708469
      ],
      [
        "▁cag",
        -9.218081768292876
      ],
      [
        "lara",
        -7.17694958944284
      ],
      [
        "▁cesur",
        -10.47155682149918
      ],
      [
        "▁edil",
        -9.833353948424776
      ],
      [
        "▁balık",
        -9.15580067107844
      ],
      [
        "▁kaldırıl",
        -10.034922957475118
      ],
      [
        "▁isbirligi",
        -10.17781015003272
      ],
      [
        "▁sayılır",
        -10.374659598834864
      ],
      [
        "▁kullanıcı",
        -10.523070864669481
      ],
      [
        "▁1\\/",
        -7.7140516848181395
      ],
      [
        "gımız",
        -9.686128349057215
      ],
      [
        "▁erdi",
        -10.033377881257232
      ],
      [
        "gu",
        -11.556704943236587
      ],
      [
        "▁1989-8",
        -11.134501819180723
      ],
      [
        "▁sonuclar",
        -9.752675861635407
      ],
      [
        "▁edecegini",
        -9.927876721749636
      ],
      [
        "▁sen",
        -6.208861544610927
      ],
      [
        "▁harman",
        -10.631979166597043
      ],
      [
        "▁vakfı",
        -10.751013237098773
      ],
      [
        "so",
        -9.259866686136418
      ],
      [
        "▁kahve",
        -8.28526612606829
      ],
      [
        "▁olustura",
        -10.345510961867912
      ],
      [
        "▁3",
        -6.431845748060995
      ],
      [
        "▁al",
        -7.025279934648983
      ],
      [
        "▁davası",
        -10.178020772275506
      ],
      [
        "▁5.9",
        -10.066471804320791
      ],
      [
        "▁sagladı",
        -10.20923717233622
      ],
      [
        "▁degistiriyor",
        -10.66783953114282
      ],
      [
        "▁yeryuzu",
        -10.814651112086365
      ],
      [
        "▁sahte",
        -10.180067003600024
      ],
      [
        "▁12",
        -10.433726382552178
      ],
      [
        "▁kapanıs",
        -10.385763441075683
      ],
      [
        "▁olmadı",
        -9.456472573632343
      ],
      [
        "▁cozum",
        -9.295906969313972
      ],
      [
        "▁cevir",
        -9.606239295485876
      ],
      [
        "▁ikisi",
        -9.316595908415728
      ],
      [
        "▁or",
        -9.479210966397837
      ],
      [
        "▁yuz",
        -8.109225963786423
      ],
      [
        "▁komsu",
        -9.195679463985226
      ],
      [
        "▁birlikte",
        -7.262536962257031
      ],
      [
        "▁elde",
        -8.34507501243202
      ],
      [
        "▁celal",
        -10.472768214694081
      ],
      [
        "▁bahcede",
        -10.718377236761533
      ],
      [
        "▁ada",
        -9.38746004116273
      ],
      [
        "lendi",
        -8.366460824349062
      ],
      [
        "▁fatih",
        -9.980680331224125
      ],
      [
        "▁saat",
        -7.392454369201043
      ],
      [
        "▁ysan",
        -10.60411921712316
      ],
      [
        "▁cizgi",
        -9.284684676767126
      ],
      [
        "▁ikincisi",
        -9.926045298289534
      ],
      [
        "▁m",
        -12.81292342695711
      ],
      [
        "▁kurulusları",
        -10.611851451262332
      ],
      [
        "val",
        -10.449463690847121
      ],
      [
        "▁plan",
        -8.334484840943766
      ],
      [
        "▁%7.5",
        -11.120962033768349
      ],
      [
        "▁toparla",
        -9.987405375525215
      ],
      [
        "▁sivil",
        -10.074250309622036
      ],
      [
        "▁bırakı",
        -9.50012221457229
      ],
      [
        "▁olanlar",
        -10.222486337248284
      ],
      [
        "▁firma",
        -8.945068607856141
      ],
      [
        "▁muthis",
        -9.980434837235403
      ],
      [
        "▁toplumun",
        -10.213207651287412
      ],
      [
        "▁taze",
        -9.265902460458332
      ],
      [
        "▁istemiyor",
        -10.026047326332582
      ],
      [
        "▁6.7",
        -10.380704618024017
      ],
      [
        "▁reis",
        -10.567193806890094
      ],
      [
        "▁vasıtası",
        -9.98016373878562
      ],
      [
        "▁soyledikleri",
        -9.785805091021063
      ],
      [
        "▁cikolata",
        -10.889099017549142
      ],
      [
        "3",
        -9.345899583452661
      ],
      [
        "▁olmaz",
        -8.67923537155518
      ],
      [
        "at",
        -6.734542760195388
      ],
      [
        "▁soyledigi",
        -10.145913317670955
      ],
      [
        "bur",
        -9.764709621168155
      ],
      [
        "▁edilmesi",
        -9.648406840583174
      ],
      [
        "▁saatlerde",
        -9.595547342393395
      ],
      [
        "ndaki",
        -9.058445995714266
      ],
      [
        "▁tesisin",
        -8.498123533618859
      ],
      [
        "lestirdi",
        -10.096513327252405
      ],
      [
        "▁bazi",
        -8.434375528301851
      ],
      [
        "▁gra",
        -10.12367629423941
      ],
      [
        "▁kaldırdı",
        -10.309350105601617
      ],
      [
        "6",
        -8.931480090504023
      ],
      [
        "▁ardında",
        -8.822285082411025
      ],
      [
        "▁bicimde",
        -9.702513815001838
      ],
      [
        "ti",
        -13.256482449366915
      ],
      [
        "▁sozlesme",
        -9.03117662867184
      ],
      [
        "▁yapabilir",
        -10.229990982605823
      ],
      [
        "▁duruyordu",
        -9.90108509765522
      ],
      [
        "▁teknik",
        -9.44048728310861
      ],
      [
        "lesiyor",
        -10.167242895842302
      ],
      [
        "▁siyah",
        -8.620657091374836
      ],
      [
        "▁cu",
        -9.419480212378659
      ],
      [
        "▁sok",
        -8.939135169417433
      ],
      [
        "lmaz",
        -9.522556550844193
      ],
      [
        "▁calısma",
        -8.314160443837311
      ],
      [
        "1",
        -9.311321548328898
      ],
      [
        "▁bilgilendirme",
        -10.69065360058364
      ],
      [
        "▁donu",
        -9.484740515466278
      ],
      [
        "▁destan",
        -10.691104916114456
      ],
      [
        "▁temin",
        -10.822018602385873
      ],
      [
        "▁kudret",
        -10.889099979118894
      ],
      [
        "▁pro",
        -9.51047736312875
      ],
      [
        "▁konak",
        -10.012071651034322
      ],
      [
        "▁nereler",
        -10.327109737456745
      ],
      [
        "▁daral",
        -10.177190893278743
      ],
      [
        "▁karsı",
        -6.409335831396301
      ],
      [
        "▁bilmedigi",
        -10.512288110917174
      ],
      [
        "▁duser",
        -9.502957719060367
      ],
      [
        "▁altında",
        -7.876964381693434
      ],
      [
        "▁sırrı",
        -10.698920463724763
      ],
      [
        "▁tesis",
        -7.284876718979913
      ],
      [
        "▁kusursuz",
        -10.254300468138993
      ],
      [
        "▁tavır",
        -9.720718730116566
      ],
      [
        "▁ler",
        -9.237594244454714
      ],
      [
        "▁1100",
        -10.565896809000884
      ],
      [
        "sine",
        -7.296950458843386
      ],
      [
        "▁ciddi",
        -8.76021270070661
      ],
      [
        "▁hareket",
        -7.766805021286804
      ],
      [
        "▁sorunları",
        -9.796330331429068
      ],
      [
        "▁teyze",
        -10.107582111653146
      ],
      [
        "ıldıgını",
        -9.958065747749375
      ],
      [
        "▁yarıs",
        -10.328627806018028
      ],
      [
        "▁ilerleme",
        -10.242543786586582
      ],
      [
        "7/",
        -9.640234913681336
      ],
      [
        "▁bilgi",
        -7.508700221853544
      ],
      [
        "▁1.85",
        -10.968222535860983
      ],
      [
        "▁kazanan",
        -10.017275392185455
      ],
      [
        "cak",
        -9.130272443037247
      ],
      [
        "▁alacak",
        -9.009209103506457
      ],
      [
        "▁sakal",
        -9.636072329210894
      ],
      [
        "▁kesilmis",
        -10.215436851755296
      ],
      [
        "▁smith",
        -10.214814265909887
      ],
      [
        "▁yasayı",
        -10.509529135608275
      ],
      [
        "▁tavuk",
        -9.922671863072644
      ],
      [
        "▁sarkı",
        -8.956287036908048
      ],
      [
        "▁dukkan",
        -9.461304308729595
      ],
      [
        "▁oturdu",
        -9.534334374475456
      ],
      [
        "▁onur",
        -9.724779548659608
      ],
      [
        "▁co",
        -8.007472328994126
      ],
      [
        "▁kısa",
        -8.035388123401397
      ],
      [
        "sıyla",
        -8.596125116545778
      ],
      [
        "▁cins",
        -9.58691403556022
      ],
      [
        "▁bıraktıgı",
        -10.685707764677236
      ],
      [
        "▁montreal'",
        -9.770907775584405
      ],
      [
        "▁fort",
        -9.119306679294407
      ],
      [
        "▁suclama",
        -9.745095257471615
      ],
      [
        "sinin",
        -7.97988090300116
      ],
      [
        "▁kazanır",
        -10.68661945599494
      ],
      [
        "▁zemin",
        -10.214830712148224
      ],
      [
        "▁ulasma",
        -9.839099687240648
      ],
      [
        "▁fiyati",
        -9.047094696351467
      ],
      [
        "▁bagrı",
        -10.387246489885277
      ],
      [
        "▁tamir",
        -10.018998057963724
      ],
      [
        "14",
        -12.716480308396433
      ],
      [
        "▁yıkayı",
        -10.52266089047747
      ],
      [
        "ydi",
        -6.578628275021045
      ],
      [
        "'daki",
        -8.938342569756317
      ],
      [
        "▁hey",
        -9.896551820200996
      ],
      [
        "▁1.4",
        -8.808546701300232
      ],
      [
        "▁yil",
        -9.5794532084793
      ],
      [
        "99",
        -10.866053962672542
      ],
      [
        "▁hava",
        -7.81199475653172
      ],
      [
        "▁oglen",
        -9.938364821554167
      ],
      [
        "▁arama",
        -9.196621743326736
      ],
      [
        "51",
        -10.981441885772222
      ],
      [
        "▁alem",
        -9.645552180712016
      ],
      [
        "▁kosede",
        -10.220132024427514
      ],
      [
        "▁cogunda",
        -10.93680925498924
      ],
      [
        "▁ilgi",
        -8.16975715295004
      ],
      [
        "▁terk",
        -9.486191838510848
      ],
      [
        "19",
        -9.653955124169919
      ],
      [
        "▁279.",
        -10.708748996810979
      ],
      [
        "vı",
        -10.422371062606649
      ],
      [
        "▁katil",
        -9.799372381655974
      ],
      [
        "▁dogmus",
        -10.62989662555653
      ],
      [
        "sın",
        -7.892692676534142
      ],
      [
        "▁surekli",
        -8.55402646451098
      ],
      [
        "▁dısı",
        -9.184348290646248
      ],
      [
        "▁iflas",
        -9.790690999352588
      ],
      [
        "▁odada",
        -9.319190510517103
      ],
      [
        "▁degismedi",
        -10.301442842048779
      ],
      [
        "▁il",
        -7.476214463926909
      ],
      [
        "90",
        -11.082983173234592
      ],
      [
        "2'",
        -9.347993606149233
      ],
      [
        "▁fransa",
        -10.652944640428334
      ],
      [
        "lere",
        -7.128410090413862
      ],
      [
        "vo",
        -10.29653538466908
      ],
      [
        "▁olma",
        -10.57461687424142
      ],
      [
        "▁eksik",
        -9.212334841893739
      ],
      [
        "▁katkı",
        -8.997919496894374
      ],
      [
        "▁acıyor",
        -10.213974536426184
      ],
      [
        "▁han",
        -9.49276689201952
      ],
      [
        "▁cik",
        -9.920385766646664
      ],
      [
        "▁durgun",
        -9.695642280791095
      ],
      [
        "▁biri",
        -7.301416674230443
      ],
      [
        "▁genc",
        -7.837186618139455
      ],
      [
        "▁tac",
        -10.237905997418775
      ],
      [
        "▁dolas",
        -9.822883049746808
      ],
      [
        "▁k",
        -9.253332953015757
      ],
      [
        "$",
        -7.518283183533239
      ],
      [
        "▁ihtimal",
        -9.631304717382829
      ],
      [
        "▁belirtme",
        -10.453596179312033
      ],
      [
        "▁sesler",
        -10.165714579708016
      ],
      [
        "▁otekini",
        -10.58713718106293
      ],
      [
        "▁david",
        -10.378421821706997
      ],
      [
        "▁isgal",
        -10.216285406819772
      ],
      [
        "▁sohret",
        -10.378420018229521
      ],
      [
        "wood",
        -10.751004148990873
      ],
      [
        "▁hud",
        -10.483520196381539
      ],
      [
        ".5",
        -9.430731754711669
      ],
      [
        "▁eglen",
        -9.95252734800888
      ],
      [
        "▁ramiz",
        -10.380388962465512
      ],
      [
        "▁karakol",
        -10.751180021835166
      ],
      [
        "▁rapor",
        -8.936479499053158
      ],
      [
        "▁sevindi",
        -10.648641749797815
      ],
      [
        "▁verimli",
        -9.656486274018455
      ],
      [
        "▁cevabı",
        -10.214813844035234
      ],
      [
        "ize",
        -10.825365656243923
      ],
      [
        "▁viski",
        -10.521549351339207
      ],
      [
        "▁dongu",
        -10.633632084280421
      ],
      [
        "▁mesut",
        -10.424383188074657
      ],
      [
        "▁10",
        -10.369758858058086
      ],
      [
        "▁yeg",
        -9.935959698584124
      ],
      [
        "▁baglıdır",
        -10.639700967777555
      ],
      [
        "▁deve",
        -10.373577469696185
      ],
      [
        "▁mevduat",
        -9.98043583446346
      ],
      [
        "▁ce",
        -8.500765105694798
      ],
      [
        "si'nde",
        -10.26274197896316
      ],
      [
        "▁asagı",
        -8.75935248765628
      ],
      [
        "▁mı",
        -5.660593134567461
      ],
      [
        "▁pazartesi",
        -8.06927595790828
      ],
      [
        "▁efsane",
        -10.041996477051118
      ],
      [
        "▁adet",
        -8.16744476881232
      ],
      [
        "▁kilit",
        -9.870539986694554
      ],
      [
        "▁gorunum",
        -10.56349330481595
      ],
      [
        "▁esas",
        -9.539209387960655
      ],
      [
        "▁telefonu",
        -10.129268276707757
      ],
      [
        "▁19",
        -7.590840352627737
      ],
      [
        "▁degisme",
        -9.79485607174215
      ],
      [
        "▁5",
        -6.399179993357795
      ],
      [
        "▁yapısı",
        -10.23899353630618
      ],
      [
        "▁angeles",
        -10.072923360712705
      ],
      [
        "▁alkıs",
        -10.335001391005953
      ],
      [
        "▁sonraki",
        -9.269392519865793
      ],
      [
        "ikinci",
        -10.400159785533214
      ],
      [
        "▁ufuk",
        -10.472051538216586
      ],
      [
        "an",
        -6.656574563908451
      ],
      [
        "▁olaganustu",
        -10.177876795396818
      ],
      [
        "▁kapısını",
        -9.927891782621227
      ],
      [
        "ıcı",
        -8.695126740203811
      ],
      [
        "▁kayboldu",
        -10.75100390539925
      ],
      [
        "▁ilgiliydi",
        -7.712200228442427
      ],
      [
        "ba",
        -7.496485207792672
      ],
      [
        "▁agacı",
        -10.342310692432351
      ],
      [
        "▁biter",
        -10.698242705417469
      ],
      [
        "▁maliyetli",
        -10.582040073549003
      ],
      [
        "▁yorgan",
        -10.817691155684772
      ],
      [
        "▁yaklastı",
        -10.240737446863324
      ],
      [
        "ola",
        -9.667374755508707
      ],
      [
        "▁yasamak",
        -10.116677659854432
      ],
      [
        "▁listesini",
        -9.720861725371675
      ],
      [
        "▁sura",
        -10.269194055459817
      ],
      [
        "kce",
        -9.736611886998789
      ],
      [
        "▁zirve",
        -10.177777933785041
      ],
      [
        "▁kızıl",
        -10.009122462737775
      ],
      [
        "▁omzun",
        -10.629718119823114
      ],
      [
        "▁gonderdi",
        -10.066906441251811
      ],
      [
        "▁parcası",
        -9.428608129576556
      ],
      [
        "▁ana",
        -7.9174094265844595
      ],
      [
        "▁3558",
        -10.355449281372612
      ],
      [
        "yani",
        -10.61664784477175
      ],
      [
        "madım",
        -10.248207080835234
      ],
      [
        "▁55",
        -9.177819608601558
      ],
      [
        "▁h",
        -8.500445533960605
      ],
      [
        "iyordu",
        -8.243420302395908
      ],
      [
        "▁3.",
        -7.95981787468102
      ],
      [
        "▁ucunda",
        -9.863612457682166
      ],
      [
        "nla",
        -9.58078058821545
      ],
      [
        "▁peter",
        -10.079855524067451
      ],
      [
        "▁29",
        -8.31141521590659
      ],
      [
        "ler",
        -5.108238647768191
      ],
      [
        "▁eh",
        -10.04356155318024
      ],
      [
        "▁alıyor",
        -8.999094774893514
      ],
      [
        "▁ankara'da",
        -10.383735561765404
      ],
      [
        "▁kazanmıs",
        -10.50618676451692
      ],
      [
        "▁pa",
        -8.319316082123365
      ],
      [
        "▁hukuk",
        -9.020376297179045
      ],
      [
        "▁bekleme",
        -9.249453051468862
      ],
      [
        "▁basın",
        -7.790793447510286
      ],
      [
        "sunu",
        -8.837985416896863
      ],
      [
        "▁kalp",
        -9.274612635615163
      ],
      [
        "▁surpriz",
        -10.889099136737888
      ],
      [
        "▁gizli",
        -8.954056292840178
      ],
      [
        "▁tanım",
        -9.85846466811569
      ],
      [
        "▁samimi",
        -10.47196703273193
      ],
      [
        "sun",
        -7.723350706797373
      ],
      [
        "misin",
        -10.122946570541602
      ],
      [
        "▁savur",
        -9.996884130717943
      ],
      [
        "10",
        -10.505807693537065
      ],
      [
        "communications",
        -10.688503747893646
      ],
      [
        "▁minneapolis'",
        -10.40403322430302
      ],
      [
        "mıstır",
        -8.589233154169829
      ],
      [
        "▁ucma",
        -10.32326287878249
      ],
      [
        "▁bitirme",
        -10.731959859413704
      ],
      [
        "ur",
        -7.472478974679347
      ],
      [
        "▁taslar",
        -10.19008125190139
      ],
      [
        "▁tefe",
        -9.162034969752785
      ],
      [
        "mı",
        -8.374096378826032
      ],
      [
        "▁tele",
        -9.467973672407082
      ],
      [
        "'nun",
        -8.227926315128013
      ],
      [
        "luk",
        -7.351426468518903
      ],
      [
        "▁edebi",
        -10.185046050157593
      ],
      [
        "▁francisco'da",
        -8.636348347349674
      ],
      [
        "kaya",
        -10.436958962555947
      ],
      [
        "▁diyordu",
        -10.176130968675512
      ],
      [
        "▁kariyer",
        -10.334947470998076
      ],
      [
        "▁sel",
        -9.625724596960538
      ],
      [
        "▁garson",
        -10.48050208314003
      ],
      [
        "eri",
        -8.593642937284123
      ],
      [
        "▁pırıl",
        -10.214851237337214
      ],
      [
        "▁cadde",
        -9.627591649529988
      ],
      [
        "▁kopu",
        -9.441453125842475
      ],
      [
        "▁ihracı",
        -9.8596189056836
      ],
      [
        "7",
        -8.957456190361796
      ],
      [
        "▁sona",
        -9.11002210066461
      ],
      [
        "▁anlamı",
        -10.025562469244967
      ],
      [
        "ciler",
        -8.905582585661536
      ],
      [
        "-",
        -5.2246448626679545
      ],
      [
        "▁garip",
        -9.440745476469512
      ],
      [
        "▁chicago'da",
        -9.398818107098288
      ],
      [
        "▁dovus",
        -10.629738648632019
      ],
      [
        "▁geciyor",
        -9.352200166382847
      ],
      [
        "▁sa",
        -7.058721000505687
      ],
      [
        "▁7.2",
        -10.324098996964956
      ],
      [
        "▁kemik",
        -10.214882170001637
      ],
      [
        "▁dusunuyoru",
        -9.623147717822057
      ],
      [
        "▁catı",
        -9.631958360429705
      ],
      [
        "▁arttırma",
        -10.874604160604251
      ],
      [
        "ler",
        -8.561113245009482
      ],
      [
        "▁kayıp",
        -9.54360947251431
      ],
      [
        "▁ki",
        -4.577539143697806
      ],
      [
        "▁alternatif",
        -10.107578943902633
      ],
      [
        "▁ed",
        -8.401875877190264
      ],
      [
        "▁edemez",
        -10.475966913724509
      ],
      [
        "er",
        -10.61205839064084
      ],
      [
        "▁hayran",
        -9.89530344140011
      ],
      [
        "▁kendini",
        -6.832826224031009
      ],
      [
        "▁alanda",
        -9.812923142508366
      ],
      [
        "ustur",
        -9.028855357473494
      ],
      [
        "▁cat",
        -9.259870805676654
      ],
      [
        "▁sokakta",
        -9.829158274924959
      ],
      [
        "▁stanley",
        -10.8891038379449
      ],
      [
        "▁keder",
        -10.473421532146498
      ],
      [
        "madıgı",
        -9.690666961226302
      ],
      [
        "▁mudur",
        -10.569581647065483
      ],
      [
        "▁iran",
        -10.742123174274559
      ],
      [
        "▁ugrayacak",
        -10.818531896264389
      ],
      [
        "▁tutuldu",
        -10.858446076254417
      ],
      [
        "▁devasa",
        -10.57461557532017
      ],
      [
        "▁kadınların",
        -10.054599807494656
      ],
      [
        "▁cemal",
        -10.81965334244655
      ],
      [
        "▁37",
        -9.086485923493704
      ],
      [
        "▁california'da",
        -10.730862249316568
      ],
      [
        "▁yıllarda",
        -9.39206137217703
      ],
      [
        "▁onay",
        -9.21347593843868
      ],
      [
        "▁daim",
        -9.388545972035962
      ],
      [
        "▁14",
        -8.071408203960583
      ],
      [
        "▁temas",
        -10.192641014980897
      ],
      [
        "▁deprem",
        -9.105913457648349
      ],
      [
        "stro",
        -10.264351420267193
      ],
      [
        "▁olmalı",
        -9.626957885648388
      ],
      [
        "▁cıkardı",
        -8.922693274900691
      ],
      [
        "▁acan",
        -10.585034613292596
      ],
      [
        "▁etkisi",
        -9.547243508701287
      ],
      [
        "▁gelecegi",
        -9.866933778827912
      ],
      [
        "▁99.1",
        -10.582521126907109
      ],
      [
        "▁tutmus",
        -10.56890829186273
      ],
      [
        "▁%7.8",
        -10.683931952813355
      ],
      [
        "▁cagır",
        -9.556601202213606
      ],
      [
        "▁bayagı",
        -10.64438788555232
      ],
      [
        "▁birligi",
        -9.27514887549436
      ],
      [
        "▁belirtildi",
        -10.751666569086723
      ],
      [
        "ograf",
        -10.378506232795921
      ],
      [
        "▁pozisyon",
        -9.674284626036087
      ],
      [
        "yse",
        -9.073660167339824
      ],
      [
        "▁vatandas",
        -9.674717736386395
      ],
      [
        "▁birlikte",
        -8.408555546501644
      ],
      [
        "▁irs",
        -10.81802755057225
      ],
      [
        "▁od",
        -9.96511974480468
      ],
      [
        "▁sefi",
        -10.143139622799438
      ],
      [
        "▁soylenir",
        -10.821278263249923
      ],
      [
        "▁rolu",
        -9.891337025075927
      ],
      [
        "▁teker",
        -10.106307989330787
      ],
      [
        "▁gonder",
        -9.502350797483267
      ],
      [
        "▁farklılık",
        -10.281199007283197
      ],
      [
        "▁japonya'",
        -10.291930960461206
      ],
      [
        "▁cocuklu",
        -8.150154710289826
      ],
      [
        "▁doktor",
        -8.777423484441915
      ],
      [
        "▁miami",
        -10.6274343250132
      ],
      [
        "▁buhar",
        -10.522199127437553
      ],
      [
        "9.2",
        -10.791611926756298
      ],
      [
        "▁iti",
        -9.711258695462478
      ],
      [
        "▁ırk",
        -10.68972109814998
      ],
      [
        "▁muhafazakar",
        -10.335100521049227
      ],
      [
        "▁ydi",
        -6.934268810392528
      ],
      [
        "▁kutlama",
        -10.64272200570058
      ],
      [
        "▁2.3",
        -9.999738725484406
      ],
      [
        "87",
        -11.566550520542979
      ],
      [
        "ebilir",
        -8.04842664888739
      ],
      [
        "▁bildigi",
        -9.76956520392796
      ],
      [
        "▁cok",
        -5.04793555809858
      ],
      [
        "▁aynı",
        -7.510145428198727
      ],
      [
        "4",
        -9.5754158912283
      ],
      [
        "▁cıkarır",
        -10.630779633973962
      ],
      [
        "lerdi",
        -10.730951152828887
      ],
      [
        "5.7",
        -10.318971386421392
      ],
      [
        "▁sogu",
        -9.994314075661912
      ],
      [
        "▁uretiyor",
        -10.694932944301307
      ],
      [
        "▁ların",
        -10.358136211971258
      ],
      [
        "▁yuz",
        -7.387323089183921
      ],
      [
        "72",
        -10.467610741066034
      ],
      [
        "▁emtia",
        -10.293411635080416
      ],
      [
        "▁dik",
        -8.84133786820156
      ],
      [
        "▁haklarını",
        -10.59277440379468
      ],
      [
        "▁etkisini",
        -10.697152580309178
      ],
      [
        "31",
        -10.285071516838899
      ],
      [
        "▁bizim",
        -6.222492561437722
      ],
      [
        "▁ayı",
        -9.038725956090023
      ],
      [
        "ster",
        -10.10353786224146
      ],
      [
        "minal",
        -10.426863141536657
      ],
      [
        "▁1974",
        -10.065244010153869
      ],
      [
        "▁nakit",
        -9.38945114288889
      ],
      [
        "▁damar",
        -9.900057270344899
      ],
      [
        "▁zamanında",
        -10.647752516421292
      ],
      [
        "▁tıbbi",
        -10.751003840990233
      ],
      [
        "▁ettigini",
        -9.233084316748311
      ],
      [
        "▁sevil",
        -10.368875806095664
      ],
      [
        "▁muayene",
        -10.629682265142964
      ],
      [
        "▁belli",
        -8.603180179958107
      ],
      [
        "▁gogsu",
        -10.035382846318347
      ],
      [
        "▁halat",
        -10.423201886847915
      ],
      [
        "▁ucmak",
        -8.542201837184876
      ],
      [
        "▁suleyman",
        -10.334942780306985
      ],
      [
        "▁baygın",
        -10.81948768365016
      ],
      [
        "▁satıslarını",
        -10.630900218724854
      ],
      [
        "▁edilir",
        -9.89678457297736
      ],
      [
        "cusu",
        -9.931529375877076
      ],
      [
        "o",
        -10.725630651579849
      ],
      [
        "▁kuyruk",
        -10.817670426241843
      ],
      [
        "▁gittik",
        -9.443567174932927
      ],
      [
        "▁yarat",
        -9.773381593790656
      ],
      [
        "▁o",
        -5.415287549922416
      ],
      [
        "▁surec",
        -9.63752117488676
      ],
      [
        "▁astı",
        -10.11425813157659
      ],
      [
        "▁lokasyon",
        -10.751630377139772
      ],
      [
        "▁baskı",
        -8.86003979799323
      ],
      [
        "▁yen",
        -8.86459227799386
      ],
      [
        "▁hekim",
        -10.177784087044012
      ],
      [
        "▁yakıs",
        -10.335025145317452
      ],
      [
        "▁forma",
        -10.827209919304277
      ],
      [
        "▁bat",
        -9.656275521625805
      ],
      [
        "▁vermisti",
        -10.264964543739879
      ],
      [
        "▁vurdu",
        -9.347790668773566
      ],
      [
        "▁guven",
        -8.595357719903369
      ],
      [
        "▁4.6",
        -10.156452873367982
      ],
      [
        "▁demin",
        -10.695740090144872
      ],
      [
        "▁yapmıs",
        -9.576680339886424
      ],
      [
        "▁isini",
        -9.595384058001459
      ],
      [
        "▁karısma",
        -10.5718148191434
      ],
      [
        "▁dusuncelerini",
        -10.52166826826334
      ],
      [
        "▁mur",
        -9.9395289277631
      ],
      [
        "▁saglayacak",
        -10.167046397910541
      ],
      [
        "▁uluslararası",
        -9.325341916741934
      ],
      [
        "▁soyledi",
        -6.736133350445195
      ],
      [
        "▁gibi",
        -4.36209696709702
      ],
      [
        "▁tanısma",
        -10.822337911489658
      ],
      [
        "▁baska",
        -7.370951733912165
      ],
      [
        "▁dokundu",
        -10.576174102058356
      ],
      [
        "▁turist",
        -10.144254783913565
      ],
      [
        "▁sigortacı",
        -10.144125150289295
      ],
      [
        "198",
        -10.731416531976514
      ],
      [
        "▁carptı",
        -10.356834909894532
      ],
      [
        "▁of",
        -9.899289348618371
      ],
      [
        "▁85",
        -10.185528823684125
      ],
      [
        "▁yak",
        -9.354249396044628
      ],
      [
        "ydı",
        -10.034324810756512
      ],
      [
        "▁kurus",
        -9.963119973573217
      ],
      [
        "▁vicdan",
        -10.47151219126389
      ],
      [
        "▁oran",
        -8.662572312508285
      ],
      [
        "▁dr.",
        -10.425327142272113
      ],
      [
        "▁zengin",
        -8.532673260543072
      ],
      [
        "▁1.3",
        -8.686349043806366
      ],
      [
        "▁surada",
        -10.888683670775977
      ],
      [
        "▁yildiz",
        -9.27988930172122
      ],
      [
        "▁zeytin",
        -9.979783645956768
      ],
      [
        "▁iskonto",
        -10.3784195442243
      ],
      [
        "-4",
        -11.354791702071255
      ],
      [
        "▁ba",
        -7.796867541496937
      ],
      [
        "ku",
        -11.295142931456333
      ],
      [
        "▁bekleniyor",
        -9.176738230581744
      ],
      [
        "▁civi",
        -10.233413491425264
      ],
      [
        "▁imkan",
        -9.559128611877647
      ],
      [
        "▁550",
        -10.58675290347122
      ],
      [
        "▁calıskan",
        -10.63038559728313
      ],
      [
        "ıl",
        -8.387714995321844
      ],
      [
        "▁calıyor",
        -10.477611403206483
      ],
      [
        "▁almıstı",
        -10.009443237233269
      ],
      [
        "▁basarili",
        -10.010998705806434
      ],
      [
        "▁sasır",
        -9.49798081917347
      ],
      [
        "▁istedigimi",
        -10.610228298766033
      ],
      [
        "sana",
        -10.379928442631538
      ],
      [
        "▁gorme",
        -9.536120551376325
      ],
      [
        "▁dolay",
        -10.181008794197854
      ],
      [
        "700",
        -10.653848653531371
      ],
      [
        "▁elindeki",
        -10.000147818230477
      ],
      [
        "▁vermeyi",
        -10.305889605525765
      ],
      [
        "▁yapılacak",
        -8.769534791818794
      ],
      [
        "▁siyasi",
        -9.356876238685535
      ],
      [
        "▁bufe",
        -9.951097596829259
      ],
      [
        "▁olacagını",
        -9.063567740973012
      ],
      [
        "▁gecmis",
        -8.50420326097963
      ],
      [
        "▁yarısma",
        -10.222994371311211
      ],
      [
        "▁takip",
        -9.169065907247838
      ],
      [
        "▁isvec",
        -10.688513503069123
      ],
      [
        "▁flor",
        -10.751097521004544
      ],
      [
        "▁gezer",
        -10.629777289619984
      ],
      [
        "▁saglamak",
        -9.885602781627673
      ],
      [
        "▁formul",
        -10.629711967916656
      ],
      [
        "▁bulgur",
        -10.751048865895799
      ],
      [
        "▁bugunku",
        -10.215217846995207
      ],
      [
        "▁ismail",
        -10.629686766513867
      ],
      [
        "ladım",
        -9.800251714640352
      ],
      [
        "▁akım",
        -10.587255635149848
      ],
      [
        "▁bildir",
        -10.00045882346258
      ],
      [
        "▁gozu",
        -8.772318232696295
      ],
      [
        "▁sevdigi",
        -9.458318293113354
      ],
      [
        "tıgını",
        -9.891305413102382
      ],
      [
        "▁iyimser",
        -10.010809445707883
      ],
      [
        "▁kesme",
        -10.092026546417761
      ],
      [
        "▁ucuslarını",
        -7.789999309236502
      ],
      [
        "▁uygula",
        -10.567579818444804
      ],
      [
        "▁kahvaltı",
        -9.719234121213312
      ],
      [
        "▁arı",
        -9.650809373619364
      ],
      [
        "dı",
        -6.432901665981323
      ],
      [
        "▁yoksun",
        -10.192114281947237
      ],
      [
        "ecek",
        -7.592353467940873
      ],
      [
        "▁to",
        -12.751217036694445
      ],
      [
        "▁binler",
        -10.190449789854878
      ],
      [
        "yuzseksen",
        -10.322102061271394
      ],
      [
        "▁usta",
        -9.092641557298164
      ],
      [
        "▁uzum",
        -10.087896044198597
      ],
      [
        "▁gelmisti",
        -9.763084602377521
      ],
      [
        "▁kim",
        -9.46208256852926
      ],
      [
        "▁anket",
        -8.561179208997185
      ],
      [
        "▁atıyor",
        -9.918809662008753
      ],
      [
        "▁alınma",
        -10.315148839248035
      ],
      [
        "▁intel",
        -10.752257439999152
      ],
      [
        "▁kapattı",
        -9.910192988218782
      ],
      [
        "▁200",
        -8.144482062339698
      ],
      [
        "senin",
        -8.862336679571293
      ],
      [
        "▁kırdı",
        -10.551361536537001
      ],
      [
        "▁%4",
        -10.363704693096357
      ],
      [
        "larındaki",
        -9.679453582646168
      ],
      [
        "▁azaltma",
        -10.184067470992659
      ],
      [
        "z",
        -14.190853728377773
      ],
      [
        "▁yuzun",
        -9.856677661817068
      ],
      [
        "da",
        -5.580688330948141
      ],
      [
        "▁iktidar",
        -9.742490378991635
      ],
      [
        "ir",
        -7.694350183988116
      ],
      [
        "▁ay",
        -7.284317145308679
      ],
      [
        "%10",
        -13.63797741196559
      ],
      [
        "▁yayıncı",
        -10.611533610360663
      ],
      [
        "▁gorusuldu",
        -7.296609558448456
      ],
      [
        "▁agzın",
        -9.990101593167935
      ],
      [
        "▁dolandırıcı",
        -10.52149346484195
      ],
      [
        "▁lokanta",
        -10.041988231201174
      ],
      [
        "▁kursun",
        -9.5207290512443
      ],
      [
        "▁yukselis",
        -10.000075736744773
      ],
      [
        "binbir",
        -10.307879826362921
      ],
      [
        "-1",
        -12.56517605486793
      ],
      [
        "mesini",
        -8.947113420861635
      ],
      [
        "▁yolculuk",
        -9.743522578239505
      ],
      [
        "▁calısıl",
        -10.441184148543437
      ],
      [
        "▁yarı",
        -8.53236582032709
      ],
      [
        "▁gelen",
        -7.765014329493674
      ],
      [
        "▁aktiviteler",
        -10.253650557190026
      ],
      [
        "hepsi",
        -10.44660760275194
      ],
      [
        "▁karsiladi",
        -9.632551610633374
      ],
      [
        "▁politika",
        -9.047494994967925
      ],
      [
        "tım",
        -9.547104334502876
      ],
      [
        "▁gordugunu",
        -10.746863858498592
      ],
      [
        "▁dir",
        -7.302651398842159
      ],
      [
        "▁programı",
        -9.268928782877792
      ],
      [
        "▁hayatı",
        -9.516231199018865
      ],
      [
        "nuz",
        -9.518044867195085
      ],
      [
        "▁cografya",
        -10.751008444143276
      ],
      [
        "boy",
        -10.618621469485278
      ],
      [
        "▁egili",
        -10.159093105649575
      ],
      [
        "t",
        -5.4353364239851345
      ],
      [
        "▁belirti",
        -9.715010507537922
      ],
      [
        "▁pisiri",
        -9.930566805749637
      ],
      [
        "▁em",
        -8.800702620712906
      ],
      [
        "▁donme",
        -9.291787816324362
      ],
      [
        "▁ongordu",
        -10.806009280949256
      ],
      [
        "▁sorular",
        -10.193778188059477
      ],
      [
        "▁musteriler",
        -9.73155343585614
      ],
      [
        "▁espri",
        -10.889129843907789
      ],
      [
        "▁kitap",
        -8.83778065783115
      ],
      [
        "▁yoneticiler",
        -10.360852170072572
      ],
      [
        "▁nuk",
        -10.122356335960394
      ],
      [
        "pır",
        -10.285936051152301
      ],
      [
        "'da",
        -9.16403921981313
      ],
      [
        "▁ayagı",
        -9.466427589395519
      ],
      [
        "▁garanti",
        -9.45776545911589
      ],
      [
        "ter",
        -8.696835432461155
      ],
      [
        "▁big",
        -10.26392929260089
      ],
      [
        "▁ohio",
        -10.688506974959042
      ],
      [
        "▁yaptırdı",
        -10.584104949451353
      ],
      [
        "▁sıra",
        -8.01871663600955
      ],
      [
        "▁saga",
        -10.192850516940434
      ],
      [
        "▁otesinde",
        -10.427492054582931
      ],
      [
        "yum",
        -9.975111768299772
      ],
      [
        "▁profesyonel",
        -9.980434515402658
      ],
      [
        "▁yazıyor",
        -10.326698237347092
      ],
      [
        "▁gectigi",
        -10.273890726413834
      ],
      [
        "▁gerektigi",
        -10.7666534365934
      ],
      [
        "▁duvar",
        -8.841852976379986
      ],
      [
        "ıyorlar",
        -9.31656897407343
      ],
      [
        "ımı",
        -8.72275775784415
      ],
      [
        "▁ele",
        -8.607704254524478
      ],
      [
        "(",
        -6.128634380103216
      ],
      [
        "uyordu",
        -8.905305428854515
      ],
      [
        "▁ecekti",
        -9.815637890076928
      ],
      [
        "ıp",
        -7.294215657061424
      ],
      [
        "ligi",
        -7.640063061180054
      ],
      [
        "▁ederdi",
        -9.964030930201936
      ],
      [
        "▁soyleme",
        -9.855001235780323
      ],
      [
        "birini",
        -10.263332186223007
      ],
      [
        "▁aqua",
        -10.214813028593895
      ],
      [
        "▁peyniri",
        -10.523397358673755
      ],
      [
        "▁ille",
        -10.556951441740917
      ],
      [
        "nca",
        -8.871592476248708
      ],
      [
        "▁karın",
        -9.783425189487756
      ],
      [
        "▁tehdidi",
        -10.57412487027102
      ],
      [
        "▁kral",
        -9.551330887139695
      ],
      [
        "agı",
        -8.89668902515843
      ],
      [
        "▁koy",
        -7.9864260115054
      ],
      [
        "▁kalmaz",
        -10.54093908952663
      ],
      [
        "▁yuru",
        -8.808899994608929
      ],
      [
        "▁kendiniz",
        -9.659975854683289
      ],
      [
        "▁meksika",
        -10.521493471264256
      ],
      [
        "▁tahmini",
        -9.792256801054913
      ],
      [
        "▁konya",
        -10.411479371163761
      ],
      [
        "▁onda",
        -7.567065664976884
      ],
      [
        "▁modern",
        -9.980461169773042
      ],
      [
        "▁fonları",
        -9.628316814594603
      ],
      [
        "▁hosgoru",
        -10.889099614191341
      ],
      [
        "▁hukumet",
        -8.523530177945005
      ],
      [
        "▁degerlendir",
        -10.041886126649711
      ],
      [
        "▁hamle",
        -9.347628536717078
      ],
      [
        "▁merkezli",
        -9.561635731728469
      ],
      [
        "▁verdi",
        -7.860473129565184
      ],
      [
        "▁soruyor",
        -10.2367366365072
      ],
      [
        "▁cadır",
        -10.074706393712477
      ],
      [
        "▁lokma",
        -10.178304533081542
      ],
      [
        "▁cakıl",
        -10.65710578371507
      ],
      [
        "▁olusturdu",
        -10.254674508872808
      ],
      [
        "▁cagın",
        -10.601192273968554
      ],
      [
        "▁milletin",
        -10.257391511606988
      ],
      [
        "▁atma",
        -10.268571627014932
      ],
      [
        "▁ingiltere'de",
        -10.70707159796644
      ],
      [
        "▁pesinde",
        -9.772680949208443
      ],
      [
        "2",
        -9.343103933683576
      ],
      [
        "▁gunah",
        -9.697018135860727
      ],
      [
        "▁annem",
        -8.574076688058888
      ],
      [
        "▁de",
        -9.29558926803189
      ],
      [
        "▁38",
        -9.239513639875167
      ],
      [
        "▁ortam",
        -9.309345020034053
      ],
      [
        "▁sıkıntı",
        -9.043554777971405
      ],
      [
        "sek",
        -9.754123511426966
      ],
      [
        "abilecek",
        -9.54922890663122
      ],
      [
        "yle",
        -6.852189263506876
      ],
      [
        "▁zehir",
        -10.156590437697023
      ],
      [
        "▁is",
        -6.993170349575008
      ],
      [
        "▁uygulamaları",
        -10.446648590037391
      ],
      [
        ".9",
        -10.157851180970589
      ],
      [
        "▁hanım",
        -8.640589526115956
      ],
      [
        "▁airlines",
        -8.783020267119287
      ],
      [
        "▁seri",
        -8.897499556392344
      ],
      [
        "▁kocası",
        -10.089637694024809
      ],
      [
        "▁fıstık",
        -10.889098991167558
      ],
      [
        "▁dibin",
        -10.432630921858406
      ],
      [
        "yon",
        -8.928032174965992
      ],
      [
        "▁olumlu",
        -9.296500496608807
      ],
      [
        "▁isteyen",
        -9.373651763207896
      ],
      [
        "▁babam",
        -8.76665185154858
      ],
      [
        "▁ek",
        -8.487858153039685
      ],
      [
        "cı",
        -11.34265800487346
      ],
      [
        "▁ytl",
        -10.889125429626056
      ],
      [
        "▁servisi",
        -8.91933631638846
      ],
      [
        "▁kızları",
        -10.370735487399969
      ],
      [
        "▁150",
        -8.858990735961797
      ],
      [
        "niz",
        -10.482459069296329
      ],
      [
        "▁cıv",
        -10.472988799486036
      ],
      [
        "▁bekley",
        -10.108597406920588
      ],
      [
        "gan",
        -8.929018109839223
      ],
      [
        "▁daha",
        -5.742934854267505
      ],
      [
        "▁aralık",
        -8.84433665267485
      ],
      [
        "▁listeley",
        -7.854470764665369
      ],
      [
        "▁geldiginde",
        -10.760164168072757
      ],
      [
        "▁journal",
        -10.142061719494142
      ],
      [
        "▁bicimi",
        -10.124706047733786
      ],
      [
        "mısını",
        -9.042412961741162
      ],
      [
        "0'",
        -9.052401776303565
      ],
      [
        "▁donem",
        -9.095364253145213
      ],
      [
        "mislerdi",
        -10.061670431060174
      ],
      [
        "liginden",
        -9.896018005005416
      ],
      [
        "▁gorse",
        -10.180197553338934
      ],
      [
        "▁nitelik",
        -10.350150609545175
      ],
      [
        "▁lang",
        -10.69025682539533
      ],
      [
        "▁62",
        -9.493396921642924
      ],
      [
        "▁ayarlama",
        -10.526399073327013
      ],
      [
        "degil",
        -8.602188547895151
      ],
      [
        "▁az",
        -6.8810234379369835
      ],
      [
        "▁amacla",
        -10.460428324902455
      ],
      [
        "▁houston",
        -10.232326509120979
      ],
      [
        "olog",
        -10.61881222651349
      ],
      [
        "▁ekim'de",
        -10.57695363741184
      ],
      [
        "▁birbirlerini",
        -8.697935612590925
      ],
      [
        "▁2.4",
        -9.51132940065262
      ],
      [
        "▁girer",
        -9.419824527058136
      ],
      [
        "▁dort",
        -6.461747336534862
      ],
      [
        "leyecek",
        -10.022734910147168
      ],
      [
        "▁sevda",
        -10.195734623229773
      ],
      [
        "▁yazılı",
        -10.46391039673506
      ],
      [
        "▁'lu",
        -10.01260217427646
      ],
      [
        "▁oldugunu",
        -8.734847030904774
      ],
      [
        "▁guverte",
        -10.574130129912113
      ],
      [
        "'nda",
        -9.515871116441007
      ],
      [
        "▁north",
        -9.531240554190816
      ],
      [
        "▁karsili",
        -10.286590989499762
      ],
      [
        "▁turlari",
        -10.528288372182228
      ],
      [
        "▁beye",
        -10.058900163462125
      ],
      [
        "▁gercegi",
        -10.084480063739164
      ],
      [
        "▁cemil",
        -10.576126464138712
      ],
      [
        "▁7\\/",
        -8.72073896077232
      ],
      [
        "▁yoneticileri",
        -9.526876909804537
      ],
      [
        "▁260",
        -10.758500857706528
      ],
      [
        "▁and",
        -10.561971736375888
      ],
      [
        "▁miktar",
        -10.210539574483992
      ],
      [
        "▁gorulme",
        -10.374844090952536
      ],
      [
        "▁bunal",
        -10.110823340142096
      ],
      [
        "ki",
        -5.885453486668912
      ],
      [
        "▁kapali",
        -10.295796999378204
      ],
      [
        "▁piyano",
        -10.423882468259979
      ],
      [
        "▁kenarında",
        -10.273224327097623
      ],
      [
        "la",
        -5.9388589579733875
      ],
      [
        "▁kucumse",
        -10.751181617288468
      ],
      [
        "▁calismasi",
        -10.334962904977509
      ],
      [
        "▁nisan'da",
        -10.337544093103073
      ],
      [
        "▁21",
        -10.531831470106793
      ],
      [
        "koy",
        -10.135637094859938
      ],
      [
        "▁ardı",
        -9.451458198429824
      ],
      [
        "▁dayan",
        -8.953513989300827
      ],
      [
        "▁gitmedi",
        -10.450432034122873
      ],
      [
        "▁birisi",
        -7.911313708072835
      ],
      [
        "▁vitrin",
        -10.889114567828878
      ],
      [
        "▁hakkını",
        -10.50577889997078
      ],
      [
        "▁aklını",
        -10.467317044917772
      ],
      [
        "▁yumusa",
        -10.326136230714043
      ],
      [
        "▁musun",
        -8.285459285682773
      ],
      [
        "▁washington'",
        -8.877618808970523
      ],
      [
        "▁his",
        -9.906495620865922
      ],
      [
        "▁domuz",
        -10.84471690075965
      ],
      [
        "▁secenegi",
        -10.521505644869773
      ],
      [
        "▁arzu",
        -9.567035404640166
      ],
      [
        "li",
        -8.963794952668183
      ],
      [
        "ılmıs",
        -8.521918994998835
      ],
      [
        "▁1.25",
        -10.228792362022869
      ],
      [
        "lıkla",
        -9.185427695771448
      ],
      [
        "ap",
        -10.192721962100757
      ],
      [
        "o",
        -4.4249591214071105
      ],
      [
        "rası",
        -10.607892597440218
      ],
      [
        "▁duyma",
        -9.597998903910282
      ],
      [
        "▁milyon",
        -5.185931877072128
      ],
      [
        "▁denver'",
        -7.7624886800322415
      ],
      [
        "▁muhamme",
        -10.751010552476084
      ],
      [
        "▁19.",
        -10.17752749623879
      ],
      [
        "▁bugday",
        -9.89467424106919
      ],
      [
        "sh",
        -9.669736018094312
      ],
      [
        "▁oturmus",
        -9.708413061280883
      ],
      [
        "▁yolları",
        -10.34561147879699
      ],
      [
        "▁brothers",
        -10.751003762772708
      ],
      [
        "▁onlem",
        -9.986849980835586
      ],
      [
        "▁kız",
        -7.943973454844125
      ],
      [
        "▁olmadıgını",
        -8.755468285150704
      ],
      [
        "ish",
        -10.215277701785038
      ],
      [
        "3.7",
        -9.817076998536024
      ],
      [
        "▁amerikalı",
        -9.443380904380263
      ],
      [
        "▁imzaladı",
        -10.633482455370217
      ],
      [
        "▁ve",
        -2.9561960527091937
      ],
      [
        "san",
        -8.617914690386772
      ],
      [
        "liydi",
        -8.622274077447
      ],
      [
        "▁bar",
        -8.702636981137445
      ],
      [
        "▁oz",
        -8.384043584965701
      ],
      [
        "▁kurulus",
        -10.120811345471372
      ],
      [
        "▁asagıdaki",
        -10.530220651266983
      ],
      [
        "▁mat",
        -9.490165032097224
      ],
      [
        "yle",
        -8.001576640012933
      ],
      [
        "▁eren",
        -10.402076125712567
      ],
      [
        "▁bunlar",
        -6.623126046805661
      ],
      [
        "▁tar",
        -9.349853087315903
      ],
      [
        "▁1980",
        -9.541001181325427
      ],
      [
        "▁bulunur",
        -10.164512031575082
      ],
      [
        "▁meclis",
        -9.402908913670355
      ],
      [
        "nin",
        -6.125064784084198
      ],
      [
        "▁etmekte",
        -9.467509361271151
      ],
      [
        "den",
        -8.05560578784303
      ],
      [
        "u",
        -5.830923563296428
      ],
      [
        "▁louis'te",
        -10.281580973330303
      ],
      [
        "▁iki",
        -4.84812175613624
      ],
      [
        "▁oysa",
        -8.598002639171483
      ],
      [
        "▁ilgisi",
        -9.21930280328067
      ],
      [
        "▁yonu",
        -10.001649489394222
      ],
      [
        "▁kıyaslan",
        -9.757036413371697
      ],
      [
        "2.2",
        -10.75475064867124
      ],
      [
        "▁sozu",
        -9.000746396855048
      ],
      [
        "▁akraba",
        -10.378438974211598
      ],
      [
        "▁yiyor",
        -10.274839400487728
      ],
      [
        "▁can",
        -7.9919279218885775
      ],
      [
        "▁vali",
        -9.754397057844821
      ],
      [
        "ve",
        -5.892970926178803
      ],
      [
        "▁alakaliydi",
        -10.381141778868187
      ],
      [
        "▁kesi",
        -9.36270829341288
      ],
      [
        "este",
        -10.216797740935352
      ],
      [
        "▁suphe",
        -9.456993716447535
      ],
      [
        "▁fasulye",
        -10.142063729923503
      ],
      [
        "▁vurma",
        -10.186481248179335
      ],
      [
        "dur",
        -7.659836676129851
      ],
      [
        "▁jose",
        -10.629434778791062
      ],
      [
        "▁op",
        -9.770503383765503
      ],
      [
        "▁40.1",
        -11.018623284439725
      ],
      [
        "▁charlotte'de",
        -9.726351892978872
      ],
      [
        "▁evler",
        -10.124859228935575
      ],
      [
        "▁belirte",
        -10.559499484701433
      ],
      [
        "▁sogan",
        -9.816134402530995
      ],
      [
        "st",
        -8.333526778821431
      ],
      [
        "midi",
        -10.234213056908338
      ],
      [
        "cu",
        -8.943905749479217
      ],
      [
        "▁zaman",
        -6.822560955559598
      ],
      [
        "▁muduru",
        -9.289275069447221
      ],
      [
        "▁toplum",
        -8.764703044618708
      ],
      [
        "▁cigne",
        -10.695714319483791
      ],
      [
        "▁surecek",
        -10.613475493623124
      ],
      [
        "▁baslarında",
        -10.230394982645748
      ],
      [
        "olar",
        -7.153116283606411
      ],
      [
        "▁birileri",
        -9.482485129175965
      ],
      [
        "▁ugrama",
        -10.839049722630719
      ],
      [
        "▁one",
        -9.780608105965433
      ],
      [
        "▁aldı",
        -7.542386556335737
      ],
      [
        "▁yararlanmadi",
        -10.68852891534435
      ],
      [
        "▁fransız",
        -9.491996611680264
      ],
      [
        "▁ar",
        -8.18776992722396
      ],
      [
        "▁yayla",
        -10.303753849203732
      ],
      [
        "▁asil",
        -10.230188175187243
      ],
      [
        "▁gidilebil",
        -10.633458903387151
      ],
      [
        "▁harcama",
        -9.471095586646852
      ],
      [
        "▁nasıl",
        -7.725263798863232
      ],
      [
        "herkes",
        -10.46722621044187
      ],
      [
        "▁700.",
        -10.888247410819082
      ],
      [
        "yedi",
        -8.957221228301936
      ],
      [
        "degili",
        -11.009634623297783
      ],
      [
        "▁etmez",
        -9.669292575286892
      ],
      [
        "diklerini",
        -10.28276262081831
      ],
      [
        "87.5",
        -10.15696652924954
      ],
      [
        "▁itfa",
        -10.81838919854289
      ],
      [
        "baska",
        -10.751556531041588
      ],
      [
        "▁senedi",
        -8.297590576164787
      ],
      [
        "▁luzum",
        -10.574136344395672
      ],
      [
        "▁iner",
        -10.682018587159675
      ],
      [
        "ılmaya",
        -10.65181092951927
      ],
      [
        "▁nasdaq",
        -10.21481302684553
      ],
      [
        "▁uyan",
        -9.595543893804168
      ],
      [
        "▁fil",
        -10.039142615818697
      ],
      [
        "▁yonetici",
        -9.641891441856636
      ],
      [
        "▁secenekleri",
        -10.60993591897202
      ],
      [
        "▁oturma",
        -9.506945590917317
      ],
      [
        "▁olmadıgı",
        -8.958308756324282
      ],
      [
        "▁ip",
        -9.528826454585115
      ],
      [
        "▁oturum",
        -10.2872046972689
      ],
      [
        "▁oburu",
        -9.457000074137701
      ],
      [
        "▁tencere",
        -10.041987637712467
      ],
      [
        "▁ust",
        -8.464240709848799
      ],
      [
        "▁girince",
        -10.689615584728047
      ],
      [
        "▁yatar",
        -10.634406326321947
      ],
      [
        "▁78",
        -10.25065034304559
      ],
      [
        "dim",
        -8.025173282532712
      ],
      [
        "▁yerde",
        -8.188705417868213
      ],
      [
        "j",
        -8.633899497362899
      ],
      [
        "▁elini",
        -9.102965542093251
      ],
      [
        "▁cil",
        -9.36855992001846
      ],
      [
        "▁yavaslama",
        -10.634575894137145
      ],
      [
        "sı",
        -6.088644918240216
      ],
      [
        "▁ihlal",
        -10.817670933999121
      ],
      [
        "▁okuyor",
        -10.340971564326098
      ],
      [
        "▁kara",
        -7.856395217059061
      ],
      [
        "onlar",
        -9.411444122687692
      ],
      [
        "▁zeki",
        -9.95107592242634
      ],
      [
        "▁23.",
        -10.550791494771145
      ],
      [
        "larından",
        -7.958980177435498
      ],
      [
        "▁dal",
        -8.527155357063886
      ],
      [
        "ucu",
        -9.522373099117019
      ],
      [
        "▁personellerin",
        -9.33382482390607
      ],
      [
        "▁bell",
        -10.160180261418713
      ],
      [
        "▁eser",
        -9.22391862583515
      ],
      [
        "▁satısı",
        -9.498582749706937
      ],
      [
        "-199",
        -12.825449727997478
      ],
      [
        "▁rekor",
        -9.867689574126977
      ],
      [
        "▁arif",
        -10.752482582390709
      ],
      [
        "▁hotel",
        -10.57443761109398
      ],
      [
        "▁$'",
        -9.043500246050431
      ],
      [
        "▁.",
        -7.588598483541113
      ],
      [
        "▁alınması",
        -9.94399247834847
      ],
      [
        "un",
        -10.342086221408533
      ],
      [
        "▁herkeste",
        -9.96599783763588
      ],
      [
        "▁butun",
        -7.1886448927821345
      ],
      [
        "▁tamam",
        -7.928514241177453
      ],
      [
        "amadı",
        -9.080378171576264
      ],
      [
        "▁tabir",
        -10.465194559159581
      ],
      [
        "ji",
        -9.458398678633785
      ],
      [
        "▁icra",
        -9.746231362030564
      ],
      [
        "▁eroin",
        -10.01093325537737
      ],
      [
        "▁sordu",
        -8.847382658038043
      ],
      [
        "▁ba",
        -8.061565120220624
      ],
      [
        "▁cekmek",
        -10.045694419251838
      ],
      [
        "▁icme",
        -9.169324724680473
      ],
      [
        "d",
        -5.077362734358636
      ],
      [
        "▁bardagı",
        -9.74282434060833
      ],
      [
        "▁iplik",
        -10.639456049777902
      ],
      [
        "▁kirec",
        -10.751037080852816
      ],
      [
        "▁bulma",
        -9.737677579245364
      ],
      [
        "▁egilimi",
        -10.819276709750135
      ],
      [
        "▁pas",
        -9.394632498307008
      ],
      [
        "▁160",
        -10.2698148189397
      ],
      [
        "▁soyley",
        -9.658830990886548
      ],
      [
        "larımızı",
        -9.153370460235159
      ],
      [
        "▁bakkal",
        -10.25347061615112
      ],
      [
        "▁yetkisi",
        -10.47737934610369
      ],
      [
        "▁36",
        -9.558374476628076
      ],
      [
        "▁15000",
        -10.523997784269115
      ],
      [
        "▁500",
        -8.369384007022514
      ],
      [
        "izim",
        -10.10999845894959
      ],
      [
        "▁birimleri",
        -10.533953316594491
      ],
      [
        "man",
        -8.030706817078974
      ],
      [
        "▁benzeye",
        -10.483846048716462
      ],
      [
        "▁yasar",
        -9.696669059605235
      ],
      [
        "[CLS]",
        0.0
      ],
      [
        "▁sa",
        -8.328952601184692
      ],
      [
        "▁degisiklikler",
        -9.722673752880308
      ],
      [
        "▁kırk",
        -7.941980051663087
      ],
      [
        "▁siz",
        -6.276467912461138
      ],
      [
        "▁ulastı",
        -9.046000359099498
      ],
      [
        "▁yolda",
        -9.051518806004383
      ],
      [
        "198",
        -13.651276886405913
      ],
      [
        "▁ilgileniyor",
        -10.14368398930498
      ],
      [
        "▁kendinizi",
        -9.064126104649338
      ],
      [
        "▁duzeltme",
        -10.28820196984197
      ],
      [
        "▁yeter",
        -8.942514740773792
      ],
      [
        "▁zorunlu",
        -9.867666172617522
      ],
      [
        "▁beni",
        -6.136918772172587
      ],
      [
        "▁99",
        -9.95661725335496
      ],
      [
        "6.9",
        -10.490354933540225
      ],
      [
        "▁olursa",
        -8.818756338566224
      ],
      [
        "▁sekreter",
        -9.951023536822312
      ],
      [
        "mayan",
        -8.903881813128107
      ],
      [
        "▁142.",
        -10.684765078100533
      ],
      [
        "▁uzadı",
        -10.81805155887922
      ],
      [
        "▁borsasında",
        -10.571772815446423
      ],
      [
        "▁uzattı",
        -10.49998946884118
      ],
      [
        "4000",
        -10.33227685369215
      ],
      [
        "ha",
        -11.873864725637612
      ],
      [
        "▁ailesi",
        -9.613605897476265
      ],
      [
        "▁kurtuldu",
        -10.639481505497729
      ],
      [
        "l",
        -6.217016596249758
      ],
      [
        "nı",
        -7.71052470967095
      ],
      [
        "gimi",
        -9.771268478360168
      ],
      [
        "▁yitir",
        -9.818782550603443
      ],
      [
        "▁ogret",
        -9.93162429079105
      ],
      [
        "▁vatan",
        -9.514780367708937
      ],
      [
        "▁faaliyet",
        -8.971711314591722
      ],
      [
        "▁ayna",
        -9.254702489024567
      ],
      [
        "▁tek",
        -7.085450548040491
      ],
      [
        "▁tarife",
        -9.464035887735275
      ],
      [
        "diler",
        -9.765298234363025
      ],
      [
        "▁on",
        -8.09825374244956
      ],
      [
        "▁uret",
        -8.90910024584688
      ],
      [
        "▁etraf",
        -9.748400035590109
      ],
      [
        "▁gelecekte",
        -9.757411318555
      ],
      [
        "▁nur",
        -9.766229926318045
      ],
      [
        "▁cogu",
        -7.787547373785652
      ],
      [
        "▁gelmiyor",
        -10.476229510538726
      ],
      [
        "▁verici",
        -9.572130530490364
      ],
      [
        "▁borclu",
        -10.386790377058507
      ],
      [
        "▁ev",
        -7.4446814827606484
      ],
      [
        "▁kop",
        -10.09943343422973
      ],
      [
        "▁cekisme",
        -10.818093530302768
      ],
      [
        "▁degilse",
        -8.67508121348586
      ],
      [
        "▁ets",
        -9.227510924271202
      ],
      [
        "▁pirinc",
        -10.142063579906551
      ],
      [
        "▁ambar",
        -10.52151132166416
      ],
      [
        "▁sahibi",
        -8.812072201102461
      ],
      [
        "rdı",
        -9.329440890813265
      ],
      [
        "▁derken",
        -9.847173635357322
      ],
      [
        "▁surme",
        -10.011215127702782
      ],
      [
        "▁borsası",
        -8.881173914243128
      ],
      [
        "▁hissedarları",
        -10.574459071245817
      ],
      [
        "▁56",
        -10.807443123191756
      ],
      [
        "▁saadet",
        -10.52153341242547
      ],
      [
        "altı",
        -9.67109741420516
      ],
      [
        "@",
        -12.809526790838989
      ],
      [
        "▁benze",
        -9.877592265686234
      ],
      [
        "44",
        -10.496928401392509
      ],
      [
        "▁v",
        -8.1118888222484
      ],
      [
        "▁fransa'",
        -10.36069231045549
      ],
      [
        "▁demek",
        -8.582590246356606
      ],
      [
        "▁nedeni",
        -8.774179843818473
      ],
      [
        "▁parcasını",
        -10.713376417855827
      ],
      [
        "▁kıvra",
        -10.521493443979978
      ],
      [
        "▁dilim",
        -9.607766052755228
      ],
      [
        "▁sofor",
        -10.142072126867946
      ],
      [
        "▁goster",
        -6.660718044491787
      ],
      [
        "▁arac",
        -9.378128404591223
      ],
      [
        "▁adil",
        -10.53534152291625
      ],
      [
        "▁ailece",
        -10.482014089050606
      ],
      [
        "▁kusu",
        -10.60818489298394
      ],
      [
        "▁bilesik",
        -9.440677650956417
      ],
      [
        "▁michael",
        -10.574124682692943
      ],
      [
        "▁kuvvet",
        -9.18665047708774
      ],
      [
        "la",
        -7.417516293723048
      ],
      [
        "▁sacı",
        -10.634963070004197
      ],
      [
        "▁bildiril",
        -10.615543985762134
      ],
      [
        "▁ortak",
        -8.87084154342686
      ],
      [
        "▁bunun",
        -6.1361933051979545
      ],
      [
        "▁mana",
        -9.439190483530883
      ],
      [
        "en",
        -7.834124913301681
      ],
      [
        "▁hızlandır",
        -10.774248402323023
      ],
      [
        "▁353",
        -10.9188003513503
      ],
      [
        "▁maz",
        -9.901873583641683
      ],
      [
        "▁alcak",
        -10.4279352843958
      ],
      [
        "▁sebebi",
        -9.590028201181136
      ],
      [
        "▁puanlama",
        -10.007256090372458
      ],
      [
        "▁gozum",
        -10.045512888160596
      ],
      [
        "▁nese",
        -9.672157400037008
      ],
      [
        "yuzelli",
        -9.984798290268985
      ],
      [
        "▁ce",
        -10.279692747770051
      ],
      [
        "▁mah",
        -9.07935768735598
      ],
      [
        "▁0.1",
        -9.205788647950406
      ],
      [
        "▁yunanistan",
        -10.817770353069717
      ],
      [
        "▁borsası'nda",
        -9.815934073827352
      ],
      [
        "▁sezginler",
        -10.817672964726453
      ],
      [
        "▁gidecek",
        -9.927301216905809
      ],
      [
        "▁atesi",
        -10.296994498145734
      ],
      [
        "76",
        -9.922494579454352
      ],
      [
        "▁57",
        -8.71809689298287
      ],
      [
        "▁seattle'",
        -9.166418298085205
      ],
      [
        "▁rezervasyonlar",
        -10.69546197960971
      ],
      [
        "a",
        -3.993233274470425
      ],
      [
        "▁hepsini",
        -7.524949703003487
      ],
      [
        "▁icin",
        -8.758185516859182
      ],
      [
        "▁kongre",
        -9.031880511532515
      ],
      [
        "▁ları",
        -10.238796932443247
      ],
      [
        "▁dortyuz",
        -10.328547290058722
      ],
      [
        "▁yasamın",
        -10.31432525870283
      ],
      [
        "▁degerlendiril",
        -10.492673289361463
      ],
      [
        "▁orkestra",
        -10.817670414761404
      ],
      [
        "▁kisisel",
        -9.342670332899084
      ],
      [
        "▁tarihte",
        -10.19917069335832
      ],
      [
        "▁calıs",
        -9.07074227769592
      ],
      [
        "▁savas",
        -8.635287500683862
      ],
      [
        "▁vah",
        -9.613085966710402
      ],
      [
        "▁kul",
        -8.707391008709092
      ],
      [
        "▁otede",
        -10.350846632554873
      ],
      [
        "▁getir",
        -8.84635586038371
      ],
      [
        "▁album",
        -10.5215858339694
      ],
      [
        "▁duygularını",
        -10.41206812841466
      ],
      [
        "▁elleri",
        -9.158888050913102
      ],
      [
        "13",
        -12.652351546617641
      ],
      [
        "▁yani",
        -6.940966782202292
      ],
      [
        "▁durumunda",
        -9.901560176698641
      ],
      [
        "kl",
        -10.728123182460942
      ],
      [
        "▁gerektiriyor",
        -10.688551252300446
      ],
      [
        "▁kararlı",
        -10.223138884671926
      ],
      [
        "sta",
        -9.628237011463423
      ],
      [
        "eci",
        -11.809606674317426
      ],
      [
        "▁kapsamında",
        -10.425898343708521
      ],
      [
        "▁ucret",
        -7.327625554721026
      ],
      [
        "▁yolunda",
        -10.044985376919332
      ],
      [
        "▁beyin",
        -9.614648827334632
      ],
      [
        "▁dag",
        -8.908481372573645
      ],
      [
        "▁yogun",
        -9.227802281743665
      ],
      [
        "▁belinde",
        -10.840479691718166
      ],
      [
        "▁columbia",
        -10.889099063895362
      ],
      [
        "▁korka",
        -10.34498232594483
      ],
      [
        "▁corp",
        -10.000855968773907
      ],
      [
        "▁genclik",
        -10.353582183443738
      ],
      [
        "▁mucevher",
        -10.688503748326447
      ],
      [
        "▁fırın",
        -9.911961109206139
      ],
      [
        "▁9.7",
        -10.056232456657582
      ],
      [
        "▁evlenme",
        -10.217975061735352
      ],
      [
        "▁egi",
        -10.286434976840532
      ],
      [
        "▁ontario'",
        -10.756402897482346
      ],
      [
        "daki",
        -8.06277461708427
      ],
      [
        "▁18.7",
        -10.655048398053445
      ],
      [
        "▁arkasında",
        -9.098992402684235
      ],
      [
        "▁sabahı",
        -8.2640034243705
      ],
      [
        "▁anne",
        -8.77699490023841
      ],
      [
        "▁denge",
        -9.83590227743567
      ],
      [
        "▁gunde",
        -9.024126552997767
      ],
      [
        "kın",
        -10.080077306966285
      ],
      [
        "▁alcal",
        -10.832376363993696
      ],
      [
        "▁bak",
        -7.654822538151131
      ],
      [
        "▁kardesini",
        -10.679128341493447
      ],
      [
        "▁edin",
        -8.940727028787585
      ],
      [
        "▁ti",
        -6.777248598015956
      ],
      [
        "▁sirketleri",
        -9.537418151477521
      ],
      [
        "▁baskısı",
        -10.546546073074445
      ],
      [
        "ridge",
        -10.818101681602998
      ],
      [
        "▁karayolu",
        -8.504989919812232
      ],
      [
        "▁goc",
        -9.566981907602026
      ],
      [
        "▁sakın",
        -9.763092617659156
      ],
      [
        "sini",
        -7.094163112955828
      ],
      [
        "▁kosk",
        -9.95317658257818
      ],
      [
        "▁oncesi",
        -10.057419361648785
      ],
      [
        "birinde",
        -9.596124906648416
      ],
      [
        "▁degildi",
        -4.719105511077978
      ],
      [
        "▁100",
        -7.323281198345844
      ],
      [
        "irim",
        -9.529257223558062
      ],
      [
        "ni",
        -6.816293175499579
      ],
      [
        "▁kaldıgı",
        -9.748136683210614
      ],
      [
        "▁ısıgı",
        -10.008835131106586
      ],
      [
        "▁yapılma",
        -9.981869464687122
      ],
      [
        "▁ihrac",
        -9.854701328564667
      ],
      [
        "▁partisi",
        -10.046361467681757
      ],
      [
        "▁domates",
        -9.894673624271674
      ],
      [
        "▁deney",
        -9.58522356082658
      ],
      [
        "▁1995",
        -10.41751969051543
      ],
      [
        "▁yumurta",
        -9.475622089425162
      ],
      [
        "▁kok",
        -8.956844432691149
      ],
      [
        "▁memlekette",
        -10.762387909010766
      ],
      [
        "▁rev",
        -10.241825289492539
      ],
      [
        "▁ipuc",
        -10.825875518786756
      ],
      [
        "▁5",
        -9.726990897745422
      ],
      [
        "▁sovyetler",
        -10.323773919680445
      ],
      [
        ".4",
        -10.830378826620755
      ],
      [
        "▁bildik",
        -10.478598299402982
      ],
      [
        "▁nadir",
        -9.935226998478875
      ],
      [
        "▁resmi",
        -8.912179447313296
      ],
      [
        "▁dusuyor",
        -10.269373666500528
      ],
      [
        "▁yanın",
        -9.741603035048948
      ],
      [
        "▁muzakere",
        -9.841330730263527
      ],
      [
        "▁dagın",
        -10.65975843656725
      ],
      [
        "▁butu",
        -7.424468291977726
      ],
      [
        "▁haksız",
        -9.863178874569709
      ],
      [
        "7.1",
        -11.020553119748977
      ],
      [
        "▁benim",
        -5.982026832999391
      ],
      [
        "▁dama",
        -10.026469470066651
      ],
      [
        "▁kupon",
        -10.380902603987872
      ],
      [
        "▁tutu",
        -9.26012974723983
      ],
      [
        "bi",
        -8.07614636935772
      ],
      [
        "▁basit",
        -9.374977210979122
      ],
      [
        "▁izmir",
        -10.781021340458489
      ],
      [
        "▁bor",
        -9.631180366097595
      ],
      [
        "▁uyumlu",
        -10.337339333877118
      ],
      [
        "▁mola",
        -9.497912704077017
      ],
      [
        "▁hita",
        -10.044912033097013
      ],
      [
        "▁kan",
        -8.337108475575775
      ],
      [
        "▁3\\/",
        -8.417597687511622
      ],
      [
        "▁kıyasla",
        -10.542273506113636
      ],
      [
        "tur",
        -7.886228925077593
      ],
      [
        "▁124",
        -10.122175096116324
      ],
      [
        "▁memur",
        -9.284244250347577
      ],
      [
        "▁oynar",
        -10.20559315042997
      ],
      [
        "▁ismi",
        -9.86269935968259
      ],
      [
        "▁bedel",
        -9.76814060973495
      ],
      [
        "▁leke",
        -10.293313477043908
      ],
      [
        "▁ogle",
        -7.562272136416086
      ],
      [
        "▁yardimci",
        -8.805263557316131
      ],
      [
        "▁louis'",
        -10.004135471656042
      ],
      [
        "▁bulanık",
        -10.629838533996681
      ],
      [
        "▁arastırmacılar",
        -10.700910612414667
      ],
      [
        "▁vegas'",
        -9.242427447389609
      ],
      [
        "▁sonra",
        -6.82112569968613
      ],
      [
        "emez",
        -9.175609019898694
      ],
      [
        "▁degistir",
        -8.935279551181498
      ],
      [
        "ebilecegini",
        -9.772761016864964
      ],
      [
        "▁faaliyeti",
        -10.373061998763834
      ],
      [
        "▁whit",
        -10.521537929742792
      ],
      [
        "▁teori",
        -9.790779089937436
      ],
      [
        "rak",
        -8.56644890269181
      ],
      [
        "is",
        -8.08027278259543
      ],
      [
        "▁yagı",
        -9.901004355680477
      ],
      [
        "▁gorece",
        -10.308668010685818
      ],
      [
        "▁gelebilir",
        -10.636841022830765
      ],
      [
        "▁mevzuat",
        -10.294111097907482
      ],
      [
        "▁film",
        -8.730112802741205
      ],
      [
        "ı",
        -11.30808334001589
      ],
      [
        "▁yukselisle",
        -10.687913007505616
      ],
      [
        "▁yorgunluk",
        -10.524455980579486
      ],
      [
        "▁hayvanlar",
        -10.365196406753459
      ],
      [
        "▁cesaret",
        -10.163441158532098
      ],
      [
        "▁basvur",
        -9.962132407726134
      ],
      [
        "▁william",
        -10.378420616887237
      ],
      [
        "▁arkadasını",
        -10.562738814451317
      ],
      [
        "▁fotograf",
        -9.103753548604885
      ],
      [
        "▁gitmek",
        -8.937879175095397
      ],
      [
        "▁tadın",
        -10.299852697187296
      ],
      [
        "▁ihtilaf",
        -10.88910496362861
      ],
      [
        "▁donen",
        -10.052410238601542
      ],
      [
        "▁yatırımcılar",
        -8.907555110482878
      ],
      [
        "▁sterlin",
        -10.378428233099593
      ],
      [
        ":0",
        -10.853066509912104
      ],
      [
        "birlikte",
        -10.864049484981738
      ],
      [
        "▁limuzin",
        -10.574125264328782
      ],
      [
        "▁temmuz",
        -9.124718223904303
      ],
      [
        "▁sımsı",
        -10.521511267741563
      ],
      [
        "▁kabuk",
        -10.574218382855047
      ],
      [
        "▁kullanmadi",
        -8.772450899988913
      ],
      [
        "▁sakız",
        -10.819257077485146
      ],
      [
        "▁gulu",
        -10.491167708417777
      ],
      [
        "▁sallanıyor",
        -10.752427005585746
      ],
      [
        "▁hesap",
        -8.764049097038662
      ],
      [
        "▁noriega",
        -10.856710693969616
      ],
      [
        "▁havayollarında",
        -9.935791651385982
      ],
      [
        "top",
        -10.233033928735766
      ],
      [
        "▁altı",
        -9.841563011175616
      ],
      [
        "▁kızını",
        -10.714754267499952
      ],
      [
        "'nde",
        -10.226628611626323
      ],
      [
        "▁acı",
        -7.896338858521729
      ],
      [
        "▁ko",
        -8.673237025563058
      ],
      [
        "▁geldigi",
        -9.197099350461096
      ],
      [
        "▁75",
        -9.659339365804398
      ],
      [
        "mıslardı",
        -10.106575348375163
      ],
      [
        "▁gencler",
        -10.249373669344896
      ],
      [
        "una",
        -8.648437351262054
      ],
      [
        "▁seklinde",
        -9.71947625254723
      ],
      [
        "▁yaslı",
        -9.047517103835151
      ],
      [
        "▁ayda",
        -10.01045466488932
      ],
      [
        "▁selam",
        -9.81840824889646
      ],
      [
        "▁dalga",
        -8.975922075377191
      ],
      [
        "▁calıstıgı",
        -9.94825920655831
      ],
      [
        "▁bulabilir",
        -10.113615171295287
      ],
      [
        "▁bekliyordu",
        -10.351463406948753
      ],
      [
        "▁ogrenci",
        -9.407043517453124
      ],
      [
        "▁kalkan",
        -7.754098524481259
      ],
      [
        "▁kızım",
        -10.282964123854969
      ],
      [
        "▁3.3",
        -9.971517416991915
      ],
      [
        "▁gozunde",
        -10.544664663985722
      ],
      [
        "▁okul",
        -8.717265263496254
      ],
      [
        "▁tımar",
        -10.889113311331771
      ],
      [
        "▁edebiyat",
        -9.250764723978843
      ],
      [
        "▁etmis",
        -8.775006200145345
      ],
      [
        "▁mutluluk",
        -10.296424300906587
      ],
      [
        "▁heyecanla",
        -10.385597686550373
      ],
      [
        "▁kapagı",
        -10.706963015069368
      ],
      [
        "▁neler",
        -8.364139622478628
      ],
      [
        "dıgını",
        -8.246037365990563
      ],
      [
        "mız",
        -8.159392057993996
      ],
      [
        "i",
        -9.483528417945884
      ],
      [
        "▁personel",
        -7.293491105750211
      ],
      [
        "▁ekim",
        -8.913369903375862
      ],
      [
        "ran",
        -8.282028455631897
      ],
      [
        "bi",
        -10.77375915330737
      ],
      [
        "%9",
        -12.047781401844519
      ],
      [
        "▁rakı",
        -9.653529603467677
      ],
      [
        "▁12'de",
        -10.10822026226141
      ],
      [
        "▁sana",
        -7.031446902661547
      ],
      [
        "s",
        -9.016033344580624
      ],
      [
        "yorlar",
        -9.577084733621096
      ],
      [
        "▁cana",
        -9.262605198984414
      ],
      [
        "▁lo",
        -8.764482937697466
      ],
      [
        "▁dostluk",
        -10.63318634940632
      ],
      [
        "▁comert",
        -10.68850507562262
      ],
      [
        "▁mevcuttu",
        -10.802212392468695
      ],
      [
        "▁yatagı",
        -9.844499918603418
      ],
      [
        "ger",
        -9.071651980816249
      ],
      [
        "▁tartıs",
        -10.022519566206341
      ],
      [
        "▁ny",
        -9.890419351754396
      ],
      [
        "▁potansiyel",
        -9.841330728491325
      ],
      [
        "▁karars",
        -10.213490956191071
      ],
      [
        "▁hop",
        -10.388673736145664
      ],
      [
        "▁2004",
        -10.069273962779134
      ],
      [
        "▁bulmus",
        -10.291987159832793
      ],
      [
        "▁'li",
        -9.48474627959969
      ],
      [
        "▁nefes",
        -9.294837519999444
      ],
      [
        "▁milliyetci",
        -10.709417578633417
      ],
      [
        "▁etki",
        -8.688714181205198
      ],
      [
        "▁bes",
        -6.145071177220371
      ],
      [
        "ken",
        -8.05548715991957
      ],
      [
        "▁kriz",
        -10.56854697476653
      ],
      [
        "▁do",
        -8.4253232756275
      ],
      [
        "▁intihar",
        -10.471494412312707
      ],
      [
        "▁ogrenil",
        -10.815063361162887
      ],
      [
        "▁hane",
        -10.24932099902361
      ],
      [
        "▁sınırlı",
        -10.366167288948207
      ],
      [
        "▁rahatsız",
        -9.480264065656275
      ],
      [
        "▁gunluk",
        -8.416952646881278
      ],
      [
        "▁kira",
        -9.149063254655854
      ],
      [
        "▁andır",
        -10.030061472919419
      ],
      [
        ".4",
        -10.0469752426771
      ],
      [
        "▁suyunu",
        -10.09457695640599
      ],
      [
        "▁beklenmedi",
        -10.61063992242331
      ],
      [
        "▁kenar",
        -9.397472382092069
      ],
      [
        "▁sayısı",
        -9.50276373365968
      ],
      [
        "den",
        -5.57122364951961
      ],
      [
        "▁altmıs",
        -9.585953801299627
      ],
      [
        "▁mehmet",
        -8.986662159523602
      ],
      [
        "▁tokyo",
        -10.024585866722148
      ],
      [
        "▁teskil",
        -10.214881145994859
      ],
      [
        "▁express",
        -9.951022750677215
      ],
      [
        "▁falan",
        -10.016697393565423
      ],
      [
        "▁kisilerin",
        -10.44469826284996
      ],
      [
        "▁gur",
        -9.298924860359286
      ],
      [
        "▁kopar",
        -9.765886865859935
      ],
      [
        "▁1.1",
        -9.139451599402937
      ],
      [
        "▁g",
        -11.181084115905492
      ],
      [
        "oksa",
        -8.161319445537565
      ],
      [
        "7.4",
        -10.58917267964815
      ],
      [
        "2",
        -9.228689807849747
      ],
      [
        "▁karısı",
        -9.464333590728575
      ],
      [
        "▁alt",
        -8.853778980841685
      ],
      [
        "▁sokaklarda",
        -10.70237922706975
      ],
      [
        "▁usul",
        -9.817693830331805
      ],
      [
        "▁ic",
        -7.8440489735178724
      ],
      [
        "nda",
        -10.932538105983836
      ],
      [
        "likte",
        -9.355335717742491
      ],
      [
        "▁196",
        -9.219426224782298
      ],
      [
        "’",
        -10.688503747893643
      ],
      [
        "▁bomba",
        -10.439311525577294
      ],
      [
        "▁ocagı",
        -9.719837023368768
      ],
      [
        "▁makale",
        -9.799531770112392
      ],
      [
        "▁ozer",
        -10.301754420426818
      ],
      [
        "▁olan",
        -5.964963244915505
      ],
      [
        "▁alabilir",
        -9.260914237717966
      ],
      [
        "▁tesisi",
        -9.511205235797169
      ],
      [
        "▁1.59",
        -10.642903663124859
      ],
      [
        "▁allah'",
        -10.224757787553116
      ],
      [
        "mayı",
        -8.315651335519444
      ],
      [
        "abı",
        -9.268145227149795
      ],
      [
        "▁konser",
        -9.922713927050758
      ],
      [
        "▁oksa",
        -10.146726522624299
      ],
      [
        "▁ogreniyor",
        -10.855220758419254
      ],
      [
        "▁son",
        -6.8029390573614865
      ],
      [
        "▁bine",
        -10.545356150114124
      ],
      [
        "ligin",
        -8.845434283024076
      ],
      [
        "gında",
        -9.37374958028246
      ],
      [
        "▁evlilik",
        -10.527342194806842
      ],
      [
        "▁verdigim",
        -8.942345968346535
      ],
      [
        "▁segment",
        -10.81767075293266
      ],
      [
        "▁veriyor",
        -8.548796171045371
      ],
      [
        "▁dusurme",
        -10.289797336591107
      ],
      [
        "▁anadolu",
        -9.472195255620296
      ],
      [
        "▁ipotek",
        -9.766299505193459
      ],
      [
        "▁475000",
        -11.00794604535869
      ],
      [
        "▁yeterli",
        -8.432425245418546
      ],
      [
        "▁lutfe",
        -7.712817571283248
      ],
      [
        "▁mutlak",
        -9.406031191349102
      ],
      [
        "▁3.8",
        -9.902690592795256
      ],
      [
        "▁hız",
        -9.714776934069324
      ],
      [
        "▁imza",
        -9.388267228355232
      ],
      [
        "▁universite",
        -9.15241675256769
      ],
      [
        "▁hasar",
        -9.805297181986104
      ],
      [
        "meli",
        -9.093973970450724
      ],
      [
        "▁dusen",
        -9.45101154241043
      ],
      [
        "▁yu",
        -9.941940758310539
      ],
      [
        "11",
        -9.219857971516147
      ],
      [
        "▁gorunus",
        -10.057792281200399
      ],
      [
        "▁ib",
        -9.010902212036658
      ],
      [
        "▁alanında",
        -10.277278067140513
      ],
      [
        "▁110",
        -9.85359950354846
      ],
      [
        "▁1963",
        -10.560325746299014
      ],
      [
        "▁calma",
        -10.43597736585048
      ],
      [
        "▁duzeni",
        -10.393474567946285
      ],
      [
        "▁sevgi",
        -8.928419160214965
      ],
      [
        "▁ekipman",
        -9.951413888670778
      ],
      [
        "seniz",
        -9.822215895102607
      ],
      [
        "▁gozlem",
        -9.496037405166971
      ],
      [
        "▁brown",
        -10.574140029450394
      ],
      [
        "▁kendin",
        -7.498032269194095
      ],
      [
        "▁gosterebilir",
        -10.316057145722919
      ],
      [
        "▁olabil",
        -10.121792770529392
      ],
      [
        "▁gorus",
        -8.705978234661963
      ],
      [
        "dokuz.",
        -10.912069309067547
      ],
      [
        "▁borsada",
        -10.581712835319141
      ],
      [
        ".",
        -1.1654305379107868
      ],
      [
        "▁kardes",
        -9.568720116401396
      ],
      [
        "▁satan",
        -10.082181311214152
      ],
      [
        "▁10'",
        -10.533652792352392
      ],
      [
        "▁gidiyor",
        -8.581544182838512
      ],
      [
        "▁katılım",
        -10.2448271749213
      ],
      [
        "▁bindi",
        -10.394579514424949
      ],
      [
        "▁vade",
        -9.656648884749746
      ],
      [
        "▁aslın",
        -8.606880240905216
      ],
      [
        "▁istiyoru",
        -6.775108495219357
      ],
      [
        "100",
        -9.795625293758011
      ],
      [
        "▁araya",
        -9.535256759695972
      ],
      [
        "▁havlu",
        -10.012120861331303
      ],
      [
        "h",
        -6.893785620629456
      ],
      [
        "▁sirketin",
        -8.449127551583603
      ],
      [
        "▁sahi",
        -9.333803283932122
      ],
      [
        "▁soz",
        -7.994409705606608
      ],
      [
        "▁dikkatli",
        -10.235471451929225
      ],
      [
        "▁demekti",
        -10.02695789751671
      ],
      [
        "▁26",
        -8.156620768428361
      ],
      [
        "▁dolabı",
        -10.471736420522427
      ],
      [
        "▁internet",
        -10.120212252380533
      ],
      [
        "▁onbes",
        -10.616644868922243
      ],
      [
        "ında",
        -7.869586970723039
      ],
      [
        "▁magdur",
        -10.751488605644658
      ],
      [
        "manın",
        -9.559319113053485
      ],
      [
        "▁unuttu",
        -10.277281150551865
      ],
      [
        "gun",
        -8.58428582924956
      ],
      [
        "▁onun",
        -8.60382160950859
      ],
      [
        "▁hazır",
        -8.297471414373879
      ],
      [
        "▁tuccarlar",
        -10.025351362486777
      ],
      [
        "▁hal",
        -8.56042355446673
      ],
      [
        "▁emeklilik",
        -9.870496953217604
      ],
      [
        "▁san",
        -8.769387182055986
      ],
      [
        "▁memnun",
        -6.422501566831746
      ],
      [
        "▁av",
        -8.805923041047485
      ],
      [
        "▁hulya",
        -9.742519200178332
      ],
      [
        "▁bir",
        -6.148121758191533
      ],
      [
        "▁cehre",
        -10.253274940012327
      ],
      [
        "▁milliyet",
        -10.50451888760546
      ],
      [
        "▁kaybı",
        -9.696876768618719
      ],
      [
        "▁pazar",
        -7.822344073549192
      ],
      [
        "▁dayanır",
        -10.389585827748892
      ],
      [
        "▁birbirleri",
        -10.091690509749295
      ],
      [
        "▁siparis",
        -9.34096688598571
      ],
      [
        "▁gerekli",
        -9.402985152208586
      ],
      [
        "▁satıla",
        -10.303279097879482
      ],
      [
        "▁39",
        -9.172139216265979
      ],
      [
        "▁600",
        -9.671999014576087
      ],
      [
        "▁hatıra",
        -10.16180714301969
      ],
      [
        "ılmaz",
        -10.344287665033722
      ],
      [
        "▁arası",
        -8.423945683676138
      ],
      [
        "▁frankfurt",
        -10.574124667971038
      ],
      [
        "▁miami'",
        -9.17660139851873
      ],
      [
        "▁yesil",
        -8.717162930303418
      ],
      [
        "▁yanıt",
        -9.495452652180237
      ],
      [
        "ıl",
        -8.275998057432975
      ],
      [
        "▁planlıyor",
        -9.85334194732961
      ],
      [
        "madıgını",
        -9.824519803673189
      ],
      [
        "▁los",
        -8.664797600745207
      ],
      [
        "▁hazırlık",
        -9.89326868159388
      ],
      [
        "▁11",
        -7.696498369092425
      ],
      [
        "ak",
        -10.007494695036996
      ],
      [
        "5'",
        -9.788535144547186
      ],
      [
        "▁suren",
        -9.74308294125482
      ],
      [
        "▁yuvarla",
        -9.89720625748673
      ],
      [
        "▁indir",
        -9.932453100413596
      ],
      [
        "▁artısla",
        -8.678866617629726
      ],
      [
        "▁sarsıntı",
        -10.471500145155261
      ],
      [
        "mıs",
        -6.736030956282016
      ],
      [
        "cı",
        -9.105755383544302
      ],
      [
        "le",
        -6.62633018119359
      ],
      [
        "▁devam",
        -7.635577385255431
      ],
      [
        "▁etkili",
        -10.14311961284851
      ],
      [
        "▁mukemmel",
        -8.575741854544475
      ],
      [
        "▁sorusturma",
        -9.719239519232886
      ],
      [
        "▁financial",
        -10.107578943766764
      ],
      [
        "do",
        -8.620476592362262
      ],
      [
        "▁asır",
        -10.250765524864596
      ],
      [
        "▁ceyrekte",
        -9.333140471265551
      ],
      [
        "▁tatlı",
        -8.882869845085505
      ],
      [
        "▁gi",
        -10.395506306048798
      ],
      [
        "5000",
        -9.57246777405449
      ],
      [
        "▁filan",
        -10.012920604911152
      ],
      [
        "▁cıkmıstı",
        -10.002621923604211
      ],
      [
        "r",
        -4.420291024157979
      ],
      [
        "▁22.",
        -9.951591424162933
      ],
      [
        "▁kızlar",
        -9.85955218201232
      ],
      [
        "▁degerlendirir",
        -9.6540300976364
      ],
      [
        "kin",
        -10.756068444976854
      ],
      [
        "la",
        -11.941373154467021
      ],
      [
        "▁aksam",
        -7.343020411205421
      ],
      [
        "▁aday",
        -9.592293676944857
      ],
      [
        "'le",
        -9.37397285553289
      ],
      [
        "▁mimar",
        -10.405419549398673
      ],
      [
        "▁national",
        -9.92245156405064
      ],
      [
        "▁derecede",
        -9.770804325395854
      ],
      [
        "▁adamın",
        -9.398106958738694
      ],
      [
        "▁kurtarma",
        -10.218307964493093
      ],
      [
        "▁tecrube",
        -10.107578943576684
      ],
      [
        "▁700",
        -10.516073901324269
      ],
      [
        "▁guvenlik",
        -9.35572223558346
      ],
      [
        "▁koymus",
        -10.517566188249846
      ],
      [
        "▁8'de",
        -9.769124279801412
      ],
      [
        "▁gormustu",
        -10.505041367354632
      ],
      [
        "▁bilir",
        -8.739223447860972
      ],
      [
        "▁pahalı",
        -9.653750375487967
      ],
      [
        "▁ulasımını",
        -10.473775017370022
      ],
      [
        "▁aktif",
        -9.195064616585446
      ],
      [
        "▁banyo",
        -9.712915344102331
      ],
      [
        "?",
        -10.629680218481877
      ],
      [
        "▁baslıca",
        -10.62981340646865
      ],
      [
        "▁bag",
        -8.901705067524661
      ],
      [
        "▁tutar",
        -9.139210554372628
      ],
      [
        "▁zayıf",
        -8.769061877603907
      ],
      [
        "▁degisti",
        -10.040857652526885
      ],
      [
        "onun",
        -8.69465956388141
      ],
      [
        "▁onyedi",
        -10.921018666201677
      ],
      [
        "▁ayıp",
        -10.612100406203105
      ],
      [
        "u'nu",
        -10.840623635863842
      ],
      [
        "▁soktu",
        -10.369283902733411
      ],
      [
        "▁cehennem",
        -10.521493084582065
      ],
      [
        "▁gider",
        -8.284973476867268
      ],
      [
        "way",
        -10.748969330998014
      ],
      [
        "layacagı",
        -10.457592151413408
      ],
      [
        "▁ugradı",
        -10.018581175862991
      ],
      [
        "▁tadı",
        -10.48603385709621
      ],
      [
        "▁baskasını",
        -10.894157486847964
      ],
      [
        "malıdır",
        -9.733686139308611
      ],
      [
        "▁basladı",
        -7.556185619463424
      ],
      [
        "tı",
        -6.749839283777029
      ],
      [
        "he",
        -9.642327013437182
      ],
      [
        "malıyı",
        -9.833061568630846
      ],
      [
        "▁esim",
        -9.658242404640355
      ],
      [
        "ze",
        -8.290942279666073
      ],
      [
        "▁elma",
        -9.748590288647591
      ],
      [
        "▁hisselerini",
        -9.821434432184834
      ],
      [
        "▁hali",
        -8.63843589910979
      ],
      [
        "▁6.",
        -10.351703363235046
      ],
      [
        "▁oldugun",
        -10.612065443969167
      ],
      [
        "▁hizmetci",
        -10.455894312446329
      ],
      [
        "▁ga",
        -8.508523962810399
      ],
      [
        "▁sagla",
        -10.039152395680233
      ],
      [
        "▁asırı",
        -9.11852784519338
      ],
      [
        "▁kolu",
        -9.997416947811347
      ],
      [
        "▁koltugun",
        -10.217109313795296
      ],
      [
        "▁baglar",
        -10.373111112156451
      ],
      [
        "▁yeri",
        -9.184272603602274
      ],
      [
        "y",
        -12.399764499659206
      ],
      [
        "▁gurur",
        -9.868694699433702
      ],
      [
        "▁gibiydi",
        -9.696937920818975
      ],
      [
        "▁mantık",
        -10.369973897050487
      ],
      [
        "▁kiler",
        -8.93960715202065
      ],
      [
        "▁seviyesin",
        -9.186170296441407
      ],
      [
        "z",
        -6.575855094575472
      ],
      [
        "▁gozlerinde",
        -10.449582611004164
      ],
      [
        "▁olun",
        -9.57130823750293
      ],
      [
        "26",
        -10.035845426624126
      ],
      [
        "uk",
        -8.894509282745897
      ],
      [
        "▁yapti",
        -9.203946515754069
      ],
      [
        "▁dususu",
        -9.998371926689856
      ],
      [
        "▁ilgisiz",
        -9.890887845258366
      ],
      [
        "▁basamak",
        -10.718501114929335
      ],
      [
        "▁kafi",
        -10.293429518951145
      ],
      [
        "'de",
        -7.590951463286688
      ],
      [
        "digini",
        -8.452773236015084
      ],
      [
        "bu",
        -6.521250950590649
      ],
      [
        "▁0.6",
        -10.96494361702419
      ],
      [
        "▁herif",
        -9.653121085323196
      ],
      [
        "▁ressam",
        -10.574129239044565
      ],
      [
        "▁satın",
        -7.965217139377799
      ],
      [
        "00-",
        -11.772156729223715
      ],
      [
        "▁ataturk",
        -9.427011592915584
      ],
      [
        "▁temsil",
        -9.621943942925537
      ],
      [
        "▁buyume",
        -8.969359561634558
      ],
      [
        "▁anlasma",
        -8.357326388165964
      ],
      [
        "▁hissi",
        -10.450864603185668
      ],
      [
        "▁cu",
        -9.97138401281963
      ],
      [
        "▁shearson",
        -10.041987549541993
      ],
      [
        "▁198",
        -6.975109802594099
      ],
      [
        "cılar",
        -8.668949927007336
      ],
      [
        "▁bayram",
        -9.129047330627184
      ],
      [
        "▁huzursuz",
        -10.81880273553708
      ],
      [
        "▁gri",
        -10.257301448399955
      ],
      [
        "mıslar",
        -9.281692973231864
      ],
      [
        "▁elim",
        -10.11179661231979
      ],
      [
        "▁birbirimizi",
        -9.890898695713071
      ],
      [
        "▁gerilim",
        -10.52306153236317
      ],
      [
        "▁hugo",
        -10.522084999616823
      ],
      [
        "fı",
        -12.849601984454035
      ],
      [
        "▁olmayan",
        -8.611521131527626
      ],
      [
        "▁15.",
        -10.281601801171426
      ],
      [
        "▁%7",
        -10.35898102266814
      ],
      [
        "▁tedarik",
        -10.423875415702605
      ],
      [
        "▁kır",
        -8.170173745372445
      ],
      [
        "▁mide",
        -9.856065108222976
      ],
      [
        "▁0.",
        -10.22058846643642
      ],
      [
        "▁divan",
        -10.471721782783545
      ],
      [
        "▁fas",
        -9.887860958725186
      ],
      [
        "elli",
        -10.223140255659835
      ],
      [
        "▁seftali",
        -10.817670478264857
      ],
      [
        "▁anda",
        -8.058954089642068
      ],
      [
        "▁buyur",
        -10.269638342735458
      ],
      [
        "▁gorusmedi",
        -10.145329491205509
      ],
      [
        "▁ibm'in",
        -10.81776911871419
      ],
      [
        "▁34",
        -9.06955530779975
      ],
      [
        "▁bari",
        -9.986386386824515
      ],
      [
        "▁kontrol",
        -8.956756142562636
      ],
      [
        "les",
        -9.216545770861785
      ],
      [
        "acagım",
        -9.110307861537944
      ],
      [
        "▁8.0",
        -11.013800640243012
      ],
      [
        "ca",
        -6.350409501597931
      ],
      [
        "▁entari",
        -10.6301144182188
      ],
      [
        "▁korunma",
        -10.590693918007563
      ],
      [
        "▁almayı",
        -10.272585630204368
      ],
      [
        "▁cumhuriyetci",
        -10.48175025355568
      ],
      [
        "▁eski",
        -7.2064290514039735
      ],
      [
        "▁risk",
        -8.943689613286423
      ],
      [
        "▁agac",
        -8.962937334647112
      ],
      [
        "lerimiz",
        -9.307154920914638
      ],
      [
        "▁somur",
        -10.57448750325772
      ],
      [
        "▁mısın",
        -9.040550319257685
      ],
      [
        "▁surduruyor",
        -10.424214440359068
      ],
      [
        "▁laf",
        -9.159386268683544
      ],
      [
        "▁'di",
        -10.329890750168904
      ],
      [
        "▁ayni",
        -9.189707203670253
      ],
      [
        "hicbir",
        -9.453110688665925
      ],
      [
        "▁1.84",
        -10.518468608616592
      ],
      [
        "▁toz",
        -9.480005276662219
      ],
      [
        "▁hepimizi",
        -9.081385122939912
      ],
      [
        "▁c",
        -12.071827075693939
      ],
      [
        "75",
        -8.267419933820554
      ],
      [
        "ası",
        -11.234917962788039
      ],
      [
        "▁siiri",
        -10.468399213316959
      ],
      [
        "▁actıgı",
        -10.557335641966603
      ],
      [
        "▁ozlem",
        -10.093977372382245
      ],
      [
        "▁yo",
        -9.63867380416794
      ],
      [
        "▁hayır",
        -9.142491655177484
      ],
      [
        "bo",
        -8.688794204068145
      ],
      [
        "▁baker",
        -10.36283925742438
      ],
      [
        "▁duyuru",
        -10.223154069226572
      ],
      [
        "▁urunler",
        -9.77823040762151
      ],
      [
        "▁komutan",
        -9.922451547112328
      ],
      [
        "▁ilgili",
        -7.192103852156074
      ],
      [
        "▁gecti",
        -8.373537333404698
      ],
      [
        "'u",
        -9.159138694245568
      ],
      [
        "▁yasına",
        -10.48973473730136
      ],
      [
        "sen",
        -8.906673460936581
      ],
      [
        "▁111",
        -10.487099343946664
      ],
      [
        "▁249.",
        -10.96810093603428
      ],
      [
        "▁bulus",
        -9.649402351538853
      ],
      [
        "▁olacaktı",
        -9.42330358628412
      ],
      [
        "▁di",
        -7.057769738788028
      ],
      [
        "▁gunku",
        -9.195057517064832
      ],
      [
        "▁val",
        -10.077586788614601
      ],
      [
        "▁geliyor",
        -8.003028260757095
      ],
      [
        "▁studyo",
        -10.574124663296061
      ],
      [
        "▁yatma",
        -10.733545450877255
      ],
      [
        "▁yarattı",
        -9.903995880697028
      ],
      [
        "▁yayım",
        -10.360768890028101
      ],
      [
        "▁sı",
        -9.271147355403482
      ],
      [
        "▁parlak",
        -9.773300469165749
      ],
      [
        "▁puan",
        -6.88214740950924
      ],
      [
        "▁fikri",
        -9.340997560737907
      ],
      [
        "▁geldigini",
        -10.030610023599962
      ],
      [
        "▁yirmi",
        -7.392161743074304
      ],
      [
        "▁plastik",
        -10.334941581853247
      ],
      [
        "▁kapak",
        -10.426672658914725
      ],
      [
        "▁sirketi",
        -8.60618703448695
      ],
      [
        "▁yapildi",
        -10.143520892462151
      ],
      [
        "k",
        -5.724751612907619
      ],
      [
        "▁olmak",
        -10.570745522825971
      ],
      [
        "▁kurk",
        -10.139501601532041
      ],
      [
        "▁onar",
        -10.153632446689144
      ],
      [
        "▁8.9",
        -10.558512057576548
      ],
      [
        "▁zeytinyagı",
        -10.689826244622045
      ],
      [
        "▁baskanlıgı",
        -10.355634601645576
      ],
      [
        "▁hu",
        -9.07063413931585
      ],
      [
        "▁su",
        -5.781887426912386
      ],
      [
        "imi",
        -8.541077320338545
      ],
      [
        "▁problem",
        -8.943412658198934
      ],
      [
        "gimiz",
        -8.765037967170969
      ],
      [
        "▁gergin",
        -9.980583940254556
      ],
      [
        "▁nar",
        -10.29652156920416
      ],
      [
        "▁soyluyor",
        -8.133163427962533
      ],
      [
        "▁gozlu",
        -9.947693468055064
      ],
      [
        "▁ezi",
        -10.088318388356342
      ],
      [
        "▁tuy",
        -9.948209413529359
      ],
      [
        "▁dua",
        -9.940902442048017
      ],
      [
        "▁ortasında",
        -9.58366820960227
      ],
      [
        "▁tı",
        -10.992942583622575
      ],
      [
        "suz",
        -7.7206425956780365
      ],
      [
        "▁namus",
        -10.299163857106752
      ],
      [
        "▁cumhuriyet",
        -9.710745346588123
      ],
      [
        "▁hadi",
        -9.686140578884759
      ],
      [
        "▁2002",
        -10.319913242692227
      ],
      [
        "▁'",
        -10.174949523657007
      ],
      [
        "▁48",
        -9.376016359367377
      ],
      [
        "▁yatak",
        -9.67094844412557
      ],
      [
        "▁70'",
        -10.70259020934412
      ],
      [
        "▁pasa",
        -9.16703994344251
      ],
      [
        "▁heykel",
        -10.214829488096164
      ],
      [
        "▁kimligi",
        -10.47753474277268
      ],
      [
        "▁emniyet",
        -10.142205618724395
      ],
      [
        "▁lise",
        -9.922793041752954
      ],
      [
        "▁havuzu",
        -8.221836546305024
      ],
      [
        "▁fiyatlandırıl",
        -10.293280366899664
      ],
      [
        "g",
        -5.007317781712471
      ],
      [
        "▁kasım",
        -9.056984837409985
      ],
      [
        "▁oldugunda",
        -9.691275387236818
      ],
      [
        "▁diyalog",
        -10.889100578616628
      ],
      [
        "amıyor",
        -9.501679755688944
      ],
      [
        "▁ceket",
        -9.983561943742796
      ],
      [
        "etti",
        -10.04761359095701
      ],
      [
        "▁co.",
        -8.924653799079802
      ],
      [
        "▁degisiklik",
        -9.865486535130223
      ],
      [
        "inci",
        -9.377859352917019
      ],
      [
        "▁simdi",
        -7.140572371169526
      ],
      [
        "▁tesiste",
        -9.26418094071046
      ],
      [
        "▁15",
        -7.200442600775433
      ],
      [
        "▁gorunme",
        -9.964615182929489
      ],
      [
        "▁sey",
        -6.478438447907615
      ],
      [
        "▁bilmez",
        -10.265564819593807
      ],
      [
        "▁bitki",
        -9.65867885118443
      ],
      [
        "▁yardım",
        -8.425543114812672
      ],
      [
        "▁cumartesi",
        -8.491430254050163
      ],
      [
        "▁arkadas",
        -8.75304012654458
      ],
      [
        "▁112",
        -10.140776630495758
      ],
      [
        "▁bulut",
        -9.591568360820974
      ],
      [
        "▁sun",
        -8.80510930751134
      ],
      [
        "▁yıllık",
        -8.191396019802621
      ],
      [
        "▁cerceve",
        -9.935481621577196
      ],
      [
        "▁kendilerini",
        -7.912494984556227
      ],
      [
        "▁krem",
        -10.42474246523423
      ],
      [
        "▁ik",
        -10.108787904356568
      ],
      [
        "▁orgutu",
        -10.641721297622498
      ],
      [
        "▁anlayıs",
        -9.868398305015086
      ],
      [
        "▁aksamı",
        -9.25142669431968
      ],
      [
        "▁12.",
        -9.761738462051712
      ],
      [
        "ımız",
        -9.071110820090983
      ],
      [
        "▁cop",
        -9.761080645009354
      ],
      [
        "▁%5",
        -9.992484952175907
      ],
      [
        "▁direktoru",
        -10.117491710876436
      ],
      [
        "▁dinleme",
        -10.419725538239813
      ],
      [
        "▁beygir",
        -10.818576353553349
      ],
      [
        "▁bankacılık",
        -10.53169042382335
      ],
      [
        "▁cincinnati'",
        -10.290128680391245
      ],
      [
        "cuk",
        -9.449351608841166
      ],
      [
        "▁boz",
        -8.77403827319108
      ],
      [
        "▁temettu",
        -10.177776035133263
      ],
      [
        "mistir",
        -8.595535005645162
      ],
      [
        "egi",
        -8.722547943385237
      ],
      [
        "▁ols",
        -9.308168117671995
      ],
      [
        "▁kırıl",
        -10.305842382016337
      ],
      [
        "isi",
        -9.473892609635248
      ],
      [
        "▁itaat",
        -10.889156861775234
      ],
      [
        "▁ıslak",
        -10.818071481544377
      ],
      [
        "▁florida'",
        -10.841988043694778
      ],
      [
        "ken",
        -7.101163195416697
      ],
      [
        "▁hemen",
        -7.704033281165175
      ],
      [
        "lo",
        -8.759439707935933
      ],
      [
        "▁ef",
        -10.425216804079206
      ],
      [
        "`",
        -5.1791608978587025
      ],
      [
        "▁ihmal",
        -10.688503828354305
      ],
      [
        "▁kumas",
        -9.176567923346925
      ],
      [
        "▁dost",
        -9.025660965637702
      ],
      [
        "▁gurultu",
        -9.475620837261555
      ],
      [
        "lı",
        -9.894766648982408
      ],
      [
        "▁1.50",
        -10.826535407539138
      ],
      [
        "▁temel",
        -8.643242210141558
      ],
      [
        "▁satır",
        -9.847281146799084
      ],
      [
        "▁sec",
        -8.614117447452415
      ],
      [
        "▁halin",
        -9.084428462360869
      ],
      [
        "▁kosuyor",
        -10.709659162485249
      ],
      [
        "ncı",
        -10.353289485808999
      ],
      [
        "▁sahiptir",
        -9.702689004062385
      ],
      [
        "ma",
        -12.810082874936368
      ],
      [
        "▁aydınlık",
        -10.07706259277661
      ],
      [
        "ville",
        -10.577831390326951
      ],
      [
        "▁sıcra",
        -10.722864521678616
      ],
      [
        "▁uzman",
        -9.304058978937167
      ],
      [
        "▁yayın",
        -8.604731810067186
      ],
      [
        "▁ymis",
        -9.402459541327215
      ],
      [
        "▁kapısında",
        -10.000873819286962
      ],
      [
        "un",
        -6.857825540526536
      ],
      [
        "▁145",
        -10.904143579182826
      ],
      [
        "▁varlık",
        -9.821618359291021
      ],
      [
        "▁istikrar",
        -10.214813242133904
      ],
      [
        "▁tatil",
        -8.058883487253516
      ],
      [
        "▁diego",
        -10.685996356102553
      ],
      [
        "▁kurgu",
        -10.822564260794383
      ],
      [
        "▁cagdas",
        -10.142272323715641
      ],
      [
        "▁ajans",
        -10.356244657853836
      ],
      [
        "▁siir",
        -8.989751407536517
      ],
      [
        "▁gezi",
        -9.25689270887045
      ],
      [
        "▁no",
        -9.471283081887762
      ],
      [
        "ci",
        -11.309728575382351
      ],
      [
        "▁hizmette",
        -9.668616633081879
      ],
      [
        "▁nufus",
        -9.81569038390287
      ],
      [
        "▁davran",
        -9.12223385487769
      ],
      [
        "▁giy",
        -9.196094710905163
      ],
      [
        "yip",
        -9.22938534058959
      ],
      [
        "▁bizleri",
        -9.582690225371444
      ],
      [
        "▁istemeye",
        -10.60329692814933
      ],
      [
        "▁uzak",
        -8.507809429920549
      ],
      [
        "ugru",
        -10.426916467258927
      ],
      [
        "▁hedefleri",
        -10.477470765921536
      ],
      [
        "l",
        -9.263032525714058
      ],
      [
        "▁soyleyebilir",
        -9.868034645740668
      ],
      [
        "ttı",
        -8.851524135947205
      ],
      [
        "▁dıs",
        -10.130262604639288
      ],
      [
        "▁koyar",
        -10.487595839766144
      ],
      [
        "▁kanıt",
        -9.457245283106072
      ],
      [
        "r",
        -5.386364506545153
      ],
      [
        "▁39.5",
        -10.180672117659013
      ],
      [
        "▁tesir",
        -10.25477363660398
      ],
      [
        "▁birinci",
        -8.83357621359725
      ],
      [
        "klerini",
        -9.531209545724362
      ],
      [
        "▁yuzde",
        -8.81996048755068
      ],
      [
        "▁chi",
        -10.47750079803262
      ],
      [
        "▁salon",
        -10.103203379270646
      ],
      [
        "▁hatun",
        -10.81587491015582
      ],
      [
        "400",
        -10.878937736978402
      ],
      [
        "▁gazeteciler",
        -10.887982236772162
      ],
      [
        "▁yılı",
        -9.15995130274974
      ],
      [
        "▁ustunde",
        -8.312544960929632
      ],
      [
        "▁juri",
        -10.424568147422017
      ],
      [
        ".75",
        -9.547328211014653
      ],
      [
        "▁kırık",
        -10.02548419010633
      ],
      [
        "▁corba",
        -9.344464772402114
      ],
      [
        "▁ak",
        -7.707894282078696
      ],
      [
        "meyecek",
        -8.98211467750843
      ],
      [
        "▁tasıma",
        -10.149192202764404
      ],
      [
        "▁dısında",
        -8.764309601168657
      ],
      [
        "▁zamanı",
        -9.373579148422
      ],
      [
        "▁bankacı",
        -10.02515788813906
      ],
      [
        "leyici",
        -9.97315152557496
      ],
      [
        "▁komite",
        -10.430914019970796
      ],
      [
        "▁%",
        -6.30458812668807
      ],
      [
        "▁isteri",
        -9.937884771209564
      ],
      [
        "▁yapıyordu",
        -10.378276156046482
      ],
      [
        "▁etmeli",
        -10.254277852779747
      ],
      [
        "▁amacı",
        -9.694545463069604
      ],
      [
        "3",
        -8.946685974331961
      ],
      [
        "▁oturu",
        -9.807040070785607
      ],
      [
        "▁soluk",
        -9.727165267188322
      ],
      [
        "sanız",
        -9.833853027931092
      ],
      [
        "▁gelis",
        -10.353067989830793
      ],
      [
        "▁komur",
        -9.79071832566594
      ],
      [
        "▁normal",
        -9.186032657850276
      ],
      [
        "▁bekledi",
        -9.913866498311354
      ],
      [
        "▁8.8",
        -9.884564508981272
      ],
      [
        "▁zahmet",
        -10.574124738869065
      ],
      [
        "cıları",
        -9.31751810164408
      ],
      [
        "▁sırada",
        -8.922895780406089
      ],
      [
        "▁civarında",
        -9.442544381312947
      ],
      [
        "▁baltimore",
        -9.323075684310687
      ],
      [
        "▁ufak",
        -8.717194975884354
      ],
      [
        "▁komisyon",
        -10.31423344227996
      ],
      [
        "▁ceo",
        -10.528963856055624
      ],
      [
        "▁108",
        -10.94888692485328
      ],
      [
        "▁anlasıldı",
        -10.88910015399091
      ],
      [
        "west",
        -9.763344160614311
      ],
      [
        "▁saatte",
        -10.06269684748523
      ],
      [
        "▁kızar",
        -9.537301252831522
      ],
      [
        "yiz",
        -9.365375925409326
      ],
      [
        "▁aldıgı",
        -9.057908287887624
      ],
      [
        "▁temelinde",
        -10.648904908376439
      ],
      [
        "▁kapatma",
        -10.481989879501022
      ],
      [
        "▁orgut",
        -10.469232790949572
      ],
      [
        "▁koydu",
        -9.208571158516154
      ],
      [
        "6.23",
        -10.68403202973947
      ],
      [
        "▁kitapta",
        -10.52570772225927
      ],
      [
        "un",
        -11.506828243750975
      ],
      [
        "▁tesisti",
        -7.574304978094751
      ],
      [
        "▁uzerine",
        -7.903182352559121
      ],
      [
        "ıyorsun",
        -9.952232824201113
      ],
      [
        "▁ham",
        -8.842947577219558
      ],
      [
        "▁do",
        -9.18663526880855
      ],
      [
        "▁edecekti",
        -10.500891076859837
      ],
      [
        "▁otelin",
        -8.286976753158143
      ],
      [
        "▁aktar",
        -9.35886116156736
      ],
      [
        "▁bakmak",
        -10.458132398326907
      ],
      [
        "▁ekledi",
        -9.083529481621902
      ],
      [
        "▁tarz",
        -10.258257499827348
      ],
      [
        "▁sende",
        -10.222440407629342
      ],
      [
        "▁olacagı",
        -10.887704866136755
      ],
      [
        "▁saydı",
        -10.300373569536553
      ],
      [
        "▁oranında",
        -9.823287830637767
      ],
      [
        "▁ucuncu",
        -9.512702740734808
      ],
      [
        "yet",
        -10.787492098028698
      ],
      [
        "▁saatlerinde",
        -9.873486141742866
      ],
      [
        "▁american",
        -8.467193330494528
      ],
      [
        "▁tatli",
        -10.5757952500677
      ],
      [
        "▁maliyetleri",
        -9.884391362427934
      ],
      [
        "▁yerleri",
        -10.005664978524576
      ],
      [
        "▁cesitlilik",
        -10.113060062802553
      ],
      [
        "▁iade",
        -10.334975851410466
      ],
      [
        "▁zı",
        -12.278377134489128
      ],
      [
        "▁giysi",
        -10.168504072443177
      ],
      [
        "▁1.58",
        -10.735946295945059
      ],
      [
        "▁ysa",
        -10.34563170827051
      ],
      [
        "▁aldıgını",
        -9.969518585749505
      ],
      [
        "▁elbise",
        -9.250687179688255
      ],
      [
        "▁oldugum",
        -10.9668647300527
      ],
      [
        "▁portfoy",
        -9.841330731002394
      ],
      [
        "bazı",
        -9.354229368387426
      ],
      [
        "▁1990'",
        -10.253274600620879
      ],
      [
        "▁kart",
        -9.324144333577118
      ],
      [
        "▁dirsek",
        -10.889138153825707
      ],
      [
        "▁hakikat",
        -10.041995273149247
      ],
      [
        "▁yetkilisi",
        -10.506834349365505
      ],
      [
        "▁kıyafet",
        -9.951023241445938
      ],
      [
        "36",
        -9.84309538668002
      ],
      [
        "▁altın",
        -8.051861268165116
      ],
      [
        "letti",
        -10.132812406326682
      ],
      [
        "enc",
        -11.02235575751815
      ],
      [
        "▁sonuclarını",
        -10.54005367997078
      ],
      [
        "▁holding",
        -9.69650685182459
      ],
      [
        "?",
        -8.89256977613255
      ],
      [
        "se",
        -9.197145699308905
      ],
      [
        "▁ziyaret",
        -9.116292201093211
      ],
      [
        "▁pittsburgh'ta",
        -7.9686956621520615
      ],
      [
        "▁piyasasını",
        -10.606704370232206
      ],
      [
        "▁hoslan",
        -9.95624792358422
      ],
      [
        "▁bakimsiz",
        -10.214824166146926
      ],
      [
        "▁yıkıl",
        -9.751935260822496
      ],
      [
        "▁a",
        -10.589485858069246
      ],
      [
        "▁konforlu",
        -9.295419573048747
      ],
      [
        "▁bi",
        -9.71364828622677
      ],
      [
        "▁mermer",
        -9.815813835760746
      ],
      [
        "▁varıs",
        -10.837466694669292
      ],
      [
        "▁ekonomik",
        -8.932490582562668
      ],
      [
        "8",
        -6.081748992804368
      ],
      [
        "10",
        -12.421114862979588
      ],
      [
        "▁ustu",
        -8.768271821147327
      ],
      [
        "iyorum",
        -8.731317348237393
      ],
      [
        "▁olacagı",
        -9.33488034390589
      ],
      [
        "▁11",
        -10.523214634442592
      ],
      [
        "um",
        -6.4206973115191595
      ],
      [
        "▁hicbirini",
        -9.34679240401203
      ],
      [
        "▁yapmadı",
        -9.6196402467273
      ],
      [
        "▁gelisen",
        -10.633334912343061
      ],
      [
        "▁silah",
        -8.871982715989972
      ],
      [
        "▁doviz",
        -9.867651823705854
      ],
      [
        "telif",
        -10.844892613048907
      ],
      [
        "luyor",
        -8.765636194767325
      ],
      [
        "▁elli",
        -8.16695250231819
      ],
      [
        "▁peynir",
        -9.569293018721593
      ],
      [
        "▁moody'",
        -10.382561759047338
      ],
      [
        "▁net",
        -8.719242589673696
      ],
      [
        "▁painewebber",
        -10.817670414560327
      ],
      [
        "▁alısveris",
        -9.440219914039089
      ],
      [
        "▁tramvay",
        -10.629680239137794
      ],
      [
        "▁cebinde",
        -10.042020995738122
      ],
      [
        "▁isleri",
        -9.632827000028117
      ],
      [
        "▁ifade",
        -8.263584741395128
      ],
      [
        "▁new",
        -7.453804286357297
      ],
      [
        "▁naz",
        -9.491988402894592
      ],
      [
        "▁kadar",
        -4.58156761453913
      ],
      [
        "▁ikibinuc",
        -9.483628766956455
      ],
      [
        "▁9'da",
        -10.254213163849734
      ],
      [
        "▁chp",
        -10.21138357568872
      ],
      [
        "▁oray",
        -9.790235082042273
      ],
      [
        "▁1500",
        -10.12598746051761
      ],
      [
        "▁etmedi",
        -9.279384917044208
      ],
      [
        "▁goren",
        -9.28492148856949
      ],
      [
        "▁icecekleri",
        -10.077149717150442
      ],
      [
        "▁muhasebe",
        -10.29327457922829
      ],
      [
        "2",
        -6.4595835472024214
      ],
      [
        "▁huzur",
        -9.920499020362465
      ],
      [
        "▁129",
        -10.694688246814783
      ],
      [
        "▁bekledigim",
        -9.85794361781388
      ],
      [
        "▁kılavuz",
        -10.57412473037471
      ],
      [
        "▁duygu",
        -9.211207801753638
      ],
      [
        "▁kanı",
        -10.232646908656871
      ],
      [
        "▁farkında",
        -9.720457082427199
      ],
      [
        "▁dikil",
        -10.611164683384924
      ],
      [
        "▁varlıklar",
        -10.061990981227206
      ],
      [
        "▁yatırım",
        -8.167815019033487
      ],
      [
        "▁uydur",
        -10.18209655025352
      ],
      [
        "▁kenarın",
        -10.741386015187135
      ],
      [
        "ırım",
        -9.00424058995575
      ],
      [
        "▁ekonomistler",
        -10.818214488766836
      ],
      [
        "▁girdi",
        -8.65418605878775
      ],
      [
        "dım",
        -8.727289002243714
      ],
      [
        "▁hi",
        -9.239621899248991
      ],
      [
        "▁havuzlar",
        -9.556950393242742
      ],
      [
        "▁tabur",
        -10.336033141671857
      ],
      [
        "sam",
        -9.000744401817023
      ],
      [
        "▁bankalar",
        -9.880055832438519
      ],
      [
        "▁sureli",
        -10.287420671035505
      ],
      [
        "ng",
        -10.94435796899572
      ],
      [
        "▁yana",
        -9.534111522877149
      ],
      [
        "3.8",
        -10.390181989109365
      ],
      [
        "▁sıfır",
        -10.334941514174693
      ],
      [
        "▁10.6",
        -10.963275517375004
      ],
      [
        "▁anladı",
        -9.467142885466567
      ],
      [
        "▁ucusunda",
        -10.484588282081377
      ],
      [
        "▁ilave",
        -9.550428937678463
      ],
      [
        "▁vur",
        -8.835411267316559
      ],
      [
        "leniyor",
        -9.278582922992857
      ],
      [
        "▁gunlerde",
        -9.434858247440152
      ],
      [
        "▁chat",
        -10.472342258708252
      ],
      [
        "+",
        -12.809526790838989
      ],
      [
        "▁pazarlama",
        -9.900434620650504
      ],
      [
        "▁18",
        -10.595690254866563
      ],
      [
        "'y",
        -7.85232178093009
      ],
      [
        "▁geri",
        -7.461467241143221
      ],
      [
        "▁taban",
        -9.765733182466676
      ],
      [
        "▁arazi",
        -9.792599891276168
      ],
      [
        "▁farklı",
        -8.491332385993857
      ],
      [
        "▁aktarmalı",
        -9.058469516423294
      ],
      [
        "bin",
        -9.513672347460165
      ],
      [
        "▁analizciler",
        -10.25679244165962
      ],
      [
        "▁kendisini",
        -7.291834468436704
      ],
      [
        "▁alıyordu",
        -10.397157346796032
      ],
      [
        "▁bakanlıgı",
        -9.777191067926644
      ],
      [
        "▁sabit",
        -9.22231593572425
      ],
      [
        "▁yaptıgı",
        -8.568931031110747
      ],
      [
        "▁1979",
        -9.957228283983179
      ],
      [
        "▁pu",
        -11.408164597291648
      ],
      [
        "▁kılıc",
        -9.872095832460982
      ],
      [
        "▁dusun",
        -8.909215177610076
      ],
      [
        "▁olusu",
        -10.110413368235655
      ],
      [
        "▁kararı",
        -9.077993538453217
      ],
      [
        "▁yuva",
        -10.165511032334043
      ],
      [
        "▁arada",
        -8.441554164011144
      ],
      [
        "▁izledi",
        -10.145654448933684
      ],
      [
        "▁du",
        -6.33322890003446
      ],
      [
        "▁serin",
        -9.734680671293923
      ],
      [
        "▁kazanclar",
        -10.091831011097577
      ],
      [
        "▁hamal",
        -10.437363755110553
      ],
      [
        "▁telas",
        -10.022669583534613
      ],
      [
        "lemek",
        -9.321822695448809
      ],
      [
        "▁turkiye'y",
        -10.703487232779146
      ],
      [
        "▁yse",
        -8.979056288198866
      ],
      [
        "tı",
        -8.324715511985309
      ],
      [
        "▁konusuyor",
        -9.397632518442673
      ],
      [
        "▁politikasını",
        -10.848074565250975
      ],
      [
        "ı",
        -6.612256086080283
      ],
      [
        "l",
        -6.223012821202349
      ],
      [
        "▁calısır",
        -9.705683414141571
      ],
      [
        "▁diy",
        -9.0653246558342
      ],
      [
        "▁uyma",
        -10.083397740458947
      ],
      [
        "▁tasıya",
        -9.702027508357848
      ],
      [
        "▁masal",
        -9.977449036072514
      ],
      [
        "bun",
        -10.777689337686775
      ],
      [
        "▁hizmeti",
        -8.289270535079472
      ],
      [
        "▁ısın",
        -10.05599839489689
      ],
      [
        "su",
        -8.88001573295357
      ],
      [
        "▁buray",
        -9.100176258701712
      ],
      [
        "▁islerini",
        -9.744253328434317
      ],
      [
        "▁sekilde",
        -7.577520250795854
      ],
      [
        "▁bosluk",
        -10.135788013633597
      ],
      [
        "▁hic",
        -7.048992658573039
      ],
      [
        "300",
        -9.606346454984338
      ],
      [
        "73",
        -10.807847826038392
      ],
      [
        "37",
        -10.573098755786937
      ],
      [
        "▁herkes",
        -6.889554463084344
      ],
      [
        "▁icat",
        -10.533507208219078
      ],
      [
        "▁yangın",
        -9.975688286630803
      ],
      [
        "e",
        -3.49719760532998
      ],
      [
        "▁getirebilir",
        -10.756676493850872
      ],
      [
        "▁varsa",
        -9.087884491937656
      ],
      [
        "4'",
        -9.646447993447321
      ],
      [
        "▁cennet",
        -9.841343217816616
      ],
      [
        "▁yemis",
        -9.5976336112993
      ],
      [
        "tu",
        -9.158395043648547
      ],
      [
        "▁general",
        -9.208443092177628
      ],
      [
        "▁zayif",
        -9.340968959920838
      ],
      [
        "▁kural",
        -10.172185091222477
      ],
      [
        "▁tam",
        -7.575890364815526
      ],
      [
        "▁ismini",
        -10.198608409400858
      ],
      [
        "▁yılını",
        -10.03285781671853
      ],
      [
        "▁sek",
        -9.914144961792472
      ],
      [
        "ını",
        -7.066160750082708
      ],
      [
        "▁istanbul'",
        -9.708211703432415
      ],
      [
        "bank",
        -10.143489193590131
      ],
      [
        "6.6",
        -9.959554949826867
      ],
      [
        "▁5-1",
        -12.163675011319157
      ],
      [
        "▁duzel",
        -10.595076108985463
      ],
      [
        "'nın",
        -7.660124819603142
      ],
      [
        "▁saman",
        -10.383155185835179
      ],
      [
        "▁sema",
        -10.88119228357271
      ],
      [
        "▁defter",
        -9.406030066767496
      ],
      [
        "▁bank",
        -9.247905424207746
      ],
      [
        "▁tarafta",
        -9.849298114746839
      ],
      [
        "▁bilet",
        -8.922953066461872
      ],
      [
        "▁icin",
        -3.695592988678742
      ],
      [
        "▁hikmet",
        -10.751004165015914
      ],
      [
        "▁personelin",
        -9.37055529131596
      ],
      [
        "▁0.9",
        -9.814412234819317
      ],
      [
        "▁okuma",
        -9.299580895325164
      ],
      [
        "▁columbus'",
        -9.982793847352783
      ],
      [
        "▁seslendi",
        -10.428304210876753
      ],
      [
        "▁dogu",
        -8.640342676374663
      ],
      [
        "▁nashville'",
        -10.3932581306818
      ],
      [
        "ne",
        -6.394105493560108
      ],
      [
        "lardı",
        -7.643584755172196
      ],
      [
        "▁rahat",
        -8.046347636861679
      ],
      [
        "▁bagıs",
        -9.971533469801361
      ],
      [
        "▁analistler",
        -8.975309294778027
      ],
      [
        "▁komisyoncu",
        -10.712110030152347
      ],
      [
        "▁celik",
        -9.55803097992661
      ],
      [
        "▁dekorasyon",
        -10.384942862433586
      ],
      [
        "▁ciftciler",
        -10.49000547716714
      ],
      [
        "ır",
        -8.522366261923946
      ],
      [
        "lasır",
        -10.284057949120477
      ],
      [
        "▁kahkaha",
        -10.041987546194752
      ],
      [
        "▁tanı",
        -8.583795566249574
      ],
      [
        "▁yerin",
        -8.252604379364016
      ],
      [
        "▁tırmandı",
        -10.817672418359862
      ],
      [
        "▁dedikodu",
        -10.47151096313535
      ],
      [
        "▁yurdu",
        -9.92255812672203
      ],
      [
        "5.3",
        -10.874273558595595
      ],
      [
        "▁ahsap",
        -10.817690927110265
      ],
      [
        "bizi",
        -10.708189506520814
      ],
      [
        "▁odalar",
        -8.772501561569268
      ],
      [
        "▁manzara",
        -9.103754927046172
      ],
      [
        "▁saatler",
        -9.609956083224418
      ],
      [
        "▁arıyoru",
        -10.280206820373303
      ],
      [
        ".60",
        -10.955725625320385
      ],
      [
        "▁sebep",
        -9.192530954076421
      ],
      [
        "▁bilimin",
        -10.426509536109823
      ],
      [
        "ser",
        -9.78742225093195
      ],
      [
        "▁titrey",
        -10.723032352933863
      ],
      [
        "▁ucusunuz",
        -10.017933186892794
      ],
      [
        "leyen",
        -9.391502895865466
      ],
      [
        "▁sakat",
        -10.22522695361922
      ],
      [
        "'a",
        -7.888843243050994
      ],
      [
        "c",
        -6.779551376003666
      ],
      [
        "▁12.0",
        -11.009849125258729
      ],
      [
        "▁beklenen",
        -9.769325079244506
      ],
      [
        "▁bunca",
        -10.520008690544369
      ],
      [
        "▁yetenegi",
        -10.52150372697058
      ],
      [
        "▁1.",
        -8.798540166567136
      ],
      [
        "ce",
        -8.544836835015023
      ],
      [
        "▁olay",
        -9.135052108834717
      ],
      [
        "▁sigara",
        -9.079215372639588
      ],
      [
        "▁sosyalist",
        -10.630311601433593
      ],
      [
        "ev",
        -11.809602426827798
      ],
      [
        "p",
        -10.99625889677093
      ],
      [
        "▁cesitleri",
        -9.785496983274573
      ],
      [
        "▁yattı",
        -10.25885995545002
      ],
      [
        "▁belirttigim",
        -10.547970455998714
      ],
      [
        "▁kaza",
        -8.828034320404488
      ],
      [
        "▁elektrik",
        -9.067165038421745
      ],
      [
        "▁kalmadi",
        -8.257349777743828
      ],
      [
        "▁acıgı",
        -10.454413563713143
      ],
      [
        "▁standart",
        -9.493802367033174
      ],
      [
        "▁insanın",
        -8.838001846268257
      ],
      [
        "▁bahse",
        -9.836132089360692
      ],
      [
        "▁oynama",
        -10.340412917237023
      ],
      [
        "▁duzenlemeleri",
        -10.57398766666277
      ],
      [
        "▁yonunde",
        -10.427431652909902
      ],
      [
        "ıvı",
        -11.887579079084775
      ],
      [
        "▁insanları",
        -9.397209650087667
      ],
      [
        "▁anlamıyla",
        -10.822768839872587
      ],
      [
        "▁butce",
        -9.309989176722215
      ],
      [
        "▁inc.",
        -9.03798679024666
      ],
      [
        "▁fonlar",
        -9.761212066301841
      ],
      [
        "▁iliskiler",
        -9.8333166041029
      ],
      [
        "▁dini",
        -10.407762898151155
      ],
      [
        ".23",
        -10.564161431779338
      ],
      [
        "▁inis",
        -10.091097454109093
      ],
      [
        "▁tu",
        -6.926966237301801
      ],
      [
        "▁sevme",
        -9.858921828762487
      ],
      [
        "▁hanimla",
        -9.951973050938305
      ],
      [
        "▁sonbahar",
        -10.041988541584193
      ],
      [
        "▁kuyrug",
        -10.751003765766185
      ],
      [
        "kten",
        -8.39911422915701
      ],
      [
        "▁hill",
        -10.889130416362704
      ],
      [
        "▁ilgisizdi",
        -10.015333995335295
      ],
      [
        "i'nde",
        -10.444530897707276
      ],
      [
        "▁kulagın",
        -10.507071114676158
      ],
      [
        "▁zi",
        -9.749058550494292
      ],
      [
        "unları",
        -10.14889697635057
      ],
      [
        "▁ongoruyor",
        -10.83011028849772
      ],
      [
        "hangi",
        -8.332897503474662
      ],
      [
        "66",
        -10.36247567808507
      ],
      [
        "▁kalmıs",
        -9.310206332674579
      ],
      [
        "▁yem",
        -10.217691653423632
      ],
      [
        "▁yurtdısın",
        -10.378854951554292
      ],
      [
        "▁gudu",
        -10.718777496774397
      ],
      [
        "▁doları'n",
        -9.174110532236718
      ],
      [
        "▁makam",
        -10.090781842048559
      ],
      [
        "▁sag",
        -7.961590501526557
      ],
      [
        "▁belirli",
        -9.529318704311779
      ],
      [
        "▁para",
        -6.986214088524686
      ],
      [
        "▁oturdugu",
        -10.192336141282578
      ],
      [
        "▁gercekles",
        -9.419393135568615
      ],
      [
        "7.8",
        -10.507545661971692
      ],
      [
        "▁mı",
        -11.773248092011569
      ],
      [
        "asyonu",
        -10.212487660643832
      ],
      [
        "▁cocuk",
        -7.594528352867494
      ],
      [
        "▁benim",
        -8.895263645921283
      ],
      [
        "▁go",
        -9.069405944628908
      ],
      [
        "▁erte",
        -9.157492691143023
      ],
      [
        "▁say",
        -8.888653009501173
      ],
      [
        "▁gosterin",
        -7.919799605845557
      ],
      [
        "▁sirketlerin",
        -9.922208676589294
      ],
      [
        "▁coluk",
        -10.431750979342134
      ],
      [
        "▁oynuyor",
        -9.816654450026753
      ],
      [
        "▁zı",
        -9.731017994050429
      ],
      [
        "'e",
        -8.084843082147824
      ],
      [
        "▁sozcu",
        -8.4611837479406
      ],
      [
        "▁haziran",
        -9.276247691921887
      ],
      [
        "▁135",
        -10.524816484443363
      ],
      [
        "▁etrafını",
        -10.764082662352433
      ],
      [
        "▁duvarda",
        -10.574810372532323
      ],
      [
        "▁yapmayı",
        -9.377289550467763
      ],
      [
        "▁calka",
        -10.301244146699354
      ],
      [
        "▁perde",
        -9.09346277550193
      ],
      [
        "▁dogrusu",
        -9.525092831088527
      ],
      [
        "▁dayanısma",
        -10.817672107491253
      ],
      [
        "▁gorun",
        -8.90770399620942
      ],
      [
        "▁gec",
        -7.943560784679153
      ],
      [
        "▁edinme",
        -10.598659443049371
      ],
      [
        "▁donanım",
        -10.751065201914985
      ],
      [
        "nda",
        -7.833501644152417
      ],
      [
        "▁duygusu",
        -10.343324220331608
      ],
      [
        "▁8.5",
        -10.09862692703964
      ],
      [
        "acagını",
        -8.472016215146569
      ],
      [
        "▁sevin",
        -9.86453295906954
      ],
      [
        "▁taklit",
        -10.521635231203906
      ],
      [
        "-200",
        -11.812779528872541
      ],
      [
        "▁incecik",
        -10.631055944487477
      ],
      [
        "▁metal",
        -10.016114232301529
      ],
      [
        "▁gitme",
        -9.417013666657944
      ],
      [
        "▁planı",
        -9.397366236252369
      ],
      [
        "▁istiklal",
        -10.471494784544431
      ],
      [
        "▁actı",
        -8.56896487394787
      ],
      [
        "▁yonelik",
        -10.804806123131412
      ],
      [
        "▁birbirimiz",
        -9.361017863192288
      ],
      [
        "▁baslangıc",
        -10.3500718946845
      ],
      [
        "▁fena",
        -8.753054765384086
      ],
      [
        "m",
        -9.71546091758096
      ],
      [
        "▁fincan",
        -10.142175516660863
      ],
      [
        "▁istasyonu",
        -10.679776345408364
      ],
      [
        "▁uretim",
        -9.14537524073146
      ],
      [
        "▁kidder",
        -10.33494152766565
      ],
      [
        "ici",
        -8.810588874178183
      ],
      [
        "▁kel",
        -10.168996943804665
      ],
      [
        "▁kanadı",
        -10.522056304214644
      ],
      [
        "▁toplantıda",
        -10.124235562978487
      ],
      [
        "▁atlanta'da",
        -7.885822903654595
      ],
      [
        "anlıslanabilirli",
        -10.887677854341668
      ],
      [
        "▁ayrıca",
        -7.732423825886602
      ],
      [
        "▁cukur",
        -10.473744909428017
      ],
      [
        "▁bolge",
        -8.654860315553865
      ],
      [
        "▁kacırdı",
        -10.312372821059133
      ],
      [
        "▁siyasal",
        -10.426266118861886
      ],
      [
        "▁bulmustu",
        -10.589882650383219
      ],
      [
        "▁emlak",
        -10.424580423905445
      ],
      [
        "▁odalari",
        -9.38014867796546
      ],
      [
        "▁belirtti",
        -9.274341402588686
      ],
      [
        "▁ec",
        -10.285056378831984
      ],
      [
        "▁goruntu",
        -9.817596073645387
      ],
      [
        "▁pantolon",
        -9.790689703217692
      ],
      [
        "▁minneapolis'te",
        -10.165455948144837
      ],
      [
        "[MASK]",
        0.0
      ],
      [
        "▁282",
        -10.784349193443067
      ],
      [
        "▁takdir",
        -9.877692531032341
      ],
      [
        "cun",
        -6.71166408540965
      ],
      [
        "▁ucag",
        -9.490915662112327
      ],
      [
        "se",
        -7.02789380022905
      ],
      [
        "▁dun",
        -7.826398011993958
      ],
      [
        "▁ogrenmek",
        -9.846857056962367
      ],
      [
        "isinda",
        -9.200735552629805
      ],
      [
        "▁green",
        -10.574184739223075
      ],
      [
        "ja",
        -9.88917285462623
      ],
      [
        "▁otomobil",
        -8.717101149485956
      ],
      [
        "▁gelmedi",
        -9.531583000571326
      ],
      [
        "▁bastı",
        -10.119108276748586
      ],
      [
        "▁bulmaya",
        -10.227906989174366
      ],
      [
        "00",
        -8.310518358353914
      ],
      [
        "▁sunlar",
        -8.674979951815075
      ],
      [
        "▁odul",
        -9.778572296275922
      ],
      [
        "▁editor",
        -10.253286646920614
      ],
      [
        "▁degisir",
        -10.825712034077966
      ],
      [
        "18",
        -12.105479095657515
      ],
      [
        "▁bru",
        -10.522968194719132
      ],
      [
        "▁3000",
        -10.442746850365866
      ],
      [
        "▁erdem",
        -10.522034154821922
      ],
      [
        "duz",
        -10.388405869855779
      ],
      [
        "▁yapılıyor",
        -10.295215237758443
      ],
      [
        "rate",
        -10.047948446593583
      ],
      [
        "▁yas",
        -8.187689806581407
      ],
      [
        "nden",
        -8.060048330852617
      ],
      [
        "be",
        -7.837862904171659
      ],
      [
        "▁aklım",
        -9.666031731502576
      ],
      [
        "▁54",
        -9.863656872981549
      ],
      [
        "▁muhabbet",
        -10.629680220979822
      ],
      [
        "▁hastane",
        -9.477029287631721
      ],
      [
        "▁servet",
        -10.01101113706077
      ],
      [
        "▁oyunun",
        -10.001635489252514
      ],
      [
        "▁52",
        -9.474990685845631
      ],
      [
        "▁oranla",
        -10.453070400472651
      ],
      [
        "▁seferinde",
        -10.825933201879277
      ],
      [
        "ın",
        -6.547622493002224
      ],
      [
        "'li",
        -9.747621430289097
      ],
      [
        "uzere",
        -10.204615232942093
      ],
      [
        "▁sek",
        -10.947438973603319
      ],
      [
        "▁uyum",
        -9.948593713256457
      ],
      [
        "'",
        -7.22494589067983
      ],
      [
        "ton",
        -8.318879109100948
      ],
      [
        "▁gonul",
        -9.355370938832596
      ],
      [
        "▁rab",
        -10.538076008625463
      ],
      [
        "kendini",
        -10.382347996438028
      ],
      [
        "▁nispet",
        -10.214813143287136
      ],
      [
        "bire",
        -9.213377729081705
      ],
      [
        "▁ke",
        -8.315167873563924
      ],
      [
        "▁ediyor",
        -7.052697784021138
      ],
      [
        "▁gittikc",
        -10.355028070762849
      ],
      [
        "▁kompleks",
        -10.52149308664095
      ],
      [
        "▁giriyor",
        -9.79036103635239
      ],
      [
        "▁ferah",
        -10.25361840151969
      ],
      [
        "▁wa",
        -9.725695657524176
      ],
      [
        "▁sınıfı",
        -8.94900196463377
      ],
      [
        "0",
        -9.329708899782709
      ],
      [
        "▁armagan",
        -10.6885044236192
      ],
      [
        "▁bilgisayar",
        -8.301840635904924
      ],
      [
        "▁krizi",
        -10.157526477137106
      ],
      [
        "▁kestir",
        -10.39552076599492
      ],
      [
        "▁2016",
        -9.308874043928322
      ],
      [
        "▁mutlu",
        -8.997835038609068
      ],
      [
        "▁konuda",
        -9.165175021931303
      ],
      [
        "▁ihracat",
        -9.72061987393585
      ],
      [
        "▁5.7",
        -10.983174100380875
      ],
      [
        "▁yoktu",
        -7.133277900650745
      ],
      [
        "h",
        -7.700124458784982
      ],
      [
        "▁konumunda",
        -10.284744973911236
      ],
      [
        "▁louis",
        -10.547654466930233
      ],
      [
        "▁olan",
        -8.129043926954479
      ],
      [
        "▁32",
        -9.8986938258308
      ],
      [
        "1-19",
        -12.809528646007319
      ],
      [
        "▁pat",
        -9.194816376360079
      ],
      [
        "▁yapar",
        -8.710566989124914
      ],
      [
        "▁198",
        -13.999596592358095
      ],
      [
        "▁%1",
        -8.947074690717066
      ],
      [
        "▁safha",
        -10.63068200034642
      ],
      [
        "▁destegi",
        -10.335218633556234
      ],
      [
        "▁kendi",
        -5.6647228416722895
      ],
      [
        "yuzotuz",
        -10.896203989690056
      ],
      [
        "▁eri",
        -9.158867927055066
      ],
      [
        "▁altı",
        -6.8870572946492
      ],
      [
        "0-1",
        -13.27225999513051
      ],
      [
        "▁katı",
        -9.357033839709391
      ],
      [
        "▁kalmaya",
        -10.069022618555355
      ],
      [
        "lar",
        -7.961244385437585
      ],
      [
        "▁alaka",
        -9.200589091068734
      ],
      [
        "▁beyefendi",
        -10.688503772014673
      ],
      [
        "▁95",
        -10.11033810294644
      ],
      [
        "▁lawson",
        -10.889100385013421
      ],
      [
        "▁51",
        -9.143002594478848
      ],
      [
        "▁paket",
        -9.389386567403799
      ],
      [
        "▁adres",
        -10.818020048105355
      ],
      [
        "▁vagon",
        -10.817756155666974
      ],
      [
        "▁dallas",
        -8.411677136015097
      ],
      [
        "▁vardır",
        -8.40704594696437
      ],
      [
        "▁baglantı",
        -9.947311155772983
      ],
      [
        "nun",
        -8.07222719056628
      ],
      [
        "▁memnuniyeti",
        -10.046340620325761
      ],
      [
        "▁prosedur",
        -10.751005331593523
      ],
      [
        "▁miyi",
        -7.919809520676319
      ],
      [
        "▁azınlık",
        -10.178586839947506
      ],
      [
        "ta",
        -6.727399479239597
      ],
      [
        "▁dustu",
        -7.910566585162171
      ],
      [
        "nın",
        -6.131783575398534
      ],
      [
        "▁yan",
        -7.648486210138145
      ],
      [
        "▁darbuka",
        -10.574125619551252
      ],
      [
        "▁pansiyon",
        -10.629697531069414
      ],
      [
        ",",
        -2.073968199337104
      ],
      [
        "▁ayır",
        -9.25679705890739
      ],
      [
        "▁zam",
        -10.308530091237074
      ],
      [
        "▁nefret",
        -10.253281240583485
      ],
      [
        "▁2001",
        -10.541663483046875
      ],
      [
        "▁kalmamıs",
        -10.498701356782636
      ],
      [
        "▁duzey",
        -9.403829413913645
      ],
      [
        "9.6",
        -10.556319638405284
      ],
      [
        "▁199",
        -12.077407608052267
      ],
      [
        "▁yayımlan",
        -10.608023741657258
      ],
      [
        "▁te",
        -8.025518519876726
      ],
      [
        "▁kalacak",
        -9.554888837464677
      ],
      [
        "▁catlak",
        -10.424317220581404
      ],
      [
        "▁ydı",
        -7.2089507199542044
      ],
      [
        "liyor",
        -8.62583928204904
      ],
      [
        "▁dahi",
        -10.23131396396872
      ],
      [
        "▁teknoloji",
        -8.98667040747774
      ],
      [
        "▁yol",
        -7.717127975871772
      ],
      [
        "▁rıhtım",
        -10.378419491107516
      ],
      [
        "lendiriyor",
        -10.298145928707736
      ],
      [
        "yol",
        -10.23710081778001
      ],
      [
        "▁ucan",
        -9.532682740421805
      ],
      [
        "▁atıl",
        -9.72439293758935
      ],
      [
        "▁teneke",
        -10.629684091259664
      ],
      [
        "▁performans",
        -8.419971538605795
      ],
      [
        "▁tacoma'",
        -10.13314344424595
      ],
      [
        "▁cekti",
        -8.67832114040022
      ],
      [
        "▁ask",
        -9.149786213892543
      ],
      [
        "▁alımı",
        -10.001970614097736
      ],
      [
        "▁leh",
        -10.521648274236046
      ],
      [
        "▁297",
        -10.906706760062976
      ],
      [
        "▁torba",
        -10.300924365098556
      ],
      [
        "▁boylesi",
        -10.888424034434596
      ],
      [
        "tim",
        -8.85835951425771
      ],
      [
        "▁13",
        -8.043983628244806
      ],
      [
        "'",
        -4.8924320266455865
      ],
      [
        "mıyor",
        -8.898344689984697
      ],
      [
        "leyin",
        -9.728172259508261
      ],
      [
        "▁telafi",
        -10.751005149962303
      ],
      [
        "3:",
        -10.893648315244551
      ],
      [
        "▁aktarma",
        -9.54279084407516
      ],
      [
        "▁s",
        -12.083159505724957
      ],
      [
        "▁sehrinde",
        -10.675869924319269
      ],
      [
        "▁bereket",
        -10.629697386887191
      ],
      [
        "▁bel",
        -9.316573588576984
      ],
      [
        "▁patron",
        -10.378584768638312
      ],
      [
        "4",
        -6.5540460640835505
      ],
      [
        "50000",
        -9.481042297468452
      ],
      [
        "▁gecmesi",
        -10.466735220225674
      ],
      [
        "▁aslan",
        -9.939576273290752
      ],
      [
        "▁denizin",
        -9.955071292550777
      ],
      [
        "▁yırtı",
        -10.107696355724416
      ],
      [
        "▁oteki",
        -10.09341093468947
      ],
      [
        "▁rahmet",
        -10.629680319847115
      ],
      [
        "▁disinda",
        -10.575538722966826
      ],
      [
        "▁tuttu",
        -8.961960777149391
      ],
      [
        "tas",
        -10.057363016908525
      ],
      [
        "sen",
        -9.21652649494202
      ],
      [
        "▁ni",
        -9.14524091533376
      ],
      [
        "▁orlando'",
        -9.153933873693745
      ],
      [
        "▁avrupa",
        -8.768089759370367
      ],
      [
        "▁ticaret",
        -8.732889643887344
      ],
      [
        "▁bana",
        -9.327560699522497
      ],
      [
        "ruyor",
        -9.919437084957133
      ],
      [
        "▁internette",
        -10.862086862603043
      ],
      [
        "▁uzaklas",
        -10.188499067563537
      ],
      [
        "▁duz",
        -9.253427244048925
      ],
      [
        "sı",
        -10.41126093834381
      ],
      [
        "▁olanakları",
        -9.919112317039945
      ],
      [
        "▁koyma",
        -10.779429963018634
      ],
      [
        "▁diken",
        -10.053812003793583
      ],
      [
        "▁dinlenme",
        -10.476645382158434
      ],
      [
        "alti",
        -10.464776979090464
      ],
      [
        "▁tadin",
        -10.821487830989692
      ],
      [
        "▁getirilme",
        -10.561970847091526
      ],
      [
        "▁45",
        -8.6417252970266
      ],
      [
        "▁30",
        -6.961537307481505
      ],
      [
        "▁cozul",
        -9.802111989200451
      ],
      [
        "▁60",
        -8.47541441656007
      ],
      [
        "▁pay",
        -8.229525212738322
      ],
      [
        "mayacagını",
        -9.656478786409107
      ],
      [
        "▁co",
        -10.859016870384504
      ],
      [
        "inler",
        -9.147359778007075
      ],
      [
        "iz",
        -7.532188226968462
      ],
      [
        "▁kulag",
        -10.773402089337164
      ],
      [
        "▁angeles'",
        -9.74078601239532
      ],
      [
        "▁arkadaslar",
        -9.384522433081298
      ],
      [
        "▁kucu",
        -9.669004179417296
      ],
      [
        "▁ulus",
        -9.74599742533597
      ],
      [
        "oru",
        -10.203952345947865
      ],
      [
        "▁tavsiye",
        -7.353211762338145
      ],
      [
        "▁olaylar",
        -9.71007097015891
      ],
      [
        "n",
        -3.5145215456790897
      ],
      [
        "▁aydınlat",
        -10.631512412456726
      ],
      [
        "▁yerlesti",
        -9.691720277654522
      ],
      [
        "▁hisseler",
        -9.453729975780657
      ],
      [
        "▁havaalanında",
        -9.861605673606539
      ],
      [
        "▁kısıt",
        -10.470789572539072
      ],
      [
        "in",
        -11.009759684549362
      ],
      [
        "lay",
        -8.357209148287364
      ],
      [
        "▁4.",
        -9.203855788183088
      ],
      [
        "▁italyan",
        -10.340399790053276
      ],
      [
        "▁omer",
        -9.841493752279684
      ],
      [
        "▁alma",
        -8.172686678726262
      ],
      [
        "▁kor",
        -8.605214339275513
      ],
      [
        "▁ilet",
        -9.665522907996994
      ],
      [
        "▁goturuyor",
        -10.85978357181898
      ],
      [
        "lenen",
        -9.206948117262328
      ],
      [
        "▁yasal",
        -10.030193791267829
      ],
      [
        "▁mahkemede",
        -10.573778158580007
      ],
      [
        "▁gu",
        -11.453395732365175
      ],
      [
        "▁meclisi",
        -10.300894839605649
      ],
      [
        "▁ciftlik",
        -10.088064501428857
      ],
      [
        "▁'dı",
        -10.576092024699758
      ],
      [
        "▁utan",
        -10.071685556274954
      ],
      [
        "▁kav",
        -8.717378593026726
      ],
      [
        "▁edeme",
        -10.295377471198227
      ],
      [
        "▁gormez",
        -10.185295709081387
      ],
      [
        "▁grev",
        -10.42402958263859
      ],
      [
        "nci",
        -10.678243779035718
      ],
      [
        "▁jones",
        -9.128918909805758
      ],
      [
        "▁ydu",
        -8.242796498591797
      ],
      [
        "ecekti",
        -9.956415596604085
      ],
      [
        "▁birimi",
        -9.516656024952413
      ],
      [
        "▁tasın",
        -10.008920617413843
      ],
      [
        "▁kazanc",
        -8.621215104144337
      ],
      [
        "▁havalimanı'nda",
        -10.629789944177507
      ],
      [
        "▁varacak",
        -9.639549289033711
      ],
      [
        "▁soylemedi",
        -10.43635286139094
      ],
      [
        "▁azal",
        -9.287730468581895
      ],
      [
        "▁olmayacak",
        -9.714693773046122
      ],
      [
        "▁geyik",
        -9.92250087088107
      ],
      [
        "▁ucuyor",
        -8.92924150587304
      ],
      [
        "▁fa",
        -8.906900049197075
      ],
      [
        "▁sabah",
        -7.350887620378297
      ],
      [
        "▁tarla",
        -9.19717962033294
      ],
      [
        "▁kapasitesi",
        -9.86331760413016
      ],
      [
        "▁%9.",
        -11.600875950498601
      ],
      [
        "▁isletiyor",
        -10.81820398734924
      ],
      [
        "nde",
        -8.026760100628698
      ],
      [
        "▁tanrı",
        -9.600742307383495
      ],
      [
        "▁havayolları",
        -8.184392636049028
      ],
      [
        "▁askı",
        -9.564201148382391
      ],
      [
        "▁bizi",
        -7.022754278498933
      ],
      [
        "▁davul",
        -10.629685782874294
      ],
      [
        "m",
        -4.1013654999395115
      ],
      [
        "▁sigorta",
        -8.972228940951213
      ],
      [
        "di",
        -9.629472024909338
      ],
      [
        "▁hacmi",
        -9.142623965888966
      ],
      [
        "▁uygar",
        -10.688661153779051
      ],
      [
        "▁federal",
        -8.643898440647979
      ],
      [
        "▁teror",
        -10.38591647209663
      ],
      [
        "fıkı",
        -12.121032786426541
      ],
      [
        "port",
        -10.059380453376198
      ],
      [
        "▁kulturu",
        -10.448817618463455
      ],
      [
        "▁satıcı",
        -9.697115917496323
      ],
      [
        "▁400",
        -9.513158611518943
      ],
      [
        "0",
        -7.311164126873569
      ],
      [
        "▁bakır",
        -9.74173117577839
      ],
      [
        "▁buz",
        -8.963774533720654
      ],
      [
        "▁haketmiyor",
        -10.751006939756548
      ],
      [
        "mek",
        -7.736848457997011
      ],
      [
        "3",
        -6.9170420672065935
      ],
      [
        "▁dıs",
        -8.776948491684298
      ],
      [
        "0-6",
        -11.809847726313187
      ],
      [
        "▁olabilecegi",
        -10.578674731031025
      ],
      [
        "teki",
        -9.646189249408192
      ],
      [
        "▁istatistik",
        -10.688503748045704
      ],
      [
        "▁gunduz",
        -9.476172541412527
      ],
      [
        "▁ali'",
        -10.867877428873182
      ],
      [
        "▁pencere",
        -8.821858771539045
      ],
      [
        "ator",
        -10.312710322793386
      ],
      [
        "▁giydi",
        -10.617453642570593
      ],
      [
        "gım",
        -9.279565655172998
      ],
      [
        "▁kendimde",
        -9.632540964210538
      ],
      [
        "▁koltug",
        -10.421416624840473
      ],
      [
        "▁biz",
        -8.642476297928784
      ],
      [
        "▁yuzlu",
        -8.639091192230595
      ],
      [
        "▁edecek",
        -8.806606393927595
      ],
      [
        "▁oturuyor",
        -10.123079839964701
      ],
      [
        "▁kullandı",
        -10.075498376534856
      ],
      [
        "%",
        -5.612064710322522
      ],
      [
        "▁keskin",
        -9.532358091447586
      ],
      [
        "▁bankaları",
        -10.045092414883802
      ],
      [
        "▁fırladı",
        -10.078832446656842
      ],
      [
        "▁huzurlu",
        -10.474092533708603
      ],
      [
        "▁alakasi",
        -10.266012708015829
      ],
      [
        "▁yollar",
        -10.163101998902938
      ],
      [
        "to",
        -8.499170550452924
      ],
      [
        "▁buldu",
        -8.54983004791732
      ],
      [
        "▁calisanlar",
        -9.241054249761126
      ],
      [
        "▁bulmak",
        -9.245236484383508
      ],
      [
        "▁isleyen",
        -10.822151502860178
      ],
      [
        "4-",
        -13.308189085778404
      ],
      [
        "▁fu",
        -9.527131004629723
      ],
      [
        "▁bicim",
        -9.56799933410191
      ],
      [
        "digi",
        -8.29980254252976
      ],
      [
        "ların",
        -10.046017326159038
      ],
      [
        "▁62.",
        -10.93445556329254
      ],
      [
        "▁%3.4",
        -11.443083918441491
      ],
      [
        "▁b",
        -5.969960014838198
      ],
      [
        "1.7",
        -10.932427490878277
      ],
      [
        "▁mes",
        -9.53061342328126
      ],
      [
        "ward",
        -10.688780405475995
      ],
      [
        "▁duzen",
        -8.751287276716841
      ],
      [
        "▁bahce",
        -8.474833243135071
      ],
      [
        "bindokuzyuz",
        -10.616152285005132
      ],
      [
        "▁kalmak",
        -10.144827370191427
      ],
      [
        "▁kurmay",
        -10.506813908755495
      ],
      [
        "▁tut",
        -8.585866045577275
      ],
      [
        "▁gures",
        -10.047415778159916
      ],
      [
        "▁sende",
        -9.565810326593109
      ],
      [
        "▁isabet",
        -10.630438446577008
      ],
      [
        "▁2",
        -6.394889887602322
      ],
      [
        "▁devri",
        -9.357985217337465
      ],
      [
        "▁1.19",
        -10.761712764325301
      ],
      [
        "▁yaratma",
        -10.240617261314153
      ],
      [
        "▁tesekkur",
        -8.38052758347661
      ],
      [
        "▁sukr",
        -10.82322320417992
      ],
      [
        "▁burada",
        -7.918770060234484
      ],
      [
        "▁1990",
        -8.286578179816033
      ],
      [
        "▁fiyatı",
        -8.925955047850595
      ],
      [
        "▁verme",
        -8.794141246875835
      ],
      [
        "▁hikaye",
        -9.031867986093049
      ],
      [
        "▁anlasıla",
        -10.471577790862352
      ],
      [
        "▁sorgu",
        -10.3362116988902
      ],
      [
        "▁ulkeleri",
        -10.390589389248156
      ],
      [
        "lestirme",
        -10.069478316097134
      ],
      [
        "cagız",
        -9.181760665440848
      ],
      [
        "▁hac",
        -10.38912123116122
      ],
      [
        "▁300",
        -8.446205231310003
      ],
      [
        "▁sefer",
        -8.870888739738186
      ],
      [
        "t",
        -6.307256664581648
      ],
      [
        "lerimizi",
        -9.372266647005711
      ],
      [
        "▁cagırdı",
        -10.449096890939835
      ],
      [
        "▁sinirli",
        -10.096218377006174
      ],
      [
        "▁piyasalarda",
        -10.75018938093601
      ],
      [
        "▁begeni",
        -10.63151807054287
      ],
      [
        "▁bekle",
        -9.284183738983451
      ],
      [
        "19",
        -11.864564628225486
      ],
      [
        "▁jersey",
        -10.378419577569089
      ],
      [
        "▁130",
        -9.402318196754825
      ],
      [
        "▁24",
        -8.116338891971235
      ],
      [
        "▁geldik",
        -10.02936770357181
      ],
      [
        "▁onunde",
        -8.302014371246225
      ],
      [
        "▁miting",
        -10.62970692950358
      ],
      [
        "meden",
        -9.656994212586437
      ],
      [
        "▁yemin",
        -10.71378561039056
      ],
      [
        "▁gerceklestir",
        -9.693175929476185
      ],
      [
        "▁philadelphia",
        -9.149598232259443
      ],
      [
        "▁omuz",
        -9.611259399288592
      ],
      [
        "▁anlattıgı",
        -10.440714073701034
      ],
      [
        "▁uyusturucu",
        -9.590027415879286
      ],
      [
        "▁gibi",
        -10.886178225453097
      ],
      [
        "▁titiz",
        -10.378440222753397
      ],
      [
        "▁rol",
        -9.480527091612444
      ],
      [
        "▁tezgah",
        -9.294805980974083
      ],
      [
        "▁lisans",
        -10.525166503479294
      ],
      [
        "▁lif",
        -10.379229682457174
      ],
      [
        "ikti",
        -10.450215035631732
      ],
      [
        "▁ozgu",
        -9.873220434222974
      ],
      [
        "▁beraber",
        -8.35880103338355
      ],
      [
        "▁98",
        -10.400090347572162
      ],
      [
        "▁yazma",
        -9.61315556263236
      ],
      [
        "▁stok",
        -9.908005054215836
      ],
      [
        "▁sifir",
        -10.04201081920121
      ],
      [
        "▁wall",
        -9.128915206650051
      ],
      [
        "▁gorur",
        -9.33253465046011
      ],
      [
        "▁kisiyi",
        -10.245276151090415
      ],
      [
        "▁mis",
        -8.616742931913802
      ],
      [
        "▁kapan",
        -9.569597861481114
      ],
      [
        ".",
        -7.046469846310622
      ],
      [
        "▁aracları",
        -10.118875316569126
      ],
      [
        "▁verilmesi",
        -10.429666453818367
      ],
      [
        "▁allah",
        -9.369040220352641
      ],
      [
        "▁ilgilenmedi",
        -9.458795189108358
      ],
      [
        "▁40",
        -7.973724781961952
      ],
      [
        "▁ozellikle",
        -8.145649180440158
      ],
      [
        "▁kazan",
        -8.560448039977574
      ],
      [
        "▁tanıtım",
        -10.472246009582234
      ],
      [
        "▁uyku",
        -9.288287758459706
      ],
      [
        "wa",
        -9.957796473651573
      ],
      [
        "▁gerek",
        -8.425192428893645
      ],
      [
        "▁gidecegi",
        -10.199222082106289
      ],
      [
        "▁3.4",
        -10.098588273861939
      ],
      [
        "nin",
        -9.301884204327274
      ],
      [
        "▁toplam",
        -8.554934339752762
      ],
      [
        "las",
        -8.773080719159807
      ],
      [
        "▁havayollarını",
        -9.339525466773859
      ],
      [
        "▁eksiklikler",
        -10.536683503102697
      ],
      [
        "▁secme",
        -10.112875847837747
      ],
      [
        "▁anca",
        -7.684326379094092
      ],
      [
        "▁kısım",
        -10.474352546663404
      ],
      [
        "abilir",
        -7.959409005003193
      ],
      [
        "ydı",
        -7.844397568188543
      ],
      [
        "▁tampa'da",
        -10.070766325838754
      ],
      [
        "▁ittifak",
        -10.423874128662582
      ],
      [
        "▁munasebet",
        -10.334941230086258
      ],
      [
        "▁degme",
        -10.28809636106487
      ],
      [
        "▁class",
        -8.85245068167141
      ],
      [
        "▁toplulugu",
        -10.823840118496555
      ],
[...]
