{
  "version": "1.0",
  "truncation": null,
  "padding": null,
  "added_tokens": [
    {
      "id": 762,
      "content": "[SEP]",
      "single_word": false,
      "lstrip": false,
      "rstrip": false,
      "normalized": false,
      "special": true
    },
    {
      "id": 837,
      "content": "[PAD]",
      "single_word": false,
      "lstrip": false,
      "rstrip": false,
      "normalized": false,
      "special": true
    },
    {
      "id": 1067,
      "content": "[CLS]",
      "single_word": false,
      "lstrip": false,
      "rstrip": false,
      "normalized": false,
      "special": true
    },
    {
      "id": 1940,
      "content": "[MASK]",
      "single_word": false,
      "lstrip": false,
      "rstrip": false,
      "normalized": false,
      "special": true
    },
    {
      "id": 3921,
      "content": "[UNK]",
      "single_word": false,
      "lstrip": false,
      "rstrip": false,
      "normalized": false,
      "special": true
    }
  ],
  "normalizer": {
    "type": "Sequence",
    "normalizers": [
      {
        "type": "NFD"
      },
      {
        "type": "Lowercase"
      },
      {
        "type": "StripAccents"
      }
    ]
  },
  "pre_tokenizer": {
    "type": "Sequence",
    "pretokenizers": [
      {
        "type": "Metaspace",
        "replacement": "▁",
        "prepend_scheme": "always",
        "split": true
      }
    ]
  },
  "post_processor": {
    "type": "TemplateProcessing",
    "single": [
      {
        "SpecialToken": {
          "id": "[CLS]",
          "type_id": 0
        }
      },
      {
        "Sequence": {
          "id": "A",
          "type_id": 0
        }
      },
      {
        "SpecialToken": {
          "id": "[SEP]",
          "type_id": 0
        }
      }
    ],
    "pair": [
      {
        "SpecialToken": {
          "id": "[CLS]",
          "type_id": 0
        }
      },
      {
        "Sequence": {
          "id": "A",
          "type_id": 0
        }
      },
      {
        "SpecialToken": {
          "id": "[SEP]",
          "type_id": 0
        }
      },
      {
        "Sequence": {
          "id": "B",
          "type_id": 1
        }
      },
      {
        "SpecialToken": {
          "id": "[SEP]",
          "type_id": 1
        }
      }
    ],
    "special_tokens": {
      "[CLS]": {
        "id": "[CLS]",
        "ids": [
          1067
        ],
        "tokens": [
          "[CLS]"
        ]
      },
      "[SEP]": {
        "id": "[SEP]",
        "ids": [
          762
        ],
        "tokens": [
          "[SEP]"
        ]
      }
    }
  },
  "decoder": {
    "type": "Metaspace",
    "replacement": "▁",
    "prepend_scheme": "always",
    "split": true
  },
  "model": {
    "type": "BPE",
    "dropout": null,
    "unk_token": "[UNK]",
    "continuing_subword_prefix": null,
    "end_of_word_suffix": null,
    "fuse_unk": false,
    "byte_fallback": false,
    "ignore_merges": false,
    "vocab": {
      "▁lou": 0,
      "–": 1,
      "▁%6": 2,
      "▁dısı": 3,
      "ırı": 4,
      "▁musait": 5,
      "▁aldı": 6,
      "▁ag": 7,
      "▁fa": 8,
      "▁sag": 9,
      "▁kural": 10,
      "▁tas": 11,
      "meyen": 12,
      "▁prob": 13,
      "▁hele": 14,
      "lanan": 15,
      "▁seni": 16,
      "dir": 17,
      "▁may": 18,
      "asına": 19,
      "▁dikkat": 20,
      "▁sinir": 21,
      "▁edec": 22,
      "▁isler": 23,
      "▁alma": 24,
      "bet": 25,
      "egi": 26,
      "ustur": 27,
      "▁yatırımcı": 28,
      "▁olustur": 29,
      "ust": 30,
      "▁emek": 31,
      "▁gelecek": 32,
      "▁general": 33,
      "'un": 34,
      "arak": 35,
      "▁veren": 36,
      "▁bul": 37,
      "▁belir": 38,
      "'ya": 39,
      "▁ocak": 40,
      "▁dort": 41,
      "▁calısan": 42,
      "▁cik": 43,
      "lak": 44,
      "etin": 45,
      "fet": 46,
      "▁ankara": 47,
      "ilig": 48,
      "▁sil": 49,
      "▁faz": 50,
      "ug": 51,
      "▁ig": 52,
      "▁hafif": 53,
      "orth": 54,
      "kara": 55,
      "▁tası": 56,
      "iz": 57,
      "▁genc": 58,
      "▁degisik": 59,
      "▁1989-8": 60,
      "▁bed": 61,
      "▁harıl": 62,
      "ındaki": 63,
      "▁tes": 64,
      "▁fer": 65,
      "▁mahk": 66,
      "▁iki": 67,
      "▁icin": 68,
      "▁32": 69,
      "▁et": 70,
      "ormal": 71,
      "ilir": 72,
      "ladım": 73,
      "▁hisseler": 74,
      "▁yarı": 75,
      "onelik": 76,
      "ecik": 77,
      "▁olduguna": 78,
      "▁n": 79,
      "ap": 80,
      "ane": 81,
      "▁ilk": 82,
      "▁om": 83,
      "▁5": 84,
      "▁kor": 85,
      "acı": 86,
      "▁'": 87,
      "▁dc'ye": 88,
      "▁agz": 89,
      "▁faaliyet": 90,
      "▁1.8": 91,
      "▁kisi": 92,
      "indeki": 93,
      "▁sahn": 94,
      "kun": 95,
      "▁sik": 96,
      "▁karıs": 97,
      "▁grub": 98,
      "s": 99,
      "▁tartıs": 100,
      "▁birer": 101,
      "ill": 102,
      "▁kalab": 103,
      "▁tır": 104,
      "alardan": 105,
      "▁sınıf": 106,
      "alanı": 107,
      "ugun": 108,
      ":00-22:30": 109,
      "nun": 110,
      "▁mahkem": 111,
      "▁dolu": 112,
      "▁animasyon": 113,
      "▁arasındaki": 114,
      "▁city'e": 115,
      "unca": 116,
      "▁kutur": 117,
      "lasyon": 118,
      "ayı": 119,
      "▁gittik": 120,
      "▁kazandı": 121,
      "▁kent": 122,
      "▁on": 123,
      "▁col": 124,
      "isler": 125,
      "▁beklen": 126,
      "▁city": 127,
      "dıktan": 128,
      "▁gar": 129,
      "▁ihtiyac": 130,
      "▁kendini": 131,
      "▁peters": 132,
      "'deki": 133,
      "eket": 134,
      "▁yolc": 135,
      "▁p": 136,
      "elerinin": 137,
      "bus": 138,
      "▁grup": 139,
      "'dan": 140,
      "▁don": 141,
      "▁kork": 142,
      "o": 143,
      "▁mektup": 144,
      "▁yildi": 145,
      "usu": 146,
      "▁21:00-22:30": 147,
      "▁boston'a": 148,
      "ıc": 149,
      "▁kars": 150,
      "▁americ": 151,
      "▁ifade": 152,
      "▁kov": 153,
      "▁mal": 154,
      "▁unit": 155,
      "▁indianapolis": 156,
      "misti": 157,
      "▁kazanc": 158,
      "▁olursa": 159,
      "mel": 160,
      "▁yalap": 161,
      "ene": 162,
      "▁ortak": 163,
      "▁ha": 164,
      "▁olduk": 165,
      "▁kims": 166,
      "▁tut": 167,
      "▁musta": 168,
      "‘": 169,
      "▁pu": 170,
      "m": 171,
      "▁haft": 172,
      "▁varlık": 173,
      "▁soyluyor": 174,
      "ga": 175,
      "▁car": 176,
      "ıyorlar": 177,
      "unku": 178,
      "▁birlikte": 179,
      "▁arkad": 180,
      "▁kucuk": 181,
      "▁ortal": 182,
      "ıt": 183,
      "▁kaynak": 184,
      "iliyor": 185,
      "ıp": 186,
      "▁karsil": 187,
      "▁kendine": 188,
      "alar": 189,
      "▁merk": 190,
      "▁diye": 191,
      "▁olsun": 192,
      "▁tef": 193,
      "▁h": 194,
      "▁eki": 195,
      ".2": 196,
      "ıyorum": 197,
      "▁cent": 198,
      "▁elestir": 199,
      "isco": 200,
      "isiz": 201,
      "▁gorur": 202,
      "raf": 203,
      "▁adım": 204,
      "lt": 205,
      "▁guzeldi": 206,
      "ans": 207,
      "▁ort": 208,
      "▁olabilirdi": 209,
      "▁obu": 210,
      "▁ustunde": 211,
      "▁devam": 212,
      "▁bus": 213,
      "▁%22": 214,
      "▁bana": 215,
      "▁jones": 216,
      "▁yabancı": 217,
      "ma": 218,
      "▁gorul": 219,
      "▁mesel": 220,
      "iyet": 221,
      "▁bakım": 222,
      "len": 223,
      "irmi": 224,
      "enkul": 225,
      "▁ref": 226,
      "▁%0.2": 227,
      "▁pa": 228,
      "ıs": 229,
      "larının": 230,
      "▁havuz": 231,
      "▁dakika": 232,
      "▁kayıp": 233,
      "li": 234,
      "▁vır": 235,
      "▁kurulu": 236,
      "ort": 237,
      "▁zırt": 238,
      "▁ney": 239,
      "dim": 240,
      "▁vakit": 241,
      "▁yab": 242,
      "▁yaz": 243,
      "▁1": 244,
      "tik": 245,
      "0.": 246,
      "▁-": 247,
      "▁coc": 248,
      "▁unut": 249,
      "▁fıkı": 250,
      "▁tamam": 251,
      "ını": 252,
      "sız": 253,
      "▁burada": 254,
      "92": 255,
      "▁bulun": 256,
      "are": 257,
      "▁35": 258,
      "cut": 259,
      "▁pek": 260,
      "▁arası": 261,
      "larak": 262,
      "▁man": 263,
      "▁konusunda": 264,
      "tur": 265,
      "gi": 266,
      "▁kendisi": 267,
      "min": 268,
      "▁bende": 269,
      "▁efendi": 270,
      "tre": 271,
      "▁iyi": 272,
      "sel": 273,
      "▁nedeniyle": 274,
      "▁onları": 275,
      "uzel": 276,
      "▁yardımcı": 277,
      "day": 278,
      "▁iht": 279,
      "▁dolay": 280,
      "▁%5": 281,
      "▁%10": 282,
      "▁boz": 283,
      "▁fel": 284,
      "▁hayır": 285,
      "▁tac": 286,
      "-1": 287,
      "vıl": 288,
      "u": 289,
      "▁bitir": 290,
      "▁personel": 291,
      "isti": 292,
      "▁urun": 293,
      "▁durumu": 294,
      "▁icine": 295,
      "▁uluslar": 296,
      "alara": 297,
      "inci": 298,
      "▁yapmaya": 299,
      "sik": 300,
      "▁rakam": 301,
      "▁hanim": 302,
      "▁butun": 303,
      "▁kırmızı": 304,
      "▁ileri": 305,
      "▁cat": 306,
      "uyorlar": 307,
      "▁yuzunden": 308,
      "▁sayı": 309,
      "▁kırm": 310,
      "▁gun": 311,
      "▁der": 312,
      "▁hol": 313,
      "▁film": 314,
      "▁so": 315,
      "asında": 316,
      "▁kans": 317,
      "▁kaliteli": 318,
      "▁baltimore'den": 319,
      "▁haline": 320,
      "ational": 321,
      "▁vak": 322,
      "▁evde": 323,
      "ısıyla": 324,
      "▁acı": 325,
      "esiyle": 326,
      "iyordu": 327,
      "▁iddia": 328,
      "▁ucak": 329,
      "▁b": 330,
      "▁gez": 331,
      "▁uy": 332,
      "▁porcuk": 333,
      "▁memnunum": 334,
      "▁bel": 335,
      "▁yılın": 336,
      "▁kalın": 337,
      "▁gece": 338,
      "lul": 339,
      "ina": 340,
      "▁demokr": 341,
      "▁iler": 342,
      "▁bu": 343,
      "ay": 344,
      "▁indianapolis'ten": 345,
      "▁sabit": 346,
      "gıc": 347,
      "▁ist": 348,
      "▁mektu": 349,
      "▁denize": 350,
      "▁magaz": 351,
      "▁sm": 352,
      "▁%11": 353,
      "▁fıkır": 354,
      "▁onumuzdeki": 355,
      "ustuk": 356,
      "▁california": 357,
      "▁isi": 358,
      "▁geri": 359,
      "▁ser": 360,
      "5": 361,
      "▁%18": 362,
      "cuk": 363,
      "▁yerde": 364,
      "▁ih": 365,
      "▁alıyor": 366,
      "dıg": 367,
      "▁eser": 368,
      "▁agız": 369,
      "▁hin": 370,
      "lli": 371,
      "siz": 372,
      "▁isaret": 373,
      "▁sonraki": 374,
      "▁yılda": 375,
      "▁terc": 376,
      "▁89-": 377,
      "▁ciddi": 378,
      "▁hiz": 379,
      "'nun": 380,
      "▁arttı": 381,
      "cisi": 382,
      "ız": 383,
      "▁yorum": 384,
      "▁alan": 385,
      "▁gider": 386,
      "▁gr": 387,
      "pa": 388,
      "▁hazine": 389,
      "▁yazar": 390,
      "ayıp": 391,
      "▁yakın": 392,
      "ese": 393,
      "lerde": 394,
      "ya'nın": 395,
      "▁dis": 396,
      "▁kagıt": 397,
      "▁birinin": 398,
      "▁ilgisiz": 399,
      "▁temsil": 400,
      "▁listeleyin": 401,
      "▁soz": 402,
      "▁sol": 403,
      "unuz": 404,
      "▁pis": 405,
      "▁st.": 406,
      "o'ya": 407,
      "▁onlardan": 408,
      "ekli": 409,
      "▁hukuk": 410,
      "▁acıklam": 411,
      "7": 412,
      "▁eder": 413,
      "ende": 414,
      "▁%50": 415,
      "▁sas": 416,
      "▁seattle'ye": 417,
      "▁bilgisayar": 418,
      "imli": 419,
      "▁mot": 420,
      "▁verir": 421,
      "▁fır": 422,
      "bes": 423,
      "vır": 424,
      "▁ettigini": 425,
      "ji": 426,
      "▁bulunuyor": 427,
      "ph": 428,
      "ek": 429,
      "amıyor": 430,
      "▁onların": 431,
      "▁cıkan": 432,
      "▁d": 433,
      "▁a": 434,
      "▁konum": 435,
      "am": 436,
      "uk": 437,
      "▁koy": 438,
      "▁millet": 439,
      "▁sikinti": 440,
      "▁bolg": 441,
      "▁cle": 442,
      "west": 443,
      "▁verim": 444,
      "▁must": 445,
      "iddet": 446,
      "oglu": 447,
      "▁kendilerini": 448,
      "▁guleryuzlu": 449,
      "▁%12": 450,
      "ısıl": 451,
      "iyorum": 452,
      "manı": 453,
      "▁derece": 454,
      "▁.\"": 455,
      "▁huz": 456,
      "▁sof": 457,
      "▁kansas": 458,
      "▁kullanmadim": 459,
      "▁devlet": 460,
      "▁bush": 461,
      "▁kopek": 462,
      "▁vur": 463,
      "abı": 464,
      "▁yaptıgı": 465,
      "▁dusunuyor": 466,
      "▁bos": 467,
      "▁edin": 468,
      "▁18": 469,
      "atur": 470,
      "urlu": 471,
      "j": 472,
      "met": 473,
      "unda": 474,
      "▁kapan": 475,
      "▁otuz": 476,
      "▁basv": 477,
      "▁yetis": 478,
      "▁azdi": 479,
      "de": 480,
      "▁kulak": 481,
      "x": 482,
      "▁birdenbire": 483,
      "▁borsa": 484,
      "▁ydı": 485,
      "mayacak": 486,
      "▁homur": 487,
      "▁vardi": 488,
      "eni": 489,
      "▁sona": 490,
      "▁52": 491,
      "lerin": 492,
      "▁mudur": 493,
      "▁500": 494,
      "▁ip": 495,
      "▁nik": 496,
      "▁not": 497,
      "rı": 498,
      "▁siyas": 499,
      "▁ogle": 500,
      "▁yahut": 501,
      "▁sıkır": 502,
      "ması": 503,
      "▁“": 504,
      "▁sık": 505,
      "▁bilg": 506,
      "ibar": 507,
      "iyak": 508,
      "ori": 509,
      "▁teknoloj": 510,
      "▁sana": 511,
      "▁acisindan": 512,
      "▁ac": 513,
      "▁cevr": 514,
      "▁poz": 515,
      "▁kar": 516,
      "▁birles": 517,
      "▁can": 518,
      "2-23": 519,
      "▁44": 520,
      "▁ısık": 521,
      "▁kongre": 522,
      "▁cocuklar": 523,
      "idik": 524,
      "▁gerceklestir": 525,
      "lerinin": 526,
      "co": 527,
      "▁;": 528,
      "▁alır": 529,
      "▁eks": 530,
      "▁dog": 531,
      "▁tel": 532,
      "▁universit": 533,
      "▁%27": 534,
      "▁,": 535,
      "▁olsa": 536,
      "▁kay": 537,
      "▁indi": 538,
      "▁kalmadim": 539,
      "▁sure": 540,
      "▁bahs": 541,
      "▁hızlı": 542,
      "▁verdigim": 543,
      "▁baslıyor": 544,
      "▁mik": 545,
      "▁%14": 546,
      "rily": 547,
      "lamıs": 548,
      "▁yak": 549,
      "▁kontr": 550,
      "san": 551,
      "▁fakat": 552,
      "▁bayan": 553,
      "▁siddet": 554,
      "mıstı": 555,
      "▁da": 556,
      "▁yatırım": 557,
      "'i": 558,
      "▁fikir": 559,
      "▁sermay": 560,
      "▁takım": 561,
      "▁maliyet": 562,
      "▁operasyon": 563,
      "ah": 564,
      "▁diy": 565,
      "luydu": 566,
      "ub": 567,
      "emmel": 568,
      "▁esk": 569,
      "▁delta": 570,
      "▁kup": 571,
      "▁ark": 572,
      "▁4": 573,
      "▁id": 574,
      "▁ilgilen": 575,
      "▁sirket": 576,
      "▁tah": 577,
      "▁iliskin": 578,
      "'yı": 579,
      "▁hisse": 580,
      "isleri": 581,
      "▁zor": 582,
      "▁/": 583,
      "rek": 584,
      "▁merak": 585,
      "▁hava": 586,
      "▁ir": 587,
      "▁californ": 588,
      "ye": 589,
      "z": 590,
      "▁harika": 591,
      "▁memphis": 592,
      "▁asla": 593,
      "▁beyle": 594,
      "malı": 595,
      "▁temmuz": 596,
      "▁veriyor": 597,
      "mas": 598,
      "▁”": 599,
      "um": 600,
      "eden": 601,
      "▁idi": 602,
      "▁stand": 603,
      "▁dair": 604,
      "▁dusman": 605,
      "eci": 606,
      "▁haber": 607,
      "uz": 608,
      "me": 609,
      "▁ayında": 610,
      "▁ediyorum": 611,
      "eyim": 612,
      "▁gerek": 613,
      "it": 614,
      "▁tuz": 615,
      "▁suyu": 616,
      "-6": 617,
      "▁art": 618,
      "▁cık": 619,
      "▁demek": 620,
      "▁ornek": 621,
      "ladık": 622,
      "▁tesisin": 623,
      "▁stan": 624,
      "ustri": 625,
      "▁olmaz": 626,
      "▁edil": 627,
      "ıtır": 628,
      "▁pahaliydi": 629,
      "▁%6.9": 630,
      "ırdı": 631,
      "oster": 632,
      "▁soguk": 633,
      "▁sul": 634,
      "▁%4": 635,
      "dıgı": 636,
      "tal": 637,
      "lerce": 638,
      "▁birbirine": 639,
      "gel": 640,
      "▁sonuc": 641,
      "edi": 642,
      "ırk": 643,
      "▁west": 644,
      "ul": 645,
      "▁fen": 646,
      "▁fut": 647,
      "30": 648,
      "▁dow": 649,
      "ımıza": 650,
      "ruk": 651,
      "▁sub": 652,
      "▁gıldır": 653,
      "▁saat": 654,
      "▁sıra": 655,
      "▁kısıt": 656,
      "▁bar": 657,
      "▁'de": 658,
      "▁politik": 659,
      ".9": 660,
      "▁kendileri": 661,
      "▁zamanlar": 662,
      "▁ısı": 663,
      "▁rest": 664,
      "alarda": 665,
      "▁nes": 666,
      "▁duzen": 667,
      "ilere": 668,
      "▁konustu": 669,
      "ayıf": 670,
      "▁25": 671,
      "▁de": 672,
      "▁hast": 673,
      "▁pil": 674,
      "▁tar": 675,
      "▁etraf": 676,
      "▁durumda": 677,
      "▁sp": 678,
      "hu": 679,
      "▁kil": 680,
      "▁benim": 681,
      "▁sal": 682,
      "▁feder": 683,
      "▁yanlıs": 684,
      "▁alabilir": 685,
      "ısır": 686,
      "esiz": 687,
      "▁listele": 688,
      "ayım": 689,
      "▁birka": 690,
      "▁f": 691,
      "▁...": 692,
      "▁sam": 693,
      "or": 694,
      "▁komisyon": 695,
      "▁oldur": 696,
      "▁cer": 697,
      "▁dır": 698,
      "▁kacın": 699,
      "▁bıraktı": 700,
      "aya": 701,
      "'yi": 702,
      "▁yukselt": 703,
      "▁lung": 704,
      "emiyor": 705,
      "bah": 706,
      "▁nash": 707,
      "▁..": 708,
      "▁kahve": 709,
      "▁24": 710,
      "▁soy": 711,
      "kı": 712,
      "▁aktar": 713,
      "▁sog": 714,
      "▁iddi": 715,
      "hur": 716,
      "yen": 717,
      "▁%9": 718,
      "▁tekn": 719,
      "▁farklı": 720,
      "iyi": 721,
      "▁co.": 722,
      "son": 723,
      "▁ettigi": 724,
      "anlar": 725,
      "▁edildi": 726,
      "acagım": 727,
      "▁17": 728,
      "▁salı": 729,
      ",": 730,
      "ast": 731,
      "▁%0.3": 732,
      "▁heyecan": 733,
      "▁genis": 734,
      "▁ham": 735,
      "▁dal": 736,
      "▁eylem": 737,
      "▁kendisine": 738,
      "▁amerika": 739,
      "▁gelir": 740,
      "▁yapma": 741,
      "egini": 742,
      "▁dolas": 743,
      "▁doktor": 744,
      "ide": 745,
      "▁konak": 746,
      "▁kurtul": 747,
      "▁york": 748,
      "▁bey": 749,
      "imin": 750,
      "ograf": 751,
      "ırak": 752,
      "▁sektor": 753,
      "ydi": 754,
      "ud": 755,
      "▁ruzgar": 756,
      "▁deg": 757,
      "▁kısa": 758,
      "▁laf": 759,
      "estir": 760,
      "▁nokta": 761,
      "[SEP]": 762,
      "▁fay": 763,
      "▁makal": 764,
      "▁ceyrek": 765,
      "▁tav": 766,
      "▁franc": 767,
      "ec": 768,
      "▁is": 769,
      "ayet": 770,
      "dıgım": 771,
      "dız": 772,
      "larıyla": 773,
      "▁hiss": 774,
      "ısın": 775,
      "mayan": 776,
      "lar": 777,
      "ya": 778,
      "▁ister": 779,
      "emek": 780,
      "▁!..": 781,
      "▁sar": 782,
      "tif": 783,
      "ogram": 784,
      "uldu": 785,
      "▁ner": 786,
      "8": 787,
      "▁yaklas": 788,
      "ılır": 789,
      "dın": 790,
      "▁tur": 791,
      "ama": 792,
      "▁sır": 793,
      "▁bon": 794,
      "▁inc.": 795,
      "▁yildiz": 796,
      "gı": 797,
      "fa": 798,
      "▁belirt": 799,
      "▁yani": 800,
      "▁%85": 801,
      "▁hem": 802,
      "▁ziy": 803,
      "▁karsılas": 804,
      "▁mıydı": 805,
      "▁!": 806,
      "▁sapır": 807,
      "▁olacagını": 808,
      "▁bazıları": 809,
      "▁fiyati": 810,
      "tedir": 811,
      "▁onune": 812,
      "▁si": 813,
      "▁cuma": 814,
      "likte": 815,
      "▁performans": 816,
      "edir": 817,
      "duncu": 818,
      "daki": 819,
      "▁vegas'a": 820,
      "amay": 821,
      "▁zayıf": 822,
      "▁1988": 823,
      "▁yardimci": 824,
      "▁kazan": 825,
      "lara": 826,
      "▁ayn": 827,
      "▁amer": 828,
      "mesini": 829,
      "ation": 830,
      "arl": 831,
      "lerdi": 832,
      "ısı": 833,
      "▁yemegi": 834,
      "aturk": 835,
      "▁borsası": 836,
      "[PAD]": 837,
      "landır": 838,
      "▁sark": 839,
      "tr": 840,
      "misler": 841,
      "gunu": 842,
      "▁baltimore": 843,
      "▁john": 844,
      "'nın": 845,
      "hangi": 846,
      "▁bit": 847,
      "▁istiyor": 848,
      ".3": 849,
      "amadim": 850,
      "▁az": 851,
      "kar": 852,
      "▁kısı": 853,
      "na": 854,
      "sınız": 855,
      "onik": 856,
      "▁pazartesi": 857,
      "▁ders": 858,
      "▁fena": 859,
      "ılmıs": 860,
      "▁senedi": 861,
      "emem": 862,
      "ore": 863,
      "samba": 864,
      "▁kıymetler": 865,
      "-4": 866,
      "▁il": 867,
      "▁pitt": 868,
      "▁sirketin": 869,
      "'e": 870,
      "ada": 871,
      "▁st": 872,
      ".1": 873,
      "▁tı": 874,
      "▁hepsini": 875,
      "eler": 876,
      "est": 877,
      "▁deger": 878,
      "eye": 879,
      "▁soh": 880,
      "lenmis": 881,
      "▁las": 882,
      "▁duvar": 883,
      "gru": 884,
      "▁siir": 885,
      "ık": 886,
      "▁sok": 887,
      "▁air": 888,
      "▁sez": 889,
      "▁endustr": 890,
      "bire": 891,
      "▁%13": 892,
      "tir": 893,
      "▁bulunan": 894,
      "isk": 895,
      "▁kaf": 896,
      "▁begenmedim": 897,
      "siy": 898,
      "▁yapar": 899,
      "▁fıldır": 900,
      "▁mah": 901,
      "▁%25": 902,
      "▁yerinde": 903,
      "▁am": 904,
      "▁bogaz": 905,
      "▁hav": 906,
      "▁uzere": 907,
      "▁fok": 908,
      "mur": 909,
      "▁alman": 910,
      "lam": 911,
      "▁sorum": 912,
      "▁misafirimiz": 913,
      "ental": 914,
      "▁finans": 915,
      "▁ur": 916,
      "dıgını": 917,
      "ti": 918,
      "▁yemekler": 919,
      "▁parc": 920,
      "alarını": 921,
      "▁cıkmıs": 922,
      "▁boyunca": 923,
      "▁yeni": 924,
      "lıgına": 925,
      "▁or": 926,
      "▁mavi": 927,
      "esini": 928,
      "▁yag": 929,
      "▁yatırımcılar": 930,
      "▁denizi": 931,
      "▁mut": 932,
      "▁sekilde": 933,
      "▁eger": 934,
      "adi": 935,
      "▁philadelphia'ya": 936,
      "▁end": 937,
      "▁mily": 938,
      "▁kav": 939,
      "endir": 940,
      "▁gu": 941,
      "iste": 942,
      "emez": 943,
      "▁otomobil": 944,
      ">": 945,
      "—": 946,
      "▁hepsi": 947,
      "up": 948,
      "ından": 949,
      "iy": 950,
      "ru": 951,
      "▁karsiligini": 952,
      "lım": 953,
      "▁yıl": 954,
      "ih": 955,
      "▁mac": 956,
      "▁harik": 957,
      "unu": 958,
      "mis": 959,
      "▁mak": 960,
      "▁nis": 961,
      "▁islet": 962,
      "▁goster": 963,
      "▁mart": 964,
      "▁allak": 965,
      "▁gidip": 966,
      "imiz": 967,
      "mayı": 968,
      "manın": 969,
      "▁almıs": 970,
      "▁ara": 971,
      "▁gelmis": 972,
      "*": 973,
      "▁istik": 974,
      "▁uzun": 975,
      "▁ver": 976,
      "▁hayat": 977,
      "▁sorun": 978,
      "▁ma": 979,
      "▁tamamen": 980,
      "bar": 981,
      "ni": 982,
      "▁sozcusu": 983,
      "▁muster": 984,
      "▁kendin": 985,
      "▁niyet": 986,
      "sas": 987,
      "▁cit": 988,
      "▁ulus": 989,
      "▁sis": 990,
      "et": 991,
      "▁deprem": 992,
      "▁cogu": 993,
      "ton": 994,
      "▁avuk": 995,
      "▁fayd": 996,
      "▁ton": 997,
      "▁gi": 998,
      "▁istedi": 999,
      "▁olma": 1000,
      "▁ulusal": 1001,
      "di": 1002,
      "▁kul": 1003,
      "75": 1004,
      "ısına": 1005,
      "▁kuzey": 1006,
      "mer": 1007,
      "▁fab": 1008,
      "▁sah": 1009,
      "▁lez": 1010,
      "▁gunluk": 1011,
      "ag": 1012,
      "eyle": 1013,
      "eral": 1014,
      "ufur": 1015,
      "lerini": 1016,
      "▁acıklan": 1017,
      "▁ab": 1018,
      "▁duruyor": 1019,
      "▁cocugun": 1020,
      ".6": 1021,
      "ugu": 1022,
      "▁cıyak": 1023,
      "▁erkek": 1024,
      "asyon": 1025,
      "▁br": 1026,
      "o'nun": 1027,
      "kel": 1028,
      "▁gide": 1029,
      "▁pat": 1030,
      "dikleri": 1031,
      "▁ev": 1032,
      "atif": 1033,
      "▁cin": 1034,
      "▁har": 1035,
      "iyorlar": 1036,
      "▁yerine": 1037,
      "elerek": 1038,
      "▁dondu": 1039,
      "▁deniz": 1040,
      "att": 1041,
      "elerin": 1042,
      "▁`": 1043,
      "▁sıng": 1044,
      "▁kayı": 1045,
      "▁duserek": 1046,
      "▁se": 1047,
      "▁sokak": 1048,
      "▁z": 1049,
      "▁ancak": 1050,
      "▁dusus": 1051,
      "▁milyon": 1052,
      "ur": 1053,
      "▁fot": 1054,
      "▁sınıfı": 1055,
      "▁kon": 1056,
      "▁bile": 1057,
      "▁gorus": 1058,
      "▁%7.875": 1059,
      "▁yeterli": 1060,
      "teki": 1061,
      "▁vat": 1062,
      "ati": 1063,
      "omur": 1064,
      "gur": 1065,
      "▁univ": 1066,
      "[CLS]": 1067,
      "▁haldır": 1068,
      "▁yer": 1069,
      "iydi": 1070,
      "▁kim": 1071,
      "▁fırıl": 1072,
      "▁chic": 1073,
      "▁1.2": 1074,
      "makta": 1075,
      "25": 1076,
      "▁salon": 1077,
      "▁sert": 1078,
      "▁ban": 1079,
      "▁lı": 1080,
      "▁fiyatı": 1081,
      "▁hanım": 1082,
      "▁vardı": 1083,
      "ilerini": 1084,
      "ıkır": 1085,
      "▁mor": 1086,
      "▁kur": 1087,
      "▁8": 1088,
      "ilik": 1089,
      "eh": 1090,
      "▁ses": 1091,
      "imden": 1092,
      "▁etmem": 1093,
      "▁gerektigini": 1094,
      "per": 1095,
      "ligini": 1096,
      "▁%99": 1097,
      "▁araba": 1098,
      "▁amac": 1099,
      "▁yuzde": 1100,
      "dıgında": 1101,
      "▁koca": 1102,
      "▁od": 1103,
      "▁imkanlari": 1104,
      "▁gaz": 1105,
      "▁aydın": 1106,
      "ke": 1107,
      "lin": 1108,
      "lanır": 1109,
      "arası": 1110,
      "ilmis": 1111,
      "rik": 1112,
      "▁yuzlu": 1113,
      "▁tok": 1114,
      ".0": 1115,
      "sı": 1116,
      "▁ap": 1117,
      "@": 1118,
      "▁arab": 1119,
      "▁tir": 1120,
      "tiler": 1121,
      "▁kıyas": 1122,
      "▁ulk": 1123,
      "▁azalt": 1124,
      "▁yetersiz": 1125,
      "▁ydu": 1126,
      "▁kalitesi": 1127,
      "▁pay": 1128,
      "▁onay": 1129,
      "▁aktiv": 1130,
      "▁azından": 1131,
      "▁olanak": 1132,
      "▁gordum": 1133,
      "▁%51": 1134,
      "gim": 1135,
      "▁corp.": 1136,
      "▁normaldi": 1137,
      "agına": 1138,
      "▁ama": 1139,
      "▁gelip": 1140,
      "▁mum": 1141,
      "▁kendime": 1142,
      "'nin": 1143,
      "▁yasam": 1144,
      "ger": 1145,
      "▁20": 1146,
      "▁hır": 1147,
      "▁soylem": 1148,
      "▁sozles": 1149,
      "▁odaydi": 1150,
      "▁kredi": 1151,
      "▁akıl": 1152,
      "▁sart": 1153,
      "▁onlar": 1154,
      "▁%6.90": 1155,
      "▁ar": 1156,
      "▁cek": 1157,
      "▁bat": 1158,
      "▁petrol": 1159,
      "▁alıp": 1160,
      "sın": 1161,
      "lerim": 1162,
      "▁ydi": 1163,
      "▁": 1164,
      "▁bekliyor": 1165,
      "ilm": 1166,
      "▁16": 1167,
      "▁ler": 1168,
      "▁hep": 1169,
      "▁49": 1170,
      "▁ul": 1171,
      "▁%7.8": 1172,
      "ebi": 1173,
      ".": 1174,
      "▁dusun": 1175,
      "▁emin": 1176,
      "ına": 1177,
      "▁yedi": 1178,
      "isindan": 1179,
      "▁hen": 1180,
      "▁zamanda": 1181,
      "▁1989-": 1182,
      "▁gidis": 1183,
      "▁nisan": 1184,
      "▁sanat": 1185,
      "▁ailelere": 1186,
      "kiz": 1187,
      "▁yapmak": 1188,
      "ancı": 1189,
      "▁nas": 1190,
      "▁%5.4": 1191,
      "▁olmayan": 1192,
      "ard": 1193,
      "▁boylece": 1194,
      "▁cag": 1195,
      "ise": 1196,
      "▁dum": 1197,
      "▁sonr": 1198,
      "▁su": 1199,
      "lastı": 1200,
      "▁gid": 1201,
      "▁tahmin": 1202,
      "▁halen": 1203,
      "▁buldum": 1204,
      "ıyordu": 1205,
      "▁bizde": 1206,
      "ılmaz": 1207,
      "▁altın": 1208,
      "▁cleveland": 1209,
      "anlık": 1210,
      "▁american": 1211,
      "▁salt": 1212,
      "layarak": 1213,
      "▁mali": 1214,
      "▁diger": 1215,
      "oz": 1216,
      "maya": 1217,
      "▁hangileri": 1218,
      ".50": 1219,
      "rum": 1220,
      "eme": 1221,
      "ızı": 1222,
      "▁olumlu": 1223,
      "ligin": 1224,
      "▁birden": 1225,
      "ayi": 1226,
      "udu": 1227,
      "▁yere": 1228,
      "ımız": 1229,
      "▁olur": 1230,
      "tor": 1231,
      "▁yalnız": 1232,
      "un": 1233,
      "▁baskan": 1234,
      "▁hat": 1235,
      "▁japon": 1236,
      "▁gelistir": 1237,
      "▁kullan": 1238,
      "▁tat": 1239,
      "▁dusuktu": 1240,
      "▁yeniden": 1241,
      "▁kesinlikle": 1242,
      "ens": 1243,
      "sizdi": 1244,
      "▁cog": 1245,
      "▁alıs": 1246,
      "tık": 1247,
      "▁aradi": 1248,
      "▁federal": 1249,
      "▁tip": 1250,
      "▁acıkladı": 1251,
      "▁imkan": 1252,
      "▁hızla": 1253,
      "▁2.7": 1254,
      "▁yasıyor": 1255,
      "ılım": 1256,
      "orm": 1257,
      "▁fark": 1258,
      "▁faiz": 1259,
      "▁li": 1260,
      "▁artısla": 1261,
      "▁saldır": 1262,
      "ult": 1263,
      "▁%15": 1264,
      "▁seh": 1265,
      "yak": 1266,
      "ların": 1267,
      "▁kere": 1268,
      "▁bayram": 1269,
      "▁gon": 1270,
      "digini": 1271,
      "uklum": 1272,
      "▁hız": 1273,
      "erv": 1274,
      "▁rom": 1275,
      "▁uretim": 1276,
      "▁kusur": 1277,
      "forman": 1278,
      "f": 1279,
      "▁hizmetleri": 1280,
      "▁borc": 1281,
      "sizlik": 1282,
      "▁yemeklerinden": 1283,
      "mesine": 1284,
      "cog": 1285,
      "▁ucuncu": 1286,
      "▁onemli": 1287,
      "gin": 1288,
      "▁sesi": 1289,
      "▁annem": 1290,
      "▁kimi": 1291,
      "▁avrup": 1292,
      "ve": 1293,
      "yle": 1294,
      "▁it": 1295,
      "▁yonet": 1296,
      "▁ornegin": 1297,
      "▁yandan": 1298,
      "encer": 1299,
      "▁dogr": 1300,
      "▁yardim": 1301,
      "▁size": 1302,
      "▁dieg": 1303,
      "▁gosterdi": 1304,
      "ren": 1305,
      "▁isim": 1306,
      "ınız": 1307,
      "▁etkil": 1308,
      "▁mi": 1309,
      "▁sir": 1310,
      "▁lezzet": 1311,
      "▁oy": 1312,
      "▁ruh": 1313,
      "▁199": 1314,
      "▁odamiz": 1315,
      "▁26": 1316,
      "ediye": 1317,
      "▁boyle": 1318,
      "ecegini": 1319,
      "▁kahval": 1320,
      "ilecek": 1321,
      "▁oakland'a": 1322,
      "▁ardından": 1323,
      "▁dib": 1324,
      "▁uz": 1325,
      "▁hij": 1326,
      "▁beye": 1327,
      "medik": 1328,
      "ch": 1329,
      "siniz": 1330,
      "dak": 1331,
      "▁sel": 1332,
      "ov": 1333,
      "▁cıktı": 1334,
      "▁ingiliz": 1335,
      "▁aslında": 1336,
      "▁bilim": 1337,
      "▁talep": 1338,
      "digim": 1339,
      "▁yiyecek": 1340,
      "▁oldugun": 1341,
      "ade": 1342,
      "▁baltimore'ye": 1343,
      "▁cel": 1344,
      "▁12": 1345,
      "▁yuksekti": 1346,
      "▁ustu": 1347,
      "ran": 1348,
      "imizin": 1349,
      "lik": 1350,
      "▁savun": 1351,
      "eb": 1352,
      "▁alacak": 1353,
      "▁hakk": 1354,
      "(": 1355,
      "dugu": 1356,
      "asi": 1357,
      "▁city'den": 1358,
      "ily": 1359,
      "anc": 1360,
      "▁sup": 1361,
      "▁olmalı": 1362,
      "▁…": 1363,
      "l": 1364,
      "'te": 1365,
      "alt": 1366,
      "▁vegas": 1367,
      "ılması": 1368,
      "|": 1369,
      "lerinden": 1370,
      "▁ucretin": 1371,
      "▁nerede": 1372,
      "ısından": 1373,
      "▁ucuyor": 1374,
      "▁anket": 1375,
      "▁istem": 1376,
      "ika": 1377,
      "▁yaklasık": 1378,
      "▁okul": 1379,
      "▁ta": 1380,
      "▁havaalanı": 1381,
      "▁yukseldi": 1382,
      "▁spor": 1383,
      "eydi": 1384,
      "ustu": 1385,
      "may": 1386,
      "▁ug": 1387,
      "nız": 1388,
      "emey": 1389,
      "'n": 1390,
      "ce": 1391,
      "yon": 1392,
      "n": 1393,
      "gimiz": 1394,
      "▁yıldız": 1395,
      "▁veriyorum": 1396,
      "ut": 1397,
      "▁tanım": 1398,
      "iniz": 1399,
      "▁duzel": 1400,
      "▁koltuk": 1401,
      "▁75": 1402,
      "rem": 1403,
      "kan": 1404,
      "▁ekmek": 1405,
      "b": 1406,
      "▁tum": 1407,
      "▁avukat": 1408,
      "▁minne": 1409,
      "▁devr": 1410,
      "▁.'": 1411,
      "▁gor": 1412,
      "ank": 1413,
      "▁olmadıgı": 1414,
      "▁sarı": 1415,
      "▁oteli": 1416,
      "▁persembe": 1417,
      "▁kaldı": 1418,
      "▁yans": 1419,
      "▁altına": 1420,
      "▁ediyoruz": 1421,
      "uy": 1422,
      "▁70": 1423,
      "▁mev": 1424,
      "▁sadece": 1425,
      "iran": 1426,
      "▁kong": 1427,
      "i": 1428,
      "orta": 1429,
      "▁7": 1430,
      "▁yine": 1431,
      "▁anlas": 1432,
      "inc": 1433,
      "▁yiy": 1434,
      "▁okuy": 1435,
      "▁ayrıl": 1436,
      "▁yemekleri": 1437,
      "▁sırada": 1438,
      "▁konut": 1439,
      "▁derli": 1440,
      "▁beri": 1441,
      "▁nereden": 1442,
      "▁sizi": 1443,
      "▁civ": 1444,
      "sim": 1445,
      "▁bog": 1446,
      "▁piyasa": 1447,
      "▁allah": 1448,
      "man": 1449,
      "▁kok": 1450,
      ".000": 1451,
      "▁hayvan": 1452,
      "oy": 1453,
      "▁tab": 1454,
      "▁kahv": 1455,
      "▁aynı": 1456,
      "▁dok": 1457,
      "▁olm": 1458,
      "▁a.": 1459,
      "▁plan": 1460,
      "▁avrupa": 1461,
      "1": 1462,
      "▁edebiyat": 1463,
      "▁anadolu": 1464,
      "enin": 1465,
      "ya'da": 1466,
      "▁gunu": 1467,
      "▁mir": 1468,
      "▁olcude": 1469,
      "▁basında": 1470,
      "▁fing": 1471,
      "▁gazet": 1472,
      "ess": 1473,
      "▁insaat": 1474,
      "olu": 1475,
      "istan": 1476,
      "▁muk": 1477,
      "▁ayr": 1478,
      "▁ilgiliydi": 1479,
      "▁%8.2": 1480,
      "▁aksamı": 1481,
      "▁alak": 1482,
      "▁karayol": 1483,
      "detti": 1484,
      "▁?..": 1485,
      "burg": 1486,
      "▁gecti": 1487,
      "▁sahibi": 1488,
      "▁tor": 1489,
      "dular": 1490,
      "mistir": 1491,
      "▁ilet": 1492,
      "▁hik": 1493,
      "▁%3.5": 1494,
      "▁icecek": 1495,
      "▁hus": 1496,
      "▁dil": 1497,
      "▁hic": 1498,
      "▁ren": 1499,
      "▁36": 1500,
      "▁durum": 1501,
      "▁kisisel": 1502,
      "iforn": 1503,
      "▁danıs": 1504,
      "▁dun": 1505,
      "▁kard": 1506,
      "▁kampan": 1507,
      "▁tık": 1508,
      "▁dobra": 1509,
      "▁yaptirdi": 1510,
      "yan": 1511,
      "▁insanları": 1512,
      "▁ciz": 1513,
      "ire": 1514,
      "▁milwaukee'den": 1515,
      "▁lir": 1516,
      "onel": 1517,
      "tu": 1518,
      "o'dan": 1519,
      "osu": 1520,
      "▁dısında": 1521,
      "▁gecer": 1522,
      "kur": 1523,
      "▁13": 1524,
      "▁davet": 1525,
      "▁ingil": 1526,
      "mustur": 1527,
      "▁tabii": 1528,
      "let": 1529,
      "larımız": 1530,
      "▁ilan": 1531,
      "▁sessiz": 1532,
      "▁bo": 1533,
      "sunuz": 1534,
      "adaki": 1535,
      "lıga": 1536,
      "'": 1537,
      "▁kom": 1538,
      "▁yardımcısı": 1539,
      "ic": 1540,
      "▁gog": 1541,
      "▁yay": 1542,
      "▁benimle": 1543,
      "sin": 1544,
      "ice": 1545,
      "cok": 1546,
      "ung": 1547,
      "▁fi": 1548,
      "19": 1549,
      "▁fiyat": 1550,
      "alarla": 1551,
      "▁dolayı": 1552,
      "acag": 1553,
      "▁adam": 1554,
      "alık": 1555,
      "der": 1556,
      "tıgı": 1557,
      "▁kaybet": 1558,
      "cılar": 1559,
      "aten": 1560,
      "▁ten": 1561,
      "alak": 1562,
      "▁anad": 1563,
      "▁gonder": 1564,
      ";": 1565,
      "▁fiyatlar": 1566,
      "▁in": 1567,
      "ki": 1568,
      "larını": 1569,
      "▁tane": 1570,
      "▁tanı": 1571,
      "▁agır": 1572,
      "▁temiz": 1573,
      "ob": 1574,
      "▁asıl": 1575,
      "▁nashville": 1576,
      "▁boston'dan": 1577,
      "▁icer": 1578,
      "ıntı": 1579,
      "▁?": 1580,
      "▁isteyen": 1581,
      "agıt": 1582,
      "▁dunya": 1583,
      "▁miydi": 1584,
      "▁ile": 1585,
      "▁tampa": 1586,
      "▁konfor": 1587,
      "▁tehlik": 1588,
      "uru": 1589,
      "▁kız": 1590,
      "uyordu": 1591,
      "▁sekil": 1592,
      "▁zaman": 1593,
      "▁veririm": 1594,
      "▁uzerinde": 1595,
      "cısı": 1596,
      "▁strate": 1597,
      "▁ter": 1598,
      "▁'nin": 1599,
      "▁kad": 1600,
      "▁oldugunu": 1601,
      "▁ph": 1602,
      "▁takır": 1603,
      "obil": 1604,
      "si": 1605,
      "unuyor": 1606,
      "▁degistir": 1607,
      "▁basarılı": 1608,
      "▁gorunce": 1609,
      "▁tu": 1610,
      "▁bilet": 1611,
      "dır": 1612,
      "▁em": 1613,
      "▁iz": 1614,
      "▁istanbul": 1615,
      "ikti": 1616,
      "gında": 1617,
      "▁pan": 1618,
      "mey": 1619,
      "▁herk": 1620,
      "▁0": 1621,
      "▁sehr": 1622,
      "▁os": 1623,
      "luyor": 1624,
      "▁sunu": 1625,
      "▁sosyal": 1626,
      "▁9": 1627,
      "▁cep": 1628,
      "masının": 1629,
      "▁bicim": 1630,
      "▁puan": 1631,
      "▁biles": 1632,
      "▁ayakk": 1633,
      "▁servis": 1634,
      "asının": 1635,
      "'ta": 1636,
      "▁sek": 1637,
      "▁duzey": 1638,
      "bas": 1639,
      "▁hale": 1640,
      "'s": 1641,
      "umu": 1642,
      "▁ka": 1643,
      "ıg": 1644,
      "▁kop": 1645,
      "e": 1646,
      "▁but": 1647,
      "▁%8": 1648,
      "pıs": 1649,
      "▁alıcı": 1650,
      "lası": 1651,
      "▁yuzden": 1652,
      "▁mec": 1653,
      "ret": 1654,
      "▁gorev": 1655,
      "mamıs": 1656,
      "▁lake": 1657,
      "▁sade": 1658,
      "▁tatlı": 1659,
      "▁%3": 1660,
      "▁'d": 1661,
      "▁dogrudan": 1662,
      "atik": 1663,
      "▁eg": 1664,
      "edef": 1665,
      "▁hicbiri": 1666,
      "dek": 1667,
      "alet": 1668,
      "rub": 1669,
      "▁siyasi": 1670,
      "larla": 1671,
      "▁yetk": 1672,
      "▁lak": 1673,
      "▁arastır": 1674,
      "▁pah": 1675,
      "▁yap": 1676,
      "▁iyice": 1677,
      "▁degillerdi": 1678,
      "▁doy": 1679,
      "▁sevgil": 1680,
      "▁geciyor": 1681,
      "▁international": 1682,
      "▁kuc": 1683,
      "▁cocuklu": 1684,
      "arken": 1685,
      "▁azal": 1686,
      "▁dedik": 1687,
      "ılıgı": 1688,
      "▁elektrik": 1689,
      "▁tesekkurler": 1690,
      "▁donem": 1691,
      "▁bin": 1692,
      "▁kitap": 1693,
      "▁cinc": 1694,
      "▁yonelik": 1695,
      "▁soyler": 1696,
      "▁com": 1697,
      "9": 1698,
      "▁memur": 1699,
      "▁surekli": 1700,
      "▁hadi": 1701,
      "en": 1702,
      "▁dest": 1703,
      "▁tep": 1704,
      "▁yetersizdi": 1705,
      "▁ince": 1706,
      "▁%": 1707,
      "▁isten": 1708,
      "kal": 1709,
      "▁198": 1710,
      "▁1990": 1711,
      "an": 1712,
      "▁demir": 1713,
      "dog": 1714,
      "▁hayal": 1715,
      "▁bence": 1716,
      "▁motor": 1717,
      "▁enflasyon": 1718,
      "▁vucu": 1719,
      "▁kalmıs": 1720,
      "eyn": 1721,
      "ig": 1722,
      "ıl": 1723,
      "▁herkes": 1724,
      "leme": 1725,
      "▁baglan": 1726,
      "▁ucrete": 1727,
      "ata": 1728,
      "gan": 1729,
      "▁makin": 1730,
      "▁du": 1731,
      "▁toplan": 1732,
      "▁ucusların": 1733,
      "▁port": 1734,
      "▁dahi": 1735,
      "ecegi": 1736,
      "▁hepsin": 1737,
      "abil": 1738,
      "▁inc": 1739,
      "tigini": 1740,
      "▁ogretmen": 1741,
      "▁philadelphia'dan": 1742,
      "▁gorunuyor": 1743,
      "yalar": 1744,
      "▁yapıl": 1745,
      "▁ogren": 1746,
      "oh": 1747,
      "ıyla": 1748,
      "ee": 1749,
      "▁odam": 1750,
      "aman": 1751,
      "▁olabil": 1752,
      "▁anda": 1753,
      "▁kamu": 1754,
      "▁ov": 1755,
      "▁sıcak": 1756,
      "deki": 1757,
      "▁kam": 1758,
      "▁tek": 1759,
      "▁sat": 1760,
      "▁hizmet": 1761,
      "ed": 1762,
      "▁her": 1763,
      "▁red": 1764,
      "▁kis": 1765,
      "▁ortaya": 1766,
      "▁ken": 1767,
      "6": 1768,
      "zet": 1769,
      "▁aileler": 1770,
      "▁mucadel": 1771,
      "▁bunlar": 1772,
      "▁zevk": 1773,
      "▁atlanta'dan": 1774,
      "ter": 1775,
      "siyon": 1776,
      "▁hatta": 1777,
      "hut": 1778,
      "▁do": 1779,
      "▁detroit": 1780,
      "▁%17": 1781,
      "▁resim": 1782,
      "▁kol": 1783,
      "ılı": 1784,
      "▁uret": 1785,
      "▁mayıs": 1786,
      "▁gunes": 1787,
      "▁ogret": 1788,
      "▁continental": 1789,
      "▁tak": 1790,
      "▁ettim": 1791,
      "sat": 1792,
      "leb": 1793,
      "▁ber": 1794,
      "ukee": 1795,
      "gmen": 1796,
      "▁telefonla": 1797,
      "▁duny": 1798,
      "ecek": 1799,
      "▁belli": 1800,
      "▁uf": 1801,
      "gis": 1802,
      "af": 1803,
      "▁gene": 1804,
      "w": 1805,
      "▁geliyor": 1806,
      "▁calisanlar": 1807,
      "tern": 1808,
      "▁kez": 1809,
      "▁senet": 1810,
      "▁bakıs": 1811,
      "▁karsın": 1812,
      "▁38": 1813,
      "▁tatil": 1814,
      "▁ed": 1815,
      "▁yanı": 1816,
      "▁louis": 1817,
      "▁fort": 1818,
      "▁c": 1819,
      ".8": 1820,
      "▁..\"": 1821,
      "asyonu": 1822,
      "acık": 1823,
      "▁oper": 1824,
      "▁fokur": 1825,
      "ri": 1826,
      "▁us": 1827,
      "▁anlamda": 1828,
      "▁cumhuriyet": 1829,
      "▁%0": 1830,
      "▁ihtiyar": 1831,
      "ark": 1832,
      "▁yardım": 1833,
      "cusu": 1834,
      "▁sını": 1835,
      "▁key": 1836,
      "▁etmek": 1837,
      "▁sasır": 1838,
      "▁mol": 1839,
      "ich": 1840,
      "aların": 1841,
      "▁birbirlerine": 1842,
      "▁yuzu": 1843,
      "▁gecir": 1844,
      "kin": 1845,
      "▁oldum": 1846,
      "'in": 1847,
      "▁kadın": 1848,
      "mez": 1849,
      "▁kemal": 1850,
      "larına": 1851,
      "emin": 1852,
      "laması": 1853,
      "vel": 1854,
      "▁reklam": 1855,
      "▁60": 1856,
      "▁%7.7": 1857,
      "amb": 1858,
      "sil": 1859,
      "ket": 1860,
      "▁surdur": 1861,
      "▁ona": 1862,
      "▁begendim": 1863,
      "▁artarak": 1864,
      "▁eskiydi": 1865,
      "▁cumhur": 1866,
      "▁olay": 1867,
      "▁kapandı": 1868,
      "▁siy": 1869,
      "▁girdi": 1870,
      "▁didik": 1871,
      "▁satım": 1872,
      "▁yagm": 1873,
      "▁temizdi": 1874,
      "▁basar": 1875,
      "▁kendisin": 1876,
      "▁gerekiyor": 1877,
      "ums": 1878,
      "ladı": 1879,
      "miyorum": 1880,
      "▁tefek": 1881,
      "▁1991-19": 1882,
      "miyor": 1883,
      "32": 1884,
      "rim": 1885,
      "▁cift": 1886,
      "lif": 1887,
      "tigi": 1888,
      "▁ilgilendiler": 1889,
      "▁dev": 1890,
      "▁dı": 1891,
      "▁un": 1892,
      "▁yol": 1893,
      "▁met": 1894,
      "▁uzan": 1895,
      "▁sem": 1896,
      "▁agac": 1897,
      "ıy": 1898,
      "▁nedir": 1899,
      "▁herkese": 1900,
      "rli": 1901,
      "▁tezgah": 1902,
      "kuz": 1903,
      "▁gormek": 1904,
      "▁pazar": 1905,
      "lendir": 1906,
      "ten": 1907,
      "▁nere": 1908,
      "▁ol": 1909,
      "▁kapat": 1910,
      "▁bol": 1911,
      "re": 1912,
      "▁angel": 1913,
      "eviz": 1914,
      "▁net": 1915,
      "▁hukum": 1916,
      "▁det": 1917,
      "▁hicbir": 1918,
      "ısız": 1919,
      "lem": 1920,
      "ında": 1921,
      "▁beklem": 1922,
      "▁al": 1923,
      "▁gev": 1924,
      "▁gidi": 1925,
      "▁koyun": 1926,
      "▁tec": 1927,
      "azım": 1928,
      "▁durgun": 1929,
      "ent": 1930,
      "▁100": 1931,
      "▁kons": 1932,
      "▁karıstır": 1933,
      "ert": 1934,
      "lim": 1935,
      "▁ozellikle": 1936,
      "dis": 1937,
      "▁endeks": 1938,
      "▁toplam": 1939,
      "[MASK]": 1940,
      "▁aksam": 1941,
      "▁sin": 1942,
      "igini": 1943,
      "esinden": 1944,
      "▁calısma": 1945,
      "▁galib": 1946,
      "▁ekledi": 1947,
      "▁bildirdi": 1948,
      "▁ise": 1949,
      "iligi": 1950,
      "▁mag": 1951,
      "▁sonra": 1952,
      "las": 1953,
      "▁pers": 1954,
      "▁oysa": 1955,
      "▁duy": 1956,
      "▁ard": 1957,
      "urken": 1958,
      "▁francisco'ya": 1959,
      "▁lazım": 1960,
      "ly": 1961,
      "▁sim": 1962,
      "sızlık": 1963,
      "sal": 1964,
      "isinde": 1965,
      "▁surec": 1966,
      "hal": 1967,
      "▁gok": 1968,
      "▁)": 1969,
      "▁miami'ye": 1970,
      "ist": 1971,
      "ustos": 1972,
      "tıyor": 1973,
      "fi": 1974,
      "apur": 1975,
      "▁seatt": 1976,
      "▁es": 1977,
      "'da": 1978,
      "yıl": 1979,
      "▁hamam": 1980,
      "okr": 1981,
      "ırt": 1982,
      "ka": 1983,
      "▁oyn": 1984,
      "ıpıs": 1985,
      ".5": 1986,
      "▁hey": 1987,
      "▁''": 1988,
      "▁ila": 1989,
      "usunu": 1990,
      "▁egil": 1991,
      "uydu": 1992,
      "▁zaten": 1993,
      "cı": 1994,
      "▁uzerinden": 1995,
      "▁41": 1996,
      "▁bir": 1997,
      "▁per": 1998,
      "suz": 1999,
      "aj": 2000,
      "▁dobr": 2001,
      "▁birkac": 2002,
      "▁otelin": 2003,
      "▁sun": 2004,
      "▁oldukca": 2005,
      "negin": 2006,
      "▁verdi": 2007,
      "▁yarın": 2008,
      "▁gitt": 2009,
      "agın": 2010,
      "▁gunku": 2011,
      "▁ek": 2012,
      "v": 2013,
      "uma": 2014,
      "rak": 2015,
      "▁atlanta": 2016,
      "▁chicago'dan": 2017,
      "▁yasa": 2018,
      "▁polit": 2019,
      "das": 2020,
      "▁gelis": 2021,
      "▁tutun": 2022,
      "\"": 2023,
      "▁cicek": 2024,
      "▁sordu": 2025,
      "hi": 2026,
      "digi": 2027,
      "▁ciyak": 2028,
      "▁orada": 2029,
      "▁odem": 2030,
      "▁vergi": 2031,
      "ının": 2032,
      "▁paul": 2033,
      "eyin": 2034,
      "▁nit": 2035,
      "ba": 2036,
      "▁olus": 2037,
      "ng": 2038,
      "▁mur": 2039,
      "▁guler": 2040,
      "▁yas": 2041,
      "▁birinde": 2042,
      "meleri": 2043,
      "▁orlando'ya": 2044,
      "▁yurut": 2045,
      "▁buna": 2046,
      "▁ann": 2047,
      "agını": 2048,
      "▁ef": 2049,
      "▁kuvvet": 2050,
      "▁sırt": 2051,
      "▁40": 2052,
      "aydı": 2053,
      "▁kıs": 2054,
      "burgh": 2055,
      "eti": 2056,
      "oj": 2057,
      "▁patır": 2058,
      "▁mul": 2059,
      "▁yılı": 2060,
      "ab": 2061,
      "▁tekrar": 2062,
      "▁ikib": 2063,
      "esi": 2064,
      "van": 2065,
      "▁kayb": 2066,
      "pan": 2067,
      "ın": 2068,
      "ost": 2069,
      "▁houston": 2070,
      "▁guney": 2071,
      "▁ondan": 2072,
      "▁tarihi": 2073,
      "▁muh": 2074,
      "▁nasıl": 2075,
      "▁yoksa": 2076,
      "▁eden": 2077,
      "▁min": 2078,
      "▁t": 2079,
      "▁e": 2080,
      "▁hos": 2081,
      "▁los": 2082,
      "▁mutlu": 2083,
      "▁yılında": 2084,
      "▁hangisi": 2085,
      "▁21": 2086,
      "lass": 2087,
      "▁yonel": 2088,
      "all": 2089,
      "▁3": 2090,
      "▁kuv": 2091,
      "ra": 2092,
      "▁tarafından": 2093,
      "▁insanların": 2094,
      "▁43": 2095,
      "q": 2096,
      "▁class": 2097,
      "landı": 2098,
      "og": 2099,
      "acak": 2100,
      "5-1": 2101,
      "▁kum": 2102,
      "▁yakin": 2103,
      "uf": 2104,
      "▁sav": 2105,
      "alım": 2106,
      "▁got": 2107,
      "gul": 2108,
      "▁ragmen": 2109,
      "ol": 2110,
      "▁str": 2111,
      "▁dag": 2112,
      "ong": 2113,
      "▁geril": 2114,
      "▁kab": 2115,
      "▁batı": 2116,
      "▁karsıl": 2117,
      "▁sebep": 2118,
      "▁oc": 2119,
      "▁stok": 2120,
      "▁tez": 2121,
      "▁biraz": 2122,
      "us": 2123,
      "muyor": 2124,
      "▁ilisk": 2125,
      "▁mısın": 2126,
      "▁kıy": 2127,
      "▁o": 2128,
      "uh": 2129,
      "▁ucreti": 2130,
      "gil": 2131,
      "eet": 2132,
      "▁yaptirmadim": 2133,
      "ele": 2134,
      "ayla": 2135,
      "▁kot": 2136,
      "▁hikay": 2137,
      "▁personelleri": 2138,
      "▁soylen": 2139,
      "le": 2140,
      "ılıyor": 2141,
      "▁olması": 2142,
      "▁kıtır": 2143,
      "'nde": 2144,
      "▁indir": 2145,
      "▁6": 2146,
      "▁hal": 2147,
      "▁hareket": 2148,
      "▁super": 2149,
      "etir": 2150,
      "▁bolum": 2151,
      "▁r": 2152,
      "▁hes": 2153,
      "▁personeli": 2154,
      "▁37": 2155,
      "▁dus": 2156,
      "aydi": 2157,
      "▁dısarı": 2158,
      "▁yuk": 2159,
      "aber": 2160,
      "▁git": 2161,
      "dan": 2162,
      "lılık": 2163,
      "▁hepsinin": 2164,
      "▁fin": 2165,
      "▁isk": 2166,
      "▁ayrıca": 2167,
      "tas": 2168,
      "▁sermaye": 2169,
      "▁new": 2170,
      "▁nokt": 2171,
      "▁rez": 2172,
      "mek": 2173,
      "▁15": 2174,
      "▁mıs": 2175,
      "▁bundan": 2176,
      "adan": 2177,
      "▁hazır": 2178,
      "▁onlara": 2179,
      "%": 2180,
      "▁bulundu": 2181,
      "ılan": 2182,
      "▁bahc": 2183,
      "▁kenar": 2184,
      "mıslar": 2185,
      "▁alım": 2186,
      "▁rad": 2187,
      "if": 2188,
      "▁if": 2189,
      "alan": 2190,
      "▁28": 2191,
      "▁memleket": 2192,
      "▁duyar": 2193,
      "▁arkadas": 2194,
      "ıng": 2195,
      "▁parca": 2196,
      "▁endeksi": 2197,
      "▁kolay": 2198,
      "▁cem": 2199,
      "”": 2200,
      "gum": 2201,
      "gar": 2202,
      "iyeti": 2203,
      "erken": 2204,
      "▁oda": 2205,
      "▁lond": 2206,
      "▁edip": 2207,
      "▁suy": 2208,
      "ator": 2209,
      "yuz": 2210,
      "ayan": 2211,
      "▁sist": 2212,
      "ef": 2213,
      "▁baskanı": 2214,
      "lugu": 2215,
      "▁san": 2216,
      "▁yapılan": 2217,
      "'den": 2218,
      "mal": 2219,
      "ad": 2220,
      "▁daha": 2221,
      "lestir": 2222,
      "​": 2223,
      "egen": 2224,
      "▁yok": 2225,
      "▁kesin": 2226,
      "nin": 2227,
      "▁zayif": 2228,
      "bak": 2229,
      "▁oakland'dan": 2230,
      "▁hanimdi": 2231,
      "itt": 2232,
      "ont": 2233,
      "▁29": 2234,
      "▁toplantı": 2235,
      "▁ediyordu": 2236,
      "ırım": 2237,
      "asından": 2238,
      "lilik": 2239,
      "▁lut": 2240,
      "iyas": 2241,
      "ilen": 2242,
      "lardı": 2243,
      "▁suc": 2244,
      "▁ekonom": 2245,
      "uya": 2246,
      "▁uzak": 2247,
      "▁babam": 2248,
      ".25": 2249,
      "ulu": 2250,
      "▁lo": 2251,
      "▁gec": 2252,
      "▁yapılacak": 2253,
      "▁bizden": 2254,
      "▁ail": 2255,
      "mustu": 2256,
      "▁otelden": 2257,
      "ilerdi": 2258,
      "▁olanaklari": 2259,
      "▁bask": 2260,
      "▁bazen": 2261,
      "asız": 2262,
      "▁i": 2263,
      "▁insanlar": 2264,
      "▁sikayet": 2265,
      "▁soyle": 2266,
      "▁silah": 2267,
      "▁yemek": 2268,
      "▁ki": 2269,
      "#": 2270,
      "▁donus": 2271,
      "▁kır": 2272,
      "onom": 2273,
      "lendi": 2274,
      "▁derin": 2275,
      "▁meh": 2276,
      "▁gizli": 2277,
      "▁dolara": 2278,
      "ima": 2279,
      "▁olacak": 2280,
      "▁otur": 2281,
      "▁cagır": 2282,
      "▁10": 2283,
      "▁delik": 2284,
      "▁banka": 2285,
      "▁soyledi": 2286,
      "tin": 2287,
      "▁co": 2288,
      "▁guzel": 2289,
      "▁el": 2290,
      "▁cevap": 2291,
      ")": 2292,
      "▁201": 2293,
      "▁musun": 2294,
      "▁%3.": 2295,
      "▁sın": 2296,
      "▁yel": 2297,
      "larda": 2298,
      "▁kasım": 2299,
      "▁dallas'tan": 2300,
      "ilerin": 2301,
      "▁taraf": 2302,
      "▁otom": 2303,
      "▁direk": 2304,
      "▁muc": 2305,
      "apol": 2306,
      "▁park": 2307,
      "’": 2308,
      "ine": 2309,
      "▁dava": 2310,
      "▁cez": 2311,
      "▁mav": 2312,
      "ley": 2313,
      "▁sıngır": 2314,
      "▁hay": 2315,
      "▁yumus": 2316,
      "av": 2317,
      "▁inan": 2318,
      "▁hur": 2319,
      "ecegim": 2320,
      "▁etme": 2321,
      "eg": 2322,
      "▁lungur": 2323,
      "iler": 2324,
      "▁yorgun": 2325,
      "lama": 2326,
      "apolis": 2327,
      "aba": 2328,
      "ak": 2329,
      "'ın": 2330,
      "▁#": 2331,
      "°": 2332,
      "▁hi": 2333,
      "89": 2334,
      "▁eksik": 2335,
      "enek": 2336,
      "su": 2337,
      "lo": 2338,
      "▁yem": 2339,
      "▁cal": 2340,
      "▁paz": 2341,
      "▁insa": 2342,
      "▁dos": 2343,
      "▁yapı": 2344,
      "▁cay": 2345,
      "▁carsamba": 2346,
      "ısını": 2347,
      "ach": 2348,
      "▁dur": 2349,
      "ımda": 2350,
      "▁gereken": 2351,
      "▁kit": 2352,
      "▁kampanyalar": 2353,
      "▁te": 2354,
      "ha": 2355,
      "▁gidiyor": 2356,
      "▁bun": 2357,
      "▁rek": 2358,
      "▁goruyor": 2359,
      "bul": 2360,
      "▁fısır": 2361,
      "“": 2362,
      "▁ortam": 2363,
      "▁yım": 2364,
      "▁ugr": 2365,
      "▁francisco'dan": 2366,
      "▁yasında": 2367,
      "tiv": 2368,
      "▁doları": 2369,
      "masını": 2370,
      "▁pet": 2371,
      "▁tuk": 2372,
      "▁dunyanın": 2373,
      "▁oteldi": 2374,
      "▁ticari": 2375,
      "elerini": 2376,
      "▁tıpıs": 2377,
      "▁1/4": 2378,
      "▁birini": 2379,
      "lah": 2380,
      "▁dam": 2381,
      "1-19": 2382,
      ":00": 2383,
      "esem": 2384,
      "▁sap": 2385,
      "▁kurt": 2386,
      "ro": 2387,
      "la": 2388,
      "op": 2389,
      "layan": 2390,
      "45": 2391,
      "▁asl": 2392,
      "▁alk": 2393,
      "▁oldugum": 2394,
      "▁ho": 2395,
      "▁bunları": 2396,
      "▁gelen": 2397,
      "▁bakıyor": 2398,
      "lemek": 2399,
      "▁46": 2400,
      "▁l": 2401,
      "▁dahil": 2402,
      "▁onunde": 2403,
      "▁biri": 2404,
      "▁katkı": 2405,
      "yse": 2406,
      "▁hizmeti": 2407,
      "▁lutf": 2408,
      "▁genellikle": 2409,
      "▁eglen": 2410,
      "'ı": 2411,
      "▁satıslar": 2412,
      "ington": 2413,
      "▁dol": 2414,
      "▁*": 2415,
      "▁gormedim": 2416,
      "▁ti": 2417,
      "▁memnun": 2418,
      "▁evin": 2419,
      "▁degilse": 2420,
      "▁milwaukee": 2421,
      "▁hala": 2422,
      "▁asker": 2423,
      "▁giris": 2424,
      "on": 2425,
      "▁yuks": 2426,
      "▁merdi": 2427,
      "isten": 2428,
      "lenen": 2429,
      "lıyor": 2430,
      "maz": 2431,
      "veland": 2432,
      "▁$": 2433,
      "ıma": 2434,
      "▁hap": 2435,
      "▁ataturk": 2436,
      "ucu": 2437,
      "▁temizligi": 2438,
      "ektr": 2439,
      "sa": 2440,
      "rup": 2441,
      "be": 2442,
      "apon": 2443,
      "▁sınır": 2444,
      "▁united": 2445,
      "abilir": 2446,
      "▁pufur": 2447,
      "▁gecen": 2448,
      "ia": 2449,
      "gor": 2450,
      "▁%7": 2451,
      "▁insanın": 2452,
      "▁oner": 2453,
      "▁sizin": 2454,
      "▁fiyata": 2455,
      "inin": 2456,
      "for": 2457,
      "ardan": 2458,
      "▁benzer": 2459,
      "▁ali": 2460,
      "amak": 2461,
      "tan": 2462,
      "endi": 2463,
      "bank": 2464,
      "ihaz": 2465,
      "ayacak": 2466,
      "medim": 2467,
      "ep": 2468,
      "▁artıs": 2469,
      "▁sirketi": 2470,
      "▁kuz": 2471,
      "▁olcu": 2472,
      "lan": 2473,
      "▁list": 2474,
      "madim": 2475,
      "▁olmus": 2476,
      "ber": 2477,
      "▁uluslararası": 2478,
      "▁charlotte": 2479,
      "▁sahip": 2480,
      "▁siz": 2481,
      "▁futbol": 2482,
      "▁ideal": 2483,
      "▁kucuktu": 2484,
      "se": 2485,
      "▁bakan": 2486,
      "▁sefer": 2487,
      "asa": 2488,
      "▁rekabet": 2489,
      "▁telefon": 2490,
      "▁aldıgı": 2491,
      "▁dar": 2492,
      "▁duk": 2493,
      "c": 2494,
      "▁mil": 2495,
      "▁kaz": 2496,
      "▁kalite": 2497,
      "▁yukselerek": 2498,
      "▁kırık": 2499,
      "▁mas": 2500,
      "▁fatur": 2501,
      "▁yanl": 2502,
      "▁genel": 2503,
      "▁mun": 2504,
      "masız": 2505,
      "▁dukkan": 2506,
      "▁madd": 2507,
      "dugunu": 2508,
      "▁kıl": 2509,
      "▁elb": 2510,
      "▁onem": 2511,
      "▁ekim": 2512,
      "▁gum": 2513,
      "▁bah": 2514,
      "▁sene": 2515,
      "▁kendisini": 2516,
      "▁senin": 2517,
      "obr": 2518,
      "▁kurulus": 2519,
      "▁diz": 2520,
      "eyen": 2521,
      "▁baskı": 2522,
      "▁resmi": 2523,
      "▁degilim": 2524,
      "erdi": 2525,
      "▁kelim": 2526,
      "▁faturam": 2527,
      "▁olan": 2528,
      "▁havayolu": 2529,
      "▁oldugu": 2530,
      "▁baska": 2531,
      "▁yan": 2532,
      "▁gitti": 2533,
      "▁uygun": 2534,
      "iyat": 2535,
      "▁oz": 2536,
      "▁%7.": 2537,
      "▁actı": 2538,
      "▁duv": 2539,
      "ayol": 2540,
      "▁chicag": 2541,
      "▁tem": 2542,
      "▁birbir": 2543,
      "aliydi": 2544,
      "ver": 2545,
      "▁endek": 2546,
      "▁fransız": 2547,
      "▁has": 2548,
      "▁havalim": 2549,
      "▁yık": 2550,
      "▁seker": 2551,
      "dur": 2552,
      "▁dek": 2553,
      "enler": 2554,
      "▁oakland": 2555,
      "▁cıkar": 2556,
      "dal": 2557,
      "ku": 2558,
      "▁buz": 2559,
      "▁beni": 2560,
      "arlar": 2561,
      "ımızı": 2562,
      "tıg": 2563,
      "a": 2564,
      "▁gur": 2565,
      "▁vazgec": 2566,
      "▁tuket": 2567,
      "▁personeller": 2568,
      "▁carp": 2569,
      "▁ekip": 2570,
      "▁olar": 2571,
      "▁sey": 2572,
      "▁denver'den": 2573,
      "▁be": 2574,
      "▁dokuz": 2575,
      "diler": 2576,
      "lay": 2577,
      "▁bildir": 2578,
      "▁abd": 2579,
      "▁faal": 2580,
      "ohn": 2581,
      "arlan": 2582,
      "▁analist": 2583,
      "▁bizimle": 2584,
      "▁katıl": 2585,
      "▁%2.7": 2586,
      "ami": 2587,
      "▁elbet": 2588,
      "▁yıllık": 2589,
      "▁etk": 2590,
      "▁tesis": 2591,
      "▁oyle": 2592,
      "▁%30": 2593,
      "▁proj": 2594,
      "▁olmak": 2595,
      "▁cok": 2596,
      "tere": 2597,
      "▁superdi": 2598,
      "+": 2599,
      "▁onunla": 2600,
      "atır": 2601,
      "▁dusuk": 2602,
      "tır": 2603,
      "unc": 2604,
      "memis": 2605,
      "▁turkiye": 2606,
      "oma": 2607,
      "▁milwa": 2608,
      "▁taz": 2609,
      "▁meydan": 2610,
      "▁ekonomi": 2611,
      "ıcı": 2612,
      "▁yıllar": 2613,
      "wa": 2614,
      "▁kardes": 2615,
      "▁kumas": 2616,
      "dıkları": 2617,
      "▁lis": 2618,
      "nek": 2619,
      "▁th": 2620,
      "▁tal": 2621,
      "▁boston": 2622,
      "▁atlanta'ya": 2623,
      "▁22-23": 2624,
      "▁hasır": 2625,
      "masına": 2626,
      "▁sipar": 2627,
      "▁olarak": 2628,
      "▁nelerdir": 2629,
      "▁del": 2630,
      "▁veya": 2631,
      "▁cam": 2632,
      "▁fabrik": 2633,
      "▁sec": 2634,
      "▁olmadi": 2635,
      "▁gecik": 2636,
      "lerinde": 2637,
      "▁sonunda": 2638,
      "▁ekonomik": 2639,
      "▁uzat": 2640,
      "▁kası": 2641,
      "▁mes": 2642,
      "▁anlam": 2643,
      "▁kalp": 2644,
      "undan": 2645,
      "▁gal": 2646,
      "ali": 2647,
      "phia": 2648,
      "▁57": 2649,
      "▁yavas": 2650,
      "ate": 2651,
      "▁degil": 2652,
      "▁han": 2653,
      "bur": 2654,
      "▁mat": 2655,
      "▁imz": 2656,
      "▁uyum": 2657,
      "▁dogu": 2658,
      "ij": 2659,
      "▁belirtti": 2660,
      "▁islem": 2661,
      "timore": 2662,
      "▁af": 2663,
      "▁3/": 2664,
      "▁edi": 2665,
      "aga": 2666,
      "ılacak": 2667,
      "▁gul": 2668,
      "tıgını": 2669,
      "▁yuruy": 2670,
      "▁telef": 2671,
      "▁%3.1": 2672,
      "▁organ": 2673,
      "▁gonul": 2674,
      "▁miy": 2675,
      "ant": 2676,
      "▁kıymet": 2677,
      "▁kaldik": 2678,
      "▁sorunu": 2679,
      "dık": 2680,
      "adı": 2681,
      "▁geldi": 2682,
      "mam": 2683,
      "▁dıs": 2684,
      "▁ederim": 2685,
      "▁yapıyor": 2686,
      "▁ede": 2687,
      "▁num": 2688,
      "ildi": 2689,
      "ligi": 2690,
      "ot": 2691,
      "agı": 2692,
      "vil": 2693,
      "▁kultur": 2694,
      "▁uzman": 2695,
      "▁numar": 2696,
      "el": 2697,
      "▁yanında": 2698,
      "▁rezervasyon": 2699,
      "▁sus": 2700,
      "▁ez": 2701,
      "▁gay": 2702,
      "isim": 2703,
      "▁di": 2704,
      "▁kotuydu": 2705,
      "▁pıtır": 2706,
      "ebil": 2707,
      "▁kes": 2708,
      "▁mo": 2709,
      "eyi": 2710,
      "▁washington'a": 2711,
      "▁mc": 2712,
      "▁karayolu": 2713,
      "▁asırı": 2714,
      "lıgını": 2715,
      "g": 2716,
      "▁yogun": 2717,
      "amadı": 2718,
      "▁dustu": 2719,
      "▁14": 2720,
      "undeki": 2721,
      "▁kendilerine": 2722,
      "\\/": 2723,
      "▁rapor": 2724,
      "▁bur": 2725,
      "▁yana": 2726,
      "alarına": 2727,
      "0000": 2728,
      "▁kir": 2729,
      "▁1.1": 2730,
      "▁%20": 2731,
      "urt": 2732,
      "▁y": 2733,
      "▁dep": 2734,
      "▁halde": 2735,
      "▁s": 2736,
      "▁guven": 2737,
      "r": 2738,
      "▁say": 2739,
      "umuz": 2740,
      "tım": 2741,
      "▁adet": 2742,
      "dıklarını": 2743,
      "▁pilot": 2744,
      "uncu": 2745,
      "▁lar": 2746,
      "▁balık": 2747,
      "▁performan": 2748,
      "▁first": 2749,
      "▁destek": 2750,
      "ari": 2751,
      "▁satın": 2752,
      "'na": 2753,
      "egas": 2754,
      "alap": 2755,
      "▁girisim": 2756,
      "▁top": 2757,
      "▁kuy": 2758,
      "▁naz": 2759,
      "▁dolayi": 2760,
      "iyon": 2761,
      "liyor": 2762,
      "▁univers": 2763,
      "han": 2764,
      "elim": 2765,
      "kın": 2766,
      "▁karsı": 2767,
      "▁angeles": 2768,
      "▁yapacak": 2769,
      "▁mecl": 2770,
      "▁roman": 2771,
      "▁ozgur": 2772,
      "anbul": 2773,
      "cileri": 2774,
      "ala": 2775,
      "▁elektr": 2776,
      "ers": 2777,
      "unden": 2778,
      "▁havaalan": 2779,
      "▁basına": 2780,
      "▁malz": 2781,
      "▁acıl": 2782,
      "▁buy": 2783,
      "▁cogun": 2784,
      "ond": 2785,
      "medi": 2786,
      "2:30": 2787,
      "▁kapalı": 2788,
      "'u": 2789,
      "a'nın": 2790,
      "▁sef": 2791,
      "elerine": 2792,
      "▁konumu": 2793,
      "▁sosy": 2794,
      "▁seviyesine": 2795,
      "▁giden": 2796,
      "▁yaptir": 2797,
      "▁sev": 2798,
      "▁siyah": 2799,
      "▁ozel": 2800,
      "layacak": 2801,
      "▁197": 2802,
      "▁%1": 2803,
      "os": 2804,
      "iss": 2805,
      "inde": 2806,
      "▁osman": 2807,
      "▁saglam": 2808,
      "▁as": 2809,
      "▁tan": 2810,
      "▁ogleden": 2811,
      "▁simdiye": 2812,
      "▁intern": 2813,
      "menin": 2814,
      "▁hastan": 2815,
      "▁42": 2816,
      "eceg": 2817,
      "▁gercekten": 2818,
      "oloj": 2819,
      "▁zev": 2820,
      "▁sı": 2821,
      "▁worth": 2822,
      "mektedir": 2823,
      "▁par": 2824,
      "lıgı": 2825,
      "▁def": 2826,
      "▁temel": 2827,
      "▁yagmur": 2828,
      "▁%6.4": 2829,
      "▁teh": 2830,
      "▁lu": 2831,
      "▁yat": 2832,
      "ebilir": 2833,
      "st": 2834,
      "▁yalan": 2835,
      "▁tit": 2836,
      "▁savunma": 2837,
      "ekler": 2838,
      "▁dav": 2839,
      "can": 2840,
      "▁corp": 2841,
      "isyon": 2842,
      "luk": 2843,
      "▁yur": 2844,
      "afir": 2845,
      "▁montreal": 2846,
      "▁kalkan": 2847,
      "likle": 2848,
      "lıg": 2849,
      "▁sig": 2850,
      "▁kontrol": 2851,
      "ıldır": 2852,
      "vet": 2853,
      "-200": 2854,
      "▁yetkilileri": 2855,
      "▁karsılık": 2856,
      "tak": 2857,
      "▁bircok": 2858,
      "▁sh": 2859,
      "▁cıl": 2860,
      "▁dov": 2861,
      "t": 2862,
      "ımı": 2863,
      "▁dig": 2864,
      "▁dc": 2865,
      "▁zorunda": 2866,
      "▁yasama": 2867,
      "taki": 2868,
      "▁ikinci": 2869,
      "▁gibi": 2870,
      "tılı": 2871,
      "▁ener": 2872,
      "▁pittsburgh": 2873,
      "▁hedef": 2874,
      "▁cincinnati": 2875,
      "imdi": 2876,
      "▁hesap": 2877,
      "▁peyn": 2878,
      "▁bl": 2879,
      "ırlar": 2880,
      "▁sekiz": 2881,
      "▁yamalak": 2882,
      "▁altı": 2883,
      "▁baba": 2884,
      "▁ulas": 2885,
      "▁sehir": 2886,
      "▁icinde": 2887,
      "▁kapı": 2888,
      "adel": 2889,
      "▁toprak": 2890,
      "▁1/2": 2891,
      "iski": 2892,
      "▁bal": 2893,
      "▁ben": 2894,
      "▁3.": 2895,
      "luluk": 2896,
      "▁ayak": 2897,
      "ısının": 2898,
      "▁degis": 2899,
      "▁harc": 2900,
      "▁deng": 2901,
      "▁tarih": 2902,
      "▁uzer": 2903,
      "digimiz": 2904,
      "▁mehmet": 2905,
      "▁aktarmasız": 2906,
      "-22:30": 2907,
      "evi": 2908,
      "▁dik": 2909,
      "▁musteri": 2910,
      "▁hastalık": 2911,
      "▁sen": 2912,
      "▁bizler": 2913,
      "osy": 2914,
      "▁50": 2915,
      "▁bulmak": 2916,
      "lere": 2917,
      "abet": 2918,
      "tuk": 2919,
      "lı": 2920,
      "▁ucuz": 2921,
      "▁g": 2922,
      "'ten": 2923,
      "ne": 2924,
      "ing": 2925,
      "▁po": 2926,
      "▁beyaz": 2927,
      "▁para": 2928,
      "otte": 2929,
      "sam": 2930,
      "▁mu": 2931,
      "▁attı": 2932,
      "▁eylul": 2933,
      "▁onc": 2934,
      "▁bic": 2935,
      "▁begen": 2936,
      "▁asagı": 2937,
      "il": 2938,
      "▁onun": 2939,
      "▁yen": 2940,
      "▁11": 2941,
      "-23": 2942,
      "▁jos": 2943,
      "▁pittsburgh'tan": 2944,
      "▁yurt": 2945,
      "▁odalar": 2946,
      "▁kos": 2947,
      "uyor": 2948,
      "▁zar": 2949,
      "▁yonetim": 2950,
      "ac": 2951,
      "emi": 2952,
      "▁uyan": 2953,
      "uluyor": 2954,
      "▁dom": 2955,
      "▁hab": 2956,
      "▁amerikan": 2957,
      "ana": 2958,
      "indan": 2959,
      "▁ucmak": 2960,
      "ca": 2961,
      "-2": 2962,
      "▁of": 2963,
      "▁rak": 2964,
      "▁pır": 2965,
      "▁ets": 2966,
      "▁fazla": 2967,
      "esinin": 2968,
      "bir": 2969,
      "ates": 2970,
      "▁memph": 2971,
      "▁lider": 2972,
      "ge": 2973,
      "▁orta": 2974,
      "gileri": 2975,
      "aat": 2976,
      "▁verilen": 2977,
      "esil": 2978,
      "▁calıs": 2979,
      "▁ucusa": 2980,
      "▁havayolları": 2981,
      "▁diyor": 2982,
      "liydi": 2983,
      "▁1\\/": 2984,
      "▁iti": 2985,
      "lek": 2986,
      "amaya": 2987,
      "asıyla": 2988,
      "▁mit": 2989,
      "▁turk": 2990,
      "iri": 2991,
      "and": 2992,
      "▁seyden": 2993,
      "imizi": 2994,
      "maları": 2995,
      "alıgı": 2996,
      "▁kanı": 2997,
      "▁sakin": 2998,
      "▁degerlendir": 2999,
      "▁eski": 3000,
      "▁kı": 3001,
      "▁artır": 3002,
      "▁ilgi": 3003,
      "▁bagır": 3004,
      "▁48": 3005,
      "`": 3006,
      "da": 3007,
      "▁bırak": 3008,
      "▁gom": 3009,
      "▁%3.43": 3010,
      "▁getir": 3011,
      "▁ici": 3012,
      "▁ayır": 3013,
      "▁komp": 3014,
      "▁insan": 3015,
      "▁ucuslarını": 3016,
      "▁baglı": 3017,
      "▁evet": 3018,
      "▁misiniz": 3019,
      "▁sip": 3020,
      "urdu": 3021,
      "61": 3022,
      "▁og": 3023,
      "▁yuzme": 3024,
      "▁aylık": 3025,
      "▁tr": 3026,
      "baren": 3027,
      "elen": 3028,
      "▁ec": 3029,
      "artesi": 3030,
      "▁rahat": 3031,
      "▁mem": 3032,
      "▁giz": 3033,
      "▁arada": 3034,
      "▁peki": 3035,
      "▁sunları": 3036,
      "unde": 3037,
      "▁bugun": 3038,
      "▁oran": 3039,
      "▁var": 3040,
      "▁toplum": 3041,
      "▁phoeni": 3042,
      "▁tıklım": 3043,
      "ınc": 3044,
      "▁hisset": 3045,
      "▁sov": 3046,
      "▁alt": 3047,
      "▁19": 3048,
      "▁yalnızca": 3049,
      "▁kah": 3050,
      "▁bası": 3051,
      "▁charl": 3052,
      "▁degisiklik": 3053,
      "▁cıkardı": 3054,
      "▁av": 3055,
      "▁ulasım": 3056,
      "▁ert": 3057,
      "gını": 3058,
      "▁gercek": 3059,
      "ları": 3060,
      "lu": 3061,
      "lık": 3062,
      "▁karar": 3063,
      "amıs": 3064,
      "▁ib": 3065,
      "▁yam": 3066,
      "mıstır": 3067,
      "uluk": 3068,
      "▁ge": 3069,
      "▁milli": 3070,
      "od": 3071,
      "▁cap": 3072,
      "▁yun": 3073,
      "▁zarar": 3074,
      "abilecek": 3075,
      "▁res": 3076,
      "ara": 3077,
      "lamaya": 3078,
      "ısık": 3079,
      "tim": 3080,
      "▁fotograf": 3081,
      "▁guc": 3082,
      "▁adı": 3083,
      "ulan": 3084,
      "▁istih": 3085,
      "▁gitmek": 3086,
      "▁verdigi": 3087,
      "▁altında": 3088,
      "'le": 3089,
      "ıstır": 3090,
      "atı": 3091,
      "▁ruz": 3092,
      "gumuz": 3093,
      "dav": 3094,
      "▁dolarlık": 3095,
      "▁ucusu": 3096,
      "▁bay": 3097,
      "▁gercekles": 3098,
      "mini": 3099,
      "meye": 3100,
      "▁guleryuzluydu": 3101,
      "d": 3102,
      "▁isletme": 3103,
      "▁pencer": 3104,
      "men": 3105,
      "▁sovyet": 3106,
      "▁kr": 3107,
      "▁sor": 3108,
      "ime": 3109,
      "▁sab": 3110,
      "ahat": 3111,
      "fer": 3112,
      "ize": 3113,
      "▁(": 3114,
      "▁olum": 3115,
      "▁rol": 3116,
      "eleri": 3117,
      "▁mısıl": 3118,
      "yor": 3119,
      "▁la": 3120,
      "oc": 3121,
      "malar": 3122,
      "▁biz": 3123,
      "din": 3124,
      "aması": 3125,
      "▁boy": 3126,
      "ir": 3127,
      "▁ilgilendi": 3128,
      "▁edeb": 3129,
      "▁ulasımı": 3130,
      "inn": 3131,
      "▁olmadıgını": 3132,
      "▁agustos": 3133,
      "▁pol": 3134,
      "fur": 3135,
      "▁sac": 3136,
      "▁5-1": 3137,
      "aca": 3138,
      "'tan": 3139,
      "▁birlik": 3140,
      "▁kend": 3141,
      "izm": 3142,
      "▁acık": 3143,
      "▁cesitli": 3144,
      "▁kaldır": 3145,
      "p": 3146,
      "▁kara": 3147,
      "▁ra": 3148,
      "▁u": 3149,
      "▁aralık": 3150,
      "▁kadınlar": 3151,
      "larından": 3152,
      "▁kus": 3153,
      "aklı": 3154,
      "▁soru": 3155,
      "izi": 3156,
      "larında": 3157,
      "▁yet": 3158,
      "▁an": 3159,
      "▁derec": 3160,
      "sk": 3161,
      "ustr": 3162,
      "▁dallas'a": 3163,
      "arında": 3164,
      "▁tesek": 3165,
      "▁turlu": 3166,
      "▁sent": 3167,
      "▁kendim": 3168,
      "▁gorusuldu": 3169,
      "▁yi": 3170,
      "'nda": 3171,
      "▁karak": 3172,
      "▁misafir": 3173,
      "▁birbirler": 3174,
      "ersiz": 3175,
      "lanmıs": 3176,
      "ern": 3177,
      "ital": 3178,
      "▁doldur": 3179,
      "aları": 3180,
      "▁koc": 3181,
      "▁ortalama": 3182,
      "▁kurum": 3183,
      "▁dim": 3184,
      "▁olabilir": 3185,
      "▁lutfen": 3186,
      "▁yayın": 3187,
      "▁suz": 3188,
      "arı": 3189,
      "▁cab": 3190,
      "▁1\\/2": 3191,
      "▁rus": 3192,
      "▁dogal": 3193,
      "aket": 3194,
      "▁arka": 3195,
      "▁bilin": 3196,
      "-": 3197,
      "▁2": 3198,
      "▁1.": 3199,
      "uar": 3200,
      "▁sanki": 3201,
      "▁goz": 3202,
      "▁indian": 3203,
      "▁tasar": 3204,
      "▁benden": 3205,
      "▁risk": 3206,
      "ler": 3207,
      "▁iy": 3208,
      "▁--": 3209,
      "▁tesisti": 3210,
      "00": 3211,
      "▁ihtiy": 3212,
      "orn": 3213,
      "ıyı": 3214,
      "▁egitim": 3215,
      "▁pr": 3216,
      "ınca": 3217,
      "imde": 3218,
      "▁belki": 3219,
      "▁tavsiye": 3220,
      "▁ziyaret": 3221,
      "ville": 3222,
      "▁once": 3223,
      "'ye": 3224,
      "▁ceb": 3225,
      "▁teklif": 3226,
      "▁anne": 3227,
      "▁sizler": 3228,
      "lig": 3229,
      "emiz": 3230,
      "alarının": 3231,
      "▁anlat": 3232,
      "sak": 3233,
      "▁phil": 3234,
      "▁cey": 3235,
      "▁problem": 3236,
      "▁ederek": 3237,
      "▁rap": 3238,
      "▁cıtır": 3239,
      "▁bununla": 3240,
      "land": 3241,
      "▁hijyen": 3242,
      "▁oranı": 3243,
      "▁ongor": 3244,
      "▁hak": 3245,
      "laka": 3246,
      "▁mar": 3247,
      "▁benz": 3248,
      "▁tabi": 3249,
      "▁ele": 3250,
      "▁akl": 3251,
      "▁hafta": 3252,
      "▁ode": 3253,
      "▁ve": 3254,
      "ım": 3255,
      "'a": 3256,
      "▁%9.": 3257,
      "▁ba": 3258,
      "qu": 3259,
      "▁yaptı": 3260,
      "ini": 3261,
      "▁degildi": 3262,
      "meler": 3263,
      "ram": 3264,
      "uyu": 3265,
      "▁varsa": 3266,
      "mus": 3267,
      "al": 3268,
      "▁kal": 3269,
      "cak": 3270,
      "isini": 3271,
      "▁hac": 3272,
      "▁merkez": 3273,
      "▁bor": 3274,
      "eder": 3275,
      "▁newark": 3276,
      "▁ihrac": 3277,
      "id": 3278,
      "▁:": 3279,
      "▁dallas": 3280,
      "▁davran": 3281,
      "▁part": 3282,
      "▁%7.5": 3283,
      "emedi": 3284,
      "▁orland": 3285,
      "▁ak": 3286,
      "▁deney": 3287,
      "▁contin": 3288,
      "▁uzerindeki": 3289,
      "▁dak": 3290,
      "▁mis": 3291,
      "elere": 3292,
      "▁listel": 3293,
      "esin": 3294,
      "▁temizlik": 3295,
      "lıgın": 3296,
      "▁cumartesi": 3297,
      "▁34": 3298,
      "ite": 3299,
      "▁1989": 3300,
      "_": 3301,
      "▁birbiri": 3302,
      "mi": 3303,
      "▁biliyor": 3304,
      "▁ticaret": 3305,
      "000": 3306,
      "madı": 3307,
      "▁seyi": 3308,
      "▁kalk": 3309,
      "▁rec": 3310,
      "▁den": 3311,
      "▁yirmi": 3312,
      "▁denver": 3313,
      "▁m": 3314,
      "▁cif": 3315,
      "madan": 3316,
      "▁yerel": 3317,
      "ileri": 3318,
      "imi": 3319,
      "▁etmeye": 3320,
      "ası": 3321,
      "▁muzik": 3322,
      "▁edilen": 3323,
      "ydı": 3324,
      "/": 3325,
      "▁dokun": 3326,
      "▁umut": 3327,
      "▁yesil": 3328,
      "▁washington'dan": 3329,
      "2": 3330,
      "86": 3331,
      "▁milyondan": 3332,
      "▁sirketler": 3333,
      "▁bek": 3334,
      "▁kat": 3335,
      "asır": 3336,
      "▁yatak": 3337,
      "du": 3338,
      "▁gem": 3339,
      "▁&": 3340,
      "▁ana": 3341,
      ".7": 3342,
      "larım": 3343,
      "▁ustune": 3344,
      "kat": 3345,
      "bol": 3346,
      "▁konuda": 3347,
      "▁kosul": 3348,
      "irler": 3349,
      "▁pittsburgh'a": 3350,
      "▁menkul": 3351,
      "▁dagıt": 3352,
      "▁washington": 3353,
      "▁v": 3354,
      "alı": 3355,
      "▁mevcut": 3356,
      "meden": 3357,
      "▁ettik": 3358,
      "▁at": 3359,
      "ansız": 3360,
      "▁saglık": 3361,
      "▁bank": 3362,
      "ilmesi": 3363,
      "▁por": 3364,
      "▁sabah": 3365,
      "dik": 3366,
      "▁kaldim": 3367,
      "▁petersburg": 3368,
      "dum": 3369,
      "▁reh": 3370,
      "▁test": 3371,
      "▁ilg": 3372,
      "gini": 3373,
      "▁dan": 3374,
      "ardı": 3375,
      "ilerine": 3376,
      "▁ters": 3377,
      "meyi": 3378,
      "▁cont": 3379,
      "▁arz": 3380,
      "▁odedigim": 3381,
      "▁...\"": 3382,
      "adelphia": 3383,
      "inda": 3384,
      "ı": 3385,
      "▁bak": 3386,
      "▁oldu": 3387,
      "▁dogru": 3388,
      "▁onumuz": 3389,
      "▁oyuncu": 3390,
      "uston": 3391,
      "▁profes": 3392,
      "ken": 3393,
      "▁katil": 3394,
      "▁yola": 3395,
      "ili": 3396,
      "▁yon": 3397,
      "▁din": 3398,
      "▁gayet": 3399,
      "alarında": 3400,
      "om": 3401,
      "mesi": 3402,
      "▁mı": 3403,
      "▁etm": 3404,
      "▁dolar": 3405,
      "▁%1.7": 3406,
      "▁sıkı": 3407,
      "▁incel": 3408,
      "▁baslamıs": 3409,
      "▁dor": 3410,
      "lige": 3411,
      "▁bazi": 3412,
      "▁kas": 3413,
      "▁zen": 3414,
      "▁seyahat": 3415,
      "▁malzem": 3416,
      "tı": 3417,
      "▁cor": 3418,
      "▁hakkında": 3419,
      "▁pac": 3420,
      "▁savas": 3421,
      "▁yetkil": 3422,
      "▁oyun": 3423,
      "▁sigort": 3424,
      "▁basit": 3425,
      "gec": 3426,
      "inden": 3427,
      "▁istif": 3428,
      "anda": 3429,
      "▁kalit": 3430,
      "iyor": 3431,
      "▁tuttu": 3432,
      "▁ili": 3433,
      "▁mey": 3434,
      "▁onceki": 3435,
      "ham": 3436,
      "istir": 3437,
      "▁kıv": 3438,
      "muz": 3439,
      "uyla": 3440,
      "▁1.3": 3441,
      "▁kaliforn": 3442,
      "▁``": 3443,
      "▁itibar": 3444,
      "tadır": 3445,
      "?": 3446,
      "▁cıvıl": 3447,
      "gu": 3448,
      "amaz": 3449,
      "▁bors": 3450,
      "ledi": 3451,
      "▁yukarı": 3452,
      "▁onceden": 3453,
      "im": 3454,
      "▁.": 3455,
      "▁er": 3456,
      "ılık": 3457,
      "▁kotu": 3458,
      "▁istiyorum": 3459,
      "gun": 3460,
      "▁vadeli": 3461,
      "oeni": 3462,
      "▁anlasma": 3463,
      "▁degiller": 3464,
      "▁yar": 3465,
      "▁almak": 3466,
      "▁fon": 3467,
      "▁fik": 3468,
      "▁mer": 3469,
      "▁yapan": 3470,
      "▁sabahı": 3471,
      "▁31": 3472,
      "▁hemen": 3473,
      "▁300": 3474,
      "layıp": 3475,
      "mak": 3476,
      ":": 3477,
      "esine": 3478,
      "▁bas": 3479,
      "esel": 3480,
      "▁yarat": 3481,
      "▁satıs": 3482,
      "▁fak": 3483,
      "▁kost": 3484,
      "4": 3485,
      "▁musa": 3486,
      "lardan": 3487,
      "▁seyler": 3488,
      "&": 3489,
      "▁itir": 3490,
      "$": 3491,
      "k": 3492,
      "▁yolu": 3493,
      "▁ne": 3494,
      "▁askeri": 3495,
      "▁dir": 3496,
      "▁ot": 3497,
      "▁guleryuz": 3498,
      "▁simdi": 3499,
      "▁ihtiyacım": 3500,
      "-19": 3501,
      "ip": 3502,
      "▁bekledi": 3503,
      "0": 3504,
      "ci": 3505,
      "▁im": 3506,
      "▁ayı": 3507,
      "istim": 3508,
      "▁bilmiyorum": 3509,
      "▁39": 3510,
      "unun": 3511,
      "▁beydi": 3512,
      "lanıyor": 3513,
      "▁dost": 3514,
      "▁yum": 3515,
      "▁org": 3516,
      "▁ucret": 3517,
      "ediyor": 3518,
      "▁ye": 3519,
      "▁buyuk": 3520,
      "▁erken": 3521,
      "▁bunu": 3522,
      "he": 3523,
      "▁aras": 3524,
      "▁york'tan": 3525,
      "▁.)": 3526,
      "▁guclu": 3527,
      "iv": 3528,
      "▁kalan": 3529,
      "▁elinde": 3530,
      "▁renk": 3531,
      "acılar": 3532,
      "▁ger": 3533,
      "▁pırıl": 3534,
      "ıldı": 3535,
      "▁ates": 3536,
      "▁birinci": 3537,
      "▁kem": 3538,
      "▁tutar": 3539,
      "▁servisi": 3540,
      "lerine": 3541,
      "▁tic": 3542,
      "leri": 3543,
      "ici": 3544,
      "▁saf": 3545,
      "▁22": 3546,
      "▁ik": 3547,
      "▁mon": 3548,
      "▁yog": 3549,
      "br": 3550,
      "ey": 3551,
      "▁sahib": 3552,
      "ere": 3553,
      "▁kızı": 3554,
      "▁pitts": 3555,
      "▁coz": 3556,
      "▁ucusları": 3557,
      "▁miyim": 3558,
      "▁196": 3559,
      "lum": 3560,
      "▁yazı": 3561,
      "▁vermis": 3562,
      "▁neler": 3563,
      "▁cid": 3564,
      "▁birin": 3565,
      "▁adeta": 3566,
      "mıyor": 3567,
      "leriyle": 3568,
      "▁rehber": 3569,
      "ciler": 3570,
      "▁birisi": 3571,
      "▁lok": 3572,
      "▁konu": 3573,
      "▁muhtem": 3574,
      "▁nakit": 3575,
      "cek": 3576,
      "yo": 3577,
      "▁dedi": 3578,
      "dig": 3579,
      "ince": 3580,
      "ustum": 3581,
      "▁yarım": 3582,
      "▁ep": 3583,
      "▁fir": 3584,
      "acagı": 3585,
      "▁yoktu": 3586,
      "▁nok": 3587,
      "▁kendi": 3588,
      "▁yal": 3589,
      "▁titr": 3590,
      "leket": 3591,
      "▁bag": 3592,
      "elik": 3593,
      "▁toront": 3594,
      "▁yonetic": 3595,
      "▁merkezine": 3596,
      "agan": 3597,
      "▁ihr": 3598,
      "▁gir": 3599,
      "▁dem": 3600,
      "uc": 3601,
      "▁mukemmeldi": 3602,
      "mıs": 3603,
      "te": 3604,
      "▁tesisten": 3605,
      "▁ayni": 3606,
      "erler": 3607,
      "'ndan": 3608,
      "▁milwaukee'ye": 3609,
      "▁tiril": 3610,
      "▁olc": 3611,
      "▁nef": 3612,
      "▁ce": 3613,
      "▁mukemmel": 3614,
      "▁anim": 3615,
      "▁ait": 3616,
      "▁sikin": 3617,
      "irdi": 3618,
      "▁tım": 3619,
      "▁kapsam": 3620,
      "egin": 3621,
      "▁ucus": 3622,
      "▁ad": 3623,
      "sen": 3624,
      "▁rezerv": 3625,
      "pr": 3626,
      "lamak": 3627,
      "▁soyley": 3628,
      "▁ya": 3629,
      "▁tarif": 3630,
      "yet": 3631,
      "dı": 3632,
      "▁gen": 3633,
      "▁ces": 3634,
      "▁kurul": 3635,
      "▁birim": 3636,
      "amız": 3637,
      "▁manz": 3638,
      "ik": 3639,
      "▁itibaren": 3640,
      "det": 3641,
      "▁herhangi": 3642,
      "iya": 3643,
      "ev": 3644,
      "▁etti": 3645,
      "▁sistem": 3646,
      "▁alın": 3647,
      "▁street": 3648,
      "▁bab": 3649,
      "ede": 3650,
      "▁konus": 3651,
      "uv": 3652,
      "▁baz": 3653,
      "▁cur": 3654,
      "isinin": 3655,
      "▁ufak": 3656,
      "elerde": 3657,
      "es": 3658,
      "meli": 3659,
      "isi": 3660,
      "aret": 3661,
      "▁calis": 3662,
      "taj": 3663,
      "▁yaptık": 3664,
      "▁bekleniyor": 3665,
      "▁dusunc": 3666,
      "▁duyg": 3667,
      "▁\"": 3668,
      "▁ker": 3669,
      "▁yeter": 3670,
      "is": 3671,
      "▁yuz": 3672,
      "▁gol": 3673,
      "▁aj": 3674,
      "ib": 3675,
      "▁bil": 3676,
      "ısında": 3677,
      "0'": 3678,
      "▁durdur": 3679,
      "▁%2": 3680,
      "in": 3681,
      "▁philadelphia": 3682,
      "onu": 3683,
      "▁seb": 3684,
      "dım": 3685,
      "esinde": 3686,
      "▁normal": 3687,
      "maktadır": 3688,
      "▁muht": 3689,
      "eri": 3690,
      "▁ısıl": 3691,
      "▁artık": 3692,
      "▁karsısında": 3693,
      "▁calısıyor": 3694,
      "as": 3695,
      "medigini": 3696,
      "▁sur": 3697,
      "\\": 3698,
      "▁fr": 3699,
      "=": 3700,
      "▁200": 3701,
      "▁gozlerini": 3702,
      "▁amerik": 3703,
      "lastır": 3704,
      "▁fil": 3705,
      "▁cak": 3706,
      "h": 3707,
      "▁45": 3708,
      "▁yaslı": 3709,
      "▁wall": 3710,
      "▁mez": 3711,
      "▁mad": 3712,
      "evizyon": 3713,
      "aki": 3714,
      "▁dayan": 3715,
      "bu": 3716,
      "dılar": 3717,
      "▁mumkun": 3718,
      "▁gorun": 3719,
      "uyle": 3720,
      "▁desik": 3721,
      "lıkla": 3722,
      "▁sans": 3723,
      "acagız": 3724,
      "▁mıy": 3725,
      "▁%80": 3726,
      "at": 3727,
      "▁beb": 3728,
      "elerden": 3729,
      "▁kap": 3730,
      "anlı": 3731,
      "lugun": 3732,
      "▁ted": 3733,
      "▁bilgis": 3734,
      "imize": 3735,
      "▁ust": 3736,
      "▁ıs": 3737,
      "asını": 3738,
      "▁aile": 3739,
      "erk": 3740,
      "▁seattle": 3741,
      "▁oden": 3742,
      "▁dedim": 3743,
      "▁bilir": 3744,
      "▁ey": 3745,
      "▁51": 3746,
      "▁kısm": 3747,
      "er": 3748,
      "ır": 3749,
      "ta": 3750,
      "3": 3751,
      "gın": 3752,
      "adar": 3753,
      "▁lezzeti": 3754,
      "cu": 3755,
      "▁cic": 3756,
      "▁heyec": 3757,
      "den": 3758,
      "▁iceri": 3759,
      "▁arac": 3760,
      "▁bunların": 3761,
      "▁etmis": 3762,
      "▁re": 3763,
      "erek": 3764,
      "▁evvel": 3765,
      "▁saray": 3766,
      "▁cekti": 3767,
      "▁lim": 3768,
      "▁tahviller": 3769,
      "▁neden": 3770,
      "▁haziran": 3771,
      "▁cum": 3772,
      "ven": 3773,
      "▁tiyat": 3774,
      "▁kac": 3775,
      "▁huk": 3776,
      "▁cir": 3777,
      "siye": 3778,
      "▁gunleri": 3779,
      "▁degildir": 3780,
      "▁hatır": 3781,
      "uyorum": 3782,
      "utur": 3783,
      "▁tercih": 3784,
      "tılar": 3785,
      "▁miktar": 3786,
      "▁elde": 3787,
      "▁guvenlik": 3788,
      "eli": 3789,
      "▁mek": 3790,
      "▁bize": 3791,
      "▁cesit": 3792,
      "▁havuzu": 3793,
      "▁otel": 3794,
      "▁pas": 3795,
      "kır": 3796,
      "▁montre": 3797,
      "▁gund": 3798,
      "▁yasak": 3799,
      "▁takip": 3800,
      "▁bunun": 3801,
      "▁ayrı": 3802,
      "y": 3803,
      "irim": 3804,
      "▁fingir": 3805,
      "lerden": 3806,
      "▁nak": 3807,
      "▁dah": 3808,
      "▁kurtar": 3809,
      "▁1.5": 3810,
      "ulmus": 3811,
      "▁kadar": 3812,
      "rar": 3813,
      "▁cen": 3814,
      "▁ah": 3815,
      "ırıl": 3816,
      "▁olup": 3817,
      "▁analistler": 3818,
      "dar": 3819,
      "▁gosteriyor": 3820,
      "ıyor": 3821,
      "▁aktarmalı": 3822,
      "▁basını": 3823,
      "▁adi": 3824,
      "'y": 3825,
      "dun": 3826,
      "▁halk": 3827,
      "▁iyiydi": 3828,
      "▁birine": 3829,
      "▁neredeyse": 3830,
      "…": 3831,
      "▁%4.8": 3832,
      "tar": 3833,
      "'daki": 3834,
      "..": 3835,
      "art": 3836,
      "ecektir": 3837,
      "▁alamadim": 3838,
      "▁j": 3839,
      "▁ucuslar": 3840,
      "▁ilac": 3841,
      "▁denver'e": 3842,
      "▁23": 3843,
      "▁bizi": 3844,
      "▁1987": 3845,
      "▁gore": 3846,
      "▁dolardan": 3847,
      "sem": 3848,
      "▁edecek": 3849,
      "▁evi": 3850,
      "▁gozleri": 3851,
      "▁gecmis": 3852,
      "▁uzerine": 3853,
      "▁kut": 3854,
      "▁havayol": 3855,
      "▁izin": 3856,
      "ez": 3857,
      "▁reddetti": 3858,
      "▁phoenix": 3859,
      "▁ide": 3860,
      "▁oak": 3861,
      "▁mustafa": 3862,
      "▁okum": 3863,
      "tıs": 3864,
      "istik": 3865,
      "▁ch": 3866,
      "▁vad": 3867,
      "▁elli": 3868,
      "une": 3869,
      "ok": 3870,
      "▁mark": 3871,
      "▁bizim": 3872,
      "▁ca": 3873,
      "▁fas": 3874,
      "▁istemiyorum": 3875,
      "▁hepimiz": 3876,
      "▁program": 3877,
      "▁um": 3878,
      "▁hisseleri": 3879,
      "isine": 3880,
      "▁hangi": 3881,
      "▁nih": 3882,
      "net": 3883,
      "▁duygu": 3884,
      "▁oldug": 3885,
      "ile": 3886,
      "▁bazı": 3887,
      "▁he": 3888,
      "▁egit": 3889,
      "▁kanun": 3890,
      "▁haz": 3891,
      "▁fık": 3892,
      "▁parti": 3893,
      "▁dalg": 3894,
      "▁onu": 3895,
      "▁tam": 3896,
      "▁tuc": 3897,
      "▁bilgisay": 3898,
      "▁yasan": 3899,
      "▁arasında": 3900,
      "▁televizyon": 3901,
      "▁kimse": 3902,
      "▁yav": 3903,
      "▁vaz": 3904,
      "▁bost": 3905,
      "▁basladı": 3906,
      "▁day": 3907,
      "enc": 3908,
      "asıyor": 3909,
      "▁cır": 3910,
      "▁0.": 3911,
      "▁uretic": 3912,
      "▁ediyor": 3913,
      "▁kalkıp": 3914,
      "10": 3915,
      "▁kendimi": 3916,
      "▁anal": 3917,
      "dem": 3918,
      "▁uygul": 3919,
      "enk": 3920,
      "[UNK]": 3921,
      "▁francisco": 3922,
      "▁fıs": 3923,
      "▁dusur": 3924,
      "of": 3925,
      "▁henuz": 3926,
      "▁isin": 3927,
      "▁halinde": 3928,
      "elerinde": 3929,
      "ume": 3930,
      "▁mus": 3931,
      "innati": 3932,
      "roit": 3933,
      "yn": 3934,
      "▁derg": 3935,
      "▁kendiler": 3936,
      "▁doları'na": 3937,
      "▁teslim": 3938,
      "▁ilgili": 3939,
      "▁ay": 3940,
      "mem": 3941,
      "▁30": 3942,
      "cilik": 3943,
      "acagını": 3944,
      "▁ithal": 3945,
      "▁kabul": 3946,
      "▁ic": 3947,
      "▁anlay": 3948,
      "umus": 3949,
      "▁duz": 3950,
      "▁ask": 3951,
      "▁rezervasyonu": 3952,
      "▁gotur": 3953,
      "▁hasta": 3954,
      "▁varan": 3955,
      "▁cevir": 3956,
      "▁aktif": 3957,
      "▁giy": 3958,
      "▁rast": 3959,
      "▁%3.4": 3960,
      "lerle": 3961,
      "▁avuc": 3962,
      "▁cev": 3963,
      "▁parmak": 3964,
      "▁eve": 3965,
      "▁kel": 3966,
      "▁beraber": 3967,
      "!": 3968,
      "lari": 3969,
      "▁gel": 3970,
      "▁cil": 3971,
      "leyen": 3972,
      "▁sak": 3973,
      "▁airlines": 3974,
      "▁op": 3975,
      "▁cunku": 3976,
      "▁piyas": 3977,
      "▁erk": 3978,
      "▁oluyor": 3979,
      "▁kayıt": 3980,
      "▁yor": 3981,
      "▁yuksel": 3982,
      "▁airlin": 3983,
      "iye": 3984,
      "ar": 3985,
      "iyle": 3986,
      "▁tay": 3987,
      "▁ederiz": 3988,
      "▁seyr": 3989,
      "▁ko": 3990,
      "▁kurumsal": 3991,
      "▁yerles": 3992,
      "▁utan": 3993,
      "▁haf": 3994,
      ":30": 3995,
      "az": 3996,
      "anın": 3997,
      "▁misin": 3998,
      "▁gosterin": 3999,
      "▁vermek": 4000,
      "▁=": 4001,
      "▁kalkıyor": 4002,
      "▁lezzetli": 4003,
      "▁miami": 4004,
      "▁yuv": 4005,
      "▁serv": 4006,
      "▁en": 4007,
      "▁hukumet": 4008,
      "bi": 4009,
      "▁27": 4010,
      "▁zay": 4011,
      "▁kan": 4012,
      "▁olmasi": 4013,
      "▁jon": 4014,
      "▁le": 4015,
      "rol": 4016,
      "gah": 4017,
      "sun": 4018,
      "▁prof": 4019,
      "▁zengin": 4020,
      "▁ilgil": 4021,
      "▁haval": 4022,
      "▁milyar": 4023,
      "anı": 4024,
      "■": 4025,
      "▁stratej": 4026,
      "▁baslan": 4027,
      "▁son": 4028,
      "▁secim": 4029,
      "embe": 4030,
      "▁seviy": 4031,
      "▁bilgi": 4032,
      "▁cocuk": 4033,
      "▁yuksek": 4034,
      "▁bunlardan": 4035,
      "▁kayn": 4036,
      "▁olacaktır": 4037,
      "▁vardır": 4038,
      "▁cı": 4039,
      "▁tahvil": 4040,
      "isel": 4041,
      "▁atlan": 4042,
      "▁kalkıs": 4043,
      "▁pasa": 4044,
      "▁engel": 4045,
      "▁tim": 4046,
      "sekiz": 4047,
      "una": 4048,
      "▁karanlık": 4049,
      "▁wash": 4050,
      "▁iste": 4051,
      "▁kapas": 4052,
      "▁ok": 4053,
      "maktan": 4054,
      "lat": 4055,
      "eki": 4056,
      "▁enf": 4057,
      "▁k": 4058,
      "ege": 4059,
      "▁fiyatları": 4060,
      "▁uc": 4061,
      "les": 4062,
      "▁for": 4063,
      "▁aks": 4064,
      "89-": 4065,
      "▁bes": 4066,
      "▁sa": 4067,
      "em": 4068,
      "ash": 4069,
      "'de": 4070,
      "yla": 4071,
      "▁ettiler": 4072,
      ".4": 4073,
      "▁defa": 4074,
      "▁muz": 4075,
      "▁gumbur": 4076,
      "▁sigorta": 4077,
      "▁tesekkur": 4078,
      "duk": 4079,
      "\\/8": 4080,
      "▁gordu": 4081,
      "▁muhtesem": 4082,
      "▁kalma": 4083,
      "▁meyal": 4084,
      "▁1/": 4085,
      "▁kırk": 4086,
      "▁1.6": 4087,
      "ell": 4088,
      "▁55": 4089,
      "ucuk": 4090,
      "▁merkezi": 4091,
      "▁sut": 4092,
      "▁bagım": 4093,
      "▁w": 4094,
      "▁tedav": 4095
    },
    "merges": [
      [
        "▁yur",
        "uy"
      ],
      [
        "lan",
        "ır"
      ],
      [
        "▁k",
        "as"
      ],
      [
        "▁on",
        "umuz"
      ],
      [
        "ayı",
        "f"
      ],
      [
        "▁gor",
        "uyor"
      ],
      [
        "▁p",
        "er"
      ],
      [
        "▁onem",
        "li"
      ],
      [
        "▁telefon",
        "la"
      ],
      [
        "u",
        "ar"
      ],
      [
        "▁1.",
        "6"
      ],
      [
        "▁1/",
        "2"
      ],
      [
        "i",
        "s"
      ],
      [
        "▁y",
        "ak"
      ],
      [
        "▁kac",
        "ın"
      ],
      [
        "▁kat",
        "ıl"
      ],
      [
        "m",
        "ayan"
      ],
      [
        "▁si",
        "ir"
      ],
      [
        "e",
        "de"
      ],
      [
        "▁m",
        "ec"
      ],
      [
        "▁",
        "ustu"
      ],
      [
        "▁oldug",
        "un"
      ],
      [
        "ac",
        "h"
      ],
      [
        "▁l",
        "o"
      ],
      [
        "▁p",
        "ort"
      ],
      [
        "▁bil",
        "in"
      ],
      [
        "▁milwaukee",
        "'ye"
      ],
      [
        "▁19",
        "6"
      ],
      [
        "▁k",
        "ir"
      ],
      [
        "y",
        "uz"
      ],
      [
        "▁k",
        "el"
      ],
      [
        "mek",
        "tedir"
      ],
      [
        "▁yaptir",
        "di"
      ],
      [
        "alar",
        "dan"
      ],
      [
        "▁1",
        "\\/"
      ],
      [
        "▁kurum",
        "sal"
      ],
      [
        "l",
        "uydu"
      ],
      [
        "ing",
        "ton"
      ],
      [
        "▁a",
        "z"
      ],
      [
        "▁bir",
        "ini"
      ],
      [
        "▁c",
        "or"
      ],
      [
        "▁an",
        "im"
      ],
      [
        "▁%0",
        ".3"
      ],
      [
        "ak",
        "et"
      ],
      [
        "ey",
        "di"
      ],
      [
        "un",
        "ku"
      ],
      [
        "▁%4",
        ".8"
      ],
      [
        "▁ol",
        "us"
      ],
      [
        "▁ede",
        "c"
      ],
      [
        "▁c",
        "og"
      ],
      [
        "lı",
        "k"
      ],
      [
        "un",
        "da"
      ],
      [
        "at",
        "if"
      ],
      [
        "▁r",
        "ec"
      ],
      [
        "▁yaptı",
        "gı"
      ],
      [
        "▁etti",
        "gi"
      ],
      [
        "▁an",
        "lay"
      ],
      [
        "lam",
        "ıs"
      ],
      [
        "lig",
        "e"
      ],
      [
        "medi",
        "gini"
      ],
      [
        "▁fatur",
        "am"
      ],
      [
        "▁dolar",
        "dan"
      ],
      [
        "▁boyle",
        "ce"
      ],
      [
        "▁a",
        "t"
      ],
      [
        "as",
        "ına"
      ],
      [
        "▁mil",
        "let"
      ],
      [
        ".",
        "8"
      ],
      [
        "▁or",
        "ta"
      ],
      [
        "▁ort",
        "am"
      ],
      [
        "▁sor",
        "un"
      ],
      [
        "▁dıs",
        "ında"
      ],
      [
        "▁ba",
        "z"
      ],
      [
        "▁cor",
        "p"
      ],
      [
        "▁mu",
        "h"
      ],
      [
        "▁g",
        "ul"
      ],
      [
        "▁aras",
        "tır"
      ],
      [
        "▁gen",
        "e"
      ],
      [
        "▁o",
        "r"
      ],
      [
        "▁%3.4",
        "3"
      ],
      [
        "ec",
        "ek"
      ],
      [
        "▁egit",
        "im"
      ],
      [
        "atur",
        "k"
      ],
      [
        "▁b",
        "us"
      ],
      [
        "▁bas",
        "ını"
      ],
      [
        "▁ver",
        "mis"
      ],
      [
        "▁2",
        ".7"
      ],
      [
        "ler",
        "den"
      ],
      [
        "▁amerik",
        "an"
      ],
      [
        "as",
        "ından"
      ],
      [
        "▁mak",
        "al"
      ],
      [
        "ans",
        "ız"
      ],
      [
        "▁y",
        "ım"
      ],
      [
        "▁cı",
        "yak"
      ],
      [
        "▁ol",
        "an"
      ],
      [
        "on",
        "ik"
      ],
      [
        "▁bol",
        "um"
      ],
      [
        "▁dog",
        "al"
      ],
      [
        "▁do",
        "lara"
      ],
      [
        "k",
        "e"
      ],
      [
        "▁mahk",
        "em"
      ],
      [
        "u",
        "l"
      ],
      [
        "▁f",
        "i"
      ],
      [
        "li",
        "f"
      ],
      [
        "▁ver",
        "mek"
      ],
      [
        "o",
        "s"
      ],
      [
        "▁kalk",
        "ıp"
      ],
      [
        "▁i",
        "se"
      ],
      [
        "t",
        "aki"
      ],
      [
        "▁arkad",
        "as"
      ],
      [
        "▁g",
        "og"
      ],
      [
        "▁don",
        "du"
      ],
      [
        "▁m",
        "ay"
      ],
      [
        "s",
        "em"
      ],
      [
        "▁miy",
        "im"
      ],
      [
        "es",
        "iz"
      ],
      [
        "▁atlanta",
        "'ya"
      ],
      [
        "m",
        "ey"
      ],
      [
        "▁m",
        "ur"
      ],
      [
        "d",
        "as"
      ],
      [
        "▁yas",
        "ında"
      ],
      [
        "▁bas",
        "ka"
      ],
      [
        "▁fr",
        "ansız"
      ],
      [
        "▁ag",
        "ır"
      ],
      [
        "2",
        "-23"
      ],
      [
        "▁hij",
        "yen"
      ],
      [
        "▁etm",
        "em"
      ],
      [
        "▁b",
        "an"
      ],
      [
        "▁il",
        "isk"
      ],
      [
        "▁yan",
        "ında"
      ],
      [
        "ust",
        "on"
      ],
      [
        "▁d",
        "ah"
      ],
      [
        "a",
        "m"
      ],
      [
        "▁mi",
        "s"
      ],
      [
        "ıl",
        "dır"
      ],
      [
        "▁kap",
        "sam"
      ],
      [
        "mam",
        "ıs"
      ],
      [
        "a",
        "b"
      ],
      [
        "▁s",
        "a"
      ],
      [
        "▁i",
        "s"
      ],
      [
        "▁b",
        "ırak"
      ],
      [
        "▁kim",
        "i"
      ],
      [
        "▁s",
        "ı"
      ],
      [
        "▁but",
        "un"
      ],
      [
        "im",
        "di"
      ],
      [
        "r",
        "um"
      ],
      [
        "ama",
        "dim"
      ],
      [
        "'n",
        "ın"
      ],
      [
        "▁gir",
        "isim"
      ],
      [
        "▁guven",
        "lik"
      ],
      [
        "d",
        "ir"
      ],
      [
        "l",
        "a"
      ],
      [
        "▁karıs",
        "tır"
      ],
      [
        "▁",
        "0"
      ],
      [
        "▁aktar",
        "masız"
      ],
      [
        "▁d",
        "e"
      ],
      [
        "m",
        "esi"
      ],
      [
        "ıl",
        "ır"
      ],
      [
        "▁b",
        "ası"
      ],
      [
        "▁hes",
        "ap"
      ],
      [
        "▁gec",
        "ti"
      ],
      [
        "▁d",
        "ost"
      ],
      [
        "uy",
        "a"
      ],
      [
        "un",
        "dan"
      ],
      [
        "▁siyas",
        "i"
      ],
      [
        "dı",
        "m"
      ],
      [
        "▁zay",
        "if"
      ],
      [
        "▁gor",
        "us"
      ],
      [
        "b",
        "ak"
      ],
      [
        "el",
        "en"
      ],
      [
        "▁mi",
        "sin"
      ],
      [
        "▁gel",
        "mis"
      ],
      [
        "▁air",
        "lin"
      ],
      [
        "▁kon",
        "umu"
      ],
      [
        "▁t",
        "ar"
      ],
      [
        "m",
        "e"
      ],
      [
        "▁k",
        "ır"
      ],
      [
        "▁hakk",
        "ında"
      ],
      [
        "▁yıl",
        "ında"
      ],
      [
        "▁",
        "5"
      ],
      [
        "▁ucret",
        "in"
      ],
      [
        "▁bek",
        "len"
      ],
      [
        "▁in",
        "sa"
      ],
      [
        "k",
        "al"
      ],
      [
        "'n",
        "de"
      ],
      [
        "▁s",
        "o"
      ],
      [
        "tı",
        "g"
      ],
      [
        "em",
        "in"
      ],
      [
        "▁av",
        "uc"
      ],
      [
        "▁har",
        "eket"
      ],
      [
        "▁yuz",
        "unden"
      ],
      [
        "▁soy",
        "len"
      ],
      [
        "ist",
        "en"
      ],
      [
        "▁gi",
        "d"
      ],
      [
        "▁g",
        "r"
      ],
      [
        "en",
        "e"
      ],
      [
        "l",
        "o"
      ],
      [
        "an",
        "k"
      ],
      [
        "▁kırm",
        "ızı"
      ],
      [
        "o",
        "ma"
      ],
      [
        "▁o",
        "g"
      ],
      [
        "▁rek",
        "lam"
      ],
      [
        "▁dusuk",
        "tu"
      ],
      [
        "▁tan",
        "e"
      ],
      [
        ".",
        "3"
      ],
      [
        "▁un",
        "iv"
      ],
      [
        "▁olma",
        "dıgını"
      ],
      [
        "▁d",
        "uv"
      ],
      [
        "iy",
        "e"
      ],
      [
        "▁c",
        "le"
      ],
      [
        "▁s",
        "il"
      ],
      [
        "▁yon",
        "et"
      ],
      [
        "7",
        "5"
      ],
      [
        "▁?",
        ".."
      ],
      [
        "▁kor",
        "k"
      ],
      [
        "▁",
        "erk"
      ],
      [
        "▁c",
        "iyak"
      ],
      [
        "ek",
        "ler"
      ],
      [
        "▁kar",
        "ar"
      ],
      [
        "▁d",
        "al"
      ],
      [
        "▁ag",
        "z"
      ],
      [
        "ac",
        "a"
      ],
      [
        "▁u",
        "f"
      ],
      [
        "▁ay",
        "ak"
      ],
      [
        "▁ekonom",
        "ik"
      ],
      [
        "ac",
        "ı"
      ],
      [
        "▁as",
        "agı"
      ],
      [
        "eceg",
        "ini"
      ],
      [
        "lı",
        "yor"
      ],
      [
        "▁sap",
        "ır"
      ],
      [
        "▁k",
        "ay"
      ],
      [
        "▁yeter",
        "li"
      ],
      [
        "▁6",
        "0"
      ],
      [
        "ı",
        "g"
      ],
      [
        "▁tav",
        "siye"
      ],
      [
        "e",
        "sin"
      ],
      [
        "▁sav",
        "as"
      ],
      [
        "▁yuz",
        "me"
      ],
      [
        "t",
        "a"
      ],
      [
        "▁kom",
        "p"
      ],
      [
        "a",
        "tır"
      ],
      [
        "ası",
        "yla"
      ],
      [
        "▁1.",
        "5"
      ],
      [
        "▁haf",
        "ta"
      ],
      [
        "t",
        "ı"
      ],
      [
        "siy",
        "on"
      ],
      [
        "'",
        "le"
      ],
      [
        "▁p",
        "ek"
      ],
      [
        "▁bul",
        "un"
      ],
      [
        "▁uz",
        "un"
      ],
      [
        "m",
        "al"
      ],
      [
        "▁gercek",
        "les"
      ],
      [
        "▁o",
        "larak"
      ],
      [
        "▁f",
        "iyat"
      ],
      [
        "▁t",
        "im"
      ],
      [
        "▁ken",
        "d"
      ],
      [
        "▁bost",
        "on"
      ],
      [
        "▁sahib",
        "i"
      ],
      [
        "▁res",
        "mi"
      ],
      [
        "▁francisco",
        "'dan"
      ],
      [
        "f",
        "er"
      ],
      [
        "'",
        "ta"
      ],
      [
        "et",
        "i"
      ],
      [
        "▁c",
        "ev"
      ],
      [
        "b",
        "u"
      ],
      [
        "▁",
        "or"
      ],
      [
        "▁",
        "1"
      ],
      [
        "c",
        "an"
      ],
      [
        "▁v",
        "az"
      ],
      [
        "▁bun",
        "un"
      ],
      [
        "▁bir",
        "cok"
      ],
      [
        "u",
        "h"
      ],
      [
        "▁1",
        "."
      ],
      [
        "d",
        "ır"
      ],
      [
        "▁an",
        "ket"
      ],
      [
        "▁car",
        "p"
      ],
      [
        "▁n",
        "az"
      ],
      [
        "▁",
        "ısıl"
      ],
      [
        "▁s",
        "ık"
      ],
      [
        "d",
        "eki"
      ],
      [
        "▁g",
        "un"
      ],
      [
        "s",
        "e"
      ],
      [
        "▁k",
        "ab"
      ],
      [
        "▁ol",
        "mus"
      ],
      [
        "▁'",
        "nin"
      ],
      [
        "▁kend",
        "ine"
      ],
      [
        "bar",
        "en"
      ],
      [
        "eceg",
        "i"
      ],
      [
        "▁han",
        "im"
      ],
      [
        "y",
        "or"
      ],
      [
        "f",
        "et"
      ],
      [
        "▁k",
        "os"
      ],
      [
        "l",
        "ık"
      ],
      [
        "▁kars",
        "ın"
      ],
      [
        "▁milwaukee",
        "'den"
      ],
      [
        "m",
        "uyor"
      ],
      [
        "▁begen",
        "dim"
      ],
      [
        "inn",
        "ati"
      ],
      [
        "▁calıs",
        "ıyor"
      ],
      [
        "▁199",
        "0"
      ],
      [
        "▁k",
        "ac"
      ],
      [
        "▁b",
        "er"
      ],
      [
        "las",
        "s"
      ],
      [
        "▁k",
        "af"
      ],
      [
        "al",
        "t"
      ],
      [
        "▁ay",
        "dın"
      ],
      [
        "1",
        "-19"
      ],
      [
        "lam",
        "ak"
      ],
      [
        "▁olanak",
        "lari"
      ],
      [
        "▁t",
        "on"
      ],
      [
        "▁g",
        "ev"
      ],
      [
        "ı",
        "k"
      ],
      [
        "▁montre",
        "al"
      ],
      [
        "▁il",
        "an"
      ],
      [
        "ro",
        "it"
      ],
      [
        "▁dir",
        "ek"
      ],
      [
        "▁vaz",
        "gec"
      ],
      [
        "▁k",
        "ul"
      ],
      [
        "▁...",
        "\""
      ],
      [
        "▁c",
        "ar"
      ],
      [
        "▁olabilir",
        "di"
      ],
      [
        "ın",
        "daki"
      ],
      [
        "▁tic",
        "ari"
      ],
      [
        "▁t",
        "uk"
      ],
      [
        "▁yas",
        "ak"
      ],
      [
        "ıl",
        "maz"
      ],
      [
        "▁c",
        "oz"
      ],
      [
        "▁yol",
        "a"
      ],
      [
        "ir",
        "e"
      ],
      [
        "d",
        "ay"
      ],
      [
        "▁k",
        "or"
      ],
      [
        "eler",
        "ine"
      ],
      [
        "▁acık",
        "lan"
      ],
      [
        "▁e",
        "lli"
      ],
      [
        "d",
        "ur"
      ],
      [
        "n",
        "i"
      ],
      [
        "▁t",
        "ef"
      ],
      [
        "▁ilgilendi",
        "ler"
      ],
      [
        "o",
        "n"
      ],
      [
        "▁..",
        "."
      ],
      [
        "▁bu",
        "r"
      ],
      [
        "ar",
        "e"
      ],
      [
        "▁y",
        "edi"
      ],
      [
        "▁duny",
        "anın"
      ],
      [
        "▁",
        "f"
      ],
      [
        "▁o",
        "l"
      ],
      [
        "asyon",
        "u"
      ],
      [
        "▁le",
        "z"
      ],
      [
        "▁im",
        "kan"
      ],
      [
        "r",
        "up"
      ],
      [
        "▁duz",
        "en"
      ],
      [
        "ede",
        "f"
      ],
      [
        "▁kal",
        "mıs"
      ],
      [
        "▁s",
        "m"
      ],
      [
        "▁ger",
        "ek"
      ],
      [
        "▁ol",
        "duk"
      ],
      [
        "▁gi",
        "di"
      ],
      [
        "▁yetersiz",
        "di"
      ],
      [
        "▁sey",
        "ahat"
      ],
      [
        "▁kon",
        "ustu"
      ],
      [
        "▁a",
        "v"
      ],
      [
        "s",
        "al"
      ],
      [
        "▁sey",
        "ler"
      ],
      [
        "▁ic",
        "i"
      ],
      [
        "▁c",
        "if"
      ],
      [
        "is",
        "ini"
      ],
      [
        "▁ucus",
        "a"
      ],
      [
        "is",
        "ki"
      ],
      [
        "▁herkes",
        "e"
      ],
      [
        "g",
        "a"
      ],
      [
        "▁sup",
        "er"
      ],
      [
        "▁sun",
        "ları"
      ],
      [
        "▁t",
        "ak"
      ],
      [
        "▁car",
        "samba"
      ],
      [
        "▁g",
        "ar"
      ],
      [
        "g",
        "ı"
      ],
      [
        "eg",
        "en"
      ],
      [
        "▁i",
        "n"
      ],
      [
        "▁yemek",
        "ler"
      ],
      [
        "▁uc",
        "us"
      ],
      [
        "4",
        "5"
      ],
      [
        "a",
        "y"
      ],
      [
        "▁h",
        "ik"
      ],
      [
        "di",
        "k"
      ],
      [
        "▁tir",
        "il"
      ],
      [
        "▁yaz",
        "ı"
      ],
      [
        "▁dok",
        "un"
      ],
      [
        "▁begen",
        "medim"
      ],
      [
        "▁g",
        "oz"
      ],
      [
        "▁a",
        "p"
      ],
      [
        "▁haf",
        "if"
      ],
      [
        "▁l",
        "azım"
      ],
      [
        "▁bog",
        "az"
      ],
      [
        "▁san",
        "ki"
      ],
      [
        "l",
        "as"
      ],
      [
        "▁b",
        "eri"
      ],
      [
        "▁deg",
        "er"
      ],
      [
        "▁siz",
        "in"
      ],
      [
        "▁dobr",
        "a"
      ],
      [
        "▁insan",
        "lar"
      ],
      [
        "▁bilgisay",
        "ar"
      ],
      [
        "▁mus",
        "a"
      ],
      [
        "▁20",
        "1"
      ],
      [
        "o",
        "j"
      ],
      [
        "▁ask",
        "er"
      ],
      [
        "▁oy",
        "sa"
      ],
      [
        "▁ayr",
        "ı"
      ],
      [
        "▁s",
        "av"
      ],
      [
        "▁gun",
        "es"
      ],
      [
        "▁v",
        "er"
      ],
      [
        "▁tem",
        "muz"
      ],
      [
        "i",
        "z"
      ],
      [
        "▁",
        "ısı"
      ],
      [
        "▁f",
        "ab"
      ],
      [
        "▁s",
        "el"
      ],
      [
        "▁mu",
        "s"
      ],
      [
        "s",
        "t"
      ],
      [
        "▁kız",
        "ı"
      ],
      [
        "ur",
        "lu"
      ],
      [
        "ecek",
        "tir"
      ],
      [
        "▁k",
        "up"
      ],
      [
        "▁",
        "w"
      ],
      [
        "▁fiyat",
        "a"
      ],
      [
        "▁1",
        "6"
      ],
      [
        "▁n",
        "er"
      ],
      [
        "▁%",
        "6"
      ],
      [
        "▁yuz",
        "u"
      ],
      [
        "▁fiyat",
        "ı"
      ],
      [
        "k",
        "an"
      ],
      [
        "▁pah",
        "aliydi"
      ],
      [
        "▁",
        "ce"
      ],
      [
        "▁",
        "le"
      ],
      [
        "i",
        "t"
      ],
      [
        "▁r",
        "ast"
      ],
      [
        "▁as",
        "l"
      ],
      [
        "▁kar",
        "ak"
      ],
      [
        "▁1989-",
        "8"
      ],
      [
        "▁kal",
        "madim"
      ],
      [
        "▁2",
        "9"
      ],
      [
        "le",
        "di"
      ],
      [
        "▁d",
        "am"
      ],
      [
        "▁dav",
        "et"
      ],
      [
        "▁d",
        "us"
      ],
      [
        "▁k",
        "r"
      ],
      [
        "▁al",
        "an"
      ],
      [
        "▁y",
        "ık"
      ],
      [
        "▁yuk",
        "arı"
      ],
      [
        "▁t",
        "h"
      ],
      [
        "▁seb",
        "ep"
      ],
      [
        "9",
        "2"
      ],
      [
        "is",
        "i"
      ],
      [
        "tı",
        "yor"
      ],
      [
        "▁insan",
        "ın"
      ],
      [
        "medi",
        "k"
      ],
      [
        "mis",
        "ler"
      ],
      [
        "▁",
        "ede"
      ],
      [
        "▁m",
        "ev"
      ],
      [
        "es",
        "i"
      ],
      [
        "▁%2",
        "0"
      ],
      [
        "▁",
        "\""
      ],
      [
        "▁mem",
        "ur"
      ],
      [
        "▁k",
        "ayıp"
      ],
      [
        "▁g",
        "en"
      ],
      [
        "▁dallas",
        "'a"
      ],
      [
        "ma",
        "dı"
      ],
      [
        "un",
        "deki"
      ],
      [
        "▁on",
        "ce"
      ],
      [
        "▁kal",
        "dim"
      ],
      [
        "▁k",
        "agıt"
      ],
      [
        "▁%3",
        "."
      ],
      [
        "'y",
        "ı"
      ],
      [
        "▁bir",
        "likte"
      ],
      [
        "uc",
        "uk"
      ],
      [
        "m",
        "am"
      ],
      [
        "▁",
        "…"
      ],
      [
        "▁n",
        "et"
      ],
      [
        "eler",
        "ek"
      ],
      [
        "m",
        "us"
      ],
      [
        "▁sist",
        "em"
      ],
      [
        "▁f",
        "or"
      ],
      [
        "▁ver",
        "ilen"
      ],
      [
        "y",
        "le"
      ],
      [
        "d",
        "og"
      ],
      [
        "ya",
        "'da"
      ],
      [
        "▁kon",
        "um"
      ],
      [
        "▁ede",
        "b"
      ],
      [
        "lu",
        "gun"
      ],
      [
        "▁dem",
        "okr"
      ],
      [
        "en",
        "di"
      ],
      [
        "an",
        "lar"
      ],
      [
        "▁sor",
        "u"
      ],
      [
        "▁%2",
        "5"
      ],
      [
        "m",
        "esine"
      ],
      [
        "▁d",
        "an"
      ],
      [
        "▁",
        "g"
      ],
      [
        "▁ek",
        "s"
      ],
      [
        "ası",
        "yor"
      ],
      [
        "▁o",
        "ak"
      ],
      [
        "▁par",
        "ca"
      ],
      [
        "▁sa",
        "m"
      ],
      [
        "lay",
        "acak"
      ],
      [
        "s",
        "ız"
      ],
      [
        "▁w",
        "ash"
      ],
      [
        "ar",
        "t"
      ],
      [
        "▁ac",
        "ı"
      ],
      [
        "▁hat",
        "ır"
      ],
      [
        "▁t",
        "u"
      ],
      [
        "h",
        "i"
      ],
      [
        "▁2",
        "7"
      ],
      [
        "▁ihtiy",
        "ac"
      ],
      [
        "iy",
        "di"
      ],
      [
        "▁on",
        "un"
      ],
      [
        "dig",
        "ini"
      ],
      [
        "▁gec",
        "er"
      ],
      [
        "▁n",
        "ok"
      ],
      [
        "il",
        "m"
      ],
      [
        "▁gor",
        "unuyor"
      ],
      [
        "▁tamam",
        "en"
      ],
      [
        "alı",
        "gı"
      ],
      [
        "▁ay",
        "ı"
      ],
      [
        "o",
        "z"
      ],
      [
        "ı",
        "yor"
      ],
      [
        "▁ist",
        "en"
      ],
      [
        "o",
        "d"
      ],
      [
        "han",
        "gi"
      ],
      [
        "▁olum",
        "lu"
      ],
      [
        "m",
        "an"
      ],
      [
        "▁sır",
        "ada"
      ],
      [
        "▁sirket",
        "in"
      ],
      [
        "▁pır",
        "ıl"
      ],
      [
        "▁as",
        "la"
      ],
      [
        "▁m",
        "ar"
      ],
      [
        "m",
        "eli"
      ],
      [
        "▁lak",
        "e"
      ],
      [
        "▁univers",
        "it"
      ],
      [
        "▁il",
        "k"
      ],
      [
        "▁h",
        "as"
      ],
      [
        "▁dolay",
        "i"
      ],
      [
        "▁il",
        "er"
      ],
      [
        "▁hal",
        "ine"
      ],
      [
        "▁su",
        "z"
      ],
      [
        "ur",
        "t"
      ],
      [
        "an",
        "ın"
      ],
      [
        "▁d",
        "est"
      ],
      [
        "o",
        "t"
      ],
      [
        "▁top",
        "lum"
      ],
      [
        "▁is",
        "im"
      ],
      [
        "al",
        "an"
      ],
      [
        "▁%1",
        "0"
      ],
      [
        "t",
        "i"
      ],
      [
        "▁bel",
        "ki"
      ],
      [
        "▁karsil",
        "igini"
      ],
      [
        "▁i",
        "d"
      ],
      [
        "▁g",
        "on"
      ],
      [
        "▁kıs",
        "a"
      ],
      [
        "▁az",
        "alt"
      ],
      [
        "▁y",
        "as"
      ],
      [
        "m",
        "ası"
      ],
      [
        "▁yanl",
        "ıs"
      ],
      [
        "▁k",
        "utur"
      ],
      [
        "▁son",
        "unda"
      ],
      [
        "▁m",
        "is"
      ],
      [
        "▁list",
        "el"
      ],
      [
        "▁lou",
        "is"
      ],
      [
        "▁h",
        "av"
      ],
      [
        "▁v",
        "ucu"
      ],
      [
        "ec",
        "i"
      ],
      [
        "▁c",
        "ak"
      ],
      [
        "▁bil",
        "es"
      ],
      [
        "▁fa",
        "iz"
      ],
      [
        "▁dev",
        "r"
      ],
      [
        "▁ne",
        "f"
      ],
      [
        "▁m",
        "enkul"
      ],
      [
        "▁k",
        "ayı"
      ],
      [
        "▁uz",
        "ak"
      ],
      [
        "y",
        "dı"
      ],
      [
        "▁olm",
        "asi"
      ],
      [
        "in",
        "i"
      ],
      [
        "▁s",
        "ır"
      ],
      [
        "▁b",
        "ek"
      ],
      [
        "▁il",
        "et"
      ],
      [
        "▁%1",
        "5"
      ],
      [
        "▁bah",
        "c"
      ],
      [
        "▁yer",
        "inde"
      ],
      [
        "▁y",
        "av"
      ],
      [
        "m",
        "az"
      ],
      [
        "▁cı",
        "vıl"
      ],
      [
        "▁%",
        "25"
      ],
      [
        "▁hav",
        "a"
      ],
      [
        "▁m",
        "in"
      ],
      [
        "u",
        "gun"
      ],
      [
        "▁y",
        "el"
      ],
      [
        "▁kullan",
        "madim"
      ],
      [
        "▁",
        "k"
      ],
      [
        "ıy",
        "ı"
      ],
      [
        "▁f",
        "ut"
      ],
      [
        "▁cum",
        "artesi"
      ],
      [
        "ler",
        "inin"
      ],
      [
        "▁c",
        "oc"
      ],
      [
        "▁ver",
        "di"
      ],
      [
        "▁bag",
        "lan"
      ],
      [
        "▁ulus",
        "lar"
      ],
      [
        "a",
        "r"
      ],
      [
        "▁karayol",
        "u"
      ],
      [
        "▁al",
        "dı"
      ],
      [
        "lam",
        "a"
      ],
      [
        "▁yor",
        "um"
      ],
      [
        ".5",
        "0"
      ],
      [
        "s",
        "am"
      ],
      [
        "eler",
        "de"
      ],
      [
        "▁dur",
        "umu"
      ],
      [
        "▁k",
        "ıs"
      ],
      [
        "▁tel",
        "evizyon"
      ],
      [
        "co",
        "g"
      ],
      [
        "len",
        "en"
      ],
      [
        "▁goz",
        "leri"
      ],
      [
        "▁yur",
        "ut"
      ],
      [
        "▁3",
        "7"
      ],
      [
        "▁c",
        "h"
      ],
      [
        "ladı",
        "m"
      ],
      [
        "am",
        "ız"
      ],
      [
        "os",
        "t"
      ],
      [
        "▁memnun",
        "um"
      ],
      [
        "▁de",
        "sik"
      ],
      [
        "▁aktar",
        "malı"
      ],
      [
        "▁",
        "et"
      ],
      [
        "ta",
        "dır"
      ],
      [
        "▁%2",
        ".7"
      ],
      [
        "▁i",
        "ti"
      ],
      [
        "uc",
        "u"
      ],
      [
        "u",
        "s"
      ],
      [
        "at",
        "ik"
      ],
      [
        "▁",
        ":"
      ],
      [
        "▁j",
        "apon"
      ],
      [
        "▁s",
        "ay"
      ],
      [
        "▁tab",
        "i"
      ],
      [
        "ı",
        "c"
      ],
      [
        "lem",
        "e"
      ],
      [
        "al",
        "ap"
      ],
      [
        "▁yuk",
        "s"
      ],
      [
        "▁m",
        "at"
      ],
      [
        "▁hen",
        "uz"
      ],
      [
        "e",
        "y"
      ],
      [
        "▁s",
        "ur"
      ],
      [
        "▁edi",
        "len"
      ],
      [
        "or",
        "m"
      ],
      [
        "▁f",
        "az"
      ],
      [
        "r",
        "et"
      ],
      [
        "l",
        "ay"
      ],
      [
        "s",
        "an"
      ],
      [
        "h",
        "e"
      ],
      [
        "ir",
        "di"
      ],
      [
        "▁al",
        "k"
      ],
      [
        "▁lung",
        "ur"
      ],
      [
        "▁%3",
        ".4"
      ],
      [
        "▁e",
        "den"
      ],
      [
        "▁k",
        "ar"
      ],
      [
        "▁bir",
        "az"
      ],
      [
        "▁s",
        "al"
      ],
      [
        "▁1",
        "0"
      ],
      [
        "▁%",
        "0"
      ],
      [
        "y",
        "et"
      ],
      [
        "▁et",
        "m"
      ],
      [
        "▁alt",
        "ında"
      ],
      [
        "ama",
        "dı"
      ],
      [
        "▁t",
        "ic"
      ],
      [
        "mıs",
        "tır"
      ],
      [
        "▁dus",
        "erek"
      ],
      [
        "▁",
        "im"
      ],
      [
        "▁ac",
        "ık"
      ],
      [
        "▁kazan",
        "dı"
      ],
      [
        "▁ortal",
        "ama"
      ],
      [
        "in",
        "n"
      ],
      [
        "▁g",
        "etir"
      ],
      [
        "▁yap",
        "tir"
      ],
      [
        "▁",
        "it"
      ],
      [
        "ad",
        "aki"
      ],
      [
        "▁gel",
        "di"
      ],
      [
        "d",
        "un"
      ],
      [
        "▁kal",
        "ab"
      ],
      [
        "▁s",
        "ag"
      ],
      [
        "▁um",
        "ut"
      ],
      [
        "▁istem",
        "iyorum"
      ],
      [
        "▁av",
        "rup"
      ],
      [
        "k",
        "et"
      ],
      [
        "▁sın",
        "ır"
      ],
      [
        "▁sig",
        "ort"
      ],
      [
        "▁",
        "9"
      ],
      [
        "▁sev",
        "gil"
      ],
      [
        "▁k",
        "is"
      ],
      [
        "▁1",
        "5"
      ],
      [
        "▁duy",
        "gu"
      ],
      [
        "▁al",
        "amadim"
      ],
      [
        "▁%",
        "5"
      ],
      [
        "▁",
        "emek"
      ],
      [
        "r",
        "im"
      ],
      [
        "▁yaklas",
        "ık"
      ],
      [
        "▁du",
        "m"
      ],
      [
        "t",
        "e"
      ],
      [
        "▁hiss",
        "e"
      ],
      [
        "▁acık",
        "ladı"
      ],
      [
        "▁d",
        "er"
      ],
      [
        "▁",
        "="
      ],
      [
        "▁sor",
        "unu"
      ],
      [
        "▁b",
        "iz"
      ],
      [
        "co",
        "k"
      ],
      [
        "▁2",
        "8"
      ],
      [
        "ir",
        "an"
      ],
      [
        "ar",
        "lan"
      ],
      [
        "▁bun",
        "u"
      ],
      [
        "▁kom",
        "isyon"
      ],
      [
        "▁yap",
        "ıl"
      ],
      [
        "▁s",
        "t"
      ],
      [
        "▁gun",
        "ey"
      ],
      [
        "▁fak",
        "at"
      ],
      [
        "▁h",
        "ır"
      ],
      [
        "b",
        "as"
      ],
      [
        "ar",
        "dan"
      ],
      [
        "'",
        "u"
      ],
      [
        "▁%1",
        ".7"
      ],
      [
        "▁ingil",
        "iz"
      ],
      [
        "▁sog",
        "uk"
      ],
      [
        "in",
        "e"
      ],
      [
        "l",
        "t"
      ],
      [
        "ek",
        "i"
      ],
      [
        "▁kendi",
        "ler"
      ],
      [
        "ed",
        "er"
      ],
      [
        "▁s",
        "af"
      ],
      [
        "m",
        "er"
      ],
      [
        "a",
        "g"
      ],
      [
        "▁dedi",
        "k"
      ],
      [
        "▁",
        "'"
      ],
      [
        "▁kay",
        "bet"
      ],
      [
        "lar",
        "dan"
      ],
      [
        "▁kar",
        "a"
      ],
      [
        "c",
        "ek"
      ],
      [
        "s",
        "iye"
      ],
      [
        "▁sek",
        "tor"
      ],
      [
        "▁basar",
        "ılı"
      ],
      [
        "og",
        "lu"
      ],
      [
        "ler",
        "iyle"
      ],
      [
        "ak",
        "i"
      ],
      [
        "▁c",
        "ep"
      ],
      [
        "▁den",
        "ver"
      ],
      [
        "ag",
        "a"
      ],
      [
        "▁d",
        "et"
      ],
      [
        "▁is",
        "lem"
      ],
      [
        "ev",
        "i"
      ],
      [
        "▁yetkil",
        "ileri"
      ],
      [
        "▁tut",
        "un"
      ],
      [
        "ag",
        "ı"
      ],
      [
        "▁i",
        "di"
      ],
      [
        "▁%6.9",
        "0"
      ],
      [
        "▁pitts",
        "burgh"
      ],
      [
        "▁mey",
        "al"
      ],
      [
        "▁art",
        "arak"
      ],
      [
        "▁c",
        "om"
      ],
      [
        "o",
        "f"
      ],
      [
        "▁u",
        "c"
      ],
      [
        "▁",
        "la"
      ],
      [
        "▁tel",
        "ef"
      ],
      [
        "ar",
        "ası"
      ],
      [
        "▁kon",
        "ut"
      ],
      [
        "▁p",
        "ufur"
      ],
      [
        "▁al",
        "ıp"
      ],
      [
        "mas",
        "ının"
      ],
      [
        "l",
        "eket"
      ],
      [
        "▁sov",
        "yet"
      ],
      [
        "▁ot",
        "uz"
      ],
      [
        "▁mev",
        "cut"
      ],
      [
        "▁j",
        "os"
      ],
      [
        "▁yemekler",
        "inden"
      ],
      [
        "m",
        "et"
      ],
      [
        "▁lo",
        "u"
      ],
      [
        "▁ab",
        "d"
      ],
      [
        "▁d",
        "ok"
      ],
      [
        "▁",
        "ef"
      ],
      [
        "r",
        "uk"
      ],
      [
        "i",
        "v"
      ],
      [
        "▁el",
        "ektr"
      ],
      [
        "▁k",
        "at"
      ],
      [
        "▁kos",
        "ul"
      ],
      [
        "▁h",
        "ay"
      ],
      [
        "▁yar",
        "at"
      ],
      [
        "am",
        "an"
      ],
      [
        "▁i",
        "f"
      ],
      [
        "d",
        "ar"
      ],
      [
        "t",
        "al"
      ],
      [
        "▁sirket",
        "ler"
      ],
      [
        "▁yuz",
        "den"
      ],
      [
        "▁tesekkur",
        "ler"
      ],
      [
        "▁is",
        "let"
      ],
      [
        "orm",
        "al"
      ],
      [
        "alar",
        "ının"
      ],
      [
        "▁h",
        "ur"
      ],
      [
        "▁19",
        "9"
      ],
      [
        "▁b",
        "ana"
      ],
      [
        "y",
        "la"
      ],
      [
        "ac",
        "ag"
      ],
      [
        "al",
        "et"
      ],
      [
        "▁l",
        "ung"
      ],
      [
        "▁hal",
        "de"
      ],
      [
        "▁angel",
        "es"
      ],
      [
        "▁r",
        "ak"
      ],
      [
        "▁cık",
        "an"
      ],
      [
        "▁par",
        "k"
      ],
      [
        "▁coc",
        "ugun"
      ],
      [
        "i",
        "p"
      ],
      [
        "▁gitt",
        "ik"
      ],
      [
        "▁1",
        "1"
      ],
      [
        "▁y",
        "ay"
      ],
      [
        "oh",
        "n"
      ],
      [
        "la",
        "dı"
      ],
      [
        "▁d",
        "emek"
      ],
      [
        "▁es",
        "ki"
      ],
      [
        "iy",
        "et"
      ],
      [
        "ıs",
        "ı"
      ],
      [
        "▁kul",
        "lan"
      ],
      [
        "▁y",
        "ur"
      ],
      [
        "▁",
        "ra"
      ],
      [
        "▁bir",
        "er"
      ],
      [
        "ılı",
        "gı"
      ],
      [
        "on",
        "g"
      ],
      [
        "am",
        "ası"
      ],
      [
        "▁bas",
        "ında"
      ],
      [
        "▁sig",
        "orta"
      ],
      [
        "▁sav",
        "un"
      ],
      [
        "▁k",
        "on"
      ],
      [
        "▁bul",
        "dum"
      ],
      [
        "r",
        "ak"
      ],
      [
        "▁kum",
        "as"
      ],
      [
        "▁gal",
        "ib"
      ],
      [
        "▁zaman",
        "da"
      ],
      [
        "▁g",
        "ore"
      ],
      [
        "▁yem",
        "egi"
      ],
      [
        "▁s",
        "alı"
      ],
      [
        "▁",
        "li"
      ],
      [
        "▁ort",
        "aya"
      ],
      [
        "d",
        "in"
      ],
      [
        "▁bas",
        "k"
      ],
      [
        "ab",
        "a"
      ],
      [
        "▁tut",
        "ar"
      ],
      [
        "▁c",
        "ic"
      ],
      [
        "▁biz",
        "ler"
      ],
      [
        "y",
        "ak"
      ],
      [
        "is",
        "yon"
      ],
      [
        "ab",
        "ı"
      ],
      [
        "az",
        "ım"
      ],
      [
        "▁y",
        "ag"
      ],
      [
        "▁d",
        "ib"
      ],
      [
        "g",
        "e"
      ],
      [
        "▁yap",
        "maya"
      ],
      [
        "▁am",
        "ac"
      ],
      [
        "▁dan",
        "ıs"
      ],
      [
        "▁2",
        "3"
      ],
      [
        "▁t",
        "ık"
      ],
      [
        "i",
        "dik"
      ],
      [
        "e",
        "r"
      ],
      [
        "▁kaz",
        "an"
      ],
      [
        "▁h",
        "os"
      ],
      [
        "d",
        "en"
      ],
      [
        "▁%3",
        "0"
      ],
      [
        "r",
        "li"
      ],
      [
        "▁p",
        "ah"
      ],
      [
        "▁yal",
        "nız"
      ],
      [
        "▁neler",
        "dir"
      ],
      [
        "ır",
        "dı"
      ],
      [
        "s",
        "en"
      ],
      [
        "▁h",
        "af"
      ],
      [
        "▁ger",
        "i"
      ],
      [
        "▁lutf",
        "en"
      ],
      [
        "ler",
        "inden"
      ],
      [
        "▁yay",
        "ın"
      ],
      [
        "▁sen",
        "t"
      ],
      [
        "▁sek",
        "er"
      ],
      [
        "las",
        "yon"
      ],
      [
        "▁kar",
        "s"
      ],
      [
        "▁bir",
        "inci"
      ],
      [
        "▁p",
        "itt"
      ],
      [
        "▁r",
        "enk"
      ],
      [
        "▁f",
        "ok"
      ],
      [
        "▁kon",
        "g"
      ],
      [
        "▁musta",
        "fa"
      ],
      [
        "▁bun",
        "a"
      ],
      [
        "▁calis",
        "anlar"
      ],
      [
        "▁o",
        "cak"
      ],
      [
        "▁hepsin",
        "i"
      ],
      [
        "▁on",
        "unde"
      ],
      [
        "▁birka",
        "c"
      ],
      [
        "▁sey",
        "i"
      ],
      [
        "▁gun",
        "d"
      ],
      [
        "▁tak",
        "ır"
      ],
      [
        "▁kur",
        "al"
      ],
      [
        "▁s",
        "am"
      ],
      [
        "em",
        "em"
      ],
      [
        "▁iy",
        "i"
      ],
      [
        "lar",
        "dı"
      ],
      [
        "o",
        "p"
      ],
      [
        "▁%9",
        "9"
      ],
      [
        "▁bizim",
        "le"
      ],
      [
        "eler",
        "ini"
      ],
      [
        "▁c",
        "o"
      ],
      [
        "▁",
        "c"
      ],
      [
        "▁ide",
        "al"
      ],
      [
        "el",
        "i"
      ],
      [
        "iz",
        "i"
      ],
      [
        "▁og",
        "le"
      ],
      [
        "▁b",
        "oy"
      ],
      [
        "l",
        "am"
      ],
      [
        "mas",
        "ını"
      ],
      [
        "ler",
        "in"
      ],
      [
        "▁bas",
        "kı"
      ],
      [
        "a",
        "l"
      ],
      [
        "▁ur",
        "un"
      ],
      [
        "▁cocuk",
        "lu"
      ],
      [
        "g",
        "ur"
      ],
      [
        "ır",
        "k"
      ],
      [
        "▁",
        "u"
      ],
      [
        "▁3",
        "00"
      ],
      [
        "▁bil",
        "e"
      ],
      [
        "▁k",
        "oc"
      ],
      [
        "r",
        "ily"
      ],
      [
        "▁o",
        "s"
      ],
      [
        "▁on",
        "c"
      ],
      [
        "▁b",
        "uy"
      ],
      [
        "a",
        "at"
      ],
      [
        "alar",
        "ını"
      ],
      [
        "'y",
        "e"
      ],
      [
        "▁siy",
        "ah"
      ],
      [
        "▁c",
        "ent"
      ],
      [
        "e",
        "le"
      ],
      [
        "▁city",
        "'den"
      ],
      [
        "▁dur",
        "um"
      ],
      [
        "▁ucus",
        "ların"
      ],
      [
        "▁c",
        "il"
      ],
      [
        "▁bas",
        "it"
      ],
      [
        "▁otel",
        "di"
      ],
      [
        "▁tam",
        "pa"
      ],
      [
        "ik",
        "a"
      ],
      [
        "▁kur",
        "t"
      ],
      [
        "r",
        "u"
      ],
      [
        "▁hast",
        "alık"
      ],
      [
        "▁yap",
        "ı"
      ],
      [
        "▁z",
        "ayıf"
      ],
      [
        "▁",
        "8"
      ],
      [
        "▁uluslar",
        "arası"
      ],
      [
        "▁on",
        "u"
      ],
      [
        "▁s",
        "ist"
      ],
      [
        "▁t",
        "ers"
      ],
      [
        "il",
        "ecek"
      ],
      [
        "▁t",
        "as"
      ],
      [
        "siz",
        "di"
      ],
      [
        "▁hep",
        "si"
      ],
      [
        "▁al",
        "ım"
      ],
      [
        "▁d",
        "ek"
      ],
      [
        "'",
        "ten"
      ],
      [
        "▁'",
        "d"
      ],
      [
        "▁og",
        "ret"
      ],
      [
        "▁2",
        "2-23"
      ],
      [
        "▁kayı",
        "t"
      ],
      [
        "p",
        "er"
      ],
      [
        "▁",
        "`"
      ],
      [
        "b",
        "ur"
      ],
      [
        "▁new",
        "ark"
      ],
      [
        "▁4",
        "4"
      ],
      [
        "eler",
        "i"
      ],
      [
        "▁t",
        "av"
      ],
      [
        "▁olma",
        "dıgı"
      ],
      [
        "e",
        "g"
      ],
      [
        "ıs",
        "ık"
      ],
      [
        "▁cog",
        "un"
      ],
      [
        "▁pet",
        "ers"
      ],
      [
        "n",
        "g"
      ],
      [
        "▁b",
        "ol"
      ],
      [
        "▁t",
        "el"
      ],
      [
        "▁ey",
        "lul"
      ],
      [
        "us",
        "t"
      ],
      [
        "l",
        "ası"
      ],
      [
        "▁ili",
        "sk"
      ],
      [
        "▁r",
        "om"
      ],
      [
        "m",
        "ek"
      ],
      [
        "▁g",
        "iy"
      ],
      [
        "▁ar",
        "a"
      ],
      [
        "or",
        "t"
      ],
      [
        "ust",
        "ur"
      ],
      [
        "▁ih",
        "t"
      ],
      [
        "dı",
        "gı"
      ],
      [
        "li",
        "gi"
      ],
      [
        "▁kaz",
        "anc"
      ],
      [
        "▁i",
        "k"
      ],
      [
        "k",
        "ın"
      ],
      [
        "▁%3.",
        "5"
      ],
      [
        "▁eder",
        "iz"
      ],
      [
        "▁dur",
        "uyor"
      ],
      [
        "en",
        "ek"
      ],
      [
        "▁yas",
        "ama"
      ],
      [
        "▁washington",
        "'a"
      ],
      [
        "▁",
        "/"
      ],
      [
        "d",
        "ak"
      ],
      [
        "▁sat",
        "ıs"
      ],
      [
        "▁kal",
        "dı"
      ],
      [
        "▁li",
        "der"
      ],
      [
        "▁ben",
        "i"
      ],
      [
        "▁al",
        "ın"
      ],
      [
        "▁lez",
        "zet"
      ],
      [
        "b",
        "ank"
      ],
      [
        "h",
        "an"
      ],
      [
        "▁f",
        "ak"
      ],
      [
        "▁at",
        "es"
      ],
      [
        "▁az",
        "al"
      ],
      [
        "▁y",
        "irmi"
      ],
      [
        "▁olma",
        "yan"
      ],
      [
        "▁c",
        "ık"
      ],
      [
        "▁gi",
        "de"
      ],
      [
        "▁erk",
        "en"
      ],
      [
        "▁s",
        "ap"
      ],
      [
        "▁edeb",
        "iyat"
      ],
      [
        "▁.",
        "'"
      ],
      [
        "▁gercek",
        "lestir"
      ],
      [
        "▁kayn",
        "ak"
      ],
      [
        "k",
        "iz"
      ],
      [
        "▁bak",
        "an"
      ],
      [
        "▁m",
        "a"
      ],
      [
        "ların",
        "dan"
      ],
      [
        "ey",
        "i"
      ],
      [
        "▁19",
        "8"
      ],
      [
        "▁m",
        "ı"
      ],
      [
        "▁iy",
        "ice"
      ],
      [
        "▁yat",
        "ırım"
      ],
      [
        "▁degil",
        "im"
      ],
      [
        "i",
        "ng"
      ],
      [
        "▁y",
        "am"
      ],
      [
        "im",
        "den"
      ],
      [
        "it",
        "e"
      ],
      [
        "lıg",
        "ını"
      ],
      [
        "t",
        "an"
      ],
      [
        "▁musa",
        "it"
      ],
      [
        "▁s",
        "tr"
      ],
      [
        "▁benim",
        "le"
      ],
      [
        "▁kal",
        "k"
      ],
      [
        "'",
        "den"
      ],
      [
        "▁tek",
        "n"
      ],
      [
        "▁yar",
        "dım"
      ],
      [
        "▁kap",
        "an"
      ],
      [
        "▁mal",
        "z"
      ],
      [
        "eg",
        "ini"
      ],
      [
        "▁s",
        "p"
      ],
      [
        "▁o",
        "bu"
      ],
      [
        "u",
        "z"
      ],
      [
        "man",
        "ın"
      ],
      [
        "▁ist",
        "eyen"
      ],
      [
        "e",
        "k"
      ],
      [
        "▁",
        "&"
      ],
      [
        "▁%2",
        "7"
      ],
      [
        "▁ediyor",
        "uz"
      ],
      [
        "▁heyec",
        "an"
      ],
      [
        "▁yer",
        "el"
      ],
      [
        "ist",
        "e"
      ],
      [
        "▁yap",
        "acak"
      ],
      [
        "▁n",
        "ik"
      ],
      [
        "▁k",
        "om"
      ],
      [
        "▁ucret",
        "e"
      ],
      [
        "▁yok",
        "sa"
      ],
      [
        "ı",
        "m"
      ],
      [
        "▁d",
        "iz"
      ],
      [
        "▁tahvil",
        "ler"
      ],
      [
        "\\/",
        "8"
      ],
      [
        "▁",
        "3"
      ],
      [
        "▁yor",
        "k"
      ],
      [
        "▁p",
        "ac"
      ],
      [
        "u",
        "t"
      ],
      [
        "▁ph",
        "il"
      ],
      [
        "em",
        "e"
      ],
      [
        "▁m",
        "o"
      ],
      [
        "▁mer",
        "di"
      ],
      [
        "▁3",
        "."
      ],
      [
        "▁soz",
        "les"
      ],
      [
        "▁yuz",
        "lu"
      ],
      [
        "eceg",
        "im"
      ],
      [
        "a",
        "h"
      ],
      [
        "▁num",
        "ar"
      ],
      [
        "▁a",
        "."
      ],
      [
        "▁has",
        "t"
      ],
      [
        "▁dev",
        "let"
      ],
      [
        "▁par",
        "c"
      ],
      [
        "▁mut",
        "lu"
      ],
      [
        "▁kendi",
        "sin"
      ],
      [
        "▁must",
        "eri"
      ],
      [
        "n",
        "et"
      ],
      [
        "acag",
        "ız"
      ],
      [
        "▁",
        "ust"
      ],
      [
        "ter",
        "n"
      ],
      [
        "▁bey",
        "le"
      ],
      [
        "▁f",
        "eder"
      ],
      [
        "▁yaptir",
        "madim"
      ],
      [
        "y",
        "alar"
      ],
      [
        "▁s",
        "in"
      ],
      [
        "▁hav",
        "al"
      ],
      [
        "▁",
        "“"
      ],
      [
        "▁p",
        "or"
      ],
      [
        "▁t",
        "ır"
      ],
      [
        "▁edi",
        "l"
      ],
      [
        "▁as",
        "ırı"
      ],
      [
        "'n",
        "un"
      ],
      [
        "en",
        "de"
      ],
      [
        "eg",
        "i"
      ],
      [
        "it",
        "al"
      ],
      [
        "in",
        "ce"
      ],
      [
        "▁m",
        "es"
      ],
      [
        "l",
        "in"
      ],
      [
        ".",
        "000"
      ],
      [
        "edi",
        "yor"
      ],
      [
        "▁normal",
        "di"
      ],
      [
        "▁yuksel",
        "di"
      ],
      [
        "d",
        "aki"
      ],
      [
        "▁s",
        "en"
      ],
      [
        "imiz",
        "i"
      ],
      [
        "▁sin",
        "ir"
      ],
      [
        "▁b",
        "eb"
      ],
      [
        "▁cal",
        "iforn"
      ],
      [
        "▁gec",
        "ik"
      ],
      [
        "ıl",
        "ı"
      ],
      [
        "▁c",
        "el"
      ],
      [
        "er",
        "s"
      ],
      [
        "▁b",
        "ey"
      ],
      [
        "di",
        "m"
      ],
      [
        "▁sil",
        "ah"
      ],
      [
        "▁nere",
        "den"
      ],
      [
        "▁kal",
        "it"
      ],
      [
        "ir",
        "ler"
      ],
      [
        "▁%1",
        "7"
      ],
      [
        "l",
        "en"
      ],
      [
        "▁g",
        "em"
      ],
      [
        "ter",
        "e"
      ],
      [
        "▁yet",
        "ersiz"
      ],
      [
        "▁4",
        "2"
      ],
      [
        "89",
        "-"
      ],
      [
        "▁b",
        "uz"
      ],
      [
        "is",
        "k"
      ],
      [
        "▁onc",
        "eki"
      ],
      [
        "▁k",
        "a"
      ],
      [
        "▁",
        "il"
      ],
      [
        "▁k",
        "ı"
      ],
      [
        "▁kur",
        "ulu"
      ],
      [
        "▁yar",
        "ı"
      ],
      [
        "▁ot",
        "eli"
      ],
      [
        "▁",
        "edi"
      ],
      [
        "tı",
        "gını"
      ],
      [
        "ak",
        "lı"
      ],
      [
        "▁yap",
        "ma"
      ],
      [
        "▁al",
        "ıyor"
      ],
      [
        "▁sal",
        "t"
      ],
      [
        "▁el",
        "e"
      ],
      [
        "▁du",
        "r"
      ],
      [
        "it",
        "t"
      ],
      [
        "▁s",
        "at"
      ],
      [
        "▁olar",
        "ak"
      ],
      [
        "▁eg",
        "it"
      ],
      [
        "▁b",
        "ah"
      ],
      [
        "ic",
        "h"
      ],
      [
        "▁sermay",
        "e"
      ],
      [
        ".",
        "4"
      ],
      [
        "▁ediyor",
        "um"
      ],
      [
        "▁t",
        "ay"
      ],
      [
        "▁u",
        "m"
      ],
      [
        "▁fark",
        "lı"
      ],
      [
        "▁al",
        "lak"
      ],
      [
        "l",
        "at"
      ],
      [
        "▁t",
        "ur"
      ],
      [
        "▁dem",
        "ir"
      ],
      [
        "o",
        "br"
      ],
      [
        "g",
        "an"
      ],
      [
        "▁duz",
        "ey"
      ],
      [
        "▁yardım",
        "cısı"
      ],
      [
        "▁199",
        "1-19"
      ],
      [
        "▁chic",
        "ag"
      ],
      [
        "▁em",
        "in"
      ],
      [
        "▁am",
        "er"
      ],
      [
        "▁deg",
        "istir"
      ],
      [
        "▁h",
        "ar"
      ],
      [
        "s",
        "ın"
      ],
      [
        "ı",
        "tır"
      ],
      [
        "▁od",
        "alar"
      ],
      [
        "▁se",
        "k"
      ],
      [
        "▁inc",
        "."
      ],
      [
        "▁terc",
        "ih"
      ],
      [
        "ır",
        "ım"
      ],
      [
        "▁ist",
        "em"
      ],
      [
        "▁en",
        "d"
      ],
      [
        "▁1",
        "9"
      ],
      [
        "medi",
        "m"
      ],
      [
        "▁%",
        "9"
      ],
      [
        "un",
        "uz"
      ],
      [
        "▁insa",
        "at"
      ],
      [
        "▁il",
        "gi"
      ],
      [
        "▁c",
        "unku"
      ],
      [
        "uk",
        "lum"
      ],
      [
        "▁sını",
        "f"
      ],
      [
        "ay",
        "a"
      ],
      [
        "lu",
        "gu"
      ],
      [
        "c",
        "i"
      ],
      [
        "▁k",
        "o"
      ],
      [
        "ay",
        "ı"
      ],
      [
        "▁",
        "ik"
      ],
      [
        "▁y",
        "onel"
      ],
      [
        "is",
        "indan"
      ],
      [
        "▁sınıf",
        "ı"
      ],
      [
        "▁da",
        "ir"
      ],
      [
        "ın",
        "a"
      ],
      [
        "on",
        "u"
      ],
      [
        "▁ark",
        "ad"
      ],
      [
        "ın",
        "ı"
      ],
      [
        "len",
        "dir"
      ],
      [
        "▁az",
        "di"
      ],
      [
        "ını",
        "z"
      ],
      [
        "▁par",
        "mak"
      ],
      [
        "▁t",
        "ıpıs"
      ],
      [
        "▁muh",
        "t"
      ],
      [
        "▁dogru",
        "dan"
      ],
      [
        "m",
        "ıyor"
      ],
      [
        "r",
        "ik"
      ],
      [
        "▁3",
        "6"
      ],
      [
        "▁pil",
        "ot"
      ],
      [
        "is",
        "im"
      ],
      [
        "▁bab",
        "a"
      ],
      [
        "m",
        "aya"
      ],
      [
        "t",
        "er"
      ],
      [
        "▁k",
        "il"
      ],
      [
        "▁fir",
        "st"
      ],
      [
        "▁tem",
        "sil"
      ],
      [
        "i",
        "de"
      ],
      [
        "▁h",
        "in"
      ],
      [
        "▁hep",
        "sin"
      ],
      [
        "▁ar",
        "adi"
      ],
      [
        "un",
        "e"
      ],
      [
        "▁ger",
        "cek"
      ],
      [
        "▁ben",
        "z"
      ],
      [
        "▁red",
        "detti"
      ],
      [
        "▁1",
        "7"
      ],
      [
        "ust",
        "ri"
      ],
      [
        "▁%",
        "7"
      ],
      [
        "▁k",
        "es"
      ],
      [
        "r",
        "ol"
      ],
      [
        "ık",
        "ır"
      ],
      [
        "▁sen",
        "in"
      ],
      [
        "ıl",
        "acak"
      ],
      [
        "il",
        "en"
      ],
      [
        "▁h",
        "en"
      ],
      [
        "▁degisik",
        "lik"
      ],
      [
        "▁her",
        "hangi"
      ],
      [
        "▁sirket",
        "i"
      ],
      [
        "▁de",
        "gis"
      ],
      [
        "▁hangi",
        "si"
      ],
      [
        "d",
        "a"
      ],
      [
        "len",
        "mis"
      ],
      [
        "▁birin",
        "de"
      ],
      [
        "d",
        "ı"
      ],
      [
        "lar",
        "ına"
      ],
      [
        "▁feder",
        "al"
      ],
      [
        "▁merkez",
        "ine"
      ],
      [
        "▁goster",
        "iyor"
      ],
      [
        "▁m",
        "em"
      ],
      [
        "▁kon",
        "u"
      ],
      [
        "lar",
        "ın"
      ],
      [
        "▁hiss",
        "et"
      ],
      [
        "▁p",
        "az"
      ],
      [
        "▁og",
        "ren"
      ],
      [
        "ti",
        "v"
      ],
      [
        "▁baz",
        "ı"
      ],
      [
        "▁c",
        "ır"
      ],
      [
        "▁y",
        "en"
      ],
      [
        "▁d",
        "uy"
      ],
      [
        "on",
        "om"
      ],
      [
        "▁sa",
        "at"
      ],
      [
        "▁gec",
        "ir"
      ],
      [
        "▁yas",
        "lı"
      ],
      [
        "-",
        "4"
      ],
      [
        "u",
        "fur"
      ],
      [
        "▁t",
        "ed"
      ],
      [
        "u",
        "gu"
      ],
      [
        "'",
        "tan"
      ],
      [
        "▁siz",
        "e"
      ],
      [
        "u",
        "ru"
      ],
      [
        "▁h",
        "at"
      ],
      [
        "▁der",
        "in"
      ],
      [
        "▁elektr",
        "ik"
      ],
      [
        "▁!",
        ".."
      ],
      [
        "▁ail",
        "eler"
      ],
      [
        "▁oldugun",
        "a"
      ],
      [
        "e",
        "gin"
      ],
      [
        "▁d",
        "ik"
      ],
      [
        "q",
        "u"
      ],
      [
        "▁cık",
        "tı"
      ],
      [
        "id",
        "det"
      ],
      [
        "▁biz",
        "i"
      ],
      [
        "▁kit",
        "ap"
      ],
      [
        "▁tam",
        "am"
      ],
      [
        "▁",
        "m"
      ],
      [
        "▁z",
        "or"
      ],
      [
        "▁ol",
        "abilir"
      ],
      [
        "▁gerek",
        "en"
      ],
      [
        "▁",
        ","
      ],
      [
        "▁gum",
        "bur"
      ],
      [
        "▁y",
        "at"
      ],
      [
        "▁",
        "b"
      ],
      [
        "▁kendisin",
        "e"
      ],
      [
        "▁o",
        "z"
      ],
      [
        "▁ol",
        "sun"
      ],
      [
        "▁o",
        "d"
      ],
      [
        "▁%1",
        "8"
      ],
      [
        "▁en",
        "gel"
      ],
      [
        "▁k",
        "ıtır"
      ],
      [
        "▁kem",
        "al"
      ],
      [
        "ay",
        "acak"
      ],
      [
        "▁g",
        "e"
      ],
      [
        "▁",
        "as"
      ],
      [
        "▁got",
        "ur"
      ],
      [
        "▁d",
        "ol"
      ],
      [
        "ı",
        "y"
      ],
      [
        "▁c",
        "ay"
      ],
      [
        "ız",
        "ı"
      ],
      [
        "▁her",
        "k"
      ],
      [
        "▁ihr",
        "ac"
      ],
      [
        "▁haval",
        "im"
      ],
      [
        "▁c",
        "ur"
      ],
      [
        "▁h",
        "ij"
      ],
      [
        "▁%6",
        ".4"
      ],
      [
        "▁o",
        "t"
      ],
      [
        "▁sekil",
        "de"
      ],
      [
        "is",
        "co"
      ],
      [
        "af",
        "ir"
      ],
      [
        "an",
        "lı"
      ],
      [
        "▁guleryuz",
        "luydu"
      ],
      [
        "▁muht",
        "esem"
      ],
      [
        "▁personel",
        "ler"
      ],
      [
        "▁yıl",
        "da"
      ],
      [
        "▁u",
        "tan"
      ],
      [
        "e",
        "c"
      ],
      [
        "▁a",
        "j"
      ],
      [
        "▁ilgil",
        "i"
      ],
      [
        "▁f",
        "il"
      ],
      [
        "▁mı",
        "y"
      ],
      [
        "▁i",
        "de"
      ],
      [
        "▁",
        "ir"
      ],
      [
        "▁",
        "el"
      ],
      [
        "▁genel",
        "likle"
      ],
      [
        "▁uz",
        "man"
      ],
      [
        ".",
        "2"
      ],
      [
        "▁ses",
        "siz"
      ],
      [
        "k",
        "i"
      ],
      [
        "▁yog",
        "un"
      ],
      [
        "▁s",
        "ek"
      ],
      [
        "▁b",
        "ab"
      ],
      [
        "cı",
        "lar"
      ],
      [
        "▁nas",
        "ıl"
      ],
      [
        "▁ic",
        "inde"
      ],
      [
        "▁hik",
        "ay"
      ],
      [
        "f",
        "or"
      ],
      [
        "lı",
        "g"
      ],
      [
        "▁tat",
        "lı"
      ],
      [
        "▁olduk",
        "ca"
      ],
      [
        "▁franc",
        "isco"
      ],
      [
        "▁cog",
        "u"
      ],
      [
        "▁c",
        "ag"
      ],
      [
        "l",
        "ek"
      ],
      [
        "▁ist",
        "e"
      ],
      [
        "▁n",
        "um"
      ],
      [
        "▁onlar",
        "a"
      ],
      [
        "▁onlar",
        "ı"
      ],
      [
        "lan",
        "dır"
      ],
      [
        "u",
        "v"
      ],
      [
        "er",
        "n"
      ],
      [
        "▁ka",
        "l"
      ],
      [
        "'",
        "y"
      ],
      [
        "'",
        "ye"
      ],
      [
        "▁ayn",
        "ı"
      ],
      [
        "▁in",
        "tern"
      ],
      [
        "ist",
        "an"
      ],
      [
        "ah",
        "at"
      ],
      [
        "▁k",
        "em"
      ],
      [
        "▁y",
        "ine"
      ],
      [
        "▁m",
        "ey"
      ],
      [
        "▁al",
        "mıs"
      ],
      [
        "un",
        "cu"
      ],
      [
        "▁b",
        "ul"
      ],
      [
        "▁f",
        "ik"
      ],
      [
        "▁ban",
        "k"
      ],
      [
        "▁kes",
        "in"
      ],
      [
        "▁f",
        "ot"
      ],
      [
        "lik",
        "te"
      ],
      [
        "▁york",
        "'tan"
      ],
      [
        "as",
        "h"
      ],
      [
        "u",
        "p"
      ],
      [
        "▁zen",
        "gin"
      ],
      [
        "▁g",
        "al"
      ],
      [
        "▁en",
        "f"
      ],
      [
        "▁yet",
        "er"
      ],
      [
        "makta",
        "dır"
      ],
      [
        "▁d",
        "i"
      ],
      [
        "▁5",
        "0"
      ],
      [
        "▁sek",
        "il"
      ],
      [
        "lam",
        "ası"
      ],
      [
        "▁kan",
        "un"
      ],
      [
        "▁.",
        ")"
      ],
      [
        "'",
        "daki"
      ],
      [
        "▁f",
        "ırıl"
      ],
      [
        "▁b",
        "or"
      ],
      [
        "a",
        "s"
      ],
      [
        "dıg",
        "ını"
      ],
      [
        "le",
        "b"
      ],
      [
        "ıs",
        "ız"
      ],
      [
        "▁ko",
        "v"
      ],
      [
        "▁g",
        "ıldır"
      ],
      [
        "▁str",
        "eet"
      ],
      [
        "er",
        "e"
      ],
      [
        "▁1",
        "8"
      ],
      [
        "▁k",
        "av"
      ],
      [
        "▁uf",
        "ak"
      ],
      [
        "▁f",
        "ık"
      ],
      [
        "▁ver",
        "digim"
      ],
      [
        "m",
        "i"
      ],
      [
        "▁ki",
        "si"
      ],
      [
        "▁o",
        "da"
      ],
      [
        "um",
        "u"
      ],
      [
        "▁im",
        "z"
      ],
      [
        "▁3",
        "0"
      ],
      [
        "ek",
        "et"
      ],
      [
        "is",
        "inde"
      ],
      [
        "▁u",
        "y"
      ],
      [
        "▁def",
        "a"
      ],
      [
        "▁",
        "eg"
      ],
      [
        "▁5",
        "5"
      ],
      [
        "▁ak",
        "l"
      ],
      [
        "es",
        "inde"
      ],
      [
        "▁hava",
        "alan"
      ],
      [
        "▁dedi",
        "m"
      ],
      [
        "▁a",
        "d"
      ],
      [
        "▁p",
        "et"
      ],
      [
        "▁biz",
        "e"
      ],
      [
        "▁uc",
        "uz"
      ],
      [
        "en",
        "i"
      ],
      [
        "▁2",
        "1"
      ],
      [
        "▁sef",
        "er"
      ],
      [
        "al",
        "i"
      ],
      [
        "▁n",
        "ere"
      ],
      [
        "k",
        "uz"
      ],
      [
        "▁if",
        "ade"
      ],
      [
        "▁d",
        "ir"
      ],
      [
        "▁et",
        "me"
      ],
      [
        "▁lezzet",
        "i"
      ],
      [
        "▁%1",
        "3"
      ],
      [
        "ark",
        "en"
      ],
      [
        "▁ul",
        "us"
      ],
      [
        "▁dolar",
        "lık"
      ],
      [
        "▁ol",
        "up"
      ],
      [
        "▁3",
        "5"
      ],
      [
        "▁hiz",
        "met"
      ],
      [
        "0",
        "."
      ],
      [
        "-",
        "2"
      ],
      [
        "▁yatırımcı",
        "lar"
      ],
      [
        "▁",
        "ec"
      ],
      [
        "00",
        "0"
      ],
      [
        "iy",
        "i"
      ],
      [
        "▁y",
        "ıl"
      ],
      [
        "▁baltimore",
        "'ye"
      ],
      [
        "▁aras",
        "ındaki"
      ],
      [
        "▁gor",
        "ul"
      ],
      [
        "▁bil",
        "et"
      ],
      [
        "▁ed",
        "erek"
      ],
      [
        "▁sur",
        "dur"
      ],
      [
        "at",
        "en"
      ],
      [
        "▁%5",
        "0"
      ],
      [
        "▁di",
        "k"
      ],
      [
        "▁s",
        "arı"
      ],
      [
        "▁1",
        "/"
      ],
      [
        "▁ver",
        "gi"
      ],
      [
        "las",
        "tı"
      ],
      [
        "▁hep",
        "imiz"
      ],
      [
        "▁bir",
        "ka"
      ],
      [
        "▁tem",
        "el"
      ],
      [
        "▁os",
        "man"
      ],
      [
        "▁avrup",
        "a"
      ],
      [
        "▁gi",
        "bi"
      ],
      [
        "▁bor",
        "c"
      ],
      [
        "▁or",
        "g"
      ],
      [
        "▁is",
        "t"
      ],
      [
        "▁d",
        "uz"
      ],
      [
        "d",
        "em"
      ],
      [
        "▁soy",
        "ley"
      ],
      [
        "▁",
        "eki"
      ],
      [
        "▁ar",
        "z"
      ],
      [
        "er",
        "al"
      ],
      [
        "▁ar",
        "d"
      ],
      [
        "ag",
        "an"
      ],
      [
        "is",
        "iz"
      ],
      [
        "▁b",
        "r"
      ],
      [
        "▁bir",
        "i"
      ],
      [
        "lan",
        "d"
      ],
      [
        "▁acık",
        "lam"
      ],
      [
        "▁kal",
        "iforn"
      ],
      [
        "▁dur",
        "dur"
      ],
      [
        "▁b",
        "ut"
      ],
      [
        "▁el",
        "bet"
      ],
      [
        "▁har",
        "ika"
      ],
      [
        "▁d",
        "ustu"
      ],
      [
        "▁fok",
        "ur"
      ],
      [
        "▁belir",
        "t"
      ],
      [
        "ı",
        "r"
      ],
      [
        "▁f",
        "as"
      ],
      [
        "▁ya",
        "hut"
      ],
      [
        "▁ben",
        "ce"
      ],
      [
        "▁hey",
        "ec"
      ],
      [
        "ap",
        "ol"
      ],
      [
        "▁bel",
        "li"
      ],
      [
        "▁it",
        "ibar"
      ],
      [
        "▁ar",
        "t"
      ],
      [
        "m",
        "uz"
      ],
      [
        "mem",
        "is"
      ],
      [
        "▁m",
        "al"
      ],
      [
        "▁z",
        "ev"
      ],
      [
        "▁es",
        "k"
      ],
      [
        "▁cumhur",
        "iyet"
      ],
      [
        "▁5",
        "1"
      ],
      [
        "▁ak",
        "tif"
      ],
      [
        "▁es",
        "er"
      ],
      [
        "▁co",
        "."
      ],
      [
        "▁d",
        "eg"
      ],
      [
        "▁dal",
        "las"
      ],
      [
        "▁de",
        "n"
      ],
      [
        "▁amer",
        "ik"
      ],
      [
        "m",
        "ustu"
      ],
      [
        "l",
        "ı"
      ],
      [
        "ler",
        "ini"
      ],
      [
        "▁bunlar",
        "ı"
      ],
      [
        "▁f",
        "ir"
      ],
      [
        "▁haz",
        "ır"
      ],
      [
        "▁f",
        "el"
      ],
      [
        "er",
        "t"
      ],
      [
        "▁onun",
        "la"
      ],
      [
        "▁t",
        "op"
      ],
      [
        "▁m",
        "ag"
      ],
      [
        "ey",
        "le"
      ],
      [
        "s",
        "i"
      ],
      [
        "▁",
        "ay"
      ],
      [
        "▁s",
        "ana"
      ],
      [
        "▁uy",
        "gun"
      ],
      [
        "el",
        "er"
      ],
      [
        "▁3",
        "1"
      ],
      [
        "▁h",
        "ep"
      ],
      [
        "l",
        "iydi"
      ],
      [
        "▁1",
        "3"
      ],
      [
        "▁ka",
        "h"
      ],
      [
        "▁kadın",
        "lar"
      ],
      [
        "▁s",
        "ip"
      ],
      [
        "▁ch",
        "ic"
      ],
      [
        "a",
        "'nın"
      ],
      [
        "▁aileler",
        "e"
      ],
      [
        "▁",
        "y"
      ],
      [
        "▁dus",
        "us"
      ],
      [
        "▁b",
        "az"
      ],
      [
        "▁kar",
        "ıs"
      ],
      [
        "▁il",
        "ac"
      ],
      [
        "▁on",
        "ay"
      ],
      [
        "lar",
        "ını"
      ],
      [
        "di",
        "r"
      ],
      [
        "▁phoeni",
        "x"
      ],
      [
        "ad",
        "an"
      ],
      [
        "▁ka",
        "c"
      ],
      [
        "▁ayr",
        "ıl"
      ],
      [
        "um",
        "a"
      ],
      [
        "▁ver",
        "ir"
      ],
      [
        "▁z",
        "ar"
      ],
      [
        "▁degil",
        "dir"
      ],
      [
        "v",
        "il"
      ],
      [
        "▁oldu",
        "gunu"
      ],
      [
        "▁s",
        "ark"
      ],
      [
        "▁ihtiyac",
        "ım"
      ],
      [
        "ir",
        "i"
      ],
      [
        "▁oy",
        "n"
      ],
      [
        "▁kot",
        "uydu"
      ],
      [
        "as",
        "a"
      ],
      [
        "▁s",
        "iy"
      ],
      [
        "▁ust",
        "une"
      ],
      [
        "▁en",
        "er"
      ],
      [
        "▁degiller",
        "di"
      ],
      [
        "as",
        "ı"
      ],
      [
        "o",
        "'ya"
      ],
      [
        "in",
        "iz"
      ],
      [
        "li",
        "g"
      ],
      [
        "in",
        "de"
      ],
      [
        "▁d",
        "um"
      ],
      [
        "alar",
        "ında"
      ],
      [
        "▁boston",
        "'dan"
      ],
      [
        "▁bu",
        "t"
      ],
      [
        "ar",
        "i"
      ],
      [
        "▁kur",
        "tar"
      ],
      [
        "▁s",
        "es"
      ],
      [
        "▁yan",
        "l"
      ],
      [
        "▁performan",
        "s"
      ],
      [
        "▁a",
        "di"
      ],
      [
        "▁bun",
        "dan"
      ],
      [
        "▁uc",
        "uyor"
      ],
      [
        "▁yat",
        "ak"
      ],
      [
        "▁at",
        "aturk"
      ],
      [
        "l",
        "es"
      ],
      [
        "el",
        "im"
      ],
      [
        "u",
        "ng"
      ],
      [
        "lar",
        "i"
      ],
      [
        "▁k",
        "ur"
      ],
      [
        "▁tez",
        "gah"
      ],
      [
        "▁t",
        "en"
      ],
      [
        "▁mis",
        "afir"
      ],
      [
        "▁sur",
        "ekli"
      ],
      [
        "▁o",
        "v"
      ],
      [
        "▁kurul",
        "us"
      ],
      [
        "em",
        "be"
      ],
      [
        "on",
        "el"
      ],
      [
        "s",
        "uz"
      ],
      [
        "▁at",
        "lan"
      ],
      [
        "▁h",
        "ic"
      ],
      [
        "▁kad",
        "ın"
      ],
      [
        "▁k",
        "al"
      ],
      [
        "'",
        "ya"
      ],
      [
        "r",
        "af"
      ],
      [
        "eb",
        "i"
      ],
      [
        "▁al",
        "abilir"
      ],
      [
        "▁r",
        "ed"
      ],
      [
        "▁a",
        "f"
      ],
      [
        "▁h",
        "a"
      ],
      [
        "an",
        "bul"
      ],
      [
        "c",
        "ut"
      ],
      [
        "▁s",
        "oy"
      ],
      [
        "i",
        "n"
      ],
      [
        "ur",
        "du"
      ],
      [
        "▁nok",
        "t"
      ],
      [
        "▁o",
        "p"
      ],
      [
        "▁r",
        "uh"
      ],
      [
        "▁art",
        "ık"
      ],
      [
        "▁",
        "ed"
      ],
      [
        "det",
        "ti"
      ],
      [
        "▁ac",
        "ıl"
      ],
      [
        "am",
        "i"
      ],
      [
        "▁s",
        "ez"
      ],
      [
        "▁gel",
        "ir"
      ],
      [
        "▁gel",
        "istir"
      ],
      [
        "▁kucuk",
        "tu"
      ],
      [
        "m",
        "aları"
      ],
      [
        "e",
        "den"
      ],
      [
        "▁fr",
        "anc"
      ],
      [
        "'",
        "un"
      ],
      [
        "▁t",
        "at"
      ],
      [
        "▁ev",
        "in"
      ],
      [
        "▁ulas",
        "ım"
      ],
      [
        "▁y",
        "a"
      ],
      [
        "sin",
        "iz"
      ],
      [
        "▁d",
        "ig"
      ],
      [
        "▁oak",
        "land"
      ],
      [
        "d",
        "e"
      ],
      [
        "▁s",
        "uy"
      ],
      [
        "▁cocuk",
        "lar"
      ],
      [
        "▁f",
        "ır"
      ],
      [
        "▁son",
        "uc"
      ],
      [
        "▁yap",
        "an"
      ],
      [
        "▁gor",
        "un"
      ],
      [
        "▁i",
        "b"
      ],
      [
        "▁fiyat",
        "lar"
      ],
      [
        "g",
        "ın"
      ],
      [
        "es",
        "il"
      ],
      [
        "al",
        "anı"
      ],
      [
        "▁kay",
        "n"
      ],
      [
        "▁gorun",
        "ce"
      ],
      [
        "li",
        "k"
      ],
      [
        "di",
        "g"
      ],
      [
        "▁al",
        "lah"
      ],
      [
        "c",
        "ısı"
      ],
      [
        "▁in",
        "di"
      ],
      [
        "▁h",
        "o"
      ],
      [
        "▁cık",
        "mıs"
      ],
      [
        "▁hi",
        "c"
      ],
      [
        "▁4",
        "6"
      ],
      [
        "▁p",
        "u"
      ],
      [
        "▁hak",
        "k"
      ],
      [
        "er",
        "di"
      ],
      [
        "i",
        "j"
      ],
      [
        "▁ag",
        "ız"
      ],
      [
        "et",
        "ir"
      ],
      [
        "▁ot",
        "om"
      ],
      [
        "▁gor",
        "ev"
      ],
      [
        "▁kıymet",
        "ler"
      ],
      [
        "um",
        "s"
      ],
      [
        "▁d",
        "uzel"
      ],
      [
        "▁philadelphia",
        "'ya"
      ],
      [
        "▁hizmet",
        "leri"
      ],
      [
        "▁dog",
        "r"
      ],
      [
        "lan",
        "an"
      ],
      [
        "▁tabi",
        "i"
      ],
      [
        "▁1.",
        "1"
      ],
      [
        "▁u",
        "g"
      ],
      [
        "▁m",
        "us"
      ],
      [
        "▁ne",
        "y"
      ],
      [
        "▁birbir",
        "ine"
      ],
      [
        "▁baltimore",
        "'den"
      ],
      [
        "▁f",
        "ay"
      ],
      [
        "ler",
        "e"
      ],
      [
        "▁in",
        "an"
      ],
      [
        "▁h",
        "es"
      ],
      [
        "▁ag",
        "ustos"
      ],
      [
        "▁kıy",
        "as"
      ],
      [
        "ot",
        "te"
      ],
      [
        "e",
        "m"
      ],
      [
        "▁y",
        "iy"
      ],
      [
        "e",
        "b"
      ],
      [
        "▁z",
        "aten"
      ],
      [
        "▁",
        "r"
      ],
      [
        "▁s",
        "ını"
      ],
      [
        "▁ar",
        "ası"
      ],
      [
        "▁end",
        "ustr"
      ],
      [
        "▁k",
        "ız"
      ],
      [
        "ey",
        "im"
      ],
      [
        "d",
        "al"
      ],
      [
        "unc",
        "u"
      ],
      [
        "ev",
        "iz"
      ],
      [
        "▁yok",
        "tu"
      ],
      [
        "enk",
        "ul"
      ],
      [
        "▁s",
        "em"
      ],
      [
        "▁yildi",
        "z"
      ],
      [
        "▁d",
        "or"
      ],
      [
        "▁gu",
        "ven"
      ],
      [
        "1",
        "9"
      ],
      [
        "▁",
        "*"
      ],
      [
        "ul",
        "t"
      ],
      [
        "▁c",
        "in"
      ],
      [
        "▁d",
        "og"
      ],
      [
        "▁s",
        "asır"
      ],
      [
        "▁%7.8",
        "75"
      ],
      [
        "▁m",
        "an"
      ],
      [
        "▁biri",
        "si"
      ],
      [
        "l",
        "em"
      ],
      [
        "▁sık",
        "ı"
      ],
      [
        "▁ek",
        "ip"
      ],
      [
        "ab",
        "er"
      ],
      [
        "▁p",
        "encer"
      ],
      [
        "▁sır",
        "a"
      ],
      [
        "▁hal",
        "k"
      ],
      [
        "tı",
        "gı"
      ],
      [
        "▁cag",
        "ır"
      ],
      [
        "▁az",
        "ından"
      ],
      [
        "uk",
        "ee"
      ],
      [
        "▁v",
        "ar"
      ],
      [
        "v",
        "el"
      ],
      [
        "▁b",
        "it"
      ],
      [
        "▁c",
        "en"
      ],
      [
        "▁mem",
        "ph"
      ],
      [
        "▁indianapolis",
        "'ten"
      ],
      [
        "▁un",
        "ut"
      ],
      [
        "▁in",
        "ce"
      ],
      [
        "ı",
        "l"
      ],
      [
        "▁mad",
        "d"
      ],
      [
        "▁ev",
        "vel"
      ],
      [
        "▁d",
        "idik"
      ],
      [
        "▁personel",
        "i"
      ],
      [
        "i",
        "d"
      ],
      [
        "l",
        "ayan"
      ],
      [
        "im",
        "in"
      ],
      [
        "▁a",
        "dı"
      ],
      [
        "▁deg",
        "is"
      ],
      [
        "▁sup",
        "erdi"
      ],
      [
        "▁ol",
        "dur"
      ],
      [
        "▁s",
        "i"
      ],
      [
        "a",
        "z"
      ],
      [
        "▁insan",
        "ları"
      ],
      [
        "la",
        "y"
      ],
      [
        "▁deniz",
        "e"
      ],
      [
        "'",
        "in"
      ],
      [
        "0",
        "0"
      ],
      [
        "t",
        "ik"
      ],
      [
        "ab",
        "et"
      ],
      [
        "▁sosy",
        "al"
      ],
      [
        "▁il",
        "g"
      ],
      [
        "l",
        "i"
      ],
      [
        "b",
        "a"
      ],
      [
        "▁an",
        "a"
      ],
      [
        "▁zor",
        "unda"
      ],
      [
        "iy",
        "or"
      ],
      [
        "ec",
        "ik"
      ],
      [
        "em",
        "ek"
      ],
      [
        "▁merkez",
        "i"
      ],
      [
        "a",
        "t"
      ],
      [
        "▁c",
        "at"
      ],
      [
        "▁pet",
        "rol"
      ],
      [
        "▁ken",
        "di"
      ],
      [
        "▁y",
        "alap"
      ],
      [
        "▁charl",
        "otte"
      ],
      [
        "▁g",
        "er"
      ],
      [
        "▁uz",
        "at"
      ],
      [
        "▁ko",
        "tu"
      ],
      [
        "ın",
        "da"
      ],
      [
        "▁b",
        "on"
      ],
      [
        "▁birbir",
        "ler"
      ],
      [
        "uy",
        "du"
      ],
      [
        "dı",
        "z"
      ],
      [
        "▁od",
        "aydi"
      ],
      [
        "▁tak",
        "ip"
      ],
      [
        "er",
        "v"
      ],
      [
        "▁bol",
        "g"
      ],
      [
        "▁tes",
        "isti"
      ],
      [
        "▁il",
        "gil"
      ],
      [
        "tim",
        "ore"
      ],
      [
        "ar",
        "d"
      ],
      [
        "▁mektu",
        "p"
      ],
      [
        "▁",
        "un"
      ],
      [
        "▁k",
        "am"
      ],
      [
        "ması",
        "z"
      ],
      [
        "▁k",
        "elim"
      ],
      [
        "▁anal",
        "ist"
      ],
      [
        "▁s",
        "uc"
      ],
      [
        "▁d",
        "agıt"
      ],
      [
        "▁fık",
        "ır"
      ],
      [
        "an",
        "c"
      ],
      [
        "il",
        "mis"
      ],
      [
        "▁listel",
        "e"
      ],
      [
        "ıl",
        "an"
      ],
      [
        "▁deger",
        "lendir"
      ],
      [
        "▁er",
        "t"
      ],
      [
        "at",
        "a"
      ],
      [
        "▁airlin",
        "es"
      ],
      [
        "at",
        "ı"
      ],
      [
        "▁is",
        "in"
      ],
      [
        "▁he",
        "p"
      ],
      [
        "▁se",
        "m"
      ],
      [
        "▁olm",
        "alı"
      ],
      [
        "lik",
        "le"
      ],
      [
        "▁s",
        "ıng"
      ],
      [
        "▁kah",
        "v"
      ],
      [
        "▁kuz",
        "ey"
      ],
      [
        "▁kalk",
        "ıyor"
      ],
      [
        "▁",
        "ev"
      ],
      [
        "is",
        "el"
      ],
      [
        ":",
        "30"
      ],
      [
        "▁ist",
        "er"
      ],
      [
        "▁s",
        "ey"
      ],
      [
        "es",
        "el"
      ],
      [
        "▁asl",
        "ında"
      ],
      [
        "▁h",
        "em"
      ],
      [
        "▁tu",
        "k"
      ],
      [
        "▁oz",
        "el"
      ],
      [
        "▁dus",
        "unuyor"
      ],
      [
        "▁v",
        "at"
      ],
      [
        "ay",
        "di"
      ],
      [
        "▁k",
        "an"
      ],
      [
        "▁r",
        "ap"
      ],
      [
        "l",
        "ey"
      ],
      [
        "▁",
        "ıs"
      ],
      [
        "▁gercek",
        "ten"
      ],
      [
        "▁eks",
        "ik"
      ],
      [
        "▁b",
        "ak"
      ],
      [
        "▁dıs",
        "arı"
      ],
      [
        "▁u",
        "l"
      ],
      [
        "eler",
        "inde"
      ],
      [
        "▁n",
        "it"
      ],
      [
        "▁d",
        "ısı"
      ],
      [
        "on",
        "t"
      ],
      [
        "▁'d",
        "e"
      ],
      [
        "▁h",
        "adi"
      ],
      [
        "k",
        "un"
      ],
      [
        "▁y",
        "em"
      ],
      [
        "▁4",
        "0"
      ],
      [
        "gi",
        "m"
      ],
      [
        "▁an",
        "cak"
      ],
      [
        "b",
        "es"
      ],
      [
        "▁kars",
        "il"
      ],
      [
        "o",
        "y"
      ],
      [
        "unc",
        "a"
      ],
      [
        "'",
        "deki"
      ],
      [
        "▁et",
        "s"
      ],
      [
        "▁s",
        "esi"
      ],
      [
        "a",
        "da"
      ],
      [
        "▁uc",
        "ret"
      ],
      [
        "▁s",
        "ah"
      ],
      [
        "▁k",
        "ası"
      ],
      [
        "▁gidi",
        "yor"
      ],
      [
        "▁st",
        "."
      ],
      [
        "mas",
        "ına"
      ],
      [
        "▁sah",
        "ib"
      ],
      [
        "▁olcu",
        "de"
      ],
      [
        "v",
        "ır"
      ],
      [
        "▁bab",
        "am"
      ],
      [
        "il",
        "i"
      ],
      [
        "▁zar",
        "ar"
      ],
      [
        "▁mi",
        "y"
      ],
      [
        "l",
        "ah"
      ],
      [
        "▁4",
        "5"
      ],
      [
        "▁t",
        "ep"
      ],
      [
        "▁3",
        "9"
      ],
      [
        "▁del",
        "ta"
      ],
      [
        "▁jon",
        "es"
      ],
      [
        "▁p",
        "il"
      ],
      [
        "▁a",
        "it"
      ],
      [
        "ın",
        "dan"
      ],
      [
        "ıs",
        "ıl"
      ],
      [
        "k",
        "ara"
      ],
      [
        "▁",
        "ar"
      ],
      [
        "ay",
        "an"
      ],
      [
        "▁s",
        "e"
      ],
      [
        "em",
        "iz"
      ],
      [
        "▁f",
        "r"
      ],
      [
        "▁kap",
        "as"
      ],
      [
        "▁sen",
        "i"
      ],
      [
        "alar",
        "ına"
      ],
      [
        "▁",
        "eden"
      ],
      [
        "alar",
        "ın"
      ],
      [
        "▁cal",
        "ıs"
      ],
      [
        "m",
        "isti"
      ],
      [
        "▁y",
        "i"
      ],
      [
        "▁cev",
        "ir"
      ],
      [
        "l",
        "e"
      ],
      [
        "▁d",
        "un"
      ],
      [
        "▁phil",
        "adelphia"
      ],
      [
        "▁mes",
        "el"
      ],
      [
        "▁ol",
        "c"
      ],
      [
        "▁duk",
        "kan"
      ],
      [
        "if",
        "orn"
      ],
      [
        "▁kans",
        "as"
      ],
      [
        "▁m",
        "er"
      ],
      [
        "▁5",
        "7"
      ],
      [
        "▁y",
        "du"
      ],
      [
        "t",
        "ir"
      ],
      [
        "r",
        "ar"
      ],
      [
        "-2",
        "2:30"
      ],
      [
        "at",
        "es"
      ],
      [
        "▁ho",
        "uston"
      ],
      [
        "▁aksam",
        "ı"
      ],
      [
        "▁mi",
        "ly"
      ],
      [
        "▁dol",
        "dur"
      ],
      [
        "▁",
        "is"
      ],
      [
        "▁gec",
        "iyor"
      ],
      [
        "▁dun",
        "y"
      ],
      [
        "▁nak",
        "it"
      ],
      [
        "▁w",
        "orth"
      ],
      [
        "ul",
        "an"
      ],
      [
        "▁b",
        "eye"
      ],
      [
        "▁olacak",
        "tır"
      ],
      [
        "▁ek",
        "mek"
      ],
      [
        "▁pr",
        "of"
      ],
      [
        "m",
        "ayı"
      ],
      [
        "▁c",
        "ıl"
      ],
      [
        "iy",
        "le"
      ],
      [
        "▁k",
        "ap"
      ],
      [
        "▁d",
        "ev"
      ],
      [
        "▁",
        "4"
      ],
      [
        "▁yer",
        "les"
      ],
      [
        "g",
        "ini"
      ],
      [
        "▁yas",
        "a"
      ],
      [
        "im",
        "li"
      ],
      [
        "▁cesit",
        "li"
      ],
      [
        "▁yam",
        "alak"
      ],
      [
        "▁ne",
        "w"
      ],
      [
        "▁tes",
        "is"
      ],
      [
        "os",
        "y"
      ],
      [
        "▁yan",
        "a"
      ],
      [
        "▁",
        "in"
      ],
      [
        "▁as",
        "ıl"
      ],
      [
        "▁v",
        "ak"
      ],
      [
        "k",
        "ar"
      ],
      [
        "▁yan",
        "ı"
      ],
      [
        "▁yal",
        "an"
      ],
      [
        "▁k",
        "op"
      ],
      [
        "g",
        "ını"
      ],
      [
        "▁olm",
        "ası"
      ],
      [
        "c",
        "uk"
      ],
      [
        "▁r",
        "en"
      ],
      [
        "▁b",
        "u"
      ],
      [
        "▁ad",
        "am"
      ],
      [
        "d",
        "an"
      ],
      [
        "ag",
        "ına"
      ],
      [
        "▁al",
        "dıgı"
      ],
      [
        "▁ben",
        "de"
      ],
      [
        "▁malz",
        "em"
      ],
      [
        "▁p",
        "ol"
      ],
      [
        "ag",
        "ın"
      ],
      [
        "▁",
        "en"
      ],
      [
        "▁n",
        "ak"
      ],
      [
        "▁h",
        "ey"
      ],
      [
        "▁et",
        "mis"
      ],
      [
        "i",
        "f"
      ],
      [
        "▁iti",
        "baren"
      ],
      [
        "-",
        "6"
      ],
      [
        "as",
        "ır"
      ],
      [
        "▁tar",
        "if"
      ],
      [
        "a",
        "dan"
      ],
      [
        "▁yatırım",
        "cı"
      ],
      [
        "ta",
        "j"
      ],
      [
        "ler",
        "di"
      ],
      [
        "▁gel",
        "ecek"
      ],
      [
        "▁cal",
        "is"
      ],
      [
        "▁siz",
        "ler"
      ],
      [
        "uyor",
        "du"
      ],
      [
        "l",
        "um"
      ],
      [
        "▁bel",
        "ir"
      ],
      [
        "▁ok",
        "uy"
      ],
      [
        "▁el",
        "de"
      ],
      [
        "▁tic",
        "aret"
      ],
      [
        "r",
        "en"
      ],
      [
        "▁temiz",
        "lik"
      ],
      [
        "▁t",
        "a"
      ],
      [
        "▁",
        "l"
      ],
      [
        "▁sik",
        "ayet"
      ],
      [
        "▁lut",
        "f"
      ],
      [
        "▁hic",
        "bir"
      ],
      [
        "▁denver",
        "'den"
      ],
      [
        "▁t",
        "ı"
      ],
      [
        "▁%1",
        "1"
      ],
      [
        "▁de",
        "gil"
      ],
      [
        "▁d",
        "ar"
      ],
      [
        "▁dep",
        "rem"
      ],
      [
        "an",
        "a"
      ],
      [
        "y",
        "en"
      ],
      [
        "▁yıl",
        "ı"
      ],
      [
        "an",
        "ı"
      ],
      [
        "sız",
        "lık"
      ],
      [
        "▁",
        "at"
      ],
      [
        "▁goz",
        "lerini"
      ],
      [
        "▁eder",
        "im"
      ],
      [
        "g",
        "i"
      ],
      [
        "▁b",
        "atı"
      ],
      [
        "▁milyon",
        "dan"
      ],
      [
        "acag",
        "ını"
      ],
      [
        "ec",
        "eg"
      ],
      [
        "▁telef",
        "on"
      ],
      [
        "enc",
        "er"
      ],
      [
        "or",
        "i"
      ],
      [
        "▁bil",
        "gi"
      ],
      [
        "▁ban",
        "ka"
      ],
      [
        "▁fay",
        "d"
      ],
      [
        "ıs",
        "ına"
      ],
      [
        "▁anad",
        "olu"
      ],
      [
        "lıg",
        "ına"
      ],
      [
        "▁hal",
        "inde"
      ],
      [
        "ıs",
        "ın"
      ],
      [
        "▁t",
        "ip"
      ],
      [
        "lıg",
        "ın"
      ],
      [
        "ıyor",
        "du"
      ],
      [
        "▁ham",
        "am"
      ],
      [
        "il",
        "e"
      ],
      [
        "▁ot",
        "el"
      ],
      [
        "▁h",
        "e"
      ],
      [
        "▁un",
        "it"
      ],
      [
        "▁ol",
        "mak"
      ],
      [
        "▁beklen",
        "iyor"
      ],
      [
        "ay",
        "dı"
      ],
      [
        "▁tal",
        "ep"
      ],
      [
        "l",
        "ılık"
      ],
      [
        "▁an",
        "las"
      ],
      [
        "▁o",
        "de"
      ],
      [
        "▁s",
        "iyas"
      ],
      [
        "▁sen",
        "e"
      ],
      [
        "edi",
        "r"
      ],
      [
        "dig",
        "imiz"
      ],
      [
        "▁di",
        "ger"
      ],
      [
        "hu",
        "t"
      ],
      [
        "al",
        "ar"
      ],
      [
        "▁k",
        "en"
      ],
      [
        "▁den",
        "ey"
      ],
      [
        "▁f",
        "ıs"
      ],
      [
        "▁y",
        "e"
      ],
      [
        "▁de",
        "k"
      ],
      [
        "en",
        "k"
      ],
      [
        "▁yag",
        "m"
      ],
      [
        "abil",
        "ecek"
      ],
      [
        "▁fiyat",
        "i"
      ],
      [
        "p",
        "r"
      ],
      [
        "▁ner",
        "ede"
      ],
      [
        "b",
        "i"
      ],
      [
        "▁var",
        "dır"
      ],
      [
        "dıg",
        "ında"
      ],
      [
        "▁kendiler",
        "ini"
      ],
      [
        "o",
        "r"
      ],
      [
        "un",
        "de"
      ],
      [
        "▁onlar",
        "dan"
      ],
      [
        "▁l",
        "ut"
      ],
      [
        "▁p",
        "as"
      ],
      [
        "▁mem",
        "leket"
      ],
      [
        "t",
        "eki"
      ],
      [
        "▁is",
        "ler"
      ],
      [
        "f",
        "a"
      ],
      [
        "▁har",
        "ıl"
      ],
      [
        "▁once",
        "den"
      ],
      [
        "▁su",
        "r"
      ],
      [
        "▁yan",
        "s"
      ],
      [
        "y",
        "on"
      ],
      [
        "▁mah",
        "k"
      ],
      [
        "▁ard",
        "ından"
      ],
      [
        "▁t",
        "es"
      ],
      [
        "g",
        "umuz"
      ],
      [
        "'y",
        "i"
      ],
      [
        "▁serv",
        "is"
      ],
      [
        "▁imkan",
        "lari"
      ],
      [
        "▁sikin",
        "ti"
      ],
      [
        "a",
        "v"
      ],
      [
        "▁d",
        "im"
      ],
      [
        "▁cek",
        "ti"
      ],
      [
        "el",
        "ik"
      ],
      [
        "em",
        "ez"
      ],
      [
        "▁uc",
        "uncu"
      ],
      [
        "▁kars",
        "ısında"
      ],
      [
        "▁d",
        "iyor"
      ],
      [
        "as",
        "t"
      ],
      [
        "lı",
        "m"
      ],
      [
        "▁polit",
        "ik"
      ],
      [
        "▁kendi",
        "si"
      ],
      [
        "n",
        "egin"
      ],
      [
        "▁%",
        "1"
      ],
      [
        "▁h",
        "al"
      ],
      [
        "c",
        "u"
      ],
      [
        "▁",
        "ak"
      ],
      [
        "▁tesek",
        "kur"
      ],
      [
        "▁mal",
        "i"
      ],
      [
        "a",
        "p"
      ],
      [
        "▁y",
        "uv"
      ],
      [
        "▁hava",
        "alanı"
      ],
      [
        "▁bas",
        "lamıs"
      ],
      [
        "▁tat",
        "il"
      ],
      [
        "or",
        "n"
      ],
      [
        "▁sey",
        "den"
      ],
      [
        "ist",
        "ik"
      ],
      [
        "▁yak",
        "in"
      ],
      [
        "er",
        "ler"
      ],
      [
        "▁y",
        "um"
      ],
      [
        "▁a",
        "lt"
      ],
      [
        "u",
        "du"
      ],
      [
        "▁endek",
        "s"
      ],
      [
        "▁oldu",
        "g"
      ],
      [
        "▁bil",
        "ir"
      ],
      [
        "▁",
        "2"
      ],
      [
        "m",
        "iyor"
      ],
      [
        "▁y",
        "al"
      ],
      [
        "ay",
        "et"
      ],
      [
        "▁ic",
        "ecek"
      ],
      [
        "g",
        "ah"
      ],
      [
        "▁3",
        "8"
      ],
      [
        "▁bas",
        "ar"
      ],
      [
        "an",
        "s"
      ],
      [
        "er",
        "ek"
      ],
      [
        "▁yuks",
        "el"
      ],
      [
        "▁t",
        "ez"
      ],
      [
        "▁ver",
        "irim"
      ],
      [
        "▁yagm",
        "ur"
      ],
      [
        "ul",
        "mus"
      ],
      [
        "▁yap",
        "tı"
      ],
      [
        "al",
        "l"
      ],
      [
        "j",
        "i"
      ],
      [
        "gı",
        "c"
      ],
      [
        "dık",
        "ları"
      ],
      [
        "am",
        "az"
      ],
      [
        "▁haz",
        "ine"
      ],
      [
        "▁sur",
        "ec"
      ],
      [
        "▁hav",
        "ayol"
      ],
      [
        "▁f",
        "in"
      ],
      [
        "▁c",
        "a"
      ],
      [
        "g",
        "imiz"
      ],
      [
        "▁d",
        "on"
      ],
      [
        "▁g",
        "iz"
      ],
      [
        "iler",
        "in"
      ],
      [
        "▁c",
        "ı"
      ],
      [
        "d",
        "er"
      ],
      [
        "▁al",
        "ıcı"
      ],
      [
        "▁bunun",
        "la"
      ],
      [
        "z",
        "et"
      ],
      [
        "or",
        "e"
      ],
      [
        "▁an",
        "n"
      ],
      [
        "▁m",
        "ek"
      ],
      [
        "▁uc",
        "ak"
      ],
      [
        "m",
        "iyorum"
      ],
      [
        "▁ihtiy",
        "ar"
      ],
      [
        "▁tur",
        "lu"
      ],
      [
        "▁tarih",
        "i"
      ],
      [
        "▁i",
        "le"
      ],
      [
        "s",
        "k"
      ],
      [
        "▁baz",
        "en"
      ],
      [
        "▁f",
        "en"
      ],
      [
        "▁d",
        "uk"
      ],
      [
        "▁",
        "h"
      ],
      [
        "▁francisco",
        "'ya"
      ],
      [
        "▁gor",
        "dum"
      ],
      [
        "i",
        "k"
      ],
      [
        "▁al",
        "ak"
      ],
      [
        ".2",
        "5"
      ],
      [
        "▁s",
        "eh"
      ],
      [
        "o",
        "g"
      ],
      [
        "▁rez",
        "erv"
      ],
      [
        "ar",
        "dı"
      ],
      [
        "▁har",
        "c"
      ],
      [
        "b",
        "ah"
      ],
      [
        "▁fot",
        "ograf"
      ],
      [
        "im",
        "a"
      ],
      [
        "▁r",
        "ahat"
      ],
      [
        "▁kur",
        "um"
      ],
      [
        "▁soy",
        "ler"
      ],
      [
        "▁uy",
        "an"
      ],
      [
        "▁z",
        "ırt"
      ],
      [
        "▁d",
        "ef"
      ],
      [
        "▁cum",
        "a"
      ],
      [
        "▁cum",
        "hur"
      ],
      [
        "▁3",
        "/"
      ],
      [
        "'",
        "a"
      ],
      [
        "▁dog",
        "u"
      ],
      [
        "▁sah",
        "ip"
      ],
      [
        "'",
        "ı"
      ],
      [
        "▁bir",
        "im"
      ],
      [
        "eler",
        "den"
      ],
      [
        "▁s",
        "us"
      ],
      [
        "▁ha",
        "y"
      ],
      [
        "▁kis",
        "isel"
      ],
      [
        "▁r",
        "ek"
      ],
      [
        "is",
        "inin"
      ],
      [
        "b",
        "e"
      ],
      [
        "▁sec",
        "im"
      ],
      [
        "es",
        "inin"
      ],
      [
        "▁c",
        "lass"
      ],
      [
        "▁b",
        "il"
      ],
      [
        "p",
        "ıs"
      ],
      [
        "▁i",
        "g"
      ],
      [
        "▁bah",
        "s"
      ],
      [
        "iz",
        "m"
      ],
      [
        "▁bek",
        "lem"
      ],
      [
        "ar",
        "ında"
      ],
      [
        "▁dav",
        "a"
      ],
      [
        "u",
        "n"
      ],
      [
        "ıs",
        "ının"
      ],
      [
        "▁d",
        "ak"
      ],
      [
        "iy",
        "on"
      ],
      [
        "▁mil",
        "yon"
      ],
      [
        "▁ol",
        "acak"
      ],
      [
        "▁",
        "("
      ],
      [
        "▁h",
        "ız"
      ],
      [
        "▁ay",
        "n"
      ],
      [
        "g",
        "um"
      ],
      [
        "ist",
        "i"
      ],
      [
        "▁kuc",
        "uk"
      ],
      [
        "▁dusun",
        "c"
      ],
      [
        "▁uzer",
        "inden"
      ],
      [
        "lar",
        "ında"
      ],
      [
        "ar",
        "k"
      ],
      [
        "mak",
        "ta"
      ],
      [
        "▁ucret",
        "i"
      ],
      [
        "▁s",
        "ut"
      ],
      [
        "c",
        "ilik"
      ],
      [
        "▁ver",
        "im"
      ],
      [
        "ıyor",
        "um"
      ],
      [
        "m",
        "enin"
      ],
      [
        "▁gen",
        "c"
      ],
      [
        "▁ad",
        "et"
      ],
      [
        "▁s",
        "an"
      ],
      [
        "▁t",
        "em"
      ],
      [
        "▁bunlar",
        "dan"
      ],
      [
        "t",
        "or"
      ],
      [
        "▁ot",
        "ur"
      ],
      [
        "m",
        "ak"
      ],
      [
        "em",
        "i"
      ],
      [
        "s",
        "im"
      ],
      [
        "▁p",
        "ır"
      ],
      [
        "▁do",
        "v"
      ],
      [
        "▁ver",
        "iyor"
      ],
      [
        "ıs",
        "ıyla"
      ],
      [
        "▁k",
        "ıl"
      ],
      [
        "▁var",
        "sa"
      ],
      [
        "▁kon",
        "tr"
      ],
      [
        "▁c",
        "es"
      ],
      [
        "▁f",
        "on"
      ],
      [
        "l",
        "an"
      ],
      [
        "▁1",
        "00"
      ],
      [
        "▁p",
        "eki"
      ],
      [
        "▁",
        ";"
      ],
      [
        "▁str",
        "ate"
      ],
      [
        "▁gel",
        "is"
      ],
      [
        "at",
        "e"
      ],
      [
        "▁analist",
        "ler"
      ],
      [
        "▁di",
        "eg"
      ],
      [
        "al",
        "ak"
      ],
      [
        "n",
        "un"
      ],
      [
        "▁op",
        "er"
      ],
      [
        "▁han",
        "gi"
      ],
      [
        "▁tef",
        "ek"
      ],
      [
        "o",
        "k"
      ],
      [
        "▁n",
        "iyet"
      ],
      [
        "ı",
        "s"
      ],
      [
        "▁bus",
        "h"
      ],
      [
        "▁sip",
        "ar"
      ],
      [
        "og",
        "raf"
      ],
      [
        "▁birbir",
        "i"
      ],
      [
        "ar",
        "et"
      ],
      [
        "▁ey",
        "lem"
      ],
      [
        "k",
        "u"
      ],
      [
        "ist",
        "ir"
      ],
      [
        "▁ver",
        "iyorum"
      ],
      [
        "▁hay",
        "ır"
      ],
      [
        "▁biz",
        "de"
      ],
      [
        "▁",
        "ep"
      ],
      [
        "ti",
        "gini"
      ],
      [
        "▁av",
        "uk"
      ],
      [
        "▁ail",
        "e"
      ],
      [
        "▁cık",
        "ar"
      ],
      [
        "▁an",
        "al"
      ],
      [
        "may",
        "acak"
      ],
      [
        "▁sır",
        "t"
      ],
      [
        "ag",
        "ını"
      ],
      [
        "▁mı",
        "s"
      ],
      [
        "▁hav",
        "uz"
      ],
      [
        "▁kar",
        "ayol"
      ],
      [
        "ir",
        "im"
      ],
      [
        "▁art",
        "ıs"
      ],
      [
        "▁lezzet",
        "li"
      ],
      [
        "iler",
        "ine"
      ],
      [
        "ust",
        "um"
      ],
      [
        "▁havuz",
        "u"
      ],
      [
        "▁c",
        "ez"
      ],
      [
        "▁yonet",
        "im"
      ],
      [
        "▁p",
        "ay"
      ],
      [
        "▁has",
        "tan"
      ],
      [
        "edi",
        "ye"
      ],
      [
        "▁",
        "89-"
      ],
      [
        "▁d",
        "c"
      ],
      [
        "unu",
        "yor"
      ],
      [
        "▁prof",
        "es"
      ],
      [
        "▁atlanta",
        "'dan"
      ],
      [
        "▁yap",
        "ıyor"
      ],
      [
        "▁must",
        "er"
      ],
      [
        "▁1.",
        "8"
      ],
      [
        "et",
        "in"
      ],
      [
        "▁kam",
        "pan"
      ],
      [
        "il",
        "di"
      ],
      [
        "tr",
        "e"
      ],
      [
        "m",
        "eye"
      ],
      [
        "▁kur",
        "ul"
      ],
      [
        "uy",
        "le"
      ],
      [
        "at",
        "ur"
      ],
      [
        "▁d",
        "u"
      ],
      [
        "'",
        "s"
      ],
      [
        "em",
        "ey"
      ],
      [
        "▁edi",
        "p"
      ],
      [
        "▁h",
        "am"
      ],
      [
        "▁c",
        "ıtır"
      ],
      [
        "▁cev",
        "r"
      ],
      [
        "e",
        "v"
      ],
      [
        "▁h",
        "us"
      ],
      [
        "▁gel",
        "iyor"
      ],
      [
        "▁ok",
        "um"
      ],
      [
        "▁ol",
        "m"
      ],
      [
        "▁tesis",
        "in"
      ],
      [
        "▁seh",
        "ir"
      ],
      [
        "t",
        "r"
      ],
      [
        "di",
        "s"
      ],
      [
        "▁iddi",
        "a"
      ],
      [
        "▁pr",
        "ogram"
      ],
      [
        "al",
        "ım"
      ],
      [
        "▁l",
        "ok"
      ],
      [
        "▁simdi",
        "ye"
      ],
      [
        "▁y",
        "di"
      ],
      [
        "on",
        "elik"
      ],
      [
        "es",
        "iyle"
      ],
      [
        "ob",
        "il"
      ],
      [
        "ıs",
        "ını"
      ],
      [
        "w",
        "a"
      ],
      [
        "▁l",
        "im"
      ],
      [
        "ler",
        "ine"
      ],
      [
        "en",
        "c"
      ],
      [
        "▁tan",
        "ım"
      ],
      [
        "5",
        "-1"
      ],
      [
        "▁g",
        "ez"
      ],
      [
        "ap",
        "on"
      ],
      [
        "▁yetk",
        "il"
      ],
      [
        "e",
        "lik"
      ],
      [
        "▁seviy",
        "esine"
      ],
      [
        "▁artıs",
        "la"
      ],
      [
        "▁atlan",
        "ta"
      ],
      [
        "▁et",
        "ti"
      ],
      [
        "dıg",
        "ım"
      ],
      [
        "▁ser",
        "may"
      ],
      [
        "u",
        "d"
      ],
      [
        "▁mek",
        "tu"
      ],
      [
        "▁h",
        "an"
      ],
      [
        "▁sıng",
        "ır"
      ],
      [
        "▁n",
        "ot"
      ],
      [
        "▁uc",
        "mak"
      ],
      [
        "▁",
        "ic"
      ],
      [
        "▁..",
        "\""
      ],
      [
        "▁yar",
        "ın"
      ],
      [
        "▁end",
        "ek"
      ],
      [
        "da",
        "v"
      ],
      [
        "▁",
        "a"
      ],
      [
        "▁b",
        "as"
      ],
      [
        "▁bir",
        "bir"
      ],
      [
        "g",
        "or"
      ],
      [
        "at",
        "t"
      ],
      [
        "▁4",
        "9"
      ],
      [
        "▁y",
        "an"
      ],
      [
        "▁al",
        "mak"
      ],
      [
        "▁",
        "5-1"
      ],
      [
        "▁d",
        "om"
      ],
      [
        "▁c",
        "em"
      ],
      [
        "▁di",
        "ye"
      ],
      [
        "▁19",
        "89-"
      ],
      [
        "▁%3.",
        "1"
      ],
      [
        "▁dor",
        "t"
      ],
      [
        "d",
        "ek"
      ],
      [
        "▁contin",
        "ental"
      ],
      [
        "r",
        "a"
      ],
      [
        "▁t",
        "ah"
      ],
      [
        "▁m",
        "ark"
      ],
      [
        "lar",
        "la"
      ],
      [
        "▁uzer",
        "ine"
      ],
      [
        "r",
        "ı"
      ],
      [
        "▁bag",
        "ım"
      ],
      [
        "▁on",
        "a"
      ],
      [
        "▁b",
        "ir"
      ],
      [
        "n",
        "in"
      ],
      [
        "▁b",
        "el"
      ],
      [
        "m",
        "eyi"
      ],
      [
        "▁m",
        "ust"
      ],
      [
        "▁or",
        "nek"
      ],
      [
        "ati",
        "on"
      ],
      [
        "y",
        "a"
      ],
      [
        "▁pers",
        "onel"
      ],
      [
        "▁g",
        "ol"
      ],
      [
        "3",
        "2"
      ],
      [
        "v",
        "en"
      ],
      [
        "▁y",
        "asıyor"
      ],
      [
        "▁h",
        "az"
      ],
      [
        "▁gon",
        "ul"
      ],
      [
        "ır",
        "ak"
      ],
      [
        "▁var",
        "an"
      ],
      [
        "▁t",
        "e"
      ],
      [
        "▁an",
        "da"
      ],
      [
        "▁198",
        "9"
      ],
      [
        "▁s",
        "er"
      ],
      [
        "▁ic",
        "in"
      ],
      [
        "▁",
        "o"
      ],
      [
        "ın",
        "ın"
      ],
      [
        "▁gerek",
        "tigini"
      ],
      [
        "▁toplan",
        "tı"
      ],
      [
        "▁se",
        "kiz"
      ],
      [
        "▁odam",
        "iz"
      ],
      [
        "2",
        ":30"
      ],
      [
        "▁on",
        "une"
      ],
      [
        "▁tas",
        "ar"
      ],
      [
        "▁ist",
        "ik"
      ],
      [
        "▁",
        ")"
      ],
      [
        "▁son",
        "ra"
      ],
      [
        "l",
        "er"
      ],
      [
        "▁y",
        "az"
      ],
      [
        "▁an",
        "gel"
      ],
      [
        "▁insan",
        "ların"
      ],
      [
        "e",
        "l"
      ],
      [
        "▁ogle",
        "den"
      ],
      [
        "eg",
        "as"
      ],
      [
        "lar",
        "ak"
      ],
      [
        "r",
        "o"
      ],
      [
        "▁pr",
        "ob"
      ],
      [
        "▁i",
        "la"
      ],
      [
        "▁1.",
        "3"
      ],
      [
        "▁ar",
        "ada"
      ],
      [
        "▁h",
        "ap"
      ],
      [
        "▁etm",
        "eye"
      ],
      [
        "▁",
        "iy"
      ],
      [
        "▁ver",
        "digi"
      ],
      [
        "▁siz",
        "i"
      ],
      [
        "▁hem",
        "en"
      ],
      [
        "y",
        "o"
      ],
      [
        "▁kol",
        "tuk"
      ],
      [
        "▁r",
        "es"
      ],
      [
        "ti",
        "f"
      ],
      [
        "▁n",
        "ih"
      ],
      [
        "i",
        "c"
      ],
      [
        "▁kı",
        "v"
      ],
      [
        "▁l",
        "ak"
      ],
      [
        "▁kon",
        "ak"
      ],
      [
        "s",
        "u"
      ],
      [
        "▁sp",
        "or"
      ],
      [
        "▁y",
        "ap"
      ],
      [
        "▁",
        "es"
      ],
      [
        "in",
        "g"
      ],
      [
        "▁konu",
        "da"
      ],
      [
        "▁alt",
        "ı"
      ],
      [
        "▁198",
        "7"
      ],
      [
        "l",
        "et"
      ],
      [
        "▁o",
[...]
