{
  "version": "1.0",
  "truncation": null,
  "padding": null,
  "added_tokens": [
    {
      "id": 4901,
      "content": "[SEP]",
      "single_word": false,
      "lstrip": false,
      "rstrip": false,
      "normalized": false,
      "special": true
    },
    {
      "id": 8139,
      "content": "[UNK]",
      "single_word": false,
      "lstrip": false,
      "rstrip": false,
      "normalized": false,
      "special": true
    },
    {
      "id": 10217,
      "content": "[MASK]",
      "single_word": false,
      "lstrip": false,
      "rstrip": false,
      "normalized": false,
      "special": true
    },
    {
      "id": 13187,
      "content": "[PAD]",
      "single_word": false,
      "lstrip": false,
      "rstrip": false,
      "normalized": false,
      "special": true
    },
    {
      "id": 13393,
      "content": "[CLS]",
      "single_word": false,
      "lstrip": false,
      "rstrip": false,
      "normalized": false,
      "special": true
    }
  ],
  "normalizer": {
    "type": "Sequence",
    "normalizers": [
      {
        "type": "NFD"
      },
      {
        "type": "Lowercase"
      },
      {
        "type": "StripAccents"
      }
    ]
  },
  "pre_tokenizer": {
    "type": "Sequence",
    "pretokenizers": [
      {
        "type": "Metaspace",
        "replacement": "▁",
        "prepend_scheme": "always",
        "split": true
      }
    ]
  },
  "post_processor": {
    "type": "TemplateProcessing",
    "single": [
      {
        "SpecialToken": {
          "id": "[CLS]",
          "type_id": 0
        }
      },
      {
        "Sequence": {
          "id": "A",
          "type_id": 0
        }
      },
      {
        "SpecialToken": {
          "id": "[SEP]",
          "type_id": 0
        }
      }
    ],
    "pair": [
      {
        "SpecialToken": {
          "id": "[CLS]",
          "type_id": 0
        }
      },
      {
        "Sequence": {
          "id": "A",
          "type_id": 0
        }
      },
      {
        "SpecialToken": {
          "id": "[SEP]",
          "type_id": 0
        }
      },
      {
        "Sequence": {
          "id": "B",
          "type_id": 1
        }
      },
      {
        "SpecialToken": {
          "id": "[SEP]",
          "type_id": 1
        }
      }
    ],
    "special_tokens": {
      "[CLS]": {
        "id": "[CLS]",
        "ids": [
          13393
        ],
        "tokens": [
          "[CLS]"
        ]
      },
      "[SEP]": {
        "id": "[SEP]",
        "ids": [
          4901
        ],
        "tokens": [
          "[SEP]"
        ]
      }
    }
  },
  "decoder": {
    "type": "Metaspace",
    "replacement": "▁",
    "prepend_scheme": "always",
    "split": true
  },
  "model": {
    "type": "BPE",
    "dropout": null,
    "unk_token": "[UNK]",
    "continuing_subword_prefix": null,
    "end_of_word_suffix": null,
    "fuse_unk": false,
    "byte_fallback": false,
    "ignore_merges": false,
    "vocab": {
      "▁dolardı": 0,
      "▁mevsimsel": 1,
      "one": 2,
      "▁%6": 3,
      "▁havuzdan": 4,
      "▁deleg": 5,
      "▁hutton": 6,
      "▁lezizdi": 7,
      "▁aldı": 8,
      "▁daldı": 9,
      "3'te": 10,
      "▁dolusu": 11,
      "▁bahcede": 12,
      "▁uygunsuz": 13,
      "▁borsasında": 14,
      "▁tacirler": 15,
      "▁ceviz": 16,
      "way": 17,
      "▁toptan": 18,
      "▁broker": 19,
      "▁hele": 20,
      "▁sch": 21,
      "▁yapmıs": 22,
      "▁duserken": 23,
      "dir": 24,
      "▁iceride": 25,
      "▁475": 26,
      "▁.3": 27,
      "▁calısıyordu": 28,
      "▁piyango": 29,
      "▁soysuz": 30,
      "▁muvaffak": 31,
      "ster": 32,
      "▁343": 33,
      "▁duyuyordu": 34,
      "s'ın": 35,
      "▁isler": 36,
      "9'da": 37,
      "▁aglamaya": 38,
      "egi": 39,
      "izasyon": 40,
      "cesine": 41,
      "▁1.200": 42,
      "▁ruzgarı": 43,
      "▁emek": 44,
      "▁gelecek": 45,
      "▁tepki": 46,
      "▁general": 47,
      "▁tex": 48,
      "▁gelirler": 49,
      "'ni": 50,
      "▁boynuna": 51,
      "▁ran": 52,
      "▁oldukların": 53,
      "▁suret": 54,
      "▁hek": 55,
      "▁ilgiliydiler": 56,
      "dayan": 57,
      "▁tv": 58,
      "▁columbus": 59,
      "▁ocak": 60,
      "▁1.79": 61,
      "▁agaca": 62,
      "▁dekor": 63,
      "iginde": 64,
      "▁alamaz": 65,
      "▁yapılması": 66,
      "▁1.45": 67,
      ".11": 68,
      "▁ankara": 69,
      "▁hafif": 70,
      "orth": 71,
      "▁vef": 72,
      "▁karargah": 73,
      "eledigi": 74,
      "▁ozver": 75,
      "ındak": 76,
      "▁genc": 77,
      "▁ahsap": 78,
      "▁meyhan": 79,
      "▁iki": 80,
      "▁sınırlarını": 81,
      "▁32": 82,
      "memeye": 83,
      "▁piyasaları": 84,
      "▁akc": 85,
      "sızın": 86,
      "▁pec": 87,
      "ating": 88,
      "▁zapt": 89,
      "▁sif": 90,
      "acılıgı": 91,
      "▁349": 92,
      "▁batır": 93,
      "▁yonetimin": 94,
      "▁silip": 95,
      "▁iklim": 96,
      "▁olduguna": 97,
      "ap": 98,
      "ane": 99,
      "▁ilk": 100,
      "▁subay": 101,
      "▁om": 102,
      "▁hatırlattı": 103,
      "▁etkileri": 104,
      "▁dugum": 105,
      "▁liraya": 106,
      "ısa": 107,
      "7.7": 108,
      "furt": 109,
      "▁cokmus": 110,
      "▁karyol": 111,
      "▁cocuklugum": 112,
      "▁ıslak": 113,
      "▁verin": 114,
      "egiz": 115,
      "s": 116,
      "▁tartıs": 117,
      "▁oluyordu": 118,
      "▁cekerek": 119,
      "asip": 120,
      "alardan": 121,
      "▁bura": 122,
      "▁hesabı": 123,
      "▁dalı": 124,
      "▁imkb": 125,
      "efendi": 126,
      "▁newark'tan": 127,
      "▁kutur": 128,
      "▁chp": 129,
      "▁oyunc": 130,
      "▁on": 131,
      "▁aklım": 132,
      "▁isvec": 133,
      "▁beklen": 134,
      "▁city": 135,
      "▁atıp": 136,
      "ule": 137,
      "▁acmıstır": 138,
      "▁gar": 139,
      "▁dayak": 140,
      "▁denil": 141,
      "▁ilave": 142,
      "▁kulturel": 143,
      "▁hastaneye": 144,
      "▁kurulu'nun": 145,
      "▁numarası": 146,
      "▁bırakıp": 147,
      "▁merakla": 148,
      "ban": 149,
      "▁kimseyle": 150,
      "▁bakıp": 151,
      "▁siparis": 152,
      "▁21:00-22:30": 153,
      "▁gosterge": 154,
      "▁kars": 155,
      "▁atıs": 156,
      "kanın": 157,
      "▁uzunt": 158,
      "▁tabur": 159,
      "▁unit": 160,
      "lenip": 161,
      "▁olursa": 162,
      "▁yalap": 163,
      "mel": 164,
      "ene": 165,
      "▁ha": 166,
      "umuzu": 167,
      "▁0.01": 168,
      "▁pu": 169,
      "m": 170,
      "▁hazırlık": 171,
      "▁pop": 172,
      "▁dolasıyor": 173,
      "▁soyluyor": 174,
      "ga": 175,
      "▁car": 176,
      "▁kalkar": 177,
      "▁kendimle": 178,
      "▁jr.": 179,
      "▁indiana": 180,
      "▁kızarmıs": 181,
      "▁yoksul": 182,
      "▁ısıklı": 183,
      "ıyorlar": 184,
      "▁neye": 185,
      "▁at&t": 186,
      "▁birlikte": 187,
      "▁berbat": 188,
      "▁198120000": 189,
      "▁group": 190,
      "▁bahcı": 191,
      "0.1": 192,
      "▁kaynak": 193,
      "ıp": 194,
      "▁karsil": 195,
      "▁islemlerinde": 196,
      "▁esrar": 197,
      "▁gecirmek": 198,
      "▁kendine": 199,
      "▁merk": 200,
      "▁tanr": 201,
      "▁gorulen": 202,
      "▁tef": 203,
      "▁kızları": 204,
      "▁belediy": 205,
      "▁dalgaliydi": 206,
      "▁cent": 207,
      "▁barda": 208,
      "isco": 209,
      "isiz": 210,
      "abildi": 211,
      "▁kentte": 212,
      "▁gorur": 213,
      "▁adım": 214,
      "lt": 215,
      "▁mıdır": 216,
      "ans": 217,
      "▁olabilirdi": 218,
      "▁kasır": 219,
      "▁sinem": 220,
      "▁%22": 221,
      "▁bana": 222,
      "▁haklarının": 223,
      "▁gorul": 224,
      "▁mesel": 225,
      "▁neleri": 226,
      "▁uzandı": 227,
      "▁sistemleri": 228,
      "▁olacag": 229,
      "▁iskele": 230,
      "▁soyut": 231,
      "'teki": 232,
      "▁cari": 233,
      "▁taraftan": 234,
      "ligim": 235,
      "▁yasına": 236,
      "larının": 237,
      "▁dakika": 238,
      "▁kayıp": 239,
      "▁selcuk": 240,
      "▁yaparım": 241,
      "▁sogut": 242,
      "▁yıkan": 243,
      "▁uzaga": 244,
      "▁gidebilir": 245,
      "▁saha": 246,
      "▁binbir": 247,
      "▁dususler": 248,
      "▁odeme": 249,
      "tik": 250,
      "▁cılgın": 251,
      "▁-": 252,
      "▁coc": 253,
      "▁unut": 254,
      "▁talebin": 255,
      "▁muhendis": 256,
      "▁84": 257,
      "▁konusuyor": 258,
      "▁hew": 259,
      "sız": 260,
      "▁akıllı": 261,
      "▁sebeb": 262,
      "▁calısır": 263,
      "▁tutulan": 264,
      "▁dondurdu": 265,
      "▁1979": 266,
      "▁hud": 267,
      "▁getiriyordu": 268,
      "92": 269,
      "▁genetik": 270,
      "▁8.5": 271,
      "▁bulun": 272,
      "875": 273,
      "▁0.7": 274,
      "cut": 275,
      "▁verg": 276,
      "▁fantez": 277,
      "larak": 278,
      "vert": 279,
      "▁basmak": 280,
      "tur": 281,
      "▁cebinde": 282,
      "▁yaratıcı": 283,
      "5.3": 284,
      "▁ortasına": 285,
      "▁iyi": 286,
      "▁agırlık": 287,
      "▁temet": 288,
      "▁onları": 289,
      "▁yumurta": 290,
      "uzel": 291,
      "▁hilmi": 292,
      "▁sahil": 293,
      "▁otururlar": 294,
      "▁hayır": 295,
      "▁guver": 296,
      "▁frankfurt": 297,
      "▁tac": 298,
      "afeti": 299,
      "ılıgında": 300,
      "▁yavrusu": 301,
      "▁dokunulmaz": 302,
      "▁pencere": 303,
      "isti": 304,
      "▁bilhassa": 305,
      "▁urun": 306,
      "▁kablo": 307,
      "▁ucyuzyetmis": 308,
      "▁cebine": 309,
      "▁buradan": 310,
      "▁kahverengi": 311,
      "▁yapmaya": 312,
      "▁dc'de": 313,
      "usune": 314,
      "▁hanim": 315,
      "ilmeli": 316,
      "▁butun": 317,
      "▁mech": 318,
      "▁kırmızı": 319,
      "▁kın": 320,
      "▁mantıklı": 321,
      "▁telekom": 322,
      "uyorlar": 323,
      "▁400": 324,
      "andan": 325,
      "▁tedir": 326,
      "▁tuttugu": 327,
      "▁sorusturma": 328,
      "lanmasından": 329,
      "▁haline": 330,
      "▁koseye": 331,
      "▁giriyorum": 332,
      "▁vak": 333,
      "▁derinden": 334,
      "adag": 335,
      "▁savur": 336,
      "▁tıbbi": 337,
      "elig": 338,
      "▁sivri": 339,
      "▁ydum": 340,
      "▁harcama": 341,
      "▁iliskili": 342,
      "▁sırı": 343,
      "amadıgı": 344,
      "▁cig": 345,
      "ina": 346,
      "▁demokr": 347,
      "▁dekorasyon": 348,
      "▁surecin": 349,
      "emizi": 350,
      "▁yavuz": 351,
      "▁ettikleri": 352,
      "ay": 353,
      "adav": 354,
      "▁isgucu": 355,
      "▁havada": 356,
      "▁140": 357,
      "mu": 358,
      "▁destekli": 359,
      "▁isi": 360,
      "ois": 361,
      "▁lideri": 362,
      "iyeli": 363,
      "▁ser": 364,
      "ayarak": 365,
      "5": 366,
      "irse": 367,
      "▁gelisti": 368,
      "goz": 369,
      ".19": 370,
      "▁aldıktan": 371,
      "▁bakimsiz": 372,
      "▁uvey": 373,
      "▁hayr": 374,
      "des": 375,
      "usunun": 376,
      "▁gorunur": 377,
      "▁ilgilenen": 378,
      "▁adımı": 379,
      "▁hiz": 380,
      "▁corba": 381,
      "▁mucevher": 382,
      "3.6": 383,
      "▁joseph": 384,
      "rken": 385,
      "ız": 386,
      "▁anasının": 387,
      "pa": 388,
      "ese": 389,
      "▁sahan": 390,
      "▁hastane": 391,
      "aladı": 392,
      "▁etmeden": 393,
      "▁muhendislik": 394,
      "▁bazılarını": 395,
      "▁ucunda": 396,
      "▁tırnak": 397,
      "▁sunuz": 398,
      "▁cıg": 399,
      "▁cirkin": 400,
      "▁bran": 401,
      "▁pesin": 402,
      "ende": 403,
      "▁eder": 404,
      "▁%50": 405,
      "▁heyet": 406,
      "imli": 407,
      "▁verir": 408,
      "bes": 409,
      "▁doksan": 410,
      "▁tasım": 411,
      "▁hayatını": 412,
      "▁degisimi": 413,
      "▁fısıl": 414,
      "▁yazan": 415,
      "▁bagları": 416,
      "▁beyin": 417,
      "▁gelismeler": 418,
      "▁hersey": 419,
      "▁konum": 420,
      "▁sampiyon": 421,
      "am": 422,
      "uk": 423,
      "▁0.0108": 424,
      "▁koy": 425,
      "▁personeline": 426,
      "▁yed": 427,
      "itik": 428,
      "iyete": 429,
      "▁indianapolis'e": 430,
      "▁komite": 431,
      "▁bolg": 432,
      "▁miktarı": 433,
      "▁verim": 434,
      "▁must": 435,
      "iddet": 436,
      "▁44.3": 437,
      "▁lub": 438,
      "▁birik": 439,
      "mil": 440,
      "▁asır": 441,
      "▁meshur": 442,
      "▁muzakere": 443,
      "▁kansas": 444,
      "▁480": 445,
      "▁oyunda": 446,
      "dınız": 447,
      "▁asılmıs": 448,
      "▁bush": 449,
      "▁dusunuyor": 450,
      "▁5.6": 451,
      "▁bos": 452,
      "▁edin": 453,
      "▁18": 454,
      "▁oturur": 455,
      "▁ice": 456,
      "urlu": 457,
      "▁delikanlı": 458,
      "unda": 459,
      "iyorsunuz": 460,
      "▁kapan": 461,
      "▁bitti": 462,
      "▁kızım": 463,
      "▁olmamak": 464,
      "▁birbiriyle": 465,
      "▁eserleri": 466,
      "▁yurtdısında": 467,
      "▁lawson": 468,
      "▁kulak": 469,
      "x": 470,
      "▁parki": 471,
      "emeli": 472,
      "▁suyun": 473,
      "▁amcam": 474,
      "▁anlamak": 475,
      "▁rum": 476,
      "gele": 477,
      "▁icindeydi": 478,
      "▁nik": 479,
      "▁bosal": 480,
      "▁mudur": 481,
      "▁koyar": 482,
      "▁maliyetleri": 483,
      "▁gercekci": 484,
      "▁500": 485,
      "graf": 486,
      "▁bostan": 487,
      "▁tanıyor": 488,
      "▁nın": 489,
      "▁ozgun": 490,
      "▁secimde": 491,
      "▁tipik": 492,
      "▁yazıyı": 493,
      "▁kelebek": 494,
      "▁“": 495,
      "▁suruldu": 496,
      "2'ye": 497,
      "ori": 498,
      "▁ceph": 499,
      "▁acisindan": 500,
      "ith": 501,
      "toru": 502,
      "2-23": 503,
      "▁mich": 504,
      "▁etsin": 505,
      "idik": 506,
      "▁beklentimin": 507,
      "▁harp": 508,
      "▁ızdır": 509,
      "co": 510,
      "▁budak": 511,
      "▁gecip": 512,
      "▁tel": 513,
      "▁14.7": 514,
      "▁etmekten": 515,
      "▁,": 516,
      "▁corp'un": 517,
      "▁kalmadim": 518,
      "▁indi": 519,
      "▁sure": 520,
      "bakır": 521,
      "▁toren": 522,
      "▁kendinde": 523,
      "▁mik": 524,
      "▁mesut": 525,
      "▁%14": 526,
      "▁boston'da": 527,
      "lamıs": 528,
      "▁pervan": 529,
      "yol": 530,
      "▁resmen": 531,
      "▁dusundur": 532,
      "san": 533,
      "mıstı": 534,
      "▁hizmetlerini": 535,
      "▁men": 536,
      "▁firmaları": 537,
      "'i": 538,
      "▁gonullu": 539,
      "▁giyim": 540,
      "▁cıkarma": 541,
      "▁edinmek": 542,
      "duy": 543,
      "▁cinsel": 544,
      "▁besinci": 545,
      "luydu": 546,
      "▁opec": 547,
      "▁armagan": 548,
      "emmel": 549,
      "▁delta": 550,
      "▁gozuk": 551,
      "▁ark": 552,
      "▁4": 553,
      "▁nuf": 554,
      "▁muhaseb": 555,
      "▁1.23": 556,
      "▁atesten": 557,
      "▁bircogunun": 558,
      "▁sirket": 559,
      "▁iliskin": 560,
      "▁buyugu": 561,
      "▁87.5": 562,
      "eis": 563,
      "▁mekana": 564,
      "▁zor": 565,
      "amiz": 566,
      "▁merak": 567,
      "bine": 568,
      "▁hava": 569,
      "▁sevgili": 570,
      "▁heyecanlı": 571,
      "▁gormez": 572,
      "▁sattı": 573,
      "osunda": 574,
      "▁temp": 575,
      "▁yadig": 576,
      "▁beyle": 577,
      "▁bekledigimiz": 578,
      "▁yır": 579,
      "▁temmuz": 580,
      "mamıstır": 581,
      "▁ayın": 582,
      "mas": 583,
      "eden": 584,
      "▁ahbap": 585,
      "▁toronto'dan": 586,
      "▁stand": 587,
      "isinden": 588,
      "larsa": 589,
      "▁dair": 590,
      "▁haber": 591,
      "▁tamamlan": 592,
      "▁2683.20": 593,
      "▁sizinle": 594,
      "sizin": 595,
      "▁gerek": 596,
      "ozof": 597,
      "▁tecavuz": 598,
      "▁mısınız": 599,
      "tuel": 600,
      "acıları": 601,
      "▁ornek": 602,
      "▁demek": 603,
      "ilan": 604,
      "lm": 605,
      "▁jose'ye": 606,
      "acasına": 607,
      "▁kalmak": 608,
      "▁veda": 609,
      "▁yurum": 610,
      "▁yapacagım": 611,
      "ikatur": 612,
      "▁meraklı": 613,
      "▁sezginler": 614,
      "▁kendisinin": 615,
      "▁sonuc": 616,
      "▁bankaların": 617,
      "▁oyk": 618,
      "▁bet": 619,
      "▁saniye": 620,
      "835": 621,
      "liginde": 622,
      "▁west": 623,
      "▁sayfa": 624,
      "▁tenha": 625,
      "kanlı": 626,
      "▁fut": 627,
      "dırdı": 628,
      "▁dow": 629,
      "ımıza": 630,
      "▁teras": 631,
      "▁gelin": 632,
      "▁sub": 633,
      "▁gıldır": 634,
      "▁olu": 635,
      "▁1992'de": 636,
      "▁altını": 637,
      "▁prov": 638,
      "▁'de": 639,
      "▁kalanlar": 640,
      "deydin": 641,
      "▁ulusu": 642,
      "▁bisiklet": 643,
      "ligine": 644,
      "▁rest": 645,
      "▁gerceklesti": 646,
      "▁midir": 647,
      "rika": 648,
      "▁yuzum": 649,
      "▁guclerini": 650,
      "▁duzen": 651,
      "ayıf": 652,
      "bac": 653,
      "▁durumda": 654,
      "▁sevg": 655,
      "▁dile": 656,
      "▁laub": 657,
      "▁yengec": 658,
      "lamalar": 659,
      "▁gelmeye": 660,
      "ilerde": 661,
      "▁amator": 662,
      "▁odanin": 663,
      "▁haberleri": 664,
      "▁sal": 665,
      "▁feder": 666,
      "▁kaldırılması": 667,
      "▁bencil": 668,
      "▁bayramı": 669,
      "▁alabilir": 670,
      "▁ink": 671,
      "▁maddi": 672,
      "▁hareketler": 673,
      "▁kentsel": 674,
      "-k": 675,
      "▁yıcı": 676,
      "▁listele": 677,
      "▁sohbet": 678,
      "▁oldur": 679,
      "▁gununu": 680,
      "▁esas": 681,
      "kam": 682,
      "diginiz": 683,
      "lanmamıs": 684,
      "▁600": 685,
      "▁lung": 686,
      "bah": 687,
      "▁islemin": 688,
      "▁dusup": 689,
      "▁cıktıgını": 690,
      "▁parmagını": 691,
      ".03": 692,
      "yen": 693,
      "▁yusuf": 694,
      "mada": 695,
      "▁tarihini": 696,
      "jr": 697,
      "▁suursuz": 698,
      "▁olacagım": 699,
      "▁yuzdokuz": 700,
      "▁ettigi": 701,
      "▁personelin": 702,
      "▁yası": 703,
      "▁1100": 704,
      "▁deligi": 705,
      "er'in": 706,
      ",": 707,
      "▁a.b.": 708,
      "▁%0.3": 709,
      "▁sezonu": 710,
      "▁his": 711,
      "▁munaseb": 712,
      "▁gelmistir": 713,
      "▁karmas": 714,
      "▁asmıs": 715,
      "▁nah": 716,
      "▁105": 717,
      "ide": 718,
      "ydin": 719,
      "▁kurtul": 720,
      "▁sokacak": 721,
      "▁kapsamı": 722,
      "▁sordular": 723,
      "▁oglan": 724,
      "▁korsan": 725,
      "▁kısa": 726,
      "▁laf": 727,
      "▁komut": 728,
      "estir": 729,
      "▁kararsizim": 730,
      "▁metre": 731,
      "▁evinin": 732,
      "▁dolasmaya": 733,
      "▁alarak": 734,
      "▁cereyan": 735,
      "▁rekabetin": 736,
      "...": 737,
      "▁yanıyor": 738,
      "▁manville": 739,
      "▁sterlin": 740,
      "▁is": 741,
      "▁hayatta": 742,
      "▁hazırlamıs": 743,
      "▁okurlar": 744,
      "▁tanrı": 745,
      "▁yumur": 746,
      "orld": 747,
      "larıyla": 748,
      "▁oyuncular": 749,
      "▁avans": 750,
      "▁acele": 751,
      "ris": 752,
      "▁endiselen": 753,
      "▁gazeteci": 754,
      "▁41.3": 755,
      "▁basak": 756,
      "▁mater": 757,
      "▁koru": 758,
      "▁gorusmek": 759,
      "▁maddeler": 760,
      "▁vucut": 761,
      "▁208": 762,
      "▁rumeli": 763,
      "▁italyan": 764,
      "illa": 765,
      "▁inc.": 766,
      "▁yildiz": 767,
      "fa": 768,
      "▁bakıma": 769,
      "▁belirt": 770,
      "▁1996": 771,
      "▁bayagi": 772,
      "▁manhattan": 773,
      "▁pasap": 774,
      "▁mevki": 775,
      "▁izini": 776,
      "luy": 777,
      "▁malzemesi": 778,
      "▁muhalleb": 779,
      "▁fiyati": 780,
      "▁yılının": 781,
      "▁tutul": 782,
      "▁onune": 783,
      "likte": 784,
      "▁vegas'a": 785,
      "edir": 786,
      "▁kaslarını": 787,
      "▁gosterir": 788,
      "▁beyzbol": 789,
      "madık": 790,
      "▁zayıf": 791,
      "▁kahr": 792,
      "▁damat": 793,
      "▁isaretleri": 794,
      "▁epey": 795,
      "▁zincir": 796,
      "▁giyinmis": 797,
      "▁1291": 798,
      "▁okulda": 799,
      ".28": 800,
      "▁okudum": 801,
      "▁yılını": 802,
      "▁tasıt": 803,
      "aturk": 804,
      "▁5'te": 805,
      "misler": 806,
      "emde": 807,
      "lılıgını": 808,
      "▁talebi": 809,
      "▁john": 810,
      "▁bitim": 811,
      "stit": 812,
      "▁bayıl": 813,
      "amadim": 814,
      "▁esi": 815,
      "▁baslarına": 816,
      "organ": 817,
      ".68": 818,
      "▁gecirecek": 819,
      "onik": 820,
      "▁sayesinde": 821,
      "▁cevresinde": 822,
      "▁2010": 823,
      "▁tazmin": 824,
      "▁balon": 825,
      "▁dinlemek": 826,
      "▁sıralar": 827,
      "ılmıs": 828,
      "iyel": 829,
      "▁macı": 830,
      "▁odası": 831,
      "▁saatlerini": 832,
      "▁bilgisayarlar": 833,
      "malık": 834,
      "▁uzmanları": 835,
      "▁inanıyor": 836,
      "▁pitt": 837,
      "▁listesine": 838,
      "▁vadi": 839,
      "ada": 840,
      "▁girisimi": 841,
      "82": 842,
      "▁bulunmus": 843,
      "▁cah": 844,
      "▁hepsini": 845,
      "gen": 846,
      "est": 847,
      ".46": 848,
      "▁menek": 849,
      "eye": 850,
      "▁alacagım": 851,
      "▁bakanı": 852,
      "▁hucum": 853,
      "esi'ne": 854,
      "▁daml": 855,
      "tir": 856,
      "siy": 857,
      "▁mah": 858,
      "▁gercegi": 859,
      "▁am": 860,
      "▁dusunceler": 861,
      "▁bogaz": 862,
      "▁kayıtları": 863,
      "▁muzak": 864,
      "▁imalat": 865,
      "▁alman": 866,
      "▁yuregi": 867,
      "to": 868,
      "ental": 869,
      "▁universitesi": 870,
      "▁ur": 871,
      "▁cıkmıs": 872,
      "▁parc": 873,
      "▁mutemadiyen": 874,
      "▁yeni": 875,
      "lıgına": 876,
      "30'da": 877,
      "esidir": 878,
      "amadım": 879,
      "▁yatırımcılar": 880,
      "▁mintan": 881,
      "▁partiler": 882,
      "▁yapabil": 883,
      "▁seyin": 884,
      "▁genclerin": 885,
      "▁kızgın": 886,
      "wn": 887,
      "elikle": 888,
      "endir": 889,
      "▁kaldıgını": 890,
      "▁8.32": 891,
      "▁80": 892,
      "▁count": 893,
      "▁alab": 894,
      "▁toparlan": 895,
      "▁koyde": 896,
      "▁bagımlılık": 897,
      "▁15.375": 898,
      "▁whit": 899,
      "▁elim": 900,
      "agon": 901,
      "ru": 902,
      "lım": 903,
      "▁gucunu": 904,
      "▁yıgın": 905,
      "▁mac": 906,
      "▁oynat": 907,
      "▁yeteri": 908,
      "ola": 909,
      "ınızın": 910,
      "▁mak": 911,
      "▁nis": 912,
      "▁islet": 913,
      "▁goster": 914,
      "▁dalga": 915,
      "▁insanlarla": 916,
      "▁suyunu": 917,
      "▁haiz": 918,
      "▁pir": 919,
      "mayı": 920,
      "manın": 921,
      "▁kriz": 922,
      "▁1980'": 923,
      "▁topunuz": 924,
      "▁cıkabilir": 925,
      "▁koms": 926,
      "▁istik": 927,
      "▁olusan": 928,
      "▁ma": 929,
      "digimi": 930,
      "▁dolasıp": 931,
      "▁296": 932,
      "▁fazlaydi": 933,
      "▁kentin": 934,
      "▁seniz": 935,
      "▁ulus": 936,
      "▁sis": 937,
      "▁bart": 938,
      "▁deprem": 939,
      "▁avuk": 940,
      "▁kokain": 941,
      "▁ton": 942,
      "▁degistirmek": 943,
      "▁dunyadaki": 944,
      "izma": 945,
      "▁istedi": 946,
      "▁olma": 947,
      "▁kuzey": 948,
      "di": 949,
      "▁kul": 950,
      "urlar": 951,
      "▁topladı": 952,
      "▁sotheb": 953,
      "▁109.85": 954,
      "▁teması": 955,
      "▁fab": 956,
      "▁planlanan": 957,
      "▁gunluk": 958,
      "▁1.25": 959,
      "▁firmasının": 960,
      "lerini": 961,
      "▁caresiz": 962,
      "▁iade": 963,
      "▁kl": 964,
      ".6": 965,
      "ugu": 966,
      "▁br": 967,
      "▁paral": 968,
      "▁ictik": 969,
      "tein": 970,
      "▁dolastır": 971,
      "▁mubar": 972,
      "▁anti": 973,
      "▁cevresel": 974,
      "▁telefonu": 975,
      "▁motiv": 976,
      "▁pat": 977,
      "▁haziran'da": 978,
      "▁kredisi": 979,
      "▁cicegi": 980,
      "▁ev": 981,
      "▁zamandan": 982,
      "▁cin": 983,
      "b.": 984,
      "▁katında": 985,
      "▁agustos'ta": 986,
      "▁yazlık": 987,
      "lılar": 988,
      "▁donen": 989,
      "▁fakultesi": 990,
      "elerek": 991,
      "▁dondu": 992,
      "lukla": 993,
      "att": 994,
      "eber": 995,
      "▁`": 996,
      "▁fis": 997,
      "▁gecmez": 998,
      "▁dusus": 999,
      "▁dul": 1000,
      "▁cekistir": 1001,
      "▁fot": 1002,
      "▁seher": 1003,
      "▁gruba": 1004,
      "▁kon": 1005,
      "▁sallayarak": 1006,
      "▁gork": 1007,
      "▁yeterli": 1008,
      "teki": 1009,
      "cakt": 1010,
      "▁tarihe": 1011,
      "▁acıklaması": 1012,
      "8.6": 1013,
      "ader": 1014,
      "baskan": 1015,
      "iha": 1016,
      "▁bagırıyordu": 1017,
      "▁davranıs": 1018,
      "▁uzattı": 1019,
      "25": 1020,
      "▁koymus": 1021,
      "▁2008": 1022,
      "▁olmasın": 1023,
      "▁mukad": 1024,
      "▁pasifik": 1025,
      "▁tıkır": 1026,
      "▁toplantısında": 1027,
      "▁ulastır": 1028,
      "▁takdir": 1029,
      "▁utu": 1030,
      "▁kemik": 1031,
      "▁anlatmaya": 1032,
      "▁cıl": 1033,
      "▁acıkca": 1034,
      "▁78": 1035,
      "▁224070000": 1036,
      "cular": 1037,
      "▁calısıyorlar": 1038,
      "▁%99": 1039,
      "dıgında": 1040,
      "▁fren": 1041,
      "▁gubre": 1042,
      "▁od": 1043,
      "▁piyan": 1044,
      "ew": 1045,
      "▁noriega": 1046,
      "▁savası": 1047,
      "▁gaz": 1048,
      "▁bolgede": 1049,
      "▁kemer": 1050,
      "▁biliyorsun": 1051,
      "▁binanın": 1052,
      "▁dama": 1053,
      "▁pacific": 1054,
      "▁inkar": 1055,
      "▁gosterebilir": 1056,
      "▁kepenk": 1057,
      "▁akla": 1058,
      "▁bakalım": 1059,
      "▁tok": 1060,
      "▁ap": 1061,
      "▁kıyas": 1062,
      "lenir": 1063,
      "▁gov": 1064,
      "▁ilkel": 1065,
      "▁ihtim": 1066,
      "▁felsefe": 1067,
      "sev": 1068,
      "▁kadınların": 1069,
      "▁tevfik": 1070,
      "▁40.1": 1071,
      "▁goruldu": 1072,
      "▁parayla": 1073,
      "▁romanı": 1074,
      "▁kole": 1075,
      "▁bakılırsa": 1076,
      "▁tasımacılıgı": 1077,
      "vermis": 1078,
      "▁izledi": 1079,
      "▁mum": 1080,
      "▁kendime": 1081,
      "digin": 1082,
      "▁3.8": 1083,
      "▁varol": 1084,
      "▁hır": 1085,
      "▁etmesine": 1086,
      "▁budur": 1087,
      "▁kullanabil": 1088,
      "▁ayının": 1089,
      "▁yanık": 1090,
      "6.7": 1091,
      "▁brit": 1092,
      "▁tokyo": 1093,
      "▁sozles": 1094,
      "▁aaa": 1095,
      "▁kun": 1096,
      "▁odaydi": 1097,
      "▁kredi": 1098,
      "▁akıl": 1099,
      "▁mutem": 1100,
      "▁meselesi": 1101,
      "▁0.95": 1102,
      "▁miydim": 1103,
      "▁cek": 1104,
      "▁cisim": 1105,
      "▁soylen": 1106,
      "▁davanın": 1107,
      "kaz": 1108,
      "▁ler": 1109,
      "▁vasıt": 1110,
      "▁yuzyıl": 1111,
      "ilm": 1112,
      "▁49": 1113,
      "▁283.8": 1114,
      "▁tuccar": 1115,
      "▁bereket": 1116,
      "▁dinler": 1117,
      "isindan": 1118,
      "rını": 1119,
      "▁1989-": 1120,
      "▁desteklemek": 1121,
      "▁gidis": 1122,
      "▁nisan": 1123,
      "▁tasfiye": 1124,
      "▁zul": 1125,
      "kiz": 1126,
      "▁merrill": 1127,
      "▁baktıg": 1128,
      "▁cıkmasına": 1129,
      "acagınız": 1130,
      "▁%5.4": 1131,
      "▁boylece": 1132,
      "▁fac": 1133,
      "▁durusma": 1134,
      "▁lık": 1135,
      "▁soyluyorlar": 1136,
      "▁isareti": 1137,
      "▁dum": 1138,
      "▁kapanmıs": 1139,
      "▁hisselerini": 1140,
      "▁faturamin": 1141,
      "larin": 1142,
      "pal": 1143,
      "▁igren": 1144,
      "▁tarafın": 1145,
      "▁onsekiz": 1146,
      "▁tahmin": 1147,
      "▁geldiler": 1148,
      "▁gecirdim": 1149,
      "▁usx": 1150,
      "meliyim": 1151,
      "▁142": 1152,
      "▁fincan": 1153,
      "▁ymis": 1154,
      "▁kırıklıgına": 1155,
      "▁uclu": 1156,
      "▁veremem": 1157,
      "▁sordum": 1158,
      "ılmaz": 1159,
      "▁engelken": 1160,
      "▁mr.": 1161,
      "▁diniz": 1162,
      "▁american": 1163,
      "▁salt": 1164,
      "▁sureli": 1165,
      "▁700": 1166,
      "▁faaliyete": 1167,
      "▁zel": 1168,
      "ogret": 1169,
      "▁206": 1170,
      "▁c.": 1171,
      "▁kuk": 1172,
      "▁yoksun": 1173,
      "▁kopr": 1174,
      "eme": 1175,
      "ızı": 1176,
      "▁kirliydi": 1177,
      "▁birisini": 1178,
      "▁seref": 1179,
      "▁3640": 1180,
      "▁rekor": 1181,
      "seniz": 1182,
      "▁pros": 1183,
      "▁ua": 1184,
      "▁mallar": 1185,
      "▁mantar": 1186,
      "▁miyiz": 1187,
      "▁cıkmaz": 1188,
      "▁calar": 1189,
      "▁gorduk": 1190,
      "▁altından": 1191,
      "tısını": 1192,
      "▁paribas": 1193,
      "duklarını": 1194,
      "▁nashville": 1195,
      "▁cog": 1196,
      "▁alıs": 1197,
      "tık": 1198,
      "▁tip": 1199,
      "▁hızla": 1200,
      "▁kubb": 1201,
      "▁yasıyor": 1202,
      "iyorlardi": 1203,
      "▁2.7": 1204,
      "▁yasıyoruz": 1205,
      "inson": 1206,
      "▁binlerce": 1207,
      "yak": 1208,
      "leyip": 1209,
      "alandır": 1210,
      "▁zey": 1211,
      "lunun": 1212,
      "▁gon": 1213,
      "digini": 1214,
      "▁merkezinden": 1215,
      "▁dede": 1216,
      "▁sirin": 1217,
      "▁75000": 1218,
      "▁keder": 1219,
      "▁sahiptir": 1220,
      "▁hazırlanıyor": 1221,
      "f": 1222,
      "▁cesitleri": 1223,
      "▁erkegi": 1224,
      "▁dusmanca": 1225,
      "edik": 1226,
      "▁koken": 1227,
      "igh": 1228,
      "berg": 1229,
      "▁gecersiz": 1230,
      "▁ucuncu": 1231,
      "▁onemli": 1232,
      "▁kollarını": 1233,
      "yle": 1234,
      "▁kimi": 1235,
      "ebilirler": 1236,
      "▁ornegin": 1237,
      "▁yandan": 1238,
      "encer": 1239,
      "▁dogr": 1240,
      "▁daima": 1241,
      "▁dieg": 1242,
      "▁sad": 1243,
      "▁isim": 1244,
      "▁ucumuz": 1245,
      "▁ilgilenmedi": 1246,
      "▁mi": 1247,
      "▁degist": 1248,
      "▁aynada": 1249,
      "▁kasab": 1250,
      "▁dinlenmek": 1251,
      "▁ruh": 1252,
      "gılan": 1253,
      "▁boyle": 1254,
      "▁bık": 1255,
      "▁yakinlarima": 1256,
      "▁oakland'a": 1257,
      "▁ardından": 1258,
      "▁dib": 1259,
      "amalar": 1260,
      "▁oynar": 1261,
      "▁uz": 1262,
      "▁hij": 1263,
      "▁kontrolunu": 1264,
      "▁billur": 1265,
      "▁ilerlem": 1266,
      "▁nag": 1267,
      "siniz": 1268,
      "▁olmaktan": 1269,
      "▁cıktı": 1270,
      "ulugu": 1271,
      "▁hazret": 1272,
      "▁neyin": 1273,
      "▁gerekecek": 1274,
      "▁cel": 1275,
      "▁belle": 1276,
      "▁oldugun": 1277,
      "▁suresince": 1278,
      "obal": 1279,
      "▁hayvanlar": 1280,
      "ran": 1281,
      "lendirmek": 1282,
      "▁savun": 1283,
      "▁hakk": 1284,
      "▁balik": 1285,
      "▁tarzı": 1286,
      "asi": 1287,
      "▁suresi": 1288,
      "▁bicimde": 1289,
      "▁kıyısında": 1290,
      "▁kadir": 1291,
      "▁francisco'da": 1292,
      "▁tertemiz": 1293,
      "▁kalabalikti": 1294,
      "irleri": 1295,
      "▁tetik": 1296,
      "▁protokol": 1297,
      "▁almanya": 1298,
      "|": 1299,
      "▁muzigi": 1300,
      "▁nerede": 1301,
      "▁isimler": 1302,
      "▁1.18": 1303,
      "▁kasık": 1304,
      "▁baskent": 1305,
      "▁bardagı": 1306,
      "▁tehdit": 1307,
      "lıydı": 1308,
      "lanarak": 1309,
      "▁getirin": 1310,
      "▁baslayacagını": 1311,
      "▁ulkemiz": 1312,
      "▁olmayacagını": 1313,
      "▁cumhuriyeti": 1314,
      "▁soyleyecek": 1315,
      "▁yayım": 1316,
      "▁pisirin": 1317,
      "▁7.4": 1318,
      "▁ilgisizdi": 1319,
      "▁faydalı": 1320,
      "▁planlarını": 1321,
      "▁oldugumuz": 1322,
      "▁tanım": 1323,
      "distan": 1324,
      "▁sanıyorum": 1325,
      "▁atı": 1326,
      "▁muayene": 1327,
      "lıklarını": 1328,
      "▁hızı": 1329,
      "▁hararet": 1330,
      "▁beyi": 1331,
      "26": 1332,
      "▁bilez": 1333,
      "▁maas": 1334,
      "▁mahmut": 1335,
      "dası": 1336,
      "kan": 1337,
      "▁ekmek": 1338,
      "▁basın": 1339,
      "▁bod": 1340,
      "▁gununden": 1341,
      "▁surucu": 1342,
      "▁karamsar": 1343,
      "usa": 1344,
      "▁donemi": 1345,
      "▁payı": 1346,
      "▁oteli": 1347,
      "▁persembe": 1348,
      "▁kaldı": 1349,
      "osuna": 1350,
      "▁galatasaray": 1351,
      "▁freddie": 1352,
      "▁gostermis": 1353,
      "▁doktorun": 1354,
      "▁sadece": 1355,
      "▁yukselen": 1356,
      "▁dusunul": 1357,
      "i": 1358,
      "▁satısı": 1359,
      "▁lezzetsizdi": 1360,
      "▁resour": 1361,
      "inc": 1362,
      "▁yiy": 1363,
      "▁orgutu": 1364,
      "▁diyarbakır": 1365,
      "▁yemekleri": 1366,
      "▁sırada": 1367,
      "▁odami": 1368,
      "▁sahs": 1369,
      "▁derli": 1370,
      "▁pound": 1371,
      "▁eline": 1372,
      "▁sekreter": 1373,
      "▁ikibindort": 1374,
      "▁louis'ten": 1375,
      "sim": 1376,
      "▁bog": 1377,
      "▁piyasa": 1378,
      "▁catlak": 1379,
      "▁ozg": 1380,
      "▁kok": 1381,
      "▁yakal": 1382,
      "▁ını": 1383,
      "▁kahv": 1384,
      "▁aynı": 1385,
      "oker": 1386,
      "▁girince": 1387,
      "▁a.": 1388,
      "▁edince": 1389,
      "▁yemen": 1390,
      "ocu": 1391,
      "▁odasında": 1392,
      "▁avrupa": 1393,
      "▁edebiyat": 1394,
      "ıfır": 1395,
      "▁katildim": 1396,
      "▁milyarlar": 1397,
      "ılmasına": 1398,
      "▁basında": 1399,
      "tia": 1400,
      "▁brooks": 1401,
      "▁volkan": 1402,
      "▁hadis": 1403,
      "▁okurken": 1404,
      "6.5": 1405,
      "▁gazetesi": 1406,
      "▁kaydeden": 1407,
      "▁uzlas": 1408,
      "olu": 1409,
      "▁topar": 1410,
      "▁doktu": 1411,
      "▁dirsek": 1412,
      "▁sonlan": 1413,
      "▁fiili": 1414,
      "▁urper": 1415,
      "▁tamamlanması": 1416,
      "maların": 1417,
      "▁ozellik": 1418,
      "▁05.": 1419,
      "dıgına": 1420,
      "▁mektub": 1421,
      "▁tom": 1422,
      "eman": 1423,
      "▁sokakta": 1424,
      "▁kuyum": 1425,
      "▁vez": 1426,
      "▁1000": 1427,
      "▁tor": 1428,
      "▁ilet": 1429,
      "▁keb": 1430,
      "▁36": 1431,
      "▁evinden": 1432,
      "▁hic": 1433,
      "▁yetistir": 1434,
      "▁kisisel": 1435,
      "▁onlarda": 1436,
      "▁750": 1437,
      "▁olmamakla": 1438,
      "▁ecevit": 1439,
      "▁tık": 1440,
      "▁evimiz": 1441,
      "▁ailece": 1442,
      "▁gozlerle": 1443,
      "▁fonu": 1444,
      "▁alanı": 1445,
      "▁destan": 1446,
      "onel": 1447,
      "▁gecer": 1448,
      "▁dısında": 1449,
      "▁itiraf": 1450,
      "▁25.96": 1451,
      "▁yurtdi": 1452,
      "▁islam": 1453,
      "▁hip": 1454,
      "▁associ": 1455,
      "sunuz": 1456,
      "▁sabahleyin": 1457,
      "▁engellemek": 1458,
      "▁gecmiyor": 1459,
      "ic": 1460,
      "0.33": 1461,
      "▁sureligine": 1462,
      "▁yay": 1463,
      "za": 1464,
      "cok": 1465,
      "▁kompoz": 1466,
      "▁onar": 1467,
      "▁ulu": 1468,
      "▁527.39": 1469,
      "▁moskova": 1470,
      "▁dolayı": 1471,
      "▁yazının": 1472,
      "▁mobilyalar": 1473,
      "▁konusmasını": 1474,
      "▁halkı": 1475,
      "▁ucusun": 1476,
      "▁1.29": 1477,
      "▁gonder": 1478,
      ";": 1479,
      "▁istikrar": 1480,
      "▁tarihte": 1481,
      "ki": 1482,
      "▁19.51": 1483,
      "▁temiz": 1484,
      "allı": 1485,
      "▁lik": 1486,
      "▁gunumuzde": 1487,
      "▁ipotege": 1488,
      "▁icer": 1489,
      "▁etmektedir": 1490,
      "▁15000": 1491,
      "▁denen": 1492,
      "▁1930": 1493,
      "▁dusunmek": 1494,
      "▁miydi": 1495,
      "▁satıcılar": 1496,
      "▁ile": 1497,
      "amanın": 1498,
      "asmıs": 1499,
      "▁40000": 1500,
      "▁tehlik": 1501,
      "ydım": 1502,
      "▁birbucuk": 1503,
      "▁iskence": 1504,
      "▁sekil": 1505,
      "▁neh": 1506,
      "▁kala": 1507,
      "anet": 1508,
      "▁chan": 1509,
      "cısı": 1510,
      "este": 1511,
      "uklu": 1512,
      "▁kazandır": 1513,
      "▁ter": 1514,
      "▁anlamıs": 1515,
      "▁kategor": 1516,
      "▁ph": 1517,
      "▁kata": 1518,
      "▁curuk": 1519,
      "▁dukkanı": 1520,
      "▁aldıgım": 1521,
      "agının": 1522,
      "▁boyn": 1523,
      "▁sonundan": 1524,
      "si": 1525,
      "▁degistir": 1526,
      "▁gorunce": 1527,
      "▁baslayacak": 1528,
      "▁bilet": 1529,
      "▁mens": 1530,
      "▁girip": 1531,
      "▁eag": 1532,
      "▁namus": 1533,
      "▁secer": 1534,
      "ield": 1535,
      "ilmez": 1536,
      "▁pan": 1537,
      "mey": 1538,
      "▁incelem": 1539,
      "▁gas": 1540,
      "▁istemez": 1541,
      "▁yabancilara": 1542,
      "▁gecirme": 1543,
      "mazdı": 1544,
      "▁tavsiy": 1545,
      "ilip": 1546,
      "▁zamankinden": 1547,
      "▁cıkarmadan": 1548,
      "▁puan": 1549,
      "▁biles": 1550,
      "▁ayakk": 1551,
      "▁hukumeti": 1552,
      "▁ilim": 1553,
      "▁meyv": 1554,
      "asının": 1555,
      "▁tayyip": 1556,
      "laya": 1557,
      "bas": 1558,
      "▁sayisi": 1559,
      "▁ka": 1560,
      "▁acıdan": 1561,
      "▁unsuru": 1562,
      "▁kop": 1563,
      "e": 1564,
      "▁kısmı": 1565,
      "▁30.": 1566,
      "▁erkekleri": 1567,
      "▁gittikce": 1568,
      "▁cikiyordu": 1569,
      "abilirdi": 1570,
      "▁yuzden": 1571,
      "ret": 1572,
      "▁gorev": 1573,
      "▁'d": 1574,
      "eff": 1575,
      "▁eagle": 1576,
      "▁alatur": 1577,
      "▁sual": 1578,
      "▁baykal": 1579,
      "▁amacı": 1580,
      "▁burus": 1581,
      "▁siyasi": 1582,
      "▁surat": 1583,
      "▁ayakları": 1584,
      "▁ydik": 1585,
      "▁yap": 1586,
      "amayacagını": 1587,
      "▁topluma": 1588,
      "▁degillerdi": 1589,
      "▁cocuklu": 1590,
      "arken": 1591,
      "▁anlatıyor": 1592,
      "▁ilginc": 1593,
      "▁istedik": 1594,
      "▁odulu": 1595,
      "▁ucusla": 1596,
      "▁kitap": 1597,
      "▁alırdı": 1598,
      "▁soyler": 1599,
      "▁basvuru": 1600,
      "icinin": 1601,
      "▁vek": 1602,
      "▁onyedi.": 1603,
      "▁geldim": 1604,
      "▁oh": 1605,
      "▁hadi": 1606,
      "▁eminim": 1607,
      "▁tep": 1608,
      "▁ince": 1609,
      "▁anlıslanabilirlik": 1610,
      "▁ortacag": 1611,
      "▁hulya": 1612,
      "kal": 1613,
      "an": 1614,
      "dog": 1615,
      "▁atlet": 1616,
      "▁mukellef": 1617,
      "▁otede": 1618,
      "▁surer": 1619,
      "hin": 1620,
      "▁binmis": 1621,
      "▁drexel": 1622,
      "▁bolgenin": 1623,
      "▁masasında": 1624,
      "emizde": 1625,
      "▁gecmek": 1626,
      "▁wcr": 1627,
      "▁mim": 1628,
      "7.9": 1629,
      "▁baglan": 1630,
      "▁268": 1631,
      "▁islerini": 1632,
      "▁anadolu'da": 1633,
      "▁sarf": 1634,
      "▁makin": 1635,
      "▁ekonomisi": 1636,
      "▁kosa": 1637,
      "▁ucusların": 1638,
      "a'da": 1639,
      "▁busbutun": 1640,
      "▁olmuyor": 1641,
      "▁ikinc": 1642,
      "▁oturuyordu": 1643,
      "▁tasarru": 1644,
      "▁carolina": 1645,
      "▁inc": 1646,
      "▁kızını": 1647,
      "tigini": 1648,
      "▁ogretmen": 1649,
      "'su": 1650,
      "fez": 1651,
      "▁ahmet": 1652,
      "tının": 1653,
      "▁muttefik": 1654,
      "▁kardesinin": 1655,
      "ıyla": 1656,
      "ee": 1657,
      "nie": 1658,
      "aman": 1659,
      "▁anda": 1660,
      "▁alcal": 1661,
      "▁yakında": 1662,
      "▁vaka": 1663,
      "▁kam": 1664,
      "▁tek": 1665,
      "▁diyerek": 1666,
      "▁benzet": 1667,
      "▁miydin": 1668,
      "▁bahis": 1669,
      "▁hizmet": 1670,
      "▁her": 1671,
      "▁yazılı": 1672,
      "▁karton": 1673,
      "▁oranının": 1674,
      "▁istegi": 1675,
      "vir": 1676,
      "▁kullanıldı": 1677,
      "▁zemin": 1678,
      "▁alım-sat": 1679,
      "▁itibari": 1680,
      "▁otesi": 1681,
      "▁kalıp": 1682,
      "biy": 1683,
      "▁tev": 1684,
      "▁ikincisi": 1685,
      "▁kursu": 1686,
      "siyon": 1687,
      "ter": 1688,
      "▁hatta": 1689,
      "▁sehri": 1690,
      "▁'y": 1691,
      "▁siv": 1692,
      "▁detroit": 1693,
      "▁guber": 1694,
      "▁%17": 1695,
      "▁kesip": 1696,
      "▁.7": 1697,
      "▁bagı": 1698,
      "▁konusmak": 1699,
      "macı": 1700,
      "▁kuslar": 1701,
      "▁continental": 1702,
      "▁ettim": 1703,
      "▁tak": 1704,
      "▁telefonla": 1705,
      "▁agrı": 1706,
      "▁ber": 1707,
      "ukee": 1708,
      "gmen": 1709,
      "delen": 1710,
      "▁ex": 1711,
      "▁sukun": 1712,
      "ecek": 1713,
      "▁gayret": 1714,
      ".22": 1715,
      "gis": 1716,
      "▁maden": 1717,
      "pus": 1718,
      "▁kez": 1719,
      "▁senet": 1720,
      "▁rit": 1721,
      "▁louis": 1722,
      "▁yanı": 1723,
      "ler'in": 1724,
      "▁vb": 1725,
      "9.3": 1726,
      "▁dolduracagim": 1727,
      "▁yut": 1728,
      "▁odunc": 1729,
      "asyonu": 1730,
      "▁mucadele": 1731,
      "▁nar": 1732,
      "▁gogsun": 1733,
      "▁fokur": 1734,
      "▁baslangıc": 1735,
      "inaden": 1736,
      "▁okur": 1737,
      "▁komun": 1738,
      "▁cocuklarının": 1739,
      "▁istiyordu": 1740,
      "ark": 1741,
      "▁rakipler": 1742,
      "▁yardım": 1743,
      "▁karsiligi": 1744,
      "▁fed": 1745,
      "▁bogazici": 1746,
      "▁etmek": 1747,
      "▁teseb": 1748,
      "ıyoruz": 1749,
      "▁bilimin": 1750,
      "eveyn": 1751,
      "▁hosuma": 1752,
      "ich": 1753,
      "▁okula": 1754,
      "▁zarf": 1755,
      "▁likidi": 1756,
      "kin": 1757,
      "▁kayg": 1758,
      "▁kadın": 1759,
      "mez": 1760,
      "▁atar": 1761,
      "▁kemal": 1762,
      "▁kuralları": 1763,
      ".66": 1764,
      "iza": 1765,
      "▁rıhtım": 1766,
      "▁cad": 1767,
      "▁antal": 1768,
      "▁ailesini": 1769,
      "▁cra": 1770,
      "sil": 1771,
      "▁acem": 1772,
      "▁cim": 1773,
      "▁39.55": 1774,
      "66": 1775,
      "diklerini": 1776,
      "▁verileri": 1777,
      "▁cizgi": 1778,
      "▁karsısın": 1779,
      "▁cogundan": 1780,
      "▁gorustuk": 1781,
      "▁1.875": 1782,
      "▁karmak": 1783,
      "▁mesin": 1784,
      "▁yagm": 1785,
      "▁yoluyla": 1786,
      "▁marj": 1787,
      "▁serp": 1788,
      "▁soyledik": 1789,
      "s'in": 1790,
      "▁temizdi": 1791,
      "▁ankara'ya": 1792,
      "▁kendisin": 1793,
      "▁bankaları": 1794,
      "▁1991-19": 1795,
      "oll": 1796,
      "▁muhtac": 1797,
      "▁kisiden": 1798,
      "▁cıkardık": 1799,
      "tigi": 1800,
      "▁taks": 1801,
      "▁dı": 1802,
      "▁dev": 1803,
      "▁kampanyası": 1804,
      "▁kalıcı": 1805,
      "▁uzan": 1806,
      "▁gecerek": 1807,
      "dirdi": 1808,
      "▁agac": 1809,
      "▁herkese": 1810,
      "▁gayri": 1811,
      "'ne": 1812,
      "kuz": 1813,
      "▁gormek": 1814,
      "▁pazar": 1815,
      "▁perdeleri": 1816,
      "▁nere": 1817,
      "▁philip": 1818,
      "▁kavram": 1819,
      "re": 1820,
      "▁angel": 1821,
      "▁net": 1822,
      "▁det": 1823,
      "▁cadır": 1824,
      "▁gelgelelim": 1825,
      "▁hicbir": 1826,
      "▁kosar": 1827,
      "▁oluyorum": 1828,
      "▁edecektir": 1829,
      "▁al": 1830,
      "▁somut": 1831,
      "▁sız": 1832,
      "▁koyun": 1833,
      "▁aldıgımız": 1834,
      "ayip": 1835,
      "▁dusmus": 1836,
      "▁kons": 1837,
      "▁niye": 1838,
      "▁serkan": 1839,
      "▁191": 1840,
      "▁ozellikle": 1841,
      "▁istasyon": 1842,
      "▁1.52": 1843,
      "rah": 1844,
      "olf": 1845,
      "▁islerine": 1846,
      "▁traf": 1847,
      "▁fasulyesi": 1848,
      "▁sarhos": 1849,
      "▁mahkeme": 1850,
      "▁nadiren": 1851,
      "▁pozisyon": 1852,
      "saltı": 1853,
      "yum": 1854,
      "▁aksam": 1855,
      "▁daire": 1856,
      "antep": 1857,
      "igini": 1858,
      ".33": 1859,
      "esinden": 1860,
      "▁birlestir": 1861,
      "▁belirterek": 1862,
      "▁mıyız": 1863,
      "essus": 1864,
      "▁kumsali": 1865,
      "▁ise": 1866,
      "▁yabanci": 1867,
      "▁torp": 1868,
      "▁paranin": 1869,
      "▁muhafaz": 1870,
      "las": 1871,
      "▁sonucu": 1872,
      "▁pers": 1873,
      "caktır": 1874,
      "▁francisco'ya": 1875,
      "▁bufe": 1876,
      "▁tos": 1877,
      "▁cekici": 1878,
      "cayı": 1879,
      "▁cevabı": 1880,
      "▁satımı": 1881,
      "▁mevdu": 1882,
      "▁geriye": 1883,
      "ebilecegini": 1884,
      "▁alcak": 1885,
      "▁mesele": 1886,
      "▁surec": 1887,
      "▁kendimde": 1888,
      "lanmaya": 1889,
      "ist": 1890,
      "ogramı": 1891,
      "▁tolga": 1892,
      "fi": 1893,
      "▁piyasadaki": 1894,
      "▁isra": 1895,
      "▁yasadik": 1896,
      "▁448": 1897,
      "lıyordu": 1898,
      "▁doksaniki": 1899,
      "▁saygın": 1900,
      "okr": 1901,
      "▁yansıtıyor": 1902,
      "▁kendileriyle": 1903,
      "▁giderek": 1904,
      "▁nesnel": 1905,
      "▁ilhan": 1906,
      "▁yanıt": 1907,
      "▁marks": 1908,
      "▁tahta": 1909,
      "▁ruy": 1910,
      "▁maalesef": 1911,
      "46": 1912,
      "▁donup": 1913,
      "▁tavrı": 1914,
      "▁''": 1915,
      "▁zararlı": 1916,
      "uydu": 1917,
      "▁ucretine": 1918,
      "▁efendim": 1919,
      "▁uzerinden": 1920,
      "▁41": 1921,
      "suz": 1922,
      "▁harman": 1923,
      "▁cayı": 1924,
      "▁filmin": 1925,
      "▁biliyorum": 1926,
      "▁cizg": 1927,
      "lk": 1928,
      "▁birkac": 1929,
      "▁tutam": 1930,
      "▁bisik": 1931,
      "▁cıktıgı": 1932,
      "cuya": 1933,
      "▁david": 1934,
      "▁verdi": 1935,
      "▁pom": 1936,
      "▁olabilecegini": 1937,
      "agın": 1938,
      "▁and": 1939,
      "▁isters": 1940,
      "▁gelmek": 1941,
      "▁ek": 1942,
      "ester": 1943,
      "ehir": 1944,
      "atın": 1945,
      "▁yasa": 1946,
      "▁polit": 1947,
      "▁gelis": 1948,
      "▁88": 1949,
      "▁hart": 1950,
      "▁war": 1951,
      "▁soylemis": 1952,
      "▁9.1": 1953,
      "▁olayların": 1954,
      "▁paul": 1955,
      "-a": 1956,
      "▁ayrılıp": 1957,
      "ng": 1958,
      "aktan": 1959,
      "▁guler": 1960,
      "▁yas": 1961,
      "paz": 1962,
      "▁1988'de": 1963,
      "▁hitap": 1964,
      "▁yurut": 1965,
      "▁ucundan": 1966,
      "▁odedi": 1967,
      "abında": 1968,
      "▁kıyafet": 1969,
      "▁bm": 1970,
      "▁yıllarında": 1971,
      "ilmistir": 1972,
      "gimi": 1973,
      "▁aer": 1974,
      "▁bulam": 1975,
      "▁allah'a": 1976,
      "▁deli": 1977,
      "▁alındı": 1978,
      "▁mevz": 1979,
      "▁raki": 1980,
      "▁yuruyordu": 1981,
      ".88": 1982,
      "ab": 1983,
      "▁tekrar": 1984,
      "esi": 1985,
      "▁moral": 1986,
      "▁ysan": 1987,
      "▁hemsir": 1988,
      "uler": 1989,
      "▁houston": 1990,
      "8.4": 1991,
      "▁keyf": 1992,
      "emedigi": 1993,
      "▁ondan": 1994,
      "▁dong": 1995,
      "▁nasıl": 1996,
      "▁mahluk": 1997,
      "▁abd'li": 1998,
      "▁duyan": 1999,
      "munications": 2000,
      "▁westchester": 2001,
      "▁kusat": 2002,
      "▁yırt": 2003,
      "▁yaman": 2004,
      "▁bankacılar": 2005,
      "lass": 2006,
      "icileri": 2007,
      "▁nikah": 2008,
      "▁peyniri": 2009,
      "all": 2010,
      "▁egri": 2011,
      "▁alınması": 2012,
      "▁panik": 2013,
      "▁tarafından": 2014,
      "▁finanse": 2015,
      "▁sogan": 2016,
      "▁ayıp": 2017,
      "▁dengeli": 2018,
      "▁orgu": 2019,
      "landı": 2020,
      "inal": 2021,
      "og": 2022,
      "memistir": 2023,
      "▁suradan": 2024,
      "▁incir": 2025,
      "▁okuldan": 2026,
      "▁cakır": 2027,
      "6'ya": 2028,
      "▁acıyordu": 2029,
      "▁ciftlik": 2030,
      "▁kongr": 2031,
      "▁dusunmuyor": 2032,
      "▁ablam": 2033,
      "uf": 2034,
      "▁kactı": 2035,
      "anci": 2036,
      "▁satısın": 2037,
      "▁ogrendi": 2038,
      "▁ragmen": 2039,
      "▁nezaret": 2040,
      "▁sıh": 2041,
      "▁str": 2042,
      "▁chase": 2043,
      "▁world": 2044,
      "▁getirileri": 2045,
      "▁birimizin": 2046,
      "▁doldurdum": 2047,
      "▁geril": 2048,
      "▁kab": 2049,
      "▁karsıl": 2050,
      "▁taslar": 2051,
      "▁cocugum": 2052,
      "▁yerler": 2053,
      "▁kaldıgı": 2054,
      "▁sirk": 2055,
      "▁biraz": 2056,
      "muyor": 2057,
      "▁ilisk": 2058,
      "▁bulgur": 2059,
      "▁gelisi": 2060,
      "▁kıy": 2061,
      "uh": 2062,
      "tex": 2063,
      "▁balıgı": 2064,
      "gil": 2065,
      "tali": 2066,
      "eet": 2067,
      "▁yt": 2068,
      "memektedir": 2069,
      "▁satmayı": 2070,
      "▁rej": 2071,
      "▁katkıda": 2072,
      "▁suren": 2073,
      "▁orn": 2074,
      "▁cekiyordu": 2075,
      "▁1999": 2076,
      "▁mart'ta": 2077,
      "sika": 2078,
      "omu": 2079,
      "▁kıyamet": 2080,
      "▁6": 2081,
      "▁merkezli": 2082,
      "biye": 2083,
      "▁siddetle": 2084,
      "▁lubnan": 2085,
      "▁balıkcı": 2086,
      "▁elif": 2087,
      "▁edemez": 2088,
      "▁verilmis": 2089,
      "▁yukumluluk": 2090,
      "▁best": 2091,
      "▁kenarına": 2092,
      "tıkca": 2093,
      "sizce": 2094,
      "▁parcası": 2095,
      "▁hes": 2096,
      "▁arizona": 2097,
      "lattı": 2098,
      "gunun": 2099,
      "man'ın": 2100,
      "aydi": 2101,
      "'lik": 2102,
      "▁f.": 2103,
      "▁kerv": 2104,
      "▁bilimi": 2105,
      "▁git": 2106,
      "▁minder": 2107,
      "isindeki": 2108,
      "▁hepsinin": 2109,
      "▁dr.": 2110,
      "sey": 2111,
      "▁ent": 2112,
      "▁masalı": 2113,
      "▁turkuler": 2114,
      "▁rastlan": 2115,
      "▁karısmıs": 2116,
      "▁new": 2117,
      "▁borsada": 2118,
      "▁2659": 2119,
      "▁4145": 2120,
      "▁5.4": 2121,
      "▁akadem": 2122,
      "▁alkıs": 2123,
      "mek": 2124,
      "▁mıs": 2125,
      "▁kadıkoy": 2126,
      "emistir": 2127,
      "urdan": 2128,
      "▁egilimi": 2129,
      "▁5.2": 2130,
      "abilmis": 2131,
      "▁bulundu": 2132,
      "▁alper": 2133,
      "▁813": 2134,
      "▁iktis": 2135,
      "▁filan": 2136,
      "▁oynamıs": 2137,
      "if": 2138,
      "▁evlilik": 2139,
      "bindokuzyuzdoksansekiz": 2140,
      "▁almayı": 2141,
      "▁parca": 2142,
      "▁kacamak": 2143,
      "emex": 2144,
      "▁tin": 2145,
      "▁18.": 2146,
      "▁endustri": 2147,
      "▁inek": 2148,
      "▁istemedi": 2149,
      "▁model": 2150,
      "gar": 2151,
      "▁bazılarımız": 2152,
      "▁100'e": 2153,
      "▁oda": 2154,
      "▁lond": 2155,
      "▁etrafında": 2156,
      "▁edilem": 2157,
      "▁diyen": 2158,
      "▁hıckır": 2159,
      "ayan": 2160,
      "▁kanıt": 2161,
      "livan": 2162,
      "odal": 2163,
      "▁san": 2164,
      "▁siyaset": 2165,
      "▁veriyoruz": 2166,
      "nin": 2167,
      "▁kesin": 2168,
      "▁ulkeye": 2169,
      "▁yok": 2170,
      "▁laborat": 2171,
      "bak": 2172,
      "▁saatte": 2173,
      "▁titriyordu": 2174,
      "▁cıkart": 2175,
      "bab": 2176,
      "▁1955": 2177,
      "▁oakland'dan": 2178,
      "▁yanakları": 2179,
      "▁hizli": 2180,
      "▁sozlerini": 2181,
      "▁nerelerde": 2182,
      "o'yu": 2183,
      "▁buruk": 2184,
      "▁tet": 2185,
      "▁cocuga": 2186,
      "▁kahvaltisi": 2187,
      "▁toplantı": 2188,
      "▁kaya": 2189,
      "▁memnundum": 2190,
      "▁ediyordu": 2191,
      "▁refah": 2192,
      "▁kanlı": 2193,
      "▁elestiri": 2194,
      "ılsın": 2195,
      "ige": 2196,
      "▁gere": 2197,
      "▁ucaklar": 2198,
      "▁650": 2199,
      "▁suc": 2200,
      "▁birtakım": 2201,
      "▁teskil": 2202,
      "▁sorunların": 2203,
      "kla": 2204,
      "▁yavaslama": 2205,
      "▁tepeden": 2206,
      "00000": 2207,
      "▁olmadıgına": 2208,
      "▁kızlarla": 2209,
      "▁yapılacak": 2210,
      "▁temer": 2211,
      "▁3\\/8": 2212,
      "dil": 2213,
      "lıgından": 2214,
      "▁otelden": 2215,
      "acagına": 2216,
      "▁bakıyorlar": 2217,
      "▁helal": 2218,
      "▁olanaklari": 2219,
      "▁bask": 2220,
      "▁hissediyor": 2221,
      "▁yatagı": 2222,
      "▁ahlak": 2223,
      "▁esyalar": 2224,
      "▁sikayet": 2225,
      "▁krenz": 2226,
      "▁bekler": 2227,
      "▁gorunuse": 2228,
      "▁beden": 2229,
      "▁kullanmak": 2230,
      "▁oneririm": 2231,
      "▁konularda": 2232,
      "▁begendik": 2233,
      "▁yemis": 2234,
      "▁okumak": 2235,
      "▁pot": 2236,
      "2.9": 2237,
      "▁ziyan": 2238,
      "▁takın": 2239,
      "uck": 2240,
      "▁tadı": 2241,
      "dern": 2242,
      "▁pak": 2243,
      "▁10": 2244,
      "▁banka": 2245,
      "▁bekleniyordu": 2246,
      "▁ikti": 2247,
      "tey": 2248,
      "▁yapıt": 2249,
      "▁ontario'dan": 2250,
      "▁%3.": 2251,
      "▁temkin": 2252,
      "▁avrupa'nın": 2253,
      "▁haksız": 2254,
      "▁romantik": 2255,
      "▁taraf": 2256,
      "▁direk": 2257,
      "▁yelpaz": 2258,
      ".15": 2259,
      "▁muc": 2260,
      "▁partn": 2261,
      "▁ipotek": 2262,
      "▁sıngır": 2263,
      "▁sahiden": 2264,
      "▁etleri": 2265,
      "av": 2266,
      "▁inan": 2267,
      "▁dususle": 2268,
      "▁tutarındaki": 2269,
      "▁sınıfa": 2270,
      "▁etek": 2271,
      "▁doya": 2272,
      "iler": 2273,
      "▁edward": 2274,
      "lama": 2275,
      "▁istenen": 2276,
      "▁besi": 2277,
      "'ın": 2278,
      "▁#": 2279,
      "▁anayas": 2280,
      "▁olmay": 2281,
      "▁eksik": 2282,
      "▁alım-satım": 2283,
      "▁hi": 2284,
      "▁dostlar": 2285,
      "su": 2286,
      "▁ihal": 2287,
      "▁musluman": 2288,
      "▁did": 2289,
      "▁dinley": 2290,
      "▁yurd": 2291,
      "▁cal": 2292,
      "▁kizim": 2293,
      "agu": 2294,
      "▁aln": 2295,
      "mıyordu": 2296,
      "▁yukselirken": 2297,
      "▁kıpır": 2298,
      "ach": 2299,
      "▁zinc": 2300,
      "▁teklifini": 2301,
      "▁'dı": 2302,
      "▁buhar": 2303,
      "▁duygularını": 2304,
      "ha": 2305,
      "▁mccaw": 2306,
      "acısı": 2307,
      "▁ordunun": 2308,
      "▁evladı": 2309,
      "▁annesini": 2310,
      "▁sanırım": 2311,
      "▁yururken": 2312,
      "▁degistiren": 2313,
      "eyecek": 2314,
      "▁fısır": 2315,
      "▁pasaport": 2316,
      "▁acil": 2317,
      "▁ugr": 2318,
      "▁francisco'dan": 2319,
      "▁jur": 2320,
      "▁tuk": 2321,
      "▁pet": 2322,
      "yayı": 2323,
      "▁gorsel": 2324,
      "row": 2325,
      "▁dist": 2326,
      "lugunu": 2327,
      "elif": 2328,
      "▁yuklen": 2329,
      "▁kapıda": 2330,
      "▁salona": 2331,
      "gımız": 2332,
      "▁1.72": 2333,
      "▁dam": 2334,
      "esem": 2335,
      "▁oksuruk": 2336,
      "▁sirkette": 2337,
      "yası": 2338,
      "▁belirgin": 2339,
      "▁geciyordu": 2340,
      "▁ekib": 2341,
      "▁yedide": 2342,
      "lugunda": 2343,
      "cag": 2344,
      "▁dırlar": 2345,
      "▁akıs": 2346,
      "leniyor": 2347,
      "▁ozur": 2348,
      "▁izmir": 2349,
      "▁sendika": 2350,
      "▁dub": 2351,
      "▁ucum": 2352,
      "▁maliyeti": 2353,
      "/8'e": 2354,
      "cın": 2355,
      "▁kık": 2356,
      "▁dolasır": 2357,
      "▁oncu": 2358,
      "▁bankanın": 2359,
      "▁adına": 2360,
      "▁atık": 2361,
      "▁kusu": 2362,
      "▁piyasasındaki": 2363,
      "▁ti": 2364,
      "▁memnun": 2365,
      "▁degilse": 2366,
      "▁beach'tan": 2367,
      "▁romanc": 2368,
      "▁asker": 2369,
      "▁emper": 2370,
      "on": 2371,
      "▁yuks": 2372,
      "osunu": 2373,
      "isten": 2374,
      "▁varil": 2375,
      "▁hesaba": 2376,
      "▁beklenenden": 2377,
      "lıyor": 2378,
      "mm": 2379,
      "maz": 2380,
      "veland": 2381,
      "▁$": 2382,
      "ıma": 2383,
      "▁goren": 2384,
      "etti": 2385,
      "▁yaramaz": 2386,
      "▁feryat": 2387,
      "▁yemeklerin": 2388,
      "▁almalar": 2389,
      "sa": 2390,
      "▁1.375": 2391,
      "▁doviz": 2392,
      "ildigi": 2393,
      "be": 2394,
      "▁otesinde": 2395,
      "▁istihbar": 2396,
      "▁irak'ta": 2397,
      "abilir": 2398,
      "▁pufur": 2399,
      "▁gecen": 2400,
      "▁yuruyor": 2401,
      "gor": 2402,
      ".09": 2403,
      "▁dili": 2404,
      "▁donemli": 2405,
      "▁ıskarta": 2406,
      "▁baslarında": 2407,
      "tmi": 2408,
      "▁karab": 2409,
      "▁benzer": 2410,
      "▁fikirler": 2411,
      "▁issizlik": 2412,
      "▁duzlem": 2413,
      "ılıgın": 2414,
      "▁leb": 2415,
      "medim": 2416,
      "▁diego'dan": 2417,
      "▁akrab": 2418,
      "▁derginin": 2419,
      "▁artıs": 2420,
      "▁kabın": 2421,
      "▁ayagında": 2422,
      "▁list": 2423,
      "▁sorunlarının": 2424,
      "usetts": 2425,
      "▁corb": 2426,
      "▁yapmay": 2427,
      "▁kucuktu": 2428,
      "▁bilgilerini": 2429,
      "se": 2430,
      "▁babasına": 2431,
      "▁esmer": 2432,
      "▁237": 2433,
      "▁yalvar": 2434,
      "asa": 2435,
      "▁catır": 2436,
      "ica": 2437,
      "▁konusmayı": 2438,
      "▁6.5": 2439,
      "acılık": 2440,
      "▁ikisini": 2441,
      "▁kılık": 2442,
      "bos": 2443,
      "▁mil": 2444,
      "▁eksiksiz": 2445,
      "▁konferans": 2446,
      "▁saglayan": 2447,
      "▁denir": 2448,
      "▁kırık": 2449,
      "42": 2450,
      "▁suphe": 2451,
      "uldugunu": 2452,
      "▁mas": 2453,
      "▁yanl": 2454,
      "ıla": 2455,
      "▁genel": 2456,
      "▁lezzetleri": 2457,
      "▁madd": 2458,
      "dugunu": 2459,
      "▁plak": 2460,
      "sis": 2461,
      "▁gozunun": 2462,
      "▁utangac": 2463,
      "▁kuruluslarındaki": 2464,
      "▁dedikleri": 2465,
      "▁olmakla": 2466,
      "etik": 2467,
      "▁endustrisinin": 2468,
      "▁tahvillerin": 2469,
      "▁elver": 2470,
      "▁manc": 2471,
      "▁resmi": 2472,
      "▁israil": 2473,
      "▁okyan": 2474,
      "▁sevgi": 2475,
      "likler": 2476,
      "▁cesme": 2477,
      "cik": 2478,
      "▁ortaklıgı": 2479,
      "▁teorik": 2480,
      "▁ogl": 2481,
      "▁anıms": 2482,
      "▁agar": 2483,
      "iyat": 2484,
      "▁ayrılır": 2485,
      "▁actı": 2486,
      "▁500'u": 2487,
      "▁tem": 2488,
      "▁papaz": 2489,
      "▁1995": 2490,
      "aden": 2491,
      "▁minimum": 2492,
      "▁ogretmeni": 2493,
      "▁umudu": 2494,
      "▁seker": 2495,
      "sinin": 2496,
      "▁personellerden": 2497,
      "8'in": 2498,
      "rilyon": 2499,
      "dal": 2500,
      "▁sınıfın": 2501,
      "▁lit": 2502,
      "ımızı": 2503,
      "denin": 2504,
      "eliyiz": 2505,
      "▁subat": 2506,
      "▁azar": 2507,
      "▁belirtildi": 2508,
      "ılıgıyla": 2509,
      "▁olayda": 2510,
      "▁agzından": 2511,
      "▁olası": 2512,
      "▁izni": 2513,
      "▁terzi": 2514,
      "▁dikilmis": 2515,
      "▁ekip": 2516,
      "▁cogunun": 2517,
      "ftadır": 2518,
      "▁itfa": 2519,
      "▁ortalam": 2520,
      "▁bildir": 2521,
      "bat": 2522,
      "▁gozlu": 2523,
      "▁nizam": 2524,
      "elem": 2525,
      "▁chemical": 2526,
      "dukları": 2527,
      "▁teblig": 2528,
      "3.5": 2529,
      "▁o'": 2530,
      "▁yıllık": 2531,
      "▁etk": 2532,
      "▁dikis": 2533,
      "▁oyle": 2534,
      "▁58": 2535,
      "ecegimizi": 2536,
      "acagim": 2537,
      "▁kalıyordu": 2538,
      "▁zal": 2539,
      "▁4.3": 2540,
      "▁seylere": 2541,
      "▁koltuklar": 2542,
      "▁onunla": 2543,
      "▁2.4": 2544,
      "▁aydır": 2545,
      "▁elle": 2546,
      "memis": 2547,
      "▁yoktur": 2548,
      "oma": 2549,
      "▁bonoları": 2550,
      "▁feodal": 2551,
      "▁milyarlarca": 2552,
      "▁portf": 2553,
      "▁madem": 2554,
      "▁saka": 2555,
      "▁idar": 2556,
      "wa": 2557,
      "▁tehdi": 2558,
      "▁izn": 2559,
      "▁randev": 2560,
      "▁sıgın": 2561,
      "▁kırlangıc": 2562,
      "▁th": 2563,
      "-p": 2564,
      "▁catıs": 2565,
      "▁21.": 2566,
      "▁1961": 2567,
      "▁yarattı": 2568,
      "▁sipar": 2569,
      "masına": 2570,
      "▁cekilm": 2571,
      "▁3.16": 2572,
      "▁balıklar": 2573,
      "▁hotel": 2574,
      "▁baslayan": 2575,
      "▁muhafazakar": 2576,
      "▁stock": 2577,
      "▁aradı": 2578,
      "▁olume": 2579,
      "▁mulkiyet": 2580,
      "lerinde": 2581,
      "▁kası": 2582,
      "aci": 2583,
      "▁416": 2584,
      "▁mes": 2585,
      "▁kalmıstır": 2586,
      "▁95.2": 2587,
      "▁tow": 2588,
      "▁yetmis": 2589,
      "idge": 2590,
      "▁serisi": 2591,
      "▁57": 2592,
      "▁bire": 2593,
      "▁inis": 2594,
      "▁hafiflet": 2595,
      "▁evimizde": 2596,
      "▁han": 2597,
      "▁hayatın": 2598,
      "▁erol": 2599,
      "▁guzelim": 2600,
      "▁ayaklarının": 2601,
      "▁bayat": 2602,
      "▁gag": 2603,
      "▁9.78": 2604,
      "▁adil": 2605,
      "timore": 2606,
      "lup": 2607,
      "▁yıldızı": 2608,
      "▁edi": 2609,
      "▁verildi": 2610,
      "▁mary": 2611,
      "▁ufacık": 2612,
      "ılacak": 2613,
      "▁diktator": 2614,
      "es'in": 2615,
      ".39": 2616,
      "▁esiyor": 2617,
      "samer": 2618,
      "▁sulu": 2619,
      "▁asam": 2620,
      "▁bosan": 2621,
      "▁bono": 2622,
      "▁fener": 2623,
      "ant": 2624,
      "▁goturuyor": 2625,
      "▁yaptıgım": 2626,
      "▁sorunu": 2627,
      "▁saclı": 2628,
      "pen": 2629,
      "▁geldi": 2630,
      "-pr": 2631,
      "▁turuncu": 2632,
      "▁duzenlem": 2633,
      "▁77": 2634,
      "▁ayrılmıs": 2635,
      "ligi": 2636,
      "ot": 2637,
      "agı": 2638,
      "▁kultur": 2639,
      "▁gay": 2640,
      "▁yaslar": 2641,
      "▁emrah": 2642,
      "▁dedigim": 2643,
      "▁ucusuna": 2644,
      "▁ayrılmak": 2645,
      "▁suruk": 2646,
      "▁aldıkları": 2647,
      "▁yapacagını": 2648,
      "g": 2649,
      "▁adlandır": 2650,
      "▁ustlen": 2651,
      "amadı": 2652,
      "▁ogrendim": 2653,
      "▁taahh": 2654,
      "▁3.2": 2655,
      "▁kendilerine": 2656,
      "\\/": 2657,
      "▁esnaf": 2658,
      "▁columbia": 2659,
      "▁mevduat": 2660,
      "▁guzeli": 2661,
      "kırk": 2662,
      "▁adamla": 2663,
      "▁1995'te": 2664,
      "▁lynch": 2665,
      "▁cekiliyor": 2666,
      "▁y": 2667,
      "▁dep": 2668,
      "▁adama": 2669,
      "▁gezegen": 2670,
      "▁s": 2671,
      "▁hazırladı": 2672,
      "tım": 2673,
      "▁cd": 2674,
      "▁koylerde": 2675,
      "▁62": 2676,
      "▁huzun": 2677,
      "▁camı": 2678,
      "▁mısır": 2679,
      "ılmıstı": 2680,
      "▁erz": 2681,
      "ırda": 2682,
      "▁sıralarda": 2683,
      "▁destek": 2684,
      "▁yalı": 2685,
      "▁hangisine": 2686,
      "▁olusuyor": 2687,
      "▁ortamı": 2688,
      "▁degismez": 2689,
      "▁yasin": 2690,
      "▁2.79": 2691,
      "▁teor": 2692,
      "▁hacm": 2693,
      "emle": 2694,
      "▁2.5": 2695,
      "▁vaat": 2696,
      "▁katlı": 2697,
      "etleri": 2698,
      "▁ayrılık": 2699,
      "▁sorununun": 2700,
      "▁toplantıda": 2701,
      "▁yapacak": 2702,
      "▁dalgalar": 2703,
      "▁elestirmen": 2704,
      "▁ozgur": 2705,
      "▁tesir": 2706,
      "▁temsilcisi": 2707,
      "lerimin": 2708,
      "▁elma": 2709,
      "▁yabanc": 2710,
      "ezz": 2711,
      "kop": 2712,
      "▁goturduler": 2713,
      "▁durumlarda": 2714,
      "▁havaalan": 2715,
      "▁gecirdigi": 2716,
      "▁9.6": 2717,
      "▁malz": 2718,
      "▁acıl": 2719,
      "▁itibariyle": 2720,
      "atil": 2721,
      "imler": 2722,
      "9.5": 2723,
      "▁kral": 2724,
      "2:30": 2725,
      "eginiz": 2726,
      "0.9": 2727,
      "▁ettin": 2728,
      "elerine": 2729,
      "▁zav": 2730,
      "▁yaptir": 2731,
      "▁tuketici": 2732,
      "▁yıllarca": 2733,
      "▁lilly": 2734,
      "illi": 2735,
      "▁kapali": 2736,
      "▁bolumde": 2737,
      "▁surdurdu": 2738,
      "▁paul'dan": 2739,
      "▁hizmetinden": 2740,
      "malarına": 2741,
      "▁3.7": 2742,
      "▁piyasasının": 2743,
      "amamıs": 2744,
      "▁nerden": 2745,
      "▁doluydu": 2746,
      "▁uykusuz": 2747,
      "▁30000": 2748,
      "eceg": 2749,
      "▁gecirir": 2750,
      "▁rahatti": 2751,
      "▁par": 2752,
      "▁aldan": 2753,
      "▁herhal": 2754,
      "▁mayıs'ta": 2755,
      "lanabilir": 2756,
      ".05": 2757,
      "ekk": 2758,
      "dikce": 2759,
      "▁yetmez": 2760,
      "endim": 2761,
      "▁acan": 2762,
      "ebilir": 2763,
      "▁degisiklikler": 2764,
      "st": 2765,
      "▁yalan": 2766,
      "▁maksim": 2767,
      "▁birilerini": 2768,
      "lerindeki": 2769,
      "▁kalsın": 2770,
      "pe": 2771,
      "▁yur": 2772,
      "munic": 2773,
      "arya": 2774,
      "▁edemey": 2775,
      "▁852": 2776,
      "lıg": 2777,
      "ıldır": 2778,
      "▁kontrol": 2779,
      "lerimi": 2780,
      "▁mirkelam": 2781,
      "▁idare": 2782,
      "▁inanır": 2783,
      "▁sh": 2784,
      "ımı": 2785,
      "▁zorunda": 2786,
      "sek": 2787,
      "▁yasama": 2788,
      "ibi": 2789,
      "▁koruyor": 2790,
      "▁birbirimizi": 2791,
      "tılı": 2792,
      "▁basarili": 2793,
      "lamanın": 2794,
      "▁devrim": 2795,
      "▁pittsburgh": 2796,
      "▁yusu": 2797,
      "amazlar": 2798,
      "▁cocugunun": 2799,
      "▁dinkin": 2800,
      "▁peyn": 2801,
      "ınızı": 2802,
      "▁harf": 2803,
      "▁baba": 2804,
      "▁kutup": 2805,
      "▁yasadigim": 2806,
      "adel": 2807,
      "unlu": 2808,
      "▁denizciler": 2809,
      "▁ata": 2810,
      "4000": 2811,
      "da'nın": 2812,
      "▁altındaki": 2813,
      "▁tuttum": 2814,
      "▁sarkı": 2815,
      "▁112": 2816,
      "▁degis": 2817,
      "lıdır": 2818,
      "▁yoluna": 2819,
      "▁golgesi": 2820,
      "▁64": 2821,
      "▁uzer": 2822,
      "▁golg": 2823,
      "ıcının": 2824,
      "▁kemir": 2825,
      "▁260": 2826,
      "▁5.3": 2827,
      "▁aktarmasız": 2828,
      "▁olmadı": 2829,
      "▁bilgil": 2830,
      "▁gl": 2831,
      "▁gelirin": 2832,
      "▁segment": 2833,
      "▁ultra": 2834,
      "▁sectik": 2835,
      "▁yapılmıstır": 2836,
      "memiz": 2837,
      "tuk": 2838,
      "eyh": 2839,
      "▁yaratı": 2840,
      "▁partinin": 2841,
      "▁dograyın": 2842,
      "▁amc": 2843,
      "▁gizem": 2844,
      "▁kılıc": 2845,
      "/4": 2846,
      "▁ersin": 2847,
      "▁tembih": 2848,
      "▁muzaker": 2849,
      "olk": 2850,
      "▁olimp": 2851,
      "▁g": 2852,
      "aye": 2853,
      "ing": 2854,
      "▁po": 2855,
      "▁planı": 2856,
      "▁yıllarda": 2857,
      "▁onumuzde": 2858,
      "▁tavır": 2859,
      "▁eylul": 2860,
      "▁bic": 2861,
      "▁oldular": 2862,
      "▁gosteren": 2863,
      "ılmıstır": 2864,
      "▁kuyruk": 2865,
      "▁11": 2866,
      "▁krize": 2867,
      "▁ingiltere": 2868,
      "▁sasırtıcı": 2869,
      "▁seviyesinde": 2870,
      "▁oldugumu": 2871,
      "▁sansur": 2872,
      "▁zar": 2873,
      "niyet": 2874,
      "ahir": 2875,
      "▁vadesiz": 2876,
      "emi": 2877,
      "uluyor": 2878,
      "▁hab": 2879,
      "indan": 2880,
      "▁s.": 2881,
      "▁ozge": 2882,
      "▁acılı": 2883,
      "▁yazısı": 2884,
      "▁rak": 2885,
      "▁bonolar": 2886,
      "▁fazla": 2887,
      "ligiyle": 2888,
      "esinin": 2889,
      "▁kahvenin": 2890,
      "▁elleriyle": 2891,
      "▁katına": 2892,
      "▁ozurlu": 2893,
      "aat": 2894,
      "▁aldigim": 2895,
      "iyetle": 2896,
      "▁genelkur": 2897,
      "▁durumuna": 2898,
      "▁hizmetler": 2899,
      "▁ucusa": 2900,
      "▁2002'de": 2901,
      "liydi": 2902,
      "lek": 2903,
      "8'de": 2904,
      "▁dudakları": 2905,
      "▁planlanıyor": 2906,
      "▁girmeden": 2907,
      "asıyla": 2908,
      "▁oder": 2909,
      "▁korumak": 2910,
      "▁gurur": 2911,
      "maları": 2912,
      "▁turlar": 2913,
      "▁sacları": 2914,
      "▁cıkıs": 2915,
      "▁$'dan": 2916,
      "▁garant": 2917,
      "adet": 2918,
      "▁degerlendir": 2919,
      "▁artır": 2920,
      "▁tırn": 2921,
      "▁boyl": 2922,
      "▁sıv": 2923,
      "▁evden": 2924,
      "▁48": 2925,
      "▁kazanclarını": 2926,
      "▁reddediyor": 2927,
      "▁zihninde": 2928,
      "▁%3.43": 2929,
      "▁petersburg'a": 2930,
      "artmanı": 2931,
      "▁hindistan'ın": 2932,
      "▁ucuslarını": 2933,
      "▁ciddiye": 2934,
      "sali": 2935,
      "▁sip": 2936,
      "▁yiyip": 2937,
      "▁fizik": 2938,
      "▁damar": 2939,
      ".00": 2940,
      "otiv": 2941,
      "▁dumanı": 2942,
      "▁dc'den": 2943,
      "▁peki": 2944,
      "ımdan": 2945,
      "▁luks": 2946,
      "▁protok": 2947,
      "▁tabir": 2948,
      "▁bugun": 2949,
      "▁uyarı": 2950,
      "▁hayali": 2951,
      "▁mekteb": 2952,
      "▁altin": 2953,
      "▁oran": 2954,
      "▁var": 2955,
      "▁toplum": 2956,
      "▁phoeni": 2957,
      "▁yunus": 2958,
      "▁tasarı": 2959,
      "▁karmasık": 2960,
      "▁kararın": 2961,
      "ikat": 2962,
      "▁pekmez": 2963,
      "▁25.000": 2964,
      "▁egemen": 2965,
      "▁bası": 2966,
      "▁charl": 2967,
      "▁gerci": 2968,
      "▁gittigim": 2969,
      "▁.65": 2970,
      "▁av": 2971,
      "lu": 2972,
      "▁cagrı": 2973,
      "▁yepyeni": 2974,
      "▁geldigimiz": 2975,
      "▁4.75": 2976,
      "▁nedenlerden": 2977,
      "▁olculu": 2978,
      "▁cap": 2979,
      "▁yataklar": 2980,
      "▁anladım": 2981,
      "▁sozlesmeler": 2982,
      "▁hın": 2983,
      "▁birey": 2984,
      "▁planda": 2985,
      "▁ontario": 2986,
      "ununun": 2987,
      "arik": 2988,
      "▁dayalı": 2989,
      "▁ailelerin": 2990,
      "▁kale": 2991,
      "▁dogran": 2992,
      "▁taf": 2993,
      "▁koyan": 2994,
      "malıydı": 2995,
      "▁tohum": 2996,
      "▁penn": 2997,
      "▁mendil": 2998,
      "▁tasa": 2999,
      "▁ifad": 3000,
      "▁getirdi": 3001,
      "▁karam": 3002,
      "▁sand": 3003,
      "▁odasi": 3004,
      "▁zuh": 3005,
      "egiyle": 3006,
      "▁huseyin": 3007,
      "▁kabl": 3008,
      "▁polon": 3009,
      "dav": 3010,
      "▁anı": 3011,
      "▁bakısları": 3012,
      "▁ucusu": 3013,
      "ete": 3014,
      "▁kurdular": 3015,
      "mini": 3016,
      "▁okumaya": 3017,
      "uli": 3018,
      "meye": 3019,
      "▁bilincli": 3020,
      "▁marifet": 3021,
      "▁butc": 3022,
      "▁guleryuzluydu": 3023,
      "▁goreve": 3024,
      "▁dustum": 3025,
      "▁cıkarıl": 3026,
      "▁girmez": 3027,
      "▁nek": 3028,
      "▁sovyet": 3029,
      "▁fransızca": 3030,
      "▁bulunur": 3031,
      "▁1.80": 3032,
      "▁sor": 3033,
      "▁dayanısma": 3034,
      "▁konusundaki": 3035,
      "'nunla": 3036,
      "▁basımda": 3037,
      "▁inter": 3038,
      "fer": 3039,
      "ize": 3040,
      "▁14.5": 3041,
      "▁nazaran": 3042,
      "▁kadınları": 3043,
      "▁sarıldı": 3044,
      "▁81": 3045,
      "ener": 3046,
      "adem": 3047,
      "▁cıkmak": 3048,
      "ii": 3049,
      "oc": 3050,
      "malar": 3051,
      "▁biz": 3052,
      "▁lloy": 3053,
      "▁tasıdı": 3054,
      "▁masanın": 3055,
      "▁boy": 3056,
      "▁cıkarmaya": 3057,
      "inn": 3058,
      "▁alınıyor": 3059,
      "▁agustos": 3060,
      "▁ekstra": 3061,
      "fur": 3062,
      "madılar": 3063,
      "▁bagısık": 3064,
      "▁planlama": 3065,
      "aca": 3066,
      "▁birlik": 3067,
      "▁yalnızlık": 3068,
      "▁kend": 3069,
      "▁ra": 3070,
      "▁acık": 3071,
      "lisi": 3072,
      "▁avukatlar": 3073,
      "p": 3074,
      "calı": 3075,
      "▁senato": 3076,
      "▁ruya": 3077,
      "yeni": 3078,
      "▁gitar": 3079,
      "▁kadınlar": 3080,
      "▁378": 3081,
      "▁kus": 3082,
      "▁haftalık": 3083,
      "▁orlando": 3084,
      "▁varlıga": 3085,
      "larında": 3086,
      "▁201622": 3087,
      "▁curut": 3088,
      "▁kullanıyor": 3089,
      "sk": 3090,
      "▁bıraktıgı": 3091,
      "▁alakaliydi": 3092,
      "▁hizmetlerinden": 3093,
      "▁emlak": 3094,
      "▁olurdu": 3095,
      "▁cans": 3096,
      "▁hakkinda": 3097,
      "▁birbirler": 3098,
      "▁dizginleri": 3099,
      "ern": 3100,
      "▁1.22": 3101,
      "▁kurut": 3102,
      "▁ucusunu": 3103,
      "▁tasavv": 3104,
      "▁minim": 3105,
      "▁yokusu": 3106,
      "▁koc": 3107,
      "▁schw": 3108,
      "▁olabilir": 3109,
      "▁lutfen": 3110,
      "amayacak": 3111,
      "▁tamamladı": 3112,
      "▁suz": 3113,
      "▁musteriler": 3114,
      "▁tozu": 3115,
      "▁giderler": 3116,
      "▁yakası": 3117,
      "▁hu": 3118,
      "▁sersem": 3119,
      "▁rus": 3120,
      "▁acıklanmadı": 3121,
      "▁mutab": 3122,
      "▁anlıs": 3123,
      "▁belirttigim": 3124,
      "▁nus": 3125,
      "▁denktas": 3126,
      "▁hissettim": 3127,
      "▁1.": 3128,
      "▁tasar": 3129,
      "▁benden": 3130,
      "▁risk": 3131,
      "▁olusturmak": 3132,
      "▁hınc": 3133,
      "▁eders": 3134,
      "ebilecegi": 3135,
      "▁musterilere": 3136,
      "▁sedef": 3137,
      "▁bitmisti": 3138,
      "orn": 3139,
      "▁kolayca": 3140,
      "ınca": 3141,
      "▁yanas": 3142,
      "▁burcu": 3143,
      ".02": 3144,
      "▁tesvik": 3145,
      "▁tavsiye": 3146,
      "▁sayısı": 3147,
      "siyonu": 3148,
      "▁hekim": 3149,
      "ville": 3150,
      "▁ceb": 3151,
      "'ye": 3152,
      "▁anne": 3153,
      "▁ıskar": 3154,
      "▁fuz": 3155,
      "▁borclanma": 3156,
      "▁1992": 3157,
      "▁hukuku": 3158,
      "▁parcaları": 3159,
      "▁genislet": 3160,
      "eligine": 3161,
      "emiz": 3162,
      "▁suna": 3163,
      "▁1919": 3164,
      "▁goremedim": 3165,
      "▁sozlerine": 3166,
      "▁phil": 3167,
      "▁cey": 3168,
      "▁kızdı": 3169,
      "▁verdikleri": 3170,
      "▁vermem": 3171,
      "▁alex": 3172,
      "▁mahkemesinde": 3173,
      "▁oranı": 3174,
      "▁cerey": 3175,
      "▁fuk": 3176,
      "▁nazik": 3177,
      "▁hak": 3178,
      "urluge": 3179,
      "▁tetkik": 3180,
      "▁istihbarat": 3181,
      "▁dolmus": 3182,
      "▁avrupalı": 3183,
      "▁benz": 3184,
      "iyenin": 3185,
      "ebilirsiniz": 3186,
      "▁muhabiri": 3187,
      "▁1.7": 3188,
      "▁akl": 3189,
      "▁hong": 3190,
      "▁ode": 3191,
      "▁750000": 3192,
      "▁141.90": 3193,
      "'a": 3194,
      "▁aradan": 3195,
      "▁anlattı": 3196,
      "▁degildi": 3197,
      "▁evine": 3198,
      "96": 3199,
      "▁155": 3200,
      "▁ısıkları": 3201,
      "▁kırkdort": 3202,
      "al": 3203,
      "▁gosteri": 3204,
      "▁newark": 3205,
      "gunuz": 3206,
      "▁donuste": 3207,
      "uza": 3208,
      "▁kartal": 3209,
      "▁almıyor": 3210,
      "▁balkon": 3211,
      "▁rab": 3212,
      "▁bahceli": 3213,
      "▁orland": 3214,
      "▁yo": 3215,
      "▁soylenir": 3216,
      "▁ant": 3217,
      "▁1991'de": 3218,
      "hansa": 3219,
      "cev": 3220,
      "▁senedir": 3221,
      "▁ısıgında": 3222,
      "▁arar": 3223,
      "▁4.2": 3224,
      "▁622": 3225,
      "▁1953": 3226,
      "▁saglar": 3227,
      "▁loc": 3228,
      "▁asli": 3229,
      "▁kalmadigim": 3230,
      "▁jfk": 3231,
      "▁airlines'in": 3232,
      "▁soylemeye": 3233,
      "▁1989": 3234,
      "▁yıgılmıs": 3235,
      "_": 3236,
      "mi": 3237,
      "▁ortalık": 3238,
      "▁telerate": 3239,
      "▁ureticisi": 3240,
      "▁yanisira": 3241,
      "▁inanmak": 3242,
      "▁dairesine": 3243,
      "9.7": 3244,
      "▁cumhurbaskanı": 3245,
      "▁oyunun": 3246,
      "▁sers": 3247,
      "▁den": 3248,
      "▁yirmi": 3249,
      "▁pik": 3250,
      "▁tımar": 3251,
      "▁anlasması": 3252,
      "▁canavar": 3253,
      "▁cıkmadı": 3254,
      "▁yerel": 3255,
      "▁9.8": 3256,
      "▁klima": 3257,
      "▁suda": 3258,
      "▁futbolcu": 3259,
      "9'dan": 3260,
      "▁planimiz": 3261,
      "▁kapıya": 3262,
      "▁anlıslanabilir": 3263,
      "▁vic": 3264,
      "▁japonların": 3265,
      "ası": 3266,
      "▁b.a.": 3267,
      "▁406": 3268,
      "▁deneyim": 3269,
      "▁elbise": 3270,
      "▁washington'dan": 3271,
      "▁milyondan": 3272,
      "▁duvara": 3273,
      "ehan": 3274,
      "▁kat": 3275,
      "asır": 3276,
      "du": 3277,
      "▁kestir": 3278,
      ".45": 3279,
      "▁91": 3280,
      "▁donduk": 3281,
      "kat": 3282,
      "▁tatb": 3283,
      "▁prosedur": 3284,
      "emezler": 3285,
      "ai": 3286,
      "▁tokyo'daki": 3287,
      ".48": 3288,
      "▁kosul": 3289,
      "▁toronto": 3290,
      "▁gitmis": 3291,
      "▁menkul": 3292,
      "▁washington": 3293,
      "▁dısarıdan": 3294,
      "ave": 3295,
      "ımızdaki": 3296,
      "▁getirmisti": 3297,
      "▁at": 3298,
      "ansız": 3299,
      "▁saglık": 3300,
      "ilmesi": 3301,
      "edildi": 3302,
      "▁reh": 3303,
      "▁355": 3304,
      "gini": 3305,
      "▁pey": 3306,
      "▁zir": 3307,
      "▁ters": 3308,
      "▁sair": 3309,
      "indi": 3310,
      "▁...\"": 3311,
      "amıyordu": 3312,
      "▁kuyu": 3313,
      "adelphia": 3314,
      "▁dusecek": 3315,
      "▁bak": 3316,
      "▁oldu": 3317,
      "anları": 3318,
      "atlı": 3319,
      "▁oyuncu": 3320,
      "uston": 3321,
      "▁saskın": 3322,
      "▁direkt": 3323,
      "▁sait": 3324,
      "▁rehberi": 3325,
      "ili": 3326,
      "ilmemis": 3327,
      "▁yon": 3328,
      "▁din": 3329,
      "▁iyisi": 3330,
      "▁hollywood": 3331,
      "▁ihmal": 3332,
      "▁mı": 3333,
      "unla": 3334,
      "▁incel": 3335,
      "▁baslamıs": 3336,
      "▁ucusta": 3337,
      "▁3/8": 3338,
      "▁dor": 3339,
      "▁350": 3340,
      "▁bulabil": 3341,
      "▁otele": 3342,
      "▁uretimin": 3343,
      "▁robert": 3344,
      "▁malzem": 3345,
      "▁tufek": 3346,
      "▁uygundu": 3347,
      "▁cor": 3348,
      "▁pac": 3349,
      "▁haksızlık": 3350,
      "▁plaj": 3351,
      "▁veremeyecegim": 3352,
      "▁yetkil": 3353,
      "atas": 3354,
      "▁eda": 3355,
      "▁'dir": 3356,
      "irmis": 3357,
      "anan": 3358,
      "▁gunah": 3359,
      "▁istif": 3360,
      "anda": 3361,
      "ld": 3362,
      "▁acente": 3363,
      "▁onceki": 3364,
      "▁dagıtım": 3365,
      "ham": 3366,
      "▁azalarak": 3367,
      "▁ceng": 3368,
      "eligi": 3369,
      "▁192": 3370,
      "▁iri": 3371,
      "▁itibar": 3372,
      "tadır": 3373,
      "▁limon": 3374,
      "▁ayrıntı": 3375,
      "?": 3376,
      "▁yuzyılın": 3377,
      "▁icme": 3378,
      "ulugun": 3379,
      "gu": 3380,
      "▁union": 3381,
      "▁yukarı": 3382,
      "▁ardında": 3383,
      "▁cıvıl": 3384,
      "▁gerektiriyor": 3385,
      "▁er": 3386,
      "ılık": 3387,
      "▁vadeli": 3388,
      "▁besyuzelli": 3389,
      "gun": 3390,
      "▁verimsiz": 3391,
      "▁herkesle": 3392,
      "▁almak": 3393,
      "asindan": 3394,
      "▁375": 3395,
      "▁ayna": 3396,
      "yip": 3397,
      "ısıydı": 3398,
      "▁hemen": 3399,
      "▁43.3": 3400,
      "dedil": 3401,
      "▁yurdu": 3402,
      "▁nisan'da": 3403,
      "▁20.000": 3404,
      "▁dai": 3405,
      "▁satıs": 3406,
      "▁yiyeceklerin": 3407,
      "▁uyus": 3408,
      "cılıgı": 3409,
      "▁seyler": 3410,
      "lasıp": 3411,
      "▁urunler": 3412,
      "$": 3413,
      "▁komitesi": 3414,
      "▁patlıcan": 3415,
      "▁aracılıgıyla": 3416,
      "▁derim": 3417,
      "▁ne": 3418,
      "▁ihtiyacım": 3419,
      "▁hırsız": 3420,
      "▁gormezden": 3421,
      "cılık": 3422,
      "y's": 3423,
      "-19": 3424,
      "ip": 3425,
      "▁hasan": 3426,
      "▁teknik": 3427,
      "lav": 3428,
      "▁tespit": 3429,
      "▁kod": 3430,
      "usuna": 3431,
      "▁zem": 3432,
      "▁yanına": 3433,
      "▁yalancı": 3434,
      "▁saglayacak": 3435,
      "▁im": 3436,
      "▁cos": 3437,
      "▁yavasti": 3438,
      "▁kapıl": 3439,
      "▁25.8": 3440,
      "▁teles": 3441,
      "▁muduru": 3442,
      "▁diken": 3443,
      "▁baglantılı": 3444,
      "▁gereksiz": 3445,
      "▁rengi": 3446,
      "▁olusturan": 3447,
      "▁vermedi": 3448,
      "▁dediler": 3449,
      "▁otomobiller": 3450,
      "▁aras": 3451,
      "▁etmiyordu": 3452,
      "▁nereler": 3453,
      "▁ucretler": 3454,
      "bindokuzyuzdoksan": 3455,
      "iv": 3456,
      "▁elinde": 3457,
      "lanmak": 3458,
      "▁kambiy": 3459,
      "▁sokuldu": 3460,
      "ıldı": 3461,
      "▁10.3": 3462,
      "▁amacla": 3463,
      "▁kem": 3464,
      "▁istemek": 3465,
      "▁bilmiyordu": 3466,
      "lerine": 3467,
      "▁yaparak": 3468,
      "▁omz": 3469,
      "ici": 3470,
      "▁iltifat": 3471,
      "▁soylediler": 3472,
      "▁senaryo": 3473,
      "▁formul": 3474,
      "lerimizin": 3475,
      "issiz": 3476,
      "▁mon": 3477,
      "▁bakma": 3478,
      "▁sonlarında": 3479,
      "ey": 3480,
      "▁apple": 3481,
      "▁butce": 3482,
      "▁alkol": 3483,
      "▁baslamıstı": 3484,
      "endigi": 3485,
      "▁ucusları": 3486,
      "▁196": 3487,
      "▁dilerim": 3488,
      "▁yazı": 3489,
      "▁vermis": 3490,
      "▁cid": 3491,
      "▁oglu": 3492,
      "▁adeta": 3493,
      "demir": 3494,
      "▁jandarma": 3495,
      "▁redde": 3496,
      "▁sokaga": 3497,
      "▁resep": 3498,
      "▁baskanlık": 3499,
      "▁sivrisin": 3500,
      "▁cakıl": 3501,
      "▁odamdan": 3502,
      "▁dolardır": 3503,
      "has": 3504,
      "▁69": 3505,
      "▁sınırlı": 3506,
      "▁endustrisi": 3507,
      "yo": 3508,
      "ince": 3509,
      "▁toplumu": 3510,
      "▁degir": 3511,
      "▁yanar": 3512,
      "▁demisti": 3513,
      "▁avustralya": 3514,
      "▁wh": 3515,
      "▁esdeger": 3516,
      "aksız": 3517,
      "▁kokusu": 3518,
      "lendirdi": 3519,
      "▁hoca": 3520,
      "▁aran": 3521,
      "▁fırtın": 3522,
      "▁r.": 3523,
      "▁giderim": 3524,
      "▁zamana": 3525,
      "▁merkezine": 3526,
      "agan": 3527,
      "▁ordu": 3528,
      "▁gir": 3529,
      "masından": 3530,
      "▁temsilcileri": 3531,
      "dok": 3532,
      "▁sekizinci": 3533,
      ".63": 3534,
      "▁1150000": 3535,
      "▁havayoludur": 3536,
      "uc": 3537,
      "▁kova": 3538,
      "▁mukemmeldi": 3539,
      "mıs": 3540,
      "▁tesisten": 3541,
      "ilmesine": 3542,
      "▁2.73": 3543,
      "▁shearson": 3544,
      "▁flori": 3545,
      "'ndan": 3546,
      "▁atak": 3547,
      "▁duduk": 3548,
      "▁40.4": 3549,
      "▁unu": 3550,
      "hard": 3551,
      "▁istat": 3552,
      "▁nefis": 3553,
      "▁konumunu": 3554,
      "▁ce": 3555,
      "▁oldurmek": 3556,
      "▁anim": 3557,
      "▁dunyaya": 3558,
      "▁ayrım": 3559,
      "▁bulanık": 3560,
      "▁ait": 3561,
      "ilirken": 3562,
      "▁kapsam": 3563,
      "▁kahvalti": 3564,
      "▁ucus": 3565,
      "wer": 3566,
      "▁kag": 3567,
      "▁emel": 3568,
      "umlu": 3569,
      "▁sebze": 3570,
      "cıya": 3571,
      "▁yeri": 3572,
      "▁odadan": 3573,
      "▁sekl": 3574,
      "▁olayın": 3575,
      "▁leblebi": 3576,
      "▁icten": 3577,
      "chell": 3578,
      "▁ceo": 3579,
      "form": 3580,
      "▁kanep": 3581,
      "▁hanımı": 3582,
      "▁tiksin": 3583,
      "dugum": 3584,
      "▁mırıldandı": 3585,
      "▁sorunlar": 3586,
      "▁cob": 3587,
      "gate": 3588,
      "▁gazetecilik": 3589,
      "▁41.2": 3590,
      "▁herhangi": 3591,
      "heim": 3592,
      "▁kafa": 3593,
      "▁ithalatı": 3594,
      "▁etti": 3595,
      "▁faizli": 3596,
      "▁gazetec": 3597,
      "▁vali": 3598,
      "▁esvap": 3599,
      "▁alın": 3600,
      "▁1962": 3601,
      "▁iciniz": 3602,
      "▁6.25": 3603,
      "▁sicak": 3604,
      "▁yurudum": 3605,
      "▁garsonlar": 3606,
      "▁acıklı": 3607,
      "▁yatar": 3608,
      "▁karakol": 3609,
      "▁verdigimiz": 3610,
      "▁geldigi": 3611,
      "▁turlari": 3612,
      "▁arabaya": 3613,
      "▁havlu": 3614,
      "▁saatinde": 3615,
      "▁gol": 3616,
      "▁acıklayan": 3617,
      "▁degerlendirmeye": 3618,
      "▁hafız": 3619,
      "ısında": 3620,
      "deler": 3621,
      "ledigi": 3622,
      "▁soruları": 3623,
      "▁bulunmaktadır": 3624,
      "in": 3625,
      "▁philadelphia": 3626,
      "afet": 3627,
      "▁takıldı": 3628,
      "▁cicekli": 3629,
      "▁hastalı": 3630,
      "maktadır": 3631,
      "▁ab'nin": 3632,
      "▁anlıyor": 3633,
      "▁vergisi": 3634,
      "▁muht": 3635,
      "▁ısıl": 3636,
      "'dir": 3637,
      "▁oturdugu": 3638,
      "▁gozlerini": 3639,
      "▁fr": 3640,
      "okul": 3641,
      "dadı": 3642,
      "▁demokratlar": 3643,
      "=": 3644,
      "▁cins": 3645,
      "▁birligi": 3646,
      "▁viy": 3647,
      "▁gazetesinin": 3648,
      "▁fil": 3649,
      "▁cak": 3650,
      "/16": 3651,
      "▁burokrat": 3652,
      "▁tampa'dan": 3653,
      "▁gorevi": 3654,
      "atin": 3655,
      "yim": 3656,
      "▁hasıl": 3657,
      "▁muhal": 3658,
      "ılıyordu": 3659,
      "▁sabaha": 3660,
      "▁mad": 3661,
      "evizyon": 3662,
      "▁evlilig": 3663,
      "esiydi": 3664,
      "▁dayan": 3665,
      "▁salkım": 3666,
      "▁mod": 3667,
      "▁hicbirinin": 3668,
      "▁gitmedim": 3669,
      "'an": 3670,
      "lendim": 3671,
      "▁milyonlarca": 3672,
      "▁yururluk": 3673,
      "▁ansiklop": 3674,
      "▁seydir": 3675,
      "▁1.5920": 3676,
      "▁gormedi": 3677,
      "▁erdir": 3678,
      "amlı": 3679,
      "elerden": 3680,
      "▁yuzunun": 3681,
      "▁giys": 3682,
      "▁odemis": 3683,
      "▁kalmaya": 3684,
      "▁1.19": 3685,
      "▁ıs": 3686,
      "1'e": 3687,
      "▁zam": 3688,
      "▁kadındı": 3689,
      "▁azalan": 3690,
      "▁kira": 3691,
      "▁yasındaki": 3692,
      "▁rok": 3693,
      "▁falan": 3694,
      "▁alanın": 3695,
      "▁yahu": 3696,
      "▁cleveland'a": 3697,
      "er": 3698,
      "▁sarısı": 3699,
      "▁manzar": 3700,
      "▁yerlesik": 3701,
      "▁cana": 3702,
      "in'in": 3703,
      "▁sanayicileri": 3704,
      "▁siniz": 3705,
      "aladım": 3706,
      "▁cıkag": 3707,
      "▁bahcesi": 3708,
      "▁yapabilir": 3709,
      "▁tasv": 3710,
      ".ceyrek": 3711,
      "▁yollarda": 3712,
      "lıgının": 3713,
      "▁bindokuzyuzotuz": 3714,
      "▁gunlerde": 3715,
      "▁filozof": 3716,
      "▁ld": 3717,
      "▁sonbah": 3718,
      "▁asama": 3719,
      "▁kapısını": 3720,
      "▁kesilmis": 3721,
      "▁yolda": 3722,
      "▁oyleyse": 3723,
      "▁haziran": 3724,
      "▁gunleri": 3725,
      "▁cum": 3726,
      "▁olanlar": 3727,
      "▁kulub": 3728,
      "ras": 3729,
      "▁doktorların": 3730,
      "▁muamele": 3731,
      "▁degildir": 3732,
      "▁miktar": 3733,
      "▁elde": 3734,
      "▁yaktı": 3735,
      "▁atıl": 3736,
      "▁ogrenmek": 3737,
      "▁ım": 3738,
      "▁iyilik": 3739,
      "urcuk": 3740,
      "▁sozune": 3741,
      "▁mek": 3742,
      "memek": 3743,
      "▁ibrahim": 3744,
      "▁cevrili": 3745,
      "▁tuh": 3746,
      "▁sk": 3747,
      "▁alar": 3748,
      "ladıgı": 3749,
      "▁yatırımcıları": 3750,
      "▁memnuniyeti": 3751,
      "eliyor": 3752,
      "▁satıcı": 3753,
      "emki": 3754,
      "▁masal": 3755,
      "▁karsilas": 3756,
      "emeyecek": 3757,
      "mma": 3758,
      "▁cocuklarına": 3759,
      "▁bede": 3760,
      "▁dille": 3761,
      "eksiyon": 3762,
      "batı": 3763,
      "▁taahhut": 3764,
      "▁kurtar": 3765,
      "ulmus": 3766,
      "▁kadar": 3767,
      "rar": 3768,
      "▁cen": 3769,
      "▁bakar": 3770,
      "▁oyu": 3771,
      "ırıl": 3772,
      "▁etkin": 3773,
      "▁ressam": 3774,
      "▁mufet": 3775,
      "▁527": 3776,
      "▁parcacık": 3777,
      "▁merh": 3778,
      "ıyor": 3779,
      "▁ertel": 3780,
      "▁surpriz": 3781,
      "▁mikr": 3782,
      "▁ispan": 3783,
      "▁145": 3784,
      "▁625.4": 3785,
      "▁halk": 3786,
      "▁dusurdu": 3787,
      "▁reagan": 3788,
      "▁kurtulmak": 3789,
      "▁yedik": 3790,
      "▁kalemi": 3791,
      "▁ucretlerini": 3792,
      "▁tutulmus": 3793,
      "▁oneri": 3794,
      "▁insanlardan": 3795,
      "▁ciftci": 3796,
      "▁ucuslar": 3797,
      "▁amacıyla": 3798,
      "▁uzeri": 3799,
      "▁sektorunde": 3800,
      "▁1987": 3801,
      "▁hel": 3802,
      "ustan": 3803,
      "▁kilit": 3804,
      "▁kazanmak": 3805,
      "▁kateg": 3806,
      "▁kirec": 3807,
      "▁kızın": 3808,
      "▁gecmis": 3809,
      "spor": 3810,
      "▁kut": 3811,
      "chester": 3812,
      "▁izin": 3813,
      "ez": 3814,
      "▁aqu": 3815,
      "▁oak": 3816,
      "▁demeye": 3817,
      "istik": 3818,
      "▁alıstır": 3819,
      "▁vad": 3820,
      "leriniz": 3821,
      "▁suikast": 3822,
      "▁sozcuk": 3823,
      "▁acım": 3824,
      "e'de": 3825,
      "▁durup": 3826,
      "▁ihtimal": 3827,
      "▁seven": 3828,
      "▁1.90": 3829,
      "▁ucurt": 3830,
      "▁insanlık": 3831,
      "▁fas": 3832,
      "ser": 3833,
      "▁hepimiz": 3834,
      "▁yasamın": 3835,
      "▁um": 3836,
      "▁hisseleri": 3837,
      "ıldım": 3838,
      "▁duygu": 3839,
      "▁donald": 3840,
      "▁he": 3841,
      "▁oylesine": 3842,
      "▁gordugumuz": 3843,
      "▁toplayan": 3844,
      "▁parti": 3845,
      "▁ulastırma": 3846,
      "lıkları": 3847,
      "▁gerektigine": 3848,
      "▁aksamki": 3849,
      "▁ilerleme": 3850,
      "▁dalg": 3851,
      "▁yiyor": 3852,
      "▁bug": 3853,
      "▁bilgisay": 3854,
      "▁yerli": 3855,
      "▁yasan": 3856,
      "▁radyo": 3857,
      "▁denver'deki": 3858,
      "▁arasında": 3859,
      "▁sagır": 3860,
      "▁dokmek": 3861,
      "▁yav": 3862,
      "▁sehre": 3863,
      "▁babası": 3864,
      "▁hec": 3865,
      "▁kurk": 3866,
      "▁ster": 3867,
      "▁147": 3868,
      "▁cifti": 3869,
      "▁gerekti": 3870,
      "▁bırakmıs": 3871,
      "▁0.": 3872,
      "▁icindir": 3873,
      "▁borsası'ndaki": 3874,
      "▁atları": 3875,
      "▁muhalif": 3876,
      "▁donusu": 3877,
      "▁161.5": 3878,
      "▁boynunda": 3879,
      "▁65": 3880,
      "▁alınan": 3881,
      "▁montreal'a": 3882,
      "▁yumurt": 3883,
      "▁38.50": 3884,
      "▁abd'de": 3885,
      "▁izlemek": 3886,
      "eld": 3887,
      "▁nut": 3888,
      "▁istendi": 3889,
      "▁gold": 3890,
      "▁kaymak": 3891,
      "▁yetiskin": 3892,
      "▁gungor": 3893,
      "▁hijyenikti": 3894,
      "▁hızlıca": 3895,
      "▁sayıl": 3896,
      "▁yavrum": 3897,
      "▁kendisinde": 3898,
      "▁ihracat": 3899,
      "ecegine": 3900,
      "▁eliyle": 3901,
      "▁zamaninda": 3902,
      "▁mesaj": 3903,
      "ume": 3904,
      "▁mus": 3905,
      "▁derg": 3906,
      "amıstı": 3907,
      "atla": 3908,
      "▁salomon": 3909,
      "▁acılacak": 3910,
      "ılma": 3911,
      "▁kaldırdı": 3912,
      "▁eksi": 3913,
      "▁kazancı": 3914,
      "▁425000": 3915,
      "▁kabul": 3916,
      "▁ic": 3917,
      "▁anlay": 3918,
      "▁sular": 3919,
      "▁kacınılmaz": 3920,
      "▁yonunde": 3921,
      "0'den": 3922,
      "▁olmustu": 3923,
      "▁ltd.": 3924,
      "▁meger": 3925,
      "▁bush'un": 3926,
      "▁donuyor": 3927,
      "▁gotur": 3928,
      "▁hasta": 3929,
      "ılırdı": 3930,
      "▁nay": 3931,
      "▁artısı": 3932,
      "▁allian": 3933,
      "ısıp": 3934,
      "▁huv": 3935,
      "▁rast": 3936,
      "▁grev": 3937,
      "▁limuz": 3938,
      "▁askerler": 3939,
      "▁%3.4": 3940,
      "▁kasket": 3941,
      "▁katilmak": 3942,
      "▁izliyor": 3943,
      "▁veh": 3944,
      "▁kel": 3945,
      "▁beraber": 3946,
      "▁annesinin": 3947,
      "▁pin": 3948,
      "▁vurmus": 3949,
      "▁yazılan": 3950,
      "▁dısarıya": 3951,
      "▁acmak": 3952,
      "▁geldiniz": 3953,
      "▁18.65": 3954,
      "▁103": 3955,
      "▁mg": 3956,
      "▁2.1": 3957,
      "liyordu": 3958,
      "▁tay": 3959,
      "▁zorla": 3960,
      "ıslar": 3961,
      "▁ko": 3962,
      "▁kurumsal": 3963,
      ":30": 3964,
      "▁dergi": 3965,
      "anın": 3966,
      "▁yiyecekler": 3967,
      "▁misin": 3968,
      "▁4.6": 3969,
      "▁gosterin": 3970,
      "▁vermek": 3971,
      "▁=": 3972,
      "▁milliyetci": 3973,
      "▁financi": 3974,
      "▁egzersiz": 3975,
      "▁baslandı": 3976,
      "ediyi": 3977,
      "▁ass": 3978,
      "▁bitirdi": 3979,
      "▁esnasında": 3980,
      "▁menfaat": 3981,
      "▁inerek": 3982,
      "▁ucyuzatmıs": 3983,
      "▁vol": 3984,
      "▁en": 3985,
      "▁vadesi": 3986,
      "▁188": 3987,
      "▁zay": 3988,
      "▁ısır": 3989,
      "▁hatirlamiyorum": 3990,
      "▁ettir": 3991,
      "▁sci": 3992,
      "▁kan": 3993,
      "▁leri": 3994,
      "▁severek": 3995,
      "▁olumune": 3996,
      "▁ırk": 3997,
      "▁aylarında": 3998,
      "▁tuccarı": 3999,
      "▁tiyatr": 4000,
      "▁12.9": 4001,
      "'dır": 4002,
      "sun": 4003,
      "▁cıkısı": 4004,
      "▁konuları": 4005,
      "▁1250": 4006,
      "▁duvarlar": 4007,
      "ral": 4008,
      "▁color": 4009,
      "▁eri": 4010,
      "▁garson": 4011,
      "▁rakamlar": 4012,
      "3.8": 4013,
      "elendir": 4014,
      "▁son": 4015,
      "▁vah": 4016,
      "acıların": 4017,
      "▁electric": 4018,
      "▁sarılı": 4019,
      "▁entel": 4020,
      "sanın": 4021,
      "▁bilgi": 4022,
      "▁kırıklıgı": 4023,
      "▁cocuk": 4024,
      "ski": 4025,
      "▁seneye": 4026,
      "▁kıc": 4027,
      "▁vardır": 4028,
      "ald": 4029,
      "ememis": 4030,
      "▁iktidara": 4031,
      "▁atlan": 4032,
      "▁166.9": 4033,
      "▁izah": 4034,
      "▁gerekirdi": 4035,
      "mesinin": 4036,
      "▁donan": 4037,
      "ugum": 4038,
      "sekiz": 4039,
      "▁kokulu": 4040,
      "▁karanlık": 4041,
      "▁dusundu": 4042,
      "▁kalkmıs": 4043,
      "▁rusya": 4044,
      "▁iste": 4045,
      "otu": 4046,
      "▁dram": 4047,
      "liginden": 4048,
      "▁yurttas": 4049,
      "8.9": 4050,
      "ege": 4051,
      "▁for": 4052,
      "▁eastern": 4053,
      "▁odenek": 4054,
      "▁edilm": 4055,
      "▁aks": 4056,
      "▁kırp": 4057,
      "▁kimseler": 4058,
      "89-": 4059,
      "uculuk": 4060,
      "▁kıbr": 4061,
      "▁ansik": 4062,
      "ash": 4063,
      "▁olagan": 4064,
      "duk": 4065,
      "iter": 4066,
      "▁asil": 4067,
      "▁vec": 4068,
      "▁bırakmak": 4069,
      "▁kapak": 4070,
      "▁sıyr": 4071,
      "▁acaba": 4072,
      "▁bolun": 4073,
      "▁yararlan": 4074,
      "ell": 4075,
      "ucuk": 4076,
      "▁ves": 4077,
      "▁55": 4078,
      "▁sut": 4079,
      "▁dairesi": 4080,
      "emeyecegi": 4081,
      "▁devasa": 4082,
      "▁oldugunda": 4083,
      "▁sayılmaz": 4084,
      "▁eren": 4085,
      "▁ras": 4086,
      "▁bizlerle": 4087,
      "▁kaybeden": 4088,
      "▁aksamları": 4089,
      "▁caz": 4090,
      "▁3/4": 4091,
      "▁girebilir": 4092,
      "▁duyulur": 4093,
      "▁hita": 4094,
      "▁fa": 4095,
      "▁kural": 4096,
      "▁beg": 4097,
      "meyen": 4098,
      "▁systems": 4099,
      "▁evvela": 4100,
      "▁isbir": 4101,
      "▁gerekcesiyle": 4102,
      "▁isini": 4103,
      "▁hızlandır": 4104,
      "▁gelmesi": 4105,
      "▁may": 4106,
      "ega'nın": 4107,
      "▁pant": 4108,
      "▁3.6": 4109,
      "duktan": 4110,
      "bia": 4111,
      "▁sed": 4112,
      "▁ihtiyacı": 4113,
      "▁vuruyor": 4114,
      "▁odu": 4115,
      "▁basma": 4116,
      "ustur": 4117,
      "▁buldu": 4118,
      ".76": 4119,
      "▁bankacı": 4120,
      "▁ucyuzyetmisbir": 4121,
      "▁20.42": 4122,
      "▁dalkavuk": 4123,
      "▁8.1": 4124,
      "▁hatalar": 4125,
      "arak": 4126,
      "▁veren": 4127,
      "▁gorusme": 4128,
      "▁zarfında": 4129,
      "▁bul": 4130,
      "inaydi": 4131,
      "▁yetkilisi": 4132,
      "▁temettu": 4133,
      "▁sarar": 4134,
      "▁oturt": 4135,
      "▁yuzuk": 4136,
      "▁5.9": 4137,
      "▁cesidi": 4138,
      "▁1.39": 4139,
      "▁umur": 4140,
      "▁kısacası": 4141,
      "▁yasal": 4142,
      "▁mab": 4143,
      "▁dalgalan": 4144,
      "68": 4145,
      "dos": 4146,
      "iz": 4147,
      "▁1989-8": 4148,
      "▁hewlett-packard": 4149,
      "▁sorustur": 4150,
      "▁harıl": 4151,
      "▁yayınlan": 4152,
      "▁cikista": 4153,
      "▁birkacının": 4154,
      "▁gecirdik": 4155,
      "▁puanlama": 4156,
      "▁cesitliligi": 4157,
      "▁yapay": 4158,
      "▁minik": 4159,
      "▁gelmiyor": 4160,
      "▁gozuyle": 4161,
      "▁klas": 4162,
      "▁icin": 4163,
      "▁et": 4164,
      "ormal": 4165,
      "▁toplayıp": 4166,
      "ilir": 4167,
      "▁ların": 4168,
      "▁yarı": 4169,
      "▁fevkalade": 4170,
      "▁abdul": 4171,
      "dıgımızı": 4172,
      "onelik": 4173,
      "▁islere": 4174,
      "▁sınıflandır": 4175,
      "▁zer": 4176,
      "▁degismedi": 4177,
      "tısına": 4178,
      "▁taklit": 4179,
      "▁avrupa'da": 4180,
      "▁'": 4181,
      "▁vurdu": 4182,
      "▁elimden": 4183,
      "▁espr": 4184,
      "▁sigortası": 4185,
      "▁hizmette": 4186,
      "indeki": 4187,
      "metik": 4188,
      "▁1.8": 4189,
      "▁sahn": 4190,
      "loy": 4191,
      "▁oturdu": 4192,
      "▁ır": 4193,
      "▁yoneticiler": 4194,
      "▁saadet": 4195,
      "oca": 4196,
      "▁kalitesizdi": 4197,
      "▁birer": 4198,
      "cıl": 4199,
      "▁kalab": 4200,
      "▁sahnede": 4201,
      "▁denizden": 4202,
      "▁tehlike": 4203,
      "alanı": 4204,
      "▁wang": 4205,
      "▁hazin": 4206,
      "▁japonya'nın": 4207,
      "▁sozde": 4208,
      "▁goruluyor": 4209,
      "▁animasyon": 4210,
      "▁cıkarıyor": 4211,
      "▁soruyor": 4212,
      "▁azaldı": 4213,
      "t'in": 4214,
      "▁7.8": 4215,
      "▁bulunmaz": 4216,
      "▁bolge": 4217,
      "▁gittik": 4218,
      "▁ankete": 4219,
      "▁kadif": 4220,
      "▁yaptılar": 4221,
      "ord": 4222,
      "▁marc": 4223,
      "▁tatile": 4224,
      "▁366": 4225,
      "▁sevinc": 4226,
      "▁arasına": 4227,
      "▁koruy": 4228,
      "▁hah": 4229,
      "▁ticaretinde": 4230,
      "▁kendini": 4231,
      "▁laz": 4232,
      "▁peters": 4233,
      "eket": 4234,
      "cık": 4235,
      "▁sıf": 4236,
      "▁ceyrekte": 4237,
      "▁grup": 4238,
      "▁yız": 4239,
      "xel": 4240,
      "▁gucsuz": 4241,
      ".06": 4242,
      "▁yaratıyor": 4243,
      "▁cr": 4244,
      "▁kork": 4245,
      "▁partners": 4246,
      "▁bırakarak": 4247,
      "▁122": 4248,
      "▁aksamustu": 4249,
      "usu": 4250,
      "▁boston'a": 4251,
      "ıc": 4252,
      "▁570": 4253,
      "▁americ": 4254,
      "gının": 4255,
      "▁kov": 4256,
      "▁fakult": 4257,
      "▁miss": 4258,
      "▁mal": 4259,
      "▁tahminlerinin": 4260,
      "▁indianapolis": 4261,
      "▁vurdum": 4262,
      "▁co.'nun": 4263,
      "▁tayin": 4264,
      "▁kandır": 4265,
      "▁ortak": 4266,
      "▁olduk": 4267,
      "▁secen": 4268,
      "▁musta": 4269,
      "‘": 4270,
      "altı": 4271,
      "▁haft": 4272,
      "▁makul": 4273,
      "▁karsiladi": 4274,
      "▁suya": 4275,
      "▁avantaj": 4276,
      "sini": 4277,
      "▁lloyd": 4278,
      "osyon": 4279,
      "ginde": 4280,
      "▁agr": 4281,
      "▁cekiyor": 4282,
      "▁aban": 4283,
      "▁g.": 4284,
      "▁quot": 4285,
      "emeyecegim": 4286,
      "▁arkad": 4287,
      "▁kucuk": 4288,
      "07": 4289,
      "▁havalimanından": 4290,
      "▁fiyatlandır": 4291,
      "▁4200'e": 4292,
      "teler": 4293,
      "▁avcı": 4294,
      "▁proje": 4295,
      "▁tavan": 4296,
      "▁diye": 4297,
      "▁olsun": 4298,
      "▁massachusetts": 4299,
      "▁3000": 4300,
      ".2": 4301,
      "emedim": 4302,
      "▁mud": 4303,
      "ıyorum": 4304,
      "▁elestir": 4305,
      "▁kaynar": 4306,
      "▁tarihten": 4307,
      "raf": 4308,
      "▁sindir": 4309,
      "▁guzeldi": 4310,
      "▁zıp": 4311,
      "▁ort": 4312,
      "▁gidebil": 4313,
      "igine": 4314,
      "▁nesil": 4315,
      "▁pismis": 4316,
      "▁dogan": 4317,
      "▁gitmeyi": 4318,
      "▁yabancı": 4319,
      "▁sesle": 4320,
      "▁koyu": 4321,
      "▁tedavuldeki": 4322,
      "▁201622.": 4323,
      "▁soylemek": 4324,
      "▁edilir": 4325,
      "enkul": 4326,
      "▁uns": 4327,
      "▁karakter": 4328,
      "▁kahkaha": 4329,
      "▁degerler": 4330,
      "alari": 4331,
      "▁yargıc": 4332,
      "ıs": 4333,
      "ebilen": 4334,
      "ente": 4335,
      "▁bond": 4336,
      "▁gurbet": 4337,
      "ort": 4338,
      "▁nor": 4339,
      "▁tug": 4340,
      "al'ın": 4341,
      "▁zalim": 4342,
      "▁satmaya": 4343,
      "▁nal": 4344,
      "▁yaz": 4345,
      "▁halini": 4346,
      "▁yuzd": 4347,
      "▁yolculuk": 4348,
      "▁satıyor": 4349,
      "▁siddetli": 4350,
      "▁1960'": 4351,
      "▁usak": 4352,
      "▁kasabanın": 4353,
      "▁babamın": 4354,
      "▁pamuk": 4355,
      "▁hakikaten": 4356,
      "▁5.7": 4357,
      "▁mudu": 4358,
      "tigim": 4359,
      "melidir": 4360,
      ".70": 4361,
      "▁yes": 4362,
      "▁oturu": 4363,
      "▁metaf": 4364,
      "▁kendisi": 4365,
      "ısma": 4366,
      "gi": 4367,
      "▁boynun": 4368,
      "▁cenaz": 4369,
      "▁haftalarda": 4370,
      "▁ing": 4371,
      "tre": 4372,
      "'yu": 4373,
      "▁lab": 4374,
      "▁rut": 4375,
      "▁sıcr": 4376,
      "▁kafes": 4377,
      "▁yasamadim": 4378,
      "▁soyun": 4379,
      "▁yurutme": 4380,
      "▁konusunu": 4381,
      "▁hırs": 4382,
      "▁oncesi": 4383,
      "▁iht": 4384,
      "▁dolay": 4385,
      "▁%5": 4386,
      "▁%10": 4387,
      "▁kıran": 4388,
      "▁oldukları": 4389,
      "▁sıg": 4390,
      "lerdeki": 4391,
      "lesmisti": 4392,
      "aydın": 4393,
      "▁donemin": 4394,
      "▁essiz": 4395,
      "▁icine": 4396,
      "▁olusu": 4397,
      "▁yuruyus": 4398,
      "▁salın": 4399,
      "alara": 4400,
      "▁gonlunu": 4401,
      "▁diyar": 4402,
      "▁konuyu": 4403,
      "43": 4404,
      "▁kirpik": 4405,
      "▁degildik": 4406,
      "▁saran": 4407,
      ".625": 4408,
      "▁skan": 4409,
      "▁seslerini": 4410,
      "▁11:": 4411,
      "ific": 4412,
      "▁ileri": 4413,
      "▁lerdir": 4414,
      "▁nimet": 4415,
      "▁sayı": 4416,
      "▁nihayet": 4417,
      "▁gun": 4418,
      "▁tarafı": 4419,
      "▁ilgililerdi": 4420,
      "▁bre": 4421,
      "▁tarafa": 4422,
      "▁duzine": 4423,
      "▁paylar": 4424,
      "asında": 4425,
      "lendiriyor": 4426,
      "▁evde": 4427,
      "ational": 4428,
      "▁kelime": 4429,
      "▁deme": 4430,
      "▁ayrica": 4431,
      "▁cehenn": 4432,
      "87": 4433,
      "▁yaparken": 4434,
      "▁uzanan": 4435,
      "esiyle": 4436,
      "▁iddia": 4437,
      "▁yuruyen": 4438,
      "▁ucak": 4439,
      "▁gez": 4440,
      "▁porcuk": 4441,
      "▁memnunum": 4442,
      "▁patron": 4443,
      "▁cagdas": 4444,
      "dol": 4445,
      "▁merkeze": 4446,
      "▁pos": 4447,
      "▁sop": 4448,
      "▁cıglık": 4449,
      "mede": 4450,
      "▁islemi": 4451,
      "▁gece": 4452,
      "▁44.5": 4453,
      "lul": 4454,
      "▁odenmesi": 4455,
      "mafi": 4456,
      "▁acın": 4457,
      "▁tavana": 4458,
      "▁kullandim": 4459,
      "▁dagın": 4460,
      "ayabilir": 4461,
      "▁kabus": 4462,
      "▁hang": 4463,
      "▁3'ten": 4464,
      "eles": 4465,
      "▁kıskan": 4466,
      "▁yaprakları": 4467,
      "lips": 4468,
      "▁cıkmıyor": 4469,
      "▁denize": 4470,
      "▁magaz": 4471,
      "▁sm": 4472,
      "▁haberler": 4473,
      "leleri": 4474,
      "▁mıydım": 4475,
      "▁fıkır": 4476,
      "anların": 4477,
      "▁nasihat": 4478,
      "▁kapının": 4479,
      "▁cami": 4480,
      "▁bagımsız": 4481,
      "▁cub": 4482,
      "▁board": 4483,
      "▁dususun": 4484,
      "▁sıkıntısı": 4485,
      "0.4": 4486,
      "▁yerde": 4487,
      "▁ih": 4488,
      "▁alıyor": 4489,
      "▁kacıyor": 4490,
      "▁hin": 4491,
      "5.2": 4492,
      "▁isaret": 4493,
      "▁sonraki": 4494,
      "ahh": 4495,
      "▁terc": 4496,
      "▁patlıc": 4497,
      "▁kucucuk": 4498,
      "▁sakallı": 4499,
      "▁baskanlıgı": 4500,
      "ildigini": 4501,
      "▁slog": 4502,
      "▁gre": 4503,
      "cisi": 4504,
      "▁mekan": 4505,
      "▁bindokuzyuz": 4506,
      "▁dilek": 4507,
      "▁tuccarlar": 4508,
      "vest": 4509,
      "▁cin'in": 4510,
      "▁alan": 4511,
      "▁soyleniyor": 4512,
      "▁zengindi": 4513,
      "▁turunu": 4514,
      "▁hazine": 4515,
      "ayıp": 4516,
      "▁kagıt": 4517,
      "▁ilgisiz": 4518,
      "▁bakanlıgı'nın": 4519,
      "▁listeleyin": 4520,
      "unuz": 4521,
      "▁pis": 4522,
      "▁yillardir": 4523,
      "▁st.": 4524,
      "alandı": 4525,
      "▁onlardan": 4526,
      "▁lee": 4527,
      "▁degerlendiririm": 4528,
      "▁251": 4529,
      "▁seattle'ye": 4530,
      "▁sas": 4531,
      "▁ilgilenmediler": 4532,
      "▁bilgisayar": 4533,
      "▁saldırgan": 4534,
      "vır": 4535,
      "▁olanakları": 4536,
      "▁hepimize": 4537,
      "▁layık": 4538,
      "25000": 4539,
      "▁senede": 4540,
      "▁bulunuyor": 4541,
      "▁edebil": 4542,
      "▁hicbirini": 4543,
      "▁kalmamıs": 4544,
      "yetmis": 4545,
      "lamalı": 4546,
      "▁ucuslarla": 4547,
      "▁d": 4548,
      "▁a": 4549,
      "▁soluk": 4550,
      "▁elimi": 4551,
      "▁a.s": 4552,
      "▁nerelere": 4553,
      "▁diyebilirim": 4554,
      "▁guvert": 4555,
      "▁gorundugu": 4556,
      "▁misyon": 4557,
      "liginin": 4558,
      "▁millet": 4559,
      "▁alas": 4560,
      "▁kopmus": 4561,
      "▁kardesim": 4562,
      "▁etmediler": 4563,
      "▁vazo": 4564,
      "▁cle": 4565,
      "▁pav": 4566,
      "oglu": 4567,
      "0'e": 4568,
      "ılmamıs": 4569,
      "▁saglıklı": 4570,
      "iyorum": 4571,
      "▁kerem": 4572,
      "▁isyan": 4573,
      "▁u.s.": 4574,
      "▁kaybederek": 4575,
      "▁capında": 4576,
      "▁bireyin": 4577,
      "▁derece": 4578,
      "▁izley": 4579,
      "▁ederdi": 4580,
      "▁.\"": 4581,
      "▁asci": 4582,
      "▁kullanmadim": 4583,
      "▁ekmegi": 4584,
      "▁ro": 4585,
      "cher": 4586,
      "▁vur": 4587,
      "▁ciro": 4588,
      "▁acel": 4589,
      "▁uyelik": 4590,
      "▁elden": 4591,
      "atur": 4592,
      "▁cephe": 4593,
      "▁parlam": 4594,
      "▁kimseye": 4595,
      "▁yarıs": 4596,
      "▁azdi": 4597,
      "de": 4598,
      "▁achen": 4599,
      "▁duydu": 4600,
      "▁dayanır": 4601,
      "doksan": 4602,
      "▁hakikat": 4603,
      "mayacak": 4604,
      "▁hut": 4605,
      "iligine": 4606,
      "▁muvaff": 4607,
      "▁sona": 4608,
      "▁bitiyor": 4609,
      "▁piyasada": 4610,
      "teydi": 4611,
      "▁gazino": 4612,
      "▁yahut": 4613,
      "▁bilimleri": 4614,
      "▁haldun": 4615,
      "ması": 4616,
      "▁sım": 4617,
      "▁beyn": 4618,
      "▁degisim": 4619,
      "▁sık": 4620,
      "▁bilg": 4621,
      "▁bill": 4622,
      "▁birbirimize": 4623,
      "▁salata": 4624,
      "▁standar": 4625,
      "▁kapısına": 4626,
      "▁teknoloj": 4627,
      "▁boyunda": 4628,
      "▁nadi": 4629,
      "▁yıldan": 4630,
      "▁sta": 4631,
      "▁sıgır": 4632,
      "▁felsef": 4633,
      "▁parlak": 4634,
      "▁can": 4635,
      "▁anneme": 4636,
      "▁ısık": 4637,
      "▁kongre": 4638,
      "▁cocuklar": 4639,
      "▁ufakti": 4640,
      "▁ozgurluk": 4641,
      "inceye": 4642,
      "▁iktisat": 4643,
      "▁hepsinde": 4644,
      "▁gerceklestir": 4645,
      "▁soguktu": 4646,
      "▁silin": 4647,
      "▁;": 4648,
      "▁dog": 4649,
      "▁universit": 4650,
      "▁%27": 4651,
      "ebiliyor": 4652,
      "▁izleri": 4653,
      "iligini": 4654,
      "▁etmedim": 4655,
      "▁ortadan": 4656,
      "▁olsa": 4657,
      "▁bahs": 4658,
      "▁muthis": 4659,
      "▁klim": 4660,
      "▁1.05": 4661,
      "▁aksama": 4662,
      "▁law": 4663,
      "elerinden": 4664,
      "kti": 4665,
      "▁unif": 4666,
      "▁meydana": 4667,
      "▁camasır": 4668,
      "▁kontr": 4669,
      "▁buk": 4670,
      "▁kım": 4671,
      "▁tanz": 4672,
      "▁karıstı": 4673,
      "▁bayan": 4674,
      "▁dez": 4675,
      "▁da": 4676,
      "▁delta'nın": 4677,
      "▁kaps": 4678,
      "▁log": 4679,
      "▁mef": 4680,
      "▁maliyet": 4681,
      "▁kusursuz": 4682,
      "▁operasyon": 4683,
      "▁mass": 4684,
      "▁pudra": 4685,
      "▁darbuk": 4686,
      "▁yayınladı": 4687,
      "▁burbank'tan": 4688,
      "▁depr": 4689,
      "sinde": 4690,
      "elli": 4691,
      "▁hot": 4692,
      "▁/": 4693,
      "▁yaglı": 4694,
      "▁sıkıstır": 4695,
      "▁kaydedi": 4696,
      "▁terbiy": 4697,
      "▁oyalan": 4698,
      "z": 4699,
      "▁caddenin": 4700,
      "-t": 4701,
      "▁0.19": 4702,
      "▁hedefi": 4703,
      "▁memphis": 4704,
      "▁zirv": 4705,
      "▁tif": 4706,
      "▁buyume": 4707,
      "▁aklına": 4708,
      "▁karadeniz": 4709,
      "▁kaydetti": 4710,
      "malı": 4711,
      "▁diego'ya": 4712,
      "▁yumusak": 4713,
      "eniz": 4714,
      "▁agzı": 4715,
      "▁muddet": 4716,
      "▁yıllardır": 4717,
      "ımızdan": 4718,
      "▁kak": 4719,
      "▁mask": 4720,
      "▁ora": 4721,
      "▁edemiyor": 4722,
      "230": 4723,
      "▁dusman": 4724,
      "▁seksen": 4725,
      "/8": 4726,
      "eci": 4727,
      "▁malik": 4728,
      "▁evvelki": 4729,
      "uz": 4730,
      "▁renkli": 4731,
      "me": 4732,
      "▁duyurdu": 4733,
      "▁kurumu": 4734,
      "▁revize": 4735,
      "▁otuz'un": 4736,
      "▁communications": 4737,
      "dıgımı": 4738,
      "▁suyu": 4739,
      "▁parib": 4740,
      "▁konular": 4741,
      "▁cık": 4742,
      "ladık": 4743,
      "tator": 4744,
      "▁stan": 4745,
      "▁tavr": 4746,
      "ıtır": 4747,
      "▁unis": 4748,
      "umde": 4749,
      "▁azı": 4750,
      "▁gazetenin": 4751,
      "▁soguk": 4752,
      "▁a.b.d.": 4753,
      "▁kontrolu": 4754,
      "▁birbirine": 4755,
      "▁yontemi": 4756,
      "alama": 4757,
      "▁kısmını": 4758,
      "▁boylelikle": 4759,
      "▁guncel": 4760,
      "▁engelleri": 4761,
      "▁kaka": 4762,
      "▁toz": 4763,
      "▁2.6": 4764,
      "▁sonraları": 4765,
      "▁pırıltı": 4766,
      "▁68": 4767,
      "▁fen": 4768,
      "▁burbank": 4769,
      "30": 4770,
      "▁aleyh": 4771,
      "▁gecmiste": 4772,
      "▁85": 4773,
      "▁gozalt": 4774,
      "▁yukseltti": 4775,
      "▁kullanıl": 4776,
      "▁yakasına": 4777,
      "▁tarihin": 4778,
      "madik": 4779,
      "ruz": 4780,
      "▁pic": 4781,
      "▁saat": 4782,
      "▁185": 4783,
      "▁1.02": 4784,
      "▁kısıt": 4785,
      "▁7.6": 4786,
      "▁bar": 4787,
      "▁yayımlanan": 4788,
      "▁ramazan": 4789,
      "▁kendileri": 4790,
      "▁gelebilir": 4791,
      "▁yargılan": 4792,
      "▁nes": 4793,
      "▁varacak": 4794,
      "▁konustu": 4795,
      "▁stanley": 4796,
      "▁1\\/4": 4797,
      "▁orman": 4798,
      "▁konusu": 4799,
      "▁de": 4800,
      "▁hast": 4801,
      "▁kurtarma": 4802,
      "▁tar": 4803,
      "▁genislem": 4804,
      "▁ibm": 4805,
      "▁data": 4806,
      "▁25": 4807,
      "▁sp": 4808,
      "lamadan": 4809,
      "ciden": 4810,
      "▁olmadigini": 4811,
      "▁kil": 4812,
      "▁benim": 4813,
      "eleriyle": 4814,
      "▁kelep": 4815,
      "acaksınız": 4816,
      "▁egitimi": 4817,
      "▁yanlıs": 4818,
      "▁uykuya": 4819,
      "ısır": 4820,
      "▁ayrılan": 4821,
      "▁tele": 4822,
      "akta": 4823,
      "memesi": 4824,
      "dıgımız": 4825,
      "▁altern": 4826,
      "▁hane": 4827,
      "▁sorunlarına": 4828,
      "madıgı": 4829,
      "▁duyuyor": 4830,
      "▁cer": 4831,
      "▁acayip": 4832,
      "▁sayan": 4833,
      "▁murekk": 4834,
      "▁dır": 4835,
      "▁gozler": 4836,
      "▁buyum": 4837,
      "▁104": 4838,
      "▁vade": 4839,
      "▁guzellik": 4840,
      "mıssın": 4841,
      "▁kahve": 4842,
      "'nı": 4843,
      "▁eriy": 4844,
      "▁corry": 4845,
      "kı": 4846,
      "▁%9": 4847,
      "hur": 4848,
      "larımıza": 4849,
      "▁isimiz": 4850,
      "▁semt": 4851,
      "▁tekn": 4852,
      "▁bankalar": 4853,
      "▁issiz": 4854,
      "▁cabucak": 4855,
      "▁etkinlik": 4856,
      "▁meseleyi": 4857,
      "▁ormanın": 4858,
      "▁arama": 4859,
      "anlar": 4860,
      "▁edildi": 4861,
      "emedik": 4862,
      "▁salı": 4863,
      "▁alaka": 4864,
      "▁esliginde": 4865,
      "digince": 4866,
      "▁aleyhine": 4867,
      "onk": 4868,
      "▁kaldırma": 4869,
      "▁nominal": 4870,
      "▁yerleri": 4871,
      "▁yapamam": 4872,
      "▁adnan": 4873,
      "eceginden": 4874,
      "ucunun": 4875,
      "▁gelir": 4876,
      "▁dergileri": 4877,
      "▁esnada": 4878,
      "▁agabey": 4879,
      "lulugunu": 4880,
      "lanta": 4881,
      "▁konak": 4882,
      "▁yurtdisinda": 4883,
      "▁york": 4884,
      "ota": 4885,
      "▁gundur": 4886,
      "▁turklerin": 4887,
      "▁fers": 4888,
      "eo": 4889,
      "▁konuyla": 4890,
      "akin": 4891,
      "▁noktada": 4892,
      "▁alanlar": 4893,
      "ırak": 4894,
      "▁sektor": 4895,
      "▁kanser": 4896,
      "▁fit": 4897,
      "▁degisiyor": 4898,
      "▁deg": 4899,
      "▁kader": 4900,
      "[SEP]": 4901,
      "▁fay": 4902,
      "▁yahya": 4903,
      "▁kktc": 4904,
      "▁ellerim": 4905,
      "▁tehlikeli": 4906,
      "iki": 4907,
      "mezse": 4908,
      "▁eseri": 4909,
      "alıyor": 4910,
      "▁degildiler": 4911,
      "▁acıyor": 4912,
      "▁hanım'ın": 4913,
      "dız": 4914,
      "mayan": 4915,
      "▁epeyce": 4916,
      "▁ister": 4917,
      "leer": 4918,
      "▁ustun": 4919,
      "▁!..": 4920,
      "▁etstur": 4921,
      "▁almadim": 4922,
      "▁sar": 4923,
      "▁gorusmedim": 4924,
      "▁kalmayı": 4925,
      "ogram": 4926,
      "▁halbuki": 4927,
      "▁lıg": 4928,
      "a'ya": 4929,
      "▁ner": 4930,
      "ebilmek": 4931,
      "▁bulundur": 4932,
      "▁baskalarının": 4933,
      "▁atesli": 4934,
      "▁tur": 4935,
      "ama": 4936,
      "▁sır": 4937,
      "▁lara": 4938,
      "▁arkamdan": 4939,
      "gı": 4940,
      "'d": 4941,
      "▁babasının": 4942,
      "guna": 4943,
      "▁satan": 4944,
      "▁seyh": 4945,
      "▁siiri": 4946,
      "▁karsılas": 4947,
      "▁hareketli": 4948,
      "▁olacagını": 4949,
      "▁tarihleri": 4950,
      "▁bazıları": 4951,
      "▁rady": 4952,
      "▁si": 4953,
      "▁cuma": 4954,
      "▁performans": 4955,
      "48": 4956,
      "▁anlasıldı": 4957,
      "masın": 4958,
      "daki": 4959,
      "▁faydası": 4960,
      "amay": 4961,
      "vari": 4962,
      "▁perakende": 4963,
      "ginden": 4964,
      "▁acıklıyor": 4965,
      "▁boyu": 4966,
      "▁versin": 4967,
      "iyorlardı": 4968,
      "▁tul": 4969,
      "arl": 4970,
      "▁derhal": 4971,
      "▁430000": 4972,
      "▁etmeyen": 4973,
      "landır": 4974,
      "int": 4975,
      "▁sark": 4976,
      "madigim": 4977,
      "▁aniden": 4978,
      "▁dakikada": 4979,
      "▁252": 4980,
      "mann": 4981,
      "▁anımsam": 4982,
      "yag": 4983,
      "kaltı": 4984,
      "▁istiyor": 4985,
      ".3": 4986,
      "▁yapmadıgını": 4987,
      "▁birbirinin": 4988,
      "▁tamir": 4989,
      "▁philadelphia'daki": 4990,
      "▁az": 4991,
      "▁kısı": 4992,
      "▁komutan": 4993,
      "▁kendimiz": 4994,
      "dıgımda": 4995,
      "▁1991": 4996,
      "▁milletvek": 4997,
      "dt": 4998,
      "▁oks": 4999,
      "▁surdu": 5000,
      "▁cocukların": 5001,
      "▁durdu": 5002,
      "▁il": 5003,
      "▁roy": 5004,
      "▁ileriye": 5005,
      "▁ailesinin": 5006,
      "'e": 5007,
      "▁oranda": 5008,
      "baska": 5009,
      "▁denli": 5010,
      "▁tı": 5011,
      "▁kasa": 5012,
      "▁353": 5013,
      "▁gelmez": 5014,
      "elmis": 5015,
      "▁golgesinde": 5016,
      "▁dusundugunu": 5017,
      "▁ayakta": 5018,
      "▁las": 5019,
      "▁solgun": 5020,
      "▁siir": 5021,
      "▁sok": 5022,
      "mekle": 5023,
      "▁aksak": 5024,
      "▁kullanılacak": 5025,
      "▁calısmaya": 5026,
      "▁zorunlu": 5027,
      "▁uyardı": 5028,
      "▁sanatın": 5029,
      "▁kurcal": 5030,
      "▁aranmak": 5031,
      "▁yerinde": 5032,
      "▁0.10": 5033,
      "▁varmıs": 5034,
      "isik": 5035,
      "▁etkili": 5036,
      "▁hikmet": 5037,
      "▁kaldım": 5038,
      "mur": 5039,
      "▁ille": 5040,
      "▁nav": 5041,
      "▁koku": 5042,
      "▁ortasında": 5043,
      "▁getirilerinin": 5044,
      "▁kırıl": 5045,
      "akları": 5046,
      "▁gelmeyen": 5047,
      "▁mıyım": 5048,
      "▁insanı": 5049,
      "▁vatan": 5050,
      "▁7.7": 5051,
      "▁anım": 5052,
      "ti": 5053,
      "▁yemekler": 5054,
      "▁psikolojik": 5055,
      "▁550": 5056,
      "▁or": 5057,
      "igit": 5058,
      "esini": 5059,
      "▁yag": 5060,
      "▁makinesi": 5061,
      "▁mut": 5062,
      "lardi": 5063,
      "▁dosem": 5064,
      "▁yersiz": 5065,
      "adi": 5066,
      "▁end": 5067,
      "▁almadan": 5068,
      "▁digeri": 5069,
      "▁yudum": 5070,
      "▁odey": 5071,
      "—": 5072,
      "lbu": 5073,
      "▁alana": 5074,
      "▁hepsi": 5075,
      "sarı": 5076,
      "▁yapmayı": 5077,
      "▁karsiligini": 5078,
      "▁176": 5079,
      "▁sandal": 5080,
      "▁icecekler": 5081,
      "▁yıl": 5082,
      "▁ticarette": 5083,
      "l'ın": 5084,
      "▁civarında": 5085,
      "▁almanya'nın": 5086,
      "mis": 5087,
      "▁mart": 5088,
      "dut": 5089,
      "▁haykır": 5090,
      "▁calisanlardan": 5091,
      "▁ozdemir": 5092,
      "▁elimizde": 5093,
      "▁yukarıda": 5094,
      "ech": 5095,
      "▁8.50": 5096,
      "▁almıs": 5097,
      "▁yedir": 5098,
      "▁dususu": 5099,
      "▁serin": 5100,
      "▁viraj": 5101,
      "sagı": 5102,
      "▁bilirler": 5103,
      "▁uzun": 5104,
      "eyman": 5105,
      "▁ver": 5106,
      "▁kaleci": 5107,
      "▁sorun": 5108,
      "▁magdur": 5109,
      "ahmet": 5110,
      "▁diyet": 5111,
      "▁124": 5112,
      "▁niyet": 5113,
      "▁yerden": 5114,
      "▁kendin": 5115,
      "ortaj": 5116,
      "▁luzum": 5117,
      "▁tatsız": 5118,
      "▁uyeleri": 5119,
      "▁bulgu": 5120,
      "et": 5121,
      "ton": 5122,
      "medikce": 5123,
      "▁secmek": 5124,
      "▁ulusal": 5125,
      "▁ceviri": 5126,
      "75": 5127,
      "▁gitmeli": 5128,
      "ısına": 5129,
      "▁ucu": 5130,
      "▁milyarını": 5131,
      "eyle": 5132,
      "▁trabzonspor": 5133,
      "▁sah": 5134,
      "▁lez": 5135,
      "▁gelisen": 5136,
      "▁111": 5137,
      "mazlar": 5138,
      "▁fıstık": 5139,
      "▁1.300": 5140,
      "▁204": 5141,
      "▁zamanla": 5142,
      "▁erkek": 5143,
      "▁attım": 5144,
      "▁yanlısı": 5145,
      "▁kapısında": 5146,
      "▁well": 5147,
      "▁uzaklas": 5148,
      "▁ulkenin": 5149,
      "▁elimde": 5150,
      "icorp": 5151,
      "▁arat": 5152,
      "▁cifte": 5153,
      "▁havayı": 5154,
      "▁arap": 5155,
      "▁kadını": 5156,
      "▁inip": 5157,
      "▁yurumek": 5158,
      "▁9.81": 5159,
      "▁yerine": 5160,
      "▁fındık": 5161,
      "▁kuresel": 5162,
      "▁1115": 5163,
      "▁hewlett": 5164,
      "▁mortgage": 5165,
      "▁capkın": 5166,
      "▁1.26": 5167,
      "▁elbis": 5168,
      "▁sıng": 5169,
      "elerin": 5170,
      "'une": 5171,
      "▁umarım": 5172,
      "esyon": 5173,
      "▁edilmesini": 5174,
      "▁yaptıgını": 5175,
      "▁kayı": 5176,
      "ona": 5177,
      "▁se": 5178,
      "ur": 5179,
      "▁nakliye": 5180,
      "▁bile": 5181,
      "▁450": 5182,
      "▁dilim": 5183,
      "▁sınırı": 5184,
      "▁degerlendirmek": 5185,
      "▁haldır": 5186,
      "▁yeng": 5187,
      "▁chic": 5188,
      "end": 5189,
      "▁calı": 5190,
      "▁17.01": 5191,
      "▁dipl": 5192,
      "▁sert": 5193,
      "▁gecerken": 5194,
      "▁kosuyor": 5195,
      "▁tatildi": 5196,
      "emm": 5197,
      "▁planın": 5198,
      "▁lı": 5199,
      "▁yırtık": 5200,
      "▁gittim": 5201,
      "▁tuf": 5202,
      "▁hanım": 5203,
      "▁vardı": 5204,
      "▁bizleri": 5205,
      "▁mor": 5206,
      "▁ingiltere'de": 5207,
      "ilik": 5208,
      "eh": 5209,
      "▁ses": 5210,
      "▁damg": 5211,
      "▁bekledigi": 5212,
      "▁birbirlerinin": 5213,
      "▁amac": 5214,
      "▁koca": 5215,
      "▁kinden": 5216,
      "lit": 5217,
      "▁tampa'ya": 5218,
      "▁horm": 5219,
      "▁mufett": 5220,
      "▁genelkurmay": 5221,
      "▁tabak": 5222,
      "▁sevimli": 5223,
      "lin": 5224,
      "lanır": 5225,
      "mamız": 5226,
      "▁297": 5227,
      "▁adamakıllı": 5228,
      "▁yetersiz": 5229,
      "▁kalitesi": 5230,
      "▁greens": 5231,
      "▁viski": 5232,
      "▁pay": 5233,
      "▁onay": 5234,
      "▁aktiv": 5235,
      "▁vasıtasıyla": 5236,
      "▁olanak": 5237,
      "▁%51": 5238,
      "▁bırakıl": 5239,
      "▁news": 5240,
      "gim": 5241,
      "▁corp.": 5242,
      "meyin": 5243,
      "▁yapılıyor": 5244,
      "agına": 5245,
      "▁143": 5246,
      "▁soyleyen": 5247,
      "▁ama": 5248,
      "▁japonlar": 5249,
      "▁getirmek": 5250,
      "▁1986": 5251,
      "'nin": 5252,
      "▁yasam": 5253,
      "▁20": 5254,
      "▁listesini": 5255,
      "8'den": 5256,
      "▁payını": 5257,
      "▁gorunen": 5258,
      "▁yurek": 5259,
      "▁cevik": 5260,
      "▁yılına": 5261,
      "▁sart": 5262,
      "▁bizlere": 5263,
      "▁ar": 5264,
      "▁bat": 5265,
      "▁kilidi": 5266,
      "uruz": 5267,
      "▁ydi": 5268,
      "▁bunca": 5269,
      "▁degisiklikleri": 5270,
      "▁cign": 5271,
      "▁hep": 5272,
      "▁gonderdi": 5273,
      "▁dilen": 5274,
      "▁isa": 5275,
      "▁verilecek": 5276,
      "▁gazetelerde": 5277,
      "40": 5278,
      "feld": 5279,
      "alamak": 5280,
      "▁keyif": 5281,
      "▁santim": 5282,
      "▁yedi": 5283,
      "ebilirdi": 5284,
      "'nu": 5285,
      "▁spekul": 5286,
      "masıdır": 5287,
      "▁ailelere": 5288,
      "▁eh": 5289,
      "▁sanat": 5290,
      "ilebilir": 5291,
      "imat": 5292,
      "▁sukur": 5293,
      "▁yapmak": 5294,
      "▁ikide": 5295,
      "▁ola": 5296,
      "▁asa": 5297,
      "▁saglıgı": 5298,
      "▁musterilerin": 5299,
      "▁baskasına": 5300,
      "▁turku": 5301,
      "▁comp": 5302,
      "▁1971": 5303,
      "dokuzyuzdoksan": 5304,
      "▁329": 5305,
      "▁ehemm": 5306,
      "▁iscileri": 5307,
      "▁bakmak": 5308,
      "▁ley": 5309,
      "▁planlar": 5310,
      "▁buldugu": 5311,
      "our": 5312,
      "▁atıyor": 5313,
      "▁115": 5314,
      "▁kendinin": 5315,
      "▁yunak": 5316,
      "▁vurgul": 5317,
      "▁kayboldu": 5318,
      "▁raporlar": 5319,
      "layarak": 5320,
      "name": 5321,
      "▁kristal": 5322,
      "bel": 5323,
      "▁6.75": 5324,
      "▁gosterileri": 5325,
      "▁sifir": 5326,
      "▁130": 5327,
      "▁giymis": 5328,
      "maya": 5329,
      "▁fırın": 5330,
      "▁hangileri": 5331,
      "eliler": 5332,
      "▁homurdan": 5333,
      "▁gozlerine": 5334,
      "turk": 5335,
      "▁89.6": 5336,
      "▁organize": 5337,
      "▁naf": 5338,
      "▁kimsen": 5339,
      "▁bahset": 5340,
      "▁evrenin": 5341,
      "acaksın": 5342,
      "▁rolu": 5343,
      "▁maf": 5344,
      "▁kapısı": 5345,
      "▁baskan": 5346,
      "▁baslangıcı": 5347,
      "▁demiray": 5348,
      "▁sekizonikibindokuzyuzdoksansekiz": 5349,
      "▁basrol": 5350,
      "▁gelistir": 5351,
      "▁edici": 5352,
      "▁onayladı": 5353,
      "▁211": 5354,
      "▁coktan": 5355,
      "▁kin": 5356,
      "▁federal": 5357,
      "▁komunist": 5358,
      "▁imkan": 5359,
      "▁artan": 5360,
      "imle": 5361,
      "▁icli": 5362,
      "▁1850": 5363,
      "▁farkında": 5364,
      "▁kuy": 5365,
      "▁gazi": 5366,
      "▁artısla": 5367,
      "▁saldır": 5368,
      "ult": 5369,
      "▁seh": 5370,
      "▁zorun": 5371,
      "▁dayanarak": 5372,
      "ası'nda": 5373,
      "▁hız": 5374,
      "-sat": 5375,
      "▁yaptim": 5376,
      "ase": 5377,
      "▁rom": 5378,
      "▁uretim": 5379,
      "▁kasvet": 5380,
      "forman": 5381,
      "▁sib": 5382,
      "▁borc": 5383,
      "sizlik": 5384,
      "▁razı": 5385,
      "cum": 5386,
      "▁nobet": 5387,
      "▁kokuyordu": 5388,
      "gin": 5389,
      "▁sımsık": 5390,
      "▁that": 5391,
      "▁hosnut": 5392,
      "ve": 5393,
      "abilecegini": 5394,
      "▁yonet": 5395,
      "▁columbus'tan": 5396,
      "▁yardim": 5397,
      "▁gormus": 5398,
      "▁ideoloj": 5399,
      "▁karsısına": 5400,
      "▁medeni": 5401,
      "cekti": 5402,
      "▁gosterdi": 5403,
      ".72": 5404,
      "▁yureginde": 5405,
      "▁kazada": 5406,
      "▁koltugun": 5407,
      "▁rall": 5408,
      "win": 5409,
      "▁mutluluk": 5410,
      "▁kuskusuz": 5411,
      "▁lezzet": 5412,
      "▁karsılastırılabilir": 5413,
      "▁eroin": 5414,
      "▁odamiz": 5415,
      "▁199": 5416,
      "▁sahin": 5417,
      "▁kahval": 5418,
      "ilecek": 5419,
      "▁tamamı": 5420,
      "▁cıkarak": 5421,
      "▁gayrimenkul": 5422,
      "uye": 5423,
      "mesin": 5424,
      "▁1998": 5425,
      "▁beye": 5426,
      "medik": 5427,
      "▁vazgecti": 5428,
      "dak": 5429,
      "▁sel": 5430,
      "▁ederse": 5431,
      "▁tuy": 5432,
      "▁olcekli": 5433,
      "▁bilim": 5434,
      "▁yasası": 5435,
      "digim": 5436,
      "▁yiyecek": 5437,
      "▁baltimore'ye": 5438,
      "▁12": 5439,
      "63": 5440,
      "▁katk": 5441,
      "imizin": 5442,
      "▁vermesini": 5443,
      "▁hassas": 5444,
      "▁alacak": 5445,
      "eb": 5446,
      "▁faturami": 5447,
      "dugu": 5448,
      "▁planlıyor": 5449,
      "▁hul": 5450,
      "enn": 5451,
      "▁yeryuz": 5452,
      "anc": 5453,
      "eyip": 5454,
      "▁berek": 5455,
      "▁recep": 5456,
      "avuz": 5457,
      "▁ilker": 5458,
      "▁ustelik": 5459,
      "▁ulkede": 5460,
      "▁mae": 5461,
      "eceksin": 5462,
      "press": 5463,
      "▁cekmis": 5464,
      "'te": 5465,
      "'ler": 5466,
      "▁vegas": 5467,
      "ılması": 5468,
      "0.80": 5469,
      "▁mustes": 5470,
      "▁ucuyor": 5471,
      "▁lezzetsiz": 5472,
      "▁anket": 5473,
      "▁istem": 5474,
      "▁almaktadır": 5475,
      "ika": 5476,
      "▁temelde": 5477,
      "▁kulup": 5478,
      "▁ta": 5479,
      "sir": 5480,
      "▁ogrenciler": 5481,
      "ugunu": 5482,
      "▁yukseldi": 5483,
      "▁spor": 5484,
      "ever": 5485,
      "▁yazdıgı": 5486,
      "▁duvarda": 5487,
      "▁kud": 5488,
      "nız": 5489,
      "▁duzenleme": 5490,
      "ce": 5491,
      "▁olurum": 5492,
      "▁yıldız": 5493,
      "emical": 5494,
      "▁150": 5495,
      "▁duzel": 5496,
      "▁isterse": 5497,
      "▁seattle'den": 5498,
      "▁149": 5499,
      "ıyan": 5500,
      "rem": 5501,
      "▁tum": 5502,
      "▁avukat": 5503,
      "▁masraf": 5504,
      "▁adlı": 5505,
      "▁labor": 5506,
      "▁tuzlu": 5507,
      "ulup": 5508,
      "▁.'": 5509,
      "▁gor": 5510,
      "▁balkan": 5511,
      "▁arkadaslar": 5512,
      "▁kızar": 5513,
      "▁muhur": 5514,
      "▁bekliyorlar": 5515,
      "▁arti": 5516,
      "▁yans": 5517,
      "▁bayiler": 5518,
      "▁oranlı": 5519,
      "▁duruma": 5520,
      "▁ilkokul": 5521,
      "▁anlasılıyor": 5522,
      "▁1959": 5523,
      "▁mev": 5524,
      "▁edecegim": 5525,
      "▁kaynaklanan": 5526,
      "tral": 5527,
      "▁andan": 5528,
      "&g": 5529,
      "▁alısılmadık": 5530,
      "▁7": 5531,
      "▁kullandıgı": 5532,
      "▁gectigini": 5533,
      "dıgından": 5534,
      "▁baskal": 5535,
      "xte": 5536,
      "▁yoz": 5537,
      "▁konut": 5538,
      "▁aklı": 5539,
      "▁satısa": 5540,
      "▁lap": 5541,
      "▁subv": 5542,
      "▁tatli": 5543,
      "▁gelisme": 5544,
      "ecegimiz": 5545,
      "▁civ": 5546,
      "▁toplamda": 5547,
      "▁medeniyet": 5548,
      "▁oturum": 5549,
      "▁sizi": 5550,
      "▁sokagı": 5551,
      "▁oteden": 5552,
      "▁cocuktu": 5553,
      "▁allah": 5554,
      "▁verdim": 5555,
      ".000": 5556,
      "▁calisanlarin": 5557,
      "▁nadir": 5558,
      "oy": 5559,
      "esindeki": 5560,
      "▁454": 5561,
      "▁makineler": 5562,
      "taraf": 5563,
      "lendigini": 5564,
      "▁mutemadi": 5565,
      "▁alabilmek": 5566,
      "▁temizlikte": 5567,
      "▁aracı": 5568,
      "1": 5569,
      "dor": 5570,
      "ya'da": 5571,
      "▁bilgilendirilmek": 5572,
      "▁austral": 5573,
      "▁213": 5574,
      "485": 5575,
      "▁zum": 5576,
      "ultu": 5577,
      "▁ikisinin": 5578,
      "ansiy": 5579,
      "▁gorec": 5580,
      "▁insaat": 5581,
      "▁dursun": 5582,
      "▁deb": 5583,
      "▁capındaki": 5584,
      "larımla": 5585,
      "▁maydanoz": 5586,
      "▁becer": 5587,
      "oru": 5588,
      "▁varmak": 5589,
      "▁editoru": 5590,
      "▁thomas": 5591,
      "▁alev": 5592,
      "▁kuzu": 5593,
      "amayacagı": 5594,
      "▁kariyer": 5595,
      "▁3135": 5596,
      "▁verecegim": 5597,
      "ilerden": 5598,
      "▁sozler": 5599,
      "ıldıgı": 5600,
      "▁60000": 5601,
      "▁gaf": 5602,
      "▁dinam": 5603,
      "▁alıkoy": 5604,
      "▁mont": 5605,
      "▁?..": 5606,
      "burg": 5607,
      "▁yazıyorum": 5608,
      "▁phillips": 5609,
      "mistir": 5610,
      "▁hik": 5611,
      "▁ardı": 5612,
      "▁icecek": 5613,
      "▁hus": 5614,
      "▁dil": 5615,
      "▁yakısık": 5616,
      "emden": 5617,
      "▁buzdol": 5618,
      "▁durum": 5619,
      "▁1.5753": 5620,
      "▁danıs": 5621,
      "▁mood": 5622,
      "▁havaalanlarını": 5623,
      "▁dun": 5624,
      "▁kard": 5625,
      "▁dobra": 5626,
      "▁yemeklerini": 5627,
      "▁bekir": 5628,
      "▁aklından": 5629,
      "▁doludur": 5630,
      "▁kaydedildi": 5631,
      "▁lir": 5632,
      "▁kiral": 5633,
      "o'dan": 5634,
      "▁davet": 5635,
      "▁otuzbes": 5636,
      "▁ingil": 5637,
      "▁sildi": 5638,
      "▁koprunun": 5639,
      "▁ala": 5640,
      "let": 5641,
      "amayan": 5642,
      "ımlar": 5643,
      "▁inc.,": 5644,
      "▁lincoln": 5645,
      "▁muhab": 5646,
      "▁duran": 5647,
      "ita": 5648,
      "ıyorlardı": 5649,
      "▁aktor": 5650,
      "▁abd'ye": 5651,
      "ice": 5652,
      "▁yapil": 5653,
      "▁verirdi": 5654,
      "ung": 5655,
      "▁alet": 5656,
      "▁cektir": 5657,
      "▁spons": 5658,
      "sub": 5659,
      "eyerek": 5660,
      "▁5.8": 5661,
      ".49": 5662,
      "▁adam": 5663,
      "der": 5664,
      "amam": 5665,
      "▁doner": 5666,
      "▁sacak": 5667,
      "▁kaybet": 5668,
      "▁durust": 5669,
      "▁real": 5670,
      "uce": 5671,
      "yaları": 5672,
      "▁disiplin": 5673,
      "▁karal": 5674,
      "ucusu": 5675,
      "▁istiyoruz": 5676,
      "▁miydik": 5677,
      "▁olusturul": 5678,
      "▁tane": 5679,
      "▁asıl": 5680,
      "▁yaptır": 5681,
      "▁kalmaz": 5682,
      "▁boston'dan": 5683,
      "rat": 5684,
      "▁tesiste": 5685,
      "agıt": 5686,
      "▁4.375": 5687,
      "▁tahmini": 5688,
      "▁4:30": 5689,
      "▁sokagın": 5690,
      "▁zamanı": 5691,
      "▁konfor": 5692,
      "▁gibidir": 5693,
      "▁isgal": 5694,
      "▁zaman": 5695,
      "▁dortluk": 5696,
      "▁geldik": 5697,
      "▁uzerinde": 5698,
      "▁westinghouse": 5699,
      "▁isliyor": 5700,
      "▁usulca": 5701,
      "▁strate": 5702,
      "▁rıh": 5703,
      "▁doktorlar": 5704,
      "▁zab": 5705,
      "veren": 5706,
      "agımı": 5707,
      "▁'nin": 5708,
      "/32": 5709,
      "zin": 5710,
      "▁esy": 5711,
      "▁berkeley": 5712,
      "▁kad": 5713,
      "icisi": 5714,
      "▁145.45": 5715,
      "▁fat": 5716,
      "▁bakim": 5717,
      "alıga": 5718,
      "▁birbirleriyle": 5719,
      "▁23.5": 5720,
      "▁dolastı": 5721,
      "usuz": 5722,
      "▁kavus": 5723,
      "▁mahs": 5724,
      "dır": 5725,
      "▁ind": 5726,
      "▁lt": 5727,
      "▁iz": 5728,
      "▁istanbul": 5729,
      "▁sakir": 5730,
      "gında": 5731,
      "▁actılar": 5732,
      "ano": 5733,
      "▁nihat": 5734,
      "res": 5735,
      "▁golgel": 5736,
      "▁0": 5737,
      "▁sehr": 5738,
      "▁os": 5739,
      "▁sunu": 5740,
      "▁bembeyaz": 5741,
      "▁sosyal": 5742,
      "liligini": 5743,
      "tore": 5744,
      "au": 5745,
      "▁bulbul": 5746,
      "▁cetin": 5747,
      "▁merhaba": 5748,
      "giniz": 5749,
      "▁bicim": 5750,
      "▁bastan": 5751,
      "▁isabet": 5752,
      "▁borek": 5753,
      "▁sek": 5754,
      "▁bensiz": 5755,
      "▁istinaden": 5756,
      "▁politikası": 5757,
      "▁kurmaya": 5758,
      "'s": 5759,
      "▁ekmegini": 5760,
      "ıg": 5761,
      "▁aydınlık": 5762,
      "▁kutsal": 5763,
      "▁but": 5764,
      "▁istekler": 5765,
      "▁kasırga": 5766,
      "▁cet": 5767,
      "▁zamanki": 5768,
      "har": 5769,
      "▁montreal'dan": 5770,
      "▁toplandı": 5771,
      "▁huc": 5772,
      "▁icini": 5773,
      "▁tatlı": 5774,
      "▁sade": 5775,
      "▁%3": 5776,
      "▁selam": 5777,
      "▁beklemiyor": 5778,
      "▁buh": 5779,
      "▁oynak": 5780,
      "▁pantolon": 5781,
      "▁2.625": 5782,
      "alet": 5783,
      "rub": 5784,
      "▁gordun": 5785,
      "▁aralık'ta": 5786,
      "▁hugo": 5787,
      "enz": 5788,
      "larla": 5789,
      "▁lak": 5790,
      "▁ceren": 5791,
      "▁pah": 5792,
      "▁sevgil": 5793,
      "▁cinayet": 5794,
      "▁tutustur": 5795,
      "▁gosterecek": 5796,
      "▁muhim": 5797,
      "▁karı": 5798,
      "▁dedik": 5799,
      "▁sofra": 5800,
      "▁tesekkurler": 5801,
      "▁elektrik": 5802,
      "▁dusmeye": 5803,
      "▁gorevl": 5804,
      "iser": 5805,
      "▁nukleer": 5806,
      "▁olmustur": 5807,
      "ansiyon": 5808,
      "▁yonelik": 5809,
      "▁hatice": 5810,
      "▁dısına": 5811,
      "▁kendisiyle": 5812,
      "▁tanıdık": 5813,
      "▁dest": 5814,
      "sap": 5815,
      "▁yetersizdi": 5816,
      "▁esp": 5817,
      "▁krizi": 5818,
      "▁osmanlı": 5819,
      "▁ilaclar": 5820,
      "taydı": 5821,
      "▁yirmibes": 5822,
      "hem": 5823,
      "eyn": 5824,
      "▁kaybol": 5825,
      "▁tahm": 5826,
      "leme": 5827,
      "ıydı": 5828,
      "▁memleketin": 5829,
      "▁218": 5830,
      "▁bekledigim": 5831,
      "gan": 5832,
      "▁sayın": 5833,
      "▁times": 5834,
      "▁laci": 5835,
      "▁sing": 5836,
      "▁du": 5837,
      "▁dahi": 5838,
      "▁kabart": 5839,
      "▁milyardan": 5840,
      "▁actım": 5841,
      "▁vizyon": 5842,
      "▁alamet": 5843,
      "oseksu": 5844,
      "▁miz": 5845,
      "▁atıldı": 5846,
      "▁kapıları": 5847,
      "▁indirimi": 5848,
      "yalar": 5849,
      "▁steph": 5850,
      "▁ogren": 5851,
      "▁odam": 5852,
      "▁olabil": 5853,
      "unce": 5854,
      "▁aglayan": 5855,
      "▁ohio": 5856,
      "▁ov": 5857,
      "▁sıcak": 5858,
      "▁masum": 5859,
      "▁mutfaga": 5860,
      "▁agı": 5861,
      "▁computer": 5862,
      "aclı": 5863,
      "▁yerlerini": 5864,
      "14": 5865,
      "▁buraya": 5866,
      "▁imtiyaz": 5867,
      "▁sat": 5868,
      "lon": 5869,
      "ed": 5870,
      "▁birisine": 5871,
      "▁dısarıda": 5872,
      "med": 5873,
      "▁rub": 5874,
      "▁sucu": 5875,
      "▁keskin": 5876,
      "▁negatif": 5877,
      "▁yuvarlak": 5878,
      "istler": 5879,
      "atını": 5880,
      "▁love": 5881,
      "▁baslayınca": 5882,
      "tıcı": 5883,
      "son'un": 5884,
      "▁gazel": 5885,
      "▁strateji": 5886,
      "zet": 5887,
      "▁bakkal": 5888,
      "▁kısalt": 5889,
      "▁bunlar": 5890,
      "gide": 5891,
      "▁2023": 5892,
      "▁1946'da": 5893,
      "▁kerp": 5894,
      "▁hazırlanısı": 5895,
      "▁do": 5896,
      "▁anay": 5897,
      "bs": 5898,
      "▁emre": 5899,
      "hut": 5900,
      "▁yemegini": 5901,
      "mislerdi": 5902,
      "▁sened": 5903,
      "▁sayet": 5904,
      "▁resim": 5905,
      "imini": 5906,
      "▁delikan": 5907,
      "▁dususunu": 5908,
      "▁basarı": 5909,
      "lıktır": 5910,
      "▁4.": 5911,
      "▁geride": 5912,
      "sat": 5913,
      "▁imis": 5914,
      "▁biber": 5915,
      "amalı": 5916,
      "▁tadını": 5917,
      "▁antr": 5918,
      "liligi": 5919,
      "▁1963": 5920,
      "▁davalı": 5921,
      "▁2.46": 5922,
      "etli": 5923,
      "▁ucretleri": 5924,
      "▁ogretmenim": 5925,
      "▁ed": 5926,
      "▁istikbal": 5927,
      "▁gececek": 5928,
      "▁kolaydi": 5929,
      "▁masaj": 5930,
      "▁piyasasında": 5931,
      "▁c": 5932,
      "undaki": 5933,
      "▁tadimiza": 5934,
      "▁pence": 5935,
      "▁oper": 5936,
      "▁sorar": 5937,
      "▁emine": 5938,
      "▁fırtına": 5939,
      "▁cumhuriyet": 5940,
      "▁olun": 5941,
      "ıza": 5942,
      "▁tarafına": 5943,
      "▁atmak": 5944,
      "▁baslay": 5945,
      "▁lerle": 5946,
      "▁macında": 5947,
      "▁sl": 5948,
      "▁enerji": 5949,
      "▁yin": 5950,
      "▁degistiriyor": 5951,
      "▁bircogunu": 5952,
      "▁93": 5953,
      "▁gorme": 5954,
      "▁protesto": 5955,
      "▁sebeplerden": 5956,
      "▁alaycı": 5957,
      "▁birbirlerine": 5958,
      "▁gecir": 5959,
      "▁dinledi": 5960,
      "▁kanunu": 5961,
      "▁gozde": 5962,
      "▁mevsim": 5963,
      "▁hamle": 5964,
      "dayım": 5965,
      "emin": 5966,
      "ediy": 5967,
      "▁kına": 5968,
      "▁60": 5969,
      "▁reklam": 5970,
      "▁%7.7": 5971,
      "▁impar": 5972,
      "▁dogdu": 5973,
      "▁durumunu": 5974,
      "▁turk'un": 5975,
      "beri": 5976,
      "▁lokanta": 5977,
      "▁sehirde": 5978,
      "▁sıc": 5979,
      "▁begendim": 5980,
      "▁susuz": 5981,
      "▁dusunuyoruz": 5982,
      "▁artarak": 5983,
      "liklerini": 5984,
      "▁oranlarının": 5985,
      "▁yuf": 5986,
      "▁olay": 5987,
      "maması": 5988,
      "65": 5989,
      "esco": 5990,
      "▁onemi": 5991,
      "uvar": 5992,
      "▁carc": 5993,
      "miyorum": 5994,
      "rim": 5995,
      "▁metin": 5996,
      "miyor": 5997,
      "▁merdiven": 5998,
      "▁herif": 5999,
      "lif": 6000,
      "▁27.5": 6001,
      "▁kalabalıgı": 6002,
      "▁sardı": 6003,
      "9.8": 6004,
      "▁selim": 6005,
      "▁un": 6006,
      "▁met": 6007,
      "▁bolumunu": 6008,
      "▁nevruz": 6009,
      "▁kolaylıkla": 6010,
      "▁yaklastı": 6011,
      "hanede": 6012,
      "▁yumruk": 6013,
      "▁buradaki": 6014,
      "ick": 6015,
      "▁kapat": 6016,
      "▁pozit": 6017,
      "▁konvansiy": 6018,
      "▁fast": 6019,
      "▁kadınlara": 6020,
      "▁bilinmez": 6021,
      "▁aktarma": 6022,
      "meni": 6023,
      "lem": 6024,
      "ında": 6025,
      "ınıza": 6026,
      "▁tehlikeye": 6027,
      "rib": 6028,
      "36": 6029,
      "eck": 6030,
      "▁basket": 6031,
      "radı": 6032,
      "▁gunesli": 6033,
      "ent": 6034,
      "▁karıstır": 6035,
      "▁gunde": 6036,
      "▁zeytin": 6037,
      "▁rev": 6038,
      "▁govd": 6039,
      "▁kadına": 6040,
      "▁otellerin": 6041,
      "ft": 6042,
      "▁muall": 6043,
      "▁sundugu": 6044,
      "▁dedikodu": 6045,
      "▁unuttur": 6046,
      "▁dersiniz": 6047,
      "▁konusurken": 6048,
      "uter": 6049,
      "▁keleb": 6050,
      "▁gıy": 6051,
      "▁dardi": 6052,
      "▁acmaz": 6053,
      "ladın": 6054,
      "▁gule": 6055,
      "ic'in": 6056,
      "▁bayılmıs": 6057,
      "▁derdi": 6058,
      "▁turden": 6059,
      "▁istedigim": 6060,
      "▁enstit": 6061,
      "▁sehirler": 6062,
      "dıgınız": 6063,
      "▁3.45": 6064,
      "▁restor": 6065,
      "iligi": 6066,
      "▁kazıy": 6067,
      "edil": 6068,
      "▁sıkın": 6069,
      "▁arkadasını": 6070,
      "yal": 6071,
      "▁alsın": 6072,
      "cının": 6073,
      "▁ard": 6074,
      "estr": 6075,
      "ly": 6076,
      "▁kalktım": 6077,
      "sızlık": 6078,
      "▁yılki": 6079,
      "▁satmak": 6080,
      "sal": 6081,
      "▁yonden": 6082,
      "-packard": 6083,
      "▁buyur": 6084,
      "▁akım": 6085,
      "▁guleryuzlulerdi": 6086,
      "▁sahipleri": 6087,
      "▁konul": 6088,
      "▁)": 6089,
      "▁memuriyet": 6090,
      "▁yangın": 6091,
      "▁yumuk": 6092,
      "▁uyur": 6093,
      "▁tanıt": 6094,
      "apur": 6095,
      "▁seklinde": 6096,
      "▁raporda": 6097,
      "▁istanbul'un": 6098,
      "▁hissed": 6099,
      "▁trav": 6100,
      "▁donmus": 6101,
      "▁soylemedi": 6102,
      "▁hamam": 6103,
      "▁cas": 6104,
      "▁basları": 6105,
      "iller": 6106,
      "ırt": 6107,
      "▁havayollarını": 6108,
      "▁no": 6109,
      "asu": 6110,
      "ka": 6111,
      "▁oyn": 6112,
      "▁pazarda": 6113,
      "▁66": 6114,
      "▁2003": 6115,
      "▁buyumesini": 6116,
      "▁odada": 6117,
      "usunu": 6118,
      "cı": 6119,
      "▁roma": 6120,
      "iyoruz": 6121,
      "madıgını": 6122,
      "▁0.2": 6123,
      "▁sutu": 6124,
      "▁cbs": 6125,
      "▁inmis": 6126,
      "▁otelin": 6127,
      "umuze": 6128,
      "▁oyley": 6129,
      "▁inkıl": 6130,
      "▁havayolunun": 6131,
      "▁musik": 6132,
      "▁girdiler": 6133,
      "3.2": 6134,
      "▁bursa": 6135,
      "'uncu": 6136,
      "▁fonların": 6137,
      "▁arastırmacılar": 6138,
      "3:": 6139,
      "▁halli": 6140,
      "▁ihtis": 6141,
      "▁arttıgını": 6142,
      "▁atlanta": 6143,
      "▁yayılıyor": 6144,
      "▁akın": 6145,
      "▁sizlere": 6146,
      "das": 6147,
      "▁cicek": 6148,
      "▁sabahları": 6149,
      "▁pc": 6150,
      "▁radikal": 6151,
      "▁orada": 6152,
      "▁agzını": 6153,
      "suzluk": 6154,
      "eph": 6155,
      "ının": 6156,
      "▁bıyıkları": 6157,
      "▁santorini": 6158,
      "▁isteyecek": 6159,
      "▁isciler": 6160,
      "▁bıy": 6161,
      "▁x": 6162,
      "▁bakanlıgı": 6163,
      "▁ciddiyet": 6164,
      "▁gozume": 6165,
      "▁soyledigini": 6166,
      "▁saldırı": 6167,
      "▁birinde": 6168,
      "▁guvenilir": 6169,
      "▁degilsiniz": 6170,
      "ance": 6171,
      "▁ozen": 6172,
      "asındaki": 6173,
      "yım": 6174,
      "▁ann": 6175,
      "▁fist": 6176,
      "▁getirdigi": 6177,
      "▁ef": 6178,
      "▁sırt": 6179,
      "dıkca": 6180,
      "▁aldır": 6181,
      "▁tasın": 6182,
      "aydı": 6183,
      "▁buyukel": 6184,
      "▁ın": 6185,
      "▁530": 6186,
      "▁afgan": 6187,
      "▁broth": 6188,
      "▁kıs": 6189,
      "▁southern": 6190,
      "eti": 6191,
      "▁yılı": 6192,
      "▁ikib": 6193,
      "▁kayb": 6194,
      "pan": 6195,
      "▁ism": 6196,
      "▁endise": 6197,
      "kim": 6198,
      "▁agzında": 6199,
      "▁dagıldı": 6200,
      "▁muh": 6201,
      "▁korid": 6202,
      "▁muazz": 6203,
      "▁topr": 6204,
      "▁6.31": 6205,
      "▁ihtiras": 6206,
      "▁vas": 6207,
      "▁eden": 6208,
      "▁degmis": 6209,
      "▁yelek": 6210,
      "▁hos": 6211,
      "▁hangisi": 6212,
      "▁gerektiren": 6213,
      "▁kimisi": 6214,
      "▁2.": 6215,
      "▁istatistik": 6216,
      "▁edilemez": 6217,
      "▁3": 6218,
      "▁ayakkabı": 6219,
      "aff": 6220,
      "▁okulu": 6221,
      "▁mini": 6222,
      "▁toparlanma": 6223,
      "▁ekonominin": 6224,
      "ilmedi": 6225,
      "▁suresini": 6226,
      "acak": 6227,
      "▁0.010": 6228,
      "'ım": 6229,
      "▁zih": 6230,
      "alım": 6231,
      "▁got": 6232,
      "gul": 6233,
      "▁baslattı": 6234,
      "▁19.7": 6235,
      "▁alması": 6236,
      "▁kalabalık": 6237,
      "abody": 6238,
      "▁yaralan": 6239,
      "▁1967": 6240,
      "▁adalet": 6241,
      "▁aramızda": 6242,
      "3'e": 6243,
      "▁daya": 6244,
      "▁sotheby's": 6245,
      "gumu": 6246,
      "▁basınc": 6247,
      "▁gorebil": 6248,
      "adın": 6249,
      "▁nisp": 6250,
      "▁sebep": 6251,
      "▁oc": 6252,
      "▁karsıtı": 6253,
      "▁seyrek": 6254,
      "▁asagi": 6255,
      "▁takılmıs": 6256,
      "▁m.": 6257,
      "▁mısın": 6258,
      "▁aldat": 6259,
      "▁o": 6260,
      "▁ucreti": 6261,
      "▁satar": 6262,
      "▁ileride": 6263,
      "▁noktasına": 6264,
      "▁yazın": 6265,
      "▁hikay": 6266,
      "▁lamb": 6267,
      "▁olması": 6268,
      "▁belirley": 6269,
      "▁giydi": 6270,
      "▁gidiyorum": 6271,
      "'nde": 6272,
      "erin": 6273,
      "▁hal": 6274,
      "▁hareket": 6275,
      "▁sehrine": 6276,
      "lasma": 6277,
      "▁allianz": 6278,
      "etir": 6279,
      "▁tereddut": 6280,
      "dıgının": 6281,
      "▁insanlara": 6282,
      "▁cih": 6283,
      "▁birincisi": 6284,
      "inle": 6285,
      "▁personeli": 6286,
      "▁yasat": 6287,
      "▁saglay": 6288,
      "▁8.75": 6289,
      "cunun": 6290,
      "▁buyut": 6291,
      "aber": 6292,
      "▁cesi": 6293,
      "▁pratik": 6294,
      "▁inadına": 6295,
      "▁fin": 6296,
      "▁burun": 6297,
      "▁ayrıca": 6298,
      "▁nusret": 6299,
      "▁tahammul": 6300,
      "tas": 6301,
      "▁sermaye": 6302,
      "▁yapardı": 6303,
      "omosyon": 6304,
      "etini": 6305,
      "▁bazında": 6306,
      "▁rez": 6307,
      "▁gozleriyle": 6308,
      "▁gozet": 6309,
      "▁yerdi": 6310,
      "▁15": 6311,
      "▁148": 6312,
      "▁trelleb": 6313,
      "liyorum": 6314,
      "tc": 6315,
      "▁kanada": 6316,
      "▁sahis": 6317,
      "▁bahc": 6318,
      "▁artıyor": 6319,
      "▁82": 6320,
      "▁beklenen": 6321,
      "▁manzarasi": 6322,
      "ıya": 6323,
      "▁keci": 6324,
      "▁arkadas": 6325,
      "▁erbakan": 6326,
      "▁erzurum": 6327,
      "▁ittifak": 6328,
      "▁atacak": 6329,
      "melerin": 6330,
      "▁bulunmayan": 6331,
      "▁rakamları": 6332,
      "▁anlar": 6333,
      "▁33": 6334,
      "▁ri": 6335,
      "▁host": 6336,
      "▁savundu": 6337,
      "hire": 6338,
      "▁degn": 6339,
      "▁artcı": 6340,
      "▁9.75": 6341,
      "▁ucsuz": 6342,
      "▁kabil": 6343,
      "▁olmasının": 6344,
      "ef": 6345,
      "▁kosesine": 6346,
      "elidir": 6347,
      "▁yapılan": 6348,
      "▁12.3": 6349,
      "'den": 6350,
      "ındır": 6351,
      "▁manhat": 6352,
      "ad": 6353,
      "▁daha": 6354,
      "▁sanal": 6355,
      "​": 6356,
      "iyla": 6357,
      "▁sirketine": 6358,
      "▁zayif": 6359,
      "stems": 6360,
      "▁moody's": 6361,
      "▁yanıl": 6362,
      "▁igne": 6363,
      "'unun": 6364,
      "▁canlı": 6365,
      "▁bekleyen": 6366,
      "▁sayılır": 6367,
      "▁22.8": 6368,
      "▁hikaye": 6369,
      "▁cogunu": 6370,
      "▁agab": 6371,
      "ırım": 6372,
      "asından": 6373,
      "lilik": 6374,
      "▁muhafaza": 6375,
      "▁lut": 6376,
      "iyas": 6377,
      "ish": 6378,
      "▁abi": 6379,
      "age": 6380,
      ".25": 6381,
      "▁gec": 6382,
      "▁suruklen": 6383,
      "▁bizden": 6384,
      "▁bakımdan": 6385,
      "▁ail": 6386,
      "mustu": 6387,
      "▁evlere": 6388,
      "▁7.52": 6389,
      "▁315": 6390,
      "▁insanoglu": 6391,
      "▁karara": 6392,
      "mıyorum": 6393,
      "▁pansiyon": 6394,
      "▁i": 6395,
      "▁senar": 6396,
      "▁ekonomistler": 6397,
      "▁12'den": 6398,
      "6.2": 6399,
      "▁odalarin": 6400,
      "▁kıvr": 6401,
      "▁silah": 6402,
      "layı": 6403,
      "▁yemek": 6404,
      "▁ki": 6405,
      "#": 6406,
      "▁donus": 6407,
      "▁kır": 6408,
      "onom": 6409,
      "lendi": 6410,
      "▁zat": 6411,
      "▁seyirciler": 6412,
      "ima": 6413,
      "▁99": 6414,
      "▁istasyonu": 6415,
      "▁cagır": 6416,
      "▁soyledi": 6417,
      "tin": 6418,
      "▁co": 6419,
      "▁yıla": 6420,
      "▁el": 6421,
      "▁ilgilendir": 6422,
      "▁halbu": 6423,
      "▁2.8": 6424,
      "▁musunuz": 6425,
      "▁boylu": 6426,
      "▁icimiz": 6427,
      "▁sın": 6428,
      "larda": 6429,
      "ulması": 6430,
      "▁bez": 6431,
      "▁dallas'tan": 6432,
      "ilerin": 6433,
      "▁yemekten": 6434,
      "▁satıslarının": 6435,
      "▁karıstırın": 6436,
      "▁3.35": 6437,
      "eginde": 6438,
      "▁duyunca": 6439,
      "▁kare": 6440,
      "▁tasliydi": 6441,
      "culer": 6442,
      "▁havası": 6443,
      "▁dava": 6444,
      "▁hayv": 6445,
      "▁evir": 6446,
      "ley": 6447,
      "▁hay": 6448,
      "▁yumus": 6449,
      "▁cansız": 6450,
      "▁sustu": 6451,
      "▁babanın": 6452,
      "▁hur": 6453,
      "▁eli": 6454,
      "▁bulan": 6455,
      "▁59": 6456,
      "▁cene": 6457,
      "▁mahalle": 6458,
      "ila": 6459,
      "▁birimleri": 6460,
      "▁bilemiyorum": 6461,
      "apolis": 6462,
      "ak": 6463,
      "▁ilgisizlerdi": 6464,
      "▁bakmıs": 6465,
      "▁mimar": 6466,
      "▁onur": 6467,
      "0.000": 6468,
      "▁herkesin": 6469,
      "▁ogrenci": 6470,
      "▁etmey": 6471,
      "▁carol": 6472,
      "▁0.05": 6473,
      "▁dos": 6474,
      "▁yapı": 6475,
      "▁kof": 6476,
      "▁fırc": 6477,
      "▁kacındı": 6478,
      "▁kutuk": 6479,
      "▁zeytiny": 6480,
      "▁olgun": 6481,
      "ısını": 6482,
      "▁yerlerinde": 6483,
      "i'nin": 6484,
      "▁lirayı": 6485,
      "▁kit": 6486,
      "▁kampanyalar": 6487,
      "▁te": 6488,
      "▁ick": 6489,
      "▁tedarik": 6490,
      "▁bilen": 6491,
      "ir'in": 6492,
      "ahan": 6493,
      "▁bolumu": 6494,
      "▁edildigi": 6495,
      "▁web": 6496,
      "▁bebegi": 6497,
      "▁asık": 6498,
      "▁sorunun": 6499,
      "egine": 6500,
      "▁kavga": 6501,
      "▁parmaklarını": 6502,
      "▁hort": 6503,
      "▁1985": 6504,
      "▁maharet": 6505,
      "▁doları": 6506,
      "▁dunyanın": 6507,
      "▁pittsburgh'ta": 6508,
      "▁ticari": 6509,
      "▁kask": 6510,
      "▁birisinin": 6511,
      "▁kamuoy": 6512,
      "▁degerleri": 6513,
      "lah": 6514,
      ":00": 6515,
      "cul": 6516,
      "kaya": 6517,
      "▁soyledim": 6518,
      "▁helmsley": 6519,
      "▁tuylu": 6520,
      "op": 6521,
      "▁tenek": 6522,
      "▁dediko": 6523,
      "▁kıvıl": 6524,
      "45": 6525,
      "▁oldugum": 6526,
      "▁kasaba": 6527,
      "▁yapıyoruz": 6528,
      "▁vererek": 6529,
      "▁turs": 6530,
      "▁gelen": 6531,
      "▁yıg": 6532,
      "▁tutuk": 6533,
      "▁46": 6534,
      "▁dere": 6535,
      "▁mumu": 6536,
      "▁cahil": 6537,
      "▁nato": 6538,
      "▁onunde": 6539,
      "▁biri": 6540,
      "▁katkı": 6541,
      "▁sozcu": 6542,
      "▁fal": 6543,
      "va": 6544,
      "▁yanmıs": 6545,
      "▁salonunda": 6546,
      "▁lutf": 6547,
      "▁isit": 6548,
      "▁stat": 6549,
      "'ı": 6550,
      "▁hayalet": 6551,
      "▁satıslar": 6552,
      "▁iltif": 6553,
      "▁derecelendir": 6554,
      "▁dol": 6555,
      "enmis": 6556,
      "▁gormedim": 6557,
      "▁teklifi": 6558,
      "▁acıklamadı": 6559,
      "▁evin": 6560,
      "ilmesini": 6561,
      "ıcısı": 6562,
      "▁gercekte": 6563,
      "▁yos": 6564,
      "▁kopuk": 6565,
      "▁kravat": 6566,
      "▁hap": 6567,
      "▁ayık": 6568,
      "ucu": 6569,
      "▁282": 6570,
      "▁141.45": 6571,
      "▁doları'nda": 6572,
      "▁ortalaması": 6573,
      "▁bombos": 6574,
      "▁sirketinin": 6575,
      "▁hoslan": 6576,
      "▁bany": 6577,
      "▁durak": 6578,
      "▁fulton": 6579,
      "\\/32": 6580,
      "ia": 6581,
      "▁ertelen": 6582,
      "▁tadima": 6583,
      "▁buf": 6584,
      "▁1925": 6585,
      "▁sizin": 6586,
      "ladılar": 6587,
      "▁secilmis": 6588,
      "▁fiyata": 6589,
      "▁topragın": 6590,
      "inin": 6591,
      "for": 6592,
      "ardan": 6593,
      "▁tacoma'ya": 6594,
      "▁industries": 6595,
      "muslar": 6596,
      "▁alanında": 6597,
      "▁basvur": 6598,
      "▁toplar": 6599,
      "▁ali": 6600,
      "▁fazl": 6601,
      "▁dovus": 6602,
      "▁prensip": 6603,
      "dalar": 6604,
      "▁olcum": 6605,
      "endi": 6606,
      "▁etmeli": 6607,
      "▁icimi": 6608,
      "▁kalabal": 6609,
      "▁street'in": 6610,
      "▁cakmak": 6611,
      "▁sıyır": 6612,
      "bek": 6613,
      "▁surgun": 6614,
      "▁gunune": 6615,
      "▁mikro": 6616,
      "▁kagıdı": 6617,
      "▁amerika'nın": 6618,
      "ifer": 6619,
      "▁yemeklerden": 6620,
      "▁olcu": 6621,
      "▁gorevlisi": 6622,
      "lan": 6623,
      "▁siparisini": 6624,
      "nak": 6625,
      ".s.": 6626,
      "▁olmus": 6627,
      "▁kıraat": 6628,
      "▁carpık": 6629,
      "▁gundelik": 6630,
      "▁sahip": 6631,
      "▁fasul": 6632,
      "▁futbol": 6633,
      "▁ideal": 6634,
      "▁ros": 6635,
      "▁yatır": 6636,
      "ayık": 6637,
      "▁van": 6638,
      "▁suk": 6639,
      "▁direnc": 6640,
      "▁ucte": 6641,
      "▁aldıgı": 6642,
      "osa": 6643,
      "▁tesadu": 6644,
      "▁nasır": 6645,
      "▁duk": 6646,
      "▁yılan": 6647,
      "▁sonradan": 6648,
      "▁berk": 6649,
      "▁kaz": 6650,
      "▁yukselerek": 6651,
      ",3": 6652,
      "▁575000": 6653,
      "▁kendinize": 6654,
      "▁tanıklık": 6655,
      "▁194": 6656,
      "▁dukkan": 6657,
      "▁pisman": 6658,
      "▁basının": 6659,
      "▁3.13": 6660,
      "▁soyluyorum": 6661,
      "▁orijinal": 6662,
      "▁maliye": 6663,
      "▁degisti": 6664,
      "▁yansı": 6665,
      "▁onem": 6666,
      "▁ucretini": 6667,
      "▁arazi": 6668,
      "▁bah": 6669,
      "▁patates": 6670,
      "▁yuregini": 6671,
      "▁sene": 6672,
      "masıyla": 6673,
      "lanıp": 6674,
      "▁yolları": 6675,
      "mız": 6676,
      "▁37": 6677,
      "▁degilim": 6678,
      "▁field'e": 6679,
      "▁faturam": 6680,
      "ilya": 6681,
      "▁basbakan": 6682,
      "amıza": 6683,
      "▁dogrultusunda": 6684,
      "▁editor": 6685,
      "▁yan": 6686,
      "▁bahan": 6687,
      "▁operator": 6688,
      "▁bini": 6689,
      "▁ydım": 6690,
      "▁gitti": 6691,
      "▁basındaki": 6692,
      "▁kayde": 6693,
      "▁dini": 6694,
      "▁uygun": 6695,
      "▁yenilg": 6696,
      "▁kabin": 6697,
      "▁ustalık": 6698,
      "▁birbir": 6699,
      "ver": 6700,
      "▁campe": 6701,
      "▁has": 6702,
      "▁sıvı": 6703,
      "▁baktılar": 6704,
      "dur": 6705,
      "▁nereye": 6706,
      "enler": 6707,
      "▁enerj": 6708,
      "▁beni": 6709,
      "▁okuz": 6710,
      "ku": 6711,
      "▁pazarlam": 6712,
      "arlar": 6713,
      ".92": 6714,
      "a": 6715,
      "▁senat": 6716,
      "▁tanesi": 6717,
      "▁business": 6718,
      "▁kazanarak": 6719,
      "ıver": 6720,
      "▁romat": 6721,
      "▁rutin": 6722,
      "ence": 6723,
      "▁vazgec": 6724,
      "▁kıyaslandıgında": 6725,
      "▁heyeti": 6726,
      "cuları": 6727,
      "▁be": 6728,
      "▁jand": 6729,
      "diler": 6730,
      "▁genelinde": 6731,
      "▁donanım": 6732,
      "▁koltu": 6733,
      "▁hissede": 6734,
      "▁abd": 6735,
      "▁faal": 6736,
      "▁akr": 6737,
      "▁dengesiz": 6738,
      "▁analist": 6739,
      "▁saygısız": 6740,
      "lemesine": 6741,
      "▁adem": 6742,
      "▁olayı": 6743,
      "ami": 6744,
      "▁sarımsak": 6745,
      "▁yenil": 6746,
      "▁hain": 6747,
      "▁ilgisini": 6748,
      "▁kurumları": 6749,
      "▁tarihine": 6750,
      "▁gokyuzu": 6751,
      "▁sunuyor": 6752,
      "▁derecede": 6753,
      "▁hakkı": 6754,
      "▁ydık": 6755,
      "uldugu": 6756,
      "▁topuk": 6757,
      "▁olmak": 6758,
      "▁tahminleri": 6759,
      "▁cok": 6760,
      "▁tank": 6761,
      "▁akar": 6762,
      "▁yuzyılda": 6763,
      "▁nakliy": 6764,
      "▁63.52": 6765,
      "+": 6766,
      "atır": 6767,
      "▁107": 6768,
      "temiz": 6769,
      "tır": 6770,
      "▁99.1": 6771,
      "▁turkiye": 6772,
      "▁numaralı": 6773,
      "▁saun": 6774,
      "▁3.3": 6775,
      "▁gecek": 6776,
      "▁milwa": 6777,
      "mayacagım": 6778,
      "▁salih": 6779,
      "▁taz": 6780,
      "▁meydan": 6781,
      "▁reak": 6782,
      "▁isinde": 6783,
      "▁arkasında": 6784,
      "▁jo": 6785,
      "88": 6786,
      "6'da": 6787,
      "▁manzum": 6788,
      "▁klasik": 6789,
      "▁doldu": 6790,
      "▁ilacı": 6791,
      "▁turkiye'ye": 6792,
      "▁tuketiciler": 6793,
      "dikal": 6794,
      "▁mademki": 6795,
      "▁boston": 6796,
      "▁hıc": 6797,
      "▁ismail": 6798,
      "▁chat": 6799,
      "▁olarak": 6800,
      "▁dallas'ta": 6801,
      "▁iliskilerinde": 6802,
      "▁del": 6803,
      "▁sicakti": 6804,
      "▁veya": 6805,
      "▁cam": 6806,
      "ilerek": 6807,
      "▁ekonomik": 6808,
      "▁mizah": 6809,
      "▁karsılastık": 6810,
      "ıh": 6811,
      "miyordu": 6812,
      "▁birkacı": 6813,
      "ilerle": 6814,
      "▁kalp": 6815,
      "▁yemeklerde": 6816,
      "5$": 6817,
      "acaktır": 6818,
      "▁5'ten": 6819,
      "▁ulasımını": 6820,
      "▁oburunu": 6821,
      "por": 6822,
      "alarıyla": 6823,
      "▁acmıs": 6824,
      "▁yavas": 6825,
      "acının": 6826,
      "ate": 6827,
      "▁geliri": 6828,
      "▁ascı": 6829,
      "▁dunku": 6830,
      "▁cabası": 6831,
      "▁1.750": 6832,
      "▁mat": 6833,
      "▁odaya": 6834,
      "house": 6835,
      "▁farz": 6836,
      "▁uyum": 6837,
      "▁575": 6838,
      "lasmıstı": 6839,
      "ij": 6840,
      "▁286": 6841,
      "▁islem": 6842,
      "▁surt": 6843,
      "▁uyuy": 6844,
      "▁amerikalıların": 6845,
      "▁telef": 6846,
      "▁sit": 6847,
      "▁oturan": 6848,
      "▁miy": 6849,
      "cil": 6850,
      "80000": 6851,
      "▁kaldik": 6852,
      "▁agresif": 6853,
      "▁turizm": 6854,
      "mam": 6855,
      "salar": 6856,
      "▁ederim": 6857,
      "▁yapıyor": 6858,
      "▁bey'in": 6859,
      "ındık": 6860,
      "▁hamuru": 6861,
      "▁hediy": 6862,
      "▁kosk": 6863,
      "vil": 6864,
      "▁kahkah": 6865,
      "▁gectigi": 6866,
      "▁dolandırıcılık": 6867,
      "rne": 6868,
      "el": 6869,
      "▁yapalım": 6870,
      "▁sus": 6871,
      "▁dy": 6872,
      "▁cesaret": 6873,
      "isim": 6874,
      "▁di": 6875,
      "▁kararı": 6876,
      "▁aqua": 6877,
      "vili": 6878,
      "▁karsıma": 6879,
      "▁gozyas": 6880,
      "▁pıtır": 6881,
      "▁kaynaklanıyor": 6882,
      "▁had": 6883,
      "▁yapamaz": 6884,
      "▁oncelikle": 6885,
      "r.": 6886,
      "▁soyleyebilir": 6887,
      "▁sepet": 6888,
      "▁huzur": 6889,
      "▁asırı": 6890,
      "▁verilmesi": 6891,
      "▁dagıtır": 6892,
      "▁nufuz": 6893,
      "▁basla": 6894,
      "▁kıvılcım": 6895,
      "▁toplu": 6896,
      "▁uyar": 6897,
      "▁fiyatlarındaki": 6898,
      "▁yana": 6899,
      "alarına": 6900,
      "▁she": 6901,
      "con": 6902,
      "urt": 6903,
      "▁duygusal": 6904,
      "▁09:": 6905,
      "▁dalgın": 6906,
      "▁karsilama": 6907,
      "▁guven": 6908,
      "umuz": 6909,
      "▁say": 6910,
      "▁sıkıl": 6911,
      "lıgım": 6912,
      "dıklarını": 6913,
      "▁munasebet": 6914,
      "emli": 6915,
      "uncu": 6916,
      "▁ofk": 6917,
      "▁riskli": 6918,
      "▁ihtiyat": 6919,
      "▁sinizdir": 6920,
      "▁kısmet": 6921,
      "▁lokma": 6922,
      "▁invest": 6923,
      "▁balık": 6924,
      "▁first": 6925,
      "▁sıfır": 6926,
      "▁korkuyorum": 6927,
      "▁konsol": 6928,
      "▁senden": 6929,
      "ari": 6930,
      "▁beach": 6931,
      "abını": 6932,
      "▁0.3": 6933,
      "▁top": 6934,
      "▁satıslarını": 6935,
      "▁dolayi": 6936,
      "▁oteller": 6937,
      "▁tekerlek": 6938,
      "▁kızının": 6939,
      "▁uzakti": 6940,
      "▁cıkması": 6941,
      "▁tazminat": 6942,
      "esti": 6943,
      "▁boru": 6944,
      "elim": 6945,
      "▁lanet": 6946,
      "▁mecl": 6947,
      "anbul": 6948,
      "▁yetkililer": 6949,
      "cileri": 6950,
      "▁elektr": 6951,
      "cılı": 6952,
      "▁cambaz": 6953,
      "ers": 6954,
      "unden": 6955,
      "▁18.7": 6956,
      "▁kibr": 6957,
      "▁ded": 6958,
      "▁halihazırda": 6959,
      "▁cogun": 6960,
      "▁10.2": 6961,
      "▁elin": 6962,
      "medi": 6963,
      "▁county": 6964,
      "▁besin": 6965,
      "'u": 6966,
      "a'nın": 6967,
      "▁sef": 6968,
      "▁kosullar": 6969,
      "▁konumu": 6970,
      "▁biliyoruz": 6971,
      "▁giden": 6972,
      "▁yakalan": 6973,
      "▁7.9": 6974,
      "▁seg": 6975,
      "85": 6976,
      "▁sev": 6977,
      "▁karp": 6978,
      "▁pe": 6979,
      "▁astr": 6980,
      "▁adinaydi": 6981,
      "▁ozel": 6982,
      "layacak": 6983,
      "▁197": 6984,
      "▁%1": 6985,
      "▁kullandı": 6986,
      "▁oburune": 6987,
      "▁aclıktan": 6988,
      "▁otoy": 6989,
      "inde": 6990,
      "▁gelmedi": 6991,
      "▁as": 6992,
      "▁simdiye": 6993,
      "▁5.": 6994,
      "▁seans": 6995,
      "▁yatırımları": 6996,
      "▁sarmas": 6997,
      "alog": 6998,
      "▁gerekiyordu": 6999,
      "gat": 7000,
      "▁yoneldi": 7001,
      "oloj": 7002,
      "▁3\\/4": 7003,
      "▁verdiginiz": 7004,
      "▁d.": 7005,
      "▁temel": 7006,
      "▁kapladı": 7007,
      "▁172": 7008,
      "lular": 7009,
      "▁lu": 7010,
      "▁menfa": 7011,
      "▁yat": 7012,
      "▁195": 7013,
      "ınar": 7014,
      "▁tit": 7015,
      "▁savunma": 7016,
      "ekler": 7017,
      "▁dav": 7018,
      "▁corp": 7019,
      "ıntıları": 7020,
      "tip": 7021,
      "▁suph": 7022,
      "▁nihal": 7023,
      "▁milletinin": 7024,
      "luk": 7025,
      "afir": 7026,
      "▁australia": 7027,
      "▁iceriye": 7028,
      "▁plastik": 7029,
      "▁anıt": 7030,
      "▁guvertede": 7031,
      "▁durumunda": 7032,
      "▁cogunlugu": 7033,
      "▁karsılık": 7034,
      "▁bircok": 7035,
      "▁ruzg": 7036,
      "▁ikna": 7037,
      "▁dc": 7038,
      "7.8": 7039,
      "▁gidecek": 7040,
      "▁ikinci": 7041,
      "▁newark'a": 7042,
      "▁cezası": 7043,
      "▁cincinnati": 7044,
      "▁vapur": 7045,
      "▁3.4": 7046,
      "imdi": 7047,
      "▁islerin": 7048,
      "▁gelerek": 7049,
      "▁carptı": 7050,
      "▁birinc": 7051,
      "▁price": 7052,
      "▁firma": 7053,
      "▁yararlı": 7054,
      "▁olanaklarını": 7055,
      "tanın": 7056,
      "▁uzerindeydi": 7057,
      "ırlar": 7058,
      "baum": 7059,
      "▁gecenin": 7060,
      "▁altı": 7061,
      "▁atila": 7062,
      "gunden": 7063,
      "lardaki": 7064,
      "▁tesaduf": 7065,
      "▁usul": 7066,
      "▁hacim": 7067,
      "▁abart": 7068,
      "▁kapı": 7069,
      "▁kaymakam": 7070,
      "iski": 7071,
      "imizle": 7072,
      "iyorsun": 7073,
      "▁otekinden": 7074,
      "luluk": 7075,
      "▁332": 7076,
      "▁ayak": 7077,
      "▁kesmek": 7078,
      "▁olanı": 7079,
      "▁2.57": 7080,
      "80": 7081,
      "▁izleyen": 7082,
      "▁1\\/8": 7083,
      "▁erdogan'ın": 7084,
      "▁mehmet": 7085,
      "▁halleri": 7086,
      "▁hamile": 7087,
      "▁musteri": 7088,
      "▁2006": 7089,
      "▁secur": 7090,
      "-22:30": 7091,
      "▁patlı": 7092,
      "▁warner": 7093,
      "▁bizler": 7094,
      "▁gulunc": 7095,
      "osy": 7096,
      "▁yurudu": 7097,
      "▁w.": 7098,
      "▁bulgar": 7099,
      "meniz": 7100,
      "▁civarı": 7101,
      "abet": 7102,
      "▁1945'te": 7103,
      "▁north": 7104,
      "lı": 7105,
      "▁darb": 7106,
      "umda": 7107,
      "▁campeau": 7108,
      "▁brez": 7109,
      "sında": 7110,
      "▁varsay": 7111,
      "▁mahsus": 7112,
      "▁hastalıgı": 7113,
      "▁ecev": 7114,
      "▁kasten": 7115,
      "▁leh": 7116,
      "▁bedel": 7117,
      "▁0.13": 7118,
      "▁bildik": 7119,
      "▁beyaz": 7120,
      "▁urk": 7121,
      "▁acısından": 7122,
      "▁10'dan": 7123,
      "sam": 7124,
      "▁odalı": 7125,
      "▁onc": 7126,
      "▁kimler": 7127,
      "▁onun": 7128,
      "▁0.24": 7129,
      "▁yuzlulerdi": 7130,
      "▁yen": 7131,
      "-23": 7132,
      "▁kuvvetli": 7133,
      "▁bilgiye": 7134,
      "▁iscilerin": 7135,
      "abuk": 7136,
      "▁dayanıklı": 7137,
      "▁odalar": 7138,
      "▁cincinnati'den": 7139,
      "▁eczan": 7140,
      "▁tutun": 7141,
      "▁yonetim": 7142,
      "▁dokundu": 7143,
      "▁bugunlerde": 7144,
      "sh": 7145,
      "▁onculuk": 7146,
      "▁ucmak": 7147,
      "eledi": 7148,
      "▁bulup": 7149,
      "▁ellerini": 7150,
      "▁vermez": 7151,
      "▁sozunu": 7152,
      "▁boyutu": 7153,
      "bir": 7154,
      "▁hareketle": 7155,
      "▁yapr": 7156,
      "▁ceyr": 7157,
      "▁kaybetmis": 7158,
      "ge": 7159,
      "▁sevin": 7160,
      "▁kisilerin": 7161,
      "▁yapıldıgını": 7162,
      "gileri": 7163,
      "▁portakal": 7164,
      "▁post": 7165,
      "▁duruyordu": 7166,
      "▁trt": 7167,
      "akat": 7168,
      "▁betim": 7169,
      "▁calıs": 7170,
      "▁havayolları": 7171,
      "▁yeme": 7172,
      "▁eklen": 7173,
      "▁atti": 7174,
      "amaya": 7175,
      "▁veril": 7176,
      "▁geriledi": 7177,
      "▁artı": 7178,
      "▁istim": 7179,
      "▁kostur": 7180,
      "▁pirinc": 7181,
      "eley": 7182,
      "ega": 7183,
      "▁elemanlar": 7184,
      "▁gecmisti": 7185,
      "▁eski": 7186,
      "▁345": 7187,
      ".96": 7188,
      "`": 7189,
      "▁investment": 7190,
      "▁gom": 7191,
      "▁bırak": 7192,
      "▁goruyoruz": 7193,
      "▁lev": 7194,
      "▁gormemis": 7195,
      "▁yedinci": 7196,
      "ces": 7197,
      "▁baglı": 7198,
      "▁dustugunu": 7199,
      "▁azıcık": 7200,
      "▁krist": 7201,
      "▁silik": 7202,
      "▁biten": 7203,
      "▁renkleri": 7204,
      "meyle": 7205,
      "▁aydan": 7206,
      "▁aylık": 7207,
      "umun": 7208,
      "▁nazar": 7209,
      "gısını": 7210,
      "▁baksana": 7211,
      "lanmıstı": 7212,
      "▁farklılık": 7213,
      "artesi": 7214,
      "▁tahminler": 7215,
      "unde": 7216,
      "y.": 7217,
      "▁ysanız": 7218,
      "▁nitelendir": 7219,
      "chi": 7220,
      "▁arı": 7221,
      "▁perd": 7222,
      "▁19": 7223,
      "▁yalnızca": 7224,
      "▁kampanya": 7225,
      "▁surpr": 7226,
      "▁cıkardı": 7227,
      "amadan": 7228,
      "▁jack": 7229,
      "▁ert": 7230,
      "▁kesik": 7231,
      "ner": 7232,
      "▁korkut": 7233,
      "▁700.": 7234,
      "▁meydanı": 7235,
      "▁bambaska": 7236,
      "▁ib": 7237,
      "mıstır": 7238,
      "▁nane": 7239,
      "ities": 7240,
      "▁diri": 7241,
      "▁vucudum": 7242,
      "▁yun": 7243,
      "lebi": 7244,
      "▁med": 7245,
      "▁olacaktı": 7246,
      "▁vermektedir": 7247,
      "▁bahsediyor": 7248,
      "malıyız": 7249,
      "▁padisah": 7250,
      "▁verici": 7251,
      "▁yukselmistir": 7252,
      "▁sahtek": 7253,
      "▁topraga": 7254,
      "▁amaclı": 7255,
      "▁lin": 7256,
      "tim": 7257,
      "▁fotograf": 7258,
      "▁masaya": 7259,
      "▁kazancları": 7260,
      "esi'nin": 7261,
      "▁suik": 7262,
      "▁ens": 7263,
      "▁gitmek": 7264,
      "▁altında": 7265,
      "▁ytl": 7266,
      "▁2.9": 7267,
      "ıstır": 7268,
      ":11": 7269,
      "▁kesme": 7270,
      "atı": 7271,
      "▁nice": 7272,
      "gumuz": 7273,
      "▁varlıgı": 7274,
      "▁yukselisle": 7275,
      "▁bodrum": 7276,
      "▁yatırımcıların": 7277,
      "▁haliyle": 7278,
      "maca": 7279,
      "▁coktu": 7280,
      "▁fiziksel": 7281,
      "▁300000": 7282,
      "▁isletme": 7283,
      "▁telgraf": 7284,
      "▁tutus": 7285,
      "▁hastanın": 7286,
      "▁piyasasını": 7287,
      "▁garanti": 7288,
      "▁tanıtım": 7289,
      "▁kr": 7290,
      "▁mcca": 7291,
      "▁sirketten": 7292,
      "ahat": 7293,
      "▁dern": 7294,
      "▁erdem": 7295,
      "100": 7296,
      "▁336": 7297,
      "imleri": 7298,
      "▁taksim": 7299,
      "▁recet": 7300,
      "▁yiz": 7301,
      "▁ayagını": 7302,
      "ılmak": 7303,
      "▁iskonto": 7304,
      "▁gerekir": 7305,
      "▁sizden": 7306,
      "▁ramaz": 7307,
      "▁cekilmis": 7308,
      "tep": 7309,
      "▁haberdar": 7310,
      "▁yazma": 7311,
      "▁630": 7312,
      "▁pasif": 7313,
      "▁baslardı": 7314,
      "yor": 7315,
      "▁cebinden": 7316,
      "▁koydular": 7317,
      "aması": 7318,
      "▁almaz": 7319,
      "▁pemex": 7320,
      "▁belirtmek": 7321,
      "▁performansı": 7322,
      "▁green": 7323,
      "ir": 7324,
      "▁ulasımı": 7325,
      "▁finc": 7326,
      "▁olmadıgını": 7327,
      "▁281": 7328,
      "▁santor": 7329,
      "▁kazanan": 7330,
      "▁ash": 7331,
      "▁degin": 7332,
      "▁dusunerek": 7333,
      "▁cesitli": 7334,
      "▁ceyreginde": 7335,
      "▁kara": 7336,
      "▁valley": 7337,
      "mistim": 7338,
      "▁u": 7339,
      "5'e": 7340,
      "▁gorusu": 7341,
      "▁yıp": 7342,
      "larından": 7343,
      "▁ucuna": 7344,
      "▁kolomb": 7345,
      "▁soru": 7346,
      "▁donemde": 7347,
      "▁muhendi": 7348,
      "lanacak": 7349,
      "▁rahatsızlık": 7350,
      "▁kırac": 7351,
      "▁aslına": 7352,
      "▁kiler": 7353,
      "▁derec": 7354,
      "ustr": 7355,
      "▁dallas'a": 7356,
      "arında": 7357,
      "▁turlu": 7358,
      "amıslar": 7359,
      "▁haket": 7360,
      "▁acımasız": 7361,
      "▁okullar": 7362,
      "▁idari": 7363,
      "'nda": 7364,
      "▁yaslarında": 7365,
      "▁mcdon": 7366,
      "ımın": 7367,
      "▁arkadan": 7368,
      "▁cekmec": 7369,
      "▁eng": 7370,
      "▁doldur": 7371,
      "▁unvan": 7372,
      "▁linc": 7373,
      "▁yasarken": 7374,
      "▁kurum": 7375,
      "▁est": 7376,
      "▁marka": 7377,
      "▁damla": 7378,
      "▁birak": 7379,
      "▁bahar": 7380,
      "▁william": 7381,
      "▁1.9": 7382,
      "▁degirmen": 7383,
      "▁vermisti": 7384,
      "aket": 7385,
      "▁kurulunun": 7386,
      "▁yanda": 7387,
      "▁goz": 7388,
      "agoz": 7389,
      "▁kullandıkları": 7390,
      "ler": 7391,
      "▁iy": 7392,
      "▁keh": 7393,
      "▁diler": 7394,
      "00": 7395,
      "▁kısın": 7396,
      "▁ihtiy": 7397,
      "ıyı": 7398,
      "▁dl": 7399,
      "▁jac": 7400,
      "▁klor": 7401,
      "▁ongoruyor": 7402,
      "▁gru": 7403,
      "15": 7404,
      "imde": 7405,
      "anta": 7406,
      "▁belki": 7407,
      "▁soyluyordu": 7408,
      "▁akrep": 7409,
      "▁ziyaret": 7410,
      "▁basbakanlık": 7411,
      "▁sizler": 7412,
      "▁havalimanı": 7413,
      "bilir": 7414,
      "lig": 7415,
      "▁worth'dan": 7416,
      "tane": 7417,
      "▁nicin": 7418,
      "sak": 7419,
      "▁hakaret": 7420,
      "▁ederek": 7421,
      "▁rap": 7422,
      "lugundan": 7423,
      "▁sofr": 7424,
      "kırı": 7425,
      "▁mar": 7426,
      "▁tabi": 7427,
      "▁ihtilal": 7428,
      "▁olmasına": 7429,
      "▁memuru": 7430,
      "▁korkusu": 7431,
      "4.5": 7432,
      "▁dısındaki": 7433,
      "▁duzeyinde": 7434,
      "▁ve": 7435,
      "▁basımıza": 7436,
      "▁bırakıyor": 7437,
      "▁anlatım": 7438,
      "ım": 7439,
      "▁duser": 7440,
      "▁arkadasları": 7441,
      "akar": 7442,
      "▁bankası": 7443,
      "qu": 7444,
      "▁%9.": 7445,
      "▁final": 7446,
      "▁cember": 7447,
      "ini": 7448,
      "▁reklamları": 7449,
      "▁gectim": 7450,
      "▁hayatı": 7451,
      "▁pahali": 7452,
      "uyu": 7453,
      "▁varsa": 7454,
      "▁gozle": 7455,
      "▁helms": 7456,
      "mus": 7457,
      "▁buz": 7458,
      "▁kal": 7459,
      "▁askı": 7460,
      "▁gelistirme": 7461,
      "histi": 7462,
      "▁ihrac": 7463,
      "5'ten": 7464,
      "id": 7465,
      "▁sıkıntı": 7466,
      "▁:": 7467,
      "▁ucunu": 7468,
      "▁fiz": 7469,
      "luktan": 7470,
      "emedi": 7471,
      "layalım": 7472,
      "▁dorduncu": 7473,
      "▁deney": 7474,
      "▁edilmisti": 7475,
      "cilerin": 7476,
      "▁aksi": 7477,
      "▁dak": 7478,
      "ugh": 7479,
      "▁cesitler": 7480,
      "▁etkisiyle": 7481,
      "▁sonucların": 7482,
      "▁uyk": 7483,
      "▁ebru": 7484,
      "▁temizlik": 7485,
      "▁takımı": 7486,
      "▁bırakır": 7487,
      "▁icat": 7488,
      "▁34": 7489,
      "▁buyumus": 7490,
      "▁zararı": 7491,
      "▁doların": 7492,
      "▁otelde": 7493,
      "mustuk": 7494,
      "▁seninle": 7495,
      "▁soylenen": 7496,
      "▁calkan": 7497,
      "▁biliyor": 7498,
      "▁ticaret": 7499,
      "madı": 7500,
      "▁calısanlar": 7501,
      "▁kasıgı": 7502,
      "▁basladılar": 7503,
      "-merkez": 7504,
      "▁cif": 7505,
      "▁izlem": 7506,
      "▁kalkın": 7507,
      "▁baskısı": 7508,
      "▁ortulu": 7509,
      "▁onlarca": 7510,
      "ileri": 7511,
      "▁gosterdigi": 7512,
      "▁kapıyı": 7513,
      "▁olumsuzluk": 7514,
      "▁etmeye": 7515,
      "dedi": 7516,
      "▁izlen": 7517,
      "▁dokuluyor": 7518,
      "▁anlatır": 7519,
      "▁pl": 7520,
      "▁prens": 7521,
      "▁umut": 7522,
      "▁yesil": 7523,
      "86": 7524,
      "▁heykel": 7525,
      "▁1900": 7526,
      "▁sirketler": 7527,
      "▁mız": 7528,
      "▁isinin": 7529,
      "▁stein": 7530,
      "▁gem": 7531,
      "▁&": 7532,
      "▁ihtimalle": 7533,
      "▁eklem": 7534,
      "▁duyarl": 7535,
      ".7": 7536,
      "iyeleri": 7537,
      "▁ustune": 7538,
      "bol": 7539,
      "▁bagladı": 7540,
      "▁bulasık": 7541,
      "▁olaca": 7542,
      "▁kendimize": 7543,
      "▁babaları": 7544,
      "▁oku": 7545,
      "▁sinema": 7546,
      "▁cıkınca": 7547,
      "▁calısarak": 7548,
      "▁dagıt": 7549,
      "meden": 7550,
      "deniz": 7551,
      "▁dolaylı": 7552,
      "▁calisirim": 7553,
      "▁luft": 7554,
      "imizda": 7555,
      "▁potansiy": 7556,
      "▁almıstı": 7557,
      "▁ciftciler": 7558,
      "▁qx": 7559,
      "lıktan": 7560,
      "▁limuzin": 7561,
      "dik": 7562,
      "▁kenara": 7563,
      "▁hayata": 7564,
      "▁7/8": 7565,
      "▁acmıstı": 7566,
      "▁beklentim": 7567,
      "▁muraca": 7568,
      "▁bloke": 7569,
      "meyi": 7570,
      "▁arz": 7571,
      "ular": 7572,
      "▁surum": 7573,
      "▁planlı": 7574,
      "▁taze": 7575,
      "inda": 7576,
      "ı": 7577,
      "▁onumuz": 7578,
      "▁harca": 7579,
      "ılmasını": 7580,
      "▁donmesi": 7581,
      "ken": 7582,
      "▁vil": 7583,
      "dunuz": 7584,
      "▁13.8": 7585,
      "▁tasarısı": 7586,
      "alarında": 7587,
      "▁geldigim": 7588,
      "▁cekildi": 7589,
      "▁%1.7": 7590,
      "tefik": 7591,
      "▁sıkı": 7592,
      "▁yardımcısıydı": 7593,
      "▁bazi": 7594,
      "▁kas": 7595,
      "▁sms": 7596,
      "▁banyo": 7597,
      "ebiliriz": 7598,
      "▁seyahat": 7599,
      "▁ikibinbir": 7600,
      "▁hakkında": 7601,
      "▁levh": 7602,
      "yu": 7603,
      "▁agacların": 7604,
      "▁muhakkak": 7605,
      "▁detroit'e": 7606,
      "▁ku": 7607,
      "▁basit": 7608,
      "▁45000": 7609,
      "▁esyalarını": 7610,
      "▁denecek": 7611,
      "▁niyeti": 7612,
      "▁hazine'nin": 7613,
      "▁opsiyonu": 7614,
      "▁tuttu": 7615,
      "▁bahsetti": 7616,
      "▁mey": 7617,
      "▁bilgiler": 7618,
      "▁les": 7619,
      "▁cadd": 7620,
      "▁tadina": 7621,
      "istir": 7622,
      "▁duruyorlar": 7623,
      "▁fazlay": 7624,
      "uyla": 7625,
      "▁boyut": 7626,
      "▁raf": 7627,
      "▁ven": 7628,
      "▁bunlara": 7629,
      "▁kacır": 7630,
      "▁tasarruf": 7631,
      "▁yorgan": 7632,
      "im": 7633,
      "▁demez": 7634,
      "oeni": 7635,
      "▁degiller": 7636,
      "▁baslar": 7637,
      "▁fon": 7638,
      "▁300": 7639,
      "▁sabahı": 7640,
      "▁duyulan": 7641,
      "▁mamafi": 7642,
      "eliyim": 7643,
      "▁belirtiyor": 7644,
      "▁ıcı": 7645,
      "▁getirmeye": 7646,
      "▁mide": 7647,
      ":": 7648,
      "esine": 7649,
      "ihan": 7650,
      "yordu": 7651,
      "▁yarat": 7652,
      "▁sayılı": 7653,
      "▁yapmıyor": 7654,
      "▁alalım": 7655,
      "4": 7656,
      "▁bulus": 7657,
      "▁verdik": 7658,
      "▁almanlar": 7659,
      "▁analizciler": 7660,
      "▁paris'te": 7661,
      "▁avukatı": 7662,
      "▁harcamaları": 7663,
      "▁memphis'e": 7664,
      "▁yakıt": 7665,
      "▁cıkmaya": 7666,
      "▁sınav": 7667,
      "▁trak": 7668,
      "▁gozunu": 7669,
      "▁8'den": 7670,
      "deri": 7671,
      "27": 7672,
      "▁anlasılan": 7673,
      "▁askeri": 7674,
      "▁hit": 7675,
      "▁ozelligi": 7676,
      "▁calısanı": 7677,
      "tıgımız": 7678,
      "▁yara": 7679,
      "▁calısanların": 7680,
      "▁4.7": 7681,
      "▁diren": 7682,
      "▁gozum": 7683,
      "▁guardi": 7684,
      "▁karsılastırıldıgında": 7685,
      "istim": 7686,
      "▁deyip": 7687,
      "▁kalmamıstı": 7688,
      "leyi": 7689,
      "▁keser": 7690,
      "▁pisti": 7691,
      "▁duyduk": 7692,
      "lanıyor": 7693,
      "▁tren": 7694,
      "▁gerilim": 7695,
      "▁yum": 7696,
      "▁dusundugum": 7697,
      "▁org": 7698,
      "▁yandı": 7699,
      "▁erkege": 7700,
      "▁ofke": 7701,
      "▁politikaya": 7702,
      "▁simsek": 7703,
      "▁ye": 7704,
      "mamıstı": 7705,
      "▁erken": 7706,
      "▁ugras": 7707,
      "▁evli": 7708,
      "▁app": 7709,
      "▁onlemek": 7710,
      "▁kostu": 7711,
      "▁istis": 7712,
      "▁guclu": 7713,
      "▁kalan": 7714,
      "▁ucmam": 7715,
      "▁gectigimiz": 7716,
      "acılar": 7717,
      "▁.)": 7718,
      "▁atarak": 7719,
      "▁toplamıs": 7720,
      "▁ger": 7721,
      "lamıstır": 7722,
      "▁pırıl": 7723,
      "▁birinci": 7724,
      "▁sofor": 7725,
      "▁tic": 7726,
      "leri": 7727,
      "▁mos": 7728,
      "▁saf": 7729,
      "▁22": 7730,
      "▁ik": 7731,
      "▁marif": 7732,
      "▁yog": 7733,
      "br": 7734,
      "▁sahib": 7735,
      "▁sezlong": 7736,
      "▁aydınlat": 7737,
      "▁aktivite": 7738,
      "▁7'de": 7739,
      "▁umdugunu": 7740,
      "▁tın": 7741,
      "▁skandal": 7742,
      "▁masasının": 7743,
      "▁pitts": 7744,
      "▁badan": 7745,
      "▁asik": 7746,
      "▁doz": 7747,
      "▁secmen": 7748,
      "▁ihracı": 7749,
      "▁ceza": 7750,
      "▁yanak": 7751,
      "▁neler": 7752,
      "▁karısı": 7753,
      "▁35587": 7754,
      "▁takımının": 7755,
      "▁merdiv": 7756,
      "▁kaynat": 7757,
      "leriyle": 7758,
      "11": 7759,
      "▁topa": 7760,
      "▁bakınca": 7761,
      "ciler": 7762,
      "▁sachs": 7763,
      "▁ucusunuz": 7764,
      "▁birisi": 7765,
      "▁gozunde": 7766,
      "▁ocagı": 7767,
      "▁nakit": 7768,
      "amin": 7769,
      "▁yapıyorlar": 7770,
      "cek": 7771,
      "▁cocukları": 7772,
      "▁liradan": 7773,
      "▁control": 7774,
      "▁giysiler": 7775,
      "▁yoneticisi": 7776,
      "▁zeka": 7777,
      "▁beklemeye": 7778,
      "▁iyiles": 7779,
      "▁kesildi": 7780,
      "▁kapasit": 7781,
      "▁ep": 7782,
      "▁fir": 7783,
      "iyeler": 7784,
      "sinden": 7785,
      "acagı": 7786,
      "▁bilek": 7787,
      "▁kendi": 7788,
      "▁yal": 7789,
      "▁paul'a": 7790,
      "▁olmayı": 7791,
      "▁bag": 7792,
      "▁carpar": 7793,
      "▁yunan": 7794,
      "▁anlama": 7795,
      "▁deh": 7796,
      "▁toh": 7797,
      "▁egz": 7798,
      "▁istediklerini": 7799,
      "▁dem": 7800,
      "▁yapısı": 7801,
      "▁tuhaf": 7802,
      "▁sırrı": 7803,
      "▁cogunlukla": 7804,
      "liyat": 7805,
      "lesti": 7806,
      "ıklar": 7807,
      "▁bıyık": 7808,
      "elenmis": 7809,
      "▁savcılar": 7810,
      "▁alakasi": 7811,
      "▁teb": 7812,
      "▁hok": 7813,
      "▁04": 7814,
      "igi": 7815,
      "▁yapacagı": 7816,
      "▁ad": 7817,
      "7.1": 7818,
      "▁rezerv": 7819,
      "▁kapasitesine": 7820,
      "pr": 7821,
      "▁cansu": 7822,
      "lamak": 7823,
      "▁soyley": 7824,
      "subishi": 7825,
      "▁ellerine": 7826,
      "▁yogurt": 7827,
      "▁silk": 7828,
      "ustugunu": 7829,
      "▁tarif": 7830,
      "▁celik": 7831,
      "▁korkunc": 7832,
      "▁gormuyor": 7833,
      "esi'nde": 7834,
      "▁gen": 7835,
      "▁birim": 7836,
      "▁texas": 7837,
      "▁isletmeler": 7838,
      "amız": 7839,
      "emeyen": 7840,
      "▁itibaren": 7841,
      "▁215.04": 7842,
      "▁ordusu": 7843,
      "▁26000": 7844,
      "▁elime": 7845,
      "▁oykuler": 7846,
      "▁associates": 7847,
      "▁profesyonel": 7848,
      "umuzde": 7849,
      "▁kusk": 7850,
      "▁geciren": 7851,
      "▁bab": 7852,
      "▁parası": 7853,
      "uv": 7854,
      "▁baz": 7855,
      "▁asagıda": 7856,
      "tıp": 7857,
      "▁168": 7858,
      "nol": 7859,
      "▁inc.'in": 7860,
      ".01": 7861,
      "elerde": 7862,
      "meli": 7863,
      "▁degismis": 7864,
      "▁yaptık": 7865,
      "▁bekleniyor": 7866,
      "▁sirketlerin": 7867,
      "▁biriktir": 7868,
      "▁duyg": 7869,
      "▁oncesinde": 7870,
      "▁gozlerinden": 7871,
      "▁bileti": 7872,
      "▁oncelik": 7873,
      "▁algılan": 7874,
      "▁gonlum": 7875,
      "▁1970": 7876,
      "▁yeter": 7877,
      "▁1/2'den": 7878,
      "is": 7879,
      "rist": 7880,
      "hasır": 7881,
      "▁yuz": 7882,
      "▁yatırımcının": 7883,
      "ors": 7884,
      "▁olacagına": 7885,
      "▁isteyenler": 7886,
      "▁2.75": 7887,
      "▁nedenle": 7888,
      "▁durdur": 7889,
      "▁canan": 7890,
      "onu": 7891,
      "▁rot": 7892,
      "dım": 7893,
      "▁macın": 7894,
      "unik": 7895,
      "▁dikti": 7896,
      "▁pus": 7897,
      "1.3": 7898,
      "▁con": 7899,
      "▁artık": 7900,
      "▁calısıyor": 7901,
      "as": 7902,
      "▁uzuntu": 7903,
      "lasarak": 7904,
      "▁gaziantep": 7905,
      "\\": 7906,
      "luga": 7907,
      "▁serviste": 7908,
      "▁sayi": 7909,
      "▁geor": 7910,
      "▁1.000": 7911,
      "▁yaslı": 7912,
      "▁sureci": 7913,
      "▁wall": 7914,
      "▁umum": 7915,
      "▁show": 7916,
      "▁nasa": 7917,
      "▁gelelim": 7918,
      "▁derken": 7919,
      "dılar": 7920,
      "▁gorun": 7921,
      "uyle": 7922,
      "▁soyleyerek": 7923,
      "lıkla": 7924,
      "asinda": 7925,
      "▁sans": 7926,
      ".43": 7927,
      "▁restoran": 7928,
      "▁3554": 7929,
      "▁kap": 7930,
      "lugun": 7931,
      "▁ted": 7932,
      "▁nuri": 7933,
      "▁charles": 7934,
      "yetmisbes": 7935,
      "▁tepe": 7936,
      "▁ust": 7937,
      "▁76": 7938,
      "▁form": 7939,
      "▁istey": 7940,
      "▁seattle": 7941,
      "▁omer": 7942,
      "▁dedim": 7943,
      "▁isy": 7944,
      "▁noel": 7945,
      "▁efsan": 7946,
      "▁ey": 7947,
      "▁yapmadim": 7948,
      "esince": 7949,
      "▁veto": 7950,
      "4.4": 7951,
      "▁havuc": 7952,
      "▁doktoru": 7953,
      "gın": 7954,
      "▁babama": 7955,
      "adar": 7956,
      "▁kosulları": 7957,
      "▁yasamaya": 7958,
      "cu": 7959,
      "▁indim": 7960,
      "▁satılan": 7961,
      "sık": 7962,
      "▁kampanyalardan": 7963,
      "▁boyalı": 7964,
      "hane": 7965,
      "iskin": 7966,
      "aver": 7967,
      "▁'ydi": 7968,
      "▁dans": 7969,
      "▁iceri": 7970,
      "▁sıkıs": 7971,
      "▁449.3": 7972,
      "▁re": 7973,
      "▁asgari": 7974,
      "▁6.6": 7975,
      "▁975": 7976,
      "▁saray": 7977,
      "rin": 7978,
      "▁sıy": 7979,
      "▁lim": 7980,
      "mun": 7981,
      "▁yarısı": 7982,
      "▁dusuyor": 7983,
      "dev": 7984,
      "▁miras": 7985,
      "▁cir": 7986,
      "▁gam": 7987,
      "▁isley": 7988,
      "mec": 7989,
      "▁pencerenin": 7990,
      "▁402": 7991,
      "▁tov": 7992,
      "kır": 7993,
      "▁montre": 7994,
      "▁lezzetliydi": 7995,
      "▁tasıyor": 7996,
      "▁icti": 7997,
      "▁210": 7998,
      "▁luz": 7999,
      "▁liberal": 8000,
      "▁mahz": 8001,
      "▁huner": 8002,
      "ulmamıs": 8003,
      "▁takip": 8004,
      "▁sanatcı": 8005,
      "▁bunun": 8006,
      "gından": 8007,
      "70": 8008,
      "io": 8009,
      "▁belirtmis": 8010,
      "y": 8011,
      "▁asya": 8012,
      "▁basketbol": 8013,
      "▁pro": 8014,
      "▁muyuz": 8015,
      "lerden": 8016,
      "▁vasatti": 8017,
      "7000": 8018,
      "▁set": 8019,
      "ysa": 8020,
      "lesmis": 8021,
      "▁bilinmeyen": 8022,
      "tıktan": 8023,
      "▁kiralama": 8024,
      "▁tutmaya": 8025,
      "▁1968": 8026,
      "▁idaresi": 8027,
      "▁polisler": 8028,
      "▁540": 8029,
      "▁n.": 8030,
      "▁vermeyen": 8031,
      "▁alıcılar": 8032,
      "▁polis": 8033,
      "▁0.00": 8034,
      "▁adi": 8035,
      "▁denilen": 8036,
      "▁milletin": 8037,
      "▁arkadası": 8038,
      "▁iyiydi": 8039,
      "▁neredeyse": 8040,
      "▁dusunduk": 8041,
      "…": 8042,
      "▁kazandım": 8043,
      "▁sabun": 8044,
      "▁%4.8": 8045,
      "tar": 8046,
      "▁milletvekili": 8047,
      "'daki": 8048,
      "▁puanlarim": 8049,
      "..": 8050,
      "▁gokyuzunu": 8051,
      "▁imam": 8052,
      "▁ortalıgı": 8053,
      "▁ureticileri": 8054,
      "▁sokup": 8055,
      "▁karlı": 8056,
      "▁isleminin": 8057,
      "▁ali'nin": 8058,
      "▁secime": 8059,
      "▁kusuru": 8060,
      "▁yah": 8061,
      "▁aver": 8062,
      "▁sevda": 8063,
      "▁evi": 8064,
      "ikten": 8065,
      "▁patr": 8066,
      "99": 8067,
      "hi": 8068,
      "▁uzerine": 8069,
      "▁samet": 8070,
      "▁mustafa": 8071,
      "var": 8072,
      "▁gecikme": 8073,
      "▁imzaladı": 8074,
      "▁1.500": 8075,
      "▁sergi": 8076,
      "▁yasanan": 8077,
      "▁elli": 8078,
      "une": 8079,
      "▁plas": 8080,
      "▁mark": 8081,
      "▁haydi": 8082,
      "▁gurultu": 8083,
      "etle": 8084,
      "▁istemiyorum": 8085,
      "▁19.9": 8086,
      "▁evini": 8087,
      "▁bahtiy": 8088,
      "▁hangi": 8089,
      "▁baktı": 8090,
      "▁kapital": 8091,
      "▁oldug": 8092,
      "▁biriyle": 8093,
      "▁salat": 8094,
      "▁karlar": 8095,
      "arım": 8096,
      "▁poy": 8097,
      "▁oglum": 8098,
      "▁tipi": 8099,
      "▁kanun": 8100,
      "▁991": 8101,
      "erleri": 8102,
      "▁geciriyor": 8103,
      "▁anlatan": 8104,
      "▁donuk": 8105,
      "▁states": 8106,
      "▁yankılan": 8107,
      "sler": 8108,
      "▁tutarlı": 8109,
      "▁tuc": 8110,
      "▁parmakları": 8111,
      "▁verebilir": 8112,
      "▁kutu": 8113,
      "▁yarar": 8114,
      "▁televizyon": 8115,
      "▁profesor": 8116,
      "▁carte": 8117,
      "zo": 8118,
      "▁carsı": 8119,
      "▁okun": 8120,
      "▁pencereden": 8121,
      "lanması": 8122,
      "▁erdi": 8123,
      "▁kokuyor": 8124,
      "asıyor": 8125,
      "▁sekli": 8126,
      "▁yılmaz": 8127,
      "▁uretic": 8128,
      "▁kesti": 8129,
      "▁kendimi": 8130,
      "▁samimiyet": 8131,
      "▁gey": 8132,
      "▁diyarbakır'a": 8133,
      "fik": 8134,
      "▁uygulan": 8135,
      "▁sozun": 8136,
      "▁kullanılan": 8137,
      "▁mesa": 8138,
      "[UNK]": 8139,
      "muyordu": 8140,
      "abilmesi": 8141,
      "▁sivil": 8142,
      "▁sesiyle": 8143,
      "▁180": 8144,
      "▁ulkeleri": 8145,
      "▁ulasıyor": 8146,
      "▁ilgileniyor": 8147,
      "▁goc": 8148,
      "▁sadak": 8149,
      "cel": 8150,
      "▁gelistirmek": 8151,
      "▁devre": 8152,
      "eing": 8153,
      "▁henuz": 8154,
      "▁ign": 8155,
      "▁tarz": 8156,
      "▁buhran": 8157,
      "▁kendiler": 8158,
      "▁cagın": 8159,
      "▁teslim": 8160,
      "cilik": 8161,
      "▁muazzam": 8162,
      "▁rustu": 8163,
      "▁164830000": 8164,
      "▁bilmek": 8165,
      "▁bulacak": 8166,
      "▁ask": 8167,
      "▁kurtarmak": 8168,
      "▁aktif": 8169,
      "▁giy": 8170,
      "mar": 8171,
      "▁kahveren": 8172,
      "▁arıyor": 8173,
      "▁avuc": 8174,
      "ınızda": 8175,
      "▁parmak": 8176,
      "▁1.5820": 8177,
      "▁universitede": 8178,
      "▁beyan": 8179,
      "▁lazımdır": 8180,
      "▁mendi": 8181,
      "▁midwest": 8182,
      "▁cunku": 8183,
      "▁kayıt": 8184,
      "▁oluyor": 8185,
      "▁yuksel": 8186,
      "▁gerisi": 8187,
      "▁ogr": 8188,
      "ar": 8189,
      "▁seyr": 8190,
      "▁utan": 8191,
      "▁isv": 8192,
      "▁pınar": 8193,
      "▁haf": 8194,
      "▁koyden": 8195,
      "▁antalya": 8196,
      "▁geliyorlar": 8197,
      "▁duman": 8198,
      "▁yenilen": 8199,
      "▁kalkıyor": 8200,
      "elemek": 8201,
      "▁burn": 8202,
      "▁vatandas": 8203,
      "▁aga": 8204,
      "aleti": 8205,
      "▁cuh": 8206,
      "▁serv": 8207,
      "▁demet": 8208,
      "▁korudu": 8209,
      "▁conn": 8210,
      "▁27": 8211,
      "▁ilerliyor": 8212,
      "▁petersburg'dan": 8213,
      "ındaydı": 8214,
      "▁iktidar": 8215,
      "▁jon": 8216,
      "▁paraya": 8217,
      "▁ucmanın": 8218,
      "inizle": 8219,
      "▁zihn": 8220,
      "▁bitki": 8221,
      "▁hasret": 8222,
      "gah": 8223,
      "▁hurr": 8224,
      "acagın": 8225,
      "▁86": 8226,
      "▁prof": 8227,
      "▁zengin": 8228,
      "▁haval": 8229,
      "▁fevkal": 8230,
      "▁dudak": 8231,
      "ref": 8232,
      "▁ayarlanabilir": 8233,
      "tibat": 8234,
      "▁stratej": 8235,
      "▁bıcak": 8236,
      "▁adamı": 8237,
      "▁akan": 8238,
      "▁secim": 8239,
      "▁baktım": 8240,
      "▁ymus": 8241,
      "▁gununde": 8242,
      "▁sevim": 8243,
      "▁kimine": 8244,
      "▁yazınız": 8245,
      "▁eur": 8246,
      "▁guz": 8247,
      "▁cı": 8248,
      "▁kapattı": 8249,
      "▁direktoru": 8250,
      "isel": 8251,
      "▁varlıklar": 8252,
      "▁reklamlar": 8253,
      "▁gorunuyordu": 8254,
      "▁engel": 8255,
      "▁atın": 8256,
      "▁tim": 8257,
      "una": 8258,
      "▁hayatımda": 8259,
      "▁seylerin": 8260,
      "▁kapas": 8261,
      "▁carl": 8262,
      "▁yaslan": 8263,
      "▁okurdu": 8264,
      "▁yonetimi": 8265,
      "▁tesisi": 8266,
      "▁acent": 8267,
      "▁jr": 8268,
      "▁fuar": 8269,
      "▁.1": 8270,
      "▁enf": 8271,
      "▁twa": 8272,
      "▁k": 8273,
      "▁sultan": 8274,
      "▁mudahale": 8275,
      "▁110": 8276,
      "▁oynayan": 8277,
      "▁1950": 8278,
      "▁esat": 8279,
      "▁kotuye": 8280,
      "▁sosyalist": 8281,
      "▁adamının": 8282,
      "▁tedavul": 8283,
      "▁urunlerin": 8284,
      "kb": 8285,
      "▁gidiyordu": 8286,
      "▁tucc": 8287,
      "▁bes": 8288,
      "▁etmekte": 8289,
      "▁ulkelerde": 8290,
      "'de": 8291,
      "▁kondu": 8292,
      "▁sigorta": 8293,
      "▁esin": 8294,
      ".4": 8295,
      "▁gumbur": 8296,
      "▁tesekkur": 8297,
      "▁muhtesem": 8298,
      "▁holly": 8299,
      "▁12000": 8300,
      "layınca": 8301,
      "▁golge": 8302,
      "▁kızlar": 8303,
      "▁1.8470": 8304,
      "▁oynamak": 8305,
      "▁agaclar": 8306,
      "▁yarısına": 8307,
      "▁kırk": 8308,
      ".125": 8309,
      "▁kavur": 8310,
      "gelelim": 8311,
      "▁detayları": 8312,
      "▁anadolu'nun": 8313,
      "▁merkezi": 8314,
      "00'den": 8315,
      "▁etkisi": 8316,
      "▁asagıya": 8317,
      "lerdir": 8318,
      "▁3.1": 8319,
      "▁w": 8320,
      "▁ettiginde": 8321,
      "▁kızına": 8322,
      "▁celisk": 8323,
      "▁saatlerinde": 8324,
      "▁arn": 8325,
      "▁tedav": 8326,
      "▁micr": 8327,
      "▁kurnaz": 8328,
      "▁lou": 8329,
      "ıklı": 8330,
      "▁dım": 8331,
      "▁1.11": 8332,
      "▁dısı": 8333,
      "▁ceh": 8334,
      "acagımı": 8335,
      "▁yili": 8336,
      "ırı": 8337,
      "▁9'dan": 8338,
      "▁ag": 8339,
      "indedir": 8340,
      "kların": 8341,
      "▁nom": 8342,
      "taz": 8343,
      "tıgına": 8344,
      "▁sag": 8345,
      "▁soya": 8346,
      "▁surece": 8347,
      "▁bro": 8348,
      "▁prob": 8349,
      "lamasına": 8350,
      "▁idam": 8351,
      "▁seni": 8352,
      "▁bakimsizdi": 8353,
      "▁1761": 8354,
      "asına": 8355,
      "▁duvarın": 8356,
      "koy": 8357,
      "mezdi": 8358,
      "▁ikiye": 8359,
      "▁sinir": 8360,
      "iniki": 8361,
      "▁edec": 8362,
      "▁baglamıs": 8363,
      "▁alma": 8364,
      "bre": 8365,
      "▁bulabilir": 8366,
      "eyt": 8367,
      "ass": 8368,
      "▁yatırımcı": 8369,
      "▁olustur": 8370,
      "▁ital": 8371,
      "2'den": 8372,
      "ust": 8373,
      "ulmaz": 8374,
      "▁kıymetleri": 8375,
      "lebilir": 8376,
      "▁demokras": 8377,
      "▁duvarları": 8378,
      "▁biliyorlar": 8379,
      "▁kaliteye": 8380,
      "▁pasa'nın": 8381,
      "'un": 8382,
      "▁vahsi": 8383,
      "ato": 8384,
      "▁ab'ye": 8385,
      "▁veyahut": 8386,
      "▁belir": 8387,
      "▁hareketi": 8388,
      "'ya": 8389,
      "▁olmadan": 8390,
      "▁kurus": 8391,
      "▁ayına": 8392,
      "▁vakti": 8393,
      "▁fiyatlarının": 8394,
      "▁telefonda": 8395,
      "-f": 8396,
      "▁dort": 8397,
      "▁bakanlar": 8398,
      "▁cik": 8399,
      "▁sikintimiz": 8400,
      "ıllı": 8401,
      "▁ecektik": 8402,
      "lak": 8403,
      "etin": 8404,
      "fet": 8405,
      "▁gecmeye": 8406,
      "▁dusunuyordu": 8407,
      "ilig": 8408,
      "▁sil": 8409,
      "ug": 8410,
      "▁ig": 8411,
      "▁havlular": 8412,
      "▁1.58": 8413,
      "70000": 8414,
      "▁icmek": 8415,
      "ody": 8416,
      "▁lisans": 8417,
      "▁fransa'da": 8418,
      "▁fer": 8419,
      "▁cleveland'dan": 8420,
      "▁mahk": 8421,
      "▁yavr": 8422,
      "▁cıktılar": 8423,
      "▁hems": 8424,
      "is'in": 8425,
      "▁fazlası": 8426,
      "▁elleri": 8427,
      "▁gib": 8428,
      "▁ustundeki": 8429,
      "▁islemlerini": 8430,
      "▁listeler": 8431,
      "▁olmalıydı": 8432,
      "ladım": 8433,
      "▁koyluler": 8434,
      "▁sw": 8435,
      ".85": 8436,
      "vec": 8437,
      "▁sars": 8438,
      "▁n": 8439,
      "▁erbak": 8440,
      "▁haram": 8441,
      "▁pantol": 8442,
      "▁insaf": 8443,
      "▁arız": 8444,
      "▁5": 8445,
      "▁kor": 8446,
      "acı": 8447,
      "ood": 8448,
      "▁6.000": 8449,
      "ebilecek": 8450,
      "▁1.63": 8451,
      "▁bagımlı": 8452,
      "▁seytan": 8453,
      "▁trelleborg": 8454,
      "ill": 8455,
      "▁grub": 8456,
      "▁karıs": 8457,
      "ling": 8458,
      "▁tasır": 8459,
      "▁hacmi": 8460,
      "▁istiklal": 8461,
      "▁olanlara": 8462,
      "▁yatkın": 8463,
      "▁gecerli": 8464,
      "▁3.05": 8465,
      "ugun": 8466,
      "▁cıkaracak": 8467,
      ":00-22:30": 8468,
      "▁hizmetten": 8469,
      "▁kalitesine": 8470,
      "▁1.75": 8471,
      "dat": 8472,
      "▁casus": 8473,
      "▁olmayacaktır": 8474,
      "▁mahkem": 8475,
      "▁eastern'in": 8476,
      "▁dolu": 8477,
      "▁city'e": 8478,
      "▁arasındaki": 8479,
      "lardır": 8480,
      "unca": 8481,
      "lasyon": 8482,
      "▁pisir": 8483,
      "▁ithalat": 8484,
      "ayı": 8485,
      "▁konusur": 8486,
      "enen": 8487,
      "▁kazandı": 8488,
      "bay": 8489,
      "▁gorevlileri": 8490,
      "▁yazarın": 8491,
      "▁seyrediyordu": 8492,
      "▁sesler": 8493,
      "artman": 8494,
      "▁dengesi": 8495,
      "dıktan": 8496,
      "▁anlatmak": 8497,
      "▁arabanın": 8498,
      "▁pen": 8499,
      "ilmek": 8500,
      "▁cuzdan": 8501,
      "'deki": 8502,
      "▁kıt": 8503,
      "▁endis": 8504,
      "▁cumle": 8505,
      "▁olacagı": 8506,
      "▁gitmedi": 8507,
      "▁istiyorlar": 8508,
      "'dan": 8509,
      "▁don": 8510,
      "▁mesela": 8511,
      "o": 8512,
      "▁mektup": 8513,
      "▁yildi": 8514,
      "▁dalk": 8515,
      "an'a": 8516,
      "▁yetersizligi": 8517,
      "▁malları": 8518,
      "▁kurtaj": 8519,
      "▁166": 8520,
      "ox": 8521,
      "▁oraya": 8522,
      "▁chicago'ya": 8523,
      "6'dan": 8524,
      "▁koruk": 8525,
      "▁turgut": 8526,
      "alarca": 8527,
      "misti": 8528,
      "▁kazanc": 8529,
      "▁annemle": 8530,
      "cıların": 8531,
      "▁isp": 8532,
      "▁mobil": 8533,
      "ekul": 8534,
      "▁cesitliydi": 8535,
      "▁aramaya": 8536,
      "1.2": 8537,
      "▁tut": 8538,
      "tari": 8539,
      "▁62.5": 8540,
      "▁1222": 8541,
      "ems": 8542,
      "▁projesi": 8543,
      "▁turkc": 8544,
      "▁42.9": 8545,
      "▁118": 8546,
      "▁sc": 8547,
      "▁130.": 8548,
      "▁surun": 8549,
      "▁national": 8550,
      "iliyor": 8551,
      "▁lang": 8552,
      "ıt": 8553,
      "andı": 8554,
      "▁kelimeler": 8555,
      "▁hapis": 8556,
      "▁cocukca": 8557,
      "lasmıs": 8558,
      "▁koptu": 8559,
      "▁fatura": 8560,
      "▁erkekler": 8561,
      "▁akıyor": 8562,
      "▁2662.91": 8563,
      "▁ozlem": 8564,
      "malıdır": 8565,
      "▁analiz": 8566,
      "▁sakal": 8567,
      "▁zeynep": 8568,
      "bucuk": 8569,
      "▁korun": 8570,
      "▁zavallı": 8571,
      "▁devam": 8572,
      "▁him": 8573,
      "▁tramv": 8574,
      "tay": 8575,
      "▁atıyordu": 8576,
      "▁cekmeye": 8577,
      "▁olaylara": 8578,
      "7'den": 8579,
      "irmi": 8580,
      "iyet": 8581,
      "▁217": 8582,
      "len": 8583,
      "ulmustur": 8584,
      "▁brothers": 8585,
      "▁1.37": 8586,
      "▁inandır": 8587,
      "▁ref": 8588,
      "▁dagıl": 8589,
      "▁kaynakları": 8590,
      "▁calıstım": 8591,
      "▁%0.2": 8592,
      "▁oylama": 8593,
      "▁pa": 8594,
      "▁811": 8595,
      "▁havuz": 8596,
      "▁ecz": 8597,
      "▁genclik": 8598,
      "▁devreye": 8599,
      "▁etmisler": 8600,
      "▁serit": 8601,
      "▁atmosfer": 8602,
      "▁sansı": 8603,
      "▁eriyor": 8604,
      "▁vır": 8605,
      "▁kurulu": 8606,
      "▁gunlerinde": 8607,
      "▁41.60": 8608,
      "het": 8609,
      "▁zırt": 8610,
      "dim": 8611,
      "▁vakit": 8612,
      "alas": 8613,
      "menler": 8614,
      "kik": 8615,
      "▁divan": 8616,
      "▁7.65": 8617,
      "▁bomb": 8618,
      "▁tedavulde": 8619,
      "▁kacta": 8620,
      "▁fıkı": 8621,
      "▁yukum": 8622,
      "ubet": 8623,
      "▁islemlerin": 8624,
      "▁gelirlerinin": 8625,
      "▁tarlayı": 8626,
      "▁burada": 8627,
      "likleri": 8628,
      "▁milano": 8629,
      "▁duymuyor": 8630,
      "▁35": 8631,
      "▁borsanın": 8632,
      "▁gucluk": 8633,
      "▁arası": 8634,
      "▁ihtilaf": 8635,
      "▁yapmadı": 8636,
      "▁man": 8637,
      "▁cincinnati'ye": 8638,
      "▁j.": 8639,
      "min": 8640,
      "ford": 8641,
      "▁20.": 8642,
      "▁cuk": 8643,
      "dını": 8644,
      "▁800": 8645,
      "say": 8646,
      "▁yapti": 8647,
      "▁milyonluk": 8648,
      "▁nedeniyle": 8649,
      "▁urunleri": 8650,
      "▁yitir": 8651,
      "day": 8652,
      ".875": 8653,
      "▁meral": 8654,
      "nal": 8655,
      "▁lıgı": 8656,
      "▁boz": 8657,
      "▁522": 8658,
      "▁chicago": 8659,
      "▁satılık": 8660,
      "▁kiz": 8661,
      "▁richard": 8662,
      "-1": 8663,
      "vıl": 8664,
      "u": 8665,
      "▁durumu": 8666,
      "▁manastır": 8667,
      "▁seyir": 8668,
      "▁uluslar": 8669,
      "▁aramak": 8670,
      "▁neyi": 8671,
      "▁biridir": 8672,
      "▁genelde": 8673,
      "sik": 8674,
      "▁rezerve": 8675,
      "yar": 8676,
      "amayacagim": 8677,
      "▁mahkemede": 8678,
      "▁nin": 8679,
      "▁249.5": 8680,
      "▁aylarca": 8681,
      "▁animasyonlari": 8682,
      "▁planının": 8683,
      "▁cat": 8684,
      "▁konuya": 8685,
      "▁yuzunden": 8686,
      "▁sizde": 8687,
      "▁kırm": 8688,
      "▁cav": 8689,
      "▁der": 8690,
      "zer": 8691,
      "▁film": 8692,
      "▁so": 8693,
      "▁sahada": 8694,
      "lasması": 8695,
      "▁kaliteli": 8696,
      "▁baltimore'den": 8697,
      "▁1.55": 8698,
      "ısıyla": 8699,
      "▁acı": 8700,
      "umuza": 8701,
      "tikleri": 8702,
      "iyordu": 8703,
      "ico": 8704,
      "amayı": 8705,
      "▁b": 8706,
      "▁ucagı": 8707,
      "▁bel": 8708,
      "▁ustunu": 8709,
      "▁sırasında": 8710,
      "▁925": 8711,
      "▁bosalt": 8712,
      "▁iii": 8713,
      "▁esn": 8714,
      "▁penc": 8715,
      "▁yolcu": 8716,
      "/8'den": 8717,
      "▁iler": 8718,
      "sar": 8719,
      "ix": 8720,
      "ilme": 8721,
      "▁istemeye": 8722,
      "▁otomobilin": 8723,
      "▁bu": 8724,
      "▁kitab": 8725,
      "ınıyor": 8726,
      "▁indianapolis'ten": 8727,
      "▁taht": 8728,
      "▁ugruna": 8729,
      "▁hediye": 8730,
      "eco": 8731,
      "▁fiyatlarını": 8732,
      "▁mektu": 8733,
      "▁luk": 8734,
      "▁yonu": 8735,
      "▁katılan": 8736,
      "▁ikibiniki": 8737,
      "▁%11": 8738,
      "▁dogrul": 8739,
      "▁onumuzdeki": 8740,
      "▁ismet": 8741,
      "▁anketi": 8742,
      "▁aklıma": 8743,
      "▁cayır": 8744,
      "▁yuku": 8745,
      "▁cıkarılan": 8746,
      "▁aykırı": 8747,
      "▁geri": 8748,
      "▁muhasebe": 8749,
      "8'e": 8750,
      "▁karagoz": 8751,
      "▁eser": 8752,
      "▁alık": 8753,
      "ys": 8754,
      "▁agız": 8755,
      "siz": 8756,
      "ie": 8757,
      "▁ertug": 8758,
      "'nun": 8759,
      "▁arttı": 8760,
      "▁gider": 8761,
      "▁takiben": 8762,
      "▁sırf": 8763,
      "▁dogum": 8764,
      "▁resepsiyon": 8765,
      "vansiy": 8766,
      "▁herhan": 8767,
      "▁yazar": 8768,
      "▁gerisinde": 8769,
      "▁bolugu": 8770,
      "lerde": 8771,
      "▁acıklamada": 8772,
      "▁dis": 8773,
      "▁birinin": 8774,
      "▁okulları": 8775,
      "▁temsil": 8776,
      "eciler": 8777,
      "edin": 8778,
      "▁kisiyi": 8779,
      "ock": 8780,
      "▁nasdaq": 8781,
      "▁donemlerinde": 8782,
      "▁sinemaya": 8783,
      "▁adamcagız": 8784,
      "▁zann": 8785,
      "▁dogu'da": 8786,
      "▁santral": 8787,
      "▁goturdu": 8788,
      "▁368": 8789,
      "▁sekeri": 8790,
      "▁sagduy": 8791,
      "▁elmas": 8792,
      "ekli": 8793,
      "▁hukuk": 8794,
      "7": 8795,
      "▁biy": 8796,
      "avuk": 8797,
      "▁mangal": 8798,
      "bon": 8799,
      "▁lor": 8800,
      "▁gm": 8801,
      "▁lunapark": 8802,
      "▁yonetici": 8803,
      "▁kalıb": 8804,
      "▁atmıs": 8805,
      "▁odama": 8806,
      "▁gri": 8807,
      "ji": 8808,
      "iciler": 8809,
      "▁konakla": 8810,
      "▁chev": 8811,
      "▁cıkarmıs": 8812,
      "▁benims": 8813,
      "▁12.5": 8814,
      "▁anlayan": 8815,
      "▁onların": 8816,
      "amıyor": 8817,
      "▁cıkan": 8818,
      "▁almaya": 8819,
      "▁mill": 8820,
      "▁denizin": 8821,
      "▁uzunca": 8822,
      "▁beyler": 8823,
      "▁oniki": 8824,
      "▁240": 8825,
      "evher": 8826,
      "▁yapıldı": 8827,
      "▁saltan": 8828,
      "▁disi": 8829,
      "▁amr": 8830,
      "▁dusunun": 8831,
      "ace": 8832,
      "▁denet": 8833,
      "▁kendilerini": 8834,
      "▁olabilecek": 8835,
      "▁guleryuzlu": 8836,
      "▁cıkarken": 8837,
      "▁%12": 8838,
      "ısıl": 8839,
      "manız": 8840,
      "▁eglenceli": 8841,
      "▁tahvilleri": 8842,
      "▁huz": 8843,
      "▁alıskan": 8844,
      "▁kullanılır": 8845,
      "▁devlet": 8846,
      "▁iptal": 8847,
      ".78": 8848,
      "▁oturacak": 8849,
      "▁gorduler": 8850,
      "▁alımı": 8851,
      "j": 8852,
[...]
