{
  "version": "1.0",
  "truncation": null,
  "padding": null,
  "added_tokens": [
    {
      "id": 759,
      "content": "[SEP]",
      "single_word": false,
      "lstrip": false,
      "rstrip": false,
      "normalized": false,
      "special": true
    },
    {
      "id": 1190,
      "content": "[MASK]",
      "single_word": false,
      "lstrip": false,
      "rstrip": false,
      "normalized": false,
      "special": true
    },
    {
      "id": 1976,
      "content": "[PAD]",
      "single_word": false,
      "lstrip": false,
      "rstrip": false,
      "normalized": false,
      "special": true
    },
    {
      "id": 3175,
      "content": "[CLS]",
      "single_word": false,
      "lstrip": false,
      "rstrip": false,
      "normalized": false,
      "special": true
    },
    {
      "id": 4012,
      "content": "[UNK]",
      "single_word": false,
      "lstrip": false,
      "rstrip": false,
      "normalized": false,
      "special": true
    }
  ],
  "normalizer": {
    "type": "Sequence",
    "normalizers": [
      {
        "type": "NFD"
      },
      {
        "type": "Lowercase"
      },
      {
        "type": "StripAccents"
      }
    ]
  },
  "pre_tokenizer": {
    "type": "Sequence",
    "pretokenizers": [
      {
        "type": "Metaspace",
        "replacement": "▁",
        "prepend_scheme": "always",
        "split": true
      }
    ]
  },
  "post_processor": {
    "type": "TemplateProcessing",
    "single": [
      {
        "SpecialToken": {
          "id": "[CLS]",
          "type_id": 0
        }
      },
      {
        "Sequence": {
          "id": "A",
          "type_id": 0
        }
      },
      {
        "SpecialToken": {
          "id": "[SEP]",
          "type_id": 0
        }
      }
    ],
    "pair": [
      {
        "SpecialToken": {
          "id": "[CLS]",
          "type_id": 0
        }
      },
      {
        "Sequence": {
          "id": "A",
          "type_id": 0
        }
      },
      {
        "SpecialToken": {
          "id": "[SEP]",
          "type_id": 0
        }
      },
      {
        "Sequence": {
          "id": "B",
          "type_id": 1
        }
      },
      {
        "SpecialToken": {
          "id": "[SEP]",
          "type_id": 1
        }
      }
    ],
    "special_tokens": {
      "[CLS]": {
        "id": "[CLS]",
        "ids": [
          3175
        ],
        "tokens": [
          "[CLS]"
        ]
      },
      "[SEP]": {
        "id": "[SEP]",
        "ids": [
          759
        ],
        "tokens": [
          "[SEP]"
        ]
      }
    }
  },
  "decoder": {
    "type": "Metaspace",
    "replacement": "▁",
    "prepend_scheme": "always",
    "split": true
  },
  "model": {
    "type": "WordPiece",
    "unk_token": "[UNK]",
    "continuing_subword_prefix": "##",
    "max_input_chars_per_word": 100,
    "vocab": {
      "##mayacak": 0,
      "▁sikin": 1,
      "##ıyorlar": 2,
      "▁ler": 3,
      "##ladım": 4,
      "t": 5,
      "▁yalan": 6,
      "▁araba": 7,
      "▁cum": 8,
      "▁ekledi": 9,
      "▁28": 10,
      "##ımızı": 11,
      "##aba": 12,
      "▁alan": 13,
      "▁ankara": 14,
      "▁philadelphia'dan": 15,
      "##digimiz": 16,
      "▁degillerdi": 17,
      "▁tu": 18,
      "▁fırıl": 19,
      "▁dikkat": 20,
      "▁dir": 21,
      "▁%17": 22,
      "▁kası": 23,
      "▁al": 24,
      "▁lake": 25,
      "▁dev": 26,
      "##luyor": 27,
      "▁beydi": 28,
      "▁stratej": 29,
      "▁kongre": 30,
      "##ligin": 31,
      "▁%2": 32,
      "##sa": 33,
      "▁tatil": 34,
      "##landır": 35,
      "##tiv": 36,
      "▁&": 37,
      "▁havaalanı": 38,
      "▁yaklasık": 39,
      "##bus": 40,
      "▁davran": 41,
      "▁insanın": 42,
      "##rol": 43,
      "##ustum": 44,
      "▁alamadim": 45,
      "##can": 46,
      "▁mi": 47,
      "▁ucuyor": 48,
      "▁anket": 49,
      "▁atlanta": 50,
      "▁pahaliydi": 51,
      "##.3": 52,
      "##ip": 53,
      "▁coz": 54,
      "▁..\"": 55,
      "##ort": 56,
      "▁urun": 57,
      "##nız": 58,
      "▁guzel": 59,
      "##leriyle": 60,
      "▁ceyrek": 61,
      "▁mik": 62,
      "▁bulunan": 63,
      "▁once": 64,
      "▁istem": 65,
      "▁iyice": 66,
      "##sim": 67,
      "##isyon": 68,
      "##tuk": 69,
      "▁sevgil": 70,
      "##er": 71,
      "▁onlar": 72,
      "##g": 73,
      "▁sahip": 74,
      "▁gund": 75,
      "##land": 76,
      "##'ta": 77,
      "▁sec": 78,
      "▁gidiyor": 79,
      "▁soyluyor": 80,
      "▁devr": 81,
      "▁ayrıl": 82,
      "▁rehber": 83,
      "▁dogru": 84,
      "##unde": 85,
      "▁insanlar": 86,
      "##na": 87,
      "▁air": 88,
      "▁tek": 89,
      "▁75": 90,
      "▁istik": 91,
      "▁otuz": 92,
      "##ından": 93,
      "##daki": 94,
      "▁kazan": 95,
      "##ital": 96,
      "▁lo": 97,
      "▁niyet": 98,
      "▁hukum": 99,
      "▁hus": 100,
      "▁tal": 101,
      "▁%5": 102,
      "▁yasam": 103,
      "▁sebep": 104,
      "##cog": 105,
      "▁zor": 106,
      "▁um": 107,
      "▁iliskin": 108,
      "▁personel": 109,
      "##kur": 110,
      "##dim": 111,
      "▁haldır": 112,
      "▁sog": 113,
      "##pa": 114,
      "##'yı": 115,
      "▁kendi": 116,
      "▁olar": 117,
      "##erv": 118,
      "##alarına": 119,
      "▁%0": 120,
      "##gunu": 121,
      "▁otelden": 122,
      "▁bed": 123,
      "##'ndan": 124,
      "▁beri": 125,
      "▁bon": 126,
      "▁dog": 127,
      "▁pazar": 128,
      "▁tavsiye": 129,
      "▁parca": 130,
      "▁baglan": 131,
      "▁23": 132,
      "d": 133,
      "▁red": 134,
      "a": 135,
      "▁mot": 136,
      "##ot": 137,
      "##ers": 138,
      "▁kadın": 139,
      "▁verir": 140,
      "▁siddet": 141,
      "##ud": 142,
      "▁degilim": 143,
      "▁cak": 144,
      "▁fark": 145,
      "▁nakit": 146,
      "▁22-23": 147,
      "▁per": 148,
      "▁olc": 149,
      "▁kır": 150,
      "##all": 151,
      "▁has": 152,
      "▁ayni": 153,
      "▁konum": 154,
      "##sem": 155,
      "##imde": 156,
      "##ilecek": 157,
      "##vil": 158,
      "▁end": 159,
      "##lerinden": 160,
      "▁beni": 161,
      "▁olacak": 162,
      "▁cinc": 163,
      "▁ekonomi": 164,
      "##eyn": 165,
      "▁t": 166,
      "▁bilin": 167,
      "##ap": 168,
      "▁lezzet": 169,
      "▁yamalak": 170,
      "▁hemen": 171,
      "▁edil": 172,
      "▁%1": 173,
      "▁odamiz": 174,
      "▁nedeniyle": 175,
      "▁yuzunden": 176,
      "##lu": 177,
      "##dıgım": 178,
      ",": 179,
      "▁odam": 180,
      "##esem": 181,
      "##ımıza": 182,
      "▁zay": 183,
      "##irdi": 184,
      "▁ayak": 185,
      "▁oakland'dan": 186,
      "##larak": 187,
      "##-": 188,
      "##ydı": 189,
      "##at": 190,
      "##are": 191,
      "▁60": 192,
      "##irmi": 193,
      "▁birinde": 194,
      "▁muhtem": 195,
      "▁sorunu": 196,
      "##enkul": 197,
      "##a'nın": 198,
      "##teki": 199,
      "▁duk": 200,
      "##imize": 201,
      "▁beye": 202,
      "▁siyah": 203,
      "+": 204,
      "▁muhtesem": 205,
      "▁mit": 206,
      "##anlık": 207,
      "▁tut": 208,
      "▁tem": 209,
      "▁gi": 210,
      "##adar": 211,
      "▁dagıt": 212,
      "▁`": 213,
      "▁bakıyor": 214,
      "▁ez": 215,
      "##te": 216,
      "▁ziy": 217,
      "▁tı": 218,
      "##eri": 219,
      "##lerine": 220,
      "▁yerel": 221,
      "##osu": 222,
      "▁kims": 223,
      "▁der": 224,
      "▁rec": 225,
      "##lum": 226,
      "▁saldır": 227,
      "▁iddia": 228,
      "▁dogu": 229,
      "6": 230,
      "▁yemek": 231,
      "▁yarım": 232,
      "▁gelmis": 233,
      "▁goster": 234,
      "##detti": 235,
      "▁onumuzdeki": 236,
      "▁olmus": 237,
      "##unuz": 238,
      "##elerine": 239,
      "▁degiller": 240,
      "##egi": 241,
      "##enin": 242,
      "##dugu": 243,
      "▁bek": 244,
      "▁agz": 245,
      "##lendir": 246,
      "##'tan": 247,
      "▁aynı": 248,
      "##ilerini": 249,
      "▁havaalan": 250,
      "▁guven": 251,
      "▁onune": 252,
      "▁fot": 253,
      "##ruk": 254,
      "▁paul": 255,
      "▁must": 256,
      "▁bircok": 257,
      "##ala": 258,
      "▁agustos": 259,
      "##amadı": 260,
      "▁yatırımcı": 261,
      "##om": 262,
      "▁seyi": 263,
      "▁ov": 264,
      "▁meydan": 265,
      "▁merk": 266,
      "▁ince": 267,
      "##uc": 268,
      "##’": 269,
      "▁mayıs": 270,
      "##ılı": 271,
      "▁kis": 272,
      "##muyor": 273,
      "▁g": 274,
      "##ye": 275,
      "##ise": 276,
      "##aman": 277,
      "▁ey": 278,
      "##erk": 279,
      "##imiz": 280,
      "▁bagım": 281,
      "▁dısında": 282,
      "▁li": 283,
      "▁kac": 284,
      "▁buyuk": 285,
      "▁temizdi": 286,
      "▁%7": 287,
      "##se": 288,
      "##ust": 289,
      "▁analist": 290,
      "##lig": 291,
      "##la": 292,
      "▁neden": 293,
      "▁yun": 294,
      "##maya": 295,
      "▁veren": 296,
      "##?": 297,
      "##unc": 298,
      "##leb": 299,
      "▁guney": 300,
      "▁kadar": 301,
      "▁dı": 302,
      "▁yalnızca": 303,
      "##ton": 304,
      "##art": 305,
      "##ali": 306,
      "▁kahv": 307,
      "▁bazen": 308,
      "▁zayıf": 309,
      "▁tanı": 310,
      "▁borsası": 311,
      "▁,": 312,
      "##ce": 313,
      "##isten": 314,
      "##.1": 315,
      "##isine": 316,
      "##ecik": 317,
      "▁test": 318,
      "▁gotur": 319,
      "▁basında": 320,
      "▁yuksek": 321,
      "▁seyler": 322,
      "##lenen": 323,
      "##ket": 324,
      "▁cumartesi": 325,
      "▁...\"": 326,
      "▁wall": 327,
      "▁denver'den": 328,
      "▁ker": 329,
      "▁milwa": 330,
      "▁tık": 331,
      "▁beraber": 332,
      "▁an": 333,
      "▁okul": 334,
      "▁simdi": 335,
      "▁kah": 336,
      "▁198": 337,
      "##ek": 338,
      "▁madd": 339,
      "##mez": 340,
      "##ire": 341,
      "▁amerikan": 342,
      "▁tit": 343,
      "▁surec": 344,
      "▁yasak": 345,
      "##…": 346,
      "▁angel": 347,
      "▁kalitesi": 348,
      "▁nokt": 349,
      "##met": 350,
      "▁hukuk": 351,
      "##meyi": 352,
      "##enk": 353,
      "▁otomobil": 354,
      "##lige": 355,
      "##amaz": 356,
      "▁tanım": 357,
      "##ve": 358,
      "##ildi": 359,
      "▁pah": 360,
      "▁yine": 361,
      "##maz": 362,
      "▁oner": 363,
      "##emedi": 364,
      "▁dost": 365,
      "▁anne": 366,
      "▁insan": 367,
      "##apolis": 368,
      "▁vat": 369,
      "▁yıldız": 370,
      "▁fir": 371,
      "▁odaydi": 372,
      "##anda": 373,
      "##'ya": 374,
      "▁ver": 375,
      "▁muht": 376,
      "▁ya": 377,
      "##memis": 378,
      "▁dustu": 379,
      "▁gunu": 380,
      "##may": 381,
      "▁haber": 382,
      "▁olabil": 383,
      "▁sonuc": 384,
      "##adaki": 385,
      "##gur": 386,
      "▁calısma": 387,
      "##uzel": 388,
      "▁mali": 389,
      "##oloj": 390,
      "▁birbirler": 391,
      "▁imz": 392,
      "▁aktif": 393,
      "▁sol": 394,
      "▁baltimore'den": 395,
      "##ilmesi": 396,
      "▁hafta": 397,
      "▁kes": 398,
      "▁ugr": 399,
      "▁pitt": 400,
      ">": 401,
      "##ede": 402,
      "▁yaptıgı": 403,
      "▁fut": 404,
      "▁kapsam": 405,
      "▁zev": 406,
      "##edef": 407,
      "##dal": 408,
      "▁kural": 409,
      "##ayacak": 410,
      "##imi": 411,
      "##be": 412,
      "r": 413,
      "▁but": 414,
      "##digini": 415,
      "▁kuzey": 416,
      "▁gun": 417,
      "▁onunla": 418,
      "▁not": 419,
      "▁genc": 420,
      "##e": 421,
      "▁bolg": 422,
      "▁salı": 423,
      "##;": 424,
      "▁cekti": 425,
      "▁dayan": 426,
      "##adel": 427,
      "▁oranı": 428,
      "##lem": 429,
      "▁mıs": 430,
      "▁profes": 431,
      "##ınca": 432,
      "▁bizi": 433,
      "▁edi": 434,
      "##masını": 435,
      "▁bicim": 436,
      "▁po": 437,
      "▁aylık": 438,
      "”": 439,
      "▁ettim": 440,
      "##dız": 441,
      "▁yapı": 442,
      "▁olabilirdi": 443,
      "▁indian": 444,
      "▁birin": 445,
      "##alanı": 446,
      "▁kurulus": 447,
      "▁hisse": 448,
      "▁zaten": 449,
      "##.0": 450,
      "##ır": 451,
      "##esini": 452,
      "##ediye": 453,
      "##etin": 454,
      "▁ilisk": 455,
      "##ırak": 456,
      "##iye": 457,
      "##arak": 458,
      "▁artıs": 459,
      "##ardı": 460,
      "##ciler": 461,
      "▁durum": 462,
      "##eviz": 463,
      "##abil": 464,
      "▁ets": 465,
      "##ustri": 466,
      "▁iddi": 467,
      "▁yukseldi": 468,
      "##-4": 469,
      "▁s": 470,
      "##ayım": 471,
      "4": 472,
      "##layarak": 473,
      "##mıstı": 474,
      "▁zevk": 475,
      "##dın": 476,
      "##isi": 477,
      "▁st": 478,
      "▁personeller": 479,
      "▁ucrete": 480,
      "▁bası": 481,
      "##umus": 482,
      "▁fabrik": 483,
      "▁ticaret": 484,
      "##+": 485,
      "▁turkiye": 486,
      "▁banka": 487,
      "##89-": 488,
      "▁bun": 489,
      "##lamıs": 490,
      "▁tatlı": 491,
      "▁baskı": 492,
      "##bak": 493,
      "▁hal": 494,
      "▁reh": 495,
      "##sınız": 496,
      "▁durgun": 497,
      "##mayan": 498,
      "▁ref": 499,
      "##istir": 500,
      "▁1.8": 501,
      "##ması": 502,
      "▁am": 503,
      "▁ile": 504,
      "▁el": 505,
      "▁katıl": 506,
      "▁pa": 507,
      "##emem": 508,
      "##agıt": 509,
      "▁koy": 510,
      "##ke": 511,
      "▁talep": 512,
      "##61": 513,
      "▁siyas": 514,
      "▁ip": 515,
      "##wa": 516,
      "##ızı": 517,
      "▁ortam": 518,
      "##ug": 519,
      "▁icin": 520,
      "##iss": 521,
      "▁cıkan": 522,
      "##alarının": 523,
      "##abet": 524,
      "##ıntı": 525,
      "▁derec": 526,
      "▁dedi": 527,
      "##'nde": 528,
      "##gumuz": 529,
      "▁gal": 530,
      "▁ilgil": 531,
      "##ig": 532,
      "▁denize": 533,
      "▁e": 534,
      "▁yetkil": 535,
      "▁etkil": 536,
      "▁fik": 537,
      "▁gorusuldu": 538,
      "▁dar": 539,
      "▁yuzu": 540,
      "▁ogretmen": 541,
      "▁mat": 542,
      "▁yolu": 543,
      "##lım": 544,
      "##asını": 545,
      "▁beb": 546,
      "▁jones": 547,
      "▁bit": 548,
      "▁16": 549,
      "##'nın": 550,
      "##leme": 551,
      "▁ici": 552,
      "▁ten": 553,
      "▁ask": 554,
      "▁eger": 555,
      "▁ıs": 556,
      "▁sof": 557,
      "##ısına": 558,
      "▁miy": 559,
      "▁risk": 560,
      "▁im": 561,
      "▁cevr": 562,
      "▁tiyat": 563,
      "##-200": 564,
      "##ik": 565,
      "##iski": 566,
      "##lardan": 567,
      "##esinde": 568,
      "▁ihtiyar": 569,
      "▁ne": 570,
      "##abı": 571,
      ";": 572,
      "##00": 573,
      "▁sı": 574,
      "##0'": 575,
      "##cılar": 576,
      "▁sınıf": 577,
      "##ese": 578,
      "▁fon": 579,
      "▁tefek": 580,
      "▁dedim": 581,
      "▁nashville": 582,
      "##han": 583,
      "▁%14": 584,
      "##ge": 585,
      "##mel": 586,
      "▁kend": 587,
      "▁it": 588,
      "▁kam": 589,
      "▁yab": 590,
      "▁2": 591,
      "▁hatta": 592,
      "▁sonra": 593,
      "▁parc": 594,
      "▁buna": 595,
      "▁rus": 596,
      "▁kagıt": 597,
      "▁dolayi": 598,
      "▁1\\/2": 599,
      "##lası": 600,
      "##de": 601,
      "▁film": 602,
      "▁gormek": 603,
      "▁siy": 604,
      "##ıs": 605,
      "▁yardimci": 606,
      "▁re": 607,
      "▁koyun": 608,
      "▁cesit": 609,
      "▁%30": 610,
      "##ilen": 611,
      "▁ettigi": 612,
      "▁sef": 613,
      "##mesi": 614,
      "##west": 615,
      "▁ilgilendi": 616,
      "▁spor": 617,
      "##bar": 618,
      "▁tekrar": 619,
      "##id": 620,
      "▁odalar": 621,
      "▁ihr": 622,
      "▁ekim": 623,
      "▁nik": 624,
      "▁cif": 625,
      "▁kıymet": 626,
      "▁tip": 627,
      "▁!": 628,
      "▁mec": 629,
      "▁fık": 630,
      "▁merak": 631,
      "▁197": 632,
      "##layıp": 633,
      "##lastır": 634,
      "##and": 635,
      "##umu": 636,
      "▁japon": 637,
      "▁gordum": 638,
      "##sas": 639,
      "▁adı": 640,
      "▁kanı": 641,
      "▁tarih": 642,
      "##meli": 643,
      "▁piyas": 644,
      "▁inc.": 645,
      "▁belirt": 646,
      "##ine": 647,
      "##esinin": 648,
      "▁bununla": 649,
      "##ilmis": 650,
      "##mektedir": 651,
      "##sat": 652,
      "##kar": 653,
      "▁proj": 654,
      "▁1\\/": 655,
      "▁benimle": 656,
      "▁kanun": 657,
      "▁eglen": 658,
      "▁odedigim": 659,
      "##aret": 660,
      "▁soyle": 661,
      "▁ikib": 662,
      "$": 663,
      "▁sır": 664,
      "9": 665,
      "▁ert": 666,
      "▁donem": 667,
      "##elerde": 668,
      "▁yasan": 669,
      "▁th": 670,
      "▁tekn": 671,
      "▁yılın": 672,
      "##une": 673,
      "##lerini": 674,
      "##meden": 675,
      "▁cent": 676,
      "▁dallas'a": 677,
      "▁gev": 678,
      "▁diz": 679,
      "##dıklarını": 680,
      "##emez": 681,
      "▁etmek": 682,
      "▁mısıl": 683,
      "##izi": 684,
      "▁tiril": 685,
      "▁at": 686,
      "▁kez": 687,
      "##sı": 688,
      "▁gid": 689,
      "▁ep": 690,
      "##agı": 691,
      "##larıyla": 692,
      "▁bah": 693,
      "▁%4.8": 694,
      "##emek": 695,
      "##iliyor": 696,
      "▁dik": 697,
      "▁milli": 698,
      "▁uluslararası": 699,
      "▁kampanyalar": 700,
      "▁karsısında": 701,
      "##dem": 702,
      "##irler": 703,
      "##asız": 704,
      "▁ait": 705,
      "▁dob": 706,
      "▁reddetti": 707,
      "▁persembe": 708,
      "##baren": 709,
      "▁hastalık": 710,
      "##ut": 711,
      "▁ucuz": 712,
      "▁mu": 713,
      "▁kaf": 714,
      "##ov": 715,
      "##'s": 716,
      "▁kayb": 717,
      "▁tesis": 718,
      "##eyi": 719,
      "▁yaptirmadim": 720,
      "▁davet": 721,
      "▁huk": 722,
      "##od": 723,
      "##ısından": 724,
      "▁hisseleri": 725,
      "##lay": 726,
      "▁reklam": 727,
      "##fa": 728,
      "▁co": 729,
      "▁girisim": 730,
      "▁yetersiz": 731,
      "▁kap": 732,
      "##asıyor": 733,
      "▁kalan": 734,
      "▁charl": 735,
      "▁sist": 736,
      "##gu": 737,
      "▁sut": 738,
      "##ch": 739,
      "▁yeterli": 740,
      "▁cen": 741,
      "▁deger": 742,
      "##arında": 743,
      "▁\"": 744,
      "▁tuk": 745,
      "▁gitmek": 746,
      "▁yahut": 747,
      "▁halen": 748,
      "▁yalnız": 749,
      "▁dogrudan": 750,
      "##uston": 751,
      "▁bey": 752,
      "▁avuk": 753,
      "▁soru": 754,
      "▁ti": 755,
      "##tıgı": 756,
      "##gil": 757,
      "▁yaptirdi": 758,
      "[SEP]": 759,
      "▁mer": 760,
      "▁bat": 761,
      "1": 762,
      "##et": 763,
      "▁ur": 764,
      "▁tercih": 765,
      "▁vegas": 766,
      "▁zamanlar": 767,
      "##ılım": 768,
      "▁ok": 769,
      "▁lez": 770,
      "##liydi": 771,
      "▁ef": 772,
      "▁peyn": 773,
      "##una": 774,
      "##ırıl": 775,
      "▁icer": 776,
      "##esi": 777,
      "▁sınıfı": 778,
      "▁cuma": 779,
      "▁konusunda": 780,
      "▁29": 781,
      "##madan": 782,
      "▁doları'na": 783,
      "▁benz": 784,
      "▁problem": 785,
      "▁guvenlik": 786,
      "▁kırık": 787,
      "##asyon": 788,
      "▁kuvvet": 789,
      "##eyim": 790,
      "##ku": 791,
      "▁sıkır": 792,
      "▁aktar": 793,
      "`": 794,
      "▁havuz": 795,
      "##sk": 796,
      "▁tok": 797,
      "▁bilgisayar": 798,
      "▁uygul": 799,
      "##acagı": 800,
      "▁alır": 801,
      "▁he": 802,
      "##ıng": 803,
      "▁denver'e": 804,
      "##aydı": 805,
      "##okr": 806,
      "▁temsil": 807,
      "▁sana": 808,
      "▁nere": 809,
      "##az": 810,
      "##mey": 811,
      "▁nedir": 812,
      "▁hay": 813,
      "##ecegim": 814,
      "##gında": 815,
      "▁kısm": 816,
      "##uma": 817,
      "##ka": 818,
      "##istik": 819,
      "▁gercek": 820,
      "##ebi": 821,
      "##ada": 822,
      "▁fakat": 823,
      "▁sent": 824,
      "▁lok": 825,
      "##etir": 826,
      "▁sefer": 827,
      "▁ruz": 828,
      "##gıc": 829,
      "▁ba": 830,
      "##endi": 831,
      "▁benden": 832,
      "▁gorunce": 833,
      "▁vegas'a": 834,
      "##el": 835,
      "▁v": 836,
      "▁ilgilendiler": 837,
      "##laka": 838,
      "▁yonet": 839,
      "##cek": 840,
      "##ash": 841,
      "▁dusus": 842,
      "##tre": 843,
      "▁hac": 844,
      "##ayan": 845,
      "##eyin": 846,
      "▁ark": 847,
      "▁begenmedim": 848,
      "##sin": 849,
      "▁du": 850,
      "▁%3": 851,
      "##uz": 852,
      "▁contin": 853,
      "▁biri": 854,
      "##agın": 855,
      "▁beyle": 856,
      "▁kendilerine": 857,
      "##ıkır": 858,
      "##re": 859,
      "▁etme": 860,
      "▁fer": 861,
      "▁col": 862,
      "▁gok": 863,
      "##let": 864,
      "▁etmeye": 865,
      "▁yardımcı": 866,
      "##mas": 867,
      "##ilm": 868,
      "##uru": 869,
      "▁hedef": 870,
      "##lanır": 871,
      "▁ideal": 872,
      "3": 873,
      "▁rakam": 874,
      "▁ondan": 875,
      "▁beklen": 876,
      "##rup": 877,
      "▁calis": 878,
      "▁mıydı": 879,
      "▁ederiz": 880,
      "##ız": 881,
      "##eki": 882,
      "##ont": 883,
      "▁kalp": 884,
      "##dikleri": 885,
      "▁rak": 886,
      "▁kendilerini": 887,
      "▁phoeni": 888,
      "##ator": 889,
      "▁islet": 890,
      "##iyon": 891,
      "##isler": 892,
      "##umuz": 893,
      "▁gidis": 894,
      "▁sınır": 895,
      "▁dukkan": 896,
      "▁tane": 897,
      "▁mı": 898,
      "▁azdi": 899,
      "▁kisisel": 900,
      "▁ist": 901,
      "▁enf": 902,
      "▁bel": 903,
      "▁patır": 904,
      "▁newark": 905,
      "▁cag": 906,
      "▁altı": 907,
      "##gını": 908,
      "▁ucak": 909,
      "##alet": 910,
      "▁ilgiliydi": 911,
      "▁isletme": 912,
      "▁hala": 913,
      "##'yi": 914,
      "(": 915,
      "▁yuv": 916,
      "▁di": 917,
      "▁havuzu": 918,
      "▁gibi": 919,
      "▁belli": 920,
      "##apur": 921,
      "▁say": 922,
      "##eci": 923,
      "##acılar": 924,
      "▁af": 925,
      "##in": 926,
      "▁aktarmalı": 927,
      "##burg": 928,
      "▁vucu": 929,
      "▁istedi": 930,
      "▁24": 931,
      "▁karayol": 932,
      "##uluk": 933,
      "▁oldugum": 934,
      "▁halde": 935,
      "▁seyr": 936,
      "##yor": 937,
      "▁kendine": 938,
      "▁onceden": 939,
      "▁rezervasyon": 940,
      "##ng": 941,
      "▁istiyor": 942,
      "▁lu": 943,
      "▁oyun": 944,
      "▁farklı": 945,
      "▁galib": 946,
      "▁gon": 947,
      "g": 948,
      "##min": 949,
      "▁yerinde": 950,
      "##yn": 951,
      "▁kay": 952,
      "▁kız": 953,
      "##isim": 954,
      "##day": 955,
      "▁dısarı": 956,
      "##uh": 957,
      "##ayıf": 958,
      "▁yan": 959,
      "▁se": 960,
      "▁balık": 961,
      "##.25": 962,
      "▁bilir": 963,
      "▁kıyas": 964,
      "k": 965,
      "##og": 966,
      "▁sez": 967,
      "▁futbol": 968,
      "##ersiz": 969,
      "▁peki": 970,
      "##emmel": 971,
      "##kiz": 972,
      "##gul": 973,
      "▁fıkı": 974,
      "##:00-22:30": 975,
      "##sizlik": 976,
      "▁teklif": 977,
      "##30": 978,
      "##iya": 979,
      "▁cıkmıs": 980,
      "##dar": 981,
      "▁1989-8": 982,
      "▁guzeldi": 983,
      "##tı": 984,
      "##mıslar": 985,
      "▁dak": 986,
      "▁sap": 987,
      "▁washington'a": 988,
      "▁mavi": 989,
      "▁5-1": 990,
      "▁ihtiy": 991,
      "▁alabilir": 992,
      "##undeki": 993,
      "▁bir": 994,
      "▁hizmet": 995,
      "▁17": 996,
      "▁ogle": 997,
      "##'dan": 998,
      "▁bilg": 999,
      "##ler": 1000,
      "▁sorun": 1001,
      "▁si": 1002,
      "▁soz": 1003,
      "##us": 1004,
      "▁operasyon": 1005,
      "▁los": 1006,
      "▁il": 1007,
      "▁tel": 1008,
      "▁kaliteli": 1009,
      "##adı": 1010,
      "▁dava": 1011,
      "▁derl": 1012,
      "▁pas": 1013,
      "▁coc": 1014,
      "▁oakland": 1015,
      "▁ekip": 1016,
      "##erdi": 1017,
      "▁yog": 1018,
      "▁os": 1019,
      "▁agac": 1020,
      "##ach": 1021,
      "▁uyum": 1022,
      "▁aileler": 1023,
      "/": 1024,
      "▁onc": 1025,
      "##uyle": 1026,
      "▁ol": 1027,
      "▁ben": 1028,
      "▁yal": 1029,
      "##.5": 1030,
      "##ıc": 1031,
      "▁otelin": 1032,
      "##ansız": 1033,
      "▁21:00-22:30": 1034,
      "▁konut": 1035,
      "▁rapor": 1036,
      "▁duygu": 1037,
      "▁sona": 1038,
      "##muz": 1039,
      "▁em": 1040,
      "##istan": 1041,
      "▁oldu": 1042,
      "▁bu": 1043,
      "▁sekiz": 1044,
      "▁hadi": 1045,
      "▁hat": 1046,
      "▁geri": 1047,
      "▁olur": 1048,
      "▁yonelik": 1049,
      "##m": 1050,
      "▁uc": 1051,
      "##lemek": 1052,
      "▁hangileri": 1053,
      "▁onun": 1054,
      "▁konak": 1055,
      "▁yuksel": 1056,
      "▁gelis": 1057,
      "##ene": 1058,
      "▁arttı": 1059,
      "▁dokuz": 1060,
      "##kel": 1061,
      "##unca": 1062,
      "▁mul": 1063,
      "▁geril": 1064,
      "▁saglık": 1065,
      "▁ortaya": 1066,
      "▁harıl": 1067,
      "▁ataturk": 1068,
      "▁kapandı": 1069,
      "▁katil": 1070,
      "▁fazla": 1071,
      "▁rekabet": 1072,
      "▁duz": 1073,
      "u": 1074,
      "##endir": 1075,
      "▁tahvil": 1076,
      "▁yık": 1077,
      "##elim": 1078,
      "▁kalite": 1079,
      "##os": 1080,
      "▁gitti": 1081,
      "▁kullanmadim": 1082,
      "##eler": 1083,
      "h": 1084,
      "▁menkul": 1085,
      "▁mez": 1086,
      "▁milwaukee'ye": 1087,
      "▁ongor": 1088,
      "##yet": 1089,
      "##si": 1090,
      "▁zar": 1091,
      "▁olum": 1092,
      "▁egitim": 1093,
      "▁olduguna": 1094,
      "##of": 1095,
      "▁dısı": 1096,
      "▁chic": 1097,
      "▁hem": 1098,
      "##ım": 1099,
      "▁phil": 1100,
      "▁": 1101,
      "▁yapmak": 1102,
      "##ilerine": 1103,
      "▁tur": 1104,
      "▁harik": 1105,
      "##siy": 1106,
      "##ane": 1107,
      "▁ettik": 1108,
      "##tadır": 1109,
      "▁toplum": 1110,
      "▁uy": 1111,
      "##tor": 1112,
      "▁cor": 1113,
      "▁mac": 1114,
      "##estir": 1115,
      "▁havayolu": 1116,
      "▁kısı": 1117,
      "##gın": 1118,
      "▁puan": 1119,
      "▁izin": 1120,
      "▁yel": 1121,
      "▁dep": 1122,
      "▁%6.90": 1123,
      "▁isi": 1124,
      "▁fingir": 1125,
      "##egin": 1126,
      "▁kotu": 1127,
      "##lin": 1128,
      "▁suy": 1129,
      "▁koltuk": 1130,
      "■": 1131,
      "▁bekledi": 1132,
      "▁dolu": 1133,
      "▁kad": 1134,
      "▁kayı": 1135,
      "▁arab": 1136,
      "##aların": 1137,
      "##acı": 1138,
      "##s": 1139,
      "▁artık": 1140,
      "▁arada": 1141,
      "▁gayet": 1142,
      "▁or": 1143,
      "▁degil": 1144,
      "##yal": 1145,
      "##ro": 1146,
      "##du": 1147,
      "▁son": 1148,
      "▁basarılı": 1149,
      "##y": 1150,
      "▁rez": 1151,
      "n": 1152,
      "▁dus": 1153,
      "▁kacın": 1154,
      "▁ailelere": 1155,
      "##lan": 1156,
      "▁fıkır": 1157,
      "▁atlanta'dan": 1158,
      "▁fıs": 1159,
      "▁elli": 1160,
      "▁kat": 1161,
      "▁ila": 1162,
      "##oc": 1163,
      "##dugunu": 1164,
      "##ukee": 1165,
      "▁agız": 1166,
      "▁h": 1167,
      "▁olmayan": 1168,
      "##lerden": 1169,
      "##unku": 1170,
      "▁ulk": 1171,
      "##uf": 1172,
      "▁fas": 1173,
      "▁$": 1174,
      "▁fiyati": 1175,
      "##92": 1176,
      "▁basit": 1177,
      "▁hazır": 1178,
      "##ef": 1179,
      "▁acıkladı": 1180,
      "▁yans": 1181,
      "##inin": 1182,
      "▁pay": 1183,
      "##'ye": 1184,
      "▁acisindan": 1185,
      "p": 1186,
      "##larına": 1187,
      "##‘": 1188,
      "▁sahn": 1189,
      "[MASK]": 1190,
      "##inc": 1191,
      "##tern": 1192,
      "##larım": 1193,
      "▁fil": 1194,
      "▁ettiler": 1195,
      "▁verdigim": 1196,
      "▁kadınlar": 1197,
      "▁seviyesine": 1198,
      "##iyak": 1199,
      "##orth": 1200,
      "▁bilet": 1201,
      "##ıy": 1202,
      "▁bulmak": 1203,
      "##tılı": 1204,
      "▁idi": 1205,
      "▁gar": 1206,
      "##ya'nın": 1207,
      "##siyon": 1208,
      "▁soy": 1209,
      "##ag": 1210,
      "▁hol": 1211,
      "▁.)": 1212,
      "▁bahc": 1213,
      "##uklum": 1214,
      "▁port": 1215,
      "▁ufak": 1216,
      "▁ders": 1217,
      "▁haziran": 1218,
      "▁basını": 1219,
      "▁yemeklerinden": 1220,
      "##lat": 1221,
      "▁kisi": 1222,
      "##mistir": 1223,
      "▁sa": 1224,
      "##_": 1225,
      "▁yuks": 1226,
      "##uyordu": 1227,
      "▁eksik": 1228,
      "##enc": 1229,
      "▁kontrol": 1230,
      "▁konfor": 1231,
      "▁bush": 1232,
      "▁kul": 1233,
      "▁francisco'dan": 1234,
      "▁bakan": 1235,
      "##atır": 1236,
      "▁89-": 1237,
      "##'un": 1238,
      "▁herkes": 1239,
      "##iv": 1240,
      "##acak": 1241,
      "▁anad": 1242,
      "▁boston": 1243,
      "▁ev": 1244,
      "▁normaldi": 1245,
      "▁ifade": 1246,
      "▁duy": 1247,
      "▁ediyor": 1248,
      "▁kampan": 1249,
      "##ter": 1250,
      "▁may": 1251,
      "##ren": 1252,
      "▁huz": 1253,
      "▁%22": 1254,
      "##ısız": 1255,
      "▁feder": 1256,
      "▁tep": 1257,
      "▁haz": 1258,
      "▁ancak": 1259,
      "▁pan": 1260,
      "##ur": 1261,
      "▁oyn": 1262,
      "▁lut": 1263,
      "▁uzerinde": 1264,
      "▁fransız": 1265,
      "▁yurut": 1266,
      "▁yuk": 1267,
      "##ing": 1268,
      "▁aile": 1269,
      "▁sekil": 1270,
      "▁muz": 1271,
      "▁yaz": 1272,
      "▁ilgili": 1273,
      "##rik": 1274,
      "▁(": 1275,
      "▁musta": 1276,
      "##suz": 1277,
      "▁memur": 1278,
      "▁ruh": 1279,
      "▁olcu": 1280,
      "▁olan": 1281,
      "▁1": 1282,
      "##ayla": 1283,
      "▁milwaukee'den": 1284,
      "▁tesisti": 1285,
      "##'le": 1286,
      "##emi": 1287,
      "##eye": 1288,
      "▁ab": 1289,
      "##uk": 1290,
      "▁univ": 1291,
      "▁dusuk": 1292,
      "▁nih": 1293,
      "▁sorum": 1294,
      "▁evde": 1295,
      "▁ph": 1296,
      "▁%8": 1297,
      "▁birisi": 1298,
      "##ısıyla": 1299,
      "##bank": 1300,
      "▁fiyatı": 1301,
      "▁bundan": 1302,
      "##ic": 1303,
      "##taki": 1304,
      "▁toprak": 1305,
      "▁icecek": 1306,
      "##manın": 1307,
      "▁karıs": 1308,
      "##ladı": 1309,
      "##ılır": 1310,
      "▁asagı": 1311,
      "▁takip": 1312,
      "##tık": 1313,
      "▁sin": 1314,
      "▁degistir": 1315,
      "▁day": 1316,
      "▁ele": 1317,
      "f": 1318,
      "▁aslında": 1319,
      "▁cıyak": 1320,
      "▁olcude": 1321,
      "##'daki": 1322,
      "▁orlando'ya": 1323,
      "▁listeleyin": 1324,
      "▁pis": 1325,
      "▁mur": 1326,
      "▁sac": 1327,
      "▁oakland'a": 1328,
      "▁kabul": 1329,
      "##elerden": 1330,
      "▁soguk": 1331,
      "##ancı": 1332,
      "▁satıslar": 1333,
      "##eti": 1334,
      "▁kalmadim": 1335,
      "▁fiyatları": 1336,
      "▁asırı": 1337,
      "##bur": 1338,
      "##madı": 1339,
      "▁dunya": 1340,
      "▁su": 1341,
      "▁sanat": 1342,
      "▁sip": 1343,
      "▁oteli": 1344,
      "##ore": 1345,
      "##atif": 1346,
      "##oy": 1347,
      "##urken": 1348,
      "▁veririm": 1349,
      "▁tir": 1350,
      "▁okum": 1351,
      "##egen": 1352,
      "▁grub": 1353,
      "“": 1354,
      "▁insanların": 1355,
      "▁od": 1356,
      "##lim": 1357,
      "▁hav": 1358,
      "▁tor": 1359,
      "##lara": 1360,
      "##mıstır": 1361,
      "▁uzer": 1362,
      "▁yuzden": 1363,
      "##afir": 1364,
      "##artesi": 1365,
      "▁aydın": 1366,
      "##2:30": 1367,
      "##ırdı": 1368,
      "▁hepsini": 1369,
      "##elerek": 1370,
      "##x": 1371,
      "##ung": 1372,
      "##innati": 1373,
      "▁--": 1374,
      "▁ilk": 1375,
      "▁gosteriyor": 1376,
      "##eket": 1377,
      "▁sade": 1378,
      "##av": 1379,
      "▁lutfen": 1380,
      "▁kan": 1381,
      "▁ihtiyacım": 1382,
      "##0.": 1383,
      "▁..": 1384,
      "▁toplantı": 1385,
      "▁anlamda": 1386,
      "▁erken": 1387,
      "##eyen": 1388,
      "▁uzan": 1389,
      "##isini": 1390,
      "▁elinde": 1391,
      "▁gec": 1392,
      "▁yarı": 1393,
      "##ums": 1394,
      "##dak": 1395,
      "##ıp": 1396,
      "##uya": 1397,
      "##=": 1398,
      "▁washington'dan": 1399,
      "▁bost": 1400,
      "##aat": 1401,
      "##4": 1402,
      "##edi": 1403,
      "▁birim": 1404,
      "▁%13": 1405,
      "▁finans": 1406,
      "##las": 1407,
      "▁mus": 1408,
      "▁onların": 1409,
      "▁derli": 1410,
      "▁ic": 1411,
      "▁beklem": 1412,
      "##ilir": 1413,
      "##iyor": 1414,
      "▁indi": 1415,
      "▁sirketler": 1416,
      "##acag": 1417,
      "▁herhangi": 1418,
      "▁mc": 1419,
      "▁hesap": 1420,
      "##gah": 1421,
      "▁yuzde": 1422,
      "##un": 1423,
      "▁pıtır": 1424,
      "##sunuz": 1425,
      "##unu": 1426,
      "##ustu": 1427,
      "​": 1428,
      "▁kredi": 1429,
      "▁cab": 1430,
      "▁aks": 1431,
      "▁12": 1432,
      "##lerinde": 1433,
      "▁a": 1434,
      "▁goruyor": 1435,
      "e": 1436,
      "##ihaz": 1437,
      "▁han": 1438,
      "▁fay": 1439,
      "▁sirket": 1440,
      "▁har": 1441,
      "▁mum": 1442,
      "▁vakit": 1443,
      "##lamaya": 1444,
      "##isk": 1445,
      "▁sipar": 1446,
      "▁oyuncu": 1447,
      "▁oldugu": 1448,
      "##ong": 1449,
      "▁bekliyor": 1450,
      "▁kullan": 1451,
      "##7": 1452,
      "▁sıcak": 1453,
      "##maları": 1454,
      "▁personelleri": 1455,
      "▁hak": 1456,
      "▁tır": 1457,
      "▁yeni": 1458,
      "8": 1459,
      "▁giz": 1460,
      "##iyle": 1461,
      "▁hepimiz": 1462,
      "##unun": 1463,
      "▁ah": 1464,
      "##co": 1465,
      "▁onemli": 1466,
      "##ici": 1467,
      "▁8": 1468,
      "▁%25": 1469,
      "##iri": 1470,
      "▁zengin": 1471,
      "▁verdigi": 1472,
      "▁key": 1473,
      "▁:": 1474,
      "##adan": 1475,
      "▁ceb": 1476,
      "▁r": 1477,
      "▁mir": 1478,
      "y": 1479,
      "▁olanaklari": 1480,
      "▁desik": 1481,
      "▁ucusu": 1482,
      "▁37": 1483,
      "▁birka": 1484,
      "##ens": 1485,
      "▁gorus": 1486,
      "##ardan": 1487,
      "▁tav": 1488,
      "▁ner": 1489,
      "▁magaz": 1490,
      "▁fort": 1491,
      "▁yildiz": 1492,
      "##meyen": 1493,
      "##elerin": 1494,
      "▁gay": 1495,
      "▁hukumet": 1496,
      "▁birbirine": 1497,
      "▁egil": 1498,
      "▁yar": 1499,
      "▁umut": 1500,
      "▁eg": 1501,
      "##sal": 1502,
      "##maktadır": 1503,
      "▁renk": 1504,
      "##it": 1505,
      "##ken": 1506,
      "##isel": 1507,
      "▁telef": 1508,
      "##dular": 1509,
      "▁sp": 1510,
      "▁gelecek": 1511,
      ")": 1512,
      "▁roman": 1513,
      "▁ail": 1514,
      "▁eks": 1515,
      "▁ban": 1516,
      "▁so": 1517,
      "##uyla": 1518,
      "##kır": 1519,
      "▁esk": 1520,
      "##)": 1521,
      "▁nisan": 1522,
      "▁veriyorum": 1523,
      "▁vermek": 1524,
      "▁le": 1525,
      "##ımı": 1526,
      "▁sub": 1527,
      "##asi": 1528,
      "▁l": 1529,
      "##'i": 1530,
      "##erler": 1531,
      "▁cid": 1532,
      "▁degildir": 1533,
      "▁er": 1534,
      "▁gunluk": 1535,
      "▁ilac": 1536,
      "▁y": 1537,
      "▁kotuydu": 1538,
      "▁ki": 1539,
      "##asına": 1540,
      "▁muh": 1541,
      "▁kuc": 1542,
      "##enler": 1543,
      "▁olay": 1544,
      "▁imkanlari": 1545,
      "▁avrup": 1546,
      "▁gereken": 1547,
      "##ıl": 1548,
      "▁av": 1549,
      "##mam": 1550,
      "##ret": 1551,
      "▁en": 1552,
      "▁faaliyet": 1553,
      "##aydi": 1554,
      "▁turlu": 1555,
      "▁pat": 1556,
      "##vel": 1557,
      "▁sonraki": 1558,
      "▁yav": 1559,
      "–": 1560,
      "▁kit": 1561,
      "5": 1562,
      "▁aj": 1563,
      "▁50": 1564,
      "##obil": 1565,
      "##ahat": 1566,
      "##ami": 1567,
      "##edir": 1568,
      "▁uzerine": 1569,
      "▁birden": 1570,
      "▁sessiz": 1571,
      "##iyorlar": 1572,
      "▁'ni": 1573,
      "▁in": 1574,
      "▁rap": 1575,
      "▁adeta": 1576,
      "##ley": 1577,
      "▁%8.2": 1578,
      "▁miyim": 1579,
      "##ni": 1580,
      "▁yildi": 1581,
      "##mustu": 1582,
      "##undan": 1583,
      "▁acık": 1584,
      "##ill": 1585,
      "▁etmem": 1586,
      "▁deniz": 1587,
      "▁kapan": 1588,
      "▁fi": 1589,
      "▁wash": 1590,
      "##kara": 1591,
      "▁baba": 1592,
      "##ham": 1593,
      "##alara": 1594,
      "▁kot": 1595,
      "▁ulasım": 1596,
      "##gec": 1597,
      "▁bunu": 1598,
      "▁eki": 1599,
      "▁tamam": 1600,
      "▁zen": 1601,
      "##ana": 1602,
      "▁akl": 1603,
      "▁tah": 1604,
      "##olu": 1605,
      "▁servis": 1606,
      "▁takım": 1607,
      "▁anlas": 1608,
      "▁%3.1": 1609,
      "▁haval": 1610,
      "▁hangi": 1611,
      "▁telefonla": 1612,
      "##ecektir": 1613,
      "▁anim": 1614,
      "##dur": 1615,
      "▁karar": 1616,
      "▁dil": 1617,
      "▁meh": 1618,
      "##alap": 1619,
      "▁dunyanın": 1620,
      "▁alıp": 1621,
      "▁tez": 1622,
      "▁olus": 1623,
      "##acagım": 1624,
      "▁heyec": 1625,
      "▁seyahat": 1626,
      "##ıldır": 1627,
      "##mak": 1628,
      "▁avukat": 1629,
      "▁yagmur": 1630,
      "##embe": 1631,
      "▁dc": 1632,
      "##oster": 1633,
      "##ok": 1634,
      "##ru": 1635,
      "▁onumuz": 1636,
      "▁de": 1637,
      "▁tım": 1638,
      "▁is": 1639,
      "▁olma": 1640,
      "▁calisanlar": 1641,
      "▁hasta": 1642,
      "▁uzun": 1643,
      "▁kans": 1644,
      "▁kendin": 1645,
      "▁ide": 1646,
      "▁saat": 1647,
      "##lıgı": 1648,
      "##ılacak": 1649,
      "▁mahkem": 1650,
      "▁ediyoruz": 1651,
      "▁lim": 1652,
      "▁carp": 1653,
      "##ıyordu": 1654,
      "▁bunlardan": 1655,
      "▁bar": 1656,
      "▁insaat": 1657,
      "▁fa": 1658,
      "▁rom": 1659,
      "▁gog": 1660,
      "##ustur": 1661,
      "##anlı": 1662,
      "##000": 1663,
      "▁isk": 1664,
      "▁fin": 1665,
      "▁kel": 1666,
      "▁yorgun": 1667,
      "▁f": 1668,
      "##c": 1669,
      "▁ileri": 1670,
      "▁bolum": 1671,
      "##ama": 1672,
      "▁%4": 1673,
      "▁yardim": 1674,
      "▁bos": 1675,
      "▁arz": 1676,
      "▁sart": 1677,
      "▁bildirdi": 1678,
      "▁dallas'tan": 1679,
      "##5": 1680,
      "##ika": 1681,
      "▁kons": 1682,
      "▁yapılacak": 1683,
      "▁sig": 1684,
      "##ime": 1685,
      "▁etmis": 1686,
      "▁mısın": 1687,
      "▁ozgur": 1688,
      "##ların": 1689,
      "▁cek": 1690,
      "##ville": 1691,
      "##9-": 1692,
      "▁-": 1693,
      "▁istemiyorum": 1694,
      "z": 1695,
      "▁giy": 1696,
      "##ide": 1697,
      "▁hanim": 1698,
      "##eb": 1699,
      "##k": 1700,
      "▁1.3": 1701,
      "▁dun": 1702,
      "##mayı": 1703,
      "##rub": 1704,
      "▁hava": 1705,
      "▁yet": 1706,
      "▁doldur": 1707,
      "▁ch": 1708,
      "▁sene": 1709,
      "##ları": 1710,
      "##cileri": 1711,
      "▁washington": 1712,
      "▁%99": 1713,
      "##son": 1714,
      "▁ihtiyac": 1715,
      "▁misin": 1716,
      "##asıyla": 1717,
      "##gru": 1718,
      "##ıg": 1719,
      "##dir": 1720,
      "▁memnun": 1721,
      "##aklı": 1722,
      "▁ann": 1723,
      "▁sah": 1724,
      "▁ucuslar": 1725,
      "##itt": 1726,
      "▁uz": 1727,
      "##w": 1728,
      "##ri": 1729,
      "▁tat": 1730,
      "##gin": 1731,
      "▁cocuklar": 1732,
      "##cuk": 1733,
      "▁biliyor": 1734,
      "b": 1735,
      "##likle": 1736,
      "▁sırada": 1737,
      "▁dow": 1738,
      "▁seh": 1739,
      "▁car": 1740,
      "##inci": 1741,
      "▁yasında": 1742,
      "▁duruyor": 1743,
      "▁derg": 1744,
      "▁buy": 1745,
      "▁lak": 1746,
      "##emin": 1747,
      "##apon": 1748,
      "##encer": 1749,
      "▁yana": 1750,
      "##mıs": 1751,
      "##inden": 1752,
      "▁kısa": 1753,
      "##f": 1754,
      "##igini": 1755,
      "▁zorunda": 1756,
      "##lerce": 1757,
      "▁ekmek": 1758,
      "▁oc": 1759,
      "##lıga": 1760,
      "##ber": 1761,
      "##ya'da": 1762,
      "▁yam": 1763,
      "▁kesinlikle": 1764,
      "▁mutlu": 1765,
      "▁koca": 1766,
      "##aca": 1767,
      "▁ayrıca": 1768,
      "▁etm": 1769,
      "▁bekleniyor": 1770,
      "▁fab": 1771,
      "▁dusuktu": 1772,
      "—": 1773,
      "▁sh": 1774,
      "▁ilgilen": 1775,
      "##pr": 1776,
      "▁arastır": 1777,
      "##ad": 1778,
      "▁ac": 1779,
      "##onik": 1780,
      "##timore": 1781,
      "▁yonetim": 1782,
      "##likte": 1783,
      "▁dis": 1784,
      "▁bus": 1785,
      "▁isin": 1786,
      "▁lezzeti": 1787,
      "▁kalkan": 1788,
      "▁top": 1789,
      "▁devlet": 1790,
      "▁.": 1791,
      "▁tutar": 1792,
      "##tin": 1793,
      "▁por": 1794,
      "▁vermis": 1795,
      "▁benim": 1796,
      "##ılmaz": 1797,
      "▁yemekler": 1798,
      "▁indianapolis'ten": 1799,
      "▁ho": 1800,
      "▁ydı": 1801,
      "▁birlik": 1802,
      "##osy": 1803,
      "▁kosul": 1804,
      "▁ra": 1805,
      "▁dair": 1806,
      "▁arası": 1807,
      "##asır": 1808,
      "▁zayif": 1809,
      "##yon": 1810,
      "##'na": 1811,
      "▁malz": 1812,
      "▁sekilde": 1813,
      "▁300": 1814,
      "▁akıl": 1815,
      "▁otel": 1816,
      "▁getir": 1817,
      "▁begendim": 1818,
      "▁osman": 1819,
      "▁cır": 1820,
      "▁aktiv": 1821,
      "##sel": 1822,
      "##ist": 1823,
      "##oj": 1824,
      "##man": 1825,
      "##oma": 1826,
      "##den": 1827,
      "▁sadece": 1828,
      "▁olustur": 1829,
      "▁1989": 1830,
      "▁biraz": 1831,
      "##liyor": 1832,
      "##alan": 1833,
      "##ladık": 1834,
      "▁sel": 1835,
      "##.": 1836,
      "▁ozellikle": 1837,
      "##lek": 1838,
      "##alarda": 1839,
      "▁yazı": 1840,
      "▁gosterin": 1841,
      "##eral": 1842,
      "▁yemekleri": 1843,
      "▁elektrik": 1844,
      "▁musteri": 1845,
      "▁ali": 1846,
      "▁montre": 1847,
      "▁icinde": 1848,
      "▁sup": 1849,
      "▁kara": 1850,
      "##bet": 1851,
      "▁ederek": 1852,
      "▁ham": 1853,
      "▁komp": 1854,
      "▁sırt": 1855,
      "▁din": 1856,
      "##ite": 1857,
      "▁%85": 1858,
      "▁%80": 1859,
      "▁tutun": 1860,
      "▁dusunc": 1861,
      "▁bors": 1862,
      "##ata": 1863,
      "##det": 1864,
      "▁silah": 1865,
      "▁toront": 1866,
      "##meye": 1867,
      "▁havalim": 1868,
      "▁sizin": 1869,
      "▁normal": 1870,
      "▁hafif": 1871,
      "▁corp": 1872,
      "▁veya": 1873,
      "##tır": 1874,
      "▁soh": 1875,
      "▁prof": 1876,
      "##mamıs": 1877,
      "##is": 1878,
      "▁ede": 1879,
      "▁dum": 1880,
      "##alar": 1881,
      "##lastı": 1882,
      "▁ik": 1883,
      "▁adım": 1884,
      "##lıg": 1885,
      "##as": 1886,
      "##inn": 1887,
      "##sızlık": 1888,
      "▁stok": 1889,
      "▁zaman": 1890,
      "▁kup": 1891,
      "##ere": 1892,
      "▁eve": 1893,
      "▁duv": 1894,
      "▁dakika": 1895,
      "▁uretim": 1896,
      "▁san": 1897,
      "▁etk": 1898,
      "▁yasama": 1899,
      "w": 1900,
      "▁kardes": 1901,
      "▁sını": 1902,
      "▁iste": 1903,
      "##apol": 1904,
      "##v": 1905,
      "▁inan": 1906,
      "▁boyunca": 1907,
      "▁yi": 1908,
      "##ci": 1909,
      "▁dan": 1910,
      "##amadim": 1911,
      "▁dolay": 1912,
      "▁parti": 1913,
      "##alt": 1914,
      "▁herkese": 1915,
      "▁istih": 1916,
      "##lerle": 1917,
      "▁dur": 1918,
      "▁karayolu": 1919,
      "▁hom": 1920,
      "▁bizimle": 1921,
      "▁ulusal": 1922,
      "▁ziyaret": 1923,
      "##siz": 1924,
      "▁yemegi": 1925,
      "▁1.5": 1926,
      "▁gelir": 1927,
      "##ih": 1928,
      "##iligi": 1929,
      "##ıyla": 1930,
      "▁istanbul": 1931,
      "▁sosyal": 1932,
      "▁ha": 1933,
      "##ısının": 1934,
      "▁cap": 1935,
      "##gan": 1936,
      "##'ı": 1937,
      "▁dusman": 1938,
      "▁taz": 1939,
      "##sun": 1940,
      "▁misafir": 1941,
      "##yak": 1942,
      "▁etraf": 1943,
      "▁cicek": 1944,
      "▁sahibi": 1945,
      "▁dusur": 1946,
      "▁``": 1947,
      "▁istif": 1948,
      "▁belki": 1949,
      "▁3.": 1950,
      "▁animasyon": 1951,
      "▁kolay": 1952,
      "▁sistem": 1953,
      "▁kitap": 1954,
      "▁mad": 1955,
      "▁diyor": 1956,
      "▁dieg": 1957,
      "##layan": 1958,
      "▁degis": 1959,
      "▁k": 1960,
      "##onu": 1961,
      "##abilir": 1962,
      "##for": 1963,
      "▁cıtır": 1964,
      "▁ayır": 1965,
      "▁yaklas": 1966,
      "▁kendisine": 1967,
      "▁personeli": 1968,
      "▁ortalama": 1969,
      "▁altın": 1970,
      "▁denizi": 1971,
      "##das": 1972,
      "▁kendim": 1973,
      "▁ederim": 1974,
      "▁51": 1975,
      "[PAD]": 1976,
      "▁piyasa": 1977,
      "▁secim": 1978,
      "▁ed": 1979,
      "▁oden": 1980,
      "▁efendi": 1981,
      "▁olmadıgı": 1982,
      "▁ingil": 1983,
      "▁tasar": 1984,
      "▁%0.2": 1985,
      "▁azal": 1986,
      "▁musun": 1987,
      "▁cog": 1988,
      "c": 1989,
      "▁ucuncu": 1990,
      "▁ogleden": 1991,
      "▁yılı": 1992,
      "##ugun": 1993,
      "▁bayram": 1994,
      "##indan": 1995,
      "▁karsılık": 1996,
      "##tur": 1997,
      "▁ayrı": 1998,
      "▁eskiydi": 1999,
      "##ıtır": 2000,
      "##tigi": 2001,
      "▁cel": 2002,
      "▁petersburg": 2003,
      "▁hele": 2004,
      "▁sak": 2005,
      "##lıgın": 2006,
      "▁hızla": 2007,
      "▁sizi": 2008,
      "##d": 2009,
      "##sak": 2010,
      "▁mevcut": 2011,
      "▁bildir": 2012,
      "▁satıs": 2013,
      "▁alacak": 2014,
      "▁hap": 2015,
      "▁ney": 2016,
      "##ımız": 2017,
      "▁alt": 2018,
      "##ele": 2019,
      "▁kenar": 2020,
      "▁cey": 2021,
      "▁belir": 2022,
      "##kun": 2023,
      "▁mun": 2024,
      "##aturk": 2025,
      "##aki": 2026,
      "▁yoksa": 2027,
      "##rl": 2028,
      "▁tac": 2029,
      "▁seb": 2030,
      "▁faturam": 2031,
      "▁deg": 2032,
      "###": 2033,
      "▁dah": 2034,
      "##'": 2035,
      "##rar": 2036,
      "##esiz": 2037,
      "▁ise": 2038,
      "▁edip": 2039,
      "▁ulasımı": 2040,
      "##o'nun": 2041,
      "##>": 2042,
      "##ta": 2043,
      "▁neler": 2044,
      "▁rek": 2045,
      "▁%7.875": 2046,
      "▁guleryuzluydu": 2047,
      "▁yatırımcılar": 2048,
      "##\\/8": 2049,
      "##3": 2050,
      "▁diger": 2051,
      "▁tas": 2052,
      "▁gul": 2053,
      "##masına": 2054,
      "▁incel": 2055,
      "▁gider": 2056,
      "##dik": 2057,
      "▁rahat": 2058,
      "##amak": 2059,
      "▁hazine": 2060,
      "▁cumhuriyet": 2061,
      "▁res": 2062,
      "##ulan": 2063,
      "▁yıl": 2064,
      "##tılar": 2065,
      "▁defa": 2066,
      "▁genellikle": 2067,
      "▁aktarmasız": 2068,
      "▁mehmet": 2069,
      "##inde": 2070,
      "##erken": 2071,
      "▁cic": 2072,
      "##45": 2073,
      "▁sıng": 2074,
      "▁ozel": 2075,
      "▁tampa": 2076,
      "▁acıl": 2077,
      "▁pek": 2078,
      ".": 2079,
      "▁yatırım": 2080,
      "▁gorun": 2081,
      "##aj": 2082,
      "##ob": 2083,
      "▁americ": 2084,
      "▁karak": 2085,
      "▁7": 2086,
      "▁kalab": 2087,
      "▁201": 2088,
      "##asa": 2089,
      "▁%1.7": 2090,
      "▁sanki": 2091,
      "##sam": 2092,
      "0": 2093,
      "▁gu": 2094,
      "##maktan": 2095,
      "##mus": 2096,
      "##dır": 2097,
      "▁gordu": 2098,
      "##'deki": 2099,
      "▁yerine": 2100,
      "▁otur": 2101,
      "##masız": 2102,
      "▁kaldim": 2103,
      "##alı": 2104,
      "▁kucuk": 2105,
      "▁satın": 2106,
      "▁olabilir": 2107,
      "▁mo": 2108,
      "▁deng": 2109,
      "##u": 2110,
      "▁c": 2111,
      "▁kendisi": 2112,
      "|": 2113,
      "▁jos": 2114,
      "▁mustafa": 2115,
      "▁naz": 2116,
      "▁onu": 2117,
      "##ınc": 2118,
      "▁cleveland": 2119,
      "▁isler": 2120,
      "▁endek": 2121,
      "▁bizde": 2122,
      "▁tak": 2123,
      "▁''": 2124,
      "▁alıs": 2125,
      "▁tec": 2126,
      "##ırım": 2127,
      "▁corp.": 2128,
      "##gis": 2129,
      "▁erk": 2130,
      "▁ucusları": 2131,
      "##ısır": 2132,
      "##ington": 2133,
      "##menin": 2134,
      "▁kazanc": 2135,
      "##ince": 2136,
      "▁acı": 2137,
      "▁kayıt": 2138,
      "▁pittsburgh": 2139,
      "##tu": 2140,
      "▁havayolları": 2141,
      "▁mek": 2142,
      "▁koc": 2143,
      "##dav": 2144,
      "▁dallas": 2145,
      "##kal": 2146,
      "##su": 2147,
      "##ul": 2148,
      "▁sab": 2149,
      "▁kaldı": 2150,
      "##atı": 2151,
      "▁demokr": 2152,
      "##'e": 2153,
      "▁jon": 2154,
      "##arlar": 2155,
      "▁cumhur": 2156,
      "l": 2157,
      "▁par": 2158,
      "▁temiz": 2159,
      "##dıgı": 2160,
      "▁bes": 2161,
      "##esiyle": 2162,
      "##ustuk": 2163,
      "▁dag": 2164,
      "##siniz": 2165,
      "▁boston'a": 2166,
      "▁ikinci": 2167,
      "▁tum": 2168,
      "▁kelim": 2169,
      "▁basv": 2170,
      "##per": 2171,
      "##onom": 2172,
      "##alım": 2173,
      "▁vadeli": 2174,
      "##-22:30": 2175,
      "▁oak": 2176,
      "▁iki": 2177,
      "▁ogret": 2178,
      "▁gecti": 2179,
      "▁rol": 2180,
      "##asyonu": 2181,
      "▁herk": 2182,
      "##ilig": 2183,
      "▁gir": 2184,
      "▁surekli": 2185,
      "▁havayol": 2186,
      "▁tab": 2187,
      "▁ekonom": 2188,
      "##alardan": 2189,
      "▁delta": 2190,
      "##q": 2191,
      "▁sal": 2192,
      "##arl": 2193,
      "▁stan": 2194,
      "##'a": 2195,
      "▁ona": 2196,
      "##arlan": 2197,
      "##ah": 2198,
      "##ogram": 2199,
      "▁%7.5": 2200,
      "▁hız": 2201,
      "##mal": 2202,
      "▁cal": 2203,
      "##siye": 2204,
      "▁anlay": 2205,
      "▁%7.8": 2206,
      "▁mar": 2207,
      "##onelik": 2208,
      "▁francisco'ya": 2209,
      "▁m": 2210,
      "▁pittsburgh'tan": 2211,
      "##egas": 2212,
      "▁lezzetli": 2213,
      "▁kırm": 2214,
      "▁goz": 2215,
      "##inda": 2216,
      "▁onlara": 2217,
      "‘": 2218,
      "▁new": 2219,
      "▁karıstır": 2220,
      "▁bayan": 2221,
      "▁sert": 2222,
      "##bah": 2223,
      "##ındaki": 2224,
      "##ydi": 2225,
      "##​": 2226,
      "▁bulun": 2227,
      "▁hicbir": 2228,
      "▁mem": 2229,
      "▁edebiyat": 2230,
      "▁vır": 2231,
      "▁geciyor": 2232,
      "##ekli": 2233,
      "▁duvar": 2234,
      "##ost": 2235,
      "▁utan": 2236,
      "##.7": 2237,
      "▁sıngır": 2238,
      "▁altında": 2239,
      "▁dalg": 2240,
      "▁us": 2241,
      "##”": 2242,
      "▁gidip": 2243,
      "▁eder": 2244,
      "▁indianapolis": 2245,
      "##lt": 2246,
      "##me": 2247,
      "▁soyley": 2248,
      "▁mol": 2249,
      "▁kok": 2250,
      "▁10": 2251,
      "##acagını": 2252,
      "##otte": 2253,
      "▁guc": 2254,
      "##gar": 2255,
      "▁bur": 2256,
      "▁kemal": 2257,
      "▁cık": 2258,
      "▁gecir": 2259,
      "▁boz": 2260,
      "##ation": 2261,
      "▁ragmen": 2262,
      "▁oyle": 2263,
      "▁baskanı": 2264,
      "##amıs": 2265,
      "▁bor": 2266,
      "▁seni": 2267,
      "▁duyar": 2268,
      "▁pet": 2269,
      "##dı": 2270,
      "▁ih": 2271,
      "##ans": 2272,
      "▁mesel": 2273,
      "▁ticari": 2274,
      "▁basladı": 2275,
      "▁sabahı": 2276,
      "##uyor": 2277,
      "##atik": 2278,
      "▁derece": 2279,
      "▁butun": 2280,
      "▁street": 2281,
      "▁memnunum": 2282,
      "▁sm": 2283,
      "▁hepsinin": 2284,
      "▁lou": 2285,
      "▁yorum": 2286,
      "▁oda": 2287,
      "▁bin": 2288,
      "▁edilen": 2289,
      "##agan": 2290,
      "▁direk": 2291,
      "##ram": 2292,
      "▁kazandı": 2293,
      "▁misiniz": 2294,
      "▁vad": 2295,
      "▁/": 2296,
      "##ib": 2297,
      "##ili": 2298,
      "▁toplan": 2299,
      "▁?..": 2300,
      "▁salon": 2301,
      "▁la": 2302,
      "##amay": 2303,
      "▁daha": 2304,
      "▁ser": 2305,
      "▁tuz": 2306,
      "▁bogaz": 2307,
      "##32": 2308,
      "##'nda": 2309,
      "▁degisiklik": 2310,
      "##ell": 2311,
      "##rak": 2312,
      "▁arkad": 2313,
      "▁kav": 2314,
      "▁fel": 2315,
      "▁cle": 2316,
      "▁fen": 2317,
      "##evi": 2318,
      "##yalar": 2319,
      "▁isten": 2320,
      "▁anadolu": 2321,
      "▁dort": 2322,
      "##dek": 2323,
      "▁sıra": 2324,
      "##enek": 2325,
      "##ra": 2326,
      "▁tıklım": 2327,
      "##gi": 2328,
      "##ayıp": 2329,
      "▁gorev": 2330,
      "▁hik": 2331,
      "▁danıs": 2332,
      "▁tezgah": 2333,
      "▁kesin": 2334,
      "▁worth": 2335,
      "▁git": 2336,
      "##cısı": 2337,
      "▁adi": 2338,
      "▁tay": 2339,
      "=": 2340,
      "▁sul": 2341,
      "▁tarafından": 2342,
      "▁kuz": 2343,
      "▁delik": 2344,
      "▁salt": 2345,
      "▁baltimore": 2346,
      "▁hanimdi": 2347,
      "▁dobra": 2348,
      "##rem": 2349,
      "▁evi": 2350,
      "▁baltimore'ye": 2351,
      "▁ydi": 2352,
      "▁44": 2353,
      "##lanıyor": 2354,
      "##ten": 2355,
      "##ası": 2356,
      "…": 2357,
      "▁bahs": 2358,
      "▁cem": 2359,
      "▁tıpıs": 2360,
      "##iyordu": 2361,
      "▁burada": 2362,
      "▁hanım": 2363,
      "▁ilgi": 2364,
      "▁nash": 2365,
      "##lıyor": 2366,
      "##n": 2367,
      "▁detroit": 2368,
      "##iler": 2369,
      "▁op": 2370,
      "▁nelerdir": 2371,
      "▁1988": 2372,
      "##ven": 2373,
      "▁ad": 2374,
      "##kı": 2375,
      "▁cocuk": 2376,
      "##-23": 2377,
      "##ern": 2378,
      "▁cocuklu": 2379,
      "▁ucreti": 2380,
      "▁univers": 2381,
      "▁acıklan": 2382,
      "▁art": 2383,
      "▁calısıyor": 2384,
      "▁bitir": 2385,
      "##gimiz": 2386,
      "##ısık": 2387,
      "▁istiyorum": 2388,
      "▁yapma": 2389,
      "▁1989-": 2390,
      "▁ardından": 2391,
      "▁dolas": 2392,
      "##adi": 2393,
      "##mustur": 2394,
      "##iyat": 2395,
      "▁ciz": 2396,
      "▁pu": 2397,
      "▁yaptı": 2398,
      "▁4": 2399,
      "▁kurtar": 2400,
      "##ult": 2401,
      "##o": 2402,
      "▁seatt": 2403,
      "▁takır": 2404,
      "▁mucadel": 2405,
      "▁hij": 2406,
      "##unuyor": 2407,
      "##larından": 2408,
      "▁kov": 2409,
      "▁hes": 2410,
      "▁bana": 2411,
      "##af": 2412,
      "##isti": 2413,
      "##unda": 2414,
      "▁verim": 2415,
      "##adelphia": 2416,
      "##ev": 2417,
      "▁fatur": 2418,
      "▁gaz": 2419,
      "▁kos": 2420,
      "▁kong": 2421,
      "▁united": 2422,
      "▁bırak": 2423,
      "##ıma": 2424,
      "▁yiyecek": 2425,
      "▁sor": 2426,
      "##alarında": 2427,
      "▁ir": 2428,
      "▁dem": 2429,
      "▁derin": 2430,
      "▁27": 2431,
      "▁amerika": 2432,
      "##larında": 2433,
      "▁ogren": 2434,
      "▁iti": 2435,
      "▁gerceklestir": 2436,
      "!": 2437,
      "##imdi": 2438,
      "▁duzel": 2439,
      "▁sehr": 2440,
      "▁kıl": 2441,
      "##lıkla": 2442,
      "▁pr": 2443,
      "▁calıs": 2444,
      "##isiz": 2445,
      "2": 2446,
      "▁olsun": 2447,
      "▁eylem": 2448,
      "##ustr": 2449,
      "▁ulas": 2450,
      "▁konus": 2451,
      "▁size": 2452,
      "▁geldi": 2453,
      "##luk": 2454,
      "▁doları": 2455,
      "▁ig": 2456,
      "▁oldukca": 2457,
      "▁kıtır": 2458,
      "##diler": 2459,
      "▁olması": 2460,
      "##taj": 2461,
      "▁kalit": 2462,
      "▁temizlik": 2463,
      "##ari": 2464,
      "▁uzerinden": 2465,
      "▁0": 2466,
      "▁kalkıs": 2467,
      "##ran": 2468,
      "##he": 2469,
      "▁dogal": 2470,
      "▁tuket": 2471,
      "▁cer": 2472,
      "▁40": 2473,
      "▁californ": 2474,
      "▁gide": 2475,
      "▁gecik": 2476,
      "▁guleryuzlu": 2477,
      "▁louis": 2478,
      "▁sis": 2479,
      "##iran": 2480,
      "▁onları": 2481,
      "▁yuruy": 2482,
      "▁genis": 2483,
      "▁dom": 2484,
      "▁fing": 2485,
      "##lasyon": 2486,
      "▁gorunuyor": 2487,
      "▁tef": 2488,
      "▁hamam": 2489,
      "▁kr": 2490,
      "▁misafirimiz": 2491,
      "##amız": 2492,
      "▁hayır": 2493,
      "▁mev": 2494,
      "▁bil": 2495,
      "▁dolar": 2496,
      "##tıg": 2497,
      "##iyet": 2498,
      "##medik": 2499,
      "▁gozleri": 2500,
      "##dog": 2501,
      "▁gercekles": 2502,
      "▁bıraktı": 2503,
      "##uluyor": 2504,
      "▁com": 2505,
      "▁kim": 2506,
      "##lamak": 2507,
      "▁cıkar": 2508,
      "▁…": 2509,
      "▁1991-19": 2510,
      "##forman": 2511,
      "▁imkan": 2512,
      "##9": 2513,
      "##a": 2514,
      "▁bag": 2515,
      "##lari": 2516,
      "▁gom": 2517,
      "##layacak": 2518,
      "##ırk": 2519,
      "▁laf": 2520,
      "##pan": 2521,
      "▁degerlendir": 2522,
      "▁tam": 2523,
      "▁mak": 2524,
      "▁kopek": 2525,
      "▁sik": 2526,
      "##(": 2527,
      "##lanan": 2528,
      "▁11": 2529,
      "\\": 2530,
      "##cak": 2531,
      "##imli": 2532,
      "▁saf": 2533,
      "▁sok": 2534,
      "▁gorul": 2535,
      "▁tan": 2536,
      "##digi": 2537,
      "##ısıl": 2538,
      "▁american": 2539,
      "▁kor": 2540,
      "▁1987": 2541,
      "##esine": 2542,
      "##lıgını": 2543,
      "▁alıyor": 2544,
      "'": 2545,
      "##bir": 2546,
      "▁eylul": 2547,
      "▁hangisi": 2548,
      "▁dib": 2549,
      "▁%20": 2550,
      "▁kapas": 2551,
      "▁konumu": 2552,
      "▁yasıyor": 2553,
      "##al": 2554,
      "▁yedi": 2555,
      "##an": 2556,
      "▁ustune": 2557,
      "##ard": 2558,
      "##acagız": 2559,
      "▁be": 2560,
      "▁didik": 2561,
      "▁boyle": 2562,
      "▁cıvıl": 2563,
      "▁bog": 2564,
      "##iz": 2565,
      "▁14": 2566,
      "▁kahve": 2567,
      "▁kalk": 2568,
      "▁sirketin": 2569,
      "▁orland": 2570,
      "▁%9": 2571,
      "##evizyon": 2572,
      "#": 2573,
      "##tal": 2574,
      "▁haft": 2575,
      "▁=": 2576,
      "▁yerde": 2577,
      "▁durumda": 2578,
      "▁kil": 2579,
      "##sız": 2580,
      "▁hepsin": 2581,
      "##'ın": 2582,
      "▁sozcusu": 2583,
      "##les": 2584,
      "##dum": 2585,
      "##cik": 2586,
      "▁yapacak": 2587,
      "##ger": 2588,
      "##alarla": 2589,
      "▁cin": 2590,
      ":": 2591,
      "##aları": 2592,
      "▁airlines": 2593,
      "##fet": 2594,
      "##tıgını": 2595,
      "##ol": 2596,
      "▁francisco": 2597,
      "▁miydi": 2598,
      "##uydu": 2599,
      "▁bile": 2600,
      "▁bilgis": 2601,
      "▁1990": 2602,
      "##ımda": 2603,
      "▁nes": 2604,
      "▁sayı": 2605,
      "▁siir": 2606,
      "▁pitts": 2607,
      "▁soyledi": 2608,
      "##um": 2609,
      "##z": 2610,
      "▁cıl": 2611,
      "##di": 2612,
      "##larda": 2613,
      "▁ek": 2614,
      "▁kısıt": 2615,
      "▁ger": 2616,
      "▁kalma": 2617,
      "##—": 2618,
      "##masının": 2619,
      "▁yonel": 2620,
      "##ligini": 2621,
      "▁500": 2622,
      "##ıyorum": 2623,
      "▁ton": 2624,
      "▁elbet": 2625,
      "##en": 2626,
      "▁25": 2627,
      "▁egit": 2628,
      "##misti": 2629,
      "▁kı": 2630,
      "▁ilan": 2631,
      "##ate": 2632,
      "▁gumbur": 2633,
      "▁alma": 2634,
      "▁saglam": 2635,
      "##86": 2636,
      "▁1/2": 2637,
      "▁ortal": 2638,
      "▁kayn": 2639,
      "▁elb": 2640,
      "▁ısı": 2641,
      "▁etti": 2642,
      "▁bo": 2643,
      "▁*": 2644,
      "▁tabi": 2645,
      "▁ucus": 2646,
      "##ee": 2647,
      "##istim": 2648,
      "##ini": 2649,
      "▁alın": 2650,
      "##lass": 2651,
      "##ugu": 2652,
      "##1-19": 2653,
      "▁ana": 2654,
      "▁soyler": 2655,
      "▁donus": 2656,
      "▁yılında": 2657,
      "▁bask": 2658,
      "▁kasım": 2659,
      "▁demir": 2660,
      "▁un": 2661,
      "##phia": 2662,
      "##'den": 2663,
      "##ın": 2664,
      "##ne": 2665,
      "▁acıklam": 2666,
      "##elik": 2667,
      "##ekler": 2668,
      "▁diy": 2669,
      "▁mektu": 2670,
      "▁yani": 2671,
      "▁mıy": 2672,
      "▁!..": 2673,
      "▁cıkardı": 2674,
      "▁19": 2675,
      "##urlu": 2676,
      "▁hab": 2677,
      "▁halinde": 2678,
      "##ileri": 2679,
      "##larını": 2680,
      "##izm": 2681,
      "##eden": 2682,
      "▁meyal": 2683,
      "##medi": 2684,
      "##ılıyor": 2685,
      "##ey": 2686,
      "##tan": 2687,
      "##–": 2688,
      "▁evin": 2689,
      "▁montreal": 2690,
      "▁kucuktu": 2691,
      "##lo": 2692,
      "▁suc": 2693,
      "##ustos": 2694,
      "▁var": 2695,
      "▁bank": 2696,
      "▁yukselt": 2697,
      "##gileri": 2698,
      "▁35": 2699,
      "▁alak": 2700,
      "##iyeti": 2701,
      "##ucuk": 2702,
      "▁sakin": 2703,
      "▁karsın": 2704,
      "▁hur": 2705,
      "##sın": 2706,
      "▁verilen": 2707,
      "▁kir": 2708,
      "▁ayr": 2709,
      "##lere": 2710,
      "▁yor": 2711,
      "▁kaynak": 2712,
      "##'nin": 2713,
      "##ess": 2714,
      "▁9": 2715,
      "▁isim": 2716,
      "▁yiy": 2717,
      "##lam": 2718,
      "##onel": 2719,
      "▁fak": 2720,
      "▁tesekkur": 2721,
      "##digim": 2722,
      "▁miktar": 2723,
      "▁vaz": 2724,
      "▁kol": 2725,
      "▁unit": 2726,
      "▁bunun": 2727,
      "▁cunku": 2728,
      "▁rad": 2729,
      "##ent": 2730,
      "▁bul": 2731,
      "▁gelip": 2732,
      "▁tarif": 2733,
      "▁yavas": 2734,
      "##ucu": 2735,
      "▁gunku": 2736,
      "##isleri": 2737,
      "▁gittik": 2738,
      "▁girdi": 2739,
      "##sik": 2740,
      "▁yonetic": 2741,
      "▁yaptık": 2742,
      "▁bilgi": 2743,
      "##san": 2744,
      "##raf": 2745,
      "▁allak": 2746,
      "▁sas": 2747,
      "▁bulundu": 2748,
      "▁arasında": 2749,
      "▁oldur": 2750,
      "▁eser": 2751,
      "##ational": 2752,
      "▁biz": 2753,
      "▁hizmeti": 2754,
      "▁yapan": 2755,
      "▁ar": 2756,
      "▁yurt": 2757,
      "v": 2758,
      "##mem": 2759,
      "▁konustu": 2760,
      "##gmen": 2761,
      "▁3/": 2762,
      "▁listele": 2763,
      "##vıl": 2764,
      "▁iler": 2765,
      "▁varlık": 2766,
      "▁'d": 2767,
      "▁kurumsal": 2768,
      "##°": 2769,
      "##nun": 2770,
      "##/": 2771,
      "▁lı": 2772,
      "▁tahmin": 2773,
      "##:30": 2774,
      "▁dest": 2775,
      "▁cı": 2776,
      "▁uret": 2777,
      "##esil": 2778,
      "▁nit": 2779,
      "##eh": 2780,
      "▁ustunde": 2781,
      "##ert": 2782,
      "▁kamu": 2783,
      "▁pırıl": 2784,
      "▁birdenbire": 2785,
      "▁alman": 2786,
      "▁gizli": 2787,
      "▁i": 2788,
      "▁fikir": 2789,
      "▁man": 2790,
      "##'nun": 2791,
      "▁olmalı": 2792,
      "▁lis": 2793,
      "##o'ya": 2794,
      "##'da": 2795,
      "▁boston'dan": 2796,
      "▁adam": 2797,
      "▁bilim": 2798,
      "▁miami": 2799,
      "▁1.1": 2800,
      "▁yas": 2801,
      "▁dig": 2802,
      "▁yag": 2803,
      "▁temmuz": 2804,
      "▁haline": 2805,
      "▁prob": 2806,
      "▁pufur": 2807,
      "▁bagır": 2808,
      "▁las": 2809,
      "##cilik": 2810,
      "▁kurt": 2811,
      "▁ili": 2812,
      "▁kurulu": 2813,
      "▁olacagını": 2814,
      "▁continental": 2815,
      "##alık": 2816,
      "##lak": 2817,
      "##ayol": 2818,
      "▁3": 2819,
      "\"": 2820,
      "▁sordu": 2821,
      "▁west": 2822,
      "##yo": 2823,
      "##aliydi": 2824,
      "▁senet": 2825,
      "▁kop": 2826,
      "##bu": 2827,
      "##anbul": 2828,
      "▁gidi": 2829,
      "’": 2830,
      "▁ilet": 2831,
      "##amb": 2832,
      "##eydi": 2833,
      "##dık": 2834,
      "##kat": 2835,
      "▁yazar": 2836,
      "##anlar": 2837,
      "##tir": 2838,
      "▁dahil": 2839,
      "▁kontr": 2840,
      "▁strate": 2841,
      "▁den": 2842,
      "##iyorum": 2843,
      "##ep": 2844,
      "##ıt": 2845,
      "▁gunes": 2846,
      "▁temel": 2847,
      "▁kuy": 2848,
      "▁nokta": 2849,
      "##esel": 2850,
      "▁savas": 2851,
      "▁devam": 2852,
      "▁yılda": 2853,
      "▁baz": 2854,
      "▁anlat": 2855,
      "▁rast": 2856,
      "▁organ": 2857,
      "▁%15": 2858,
      "▁ib": 2859,
      "▁ayında": 2860,
      "##ak": 2861,
      "##mi": 2862,
      "##lerdi": 2863,
      "##imin": 2864,
      "▁pencer": 2865,
      "▁sın": 2866,
      "##urt": 2867,
      "▁az": 2868,
      "▁suyu": 2869,
      "▁yirmi": 2870,
      "▁artarak": 2871,
      "▁fiyata": 2872,
      "▁tar": 2873,
      "▁lazım": 2874,
      "▁lar": 2875,
      "▁city'e": 2876,
      "▁uzat": 2877,
      "▁yuksekti": 2878,
      "##ly": 2879,
      "▁abd": 2880,
      "▁avuc": 2881,
      "##ilere": 2882,
      "▁uretic": 2883,
      "▁uzak": 2884,
      "##cisi": 2885,
      "▁20": 2886,
      "▁lir": 2887,
      "▁alk": 2888,
      "▁kaliforn": 2889,
      "##imizin": 2890,
      "▁ka": 2891,
      "q": 2892,
      "▁birkac": 2893,
      "▁iyiydi": 2894,
      "##sizdi": 2895,
      "▁diye": 2896,
      "##vet": 2897,
      "▁ucmak": 2898,
      "##lestir": 2899,
      "##alarını": 2900,
      "▁mey": 2901,
      "##landı": 2902,
      "▁cev": 2903,
      "##ohn": 2904,
      "##veland": 2905,
      "##h": 2906,
      "▁oldugun": 2907,
      "▁ediyorum": 2908,
      "##len": 2909,
      "##elen": 2910,
      "▁her": 2911,
      "##ısını": 2912,
      "▁edecek": 2913,
      "▁kendisini": 2914,
      "##cı": 2915,
      "▁teknoloj": 2916,
      "##ara": 2917,
      "##dıg": 2918,
      "▁federal": 2919,
      "##asında": 2920,
      "##ırı": 2921,
      "▁ters": 2922,
      "##uyorlar": 2923,
      "▁42": 2924,
      "##dig": 2925,
      "##ond": 2926,
      "▁cok": 2927,
      "##&": 2928,
      "▁nef": 2929,
      "▁uluslar": 2930,
      "▁askeri": 2931,
      "▁yapıyor": 2932,
      "▁ren": 2933,
      "##anın": 2934,
      "▁fotograf": 2935,
      "▁del": 2936,
      "##hur": 2937,
      "▁co.": 2938,
      "▁bic": 2939,
      "▁met": 2940,
      "▁gerekiyor": 2941,
      "▁sunu": 2942,
      "##|": 2943,
      "▁baslamıs": 2944,
      "▁giris": 2945,
      "▁oldum": 2946,
      "##lenmis": 2947,
      "▁yaslı": 2948,
      "▁olursa": 2949,
      "##:": 2950,
      "##eni": 2951,
      "##asının": 2952,
      "▁bence": 2953,
      "▁bay": 2954,
      "##19": 2955,
      "▁ortak": 2956,
      "##-1": 2957,
      "▁sasır": 2958,
      "▁ediyordu": 2959,
      "▁resim": 2960,
      "##ir": 2961,
      "##em": 2962,
      "▁aras": 2963,
      "▁%51": 2964,
      "▁seyden": 2965,
      "▁bugun": 2966,
      "▁ener": 2967,
      "▁yoktu": 2968,
      "▁0.": 2969,
      "▁hen": 2970,
      "##-2": 2971,
      "▁cincinnati": 2972,
      "▁got": 2973,
      "##'n": 2974,
      "▁ettigini": 2975,
      "▁civ": 2976,
      "▁ihrac": 2977,
      "▁;": 2978,
      "▁aksamı": 2979,
      "▁borsa": 2980,
      "▁temizligi": 2981,
      "▁erkek": 2982,
      "▁sonunda": 2983,
      "▁milyar": 2984,
      "▁%12": 2985,
      "▁pers": 2986,
      "▁merkezine": 2987,
      "▁isaret": 2988,
      "##r": 2989,
      "##0": 2990,
      "▁karsılas": 2991,
      "▁plan": 2992,
      "▁“": 2993,
      "##isindan": 2994,
      "▁mut": 2995,
      "▁yuzlu": 2996,
      "▁birbirlerine": 2997,
      "▁polit": 2998,
      "##imizi": 2999,
      "##lılık": 3000,
      "▁york'tan": 3001,
      "▁bunlar": 3002,
      "▁iceri": 3003,
      "▁yakin": 3004,
      "▁asl": 3005,
      "▁fokur": 3006,
      "▁olm": 3007,
      "▁yardımcısı": 3008,
      "▁numar": 3009,
      "##eder": 3010,
      "▁politik": 3011,
      "▁cogu": 3012,
      "##-6": 3013,
      "##eleri": 3014,
      "##udu": 3015,
      "▁kendiler": 3016,
      "##elerini": 3017,
      "▁emek": 3018,
      "▁buz": 3019,
      "##'de": 3020,
      "▁bakıs": 3021,
      "▁sermaye": 3022,
      "▁mag": 3023,
      "▁p": 3024,
      "▁tesekkurler": 3025,
      "▁sans": 3026,
      "##ısında": 3027,
      "##75": 3028,
      "##ki": 3029,
      "▁yuzme": 3030,
      "▁det": 3031,
      "▁unut": 3032,
      "▁yon": 3033,
      "▁inc": 3034,
      "▁olarak": 3035,
      "▁merdi": 3036,
      "##ver": 3037,
      "▁merkez": 3038,
      "▁belirtti": 3039,
      "▁fiyat": 3040,
      "▁dal": 3041,
      "▁oy": 3042,
      "##.6": 3043,
      "▁yeter": 3044,
      "▁41": 3045,
      "▁siz": 3046,
      "##alak": 3047,
      "▁paz": 3048,
      "##ab": 3049,
      "##madim": 3050,
      "##ınız": 3051,
      "▁anda": 3052,
      "##im": 3053,
      "##esin": 3054,
      "▁ber": 3055,
      "▁yeniden": 3056,
      "##elere": 3057,
      "##ırt": 3058,
      "##iyi": 3059,
      "▁cevap": 3060,
      "▁fok": 3061,
      "▁dolarlık": 3062,
      "▁yanl": 3063,
      "##gor": 3064,
      "▁mil": 3065,
      "##ısı": 3066,
      "▁olanak": 3067,
      "▁hakk": 3068,
      "▁karsil": 3069,
      "ı": 3070,
      "▁onay": 3071,
      "▁hareket": 3072,
      "▁yanlıs": 3073,
      "▁gel": 3074,
      "##ecegini": 3075,
      "▁yen": 3076,
      "##tigini": 3077,
      "##burgh": 3078,
      "##'ten": 3079,
      "▁ayn": 3080,
      "▁annem": 3081,
      "##ında": 3082,
      "▁oldugunu": 3083,
      "▁deprem": 3084,
      "▁kendileri": 3085,
      "▁begen": 3086,
      "##bul": 3087,
      "##ac": 3088,
      "▁mudur": 3089,
      "▁%2.7": 3090,
      "▁yarat": 3091,
      "▁degildi": 3092,
      "▁ekonomik": 3093,
      "##iydi": 3094,
      "▁ken": 3095,
      "▁ter": 3096,
      "##sil": 3097,
      "▁maliyet": 3098,
      "▁mahk": 3099,
      "##amaya": 3100,
      "▁1.": 3101,
      "▁uyan": 3102,
      "▁ısık": 3103,
      "##medim": 3104,
      "▁agır": 3105,
      "▁tuttu": 3106,
      "▁as": 3107,
      "▁atlan": 3108,
      "##uv": 3109,
      "▁makal": 3110,
      "##ı": 3111,
      "##ec": 3112,
      "##yla": 3113,
      "▁hey": 3114,
      "▁resmi": 3115,
      "▁harc": 3116,
      "▁ted": 3117,
      "##ayet": 3118,
      "▁sabit": 3119,
      "▁kas": 3120,
      "▁mav": 3121,
      "##.9": 3122,
      "##2": 3123,
      "▁altına": 3124,
      "##lugun": 3125,
      "▁kırmızı": 3126,
      "▁kom": 3127,
      "##ediyor": 3128,
      "▁dedik": 3129,
      "▁artısla": 3130,
      "▁ode": 3131,
      "##zet": 3132,
      "▁eden": 3133,
      "▁uzman": 3134,
      "##ank": 3135,
      "▁orta": 3136,
      "▁45": 3137,
      "▁list": 3138,
      "▁kultur": 3139,
      "▁.\"": 3140,
      "▁kumas": 3141,
      "▁sovyet": 3142,
      "##isinde": 3143,
      "▁zarar": 3144,
      "▁cıktı": 3145,
      "▁komisyon": 3146,
      "▁tehlik": 3147,
      "▁enflasyon": 3148,
      "##orn": 3149,
      "▁arka": 3150,
      "▁yardım": 3151,
      "▁vur": 3152,
      "▁olsa": 3153,
      "##kın": 3154,
      "##.8": 3155,
      "▁part": 3156,
      "▁sinir": 3157,
      "▁gozlerini": 3158,
      "▁charlotte": 3159,
      "##uy": 3160,
      "##gel": 3161,
      "##ental": 3162,
      "▁pazartesi": 3163,
      "##'in": 3164,
      "▁hastan": 3165,
      "▁zırt": 3166,
      "##urdu": 3167,
      "▁pol": 3168,
      "▁beyaz": 3169,
      "▁sir": 3170,
      "▁faiz": 3171,
      "▁toplam": 3172,
      "▁soylen": 3173,
      "##ılması": 3174,
      "[CLS]": 3175,
      "▁#": 3176,
      "▁ay": 3177,
      "▁dıs": 3178,
      "##qu": 3179,
      "▁philadelphia": 3180,
      "▁cit": 3181,
      "▁yol": 3182,
      "▁terc": 3183,
      "▁cevir": 3184,
      "▁grup": 3185,
      "▁gen": 3186,
      "▁%3.": 3187,
      "##yle": 3188,
      "▁elektr": 3189,
      "##hangi": 3190,
      "##abilecek": 3191,
      "*": 3192,
      "▁%": 3193,
      "▁ithal": 3194,
      "▁seattle": 3195,
      "▁guler": 3196,
      "##mek": 3197,
      "##bol": 3198,
      "##ati": 3199,
      "▁doy": 3200,
      "▁miami'ye": 3201,
      "▁ısıl": 3202,
      "▁teh": 3203,
      "▁yolc": 3204,
      "▁ayakk": 3205,
      "▁199": 3206,
      "##i": 3207,
      "##mesini": 3208,
      "▁kansas": 3209,
      "▁birini": 3210,
      "▁uf": 3211,
      "▁36": 3212,
      "▁sil": 3213,
      "▁bazıları": 3214,
      "▁hasır": 3215,
      "▁emin": 3216,
      "##agına": 3217,
      "▁park": 3218,
      "▁pittsburgh'a": 3219,
      "▁city'den": 3220,
      "▁sav": 3221,
      "▁vardi": 3222,
      "▁ydu": 3223,
      "▁cat": 3224,
      "##indeki": 3225,
      "##0000": 3226,
      "##ant": 3227,
      "▁yabancı": 3228,
      "##ıstır": 3229,
      "▁onceki": 3230,
      "▁sektor": 3231,
      "##rek": 3232,
      "##ulu": 3233,
      "▁bazi": 3234,
      "▁%3.5": 3235,
      "▁biles": 3236,
      "▁cift": 3237,
      "▁dov": 3238,
      "▁karsiligini": 3239,
      "##isinin": 3240,
      "##oz": 3241,
      "##iyas": 3242,
      "▁amerik": 3243,
      "▁faal": 3244,
      "##leket": 3245,
      "▁tahviller": 3246,
      "##ulmus": 3247,
      "%": 3248,
      "▁rezervasyonu": 3249,
      "##orta": 3250,
      "▁mukemmeldi": 3251,
      "▁atlanta'ya": 3252,
      "j": 3253,
      "▁bas": 3254,
      "▁yem": 3255,
      "##%": 3256,
      "##ed": 3257,
      "▁ucuslarını": 3258,
      "▁makin": 3259,
      "##bas": 3260,
      "▁tarihi": 3261,
      "##ıyor": 3262,
      "▁mas": 3263,
      "▁ug": 3264,
      "▁%6.4": 3265,
      "▁kon": 3266,
      "▁yarın": 3267,
      "##yen": 3268,
      "##6": 3269,
      "▁hizmetleri": 3270,
      "##eg": 3271,
      "▁fiyatlar": 3272,
      "▁sık": 3273,
      "▁destek": 3274,
      "##irim": 3275,
      "##25": 3276,
      "##fer": 3277,
      "##eyle": 3278,
      "▁artır": 3279,
      "##ina": 3280,
      "▁kalkıp": 3281,
      "▁yesil": 3282,
      "▁ust": 3283,
      "▁ilg": 3284,
      "▁manz": 3285,
      "▁mart": 3286,
      "▁savun": 3287,
      "▁196": 3288,
      "▁nis": 3289,
      "##bi": 3290,
      "▁sikayet": 3291,
      "▁dav": 3292,
      "##der": 3293,
      "##ark": 3294,
      "▁1/": 3295,
      "##dılar": 3296,
      "▁endeks": 3297,
      "▁listel": 3298,
      "##lugu": 3299,
      "##..": 3300,
      "##ırlar": 3301,
      "▁gosterdi": 3302,
      "##nek": 3303,
      "▁cesitli": 3304,
      "##lerim": 3305,
      "##ıyı": 3306,
      "▁okuy": 3307,
      "##ilik": 3308,
      "##dıgını": 3309,
      "▁musa": 3310,
      "▁sozles": 3311,
      "▁es": 3312,
      "▁ara": 3313,
      "▁did": 3314,
      "▁birbir": 3315,
      "▁mis": 3316,
      "▁henuz": 3317,
      "▁anlam": 3318,
      "▁tartıs": 3319,
      "▁yukarı": 3320,
      "▁onem": 3321,
      "##larının": 3322,
      "▁endeksi": 3323,
      "##ori": 3324,
      "▁kıs": 3325,
      "##anc": 3326,
      "▁sonr": 3327,
      "▁str": 3328,
      "▁1.2": 3329,
      "▁general": 3330,
      "##-19": 3331,
      "▁itibar": 3332,
      "##uldu": 3333,
      "##lanmıs": 3334,
      "▁cir": 3335,
      "▁gecen": 3336,
      "▁sermay": 3337,
      "▁kar": 3338,
      "##utur": 3339,
      "▁basına": 3340,
      "▁yogun": 3341,
      "▁demek": 3342,
      "##lık": 3343,
      "▁kendimi": 3344,
      "▁sat": 3345,
      "▁dır": 3346,
      "▁200": 3347,
      "##unden": 3348,
      "##aket": 3349,
      "▁satım": 3350,
      "##j": 3351,
      "▁kost": 3352,
      "##luluk": 3353,
      "##cok": 3354,
      "##dis": 3355,
      "##lıgına": 3356,
      "##ade": 3357,
      "▁sigorta": 3358,
      "▁sokak": 3359,
      "▁gelen": 3360,
      "▁insa": 3361,
      "##gun": 3362,
      "▁yakın": 3363,
      "##ının": 3364,
      "▁yer": 3365,
      "▁j": 3366,
      "▁mah": 3367,
      "▁net": 3368,
      "##tedir": 3369,
      "▁pır": 3370,
      "##*": 3371,
      "##att": 3372,
      "▁yerles": 3373,
      "▁yur": 3374,
      "▁%6": 3375,
      "▁icine": 3376,
      "##up": 3377,
      "?": 3378,
      "▁geliyor": 3379,
      "▁sirketi": 3380,
      "▁%18": 3381,
      "▁%50": 3382,
      "▁poz": 3383,
      "▁bol": 3384,
      "▁tr": 3385,
      "##!": 3386,
      "##8": 3387,
      "##amıyor": 3388,
      "&": 3389,
      "▁edec": 3390,
      "▁ye": 3391,
      "▁almak": 3392,
      "▁kıy": 3393,
      "##miyor": 3394,
      "▁doktor": 3395,
      "##ormal": 3396,
      "▁ucret": 3397,
      "▁tası": 3398,
      "▁baslan": 3399,
      "##gim": 3400,
      "▁57": 3401,
      "##manı": 3402,
      "##acık": 3403,
      "▁kurum": 3404,
      "▁asıl": 3405,
      "##leyen": 3406,
      "##t": 3407,
      "▁dol": 3408,
      "▁genel": 3409,
      "▁cont": 3410,
      "##elerinin": 3411,
      "▁cil": 3412,
      "##.2": 3413,
      "##larımız": 3414,
      "▁merkezi": 3415,
      "▁sen": 3416,
      "##ij": 3417,
      "▁'nin": 3418,
      "##dıgında": 3419,
      "##rim": 3420,
      "##ha": 3421,
      "▁tabii": 3422,
      "▁kal": 3423,
      "##emiz": 3424,
      "▁hos": 3425,
      "▁muc": 3426,
      "##hal": 3427,
      "▁sim": 3428,
      "▁tes": 3429,
      "##ısın": 3430,
      "▁yok": 3431,
      "▁hicbiri": 3432,
      "##ına": 3433,
      "▁hiz": 3434,
      "##da": 3435,
      "##ecegi": 3436,
      "▁eski": 3437,
      "▁harika": 3438,
      "m": 3439,
      "##uyu": 3440,
      "▁sun": 3441,
      "##ya": 3442,
      "##ebilir": 3443,
      "▁soylem": 3444,
      "##arken": 3445,
      "▁anal": 3446,
      "##ia": 3447,
      "▁tic": 3448,
      "▁sur": 3449,
      "▁yum": 3450,
      "▁birlikte": 3451,
      "▁edildi": 3452,
      "##lif": 3453,
      "▁yasa": 3454,
      "##imden": 3455,
      "##meler": 3456,
      "▁almıs": 3457,
      "▁fıldır": 3458,
      "##lik": 3459,
      "i": 3460,
      "▁guclu": 3461,
      "▁endustr": 3462,
      "▁iy": 3463,
      "▁hin": 3464,
      "##deki": 3465,
      "▁'": 3466,
      "▁gerektigini": 3467,
      "▁bab": 3468,
      "##cut": 3469,
      "▁para": 3470,
      "▁philadelphia'ya": 3471,
      "▁veriyor": 3472,
      "▁franc": 3473,
      "▁id": 3474,
      "▁memphis": 3475,
      "▁kapı": 3476,
      "▁ucusların": 3477,
      "▁dok": 3478,
      "▁yanı": 3479,
      "▁aralık": 3480,
      "▁elde": 3481,
      "▁uygun": 3482,
      "##ebil": 3483,
      "▁amac": 3484,
      "▁fr": 3485,
      "▁ocak": 3486,
      "▁bakım": 3487,
      "▁varsa": 3488,
      "▁cep": 3489,
      "▁kendini": 3490,
      "##yse": 3491,
      "▁%11": 3492,
      "##yan": 3493,
      "▁fayd": 3494,
      "▁konuda": 3495,
      "##usu": 3496,
      "▁b": 3497,
      "##ice": 3498,
      "▁gonder": 3499,
      "▁sag": 3500,
      "▁yetersizdi": 3501,
      "▁mon": 3502,
      "▁baglı": 3503,
      "▁kere": 3504,
      "▁azından": 3505,
      "##“": 3506,
      "▁performans": 3507,
      "▁muster": 3508,
      "▁orne": 3509,
      "▁rezerv": 3510,
      "##oeni": 3511,
      "▁dolara": 3512,
      "##makta": 3513,
      "▁musait": 3514,
      "▁class": 3515,
      "##dan": 3516,
      "##orm": 3517,
      "##aması": 3518,
      "▁5": 3519,
      "▁basar": 3520,
      "▁kulak": 3521,
      "##p": 3522,
      "▁nasıl": 3523,
      "##est": 3524,
      "▁kem": 3525,
      "##oglu": 3526,
      "▁oper": 3527,
      "##ikti": 3528,
      "▁hic": 3529,
      "##tıs": 3530,
      "▁orada": 3531,
      "▁sure": 3532,
      "##usunu": 3533,
      "▁isteyen": 3534,
      "▁yuz": 3535,
      "▁avrupa": 3536,
      "▁dogr": 3537,
      "##mıyor": 3538,
      "▁6": 3539,
      "##$": 3540,
      "##2-23": 3541,
      "▁30": 3542,
      "▁neredeyse": 3543,
      "▁duzen": 3544,
      "▁kimi": 3545,
      "▁olup": 3546,
      "▁gem": 3547,
      "▁d": 3548,
      "##dıktan": 3549,
      "##malar": 3550,
      "▁ul": 3551,
      "▁vardır": 3552,
      "##op": 3553,
      "▁iht": 3554,
      "##iy": 3555,
      "▁mark": 3556,
      "##larla": 3557,
      "##ti": 3558,
      "##erek": 3559,
      "▁kab": 3560,
      "▁nerede": 3561,
      "▁yere": 3562,
      "##arı": 3563,
      "▁hast": 3564,
      "▁ciyak": 3565,
      "▁indir": 3566,
      "▁bak": 3567,
      "▁performan": 3568,
      "▁vazgec": 3569,
      "##gum": 3570,
      "##men": 3571,
      "##ilerin": 3572,
      "▁oteldi": 3573,
      "##tr": 3574,
      "▁birinci": 3575,
      "▁for": 3576,
      "▁vak": 3577,
      "##lah": 3578,
      "▁seattle'ye": 3579,
      "▁batı": 3580,
      "▁odem": 3581,
      "##yuz": 3582,
      "▁sov": 3583,
      "▁carsamba": 3584,
      "▁houston": 3585,
      "▁duserek": 3586,
      "▁21": 3587,
      "▁bilgisay": 3588,
      "##dun": 3589,
      "▁super": 3590,
      "##aten": 3591,
      "##egini": 3592,
      "▁simdiye": 3593,
      "▁lutf": 3594,
      "##or": 3595,
      "▁senedi": 3596,
      "▁baska": 3597,
      "▁vergi": 3598,
      "▁fısır": 3599,
      "##ji": 3600,
      "▁program": 3601,
      "▁yıllık": 3602,
      "##ize": 3603,
      "##asından": 3604,
      "▁yap": 3605,
      "##ledi": 3606,
      "▁duny": 3607,
      "▁konu": 3608,
      "▁100": 3609,
      "##emey": 3610,
      "▁kimse": 3611,
      "▁31": 3612,
      "##lli": 3613,
      "##cusu": 3614,
      "▁%3.4": 3615,
      "##'y": 3616,
      "▁hi": 3617,
      "▁tamamen": 3618,
      "▁verdi": 3619,
      "▁sam": 3620,
      "▁tuc": 3621,
      "▁seker": 3622,
      "##tım": 3623,
      "▁br": 3624,
      "▁anlasma": 3625,
      "▁elestir": 3626,
      "##ılmıs": 3627,
      "▁kahval": 3628,
      "▁yay": 3629,
      "##ligi": 3630,
      "##■": 3631,
      "▁televizyon": 3632,
      "▁kalkıyor": 3633,
      "##medigini": 3634,
      "▁ornek": 3635,
      "▁ma": 3636,
      "▁sıkı": 3637,
      "##miyorum": 3638,
      "▁porcuk": 3639,
      "##tas": 3640,
      "▁durumu": 3641,
      "▁sus": 3642,
      "▁peters": 3643,
      "▁denver": 3644,
      "##\"": 3645,
      "▁ag": 3646,
      "▁'de": 3647,
      "▁onunde": 3648,
      "▁.'": 3649,
      "##anı": 3650,
      "▁parmak": 3651,
      "▁benzer": 3652,
      "▁millet": 3653,
      "▁ates": 3654,
      "▁mecl": 3655,
      "▁mukemmel": 3656,
      "▁?": 3657,
      "▁memleket": 3658,
      "##tere": 3659,
      "▁varan": 3660,
      "▁18": 3661,
      "##yıl": 3662,
      "▁duzey": 3663,
      "##kin": 3664,
      "▁bize": 3665,
      "▁guleryuz": 3666,
      "▁olduk": 3667,
      "▁yak": 3668,
      "▁kus": 3669,
      "▁olmasi": 3670,
      "▁kum": 3671,
      "##lı": 3672,
      "▁ornegin": 3673,
      "▁gıldır": 3674,
      "▁attı": 3675,
      "▁gazet": 3676,
      "▁do": 3677,
      "▁sosy": 3678,
      "▁%0.3": 3679,
      "▁iyi": 3680,
      "▁turk": 3681,
      "▁hayal": 3682,
      "##lilik": 3683,
      "▁olumlu": 3684,
      "##iddet": 3685,
      "▁39": 3686,
      "▁superdi": 3687,
      "##\\": 3688,
      "##ga": 3689,
      "▁katkı": 3690,
      "▁cocugun": 3691,
      "##,": 3692,
      "▁dondu": 3693,
      "##van": 3694,
      "s": 3695,
      "▁ge": 3696,
      "▁york": 3697,
      "##esinden": 3698,
      "##o'dan": 3699,
      "▁ko": 3700,
      "▁kapat": 3701,
      "▁hepsi": 3702,
      "##tim": 3703,
      "x": 3704,
      "##ayı": 3705,
      "▁cay": 3706,
      "▁%7.": 3707,
      "▁puf": 3708,
      "▁borc": 3709,
      "##eyal": 3710,
      "▁phoenix": 3711,
      "▁kusur": 3712,
      "▁siyasi": 3713,
      "▁gerek": 3714,
      "▁st.": 3715,
      "▁kendime": 3716,
      "##if": 3717,
      "▁gercekten": 3718,
      "▁a.": 3719,
      "▁bal": 3720,
      "▁dolardan": 3721,
      "##ma": 3722,
      "▁kayıp": 3723,
      "▁analistler": 3724,
      "▁faz": 3725,
      "▁pac": 3726,
      "▁sapır": 3727,
      "▁muk": 3728,
      "▁dokun": 3729,
      "▁gecmis": 3730,
      "▁hijyen": 3731,
      "▁n": 3732,
      "▁oz": 3733,
      "▁duyg": 3734,
      "##lar": 3735,
      "▁kars": 3736,
      "▁edeb": 3737,
      "▁o": 3738,
      "▁hayat": 3739,
      "▁bulunuyor": 3740,
      "▁zamanda": 3741,
      "▁mes": 3742,
      "##iforn": 3743,
      "▁13": 3744,
      "▁yetk": 3745,
      "▁tesisten": 3746,
      "▁ces": 3747,
      "▁cam": 3748,
      "-": 3749,
      "##oh": 3750,
      "▁yetkilileri": 3751,
      "▁mal": 3752,
      "▁hır": 3753,
      "▁”": 3754,
      "▁tıp": 3755,
      "▁yapılan": 3756,
      "▁yaptir": 3757,
      "##\\/": 3758,
      "▁intern": 3759,
      "##arası": 3760,
      "o": 3761,
      "_": 3762,
      "▁kapalı": 3763,
      "##fi": 3764,
      "##isco": 3765,
      "##lerin": 3766,
      "##gı": 3767,
      "▁kurtul": 3768,
      "▁22": 3769,
      "##ca": 3770,
      "▁dam": 3771,
      "##1": 3772,
      "##gini": 3773,
      "▁california": 3774,
      "▁dusun": 3775,
      "##din": 3776,
      "▁z": 3777,
      "##atur": 3778,
      "▁gonul": 3779,
      "▁%9.": 3780,
      "▁ta": 3781,
      "▁gece": 3782,
      "▁kendisin": 3783,
      "▁tesisin": 3784,
      "▁asla": 3785,
      "▁dusunuyor": 3786,
      "7": 3787,
      "▁yayın": 3788,
      "##lul": 3789,
      "▁arac": 3790,
      "▁petrol": 3791,
      "##10": 3792,
      "▁evet": 3793,
      "##eceg": 3794,
      "##uyorum": 3795,
      "##mis": 3796,
      "▁surdur": 3797,
      "##mer": 3798,
      "##es": 3799,
      "▁num": 3800,
      "▁fena": 3801,
      "##rı": 3802,
      "▁sarı": 3803,
      "##rum": 3804,
      "▁motor": 3805,
      "▁sesi": 3806,
      "▁ec": 3807,
      "▁hızlı": 3808,
      "▁universit": 3809,
      "▁min": 3810,
      "▁uzere": 3811,
      "##ates": 3812,
      "##ılık": 3813,
      "▁taraf": 3814,
      "##ını": 3815,
      "▁cur": 3816,
      "▁te": 3817,
      "▁cez": 3818,
      "▁tedav": 3819,
      "▁ap": 3820,
      "▁%6.9": 3821,
      "▁ustu": 3822,
      "▁alıcı": 3823,
      "##le": 3824,
      "##malı": 3825,
      "▁kaldır": 3826,
      "▁ciddi": 3827,
      "▁sark": 3828,
      "▁om": 3829,
      "▁halk": 3830,
      "▁hakkında": 3831,
      "▁airlin": 3832,
      "##elerinde": 3833,
      "##ph": 3834,
      "▁muzik": 3835,
      "##net": 3836,
      "▁telefon": 3837,
      "##dım": 3838,
      "▁kork": 3839,
      "▁og": 3840,
      "▁gore": 3841,
      "▁sev": 3842,
      "▁iz": 3843,
      "##vır": 3844,
      "##aya": 3845,
      "▁ot": 3846,
      "▁islem": 3847,
      "##tiler": 3848,
      "▁sabah": 3849,
      "▁ak": 3850,
      "▁kırk": 3851,
      "▁mor": 3852,
      "▁bunları": 3853,
      "▁don": 3854,
      "▁26": 3855,
      "##iniz": 3856,
      "▁def": 3857,
      "##duk": 3858,
      "##tif": 3859,
      "▁ca": 3860,
      "▁sem": 3861,
      "▁first": 3862,
      "▁mily": 3863,
      "▁kızı": 3864,
      "▁rest": 3865,
      "▁nak": 3866,
      "▁cagır": 3867,
      "##dıkları": 3868,
      "▁oluyor": 3869,
      "▁%27": 3870,
      "▁ingiliz": 3871,
      "▁fır": 3872,
      "▁org": 3873,
      "##ar": 3874,
      "▁kıv": 3875,
      "▁%5.4": 3876,
      "▁lung": 3877,
      "##b": 3878,
      "▁dolayı": 3879,
      "▁%3.43": 3880,
      "▁sigort": 3881,
      "▁yat": 3882,
      "▁arkadas": 3883,
      "##bire": 3884,
      "▁gorur": 3885,
      "▁ort": 3886,
      "##sen": 3887,
      "▁et": 3888,
      "▁serv": 3889,
      "▁degisik": 3890,
      "##mini": 3891,
      "##eet": 3892,
      "##am": 3893,
      "▁kard": 3894,
      "▁adet": 3895,
      "##luydu": 3896,
      "▁chicag": 3897,
      "▁milyon": 3898,
      "▁yalap": 3899,
      "@": 3900,
      "▁yapar": 3901,
      "▁baskan": 3902,
      "##tıyor": 3903,
      "▁dos": 3904,
      "▁sehir": 3905,
      "▁yandan": 3906,
      "▁lungur": 3907,
      "▁amer": 3908,
      "▁karanlık": 3909,
      "▁olmadi": 3910,
      "▁hisset": 3911,
      "▁milwaukee": 3912,
      "▁34": 3913,
      "▁yıllar": 3914,
      "##on": 3915,
      "##'u": 3916,
      "▁...": 3917,
      "▁asker": 3918,
      "▁gitt": 3919,
      "▁gr": 3920,
      "▁kurul": 3921,
      "▁yukselerek": 3922,
      "▁pasa": 3923,
      "##il": 3924,
      "▁engel": 3925,
      "▁kaldik": 3926,
      "##kuz": 3927,
      "##ık": 3928,
      "##lendi": 3929,
      "°": 3930,
      "▁kut": 3931,
      "##ıcı": 3932,
      "##@": 3933,
      "##lerde": 3934,
      "▁vardı": 3935,
      "##ılan": 3936,
      "##azım": 3937,
      "▁giden": 3938,
      "▁kıymetler": 3939,
      "▁ve": 3940,
      "▁ama": 3941,
      "▁heyecan": 3942,
      "##roit": 3943,
      "▁nas": 3944,
      "##uncu": 3945,
      "▁ruzgar": 3946,
      "##ima": 3947,
      "##ibar": 3948,
      "▁if": 3949,
      "##eli": 3950,
      "##ich": 3951,
      "▁sahib": 3952,
      "▁gez": 3953,
      "##uar": 3954,
      "▁arasındaki": 3955,
      "▁oran": 3956,
      "▁deney": 3957,
      "##'te": 3958,
      "##ay": 3959,
      "##eme": 3960,
      "▁aldı": 3961,
      "▁hiss": 3962,
      "##agını": 3963,
      "▁saray": 3964,
      "▁yagm": 3965,
      "▁pil": 3966,
      "▁kur": 3967,
      "▁aksam": 3968,
      "▁cik": 3969,
      "▁u": 3970,
      "##aga": 3971,
      "▁babam": 3972,
      "▁alım": 3973,
      "▁ister": 3974,
      "▁kent": 3975,
      "▁senin": 3976,
      "▁gur": 3977,
      "##l": 3978,
      "▁actı": 3979,
      "##laması": 3980,
      "▁city": 3981,
      "##.4": 3982,
      "▁olmadıgını": 3983,
      "▁evvel": 3984,
      "▁itibaren": 3985,
      "▁milyondan": 3986,
      "▁birer": 3987,
      "##emiyor": 3988,
      "▁ilgisiz": 3989,
      "##ba": 3990,
      "##ume": 3991,
      "##alıgı": 3992,
      "▁gecer": 3993,
      "##:00": 3994,
      "▁uzerindeki": 3995,
      "##lerinin": 3996,
      "▁hep": 3997,
      "▁seviy": 3998,
      "▁suz": 3999,
      "▁tesek": 4000,
      "▁yola": 4001,
      "▁)": 4002,
      "##ograf": 4003,
      "▁allah": 4004,
      "##ege": 4005,
      "▁on": 4006,
      "▁ucusa": 4007,
      "▁kaz": 4008,
      "##tik": 4009,
      "##iste": 4010,
      "▁titr": 4011,
      "[UNK]": 4012,
      "▁hatır": 4013,
      "##lama": 4014,
      "##ecek": 4015,
      "##ez": 4016,
      "##ılıgı": 4017,
      "##mesine": 4018,
      "##meleri": 4019,
      "##tak": 4020,
      "▁bl": 4021,
      "▁15": 4022,
      "##tar": 4023,
      "##kan": 4024,
      "▁birles": 4025,
      "▁boylece": 4026,
      "▁kalmıs": 4027,
      "##leri": 4028,
      "▁sey": 4029,
      "▁olmak": 4030,
      "##hut": 4031,
      "##ektr": 4032,
      "▁hikay": 4033,
      "##ub": 4034,
      "▁otom": 4035,
      "▁bunların": 4036,
      "▁yanında": 4037,
      "▁malzem": 4038,
      "▁hale": 4039,
      "▁kaybet": 4040,
      "▁ses": 4041,
      "##ende": 4042,
      "▁of": 4043,
      "▁gol": 4044,
      "##ile": 4045,
      "▁karsı": 4046,
      "▁yatak": 4047,
      "▁kuv": 4048,
      "##samba": 4049,
      "##li": 4050,
      "▁karsıl": 4051,
      "▁yumus": 4052,
      "▁%10": 4053,
      "▁w": 4054,
      "▁sek": 4055,
      "##ast": 4056,
      "▁ard": 4057,
      "▁memph": 4058,
      "▁gor": 4059,
      "▁nok": 4060,
      "▁can": 4061,
      "▁mumkun": 4062,
      "▁gum": 4063,
      "##aber": 4064,
      "▁bilmiyorum": 4065,
      "▁homur": 4066,
      "▁oldug": 4067,
      "▁sar": 4068,
      "▁ulus": 4069,
      "##`": 4070,
      "▁yapıl": 4071,
      "##lardı": 4072,
      "##cu": 4073,
      "##st": 4074,
      "▁servisi": 4075,
      "▁bizim": 4076,
      "▁calısan": 4077,
      "▁dor": 4078,
      "▁dc'ye": 4079,
      "##ayi": 4080,
      "▁olmaz": 4081,
      "▁bazı": 4082,
      "▁boy": 4083,
      "▁da": 4084,
      "▁%7.7": 4085,
      "▁gene": 4086,
      "▁gelistir": 4087,
      "##ıldı": 4088,
      "▁edin": 4089,
      "▁haf": 4090,
      "▁kutur": 4091,
      "▁angeles": 4092,
      "▁itir": 4093,
      "▁aradi": 4094,
      "▁dek": 4095
    }
  }
}