{
  "version": "1.0",
  "truncation": null,
  "padding": null,
  "added_tokens": [
    {
      "id": 2791,
      "content": "[CLS]",
      "single_word": false,
      "lstrip": false,
      "rstrip": false,
      "normalized": false,
      "special": true
    },
    {
      "id": 5413,
      "content": "[MASK]",
      "single_word": false,
      "lstrip": false,
      "rstrip": false,
      "normalized": false,
      "special": true
    },
    {
      "id": 11163,
      "content": "[PAD]",
      "single_word": false,
      "lstrip": false,
      "rstrip": false,
      "normalized": false,
      "special": true
    },
    {
      "id": 11936,
      "content": "[UNK]",
      "single_word": false,
      "lstrip": false,
      "rstrip": false,
      "normalized": false,
      "special": true
    },
    {
      "id": 15795,
      "content": "[SEP]",
      "single_word": false,
      "lstrip": false,
      "rstrip": false,
      "normalized": false,
      "special": true
    }
  ],
  "normalizer": {
    "type": "Sequence",
    "normalizers": [
      {
        "type": "NFD"
      },
      {
        "type": "Lowercase"
      },
      {
        "type": "StripAccents"
      }
    ]
  },
  "pre_tokenizer": {
    "type": "Sequence",
    "pretokenizers": [
      {
        "type": "Metaspace",
        "replacement": "▁",
        "prepend_scheme": "always",
        "split": true
      }
    ]
  },
  "post_processor": {
    "type": "TemplateProcessing",
    "single": [
      {
        "SpecialToken": {
          "id": "[CLS]",
          "type_id": 0
        }
      },
      {
        "Sequence": {
          "id": "A",
          "type_id": 0
        }
      },
      {
        "SpecialToken": {
          "id": "[SEP]",
          "type_id": 0
        }
      }
    ],
    "pair": [
      {
        "SpecialToken": {
          "id": "[CLS]",
          "type_id": 0
        }
      },
      {
        "Sequence": {
          "id": "A",
          "type_id": 0
        }
      },
      {
        "SpecialToken": {
          "id": "[SEP]",
          "type_id": 0
        }
      },
      {
        "Sequence": {
          "id": "B",
          "type_id": 1
        }
      },
      {
        "SpecialToken": {
          "id": "[SEP]",
          "type_id": 1
        }
      }
    ],
    "special_tokens": {
      "[CLS]": {
        "id": "[CLS]",
        "ids": [
          2791
        ],
        "tokens": [
          "[CLS]"
        ]
      },
      "[SEP]": {
        "id": "[SEP]",
        "ids": [
          15795
        ],
        "tokens": [
          "[SEP]"
        ]
      }
    }
  },
  "decoder": {
    "type": "Metaspace",
    "replacement": "▁",
    "prepend_scheme": "always",
    "split": true
  },
  "model": {
    "type": "Unigram",
    "unk_id": 11936,
    "vocab": [
      [
        "▁uyandıgım",
        -11.139084694724634
      ],
      [
        "▁adem",
        -11.142422762905088
      ],
      [
        "▁anacıgı",
        -11.518695698636607
      ],
      [
        "▁isinde",
        -10.498467673164587
      ],
      [
        "5.2",
        -9.764068700776681
      ],
      [
        "▁kaval",
        -11.042569359845963
      ],
      [
        "15.5",
        -12.536137799814876
      ],
      [
        "▁donmustu",
        -10.651040758102088
      ],
      [
        "▁bezi",
        -10.895324550331633
      ],
      [
        "▁isletmeleri",
        -10.990389434691041
      ],
      [
        "▁vardı",
        -7.5146390785330395
      ],
      [
        "▁franchis",
        -11.03893924852477
      ],
      [
        "9.8",
        -10.89906866214311
      ],
      [
        "ısı",
        -11.051820260445027
      ],
      [
        "▁canakkale'",
        -11.884571155586062
      ],
      [
        "▁biri",
        -7.301416674230442
      ],
      [
        "r",
        -5.78881084552055
      ],
      [
        "▁uyumlu",
        -10.282757600356707
      ],
      [
        "▁oneri",
        -10.355716406777223
      ],
      [
        "▁secim",
        -9.071401870727476
      ],
      [
        "▁kabın",
        -10.787819205176906
      ],
      [
        "▁tomurcuklar",
        -11.884571098604779
      ],
      [
        "▁gemiler",
        -10.949379709119642
      ],
      [
        "▁davetiye",
        -10.864784851681055
      ],
      [
        "▁girmisti",
        -11.429381830733535
      ],
      [
        "andre",
        -11.167199634324724
      ],
      [
        "▁tepsiy",
        -11.574248227778714
      ],
      [
        "▁molekul",
        -11.517905174010725
      ],
      [
        "▁4.3",
        -10.313143091053458
      ],
      [
        "▁uzuyor",
        -11.40872647122224
      ],
      [
        "▁talihsiz",
        -11.051040491591879
      ],
      [
        "▁tarafı",
        -9.611400020750395
      ],
      [
        "▁anlar",
        -10.327098017967227
      ],
      [
        "▁microsoft",
        -11.517904415994465
      ],
      [
        "▁uzer",
        -11.547788665644136
      ],
      [
        "▁amerika'da",
        -10.381177228719778
      ],
      [
        "▁gemici",
        -11.610570926298209
      ],
      [
        "▁kazanmıs",
        -10.473551285946995
      ],
      [
        "▁karısmıstı",
        -11.577787699177959
      ],
      [
        "▁tutsu",
        -11.576239751752992
      ],
      [
        "▁carpan",
        -10.865606654054977
      ],
      [
        "▁nevi",
        -10.510004157001298
      ],
      [
        "si",
        -10.840103462583878
      ],
      [
        "▁rakamlar",
        -9.77960610858144
      ],
      [
        "ch",
        -8.880201161965362
      ],
      [
        "▁kelime",
        -9.049753376219643
      ],
      [
        "▁cıkarırdı",
        -11.692725332897874
      ],
      [
        "▁gozler",
        -10.107429773404636
      ],
      [
        "▁alım",
        -8.23168326581744
      ],
      [
        "vat",
        -10.96739008110492
      ],
      [
        "▁alacagı",
        -11.005216016194167
      ],
      [
        "▁yı",
        -9.218269508698501
      ],
      [
        "▁whitbread",
        -11.517904411283862
      ],
      [
        "▁lambasını",
        -11.526774377102626
      ],
      [
        "ion",
        -10.842231696781681
      ],
      [
        "53.9",
        -12.242394743952882
      ],
      [
        "▁bocek",
        -10.156437196218654
      ],
      [
        "▁obur",
        -9.53005915109374
      ],
      [
        "▁mobilya",
        -10.23536827320208
      ],
      [
        "▁piyasası",
        -9.271598805192307
      ],
      [
        "▁%3.8",
        -12.229868964157198
      ],
      [
        "▁sicak",
        -9.879326171513938
      ],
      [
        "▁koyar",
        -10.395817502183844
      ],
      [
        "▁gorusmelerin",
        -10.619666618708605
      ],
      [
        "gide",
        -10.842106958864056
      ],
      [
        "▁olmek",
        -10.974494115208266
      ],
      [
        "▁yapıyorlar",
        -10.43927378401707
      ],
      [
        "▁dokundu",
        -10.46984464037716
      ],
      [
        "▁karsili",
        -10.278116368994754
      ],
      [
        "▁724",
        -11.853130747864576
      ],
      [
        "▁insanlar",
        -7.912497111149387
      ],
      [
        "▁hafif",
        -8.327784872089783
      ],
      [
        "932",
        -11.434124268325117
      ],
      [
        "▁dikil",
        -10.440120345939281
      ],
      [
        "▁degilsin",
        -10.284233516698823
      ],
      [
        "▁parasını",
        -9.63242182807357
      ],
      [
        "▁yanık",
        -10.470504603903926
      ],
      [
        "▁doları",
        -8.422993984720808
      ],
      [
        "▁mizac",
        -11.250177467024887
      ],
      [
        "herkes",
        -10.467226210441869
      ],
      [
        "▁biliyoru",
        -9.671336419488338
      ],
      [
        "▁kalmayacak",
        -11.520680350413734
      ],
      [
        "▁tesekkur",
        -8.280008076477102
      ],
      [
        "b",
        -8.413514485962198
      ],
      [
        "▁rus",
        -9.69763375096323
      ],
      [
        "▁tarife",
        -9.796670449511614
      ],
      [
        "dı",
        -6.770501490693391
      ],
      [
        "▁harcamalar",
        -10.635360189978764
      ],
      [
        "▁getirilme",
        -10.92029415994381
      ],
      [
        "▁patladı",
        -11.188468665273815
      ],
      [
        "▁gerceg",
        -11.322592996000818
      ],
      [
        "▁cıkmadı",
        -10.740765789543076
      ],
      [
        "▁981.",
        -11.602400666508135
      ],
      [
        "▁cinayet",
        -10.040739037975824
      ],
      [
        "gin",
        -9.841412413010454
      ],
      [
        "▁ovdu",
        -11.52266744017522
      ],
      [
        "▁trabzonspor",
        -11.138976548269731
      ],
      [
        "▁kostu",
        -10.14870579241842
      ],
      [
        "▁west",
        -10.593075250446512
      ],
      [
        "▁mi",
        -8.932009584567428
      ],
      [
        "▁rekabetci",
        -11.379204249948259
      ],
      [
        "▁yenilikler",
        -11.808986670349153
      ],
      [
        "lık",
        -6.720606111623054
      ],
      [
        "▁yerlerde",
        -9.8612124244383
      ],
      [
        "▁halat",
        -10.514838416408864
      ],
      [
        "▁ovustur",
        -11.51797904431551
      ],
      [
        "▁federal",
        -8.54256988670621
      ],
      [
        "▁camasır",
        -9.746595621167915
      ],
      [
        "▁vergisi",
        -10.126878567886012
      ],
      [
        "▁elmas",
        -10.505014144829893
      ],
      [
        "▁rub",
        -10.811538621277103
      ],
      [
        "▁fukara",
        -11.250052207557033
      ],
      [
        "▁yurtdısında",
        -10.888367751249444
      ],
      [
        "▁musamba",
        -11.685518046041553
      ],
      [
        "▁tolga",
        -10.864694436779923
      ],
      [
        "▁ogrenince",
        -11.68598073424934
      ],
      [
        "2.51",
        -12.100379456515972
      ],
      [
        "▁gundemin",
        -11.525843001684098
      ],
      [
        "▁kazanımlar",
        -11.535651681638786
      ],
      [
        "▁sutlu",
        -11.384687809038999
      ],
      [
        "▁olabilecek",
        -10.593434586108103
      ],
      [
        "▁florio",
        -11.684600964253177
      ],
      [
        "▁oyunda",
        -10.93675944982359
      ],
      [
        "▁panel",
        -11.043293349699226
      ],
      [
        "▁sunucu",
        -11.421169611914365
      ],
      [
        "▁zumrut",
        -11.517904411672125
      ],
      [
        "▁soylendi",
        -10.443979913865494
      ],
      [
        "ince",
        -8.58402524112509
      ],
      [
        "▁fersah",
        -11.517906184158427
      ],
      [
        "▁mahsulu",
        -11.524547369388712
      ],
      [
        "▁sallıyor",
        -11.212156245821006
      ],
      [
        "▁batar",
        -11.039638071928069
      ],
      [
        "▁mektuplar",
        -11.193840231757617
      ],
      [
        "▁yoksulluk",
        -11.141451421146076
      ],
      [
        "▁83.3",
        -11.390595809297345
      ],
      [
        "▁arnavut",
        -11.684571078246682
      ],
      [
        "▁kutuk",
        -10.768694192958183
      ],
      [
        "▁fonlar",
        -9.80286855637345
      ],
      [
        "▁tanımadıgı",
        -11.685782867238693
      ],
      [
        "▁yetistirdi",
        -11.518769625099184
      ],
      [
        "▁sukur",
        -10.649748133043873
      ],
      [
        "▁altını",
        -10.552242572483507
      ],
      [
        "▁istersen",
        -10.85693548786156
      ],
      [
        "▁dilenci",
        -11.375326358351575
      ],
      [
        "▁bahceli",
        -11.16821314144267
      ],
      [
        "▁dikis",
        -10.597680786213475
      ],
      [
        "▁goturuyor",
        -11.228237454462086
      ],
      [
        "▁karanlıgın",
        -11.405805203861771
      ],
      [
        "yı",
        -6.426823794069718
      ],
      [
        "▁tembih",
        -11.138939326784893
      ],
      [
        "▁nufus",
        -10.004410798373357
      ],
      [
        "▁sovyet",
        -9.653610056310406
      ],
      [
        "▁portfoyu",
        -11.15410060943236
      ],
      [
        "▁cemiyet",
        -10.841759169578797
      ],
      [
        "1990",
        -12.518884450702794
      ],
      [
        "▁bit",
        -9.713862441856563
      ],
      [
        "▁parasız",
        -11.194622863348485
      ],
      [
        "▁uzanmıs",
        -11.566984278735978
      ],
      [
        "▁severi",
        -10.887838453428888
      ],
      [
        "▁tibet'i",
        -11.704865193460968
      ],
      [
        "▁kapalı",
        -8.965967885796077
      ],
      [
        "▁degistire",
        -10.881899828469887
      ],
      [
        "nce",
        -9.393718381887378
      ],
      [
        "▁seattle'",
        -9.062592130123992
      ],
      [
        "ılır",
        -9.250153548738936
      ],
      [
        "▁rahip",
        -11.68458498904289
      ],
      [
        "▁23.",
        -10.550791494771143
      ],
      [
        "▁tekstil",
        -11.250049431945703
      ],
      [
        "▁gelisen",
        -10.530713246284193
      ],
      [
        "▁na",
        -9.053227735260641
      ],
      [
        "▁plani",
        -9.548330343058936
      ],
      [
        ".05",
        -12.166734400195896
      ],
      [
        "▁gıda",
        -9.940756126870333
      ],
      [
        "▁yapmayı",
        -9.274802201017202
      ],
      [
        "▁gide",
        -10.406542214185873
      ],
      [
        "▁istikrarsız",
        -11.375719724976408
      ],
      [
        "▁39.5",
        -10.180672117659016
      ],
      [
        "▁doktorlar",
        -10.396717505989452
      ],
      [
        "dogu'da",
        -11.872189223428473
      ],
      [
        "mıyordu",
        -9.888941460152733
      ],
      [
        "▁268",
        -10.451941589532739
      ],
      [
        "▁gormemis",
        -10.184807926519934
      ],
      [
        "▁yoneticilerin",
        -10.82977648253297
      ],
      [
        "▁guncel",
        -10.864814274910142
      ],
      [
        "▁bolme",
        -11.147467367186934
      ],
      [
        "agı",
        -9.992656147959854
      ],
      [
        "▁milli",
        -8.66079127003854
      ],
      [
        "▁somur",
        -10.970583567375268
      ],
      [
        "sen",
        -9.858137960481185
      ],
      [
        "▁valla",
        -11.51126056297643
      ],
      [
        "▁",
        -2.091718453959686
      ],
      [
        "mısın",
        -13.114509106217334
      ],
      [
        "▁deyimi",
        -10.960701767569624
      ],
      [
        "▁basardı",
        -10.95747594995781
      ],
      [
        "▁gerekmiyor",
        -11.37990549902769
      ],
      [
        "▁mey",
        -11.43200927638642
      ],
      [
        "▁plc",
        -11.685122183745532
      ],
      [
        "▁cihazlar",
        -11.573497783775915
      ],
      [
        "▁sizler",
        -8.499743326726717
      ],
      [
        "▁sunacak",
        -11.690122458747274
      ],
      [
        "'te",
        -9.120248514659556
      ],
      [
        "▁vali",
        -9.634888001311682
      ],
      [
        "▁84.",
        -11.231165489658233
      ],
      [
        "▁135.",
        -13.221498620451866
      ],
      [
        "▁unutmayın",
        -11.565072245004176
      ],
      [
        "59",
        -11.028219363570482
      ],
      [
        "▁devi",
        -11.280509226903314
      ],
      [
        "▁saglıgını",
        -11.098103680917722
      ],
      [
        "▁kıyıl",
        -11.119182778970721
      ],
      [
        "7.12",
        -12.459173103687746
      ],
      [
        "▁orgu",
        -10.52660154183239
      ],
      [
        "▁maharetl",
        -11.667153153941442
      ],
      [
        "▁degisiklik",
        -9.810978875746411
      ],
      [
        "▁107",
        -9.958900496961556
      ],
      [
        "▁saldırıyor",
        -11.597432725459363
      ],
      [
        "▁atolye",
        -10.864728322595102
      ],
      [
        "▁kıkır",
        -11.375047445699405
      ],
      [
        "55.8",
        -11.69810632237733
      ],
      [
        "▁ugrasıyordu",
        -11.690269120028931
      ],
      [
        "▁kelimeler",
        -10.445328092110316
      ],
      [
        "▁angeles'te",
        -10.002701073816798
      ],
      [
        "▁mutfak",
        -10.93516557282792
      ],
      [
        "▁bale",
        -11.12552821897814
      ],
      [
        "▁gecirebil",
        -11.842187167157105
      ],
      [
        "▁a.b.d",
        -11.134382782171686
      ],
      [
        "▁hesaplama",
        -11.078128786101631
      ],
      [
        "▁duzen",
        -9.689998774414
      ],
      [
        "▁magara",
        -10.865232993212924
      ],
      [
        "▁36",
        -9.558374476628074
      ],
      [
        "▁ucyuz",
        -12.218297789573054
      ],
      [
        "▁edebiliyor",
        -11.685804581153867
      ],
      [
        "▁as",
        -12.256034757898295
      ],
      [
        "ri",
        -8.456590671651242
      ],
      [
        "▁toplanma",
        -11.06691253903582
      ],
      [
        "▁sok",
        -9.417830043714103
      ],
      [
        "▁opsiyonu",
        -11.023788923154287
      ],
      [
        "▁zapt",
        -11.139027059492099
      ],
      [
        "▁fed",
        -10.29999673417652
      ],
      [
        "▁binler",
        -10.071407319738558
      ],
      [
        "▁yım",
        -8.74331923090018
      ],
      [
        "am",
        -10.132659638535351
      ],
      [
        "7.",
        -12.583418245522928
      ],
      [
        "▁1983",
        -10.347090297617484
      ],
      [
        "inle",
        -13.689984259981207
      ],
      [
        "▁journal",
        -10.040733380010316
      ],
      [
        "▁kenan",
        -11.375356783333723
      ],
      [
        "▁turedi",
        -11.37706362535462
      ],
      [
        "▁okurdu",
        -10.724219985584032
      ],
      [
        "▁adamı",
        -9.229095285810544
      ],
      [
        "▁ber",
        -9.35475253262349
      ],
      [
        "▁yasadıklarını",
        -11.70238357893556
      ],
      [
        "▁sabaha",
        -10.353502329545156
      ],
      [
        "▁otu",
        -9.62229282447634
      ],
      [
        "▁misi",
        -11.75121553250029
      ],
      [
        "▁tuttugu",
        -10.339426471754344
      ],
      [
        "▁mutfakta",
        -11.053213083769064
      ],
      [
        "▁tarihleri",
        -11.00697159090799
      ],
      [
        "▁acma",
        -10.55910492617346
      ],
      [
        "▁yuzeysel",
        -11.685316325334409
      ],
      [
        "664",
        -12.797485487857985
      ],
      [
        "198",
        -13.651276886405912
      ],
      [
        "▁etmisler",
        -10.656444990652641
      ],
      [
        "▁opuyor",
        -11.582973987617844
      ],
      [
        "▁alıcıları",
        -11.156767695490725
      ],
      [
        "▁32.1",
        -12.472587032912799
      ],
      [
        "▁yanar",
        -10.917739111867487
      ],
      [
        "labildi",
        -11.528709215703312
      ],
      [
        "▁basarılı",
        -9.04421142406527
      ],
      [
        "▁ikisi",
        -9.392721718283836
      ],
      [
        "sızın",
        -10.327846780123101
      ],
      [
        "kırk",
        -10.654917249295902
      ],
      [
        "▁okur",
        -9.823992016301464
      ],
      [
        "let",
        -9.794215846825294
      ],
      [
        "▁da",
        -9.42085224595091
      ],
      [
        "▁diktator",
        -10.86469948586592
      ],
      [
        "▁yukledi",
        -11.331343297355259
      ],
      [
        "bunun",
        -9.6688069440048
      ],
      [
        "▁ecnebi",
        -11.8845723470443
      ],
      [
        "378.",
        -12.190477552057775
      ],
      [
        "ra",
        -8.28792139597378
      ],
      [
        "ce",
        -6.115154866484684
      ],
      [
        "gimiz",
        -10.423125727388728
      ],
      [
        "▁mudafaa",
        -11.884571193291851
      ],
      [
        "▁etmiyor",
        -9.45924125832227
      ],
      [
        "w",
        -8.806678124698136
      ],
      [
        "▁ali'",
        -10.734741638234862
      ],
      [
        "▁kocası",
        -10.026653361892123
      ],
      [
        "▁iniyor",
        -11.025878584531904
      ],
      [
        "▁aldat",
        -11.153589593604488
      ],
      [
        "▁saptı",
        -10.711490597485863
      ],
      [
        "▁otobusu",
        -11.449259986114585
      ],
      [
        "▁kasparov",
        -11.517904411603611
      ],
      [
        "▁1953",
        -11.395062560840012
      ],
      [
        "▁karakter",
        -9.972910906613498
      ],
      [
        "▁teslim",
        -9.447660805857423
      ],
      [
        "▁katolik",
        -11.250067057126564
      ],
      [
        "▁oranında",
        -9.719481739228613
      ],
      [
        "yers",
        -11.59963173058613
      ],
      [
        "▁hosgoru",
        -10.787770858493477
      ],
      [
        "▁korunma",
        -10.896096872681044
      ],
      [
        "▁gazetelerin",
        -10.9349653910741
      ],
      [
        "▁ergen",
        -11.250987847057665
      ],
      [
        "▁yasadik",
        -11.140824933532409
      ],
      [
        "▁bazı",
        -5.798457711104905
      ],
      [
        "250000",
        -9.68300493586747
      ],
      [
        "▁imkan",
        -9.93069336715408
      ],
      [
        "▁sokacak",
        -11.041962594878271
      ],
      [
        "▁100.",
        -11.079337221797108
      ],
      [
        "28.4",
        -12.273484075597148
      ],
      [
        "chester",
        -11.51788271374073
      ],
      [
        "▁buyume",
        -8.959540071376036
      ],
      [
        "ona",
        -9.617245440447812
      ],
      [
        "▁bulunmakta",
        -10.459738752118717
      ],
      [
        "val",
        -11.030063118046424
      ],
      [
        "▁kolu",
        -10.230034292257443
      ],
      [
        "▁amaclı",
        -10.861908688577968
      ],
      [
        "▁habersiz",
        -11.049049298238213
      ],
      [
        "▁police",
        -11.378898782842706
      ],
      [
        "▁hareket",
        -7.991179526521071
      ],
      [
        "▁indirim",
        -9.834277016534571
      ],
      [
        "▁kala",
        -10.380254636935419
      ],
      [
        "▁aynada",
        -11.078084408033213
      ],
      [
        "▁8.",
        -10.286904554380493
      ],
      [
        "▁cevat",
        -11.684734965484662
      ],
      [
        "▁yazan",
        -10.340873506346336
      ],
      [
        "▁9.",
        -11.565947001500657
      ],
      [
        "▁sokak",
        -9.67653077565181
      ],
      [
        "ından",
        -8.229452972012137
      ],
      [
        "▁odemeleri",
        -10.55886393930898
      ],
      [
        "▁bulamadı",
        -10.57683063109307
      ],
      [
        "@",
        -12.809526790838987
      ],
      [
        "▁ustlen",
        -10.702199979845588
      ],
      [
        "hard",
        -11.157071179125166
      ],
      [
        "▁kullanisli",
        -11.138953503522938
      ],
      [
        "lendiriyor",
        -10.719543660593459
      ],
      [
        "▁kullanan",
        -10.590860682158375
      ],
      [
        "▁kimseler",
        -10.912020597189407
      ],
      [
        "▁levent",
        -10.94803103002614
      ],
      [
        "▁2600",
        -11.306328183170812
      ],
      [
        "▁yuvarlandı",
        -11.545346084180888
      ],
      [
        "▁kıvrı",
        -11.862547446543356
      ],
      [
        "▁veril",
        -9.973970717813291
      ],
      [
        "▁inc",
        -9.044387980042195
      ],
      [
        "▁kırky",
        -12.883581274834597
      ],
      [
        "▁belirledi",
        -11.488810563788448
      ],
      [
        "▁5.4",
        -11.167772566809141
      ],
      [
        "▁alamay",
        -11.810498989907343
      ],
      [
        "▁haziran",
        -9.175889947264395
      ],
      [
        "▁oper",
        -10.650413477116206
      ],
      [
        "lak",
        -9.52405438320698
      ],
      [
        "▁anlatıyor",
        -10.243392351874181
      ],
      [
        "▁dusurmus",
        -11.263359776199627
      ],
      [
        "▁kurtulus",
        -10.483131836497332
      ],
      [
        "▁kesme",
        -10.326264345622487
      ],
      [
        "▁%0.3",
        -11.442857597144096
      ],
      [
        "▁zuhur",
        -11.884571116142109
      ],
      [
        "▁sulu",
        -10.71361314799468
      ],
      [
        "▁umudu",
        -10.649685951915892
      ],
      [
        "ren",
        -8.672080989529746
      ],
      [
        "▁heyecan",
        -9.404869052407486
      ],
      [
        "▁bana",
        -9.224598685146487
      ],
      [
        "▁hakkını",
        -10.40067056698338
      ],
      [
        "▁kulfet",
        -11.038937118953104
      ],
      [
        "▁caddesi'n",
        -11.536363528295492
      ],
      [
        "▁ekonomist",
        -11.135534226175388
      ],
      [
        "▁utan",
        -10.526017413194452
      ],
      [
        "▁kazanc",
        -8.622233000927853
      ],
      [
        "▁yapardı",
        -10.600207649647832
      ],
      [
        "▁gam",
        -10.470989902822065
      ],
      [
        "▁tutarı",
        -11.04438622793252
      ],
      [
        "▁barınak",
        -11.375553846737645
      ],
      [
        "▁gosterdi",
        -8.768958904249487
      ],
      [
        "▁ben",
        -8.438680538942386
      ],
      [
        "▁10'un",
        -11.39156777953919
      ],
      [
        "▁376",
        -12.667332551018434
      ],
      [
        "3.1",
        -13.168588450855664
      ],
      [
        "▁akar",
        -10.64424528391258
      ],
      [
        "▁dilim",
        -9.491891285720264
      ],
      [
        "▁yasamaya",
        -10.553297079307058
      ],
      [
        "▁puanlama",
        -9.899562614089673
      ],
      [
        "▁yukarı",
        -9.263688251753758
      ],
      [
        "▁icer",
        -9.053633244652634
      ],
      [
        "▁melek",
        -10.864789966713465
      ],
      [
        "▁hayvan",
        -9.640037325487958
      ],
      [
        "▁kazanmak",
        -10.53903681844669
      ],
      [
        "▁duyuru",
        -10.156037962654672
      ],
      [
        "▁halı",
        -10.093192195112671
      ],
      [
        "▁yakası",
        -10.759118179685265
      ],
      [
        "▁yıkıldı",
        -10.94634872122227
      ],
      [
        "▁sevdigimiz",
        -11.53738139656211
      ],
      [
        "▁memuriyet",
        -11.139662751299621
      ],
      [
        "▁altın",
        -8.020627734390786
      ],
      [
        ".38",
        -10.174863679830818
      ],
      [
        "▁kılık",
        -11.251940745613155
      ],
      [
        "▁yaradılıs",
        -10.948031526143044
      ],
      [
        "ını",
        -9.93219484581724
      ],
      [
        "▁optu",
        -11.548716577788271
      ],
      [
        "malıdır",
        -9.701350820475533
      ],
      [
        "▁arastırmacılar",
        -10.98319325458298
      ],
      [
        "▁york'",
        -9.983742989081483
      ],
      [
        "▁islem",
        -8.333083007777631
      ],
      [
        "▁sarsıntı",
        -10.694889202603438
      ],
      [
        "▁1600",
        -12.423094884313896
      ],
      [
        "▁mıs",
        -8.221270484658733
      ],
      [
        "gimiz",
        -9.429073651338033
      ],
      [
        "▁surdurecek",
        -11.375269385829895
      ],
      [
        "▁ha",
        -8.423620049332474
      ],
      [
        "▁talih",
        -10.998940798847157
      ],
      [
        "▁dikkat",
        -8.515606551590981
      ],
      [
        "▁geli",
        -9.156060737587328
      ],
      [
        "▁not",
        -9.70689422717608
      ],
      [
        "▁kerem",
        -9.870276680940503
      ],
      [
        "▁kabus",
        -11.139146976936818
      ],
      [
        "▁planimi",
        -11.247641373786347
      ],
      [
        "▁kesfedil",
        -11.579923705649126
      ],
      [
        "▁hazırlamıs",
        -11.202443121422462
      ],
      [
        "▁boyutunu",
        -11.533837179290998
      ],
      [
        "sidir",
        -10.198355577588938
      ],
      [
        "▁calısmalar",
        -10.70267773776595
      ],
      [
        "▁yakmıs",
        -11.500777143058862
      ],
      [
        "▁seviyelerinde",
        -11.700066288691248
      ],
      [
        "▁isimler",
        -10.621248705876353
      ],
      [
        "625",
        -9.9510386817464
      ],
      [
        "▁baslayan",
        -9.411980248968785
      ],
      [
        "▁planın",
        -10.552311242085434
      ],
      [
        "▁gitmis",
        -9.687028143265561
      ],
      [
        "▁muhasebeci",
        -11.403436900693205
      ],
      [
        "▁goremedik",
        -10.961446126809186
      ],
      [
        "▁alan",
        -8.275249010104059
      ],
      [
        "sini",
        -7.443746918526786
      ],
      [
        "▁brook",
        -10.528756770694566
      ],
      [
        "▁calıstık",
        -10.575660768700832
      ],
      [
        "▁ozge",
        -11.041277756743487
      ],
      [
        "▁42",
        -8.71427175632828
      ],
      [
        "▁merdivenlerde",
        -11.75269296480632
      ],
      [
        "▁tuccarlar",
        -10.083776802269629
      ],
      [
        "▁gobek",
        -10.649678380483843
      ],
      [
        "▁beter",
        -11.139826992585729
      ],
      [
        "▁komsular",
        -11.144475000540902
      ],
      [
        "▁olmadıgında",
        -11.68828592555643
      ],
      [
        "▁boyu",
        -9.444652519131319
      ],
      [
        "▁y",
        -8.273434547613135
      ],
      [
        "▁birisini",
        -9.720694529423557
      ],
      [
        "▁kini",
        -11.124209366613812
      ],
      [
        "▁zorlu",
        -10.015112074648382
      ],
      [
        "▁golge",
        -9.190197555324179
      ],
      [
        "▁raporunu",
        -11.291467240359115
      ],
      [
        "▁daiwa",
        -11.375054745570894
      ],
      [
        "▁degiller",
        -8.877110792197561
      ],
      [
        "4.12",
        -12.42407253364093
      ],
      [
        "▁birey",
        -11.002737340886258
      ],
      [
        "▁tesaduf",
        -10.224982085131574
      ],
      [
        "▁du",
        -9.92630094435692
      ],
      [
        "▁kupe",
        -10.32065160685632
      ],
      [
        ".59",
        -11.122353206492841
      ],
      [
        "▁kabiliyetlerini",
        -11.88457522585763
      ],
      [
        "me",
        -10.00146619084744
      ],
      [
        "▁ayak",
        -8.706986963674815
      ],
      [
        "u",
        -6.193341852457392
      ],
      [
        "▁karsı",
        -7.483433533709435
      ],
      [
        "▁buhar",
        -10.657066339768917
      ],
      [
        "▁hissi",
        -10.534608995548407
      ],
      [
        "▁mus",
        -8.161837378504368
      ],
      [
        "agı",
        -9.861863380179852
      ],
      [
        "▁222.8",
        -11.389816960310824
      ],
      [
        "▁11.5",
        -11.428652858727657
      ],
      [
        "▁komitesi",
        -10.090224851461333
      ],
      [
        "▁topları",
        -11.5132962287946
      ],
      [
        "▁magazin",
        -10.864694028048
      ],
      [
        "▁dese",
        -10.872039764606143
      ],
      [
        "▁88.",
        -12.998991579825352
      ],
      [
        "▁dokunuyor",
        -11.519258017418089
      ],
      [
        "▁kozmetik",
        -11.03893620432001
      ],
      [
        "▁goturme",
        -10.531011195855985
      ],
      [
        "▁op",
        -10.468557496062314
      ],
      [
        "▁bosal",
        -10.122306582780034
      ],
      [
        "▁ittifak",
        -10.636175543059082
      ],
      [
        "▁kazanan",
        -9.917035171213529
      ],
      [
        "▁sehrin",
        -9.376062935173763
      ],
      [
        "lamıs",
        -9.490071906113668
      ],
      [
        "▁yitirdi",
        -10.907657054924252
      ],
      [
        "▁sakarya",
        -11.039035663990228
      ],
      [
        "▁sozcugu",
        -11.135722480539442
      ],
      [
        "▁yarata",
        -11.436509731834011
      ],
      [
        "▁bankalar",
        -9.798194030898056
      ],
      [
        "har",
        -10.139797406036873
      ],
      [
        "▁fıstık",
        -10.7877741469839
      ],
      [
        "▁istatistik",
        -11.15326590427929
      ],
      [
        "▁yayınlandı",
        -11.542052577912095
      ],
      [
        "onu",
        -10.770598680957676
      ],
      [
        "eci",
        -11.809606674317424
      ],
      [
        "▁evinde",
        -9.901629870834237
      ],
      [
        "▁kore",
        -10.597146985532559
      ],
      [
        "▁japonya'",
        -10.200102454352633
      ],
      [
        "▁belgeler",
        -10.68474464184228
      ],
      [
        "▁saga",
        -10.161199014830583
      ],
      [
        "▁dinliyoru",
        -11.115167009677164
      ],
      [
        "▁yıldızlar",
        -11.27369127749474
      ],
      [
        "▁virginia",
        -11.517904529546817
      ],
      [
        "▁bebegi",
        -10.420198577315503
      ],
      [
        "▁sınırı",
        -10.656551371015022
      ],
      [
        "▁hizmetlerinde",
        -11.467485738790305
      ],
      [
        "▁gecme",
        -9.263099650614263
      ],
      [
        "▁kızdır",
        -10.804681296546155
      ],
      [
        "▁gururu",
        -11.05244427831158
      ],
      [
        "▁perdeler",
        -11.270106781889368
      ],
      [
        "▁yanıtladı",
        -11.378200404443131
      ],
      [
        "▁piyasalarını",
        -11.457886616121296
      ],
      [
        "▁azaldı",
        -10.271002272315332
      ],
      [
        "▁yararı",
        -11.303196785010016
      ],
      [
        "▁yumu",
        -10.806277605283256
      ],
      [
        "▁bell",
        -10.240838756577897
      ],
      [
        "▁poz",
        -10.729206872236945
      ],
      [
        "▁mobil",
        -11.371110944388368
      ],
      [
        "▁masmavi",
        -11.884571203172051
      ],
      [
        "▁azabı",
        -10.950349732761401
      ],
      [
        "▁aksi",
        -9.734251392348131
      ],
      [
        "▁yudum",
        -10.11359507813882
      ],
      [
        "▁kurumlar",
        -10.272821408741056
      ],
      [
        "▁vatanın",
        -11.221546247568094
      ],
      [
        "▁kanser",
        -10.651516463484445
      ],
      [
        "▁1.2",
        -8.718415128083837
      ],
      [
        "▁hali",
        -9.11310085551704
      ],
      [
        "▁cami",
        -9.72674131910615
      ],
      [
        "▁ulkeler",
        -10.99515024688154
      ],
      [
        "dugumuz",
        -11.07084509326149
      ],
      [
        "▁tarifeleri",
        -11.227750677018463
      ],
      [
        "▁18.4",
        -11.729208980808083
      ],
      [
        "48",
        -10.060704301262783
      ],
      [
        "▁dedemi",
        -11.629140467763815
      ],
      [
        "▁komsusu",
        -11.603892730924693
      ],
      [
        "▁benzeme",
        -11.667128550351096
      ],
      [
        "acagı",
        -9.23317594623926
      ],
      [
        "▁bugday",
        -9.793459892887496
      ],
      [
        "▁ustun",
        -8.09819232644065
      ],
      [
        "▁haketmedi",
        -11.375387874005815
      ],
      [
        "altı",
        -9.978190614409447
      ],
      [
        "▁mesru",
        -10.587187964055058
      ],
      [
        "▁oh",
        -10.986569682820516
      ],
      [
        "▁reddedildi",
        -11.317543302955478
      ],
      [
        "▁ceyiz",
        -11.375532299251894
      ],
      [
        "yuzatmıs",
        -12.38567976410765
      ],
      [
        "▁veto",
        -9.940832276656723
      ],
      [
        ":",
        -5.200922476649724
      ],
      [
        "▁alamet",
        -11.51805461757933
      ],
      [
        "▁olduruldu",
        -11.338550970571982
      ],
      [
        "▁aglamaya",
        -10.722400726766251
      ],
      [
        "▁nazlı",
        -11.259076243796743
      ],
      [
        "▁hacim",
        -9.27186507473961
      ],
      [
        "▁siyaset",
        -9.689361590024706
      ],
      [
        "▁kalkan",
        -7.652657243107468
      ],
      [
        "▁tema",
        -11.539249701811265
      ],
      [
        "▁140000",
        -11.79456469999507
      ],
      [
        "▁ogrendigi",
        -10.901340296687025
      ],
      [
        "72.6",
        -12.409350435061317
      ],
      [
        "▁talim",
        -11.519248058210675
      ],
      [
        "▁seferinde",
        -10.72200759639123
      ],
      [
        "▁zarf",
        -10.64451395612435
      ],
      [
        "▁ikaz",
        -11.37505035191382
      ],
      [
        "▁secimlerde",
        -11.190880591936752
      ],
      [
        "▁zammı",
        -11.70869164419952
      ],
      [
        "▁dovul",
        -11.37508688601261
      ],
      [
        "▁veremem",
        -10.528186867032955
      ],
      [
        "7.9",
        -11.552395972652063
      ],
      [
        "▁yar",
        -9.646296996268243
      ],
      [
        "▁kelepir",
        -11.375047323755627
      ],
      [
        "nde",
        -8.748170652684273
      ],
      [
        "▁gayrimenkul",
        -9.61790579069152
      ],
      [
        "▁musalla",
        -11.375059325537325
      ],
      [
        "▁213",
        -11.232049432849644
      ],
      [
        "▁gorusul",
        -11.426986570646003
      ],
      [
        "d",
        -9.781817406421386
      ],
      [
        "▁surmedi",
        -11.391519323400713
      ],
      [
        "▁seyretme",
        -10.948400835908128
      ],
      [
        "▁atila",
        -10.960247064643042
      ],
      [
        "▁ucusları",
        -6.266849696828469
      ],
      [
        "▁yalnız",
        -7.513754576998795
      ],
      [
        "▁detayları",
        -10.647387821210607
      ],
      [
        "ye",
        -5.571815427372566
      ],
      [
        "▁oyuncu",
        -9.688276781969357
      ],
      [
        "▁buyru",
        -11.675361509040702
      ],
      [
        "▁selam",
        -9.850299300939554
      ],
      [
        "▁ekim",
        -8.811570104712231
      ],
      [
        "tacak",
        -10.634422607258283
      ],
      [
        "50",
        -8.746174993512678
      ],
      [
        "▁hell",
        -11.531340446775785
      ],
      [
        "▁tukenme",
        -10.721983564948417
      ],
      [
        "▁egleniyor",
        -11.52532283962783
      ],
      [
        "5'",
        -11.183662265726257
      ],
      [
        "▁hazine'",
        -10.685711333397615
      ],
      [
        "▁belirlenir",
        -11.518323475663246
      ],
      [
        "▁salomon",
        -10.864694498988111
      ],
      [
        "▁yonetme",
        -10.715087748977792
      ],
      [
        "madan",
        -9.213751060664343
      ],
      [
        "es",
        -12.629489403812467
      ],
      [
        "▁380",
        -11.41739982774967
      ],
      [
        "▁kurbanı",
        -11.260872469718803
      ],
      [
        "▁1999",
        -9.957080978253066
      ],
      [
        "▁115",
        -10.738518260013485
      ],
      [
        "▁bob",
        -10.53723191804655
      ],
      [
        "▁yun",
        -10.024972769823284
      ],
      [
        "▁ltd.",
        -10.366736167076994
      ],
      [
        "▁gerc",
        -10.379356324378431
      ],
      [
        "▁karsılıgı",
        -10.825006459519196
      ],
      [
        "▁asya'da",
        -11.5310602840558
      ],
      [
        "▁perdeleri",
        -10.75614109763514
      ],
      [
        "▁tereyagı",
        -11.038936911236037
      ],
      [
        "▁harcay",
        -11.712662800956238
      ],
      [
        "▁yaratır",
        -10.72555181106047
      ],
      [
        "▁corry",
        -11.139163085802773
      ],
      [
        "mek",
        -8.469474904687889
      ],
      [
        "▁toronto'",
        -9.561903170291906
      ],
      [
        "▁iadesi",
        -11.528254291385753
      ],
      [
        "▁kalsın",
        -10.867595431702586
      ],
      [
        "▁cadırı",
        -11.260959938403687
      ],
      [
        "▁dortlu",
        -11.510420925069134
      ],
      [
        "▁cftc",
        -11.88457110652539
      ],
      [
        "54000",
        -12.216780625760393
      ],
      [
        "▁gecirdik",
        -10.050639480177956
      ],
      [
        "indeki",
        -10.30058017249231
      ],
      [
        "ebilir",
        -8.279666938408486
      ],
      [
        "▁baslangıcı",
        -10.628052726067562
      ],
      [
        "▁safha",
        -10.76881923055221
      ],
      [
        "▁gogu",
        -11.380919369749176
      ],
      [
        "▁kamcı",
        -11.375847537327997
      ],
      [
        "▁kaldi",
        -6.810458755007214
      ],
      [
        "▁taviz",
        -11.518587691610204
      ],
      [
        "▁tacoma",
        -10.946289202693663
      ],
      [
        "▁bırakmadı",
        -10.82527773710644
      ],
      [
        "▁gudu",
        -10.600251621010877
      ],
      [
        "▁odeme",
        -9.114067312832475
      ],
      [
        "▁yetkili",
        -9.795147107454833
      ],
      [
        "▁hedef",
        -9.334738943989601
      ],
      [
        "▁4'te",
        -10.113694522063462
      ],
      [
        "▁lacivert",
        -10.370149396548761
      ],
      [
        "▁ikisin",
        -12.421515450782177
      ],
      [
        "▁musterileri",
        -10.272544268812165
      ],
      [
        "▁cicegi",
        -10.664638580113964
      ],
      [
        "ors",
        -11.268713780080219
      ],
      [
        "877",
        -11.386383757914938
      ],
      [
        "▁yarattıgı",
        -11.244903624146534
      ],
      [
        "▁ailesini",
        -10.677416157268992
      ],
      [
        "▁nobetci",
        -10.589741202995533
      ],
      [
        "▁oksadı",
        -11.321270714777821
      ],
      [
        "▁hayatın",
        -9.460676626251612
      ],
      [
        "▁hac",
        -10.653820842927765
      ],
      [
        "▁degme",
        -11.022332057034527
      ],
      [
        "▁li",
        -7.775344169606043
      ],
      [
        "▁tecessus",
        -11.375047270368075
      ],
      [
        "kendileri",
        -12.612101442143361
      ],
      [
        "▁baba",
        -8.376681522029248
      ],
      [
        "▁yapması",
        -9.857844903852481
      ],
      [
        "yse",
        -9.214875685776768
      ],
      [
        "▁degisikligi",
        -10.586642166219553
      ],
      [
        "▁cırpı",
        -10.556808680093933
      ],
      [
        "▁kooperatif",
        -11.684571077950178
      ],
      [
        "▁adamcagız",
        -10.651489524282377
      ],
      [
        "▁olcul",
        -10.823600764224874
      ],
      [
        "▁gelecegini",
        -10.441842439127315
      ],
      [
        "▁afrika'da",
        -11.546469681547439
      ],
      [
        "▁87",
        -11.447479691159176
      ],
      [
        "▁dekorasyon",
        -10.280201388852564
      ],
      [
        "▁unuttu",
        -10.335929810614768
      ],
      [
        "▁yatırımcını",
        -10.989960771528676
      ],
      [
        "▁boldu",
        -10.769213821545392
      ],
      [
        "mezdi",
        -10.654912328312333
      ],
      [
        "▁kagıt",
        -8.825997392392003
      ],
      [
        "13",
        -9.909916893054147
      ],
      [
        "cılık",
        -9.427917024978953
      ],
      [
        "▁isbası",
        -11.384456144130521
      ],
      [
        "85'",
        -12.443453483723143
      ],
      [
        "▁giderse",
        -11.52091813127436
      ],
      [
        "▁celis",
        -11.374177077808966
      ],
      [
        "▁saglamak",
        -9.775858590291357
      ],
      [
        "'ın",
        -11.605840980532436
      ],
      [
        "3/",
        -10.921871214404954
      ],
      [
        "▁dalgalar",
        -10.966583900977483
      ],
      [
        "▁4.8",
        -10.58612821686715
      ],
      [
        "▁okudu",
        -9.643296034941574
      ],
      [
        "▁dinlen",
        -10.741301422885492
      ],
      [
        "▁l.",
        -10.372057530303993
      ],
      [
        "▁adın",
        -10.01860442256395
      ],
      [
        "ic",
        -10.349120093307661
      ],
      [
        "▁yardimsever",
        -11.884571159015849
      ],
      [
        "▁degistirdi",
        -10.275683921217265
      ],
      [
        "lıkla",
        -9.533049336982616
      ],
      [
        "▁onculuk",
        -11.251512882057376
      ],
      [
        "▁m80",
        -11.138974263254113
      ],
      [
        "▁ulasan",
        -10.371633270921347
      ],
      [
        "▁kalkacak",
        -11.253105501205043
      ],
      [
        "▁katsayı",
        -11.684609709719323
      ],
      [
        "▁yılan",
        -10.718872157216774
      ],
      [
        "▁sert",
        -8.715980440297084
      ],
      [
        "port",
        -10.378723627673454
      ],
      [
        "▁77",
        -9.84103054110708
      ],
      [
        "▁girer",
        -9.316711316860768
      ],
      [
        ":0",
        -10.853066509912102
      ],
      [
        "▁pennsylvania",
        -11.884572702934088
      ],
      [
        "▁bagrı",
        -10.84471808535524
      ],
      [
        "▁isler",
        -9.086946150132011
      ],
      [
        "▁anlamıyor",
        -10.95863706315571
      ],
      [
        "▁ucuslarınız",
        -10.918444473361966
      ],
      [
        "▁900",
        -9.844393640014774
      ],
      [
        "k",
        -8.180812786693187
      ],
      [
        "▁soylenme",
        -11.574059125711706
      ],
      [
        "▁plan",
        -8.660059221440434
      ],
      [
        "▁pudra",
        -11.250047271683169
      ],
      [
        "▁ciftciler",
        -10.62305537291039
      ],
      [
        "dordu",
        -13.63824665503071
      ],
      [
        "ecekti",
        -10.205314931146098
      ],
      [
        "▁tercume",
        -11.684586282550915
      ],
      [
        "▁yaptıgını",
        -9.750844677186638
      ],
      [
        "▁demet",
        -10.640825764259986
      ],
      [
        "▁sıgın",
        -10.156533870283084
      ],
      [
        "▁dibe",
        -11.140052781133683
      ],
      [
        "▁104",
        -10.462214676458556
      ],
      [
        "▁pasifi",
        -10.891939975136403
      ],
      [
        "ende",
        -12.866579831806824
      ],
      [
        "▁trans",
        -11.039019689171809
      ],
      [
        "▁kullanacak",
        -11.526588171680539
      ],
      [
        "▁baskaların",
        -10.43710651006889
      ],
      [
        "▁akrep",
        -11.138938417178615
      ],
      [
        "▁duzlem",
        -11.872228838682728
      ],
      [
        "▁yapabilecegim",
        -11.474912995145683
      ],
      [
        "▁heybet",
        -11.521645093804826
      ],
      [
        "▁trakya",
        -11.68458816349596
      ],
      [
        "▁zil",
        -10.107589672617532
      ],
      [
        "meli",
        -9.516499181258231
      ],
      [
        "▁yureginde",
        -11.257845641442735
      ],
      [
        "▁reform",
        -10.227064872148006
      ],
      [
        "61",
        -13.22544194369143
      ],
      [
        "▁ozetle",
        -10.711036454454455
      ],
      [
        "▁bugun",
        -7.583510101750251
      ],
      [
        "veriyor",
        -11.530312246624387
      ],
      [
        "▁tenha",
        -10.528390034490052
      ],
      [
        "▁uctu",
        -10.718943660153387
      ],
      [
        "tech",
        -11.30434512515782
      ],
      [
        "▁suriye",
        -11.691143910656765
      ],
      [
        "▁332",
        -12.046173863642828
      ],
      [
        "▁yan",
        -7.908578816685512
      ],
      [
        "▁yapısı",
        -10.118562443213085
      ],
      [
        "▁duyma",
        -10.342449251811765
      ],
      [
        "▁cocuklugum",
        -10.790200586260138
      ],
      [
        "▁calısmaların",
        -11.09266552779883
      ],
      [
        "▁yarıs",
        -10.279023555069973
      ],
      [
        "▁goruyordu",
        -10.380281195643645
      ],
      [
        "▁iktidarı",
        -11.08821555760306
      ],
      [
        "▁belgeleri",
        -10.605040658141695
      ],
      [
        "▁marcos",
        -11.250072197356797
      ],
      [
        "▁yaratıyor",
        -10.876365017425826
      ],
      [
        "▁215",
        -12.12453234116495
      ],
      [
        "▁nine",
        -10.28553239403826
      ],
      [
        "▁gorusmek",
        -10.46131798701497
      ],
      [
        "▁grafik",
        -11.250047685481027
      ],
      [
        "▁kasım'",
        -11.261915598581915
      ],
      [
        "▁umumi",
        -10.6543685628142
      ],
      [
        "▁baskası",
        -12.350376644499805
      ],
      [
        "▁seksen",
        -9.510386021826939
      ],
      [
        "▁sezon",
        -9.78619096443698
      ],
      [
        "▁profesoru",
        -10.94087615183827
      ],
      [
        "▁korunması",
        -11.69231201959598
      ],
      [
        "0",
        -9.64959802090872
      ],
      [
        "25000",
        -10.08621304387279
      ],
      [
        "ulur",
        -10.093619176536233
      ],
      [
        "▁yorum",
        -8.115351229454193
      ],
      [
        "▁yi",
        -9.990655862087861
      ],
      [
        "▁bizans",
        -11.375938998421564
      ],
      [
        "▁ihracatı",
        -11.001875322322714
      ],
      [
        "▁basketbol",
        -11.250047270072876
      ],
      [
        "▁kategori",
        -11.45107260750953
      ],
      [
        "56",
        -12.773792116744088
      ],
      [
        "▁teknoloji",
        -9.091024881708108
      ],
      [
        "▁agustos'ta",
        -9.304885994226415
      ],
      [
        "▁sızma",
        -11.70464551525456
      ],
      [
        "▁oturma",
        -9.47213465343443
      ],
      [
        "▁illa",
        -10.725177341871333
      ],
      [
        "▁ciddiye",
        -10.77300161302586
      ],
      [
        "▁borek",
        -10.859476823162916
      ],
      [
        "pare",
        -11.67970590478554
      ],
      [
        "lastırıyor",
        -11.006615378862557
      ],
      [
        "▁orman",
        -9.863649283014846
      ],
      [
        "32",
        -8.876639540153514
      ],
      [
        "75.",
        -13.158156586327362
      ],
      [
        "▁sektor",
        -9.473221214358524
      ],
      [
        "▁kuskusu",
        -11.281115266647744
      ],
      [
        "▁44.6",
        -11.615003473975984
      ],
      [
        "▁internet",
        -10.023269921943683
      ],
      [
        "▁gitmeli",
        -10.32635974670308
      ],
      [
        "▁calısacak",
        -10.867279342374403
      ],
      [
        "spor",
        -11.207263559915493
      ],
      [
        "▁ortalık",
        -10.343821751469658
      ],
      [
        "▁milyar",
        -9.170872449899473
      ],
      [
        "▁hissettir",
        -11.387787192125273
      ],
      [
        "▁nefti",
        -11.518010648102269
      ],
      [
        "▁ulke",
        -11.403829799918654
      ],
      [
        "▁gereksinme",
        -11.518308153719143
      ],
      [
        "▁cevirdi",
        -9.70647398181945
      ],
      [
        "▁rakip",
        -10.723987058053375
      ],
      [
        "sche",
        -11.674770086363768
      ],
      [
        "▁otesinde",
        -10.326221208176332
      ],
      [
        "▁kirlilik",
        -11.189787341394716
      ],
      [
        "▁kapay",
        -11.721232132773292
      ],
      [
        "▁hobi",
        -11.685649345096468
      ],
      [
        "▁acıklama",
        -9.593243681446616
      ],
      [
        "6'",
        -10.066810503907313
      ],
      [
        "▁etse",
        -10.827222410925721
      ],
      [
        "u",
        -5.066036806639432
      ],
      [
        "▁ncnb",
        -11.884571121958137
      ],
      [
        "▁andırır",
        -11.386334780101969
      ],
      [
        "▁as",
        -8.254302657106745
      ],
      [
        "▁dokunan",
        -11.518018709252006
      ],
      [
        "onlarda",
        -12.959516473294915
      ],
      [
        "▁1960'lar",
        -11.388702879454463
      ],
      [
        "▁yetkilileri",
        -8.826662501194908
      ],
      [
        "▁113",
        -12.569735476590743
      ],
      [
        "▁acar",
        -9.665107488841326
      ],
      [
        "▁gonderdi",
        -10.064989711530586
      ],
      [
        "▁kompozit",
        -10.370164754127916
      ],
      [
        "▁ikiyuz",
        -10.584957844453116
      ],
      [
        "▁yuruttu",
        -11.684594735867638
      ],
      [
        "▁mukafatın",
        -11.7412154270881
      ],
      [
        "▁aralık'ta",
        -9.97326383631402
      ],
      [
        "thi",
        -11.21506588034437
      ],
      [
        "▁soyluyor",
        -8.217700461922497
      ],
      [
        "▁chi",
        -10.652246833998984
      ],
      [
        "▁hele",
        -9.940781419553302
      ],
      [
        "1.",
        -11.631752366761177
      ],
      [
        "▁yeri",
        -9.193332903437096
      ],
      [
        "▁cagri",
        -11.344773873288187
      ],
      [
        "▁nerede",
        -7.982980169462512
      ],
      [
        "▁damat",
        -11.257885752727418
      ],
      [
        "▁sun",
        -11.661185466512986
      ],
      [
        "▁sofra",
        -9.541447431598641
      ],
      [
        "siniz",
        -8.24444677490628
      ],
      [
        "▁yapmaktan",
        -10.256297882618846
      ],
      [
        "▁arkamda",
        -10.478575430497086
      ],
      [
        "▁huzurlu",
        -10.376555917936678
      ],
      [
        "▁wang",
        -10.948142081880652
      ],
      [
        "▁istila",
        -11.146656913498326
      ],
      [
        "▁yorulma",
        -11.375074274053507
      ],
      [
        "▁bekledigimiz",
        -11.041499110175833
      ],
      [
        "▁film",
        -9.056507535491384
      ],
      [
        "▁kapasite",
        -10.089741806082174
      ],
      [
        "▁icecek",
        -9.783735878883235
      ],
      [
        "doksan",
        -10.280845400016329
      ],
      [
        "ktedir",
        -11.003224468326081
      ],
      [
        "redit",
        -11.610981878620663
      ],
      [
        "▁konusuyordu",
        -11.26742472146935
      ],
      [
        "▁sp",
        -9.821574972343749
      ],
      [
        "▁bayagı",
        -10.535951656952927
      ],
      [
        "▁avrupa'y",
        -11.143596680678218
      ],
      [
        "▁guluyor",
        -10.294123257593776
      ],
      [
        "▁cansız",
        -11.262443894984333
      ],
      [
        "▁sahıslar",
        -11.375054065439127
      ],
      [
        "▁sefalet",
        -11.375271229638692
      ],
      [
        "▁hayatta",
        -9.665268823364995
      ],
      [
        "▁ucag",
        -9.428706599132859
      ],
      [
        "▁milleti",
        -10.405023713873518
      ],
      [
        "▁252",
        -11.438887684210213
      ],
      [
        "▁unite",
        -11.139245765476954
      ],
      [
        "▁belirtileri",
        -11.381265525132932
      ],
      [
        "▁calismalar",
        -11.518100147321643
      ],
      [
        "▁mah",
        -10.129786844327503
      ],
      [
        "lerle",
        -7.902826572293822
      ],
      [
        "▁protesto",
        -10.420017156370365
      ],
      [
        "1.75",
        -13.660205564517026
      ],
      [
        "▁forma",
        -10.723344768762495
      ],
      [
        "▁etmedi",
        -9.164000230603373
      ],
      [
        "▁pey",
        -11.169846254511455
      ],
      [
        "▁kadınların",
        -9.964668231024605
      ],
      [
        "▁nere",
        -10.300341462038501
      ],
      [
        "▁sun",
        -9.403455880509778
      ],
      [
        "▁aldıgım",
        -10.635502743038467
      ],
      [
        "▁tarkan",
        -11.685038878286115
      ],
      [
        "▁tahminler",
        -10.911546983985907
      ],
      [
        "▁istekleri",
        -11.415858749346116
      ],
      [
        "▁kin",
        -10.582734647735162
      ],
      [
        "▁krizinde",
        -11.799755632513273
      ],
      [
        "▁kenetle",
        -11.7200744870638
      ],
      [
        "▁field'",
        -10.80002718998717
      ],
      [
        "sinin",
        -8.593334253441014
      ],
      [
        "▁alev",
        -9.89643542432943
      ],
      [
        "▁otomobiller",
        -10.708318890662904
      ],
      [
        "▁aciz",
        -11.263225623150767
      ],
      [
        "gel",
        -9.270411228329191
      ],
      [
        "▁doga",
        -9.088798331048812
      ],
      [
        "▁esas",
        -9.434685636756308
      ],
      [
        "▁burcu",
        -10.234717038886519
      ],
      [
        "▁kayısı",
        -10.865834239169779
      ],
      [
        "▁kullanımını",
        -11.419243728780863
      ],
      [
        "sunlar",
        -13.189466135893024
      ],
      [
        "▁uyandırma",
        -11.679427078838806
      ],
      [
        "imiz",
        -8.891377399871342
      ],
      [
        "▁kisilerin",
        -10.349790773706133
      ],
      [
        "▁galileo",
        -11.884571126874683
      ],
      [
        "▁beatri",
        -11.884573039765627
      ],
      [
        "▁demis",
        -9.506428236258504
      ],
      [
        "▁ucus",
        -6.71678925947134
      ],
      [
        "▁yolun",
        -9.625636610787376
      ],
      [
        "▁sekiz",
        -7.532759790075625
      ],
      [
        "▁lık",
        -9.145996749068345
      ],
      [
        "abilecegini",
        -10.196874645730375
      ],
      [
        "▁pozitif",
        -11.517905368017333
      ],
      [
        "▁alınca",
        -11.268571443319832
      ],
      [
        "▁pa",
        -9.309371140662925
      ],
      [
        "▁kelebek",
        -10.649675447680949
      ],
      [
        "▁titre",
        -10.451240059285098
      ],
      [
        "▁haydar",
        -11.685834079099543
      ],
      [
        "▁bitmeye",
        -11.057433613023463
      ],
      [
        "lardan",
        -7.9777201995338185
      ],
      [
        "▁rozet",
        -11.684585506803971
      ],
      [
        "nizi",
        -10.062615759430338
      ],
      [
        "yordu",
        -8.621608916702982
      ],
      [
        "▁sahibi",
        -8.709128740178876
      ],
      [
        "▁varmak",
        -10.469472841741489
      ],
      [
        "▁yurekli",
        -11.145518031419833
      ],
      [
        "▁ziyade",
        -9.794216950853528
      ],
      [
        "asın",
        -11.750005868449808
      ],
      [
        "▁ikinci",
        -8.72256643419114
      ],
      [
        "▁ekonomi",
        -8.36017410472946
      ],
      [
        "▁saclı",
        -10.428246560946233
      ],
      [
        "▁268.",
        -11.209186645446291
      ],
      [
        "▁kısıtlamasını",
        -11.70511890388223
      ],
      [
        "▁diploma",
        -11.698446216786003
      ],
      [
        "▁donecegi",
        -11.642892553831167
      ],
      [
        "▁hamil",
        -11.129341909572737
      ],
      [
        "unun",
        -8.857639640595686
      ],
      [
        "▁109",
        -10.300749207696247
      ],
      [
        "▁gelistirme",
        -9.742646808820904
      ],
      [
        "▁eksper",
        -11.37504750359736
      ],
      [
        "kırkbes",
        -11.42898624313624
      ],
      [
        "▁sasırmıs",
        -11.552228929741005
      ],
      [
        "▁kalıbı",
        -10.948044322222566
      ],
      [
        "▁diledigi",
        -11.824945528069026
      ],
      [
        "▁gaz",
        -9.126822212275169
      ],
      [
        "▁dususle",
        -9.410789226126012
      ],
      [
        "▁durumunu",
        -10.5646317541928
      ],
      [
        "▁cabuca",
        -11.038936553110963
      ],
      [
        "▁yenilikci",
        -11.684699615650104
      ],
      [
        "▁boyun",
        -9.222102217298193
      ],
      [
        "▁ib",
        -9.896885294661494
      ],
      [
        "lendirme",
        -10.08806152506412
      ],
      [
        "▁alakası",
        -11.181474257093392
      ],
      [
        "▁kazanmaya",
        -11.266396603595675
      ],
      [
        "▁korku",
        -9.029039078071659
      ],
      [
        "▁metri",
        -11.307046800787164
      ],
      [
        "▁the",
        -9.767161073598718
      ],
      [
        "▁bırakmaz",
        -11.187837198802129
      ],
      [
        "▁burusuk",
        -11.51806587048528
      ],
      [
        "▁eserler",
        -11.199321260740577
      ],
      [
        "▁sunula",
        -11.255048737225241
      ],
      [
        "▁dinc",
        -11.040699006900219
      ],
      [
        "lestirilmesi",
        -11.191709365653711
      ],
      [
        "▁ur",
        -10.479306461544896
      ],
      [
        "▁yavrusu",
        -11.034302569744797
      ],
      [
        "▁sanıyor",
        -11.034793758326638
      ],
      [
        "▁dusen",
        -9.346893070725622
      ],
      [
        "▁kacırıyor",
        -11.561774412120712
      ],
      [
        "▁malı",
        -10.412113374651213
      ],
      [
        "▁provigo",
        -11.684571149720274
      ],
      [
        "▁problem",
        -9.242633102578736
      ],
      [
        "▁olmaları",
        -10.6378306620045
      ],
      [
        "3\\/",
        -12.903345149637566
      ],
      [
        "▁1\\/",
        -7.7140516848181395
      ],
      [
        "▁pizza",
        -11.517905978624306
      ],
      [
        "▁kalmazdı",
        -11.689375280562022
      ],
      [
        "▁odedi",
        -10.141690538620235
      ],
      [
        "▁ocagın",
        -10.736258317480363
      ],
      [
        "▁korfez",
        -10.525863913722045
      ],
      [
        "▁mudahale",
        -10.076455070211317
      ],
      [
        "▁maynard",
        -11.375051706078324
      ],
      [
        "▁ice",
        -9.994689225429317
      ],
      [
        "▁surdurur",
        -11.250156470167132
      ],
      [
        "▁kemiklerin",
        -11.494954222576093
      ],
      [
        "▁sen",
        -6.208861544610927
      ],
      [
        "▁allah'",
        -10.562681051615696
      ],
      [
        "▁613",
        -12.445435831829037
      ],
      [
        "▁taktigi",
        -11.68520943419597
      ],
      [
        "▁giri",
        -9.80974334292231
      ],
      [
        "▁uyar",
        -10.105435945923203
      ],
      [
        "▁dagılı",
        -11.398421108175114
      ],
      [
        "▁ayva",
        -10.59069222737513
      ],
      [
        "▁ordek",
        -11.139172864731263
      ],
      [
        "▁yıldızı",
        -10.593488211260567
      ],
      [
        "▁bak",
        -7.864937749033672
      ],
      [
        "▁yolları",
        -10.194082436006724
      ],
      [
        "▁otellerde",
        -11.03206975982918
      ],
      [
        "▁okumak",
        -10.353028592123769
      ],
      [
        "▁arkadas",
        -8.781804178602453
      ],
      [
        "▁5.9",
        -10.066471804320791
      ],
      [
        "▁resepsiyonda",
        -11.141874732882725
      ],
      [
        "▁ugrayacaklar",
        -11.380385687526934
      ],
      [
        "elim",
        -8.998657858768578
      ],
      [
        "▁sozlesme",
        -9.308460096867723
      ],
      [
        "ish",
        -10.093108380955105
      ],
      [
        "▁gucsuz",
        -10.922633059052252
      ],
      [
        "▁olanaksız",
        -11.253093265890076
      ],
      [
        "▁verdigi",
        -8.689259667080083
      ],
      [
        "amadı",
        -9.578854167373308
      ],
      [
        "▁masraf",
        -9.97532647918021
      ],
      [
        "▁kadeh",
        -10.189728475379418
      ],
      [
        "▁toplantıda",
        -10.008899361598655
      ],
      [
        "▁muz",
        -10.42056368555844
      ],
      [
        "▁yıkan",
        -10.55790170632567
      ],
      [
        "▁cumlesinde",
        -11.530693964247547
      ],
      [
        "▁sol",
        -8.61346708208361
      ],
      [
        "▁fon",
        -9.395449022383293
      ],
      [
        "▁yılbası",
        -11.15176962798349
      ],
      [
        "▁ikisi",
        -9.316595908415728
      ],
      [
        "▁or",
        -9.479210966397837
      ],
      [
        "inin",
        -8.422951285396145
      ],
      [
        "nuz",
        -9.592449687501578
      ],
      [
        "▁be",
        -9.067386828430887
      ],
      [
        "▁bulmak",
        -9.140857617201437
      ],
      [
        "▁niteligi",
        -11.518484756413358
      ],
      [
        "▁bam",
        -10.855894657700443
      ],
      [
        "▁sırada",
        -8.966304558059944
      ],
      [
        "▁birlikte",
        -7.262536962257031
      ],
      [
        "▁olcut",
        -11.195124177476135
      ],
      [
        "or",
        -11.28591138702963
      ],
      [
        "▁duzenledigi",
        -11.27820804594512
      ],
      [
        "▁parcası",
        -9.312257496554151
      ],
      [
        "▁hissedarları",
        -11.190575578033293
      ],
      [
        "▁lira",
        -8.55045904836
      ],
      [
        "▁saatlerini",
        -10.724429011447661
      ],
      [
        "▁soylenti",
        -11.039861618911532
      ],
      [
        "▁355",
        -11.370835629265718
      ],
      [
        "▁benzemiyor",
        -11.685795683646697
      ],
      [
        "▁saydı",
        -10.335238671956121
      ],
      [
        "▁havuzunda",
        -11.424982814945233
      ],
      [
        "▁ekonomisini",
        -11.04859491164031
      ],
      [
        "▁ysan",
        -10.60411921712316
      ],
      [
        "▁yuklen",
        -10.780592252574099
      ],
      [
        "▁duruyor",
        -8.976556461987533
      ],
      [
        "▁topraklar",
        -11.16434747259137
      ],
      [
        "▁etrafın",
        -10.8046400813883
      ],
      [
        "ciler",
        -9.24794144894692
      ],
      [
        "▁avize",
        -11.375553530327016
      ],
      [
        "▁vb",
        -10.948654187455743
      ],
      [
        "▁cekmis",
        -10.639306572295611
      ],
      [
        "▁zafer",
        -10.052816507015269
      ],
      [
        "▁elbet",
        -9.014926972897378
      ],
      [
        "▁ikincisi",
        -9.926045298289534
      ],
      [
        "▁sayı",
        -9.096592468940479
      ],
      [
        "▁tv",
        -9.685239838435526
      ],
      [
        "▁deminki",
        -11.523666147781343
      ],
      [
        "▁kabullenme",
        -11.689096427172233
      ],
      [
        "▁uye",
        -9.714560909146506
      ],
      [
        "▁olanlar",
        -10.222486337248284
      ],
      [
        "▁yılın",
        -8.790968015325511
      ],
      [
        "▁kaynıyor",
        -11.141442389440238
      ],
      [
        "▁guneybatı",
        -11.884574188593302
      ],
      [
        "▁oburleri",
        -10.32040507106256
      ],
      [
        "▁havalimanında",
        -10.80038602365142
      ],
      [
        "▁sarkıcı",
        -10.982197326794843
      ],
      [
        "1",
        -10.169069958022915
      ],
      [
        "▁6.7",
        -10.380704618024017
      ],
      [
        "▁yetenekleri",
        -10.882837223307176
      ],
      [
        "▁hizmette",
        -9.490325381021513
      ],
      [
        "▁askeri",
        -9.067402551551353
      ],
      [
        "▁lake",
        -8.66796235331033
      ],
      [
        "▁getirmek",
        -10.181953328845909
      ],
      [
        "7'de",
        -11.588083951504553
      ],
      [
        "butun",
        -10.14951774356758
      ],
      [
        "▁cehalet",
        -11.684571767086865
      ],
      [
        "▁bulundu",
        -8.956906333867735
      ],
      [
        "el",
        -8.104511975606275
      ],
      [
        "▁koptu",
        -10.716950953286386
      ],
      [
        "at",
        -6.734542760195388
      ],
      [
        "▁kredileri",
        -10.097293930072293
      ],
      [
        "▁kaldırıldı",
        -11.400690898649604
      ],
      [
        "▁securit",
        -10.472962460836069
      ],
      [
        "▁universitesi'n",
        -10.625962370658707
      ],
      [
        "579",
        -12.440483147230122
      ],
      [
        "▁21",
        -10.837939406339846
      ],
      [
        "▁tom",
        -11.081064621354743
      ],
      [
        "▁nekoosa",
        -11.517904525182173
      ],
      [
        "▁satısların",
        -10.62511389477244
      ],
      [
        "k",
        -4.773591637368394
      ],
      [
        "▁koyuyor",
        -11.232132521552378
      ],
      [
        "▁video",
        -10.52838259411403
      ],
      [
        "120000",
        -11.461045196350934
      ],
      [
        "▁kin",
        -13.71805057514021
      ],
      [
        ".6",
        -9.81388337964757
      ],
      [
        "▁bazi",
        -8.434375528301851
      ],
      [
        "▁yagma",
        -11.281144795040317
      ],
      [
        "▁pismis",
        -11.200228088043586
      ],
      [
        "▁sasırma",
        -11.611174337696127
      ],
      [
        "uyordu",
        -9.302344088210194
      ],
      [
        "▁kolombiya",
        -11.038936160642885
      ],
      [
        "▁tarif",
        -10.063426903023773
      ],
      [
        "▁onerile",
        -11.099591496438514
      ],
      [
        "llah",
        -10.026032918169877
      ],
      [
        "▁cinsten",
        -11.3779440128727
      ],
      [
        "▁olanları",
        -10.728520966756719
      ],
      [
        "▁ofisin",
        -11.568609556879865
      ],
      [
        "▁lisan",
        -10.649024608063163
      ],
      [
        "▁sekli",
        -10.542047072057722
      ],
      [
        "▁1.26",
        -11.211204785867716
      ],
      [
        "▁carp",
        -10.576133066430417
      ],
      [
        "▁homurdan",
        -11.250047343836792
      ],
      [
        "▁topu",
        -9.693608122749927
      ],
      [
        "▁capkın",
        -10.865358576996202
      ],
      [
        "▁nereler",
        -10.327109737456745
      ],
      [
        "▁broker",
        -11.520231765396689
      ],
      [
        "▁tencerede",
        -11.276165785875396
      ],
      [
        "▁kıymetleri",
        -10.399254432195647
      ],
      [
        "▁karsı",
        -6.409335831396301
      ],
      [
        "kı",
        -11.751196107310388
      ],
      [
        "▁ihsan",
        -10.528351930453084
      ],
      [
        "▁italya",
        -10.829938559610051
      ],
      [
        "▁stadyum",
        -11.375047355516823
      ],
      [
        "▁beyoglu'nda",
        -11.385852349313113
      ],
      [
        "▁ford'u",
        -10.980492445870377
      ],
      [
        "9.",
        -11.202236768096903
      ],
      [
        "▁oynak",
        -10.816305999688463
      ],
      [
        "▁bucagı",
        -11.139971332505954
      ],
      [
        ".",
        -9.216358711206777
      ],
      [
        "▁ler",
        -9.237594244454714
      ],
      [
        "▁islev",
        -11.230397831075056
      ],
      [
        "▁1100",
        -10.565896809000884
      ],
      [
        "▁patlattı",
        -11.689887140804476
      ],
      [
        "▁gazino",
        -10.528395436115833
      ],
      [
        "▁mantıklı",
        -10.42529626655053
      ],
      [
        "▁geldigin",
        -11.320909158213839
      ],
      [
        "▁city",
        -9.921094388391259
      ],
      [
        "▁lawren",
        -11.375047285291718
      ],
      [
        "las",
        -9.272547087825265
      ],
      [
        "▁sıkıntı",
        -9.816352892054212
      ],
      [
        "▁harun",
        -11.142043004461055
      ],
      [
        "▁yapacagını",
        -10.117478377417125
      ],
      [
        "▁seviyede",
        -10.099511482715808
      ],
      [
        "▁guverte",
        -11.359914368686878
      ],
      [
        "▁tasarısını",
        -11.455699182597018
      ],
      [
        "▁dibin",
        -10.383486036494324
      ],
      [
        "▁sectik",
        -10.89468672863876
      ],
      [
        "7/",
        -9.640234913681336
      ],
      [
        "▁yahudi",
        -10.19498053876995
      ],
      [
        "▁soyluyorlar",
        -10.300753765490622
      ],
      [
        "▁nite",
        -10.77636046915856
      ],
      [
        "▁intel",
        -10.86448783432748
      ],
      [
        "▁1.85",
        -10.968222535860983
      ],
      [
        "▁sarma",
        -11.578507474520714
      ],
      [
        "▁akla",
        -10.523981767735968
      ],
      [
        "▁mezarlıg",
        -10.715387604309948
      ],
      [
        "hane",
        -9.606264170038848
      ],
      [
        "...",
        -11.387678393768834
      ],
      [
        "▁deger",
        -8.294234574927955
      ],
      [
        "inda",
        -10.728306475900697
      ],
      [
        "▁dizleri",
        -10.696541320824132
      ],
      [
        "▁hormon",
        -11.375181120394135
      ],
      [
        "▁edici",
        -10.152517674866619
      ],
      [
        "▁domuz",
        -10.729070167973749
      ],
      [
        "▁kazandıgı",
        -10.912358610457655
      ],
      [
        "▁guresci",
        -11.382822218933573
      ],
      [
        "▁sistemin",
        -10.786502720781233
      ],
      [
        "▁yerlestir",
        -10.994027990919903
      ],
      [
        "ac",
        -9.835651388931385
      ],
      [
        "▁tartısmaya",
        -10.602244553757185
      ],
      [
        "▁ihtiyacı",
        -9.62100548136537
      ],
      [
        "▁secmenler",
        -11.490990586669872
      ],
      [
        "▁verem",
        -11.526929456723686
      ],
      [
        "▁maglu",
        -11.686249293986142
      ],
      [
        "▁gitmesi",
        -11.17062758962069
      ],
      [
        "izde",
        -11.519596532275472
      ],
      [
        "ebilecegimiz",
        -11.327820831205967
      ],
      [
        "kendini",
        -10.382347996438032
      ],
      [
        "▁kalmak",
        -10.018438506277768
      ],
      [
        "izm",
        -10.063858966454688
      ],
      [
        "▁fazlası",
        -10.100597271573907
      ],
      [
        "▁caba",
        -9.3271552706442
      ],
      [
        "▁yakasın",
        -11.083541182787261
      ],
      [
        "▁904",
        -11.680921645365569
      ],
      [
        "▁sandıkta",
        -11.732432122669156
      ],
      [
        "▁namus",
        -10.97356774608674
      ],
      [
        "▁keci",
        -10.618476942751041
      ],
      [
        "▁yuzlerini",
        -11.431870752881581
      ],
      [
        "▁programlar",
        -10.86562206085375
      ],
      [
        "▁188",
        -12.092214393271451
      ],
      [
        "7.5",
        -9.20992259280443
      ],
      [
        "▁sami",
        -11.366494909806498
      ],
      [
        "▁ihtiyar",
        -9.00720969726369
      ],
      [
        "11.0",
        -11.808939233814705
      ],
      [
        "▁yuku",
        -10.423025694030668
      ],
      [
        "▁buruk",
        -11.139613023275228
      ],
      [
        "▁sut",
        -9.109373986217637
      ],
      [
        "▁gerceklesti",
        -9.599449065272921
      ],
      [
        "▁emrini",
        -11.560882901366453
      ],
      [
        "▁1930",
        -11.421975385088846
      ],
      [
        "99",
        -10.866053962672542
      ],
      [
        "▁l",
        -11.347089569563911
      ],
      [
        "▁besi",
        -13.267070706319851
      ],
      [
        "▁mulkiyede",
        -11.884576809760912
      ],
      [
        "▁omer",
        -9.855310923478896
      ],
      [
        "▁bozulu",
        -11.453065612579024
      ],
      [
        "▁kullanmak",
        -10.497427743956436
      ],
      [
        "▁adımı",
        -10.962292989719922
      ],
      [
        "▁gercekci",
        -10.685669572149973
      ],
      [
        "51",
        -10.981441885772222
      ],
      [
        "▁manastır",
        -11.138940122670954
      ],
      [
        "ıyla",
        -8.32582670596347
      ],
      [
        "▁koparma",
        -11.766079691645313
      ],
      [
        "▁lim",
        -13.169412221990527
      ],
      [
        "▁cogunda",
        -10.93680925498924
      ],
      [
        "▁asıl",
        -9.009297912408346
      ],
      [
        "▁marka",
        -9.40671480069966
      ],
      [
        "▁cip",
        -10.656162183389782
      ],
      [
        "▁kambur",
        -11.03894387902666
      ],
      [
        "▁yazıldı",
        -11.63726602763795
      ],
      [
        "uyorsun",
        -11.60355187022719
      ],
      [
        "▁saygı",
        -9.423799683222587
      ],
      [
        "19",
        -9.653955124169919
      ],
      [
        "▁gercegin",
        -11.16279236032192
      ],
      [
        "▁korkutucu",
        -11.038995956965126
      ],
      [
        "▁279.",
        -10.708748996810979
      ],
      [
        "▁ayag",
        -10.071462373013231
      ],
      [
        "▁gum",
        -10.5142595329938
      ],
      [
        "▁gonullu",
        -10.00797726242108
      ],
      [
        "▁tu",
        -9.677785622890255
      ],
      [
        "▁merk",
        -10.895621979748357
      ],
      [
        "▁yazılı",
        -10.353574595033654
      ],
      [
        "▁kultur",
        -8.998232876161005
      ],
      [
        "▁heves",
        -10.13033092728757
      ],
      [
        ".0",
        -11.629240301522858
      ],
      [
        "▁daral",
        -10.36597077123032
      ],
      [
        "▁arayan",
        -10.223574770795892
      ],
      [
        "▁cardak",
        -11.686903036383775
      ],
      [
        "▁almanya",
        -10.038456831142815
      ],
      [
        "▁erkan",
        -10.528821678445725
      ],
      [
        "▁il",
        -7.476214463926909
      ],
      [
        "▁vurul",
        -11.201609670956003
      ],
      [
        "▁il",
        -9.469080769848343
      ],
      [
        "&",
        -11.138934498877273
      ],
      [
        "▁mermer",
        -9.821154240259215
      ],
      [
        "▁ucunu",
        -10.540585329007307
      ],
      [
        "▁piyango",
        -10.948027155509132
      ],
      [
        "▁cumhurbaskanı",
        -9.85522272567844
      ],
      [
        "▁lea",
        -11.398659270877136
      ],
      [
        "▁sızdır",
        -11.250181477108459
      ],
      [
        "▁gorevlisi",
        -10.060934134805832
      ],
      [
        "▁oglum",
        -9.517601991964531
      ],
      [
        "▁arıyoru",
        -10.141447077453908
      ],
      [
        "83",
        -11.465240578525961
      ],
      [
        "▁sart",
        -9.57190201420256
      ],
      [
        "▁nakliye",
        -10.509953987903486
      ],
      [
        "▁post",
        -10.189723634275012
      ],
      [
        "▁uzakta",
        -9.482500895660872
      ],
      [
        "▁tıkı",
        -11.625254638510258
      ],
      [
        "▁reklam",
        -9.072331699520007
      ],
      [
        "▁karanfil",
        -11.138936482246832
      ],
      [
        "herkesi",
        -13.609269783102787
      ],
      [
        "▁tarama",
        -11.270150589064475
      ],
      [
        "▁visne",
        -11.684609904160034
      ],
      [
        "▁feryat",
        -11.038985358391312
      ],
      [
        "lly",
        -11.182831952849828
      ],
      [
        "▁dusmus",
        -9.426138648912382
      ],
      [
        "▁toprakları",
        -11.085778748946538
      ],
      [
        "▁reviz",
        -10.954444487516614
      ],
      [
        "▁yansıttıgın",
        -11.228120216792593
      ],
      [
        "▁yetmez",
        -11.266688309183056
      ],
      [
        "▁co.'da",
        -11.421609557159794
      ],
      [
        "▁faaliyeti",
        -10.41703072777387
      ],
      [
        "▁64.",
        -12.552472907000983
      ],
      [
        "▁k",
        -9.253332953015757
      ],
      [
        "▁405",
        -12.124603902614975
      ],
      [
        "▁yayılmıs",
        -11.535943676244992
      ],
      [
        "dim",
        -8.563070697892393
      ],
      [
        "verir",
        -10.432442345804198
      ],
      [
        "▁yasayacak",
        -11.73901158709695
      ],
      [
        "▁listele",
        -7.921337550421093
      ],
      [
        "▁muttefik",
        -11.038936157309458
      ],
      [
        "▁ozunde",
        -11.68564076568719
      ],
      [
        "▁varmıs",
        -10.15288453471713
      ],
      [
        "dik",
        -9.487106291270056
      ],
      [
        "▁diego'da",
        -10.160464123045278
      ],
      [
        "▁bıktı",
        -10.880638813141548
      ],
      [
        "▁inter",
        -10.42100261340592
      ],
      [
        "2",
        -9.794297041413028
      ],
      [
        "▁dısında",
        -8.76005413343697
      ],
      [
        "▁bahtiyar",
        -11.038936538612262
      ],
      [
        "▁aktarıla",
        -11.38161903228486
      ],
      [
        "▁otekini",
        -10.58713718106293
      ],
      [
        "▁aradıgını",
        -11.558520174452283
      ],
      [
        "▁fas",
        -10.08915882192296
      ],
      [
        "▁bozul",
        -11.163312673743008
      ],
      [
        "▁yatırımı",
        -10.870280559620701
      ],
      [
        ".5",
        -9.430731754711669
      ],
      [
        "mond",
        -11.519620813167373
      ],
      [
        "4:",
        -11.402080819450354
      ],
      [
        "▁ayaklarını",
        -10.104126999271422
      ],
      [
        "lerimizi",
        -9.451300735003437
      ],
      [
        "▁sokuldu",
        -11.04072174362559
      ],
      [
        "▁euro",
        -10.864694553333067
      ],
      [
        "ize",
        -10.825365656243923
      ],
      [
        "▁alaca",
        -10.81006472621393
      ],
      [
        "▁kaplan",
        -11.574678442405894
      ],
      [
        "▁schwarz",
        -11.884571081247746
      ],
      [
        "▁hatta",
        -8.990497977725155
      ],
      [
        "▁yanlı",
        -11.191804218356184
      ],
      [
        "▁16.00",
        -11.66587883941826
      ],
      [
        "▁exc",
        -11.517920071553709
      ],
      [
        "▁benimsemis",
        -11.685340612165756
      ],
      [
        "▁kulag",
        -10.69514604950244
      ],
      [
        "▁dorde",
        -11.685289615625743
      ],
      [
        "▁dikme",
        -11.063991282515333
      ],
      [
        "▁bitis",
        -11.676007923246454
      ],
      [
        "▁bulunma",
        -10.575439179663938
      ],
      [
        "▁bardagı",
        -9.641388856069565
      ],
      [
        "▁tutustur",
        -11.264157042178452
      ],
      [
        "▁hıristiyan",
        -10.948027067813602
      ],
      [
        "▁secenekleri",
        -10.505397512555929
      ],
      [
        "▁degistirir",
        -11.300557032090683
      ],
      [
        "▁baskenti",
        -10.994339864015988
      ],
      [
        "▁surecte",
        -11.38757601053178
      ],
      [
        "kten",
        -8.448785258667375
      ],
      [
        "▁dil",
        -8.579604682838808
      ],
      [
        "▁halin",
        -8.807282189214447
      ],
      [
        "▁parkı",
        -11.120630975940552
      ],
      [
        "▁havayolları",
        -8.082642531698113
      ],
      [
        "▁dibi",
        -11.364657497176118
      ],
      [
        "▁kes",
        -9.959906093464236
      ],
      [
        "▁bagımsızlık",
        -11.531565479748014
      ],
      [
        "▁kilimler",
        -11.689926335986343
      ],
      [
        "tir",
        -7.5439390313659525
      ],
      [
        "▁ugrasır",
        -11.383888545448889
      ],
      [
        "▁sanıyordu",
        -10.969666141724217
      ],
      [
        "▁bicimleri",
        -11.687793880841364
      ],
      [
        "▁mı",
        -5.660593134567461
      ],
      [
        "▁georgia",
        -10.94802707941365
      ],
      [
        "▁sitesi",
        -11.537449019949426
      ],
      [
        "▁uyandır",
        -10.084523626078422
      ],
      [
        "▁abb",
        -11.671059053663175
      ],
      [
        "caktır",
        -9.693082524310165
      ],
      [
        "00-",
        -11.772156729223713
      ],
      [
        "ff",
        -9.760874314613531
      ],
      [
        "▁baha",
        -10.763471362742427
      ],
      [
        "▁lee",
        -10.960389468654977
      ],
      [
        "▁sandalı",
        -11.448903108390075
      ],
      [
        "▁yildiz",
        -9.178557437032785
      ],
      [
        "▁uykuda",
        -10.715687054071001
      ],
      [
        "mizde",
        -9.703986387436128
      ],
      [
        "▁ogun",
        -11.390333752561897
      ],
      [
        "▁tutsak",
        -11.375558027941082
      ],
      [
        "▁siper",
        -10.47281148662033
      ],
      [
        "▁kısır",
        -11.254849067266695
      ],
      [
        "▁elimiz",
        -11.129575102419869
      ],
      [
        "▁ucagı",
        -10.32807830708665
      ],
      [
        "▁omzum",
        -11.884572944006909
      ],
      [
        "▁kalmadi",
        -8.153181727215458
      ],
      [
        "▁ettigimiz",
        -10.872838556117408
      ],
      [
        "▁ulasıyor",
        -11.177424873095958
      ],
      [
        "▁kolon",
        -11.515226302482331
      ],
      [
        "▁hale",
        -8.139075467979886
      ],
      [
        "▁halleri",
        -10.850427896046753
      ],
      [
        "▁111.",
        -11.996883962775627
      ],
      [
        "▁calıskan",
        -10.528540666243565
      ],
      [
        "▁getiren",
        -10.240279423394345
      ],
      [
        "▁birlese",
        -11.848728568487433
      ],
      [
        "▁19",
        -7.590840352627737
      ],
      [
        "▁arif",
        -10.785823099038002
      ],
      [
        "▁5",
        -6.399179993357795
      ],
      [
        "t",
        -8.962720578188762
      ],
      [
        "▁moskova'da",
        -11.561277082267729
      ],
      [
        "▁tutuyor",
        -9.805451586501128
      ],
      [
        "isler",
        -13.183041658312312
      ],
      [
        "▁oluk",
        -11.310558436414363
      ],
      [
        "▁borusu",
        -11.69076791234465
      ],
      [
        "▁neredey",
        -9.057619112625027
      ],
      [
        "▁teklifin",
        -10.62647648867323
      ],
      [
        "▁yapılı",
        -10.872927894276351
      ],
      [
        "▁allah'ı",
        -10.943109774570264
      ],
      [
        "▁gumus",
        -9.595701167686975
      ],
      [
        ":",
        -10.233581573324946
      ],
      [
        "▁dengesi",
        -9.85642254685038
      ],
      [
        "▁kuyruk",
        -10.716342085463104
      ],
      [
        "▁bilgiler",
        -10.498137451573038
      ],
      [
        "▁morishita",
        -11.684571081860929
      ],
      [
        "ikinci",
        -10.400159785533214
      ],
      [
        "▁anlasılıyor",
        -10.660256738354775
      ],
      [
        "an",
        -6.656574563908451
      ],
      [
        "▁kayıp",
        -9.61266660513525
      ],
      [
        "▁ilisti",
        -11.05866637918216
      ],
      [
        "lestirir",
        -11.260285183411503
      ],
      [
        "▁recel",
        -11.03924716975326
      ],
      [
        "▁cagdas",
        -10.04082601136691
      ],
      [
        "ınca",
        -9.318113005706518
      ],
      [
        "▁kıymetler",
        -8.416936200379986
      ],
      [
        "▁mcg",
        -11.822006947266793
      ],
      [
        "▁beyaz",
        -7.968174834288743
      ],
      [
        "▁burustur",
        -11.444489717240199
      ],
      [
        "▁buz",
        -9.374930055192658
      ],
      [
        "▁dostu",
        -9.351153272252922
      ],
      [
        "▁felsefe",
        -10.236733462170385
      ],
      [
        "▁cleveland'",
        -8.966790025573786
      ],
      [
        "▁dortyuzo",
        -13.655170690300428
      ],
      [
        "▁ilgi",
        -8.128062290134297
      ],
      [
        "▁katalog",
        -11.684572394016369
      ],
      [
        "▁uygulana",
        -10.93965750645551
      ],
      [
        "▁dolasan",
        -11.251990158745652
      ],
      [
        "'",
        -7.654000569261533
      ],
      [
        "▁yanakları",
        -10.46860481189592
      ],
      [
        "▁burası",
        -9.766844652810807
      ],
      [
        "▁ziyaret",
        -9.178837349911769
      ],
      [
        "▁sogukkanlı",
        -11.038937962908904
      ],
      [
        "ola",
        -9.667374755508707
      ],
      [
        "▁referans",
        -11.37504728109273
      ],
      [
        "likti",
        -10.965215544414932
      ],
      [
        "▁kaba",
        -9.218852354106325
      ],
      [
        "▁sallantı",
        -11.138976777631253
      ],
      [
        "▁cesitleri",
        -9.676427627200589
      ],
      [
        "▁satır",
        -10.412859495847018
      ],
      [
        "▁uretil",
        -10.735899272624465
      ],
      [
        "▁filmin",
        -10.900990779407017
      ],
      [
        "▁olusturmakta",
        -11.04198532660345
      ],
      [
        "▁devri",
        -9.662114538450014
      ],
      [
        "▁gecirmesi",
        -11.464633557504655
      ],
      [
        "▁acmayı",
        -11.1447863929292
      ],
      [
        "▁iyimserlik",
        -11.526896222363757
      ],
      [
        "▁asil",
        -10.234428581024167
      ],
      [
        "▁yıldırım",
        -10.718438459912129
      ],
      [
        "▁anlama",
        -9.154775730984522
      ],
      [
        "▁engelli",
        -10.834423622640138
      ],
      [
        "▁kullanmaya",
        -10.880339119140118
      ],
      [
        "▁cekili",
        -11.347473277525388
      ],
      [
        "kendilerin",
        -12.3640113096545
      ],
      [
        "▁ilce",
        -10.218376749578631
      ],
      [
        "▁3558",
        -10.355449281372612
      ],
      [
        "▁sevincle",
        -10.953364303649906
      ],
      [
        "▁peni",
        -11.14529014387175
      ],
      [
        "yani",
        -10.61664784477175
      ],
      [
        "muzun",
        -10.657909951377674
      ],
      [
        "▁55",
        -9.177819608601558
      ],
      [
        "▁coktu",
        -9.612675915348554
      ],
      [
        "▁destan",
        -10.588243566677928
      ],
      [
        "▁170.",
        -11.886584868618773
      ],
      [
        "pati",
        -11.480416664085416
      ],
      [
        "▁alanları",
        -10.63999727038866
      ],
      [
        "mıyor",
        -9.046366227239101
      ],
      [
        "▁3.",
        -7.95981787468102
      ],
      [
        "nla",
        -9.58078058821545
      ],
      [
        "miz",
        -8.108690417585775
      ],
      [
        "▁ihtiyacları",
        -10.183323117275718
      ],
      [
        "▁kasırga",
        -10.542562042163109
      ],
      [
        "▁borsası'nda",
        -9.714517882623188
      ],
      [
        "▁kasvetli",
        -11.697859882330624
      ],
      [
        "▁olagan",
        -10.64986660896758
      ],
      [
        "▁1.84",
        -10.51846860861659
      ],
      [
        "▁erkekler",
        -9.361212771641124
      ],
      [
        "▁maas",
        -9.881409703548428
      ],
      [
        "▁saskın",
        -10.337801173215958
      ],
      [
        "▁bosluk",
        -10.042552434243635
      ],
      [
        "▁birinci",
        -8.08995841946951
      ],
      [
        "▁deneme",
        -9.093583828843258
      ],
      [
        "▁olmamak",
        -11.200931591690665
      ],
      [
        "▁sala",
        -10.802977059347871
      ],
      [
        "▁c",
        -12.071827075693937
      ],
      [
        "▁sosyete",
        -11.51791687298124
      ],
      [
        "▁132.",
        -11.881455844087107
      ],
      [
        "▁isaretleri",
        -11.036666430730694
      ],
      [
        "▁gordugunu",
        -10.639467197157616
      ],
      [
        "▁denir",
        -10.530935999148923
      ],
      [
        "▁kesimini",
        -11.855798499143313
      ],
      [
        "▁gunduz",
        -9.374740026024778
      ],
      [
        "▁chp'",
        -10.793357895140865
      ],
      [
        "misin",
        -10.122946570541602
      ],
      [
        "▁570",
        -11.392939377414486
      ],
      [
        "▁sinan",
        -10.511122177682692
      ],
      [
        "▁7.0",
        -12.36412408731888
      ],
      [
        "▁kamer",
        -11.866230820374414
      ],
      [
        "▁memo",
        -11.684970535796031
      ],
      [
        "▁icindeki",
        -9.986720931420335
      ],
      [
        "▁uc",
        -9.075442309325217
      ],
      [
        "▁kanaat",
        -10.787872107912783
      ],
      [
        "▁degerlendirdi",
        -11.419548147371776
      ],
      [
        "▁basvur",
        -10.349085263097203
      ],
      [
        "▁havuc",
        -11.256583346592242
      ],
      [
        "▁sefkat",
        -11.70870527331794
      ],
      [
        "▁vermedi",
        -9.79992047795421
      ],
      [
        "▁maden",
        -9.682529645976464
      ],
      [
        "mı",
        -8.374096378826032
      ],
      [
        "▁yanımda",
        -10.12704582958776
      ],
      [
        "▁ellerini",
        -9.558285525333245
      ],
      [
        "▁1987'de",
        -10.793955077519447
      ],
      [
        "▁bulmad",
        -10.702180407423423
      ],
      [
        "▁sahit",
        -10.479700038250877
      ],
      [
        "▁koprusunde",
        -11.684886584428579
      ],
      [
        "▁bolugu",
        -10.955165141046404
      ],
      [
        "206",
        -13.376557543868925
      ],
      [
        "▁yıktı",
        -11.765931128299172
      ],
      [
        "▁agacı",
        -10.26719326510582
      ],
      [
        "▁doları'nda",
        -9.759473973600558
      ],
      [
        "▁pırlanta",
        -11.375047269725505
      ],
      [
        "▁kırkdort",
        -11.494123588649353
      ],
      [
        "eri",
        -8.593642937284123
      ],
      [
        "▁akzo",
        -11.518553481838115
      ],
      [
        "▁kirpikleri",
        -10.592716350259241
      ],
      [
        "▁rahatlık",
        -11.649494285710478
      ],
      [
        "▁suclu",
        -9.99630320325894
      ],
      [
        "irse",
        -10.971606535182431
      ],
      [
        "▁sınavı",
        -11.189771229333227
      ],
      [
        "▁metal",
        -10.328256293858113
      ],
      [
        "▁tepsi",
        -10.761887682135654
      ],
      [
        "▁alamadı",
        -10.831120392321123
      ],
      [
        "▁donanmıs",
        -11.518182966814878
      ],
      [
        "▁ermez",
        -11.707439240764701
      ],
      [
        "▁kanat",
        -9.82567610768551
      ],
      [
        "▁riskli",
        -10.65773793144177
      ],
      [
        "▁kırac",
        -11.249897486372648
      ],
      [
        "▁hollywood",
        -10.864693733773693
      ],
      [
        "▁toplulugu",
        -11.531503240262593
      ],
      [
        "▁komite",
        -10.347438465878195
      ],
      [
        "▁kadıkoy'de",
        -11.250325691648616
      ],
      [
        "▁olmaya",
        -9.491752415793732
      ],
      [
        "▁pro",
        -10.153654443118569
      ],
      [
        "▁mantıksız",
        -10.952581200124772
      ],
      [
        "▁yapılacagın",
        -11.33452115430429
      ],
      [
        "▁bora",
        -10.676572544157487
      ],
      [
        "▁uygarlık",
        -11.375925763263805
      ],
      [
        "▁sa",
        -7.058721000505687
      ],
      [
        "▁gozlemcileri",
        -11.375368912027275
      ],
      [
        "▁asamada",
        -11.431740861359808
      ],
      [
        "san",
        -9.04227499733786
      ],
      [
        "▁artırmak",
        -10.58655888958484
      ],
      [
        "▁fevkalade",
        -10.587175418631483
      ],
      [
        "▁%7.",
        -11.075594433443909
      ],
      [
        "▁geliri",
        -9.526787037500913
      ],
      [
        "▁pompa",
        -11.168858770052262
      ],
      [
        "▁battı",
        -11.378301643874126
      ],
      [
        "▁7.2",
        -10.324098996964956
      ],
      [
        "▁menfaat",
        -10.47279913696551
      ],
      [
        "▁burnum",
        -10.814627079247323
      ],
      [
        "ecegi",
        -9.330916059509981
      ],
      [
        "▁murekkep",
        -11.039688607261654
      ],
      [
        "▁katip",
        -11.260136136221526
      ],
      [
        "▁tehdit",
        -9.909409267150064
      ],
      [
        "▁hemfikir",
        -11.884571113739486
      ],
      [
        "yuzyirmi",
        -12.449394721064522
      ],
      [
        "▁degerli",
        -9.651891685916913
      ],
      [
        "▁elini",
        -9.057305931437142
      ],
      [
        "▁aramızda",
        -10.42692835579172
      ],
      [
        "ler",
        -8.561113245009482
      ],
      [
        "▁ki",
        -4.577539143697806
      ],
      [
        "▁av",
        -9.237292719736011
      ],
      [
        "▁onun",
        -8.569819234761859
      ],
      [
        "▁renklerde",
        -11.714541303091698
      ],
      [
        "▁simdi",
        -7.0390948399867455
      ],
      [
        "▁`",
        -10.525504872882168
      ],
      [
        "▁yapıldıgı",
        -11.108953585887255
      ],
      [
        "▁atıstırma",
        -11.518057273303091
      ],
      [
        "▁sır",
        -9.558385624466375
      ],
      [
        "▁kot",
        -10.456142645882256
      ],
      [
        "▁ısık",
        -9.170066167959806
      ],
      [
        "▁calısmak",
        -10.311885574140728
      ],
      [
        "▁chan",
        -11.253842040931287
      ],
      [
        "▁davetliler",
        -11.684797473624817
      ],
      [
        "▁peri",
        -10.107376958673047
      ],
      [
        "▁yazdıgı",
        -10.475602164731544
      ],
      [
        "er",
        -10.61205839064084
      ],
      [
        "▁ara",
        -7.965655132042612
      ],
      [
        "▁yapılıyor",
        -10.175936602505871
      ],
      [
        "▁olimpiyat",
        -11.172672629613068
      ],
      [
        "▁bozgun",
        -11.696413533764416
      ],
      [
        "▁kendini",
        -6.832826224031009
      ],
      [
        "▁yurutul",
        -11.039904943026976
      ],
      [
        "▁etmez",
        -9.901887071974938
      ],
      [
        "▁taahhudu",
        -11.51790452872775
      ],
      [
        "▁uzmanlar",
        -10.507740121979822
      ],
      [
        "▁mani",
        -9.942007238628195
      ],
      [
        "▁kalbim",
        -11.070601312769075
      ],
      [
        "▁mudur",
        -10.569581647065483
      ],
      [
        "▁tetik",
        -11.108780895386364
      ],
      [
        "14.7",
        -13.075324190606677
      ],
      [
        "▁senator",
        -10.196041713014836
      ],
      [
        "▁getirilerini",
        -11.386376048049696
      ],
      [
        "▁finans",
        -8.800202166766722
      ],
      [
        "▁pı",
        -11.055086030260902
      ],
      [
        "▁kalkıyor",
        -9.138601975259299
      ],
      [
        "▁geciyor",
        -9.244387872022926
      ],
      [
        "▁eglenceli",
        -10.079135635734357
      ],
      [
        "tepe",
        -11.37506125108585
      ],
      [
        "87.8",
        -13.243486231565367
      ],
      [
        "▁kodak",
        -11.68522683106739
      ],
      [
        "ılmaz",
        -10.536513100642797
      ],
      [
        "▁ispirto",
        -11.517904421465811
      ],
      [
        "▁cebimde",
        -11.518731646980699
      ],
      [
        "uldugunde",
        -11.578023082236813
      ],
      [
        "▁sınırlar",
        -11.232310327186953
      ],
      [
        "▁37",
        -9.086485923493704
      ],
      [
        "▁alevi",
        -11.082403402252169
      ],
      [
        "▁tamir",
        -9.915446925316102
      ],
      [
        "▁karavan",
        -11.684783804115751
      ],
      [
        "▁kırıl",
        -11.160449340763181
      ],
      [
        "▁afacan",
        -11.884576346659621
      ],
      [
        "▁saskınlıg",
        -11.291824430831728
      ],
      [
        "▁top",
        -8.917564476462996
      ],
      [
        "▁yegen",
        -11.297995911249506
      ],
      [
        "▁sey",
        -6.4199722543057405
      ],
      [
        "▁midwest",
        -10.864693890825189
      ],
      [
        "▁cinsel",
        -10.238709005843814
      ],
      [
        "▁odenek",
        -10.864997468411312
      ],
      [
        "▁gecmisin",
        -11.188164993926016
      ],
      [
        "▁kerpic",
        -11.138936414630138
      ],
      [
        "▁stone",
        -11.375198184094867
      ],
      [
        "▁kopar",
        -9.808558425640756
      ],
      [
        "▁celal",
        -10.370637935073038
      ],
      [
        "▁bukl",
        -11.043238793381864
      ],
      [
        "▁fiili",
        -10.153991297305252
      ],
      [
        "▁degisti",
        -10.191230504592268
      ],
      [
        "▁yunan",
        -10.473849648994053
      ],
      [
        "▁king",
        -11.688159816987126
      ],
      [
        "▁alısılmadık",
        -11.138936203627853
      ],
      [
        "miydi",
        -12.691765336723588
      ],
      [
        "▁gorece",
        -10.879020402708955
      ],
      [
        "▁israil",
        -9.885262867656612
      ],
      [
        "▁99.1",
        -10.582521126907109
      ],
      [
        "02.0",
        -12.395323515668846
      ],
      [
        "▁irfan",
        -11.138936576960521
      ],
      [
        "▁zeybe",
        -11.884571102216258
      ],
      [
        "▁buku",
        -11.026140303824238
      ],
      [
        "▁bitkiler",
        -11.036048613669488
      ],
      [
        "▁degerlendirir",
        -9.536462512635033
      ],
      [
        "▁sistemini",
        -10.634265138992097
      ],
      [
        "▁kadri",
        -11.51912444352369
      ],
      [
        "▁seda",
        -10.09187495168019
      ],
      [
        "ans",
        -10.389626902140819
      ],
      [
        "▁gerald",
        -11.684609470394697
      ],
      [
        "▁donum",
        -10.513075887042374
      ],
      [
        "▁saklay",
        -11.370328243234383
      ],
      [
        "▁baglama",
        -10.37868985782597
      ],
      [
        "▁rengi",
        -9.369718970416438
      ],
      [
        "▁askı",
        -9.60859552493948
      ],
      [
        "▁kucagında",
        -10.973335428838524
      ],
      [
        "26.3",
        -11.874623834328133
      ],
      [
        "▁havayolu",
        -9.0435894922512
      ],
      [
        "ist",
        -12.886334133326915
      ],
      [
        "▁kez",
        -8.042000169474555
      ],
      [
        "▁soyle",
        -7.850145103021474
      ],
      [
        "▁yaya",
        -10.60266873626937
      ],
      [
        "▁kayb",
        -11.400409381147238
      ],
      [
        "▁ornek",
        -9.301882118070331
      ],
      [
        "▁sasırdı",
        -11.178257418970011
      ],
      [
        "▁kaybolu",
        -11.216048169058395
      ],
      [
        "▁ha",
        -9.661661106856688
      ],
      [
        "▁kuvvetli",
        -9.882490007008416
      ],
      [
        "▁mirkelam",
        -10.864693733149826
      ],
      [
        "meyecegi",
        -10.315647728118075
      ],
      [
        "▁seviniyor",
        -11.417810444714437
      ],
      [
        "▁onder",
        -10.8828942315171
      ],
      [
        "▁calısıyor",
        -8.854142782362707
      ],
      [
        "▁balkonda",
        -11.519588651599117
      ],
      [
        "▁bacaklarında",
        -11.538268588520378
      ],
      [
        "sından",
        -8.900023013328475
      ],
      [
        "▁hukumetin",
        -9.642926590676694
      ],
      [
        "▁kalkmıs",
        -10.641062650278013
      ],
      [
        "▁c",
        -12.678957478988158
      ],
      [
        "▁isitme",
        -11.175611990684082
      ],
      [
        "▁guardia",
        -11.249522385202141
      ],
      [
        "▁istegi",
        -10.08325512229722
      ],
      [
        "▁ucu",
        -9.115071316632498
      ],
      [
        "▁donanım",
        -10.6497153077665
      ],
      [
        "▁hugo",
        -10.420302489465284
      ],
      [
        "tif",
        -9.674190500483505
      ],
      [
        "▁meltem",
        -11.517922174415478
      ],
      [
        "▁yarası",
        -11.148941108698276
      ],
      [
        "▁olusturma",
        -10.856052307864429
      ],
      [
        "563",
        -12.743363477153641
      ],
      [
        "9.2",
        -10.791611926756298
      ],
      [
        "ling",
        -11.439776863365063
      ],
      [
        "▁1'de",
        -10.621217208445442
      ],
      [
        "*",
        -8.020174383409994
      ],
      [
        "▁degisken",
        -10.866497468102594
      ],
      [
        "▁ydi",
        -6.934268810392528
      ],
      [
        "▁kredi",
        -8.26136329518328
      ],
      [
        "▁nihat",
        -10.841769153206348
      ],
      [
        "▁2.3",
        -9.999738725484406
      ],
      [
        "▁kirk",
        -11.331660978193117
      ],
      [
        "▁et",
        -8.483190876271257
      ],
      [
        "▁bayag",
        -10.434302012187157
      ],
      [
        "▁ettigini",
        -9.256723487214726
      ],
      [
        "▁bulunmadı",
        -11.196267301629543
      ],
      [
        "▁yazı",
        -8.398904839191507
      ],
      [
        "▁tedbirler",
        -10.66940190660683
      ],
      [
        "▁sm",
        -10.019271539684375
      ],
      [
        "▁opu",
        -11.273963541982145
      ],
      [
        "▁nedeni",
        -8.571068882899308
      ],
      [
        "▁yetisme",
        -11.252572457950933
      ],
      [
        "▁ucun",
        -10.510444241104318
      ],
      [
        "▁ayında",
        -8.261584864336555
      ],
      [
        "▁uyma",
        -9.895839485615333
      ],
      [
        "▁farkında",
        -9.623550397110701
      ],
      [
        "▁sci",
        -10.870346834950626
      ],
      [
        "22.8",
        -11.441367210671537
      ],
      [
        "4",
        -9.5754158912283
      ],
      [
        "lerdi",
        -10.730951152828887
      ],
      [
        "5.7",
        -10.318971386421392
      ],
      [
        "▁j.",
        -10.194040696767486
      ],
      [
        "cikista",
        -10.420862352815693
      ],
      [
        "▁gamze",
        -11.250465535629381
      ],
      [
        "▁ların",
        -10.358136211971258
      ],
      [
        "▁yuz",
        -7.387323089183921
      ],
      [
        "▁serisi",
        -10.836846137778661
      ],
      [
        "▁superdi",
        -9.276160334882373
      ],
      [
        "▁kav",
        -10.486705784660497
      ],
      [
        "▁birimi",
        -9.568624405636719
      ],
      [
        "72",
        -10.467610741066034
      ],
      [
        "▁sesinde",
        -11.619908505369702
      ],
      [
        "▁yolcular",
        -11.203331617878561
      ],
      [
        "▁soylemek",
        -9.82675844148471
      ],
      [
        "▁anlatmıs",
        -11.25055494631071
      ],
      [
        "▁sokulu",
        -11.551590239274766
      ],
      [
        "▁krenz",
        -10.924700655842548
      ],
      [
        "▁yapacagi",
        -11.044409095078965
      ],
      [
        "▁trafik",
        -10.076447660788107
      ],
      [
        "bon",
        -10.332740130546219
      ],
      [
        "▁bekledik",
        -10.631964684912212
      ],
      [
        "▁richard",
        -10.37017414080225
      ],
      [
        "▁dagları",
        -11.118496195942363
      ],
      [
        "sak",
        -9.914315494545589
      ],
      [
        "▁banco",
        -11.375543869363224
      ],
      [
        "▁organiz",
        -11.145086893579242
      ],
      [
        "▁bizim",
        -6.222492561437722
      ],
      [
        "31",
        -10.285071516838899
      ],
      [
        "sun",
        -7.91083339315504
      ],
      [
        "▁iyilik",
        -10.726712607943544
      ],
      [
        "▁onceki",
        -8.32230946687766
      ],
      [
        "▁1974",
        -10.065244010153869
      ],
      [
        "ities",
        -11.802361042881406
      ],
      [
        "▁zırh",
        -11.515932873466035
      ],
      [
        "ilecek",
        -10.236226616843703
      ],
      [
        "▁koymustu",
        -11.28389576990417
      ],
      [
        "▁mintan",
        -11.039189694490013
      ],
      [
        "▁carsıda",
        -11.20866497397384
      ],
      [
        "▁deneyimi",
        -11.342999015174739
      ],
      [
        "▁kesi",
        -9.948070329429898
      ],
      [
        "▁reserv",
        -10.716344203108537
      ],
      [
        "erson",
        -11.163232046257557
      ],
      [
        "▁kesiyor",
        -10.773433300717027
      ],
      [
        "▁cefa",
        -11.250430185910142
      ],
      [
        "▁kabak",
        -10.643909354750722
      ],
      [
        "▁tat",
        -10.537309354538385
      ],
      [
        "▁keyif",
        -10.344314026967332
      ],
      [
        "n",
        -3.429582897054024
      ],
      [
        "▁ideoloji",
        -10.113590617065023
      ],
      [
        "▁omuzların",
        -11.360191393481305
      ],
      [
        "▁yanı",
        -11.169285448667733
      ],
      [
        "▁bacı",
        -11.711351977539456
      ],
      [
        "▁basarısız",
        -10.070485039080587
      ],
      [
        "▁bulasık",
        -10.787779967812218
      ],
      [
        "▁sezer",
        -10.844079800141948
      ],
      [
        "abilecegi",
        -10.002096696125774
      ],
      [
        "'si",
        -12.455738065913676
      ],
      [
        "▁boynuz",
        -11.041818119948928
      ],
      [
        "klerini",
        -9.920820815130337
      ],
      [
        "o",
        -10.725630651579849
      ],
      [
        "gumu",
        -10.72710999314124
      ],
      [
        "▁ab'",
        -10.807040084056457
      ],
      [
        "▁geometri",
        -11.517923840435452
      ],
      [
        "▁olacagını",
        -8.960332589929923
      ],
      [
        "▁giyim",
        -10.602155316387162
      ],
      [
        "demir",
        -11.516384366497634
      ],
      [
        "▁olma",
        -8.284917909112096
      ],
      [
        "▁oksuruk",
        -10.948120472837417
      ],
      [
        "▁gorusmelerde",
        -11.586680768789172
      ],
      [
        "▁ispanya",
        -11.138446453602878
      ],
      [
        "▁harr",
        -11.479438094261539
      ],
      [
        "▁onerdi",
        -10.828841227730504
      ],
      [
        "▁navlun",
        -11.68457123018242
      ],
      [
        "▁cogal",
        -10.848489278171982
      ],
      [
        "▁verilecek",
        -10.889694461090716
      ],
      [
        "▁cesur",
        -10.370172018370242
      ],
      [
        "▁isteyebilir",
        -11.518346323819973
      ],
      [
        "`",
        -5.179160897858701
      ],
      [
        "▁kovusturma",
        -11.88457107935114
      ],
      [
        "▁birligi'n",
        -11.860080815339256
      ],
      [
        "▁televizyonu",
        -11.41534121640761
      ],
      [
        "▁ender",
        -11.395752084285444
      ],
      [
        "▁adını",
        -9.341723247901706
      ],
      [
        "▁katlı",
        -10.264110853266587
      ],
      [
        "▁aquaparki",
        -11.375049990364204
      ],
      [
        "▁kokteyl",
        -11.139050925911485
      ],
      [
        "▁istemis",
        -10.37469723700414
      ],
      [
        "▁tabanı",
        -11.17701607669809
      ],
      [
        "▁corp",
        -9.961356572674728
      ],
      [
        "▁bakıs",
        -9.122078272477854
      ],
      [
        "▁kuralların",
        -11.049070848175583
      ],
      [
        "▁toplay",
        -10.798374272875648
      ],
      [
        "▁group",
        -10.370165145161053
      ],
      [
        "▁4.6",
        -10.156452873367982
      ],
      [
        "j",
        -9.513543548351217
      ],
      [
        "▁yıgın",
        -10.311733806065304
      ],
      [
        "▁politik",
        -9.831656734050597
      ],
      [
        "▁utanc",
        -10.422067668399412
      ],
      [
        "▁kavur",
        -10.851830924966187
      ],
      [
        "ma",
        -12.810082874936366
      ],
      [
        "▁astı",
        -9.983291853920424
      ],
      [
        "▁bavul",
        -11.517905139781385
      ],
      [
        "▁sivil",
        -9.972918554117818
      ],
      [
        "▁yiyi",
        -10.69223666118952
      ],
      [
        "▁menkul",
        -8.075021863106034
      ],
      [
        "sunu",
        -11.5643644007294
      ],
      [
        "▁miktarın",
        -11.086163942876585
      ],
      [
        "▁bizi",
        -10.487678533713606
      ],
      [
        "▁sabırsız",
        -10.869046203438373
      ],
      [
        "▁prenses",
        -10.843911814818973
      ],
      [
        "▁kars",
        -12.379375454855948
      ],
      [
        "▁acması",
        -11.558297854959948
      ],
      [
        "▁kopuk",
        -10.671443516043066
      ],
      [
        "▁makyaj",
        -11.884571202824386
      ],
      [
        "▁duymuyor",
        -11.25168311698485
      ],
      [
        "▁iran'",
        -11.637227329410509
      ],
      [
        "▁agzı",
        -10.012488734827752
      ],
      [
        "an'ın",
        -10.772266426985198
      ],
      [
        "▁dusunuyordu",
        -10.203980467949258
      ],
      [
        "▁parmak",
        -9.564361489045709
      ],
      [
        "▁isgal",
        -10.114361169053021
      ],
      [
        "▁gibi",
        -4.36209696709702
      ],
      [
        "▁bu",
        -8.670343303362085
      ],
      [
        "▁razı",
        -10.322572270853216
      ],
      [
        "▁flor",
        -11.881679664490802
      ],
      [
        "▁goz",
        -7.845909168605718
      ],
      [
        "man",
        -8.431904902435818
      ],
      [
        "▁galiba",
        -9.468699685209897
      ],
      [
        "▁cocukların",
        -9.611684877932493
      ],
      [
        "▁kızardı",
        -11.47009054921555
      ],
      [
        "minal",
        -10.587496184638734
      ],
      [
        "▁cekim",
        -10.232103170544473
      ],
      [
        "▁baslay",
        -10.015087958183877
      ],
      [
        "▁kanadı",
        -10.42046635510231
      ],
      [
        "▁ok",
        -9.786561725241313
      ],
      [
        "▁85",
        -10.185528823684125
      ],
      [
        "ydı",
        -10.034324810756512
      ],
      [
        "▁dolasmıs",
        -11.695151595062946
      ],
      [
        "▁mecmua",
        -11.250047270592164
      ],
      [
        "▁rif",
        -11.69040387835215
      ],
      [
        "▁yuksekti",
        -9.043816821897693
      ],
      [
        "▁sorunu",
        -9.054604457134662
      ],
      [
        "▁durma",
        -9.211795190747813
      ],
      [
        "▁27.0",
        -11.650099595996721
      ],
      [
        "▁fuat",
        -11.686065740851873
      ],
      [
        "nack",
        -11.761540632910224
      ],
      [
        "▁sise",
        -9.548620094634625
      ],
      [
        "▁attı",
        -8.74044484724591
      ],
      [
        "▁agrısı",
        -11.416375571378612
      ],
      [
        "▁anlasama",
        -11.685373361996078
      ],
      [
        "daniel",
        -11.378288194737362
      ],
      [
        "▁derecelendiril",
        -11.139229545148165
      ],
      [
        "▁1.3",
        -8.686349043806366
      ],
      [
        "▁surada",
        -10.888683670775977
      ],
      [
        "▁sahipleri",
        -9.677180814792997
      ],
      [
        "'ta",
        -9.234108324603813
      ],
      [
        "q",
        -11.036061222847293
      ],
      [
        "▁almalar",
        -10.923318498395082
      ],
      [
        "▁cagrısında",
        -11.701104983013042
      ],
      [
        "▁guzellikleri",
        -11.49427153712027
      ],
      [
        "▁uzu",
        -11.607297995140682
      ],
      [
        "▁edilmesi",
        -9.683050550563364
      ],
      [
        "larında",
        -7.825076830114623
      ],
      [
        "▁har",
        -9.65092759605018
      ],
      [
        "▁zamanında",
        -10.533002063132452
      ],
      [
        "▁alacaklı",
        -11.07033803597804
      ],
      [
        "▁ba",
        -7.796867541496937
      ],
      [
        "▁gorus",
        -9.270111305536828
      ],
      [
        "▁gogus",
        -10.193219527387459
      ],
      [
        "▁vazgec",
        -9.928163424182799
      ],
      [
        "▁gavur",
        -11.517904993734042
      ],
      [
        "▁ayırdı",
        -11.295371616104934
      ],
      [
        "▁tasavvuf",
        -11.884571077957986
      ],
      [
        "▁olmaktadır",
        -11.000527025100862
      ],
      [
        "▁sıkıstırı",
        -11.061642556654716
      ],
      [
        "▁renkli",
        -9.342147194302026
      ],
      [
        "▁muhterem",
        -11.517904507827751
      ],
      [
        "dian",
        -10.769311983916982
      ],
      [
        "▁simge",
        -11.680499277922278
      ],
      [
        "▁havalimanı'n",
        -11.838742776968507
      ],
      [
        "▁pkk",
        -11.039692980669164
      ],
      [
        "▁lise",
        -10.181385623604605
      ],
      [
        "▁verdi",
        -7.757267715701256
      ],
      [
        "▁550",
        -10.58675290347122
      ],
      [
        "▁ambargo",
        -11.518100618453497
      ],
      [
        ":30'da",
        -11.84684139174277
      ],
      [
        "▁bolun",
        -10.98081337963459
      ],
      [
        "▁vucudunu",
        -10.832184050329289
      ],
      [
        "▁eksi",
        -10.354815152283924
      ],
      [
        "▁kırıldı",
        -11.331070736203445
      ],
      [
        "lasma",
        -9.490277688909382
      ],
      [
        "▁demekti",
        -10.111045220588563
      ],
      [
        "▁yenildi",
        -11.154373707547027
      ],
      [
        "▁gidere",
        -10.002703997365948
      ],
      [
        "▁makinesi",
        -10.162716842761753
      ],
      [
        "▁boncuk",
        -10.71643275475846
      ],
      [
        "▁poli",
        -10.924391645654271
      ],
      [
        "▁pekistirme",
        -11.884572658441638
      ],
      [
        "ifi",
        -10.791555135483542
      ],
      [
        "▁oturur",
        -10.733393233377619
      ],
      [
        "▁yengem",
        -11.250081759579533
      ],
      [
        "▁mason",
        -11.376685896327963
      ],
      [
        "▁ihtimalle",
        -11.228665934552492
      ],
      [
        "▁biyoteknolo",
        -11.884571241204505
      ],
      [
        "▁washington'",
        -8.777324461155482
      ],
      [
        "▁konustugu",
        -11.137571053335744
      ],
      [
        "▁birbiri",
        -8.835210247566259
      ],
      [
        "▁gosteri",
        -9.945627147584574
      ],
      [
        "sana",
        -10.379928442631538
      ],
      [
        "▁elbise",
        -9.273574338546975
      ],
      [
        "▁di",
        -9.402290065177851
      ],
      [
        "▁saptama",
        -11.375252380192471
      ],
      [
        "▁sap",
        -9.260927966885513
      ],
      [
        "700",
        -10.653848653531371
      ],
      [
        "▁disney",
        -11.517947635459429
      ],
      [
        "larl",
        -12.877145337305546
      ],
      [
        "▁mızra",
        -11.518599998512508
      ],
      [
        "▁dolastı",
        -10.13350515266524
      ],
      [
        "▁azalıyor",
        -11.768250561108031
      ],
      [
        "▁kamera",
        -11.04707547325803
      ],
      [
        "▁tura",
        -10.746320220586227
      ],
      [
        "▁barometresi",
        -11.884573016161495
      ],
      [
        "▁kuracak",
        -11.690563403087015
      ],
      [
        "▁savun",
        -11.301877707554706
      ],
      [
        "▁yazının",
        -11.083407955915913
      ],
      [
        "▁deg",
        -10.15048211202184
      ],
      [
        "▁karnını",
        -11.28523909377157
      ],
      [
        "▁girmez",
        -11.388284374745245
      ],
      [
        "▁projesi",
        -10.613265922630772
      ],
      [
        "8",
        -9.824755423649044
      ],
      [
        "▁koltugun",
        -10.631108343064055
      ],
      [
        "▁agacların",
        -11.00823719066662
      ],
      [
        "oysa",
        -10.817249728677709
      ],
      [
        "▁olmasin",
        -10.960245542088577
      ],
      [
        "▁dizginleri",
        -11.139235213216832
      ],
      [
        "▁sohbet",
        -9.573047863164232
      ],
      [
        "▁dusunmeye",
        -11.14786990890261
      ],
      [
        "ısı",
        -12.217115776656739
      ],
      [
        "kları",
        -8.993250495435671
      ],
      [
        "▁maksat",
        -11.375047662244137
      ],
      [
        "▁alaska",
        -11.250052644921562
      ],
      [
        "▁denver",
        -8.099682443636116
      ],
      [
        "▁metrekare",
        -11.684580831054829
      ],
      [
        "▁cıkıyordu",
        -10.728637930585018
      ],
      [
        "▁icecekler",
        -9.401778006244173
      ],
      [
        "▁hos",
        -8.886158496000213
      ],
      [
        "▁tehlikesi",
        -11.21912785254302
      ],
      [
        "▁philadelphia'da",
        -8.22288768977852
      ],
      [
        "▁basarmıstı",
        -11.717997827030125
      ],
      [
        "▁zamaninda",
        -10.950167817702866
      ],
      [
        "▁olduk",
        -8.870531359174967
      ],
      [
        "▁ayagı",
        -10.002475608620962
      ],
      [
        "▁dfw",
        -11.517905466192198
      ],
      [
        "▁acayip",
        -10.716369690294332
      ],
      [
        "▁ulasim",
        -11.479655236611439
      ],
      [
        "▁kayboldu",
        -10.857040940998694
      ],
      [
        "que",
        -10.555002144832493
      ],
      [
        "▁kavramı",
        -11.028720880935559
      ],
      [
        "▁saglama",
        -10.766269685978155
      ],
      [
        "▁urunleri",
        -9.169917715721493
      ],
      [
        "▁kemp",
        -11.685126376871228
      ],
      [
        "▁aldı",
        -7.5480480865397475
      ],
      [
        "▁delta",
        -8.650249340856442
      ],
      [
        "yuzseksen",
        -10.322102061271394
      ],
      [
        "▁adamları",
        -9.405652084809871
      ],
      [
        "degildi",
        -8.151181688592366
      ],
      [
        "▁femin",
        -11.519242971617508
      ],
      [
        "▁acıldı",
        -9.314950561435303
      ],
      [
        "▁eder",
        -8.057137267799934
      ],
      [
        "▁kaptır",
        -11.06304341863056
      ],
      [
        "▁harcadı",
        -10.758653389198697
      ],
      [
        "▁kahramanlık",
        -11.548152733807022
      ],
      [
        "▁sarkı",
        -9.131251023486255
      ],
      [
        "▁yaklasımı",
        -10.338165303130795
      ],
      [
        "▁uzmanları",
        -10.142477101034025
      ],
      [
        "▁kuralı",
        -11.533491254774795
      ],
      [
        "un",
        -11.506828243750974
      ],
      [
        "▁sairi",
        -11.540102991046531
      ],
      [
        "▁anlamaya",
        -11.218954384274666
      ],
      [
        "▁oakland'",
        -8.774694446770855
      ],
      [
        "▁surdure",
        -11.11999449547666
      ],
      [
        "▁gerceklestir",
        -9.894418270189496
      ],
      [
        "▁kaynatı",
        -10.792181414512328
      ],
      [
        "▁200",
        -8.144482062339698
      ],
      [
        "▁bolumunu",
        -10.250376474026183
      ],
      [
        "senin",
        -8.862336679571293
      ],
      [
        "▁adamdı",
        -10.519809017281245
      ],
      [
        "▁kurban",
        -9.737695221054564
      ],
      [
        "▁yansıtıyor",
        -10.447319425244427
      ],
      [
        "▁cebin",
        -10.702460163437179
      ],
      [
        "▁barınagı",
        -11.139392741457025
      ],
      [
        "z",
        -14.190853728377773
      ],
      [
        "▁penaltı",
        -11.68458521029967
      ],
      [
        "▁530",
        -11.428407399633453
      ],
      [
        "▁anasını",
        -10.91601699826164
      ],
      [
        "▁beklemiyor",
        -10.71673997100626
      ],
      [
        "▁politikaları",
        -11.218837441100213
      ],
      [
        "ir",
        -7.694350183988116
      ],
      [
        "▁memnun",
        -6.327891535591864
      ],
      [
        "▁kırkyıl",
        -11.381369984261713
      ],
      [
        "▁ra",
        -9.087534355284152
      ],
      [
        "▁kktc",
        -11.684115470434637
      ],
      [
        "▁islemlerini",
        -10.703859276344646
      ],
      [
        "▁hece",
        -11.375494502242708
      ],
      [
        "ebilmek",
        -10.181728593538582
      ],
      [
        "binbir",
        -10.307879826362921
      ],
      [
        "▁basar",
        -10.164959087599193
      ],
      [
        "▁sema",
        -11.056554527849134
      ],
      [
        "▁verecektir",
        -11.04229299050029
      ],
      [
        "ba",
        -8.480276651713769
      ],
      [
        "ol",
        -8.995209993915564
      ],
      [
        "1.0",
        -11.266807510313967
      ],
      [
        "▁sibirya",
        -11.684573400655387
      ],
      [
        "▁tam",
        -7.487640539941896
      ],
      [
        "isinda",
        -9.108464678714164
      ],
      [
        "▁idare",
        -9.066513159308618
      ],
      [
        "hepsi",
        -10.44660760275194
      ],
      [
        "▁cek",
        -8.93433044290984
      ],
      [
        "▁taktı",
        -10.814758792264914
      ],
      [
        "▁ulasıl",
        -11.283480219872489
      ],
      [
        "beraber",
        -12.47587297156347
      ],
      [
        "▁honecker",
        -11.884571279536257
      ],
      [
        "▁dir",
        -7.302651398842159
      ],
      [
        "▁kaplama",
        -10.725821386214692
      ],
      [
        "▁kıl",
        -9.448077484732284
      ],
      [
        "dır",
        -6.736658428891118
      ],
      [
        "▁duyu",
        -10.519517586217324
      ],
      [
        "▁bulabil",
        -10.822254354314792
      ],
      [
        "▁muhallebi",
        -10.864693733730121
      ],
      [
        "▁ekipleri",
        -10.89441655479354
      ],
      [
        "▁havale",
        -11.101014203131319
      ],
      [
        "▁telif",
        -11.522337176424681
      ],
      [
        "▁sam",
        -10.623945742548674
      ],
      [
        "▁aydınlanma",
        -11.707958145980921
      ],
      [
        "boy",
        -10.618621469485278
      ],
      [
        "▁otomobilin",
        -11.165598654090076
      ],
      [
        "▁2.62",
        -10.62755014061802
      ],
      [
        "▁bardak",
        -9.618093922967354
      ],
      [
        "▁bicare",
        -11.375057313851194
      ],
      [
        "▁dernegi",
        -10.420349625447097
      ],
      [
        "▁yatan",
        -10.432752181279024
      ],
      [
        "▁yaptıgımız",
        -10.9986275931315
      ],
      [
        "%1",
        -10.967803638388562
      ],
      [
        "▁kıskırtma",
        -11.88457127129509
      ],
      [
        "▁zengin",
        -8.648973323555717
      ],
      [
        "▁market",
        -11.014199855116278
      ],
      [
        "▁tasfiye",
        -10.71634220186992
      ],
      [
        "▁ilaclar",
        -10.91547083526592
      ],
      [
        "▁saklama",
        -10.735263302432905
      ],
      [
        "san",
        -11.727545956913723
      ],
      [
        "▁ugrayacak",
        -11.54790700062585
      ],
      [
        "ay",
        -9.256230120737431
      ],
      [
        "▁avsar",
        -11.13908342881503
      ],
      [
        "44.9",
        -12.634094068592963
      ],
      [
        "▁kesinti",
        -10.395380553645307
      ],
      [
        "▁sansur",
        -10.763714371348204
      ],
      [
        "▁basarısızlıg",
        -11.348454259389815
      ],
      [
        "▁bulanık",
        -10.528426827198968
      ],
      [
        "'da",
        -9.16403921981313
      ],
      [
        "▁dedikodu",
        -10.370172679643053
      ],
      [
        "▁cavusu",
        -11.544222459201423
      ],
      [
        "▁sabr",
        -11.677586141302651
      ],
      [
        "▁arasinda",
        -11.686464006981705
      ],
      [
        "▁yarat",
        -10.165329201041402
      ],
      [
        "▁umdugunu",
        -11.139059428929611
      ],
      [
        "▁kalan",
        -8.659964113027595
      ],
      [
        "▁parca",
        -8.706754571527242
      ],
      [
        "▁cesitlendirme",
        -11.68881940495559
      ],
      [
        "▁devrim",
        -9.400427726614321
      ],
      [
        "▁umit",
        -9.68950191991872
      ],
      [
        "▁aktarmalı",
        -8.956629330053758
      ],
      [
        "▁servet",
        -9.90947074213052
      ],
      [
        "▁166",
        -13.26728106469455
      ],
      [
        "▁bura",
        -9.543867932243385
      ],
      [
        "▁hostes",
        -11.685372932417106
      ],
      [
        "▁altta",
        -11.65404537792652
      ],
      [
        "▁duyumsa",
        -11.139838730727208
      ],
      [
        "▁eksen",
        -11.520606042987263
      ],
      [
        "273",
        -12.625595375661147
      ],
      [
        "asyon",
        -11.048280533725752
      ],
      [
        "▁cubuk",
        -11.03894265091178
      ],
      [
        "▁reklamı",
        -11.304555261053483
      ],
      [
        "▁barındıra",
        -11.518358171383836
      ],
      [
        "▁ufukta",
        -11.68593003164966
      ],
      [
        "▁sasır",
        -10.598076418645137
      ],
      [
        "▁serpi",
        -11.245970631046301
      ],
      [
        "ini",
        -7.3682148679493
      ],
      [
        "▁tiyatro",
        -9.12957995849406
      ],
      [
        "▁bekir",
        -10.787846429379986
      ],
      [
        "▁fıskır",
        -10.864700658798077
      ],
      [
        "si",
        -6.255593736918612
      ],
      [
        "▁boynu",
        -11.22706439556199
      ],
      [
        "▁aklın",
        -9.785200309466266
      ],
      [
        "▁stogu",
        -11.695971136187794
      ],
      [
        "9.",
        -12.612579289418383
      ],
      [
        "▁tesisi",
        -9.394130310365703
      ],
      [
        "▁bekar",
        -10.47321256234071
      ],
      [
        "▁amr",
        -10.960400834866437
      ],
      [
        "▁uf",
        -9.86094233039229
      ],
      [
        "▁istiyordu",
        -9.776436480570808
      ],
      [
        "▁donemi",
        -9.898666960425954
      ],
      [
        "▁3.",
        -11.140216525545814
      ],
      [
        "▁imajı",
        -11.162646603562724
      ],
      [
        "oloji",
        -10.649699910320406
      ],
      [
        "'le",
        -9.409343124704623
      ],
      [
        "▁yapamayacag",
        -10.817909363840819
      ],
      [
        "lanıyor",
        -9.253474360636693
      ],
      [
        "▁ayar",
        -10.30855118393211
      ],
      [
        "▁gecelik",
        -10.657775654490973
      ],
      [
        "▁sarılma",
        -11.688904666166074
      ],
      [
        "▁veriyoru",
        -8.029557219321692
      ],
      [
        "lamaz",
        -10.698443065123978
      ],
      [
        "▁teneffus",
        -11.88457108152126
      ],
      [
        "▁jose",
        -10.52801975469886
      ],
      [
        "lu",
        -6.993292191461655
      ],
      [
        "▁ecekti",
        -9.815637890076928
      ],
      [
        "▁california",
        -10.469239684925467
      ],
      [
        "▁kargasa",
        -10.591206163602807
      ],
      [
        "▁yasanan",
        -9.87927328459506
      ],
      [
        "▁mahalle",
        -9.246195899751527
      ],
      [
        "▁genisti",
        -11.117091526617566
      ],
      [
        "▁duracak",
        -11.170320296511935
      ],
      [
        "▁ogilvy",
        -11.375047268432084
      ],
      [
        "birini",
        -10.263332186223007
      ],
      [
        "▁onalt",
        -11.763313972872023
      ],
      [
        ":5",
        -12.348480998018744
      ],
      [
        "▁dayadı",
        -11.487646099065675
      ],
      [
        "▁kullandıgı",
        -10.181258145750778
      ],
      [
        "▁dagın",
        -10.521959017228344
      ],
      [
        "▁234",
        -12.415293115848229
      ],
      [
        "▁hakan",
        -10.092627303566196
      ],
      [
        "▁6'da",
        -9.595648218830735
      ],
      [
        "▁1.62",
        -11.770595066060816
      ],
      [
        "▁kaka",
        -11.68691863124954
      ],
      [
        "wer",
        -11.286095827352373
      ],
      [
        "▁1700",
        -12.419126141772608
      ],
      [
        "▁yaktı",
        -10.161990097747822
      ],
      [
        "▁itibariyle",
        -9.85048053040938
      ],
      [
        "inin",
        -11.717999246691704
      ],
      [
        "▁kıyma",
        -11.375049899722123
      ],
      [
        "▁davranısını",
        -11.407089220781579
      ],
      [
        "-1",
        -11.488944521330149
      ],
      [
        "▁zeytin",
        -10.199119126765712
      ],
      [
        "▁fantezi",
        -11.250047926085374
      ],
      [
        "▁acgozlu",
        -11.884571091189608
      ],
      [
        "layacak",
        -9.606823210607118
      ],
      [
        "qui",
        -11.467629384519455
      ],
      [
        "annie",
        -11.16984234562055
      ],
      [
        "▁%5",
        -11.444427029101837
      ],
      [
        "▁bilet",
        -8.938231006102914
      ],
      [
        "▁mevsimin",
        -11.75088517527977
      ],
      [
        "▁doluyor",
        -11.487477106647443
      ],
      [
        "▁istedigim",
        -9.963373692112004
      ],
      [
        "▁sıkıstı",
        -11.492566544836242
      ],
      [
        "▁kendiniz",
        -9.659975854683289
      ],
      [
        "▁almalı",
        -11.397551688439592
      ],
      [
        "▁bolumun",
        -11.08519055618159
      ],
      [
        "▁konsolos",
        -11.375094251253342
      ],
      [
        "▁ters",
        -9.527583517071982
      ],
      [
        "▁kısmet",
        -11.110170609609796
      ],
      [
        "▁delik",
        -9.982549888336669
      ],
      [
        "▁onda",
        -7.567065664976884
      ],
      [
        "29.2",
        -11.478666981838087
      ],
      [
        "▁temerrut",
        -11.138936157360357
      ],
      [
        "▁ileti",
        -11.151700291319159
      ],
      [
        "▁vasıta",
        -10.918760356500162
      ],
      [
        "▁makineleri",
        -11.307773157910768
      ],
      [
        "mektedir",
        -8.331065694442483
      ],
      [
        "medi",
        -9.5478331209227
      ],
      [
        "▁takılı",
        -11.529184225816309
      ],
      [
        "▁masada",
        -10.285131442377889
      ],
      [
        "▁beslenme",
        -11.694636774539308
      ],
      [
        "▁seviye",
        -9.67205680987994
      ],
      [
        "▁ithalat",
        -9.86210936049705
      ],
      [
        "▁diego",
        -10.585471529119289
      ],
      [
        "▁galibiyet",
        -10.787770660159122
      ],
      [
        "▁hibe",
        -11.385046392876127
      ],
      [
        "▁erdogan'ı",
        -10.983272058641989
      ],
      [
        "hanede",
        -10.900233653717857
      ],
      [
        "▁delil",
        -11.133623721034883
      ],
      [
        "▁kelimeleri",
        -11.309277145305744
      ],
      [
        "▁gececegi",
        -11.377331952523576
      ],
      [
        "▁muhim",
        -10.421631770219872
      ],
      [
        "▁pilav",
        -11.318896548973902
      ],
      [
        "▁hatırlamıyoru",
        -11.517922164598204
      ],
      [
        "▁ayırma",
        -10.77210301618484
      ],
      [
        "▁bulen",
        -10.736162188055587
      ],
      [
        "▁sogan",
        -9.902274236571037
      ],
      [
        "▁borsasında",
        -10.452417213114044
      ],
      [
        "▁imf",
        -10.64972292869196
      ],
      [
        "▁babacan",
        -11.039679108638035
      ],
      [
        "▁konusmaya",
        -10.403876638115928
      ],
      [
        "▁adnan",
        -11.25051999944565
      ],
      [
        "▁eroin",
        -9.90945456193523
      ],
      [
        "gım",
        -9.551271998340866
      ],
      [
        "ng",
        -10.944357968995718
      ],
      [
        "▁gulunc",
        -11.138967175723016
      ],
      [
        "▁kalmıstı",
        -9.716376855341277
      ],
      [
        "▁hızlı",
        -8.761917451714517
      ],
      [
        "▁kendinde",
        -10.823602200132921
      ],
      [
        "▁endustri",
        -9.37686438178985
      ],
      [
        "▁bitisi",
        -10.659371886381301
      ],
      [
        "▁nesrin",
        -11.25007078099961
      ],
      [
        "nları",
        -12.217726465357359
      ],
      [
        "▁imge",
        -10.864956014015448
      ],
      [
        "▁isteyenler",
        -10.87364423249303
      ],
      [
        "nerede",
        -11.88447936060279
      ],
      [
        "▁kabahat",
        -10.864900473880734
      ],
      [
        "▁gercek",
        -8.067795382699398
      ],
      [
        "▁gorusleri",
        -10.834563616344637
      ],
      [
        "▁eh",
        -10.18991194378302
      ],
      [
        "▁surecek",
        -10.494311988025558
      ],
      [
        "▁vurmak",
        -10.984226786882992
      ],
      [
        "▁oyma",
        -10.673472120821053
      ],
      [
        "▁ucmak",
        -8.440112420463816
      ],
      [
        "▁tayf",
        -11.374339298232345
      ],
      [
        "▁zorluklar",
        -10.627094398660333
      ],
      [
        "▁agız",
        -9.536639786941954
      ],
      [
        ".70",
        -12.006531725261098
      ],
      [
        "ledigini",
        -11.047883091364545
      ],
      [
        "ıska",
        -11.86649300660597
      ],
      [
        "▁francisco'da",
        -8.539975511208095
      ],
      [
        "▁alım-satım",
        -10.040733372441178
      ],
      [
        "▁arttır",
        -10.188970089766514
      ],
      [
        "▁38",
        -9.239513639875167
      ],
      [
        "▁gemini",
        -11.284021419048912
      ],
      [
        "▁kurulunda",
        -11.43162658501172
      ],
      [
        "▁dusecek",
        -11.22958860841269
      ],
      [
        "▁turbo",
        -11.689623248064038
      ],
      [
        "▁big",
        -10.156117388352735
      ],
      [
        "larımız",
        -9.127193067490024
      ],
      [
        "▁takvim",
        -11.305855083681838
      ],
      [
        "▁cıglıgı",
        -11.589331942090427
      ],
      [
        "▁ettiginiz",
        -11.160870228734568
      ],
      [
        "▁aslın",
        -8.504549801007327
      ],
      [
        "▁istedi",
        -9.235004919971564
      ],
      [
        "▁ozan",
        -10.988709849988446
      ],
      [
        "cigdem",
        -11.271811599493553
      ],
      [
        "kimse",
        -11.285020156233411
      ],
      [
        "▁james",
        -10.191946317148432
      ],
      [
        "▁seyi",
        -11.401881102607556
      ],
      [
        "▁daim",
        -9.279898721406536
      ],
      [
        "▁usulu",
        -11.43576151193613
      ],
      [
        "▁gordugunde",
        -11.712704653983037
      ],
      [
        "▁gidiyordu",
        -9.86350450960636
      ],
      [
        "▁gurka",
        -11.702056600742578
      ],
      [
        "▁ocak",
        -9.078870326819837
      ],
      [
        "▁kurmus",
        -10.576783439112821
      ],
      [
        "▁haykır",
        -11.093404169218992
      ],
      [
        "▁gecirecek",
        -11.254807313068104
      ],
      [
        ".9",
        -10.157851180970589
      ],
      [
        "medigi",
        -9.996539969255648
      ],
      [
        "9'da",
        -11.330388777632015
      ],
      [
        "▁gereken",
        -9.082581662103351
      ],
      [
        "▁taslar",
        -10.107493199209793
      ],
      [
        "▁mitchell",
        -10.00625061667315
      ],
      [
        "▁gercekles",
        -10.913976655041182
      ],
      [
        "▁teklifi",
        -9.220834115909414
      ],
      [
        "▁kısıtlı",
        -11.466291215008727
      ],
      [
        "▁hoca",
        -8.826065647119071
      ],
      [
        "▁ucusunu",
        -9.703910131812192
      ],
      [
        "▁korsan",
        -10.865555622716212
      ],
      [
        "▁televizyonda",
        -10.955634824020649
      ],
      [
        "▁agzın",
        -9.87560858501044
      ],
      [
        "2.08",
        -13.35112024285486
      ],
      [
        "▁reis",
        -10.942771553543967
      ],
      [
        "▁gog",
        -11.525222954502054
      ],
      [
        "▁rast",
        -9.383237068669285
      ],
      [
        "▁kurtulur",
        -10.867340172881608
      ],
      [
        "▁150",
        -8.858990735961797
      ],
      [
        "▁kaynaklı",
        -11.250051704416924
      ],
      [
        "▁210",
        -11.44021013998717
      ],
      [
        "▁yeteri",
        -9.895426810435637
      ],
      [
        "▁142",
        -11.774828766343562
      ],
      [
        "burada",
        -11.787109173364625
      ],
      [
        "▁uyanmıstı",
        -11.54362693649746
      ],
      [
        "▁hazım",
        -11.685306097337964
      ],
      [
        "▁yukseltil",
        -11.735601136039097
      ],
      [
        "niz",
        -10.482459069296329
      ],
      [
        "▁kur'an",
        -11.250161576043228
      ],
      [
        "▁ilmi",
        -10.72246829411879
      ],
      [
        "▁soruyor",
        -10.106801083450481
      ],
      [
        "▁dergileri",
        -10.821761302660938
      ],
      [
        "25'",
        -10.823359569687367
      ],
      [
        "▁heyet",
        -11.196312556453456
      ],
      [
        "▁hakkımız",
        -11.469350755042617
      ],
      [
        "▁fisek",
        -11.246360404490822
      ],
      [
        "▁a.s.",
        -11.376995697935298
      ],
      [
        "▁kaldık",
        -10.338371296841492
      ],
      [
        "▁goster",
        -6.6441321647905545
      ],
      [
        "▁cahil",
        -10.94802783214341
      ],
      [
        "▁doseme",
        -10.89785299218169
      ],
      [
        "▁lo",
        -9.46570553957095
      ],
      [
        "▁uyuz",
        -11.260297494503309
      ],
      [
        "▁latin",
        -10.865755401932832
      ],
      [
        "▁jfk'",
        -11.37504732309182
      ],
      [
        "▁burbank'ta",
        -10.399261132737614
      ],
      [
        "▁huner",
        -11.37631800040294
      ],
      [
        "'t",
        -13.09022449722925
      ],
      [
        "▁bakan",
        -9.19115796069108
      ],
      [
        "mısını",
        -9.042412961741162
      ],
      [
        "▁nuk",
        -10.374186447131414
      ],
      [
        ".48",
        -11.06258410472345
      ],
      [
        "lendi",
        -9.034630962810164
      ],
      [
        "▁gi",
        -11.099425196335407
      ],
      [
        "▁gecirdi",
        -9.25503144815426
      ],
      [
        "▁cevrede",
        -11.114014370904187
      ],
      [
        "▁kalacak",
        -9.450661430516387
      ],
      [
        "▁mae",
        -10.770397586611839
      ],
      [
        "▁fahri",
        -11.250048094956925
      ],
      [
        "▁kıyıda",
        -11.378338756523515
      ],
      [
        "02'y",
        -12.634820134476351
      ],
      [
        "'ın",
        -7.2648495077734525
      ],
      [
        "▁londra",
        -9.886015184747258
      ],
      [
        "▁tencere",
        -10.729116738610703
      ],
      [
        "20000",
        -11.109934816965165
      ],
      [
        "▁indirimi",
        -10.993897062106935
      ],
      [
        "▁gorusuldu",
        -7.195319460440999
      ],
      [
        "▁avukat",
        -9.540995834751442
      ],
      [
        "▁meze",
        -10.529302508847325
      ],
      [
        "▁atın",
        -10.782298151619162
      ],
      [
        "▁nasa",
        -11.256517794027248
      ],
      [
        "▁limanı",
        -11.330490831542594
      ],
      [
        "▁ju",
        -10.608788696858136
      ],
      [
        "▁147",
        -11.406637748306617
      ],
      [
        "▁17.9",
        -11.403602182130683
      ],
      [
        "▁oynayacagı",
        -11.648018378105768
      ],
      [
        "▁izley",
        -11.361008142934558
      ],
      [
        "▁62",
        -9.493396921642924
      ],
      [
        "▁guardia'da",
        -11.51859214876291
      ],
      [
        "▁salon",
        -10.49833283287045
      ],
      [
        "▁devsir",
        -11.517955967955238
      ],
      [
        "degil",
        -8.602188547895151
      ],
      [
        "▁kalitesinde",
        -10.157089483700808
      ],
      [
        "▁sirketlerini",
        -10.704883028975543
      ],
      [
        "▁haberler",
        -10.559525943825456
      ],
      [
        "▁tacoma'",
        -10.029404919260637
      ],
      [
        "135.",
        -12.717693571255904
      ],
      [
        "▁ayakkabı",
        -9.906926812264661
      ],
      [
        "▁favori",
        -11.517904470924615
      ],
      [
        "▁pantolonu",
        -11.065252957610653
      ],
      [
        "▁memnundu",
        -10.235678188986581
      ],
      [
        "▁goturecek",
        -11.154609727242661
      ],
      [
        "▁yonetecek",
        -11.518257902304638
      ],
      [
        "▁birbirlerini",
        -8.697935612590925
      ],
      [
        "lama",
        -8.545560629359088
      ],
      [
        "▁muhak",
        -10.32278407895147
      ],
      [
        "▁olurdu",
        -9.408892811007716
      ],
      [
        "lenir",
        -9.90073418389449
      ],
      [
        "▁2.4",
        -9.51132940065262
      ],
      [
        "▁kayıyor",
        -11.584100617690552
      ],
      [
        "malı",
        -9.611684320536478
      ],
      [
        "▁kalitesiz",
        -10.703839661220476
      ],
      [
        "▁dort",
        -6.461747336534862
      ],
      [
        "▁koylerinde",
        -11.597803027379962
      ],
      [
        "▁bulur",
        -9.757956878185915
      ],
      [
        "▁yarın",
        -8.49469741066379
      ],
      [
        "▁olcu",
        -10.158136403769726
      ],
      [
        "▁bagları",
        -11.164811494665306
      ],
      [
        "▁'lu",
        -10.01260217427646
      ],
      [
        "▁oldugunu",
        -8.734847030904774
      ],
      [
        "▁bahseder",
        -9.376343239486117
      ],
      [
        "▁cambaz",
        -10.71634559117194
      ],
      [
        "5.6",
        -11.336528853371686
      ],
      [
        "▁pu",
        -11.408164597291645
      ],
      [
        "▁sahip",
        -7.801647865983457
      ],
      [
        "▁yonu",
        -9.894586038623679
      ],
      [
        "▁gelse",
        -11.222876862843039
      ],
      [
        "▁1761",
        -11.362388341383486
      ],
      [
        "▁tohum",
        -10.22872772757599
      ],
      [
        "▁yasadıgı",
        -9.822727028202822
      ],
      [
        "▁marifet",
        -10.864693883109952
      ],
      [
        "▁ceki",
        -9.692873627992386
      ],
      [
        "irin",
        -13.276564249096703
      ],
      [
        "▁parıltı",
        -11.517904962606595
      ],
      [
        "▁pan",
        -10.355839526702562
      ],
      [
        "▁karsılık",
        -9.089987094072079
      ],
      [
        "▁kıskanclıgı",
        -11.684571080116838
      ],
      [
        "▁icgudu",
        -11.517916195964187
      ],
      [
        "lenebilir",
        -11.287554161939076
      ],
      [
        "▁gunu",
        -6.950289848686798
      ],
      [
        "▁kare",
        -10.745480791666852
      ],
      [
        "▁depremin",
        -10.564983981399598
      ],
      [
        "▁bakıcı",
        -10.9513814687906
      ],
      [
        "rıtma",
        -11.528465946519466
      ],
      [
        "▁takım",
        -9.028208705964415
      ],
      [
        "▁fıcı",
        -11.37709979367594
      ],
      [
        "▁fıkra",
        -10.864693798661666
      ],
      [
        "▁gosterecek",
        -11.062039993826847
      ],
      [
        "▁kafi",
        -10.945629499328799
      ],
      [
        "▁breeden",
        -11.25009996085609
      ],
      [
        "▁7\\/",
        -8.72073896077232
      ],
      [
        "7'",
        -11.3412125951222
      ],
      [
        "▁karayolu",
        -8.403661497304855
      ],
      [
        "▁par",
        -9.698270630341153
      ],
      [
        "▁olun",
        -9.717411742112539
      ],
      [
        "▁sondur",
        -10.439906337455758
      ],
      [
        "▁bolge",
        -11.388167231706799
      ],
      [
        "▁doldurdu",
        -9.863662094074227
      ],
      [
        "▁gunlerinde",
        -10.801883397435397
      ],
      [
        "▁gorusmedi",
        -10.028566390063943
      ],
      [
        "▁dallarda",
        -11.571910507843645
      ],
      [
        "cilik",
        -9.695343460539709
      ],
      [
        "▁adalet",
        -9.799199419560104
      ],
      [
        "nden",
        -8.195440124162154
      ],
      [
        "▁etkileyici",
        -11.039045453334753
      ],
      [
        "▁pul",
        -9.941363187392964
      ],
      [
        "761.",
        -12.863543002507386
      ],
      [
        "▁hazırlama",
        -10.945861045323586
      ],
      [
        "▁borcu",
        -10.070345423869254
      ],
      [
        "▁daglar",
        -10.183569646974778
      ],
      [
        "▁borclanma",
        -10.53134732914828
      ],
      [
        "▁kullanılma",
        -10.686390911968536
      ],
      [
        "▁kulagında",
        -11.542807846395439
      ],
      [
        "▁kıvılcım",
        -10.528352569805689
      ],
      [
        "▁derdi",
        -10.065658183780835
      ],
      [
        "▁abd'de",
        -9.799488620302188
      ],
      [
        "cor",
        -10.78516744591216
      ],
      [
        "37.2",
        -12.544671564839888
      ],
      [
        "▁enerji",
        -9.066553642193902
      ],
      [
        "▁olanaklarını",
        -10.240199685526388
      ],
      [
        "▁yaklası",
        -7.731473691325023
      ],
      [
        "▁kacın",
        -10.522475063033982
      ],
      [
        "▁izleyici",
        -11.11193047060237
      ],
      [
        "▁seans",
        -11.14708952610062
      ],
      [
        "▁olmak",
        -7.7916168535904315
      ],
      [
        "▁yapmıyor",
        -10.613529918513024
      ],
      [
        "▁getirildi",
        -10.323026745561661
      ],
      [
        "▁kaydetti",
        -9.618028000259057
      ],
      [
        "▁oldugu",
        -7.2777653205408965
      ],
      [
        "▁guvensizli",
        -11.826821176463397
      ],
      [
        "▁tutulmus",
        -10.841125593611489
      ],
      [
        "▁birisi",
        -7.911313708072835
      ],
      [
        "▁krediler",
        -11.127838757153802
      ],
      [
        "nda",
        -8.211415186191605
      ],
      [
        "iken",
        -10.682933096427952
      ],
      [
        "▁musun",
        -8.285459285682773
      ],
      [
        "▁satımı",
        -10.71101118229709
      ],
      [
        "hem",
        -10.716562062212368
      ],
      [
        "▁arizona",
        -10.520454354474753
      ],
      [
        "▁kapsaya",
        -11.067733466754536
      ],
      [
        "▁21.8",
        -11.511536345338534
      ],
      [
        "▁tartısma",
        -9.640515429912098
      ],
      [
        "▁icti",
        -10.443978527180345
      ],
      [
        "▁ziyareti",
        -10.94642785607911
      ],
      [
        "li",
        -8.963794952668183
      ],
      [
        "▁bakıyor",
        -9.272145634345195
      ],
      [
        "▁1.25",
        -10.228792362022869
      ],
      [
        "5775",
        -12.10548139275218
      ],
      [
        "▁atina'",
        -11.86518216729662
      ],
      [
        "▁gibiydi",
        -9.595644868721921
      ],
      [
        "▁intihar",
        -10.37016504554076
      ],
      [
        "60'ı",
        -11.790250767647834
      ],
      [
        "degiller",
        -13.577876762491723
      ],
      [
        "bu",
        -9.621418571913367
      ],
      [
        "▁hukum",
        -9.759897533681311
      ],
      [
        "rlar",
        -10.52654331229563
      ],
      [
        "▁cagırma",
        -11.105077919363003
      ],
      [
        "▁sukr",
        -11.26420848723682
      ],
      [
        "rası",
        -10.607892597440218
      ],
      [
        "▁pemex",
        -11.250047431364212
      ],
      [
        "▁milyon",
        -5.185931877072128
      ],
      [
        "▁kaliforniya",
        -9.439094999097623
      ],
      [
        "▁hikaye",
        -9.582880535106774
      ],
      [
        "▁tıras",
        -10.322622276293522
      ],
      [
        "▁toplantılar",
        -10.838938926346842
      ],
      [
        "▁resimleri",
        -11.23693850457552
      ],
      [
        "▁x",
        -10.888953945579313
      ],
      [
        "dar",
        -8.912036959888535
      ],
      [
        "▁brad",
        -11.2507727849914
      ],
      [
        "uz",
        -6.680998344903997
      ],
      [
        "mus",
        -7.70679434516233
      ],
      [
        "▁kentinde",
        -11.325874788941114
      ],
      [
        "▁19.",
        -10.17752749623879
      ],
      [
        "▁hakkındaki",
        -10.036721600914545
      ],
      [
        "▁isterdi",
        -10.42371781681808
      ],
      [
        "▁giriyor",
        -9.780236210986923
      ],
      [
        "▁rakibi",
        -11.13005771038836
      ],
      [
        "▁etmisti",
        -9.500574981510898
      ],
      [
        "▁mas",
        -10.863236995310363
      ],
      [
        "▁istasyonu",
        -10.540564633669629
      ],
      [
        "▁telafi",
        -10.649675780990602
      ],
      [
        "▁cengiz",
        -11.375047572783984
      ],
      [
        "▁etiket",
        -10.948034583494541
      ],
      [
        "▁emtia",
        -10.192002507928528
      ],
      [
        "▁cevher",
        -11.375047303399437
      ],
      [
        "▁makam",
        -9.978949644845855
      ],
      [
        "tı",
        -7.150092501553981
      ],
      [
        "▁farklılık",
        -10.178041509086512
      ],
      [
        "3.7",
        -9.817076998536024
      ],
      [
        "▁9.5",
        -10.984718836568197
      ],
      [
        "▁yatırımları",
        -10.731052780579978
      ],
      [
        "▁katılımcı",
        -11.119861244589272
      ],
      [
        "▁sampiyon",
        -10.37016073548238
      ],
      [
        "▁gectigini",
        -10.730685624834075
      ],
      [
        "▁bakımı",
        -11.323677280970976
      ],
      [
        "▁ve",
        -2.9561960527091937
      ],
      [
        "▁kekik",
        -11.51882469757845
      ],
      [
        "▁cuma",
        -7.950543075503483
      ],
      [
        "▁vurucu",
        -11.376109623751681
      ],
      [
        "▁ongorulerin",
        -11.685393834410103
      ],
      [
        "▁web",
        -11.687359177043845
      ],
      [
        "▁satıl",
        -10.1581078491788
      ],
      [
        "▁memuru",
        -10.542068865371231
      ],
      [
        "▁yetismis",
        -11.579606015668595
      ],
      [
        "bizde",
        -11.78311080375482
      ],
      [
        "▁sancı",
        -10.994875142363785
      ],
      [
        "▁orta",
        -7.483922664697554
      ],
      [
        "▁kıya",
        -10.92402735179173
      ],
      [
        "▁ucte",
        -10.380905431602615
      ],
      [
        "▁yerlesti",
        -10.435120562345748
      ],
      [
        "▁olmayacak",
        -9.61168763107489
      ],
      [
        "▁yaptıkları",
        -10.238177174184678
      ],
      [
        "ow",
        -10.440065810139853
      ],
      [
        "▁kaptı",
        -11.02675973699107
      ],
      [
        "▁donmus",
        -10.041521284211917
      ],
      [
        "▁yuksek",
        -7.402324369782373
      ],
      [
        "▁cozul",
        -10.646667850551847
      ],
      [
        "▁bunlar",
        -6.623126046805661
      ],
      [
        "▁1980",
        -9.541001181325427
      ],
      [
        "▁pancar",
        -11.684597083889816
      ],
      [
        "▁donu",
        -9.765781094378497
      ],
      [
        "kırmızı",
        -11.515242032721524
      ],
      [
        "▁yirmibir",
        -12.117713959587826
      ],
      [
        "den",
        -8.05560578784303
      ],
      [
        "yuzyetmis",
        -11.115613122055725
      ],
      [
        "▁yumusama",
        -11.809733623788066
      ],
      [
        "lukta",
        -10.505376247045138
      ],
      [
        "▁iki",
        -4.84812175613624
      ],
      [
        "ırım",
        -9.081380510251964
      ],
      [
        "▁yen'",
        -9.43265491715395
      ],
      [
        "▁araba",
        -8.042819588348406
      ],
      [
        "▁yanaklarını",
        -11.29116655362081
      ],
      [
        "▁oysa",
        -8.598002639171483
      ],
      [
        "▁amerikalılar",
        -10.443301729899357
      ],
      [
        "▁anti",
        -10.178463354068382
      ],
      [
        "▁kullaniyoru",
        -11.422417117241826
      ],
      [
        "▁lutfu",
        -11.517904551141257
      ],
      [
        "▁gecici",
        -9.53091896337834
      ],
      [
        "▁buldu",
        -8.44039935921361
      ],
      [
        "lendiril",
        -11.403315916966479
      ],
      [
        "▁yuzunde",
        -8.541321651812705
      ],
      [
        "▁esnaf",
        -10.790293178499752
      ],
      [
        "▁kuması",
        -11.07674549902832
      ],
      [
        "▁calısmasını",
        -11.461636340420867
      ],
      [
        "▁kaptırdı",
        -11.692162145795768
      ],
      [
        "2.2",
        -10.75475064867124
      ],
      [
        "▁listeley",
        -7.752560946223552
      ],
      [
        "sco",
        -11.106299324761778
      ],
      [
        "▁lokomotif",
        -11.884571077950838
      ],
      [
        "▁cirkin",
        -9.8791068831139
      ],
      [
        "▁asık",
        -9.418607021730335
      ],
      [
        "▁duzeltme",
        -10.166750042496528
      ],
      [
        "▁oluyordu",
        -9.520380584687874
      ],
      [
        "▁hayali",
        -10.352985818626554
      ],
      [
        "▁romantik",
        -10.865306999991427
      ],
      [
        "ev",
        -11.809602426827796
      ],
      [
        "▁uganda",
        -11.68457255223525
      ],
      [
        "▁kesfetti",
        -11.684571161720726
      ],
      [
        "▁cizme",
        -10.734921831319514
      ],
      [
        "ve",
        -5.892970926178803
      ],
      [
        "▁uyanır",
        -11.6291356012575
      ],
      [
        "▁kanada'y",
        -11.688081102526713
      ],
      [
        "▁samar",
        -11.518900592286103
      ],
      [
        "▁sonrası",
        -9.710112544662708
      ],
      [
        "unun",
        -11.316605384462493
      ],
      [
        "▁niyet",
        -10.054939109302744
      ],
      [
        "▁40.1",
        -11.018623284439725
      ],
      [
        "▁niyetliydi",
        -11.688267603641085
      ],
      [
        "▁mezun",
        -10.586142427507598
      ],
      [
        "▁muhendisi",
        -11.405961612278892
      ],
      [
        "▁musrif",
        -11.517904453257291
      ],
      [
        "▁yakalı",
        -10.825552464767076
      ],
      [
        "▁zarif",
        -10.322585210016133
      ],
      [
        "▁fabrikası",
        -10.679983601353719
      ],
      [
        "▁drexel'",
        -11.551228859088626
      ],
      [
        "▁k",
        -8.455854659024745
      ],
      [
        "▁jr",
        -11.323270173317798
      ],
      [
        "midi",
        -10.234213056908338
      ],
      [
        "▁piyasasını",
        -10.4645041759468
      ],
      [
        "▁yokusu",
        -10.719642787988157
      ],
      [
        "▁kıc",
        -10.811914129052942
      ],
      [
        "835",
        -11.346806732306263
      ],
      [
        "▁koruması",
        -11.449287482124346
      ],
      [
        "▁reng",
        -11.29520652982174
      ],
      [
        "▁kim",
        -9.761925673418046
      ],
      [
        "▁hurda",
        -11.528878987533595
      ],
      [
        "▁potansiyel",
        -9.740002398207956
      ],
      [
        "▁bunda",
        -9.72752785305554
      ],
      [
        "▁yaklasım",
        -10.59775250977406
      ],
      [
        "cu",
        -8.943905749479217
      ],
      [
        "▁hurmet",
        -11.038959217300333
      ],
      [
        "41",
        -11.341687818936888
      ],
      [
        "▁girmis",
        -10.163242834981432
      ],
      [
        "▁bulunaca",
        -11.614765262934593
      ],
      [
        "▁bilinen",
        -10.076524566646873
      ],
      [
        "▁uygundu",
        -9.305119199968782
      ],
      [
        "▁ihlal",
        -10.716342196495825
      ],
      [
        "▁izni",
        -10.734853446006355
      ],
      [
        "du",
        -9.10738467721449
      ],
      [
        "▁yankı",
        -11.156181291011695
      ],
      [
        "▁uretimini",
        -10.920401259821041
      ],
      [
        "olar",
        -7.153116283606411
      ],
      [
        "▁birileri",
        -9.482485129175965
      ],
      [
        "▁ictik",
        -10.606099611022744
      ],
      [
        "▁bedava",
        -10.472799525489101
      ],
      [
        "acasın",
        -11.473960750465073
      ],
      [
        "▁satısta",
        -11.575623165531344
      ],
      [
        "mıslar",
        -9.889753266159381
      ],
      [
        "▁seyirci",
        -10.146728810006469
      ],
      [
        "▁edin",
        -9.258808349004504
      ],
      [
        "▁ogreni",
        -10.82434453861438
      ],
      [
        "▁indir",
        -10.316693767568093
      ],
      [
        "▁leblebi",
        -10.472796333095777
      ],
      [
        "▁ablam",
        -10.74072918795222
      ],
      [
        "▁siyah",
        -8.519453571657262
      ],
      [
        "▁pirinc",
        -10.040733686403135
      ],
      [
        "▁720",
        -12.310835095151708
      ],
      [
        "▁arapca",
        -11.143978397679344
      ],
      [
        "▁tarafsız",
        -11.27488494944383
      ],
      [
        "▁423.",
        -12.185760839367891
      ],
      [
        "▁oncelik",
        -10.872822566080677
      ],
      [
        "▁700.",
        -10.888247410819082
      ],
      [
        "▁hayat",
        -8.418415628516335
      ],
      [
        "▁yel",
        -10.13000426971721
      ],
      [
        "ebiliyor",
        -10.142468022211078
      ],
      [
        "▁koruyucu",
        -11.375056962270612
      ],
      [
        "yedi",
        -8.957221228301936
      ],
      [
        "degili",
        -11.009634623297783
      ],
      [
        "▁unocal",
        -11.884571089444455
      ],
      [
        "st",
        -9.035102457023171
      ],
      [
        "▁kıracak",
        -11.36864140572989
      ],
      [
        "▁yaklasimi",
        -9.641230149082446
      ],
      [
        "87.5",
        -10.15696652924954
      ],
      [
        "▁yukselmesini",
        -11.555573462936104
      ],
      [
        "▁oynayan",
        -11.040369782019454
      ],
      [
        "▁bicim",
        -10.058788109632612
      ],
      [
        "▁yaparlar",
        -10.63096242240945
      ],
      [
        "▁elestirileri",
        -11.111177452326713
      ],
      [
        "03'",
        -12.411347985876002
      ],
      [
        "4.",
        -11.419297140801532
      ],
      [
        "▁panjurları",
        -11.884571134204656
      ],
      [
        "74'",
        -12.389668338139046
      ],
      [
        "▁soyut",
        -11.38038734648574
      ],
      [
        "'e",
        -8.183738449250844
      ],
      [
        "▁198",
        -6.9751098025940985
      ],
      [
        "▁calisiyor",
        -11.068651999218703
      ],
      [
        "▁ilerleme",
        -10.135253734101253
      ],
      [
        "▁teshis",
        -10.948047644677512
      ],
      [
        "▁kazasında",
        -11.163075913153296
      ],
      [
        "▁bebeler",
        -11.518402841368001
      ],
      [
        "▁debelen",
        -11.685073188637352
      ],
      [
        "▁arttırıl",
        -11.74438439737425
      ],
      [
        "▁izgara",
        -11.884577945391332
      ],
      [
        "▁bulamıyor",
        -11.134462884654617
      ],
      [
        "▁vuruldu",
        -11.487639279619325
      ],
      [
        "▁kurmay",
        -10.485552432602384
      ],
      [
        "▁girdik",
        -10.20162152230021
      ],
      [
        "▁sahsi",
        -11.411557828279062
      ],
      [
        "▁yabanci",
        -10.58812133046268
      ],
      [
        "▁ilac",
        -8.9901370444444
      ],
      [
        "yon",
        -9.626201931572261
      ],
      [
        "▁kurulusu",
        -10.020584053549278
      ],
      [
        "▁durduru",
        -11.312907057398663
      ],
      [
        "madı",
        -9.586755952837445
      ],
      [
        "▁aitti",
        -11.357951910180596
      ],
      [
        "▁oburu",
        -9.457000074137701
      ],
      [
        "▁tacirleri",
        -11.132687862951112
      ],
      [
        "▁yasadı",
        -9.824239086730888
      ],
      [
        "▁yoneticiler",
        -10.307417061565987
      ],
      [
        "▁kutlu",
        -11.053883813143226
      ],
      [
        "amıyor",
        -9.853417444272363
      ],
      [
        "▁cakar",
        -11.684710564747022
      ],
      [
        "▁bugunu",
        -10.771571313123832
      ],
      [
        "▁montreal'",
        -9.666589466806975
      ],
      [
        "▁karanlıkta",
        -11.144082544479907
      ],
      [
        "▁tan",
        -9.791371418269069
      ],
      [
        "rdı",
        -9.67370960565502
      ],
      [
        "▁78",
        -10.25065034304559
      ],
      [
        "▁ilgiliydi",
        -7.611046721106702
      ],
      [
        "▁gorundu",
        -10.580603600480725
      ],
      [
        "▁gormez",
        -10.081265539869896
      ],
      [
        "mıstır",
        -8.878538560809197
      ],
      [
        "▁gerekecek",
        -10.816723807316674
      ],
      [
        "▁odenen",
        -11.525414405782369
      ],
      [
        "▁baslayacak",
        -9.82228737631452
      ],
      [
        "▁torunu",
        -11.143575859005306
      ],
      [
        "2'de",
        -11.381561558722504
      ],
      [
        "▁y",
        -12.859582676700498
      ],
      [
        "▁bakırkoy",
        -11.684693829610374
      ],
      [
        "▁kalacagı",
        -10.94903653329552
      ],
      [
        "▁cıkmaya",
        -10.716388234360602
      ],
      [
        "▁site",
        -10.319960782628831
      ],
      [
        "▁sogukta",
        -11.732437444547337
      ],
      [
        "▁hukme",
        -10.576594182370146
      ],
      [
        "21",
        -11.303561403450473
      ],
      [
        "▁icimde",
        -9.759199138408839
      ],
      [
        "▁dinlemeye",
        -11.364154935000592
      ],
      [
        "onlar",
        -9.411444122687692
      ],
      [
        "▁ikibinbir",
        -12.659395839339917
      ],
      [
        "▁gaye",
        -7.793475303768141
      ],
      [
        "▁gorur",
        -9.50544848179868
      ],
      [
        "▁mutfagı",
        -10.93278903869893
      ],
      [
        "▁balkan",
        -11.039399115986448
      ],
      [
        "▁cetin",
        -10.323554406280564
      ],
      [
        "▁klasik",
        -10.11348510816968
      ],
      [
        "▁rezil",
        -11.250054246423142
      ],
      [
        "▁tası",
        -9.346676677356704
      ],
      [
        "▁benim",
        -9.064644121710101
      ],
      [
        "▁hatır",
        -10.041649141374956
      ],
      [
        "▁testere",
        -11.25014472541851
      ],
      [
        "ucu",
        -9.522373099117019
      ],
      [
        "▁istediklerini",
        -10.885795236382275
      ],
      [
        "▁yetkililerin",
        -10.834847877797753
      ],
      [
        "▁mark",
        -9.96984499325979
      ],
      [
        "▁sesle",
        -10.116746840658728
      ],
      [
        "▁warren",
        -11.68457805181991
      ],
      [
        "▁kasket",
        -11.03895007009904
      ],
      [
        "▁korktugu",
        -11.657600187406532
      ],
      [
        "▁sustu",
        -10.626262488092994
      ],
      [
        "▁isterse",
        -10.49465649488503
      ],
      [
        "dor",
        -10.879153849799156
      ],
      [
        "▁n",
        -11.20603569365937
      ],
      [
        "▁qintex",
        -10.420164754563945
      ],
      [
        "▁verenler",
        -11.159760088396638
      ],
      [
        "▁sarısı",
        -11.008276333351162
      ],
      [
        "▁kapsamında",
        -10.336419061220685
      ],
      [
        "▁muhafız",
        -10.948027072237435
      ],
      [
        "▁iskoc",
        -11.884576353049193
      ],
      [
        "yeni",
        -10.394683123914326
      ],
      [
        "baska",
        -11.23081986283465
      ],
      [
        "▁aylarında",
        -11.313478618482211
      ],
      [
        "-200",
        -11.81277952887254
      ],
      [
        "▁edilmekte",
        -11.088693575151602
      ],
      [
        "▁soylediklerini",
        -11.296368938119652
      ],
      [
        "▁yetkilerini",
        -11.703745820488335
      ],
      [
        "▁oyna",
        -9.580396506607274
      ],
      [
        "▁sergi",
        -9.7925137886208
      ],
      [
        "▁gazeteni",
        -11.24128522541374
      ],
      [
        "▁karısı",
        -9.403770284584288
      ],
      [
        "▁manville",
        -10.864803931597173
      ],
      [
        "▁cincinnati'",
        -10.183495780457859
      ],
      [
        "▁medeniyeti",
        -11.2488662820869
      ],
      [
        "▁hissettigi",
        -11.339326602639952
      ],
      [
        "▁kuyumcu",
        -11.375075147305072
      ],
      [
        "▁ilgilen",
        -10.807143683397063
      ],
      [
        "▁herkeste",
        -9.96599783763588
      ],
      [
        "▁tampa'",
        -10.193906458469241
      ],
      [
        "istan",
        -10.62333117418186
      ],
      [
        "▁975",
        -12.11965702318727
      ],
      [
        "▁georgia-pacific",
        -11.684571077950162
      ],
      [
        "▁94.",
        -11.986959658510166
      ],
      [
        "▁7",
        -9.718948651572074
      ],
      [
        "▁goruntusu",
        -11.354823949086754
      ],
      [
        "ralar",
        -13.750384794434947
      ],
      [
        "▁durumu",
        -9.019617822248009
      ],
      [
        "▁gizle",
        -10.549611993794077
      ],
      [
        "▁rich",
        -11.139473328435383
      ],
      [
        "▁yaslı",
        -8.941288136482253
      ],
      [
        "d",
        -5.077362734358636
      ],
      [
        "▁452",
        -12.55135776461837
      ],
      [
        "▁hediye",
        -10.310958268888223
      ],
      [
        "▁h",
        -11.551346784897671
      ],
      [
        "▁silme",
        -11.508461806674498
      ],
      [
        "▁yası",
        -10.245052781290978
      ],
      [
        "▁gonlunu",
        -10.949563079215947
      ],
      [
        "▁camur",
        -10.14560898919193
      ],
      [
        "▁soylemis",
        -10.694780825232861
      ],
      [
        "▁garanti",
        -9.356435546210546
      ],
      [
        "▁yakalandı",
        -10.897831564008758
      ],
      [
        "▁160",
        -10.2698148189397
      ],
      [
        "▁inandırıcı",
        -11.517906223841681
      ],
      [
        "▁ciger",
        -11.042854091658029
      ],
      [
        "▁onbir",
        -12.375833017226643
      ],
      [
        "▁taleplerini",
        -11.133154442108024
      ],
      [
        "▁huy",
        -10.58245200426476
      ],
      [
        "▁fit",
        -11.4086729946518
      ],
      [
        "▁rakamı",
        -11.002189991843135
      ],
      [
        "▁cıkar",
        -8.041068373898138
      ],
      [
        "▁15000",
        -10.523997784269115
      ],
      [
        "▁500",
        -8.369384007022514
      ],
      [
        "▁koku",
        -9.132405713072131
      ],
      [
        "▁put",
        -10.948918418956403
      ],
      [
        "emedi",
        -10.394914533636666
      ],
      [
        "▁kalır",
        -9.737711897814584
      ],
      [
        "gımı",
        -10.380643167892327
      ],
      [
        "▁rafineri",
        -11.375270367059096
      ],
      [
        "▁holdings",
        -11.568244100187776
      ],
      [
        "▁bilisi",
        -11.68558651432199
      ],
      [
        "ville",
        -10.789339484369894
      ],
      [
        "750",
        -12.118857837568934
      ],
      [
        "▁hafiflet",
        -11.131870166053568
      ],
      [
        "birin",
        -11.12539610238102
      ],
      [
        "▁534",
        -11.850832610635116
      ],
      [
        "▁gidisat",
        -10.979492437185687
      ],
      [
        "birbirin",
        -11.036217409622804
      ],
      [
        "▁dusundurucu",
        -11.684670881684939
      ],
      [
        "[CLS]",
        0.0
      ],
      [
        "▁cekin",
        -10.463939469433171
      ],
      [
        "▁toplu",
        -10.197833213334032
      ],
      [
        "▁kırk",
        -7.941980051663087
      ],
      [
        "▁gecmeye",
        -10.889480854885024
      ],
      [
        "▁kusuru",
        -10.892369793938885
      ],
      [
        "anan",
        -10.953864359709298
      ],
      [
        "▁siz",
        -6.276467912461138
      ],
      [
        "▁koylulerin",
        -11.625547205689493
      ],
      [
        "▁alemin",
        -11.19926244927873
      ],
      [
        "sar",
        -10.916169163698825
      ],
      [
        "▁kendinizi",
        -9.064126104649338
      ],
      [
        "▁99",
        -9.95661725335496
      ],
      [
        "6.9",
        -10.490354933540225
      ],
      [
        "▁damda",
        -11.400206208054872
      ],
      [
        "▁142.",
        -10.684765078100533
      ],
      [
        "▁suratli",
        -11.62780715309539
      ],
      [
        "▁ne",
        -6.281447316085971
      ],
      [
        "▁bulutu",
        -11.274620586524735
      ],
      [
        "▁soyu",
        -10.837984361369665
      ],
      [
        "▁patron",
        -11.833729353834208
      ],
      [
        "▁oradaki",
        -10.824064443671329
      ],
      [
        "4000",
        -10.33227685369215
      ],
      [
        "▁dyp",
        -11.477519142568852
      ],
      [
        "ha",
        -11.873864725637612
      ],
      [
        "▁verilen",
        -8.990808182190559
      ],
      [
        "ttı",
        -9.903112160010224
      ],
      [
        "▁kacta",
        -10.983839863410656
      ],
      [
        "▁akgunduz",
        -11.517904495325379
      ],
      [
        "▁album",
        -11.001156488737346
      ],
      [
        "l",
        -6.217016596249758
      ],
      [
        "▁nesil",
        -10.242617790099905
      ],
      [
        "▁dayat",
        -11.141915112955726
      ],
      [
        "anlar",
        -10.81624928071104
      ],
      [
        "▁yapılmıs",
        -9.71371907265063
      ],
      [
        "▁sayısında",
        -11.403424877977224
      ],
      [
        "▁siradan",
        -11.68509458887113
      ],
      [
        "▁83.",
        -12.79334861844304
      ],
      [
        "▁cok",
        -4.94985957025224
      ],
      [
        "▁divan",
        -10.370231754233712
      ],
      [
        "▁gid",
        -10.249754282818186
      ],
      [
        "▁yetersiz",
        -8.074336251479746
      ],
      [
        "▁degis",
        -10.20384692048565
      ],
      [
        "n",
        -9.623076971272123
      ],
      [
        "yıp",
        -8.795988089656692
      ],
      [
        "11",
        -12.812006644751335
      ],
      [
        "▁58.9",
        -11.552835782893041
      ],
      [
        ".61",
        -13.614696734273709
      ],
      [
        "diler",
        -9.765298234363025
      ],
      [
        "▁kararlı",
        -10.152329172621576
      ],
      [
        "▁aids",
        -11.250069794067143
      ],
      [
        "up",
        -7.821319414686351
      ],
      [
        "▁yapılmadı",
        -11.606566237959909
      ],
      [
        "▁yuzeyinde",
        -11.689453444914554
      ],
      [
        "▁cogu",
        -7.787547373785652
      ],
      [
        "▁dagıt",
        -10.05501294382787
      ],
      [
        "18",
        -12.105479095657513
      ],
      [
        "▁muracaat",
        -11.13893618714355
      ],
      [
        "▁saz",
        -9.74959201821646
      ],
      [
        "▁istiyorlar",
        -10.25117764001951
      ],
      [
        "▁charles",
        -11.138951087419246
      ],
      [
        "▁havaalanı",
        -9.753535559811706
      ],
      [
        "▁37.",
        -10.039857345937577
      ],
      [
        "▁kaplaya",
        -11.556440544333528
      ],
      [
        "ıc",
        -12.919040075786548
      ],
      [
        "▁tunc",
        -10.79212601081583
      ],
      [
        "815",
        -12.812849515974593
      ],
      [
        "ucu",
        -9.809140848536815
      ],
      [
        "▁north",
        -9.488222486383364
      ],
      [
        "▁indiana",
        -11.250303830717492
      ],
      [
        "ımız",
        -9.636033945293262
      ],
      [
        "▁istediginiz",
        -11.168389270642216
      ],
      [
        "▁degilse",
        -8.67508121348586
      ],
      [
        "▁mustafa",
        -8.966362517398629
      ],
      [
        "▁gelmez",
        -9.985469955742637
      ],
      [
        "▁sokul",
        -11.421158335845538
      ],
      [
        "▁erisim",
        -10.951864542555217
      ],
      [
        "▁bulamac",
        -11.686093710885865
      ],
      [
        "▁sel",
        -9.720222217226276
      ],
      [
        "▁meslektas",
        -11.265544872304062
      ],
      [
        "▁guclendirme",
        -11.51876030687933
      ],
      [
        "▁belge",
        -9.798563689873422
      ],
      [
        "▁edemez",
        -10.376045788766076
      ],
      [
        "rcasın",
        -10.982245997033072
      ],
      [
        "▁fikrini",
        -11.068977035669677
      ],
      [
        "▁56",
        -10.807443123191756
      ],
      [
        "▁ulkelerinde",
        -11.761232498804459
      ],
      [
        "▁litre",
        -11.250047368348932
      ],
      [
        "▁yasagı",
        -11.476387292015316
      ],
      [
        "▁gur",
        -9.580046873170673
      ],
      [
        "▁coktan",
        -9.642526713945955
      ],
      [
        "▁atlat",
        -10.926677079878436
      ],
      [
        "▁yaygınlas",
        -11.353297991335587
      ],
      [
        "▁prosedur",
        -11.23432384269309
      ],
      [
        "▁erbakan",
        -11.316261263768794
      ],
      [
        "▁dusur",
        -10.28031412408604
      ],
      [
        "▁agzında",
        -9.937794448280247
      ],
      [
        "▁bilmiyoru",
        -9.034751122907714
      ],
      [
        "▁serisini",
        -11.772497595045753
      ],
      [
        "▁yasayı",
        -11.06943466658524
      ],
      [
        "degilse",
        -13.145164958295505
      ],
      [
        "44",
        -10.496928401392509
      ],
      [
        "30.",
        -11.676949456487968
      ],
      [
        "▁bosalma",
        -11.533373590256423
      ],
      [
        "▁yanılt",
        -11.140994947853379
      ],
      [
        "▁ilkel",
        -10.767354515898763
      ],
      [
        "▁serap",
        -11.375594429391773
      ],
      [
        "▁soluga",
        -11.25072854260995
      ],
      [
        "▁sıkıldı",
        -10.861316524229505
      ],
      [
        "▁bast",
        -11.400292921243866
      ],
      [
        "▁v",
        -8.1118888222484
      ],
      [
        "▁ofisi",
        -10.313673752954122
      ],
      [
        "▁neden",
        -7.777221211050159
      ],
      [
        "▁ıslak",
        -10.71640165351639
      ],
      [
        "▁keyfini",
        -11.550804323826183
      ],
      [
        "▁hic",
        -6.947458024543259
      ],
      [
        "▁ivme",
        -11.592918539934894
      ],
      [
        "▁idar",
        -11.026310993823095
      ],
      [
        "▁ali",
        -8.633247746721883
      ],
      [
        "▁oyuncular",
        -10.229040209888078
      ],
      [
        "▁ol",
        -5.796443599085494
      ],
      [
        "▁vaka",
        -9.906588898242108
      ],
      [
        "▁karısmıs",
        -10.945011758495355
      ],
      [
        "▁bitirme",
        -10.563386235857356
      ],
      [
        "▁kavustur",
        -11.64251222595848
      ],
      [
        "▁rezervasyonu",
        -8.829979244339164
      ],
      [
        "▁ayrıldı",
        -9.816886664248695
      ],
      [
        "▁oncesinde",
        -10.559477593415174
      ],
      [
        "▁okuz",
        -10.722110853662459
      ],
      [
        "▁suyu",
        -8.914706333709551
      ],
      [
        "▁maliyeti",
        -9.568910092015573
      ],
      [
        "▁dal",
        -9.266773668547756
      ],
      [
        "dıkları",
        -10.4489516666877
      ],
      [
        "▁sacak",
        -11.14718637122671
      ],
      [
        "▁sıkı",
        -8.73944792689528
      ],
      [
        "▁cıkarmaya",
        -10.43606492238661
      ],
      [
        "▁fir",
        -10.400975024948599
      ],
      [
        "▁pencerede",
        -10.476864689892771
      ],
      [
        "▁romancı",
        -10.49092354576122
      ],
      [
        "▁kacan",
        -11.397913539007385
      ],
      [
        "▁tatli",
        -10.471369305139827
      ],
      [
        "▁gidi",
        -8.927899764296729
      ],
      [
        "▁komisyonlar",
        -10.170903165752195
      ],
      [
        "▁cizgi",
        -9.409510625926357
      ],
      [
        "▁gizli",
        -8.852724103069825
      ],
      [
        "▁cogunu",
        -11.10304509586577
      ],
      [
        "▁sarhos",
        -10.369112292474007
      ],
      [
        "la",
        -7.417516293723048
      ],
      [
        "▁izol",
        -11.519440514744645
      ],
      [
        "6.3",
        -11.39972238242951
      ],
      [
        "▁1400",
        -12.660599974370802
      ],
      [
        "▁temiz",
        -6.832296988967226
      ],
      [
        "▁kuruluslarını",
        -11.631929565701205
      ],
      [
        "tzer",
        -11.68637608817872
      ],
      [
        "▁baskanlıgı",
        -10.48525964861473
      ],
      [
        "▁sekerleme",
        -11.68568770946917
      ],
      [
        "▁noktasın",
        -10.815315421209085
      ],
      [
        "▁bunun",
        -6.1361933051979545
      ],
      [
        "lenme",
        -9.472408641532153
      ],
      [
        "▁genetik",
        -10.948971933380623
      ],
      [
        "▁cevrili",
        -10.891770672930456
      ],
      [
        "▁ata",
        -9.6750471407067
      ],
      [
        "▁perdesi",
        -10.993006321266472
      ],
      [
        "▁herkes",
        -8.513570378213672
      ],
      [
        "▁oynadıgı",
        -10.994262986997375
      ],
      [
        "▁dun",
        -7.723400918697454
      ],
      [
        "en",
        -7.834124913301681
      ],
      [
        "▁iti",
        -10.710398430695074
      ],
      [
        "▁calıstıgını",
        -11.274479229243727
      ],
      [
        "▁boy",
        -9.382386474927383
      ],
      [
        "▁353",
        -10.9188003513503
      ],
      [
        ":30",
        -11.315077693448156
      ],
      [
        "▁gar",
        -10.048643680742089
      ],
      [
        "▁service",
        -10.789949583188923
      ],
      [
        "▁birini",
        -9.849735579663415
      ],
      [
        "▁mahvol",
        -11.684571681791017
      ],
      [
        "▁avuc",
        -9.532851738011734
      ],
      [
        "▁oyunlarını",
        -11.584671581382999
      ],
      [
        "▁tarlaları",
        -11.21014195751315
      ],
      [
        "▁bursa'",
        -11.427333331768494
      ],
      [
        "vurdugu",
        -11.625031673432169
      ],
      [
        "liklerin",
        -11.389402884463726
      ],
      [
        "eceksin",
        -10.79674048746046
      ],
      [
        "▁disk",
        -10.818566621638533
      ],
      [
        "yim",
        -9.032025203405938
      ],
      [
        "▁gezi",
        -9.349684129931774
      ],
      [
        "▁341",
        -12.982750651109097
      ],
      [
        "▁hortu",
        -11.519387589978026
      ],
      [
        "▁ce",
        -10.279692747770051
      ],
      [
        "▁agı",
        -10.843444324278794
      ],
      [
        ".94",
        -11.237657506107197
      ],
      [
        "▁balıklar",
        -10.716571216517705
      ],
      [
        "▁sıg",
        -10.319042595258862
      ],
      [
        "▁ucları",
        -11.419951158385825
      ],
      [
        "yuzotuz",
        -10.896203989690054
      ],
      [
        "▁sapma",
        -11.050447392490662
      ],
      [
        "▁8.3",
        -10.268718190700184
      ],
      [
        "▁kızım",
        -10.423058065959122
      ],
      [
        "▁davacı",
        -11.213642478382088
      ],
      [
        "▁yuregi",
        -9.741029138891431
      ],
      [
        "▁dinkins",
        -10.94804147853559
      ],
      [
        "▁havayolları'nı",
        -11.51239763768064
      ],
      [
        "▁donunc",
        -11.310646721777632
      ],
      [
        "bas",
        -10.321070028999975
      ],
      [
        "7.56",
        -11.800064372649688
      ],
      [
        "76",
        -9.922494579454352
      ],
      [
        "▁hazırlayı",
        -11.599245803743703
      ],
      [
        "0-1",
        -13.272259995130508
      ],
      [
        "▁57",
        -8.71809689298287
      ],
      [
        "▁sadak",
        -11.518027605950502
      ],
      [
        "▁yaratma",
        -10.071239809339785
      ],
      [
        "▁dusurdu",
        -10.004433735685584
      ],
      [
        "▁milletvekilleri",
        -11.138936157699487
      ],
      [
        "lan",
        -8.352687160670566
      ],
      [
        "▁malzeme",
        -9.891524109703226
      ],
      [
        "bilmek",
        -11.205623412508897
      ],
      [
        "▁gul'u",
        -11.464218089697223
      ],
      [
        "guzel",
        -11.247383249888566
      ],
      [
        "▁tuketim",
        -10.0428988571907
      ],
      [
        "▁bulamayı",
        -11.711087770299878
      ],
      [
        "▁ogrendi",
        -10.31518681012039
      ],
      [
        "▁yıkılmıs",
        -11.228589121741287
      ],
      [
        "▁ahmet",
        -9.690694999004839
      ],
      [
        "▁netice",
        -10.33643688740348
      ],
      [
        "▁dolara",
        -8.31060820248479
      ],
      [
        "▁burosu",
        -10.821777399058204
      ],
      [
        "▁gelin",
        -9.29700253988359
      ],
      [
        "▁sevin",
        -10.338346607715941
      ],
      [
        "▁ortulu",
        -10.601530016533284
      ],
      [
        "▁hepsini",
        -7.524949703003487
      ],
      [
        "▁dortyuz",
        -10.328547290058722
      ],
      [
        "▁albert",
        -11.684784793072604
      ],
      [
        "▁agla",
        -10.67838414958484
      ],
      [
        "▁bir",
        -6.078712340133457
      ],
      [
        "▁efendim",
        -10.255355590021495
      ],
      [
        "▁albay",
        -11.251111750153068
      ],
      [
        "▁yurt",
        -9.23955007175518
      ],
      [
        "▁tırmanı",
        -11.208823143113909
      ],
      [
        "▁26.",
        -11.08542382789698
      ],
      [
        "▁zamanlar",
        -8.991997993502512
      ],
      [
        "lanması",
        -9.866477716965417
      ],
      [
        "▁yasam",
        -8.965739414704338
      ],
      [
        "▁cor",
        -10.187678819946491
      ],
      [
        "fer",
        -10.26087502946557
      ],
      [
        "▁gorevini",
        -10.388240447187462
      ],
      [
        "▁sozcuk",
        -10.700000077409292
      ],
      [
        "▁sızı",
        -10.81722344325795
      ],
      [
        "▁eczacı",
        -10.864694194840745
      ],
      [
        "irmi",
        -11.575760553809932
      ],
      [
        "▁yalın",
        -10.491792314853118
      ],
      [
        "▁getirmisti",
        -10.881091813365277
      ],
      [
        "▁ayakta",
        -9.424178166293906
      ],
      [
        "▁alınmasını",
        -11.75613294782417
      ],
      [
        "▁sanıyoru",
        -10.829235391216978
      ],
      [
        "▁nazar",
        -10.754321118743588
      ],
      [
        "▁devleti",
        -10.93797515543568
      ],
      [
        "▁aklı",
        -9.656200703681101
      ],
      [
        "▁anlattıgı",
        -10.300920330990824
      ],
      [
        "▁184",
        -11.381478355556352
      ],
      [
        "0",
        -9.329708899782705
      ],
      [
        "▁yani",
        -6.940966782202292
      ],
      [
        "▁basarı",
        -9.323049162628338
      ],
      [
        "▁sarı",
        -8.67117824050962
      ],
      [
        "▁ayrılmıs",
        -10.587661821588599
      ],
      [
        "▁safra",
        -11.384327913061597
      ],
      [
        "▁nu",
        -10.992992609370448
      ],
      [
        "▁ibaretti",
        -11.518416694098253
      ],
      [
        "▁yayınladı",
        -10.628732472411896
      ],
      [
        "▁dinlemiyor",
        -11.689078682620286
      ],
      [
        "▁robert",
        -10.093948946445618
      ],
      [
        "▁seks",
        -10.397647130327343
      ],
      [
        "▁ırk",
        -10.587603469866696
      ],
      [
        "▁%27",
        -11.8111704835246
      ],
      [
        "▁kelimesi",
        -10.74454031309746
      ],
      [
        "elle",
        -10.88626714841862
      ],
      [
        "▁dayanagı",
        -11.378134834928982
      ],
      [
        "▁asla",
        -9.002640888782395
      ],
      [
        "▁o",
        -5.415287549922417
      ],
      [
        "▁hayatı",
        -9.483322430446432
      ],
      [
        "▁dehset",
        -10.58717549340803
      ],
      [
        "▁buyuttu",
        -11.375055720938697
      ],
      [
        "▁odev",
        -11.59944693949438
      ],
      [
        "co",
        -8.870091379758676
      ],
      [
        "▁gozlem",
        -9.550512325181211
      ],
      [
        "▁bulunması",
        -11.192273496261118
      ],
      [
        "▁18.7",
        -10.655048398053445
      ],
      [
        "▁analistler",
        -8.984233743568954
      ],
      [
        "▁sesler",
        -10.072665616905336
      ],
      [
        "▁nasdaq",
        -10.113484695388756
      ],
      [
        "▁notu",
        -11.271370851306813
      ],
      [
        "▁evrenin",
        -10.838780267505763
      ],
      [
        "▁serdar",
        -11.251364761138278
      ],
      [
        "▁sor",
        -9.550018778253659
      ],
      [
        "▁konseyi",
        -11.292673515355037
      ],
      [
        "▁bacaklarını",
        -11.416176863642214
      ],
      [
        "▁kapısında",
        -9.875778995351128
      ],
      [
        "▁fin",
        -10.30703527091889
      ],
      [
        "▁kaliforniya'da",
        -11.194884500881969
      ],
      [
        "▁kamu",
        -8.947613522348469
      ],
      [
        "▁dileri",
        -10.88042281944322
      ],
      [
        "▁vurdu",
        -9.509825169535983
      ],
      [
        "▁tebesir",
        -11.884571110037731
      ],
      [
        "▁durur",
        -11.510457288078449
      ],
      [
        "▁oyunculugu",
        -11.69112298307726
      ],
      [
        "▁paul",
        -9.972462617211841
      ],
      [
        "lestirdigi",
        -11.452968743522785
      ],
      [
        "▁konforu",
        -9.857202187573545
      ],
      [
        "▁tabaka",
        -11.090229111096106
      ],
      [
        "▁strateji",
        -9.283414267300762
      ],
      [
        "▁sıkısmıs",
        -11.689027819223696
      ],
      [
        "▁ti",
        -6.777248598015956
      ],
      [
        "▁tersine",
        -10.11844068061046
      ],
      [
        "▁sandıgı",
        -10.260961231017092
      ],
      [
        "▁cıkan",
        -8.885775440263629
      ],
      [
        "▁nus",
        -11.142605800888415
      ],
      [
        "▁iktisa",
        -10.787757156694905
      ],
      [
        "▁sayi",
        -9.740491776709865
      ],
      [
        "▁yakınları",
        -11.2429452588758
      ],
      [
        "▁tedbirli",
        -11.401722756062798
      ],
      [
        "▁benzer",
        -8.539506492458557
      ],
      [
        "▁sınır",
        -9.518865760852467
      ],
      [
        "▁macın",
        -10.59988676626546
      ],
      [
        "▁198",
        -11.122665532254377
      ],
      [
        "▁akl",
        -11.251608793799885
      ],
      [
        "▁gu",
        -9.6255953466796
      ],
      [
        "takım",
        -9.95059004429594
[...]
