{
  "version": "1.0",
  "truncation": null,
  "padding": null,
  "added_tokens": [
    {
      "id": 970,
      "content": "[MASK]",
      "single_word": false,
      "lstrip": false,
      "rstrip": false,
      "normalized": false,
      "special": true
    },
    {
      "id": 1317,
      "content": "[PAD]",
      "single_word": false,
      "lstrip": false,
      "rstrip": false,
      "normalized": false,
      "special": true
    },
    {
      "id": 2134,
      "content": "[UNK]",
      "single_word": false,
      "lstrip": false,
      "rstrip": false,
      "normalized": false,
      "special": true
    },
    {
      "id": 2573,
      "content": "[SEP]",
      "single_word": false,
      "lstrip": false,
      "rstrip": false,
      "normalized": false,
      "special": true
    },
    {
      "id": 2595,
      "content": "[CLS]",
      "single_word": false,
      "lstrip": false,
      "rstrip": false,
      "normalized": false,
      "special": true
    }
  ],
  "normalizer": {
    "type": "Sequence",
    "normalizers": [
      {
        "type": "NFD"
      },
      {
        "type": "Lowercase"
      },
      {
        "type": "StripAccents"
      }
    ]
  },
  "pre_tokenizer": {
    "type": "Sequence",
    "pretokenizers": [
      {
        "type": "Metaspace",
        "replacement": "▁",
        "prepend_scheme": "always",
        "split": true
      }
    ]
  },
  "post_processor": {
    "type": "TemplateProcessing",
    "single": [
      {
        "SpecialToken": {
          "id": "[CLS]",
          "type_id": 0
        }
      },
      {
        "Sequence": {
          "id": "A",
          "type_id": 0
        }
      },
      {
        "SpecialToken": {
          "id": "[SEP]",
          "type_id": 0
        }
      }
    ],
    "pair": [
      {
        "SpecialToken": {
          "id": "[CLS]",
          "type_id": 0
        }
      },
      {
        "Sequence": {
          "id": "A",
          "type_id": 0
        }
      },
      {
        "SpecialToken": {
          "id": "[SEP]",
          "type_id": 0
        }
      },
      {
        "Sequence": {
          "id": "B",
          "type_id": 1
        }
      },
      {
        "SpecialToken": {
          "id": "[SEP]",
          "type_id": 1
        }
      }
    ],
    "special_tokens": {
      "[CLS]": {
        "id": "[CLS]",
        "ids": [
          2595
        ],
        "tokens": [
          "[CLS]"
        ]
      },
      "[SEP]": {
        "id": "[SEP]",
        "ids": [
          2573
        ],
        "tokens": [
          "[SEP]"
        ]
      }
    }
  },
  "decoder": {
    "type": "Metaspace",
    "replacement": "▁",
    "prepend_scheme": "always",
    "split": true
  },
  "model": {
    "type": "WordPiece",
    "unk_token": "[UNK]",
    "continuing_subword_prefix": "##",
    "max_input_chars_per_word": 100,
    "vocab": {
      "▁gosteriyor": 0,
      "▁%25": 1,
      "▁alan": 2,
      "##0000": 3,
      "▁efendi": 4,
      "▁listele": 5,
      "▁26": 6,
      "▁kir": 7,
      "▁faaliyet": 8,
      "##dıgını": 9,
      "▁col": 10,
      "a": 11,
      "▁elinde": 12,
      "▁nere": 13,
      "▁kalkıyor": 14,
      "▁havayol": 15,
      "##2": 16,
      "▁kısa": 17,
      "##ısır": 18,
      "▁kas": 19,
      "▁tutun": 20,
      "##eler": 21,
      "▁dusunc": 22,
      "▁calıs": 23,
      "▁yuksel": 24,
      "▁olustur": 25,
      "##sel": 26,
      "##amıyor": 27,
      "▁gund": 28,
      "▁indianapolis'ten": 29,
      "▁karayolu": 30,
      "▁hom": 31,
      "▁allak": 32,
      "##3": 33,
      "▁asl": 34,
      "▁listel": 35,
      "##tur": 36,
      "▁istemiyorum": 37,
      "▁od": 38,
      "##net": 39,
      "▁aralık": 40,
      "y": 41,
      "▁koca": 42,
      "##van": 43,
      "▁ciz": 44,
      "▁doları'na": 45,
      "##likte": 46,
      "▁bog": 47,
      "##at": 48,
      "▁poz": 49,
      "##ısın": 50,
      "##uc": 51,
      "▁soy": 52,
      "▁le": 53,
      "▁kons": 54,
      "▁salı": 55,
      "▁yan": 56,
      "▁hicbiri": 57,
      "▁sebep": 58,
      "##$": 59,
      "▁sarı": 60,
      "▁saray": 61,
      "##alarına": 62,
      "▁23": 63,
      "##”": 64,
      "##mamıs": 65,
      "##'i": 66,
      "##eki": 67,
      "▁eylem": 68,
      "▁sıra": 69,
      "▁cogu": 70,
      "##asına": 71,
      "▁mad": 72,
      "▁birkac": 73,
      "▁ko": 74,
      "##iyas": 75,
      "▁yaptirdi": 76,
      "▁anim": 77,
      "▁isk": 78,
      "▁montre": 79,
      "▁ulas": 80,
      "##orta": 81,
      "##gel": 82,
      "##iforn": 83,
      "▁%7": 84,
      "▁gayet": 85,
      "▁ucmak": 86,
      "▁tuc": 87,
      "▁begen": 88,
      "##ess": 89,
      "▁ag": 90,
      "##0'": 91,
      "##op": 92,
      "▁ilgisiz": 93,
      "##anlı": 94,
      "##yalar": 95,
      "▁orland": 96,
      "▁ancak": 97,
      "▁gar": 98,
      "▁personeli": 99,
      "▁pil": 100,
      "▁de": 101,
      "##30": 102,
      "▁oranı": 103,
      "##unde": 104,
      "▁paul": 105,
      "▁franc": 106,
      "▁kendileri": 107,
      "▁sade": 108,
      "3": 109,
      "##eyim": 110,
      "▁gir": 111,
      "##ke": 112,
      "▁tıkl": 113,
      "##4": 114,
      "▁kazanc": 115,
      "▁cev": 116,
      "##dugunu": 117,
      "##ah": 118,
      "▁iddia": 119,
      "▁huz": 120,
      "▁500": 121,
      "▁karanlık": 122,
      "▁bush": 123,
      "▁ornegin": 124,
      "##eme": 125,
      "##ili": 126,
      "##tor": 127,
      "▁vardı": 128,
      "##acagız": 129,
      "▁fut": 130,
      "##ur": 131,
      "##ti": 132,
      "▁ihtiyac": 133,
      "##'yi": 134,
      "▁gormek": 135,
      "▁cont": 136,
      "▁mart": 137,
      "▁ib": 138,
      "▁bagır": 139,
      "▁oc": 140,
      "▁kontrol": 141,
      "▁olabilirdi": 142,
      "▁uf": 143,
      "▁j": 144,
      "▁hi": 145,
      "##ont": 146,
      "▁ber": 147,
      "▁kaynak": 148,
      "##eci": 149,
      "##eli": 150,
      "▁dis": 151,
      "▁1.5": 152,
      "##te": 153,
      "▁bal": 154,
      "##larak": 155,
      "▁itibar": 156,
      "##.": 157,
      "##tar": 158,
      "▁degistir": 159,
      "▁oz": 160,
      "##vıl": 161,
      "▁sunu": 162,
      "▁dik": 163,
      "▁soyle": 164,
      "x": 165,
      "##ans": 166,
      "▁erk": 167,
      "▁basında": 168,
      "##■": 169,
      "▁sesi": 170,
      "##ugu": 171,
      "▁zayıf": 172,
      "##he": 173,
      "##urt": 174,
      "##pıs": 175,
      "##ington": 176,
      "▁beb": 177,
      "▁yuzunden": 178,
      "##irim": 179,
      "##sak": 180,
      "▁bunu": 181,
      "##uyla": 182,
      "▁sonra": 183,
      "##ısı": 184,
      "▁kaf": 185,
      "▁duz": 186,
      "▁piyasa": 187,
      "r": 188,
      "##.1": 189,
      "▁*": 190,
      "▁idi": 191,
      "▁muht": 192,
      "▁indi": 193,
      "##aydı": 194,
      "##ya'da": 195,
      "##aj": 196,
      "=": 197,
      "▁olarak": 198,
      "▁karsılık": 199,
      "##mustur": 200,
      "##be": 201,
      "▁hava": 202,
      "▁gosterdi": 203,
      "▁karsıl": 204,
      "##raf": 205,
      "##meleri": 206,
      "▁not": 207,
      "▁don": 208,
      "##ırlar": 209,
      "▁cır": 210,
      "▁tavsiye": 211,
      "▁da": 212,
      "▁tiyat": 213,
      "##rol": 214,
      "##emey": 215,
      "▁rak": 216,
      "4": 217,
      "e": 218,
      "▁ekip": 219,
      "##esinde": 220,
      "▁si": 221,
      "▁yasında": 222,
      "▁%7.875": 223,
      "▁%50": 224,
      "▁ces": 225,
      "▁zor": 226,
      "▁konut": 227,
      "▁)": 228,
      "▁tıklım": 229,
      "##tım": 230,
      "##`": 231,
      "##arl": 232,
      "▁oldugu": 233,
      "▁dor": 234,
      "▁sul": 235,
      "##arı": 236,
      "▁porcuk": 237,
      "▁kos": 238,
      "▁gecen": 239,
      "▁zar": 240,
      "▁tesisin": 241,
      "##iya": 242,
      "##liydi": 243,
      "▁fot": 244,
      "▁red": 245,
      "w": 246,
      "##ırk": 247,
      "▁toplum": 248,
      "▁millet": 249,
      "##han": 250,
      "▁kabul": 251,
      "##ime": 252,
      "▁gok": 253,
      "▁tesekkur": 254,
      "▁if": 255,
      "▁e": 256,
      "▁cak": 257,
      "▁gitmek": 258,
      "##eleri": 259,
      "▁temsil": 260,
      "##isleri": 261,
      "▁organ": 262,
      "▁enf": 263,
      "▁yalan": 264,
      "▁fa": 265,
      "▁gecik": 266,
      "##imi": 267,
      "##rı": 268,
      "▁pasa": 269,
      "▁muk": 270,
      "▁yılı": 271,
      "##per": 272,
      "▁tane": 273,
      "▁istif": 274,
      "▁olur": 275,
      "▁hukum": 276,
      "##unku": 277,
      "##amız": 278,
      "▁pufur": 279,
      "##ital": 280,
      "▁gercek": 281,
      "▁ucus": 282,
      "▁=": 283,
      "▁bakıyor": 284,
      "▁sokak": 285,
      "▁beklen": 286,
      "##urken": 287,
      "▁n": 288,
      "##ungur": 289,
      "▁key": 290,
      "▁hala": 291,
      "▁bilgis": 292,
      "▁9": 293,
      "▁faz": 294,
      "m": 295,
      "▁tak": 296,
      "##ilecek": 297,
      "▁biz": 298,
      "##gun": 299,
      "▁beyle": 300,
      "▁rehber": 301,
      "##..": 302,
      "▁ucuslar": 303,
      "▁cag": 304,
      "##atır": 305,
      "▁esk": 306,
      "##iv": 307,
      "▁numar": 308,
      "▁toplan": 309,
      "▁oldukca": 310,
      "▁avukat": 311,
      "▁ba": 312,
      "▁kor": 313,
      "##ayla": 314,
      "▁hasır": 315,
      "▁sh": 316,
      "##ilm": 317,
      "▁guney": 318,
      "##dı": 319,
      "▁demek": 320,
      "▁malzem": 321,
      ":": 322,
      "▁tedav": 323,
      "▁sordu": 324,
      "▁cey": 325,
      "##7": 326,
      "▁ho": 327,
      "##yo": 328,
      "▁kr": 329,
      "▁first": 330,
      "##alı": 331,
      "g": 332,
      "▁dusus": 333,
      "▁kendim": 334,
      "##endir": 335,
      "▁ayakk": 336,
      "▁day": 337,
      "▁polit": 338,
      "▁stok": 339,
      "##ebilir": 340,
      "▁sav": 341,
      "▁,": 342,
      "▁tesis": 343,
      "▁yel": 344,
      "##ran": 345,
      "▁yaptıgı": 346,
      "▁basarılı": 347,
      "▁acık": 348,
      "##onom": 349,
      "▁sınıfı": 350,
      "▁oldug": 351,
      "▁kırık": 352,
      "##ama": 353,
      "##gil": 354,
      "▁yerine": 355,
      "▁cicek": 356,
      "p": 357,
      "▁kah": 358,
      "▁yıllar": 359,
      "▁onemli": 360,
      "##istan": 361,
      "##86": 362,
      "▁kıymet": 363,
      "##amaya": 364,
      "##ılacak": 365,
      "##dıgım": 366,
      "▁olduk": 367,
      "▁bitir": 368,
      "▁kalma": 369,
      "##s": 370,
      "##ligi": 371,
      "##layarak": 372,
      "##isyon": 373,
      "▁lungur": 374,
      "▁kurul": 375,
      "▁yavas": 376,
      "▁ev": 377,
      "▁denizi": 378,
      "▁sipar": 379,
      "▁ar": 380,
      "▁ragmen": 381,
      "▁dog": 382,
      "▁musa": 383,
      "##ık": 384,
      "▁salt": 385,
      "##alarında": 386,
      "▁nakit": 387,
      "▁olmadıgı": 388,
      "▁300": 389,
      "##masını": 390,
      "▁5": 391,
      "▁toront": 392,
      "▁vardır": 393,
      "▁kendisini": 394,
      "▁gizli": 395,
      "##89": 396,
      "▁tah": 397,
      "▁w": 398,
      "##uma": 399,
      "▁ekmek": 400,
      "▁ısı": 401,
      "##ızı": 402,
      "▁etti": 403,
      "▁ma": 404,
      "▁uzak": 405,
      "##masına": 406,
      "▁talep": 407,
      "▁bayram": 408,
      "##ma": 409,
      "▁am": 410,
      "▁air": 411,
      "▁yeniden": 412,
      "▁akl": 413,
      "##gıc": 414,
      "##uz": 415,
      "##'daki": 416,
      "▁net": 417,
      "▁fiyati": 418,
      "▁beklem": 419,
      "▁bakan": 420,
      "▁milwaukee'den": 421,
      "▁dusun": 422,
      "▁fı": 423,
      "▁herk": 424,
      "##mıslar": 425,
      "▁eksik": 426,
      "▁seh": 427,
      "▁kalkıs": 428,
      "##meyen": 429,
      "▁siyasi": 430,
      "▁hatır": 431,
      "▁verdi": 432,
      "▁ayır": 433,
      "##ligini": 434,
      "▁dunyanın": 435,
      "▁bunların": 436,
      "▁koyun": 437,
      "##sal": 438,
      "▁bilet": 439,
      "##sem": 440,
      "▁edebiyat": 441,
      "▁sır": 442,
      "▁onunla": 443,
      "##igini": 444,
      "▁bahs": 445,
      "▁i": 446,
      "##dog": 447,
      "▁deniz": 448,
      "▁bul": 449,
      "▁denver'e": 450,
      "▁hayal": 451,
      "▁yılın": 452,
      "##0": 453,
      "##isi": 454,
      "▁ge": 455,
      "▁bey": 456,
      "##-2": 457,
      "▁senin": 458,
      "##'e": 459,
      "▁p": 460,
      "▁sinir": 461,
      "▁york'tan": 462,
      "▁hazine": 463,
      "▁angeles": 464,
      "▁ogle": 465,
      "##esin": 466,
      "▁su": 467,
      "▁vegas'a": 468,
      "▁adi": 469,
      "▁komisyon": 470,
      "▁gorusuldu": 471,
      "▁sof": 472,
      "▁olar": 473,
      "##ata": 474,
      "##larının": 475,
      "▁fik": 476,
      "▁mes": 477,
      "▁kucuk": 478,
      "▁or": 479,
      "▁;": 480,
      "▁mus": 481,
      "##&": 482,
      "▁senedi": 483,
      "▁niyet": 484,
      "##aklı": 485,
      "▁cıkan": 486,
      "▁ikib": 487,
      "##uydu": 488,
      "▁buz": 489,
      "##mam": 490,
      "▁mut": 491,
      "▁ingiliz": 492,
      "▁gercekles": 493,
      "▁dur": 494,
      "▁memur": 495,
      "▁milwaukee'ye": 496,
      "▁gore": 497,
      "▁ig": 498,
      "▁madd": 499,
      "▁city'e": 500,
      "▁hangisi": 501,
      "##ca": 502,
      "▁sovyet": 503,
      "▁ozgur": 504,
      "##met": 505,
      "▁mev": 506,
      "##adi": 507,
      "▁ydu": 508,
      "▁borc": 509,
      "▁mor": 510,
      "▁%6.4": 511,
      "▁hafif": 512,
      "▁yuzme": 513,
      "▁yerinde": 514,
      "##ici": 515,
      "##imin": 516,
      "▁tuket": 517,
      "##larına": 518,
      "▁kuzey": 519,
      "▁yaptirmadim": 520,
      "##amay": 521,
      "▁kalmadim": 522,
      "##gim": 523,
      "▁begenmedim": 524,
      "▁del": 525,
      "▁muh": 526,
      "▁boston'a": 527,
      "▁oldugum": 528,
      "▁dusuk": 529,
      "##bir": 530,
      "##asa": 531,
      "▁kesinlikle": 532,
      "▁california": 533,
      "▁universit": 534,
      "##vır": 535,
      "▁hem": 536,
      "▁saf": 537,
      "▁otomobil": 538,
      "▁hikay": 539,
      "▁benzer": 540,
      "▁gul": 541,
      "▁oyle": 542,
      "##uluyor": 543,
      "##agı": 544,
      "##art": 545,
      "▁ses": 546,
      "▁alım": 547,
      "▁oner": 548,
      "##yn": 549,
      "▁anlat": 550,
      "##ucuk": 551,
      "▁aldı": 552,
      "▁dusunuyor": 553,
      "▁yukarı": 554,
      "▁ann": 555,
      "▁tahmin": 556,
      "##acagı": 557,
      "##sunuz": 558,
      "▁oyun": 559,
      "▁konak": 560,
      "##west": 561,
      "▁ait": 562,
      "▁f": 563,
      "##m": 564,
      "▁gece": 565,
      "##den": 566,
      "##apon": 567,
      "##uya": 568,
      "▁yarın": 569,
      "##ika": 570,
      "##ılır": 571,
      "▁sans": 572,
      "▁:": 573,
      "▁bo": 574,
      "##ımıza": 575,
      "▁edilen": 576,
      "##enc": 577,
      "##lanan": 578,
      "▁kullanmadim": 579,
      "▁anda": 580,
      "▁odaydi": 581,
      "▁onay": 582,
      "▁he": 583,
      "▁ulusal": 584,
      "##pan": 585,
      "▁pas": 586,
      "##ilir": 587,
      "▁biliyor": 588,
      "##ıtır": 589,
      "▁adam": 590,
      "▁merkezine": 591,
      "▁itir": 592,
      "▁sırada": 593,
      "##acagını": 594,
      "##dıgında": 595,
      "▁konfor": 596,
      "▁ihrac": 597,
      "##1": 598,
      "##isine": 599,
      "▁guzeldi": 600,
      "##ekler": 601,
      "▁gittik": 602,
      "▁menkul": 603,
      "▁dem": 604,
      "##mak": 605,
      "##ori": 606,
      "▁birles": 607,
      "▁endek": 608,
      "▁seattle": 609,
      "▁saat": 610,
      "▁anket": 611,
      "▁hik": 612,
      "##ach": 613,
      "▁isim": 614,
      "##.8": 615,
      "▁bicim": 616,
      "##ese": 617,
      "▁miyim": 618,
      "▁harika": 619,
      "##e": 620,
      "##ac": 621,
      "▁onlara": 622,
      "##inda": 623,
      "##kuz": 624,
      "▁kot": 625,
      "▁lok": 626,
      "▁haldır": 627,
      "##ni": 628,
      "##emek": 629,
      "##ite": 630,
      "##ıs": 631,
      "##iddet": 632,
      "▁kac": 633,
      "▁aile": 634,
      "##layan": 635,
      "##ediyor": 636,
      "▁destek": 637,
      "▁bunun": 638,
      "▁28": 639,
      "##ket": 640,
      "##elerinde": 641,
      "▁dep": 642,
      "▁naz": 643,
      "▁islet": 644,
      "▁ziy": 645,
      "▁kez": 646,
      "▁birisi": 647,
      "##sız": 648,
      "▁basladı": 649,
      "▁onlar": 650,
      "▁ta": 651,
      "▁birden": 652,
      "▁ticaret": 653,
      "▁etmeye": 654,
      "##arlar": 655,
      "##ilik": 656,
      "▁serv": 657,
      "▁mec": 658,
      "##dın": 659,
      "##sen": 660,
      "▁kahv": 661,
      "▁iler": 662,
      "▁class": 663,
      "▁ozel": 664,
      "▁acıklam": 665,
      "▁bolum": 666,
      "##lenmis": 667,
      "▁ez": 668,
      "▁pis": 669,
      "##laması": 670,
      "▁muster": 671,
      "▁bakım": 672,
      "▁ayrıl": 673,
      "▁yarım": 674,
      "▁%11": 675,
      "▁ya": 676,
      "##cut": 677,
      "##egin": 678,
      "##amaz": 679,
      "▁yag": 680,
      "▁kol": 681,
      "##siye": 682,
      "▁ir": 683,
      "##anbul": 684,
      "▁did": 685,
      "▁lutfen": 686,
      "▁tem": 687,
      "##asının": 688,
      "▁yapıyor": 689,
      "##otte": 690,
      "▁miydi": 691,
      "##bus": 692,
      "▁1989-": 693,
      "▁dam": 694,
      "▁edip": 695,
      "▁fabrik": 696,
      "▁kalite": 697,
      "▁ifade": 698,
      "▁isletme": 699,
      "##inin": 700,
      "▁odem": 701,
      "▁yoktu": 702,
      "▁sistem": 703,
      "▁derli": 704,
      "##and": 705,
      "▁ih": 706,
      "▁ey": 707,
      "##enkul": 708,
      "##umuz": 709,
      "▁bes": 710,
      "##ge": 711,
      "##tern": 712,
      "##ıstır": 713,
      "▁ik": 714,
      "▁yum": 715,
      "▁onumuz": 716,
      "##ayı": 717,
      "▁art": 718,
      "##amadim": 719,
      "##ens": 720,
      "▁ziyaret": 721,
      "##cilik": 722,
      "▁ikinci": 723,
      "▁tıpıs": 724,
      "▁kit": 725,
      "▁pittsburgh'a": 726,
      "▁cit": 727,
      "▁te": 728,
      "▁af": 729,
      "▁oden": 730,
      "##bank": 731,
      "▁merdi": 732,
      "##es": 733,
      "▁hiss": 734,
      "▁rap": 735,
      "##ey": 736,
      "##medi": 737,
      "##fi": 738,
      "▁oyn": 739,
      "▁ortaya": 740,
      "▁asagı": 741,
      "▁sigorta": 742,
      "##ması": 743,
      "▁sorunu": 744,
      "▁gel": 745,
      "▁mem": 746,
      "b": 747,
      "▁yal": 748,
      "▁onları": 749,
      "▁kal": 750,
      "##ap": 751,
      "▁belir": 752,
      "##maları": 753,
      "▁bizde": 754,
      "▁yemek": 755,
      "##f": 756,
      "▁tan": 757,
      "##na": 758,
      "##gın": 759,
      "▁delik": 760,
      ";": 761,
      "▁street": 762,
      "▁yog": 763,
      "▁bors": 764,
      "▁charlotte": 765,
      "▁havayolu": 766,
      "##dis": 767,
      "▁havaalan": 768,
      "##inn": 769,
      "▁kut": 770,
      "▁ust": 771,
      "▁yemeklerinden": 772,
      "▁uzman": 773,
      "▁tezgah": 774,
      "▁memnun": 775,
      "▁27": 776,
      "##pa": 777,
      "▁pay": 778,
      "▁57": 779,
      "##aliydi": 780,
      "▁ph": 781,
      "##lıgını": 782,
      "▁agac": 783,
      "▁azal": 784,
      "▁rast": 785,
      "▁yonetim": 786,
      "▁haline": 787,
      "##aman": 788,
      "▁dokun": 789,
      "▁alk": 790,
      "▁alacak": 791,
      "▁parmak": 792,
      "▁mudur": 793,
      "##'n": 794,
      "##abı": 795,
      "▁miy": 796,
      "##irmi": 797,
      "▁bilg": 798,
      "▁kalan": 799,
      "▁gecir": 800,
      "▁kacın": 801,
      "▁cem": 802,
      "##aber": 803,
      "##estir": 804,
      "▁29": 805,
      "##ibar": 806,
      "▁sosy": 807,
      "▁dı": 808,
      "▁dallas": 809,
      "▁huk": 810,
      "▁benz": 811,
      "##ee": 812,
      "▁duruyor": 813,
      "▁boyunca": 814,
      "##du": 815,
      "##ıyor": 816,
      "▁didik": 817,
      "▁sozcusu": 818,
      "##digimiz": 819,
      "▁artısla": 820,
      "##mus": 821,
      "▁kaldır": 822,
      "##'da": 823,
      "▁fikir": 824,
      "##sı": 825,
      "▁suy": 826,
      "##itt": 827,
      "▁ettigini": 828,
      "##ledi": 829,
      "▁sim": 830,
      "▁patır": 831,
      "▁takır": 832,
      "▁mah": 833,
      "##apolis": 834,
      "▁nis": 835,
      "▁temel": 836,
      "▁ataturk": 837,
      "▁aktif": 838,
      "##ısız": 839,
      "▁yuv": 840,
      "▁has": 841,
      "f": 842,
      "▁vergi": 843,
      "##medik": 844,
      "##can": 845,
      "▁kere": 846,
      "▁lake": 847,
      "##ane": 848,
      "▁dus": 849,
      "##ro": 850,
      "##mayan": 851,
      "▁otur": 852,
      "##ecektir": 853,
      "▁kars": 854,
      "▁askeri": 855,
      "##8": 856,
      "##medigini": 857,
      "##isini": 858,
      "▁baglı": 859,
      "▁yine": 860,
      "##us": 861,
      "##siz": 862,
      "▁yirmi": 863,
      "▁yaslı": 864,
      "##evi": 865,
      "▁memph": 866,
      "##may": 867,
      "▁sayı": 868,
      "▁boyle": 869,
      "##gur": 870,
      "▁konusunda": 871,
      "##eden": 872,
      "▁kıyas": 873,
      "▁sikayet": 874,
      "▁guzel": 875,
      "▁%7.": 876,
      "▁personelleri": 877,
      "▁belki": 878,
      "▁bor": 879,
      "▁ciyak": 880,
      "##luydu": 881,
      "▁mur": 882,
      "##ırdı": 883,
      "▁artıs": 884,
      "▁arka": 885,
      "##utur": 886,
      "▁personeller": 887,
      "##aya": 888,
      "ı": 889,
      "▁ilgi": 890,
      "▁mun": 891,
      "##yen": 892,
      "##ad": 893,
      "##ayan": 894,
      "##ala": 895,
      "▁ban": 896,
      "▁kapalı": 897,
      "▁fr": 898,
      "▁yas": 899,
      "##em": 900,
      "▁bildir": 901,
      "▁beni": 902,
      "▁0": 903,
      "▁ucreti": 904,
      "▁arkadas": 905,
      "##or": 906,
      "▁egitim": 907,
      "▁.": 908,
      "##ıma": 909,
      "▁aj": 910,
      "▁cıtır": 911,
      "##ılım": 912,
      "##iyat": 913,
      "▁sehir": 914,
      "##umu": 915,
      "▁uret": 916,
      "▁gorunuyor": 917,
      "##baren": 918,
      "▁washington'a": 919,
      "▁bol": 920,
      "▁baslamıs": 921,
      "▁3": 922,
      "##ıldı": 923,
      "▁yay": 924,
      "▁gozlerini": 925,
      "##mel": 926,
      "▁yedi": 927,
      "▁uygul": 928,
      "▁bizi": 929,
      "##ılmıs": 930,
      "▁yav": 931,
      "▁ard": 932,
      "▁hepsinin": 933,
      "▁tac": 934,
      "▁gitti": 935,
      "##tir": 936,
      "▁ekonomik": 937,
      "t": 938,
      "▁akıl": 939,
      "▁say": 940,
      "▁geliyor": 941,
      "▁hastan": 942,
      "▁ner": 943,
      "▁lu": 944,
      "▁av": 945,
      "▁kadar": 946,
      "▁%9": 947,
      "##ısıyla": 948,
      "▁yere": 949,
      "##lam": 950,
      "▁%2": 951,
      "▁tarih": 952,
      "▁%10": 953,
      "7": 954,
      "▁dolas": 955,
      "▁borsa": 956,
      "##inde": 957,
      "▁dedik": 958,
      "▁istedi": 959,
      "#": 960,
      "▁sessiz": 961,
      "##k": 962,
      "▁ek": 963,
      "▁1\\/": 964,
      "##evizyon": 965,
      "##6": 966,
      "##ruk": 967,
      "▁evin": 968,
      "▁cıyak": 969,
      "[MASK]": 970,
      "▁gorur": 971,
      "##isim": 972,
      "##'na": 973,
      "▁finans": 974,
      "##lanır": 975,
      "▁izin": 976,
      "▁cevr": 977,
      "##elere": 978,
      "▁meya": 979,
      "▁seyden": 980,
      "▁onunde": 981,
      "##lıkla": 982,
      "##uyordu": 983,
      "▁duzen": 984,
      "▁kes": 985,
      "##+": 986,
      "▁daha": 987,
      "##iler": 988,
      "▁hareket": 989,
      "##'te": 990,
      "##manın": 991,
      "▁onların": 992,
      "##arında": 993,
      "##muyor": 994,
      "▁vegas": 995,
      "▁babam": 996,
      "##'": 997,
      "##adar": 998,
      "##siy": 999,
      "▁danıs": 1000,
      "##z": 1001,
      "##encer": 1002,
      "##eri": 1003,
      "##gmen": 1004,
      "##lik": 1005,
      "▁evvel": 1006,
      "▁tip": 1007,
      "▁198": 1008,
      "##ag": 1009,
      "▁ornek": 1010,
      "##sim": 1011,
      "▁kardes": 1012,
      "▁sa": 1013,
      "##li": 1014,
      "▁dagıt": 1015,
      "▁1989-8": 1016,
      "▁ken": 1017,
      "▁a": 1018,
      "▁gunu": 1019,
      "##5": 1020,
      "▁uzerinden": 1021,
      "▁kelim": 1022,
      "##olu": 1023,
      "▁rakam": 1024,
      "##all": 1025,
      "▁&": 1026,
      "▁goz": 1027,
      "##larında": 1028,
      "▁bahc": 1029,
      "▁must": 1030,
      "▁ele": 1031,
      "▁bazi": 1032,
      "▁imz": 1033,
      "▁muzik": 1034,
      "▁ters": 1035,
      "▁gerekiyor": 1036,
      "▁sabah": 1037,
      "▁edecek": 1038,
      "▁us": 1039,
      "##25": 1040,
      "▁24": 1041,
      "▁birini": 1042,
      "▁sas": 1043,
      "##len": 1044,
      "##erler": 1045,
      "%": 1046,
      "▁k": 1047,
      "##inc": 1048,
      "##\\/8": 1049,
      "▁fıldır": 1050,
      "▁kat": 1051,
      "▁%80": 1052,
      "##dur": 1053,
      "##asıyor": 1054,
      "##ilerin": 1055,
      "##elerinin": 1056,
      "###": 1057,
      "##ij": 1058,
      "##ven": 1059,
      "▁karıstır": 1060,
      "▁operasyon": 1061,
      "▁buna": 1062,
      "▁taraf": 1063,
      "▁tec": 1064,
      "▁cık": 1065,
      "n": 1066,
      "▁fena": 1067,
      "▁dav": 1068,
      "▁gom": 1069,
      "##ide": 1070,
      "##aca": 1071,
      "##ger": 1072,
      "▁soylem": 1073,
      "▁boylece": 1074,
      "##ecegim": 1075,
      "▁verim": 1076,
      "▁bed": 1077,
      "##lerde": 1078,
      "##madan": 1079,
      "##elerin": 1080,
      "▁bus": 1081,
      "##mıs": 1082,
      "##ından": 1083,
      "▁boston": 1084,
      "▁karsiligini": 1085,
      "##up": 1086,
      "##miyor": 1087,
      "▁diger": 1088,
      "##aydi": 1089,
      "##lek": 1090,
      "▁son": 1091,
      "##ileri": 1092,
      "##apol": 1093,
      "##ten": 1094,
      "▁def": 1095,
      "##yle": 1096,
      "▁verilen": 1097,
      "##erv": 1098,
      "##enek": 1099,
      "##um": 1100,
      "▁francisco'ya": 1101,
      "##gul": 1102,
      "▁misafir": 1103,
      "▁hur": 1104,
      "##tu": 1105,
      "▁uzun": 1106,
      "▁ekim": 1107,
      "##:": 1108,
      "##:30": 1109,
      "##lerin": 1110,
      "▁ac": 1111,
      "▁kitap": 1112,
      "▁baltimore'den": 1113,
      "▁elestir": 1114,
      "##sam": 1115,
      "##iyi": 1116,
      "##ert": 1117,
      "▁tanım": 1118,
      "##y": 1119,
      "▁kampanyalar": 1120,
      "▁ucusu": 1121,
      "▁for": 1122,
      "▁vermis": 1123,
      "##'un": 1124,
      "▁olan": 1125,
      "▁kurt": 1126,
      "▁deng": 1127,
      "▁im": 1128,
      "##ydı": 1129,
      "##ılı": 1130,
      "▁3/": 1131,
      "▁yapılacak": 1132,
      "▁dom": 1133,
      "▁%51": 1134,
      "▁kis": 1135,
      "▁?": 1136,
      "▁kultur": 1137,
      "▁ener": 1138,
      "▁direk": 1139,
      "▁katıl": 1140,
      "▁karsısında": 1141,
      "##tr": 1142,
      "▁tehlik": 1143,
      "▁asırı": 1144,
      "▁wall": 1145,
      "▁.)": 1146,
      "##ucu": 1147,
      "▁utan": 1148,
      "▁1.3": 1149,
      "▁sark": 1150,
      "##alara": 1151,
      "##ye": 1152,
      "▁pa": 1153,
      "##un": 1154,
      "##eb": 1155,
      "▁kıy": 1156,
      "##ansız": 1157,
      "▁bogaz": 1158,
      "##ari": 1159,
      "▁nak": 1160,
      "##ec": 1161,
      "▁dalg": 1162,
      "▁18": 1163,
      "##taki": 1164,
      "▁once": 1165,
      "▁soyledi": 1166,
      "##uv": 1167,
      "▁tahvil": 1168,
      "##teki": 1169,
      "##fer": 1170,
      "▁cif": 1171,
      "##lt": 1172,
      "##et": 1173,
      "▁%30": 1174,
      "▁gosterin": 1175,
      "▁faiz": 1176,
      "##madı": 1177,
      "▁kazandı": 1178,
      "▁evi": 1179,
      "▁ten": 1180,
      "▁superdi": 1181,
      "▁nas": 1182,
      "▁tarif": 1183,
      "▁cocugun": 1184,
      "▁bilgi": 1185,
      "▁kapan": 1186,
      "##92": 1187,
      "##esem": 1188,
      "▁yasa": 1189,
      "▁ise": 1190,
      "▁surec": 1191,
      "▁dair": 1192,
      "▁kom": 1193,
      "▁burada": 1194,
      "▁parti": 1195,
      "▁tutar": 1196,
      "▁sup": 1197,
      "##arlan": 1198,
      "▁oakland'a": 1199,
      "##lenen": 1200,
      "▁bana": 1201,
      "▁is": 1202,
      "▁17": 1203,
      "##ayi": 1204,
      "▁196": 1205,
      "▁anad": 1206,
      "▁31": 1207,
      "▁kalkıp": 1208,
      "##ınız": 1209,
      "▁kil": 1210,
      "##lılık": 1211,
      "▁erken": 1212,
      "▁olsun": 1213,
      "▁bilim": 1214,
      "##vil": 1215,
      "##erken": 1216,
      "▁anlam": 1217,
      "▁12": 1218,
      "▁ren": 1219,
      "▁kırk": 1220,
      "▁hanimdi": 1221,
      "▁alıs": 1222,
      "▁kendin": 1223,
      "▁nik": 1224,
      "▁deprem": 1225,
      "▁yık": 1226,
      "▁60": 1227,
      "▁ha": 1228,
      "▁yi": 1229,
      "##89-": 1230,
      "▁turlu": 1231,
      "##ındaki": 1232,
      "▁yatırımcılar": 1233,
      "▁yalnız": 1234,
      "▁test": 1235,
      "▁satıs": 1236,
      "##ancı": 1237,
      "##uyor": 1238,
      "##deki": 1239,
      "▁top": 1240,
      "▁cıkmıs": 1241,
      "▁siir": 1242,
      "▁kısı": 1243,
      "##lerle": 1244,
      "$": 1245,
      "▁uz": 1246,
      "▁197": 1247,
      "▁yama": 1248,
      "▁hır": 1249,
      "##esini": 1250,
      "▁edil": 1251,
      "▁dogru": 1252,
      "▁bin": 1253,
      "##ılan": 1254,
      "▁zaman": 1255,
      "▁city": 1256,
      "▁dov": 1257,
      "▁cel": 1258,
      "##ılmaz": 1259,
      "▁getir": 1260,
      "▁doldur": 1261,
      "▁maliyet": 1262,
      "▁cı": 1263,
      "##ima": 1264,
      "▁kisi": 1265,
      "##32": 1266,
      "▁dogr": 1267,
      "▁cen": 1268,
      "▁sor": 1269,
      "▁37": 1270,
      "##ep": 1271,
      "##asyon": 1272,
      "▁arac": 1273,
      "##agını": 1274,
      "▁alabilir": 1275,
      "▁endeks": 1276,
      "▁nelerdir": 1277,
      "▁har": 1278,
      "##egi": 1279,
      "▁yanlıs": 1280,
      "▁tır": 1281,
      "▁derin": 1282,
      "▁git": 1283,
      "▁rezervasyonu": 1284,
      "▁elb": 1285,
      "▁cift": 1286,
      "##gimiz": 1287,
      "##lerinin": 1288,
      "▁ede": 1289,
      "▁tım": 1290,
      "▁kayn": 1291,
      "▁basv": 1292,
      "▁ili": 1293,
      "v": 1294,
      "##unda": 1295,
      "▁savun": 1296,
      "▁insanın": 1297,
      "##c": 1298,
      "##ınc": 1299,
      "▁futbol": 1300,
      "▁deney": 1301,
      "▁gercekten": 1302,
      "##tılı": 1303,
      "0": 1304,
      "▁kesin": 1305,
      "▁ilk": 1306,
      "▁baz": 1307,
      "▁ip": 1308,
      "▁21": 1309,
      "▁dar": 1310,
      "▁kayıt": 1311,
      "▁olanak": 1312,
      "##is": 1313,
      "▁uc": 1314,
      "##irler": 1315,
      "▁sar": 1316,
      "[PAD]": 1317,
      "▁kadın": 1318,
      "▁corp": 1319,
      "▁%4.8": 1320,
      "▁oteli": 1321,
      "##cı": 1322,
      "▁5-1": 1323,
      "##t": 1324,
      "▁kalkan": 1325,
      "▁arab": 1326,
      "▁ticari": 1327,
      "▁bundan": 1328,
      "▁ter": 1329,
      "▁karak": 1330,
      "▁problem": 1331,
      "▁h": 1332,
      "9": 1333,
      "▁iyi": 1334,
      "##izi": 1335,
      "▁gerek": 1336,
      "▁bizimle": 1337,
      "##liyor": 1338,
      "▁%4": 1339,
      "▁almıs": 1340,
      "▁sig": 1341,
      "▁performan": 1342,
      "##nun": 1343,
      "▁eder": 1344,
      "▁satım": 1345,
      "▁ici": 1346,
      "##suz": 1347,
      "▁kendiler": 1348,
      "▁7": 1349,
      "##uyle": 1350,
      "▁parca": 1351,
      "▁75": 1352,
      "▁tay": 1353,
      "▁200": 1354,
      "▁sert": 1355,
      "##dak": 1356,
      "▁nedeniyle": 1357,
      "##lastır": 1358,
      "▁derl": 1359,
      "▁tek": 1360,
      "##lamıs": 1361,
      "▁sur": 1362,
      "▁ulus": 1363,
      "##forman": 1364,
      "▁kans": 1365,
      "##aat": 1366,
      "▁dayan": 1367,
      "##let": 1368,
      "▁basını": 1369,
      "▁hadi": 1370,
      "▁saglık": 1371,
      "▁mayıs": 1372,
      "▁dusman": 1373,
      "8": 1374,
      "▁%7.8": 1375,
      "▁ulasım": 1376,
      "▁francisco": 1377,
      "##uyu": 1378,
      "▁kusur": 1379,
      "▁sıkı": 1380,
      "▁z": 1381,
      "▁kop": 1382,
      "▁ingil": 1383,
      "##tı": 1384,
      "##urdu": 1385,
      "▁alak": 1386,
      "##tuk": 1387,
      "##yak": 1388,
      "▁bulunuyor": 1389,
      "▁a.": 1390,
      "##aba": 1391,
      "▁yapılan": 1392,
      "##ugun": 1393,
      "▁olm": 1394,
      "▁herkes": 1395,
      "▁cik": 1396,
      "▁meyal": 1397,
      "▁kanı": 1398,
      "▁anlas": 1399,
      "▁galib": 1400,
      "##cisi": 1401,
      "▁edi": 1402,
      "▁hizmet": 1403,
      "▁kov": 1404,
      "##ecegi": 1405,
      "##uston": 1406,
      "##abet": 1407,
      "▁199": 1408,
      "##ların": 1409,
      "▁guleryuzluydu": 1410,
      "▁t": 1411,
      "##ilerini": 1412,
      "▁ortam": 1413,
      "##od": 1414,
      "##ev": 1415,
      "##kar": 1416,
      "##iri": 1417,
      "▁onem": 1418,
      "▁ile": 1419,
      "▁philadelphia'dan": 1420,
      "▁yagmur": 1421,
      "▁fort": 1422,
      "▁\"": 1423,
      "2": 1424,
      "▁dogal": 1425,
      "”": 1426,
      "▁gal": 1427,
      "##aları": 1428,
      "▁grub": 1429,
      "▁bunları": 1430,
      "▁1.2": 1431,
      "▁program": 1432,
      "▁surekli": 1433,
      "▁taz": 1434,
      "▁kıv": 1435,
      "##leb": 1436,
      "##dugu": 1437,
      "▁gorev": 1438,
      "▁cer": 1439,
      "▁eki": 1440,
      "##rim": 1441,
      "▁tasar": 1442,
      "▁yapma": 1443,
      "##isco": 1444,
      "▁eks": 1445,
      "##esel": 1446,
      "▁yukseldi": 1447,
      "▁ets": 1448,
      "##ı": 1449,
      "##yon": 1450,
      "##tas": 1451,
      "▁misiniz": 1452,
      "##malar": 1453,
      "▁11": 1454,
      "##kan": 1455,
      "##ada": 1456,
      "##dıgı": 1457,
      "▁yapmak": 1458,
      "▁kahve": 1459,
      "##mis": 1460,
      "▁adım": 1461,
      "▁lı": 1462,
      "▁dok": 1463,
      "##ond": 1464,
      "▁kahval": 1465,
      "▁bilmiyorum": 1466,
      "▁bank": 1467,
      "▁coc": 1468,
      "▁proj": 1469,
      "##ının": 1470,
      "▁cep": 1471,
      "▁cinc": 1472,
      "▁inc": 1473,
      "▁civ": 1474,
      "▁gem": 1475,
      "▁%8.2": 1476,
      "##klum": 1477,
      "▁13": 1478,
      "▁fıs": 1479,
      "▁newark": 1480,
      "▁hisse": 1481,
      "##udu": 1482,
      "▁bence": 1483,
      "▁kup": 1484,
      "▁begendim": 1485,
      "##i": 1486,
      "▁tic": 1487,
      "##ire": 1488,
      "▁arz": 1489,
      "▁bizim": 1490,
      "▁hijyen": 1491,
      "▁amerik": 1492,
      "▁rahat": 1493,
      "##ult": 1494,
      "▁mavi": 1495,
      "##ver": 1496,
      "##maz": 1497,
      "▁geri": 1498,
      "▁guleryuzlu": 1499,
      "##isel": 1500,
      "##x": 1501,
      "▁yat": 1502,
      "##tan": 1503,
      "▁as": 1504,
      "##lardı": 1505,
      "▁%": 1506,
      "▁zamanda": 1507,
      "▁ka": 1508,
      "▁il": 1509,
      "▁end": 1510,
      "&": 1511,
      "▁yiy": 1512,
      "##cok": 1513,
      "##mek": 1514,
      "▁onun": 1515,
      "##phia": 1516,
      "▁haft": 1517,
      "▁met": 1518,
      "▁sus": 1519,
      "▁allah": 1520,
      "##ren": 1521,
      "▁york": 1522,
      "▁ucak": 1523,
      "▁pah": 1524,
      "##d": 1525,
      "##ısında": 1526,
      "##acak": 1527,
      "##arken": 1528,
      "▁mol": 1529,
      "▁kurulus": 1530,
      "▁borsası": 1531,
      "▁milwa": 1532,
      "▁sez": 1533,
      "▁em": 1534,
      "▁ufak": 1535,
      "##imizi": 1536,
      "▁can": 1537,
      "##mayacak": 1538,
      "▁ustu": 1539,
      "▁ic": 1540,
      "▁oteldi": 1541,
      "▁seker": 1542,
      "##esinin": 1543,
      "##ukee": 1544,
      "##imli": 1545,
      "▁arasındaki": 1546,
      "▁ucret": 1547,
      "▁tat": 1548,
      "▁mek": 1549,
      "##ark": 1550,
      "##ational": 1551,
      "##rl": 1552,
      "▁may": 1553,
      "▁bize": 1554,
      "▁kıymetler": 1555,
      "##tadır": 1556,
      "▁bununla": 1557,
      "##ay": 1558,
      "▁mustafa": 1559,
      "▁kost": 1560,
      "▁.\"": 1561,
      "▁inan": 1562,
      "▁aynı": 1563,
      "##lendir": 1564,
      "##oloj": 1565,
      "▁dc": 1566,
      "▁seyler": 1567,
      "##endi": 1568,
      "▁duserek": 1569,
      "##iniz": 1570,
      "▁%22": 1571,
      "▁corp.": 1572,
      "▁fır": 1573,
      "▁bile": 1574,
      "▁kasım": 1575,
      "▁urun": 1576,
      "▁derece": 1577,
      "▁bah": 1578,
      "▁14": 1579,
      "##;": 1580,
      "▁%14": 1581,
      "##elerden": 1582,
      "▁seyahat": 1583,
      "▁gev": 1584,
      "▁kontr": 1585,
      "▁yolu": 1586,
      "##'s": 1587,
      "▁'d": 1588,
      "▁sana": 1589,
      "▁yerel": 1590,
      "▁kuv": 1591,
      "##2-23": 1592,
      "▁feder": 1593,
      "?": 1594,
      "##ust": 1595,
      "▁ben": 1596,
      "##oj": 1597,
      "▁indir": 1598,
      "▁nokta": 1599,
      "##usunu": 1600,
      "▁gidis": 1601,
      "▁onu": 1602,
      "▁belirt": 1603,
      "▁sadece": 1604,
      "##ım": 1605,
      "##misti": 1606,
      "▁19": 1607,
      "▁mıs": 1608,
      "▁kent": 1609,
      "▁dır": 1610,
      "▁atlanta": 1611,
      "▁soyluyor": 1612,
      "▁yesil": 1613,
      "▁icecek": 1614,
      "▁titr": 1615,
      "▁icine": 1616,
      "##samba": 1617,
      "▁birbirine": 1618,
      "▁istih": 1619,
      "▁dib": 1620,
      "##sin": 1621,
      "##emi": 1622,
      "▁gonder": 1623,
      "▁sahib": 1624,
      "##ha": 1625,
      "▁basit": 1626,
      "##-23": 1627,
      "▁kum": 1628,
      "▁phoeni": 1629,
      "▁yonetic": 1630,
      "▁deger": 1631,
      "▁sun": 1632,
      "▁fiyat": 1633,
      "…": 1634,
      "##ıl": 1635,
      "##tif": 1636,
      "▁aslında": 1637,
      "▁yardım": 1638,
      "##ograf": 1639,
      "▁1/2": 1640,
      "##ısıl": 1641,
      "▁sil": 1642,
      "▁kur": 1643,
      "##kın": 1644,
      "##rub": 1645,
      "▁benimle": 1646,
      "▁bl": 1647,
      "▁yans": 1648,
      "▁ilgilen": 1649,
      "##'nde": 1650,
      "▁ef": 1651,
      "##\\/": 1652,
      "▁dedim": 1653,
      "▁ucusların": 1654,
      "▁kurulu": 1655,
      "##ph": 1656,
      "##lemek": 1657,
      "▁ila": 1658,
      "##mesine": 1659,
      "▁parc": 1660,
      "▁soyley": 1661,
      "▁kendisi": 1662,
      "▁ydı": 1663,
      "▁soylen": 1664,
      "▁1987": 1665,
      "##re": 1666,
      "##manı": 1667,
      "▁gerektigini": 1668,
      "▁kok": 1669,
      "▁aks": 1670,
      "▁fok": 1671,
      "##r": 1672,
      "▁bulundu": 1673,
      "▁bası": 1674,
      "##co": 1675,
      "##isk": 1676,
      "▁rus": 1677,
      "▁veren": 1678,
      "▁peki": 1679,
      "▁kapsam": 1680,
      "▁koltuk": 1681,
      "▁ilan": 1682,
      "##de": 1683,
      "▁sahibi": 1684,
      "##ina": 1685,
      "##ıp": 1686,
      "▁halde": 1687,
      "##/": 1688,
      "##lıga": 1689,
      "▁oakland": 1690,
      "##ya'nın": 1691,
      "##cu": 1692,
      "▁ucuslarını": 1693,
      "▁yanl": 1694,
      "##aması": 1695,
      "##61": 1696,
      "▁alma": 1697,
      "▁sermaye": 1698,
      "▁21:00-22:30": 1699,
      "##ene": 1700,
      "▁yuksek": 1701,
      "▁gog": 1702,
      "##pr": 1703,
      "▁milyon": 1704,
      "▁cesit": 1705,
      "▁ilisk": 1706,
      "▁sırt": 1707,
      "▁uzerine": 1708,
      "▁pat": 1709,
      "##dim": 1710,
      "##“": 1711,
      "▁cekti": 1712,
      "##ustu": 1713,
      "▁nash": 1714,
      "▁tık": 1715,
      "▁'de": 1716,
      "▁duygu": 1717,
      "▁bırak": 1718,
      "▁sekil": 1719,
      "##embe": 1720,
      "▁gur": 1721,
      "##larda": 1722,
      "▁deg": 1723,
      "▁calısma": 1724,
      "##diler": 1725,
      "▁sıkır": 1726,
      "▁silah": 1727,
      "▁ak": 1728,
      "▁imkan": 1729,
      "##ne": 1730,
      "▁pet": 1731,
      "▁aradi": 1732,
      "##kır": 1733,
      "▁yuz": 1734,
      "##.3": 1735,
      "▁erkek": 1736,
      "▁hayat": 1737,
      "▁oakland'dan": 1738,
      "▁y": 1739,
      "▁roman": 1740,
      "▁elli": 1741,
      "▁yaptı": 1742,
      "▁rapor": 1743,
      "▁otel": 1744,
      "##gah": 1745,
      "▁yapar": 1746,
      "▁sov": 1747,
      "▁bon": 1748,
      "▁ug": 1749,
      "▁musta": 1750,
      "▁olması": 1751,
      "▁meydan": 1752,
      "▁gum": 1753,
      "▁hanım": 1754,
      "▁yagm": 1755,
      "##'nun": 1756,
      "▁tuz": 1757,
      "▁acıklan": 1758,
      "▁ol": 1759,
      "▁devlet": 1760,
      "▁dek": 1761,
      "##ladık": 1762,
      "▁yildi": 1763,
      "##ve": 1764,
      "##wa": 1765,
      "##st": 1766,
      "▁tav": 1767,
      "##amak": 1768,
      "▁ders": 1769,
      "▁%6": 1770,
      "##les": 1771,
      "▁onceki": 1772,
      "▁hatta": 1773,
      "▁yanında": 1774,
      "##men": 1775,
      "##asyonu": 1776,
      "▁ay": 1777,
      "##dar": 1778,
      "l": 1779,
      "▁mez": 1780,
      "▁yapacak": 1781,
      "▁degildir": 1782,
      "▁evet": 1783,
      "▁hepimiz": 1784,
      "▁tı": 1785,
      "##kun": 1786,
      "##ik": 1787,
      "\\": 1788,
      "##ınca": 1789,
      "▁ayak": 1790,
      "▁azdi": 1791,
      "▁ask": 1792,
      "▁kav": 1793,
      "▁dısı": 1794,
      "▁toplam": 1795,
      "##alım": 1796,
      "▁mal": 1797,
      "##am": 1798,
      "▁adet": 1799,
      "##larımız": 1800,
      "▁dan": 1801,
      "▁hasta": 1802,
      "##oz": 1803,
      "▁dıs": 1804,
      "##ug": 1805,
      "▁yuzlu": 1806,
      "▁delta": 1807,
      "▁koc": 1808,
      "▁gelis": 1809,
      "##lıg": 1810,
      "▁hay": 1811,
      "▁zay": 1812,
      "##lim": 1813,
      "##alıgı": 1814,
      "▁bag": 1815,
      "##duk": 1816,
      "▁miami'ye": 1817,
      "##l": 1818,
      "▁bab": 1819,
      "▁tor": 1820,
      "▁amac": 1821,
      "##masının": 1822,
      "▁davran": 1823,
      "▁dag": 1824,
      "▁californ": 1825,
      "##eviz": 1826,
      "##9": 1827,
      "▁yemekler": 1828,
      "##elen": 1829,
      "▁fatur": 1830,
      "▁kendisine": 1831,
      "▁analistler": 1832,
      "▁sab": 1833,
      "▁dolardan": 1834,
      "▁at": 1835,
      "▁kul": 1836,
      "▁4": 1837,
      "##sil": 1838,
      "##-1": 1839,
      "▁doktor": 1840,
      "##ını": 1841,
      "▁pr": 1842,
      "▁kend": 1843,
      "##ayol": 1844,
      "##ırt": 1845,
      "##ize": 1846,
      "##medim": 1847,
      "▁yolc": 1848,
      "▁havuz": 1849,
      "##ıyorlar": 1850,
      "▁kayb": 1851,
      "-": 1852,
      "##eder": 1853,
      "▁kendilerine": 1854,
      "▁lezzet": 1855,
      "##ern": 1856,
      "▁egil": 1857,
      "▁olcu": 1858,
      "▁str": 1859,
      "▁cum": 1860,
      "##negin": 1861,
      "##ist": 1862,
      "##inden": 1863,
      "##dum": 1864,
      "▁seyi": 1865,
      "##lerim": 1866,
      "▁sizin": 1867,
      "▁yalap": 1868,
      "▁tatil": 1869,
      "##ard": 1870,
      "##ecek": 1871,
      "+": 1872,
      "▁ileri": 1873,
      "▁dısında": 1874,
      "▁(": 1875,
      "▁detroit": 1876,
      "▁kalın": 1877,
      "▁kapas": 1878,
      "▁ediyorum": 1879,
      "▁amer": 1880,
      "##q": 1881,
      "▁kaybet": 1882,
      "##ed": 1883,
      "▁1.8": 1884,
      "##agına": 1885,
      "##ulmus": 1886,
      "▁kız": 1887,
      "##elim": 1888,
      "##adan": 1889,
      "▁okul": 1890,
      "▁arastır": 1891,
      "##landı": 1892,
      "▁turkiye": 1893,
      "##ıt": 1894,
      "##digini": 1895,
      "##lugun": 1896,
      "▁gelen": 1897,
      "##lah": 1898,
      "▁actı": 1899,
      "▁stan": 1900,
      "▁oper": 1901,
      "▁altı": 1902,
      "##u": 1903,
      "##ıy": 1904,
      "▁ihtiyacım": 1905,
      "▁mıy": 1906,
      "##ba": 1907,
      "##ulan": 1908,
      "▁icin": 1909,
      "##alanı": 1910,
      "▁gu": 1911,
      "##daki": 1912,
      "▁varlık": 1913,
      "▁v": 1914,
      "▁desik": 1915,
      "▁alıp": 1916,
      "▁dustu": 1917,
      "▁birinci": 1918,
      "*": 1919,
      "▁mumkun": 1920,
      "▁dokuz": 1921,
      "##ogram": 1922,
      "▁incel": 1923,
      "▁terc": 1924,
      "▁hap": 1925,
      "##ler": 1926,
      "▁po": 1927,
      "▁baglan": 1928,
      "##ul": 1929,
      "##dan": 1930,
      "##'ı": 1931,
      "▁tesek": 1932,
      "##lamaya": 1933,
      "▁hakkında": 1934,
      "▁arada": 1935,
      "▁%5": 1936,
      "##acagım": 1937,
      "##ru": 1938,
      "##isinde": 1939,
      "▁vermek": 1940,
      "▁olsa": 1941,
      "##lı": 1942,
      "##ince": 1943,
      "##asını": 1944,
      "##innati": 1945,
      "##ation": 1946,
      "##dıg": 1947,
      "–": 1948,
      "▁basına": 1949,
      "▁yaptir": 1950,
      "##orth": 1951,
      "▁dolu": 1952,
      "▁yetkil": 1953,
      "▁201": 1954,
      "##00": 1955,
      "##unu": 1956,
      "##alık": 1957,
      "##lay": 1958,
      "##leri": 1959,
      "▁%13": 1960,
      "##cek": 1961,
      "▁tep": 1962,
      "▁chic": 1963,
      "▁uyan": 1964,
      "▁denver'den": 1965,
      "▁lim": 1966,
      "##imizin": 1967,
      "▁sahip": 1968,
      "##°": 1969,
      "▁num": 1970,
      "##mistir": 1971,
      "##ing": 1972,
      "▁cab": 1973,
      "##amb": 1974,
      "##ıyı": 1975,
      "▁kopek": 1976,
      "▁%7.7": 1977,
      "##'u": 1978,
      "▁yani": 1979,
      "##ildi": 1980,
      "▁politik": 1981,
      "##me": 1982,
      "##esinden": 1983,
      "▁yemegi": 1984,
      "▁ardından": 1985,
      "▁boz": 1986,
      "▁tamamen": 1987,
      "##lanmıs": 1988,
      "▁peters": 1989,
      "##il": 1990,
      "##nek": 1991,
      "##ardı": 1992,
      "##ville": 1993,
      "##>": 1994,
      "##lugu": 1995,
      "▁arkad": 1996,
      "##bas": 1997,
      "▁kendisin": 1998,
      "▁herkese": 1999,
      "##@": 2000,
      "##eceg": 2001,
      "▁%3": 2002,
      "##ile": 2003,
      "▁mutlu": 2004,
      "##mayı": 2005,
      "▁anadolu": 2006,
      "▁karıs": 2007,
      "▁ilgilendiler": 2008,
      "▁yorum": 2009,
      "▁doları": 2010,
      "▁anne": 2011,
      "▁islem": 2012,
      "▁kuc": 2013,
      "##est": 2014,
      "▁kurum": 2015,
      "##tal": 2016,
      "▁ediyordu": 2017,
      "▁havayolları": 2018,
      "##ast": 2019,
      "##eyin": 2020,
      "▁mıydı": 2021,
      "##ımız": 2022,
      "##tik": 2023,
      "##aket": 2024,
      "▁mısıl": 2025,
      "##ciler": 2026,
      "▁ihr": 2027,
      "▁tatlı": 2028,
      "##ıyla": 2029,
      "##alardan": 2030,
      "▁fiyata": 2031,
      "##elerine": 2032,
      "▁sigort": 2033,
      "▁dost": 2034,
      "(": 2035,
      "##gan": 2036,
      "##mem": 2037,
      "▁yeterli": 2038,
      "##lerdi": 2039,
      "▁geril": 2040,
      "▁kendime": 2041,
      "##okr": 2042,
      "##ırım": 2043,
      "▁cok": 2044,
      "▁olmak": 2045,
      "##eye": 2046,
      "▁gide": 2047,
      "▁dusuktu": 2048,
      "##rem": 2049,
      "##lerden": 2050,
      "▁kaldik": 2051,
      "▁acıkladı": 2052,
      "▁fir": 2053,
      "▁donem": 2054,
      "▁fırıl": 2055,
      "▁lezzeti": 2056,
      "##eyle": 2057,
      "##eyen": 2058,
      "▁hak": 2059,
      "▁bagım": 2060,
      "▁kolay": 2061,
      "▁%7.5": 2062,
      "▁yuk": 2063,
      "##ecegini": 2064,
      "##'ın": 2065,
      "##hal": 2066,
      "▁gelistir": 2067,
      "##enler": 2068,
      "▁sik": 2069,
      "▁ettim": 2070,
      "▁kanun": 2071,
      "▁cir": 2072,
      "##lastı": 2073,
      "▁36": 2074,
      "▁per": 2075,
      "##ıc": 2076,
      "▁kard": 2077,
      "▁kagıt": 2078,
      "▁ucuncu": 2079,
      "##lap": 2080,
      "q": 2081,
      "▁etmek": 2082,
      "▁emek": 2083,
      "▁yola": 2084,
      "▁dow": 2085,
      "▁gun": 2086,
      "##'in": 2087,
      "▁dc'ye": 2088,
      "▁airlines": 2089,
      "▁ara": 2090,
      "▁gıldır": 2091,
      "▁univers": 2092,
      "▁mehmet": 2093,
      "##oy": 2094,
      "▁yumus": 2095,
      "##cusu": 2096,
      "##dım": 2097,
      "##ladım": 2098,
      "▁pittsburgh": 2099,
      "▁han": 2100,
      "##asından": 2101,
      "▁san": 2102,
      "##vel": 2103,
      "▁fiyatı": 2104,
      "##lerini": 2105,
      "##acık": 2106,
      "▁sut": 2107,
      "▁ort": 2108,
      "##izm": 2109,
      "▁u": 2110,
      "▁kong": 2111,
      "▁dev": 2112,
      "▁giden": 2113,
      "▁nedir": 2114,
      "▁sac": 2115,
      "▁altında": 2116,
      "▁oluyor": 2117,
      "▁milyondan": 2118,
      "▁gecti": 2119,
      "▁gelmis": 2120,
      "▁ortalama": 2121,
      "##ıyorum": 2122,
      "▁avuk": 2123,
      "▁cil": 2124,
      "##ez": 2125,
      "##uk": 2126,
      "▁hol": 2127,
      "##om": 2128,
      "##aturk": 2129,
      "▁0.": 2130,
      "▁dikkat": 2131,
      "▁iste": 2132,
      "▁kıl": 2133,
      "[UNK]": 2134,
      "##rak": 2135,
      "##roit": 2136,
      "@": 2137,
      "▁olacak": 2138,
      "▁bulmak": 2139,
      "▁ister": 2140,
      "▁gene": 2141,
      "▁ihtiy": 2142,
      "▁avuc": 2143,
      "##erek": 2144,
      "▁teknoloj": 2145,
      "▁anlasma": 2146,
      "##ore": 2147,
      "▁sure": 2148,
      "##ir": 2149,
      "##madim": 2150,
      "##dem": 2151,
      "##muz": 2152,
      "▁bekleniyor": 2153,
      "▁cıkar": 2154,
      "▁tamam": 2155,
      "▁pırıl": 2156,
      "▁gon": 2157,
      "▁s": 2158,
      "▁isaret": 2159,
      "▁karsı": 2160,
      "▁vucu": 2161,
      "▁duyar": 2162,
      "▁yasama": 2163,
      "▁kab": 2164,
      "▁cez": 2165,
      "##lat": 2166,
      "▁45": 2167,
      "▁sat": 2168,
      "▁philadelphia'ya": 2169,
      "▁ediyoruz": 2170,
      "▁ettigi": 2171,
      "##emmel": 2172,
      "##ligin": 2173,
      "▁ongor": 2174,
      "▁40": 2175,
      "##amadı": 2176,
      "##istim": 2177,
      "▁edildi": 2178,
      "##|": 2179,
      "##0.": 2180,
      "▁ıs": 2181,
      "##ok": 2182,
      "##aların": 2183,
      "##ekli": 2184,
      "▁seyr": 2185,
      "▁yer": 2186,
      "▁yarat": 2187,
      "▁fısır": 2188,
      "▁cleveland": 2189,
      "▁koy": 2190,
      "▁d": 2191,
      "▁cincinnati": 2192,
      "▁yapan": 2193,
      "##as": 2194,
      "▁ulasımı": 2195,
      "##ara": 2196,
      "▁birlik": 2197,
      "##alarda": 2198,
      "▁fas": 2199,
      "▁diy": 2200,
      "##'nda": 2201,
      "▁hij": 2202,
      "▁para": 2203,
      "▁tut": 2204,
      "▁durumu": 2205,
      "▁ortal": 2206,
      "▁ciddi": 2207,
      "▁henuz": 2208,
      "▁kalab": 2209,
      "▁bazıları": 2210,
      "▁gaz": 2211,
      "/": 2212,
      "▁mey": 2213,
      "▁seb": 2214,
      "▁ideal": 2215,
      "▁otelden": 2216,
      "▁hafta": 2217,
      "▁duk": 2218,
      "▁turk": 2219,
      "▁sıngır": 2220,
      "▁ep": 2221,
      "▁kimse": 2222,
      "▁uyum": 2223,
      "##an": 2224,
      "▁hicbir": 2225,
      "▁ham": 2226,
      "▁gid": 2227,
      "▁icinde": 2228,
      "▁calisanlar": 2229,
      "▁ger": 2230,
      "##masız": 2231,
      "##dular": 2232,
      "▁almak": 2233,
      "▁airlin": 2234,
      "##—": 2235,
      "▁uzer": 2236,
      "##tin": 2237,
      "##bet": 2238,
      "▁sene": 2239,
      "##dun": 2240,
      "▁kendilerini": 2241,
      "▁tir": 2242,
      "##uncu": 2243,
      "##dav": 2244,
      "▁%3.1": 2245,
      "▁yaklasık": 2246,
      "▁ser": 2247,
      "##mesini": 2248,
      "▁pıtır": 2249,
      "##lere": 2250,
      "▁homur": 2251,
      "▁ayni": 2252,
      "##enk": 2253,
      "##imde": 2254,
      "▁sefer": 2255,
      "▁ov": 2256,
      "##asında": 2257,
      "▁karsil": 2258,
      "▁bunlar": 2259,
      "▁asıl": 2260,
      "▁mi": 2261,
      "##istik": 2262,
      "▁dil": 2263,
      "▁gez": 2264,
      "▁sag": 2265,
      "▁odam": 2266,
      "▁ist": 2267,
      "▁ker": 2268,
      "▁batı": 2269,
      "##ong": 2270,
      "▁kalk": 2271,
      "##%": 2272,
      "▁kus": 2273,
      "▁sektor": 2274,
      "▁tel": 2275,
      "##lendi": 2276,
      "▁ul": 2277,
      "▁bit": 2278,
      "▁buy": 2279,
      "▁gorun": 2280,
      "▁giy": 2281,
      "▁risk": 2282,
      "▁resim": 2283,
      "▁pers": 2284,
      "▁sıcak": 2285,
      "##emez": 2286,
      "▁isler": 2287,
      "##asıyla": 2288,
      "▁kem": 2289,
      "▁": 2290,
      "▁gibi": 2291,
      "▁istem": 2292,
      "▁ucuyor": 2293,
      "##ılması": 2294,
      "▁%8": 2295,
      "▁uzerinde": 2296,
      "##uf": 2297,
      "##ent": 2298,
      "##tır": 2299,
      "▁amerikan": 2300,
      "##land": 2301,
      "▁be": 2302,
      "▁musait": 2303,
      "▁eski": 2304,
      "▁og": 2305,
      "▁olacagını": 2306,
      "▁park": 2307,
      "▁acisindan": 2308,
      "##b": 2309,
      "▁kel": 2310,
      "▁dolar": 2311,
      "▁tası": 2312,
      "▁dum": 2313,
      "##–": 2314,
      "▁kazan": 2315,
      "▁prob": 2316,
      "##cılar": 2317,
      "##eti": 2318,
      "▁birer": 2319,
      "##lem": 2320,
      "##gini": 2321,
      "##ce": 2322,
      "##digi": 2323,
      "▁cocuklu": 2324,
      "##ıkır": 2325,
      "▁baltimore": 2326,
      "▁th": 2327,
      "##ly": 2328,
      "▁farklı": 2329,
      "▁51": 2330,
      "##10": 2331,
      "▁insaat": 2332,
      "▁kayıp": 2333,
      "##for": 2334,
      "▁mil": 2335,
      "▁telefonla": 2336,
      "▁ok": 2337,
      "▁sef": 2338,
      "▁atlanta'dan": 2339,
      "##ılıyor": 2340,
      "##las": 2341,
      "##ash": 2342,
      "##'ten": 2343,
      "##ayıp": 2344,
      "▁agır": 2345,
      "▁tekn": 2346,
      "##ayıf": 2347,
      "▁dısarı": 2348,
      "▁tefek": 2349,
      "▁harıl": 2350,
      "##elik": 2351,
      "▁indianapolis": 2352,
      "##iski": 2353,
      "▁isi": 2354,
      "##kur": 2355,
      "##vet": 2356,
      "▁op": 2357,
      "▁eylul": 2358,
      "▁balık": 2359,
      "##anlık": 2360,
      "▁beydi": 2361,
      "▁lazım": 2362,
      "##lari": 2363,
      "▁uzerindeki": 2364,
      "▁calısan": 2365,
      "▁kimi": 2366,
      "▁rec": 2367,
      "▁personel": 2368,
      "▁veririm": 2369,
      "▁sol": 2370,
      "▁yoksa": 2371,
      "▁sm": 2372,
      "▁ekledi": 2373,
      "▁yiyecek": 2374,
      "▁1\\/2": 2375,
      "▁komp": 2376,
      "##'dan": 2377,
      "##oc": 2378,
      "▁degerlendir": 2379,
      "##aga": 2380,
      "▁sermay": 2381,
      "▁cek": 2382,
      "▁olmalı": 2383,
      "▁dava": 2384,
      "▁dogrudan": 2385,
      "##gını": 2386,
      "▁tez": 2387,
      "▁etme": 2388,
      "▁1/": 2389,
      "▁isten": 2390,
      "##kı": 2391,
      "▁fel": 2392,
      "▁et": 2393,
      "▁oldur": 2394,
      "▁aktar": 2395,
      "▁ince": 2396,
      "▁takım": 2397,
      "▁bay": 2398,
      "▁uzat": 2399,
      "▁gelir": 2400,
      "##lige": 2401,
      "▁yatırımcı": 2402,
      "▁sis": 2403,
      "##elerek": 2404,
      "##ob": 2405,
      "▁duvar": 2406,
      "▁sir": 2407,
      "▁konum": 2408,
      "▁yab": 2409,
      "▁nashville": 2410,
      "▁elektr": 2411,
      "▁co.": 2412,
      "##sat": 2413,
      "##rik": 2414,
      "▁karsın": 2415,
      "##onu": 2416,
      "▁fen": 2417,
      "▁sent": 2418,
      "##ımda": 2419,
      "##umus": 2420,
      "▁hic": 2421,
      "##kel": 2422,
      "##if": 2423,
      "▁8": 2424,
      "▁olmus": 2425,
      "▁tekrar": 2426,
      "o": 2427,
      "▁yor": 2428,
      "##lerine": 2429,
      "▁yem": 2430,
      ",": 2431,
      "##cak": 2432,
      "▁hin": 2433,
      "▁gorus": 2434,
      "##'yı": 2435,
      "##uluk": 2436,
      "##elerde": 2437,
      "##ates": 2438,
      "##.6": 2439,
      "▁guclu": 2440,
      "▁--": 2441,
      "▁siddet": 2442,
      "▁kıtır": 2443,
      "##aki": 2444,
      "##lul": 2445,
      "▁artır": 2446,
      "##ri": 2447,
      "▁kapandı": 2448,
      "▁%6.90": 2449,
      "▁makin": 2450,
      "##burg": 2451,
      "▁eve": 2452,
      "▁attı": 2453,
      "▁genel": 2454,
      "##urlu": 2455,
      "▁fingir": 2456,
      "▁cuma": 2457,
      "▁las": 2458,
      "##abilecek": 2459,
      "##lilik": 2460,
      "▁yatak": 2461,
      "▁1991-19": 2462,
      "▁olduguna": 2463,
      "▁bun": 2464,
      "▁milwaukee": 2465,
      "▁mul": 2466,
      "▁hac": 2467,
      "▁onceden": 2468,
      "##arak": 2469,
      "▁devr": 2470,
      "▁baskanı": 2471,
      "##unun": 2472,
      "▁haval": 2473,
      ">": 2474,
      "▁os": 2475,
      "##ud": 2476,
      "##dek": 2477,
      "##ısından": 2478,
      "##kin": 2479,
      "▁-": 2480,
      "##lar": 2481,
      "##g": 2482,
      "▁tas": 2483,
      "▁yazı": 2484,
      "##a'nın": 2485,
      "##uyorlar": 2486,
      "▁..\"": 2487,
      "▁den": 2488,
      "▁sonuc": 2489,
      "##kat": 2490,
      "▁telefon": 2491,
      "▁heyecan": 2492,
      "▁gordum": 2493,
      "▁fokur": 2494,
      "▁saglam": 2495,
      "▁alamadim": 2496,
      "▁umut": 2497,
      "▁gelip": 2498,
      "▁sak": 2499,
      "▁duzel": 2500,
      "##oma": 2501,
      "▁birdenbire": 2502,
      "##egen": 2503,
      "▁hisseleri": 2504,
      "##imiz": 2505,
      "##likle": 2506,
      "▁mc": 2507,
      "##ate": 2508,
      "▁ail": 2509,
      "##lerinde": 2510,
      "▁rad": 2511,
      "▁mer": 2512,
      "##ılık": 2513,
      "▁yuksekti": 2514,
      "▁zaten": 2515,
      "▁benden": 2516,
      "##ihaz": 2517,
      "▁yerles": 2518,
      "▁etm": 2519,
      "▁yur": 2520,
      "▁genis": 2521,
      "▁onumuzdeki": 2522,
      "▁cay": 2523,
      "##inci": 2524,
      "▁konustu": 2525,
      "##a": 2526,
      "▁tab": 2527,
      "##eyn": 2528,
      "##ayacak": 2529,
      "▁hukuk": 2530,
      "▁kad": 2531,
      "##sk": 2532,
      "▁”": 2533,
      "##ısık": 2534,
      "▁yasak": 2535,
      "▁varan": 2536,
      "##'y": 2537,
      "▁etraf": 2538,
      "▁vır": 2539,
      "▁sehr": 2540,
      "##ardan": 2541,
      "##se": 2542,
      "▁biri": 2543,
      "▁salon": 2544,
      "▁hazır": 2545,
      "▁ilac": 2546,
      "▁orta": 2547,
      "▁pan": 2548,
      "##meler": 2549,
      "##sik": 2550,
      "##egas": 2551,
      "##dıklarını": 2552,
      "##nız": 2553,
      "▁pazar": 2554,
      "##yuz": 2555,
      "▁hız": 2556,
      "▁der": 2557,
      "▁diz": 2558,
      "▁duyg": 2559,
      "▁united": 2560,
      "▁haber": 2561,
      "▁cid": 2562,
      "▁kar": 2563,
      "▁hisset": 2564,
      "▁angel": 2565,
      "▁mik": 2566,
      "##ustum": 2567,
      "##ol": 2568,
      "▁nef": 2569,
      "▁gor": 2570,
      "▁fi": 2571,
      "##lamak": 2572,
      "[SEP]": 2573,
      "▁kucuktu": 2574,
      "▁veya": 2575,
      "▁yardımcısı": 2576,
      "▁uluslar": 2577,
      "▁gitt": 2578,
      "##layıp": 2579,
      "▁engel": 2580,
      "▁kutur": 2581,
      "##ig": 2582,
      "▁banka": 2583,
      "▁neden": 2584,
      "▁devam": 2585,
      "▁com": 2586,
      "▁degilim": 2587,
      "▁ye": 2588,
      "##ost": 2589,
      "▁halk": 2590,
      "▁carsamba": 2591,
      "▁41": 2592,
      "▁anal": 2593,
      "▁edec": 2594,
      "[CLS]": 2595,
      "▁karar": 2596,
      "▁aktiv": 2597,
      "▁montreal": 2598,
      "▁super": 2599,
      "▁yogun": 2600,
      "##alarla": 2601,
      "▁bekliyor": 2602,
      "’": 2603,
      "▁kap": 2604,
      "▁wash": 2605,
      "▁tr": 2606,
      "▁suc": 2607,
      "##ısını": 2608,
      "▁mis": 2609,
      "▁etmem": 2610,
      "▁ama": 2611,
      "▁kadınlar": 2612,
      "▁hakk": 2613,
      "##in": 2614,
      "##alet": 2615,
      "##mal": 2616,
      "##o": 2617,
      "▁yukselerek": 2618,
      "▁soh": 2619,
      "▁sınır": 2620,
      "##ustr": 2621,
      "##ise": 2622,
      "##ır": 2623,
      "▁hukumet": 2624,
      "▁orada": 2625,
      "##ken": 2626,
      "▁mat": 2627,
      "c": 2628,
      "▁surdur": 2629,
      "▁misin": 2630,
      "▁girisim": 2631,
      "▁yildiz": 2632,
      "▁nasıl": 2633,
      "▁olanaklari": 2634,
      "##ot": 2635,
      "▁kaldı": 2636,
      "##ıldır": 2637,
      "▁kaliforn": 2638,
      "▁mu": 2639,
      "##lan": 2640,
      "▁sizi": 2641,
      "##ton": 2642,
      "▁gunluk": 2643,
      "▁yıldız": 2644,
      "▁en": 2645,
      "##tıs": 2646,
      "▁harik": 2647,
      "▁araba": 2648,
      "##arası": 2649,
      "▁vak": 2650,
      "▁fiyatlar": 2651,
      "##yet": 2652,
      "▁tabi": 2653,
      "##meli": 2654,
      "▁odalar": 2655,
      "##ham": 2656,
      "▁gozleri": 2657,
      "▁adeta": 2658,
      "▁%3.4": 2659,
      "##emiyor": 2660,
      "##usu": 2661,
      "▁mac": 2662,
      "▁intern": 2663,
      "▁ondan": 2664,
      "▁birbir": 2665,
      "▁bek": 2666,
      "▁mo": 2667,
      "##o'ya": 2668,
      "▁aras": 2669,
      "▁hal": 2670,
      "▁dol": 2671,
      "▁sosyal": 2672,
      "▁min": 2673,
      "▁cur": 2674,
      "##lara": 2675,
      "##larından": 2676,
      "##lıgına": 2677,
      "##ine": 2678,
      "▁dahil": 2679,
      "▁olabilir": 2680,
      "▁tuttu": 2681,
      "▁onc": 2682,
      "▁44": 2683,
      "▁mısın": 2684,
      "##sas": 2685,
      "▁uy": 2686,
      "▁servis": 2687,
      "▁tesisten": 2688,
      "▁teh": 2689,
      "▁otuz": 2690,
      "▁aksamı": 2691,
      "##lestir": 2692,
      "▁ki": 2693,
      "##ter": 2694,
      "▁es": 2695,
      "##ia": 2696,
      "##aten": 2697,
      "▁cumhuriyet": 2698,
      "##'le": 2699,
      "▁hen": 2700,
      "▁teklif": 2701,
      "▁savas": 2702,
      "▁..": 2703,
      "▁mevcut": 2704,
      "▁gunes": 2705,
      "##ımı": 2706,
      "▁gider": 2707,
      "##mer": 2708,
      "▁%1": 2709,
      "##larını": 2710,
      "▁new": 2711,
      "##bak": 2712,
      "▁6": 2713,
      "1": 2714,
      "▁edin": 2715,
      "##ıg": 2716,
      "▁profes": 2717,
      "##gum": 2718,
      "▁egit": 2719,
      "▁heyec": 2720,
      "▁ec": 2721,
      "▁unit": 2722,
      "▁listeleyin": 2723,
      "##lerce": 2724,
      "▁milyar": 2725,
      "##lardan": 2726,
      "▁cic": 2727,
      "##ende": 2728,
      "▁dort": 2729,
      "##-4": 2730,
      "##tak": 2731,
      "▁…": 2732,
      "▁hepsini": 2733,
      "▁iht": 2734,
      "▁yazar": 2735,
      "##eet": 2736,
      "##eyi": 2737,
      "▁nerede": 2738,
      "▁durumda": 2739,
      "▁sekiz": 2740,
      "▁satıslar": 2741,
      "▁fin": 2742,
      "▁dah": 2743,
      "▁istiyor": 2744,
      "##tim": 2745,
      "▁jos": 2746,
      "##ill": 2747,
      "▁petrol": 2748,
      "▁yardim": 2749,
      "▁dolarlık": 2750,
      "▁%0": 2751,
      "▁%18": 2752,
      "##asız": 2753,
      "▁ne": 2754,
      "▁memphis": 2755,
      "▁cle": 2756,
      "▁francisco'dan": 2757,
      "▁boy": 2758,
      "▁yıl": 2759,
      "##adelphia": 2760,
      "##erk": 2761,
      "▁ediyor": 2762,
      "▁japon": 2763,
      "▁port": 2764,
      "##cileri": 2765,
      "▁sahn": 2766,
      "##luyor": 2767,
      "▁telef": 2768,
      "▁harc": 2769,
      "▁olmaz": 2770,
      "▁sirketi": 2771,
      "▁kırmızı": 2772,
      "##si": 2773,
      "▁um": 2774,
      "▁faal": 2775,
      "##dikleri": 2776,
      "▁kalit": 2777,
      "▁guler": 2778,
      "▁animasyon": 2779,
      "##ırı": 2780,
      "##apur": 2781,
      "▁ana": 2782,
      "▁tartıs": 2783,
      "▁gorul": 2784,
      "▁30": 2785,
      "##gis": 2786,
      "▁yorgun": 2787,
      "▁bost": 2788,
      "▁avrupa": 2789,
      "▁hab": 2790,
      "##hangi": 2791,
      "##er": 2792,
      "▁man": 2793,
      "▁om": 2794,
      "▁cam": 2795,
      "##mesi": 2796,
      "▁ustune": 2797,
      "##'de": 2798,
      "##tıgı": 2799,
      "##ini": 2800,
      "▁boston'dan": 2801,
      "▁sını": 2802,
      "▁miami": 2803,
      "▁dusur": 2804,
      "▁piyas": 2805,
      "▁...\"": 2806,
      "▁%17": 2807,
      "##mini": 2808,
      "▁ayrıca": 2809,
      "▁toprak": 2810,
      "▁kayı": 2811,
      "##leriyle": 2812,
      "▁rezerv": 2813,
      "▁olup": 2814,
      "▁hiz": 2815,
      "▁ekonomi": 2816,
      "▁denize": 2817,
      "▁etkil": 2818,
      "▁kurtar": 2819,
      "##bah": 2820,
      "▁m": 2821,
      "▁duy": 2822,
      "▁lar": 2823,
      "▁goster": 2824,
      "▁dob": 2825,
      "▁strate": 2826,
      "▁yap": 2827,
      "##ade": 2828,
      "##lo": 2829,
      "▁st": 2830,
      "▁evde": 2831,
      "▁sanat": 2832,
      "k": 2833,
      "▁ayr": 2834,
      "▁her": 2835,
      "##unca": 2836,
      "6": 2837,
      "##gru": 2838,
      "▁misafirimiz": 2839,
      "##ediye": 2840,
      "▁un": 2841,
      "▁%27": 2842,
      "##al": 2843,
      "##uar": 2844,
      "▁...": 2845,
      "##atif": 2846,
      "##oeni": 2847,
      "▁vaz": 2848,
      "▁ayında": 2849,
      "##lif": 2850,
      "##erdi": 2851,
      "▁sona": 2852,
      "▁%20": 2853,
      "##dıkları": 2854,
      ".": 2855,
      "##tılar": 2856,
      "##layacak": 2857,
      "##agın": 2858,
      "▁yukselt": 2859,
      "##tiv": 2860,
      "▁kisisel": 2861,
      "▁renk": 2862,
      "▁malz": 2863,
      "▁hus": 2864,
      "▁sem": 2865,
      "##ydi": 2866,
      "##ilig": 2867,
      "▁kı": 2868,
      "##dır": 2869,
      "▁yetk": 2870,
      "▁yıllık": 2871,
      "▁zevk": 2872,
      "▁soz": 2873,
      "##digim": 2874,
      "▁neredeyse": 2875,
      "▁kuz": 2876,
      "▁nih": 2877,
      "▁aktarmalı": 2878,
      "▁pazartesi": 2879,
      "##dıktan": 2880,
      "##orm": 2881,
      "▁insa": 2882,
      "▁duzey": 2883,
      "##zet": 2884,
      "##.0": 2885,
      "▁sorun": 2886,
      "##dık": 2887,
      "▁soru": 2888,
      "##ormal": 2889,
      "##din": 2890,
      "##v": 2891,
      "▁pittsburgh'tan": 2892,
      "▁durum": 2893,
      "▁ilet": 2894,
      "##acag": 2895,
      "▁kendi": 2896,
      "▁olcude": 2897,
      "▁ceb": 2898,
      "▁bel": 2899,
      "▁isteyen": 2900,
      "▁yeter": 2901,
      "▁ogret": 2902,
      "▁reddetti": 2903,
      "▁ode": 2904,
      "##:00": 2905,
      "▁hamam": 2906,
      "▁oyuncu": 2907,
      "▁edeb": 2908,
      "▁el": 2909,
      "▁yemekleri": 2910,
      "‘": 2911,
      "▁yılında": 2912,
      "##iyle": 2913,
      "▁diyor": 2914,
      "▁%1.7": 2915,
      "▁vur": 2916,
      "▁persembe": 2917,
      "##ilmis": 2918,
      "▁kampan": 2919,
      "▁pu": 2920,
      "▁olumlu": 2921,
      "▁seviy": 2922,
      "▁ederiz": 2923,
      "##istir": 2924,
      "▁bakıs": 2925,
      "##oster": 2926,
      "##aret": 2927,
      "▁suz": 2928,
      "▁west": 2929,
      "▁petersburg": 2930,
      "▁eden": 2931,
      "##it": 2932,
      "▁indian": 2933,
      "##cog": 2934,
      "▁siyas": 2935,
      "##makta": 2936,
      "▁rekabet": 2937,
      "##gı": 2938,
      "▁resmi": 2939,
      "▁phoenix": 2940,
      "▁res": 2941,
      "▁tanı": 2942,
      "▁iliskin": 2943,
      "##'a": 2944,
      "▁sorum": 2945,
      "▁hastalık": 2946,
      "##iss": 2947,
      "▁?..": 2948,
      "▁konus": 2949,
      "▁`": 2950,
      "▁etmis": 2951,
      "▁cal": 2952,
      "▁normal": 2953,
      "▁tef": 2954,
      "##mektedir": 2955,
      "▁sirketler": 2956,
      "▁simdiye": 2957,
      "▁det": 2958,
      "##ank": 2959,
      "▁yuzde": 2960,
      "▁vakit": 2961,
      "▁musteri": 2962,
      "▁ithal": 2963,
      "▁''": 2964,
      "▁#": 2965,
      "▁ates": 2966,
      "▁jones": 2967,
      "▁kalmıs": 2968,
      "▁50": 2969,
      "▁washington'dan": 2970,
      "▁continental": 2971,
      "▁yılda": 2972,
      "j": 2973,
      "▁so": 2974,
      "▁pitt": 2975,
      "##oglu": 2976,
      "▁seni": 2977,
      "▁istik": 2978,
      "##burgh": 2979,
      "▁cat": 2980,
      "##dılar": 2981,
      "##luk": 2982,
      "▁olma": 2983,
      "▁lut": 2984,
      "##gileri": 2985,
      "▁nit": 2986,
      "▁agz": 2987,
      "##!": 2988,
      "##ator": 2989,
      "▁baltimore'ye": 2990,
      "▁bulunan": 2991,
      "▁kalp": 2992,
      "▁siyah": 2993,
      "▁cap": 2994,
      "▁20": 2995,
      "▁%2.7": 2996,
      "##og": 2997,
      "▁42": 2998,
      "▁yuzu": 2999,
      "▁derec": 3000,
      "▁ucusa": 3001,
      "▁mali": 3002,
      "​": 3003,
      "▁uygun": 3004,
      "▁mahk": 3005,
      "▁yurut": 3006,
      "▁siz": 3007,
      "##ahat": 3008,
      "##anc": 3009,
      "##lık": 3010,
      "##fa": 3011,
      "▁1990": 3012,
      "##ısına": 3013,
      "##edef": 3014,
      "_": 3015,
      "##ta": 3016,
      "▁basar": 3017,
      "##larım": 3018,
      "▁yun": 3019,
      "##eydi": 3020,
      "▁sok": 3021,
      "##ustri": 3022,
      "▁nokt": 3023,
      "##ohn": 3024,
      "▁chicag": 3025,
      "##bi": 3026,
      "▁dobra": 3027,
      "##eg": 3028,
      "##ırak": 3029,
      "▁$": 3030,
      "##iz": 3031,
      "▁tam": 3032,
      "▁sın": 3033,
      "##esi": 3034,
      "▁kızı": 3035,
      "▁sapır": 3036,
      "▁cesitli": 3037,
      "▁senet": 3038,
      "▁part": 3039,
      "▁merk": 3040,
      "▁yaptık": 3041,
      "▁neler": 3042,
      "##bul": 3043,
      "▁memleket": 3044,
      "▁haf": 3045,
      "##alt": 3046,
      "▁kumas": 3047,
      "##indeki": 3048,
      "▁charl": 3049,
      "##sizdi": 3050,
      "▁gunku": 3051,
      "▁ayn": 3052,
      "##.25": 3053,
      "▁cumhur": 3054,
      "##lass": 3055,
      "▁yetersizdi": 3056,
      "▁musun": 3057,
      "▁verdigi": 3058,
      "▁bircok": 3059,
      "▁3.": 3060,
      "▁merkezi": 3061,
      "▁yet": 3062,
      "▁benim": 3063,
      "▁tur": 3064,
      "##ılıgı": 3065,
      "▁ali": 3066,
      "▁genellikle": 3067,
      "▁dos": 3068,
      "##kara": 3069,
      "▁muhtesem": 3070,
      "##are": 3071,
      "▁bos": 3072,
      "##meden": 3073,
      "▁hat": 3074,
      "##ice": 3075,
      "▁defa": 3076,
      "##elerini": 3077,
      "▁eskiydi": 3078,
      "▁american": 3079,
      "##lig": 3080,
      "##ısının": 3081,
      "▁oldugunu": 3082,
      "▁gidi": 3083,
      "▁degiller": 3084,
      "▁sınıf": 3085,
      "##id": 3086,
      "▁mukemmel": 3087,
      "▁mar": 3088,
      "▁temmuz": 3089,
      "▁ucuz": 3090,
      "##esiz": 3091,
      "▁kosul": 3092,
      "##ırıl": 3093,
      "▁havuzu": 3094,
      "▁takip": 3095,
      "▁gerceklestir": 3096,
      "▁sikin": 3097,
      "▁cent": 3098,
      "▁katkı": 3099,
      "▁geldi": 3100,
      "▁bugun": 3101,
      "▁nisan": 3102,
      "▁genc": 3103,
      "##isiz": 3104,
      "##ek": 3105,
      "▁yen": 3106,
      "##emem": 3107,
      "▁rol": 3108,
      "##abil": 3109,
      "▁sirket": 3110,
      "##larla": 3111,
      "▁insanların": 3112,
      "##uru": 3113,
      "▁tu": 3114,
      "▁ad": 3115,
      "▁iddi": 3116,
      "##maktan": 3117,
      "▁ederek": 3118,
      "▁sah": 3119,
      "▁cevir": 3120,
      "▁okuy": 3121,
      "##ci": 3122,
      "▁saldır": 3123,
      "▁ark": 3124,
      "##en": 3125,
      "▁por": 3126,
      "▁temizligi": 3127,
      "▁sog": 3128,
      "▁yarı": 3129,
      "▁org": 3130,
      "##ka": 3131,
      "▁cocuk": 3132,
      "▁hizmeti": 3133,
      "▁mum": 3134,
      "▁tum": 3135,
      "##'ta": 3136,
      "▁atlanta'ya": 3137,
      "▁l": 3138,
      "##bu": 3139,
      "▁kendini": 3140,
      "##la": 3141,
      "##son": 3142,
      "d": 3143,
      "##asır": 3144,
      "▁kims": 3145,
      "##iy": 3146,
      "▁ozellikle": 3147,
      "▁ilg": 3148,
      "▁sub": 3149,
      "##ikti": 3150,
      "##j": 3151,
      "▁memnunum": 3152,
      "##ib": 3153,
      "▁bask": 3154,
      "▁vad": 3155,
      "▁ugr": 3156,
      "##meye": 3157,
      "▁kalitesi": 3158,
      "##undeki": 3159,
      "▁artık": 3160,
      "▁dun": 3161,
      "▁15": 3162,
      "##ana": 3163,
      "▁ısıl": 3164,
      "▁ruzgar": 3165,
      "##etir": 3166,
      "##iyordu": 3167,
      "▁siy": 3168,
      "##timore": 3169,
      "▁sonr": 3170,
      "▁mahkem": 3171,
      "▁ted": 3172,
      "##w": 3173,
      ")": 3174,
      "##undan": 3175,
      "▁kan": 3176,
      "▁yasıyor": 3177,
      "▁baskan": 3178,
      "▁mir": 3179,
      "▁prof": 3180,
      "▁dondu": 3181,
      "▁iy": 3182,
      "▁tahviller": 3183,
      "▁bilin": 3184,
      "▁ankara": 3185,
      "▁hanim": 3186,
      "▁endustr": 3187,
      "▁birbirlerine": 3188,
      "##tıgını": 3189,
      "##atur": 3190,
      "▁pac": 3191,
      "▁birinde": 3192,
      "##bol": 3193,
      "▁americ": 3194,
      "▁bilgisay": 3195,
      "▁aktarmasız": 3196,
      "▁rezervasyon": 3197,
      "▁yetkilileri": 3198,
      "▁film": 3199,
      "▁degisiklik": 3200,
      "##ektr": 3201,
      "▁ah": 3202,
      "▁calısıyor": 3203,
      "▁ot": 3204,
      "▁anlamda": 3205,
      "##sızlık": 3206,
      "▁mit": 3207,
      "▁butun": 3208,
      "▁kam": 3209,
      "▁hepsi": 3210,
      "##-19": 3211,
      "##yan": 3212,
      "▁lezzetli": 3213,
      "▁temizdi": 3214,
      "▁tok": 3215,
      "▁hangi": 3216,
      "▁sam": 3217,
      "▁sonraki": 3218,
      "▁herhangi": 3219,
      "▁zırt": 3220,
      "##edi": 3221,
      "##uh": 3222,
      "##ram": 3223,
      "##lanıyor": 3224,
      "▁yamalak": 3225,
      "##sa": 3226,
      "##fet": 3227,
      "##(": 3228,
      "▁din": 3229,
      "▁vat": 3230,
      "▁yasan": 3231,
      "▁dig": 3232,
      "##memis": 3233,
      "##ebi": 3234,
      "▁lak": 3235,
      "▁tal": 3236,
      "\"": 3237,
      "##esine": 3238,
      "▁demir": 3239,
      "▁zorunda": 3240,
      "▁jon": 3241,
      "▁emin": 3242,
      "▁uzan": 3243,
      "##lum": 3244,
      "▁verir": 3245,
      "▁gonul": 3246,
      "##atı": 3247,
      "▁cor": 3248,
      "▁ceyrek": 3249,
      "##mi": 3250,
      "▁paz": 3251,
      "▁katil": 3252,
      "▁sı": 3253,
      "##2:30": 3254,
      "##ilen": 3255,
      "▁amerika": 3256,
      "▁aylık": 3257,
      "▁st.": 3258,
      "##​": 3259,
      "▁olmasi": 3260,
      "##azım": 3261,
      "▁22-23": 3262,
      "▁olus": 3263,
      "▁.'": 3264,
      "▁muc": 3265,
      "▁kenar": 3266,
      "##tre": 3267,
      "##ın": 3268,
      "##iyeti": 3269,
      "▁baslan": 3270,
      "▁ortak": 3271,
      "▁iyiydi": 3272,
      "▁birim": 3273,
      "##lama": 3274,
      "▁pek": 3275,
      "▁lez": 3276,
      "##tere": 3277,
      "▁!": 3278,
      "▁insanlar": 3279,
      "▁tampa": 3280,
      "▁fıkı": 3281,
      "▁halinde": 3282,
      "▁ucusları": 3283,
      "▁sist": 3284,
      "##'ye": 3285,
      "##une": 3286,
      "▁olum": 3287,
      "▁beyaz": 3288,
      "▁yatırım": 3289,
      "▁hast": 3290,
      "▁hesap": 3291,
      "▁miktar": 3292,
      "##gında": 3293,
      "▁acıl": 3294,
      "##osu": 3295,
      "##iye": 3296,
      "##bire": 3297,
      "▁degillerdi": 3298,
      "##isindan": 3299,
      "▁c": 3300,
      "▁elde": 3301,
      "▁g": 3302,
      "▁dal": 3303,
      "▁alman": 3304,
      "##ulu": 3305,
      "##-200": 3306,
      "▁%85": 3307,
      "##yıl": 3308,
      "##iyet": 3309,
      "`": 3310,
      "▁ogren": 3311,
      "▁1.": 3312,
      "▁cunku": 3313,
      "▁zarar": 3314,
      "▁orlando'ya": 3315,
      "##rek": 3316,
      "▁25": 3317,
      "▁tuk": 3318,
      "▁giris": 3319,
      "▁makal": 3320,
      "▁aksam": 3321,
      "##luluk": 3322,
      "▁mag": 3323,
      "##ums": 3324,
      "▁fay": 3325,
      "▁mucadel": 3326,
      "▁ailelere": 3327,
      "▁rek": 3328,
      "▁giz": 3329,
      "▁davet": 3330,
      "▁girdi": 3331,
      "▁oak": 3332,
      "▁sonunda": 3333,
      "##mustu": 3334,
      "▁agustos": 3335,
      "▁ogretmen": 3336,
      "▁buyuk": 3337,
      "▁ulk": 3338,
      "##ub": 3339,
      "##ret": 3340,
      "▁list": 3341,
      "##eni": 3342,
      "##ebil": 3343,
      "▁sip": 3344,
      "“": 3345,
      "##obil": 3346,
      "##mey": 3347,
      "##tıyor": 3348,
      "▁yaklas": 3349,
      "##imdi": 3350,
      "▁sec": 3351,
      "▁odamiz": 3352,
      "▁itibaren": 3353,
      "▁kim": 3354,
      "▁sirketin": 3355,
      "▁oldu": 3356,
      "▁temiz": 3357,
      "▁22": 3358,
      "##ersiz": 3359,
      "▁veriyor": 3360,
      "##ch": 3361,
      "▁%9.": 3362,
      "▁oda": 3363,
      "##lin": 3364,
      "▁sen": 3365,
      "▁mak": 3366,
      "▁dolara": 3367,
      "##lasyon": 3368,
      "▁lir": 3369,
      "▁acı": 3370,
      "▁lutf": 3371,
      "▁carp": 3372,
      "##?": 3373,
      "▁ilgili": 3374,
      "▁yakin": 3375,
      "▁sık": 3376,
      "##oh": 3377,
      "▁philadelphia": 3378,
      "▁fon": 3379,
      "▁dukkan": 3380,
      "##gi": 3381,
      "##ecik": 3382,
      "##isler": 3383,
      "▁spor": 3384,
      "▁birbirler": 3385,
      "##uzel": 3386,
      "▁konuda": 3387,
      "##iyor": 3388,
      "##adaki": 3389,
      "##lak": 3390,
      "##ra": 3391,
      "▁mark": 3392,
      "▁faturam": 3393,
      "▁beri": 3394,
      "▁general": 3395,
      "##000": 3396,
      "▁doy": 3397,
      "▁sekilde": 3398,
      "▁biraz": 3399,
      "##el": 3400,
      "##rum": 3401,
      "▁milli": 3402,
      "▁kaldim": 3403,
      "▁arasında": 3404,
      "▁federal": 3405,
      "▁phil": 3406,
      "##alarının": 3407,
      "##ut": 3408,
      "▁karsılas": 3409,
      "##acılar": 3410,
      "▁dallas'tan": 3411,
      "▁yonel": 3412,
      "▁odedigim": 3413,
      "##lu": 3414,
      "##iliyor": 3415,
      "##alan": 3416,
      "##lıgı": 3417,
      "▁yayın": 3418,
      "##uyorum": 3419,
      "▁aileler": 3420,
      "▁asla": 3421,
      "▁muhtem": 3422,
      "##ef": 3423,
      "##iran": 3424,
      "##ic": 3425,
      "▁coz": 3426,
      "▁pitts": 3427,
      "##detti": 3428,
      "▁yurt": 3429,
      "▁sev": 3430,
      "▁got": 3431,
      "°": 3432,
      "##‘": 3433,
      "##laka": 3434,
      "##esil": 3435,
      "▁insan": 3436,
      "##qu": 3437,
      "▁cıktı": 3438,
      "▁%3.43": 3439,
      "▁seviyesine": 3440,
      "▁fil": 3441,
      "##on": 3442,
      "▁re": 3443,
      "##abilir": 3444,
      "##ıyordu": 3445,
      "##esiyle": 3446,
      "▁ona": 3447,
      "▁guven": 3448,
      "▁elektrik": 3449,
      "▁hes": 3450,
      "▁ruh": 3451,
      "▁uzere": 3452,
      "##iydi": 3453,
      "▁birlikte": 3454,
      "▁yana": 3455,
      "▁%5.4": 3456,
      "▁oran": 3457,
      "▁fazla": 3458,
      "▁cog": 3459,
      "##:00-22:30": 3460,
      "▁mot": 3461,
      "##ami": 3462,
      "##ich": 3463,
      "▁1989": 3464,
      "##onik": 3465,
      "▁bar": 3466,
      "▁eser": 3467,
      "▁hızlı": 3468,
      "##eral": 3469,
      "##kl": 3470,
      "▁gorunce": 3471,
      "▁bildirdi": 3472,
      "##anda": 3473,
      "▁arttı": 3474,
      "▁100": 3475,
      "▁sey": 3476,
      "▁nes": 3477,
      "▁ilgilendi": 3478,
      "##lıgın": 3479,
      "▁meh": 3480,
      "##=": 3481,
      "##o'nun": 3482,
      "▁vadeli": 3483,
      "▁zev": 3484,
      "▁baskı": 3485,
      "▁tercih": 3486,
      "▁kurumsal": 3487,
      "▁sin": 3488,
      "##iyorum": 3489,
      "##'ndan": 3490,
      "▁biles": 3491,
      "▁duv": 3492,
      "##lıyor": 3493,
      "##ant": 3494,
      "▁ayrı": 3495,
      "▁diye": 3496,
      "▁la": 3497,
      "##hut": 3498,
      "▁ısık": 3499,
      "▁35": 3500,
      "▁ettik": 3501,
      "##ak": 3502,
      "▁1": 3503,
      "▁houston": 3504,
      "##ere": 3505,
      "▁%99": 3506,
      "▁worth": 3507,
      "▁ton": 3508,
      "▁ekonom": 3509,
      "▁yakın": 3510,
      "##ız": 3511,
      "##dik": 3512,
      "▁yahut": 3513,
      "▁par": 3514,
      "▁r": 3515,
      "▁manz": 3516,
      "▁bilir": 3517,
      "▁fıkır": 3518,
      "##ında": 3519,
      "▁baba": 3520,
      "##agan": 3521,
      "▁of": 3522,
      "▁los": 3523,
      "▁varsa": 3524,
      "▁dunya": 3525,
      "▁uluslararası": 3526,
      "▁beye": 3527,
      "▁seatt": 3528,
      "##ga": 3529,
      "▁!..": 3530,
      "##\"": 3531,
      "▁mon": 3532,
      "▁vardi": 3533,
      "h": 3534,
      "▁bir": 3535,
      "▁sakin": 3536,
      "▁ra": 3537,
      "▁1988": 3538,
      "▁louis": 3539,
      "5": 3540,
      "▁yuzden": 3541,
      "▁id": 3542,
      "##tigi": 3543,
      "▁yabancı": 3544,
      "##isinin": 3545,
      "▁puan": 3546,
      "▁kotu": 3547,
      "▁sabit": 3548,
      "##’": 3549,
      "▁kork": 3550,
      "▁annem": 3551,
      "▁yasam": 3552,
      "▁otom": 3553,
      "##artesi": 3554,
      "##enin": 3555,
      "▁verdigim": 3556,
      "▁ler": 3557,
      "##unuz": 3558,
      "▁onune": 3559,
      "■": 3560,
      "▁ustunde": 3561,
      "▁yanı": 3562,
      "▁ap": 3563,
      "##da": 3564,
      "##afir": 3565,
      "##edir": 3566,
      "##tigini": 3567,
      "▁ney": 3568,
      "▁ilgil": 3569,
      "##nin": 3570,
      "▁'nin": 3571,
      "▁zayif": 3572,
      "▁cıkardı": 3573,
      "##sizlik": 3574,
      "##mas": 3575,
      "##alar": 3576,
      "▁yuruy": 3577,
      "##h": 3578,
      "▁kemal": 3579,
      "▁iti": 3580,
      "▁gumbur": 3581,
      "##-6": 3582,
      "▁gecer": 3583,
      "##gunu": 3584,
      "▁bazen": 3585,
      "▁istanbul": 3586,
      "▁merak": 3587,
      "▁fakat": 3588,
      "▁motor": 3589,
      "▁bic": 3590,
      "▁39": 3591,
      "▁zengin": 3592,
      "▁du": 3593,
      "▁cıl": 3594,
      "▁tit": 3595,
      "▁dak": 3596,
      "##tıg": 3597,
      "##gar": 3598,
      "▁konu": 3599,
      "##ilere": 3600,
      "##ati": 3601,
      "▁mektu": 3602,
      "##eya": 3603,
      "▁dolay": 3604,
      "##'nın": 3605,
      "##siyon": 3606,
      "▁gr": 3607,
      "##su": 3608,
      "▁kırm": 3609,
      "▁lo": 3610,
      "##iyorlar": 3611,
      "▁seattle'ye": 3612,
      "▁car": 3613,
      "▁cevap": 3614,
      "▁%6.9": 3615,
      "▁soyler": 3616,
      "▁hangileri": 3617,
      "▁konumu": 3618,
      "▁inc.": 3619,
      "▁iyice": 3620,
      "▁kurtul": 3621,
      "##of": 3622,
      "▁ref": 3623,
      "▁yar": 3624,
      "##75": 3625,
      "▁unut": 3626,
      "u": 3627,
      "##iligi": 3628,
      "##uy": 3629,
      "##ladı": 3630,
      "▁hepsin": 3631,
      "▁bat": 3632,
      "!": 3633,
      "▁kon": 3634,
      "▁reh": 3635,
      "##mıstır": 3636,
      "▁analist": 3637,
      "s": 3638,
      "##le": 3639,
      "##rar": 3640,
      "##agıt": 3641,
      "##1-19": 3642,
      "▁guc": 3643,
      "▁di": 3644,
      "▁10": 3645,
      "▁kendine": 3646,
      "▁halen": 3647,
      "##imden": 3648,
      "##gu": 3649,
      "▁bak": 3650,
      "▁size": 3651,
      "▁dieg": 3652,
      "▁nok": 3653,
      "▁olay": 3654,
      "##lli": 3655,
      "##sun": 3656,
      "▁%3.5": 3657,
      "▁haz": 3658,
      "▁ederim": 3659,
      "##man": 3660,
      "▁baska": 3661,
      "##…": 3662,
      "##cik": 3663,
      "##tık": 3664,
      "##.4": 3665,
      "##dir": 3666,
      "▁zamanlar": 3667,
      "##der": 3668,
      "▁haziran": 3669,
      "▁kullan": 3670,
      "▁osman": 3671,
      "▁degisik": 3672,
      "##dız": 3673,
      "▁rez": 3674,
      "##etin": 3675,
      "▁alıcı": 3676,
      "▁tesisti": 3677,
      "▁%3.": 3678,
      "▁hızla": 3679,
      "▁tiril": 3680,
      "▁geciyor": 3681,
      "▁hep": 3682,
      "##bur": 3683,
      "▁sel": 3684,
      "▁gay": 3685,
      "▁kuy": 3686,
      "▁alın": 3687,
      "▁soguk": 3688,
      "▁muz": 3689,
      "▁asker": 3690,
      "▁aydın": 3691,
      "▁oldum": 3692,
      "▁/": 3693,
      "▁fer": 3694,
      "##maya": 3695,
      "▁yalnızca": 3696,
      "##ına": 3697,
      "▁okum": 3698,
      "▁hav": 3699,
      "##ov": 3700,
      "##.5": 3701,
      "▁durgun": 3702,
      "##onel": 3703,
      "##'tan": 3704,
      "▁kıs": 3705,
      "##.2": 3706,
      "▁bil": 3707,
      "▁89-": 3708,
      "▁tesekkurler": 3709,
      "▁ruz": 3710,
      "▁iceri": 3711,
      "▁%0.2": 3712,
      "▁but": 3713,
      "##acı": 3714,
      "##maktadır": 3715,
      "▁ve": 3716,
      "▁altın": 3717,
      "▁performans": 3718,
      "▁belirtti": 3719,
      "▁kotuydu": 3720,
      "##emedi": 3721,
      "▁eglen": 3722,
      "▁hemen": 3723,
      "▁magaz": 3724,
      "▁hizmetleri": 3725,
      "▁sap": 3726,
      "##.9": 3727,
      "##ıntı": 3728,
      "▁mesel": 3729,
      "▁yon": 3730,
      "▁plan": 3731,
      "##ab": 3732,
      "▁hey": 3733,
      "▁oldugun": 3734,
      "##atik": 3735,
      "▁sal": 3736,
      "▁yapıl": 3737,
      "▁1.1": 3738,
      "##ki": 3739,
      "▁an": 3740,
      "▁ver": 3741,
      "▁istiyorum": 3742,
      "▁alt": 3743,
      "▁olmayan": 3744,
      "##gumuz": 3745,
      "##leyen": 3746,
      "##'deki": 3747,
      "▁dogu": 3748,
      "##ya": 3749,
      "▁mukemmeldi": 3750,
      "##yor": 3751,
      "▁yetersiz": 3752,
      "'": 3753,
      "▁icer": 3754,
      "##ers": 3755,
      "▁uretic": 3756,
      "▁gordu": 3757,
      "##eket": 3758,
      "▁olursa": 3759,
      "##eh": 3760,
      "##gir": 3761,
      "▁gidip": 3762,
      "##ele": 3763,
      "##dal": 3764,
      "▁%15": 3765,
      "▁co": 3766,
      "▁gec": 3767,
      "##ilmesi": 3768,
      "▁derg": 3769,
      "##det": 3770,
      "▁goruyor": 3771,
      "##'den": 3772,
      "▁az": 3773,
      "▁demokr": 3774,
      "▁fayd": 3775,
      "##day": 3776,
      "▁dest": 3777,
      "##ege": 3778,
      "▁ch": 3779,
      "##)": 3780,
      "##az": 3781,
      "▁kongre": 3782,
      "▁yok": 3783,
      "##'ya": 3784,
      "▁temizlik": 3785,
      "##leket": 3786,
      "▁kır": 3787,
      "z": 3788,
      "▁fak": 3789,
      "▁dedi": 3790,
      "##anı": 3791,
      "##indan": 3792,
      "##att": 3793,
      "▁peyn": 3794,
      "▁kapı": 3795,
      "▁adı": 3796,
      "▁sabahı": 3797,
      "▁sp": 3798,
      "▁mas": 3799,
      "▁fotograf": 3800,
      "▁kası": 3801,
      "##dig": 3802,
      "▁guleryuz": 3803,
      "▁pol": 3804,
      "▁anlay": 3805,
      "▁16": 3806,
      "▁stratej": 3807,
      "##onelik": 3808,
      "▁olc": 3809,
      "##ayet": 3810,
      "##p": 3811,
      "▁kara": 3812,
      "▁pahaliydi": 3813,
      "▁eger": 3814,
      "▁fark": 3815,
      "▁“": 3816,
      "##unc": 3817,
      "▁toplantı": 3818,
      "##kiz": 3819,
      "##.7": 3820,
      "##das": 3821,
      "▁artarak": 3822,
      "▁fab": 3823,
      "##rup": 3824,
      "▁duny": 3825,
      "▁bas": 3826,
      "▁isin": 3827,
      "▁havalim": 3828,
      "▁karayol": 3829,
      "##bar": 3830,
      "▁fiyatları": 3831,
      "##ley": 3832,
      "▁sanki": 3833,
      "▁gotur": 3834,
      "▁cin": 3835,
      "##mıstı": 3836,
      "▁kredi": 3837,
      "##ustos": 3838,
      "##akır": 3839,
      "##cuk": 3840,
      "▁yonet": 3841,
      "▁eg": 3842,
      "▁ocak": 3843,
      "▁kural": 3844,
      "##cısı": 3845,
      "▁gen": 3846,
      "▁bolg": 3847,
      "##landır": 3848,
      "##orn": 3849,
      "##isten": 3850,
      "##gec": 3851,
      "▁cocuklar": 3852,
      "##una": 3853,
      "##ali": 3854,
      "▁yaz": 3855,
      "▁havaalanı": 3856,
      "▁yonelik": 3857,
      "##af": 3858,
      "▁gidiyor": 3859,
      "▁on": 3860,
      "▁city'den": 3861,
      "▁bekledi": 3862,
      "▁ogleden": 3863,
      "i": 3864,
      "▁normaldi": 3865,
      "▁hedef": 3866,
      "▁sart": 3867,
      "▁o": 3868,
      "##yla": 3869,
      "▁kansas": 3870,
      "##'nin": 3871,
      "##ental": 3872,
      "▁degildi": 3873,
      "##_": 3874,
      "▁endeksi": 3875,
      "|": 3876,
      "▁yardimci": 3877,
      "▁iz": 3878,
      "▁%12": 3879,
      "##tiler": 3880,
      "▁fransız": 3881,
      "##anın": 3882,
      "##anlar": 3883,
      "▁yerde": 3884,
      "▁hale": 3885,
      "▁gereken": 3886,
      "▁sozles": 3887,
      "▁alır": 3888,
      "▁bıraktı": 3889,
      "##siniz": 3890,
      "▁birin": 3891,
      "▁al": 3892,
      "##unden": 3893,
      "▁``": 3894,
      "▁sasır": 3895,
      "##adı": 3896,
      "▁yardımcı": 3897,
      "▁reklam": 3898,
      "▁univ": 3899,
      "##sın": 3900,
      "▁ti": 3901,
      "##ası": 3902,
      "▁ihtiyar": 3903,
      "▁kulak": 3904,
      "▁olmadi": 3905,
      "▁ilgiliydi": 3906,
      "▁olabil": 3907,
      "▁ur": 3908,
      "##yse": 3909,
      "▁oy": 3910,
      "▁mily": 3911,
      "▁merkez": 3912,
      "▁secim": 3913,
      "##19": 3914,
      "▁kapat": 3915,
      "▁satın": 3916,
      "▁beraber": 3917,
      "##imize": 3918,
      "▁pır": 3919,
      "##osy": 3920,
      "▁cıvıl": 3921,
      "##meyi": 3922,
      "##os": 3923,
      "▁veriyorum": 3924,
      "▁gelecek": 3925,
      "▁simdi": 3926,
      "##amıs": 3927,
      "▁olmadıgını": 3928,
      "▁ert": 3929,
      "▁mecl": 3930,
      "▁dir": 3931,
      "##alarını": 3932,
      "▁kuvvet": 3933,
      "▁bazı": 3934,
      "##ustuk": 3935,
      "##ip": 3936,
      "▁do": 3937,
      "##menin": 3938,
      "▁%0.3": 3939,
      "▁gol": 3940,
      "▁mı": 3941,
      "##-22:30": 3942,
      "▁lis": 3943,
      "##emin": 3944,
      "##mez": 3945,
      "▁yandan": 3946,
      "▁ettiler": 3947,
      "▁lou": 3948,
      "##gor": 3949,
      "▁ab": 3950,
      "▁dolayi": 3951,
      "▁hayır": 3952,
      "▁mav": 3953,
      "##min": 3954,
      "▁pencer": 3955,
      "▁bunlardan": 3956,
      "▁iki": 3957,
      "▁degil": 3958,
      "##ber": 3959,
      "▁dolayı": 3960,
      "▁vazgec": 3961,
      "##,": 3962,
      "##ustur": 3963,
      "▁bilgisayar": 3964,
      "##ji": 3965,
      "##ede": 3966,
      "▁agız": 3967,
      "##ları": 3968,
      "▁tarafından": 3969,
      "▁laf": 3970,
      "##ih": 3971,
      "##san": 3972,
      "▁suyu": 3973,
      "▁kısıt": 3974,
      "▁'": 3975,
      "##45": 3976,
      "▁donus": 3977,
      "▁kamu": 3978,
      "▁kısm": 3979,
      "##ıcı": 3980,
      "##-": 3981,
      "▁in": 3982,
      "▁atlan": 3983,
      "▁gecmis": 3984,
      "▁tabii": 3985,
      "##egini": 3986,
      "##uldu": 3987,
      "▁dakika": 3988,
      "▁guvenlik": 3989,
      "▁yapı": 3990,
      "▁enflasyon": 3991,
      "▁zen": 3992,
      "▁hele": 3993,
      "▁abd": 3994,
      "##sınız": 3995,
      "▁grup": 3996,
      "▁gi": 3997,
      "##lerinden": 3998,
      "▁otelin": 3999,
      "##ume": 4000,
      "▁ca": 4001,
      "##av": 4002,
      "##veland": 4003,
      "▁servisi": 4004,
      "##im": 4005,
      "▁televizyon": 4006,
      "##ilerine": 4007,
      "##gır": 4008,
      "▁imkanlari": 4009,
      "▁elbet": 4010,
      "▁kendimi": 4011,
      "▁b": 4012,
      "▁avrup": 4013,
      "▁yak": 4014,
      "##o'dan": 4015,
      "##ell": 4016,
      "▁calis": 4017,
      "▁ydi": 4018,
      "▁etk": 4019,
      "##n": 4020,
      "##isti": 4021,
      "▁denver": 4022,
      "##asi": 4023,
      "▁var": 4024,
      "▁bulun": 4025,
      "##tedir": 4026,
      "##irdi": 4027,
      "##iyon": 4028,
      "##ort": 4029,
      "##ımızı": 4030,
      "##*": 4031,
      "##iyak": 4032,
      "▁uretim": 4033,
      "##larıyla": 4034,
      "▁alıyor": 4035,
      "▁bu": 4036,
      "▁washington": 4037,
      "##leme": 4038,
      "##ar": 4039,
      "▁ed": 4040,
      "▁kay": 4041,
      "▁cumartesi": 4042,
      "▁bayan": 4043,
      "##unuyor": 4044,
      "▁kaliteli": 4045,
      "▁ide": 4046,
      "▁ucrete": 4047,
      "▁hos": 4048,
      "▁li": 4049,
      "▁yuks": 4050,
      "▁yeni": 4051,
      "▁bur": 4052,
      "##gin": 4053,
      "##\\": 4054,
      "▁rest": 4055,
      "##adel": 4056,
      "##malı": 4057,
      "▁tes": 4058,
      "▁degis": 4059,
      "▁altına": 4060,
      "##iste": 4061,
      "—": 4062,
      "▁kaz": 4063,
      "##miyorum": 4064,
      "▁yol": 4065,
      "▁gazet": 4066,
      "▁belli": 4067,
      "▁it": 4068,
      "▁tarihi": 4069,
      "##fur": 4070,
      "##hur": 4071,
      "##mıyor": 4072,
      "▁34": 4073,
      "##ayım": 4074,
      "##taj": 4075,
      "▁sek": 4076,
      "▁contin": 4077,
      "▁se": 4078,
      "##lası": 4079,
      "▁rom": 4080,
      "▁er": 4081,
      "▁sevgil": 4082,
      "##kal": 4083,
      "▁tar": 4084,
      "▁2": 4085,
      "##di": 4086,
      "▁br": 4087,
      "▁birka": 4088,
      "▁azından": 4089,
      "##ku": 4090,
      "▁aldıgı": 4091,
      "▁arası": 4092,
      "▁cagır": 4093,
      "▁dallas'a": 4094,
      "##emiz": 4095
    }
  }
}