{
  "version": "1.0",
  "truncation": null,
  "padding": null,
  "added_tokens": [
    {
      "id": 2482,
      "content": "[PAD]",
      "single_word": false,
      "lstrip": false,
      "rstrip": false,
      "normalized": false,
      "special": true
    },
    {
      "id": 7522,
      "content": "[SEP]",
      "single_word": false,
      "lstrip": false,
      "rstrip": false,
      "normalized": false,
      "special": true
    },
    {
      "id": 13269,
      "content": "[UNK]",
      "single_word": false,
      "lstrip": false,
      "rstrip": false,
      "normalized": false,
      "special": true
    },
    {
      "id": 15168,
      "content": "[CLS]",
      "single_word": false,
      "lstrip": false,
      "rstrip": false,
      "normalized": false,
      "special": true
    },
    {
      "id": 16135,
      "content": "[MASK]",
      "single_word": false,
      "lstrip": false,
      "rstrip": false,
      "normalized": false,
      "special": true
    }
  ],
  "normalizer": {
    "type": "Sequence",
    "normalizers": [
      {
        "type": "NFD"
      },
      {
        "type": "Lowercase"
      },
      {
        "type": "StripAccents"
      }
    ]
  },
  "pre_tokenizer": {
    "type": "Sequence",
    "pretokenizers": [
      {
        "type": "Metaspace",
        "replacement": "▁",
        "prepend_scheme": "always",
        "split": true
      }
    ]
  },
  "post_processor": {
    "type": "TemplateProcessing",
    "single": [
      {
        "SpecialToken": {
          "id": "[CLS]",
          "type_id": 0
        }
      },
      {
        "Sequence": {
          "id": "A",
          "type_id": 0
        }
      },
      {
        "SpecialToken": {
          "id": "[SEP]",
          "type_id": 0
        }
      }
    ],
    "pair": [
      {
        "SpecialToken": {
          "id": "[CLS]",
          "type_id": 0
        }
      },
      {
        "Sequence": {
          "id": "A",
          "type_id": 0
        }
      },
      {
        "SpecialToken": {
          "id": "[SEP]",
          "type_id": 0
        }
      },
      {
        "Sequence": {
          "id": "B",
          "type_id": 1
        }
      },
      {
        "SpecialToken": {
          "id": "[SEP]",
          "type_id": 1
        }
      }
    ],
    "special_tokens": {
      "[CLS]": {
        "id": "[CLS]",
        "ids": [
          15168
        ],
        "tokens": [
          "[CLS]"
        ]
      },
      "[SEP]": {
        "id": "[SEP]",
        "ids": [
          7522
        ],
        "tokens": [
          "[SEP]"
        ]
      }
    }
  },
  "decoder": {
    "type": "Metaspace",
    "replacement": "▁",
    "prepend_scheme": "always",
    "split": true
  },
  "model": {
    "type": "Unigram",
    "unk_id": 13269,
    "vocab": [
      [
        "▁eksi",
        -10.354815152283924
      ],
      [
        "▁diyalog",
        -11.371951433505389
      ],
      [
        "▁memnuniyetini",
        -11.560457727590315
      ],
      [
        "▁ısıkları",
        -10.976720726380101
      ],
      [
        "▁senet",
        -10.57207735869199
      ],
      [
        "▁secenegi",
        -10.730963441584356
      ],
      [
        "▁magaza",
        -9.745732763751246
      ],
      [
        "▁icimiz",
        -11.40549345471857
      ],
      [
        "▁adada",
        -11.320343849754172
      ],
      [
        "▁aslın",
        -8.504549801007329
      ],
      [
        "▁gonullu",
        -10.00797726242108
      ],
      [
        "▁sasırtıcı",
        -10.233688596458922
      ],
      [
        "▁sov",
        -10.24251459378119
      ],
      [
        "▁ev",
        -10.702492886736827
      ],
      [
        "▁gok",
        -9.310069512435405
      ],
      [
        "▁west",
        -10.593075250446512
      ],
      [
        "▁sokaklar",
        -10.883716037748068
      ],
      [
        "▁pozisyonları",
        -11.086607522503346
      ],
      [
        "▁ucusun",
        -9.62901554426564
      ],
      [
        "degili",
        -11.009634623297783
      ],
      [
        "▁dayadı",
        -11.487646099065675
      ],
      [
        "▁guzellik",
        -10.476393135088935
      ],
      [
        "▁disi",
        -10.269163702700723
      ],
      [
        "▁86",
        -10.833266039124373
      ],
      [
        "▁apıs",
        -11.250104786872466
      ],
      [
        "▁cuval",
        -10.420189805191477
      ],
      [
        "▁ceket",
        -10.588222648285317
      ],
      [
        "mıstır",
        -8.878538560809197
      ],
      [
        "▁matbaa",
        -11.138948451796246
      ],
      [
        "▁surdurme",
        -11.242247274144297
      ],
      [
        "▁ilerde",
        -11.685591064670948
      ],
      [
        "▁gecerli",
        -9.744217466946921
      ],
      [
        "▁ekran",
        -10.866385366282545
      ],
      [
        "▁verir",
        -9.08288711849248
      ],
      [
        "▁oturuyordu",
        -10.722413398658517
      ],
      [
        "ira",
        -12.387740748887497
      ],
      [
        "▁21.9",
        -11.475165120238614
      ],
      [
        "▁tecessus",
        -11.375047270368075
      ],
      [
        "▁giant",
        -11.517907164280018
      ],
      [
        "▁kodu",
        -9.413769703595097
      ],
      [
        "▁ulan",
        -11.068543480865229
      ],
      [
        "▁toronto'",
        -9.561903170291906
      ],
      [
        "▁edebilecegi",
        -10.822425453106533
      ],
      [
        "▁komur",
        -9.877686518032426
      ],
      [
        "▁suzdu",
        -11.392730774912058
      ],
      [
        ".87",
        -12.278615119827492
      ],
      [
        "▁group",
        -10.370165145161053
      ],
      [
        "▁isin",
        -8.773240426711865
      ],
      [
        "▁degisiklikleri",
        -10.407446782573517
      ],
      [
        "▁zumrut",
        -11.517904411672125
      ],
      [
        "▁transcanada",
        -11.884571085801815
      ],
      [
        "▁wcrs",
        -11.375047294344617
      ],
      [
        "▁programlar",
        -10.86562206085375
      ],
      [
        "▁girdigini",
        -11.735379359672788
      ],
      [
        "▁ydı",
        -7.2089507199542044
      ],
      [
        "▁bulacak",
        -10.849338494808936
      ],
      [
        "▁omrumu",
        -11.699482972253692
      ],
      [
        "▁seyahat",
        -8.821147740029136
      ],
      [
        "▁getiren",
        -10.240279423394345
      ],
      [
        "▁yukselisi",
        -11.064580030593678
      ],
      [
        "▁uclu",
        -10.721168526265318
      ],
      [
        "▁philadelphia",
        -9.04953134395504
      ],
      [
        "▁benze",
        -10.705155348415092
      ],
      [
        "▁gre",
        -10.856213703040986
      ],
      [
        "▁akrabaları",
        -11.141938972457172
      ],
      [
        "▁giydir",
        -11.149364189436053
      ],
      [
        "▁dua",
        -9.820138523208795
      ],
      [
        "▁29.6",
        -11.062551836305282
      ],
      [
        "582",
        -11.988356530012222
      ],
      [
        "▁kalk",
        -9.188463414517367
      ],
      [
        "▁173",
        -12.127883162952749
      ],
      [
        "▁ortamda",
        -10.804134613307758
      ],
      [
        "▁198",
        -6.975109802594099
      ],
      [
        "▁aradıgını",
        -11.558520174452282
      ],
      [
        "▁cadır",
        -10.649614270623704
      ],
      [
        "▁1.60",
        -11.018883638092944
      ],
      [
        "5'te",
        -9.758099586533376
      ],
      [
        "▁va",
        -9.756120823506901
      ],
      [
        "▁bireyler",
        -11.248556882908543
      ],
      [
        "▁raporu",
        -9.971517320695268
      ],
      [
        "olay",
        -12.462236502114942
      ],
      [
        "▁ikram",
        -10.151545807689928
      ],
      [
        "▁kisileri",
        -10.995076646640648
      ],
      [
        "▁ugrattı",
        -11.389410568218278
      ],
      [
        "com",
        -10.810655729996189
      ],
      [
        "▁oranları",
        -9.529389235346937
      ],
      [
        "▁yuzer",
        -11.130148085305207
      ],
      [
        "▁hakediyor",
        -11.138938356085937
      ],
      [
        ".80",
        -9.76184326839341
      ],
      [
        "9.62",
        -12.16429544708324
      ],
      [
        "191",
        -13.342152578257751
      ],
      [
        "▁35",
        -8.676949231489617
      ],
      [
        "▁renklerde",
        -11.714541303091698
      ],
      [
        "▁haykır",
        -11.093404169218992
      ],
      [
        "▁uygulama",
        -9.218570065622771
      ],
      [
        "▁somut",
        -10.864831849084846
      ],
      [
        "▁pkk",
        -11.039692980669164
      ],
      [
        "ish",
        -10.093108380955105
      ],
      [
        "▁tv'de",
        -11.716483131086127
      ],
      [
        "—",
        -12.809526790838989
      ],
      [
        "▁bitmis",
        -10.439047671749929
      ],
      [
        "'nın",
        -7.583045463530116
      ],
      [
        "▁finansmanı",
        -11.077144116832184
      ],
      [
        "ovan",
        -11.727811108239402
      ],
      [
        "cikista",
        -10.420862352815693
      ],
      [
        "▁hissedarları",
        -11.190575578033293
      ],
      [
        "eri",
        -9.81203136517703
      ],
      [
        "▁yatar",
        -10.539769325417302
      ],
      [
        "▁leh",
        -10.863895151490912
      ],
      [
        "7:",
        -11.038605376344174
      ],
      [
        "▁tepede",
        -10.606689384455494
      ],
      [
        "▁kurulusu",
        -10.020584053549278
      ],
      [
        "▁%6.",
        -11.265292792325486
      ],
      [
        "▁mangal",
        -10.948469559954487
      ],
      [
        "▁nagme",
        -11.138996975014061
      ],
      [
        "▁6.0",
        -11.957032961599024
      ],
      [
        "▁dilim",
        -9.491891285720264
      ],
      [
        "▁orlando",
        -10.274191888531057
      ],
      [
        "▁camur",
        -10.14560898919193
      ],
      [
        "kce",
        -9.609378507404811
      ],
      [
        "▁yasa",
        -8.254295012287777
      ],
      [
        "▁ne",
        -6.28144731608597
      ],
      [
        "▁yıkılma",
        -11.298197929627843
      ],
      [
        "▁176",
        -11.648426461461778
      ],
      [
        "▁sekiz",
        -7.532759790075625
      ],
      [
        "▁power",
        -11.038993541235508
      ],
      [
        "nları",
        -12.217726465357359
      ],
      [
        "▁temel",
        -8.617050014347107
      ],
      [
        "▁icti",
        -10.443978527180345
      ],
      [
        "▁hatice",
        -10.948087869012634
      ],
      [
        "▁balkon",
        -10.61298756332063
      ],
      [
        "▁basarili",
        -9.909486988362744
      ],
      [
        "▁nedense",
        -10.954507028891785
      ],
      [
        "▁yukarı",
        -9.263688251753756
      ],
      [
        "▁kısmında",
        -11.16935064817997
      ],
      [
        "▁uyan",
        -10.088718543892883
      ],
      [
        "▁mus",
        -8.161837378504368
      ],
      [
        "▁uzana",
        -10.703612493592837
      ],
      [
        "once",
        -9.511381666878972
      ],
      [
        "▁sovyet",
        -9.653610056310406
      ],
      [
        "▁mantık",
        -10.270423690220179
      ],
      [
        "▁tekrar",
        -8.019566268819776
      ],
      [
        "▁yarısını",
        -10.49005121648943
      ],
      [
        "▁gerekcesi",
        -10.715729217241881
      ],
      [
        "den",
        -8.05560578784303
      ],
      [
        "▁yoruldu",
        -11.517907872552005
      ],
      [
        "te",
        -7.1630138535263335
      ],
      [
        "▁ba",
        -9.384290682744169
      ],
      [
        "▁kayboldu",
        -10.857040940998694
      ],
      [
        "▁fla",
        -11.024911593896304
      ],
      [
        "▁grand",
        -11.250091193140513
      ],
      [
        "olar",
        -7.153116283606411
      ],
      [
        "▁hotel",
        -10.472881181167086
      ],
      [
        "▁ulkemiz",
        -10.390225798304865
      ],
      [
        "▁sekiller",
        -11.140067326988664
      ],
      [
        "▁rahatlıgı",
        -11.270637205865219
      ],
      [
        "▁yatak",
        -9.571838380476924
      ],
      [
        "▁gozlemcileri",
        -11.375368912027275
      ],
      [
        "▁cambaz",
        -10.71634559117194
      ],
      [
        "▁bil",
        -9.038143445217596
      ],
      [
        "▁aldı",
        -7.5480480865397475
      ],
      [
        "▁mutfagi",
        -11.165486723151723
      ],
      [
        "▁sirke",
        -10.4678378287691
      ],
      [
        "▁grubu",
        -9.54303531106331
      ],
      [
        "▁misafirleri",
        -11.318360530244632
      ],
      [
        "▁dava",
        -8.26633376375548
      ],
      [
        "45000",
        -11.476096075468915
      ],
      [
        "▁carpıyor",
        -11.267109201889
      ],
      [
        "▁2.7",
        -8.87867738926752
      ],
      [
        "▁gorundugu",
        -10.915187952487246
      ],
      [
        "▁afyon",
        -11.684876970745455
      ],
      [
        "toru",
        -11.520744293182329
      ],
      [
        "▁bayildi",
        -11.256305414106013
      ],
      [
        "87.8",
        -13.243486231565367
      ],
      [
        "▁ayaklarını",
        -10.104126999271422
      ],
      [
        "▁development",
        -11.375047268444998
      ],
      [
        "ttı",
        -9.903112160010224
      ],
      [
        "▁love",
        -10.233829750436728
      ],
      [
        "▁kılıf",
        -11.684585089365626
      ],
      [
        "▁yorulma",
        -11.375074274053505
      ],
      [
        "'da",
        -9.16403921981313
      ],
      [
        "▁anlıyoru",
        -11.747162020190167
      ],
      [
        "▁vazgec",
        -9.928163424182799
      ],
      [
        "▁mezun",
        -10.586142427507598
      ],
      [
        "▁turev",
        -11.684760172943198
      ],
      [
        "irler",
        -11.137245716524244
      ],
      [
        "malıydı",
        -9.812260602311413
      ],
      [
        "▁ilcesinde",
        -11.270135080085055
      ],
      [
        "▁bunlar",
        -6.623126046805661
      ],
      [
        "9.",
        -11.202236768096903
      ],
      [
        "▁istegi",
        -10.08325512229722
      ],
      [
        "▁surecin",
        -10.24552570039171
      ],
      [
        "oglan",
        -11.515163829376515
      ],
      [
        "▁yanaklarını",
        -11.291166553620812
      ],
      [
        "▁bekar",
        -10.473212562340708
      ],
      [
        "▁neler",
        -8.468540397938536
      ],
      [
        "▁%0.3",
        -11.442857597144098
      ],
      [
        "▁saglam",
        -9.071097897403025
      ],
      [
        "▁1.25",
        -10.228792362022869
      ],
      [
        "▁sirketin",
        -8.35151969330041
      ],
      [
        "▁kıvra",
        -11.666386310371173
      ],
      [
        "▁lezzeti",
        -9.261232795700673
      ],
      [
        "▁aktarmasız",
        -8.41069050606102
      ],
      [
        "▁atila",
        -10.960247064643042
      ],
      [
        "▁goruluyor",
        -10.20296952445738
      ],
      [
        "480",
        -12.85918708407058
      ],
      [
        "▁boyun",
        -9.222102217298193
      ],
      [
        "▁1",
        -9.57986568677821
      ],
      [
        "▁kitabını",
        -10.944035177642565
      ],
      [
        "▁yıgını",
        -11.26902373246445
      ],
      [
        "▁dudagı",
        -11.140180022053777
      ],
      [
        "▁krizinde",
        -11.799755632513273
      ],
      [
        "▁canlanma",
        -10.947339095083326
      ],
      [
        "layıcı",
        -9.916733559581202
      ],
      [
        "▁pervane",
        -10.788629422367338
      ],
      [
        "▁konusan",
        -10.429506767337731
      ],
      [
        "it",
        -11.042118001151692
      ],
      [
        "▁isletil",
        -11.714901890013437
      ],
      [
        "▁dergileri",
        -10.821761302660938
      ],
      [
        "▁tutulan",
        -10.950122903842887
      ],
      [
        "▁354",
        -12.570213313067013
      ],
      [
        "▁zorundadır",
        -11.265481116883048
      ],
      [
        "▁bazıların",
        -11.782701471408297
      ],
      [
        "▁durdur",
        -10.858246549990927
      ],
      [
        "▁sendika",
        -9.322866019192848
      ],
      [
        "▁misafirimiz",
        -8.990209091700319
      ],
      [
        "eyim",
        -9.588849718055432
      ],
      [
        "▁patent",
        -11.25111395864434
      ],
      [
        "▁140000",
        -11.79456469999507
      ],
      [
        "▁harcadı",
        -10.758653389198697
      ],
      [
        "▁diledigi",
        -11.824945528069026
      ],
      [
        "79",
        -11.184966466501223
      ],
      [
        "▁paralel",
        -10.528424432702867
      ],
      [
        "▁kaplı",
        -10.74690025045135
      ],
      [
        "▁r.",
        -10.865028571096131
      ],
      [
        "▁bond",
        -10.788339018173602
      ],
      [
        "▁kapaklı",
        -11.563886624304084
      ],
      [
        "andre",
        -11.167199634324724
      ],
      [
        "▁salonda",
        -10.696169202095284
      ],
      [
        "▁adım",
        -8.601543985170409
      ],
      [
        "▁planlamam",
        -10.780503010587553
      ],
      [
        "▁hep",
        -7.701470580633078
      ],
      [
        "ıları",
        -12.441239107775704
      ],
      [
        "▁goster",
        -6.6441321647905545
      ],
      [
        "7.50",
        -11.014001245584971
      ],
      [
        "▁kıdem",
        -10.576376397748554
      ],
      [
        "94",
        -11.29193894074715
      ],
      [
        "lere",
        -7.3703908038839945
      ],
      [
        "▁patlattı",
        -11.689887140804476
      ],
      [
        "ilmi",
        -11.210180141858551
      ],
      [
        "▁durumunda",
        -9.803831824882888
      ],
      [
        "gımızda",
        -11.28756202242712
      ],
      [
        "▁topa",
        -10.826937579682168
      ],
      [
        "▁karısmıstı",
        -11.57778769917796
      ],
      [
        "▁dusmus",
        -9.426138648912382
      ],
      [
        "▁bozuk",
        -9.74012323888504
      ],
      [
        "inler",
        -9.147359778007075
      ],
      [
        "▁randevu",
        -11.138936230335634
      ],
      [
        "▁kavramını",
        -11.22960007779394
      ],
      [
        "vı",
        -10.422371062606649
      ],
      [
        "▁inanan",
        -11.38840499749634
      ],
      [
        "▁recel",
        -11.03924716975326
      ],
      [
        "8.9",
        -11.726548915310955
      ],
      [
        "▁yasamını",
        -10.421082769727702
      ],
      [
        "▁kuruluslarında",
        -10.90088262651013
      ],
      [
        "▁dikkatimi",
        -11.502522094538268
      ],
      [
        "▁simge",
        -11.68049927792228
      ],
      [
        "▁akciger",
        -11.517905416213711
      ],
      [
        "▁getirmis",
        -10.886647001285104
      ],
      [
        "ımı",
        -8.927982481743156
      ],
      [
        "▁ardı",
        -9.771784336041982
      ],
      [
        "▁kolayca",
        -10.60246237647885
      ],
      [
        "▁cektigi",
        -11.100755856176324
      ],
      [
        "▁davul",
        -10.948291531361752
      ],
      [
        "▁temmuz'da",
        -9.275656080852453
      ],
      [
        "▁diplomat",
        -10.640232568574508
      ],
      [
        "▁guzelligin",
        -10.942603981444975
      ],
      [
        "▁yoksulluk",
        -11.141451421146076
      ],
      [
        "ha",
        -12.616830099444922
      ],
      [
        "711",
        -12.771461776122981
      ],
      [
        "▁bisiklet",
        -9.793345215924107
      ],
      [
        "▁ogeleri",
        -11.53441355557264
      ],
      [
        "▁beklentilerimi",
        -11.122896889924647
      ],
      [
        "▁yuksek",
        -7.402324369782373
      ],
      [
        "▁urunlerin",
        -10.907590856455212
      ],
      [
        "▁yollarını",
        -10.304586580124514
      ],
      [
        "▁kaza",
        -9.250157527987415
      ],
      [
        "▁tokmak",
        -11.687675252918332
      ],
      [
        "hkam",
        -11.743611288966147
      ],
      [
        "▁dusundugum",
        -10.156696888314002
      ],
      [
        "▁bekir",
        -10.787846429379986
      ],
      [
        "▁yalın",
        -10.491792314853118
      ],
      [
        "▁konak",
        -10.545641195510875
      ],
      [
        "▁gizleme",
        -11.211916213025559
      ],
      [
        "▁acıkca",
        -9.96062509231583
      ],
      [
        "▁calisti",
        -11.141771082283
      ],
      [
        "▁yorucu",
        -11.684576822724726
      ],
      [
        "▁bellsouth",
        -11.884571077985152
      ],
      [
        "▁lambaları",
        -11.032203573343443
      ],
      [
        "▁2.0",
        -12.818266538644114
      ],
      [
        "▁3/",
        -8.14222313149267
      ],
      [
        "▁bulunabilir",
        -11.157027086774116
      ],
      [
        "▁asama",
        -10.126804103467563
      ],
      [
        "▁fırladı",
        -9.97537632121399
      ],
      [
        "▁imren",
        -11.375049083510067
      ],
      [
        "▁hooker",
        -11.517904526932677
      ],
      [
        "gimiz",
        -10.423125727388728
      ],
      [
        "▁kesfi",
        -11.139444986242022
      ],
      [
        "▁ugra",
        -10.36643993298446
      ],
      [
        "tik",
        -9.106754480153258
      ],
      [
        "layacagı",
        -10.940085645989534
      ],
      [
        "▁sıp",
        -11.260819730876518
      ],
      [
        "▁basbakanı",
        -11.042170349748867
      ],
      [
        "▁turun",
        -10.386426525565973
      ],
      [
        "ran",
        -8.844699152191144
      ],
      [
        "▁tasarruf",
        -9.488129940187148
      ],
      [
        "▁ederler",
        -9.946741380284639
      ],
      [
        "▁2002'",
        -11.049143636990127
      ],
      [
        "▁cami",
        -9.72674131910615
      ],
      [
        "abilirdi",
        -9.808908048202536
      ],
      [
        "▁brown",
        -10.472802423640703
      ],
      [
        "▁ressam",
        -10.472797222884129
      ],
      [
        "▁onunde",
        -8.198201694429244
      ],
      [
        "▁irfan",
        -11.138936576960521
      ],
      [
        "▁kazan",
        -8.809817721189864
      ],
      [
        "▁kiralama",
        -10.278684854392534
      ],
      [
        "▁ofisimiz",
        -11.770136153496193
      ],
      [
        "▁county",
        -11.232923912250765
      ],
      [
        "▁duz",
        -9.3420168821069
      ],
      [
        "▁arttırma",
        -10.709402927257411
      ],
      [
        "▁gorusmek",
        -10.46131798701497
      ],
      [
        "▁vuru",
        -10.762785718018057
      ],
      [
        "▁gibidir",
        -10.790238735250604
      ],
      [
        "▁1.37",
        -10.969679322940435
      ],
      [
        "sun",
        -12.989427344836226
      ],
      [
        "1.20",
        -11.307531958959766
      ],
      [
        "v",
        -8.327953558359503
      ],
      [
        "▁cocugu",
        -9.195614727053755
      ],
      [
        "▁parkın",
        -10.87445611765322
      ],
      [
        "▁118",
        -10.951670013373654
      ],
      [
        "▁olumsuz",
        -9.526318832240015
      ],
      [
        "do",
        -13.023969363847112
      ],
      [
        "▁mutluluk",
        -10.198140652130776
      ],
      [
        "▁patlat",
        -10.788349578762787
      ],
      [
        "▁durumlarda",
        -10.540923064030432
      ],
      [
        "▁487",
        -12.354804698991256
      ],
      [
        "▁cihan",
        -10.194277912566509
      ],
      [
        "▁hicbirini",
        -9.34679240401203
      ],
      [
        "▁bekledi",
        -10.350001254500757
      ],
      [
        "▁%1",
        -10.899821728264566
      ],
      [
        "▁kumsal",
        -10.574393145330706
      ],
      [
        "▁sears",
        -11.138947075211366
      ],
      [
        "▁arz",
        -9.498553392144963
      ],
      [
        "▁worth",
        -10.561197108626331
      ],
      [
        "61",
        -12.417021336908073
      ],
      [
        "▁ufak",
        -8.616562373952352
      ],
      [
        "▁dolastı",
        -10.13350515266524
      ],
      [
        "▁sozlerini",
        -10.310610891278989
      ],
      [
        "▁farklı",
        -8.428747369936215
      ],
      [
        "▁gures",
        -10.235267628181093
      ],
      [
        "▁adnan",
        -11.25051999944565
      ],
      [
        "▁19",
        -7.590840352627737
      ],
      [
        "▁olmayacagını",
        -10.881523463254002
      ],
      [
        "▁3.9",
        -10.791841722125609
      ],
      [
        "▁milyonlarca",
        -11.684815040087612
      ],
      [
        "▁alkıs",
        -10.233631231429392
      ],
      [
        "76.5",
        -12.522976449207095
      ],
      [
        "▁takındı",
        -11.414702571433649
      ],
      [
        ".03",
        -10.426964764726291
      ],
      [
        "▁duvarı",
        -10.795461873482376
      ],
      [
        "▁tabag",
        -11.584219457673587
      ],
      [
        "▁salih",
        -10.94805748406875
      ],
      [
        "▁kars",
        -12.379375454855948
      ],
      [
        "▁sonrası",
        -9.710112544662708
      ],
      [
        "▁manevra",
        -10.716342089356141
      ],
      [
        "▁w",
        -9.206348930169886
      ],
      [
        "▁kaliforniya",
        -9.439094999097623
      ],
      [
        "▁guve",
        -11.854856237541792
      ],
      [
        "▁ikisin",
        -12.421515450782177
      ],
      [
        "▁sever",
        -9.935698543241175
      ],
      [
        "▁daral",
        -10.36597077123032
      ],
      [
        "▁tayf",
        -11.374339298232345
      ],
      [
        "▁keyfi",
        -10.461470599003366
      ],
      [
        "▁cas",
        -10.831882187893434
      ],
      [
        "%10",
        -13.63797741196559
      ],
      [
        "▁supur",
        -10.587096158897538
      ],
      [
        "▁yurutul",
        -11.039904943026977
      ],
      [
        "▁karbon",
        -11.686105536192052
      ],
      [
        ".01",
        -11.231915227565413
      ],
      [
        "nızı",
        -9.716173269005711
      ],
      [
        "▁baskalarını",
        -10.614035568985118
      ],
      [
        "▁kalem",
        -9.413135424801151
      ],
      [
        "▁belirgin",
        -10.655696578506149
      ],
      [
        "▁bıraksa",
        -11.415407386625533
      ],
      [
        "▁hedefleri",
        -10.374579342136165
      ],
      [
        "▁imzaladı",
        -10.530635014116935
      ],
      [
        "ight",
        -10.950604684281577
      ],
      [
        "lugun",
        -9.611003876932017
      ],
      [
        "▁yorma",
        -11.042200547985534
      ],
      [
        "mısın",
        -13.114509106217334
      ],
      [
        "▁calısanlarını",
        -11.20560666364977
      ],
      [
        "▁,",
        -11.223407222073448
      ],
      [
        "▁tepsiy",
        -11.574248227778716
      ],
      [
        "▁munasebet",
        -11.249374546327125
      ],
      [
        "▁alemin",
        -11.19926244927873
      ],
      [
        "▁sir",
        -9.87831270786982
      ],
      [
        "▁97",
        -10.408807893499114
      ],
      [
        "dur",
        -7.642014626188319
      ],
      [
        "▁yangın",
        -9.875810431418179
      ],
      [
        "▁karsısındaki",
        -10.558858564714496
      ],
      [
        "▁%3.",
        -11.182099154216546
      ],
      [
        "▁hırcın",
        -11.250087083587099
      ],
      [
        "▁meteoroloji",
        -11.684571078118012
      ],
      [
        "ikleri",
        -12.931100024710345
      ],
      [
        "ebilecegimiz",
        -11.327820831205967
      ],
      [
        "lanınca",
        -11.17960759695467
      ],
      [
        "▁iyisini",
        -11.109556290383345
      ],
      [
        "▁satımı",
        -10.71101118229709
      ],
      [
        "▁ver",
        -8.199900568278395
      ],
      [
        "▁cıtır",
        -11.5065455368273
      ],
      [
        "▁aylar",
        -10.036975494520446
      ],
      [
        ".5'",
        -10.557040103705095
      ],
      [
        "▁yıgın",
        -10.311733806065304
      ],
      [
        "▁gog",
        -11.525222954502054
      ],
      [
        "▁114",
        -10.588855785869924
      ],
      [
        "▁iltifat",
        -11.038936264603903
      ],
      [
        "▁tutulma",
        -11.366744105393643
      ],
      [
        "1400",
        -12.557030460407402
      ],
      [
        "▁oyunculugu",
        -11.69112298307726
      ],
      [
        "▁vuku",
        -11.684578816959402
      ],
      [
        "▁harcamalar",
        -10.635360189978764
      ],
      [
        "▁sınıfları",
        -11.056327006618138
      ],
      [
        "▁bilmeyen",
        -10.867217462528824
      ],
      [
        "▁sili",
        -10.302664758750822
      ],
      [
        "▁yazılan",
        -11.04361777363937
      ],
      [
        "▁tohumu",
        -11.535739037895056
      ],
      [
        "▁pisme",
        -11.572102365718653
      ],
      [
        "gimiz",
        -9.429073651338033
      ],
      [
        "▁sise",
        -9.548620094634625
      ],
      [
        "▁kabar",
        -9.778875844158355
      ],
      [
        "▁yumru",
        -11.338481031537576
      ],
      [
        "▁8'de",
        -9.666093477116474
      ],
      [
        "▁duyar",
        -9.717464131391761
      ],
      [
        "▁bolunme",
        -10.511915984256246
      ],
      [
        "▁tutun",
        -9.181926535695094
      ],
      [
        "agı",
        -9.992656147959854
      ],
      [
        "▁takas",
        -11.706595201990293
      ],
      [
        "▁kulakları",
        -10.780581197405033
      ],
      [
        "▁bolge",
        -11.388167231706802
      ],
      [
        "▁basaramadı",
        -11.686559519361664
      ],
      [
        "▁istedigim",
        -9.963373692112004
      ],
      [
        "▁sonucu",
        -9.556845764570252
      ],
      [
        "▁fonları",
        -10.005128148543506
      ],
      [
        "▁efendim",
        -10.255355590021495
      ],
      [
        "▁7.50",
        -12.786639913035586
      ],
      [
        "▁3/8'",
        -11.884571119914943
      ],
      [
        "▁ureten",
        -10.792898954562133
      ],
      [
        "▁soylemiyor",
        -11.268210451365121
      ],
      [
        "▁'y",
        -12.499910982439719
      ],
      [
        "▁bakan",
        -9.19115796069108
      ],
      [
        "▁olmalı",
        -9.672312913139425
      ],
      [
        "▁ipotek",
        -9.664971144671314
      ],
      [
        "mizi",
        -8.77767126219867
      ],
      [
        "▁110.",
        -12.183011256756988
      ],
      [
        "▁kapat",
        -9.536715208024175
      ],
      [
        "374",
        -12.351290241819829
      ],
      [
        "40.1",
        -13.059810858100795
      ],
      [
        "▁edilmez",
        -11.258994627031463
      ],
      [
        "▁dfw",
        -11.517905466192198
      ],
      [
        "▁gazel",
        -10.866545882233018
      ],
      [
        "▁onur",
        -9.733740039623818
      ],
      [
        "▁fezleke",
        -11.884571085010862
      ],
      [
        "kten",
        -8.448785258667375
      ],
      [
        "▁oldure",
        -11.62389979656369
      ],
      [
        "▁kaydol",
        -11.684617233758518
      ],
      [
        "▁kulesi",
        -11.466888596312991
      ],
      [
        "▁kapıcı",
        -10.979195687141702
      ],
      [
        "▁makası",
        -11.560121940604228
      ],
      [
        "▁spa",
        -10.638520995747141
      ],
      [
        "▁enayi",
        -11.255639927185054
      ],
      [
        "29.2",
        -11.478666981838087
      ],
      [
        "1\\/",
        -10.762842975554703
      ],
      [
        "▁bulunmak",
        -10.95880081720129
      ],
      [
        "▁tutul",
        -10.721507307582053
      ],
      [
        "▁3.0",
        -11.684857755415301
      ],
      [
        "▁biniyor",
        -11.75556084944336
      ],
      [
        "▁akrep",
        -11.138938417178615
      ],
      [
        "▁sunar",
        -11.386997870857979
      ],
      [
        "▁yemekler",
        -7.54033858372997
      ],
      [
        "▁east",
        -11.521632918478256
      ],
      [
        "▁etmeliyi",
        -11.292265652865888
      ],
      [
        "▁vermeyi",
        -10.202378455836755
      ],
      [
        "▁4145",
        -11.844704993980521
      ],
      [
        "8'i",
        -11.256790499097448
      ],
      [
        "▁polisler",
        -10.449147947234756
      ],
      [
        "▁kalpak",
        -11.519354789401296
      ],
      [
        "▁harca",
        -10.224516114604942
      ],
      [
        "uf",
        -10.97996616497037
      ],
      [
        "▁savrulu",
        -11.375442755782547
      ],
      [
        "▁ihmal",
        -10.587175440250915
      ],
      [
        "▁yabanci",
        -10.58812133046268
      ],
      [
        "▁cekmisti",
        -11.451872703293173
      ],
      [
        "▁alnını",
        -11.46247842368696
      ],
      [
        "▁neticesinde",
        -11.519305677065752
      ],
      [
        "▁fahise",
        -11.884572055985783
      ],
      [
        "▁havuc",
        -11.256583346592242
      ],
      [
        "▁yitir",
        -11.091841090456274
      ],
      [
        "▁herkesin",
        -9.567476419215968
      ],
      [
        "▁234",
        -12.415293115848229
      ],
      [
        "▁tab",
        -11.03482499746868
      ],
      [
        "▁4.",
        -9.203855788183088
      ],
      [
        "▁izlenimleri",
        -11.70060830184735
      ],
      [
        "lugunde",
        -11.05133585877057
      ],
      [
        "▁engeller",
        -11.299105719207805
      ],
      [
        "og",
        -11.431965419903593
      ],
      [
        "▁olmamıs",
        -10.632025609792942
      ],
      [
        "▁yapıs",
        -10.920233418765388
      ],
      [
        "▁koskun",
        -11.111151136939945
      ],
      [
        "▁dogrulugunu",
        -11.689540632798911
      ],
      [
        "▁yasanacagı",
        -11.829032313498313
      ],
      [
        "▁hanım'ı",
        -10.856858155923792
      ],
      [
        "▁pozisyon",
        -10.14876490808819
      ],
      [
        "▁kopegi",
        -10.370466484639856
      ],
      [
        "▁vallah",
        -11.532433226945203
      ],
      [
        "▁tasımacılıgı",
        -10.656625529084153
      ],
      [
        "▁bilim",
        -8.730037434829022
      ],
      [
        "▁kosar",
        -10.336116499533086
      ],
      [
        "▁vaktim",
        -11.0460527725333
      ],
      [
        "▁artıracak",
        -11.68843605026027
      ],
      [
        "▁nevi",
        -10.510004157001298
      ],
      [
        "▁senede",
        -10.968394319587416
      ],
      [
        "▁degisikliklerin",
        -10.810071537443465
      ],
      [
        "onlar",
        -9.411444122687692
      ],
      [
        "ak",
        -10.007494695036996
      ],
      [
        "▁lokanta",
        -10.693593357658788
      ],
      [
        "▁ger",
        -10.19375860461577
      ],
      [
        "▁destegini",
        -11.26635817197318
      ],
      [
        "▁dir",
        -7.302651398842159
      ],
      [
        "▁onlarda",
        -8.606170649037105
      ],
      [
        "yana",
        -12.249671573025338
      ],
      [
        "▁degistirdi",
        -10.275683921217265
      ],
      [
        "▁yapraklarını",
        -11.284056138951776
      ],
      [
        "landırılması",
        -11.637770684257184
      ],
      [
        "▁129.",
        -10.196656814001443
      ],
      [
        "▁abd'",
        -9.370848879428468
      ],
      [
        "maktaydı",
        -11.235675649607082
      ],
      [
        "▁agustos",
        -8.685570039346056
      ],
      [
        "▁sınırı",
        -10.656551371015022
      ],
      [
        "▁takımını",
        -10.738267958471045
      ],
      [
        "▁kibrit",
        -11.567376836493178
      ],
      [
        "▁bakıyoru",
        -11.507746940733968
      ],
      [
        "▁kahraman",
        -10.32926175341362
      ],
      [
        "▁yuzunde",
        -8.541321651812705
      ],
      [
        "ını",
        -7.407125221543582
      ],
      [
        "▁hatları",
        -10.858017812832335
      ],
      [
        "▁bulundurmak",
        -11.872516527442839
      ],
      [
        "▁cel",
        -10.132777452535867
      ],
      [
        "▁kavga",
        -9.527983647448238
      ],
      [
        "57",
        -11.706951654512
      ],
      [
        "▁duyuyor",
        -9.962542315852115
      ],
      [
        "ların",
        -6.650577620907952
      ],
      [
        "▁guluyor",
        -10.294123257593776
      ],
      [
        "▁kutsal",
        -10.788416491324902
      ],
      [
        "erek",
        -6.72471265602396
      ],
      [
        "▁1.30",
        -12.222028288870762
      ],
      [
        "▁degmez",
        -11.258486276916916
      ],
      [
        "▁yarar",
        -10.068672799258138
      ],
      [
        "▁refah",
        -11.038936412937275
      ],
      [
        "▁eyalette",
        -11.557861212515379
      ],
      [
        "▁calısan",
        -8.930004734310774
      ],
      [
        "▁has",
        -9.203158535714707
      ],
      [
        "▁yakasın",
        -11.083541182787261
      ],
      [
        "musun",
        -12.449773847815885
      ],
      [
        "▁kasetler",
        -11.689268362707658
      ],
      [
        "▁tarihini",
        -10.62550505907039
      ],
      [
        "▁buyukelci",
        -10.788057421280206
      ],
      [
        "larımızı",
        -9.1667302508178
      ],
      [
        "▁ot",
        -9.098942384816844
      ],
      [
        "▁baglan",
        -10.324855521225585
      ],
      [
        "▁ansiklopedi",
        -11.250047268417257
      ],
      [
        "▁dursun",
        -10.86690419052
      ],
      [
        "250",
        -11.46214122036545
      ],
      [
        "cilerin",
        -10.364312106684409
      ],
      [
        "uc",
        -10.765349137976266
      ],
      [
        "▁surucusu",
        -11.7404557184745
      ],
      [
        "▁kullanma",
        -10.002192432230277
      ],
      [
        "▁ortalık",
        -10.343821751469658
      ],
      [
        "▁bastı",
        -10.398308068468392
      ],
      [
        "sunu",
        -9.44794201078901
      ],
      [
        "63'",
        -11.706958837769786
      ],
      [
        "▁gil",
        -11.690457093511322
      ],
      [
        "▁riskini",
        -11.344941222538651
      ],
      [
        "▁otuzbes",
        -11.612520891567941
      ],
      [
        "▁%8.",
        -13.38161600072496
      ],
      [
        "145.",
        -13.21695170867261
      ],
      [
        "▁saatinde",
        -11.105681434793446
      ],
      [
        "nda",
        -10.932538105983836
      ],
      [
        "▁tarım",
        -10.59432140513203
      ],
      [
        "▁ataturk'",
        -11.099956938113959
      ],
      [
        "▁yaptıklarını",
        -10.867832675221365
      ],
      [
        "0.7",
        -10.735277861111918
      ],
      [
        "trilyon",
        -10.40728039798604
      ],
      [
        "▁yasamı",
        -10.418668075391473
      ],
      [
        "sında",
        -7.9449414058746415
      ],
      [
        "▁gelsin",
        -10.153770616499965
      ],
      [
        "▁sof",
        -11.356059852682925
      ],
      [
        "▁1'",
        -11.429619177702799
      ],
      [
        "abiliyor",
        -10.111905963294275
      ],
      [
        "▁virginia",
        -11.517904529546817
      ],
      [
        "▁168",
        -11.419398737217387
      ],
      [
        "▁yetkili",
        -9.795147107454833
      ],
      [
        "▁hare",
        -10.909831352233098
      ],
      [
        "▁trt'",
        -11.250551214654372
      ],
      [
        "▁sille",
        -11.530004350934265
      ],
      [
        "▁mazlum",
        -11.684634479367741
      ],
      [
        "▁sırası",
        -10.683049557211147
      ],
      [
        "▁anımsat",
        -11.705312198161124
      ],
      [
        "▁anla",
        -10.74660459059567
      ],
      [
        "▁368.2",
        -11.644297331447218
      ],
      [
        "▁ozgurluk",
        -10.699777805381975
      ],
      [
        "▁belirli",
        -9.411016651967055
      ],
      [
        "▁saray'ı",
        -11.264711532861387
      ],
      [
        "▁kalma",
        -9.285041145658873
      ],
      [
        "▁atları",
        -10.821230195243603
      ],
      [
        "▁getiriyordu",
        -11.264245858142754
      ],
      [
        ":00",
        -11.867128241260916
      ],
      [
        "▁ataturk",
        -9.521813199255
      ],
      [
        "▁corry",
        -11.139163085802773
      ],
      [
        "▁ye",
        -9.466928636691668
      ],
      [
        "▁kumanda",
        -11.30147558769274
      ],
      [
        "3.5",
        -9.478301416158967
      ],
      [
        "▁exxon",
        -11.517904412486798
      ],
      [
        "▁city'de",
        -9.086260777881918
      ],
      [
        "▁serisini",
        -11.772497595045753
      ],
      [
        "▁ezel",
        -11.385429669245905
      ],
      [
        "▁merak",
        -9.0700415710089
      ],
      [
        "▁islevi",
        -11.399438115197128
      ],
      [
        "▁kayıtlı",
        -11.27744225246397
      ],
      [
        "▁yıllarında",
        -10.771306986321557
      ],
      [
        "chester",
        -11.51788271374073
      ],
      [
        "▁cakar",
        -11.684710564747022
      ],
      [
        "u'nu",
        -10.920000894214528
      ],
      [
        "991",
        -11.433099130164889
      ],
      [
        "▁bizim",
        -9.309489439830276
      ],
      [
        "▁john",
        -9.689233103470956
      ],
      [
        "▁anlayan",
        -11.14326462525978
      ],
      [
        "▁kapatılmıs",
        -11.147442469010755
      ],
      [
        "▁yankı",
        -11.156181291011695
      ],
      [
        "▁aklını",
        -10.755590009224225
      ],
      [
        "▁hizmetler",
        -10.861607757928219
      ],
      [
        "▁barometresi",
        -11.884573016161493
      ],
      [
        "▁fasulye",
        -10.040734034432296
      ],
      [
        "▁siyasal",
        -10.324461810447168
      ],
      [
        "▁jose",
        -10.52801975469886
      ],
      [
        "▁pompa",
        -11.168858770052262
      ],
      [
        "ik",
        -12.06400653283515
      ],
      [
        "eniz",
        -13.212731239466748
      ],
      [
        "yu",
        -8.108655180258381
      ],
      [
        "▁hasar",
        -9.715578603870812
      ],
      [
        "▁serbest",
        -9.392474047534678
      ],
      [
        "▁yasanan",
        -9.87927328459506
      ],
      [
        "▁bildirdi",
        -9.088593339318821
      ],
      [
        "▁cehre",
        -10.151946272628301
      ],
      [
        "▁sevdigi",
        -10.023174490262429
      ],
      [
        "▁kub",
        -11.717463429617808
      ],
      [
        "▁3.2",
        -11.196576864327374
      ],
      [
        "▁guc",
        -8.602689302651957
      ],
      [
        "4.87",
        -13.718375994870044
      ],
      [
        "▁gelecekler",
        -11.018438505720166
      ],
      [
        "▁cıv",
        -11.518192856698878
      ],
      [
        "ydu",
        -10.970623744144195
      ],
      [
        "▁huzursuzluk",
        -11.685501412402658
      ],
      [
        "▁birin",
        -9.181865945293579
      ],
      [
        "▁muvaffak",
        -11.138936318041923
      ],
      [
        "▁fincan",
        -10.3246820402124
      ],
      [
        "▁pizza",
        -11.517905978624306
      ],
      [
        "▁gosterdi",
        -8.768958904249487
      ],
      [
        "▁kazanacagı",
        -11.855440532952509
      ],
      [
        "622",
        -11.498863799653888
      ],
      [
        "▁seydi",
        -10.560753244813883
      ],
      [
        "sen",
        -9.858137960481185
      ],
      [
        "▁halka",
        -9.314574797729644
      ],
      [
        "▁evladı",
        -10.547719796307517
      ],
      [
        "▁ilgisini",
        -10.93886586196134
      ],
      [
        "▁dolduruyor",
        -10.987837841252666
      ],
      [
        "▁yigit",
        -11.127031560699606
      ],
      [
        "▁japonya'da",
        -10.329127278774267
      ],
      [
        "▁kurulunu",
        -10.480871176891558
      ],
      [
        "▁siyah",
        -8.519453571657262
      ],
      [
        "▁aykırı",
        -10.151946450433869
      ],
      [
        "▁gecirmis",
        -10.649094947703112
      ],
      [
        "▁alem",
        -10.0665415510597
      ],
      [
        "▁du",
        -6.33322890003446
      ],
      [
        "▁yakar",
        -11.189927874246145
      ],
      [
        "▁yuzum",
        -10.216034138711947
      ],
      [
        "▁iplik",
        -10.534902251143437
      ],
      [
        "▁yuruy",
        -11.220277298877399
      ],
      [
        "▁bey",
        -12.824777725768216
      ],
      [
        "▁girer",
        -9.316711316860768
      ],
      [
        "lar",
        -7.961244385437585
      ],
      [
        "▁komisyonları",
        -10.630065454322704
      ],
      [
        "▁parkı",
        -11.12063097594055
      ],
      [
        "▁sen",
        -6.208861544610927
      ],
      [
        "▁aktar",
        -10.043071593144223
      ],
      [
        "▁ruh",
        -9.322840841080762
      ],
      [
        "▁kapısı",
        -10.382245039234153
      ],
      [
        "▁grubun",
        -10.137199524636978
      ],
      [
        "▁golge",
        -9.190197555324179
      ],
      [
        "▁cıkarmadı",
        -11.302460936778747
      ],
      [
        "▁nam",
        -10.27957951597354
      ],
      [
        "▁cabalarını",
        -11.312083421521903
      ],
      [
        "▁dedigini",
        -11.385626848351919
      ],
      [
        "▁misafirler",
        -11.011656243083017
      ],
      [
        "▁kaydetti",
        -9.618028000259057
      ],
      [
        "▁tufegi",
        -11.684573465193637
      ],
      [
        "▁edebiliyor",
        -11.685804581153867
      ],
      [
        "▁oyunlar",
        -10.17009174781461
      ],
      [
        "▁isteyebilir",
        -11.518346323819973
      ],
      [
        "▁musiki",
        -10.864764692033056
      ],
      [
        "▁muamele",
        -10.534598037995202
      ],
      [
        "▁gorulur",
        -10.719510247156219
      ],
      [
        "▁alabildigi",
        -11.03968493856394
      ],
      [
        "▁olurdu",
        -9.408892811007716
      ],
      [
        "▁inanc",
        -10.560302174138698
      ],
      [
        "▁hicbir",
        -5.961517491993648
      ],
      [
        "▁veto",
        -9.940832276656723
      ],
      [
        "▁gelisti",
        -10.769242459324058
      ],
      [
        "60",
        -9.564211218512561
      ],
      [
        "▁kamp",
        -10.233431036231003
      ],
      [
        "▁an",
        -7.822054831861105
      ],
      [
        "▁hop",
        -10.593452737148956
      ],
      [
        "ng",
        -10.94435796899572
      ],
      [
        "mis",
        -7.319338567795666
      ],
      [
        "agı",
        -9.861863380179852
      ],
      [
        "▁ciziyor",
        -11.256526902245486
      ],
      [
        "▁bizleri",
        -9.582690225371444
      ],
      [
        "▁ele",
        -8.571704409511003
      ],
      [
        "▁isgucu",
        -10.948032378619107
      ],
      [
        "gında",
        -9.954252873801256
      ],
      [
        "▁asmıs",
        -11.26745521836168
      ],
      [
        "▁7.1",
        -10.77984840303767
      ],
      [
        "▁cumbus",
        -11.884574394172217
      ],
      [
        "▁georgia-pacific",
        -11.684571077950162
      ],
      [
        "▁ormanları",
        -11.135939713054999
      ],
      [
        "▁cayır",
        -10.728968907441665
      ],
      [
        "▁ekonomi",
        -8.36017410472946
      ],
      [
        "▁islemis",
        -11.016457727703127
      ],
      [
        "▁takip",
        -9.066773278901987
      ],
      [
        "▁celal",
        -10.370637935073038
      ],
      [
        "▁abim",
        -11.158092370340679
      ],
      [
        "▁koklu",
        -11.492511827931676
      ],
      [
        "▁uzakt",
        -10.187256977896062
      ],
      [
        "nold",
        -11.623243145473989
      ],
      [
        "▁ifsa",
        -11.25005415359805
      ],
      [
        ".5",
        -9.430731754711667
      ],
      [
        "▁verildi",
        -9.513575819811317
      ],
      [
        "▁orada",
        -8.409553630972134
      ],
      [
        "▁el",
        -7.689747239227992
      ],
      [
        "▁gevse",
        -10.229039693579823
      ],
      [
        "▁dersler",
        -10.537687682764712
      ],
      [
        "▁zevkimi",
        -11.589572697785666
      ],
      [
        "▁2.3",
        -9.999738725484406
      ],
      [
        "▁gecirdik",
        -10.050639480177956
      ],
      [
        "▁tahıl",
        -10.78816697197829
      ],
      [
        "▁operasyonların",
        -11.088719415908608
      ],
      [
        "▁calıstır",
        -10.765789852564197
      ],
      [
        "'ni",
        -7.875020694886773
      ],
      [
        "▁hindistan",
        -10.350824423099509
      ],
      [
        "▁376",
        -12.667332551018434
      ],
      [
        "▁katılan",
        -10.473885559026801
      ],
      [
        "▁cıkıyordu",
        -10.728637930585018
      ],
      [
        "▁bellegi",
        -11.683893200577282
      ],
      [
        "▁dolay",
        -6.325603172551561
      ],
      [
        "▁adliye",
        -11.039065808626642
      ],
      [
        "▁toronto'da",
        -9.390551952274938
      ],
      [
        "▁davranislari",
        -11.138936463669978
      ],
      [
        "▁teklifini",
        -10.034519859481145
      ],
      [
        "▁oyuncusu",
        -10.47431378787687
      ],
      [
        "lesmis",
        -9.362674290716171
      ],
      [
        "▁nus",
        -11.142605800888415
      ],
      [
        "08",
        -11.959350863092073
      ],
      [
        "▁oba",
        -11.521644951840594
      ],
      [
        "▁tutarlı",
        -10.87918379714116
      ],
      [
        "im",
        -8.415921563447386
      ],
      [
        "▁stone",
        -11.375198184094867
      ],
      [
        "▁utah'",
        -11.552108134635422
      ],
      [
        "▁buhar",
        -10.657066339768917
      ],
      [
        "▁eniste",
        -10.787185841777259
      ],
      [
        "▁har",
        -9.65092759605018
      ],
      [
        "▁louis'",
        -9.904989002121884
      ],
      [
        "▁sefir",
        -11.536402813187914
      ],
      [
        "▁recep",
        -10.21058387104058
      ],
      [
        "▁imp",
        -11.518646421359229
      ],
      [
        "▁onerdigi",
        -11.309458593240382
      ],
      [
        "ge",
        -8.468106161949372
      ],
      [
        "▁hayır",
        -9.040594463232035
      ],
      [
        "▁gazetecilik",
        -11.500129860000234
      ],
      [
        "▁8.32",
        -11.451862188950031
      ],
      [
        "tu",
        -9.158395043648547
      ],
      [
        "▁ederi",
        -7.430540332458923
      ],
      [
        "▁toplantılar",
        -10.838938926346842
      ],
      [
        "▁patladı",
        -11.188468665273815
      ],
      [
        "▁hademe",
        -11.140137835902772
      ],
      [
        "▁suren",
        -9.62782957374046
      ],
      [
        "▁dusunuyordu",
        -10.203980467949258
      ],
      [
        "▁hep",
        -9.68908962305779
      ],
      [
        "▁ısı",
        -9.632349999714865
      ],
      [
        "▁uye",
        -9.714560909146506
      ],
      [
        "▁pasta",
        -10.791318965293284
      ],
      [
        "▁cıkması",
        -10.262373165280824
      ],
      [
        "lestigi",
        -11.445972057041455
      ],
      [
        "373",
        -13.087519675750887
      ],
      [
        "▁ya",
        -5.833491254611257
      ],
      [
        "▁kurtulur",
        -10.867340172881608
      ],
      [
        "▁tartısmalı",
        -11.420493544265765
      ],
      [
        "▁giris",
        -9.21509761012648
      ],
      [
        "▁artırmak",
        -10.58655888958484
      ],
      [
        "▁saygı",
        -9.423799683222587
      ],
      [
        "▁122.",
        -12.306585786724714
      ],
      [
        "▁dukkan",
        -9.996363727782652
      ],
      [
        "▁fan",
        -10.46672462701586
      ],
      [
        "manın",
        -10.167903441572712
      ],
      [
        "▁durak",
        -10.353931118515808
      ],
      [
        "▁bazı",
        -5.798457711104905
      ],
      [
        "▁dalgalana",
        -11.513755862376184
      ],
      [
        "▁surdugunu",
        -11.533622104447739
      ],
      [
        "▁satıcılar",
        -10.977314975530502
      ],
      [
        "▁mah",
        -10.129786844327501
      ],
      [
        "ıgın",
        -11.416197131453586
      ],
      [
        "▁koma",
        -11.305427951293652
      ],
      [
        "saltı",
        -13.337815592279034
      ],
      [
        "▁derler",
        -9.772518321619732
      ],
      [
        "▁dolgun",
        -10.864878115746023
      ],
      [
        "▁gm'",
        -11.385144003080493
      ],
      [
        "▁cilve",
        -11.684943891104027
      ],
      [
        "▁bekleyis",
        -11.042319848848056
      ],
      [
        "▁sovyetler",
        -10.211898702704602
      ],
      [
        "▁torunu",
        -11.143575859005306
      ],
      [
        "▁karadag",
        -11.375551386371573
      ],
      [
        "▁kalkı",
        -9.235274809164466
      ],
      [
        "▁hukmu",
        -10.526009683778735
      ],
      [
        "hi",
        -9.224586605584243
      ],
      [
        "▁bolgesi",
        -10.622022029476092
      ],
      [
        "▁tarihleri",
        -11.00697159090799
      ],
      [
        "52.1",
        -11.414231208644395
      ],
      [
        "▁anlattı",
        -9.217154233927927
      ],
      [
        "▁kactıgı",
        -11.656730713965198
      ],
      [
        "▁ugramıs",
        -11.223217730947415
      ],
      [
        "▁katalog",
        -11.684572394016369
      ],
      [
        "378.",
        -12.190477552057773
      ],
      [
        "v",
        -5.244896794061084
      ],
      [
        "▁otomobil",
        -8.851297587758664
      ],
      [
        "1.8",
        -11.027249755962323
      ],
      [
        "▁benimsemis",
        -11.685340612165755
      ],
      [
        "▁direni",
        -11.222698851373492
      ],
      [
        "▁seslerini",
        -11.086550102516219
      ],
      [
        "▁dolas",
        -10.255098899768857
      ],
      [
        "yor",
        -8.355363455702246
      ],
      [
        "▁durtu",
        -11.257909985310189
      ],
      [
        "arı",
        -9.182295171636294
      ],
      [
        "▁okuyan",
        -10.195093932619027
      ],
      [
        "▁gorunen",
        -9.945968013446755
      ],
      [
        "▁yanıt",
        -9.734386877455258
      ],
      [
        "▁105",
        -10.292322863134913
      ],
      [
        "▁alıyor",
        -8.883643134944567
      ],
      [
        "▁8.5",
        -10.09862692703964
      ],
      [
        "gar",
        -10.314467557049674
      ],
      [
        ".16",
        -11.431430017098833
      ],
      [
        "▁378",
        -12.178439753617152
      ],
      [
        "▁kendiniz",
        -9.659975854683289
      ],
      [
        "▁dek",
        -10.739447498502265
      ],
      [
        "kı",
        -11.75119610731039
      ],
      [
        "▁yeryuzunu",
        -11.529406039969093
      ],
      [
        "▁kapagı",
        -10.596823749416098
      ],
      [
        "▁diyalogu",
        -11.688802853002338
      ],
      [
        "▁verecek",
        -9.496689112385369
      ],
      [
        "▁gorusul",
        -11.426986570646005
      ],
      [
        "▁musluman",
        -10.37755943317991
      ],
      [
        "▁cogalt",
        -11.517596045033226
      ],
      [
        "22",
        -9.999031172044875
      ],
      [
        "▁kavrulmus",
        -11.686429890136305
      ],
      [
        "▁diyarbakır",
        -11.1793381519773
      ],
      [
        "▁mektebi",
        -11.114261079578137
      ],
      [
        "▁hazzı",
        -11.68691749492378
      ],
      [
        "▁havaalanı",
        -9.753535559811706
      ],
      [
        "▁dayanısma",
        -10.716342328863547
      ],
      [
        "▁6.5",
        -10.575469817737618
      ],
      [
        "▁ucmak",
        -8.440112420463816
      ],
      [
        "▁muhtesem",
        -9.149353394075309
      ],
      [
        "▁tarifeleri",
        -11.227750677018463
      ],
      [
        "▁eldiven",
        -11.250051023186876
      ],
      [
        "▁maliyetleri",
        -9.783238232135218
      ],
      [
        "-",
        -11.387677854381625
      ],
      [
        "▁99.9",
        -11.628361218426413
      ],
      [
        "▁zorlama",
        -11.097231010486244
      ],
      [
        "▁sonuc",
        -8.71384066526463
      ],
      [
        "▁verdigini",
        -10.197384462650295
      ],
      [
        "alti",
        -10.464776979090464
      ],
      [
        "amble",
        -11.593904790810697
      ],
      [
        "▁217",
        -11.371248953319373
      ],
      [
        "▁hissesini",
        -10.475260276497266
      ],
      [
        "yol",
        -10.244111611639731
      ],
      [
        "▁iyilik",
        -10.726712607943544
      ],
      [
        "▁esitlik",
        -11.400894964525811
      ],
      [
        "▁benzeme",
        -11.667128550351094
      ],
      [
        "▁rezerve",
        -10.596809380905123
      ],
      [
        "▁bakim",
        -11.164851079742519
      ],
      [
        "▁hayatı",
        -9.483322430446432
      ],
      [
        "▁makbul",
        -11.375048131862991
      ],
      [
        "▁balıgı",
        -11.143926638366068
      ],
      [
        "▁alma",
        -8.452174064915255
      ],
      [
        "▁agrıyor",
        -11.33816321682444
      ],
      [
        "mislerdi",
        -10.44046531917328
      ],
      [
        "▁oray",
        -9.971739109756703
      ],
      [
        "mayı",
        -9.065741446281034
      ],
      [
        "▁agladı",
        -10.622988554557429
      ],
      [
        "▁halimiz",
        -10.981038335893924
      ],
      [
        "imdik",
        -11.096780404927198
      ],
      [
        "▁kece",
        -10.876194093602734
      ],
      [
        "▁pilavı",
        -11.302472040472992
      ],
      [
        "5:",
        -12.505335000021848
      ],
      [
        "▁odullendir",
        -11.599065833582568
      ],
      [
        "▁cimento",
        -11.138936662057436
      ],
      [
        "▁kalmamıs",
        -10.380730896828823
      ],
      [
        "▁kapatma",
        -10.342137601090908
      ],
      [
        "▁cevik",
        -10.787786791102267
      ],
      [
        "▁utopya",
        -11.250047749936591
      ],
      [
        "cigim",
        -11.160138026630877
      ],
      [
        "▁2.1",
        -10.319519851547797
      ],
      [
        "▁akıyor",
        -10.867852010619913
      ],
      [
        "▁getirilmis",
        -11.040076278100843
      ],
      [
        "▁gercekte",
        -8.310801961613539
      ],
      [
        "▁bekleniyor",
        -9.071290239397594
      ],
      [
        "▁kurallarını",
        -11.322491553152325
      ],
      [
        "▁fuat",
        -11.686065740851873
      ],
      [
        "▁vazgecme",
        -10.97860563778179
      ],
      [
        "▁s",
        -8.602361760991746
      ],
      [
        "▁dolmus",
        -11.04596447168153
      ],
      [
        "▁hewlett-packard",
        -11.250047268417246
      ],
      [
        ".39",
        -9.939713617690423
      ],
      [
        "▁teminat",
        -9.766068114795674
      ],
      [
        "▁uydu",
        -11.182402091256987
      ],
      [
        "▁hareket",
        -7.991179526521071
      ],
      [
        "▁1960'lar",
        -11.388702879454463
      ],
      [
        "▁grupta",
        -11.465851326932789
      ],
      [
        "▁sezon",
        -9.78619096443698
      ],
      [
        "▁gerek",
        -8.778919290901618
      ],
      [
        "▁konumda",
        -10.557118218125805
      ],
      [
        "▁ofisin",
        -11.568609556879865
      ],
      [
        "▁kapıları",
        -10.674422705119868
      ],
      [
        "▁koltugu",
        -11.402377705157049
      ],
      [
        "▁muaccel",
        -11.37504727037059
      ],
      [
        "▁oranlarında",
        -11.526297883279335
      ],
      [
        "▁sabaha",
        -10.353502329545156
      ],
      [
        "▁mer",
        -9.619432593956521
      ],
      [
        "▁6.7",
        -10.380704618024017
      ],
      [
        "▁ogrendik",
        -11.205663726470732
      ],
      [
        "▁agırlık",
        -10.344533900934167
      ],
      [
        "▁pek",
        -7.398511386653102
      ],
      [
        "▁polonya'",
        -11.225047905740766
      ],
      [
        "▁0.0",
        -10.15660429689194
      ],
      [
        "▁347",
        -11.49248346210345
      ],
      [
        "▁artır",
        -10.120663706939547
      ],
      [
        "▁cift",
        -9.015013618110345
      ],
      [
        "▁dagları",
        -11.118496195942363
      ],
      [
        "▁sun",
        -9.403455880509778
      ],
      [
        "▁gomme",
        -11.519213447462084
      ],
      [
        "▁cıkarırdı",
        -11.692725332897874
      ],
      [
        "▁huzun",
        -10.42017962143307
      ],
      [
        "▁135",
        -10.524816484443363
      ],
      [
        "▁kolombiya",
        -11.038936160642885
      ],
      [
        ".60",
        -10.955725625320385
      ],
      [
        "▁neleri",
        -10.96127278360716
      ],
      [
        "▁bicim",
        -10.058788109632612
      ],
      [
        "▁yasayan",
        -9.584510237298636
      ],
      [
        "▁hikayeler",
        -10.876663215734085
      ],
      [
        "ro",
        -9.094030809012976
      ],
      [
        "▁urunleri",
        -9.169917715721493
      ],
      [
        "▁dogal",
        -9.15023255320746
      ],
      [
        ".7'",
        -12.494952148675774
      ],
      [
        "▁resepsiyonda",
        -11.141874732882725
      ],
      [
        "▁holdings",
        -11.568244100187776
      ],
      [
        "87",
        -9.83586508577357
      ],
      [
        "▁hazırlana",
        -10.456034119161087
      ],
      [
        "▁helmsley",
        -11.250047268433477
      ],
      [
        "▁ayın",
        -9.765905629532515
      ],
      [
        "▁meclisi",
        -10.138090763606375
      ],
      [
        "32",
        -8.876639540153514
      ],
      [
        "▁asistanı",
        -11.14595803988166
      ],
      [
        "▁istifade",
        -10.727114565169192
      ],
      [
        "▁fıcı",
        -11.37709979367594
      ],
      [
        "imiz",
        -9.87496007417427
      ],
      [
        "▁sanatkarın",
        -11.744625547369905
      ],
      [
        "▁ucları",
        -11.419951158385825
      ],
      [
        "▁zaman",
        -6.769004328639784
      ],
      [
        "▁karars",
        -9.986532405227992
      ],
      [
        "▁afrika",
        -10.517892926485736
      ],
      [
        "▁girmesi",
        -10.679112041873879
      ],
      [
        "▁alanında",
        -10.182659079478558
      ],
      [
        "▁mektubu",
        -10.191946235311882
      ],
      [
        "▁katılımcı",
        -11.119861244589272
      ],
      [
        "4.4",
        -11.158859754486857
      ],
      [
        "▁fa",
        -9.407742015075419
      ],
      [
        "▁k",
        -9.253332953015757
      ],
      [
        "▁istifa",
        -9.241089439528979
      ],
      [
        "▁van",
        -10.251426975167647
      ],
      [
        "▁karıstırın",
        -10.675212660315315
      ],
      [
        "▁pozitif",
        -11.517905368017333
      ],
      [
        "▁hafta",
        -7.560530721894872
      ],
      [
        "▁hortu",
        -11.519387589978026
      ],
      [
        "▁benzemiyor",
        -11.685795683646697
      ],
      [
        "▁ankara'da",
        -10.281012116148787
      ],
      [
        "▁tampa'da",
        -9.971662224916377
      ],
      [
        "enc",
        -11.02235575751815
      ],
      [
        "▁istanbul'u",
        -9.64657855751581
      ],
      [
        "▁kenarın",
        -10.57290213360136
      ],
      [
        "▁temizleme",
        -10.76550475892711
      ],
      [
        "▁ydu",
        -8.242796498591797
      ],
      [
        "▁hususi",
        -11.387243243612366
      ],
      [
        "atmısbes",
        -12.37624537445749
      ],
      [
        "▁meseleler",
        -10.88309655365161
      ],
      [
        "▁sonuclarında",
        -11.534153125596706
      ],
      [
        "▁cocuklu",
        -8.129519324104404
      ],
      [
        "▁kafa",
        -8.597655142403216
      ],
      [
        "▁yaratacagı",
        -11.612815982025737
      ],
      [
        "kendisini",
        -10.891738120592706
      ],
      [
        "▁alımları",
        -10.818256631154025
      ],
      [
        "rmisti",
        -11.17189980065363
      ],
      [
        "▁yoneten",
        -11.25218167281297
      ],
      [
        "lemis",
        -10.003995874841266
      ],
      [
        "▁yetki",
        -10.356039009789841
      ],
      [
        "▁841",
        -11.755689341785212
      ],
      [
        "▁yasadı",
        -9.824239086730888
      ],
      [
        "▁atesi",
        -10.138616444449262
      ],
      [
        "▁derdin",
        -10.716448566114178
      ],
      [
        "▁dikkatini",
        -11.131950645043778
      ],
      [
        "▁kisiler",
        -9.434946230048626
      ],
      [
        "▁minneapolis'te",
        -10.059466433767131
      ],
      [
        "▁guresci",
        -11.382822218933573
      ],
      [
        "▁ortay",
        -8.665862889535049
      ],
      [
        "▁acan",
        -10.480870112387107
      ],
      [
        "▁adana",
        -11.146168356313279
      ],
      [
        "▁gazetesini",
        -10.88485291472733
      ],
      [
        "bu",
        -10.475098792750922
      ],
      [
        "▁kurus",
        -9.84414863806765
      ],
      [
        "▁johnson",
        -10.473110033380786
      ],
      [
        "▁doktora",
        -10.872907573948126
      ],
      [
        "▁edin",
        -9.258808349004504
      ],
      [
        "▁olduruldu",
        -11.338550970571982
      ],
      [
        "▁yuce",
        -10.715602035229942
      ],
      [
        "or",
        -11.285911387029632
      ],
      [
        "▁baslıgı",
        -11.40492943859908
      ],
      [
        "▁atılmıs",
        -11.044082605698183
      ],
      [
        "▁dolabın",
        -10.891145923706825
      ],
      [
        "▁tartısma",
        -9.640515429912096
      ],
      [
        "ak",
        -7.804092858450923
      ],
      [
        "▁diyarbakır'",
        -10.690716342681174
      ],
      [
        "ılacak",
        -10.163319629794557
      ],
      [
        "▁yararlan",
        -10.20612733341644
      ],
      [
        "▁etrafını",
        -10.662345347602557
      ],
      [
        "▁populer",
        -10.322555793374466
      ],
      [
        "▁cekiyor",
        -9.906476236635573
      ],
      [
        "go",
        -9.264785690704901
      ],
      [
        "▁dagıtıl",
        -10.599190139269187
      ],
      [
        "▁anlatmaya",
        -10.517669774647707
      ],
      [
        "▁gerilim",
        -10.421062032594907
      ],
      [
        "▁450",
        -10.817535937463706
      ],
      [
        "▁8.6",
        -12.386266177122266
      ],
      [
        "▁temizledi",
        -11.223174744852953
      ],
      [
        "▁arkadaslarını",
        -10.829160447771342
      ],
      [
        "▁tak",
        -10.208637830224543
      ],
      [
        "▁reddede",
        -11.251517006971714
      ],
      [
        "…",
        -11.80952679083899
      ],
      [
        "▁3558",
        -10.355449281372614
      ],
      [
        "sunu",
        -11.5643644007294
      ],
      [
        "▁gorulmus",
        -11.527461975669512
      ],
      [
        "▁doseme",
        -10.89785299218169
      ],
      [
        "▁oteli",
        -8.892590455310987
      ],
      [
        "▁veremeyecegi",
        -11.251936136312665
      ],
      [
        "▁da",
        -8.255609977395244
      ],
      [
        "ta",
        -7.825751804999858
      ],
      [
        "▁meta",
        -10.92356770174737
      ],
      [
        "▁gam",
        -10.470989902822065
      ],
      [
        "▁ikizler",
        -11.380060640328235
      ],
      [
        "▁ozenl",
        -11.456437231244987
      ],
      [
        "▁cin'de",
        -11.379735096279722
      ],
      [
        "▁karanlık",
        -9.429402543149381
      ],
      [
        "▁yetmiyor",
        -11.37626620962096
      ],
      [
        "'s",
        -9.923865413194152
      ],
      [
        "▁harcay",
        -11.712662800956238
      ],
      [
        "▁alıskanlıgı",
        -11.138947506265968
      ],
      [
        "▁bi",
        -7.91759027674691
      ],
      [
        "▁yunan",
        -10.473849648994053
      ],
      [
        "%5",
        -12.369826670084198
      ],
      [
        "▁mevki",
        -10.53071243757185
      ],
      [
        "▁geriledi",
        -9.498076362426612
      ],
      [
        "▁reddedil",
        -11.588602899631617
      ],
      [
        "zin",
        -11.575719337265133
      ],
      [
        "▁ulastı",
        -9.102108664250958
      ],
      [
        "▁tarla",
        -9.417659020336474
      ],
      [
        "▁peter",
        -10.521366019967402
      ],
      [
        "▁kazasında",
        -11.163075913153296
      ],
      [
        "▁malumat",
        -10.948035337083082
      ],
      [
        "▁224",
        -11.071895932479125
      ],
      [
        "unları",
        -10.14889697635057
      ],
      [
        "8.",
        -11.534953252371533
      ],
      [
        "1",
        -10.169069958022913
      ],
      [
        "▁dilini",
        -10.883330100981206
      ],
      [
        "ende",
        -12.866579831806824
      ],
      [
        "1.9",
        -10.024497484819797
      ],
      [
        "▁13.",
        -9.400967380402378
      ],
      [
        "2",
        -9.343103933683576
      ],
      [
        "▁baglama",
        -10.37868985782597
      ],
      [
        "▁islemlerin",
        -10.403730142176766
      ],
      [
        "▁ucak",
        -8.233477510155305
      ],
      [
        "▁gerekiyor",
        -8.752274905218933
      ],
      [
        "▁saldırı",
        -9.59053272875058
      ],
      [
        "▁pa",
        -9.309371140662925
      ],
      [
        "▁hollywood",
        -10.864693733773693
      ],
      [
        "▁mevcut",
        -8.085902928579
      ],
      [
        "▁beni",
        -9.156635931059473
      ],
      [
        "▁sayfa",
        -9.500031795543713
      ],
      [
        "▁eristi",
        -10.329223756909037
      ],
      [
        "▁edilecegi",
        -11.16096848836817
      ],
      [
        "▁parkı'n",
        -11.77980718836
      ],
      [
        "▁ikincisin",
        -10.991639462621036
      ],
      [
        "▁dolap",
        -10.30881876304392
      ],
      [
        "4:",
        -11.402080819450354
      ],
      [
        "▁sehirleri",
        -11.121006405037425
      ],
      [
        "▁ettigim",
        -10.364924580128273
      ],
      [
        "▁karısmıs",
        -10.945011758495355
      ],
      [
        "▁fbi",
        -11.520651114071697
      ],
      [
        "▁sinan",
        -10.511122177682692
      ],
      [
        "▁bayragı",
        -11.18015640358669
      ],
      [
        "▁ellerini",
        -9.558285525333245
      ],
      [
        "▁oran",
        -8.840055388264227
      ],
      [
        "nla",
        -9.58078058821545
      ],
      [
        "▁13.7",
        -11.716212067501806
      ],
      [
        ".51",
        -13.771211881027579
      ],
      [
        "▁muz",
        -10.42056368555844
      ],
      [
        "▁devsir",
        -11.517955967955237
      ],
      [
        "▁faydalanma",
        -11.869673324475366
      ],
      [
        "▁goturdugu",
        -11.504322709728838
      ],
      [
        "▁1963",
        -10.560325746299014
      ],
      [
        "▁varsayıl",
        -11.692068338474094
      ],
      [
        "-1",
        -11.48894452133015
      ],
      [
        "▁temizlik",
        -8.275274283674197
      ],
      [
        "▁anlattıklarını",
        -11.548646033577686
      ],
      [
        "▁gu",
        -11.453395732365175
      ],
      [
        "▁otobus",
        -9.92376195489775
      ],
      [
        "▁daim",
        -9.279898721406536
      ],
      [
        "4",
        -6.5540460640835505
      ],
      [
        "▁teklifin",
        -10.62647648867323
      ],
      [
        "▁verecegi",
        -10.564839948128354
      ],
      [
        "▁imkan",
        -9.93069336715408
      ],
      [
        "▁yapımın",
        -11.317521530933611
      ],
      [
        "▁tepki",
        -9.224031077929563
      ],
      [
        "▁gobegi",
        -11.217338999828879
      ],
      [
        "▁taksi",
        -9.936070036839688
      ],
      [
        "sel",
        -8.122536540456561
      ],
      [
        "▁rahatlama",
        -11.15883880048477
      ],
      [
        "sine",
        -7.447795951873614
      ],
      [
        "▁kapadı",
        -10.325361948384492
      ],
      [
        "▁kok",
        -12.325318541761701
      ],
      [
        "▁konut",
        -9.38843535397488
      ],
      [
        "▁sandık",
        -10.529535666461221
      ],
      [
        "▁editoru",
        -10.950552161148545
      ],
      [
        "dılar",
        -10.134783009949633
      ],
      [
        "baska",
        -11.23081986283465
      ],
      [
        "▁iliski",
        -9.125280745898277
      ],
      [
        "▁sekizi",
        -11.687317993334826
      ],
      [
        "▁tanıdı",
        -10.736563487644556
      ],
      [
        "luyor",
        -9.35332125506995
      ],
      [
        "▁parlak",
        -9.669113454640044
      ],
      [
        "▁sozleri",
        -9.729140227164894
      ],
      [
        "liklerin",
        -11.389402884463726
      ],
      [
        "▁kot",
        -10.456142645882256
      ],
      [
        "▁cocugum",
        -10.978762955565404
      ],
      [
        "▁kapanma",
        -11.127716979043727
      ],
      [
        "▁ise",
        -7.951301485285594
      ],
      [
        "▁elestiren",
        -11.686863504381396
      ],
      [
        "▁ozge",
        -11.041277756743487
      ],
      [
        "▁kenan",
        -11.375356783333723
      ],
      [
        "rlarsa",
        -11.694764393292198
      ],
      [
        "▁yolda",
        -8.945936249729016
      ],
      [
        "▁tir",
        -10.464936629208689
      ],
      [
        "▁din",
        -8.906926791775351
      ],
      [
        "▁izmir'",
        -11.088822630229643
      ],
      [
        "▁toparlandı",
        -11.379819198002902
      ],
      [
        "▁kahverengi",
        -11.038936232253775
      ],
      [
        "▁bulur",
        -9.757956878185913
      ],
      [
        "▁cag",
        -9.726620585175453
      ],
      [
        "▁gercekles",
        -10.913976655041182
      ],
      [
        "▁dusmek",
        -11.13059593349296
      ],
      [
        "▁gulmey",
        -11.207844998418825
      ],
      [
        "▁reaksiyon",
        -11.375047306148662
      ],
      [
        "▁kıskanclıgı",
        -11.684571080116838
      ],
      [
        "▁135.",
        -13.221498620451866
      ],
      [
        "▁ihtimalini",
        -11.411043430481659
      ],
      [
        "▁masajı",
        -11.534823170386638
      ],
      [
        "▁atlama",
        -11.739069807709424
      ],
      [
        "▁cubbe",
        -11.884572732901539
      ],
      [
        "▁kuculme",
        -11.522517537832252
      ],
      [
        "lu",
        -10.540402499714833
      ],
      [
        "▁ferah",
        -10.233648935973305
      ],
      [
        "▁guz",
        -11.423192464063824
      ],
      [
        "▁bilegi",
        -11.109572223555817
      ],
      [
        "▁rey",
        -10.095366038032855
      ],
      [
        "mizi",
        -11.810191266712845
      ],
      [
        "▁agac",
        -9.300953611198945
      ],
      [
        "▁117.",
        -12.11738784312321
      ],
      [
        "90",
        -9.626223619391588
      ],
      [
        "▁%7.7",
        -11.120674655466068
      ],
      [
        "▁isvec",
        -10.587176911841594
      ],
      [
        "▁mezarın",
        -11.00764770307317
      ],
      [
        "▁yakmıs",
        -11.500777143058862
      ],
      [
        "7.37",
        -12.750246338092133
      ],
      [
        "▁sıkıntısı",
        -10.538597861010816
      ],
      [
        "▁atlanta'",
        -7.7813164652484135
      ],
      [
        "▁cocuklugum",
        -10.790200586260138
      ],
      [
        "▁nohut",
        -11.376660762772449
      ],
      [
        "▁nine",
        -10.28553239403826
      ],
      [
        "▁soyley",
        -10.382848351597474
      ],
      [
        "▁uygula",
        -10.477484519585824
      ],
      [
        "lestirme",
        -10.540565583271341
      ],
      [
        "▁tanınmıs",
        -10.99187566165023
      ],
      [
        "▁uyandıgım",
        -11.139084694724634
      ],
      [
        "▁bahcesinde",
        -11.155957817998354
      ],
      [
        "▁%8.",
        -11.884498113234548
      ],
      [
        "▁cekmek",
        -9.937054045208217
      ],
      [
        "▁uretim",
        -9.16809037687451
      ],
      [
        "▁tasıdıgı",
        -11.174554133215949
      ],
      [
        "sa",
        -7.38715756037712
      ],
      [
        "▁manzara",
        -9.378271189148093
      ],
      [
        "▁gitmis",
        -9.687028143265561
      ],
      [
        "▁kesintiler",
        -10.816106301204636
      ],
      [
        "▁yeter",
        -8.82920674997877
      ],
      [
        "▁sut",
        -9.109373986217637
      ],
      [
        "▁soyleyebilir",
        -9.766525666194962
      ],
      [
        "74'",
        -12.389668338139046
      ],
      [
        "▁bakanı",
        -9.551902587188275
      ],
      [
        "imiz",
        -8.891377399871342
      ],
      [
        "▁yaratıcılıgı",
        -11.695772967493857
      ],
      [
        "▁1987'de",
        -10.793955077519447
      ],
      [
        "▁irs",
        -10.71643600702866
      ],
      [
        "▁gelismis",
        -10.420879199604197
      ],
      [
        "▁vaka",
        -9.906588898242108
      ],
      [
        "▁oturdugu",
        -10.07220662887554
      ],
      [
        "▁tanıya",
        -10.968121247538775
      ],
      [
        "▁peni",
        -11.145290143871748
      ],
      [
        "▁notları",
        -10.970754377795398
      ],
      [
        "diklerini",
        -10.741343338357083
      ],
      [
        "▁uzadı",
        -10.759490249316748
      ],
      [
        "▁makineler",
        -10.739868772896333
      ],
      [
        "▁10.6",
        -10.963275517375004
      ],
      [
        "▁lira",
        -8.55045904836
      ],
      [
        "▁%6",
        -9.731743118183811
      ],
      [
        "▁sertifika",
        -11.874015718795015
      ],
      [
        "▁kabil",
        -10.264278972028523
      ],
      [
        "▁supheci",
        -11.729017928176145
      ],
      [
        "▁cefa",
        -11.250430185910142
      ],
      [
        "▁sokaklarda",
        -10.611397418325682
      ],
      [
        "▁cekirdegi",
        -11.03893943380447
      ],
      [
        "▁dizilmis",
        -11.250517337030342
      ],
      [
        "ciligin",
        -11.240250167089263
      ],
      [
        "cu",
        -7.9824850395590365
      ],
      [
        "▁bulursa",
        -11.599635858962355
      ],
      [
        "▁rob",
        -10.916438598921399
      ],
      [
        "▁sonsuz",
        -10.412527748452625
      ],
      [
        "sche",
        -11.674770086363768
      ],
      [
        "▁kucagında",
        -10.973335428838524
      ],
      [
        "▁mimar",
        -10.307076509609905
      ],
      [
        "inda",
        -10.728306475900697
      ],
      [
        "20000",
        -11.109934816965167
      ],
      [
        "▁vekalet",
        -11.375047612446703
      ],
      [
        "▁vatandas",
        -10.322914210335153
      ],
      [
        "▁wang",
        -10.948142081880652
      ],
      [
        "▁guncel",
        -10.864814274910142
      ],
      [
        "▁0.4",
        -9.905857409742325
      ],
      [
        "7300",
        -12.972488852341145
      ],
      [
        "▁hırsız",
        -9.966881551290836
      ],
      [
        "▁istiyoru",
        -6.67290747604633
      ],
      [
        "▁fakulte",
        -11.032233648927399
      ],
      [
        "▁tereyagı",
        -11.038936911236037
      ],
      [
        "▁biliyordu",
        -10.286336236671314
      ],
      [
        "▁heybet",
        -11.521645093804826
      ],
      [
        "▁doları",
        -8.422993984720808
      ],
      [
        "▁egil",
        -10.622154562972852
      ],
      [
        "▁gazetelerin",
        -10.9349653910741
      ],
      [
        "▁sınıflandırıl",
        -11.431989450048551
      ],
      [
        "▁kayıp",
        -9.61266660513525
      ],
      [
        "mezse",
        -10.348448231809067
      ],
      [
        "9.8",
        -10.89906866214311
      ],
      [
        "▁yapısı",
        -10.118562443213085
      ],
      [
        "▁54.5",
        -11.52609891411513
      ],
      [
        "▁fonksiyon",
        -11.375048741252419
      ],
      [
        "▁hazırlıkları",
        -11.459868046695806
      ],
      [
        "▁kriz",
        -10.56854697476653
      ],
      [
        "os'un",
        -11.69096969383484
      ],
      [
        "tı",
        -9.880362748676854
      ],
      [
        "▁dusuruldu",
        -11.423530342770375
      ],
      [
        "▁solgun",
        -11.140103496996613
      ],
      [
        "▁0.9",
        -9.814412234819317
      ],
      [
        "▁238",
        -12.28526640491322
      ],
      [
        "▁sakatlıgı",
        -11.632532341388963
      ],
      [
        "▁kuzu",
        -9.909769231148026
      ],
      [
        "▁borclanma",
        -10.531347329148282
      ],
      [
        "▁gorundu",
        -10.580603600480725
      ],
      [
        "▁secimi",
        -11.075789371053903
      ],
      [
        "▁hamuru",
        -10.822359149419064
      ],
      [
        "s",
        -6.621907703193311
      ],
      [
        "▁'li",
        -9.48474627959969
      ],
      [
        "▁kayıpları",
        -10.867163044867558
      ],
      [
        "▁olu",
        -10.523711559048557
      ],
      [
        "▁par",
        -9.698270630341153
      ],
      [
        "dikleri",
        -9.98920500656886
      ],
      [
        "▁netice",
        -10.33643688740348
      ],
      [
        "▁kurtulu",
        -11.599643157318175
      ],
      [
        "▁basak",
        -10.82910519897543
      ],
      [
        "▁donusturme",
        -11.47882424236889
      ],
      [
        "ladıgı",
        -9.822261803541856
      ],
      [
        "▁market",
        -11.014199855116278
      ],
      [
        "▁arıyoru",
        -10.141447077453908
      ],
      [
        "▁yapıldı",
        -9.941349590010898
      ],
      [
        "▁pas",
        -9.650105277650848
      ],
      [
        "▁baslangıcta",
        -10.238072101909683
      ],
      [
        "▁cete",
        -10.869058278803848
      ],
      [
        "▁vefat",
        -11.286093348379353
      ],
      [
        "▁dahil",
        -8.869283166814062
      ],
      [
        "▁afganistan",
        -11.517922067656801
      ],
      [
        "▁bebek",
        -9.641165903952885
      ],
      [
        "fer",
        -10.26087502946557
      ],
      [
        "▁imajı",
        -11.162646603562722
      ],
      [
        "'in",
        -7.026571769148546
      ],
      [
        "▁ertelen",
        -11.529219111428299
      ],
      [
        "▁saglar",
        -10.400378951100581
      ],
      [
        "▁pesine",
        -10.87947955283271
      ],
      [
        "ertesi",
        -9.763314430869302
      ],
      [
        "▁rekabetin",
        -11.112071298973113
      ],
      [
        "bildigi",
        -11.183294325288141
      ],
      [
        "▁yerlesim",
        -11.046165135438827
      ],
      [
        "▁abd",
        -7.892740550962145
      ],
      [
        "▁davranıl",
        -11.547877578528858
      ],
      [
        "▁yolcu",
        -9.95737365515994
      ],
      [
        "ıyorlar",
        -9.968755954523168
      ],
      [
        "▁terk",
        -9.371347450527804
      ],
      [
        "▁iyimserlik",
        -11.526896222363757
      ],
      [
        "▁gelen",
        -7.691081771217799
      ],
      [
        "onları",
        -9.763222161918772
      ],
      [
        "▁durmus",
        -10.689316405691777
      ],
      [
        "▁seattle'de",
        -10.24682551932099
      ],
      [
        "▁imkanlari",
        -8.885381844093425
      ],
      [
        "hat",
        -10.3937064867711
      ],
      [
        "▁asılı",
        -10.738224202359104
      ],
      [
        "▁ford'u",
        -10.980492445870377
      ],
      [
        "▁95",
        -10.11033810294644
      ],
      [
        "▁bolugu",
        -10.955165141046404
      ],
      [
        "▁olması",
        -8.346120837628934
      ],
      [
        "▁yayma",
        -11.235799115174753
      ],
      [
        "▁makineleri",
        -11.307773157910768
      ],
      [
        "▁varan",
        -8.178707900087264
      ],
      [
        "31.4",
        -11.581816420360907
      ],
      [
        "▁musteri",
        -8.842027932266621
      ],
      [
        "▁getirdi",
        -9.152501961793043
      ],
      [
        "▁indirim",
        -9.834277016534571
      ],
      [
        "▁kisilerin",
        -10.349790773706133
      ],
      [
        "▁transfer",
        -10.472817104585614
      ],
      [
        "6.25",
        -9.773362979470317
      ],
      [
        "▁iznini",
        -11.395487140070216
      ],
      [
        "▁75000",
        -11.160029376756585
      ],
      [
        "▁kaynıyor",
        -11.141442389440238
      ],
      [
        "▁etkiledi",
        -11.501329523000505
      ],
      [
        "▁boykot",
        -11.517933377357629
      ],
      [
        "▁japon",
        -8.729762854268653
      ],
      [
        "▁lynch",
        -9.68936143569154
      ],
      [
        "▁bulmus",
        -10.18452543673982
      ],
      [
        "▁okurdu",
        -10.724219985584032
      ],
      [
        "▁293",
        -11.856016214991332
      ],
      [
        ".70",
        -12.006531725261098
      ],
      [
        "▁duba",
        -11.376075999179188
      ],
      [
        "64.1",
        -11.837707103465513
      ],
      [
        "▁masmavi",
        -11.884571203172051
      ],
      [
        "emedi",
        -10.394914533636666
      ],
      [
        "▁romantizm",
        -11.68457315234533
      ],
      [
        "▁gelenegi",
        -11.277622254070414
      ],
      [
        "▁mucize",
        -11.250050670720519
      ],
      [
        "▁mevzu",
        -10.947682775826708
      ],
      [
        "lik",
        -6.842047210621166
      ],
      [
        "▁bildigi",
        -10.013604286603176
      ],
      [
        "▁opti",
        -11.064403766910653
      ],
      [
        "yacak",
        -9.701642576466334
      ],
      [
        "llah",
        -10.026032918169877
      ],
      [
        "▁kalp",
        -9.326756276894628
      ],
      [
        "▁bir",
        -6.078712340133456
      ],
      [
        "▁emri",
        -10.515469477493422
      ],
      [
        "▁toprakları",
        -11.085778748946538
      ],
      [
        "▁suuru",
        -11.728697452738768
      ],
      [
        "541",
        -12.747342466715265
      ],
      [
        "▁havuzlar",
        -9.450477034408411
      ],
      [
        "▁ilinti",
        -11.684678021154008
      ],
      [
        "▁govde",
        -10.113010369574852
      ],
      [
        "▁okurlar",
        -11.330135662625498
      ],
      [
        "▁enflasyon",
        -9.644784101207392
      ],
      [
        "▁masal",
        -10.375488921327465
      ],
      [
        "▁yatma",
        -10.607097860763067
      ],
      [
        "su",
        -7.557224440259504
      ],
      [
        "▁gibi",
        -4.36209696709702
      ],
      [
        "▁icmis",
        -11.304031624005056
      ],
      [
        "▁girdigi",
        -10.86543949299912
      ],
      [
        "▁makul",
        -10.277372946191376
      ],
      [
        "▁yazılımı",
        -11.57816911008268
      ],
      [
        "▁mutlak",
        -9.304701112773483
      ],
      [
        "▁dogru",
        -7.726768460834024
      ],
      [
        "▁duzeyde",
        -10.534306442045482
      ],
      [
        "270",
        -10.442777589670378
      ],
      [
        "uldugunde",
        -11.578023082236813
      ],
      [
        "▁oykuleri",
        -11.03372838329086
      ],
      [
        "▁oranı",
        -8.958745578737574
      ],
      [
        "▁kontrolun",
        -11.12365990769377
      ],
      [
        "▁bak",
        -7.864937749033672
      ],
      [
        "▁hassas",
        -10.177944324361489
      ],
      [
        "▁hey",
        -10.79294304959681
      ],
      [
        "▁yigidi",
        -11.884571962819717
      ],
      [
        "▁kuba",
        -10.895882970324328
      ],
      [
        "madıgı",
        -10.251037301484699
      ],
      [
        "▁beklentisi",
        -11.385979213657317
      ],
      [
        "dir",
        -6.051096502687699
      ],
      [
        "▁sebepler",
        -10.382549350642336
      ],
      [
        "▁itis",
        -11.399767800336505
      ],
      [
        "▁odedigim",
        -8.537147497354777
      ],
      [
        "▁insa",
        -9.230793794000835
      ],
      [
        "▁kuvvetli",
        -9.882490007008416
      ],
      [
        "▁edersin",
        -11.33793563130494
      ],
      [
        "▁olacak",
        -10.653978238680095
      ],
      [
        "▁kumas",
        -9.203930076891297
      ],
      [
        "▁dogma",
        -10.58738599865829
      ],
      [
        "▁alarm",
        -11.378606140889685
      ],
      [
        "miz",
        -10.62968147525379
      ],
      [
        "▁yapildi",
        -10.040995209706665
      ],
      [
        "▁kasket",
        -11.03895007009904
      ],
      [
        "▁sallaya",
        -10.568903023871986
      ],
      [
        "▁kokain",
        -11.2504675371644
      ],
      [
        "t",
        -8.962720578188764
      ],
      [
        "▁artı",
        -10.845610044832313
      ],
      [
        "▁vuruldu",
        -11.487639279619325
      ],
      [
        "▁97.",
        -13.250737007604716
      ],
      [
        "▁dalga",
        -9.395850467137166
      ],
      [
        "▁gitme",
        -10.026689837281971
      ],
      [
        "▁dun",
        -7.723400918697454
      ],
      [
        "▁indirdi",
        -10.678899079923848
      ],
      [
        "▁mag",
        -11.278689695298239
      ],
      [
        "▁getirmek",
        -10.181953328845909
      ],
      [
        "▁fund",
        -10.892909038458402
      ],
      [
        "▁ascı",
        -10.915535211592397
      ],
      [
        "▁sınırlar",
        -11.232310327186953
      ],
      [
        "▁babasın",
        -11.140471192689889
      ],
      [
        "▁bogur",
        -11.375807185290522
      ],
      [
        "▁60000",
        -11.506607993420237
      ],
      [
        "▁sevin",
        -10.338346607715941
      ],
      [
        "▁duzene",
        -11.197578669781764
      ],
      [
        "▁acab",
        -9.54936010045249
      ],
      [
        "▁sansı",
        -10.20817562317243
      ],
      [
        "▁mikro",
        -10.94492545402661
      ],
      [
        "▁oturdu",
        -9.620435244459635
      ],
      [
        "▁espri",
        -11.335329423166272
      ],
      [
        "▁proje",
        -9.27158160122475
      ],
      [
        "▁caddesi'n",
        -11.536363528295492
      ],
      [
        "▁bozgun",
        -11.696413533764416
      ],
      [
        "▁gormuyor",
        -10.388045051054501
      ],
      [
        "▁muhendislik",
        -11.052107265509745
      ],
      [
        "▁ceki",
        -9.692873627992386
      ],
      [
        "▁amoco",
        -11.884571754192196
      ],
      [
        "iyorum",
        -9.321304058094817
      ],
      [
        "▁sarsıldı",
        -11.883398227214121
      ],
      [
        "▁arasında",
        -6.601390333816963
      ],
      [
        "▁nitelikte",
        -11.140323126104349
      ],
      [
        "▁sak",
        -9.207539794145411
      ],
      [
        "▁kosk",
        -10.17706238071001
      ],
      [
        "▁sırtında",
        -9.788489690894806
      ],
      [
        "▁ideal",
        -9.304648419227409
      ],
      [
        "ey",
        -9.518814397175884
      ],
      [
        "▁odemeleri",
        -10.55886393930898
      ],
      [
        "▁kendileri",
        -8.465864262322565
      ],
      [
        "▁kin",
        -10.582734647735162
      ],
      [
        "2,",
        -13.441622079226361
      ],
      [
        "le",
        -6.62633018119359
      ],
      [
        "▁mukellef",
        -11.006720157187587
      ],
      [
        "▁p",
        -12.931071006350244
      ],
      [
        "▁sohret",
        -10.633844204147355
      ],
      [
        "▁dinliyordu",
        -11.046503714453102
      ],
      [
        "▁tartı",
        -11.156242082247255
      ],
      [
        "▁baslattı",
        -10.800121252014138
      ],
      [
        "▁ikindi",
        -11.685984289501652
      ],
      [
        "▁baslayan",
        -9.411980248968787
      ],
      [
        "▁kucumse",
        -11.008569803442137
      ],
      [
        "▁ekinler",
        -11.265139577212807
      ],
      [
        "▁sinmis",
        -11.368519531985193
      ],
      [
        "▁milyon",
        -5.185931877072128
      ],
      [
        "▁3'un",
        -11.560178165199716
      ],
      [
        "▁191",
        -12.012039356403951
      ],
      [
        "cabuk",
        -11.515280874106748
      ],
      [
        "oz",
        -10.040994067949754
      ],
      [
        "▁avsar",
        -11.13908342881503
      ],
      [
        "▁merv",
        -10.811023905672563
      ],
      [
        "▁gununde",
        -10.65163794034489
      ],
      [
        "▁ettigimiz",
        -10.872838556117408
      ],
      [
        "▁izliyor",
        -10.042897925784217
      ],
      [
        "▁tarafını",
        -10.817753941821039
      ],
      [
        "▁cakal",
        -11.250096381093101
      ],
      [
        "▁saati",
        -9.77219248362667
      ],
      [
        "▁lig",
        -10.987940443525506
      ],
      [
        "▁yapıyor",
        -8.464794113439762
      ],
      [
        "▁parcalanmıs",
        -11.664939225764215
      ],
      [
        "▁yiyecek",
        -8.635403688288147
      ],
      [
        "▁riayet",
        -11.684587872092925
      ],
      [
        "▁secilmis",
        -10.881265303154324
      ],
      [
        "▁dama",
        -10.24884142041292
      ],
      [
        "▁konuy",
        -10.004419484465549
      ],
      [
        "▁olmadıgı",
        -11.387679692777276
      ],
      [
        "▁pu",
        -11.408164597291648
      ],
      [
        "▁kong'u",
        -11.542380539058485
      ],
      [
        "▁bombardıman",
        -11.684571374048284
      ],
      [
        "▁cuma",
        -7.950543075503483
      ],
      [
        "▁gıda",
        -9.940756126870333
      ],
      [
        "▁parası",
        -10.445897221451501
      ],
      [
        "▁bakmıs",
        -10.730652137878419
      ],
      [
        "▁dugun",
        -9.681401609619673
      ],
      [
        "▁14.00",
        -11.941379908695458
      ],
      [
        "▁cevrili",
        -10.891770672930456
      ],
      [
        "▁birden",
        -8.348344860080651
      ],
      [
        "▁hasarı",
        -10.527144821541745
      ],
      [
        "▁bezi",
        -10.895324550331633
      ],
      [
        "▁research",
        -11.884571078636942
      ],
      [
        "▁ihrac",
        -9.79499408908397
      ],
      [
        "7",
        -6.877042668686723
      ],
      [
        "▁ihracını",
        -11.812850301095423
      ],
      [
        "▁idi",
        -8.9590315568136
      ],
      [
        "▁12.9",
        -10.961399652101639
      ],
      [
        "▁onarım",
        -11.161520650212125
      ],
      [
        "▁f.",
        -10.654826239242496
      ],
      [
        "▁beraberinde",
        -11.392209373797458
      ],
      [
        "▁sıkıntı",
        -9.816352892054212
      ],
      [
        "▁alanlarda",
        -11.079890693374558
      ],
      [
        "▁alamadı",
        -10.831120392321123
      ],
      [
        "-g",
        -11.449350854100132
      ],
      [
        "▁olmuslardı",
        -11.175021401289126
      ],
      [
        "▁olayları",
        -11.181801929976169
      ],
      [
        "650000",
        -11.847657355143529
      ],
      [
        "▁tahsis",
        -10.864409382283059
      ],
      [
        "bende",
        -11.743428195795648
      ],
      [
        "▁bilgili",
        -10.87687941158128
      ],
      [
        "▁inter",
        -10.421002613405921
      ],
      [
        "▁ispanya",
        -11.138446453602878
      ],
      [
        "▁edilir",
        -9.798126144928363
      ],
      [
        "▁calma",
        -10.961462269844613
      ],
      [
        "▁ra",
        -9.245496693429814
      ],
      [
        "▁renkli",
        -9.342147194302026
      ],
      [
        "▁adil",
        -10.423544553041127
      ],
      [
        "▁bulusu",
        -10.901107440635773
      ],
      [
        "▁baltimore'",
        -7.803127708239543
      ],
      [
        "▁girme",
        -9.890694100912436
      ],
      [
        "▁yuvarla",
        -10.409381433629587
      ],
      [
        "▁eklen",
        -10.601990366733528
      ],
      [
        "▁donanma",
        -10.528381061292947
      ],
      [
        "▁ortaklık",
        -10.341075227236875
      ],
      [
        "▁sozcugunu",
        -11.701574264823845
      ],
      [
        "▁suleyman",
        -10.233613444968562
      ],
      [
        "▁sik",
        -10.74606479894654
      ],
      [
        "▁tayvan",
        -11.684571184128263
      ],
      [
        "▁gecirme",
        -10.096991019473194
      ],
      [
        "▁kaldırır",
        -11.524353680627005
      ],
      [
        "▁prof",
        -10.473518289957854
      ],
      [
        "▁belirsizligin",
        -11.834386843940555
      ],
      [
        "▁doları'",
        -11.499608668765527
      ],
      [
        "▁ucusunuz",
        -9.916079352156766
      ],
      [
        "18",
        -10.39890958852949
      ],
      [
        "▁surusu",
        -11.402368550832787
      ],
      [
        "▁belirlemek",
        -11.412402556668981
      ],
      [
        "▁gelmiyor",
        -10.372268946339952
      ],
      [
        "▁yemin",
        -10.606536350017452
      ],
      [
        "▁belirsiz",
        -10.095901468039523
      ],
      [
        "▁beklenti",
        -10.125961066310028
      ],
      [
        "gibi",
        -7.880345455995306
      ],
      [
        "▁sandalı",
        -11.448903108390075
      ],
      [
        "▁al",
        -7.454185406669947
      ],
      [
        "▁tasavvuf",
        -11.884571077957986
      ],
      [
        "ecek",
        -8.339244307499815
      ],
      [
        "▁yasar",
        -9.510357590287299
      ],
      [
        "▁len",
        -10.714756319584296
      ],
      [
        "▁yana",
        -9.534111522877149
      ],
      [
        "▁surdugu",
        -10.644679551625828
      ],
      [
        "▁degisti",
        -10.191230504592268
      ],
      [
        "▁konuları",
        -10.753258250396705
      ],
      [
        "▁rezervler",
        -11.586953153479035
      ],
      [
        "▁jfk'",
        -11.37504732309182
      ],
      [
        "395",
        -12.0098283577703
      ],
      [
        "yu",
        -11.899470773469833
      ],
      [
        "▁186",
        -13.584959829329627
      ],
      [
        "▁uy",
        -10.51201726317132
      ],
      [
        "▁goc",
        -9.597238672222094
      ],
      [
        "▁santaj",
        -11.250229236943127
      ],
      [
        "▁buruk",
        -11.139613023275228
      ],
      [
        "▁gelebilir",
        -10.532607136790949
      ],
      [
        "▁hi",
        -10.030483395779177
      ],
      [
        "▁nasıl",
        -7.623931581310321
      ],
      [
        "▁tadim",
        -10.024077180952343
      ],
      [
        "▁katibi",
        -10.948095097920538
      ],
      [
        "▁gecirir",
        -10.389552096453162
      ],
      [
        "▁istene",
        -11.33055154589852
      ],
      [
        "ous",
        -11.177067396506905
      ],
      [
        "▁misin",
        -6.959349652996774
      ],
      [
        "dordu",
        -13.63824665503071
      ],
      [
        "▁price",
        -11.25295005271213
      ],
      [
        "▁hostu",
        -11.515747375519451
      ],
      [
        "▁hissettigi",
        -11.33932660263995
      ],
      [
        "▁37.",
        -10.03985734593758
      ],
      [
        "3.",
        -10.847898938441242
      ],
      [
        "▁baslıyor",
        -9.431675672990043
      ],
      [
        "▁bakimli",
        -10.99328475136863
      ],
      [
        "▁yasiyor",
        -11.710084519638771
      ],
      [
        "▁buyuyu",
        -11.376808263567677
      ],
      [
        "▁danısmanı",
        -10.332449973663776
      ],
      [
        "lanmıs",
        -8.736788499685538
      ],
      [
        "sızın",
        -10.327846780123101
      ],
      [
        "▁erdogan'",
        -11.70349086270426
      ],
      [
        "▁alınacak",
        -10.814102432046894
      ],
      [
        "▁ocak'ta",
        -11.039675937996972
      ],
      [
        "▁vurusu",
        -11.039893086201523
      ],
      [
        "▁senato",
        -9.949988978787962
      ],
      [
        "▁alanı",
        -10.312052961584445
      ],
      [
        "▁tarzı",
        -10.589623438864393
      ],
      [
        "▁calısmıs",
        -11.012259174913098
      ],
      [
        "▁muzaffer",
        -11.038936159577233
      ],
      [
        "oglu",
        -9.166519936792621
      ],
      [
        "▁yorgunluk",
        -10.423367995224858
      ],
      [
        "▁esvap",
        -11.138942772856778
      ],
      [
        "▁giyi",
        -10.80203131458079
      ],
      [
        "lıyor",
        -8.441137311541215
      ],
      [
        "▁jupiter",
        -11.684571117393503
      ],
      [
        "▁katılmadı",
        -11.383699341566272
      ],
      [
        "▁reel",
        -11.690762732603533
      ],
      [
        "▁acılmasını",
        -11.170362467843937
      ],
      [
        "▁sis",
        -9.448297370895007
      ],
      [
        "▁atak",
        -10.728876794638934
      ],
      [
        "▁duskun",
        -10.309087800260308
      ],
      [
        "7.9",
        -11.552395972652063
      ],
      [
        "▁peyniri",
        -10.396336605990015
      ],
      [
        "2'y",
        -12.511473267206998
      ],
      [
        "▁730",
        -11.168832302420412
      ],
      [
        "▁tahviller",
        -9.024530919175737
      ],
      [
        "▁uysal",
        -11.375502129277042
      ],
      [
        "▁barikat",
        -11.517917611450024
      ],
      [
        "▁niyetliydi",
        -11.688267603641085
      ],
      [
        "ti",
        -8.056066862997
      ],
      [
        "▁sunumu",
        -11.265346393355301
      ],
      [
        "▁198",
        -13.999596592358095
      ],
      [
        "▁arar",
        -10.488467558481556
      ],
      [
        "▁ogretmen",
        -9.680259994812138
      ],
      [
        ".90",
        -11.836159574216744
      ],
      [
        "▁dikis",
        -10.597680786213475
      ],
      [
        "▁anlamında",
        -11.258730900105807
      ],
      [
        "▁dusurme",
        -11.122724265733071
      ],
      [
        "▁hemen",
        -7.602596281083057
      ],
      [
        "▁2.62",
        -10.627550140618016
      ],
      [
        "▁mit",
        -10.923711025785078
      ],
      [
        "▁%3",
        -11.575096299007598
      ],
      [
        "tı",
        -8.324715511985309
      ],
      [
        "▁ulasma",
        -10.009491744792431
      ],
      [
        "▁cevirmek",
        -11.3953805253193
      ],
      [
        "▁anda",
        -7.9502931012772615
      ],
      [
        "▁olanlar",
        -9.683112586395376
      ],
      [
        "▁gozun",
        -10.9081595930861
      ],
      [
        "ler",
        -5.3628346323259795
      ],
      [
        "▁katıldıgı",
        -11.275733442229274
      ],
      [
        "48",
        -10.060704301262783
      ],
      [
        "▁kavusma",
        -11.51797078291062
      ],
      [
        "▁tıka",
        -10.513581016920435
      ],
      [
        "▁kin",
        -13.71805057514021
      ],
      [
        "ralar",
        -13.750384794434947
      ],
      [
        "(",
        -6.128634380103216
      ],
      [
        "▁otorite",
        -10.787773550150416
      ],
      [
        "▁musterek",
        -11.038993309850877
      ],
      [
        "▁yatırımları",
        -10.731052780579978
      ],
      [
        "▁detaylar",
        -11.011225313051643
      ],
      [
        "▁kalkacak",
        -11.253105501205043
      ],
      [
        "▁haklı",
        -9.670325770801293
      ],
      [
        "ban",
        -10.581626276086205
      ],
      [
        "milyon",
        -8.648131795458136
      ],
      [
        "▁tanınma",
        -11.66774966099769
      ],
      [
        "▁bilgilendirme",
        -10.597608494492995
      ],
      [
        "▁uyanır",
        -11.6291356012575
      ],
      [
        "▁mudurlugu'n",
        -11.684847813279603
      ],
      [
        "▁kedi",
        -9.473888162890525
      ],
      [
        "▁herkes",
        -8.513570378213672
      ],
      [
        "▁ders",
        -9.468917009909028
      ],
      [
        ".93",
        -12.202966514485004
      ],
      [
        "tt",
        -12.355164252305343
      ],
      [
        "▁hindistan'da",
        -11.376372274328771
      ],
      [
        "▁117",
        -12.069761265862175
      ],
      [
        "▁haiz",
        -11.25359258538334
      ],
      [
        "▁bitiyor",
        -10.73376194334447
      ],
      [
        "▁pirzola",
        -11.517904413172104
      ],
      [
        "▁!",
        -9.510406401262049
      ],
      [
        "▁tet",
        -10.671101059222776
      ],
      [
        "▁gecmiste",
        -9.98871272990891
      ],
      [
        "▁duymadi",
        -11.171272696920846
      ],
      [
        "▁katma",
        -11.015720803144783
      ],
      [
        "▁omur",
        -9.972893522732862
      ],
      [
        "▁piyango",
        -10.948027155509132
      ],
      [
        "▁cıkarmaya",
        -10.436064922386608
      ],
      [
        "▁olunce",
        -11.149858622354618
      ],
      [
        "sızlık",
        -10.525570750837607
      ],
      [
        "▁sertifikaları",
        -11.38166013689032
      ],
      [
        "▁hizmetci",
        -10.331722466583685
      ],
      [
        "▁tanıma",
        -10.232267569654171
      ],
      [
        "▁kesin",
        -9.261749670478647
      ],
      [
        "▁5-1",
        -12.163675011319157
      ],
      [
        "▁sahi",
        -9.577592477676014
      ],
      [
        "festi",
        -11.562873930238975
      ],
      [
        "▁durmuyor",
        -11.68904325649912
      ],
      [
        "▁uzuntu",
        -10.343427453649593
      ],
      [
        "▁burustur",
        -11.444489717240199
      ],
      [
        "▁sevisme",
        -11.13896471818317
      ],
      [
        "▁ugrayacak",
        -11.547907000625852
      ],
      [
        "▁%",
        -6.30458812668807
      ],
      [
        "▁olcusu",
        -11.003183215485485
      ],
      [
        "▁za",
        -11.938950486359479
      ],
      [
        "▁dalyan",
        -11.52090251094582
      ],
      [
        "▁degisik",
        -10.166707793586069
      ],
      [
        "39",
        -10.362518549371337
      ],
      [
        "▁capa",
        -10.930707057434002
      ],
      [
        "▁gazeteni",
        -11.24128522541374
      ],
      [
        "▁iliskilerinde",
        -11.04293006945519
      ],
      [
        "▁send",
        -11.6069296483284
      ],
      [
        "ze",
        -8.795586233733452
      ],
      [
        "▁maraz",
        -11.519607255154737
      ],
      [
        "▁etmekte",
        -9.575896230045696
      ],
      [
        "ask",
        -9.890352443352278
      ],
      [
        "▁74",
        -10.261691646216736
      ],
      [
        ".66",
        -11.091398196399592
      ],
      [
        "▁harcıyor",
        -11.52983162109708
      ],
      [
        "▁hazırladıgı",
        -10.669893564360716
      ],
      [
        "%",
        -5.612064710322522
      ],
      [
        "▁hastalıkta",
        -11.641657710042072
      ],
      [
        "▁eriyor",
        -11.331580135475933
      ],
      [
        "▁provigo",
        -11.684571149720274
      ],
      [
        "▁arayı",
        -10.658872434333148
      ],
      [
        "▁sekreteri",
        -10.771948006474851
      ],
      [
        "▁bolgesel",
        -10.789444478804041
      ],
      [
        "dı",
        -8.385939154810046
      ],
      [
        "▁oldu",
        -6.531223105046648
      ],
      [
        "▁damak",
        -9.454759390360595
      ],
      [
        "▁birini",
        -7.9901088460014265
      ],
      [
        "▁kısıtlamalar",
        -11.446695955637917
      ],
      [
        "▁war",
        -11.514164116783567
      ],
      [
        "▁cizdi",
        -11.190325135264397
      ],
      [
        "▁krema",
        -11.16236732856655
      ],
      [
        "izim",
        -9.897634844120935
      ],
      [
        "▁milyarlık",
        -11.386945353631258
      ],
      [
        "▁eh",
        -10.189911943783022
      ],
      [
        "▁265",
        -10.460843441290223
      ],
      [
        "▁imis",
        -10.865325314580172
      ],
      [
        "▁union",
        -10.948259446527423
      ],
      [
        "▁bizde",
        -7.888273266411787
      ],
      [
        "▁han",
        -12.288339319828136
      ],
      [
        "▁yaradılıs",
        -10.948031526143044
      ],
      [
        "▁sunacak",
        -11.690122458747274
      ],
      [
        "▁yumu",
        -10.806277605283256
      ],
      [
        "luydu",
        -10.631864218083347
      ],
      [
        "▁gulumsuyor",
        -11.250051082380043
      ],
      [
        "▁%8.2",
        -11.92093857752505
      ],
      [
        "406",
        -11.406500311767763
      ],
      [
        "▁seyretti",
        -11.250288762830644
      ],
      [
        "▁phoenix'",
        -9.589571581847771
      ],
      [
        "42.7",
        -12.507945580748045
      ],
      [
        "▁recep'i",
        -11.198302355852679
      ],
      [
        "ho",
        -9.812970908969017
      ],
      [
        "▁soyut",
        -11.38038734648574
      ],
      [
        "▁kucuktu",
        -8.39924683221766
      ],
      [
        "▁delil",
        -11.133623721034883
      ],
      [
        "▁sesler",
        -10.072665616905336
      ],
      [
        "'da",
        -7.735900200020503
      ],
      [
        "▁hakkı",
        -9.064631348095741
      ],
      [
        "▁gelmis",
        -8.638508650371975
      ],
      [
        "▁bulunmus",
        -10.673074059583476
      ],
      [
        "▁smith",
        -10.11348522897719
      ],
      [
        "▁caresizlik",
        -11.189006099796055
      ],
      [
        "▁77",
        -9.84103054110708
      ],
      [
        "▁calısacagı",
        -11.42091425168405
      ],
      [
        "▁dikti",
        -10.629866991578714
      ],
      [
        "▁yarı",
        -8.496603737787378
      ],
      [
        "▁ihtiyacim",
        -11.10436534793081
      ],
      [
        "▁anlasma",
        -8.36951680798784
      ],
      [
        "man",
        -8.431904902435818
      ],
      [
        "▁abi",
        -10.299706115339289
      ],
      [
        "▁dostlar",
        -10.899309919045528
      ],
      [
        "98'de",
        -11.66572880454981
      ],
      [
        "/200",
        -12.83374725978908
      ],
      [
        "▁85",
        -10.185528823684125
      ],
      [
        "▁yıktı",
        -11.765931128299172
      ],
      [
        "▁ayag",
        -10.071462373013231
      ],
      [
        "3.95",
        -12.422629627950675
      ],
      [
        "▁makyaj",
        -11.884571202824386
      ],
      [
        "▁kahve",
        -8.335372321548085
      ],
      [
        "▁anti",
        -10.178463354068382
      ],
      [
        "takım",
        -9.95059004429594
      ],
      [
        "▁yorumlar",
        -10.628857830650176
      ],
      [
        "▁sersem",
        -10.865288957814418
      ],
      [
        "bus",
        -10.970106780024432
      ],
      [
        "▁oncu",
        -10.688114787994476
      ],
      [
        "▁leyla",
        -11.039610895245952
      ],
      [
        "▁cocukca",
        -11.193625703027688
      ],
      [
        "▁ber",
        -7.601397042744379
      ],
      [
        "▁sahnede",
        -10.949260538882978
      ],
      [
        "ra",
        -8.287921395973779
      ],
      [
        "▁pantolonu",
        -11.065252957610653
      ],
      [
        "▁kurtaj",
        -9.793424238407487
      ],
      [
        "76",
        -9.922494579454352
      ],
      [
        "▁sahne",
        -8.976744424935234
      ],
      [
        "▁dayana",
        -10.38237399194868
      ],
      [
        "▁sefi",
        -10.799481294668883
      ],
      [
        "▁zulu",
        -11.68528972903435
      ],
      [
        "▁giysi",
        -10.536011610359097
      ],
      [
        "▁aramızda",
        -10.42692835579172
      ],
      [
        "isini",
        -12.377684841478027
      ],
      [
        "▁derslerin",
        -10.82597610047541
      ],
      [
        "▁tezgahta",
        -11.665572978872508
      ],
      [
        "▁sozcuk",
        -10.700000077409292
      ],
      [
        "▁kısmet",
        -11.110170609609796
      ],
      [
        "▁elleri",
        -9.307110971240734
      ],
      [
        "▁nesil",
        -10.242617790099905
      ],
      [
        "▁ocak",
        -9.078870326819837
      ],
      [
        "lıkla",
        -9.533049336982616
      ],
      [
        "19",
        -11.864564628225486
      ],
      [
        "▁siyaset",
        -9.689361590024706
      ],
      [
        "▁servi",
        -10.845682969108095
      ],
      [
        "▁kaynaklana",
        -10.430916010676444
      ],
      [
        "se",
        -9.197145699308905
      ],
      [
        "▁bahis",
        -10.650077545604038
      ],
      [
        "▁4.9",
        -9.954181334929654
      ],
      [
        "▁personeller",
        -7.644247374483658
      ],
      [
        "▁soylenme",
        -11.574059125711706
      ],
      [
        "▁vermisti",
        -10.156940427193389
      ],
      [
        "▁iliskisi",
        -10.33990395459297
      ],
      [
        "0-1",
        -13.27225999513051
      ],
      [
        "▁sikintilar",
        -11.561429153409975
      ],
      [
        "▁edilmis",
        -9.486125913406553
      ],
      [
        "▁kopek",
        -9.419577817871563
      ],
      [
        "▁orhan",
        -10.569473065947037
      ],
      [
        "▁op",
        -10.468557496062312
      ],
      [
        "▁ustunde",
        -8.210179064565194
      ],
      [
        "▁kokteyl",
        -11.139050925911485
      ],
      [
        "▁havlular",
        -10.768855176813787
      ],
      [
        "▁olsun",
        -8.054451242134474
      ],
      [
        "▁iz",
        -9.654279382909937
      ],
      [
        "▁80",
        -9.245377230161239
      ],
      [
        "ger",
        -12.052612229920268
      ],
      [
        "▁acıklamada",
        -10.822418879505383
      ],
      [
        "▁red",
        -11.355009178495445
      ],
      [
        "▁yaratıklar",
        -11.684658708234696
      ],
      [
        "4",
        -9.705186155589438
      ],
      [
        "▁7.0",
        -12.36412408731888
      ],
      [
        "▁volkan",
        -10.948130936046581
      ],
      [
        "▁yasası",
        -10.17038953174093
      ],
      [
        "▁arabacı",
        -10.622564280567897
      ],
      [
        "aki",
        -13.122725153401502
      ],
      [
        "▁olamaz",
        -9.775185518160555
      ],
      [
        "▁sıfır",
        -10.887677905132326
      ],
      [
        "▁sahin",
        -10.367354634371669
      ],
      [
        "▁severi",
        -10.887838453428888
      ],
      [
        "▁saksı",
        -11.383228355914556
      ],
      [
        "▁torunları",
        -11.375267199985956
      ],
      [
        "▁derecede",
        -9.664792624555329
      ],
      [
        "▁gelisim",
        -10.670169219066329
      ],
      [
        "▁hazırlayı",
        -11.599245803743706
      ],
      [
        "▁ziya",
        -10.816140580534976
      ],
      [
        "▁gozle",
        -10.24676603264661
      ],
      [
        "ebilmek",
        -10.181728593538582
      ],
      [
        "▁yer",
        -7.398875124429111
      ],
      [
        "▁tehlike",
        -9.475047864482093
      ],
      [
        "▁levent",
        -10.94803103002614
      ],
      [
        "zul",
        -10.795265725531106
      ],
      [
        "▁morishita",
        -11.684571081860929
      ],
      [
        "▁egzersiz",
        -10.58717542181446
      ],
      [
        "▁yapiliyor",
        -11.68621395142122
      ],
      [
        "▁ozdemir",
        -11.03904686587899
      ],
      [
        "▁bagrıs",
        -11.173807036275614
      ],
      [
        "▁kazanacak",
        -11.384219253892196
      ],
      [
        "sak",
        -9.914315494545589
      ],
      [
        "▁aglama",
        -10.68958902253946
      ],
      [
        "▁toplantısında",
        -10.653822398780589
      ],
      [
        "▁ankara'y",
        -10.588454750028506
      ],
      [
        "▁irak",
        -9.728612929653625
      ],
      [
        "▁kısıtlamaları",
        -11.07504969012093
      ],
      [
        "▁gelmek",
        -10.306339991779323
      ],
      [
        "lerin",
        -10.512831345665763
      ],
      [
        "▁noktada",
        -10.217643132240172
      ],
      [
        "▁amerikalılar",
        -10.443301729899357
      ],
      [
        "▁yavas",
        -8.180968411798695
      ],
      [
        "▁ilisti",
        -11.05866637918216
      ],
      [
        "▁duvarlar",
        -10.154129983217826
      ],
      [
        "▁gungor",
        -11.138966171010797
      ],
      [
        "▁pınar",
        -11.138967738984556
      ],
      [
        "daki",
        -8.102305303600712
      ],
      [
        "dıklarını",
        -10.074534497994737
      ],
      [
        "▁ab'",
        -10.807040084056457
      ],
      [
        "▁prova",
        -11.13931256597585
      ],
      [
        "lamıslar",
        -11.229669924501154
      ],
      [
        "um",
        -13.769472380433772
      ],
      [
        "▁mensup",
        -11.677834977479527
      ],
      [
        "▁kampanya",
        -10.156713101846544
      ],
      [
        "▁kuzgun",
        -11.8845782034401
      ],
      [
        "▁mitchell",
        -10.00625061667315
      ],
      [
        "id",
        -9.765854115140304
      ],
      [
        "▁10",
        -10.536593156035671
      ],
      [
        "▁avukatlar",
        -10.059251553025438
      ],
      [
        "▁giy",
        -10.59323107477495
      ],
      [
        "▁haz",
        -10.710404876518538
      ],
      [
        "▁sarılmıs",
        -11.044496228796286
      ],
      [
        "42",
        -10.270328648458687
      ],
      [
        "▁ahlak",
        -9.662561902360768
      ],
      [
        "▁tedirgin",
        -10.865787649525812
      ],
      [
        "▁siparisini",
        -10.8713645725872
      ],
      [
        "▁2500",
        -12.622888353461258
      ],
      [
        "▁sepetleri",
        -11.549283913245201
      ],
      [
        "▁ibadet",
        -10.94803067426917
      ],
      [
        "▁aktarı",
        -11.660657168325114
      ],
      [
        "▁odulu",
        -11.072294140051516
      ],
      [
        "▁bur",
        -9.146654266687342
      ],
      [
        "▁1979",
        -9.957228283983179
      ],
      [
        "▁13000",
        -12.538095092534695
      ],
      [
        "▁yapma",
        -8.686461740237913
      ],
      [
        "▁sapma",
        -11.050447392490662
      ],
      [
        "▁cogunu",
        -11.10304509586577
      ],
      [
        "▁memo",
        -11.684970535796031
      ],
      [
        "▁tur",
        -7.6477957709449305
      ],
      [
        "▁esen",
        -10.971935060909932
      ],
      [
        "▁skandal",
        -11.008382640432595
      ],
      [
        "▁onu",
        -10.287172738235236
      ],
      [
        "ingers",
        -11.519472812483336
      ],
      [
        "▁zeynep",
        -11.250047268805394
      ],
      [
        "▁baker",
        -10.252142502086764
      ],
      [
        "▁kokusunu",
        -11.258137613541544
      ],
      [
        "▁doktoru",
        -10.825851844338787
      ],
      [
        "▁2.8",
        -9.839233028864449
      ],
      [
        "▁aynı",
        -7.408640532679983
      ],
      [
        "▁olanaklari",
        -8.896488614542601
      ],
      [
        "▁kaybedece",
        -11.57963537655664
      ],
      [
        "▁ozurlu",
        -11.140716632895488
      ],
      [
        "▁dovme",
        -11.375105226932796
      ],
      [
        "▁televizyonda",
        -10.955634824020649
      ],
      [
        "▁delege",
        -11.68459176530601
      ],
      [
        "▁fiyatı",
        -8.80974024280674
      ],
      [
        "▁dusunul",
        -10.249479208636245
      ],
      [
        "lerimiz",
        -9.405849517249809
      ],
      [
        "ılması",
        -9.815202986076905
      ],
      [
        "▁81",
        -10.673237713928257
      ],
      [
        "▁gosterile",
        -11.139251503159851
      ],
      [
        "0.2",
        -10.970584158999438
      ],
      [
        "▁anlasama",
        -11.685373361996078
      ],
      [
        "▁kus",
        -8.816370647640179
      ],
      [
        "▁yorgan",
        -11.324419511583653
      ],
      [
        "▁bankacılık",
        -10.424204448577104
      ],
      [
        "▁oscar",
        -11.884571621178104
      ],
      [
        "▁acmıstı",
        -10.817628236655464
      ],
      [
        "▁ilerleme",
        -10.135253734101253
      ],
      [
        "▁22.2",
        -11.972933500295673
      ],
      [
        "▁8.9",
        -10.558512057576548
      ],
      [
        "▁vurma",
        -10.437131434044321
      ],
      [
        "▁philadelphia'da",
        -8.22288768977852
      ],
      [
        "▁balo",
        -10.921156161392185
      ],
      [
        "▁lif",
        -10.278005817650307
      ],
      [
        "ı'nda",
        -10.828794797751145
      ],
      [
        "▁uygulanması",
        -11.864149323100465
      ],
      [
        "▁ortagı",
        -10.665142565791687
      ],
      [
        "▁mhp",
        -11.864496419379254
      ],
      [
        "▁yerel",
        -9.070125916590928
      ],
      [
        "likte",
        -9.555726180192401
      ],
      [
        "4.35",
        -11.037132191298365
      ],
      [
        "▁singapur",
        -11.884571079566289
      ],
      [
        "▁benzeye",
        -10.373061916705375
      ],
      [
        "▁cıkarma",
        -9.612656645184277
      ],
      [
        "ttigi",
        -10.872678843633619
      ],
      [
        "ımızda",
        -9.988748506528793
      ],
      [
        "▁dusmesin",
        -11.449816201986373
      ],
      [
        "▁12.0",
        -11.009849125258729
      ],
      [
        "liginiz",
        -11.387700097881435
      ],
      [
        "▁kanıt",
        -9.90697671543646
      ],
      [
        "▁teneffus",
        -11.88457108152126
      ],
      [
        "▁trans",
        -11.039019689171809
      ],
      [
        "isi",
        -12.023018297999444
      ],
      [
        "▁savcılıgın",
        -11.251876910820009
      ],
      [
        "84'",
        -12.522802640641878
      ],
      [
        "▁eski",
        -7.116889071776621
      ],
      [
        "▁kambur",
        -11.038943879026661
      ],
      [
        "▁belirttigim",
        -10.440243256662335
      ],
      [
        "▁ikibin",
        -10.531438624027286
      ],
      [
        "▁ayna",
        -9.318951403483567
      ],
      [
        "▁kullanıl",
        -9.92694825239786
      ],
      [
        "▁kullanabilir",
        -11.721232338967559
      ],
      [
        "▁actıgı",
        -10.443476801191661
      ],
      [
        "▁dinle",
        -10.183540588366606
      ],
      [
        "▁eserler",
        -11.199321260740577
      ],
      [
        "▁uzay",
        -10.074066258544343
      ],
      [
        "b",
        -11.061781342297014
      ],
      [
        "▁heyecanlandır",
        -11.716973274375485
      ],
      [
        "▁ilkeleri",
        -10.446340574905118
      ],
      [
        "0'",
        -10.190830371279542
      ],
      [
        "▁karsilasti",
        -11.684597990177238
      ],
      [
        "sındaki",
        -10.793823540976755
      ],
      [
        "▁sızdır",
        -11.250181477108459
      ],
      [
        "▁burusuk",
        -11.51806587048528
      ],
      [
        "unun",
        -11.316605384462493
      ],
      [
        "▁donanmıs",
        -11.518182966814878
      ],
      [
        "▁p",
        -8.75956362976312
      ],
      [
        "▁diyoruz",
        -11.080526760560359
      ],
      [
        "▁zı",
        -10.590106532882434
      ],
      [
        "▁fir",
        -10.400975024948599
      ],
      [
        "▁eri",
        -9.909095068494569
      ],
      [
        "▁yaka",
        -9.216191199891274
      ],
      [
        "▁dusuncesiz",
        -11.529361681267607
      ],
      [
        "▁ayrımın",
        -11.648515259747665
      ],
      [
        "▁koltuklar",
        -10.553223075366597
      ],
      [
        "▁profesoru",
        -10.94087615183827
      ],
      [
        "▁gel",
        -8.64109199162202
      ],
      [
        "▁anlatır",
        -10.26397925971206
      ],
      [
        "▁karıstır",
        -10.538562042351563
      ],
      [
        "▁ihtimalle",
        -11.228665934552492
      ],
      [
        "▁superdi",
        -9.276160334882373
      ],
      [
        "▁gonulsuz",
        -11.376892727053276
      ],
      [
        "▁ortme",
        -11.707308881941659
      ],
      [
        "▁esas",
        -9.434685636756308
      ],
      [
        "▁sahipleri",
        -9.677180814792997
      ],
      [
        "fı",
        -12.849601984454036
      ],
      [
        "▁united",
        -8.497588256508315
      ],
      [
        "▁boeing",
        -10.864699304584377
      ],
      [
        "▁giren",
        -9.851715454117386
      ],
      [
        "▁seckin",
        -11.140592064110349
      ],
      [
        "▁ha",
        -9.66166110685669
      ],
      [
        "ı",
        -6.612256086080283
      ],
      [
        "ell",
        -9.878541780516374
      ],
      [
        "▁tw",
        -11.358429155018184
      ],
      [
        "ba",
        -8.480276651713769
      ],
      [
        "▁260",
        -10.758500857706526
      ],
      [
        "▁scott",
        -11.51790453777987
      ],
      [
        "▁armagan",
        -10.587175800360813
      ],
      [
        "▁yarattıgı",
        -11.244903624146534
      ],
      [
        "▁hicbirin",
        -10.472486812302424
      ],
      [
        "▁bilgisayarları",
        -11.475104640229178
      ],
      [
        "samer",
        -11.106711281638756
      ],
      [
        "▁anketi",
        -10.544743505718545
      ],
      [
        "▁esti",
        -11.356924511976674
      ],
      [
        "▁15.",
        -10.281601801171426
      ],
      [
        "65",
        -9.675037765306437
      ],
      [
        "▁honecker",
        -11.884571279536257
      ],
      [
        "▁muste",
        -11.684614731208288
      ],
      [
        "▁tolga",
        -10.864694436779923
      ],
      [
        "▁17.",
        -11.633011072495462
      ],
      [
        "▁saldı",
        -11.501220906585505
      ],
      [
        "▁gorece",
        -10.879020402708955
      ],
      [
        "▁weis",
        -11.37515602333973
      ],
      [
        "▁2'y",
        -11.71419857750222
      ],
      [
        "▁pisti",
        -9.858101230735356
      ],
      [
        "▁bunaltı",
        -11.691230227795517
      ],
      [
        "▁montreal'",
        -9.666589466806975
      ],
      [
        "▁saclı",
        -10.428246560946233
      ],
      [
        "▁tro",
        -11.145354207418821
      ],
      [
        "▁bric",
        -11.528619486468884
      ],
      [
        "99.9",
        -12.066192593817782
      ],
      [
        "▁dokundu",
        -10.469844640377158
      ],
      [
        "▁guvercin",
        -11.13893619593753
      ],
      [
        "▁emperyalizm",
        -11.684595304984558
      ],
      [
        "▁hazırlanı",
        -9.958569127976395
      ],
      [
        "▁koylerde",
        -10.920260366934931
      ],
      [
        "▁fersah",
        -11.517906184158427
      ],
      [
        "mond",
        -11.519620813167373
      ],
      [
        "▁beyninde",
        -11.719465195221938
      ],
      [
        "▁soracak",
        -11.52321829978426
      ],
      [
        "▁kac",
        -8.335534243229048
      ],
      [
        "▁ogilvy",
        -11.375047268432084
      ],
      [
        "▁eglenme",
        -11.474900995692737
      ],
      [
        "▁aktiviteleri",
        -11.311137294055538
      ],
      [
        "▁2681.",
        -11.39091228448631
      ],
      [
        "▁uretiyor",
        -10.588666372380448
      ],
      [
        "▁onc",
        -10.23064915328516
      ],
      [
        "aj",
        -9.8878633012433
      ],
      [
        "▁bulguları",
        -11.051926449923563
      ],
      [
        "▁milyar",
        -9.170872449899473
      ],
      [
        "▁oykuler",
        -11.265546385899487
      ],
      [
        "▁alısveris",
        -9.338893832736971
      ],
      [
        "▁stateswest",
        -11.517904549496139
      ],
      [
        "yuzyirmi",
        -12.449394721064529
      ],
      [
        "ator",
        -10.656187482039492
      ],
      [
        "999",
        -12.475660594279974
      ],
      [
        "▁begenmedi",
        -8.608705616181421
      ],
      [
        "▁burbank'ta",
        -10.399261132737614
      ],
      [
        "▁olmasın",
        -9.518384270843681
      ],
      [
        "▁seviyede",
        -10.099511482715808
      ],
      [
        "▁fedakar",
        -11.243560203104478
      ],
      [
        "kendin",
        -11.193663348597468
      ],
      [
        "▁olmadigin",
        -11.529003422528222
      ],
      [
        "▁dover",
        -11.554225132222411
      ],
      [
        "▁vol",
        -10.937775247421534
      ],
      [
        "ım",
        -8.568093718523716
      ],
      [
        "▁2.94",
        -11.401950713224224
      ],
      [
        "▁ayrılmıs",
        -10.5876618215886
      ],
      [
        "▁mart'ta",
        -10.865320073266622
      ],
      [
        "▁1761",
        -11.362388341383486
      ],
      [
        "▁hostes",
        -11.685372932417106
      ],
      [
        "▁sureti",
        -10.87700578296251
      ],
      [
        "▁saglıgını",
        -11.098103680917722
      ],
      [
        "▁dikenli",
        -11.22525389909729
      ],
      [
        "▁paralarını",
        -11.042642567652322
      ],
      [
        "▁sarılı",
        -10.858117648501922
      ],
      [
        "▁%6",
        -11.436841391834095
      ],
      [
        "▁613",
        -12.445435831829037
      ],
      [
        "▁donusum",
        -10.782186996518128
      ],
      [
        "▁gur",
        -9.580046873170673
      ],
      [
        "▁ogret",
        -10.398024127553015
      ],
      [
        "i",
        -5.1408600564671385
      ],
      [
        "▁delmed",
        -11.375050806083447
      ],
      [
        "▁galiba",
        -9.468699685209897
      ],
      [
        "▁kapasite",
        -10.089741806082174
      ],
      [
        "▁ned",
        -11.092604470995095
      ],
      [
        "▁gelecegin",
        -11.1477497621877
      ],
      [
        "▁karmasası",
        -11.250426054411946
      ],
      [
        ".7",
        -13.316270462957048
      ],
      [
        "▁kemal'i",
        -10.865134946714896
      ],
      [
        "▁sıkma",
        -11.249571837136534
      ],
      [
        "▁giyim",
        -10.602155316387162
      ],
      [
        "vo",
        -10.460649879680432
      ],
      [
        "▁tıkı",
        -11.62525463851026
      ],
      [
        "▁oturuyor",
        -10.021012319506594
      ],
      [
        "lenecek",
        -10.828490969633254
      ],
      [
        "▁kaybetti",
        -9.535138821335222
      ],
      [
        "▁universitelerin",
        -11.559218610826237
      ],
      [
        "▁alınmasını",
        -11.75613294782417
      ],
      [
        "▁seytan",
        -10.381563722270743
      ],
      [
        "iyordu",
        -8.73540571575907
      ],
      [
        "▁ambalaj",
        -11.375047268626144
      ],
      [
        "▁la",
        -13.181468920718958
      ],
      [
        "os",
        -8.98060602728465
      ],
      [
        "▁dususun",
        -10.743428340709757
      ],
      [
        "▁basketbol",
        -11.250047270072876
      ],
      [
        "▁tahta",
        -8.9211862241735
      ],
      [
        "▁sundugu",
        -11.131132017696768
      ],
      [
        "▁hepiniz",
        -10.320468932913874
      ],
      [
        "▁vergisi",
        -10.126878567886012
      ],
      [
        "▁ugrastı",
        -10.90399137083
      ],
      [
        "▁isitme",
        -11.175611990684082
      ],
      [
        "bizler",
        -13.448966890662003
      ],
      [
        "▁kolunda",
        -10.810815067727265
      ],
      [
        "▁aktarma",
        -9.430768995576203
      ],
      [
        "9'da",
        -11.330388777632015
      ],
      [
        "▁keten",
        -10.868897393648993
      ],
      [
        "▁yetiskin",
        -10.864840634066404
      ],
      [
        "▁sehit",
        -11.13893832120727
      ],
      [
        "▁cıkarmıs",
        -10.601196060544003
      ],
      [
        "▁aydınlık",
        -9.974951446900713
      ],
      [
        "▁ayagında",
        -11.027527740560359
      ],
      [
        "▁endiselendir",
        -11.516621160419628
      ],
      [
        "an'ın",
        -10.772266426985198
      ],
      [
        "▁15.6",
        -10.626211328949374
      ],
      [
        "73",
        -10.807847826038392
      ],
      [
        "▁muteahhi",
        -11.517904416038801
      ],
      [
        "▁duygusunu",
        -10.873565466634433
      ],
      [
        "▁gucleri",
        -11.039013988087222
      ],
      [
        "▁faul",
        -11.686449659334805
      ],
      [
        "sal",
        -8.546132272182271
      ],
      [
        "▁asya",
        -10.704524683715919
      ],
      [
        "k",
        -4.773591637368394
      ],
      [
        "▁gecirdigi",
        -10.840177304811263
      ],
      [
        "▁bircogu",
        -11.038942607161767
      ],
      [
        "▁l.",
        -10.372057530303993
      ],
      [
        "▁meger",
        -9.113731181418167
      ],
      [
        "▁ıssız",
        -11.144142004279459
      ],
      [
        "▁pil",
        -11.444748362101619
      ],
      [
        "▁carpma",
        -11.778504535810887
      ],
      [
        "▁etmezse",
        -11.437914355010301
      ],
      [
        "▁broker",
        -11.520231765396689
      ],
      [
        "▁basınc",
        -10.947875539326485
      ],
      [
        "▁yayımlan",
        -11.82618652795549
      ],
      [
        "▁izol",
        -11.519440514744645
      ],
      [
        "ınız",
        -9.777037779984822
      ],
      [
        "▁tutuyor",
        -9.805451586501128
      ],
      [
        "lis",
        -9.660329209772302
      ],
      [
        "▁188",
        -12.092214393271451
      ],
      [
        "▁cosar",
        -11.619994580415083
      ],
      [
        "lerinden",
        -8.022326968403718
      ],
      [
        "▁evler",
        -10.158030590347984
      ],
      [
        "▁oglak",
        -11.517905017585681
      ],
      [
        "▁gunesli",
        -11.165966623839264
      ],
      [
        "▁yu",
        -10.27862175320274
      ],
      [
        "so",
        -8.893916647833626
      ],
      [
        "ring",
        -11.129026917173594
      ],
      [
        "▁sansur",
        -10.763714371348204
      ],
      [
        "▁dolar",
        -10.303909402179123
      ],
      [
        "▁kahramanlık",
        -11.548152733807024
      ],
      [
        "▁pehlivan",
        -11.68457107799899
      ],
      [
        "'t",
        -13.09022449722925
      ],
      [
        "sunuldu",
        -11.691539647573903
      ],
      [
        "eceksin",
        -10.79674048746046
      ],
      [
        "▁acılaca",
        -11.18605325595474
      ],
      [
        "'nda",
        -9.82564937588007
      ],
      [
        "▁degil",
        -5.112904891209204
      ],
      [
        "▁yuku",
        -10.423025694030668
      ],
      [
        "▁geldiginde",
        -10.660513506818925
      ],
      [
        "▁utangac",
        -11.038936375389214
      ],
      [
        "▁ayni",
        -9.085516207836235
      ],
      [
        "▁diregi",
        -10.948327976929129
      ],
      [
        "▁kesfetti",
        -11.684571161720726
      ],
      [
        "▁bankacılar",
        -10.817807038636065
      ],
      [
        "▁rivayet",
        -11.375047362119012
      ],
      [
        "▁masrafı",
        -11.008374010368113
      ],
      [
        "29",
        -10.00767818762964
      ],
      [
        "▁fiyatlandırma",
        -10.864747811983282
      ],
      [
        "▁kurek",
        -10.88205634939055
      ],
      [
        "▁9.6",
        -11.407858197054521
      ],
      [
        "▁yazdı",
        -9.834120199535315
      ],
      [
        "▁servet",
        -9.90947074213052
      ],
      [
        "▁muazzam",
        -10.716342084981312
      ],
      [
        "▁moda",
        -9.853259640336972
      ],
      [
        "▁atil",
        -11.411841261959443
      ],
      [
        "▁cizme",
        -10.734921831319514
      ],
      [
        "▁anlamadıgı",
        -11.593949875429262
      ],
      [
        "▁komisyonu'n",
        -11.366566214404072
      ],
      [
        "▁suat",
        -10.799760210913185
      ],
      [
        "▁yuzyıl",
        -9.7843029052638
      ],
      [
        "▁kelepce",
        -11.517904756601759
      ],
      [
        "▁sabırsız",
        -10.869046203438373
      ],
      [
        "ard",
        -10.883043407839319
      ],
      [
        "▁saglama",
        -10.766269685978155
      ],
      [
        "▁durdurdu",
        -10.955077821231429
      ],
      [
        "▁uni",
        -11.369497369764751
      ],
      [
        "▁toplumun",
        -10.335554848899605
      ],
      [
        "▁brothers",
        -10.649675423483322
      ],
      [
        "01.7",
        -12.940053664701857
      ],
      [
        "▁baksan",
        -10.937345419902282
      ],
      [
        "\"",
        -3.89364669064185
      ],
      [
        "▁7.2",
        -10.324098996964956
      ],
      [
        "▁hatta",
        -8.990497977725155
      ],
      [
        "▁alper",
        -11.375178708358488
      ],
      [
        "2.4",
        -11.170511993545482
      ],
      [
        "▁1500",
        -10.12598746051761
      ],
      [
        "▁izah",
        -11.038842227172783
      ],
      [
        "▁fujitsu",
        -11.51790525613673
      ],
      [
        "▁ucu",
        -9.239929097601554
      ],
      [
        "▁galileo",
        -11.884571126874683
      ],
      [
        "▁tart",
        -11.20877651139764
      ],
      [
        "▁yaptıkları",
        -10.238177174184678
      ],
      [
        "▁temmuz",
        -9.024450620695772
      ],
      [
        "25'",
        -10.823359569687367
      ],
      [
        "▁kuyumcu",
        -11.375075147305072
      ],
      [
        "▁platin",
        -11.684602655547112
      ],
      [
        "▁kavramlar",
        -10.969029919303246
      ],
      [
        "▁tarih",
        -8.656675597820726
      ],
      [
        "▁hut",
        -10.120661780920175
      ],
      [
        "▁emine",
        -10.466047127051286
      ],
      [
        "▁geciren",
        -10.95305852537527
      ],
      [
        "▁twa",
        -9.849853956437796
      ],
      [
        "▁yapılır",
        -9.779549006332786
      ],
      [
        "40",
        -9.130324045984203
      ],
      [
        "▁yetmez",
        -11.266688309183056
      ],
      [
        "▁ahenk",
        -11.273510937692974
      ],
      [
        "▁pasaport",
        -11.139182825337734
      ],
      [
        "▁semi",
        -11.022808364805908
      ],
      [
        "▁notlar",
        -10.912985747558007
      ],
      [
        "▁kemer",
        -10.192025670960874
      ],
      [
        "▁oyle",
        -7.644019549684665
      ],
      [
        "▁1150",
        -12.149073756967047
      ],
      [
        "▁itibariyle",
        -9.85048053040938
      ],
      [
        "kimse",
        -11.285020156233411
      ],
      [
        "ilgi",
        -12.056335754248282
      ],
      [
        "▁ets",
        -9.402435505390224
      ],
      [
        "▁milwaukee",
        -10.190291792502357
      ],
      [
        "▁lastik",
        -10.323319113145466
      ],
      [
        "▁dallarda",
        -11.571910507843645
      ],
      [
        "▁diplomasi",
        -11.52890586017321
      ],
      [
        "▁karıstırdı",
        -11.209619637314924
      ],
      [
        "▁yeryuzu",
        -11.362562851871116
      ],
      [
        "▁oluyordu",
        -9.520380584687874
      ],
      [
        "landırıldı",
        -11.49430790979951
      ],
      [
        "▁gosterir",
        -9.629580951847514
      ],
      [
        "4.",
        -11.419297140801532
      ],
      [
        "▁74.",
        -13.526999332831533
      ],
      [
        "▁eksen",
        -11.520606042987263
      ],
      [
        "▁canlı",
        -9.238513154025608
      ],
      [
        "▁parmagı",
        -10.767228038868353
      ],
      [
        "▁uzandı",
        -10.723648737156163
      ],
      [
        "▁09:",
        -12.335014820300929
      ],
      [
        "▁talihsiz",
        -11.051040491591879
      ],
      [
        "cher",
        -11.205531702714636
      ],
      [
        "▁analistler",
        -8.984233743568954
      ],
      [
        "▁alanları",
        -10.63999727038866
      ],
      [
        "▁olmek",
        -10.974494115208266
      ],
      [
        "▁filmlerde",
        -11.566783412190489
      ],
      [
        ".38",
        -10.174863679830818
      ],
      [
        ":",
        -10.233581573324944
      ],
      [
        "▁capitol",
        -11.884571299778665
      ],
      [
        "▁sadakat",
        -10.590785097625023
      ],
      [
        "▁evde",
        -8.565141447496224
      ],
      [
        "▁yerlerini",
        -11.12888672978064
      ],
      [
        "▁sansını",
        -11.143338147708295
      ],
      [
        "▁uzuldu",
        -11.143215657288053
      ],
      [
        "▁822",
        -12.152819727065237
      ],
      [
        "▁kalabalık",
        -9.42986050861407
      ],
      [
        "▁birebir",
        -11.375118044712046
      ],
      [
        "▁askeri",
        -9.067402551551353
      ],
      [
        "▁yontemi",
        -10.641993867360911
      ],
      [
        "uldugunu",
        -11.276519306053949
      ],
      [
        "▁kundak",
        -11.684636599653555
      ],
      [
        "nca",
        -7.4873843889171265
      ],
      [
        "▁secenegini",
        -11.839027388373964
      ],
      [
        "▁k",
        -8.455854659024745
      ],
      [
        "▁intihar",
        -10.37016504554076
      ],
      [
        "▁kooperatif",
        -11.684571077950178
      ],
      [
        "▁yedigi",
        -11.180958751997638
      ],
      [
        "▁komitesi",
        -10.090224851461333
      ],
      [
        "▁saatchi",
        -11.250091620179322
      ],
      [
        "72",
        -10.467610741066034
      ],
      [
        "▁78.6",
        -11.864947613191706
      ],
      [
        "dı",
        -6.77050149069339
      ],
      [
        "▁alayı",
        -10.706021513097156
      ],
      [
        "%9",
        -12.047781401844519
      ],
      [
        "▁iyi",
        -5.829961605872138
      ],
      [
        "▁saklay",
        -11.370328243234383
      ],
      [
        "▁farklılık",
        -10.17804150908651
      ],
      [
        "▁ilgisiz",
        -10.539557203521408
      ],
      [
        "▁so",
        -5.155031048800389
      ],
      [
        "▁1968",
        -11.07303410677848
      ],
      [
        "olan",
        -12.231164987071923
      ],
      [
        "y",
        -12.399764499659206
      ],
      [
        "▁yapardı",
        -10.600207649647832
      ],
      [
        "▁mesut",
        -10.322707456468114
      ],
      [
        "▁kimse",
        -7.5366357151794245
      ],
      [
        "▁kumes",
        -11.289281765083377
      ],
      [
        "▁kendimiz",
        -8.276308296546611
      ],
      [
        "▁1980'de",
        -11.684579903821783
      ],
      [
        "▁vasat",
        -10.277129228295617
      ],
      [
        "▁%2.",
        -13.027118981959273
      ],
      [
        "▁bulgaristan'",
        -11.41489159944247
      ],
      [
        "▁heyecanlı",
        -11.082224243565697
      ],
      [
        "▁etleri",
        -11.305332422062706
      ],
      [
        "’",
        -10.5871754180417
      ],
      [
        "▁depremin",
        -10.564983981399598
      ],
      [
        "ja",
        -10.179761929518149
      ],
      [
        "▁yarattı",
        -10.35831913564821
      ],
      [
        "▁yo",
        -11.690058468708534
      ],
      [
        "▁oturttu",
        -11.51791343408827
      ],
      [
        "▁arka",
        -8.812234473647875
      ],
      [
        "▁edildigi",
        -10.7016751368798
      ],
      [
        "▁sekeri",
        -10.862220650366835
      ],
      [
        "acaktı",
        -12.56003253610318
      ],
      [
        "▁rif",
        -11.690403878352154
      ],
      [
        "▁kıyıda",
        -11.378338756523515
      ],
      [
        "▁tartısıyor",
        -11.26365809039157
      ],
      [
        "▁alın",
        -9.044083344392305
      ],
      [
        "▁oldugunu",
        -6.925986782035644
      ],
      [
        "▁veriler",
        -10.675840687847113
      ],
      [
        "▁d.t.",
        -11.88457568926759
      ],
      [
        "▁securit",
        -10.472962460836069
      ],
      [
        "▁oglun",
        -10.877734664998584
      ],
      [
        "▁biber",
        -10.006299226585295
      ],
      [
        "▁secimlerin",
        -11.049388121122004
      ],
      [
        "▁kısım",
        -10.371609610145779
      ],
      [
        "▁ornegin",
        -10.438008453505091
      ],
      [
        "▁saklı",
        -10.774613017914719
      ],
      [
        "▁milyon",
        -8.45982882697918
      ],
      [
        "gi",
        -11.011931744369868
      ],
      [
        "▁atar",
        -9.882755060801818
      ],
      [
        "▁kehanet",
        -11.684573698078875
      ],
      [
        ",",
        -8.939206149754476
      ],
      [
        "kendi",
        -9.171575624838027
      ],
      [
        "9.1",
        -11.67436686352823
      ],
      [
        "▁kargo",
        -11.141231457355092
      ],
      [
        "▁edinmek",
        -11.185913744312115
      ],
      [
        "▁cevresini",
        -11.523873389119956
      ],
      [
        "▁almalı",
        -11.397551688439592
      ],
      [
        "▁yolun",
        -9.625636610787376
      ],
      [
        "▁serkan",
        -10.948520969631431
      ],
      [
        "▁pır",
        -9.196406829614833
      ],
      [
        "▁kazanan",
        -9.917035171213529
      ],
      [
        "▁sosyete",
        -11.51791687298124
      ],
      [
        "▁edilmesi",
        -9.683050550563364
      ],
      [
        "▁gaflet",
        -11.684755089041744
      ],
      [
        "▁kenet",
        -11.843145026469834
      ],
      [
        "▁sureci",
        -9.913884520421341
      ],
      [
        "▁uyuma",
        -10.992936557277691
      ],
      [
        "▁emir",
        -9.580593514040732
      ],
      [
        "▁dili",
        -9.65491259766117
      ],
      [
        "▁olmam",
        -10.87168545940772
      ],
      [
        "▁hasıl",
        -10.724607128192934
      ],
      [
        "▁yanda",
        -9.001510939564932
      ],
      [
        "▁okka",
        -10.788216650884026
      ],
      [
        "▁12'si",
        -11.684738455892143
      ],
      [
        "▁kol",
        -8.946888231674805
      ],
      [
        "halde",
        -9.641163348287575
      ],
      [
        "▁dolayısıyla",
        -9.87910654933808
      ],
      [
        "▁bang",
        -10.865125554728602
      ],
      [
        "▁reklamcılık",
        -11.685777472707665
      ],
      [
        "▁westchester",
        -10.006256269185567
      ],
      [
        "▁gaga",
        -11.569546415817989
      ],
      [
        "▁dille",
        -11.264590586311535
      ],
      [
        "▁kızıl",
        -10.12512594984047
      ],
      [
        "▁hissediyor",
        -10.431755871471207
      ],
      [
        "▁cansu",
        -11.150645474698704
      ],
      [
        "▁karsısın",
        -10.738242282741908
      ],
      [
        "ton",
        -8.632151549385586
      ],
      [
        "▁peki",
        -9.227525015614564
      ],
      [
        "▁cozme",
        -10.037494768507763
      ],
      [
        "▁savasta",
        -11.070906142090443
      ],
      [
        "▁sınıfın",
        -10.727910750400593
      ],
      [
        "▁yavrusunu",
        -11.698283495275893
      ],
      [
        "▁niyeti",
        -10.515390155697915
      ],
      [
        "▁akzo",
        -11.518553481838115
      ],
      [
        "▁43.3",
        -11.391927406466905
      ],
      [
        "▁davasını",
        -10.819227812139822
      ],
      [
        "4.5",
        -9.340653624415177
      ],
      [
        "▁",
        -5.958560948422613
      ],
      [
        "▁sapka",
        -10.177780997008362
      ],
      [
        "▁duzelt",
        -10.682272073598496
      ],
      [
        "37",
        -10.573098755786935
      ],
      [
        "▁bakır",
        -9.788956137243774
      ],
      [
        "▁silah",
        -8.944072876787583
      ],
      [
        "▁bakın",
        -9.441904974323624
      ],
      [
        "▁birimini",
        -11.16257017860907
      ],
      [
        "▁gidilebil",
        -10.637340079520705
      ],
      [
        "55",
        -9.92364904046065
      ],
      [
        "▁boya",
        -9.03260231408021
      ],
      [
        "▁b.",
        -10.534669146027632
      ],
      [
        "general",
        -11.681863750676698
      ],
      [
        "▁nadir",
        -9.826928459886682
      ],
      [
        "▁gizle",
        -10.549611993794077
      ],
      [
        "▁endeksi",
        -8.547032126597141
      ],
      [
        "▁gelirleri",
        -10.332022699387919
      ],
      [
        "▁to",
        -9.969749941193712
      ],
      [
        "▁kırıklıgı",
        -10.043227779985573
      ],
      [
        "▁karton",
        -10.65490771600198
      ],
      [
        "▁2.",
        -8.831592292554625
      ],
      [
        "reasur",
        -10.864999782687514
      ],
      [
        "▁gelisimi",
        -10.917458834169144
      ],
      [
        "▁gectik",
        -10.095330382047987
      ],
      [
        "▁so",
        -10.078102639526278
      ],
      [
        "▁verdigimiz",
        -10.012901961216869
      ],
      [
        "▁haddi",
        -11.044804122319912
      ],
      [
        "▁kararlı",
        -10.152329172621574
      ],
      [
        "▁kavur",
        -10.851830924966187
      ],
      [
        "▁ozel",
        -8.110840207723879
      ],
      [
        "▁haketmedi",
        -11.375387874005815
      ],
      [
        "▁stratejisi",
        -11.005131627696574
      ],
      [
        "▁sayı",
        -9.096592468940479
      ],
      [
        "▁davasında",
        -11.559579442193375
      ],
      [
        "cileri",
        -10.338936851705206
      ],
      [
        "▁buralar",
        -11.567227634872323
      ],
      [
        "▁ibra",
        -11.140358409293132
      ],
      [
        "▁tartısması",
        -11.604675198724594
      ],
      [
        "▁siparisleri",
        -10.982093623015288
      ],
      [
        "5.7",
        -10.318971386421392
      ],
      [
        "▁zorunlu",
        -9.76632697086075
      ],
      [
        "▁yılların",
        -10.48384375307268
      ],
      [
        "▁olmadi",
        -8.547439343102656
      ],
      [
        "▁yasamadi",
        -9.486046808218305
      ],
      [
        "▁incir",
        -10.955654211180967
      ],
      [
        "▁64",
        -10.361470440366226
      ],
      [
        "▁olan",
        -5.893163037954163
      ],
      [
        "▁garsonlar",
        -10.357197218485068
      ],
      [
        "ettin",
        -10.88692809040311
      ],
      [
        "▁dusur",
        -10.28031412408604
      ],
      [
        "▁1.27",
        -11.418254428855464
      ],
      [
        "▁odalarin",
        -10.489928305123387
      ],
      [
        "tim",
        -9.607730434773973
      ],
      [
        "amul",
        -11.384374072805475
      ],
      [
        "▁istedigini",
        -10.038335827188131
      ],
      [
        "▁cildi",
        -11.266055353234702
      ],
      [
        "▁temizliginde",
        -10.520334500626738
      ],
      [
        "▁burnu",
        -10.619519590435793
      ],
      [
        "▁hızla",
        -8.94155077586139
      ],
      [
        "uyor",
        -9.129580524973008
      ],
      [
        "▁saclarını",
        -9.927663491793451
      ],
      [
        "lendiril",
        -11.403315916966479
      ],
      [
        "▁179.",
        -12.377486565022162
      ],
      [
        "▁arabulucu",
        -11.684571138031073
      ],
      [
        "[PAD]",
        0.0
      ],
      [
        "▁gececegi",
        -11.377331952523576
      ],
      [
        "▁14.3",
        -11.581687633624767
      ],
      [
        "▁samar",
        -11.518900592286107
      ],
      [
        "gımız",
        -10.16022856775701
      ],
      [
        "▁oyma",
        -10.673472120821053
      ],
      [
        "▁st",
        -7.90657856632462
      ],
      [
        "biri",
        -9.770469848347837
      ],
      [
        "▁tatilimi",
        -11.683314278273448
      ],
      [
        "▁anladıgın",
        -11.774423585312778
      ],
      [
        "'un",
        -12.861690004086414
      ],
      [
        "▁393",
        -12.167031128623249
      ],
      [
        "▁tat",
        -10.537309354538385
      ],
      [
        "▁ugraya",
        -10.709678223017455
      ],
      [
        "▁fukara",
        -11.250052207557033
      ],
      [
        "et",
        -8.408681242335621
      ],
      [
        "▁yuz",
        -8.533282926357886
      ],
      [
        "▁verilmis",
        -10.95150256293176
      ],
      [
        "▁amr",
        -10.960400834866437
      ],
      [
        "ogr",
        -6.481195157006846
      ],
      [
        "▁askın",
        -11.009907253028587
      ],
      [
        "▁ha",
        -9.307055163899381
      ],
      [
        "▁dıs",
        -8.84800753336729
      ],
      [
        "▁sonuclarını",
        -10.427013335881979
      ],
      [
        "▁sempati",
        -11.240881862025834
      ],
      [
        "▁ekibi",
        -9.288042020080251
      ],
      [
        "▁uzmanlar",
        -10.507740121979822
      ],
      [
        "nden",
        -8.195440124162154
      ],
      [
        "▁yasama",
        -9.248832541612373
      ],
      [
        "la",
        -7.417516293723048
      ],
      [
        "▁jack",
        -11.374896399360766
      ],
      [
        "▁kimyasal",
        -9.940776166819177
      ],
      [
        "▁lubnan",
        -10.2336318219361
      ],
      [
        "▁giristi",
        -11.388231060977972
      ],
      [
        "▁marmara",
        -11.68457353604506
      ],
      [
        "▁yurtdısında",
        -10.888367751249444
      ],
      [
        "▁berkeley",
        -11.038936229478505
      ],
      [
        "▁6.23",
        -11.918677780991729
      ],
      [
        "▁degmedi",
        -11.463828364382277
      ],
      [
        "▁elbisesi",
        -11.359373688238598
      ],
      [
        "3.",
        -10.513810258441914
      ],
      [
        "▁forma",
        -10.723344768762495
      ],
      [
        "▁rumeli",
        -10.906812142986581
      ],
      [
        "▁0.1",
        -9.205788647950405
      ],
      [
        ".7",
        -10.126140513131103
      ],
      [
        "▁tavır",
        -9.801617336439582
      ],
      [
        "▁vo",
        -10.820806733589535
      ],
      [
        "▁bircogu",
        -11.17098014607284
      ],
      [
        "▁mcdonough",
        -11.6845710792709
      ],
      [
        "54000",
        -12.216780625760393
      ],
      [
        "▁onunu",
        -11.029184684393483
      ],
      [
        "▁bakma",
        -9.793582348189231
      ],
      [
        "▁omru",
        -10.74940038155793
      ],
      [
        "▁okut",
        -11.115860065465945
      ],
      [
        "▁kalkıs",
        -9.262205160860638
      ],
      [
        "▁ayse",
        -9.688837062690197
      ],
      [
        "▁koray",
        -11.519306292531233
      ],
      [
        "▁arız",
        -11.27212855375862
      ],
      [
        "▁bahse",
        -11.277277359395978
      ],
      [
        "▁gerceklesecek",
        -11.558912296977732
      ],
      [
        "▁sakız",
        -10.71697312880795
      ],
      [
        "▁mi",
        -6.260535099972343
      ],
      [
        "▁bolumunde",
        -10.33708222728823
      ],
      [
        "a",
        -4.043080061488052
      ],
      [
        "▁mukellefleri",
        -11.421930981595848
      ],
      [
        "▁yetkilileri",
        -8.826662501194908
      ],
      [
        "▁bri",
        -10.86427111358523
      ],
      [
        "▁penaltı",
        -11.68458521029967
      ],
      [
        "▁bilmedigi",
        -10.397333251641157
      ],
      [
        "yı",
        -6.426823794069718
      ],
      [
        "iston",
        -11.341221925739866
      ],
      [
        "▁kullanan",
        -10.590860682158377
      ],
      [
        "▁sayıyor",
        -11.606647237527755
      ],
      [
        "▁dedi",
        -6.689881042164196
      ],
      [
        "lardaki",
        -10.093999979225687
      ],
      [
        "▁yakaladı",
        -10.617345087397739
      ],
      [
        "▁yasaklama",
        -11.702316527653112
      ],
      [
        "▁odeyecek",
        -10.649758254979645
      ],
      [
        "▁hikayesi",
        -10.630927366736847
      ],
      [
        "▁dusmanca",
        -10.872459903144591
      ],
      [
        "▁time",
        -10.942497189860726
      ],
      [
        "▁kentte",
        -10.98083209136664
      ],
      [
        "▁1991'de",
        -10.791138249281179
      ],
      [
        "▁degistire",
        -10.881899828469887
      ],
      [
        "▁arkadasim",
        -9.943585641863962
      ],
      [
        "▁nasır",
        -11.375124363765856
      ],
      [
        "▁kulliyat",
        -11.684572900122987
      ],
      [
        "▁beceri",
        -10.734902732078945
      ],
      [
        "▁alkol",
        -9.79307916355856
      ],
      [
        "▁azaltma",
        -10.622881055933334
      ],
      [
        "▁teslimat",
        -11.046033411294722
      ],
      [
        "▁protein",
        -11.038990257542855
      ],
      [
        "▁agzında",
        -9.937794448280247
      ],
      [
        "▁nobetci",
        -10.589741202995533
      ],
      [
        "▁karnı",
        -10.61971675499315
      ],
      [
        "▁nu",
        -10.992992609370447
      ],
      [
        "▁ların",
        -10.358136211971258
      ],
      [
        "▁pazarlamacılar",
        -11.553707449937797
      ],
      [
        "▁vanilya",
        -11.684577170311037
      ],
      [
        "▁sorumlu",
        -9.448311748601325
      ],
      [
        "▁antikor",
        -11.684606122701238
      ],
      [
        "▁ni",
        -9.520211387890106
      ],
      [
        "▁seyin",
        -9.55918175837378
      ],
      [
        "446",
        -12.078731186965827
      ],
      [
        "▁operet",
        -11.685720297157967
      ],
      [
        "▁inkılap",
        -11.684571082526341
      ],
      [
        "▁eve",
        -7.965844383513764
      ],
      [
        "▁sarıldı",
        -10.581766474773747
      ],
      [
        "▁levazım",
        -11.684571101432244
      ],
      [
        "▁yalvar",
        -11.132493608221257
      ],
      [
        "▁ikisi",
        -9.31659590841573
      ],
      [
        "▁goruntu",
        -9.946888242118678
      ],
      [
        "▁moody",
        -11.861500706554231
      ],
      [
        "▁unvan",
        -10.948072448758344
      ],
      [
        "▁kullanmak",
        -10.497427743956436
      ],
      [
        "nuz",
        -12.308340603240111
      ],
      [
        "▁kıymetli",
        -11.258346628962528
      ],
      [
        "▁cır",
        -10.153730712352575
      ],
      [
        "▁uzaklıkta",
        -11.686100176798817
      ],
      [
        "▁olay",
        -9.229687260956297
      ],
      [
        "▁baskası",
        -12.350376644499805
      ],
      [
        "▁tanrı'",
        -10.267644524925258
      ],
      [
        "ilmis",
        -9.690666449296248
      ],
      [
        "ugru",
        -10.955149615535916
      ],
      [
        "▁atleti",
        -11.37414054382387
      ],
      [
        "▁lık",
        -9.145996749068345
      ],
      [
        "▁ya",
        -8.744701719877106
      ],
      [
        "▁baltimore",
        -9.222368330946516
      ],
      [
        "▁pasa",
        -9.135870080057419
      ],
      [
        "2.1",
        -10.060658786717287
      ],
      [
        "▁fonunu",
        -11.417230925888756
      ],
      [
        "yacagını",
        -10.88807801105941
      ],
      [
        "▁muhalifleri",
        -11.425749282191495
      ],
      [
        "▁sıfırlan",
        -11.645251565072723
      ],
      [
        "▁kaplama",
        -10.725821386214692
      ],
      [
        "▁kıyı",
        -9.375866852166372
      ],
      [
        "▁sal",
        -9.37076144401806
      ],
      [
        "▁karsılas",
        -10.552880581583842
      ],
      [
        "▁kabiliyetlerini",
        -11.88457522585763
      ],
      [
        "▁agır",
        -8.129110520839635
      ],
      [
        "▁pi",
        -9.307604595675265
      ],
      [
        "▁alternatif",
        -10.25260128093521
      ],
      [
        "▁restoranlar",
        -11.193852815402753
      ],
      [
        "▁marj",
        -10.72662609289405
      ],
      [
        "▁cıkarılması",
        -11.058493509647695
      ],
      [
        "▁mobil",
        -11.371110944388368
      ],
      [
        "▁travma",
        -11.259037832889554
      ],
      [
        "8",
        -9.824755423649044
      ],
      [
        "▁tuvaletler",
        -11.603398886198683
      ],
      [
        "▁23.2",
        -11.869086677489854
      ],
      [
        "▁co",
        -13.104072575544702
      ],
      [
        "▁oyna",
        -9.580396506607274
      ],
      [
        "▁yeni",
        -6.362760083003813
      ],
      [
        "▁jr",
        -11.323270173317798
      ],
      [
        "▁olmasın",
        -10.603549542040858
      ],
      [
        ":",
        -5.200922476649725
      ],
      [
        "▁cavusu",
        -11.544222459201423
      ],
      [
        "▁operator",
        -10.864761040659763
      ],
      [
        "▁umut",
        -9.452225635115763
      ],
      [
        "▁soluk",
        -9.623224831204142
      ],
      [
        "▁capraz",
        -10.948029334183168
      ],
      [
        "▁carsamba",
        -7.732949705660192
      ],
      [
        "▁asker",
        -9.317378548498816
      ],
      [
        "▁ilerle",
        -10.391768958494307
      ],
      [
        "▁13.6",
        -11.503214433874618
      ],
      [
        "▁birmingham",
        -11.884571096025773
      ],
      [
        "▁studyo",
        -11.035894699881887
      ],
      [
        "▁varlıklar",
        -10.154918852442014
      ],
      [
        "8.4",
        -11.642104699919583
      ],
      [
        "▁108.",
        -11.812018939816575
      ],
      [
        "▁binler",
        -10.07140731973856
      ],
      [
        "▁insanları",
        -9.267877646186445
      ],
      [
        "▁kos",
        -9.251603255816372
      ],
      [
        "▁acele",
        -9.766551908346603
      ],
      [
        "68",
        -10.318719612166488
      ],
      [
        "▁onceki",
        -8.32230946687766
      ],
      [
        "▁borsası'nda",
        -9.714517882623188
      ],
      [
        "▁asır",
        -10.426781654626492
      ],
      [
        "yo",
        -11.65058019635061
      ],
      [
        "besyuz",
        -10.872440776529665
      ],
      [
        "▁eser",
        -9.685980347469977
      ],
      [
        "▁acık",
        -7.727800879826037
      ],
      [
        "▁haberler",
        -10.559525943825456
      ],
      [
        "▁bulamayan",
        -11.685582787481442
      ],
      [
        "▁akın",
        -10.308923586282003
      ],
      [
        "▁pic",
        -10.97587110467007
      ],
      [
        "▁ofiste",
        -11.53946368685114
      ],
      [
        "feld",
        -11.175009099095213
      ],
      [
        "▁edilme",
        -10.494195412683771
      ],
      [
        "▁kagıt",
        -8.825997392392003
      ],
      [
        "▁imkansız",
        -10.949455099315074
      ],
      [
        "|",
        -12.809526790838989
      ],
      [
        "▁pavyon",
        -11.517904566000439
      ],
      [
        "▁kırıs",
        -10.509256603700612
      ],
      [
        "▁pantolon",
        -10.402740884175957
      ],
      [
        "▁gosterge",
        -10.593806260930615
      ],
      [
        "▁tebesir",
        -11.884571110037731
      ],
      [
        "6.87",
        -11.53725351811473
      ],
      [
        "▁anlamı",
        -10.360426724460456
      ],
      [
        "▁corba",
        -9.374662861652798
      ],
      [
        "▁girmez",
        -11.388284374745245
      ],
      [
        "7'",
        -11.341212595122197
      ],
      [
        "▁savunuyor",
        -11.139030304029312
      ],
      [
        "▁kule",
        -10.595286453964318
      ],
      [
        "▁kisiyi",
        -10.141223236038797
      ],
      [
        "▁markaları",
        -11.35076225826624
      ],
      [
        "ku",
        -7.404675337709749
      ],
      [
        "▁ayda",
        -9.887833592196277
      ],
      [
        "▁hacmi",
        -9.355026069505334
      ],
      [
        "▁benzer",
        -8.539506492458557
      ],
      [
        "▁istediklerini",
        -10.885795236382275
      ],
      [
        "▁geride",
        -10.08184688388632
      ],
      [
        "▁isık",
        -11.141417791007935
      ],
      [
        "▁nakliyeci",
        -11.569098176843978
      ],
      [
        "▁agaclarını",
        -11.07731377781051
      ],
      [
        "▁duzeltil",
        -11.011720650198214
      ],
      [
        "▁iran'",
        -11.63722732941051
      ],
      [
        "▁tutsu",
        -11.576239751752993
      ],
      [
        "▁fı",
        -10.30638076063471
      ],
      [
        "▁cubuk",
        -11.03894265091178
      ],
      [
        "▁dokulmus",
        -11.250319011576284
      ],
      [
        "▁fantezi",
        -11.250047926085374
      ],
      [
        "▁gerald",
        -11.684609470394697
      ],
      [
        "▁teklif",
        -8.305175857341426
      ],
      [
        "▁kırk",
        -10.430421267619124
      ],
      [
        "▁dum",
        -10.69703088588718
      ],
      [
        "▁aldıgı",
        -9.198364747263117
      ],
      [
        "▁iflas",
        -9.68936165997681
      ],
      [
        "▁yukselir",
        -10.87533685000071
      ],
      [
        "▁edilecekti",
        -11.645959833456075
      ],
      [
        "▁gunun",
        -9.811441281505797
      ],
      [
        "▁kuruyor",
        -11.095931680677435
      ],
      [
        "▁sporcu",
        -11.041346232318972
      ],
      [
        "▁cevirir",
        -10.973054243554843
      ],
      [
        "▁kendisini",
        -7.291834468436704
      ],
      [
        "▁kinde",
        -10.031918237920724
      ],
      [
        "▁federal",
        -8.54256988670621
      ],
      [
        "▁kacar",
        -10.868497199303022
      ],
      [
        "▁bahsetme",
        -11.218144140482096
      ],
      [
        "▁baglantı",
        -10.028190498538606
      ],
      [
        "▁kıraathane",
        -11.374978591393601
      ],
      [
        "▁tavuk",
        -10.04820419422182
      ],
      [
        "▁dovul",
        -11.375086886012609
      ],
      [
        "▁bulanık",
        -10.528426827198968
      ],
      [
        "▁yolculug",
        -11.301284682593405
      ],
      [
        "▁bayagı",
        -10.535951656952927
      ],
      [
        "▁gonlumu",
        -11.23267228893288
      ],
      [
        "yse",
        -9.990082592136982
      ],
      [
        "▁lehman",
        -10.233735203909003
      ],
      [
        "▁yazmak",
        -10.641314298254123
      ],
      [
        "▁isleme",
        -9.722607421490192
      ],
      [
        "▁aldi",
        -9.978573864485094
      ],
      [
        "▁yasemin",
        -10.948055435757675
      ],
      [
        "▁tıras",
        -10.322622276293522
      ],
      [
        "▁gevre",
        -11.375062675857414
      ],
      [
        "va",
        -8.936958804317523
      ],
      [
        "▁yılmaz",
        -10.852201755848027
      ],
      [
        "▁teknolojisini",
        -11.196615940277894
      ],
      [
        "▁savunma",
        -8.833021153870094
      ],
      [
        "▁bunu",
        -6.098683502847974
      ],
      [
        "▁mu",
        -6.543499151083323
      ],
      [
        "▁diyebilir",
        -11.581311937000452
      ],
      [
        "▁yara",
        -8.661984322972867
      ],
      [
        "▁bilimin",
        -10.342879035538456
      ],
      [
        "▁tutu",
        -9.52568047950525
      ],
      [
        "▁bi",
        -10.30847541658399
      ],
      [
        "▁ilkesi",
        -11.37399812596402
      ],
      [
        "onlu",
        -12.582079889221076
      ],
      [
        "▁kesk",
        -10.431597077804037
      ],
      [
        "▁bilincsiz",
        -11.69321027575679
      ],
      [
        "▁uzaklarda",
        -11.397451548938562
      ],
      [
        "▁arayan",
        -10.223574770795892
      ],
      [
        "▁ezgi",
        -11.37671384902551
      ],
      [
        "▁bankacılıgı",
        -11.52048399117336
      ],
      [
        "▁ait",
        -7.503221732766854
      ],
      [
        "▁hamil",
        -11.129341909572737
      ],
      [
        "▁cekingen",
        -11.518133960422833
      ],
      [
        "▁bini",
        -12.284974352898384
      ],
      [
        "▁ok",
        -9.786561725241313
      ],
      [
        "▁heves",
        -10.13033092728757
      ],
      [
        "727",
        -11.433653443827886
      ],
      [
        "60000",
        -11.542858205391934
      ],
      [
        "▁aldıkları",
        -11.122851880975432
      ],
      [
        "▁katılımı",
        -11.201468432529515
      ],
      [
        "▁yapamam",
        -11.038965717110447
      ],
      [
        "▁genel",
        -6.967532588512091
      ],
      [
        "▁far",
        -10.139912174588119
      ],
      [
        "▁290",
        -11.526630124910882
      ],
      [
        "▁mayonez",
        -11.884571340375212
      ],
      [
        "▁hafiye",
        -11.684571283181725
      ],
      [
        "▁harman",
        -10.528939681664218
      ],
      [
        "▁tesebbus",
        -10.587175567641193
      ],
      [
        "▁temizlenme",
        -10.795815395607812
      ],
      [
        "▁davalarda",
        -11.604352880001365
      ],
      [
        "▁yansıtma",
        -11.63264717416234
      ],
      [
        "likti",
        -10.965215544414932
      ],
      [
        "▁zur",
        -11.374642402559687
      ],
      [
        "▁parasız",
        -11.194622863348485
      ],
      [
        "▁yunak'",
        -11.518327821084053
      ],
      [
        "und",
        -11.216738477087835
      ],
      [
        "▁australia",
        -11.250047268430887
      ],
      [
        "▁mis",
        -10.01318207318766
      ],
      [
        "▁mort",
        -10.939344456987484
      ],
      [
        "▁paylar",
        -11.01749165812028
      ],
      [
        "yeni",
        -10.394683123914326
      ],
      [
        "▁atlanta",
        -8.562568888700014
      ],
      [
        "▁yapmakta",
        -11.12311372168918
      ],
      [
        "▁mucevher",
        -10.947659600976205
      ],
      [
        "▁susturu",
        -11.304015453056474
      ],
      [
        "▁kazanclar",
        -10.062699217206033
      ],
      [
        "▁utanc",
        -10.422067668399412
      ],
      [
        "▁altmıs",
        -9.585953801299627
      ],
      [
        "'li",
        -9.747621430289097
      ],
      [
        "▁hart",
        -11.582543927411797
      ],
      [
        "▁muddet",
        -10.370164793614268
      ],
      [
        "▁fırca",
        -10.421410167971786
      ],
      [
        "▁yiyecekler",
        -9.445591613037033
      ],
      [
        ".94",
        -11.237657506107197
      ],
      [
        "lerini",
        -6.926591779024867
      ],
      [
        "▁columbia",
        -11.105936073918002
      ],
      [
        "▁130000",
        -11.95980835275919
      ],
      [
        "▁teklifte",
        -11.395524577875987
      ],
      [
        "▁nusha",
        -10.948151852064868
      ],
      [
        "▁sıralar",
        -11.01845892607799
      ],
      [
        "ise",
        -9.285473386053635
      ],
      [
        "19.8",
        -11.748961241045887
      ],
      [
        "▁hurma",
        -11.253342942048704
      ],
      [
        "▁tutarı",
        -11.04438622793252
      ],
      [
        "▁kullanıldıgı",
        -11.561177854494819
      ],
      [
        "▁kıvır",
        -11.138766036985727
      ],
      [
        "▁ayırdı",
        -11.295371616104934
      ],
      [
        "▁zihin",
        -11.517662548581963
      ],
      [
        "▁sokma",
        -10.774543769875343
      ],
      [
        "nuz",
        -9.592449687501578
      ],
      [
        "▁bicare",
        -11.375057313851194
      ],
      [
        "▁biz",
        -5.694005228019038
      ],
      [
        "▁ihlal",
        -10.716342196495825
      ],
      [
        "kacı",
        -13.13123825291562
      ],
      [
        "▁kariyer",
        -10.233614653211813
      ],
      [
        "▁349",
        -11.633354544777555
      ],
      [
        "▁kandil",
        -10.950042315759186
      ],
      [
        "▁yapiyor",
        -10.833826429252813
      ],
      [
        "▁hizmette",
        -9.490325381021513
      ],
      [
        "▁dolasıyor",
        -10.71930685502235
      ],
      [
        "▁kurulması",
        -10.87114752493825
      ],
      [
        "▁babaları",
        -10.974325612944964
      ],
      [
        "▁catı",
        -9.781844738990733
      ],
      [
        "▁15",
        -7.200442600775433
      ],
      [
        "▁kacırıyor",
        -11.561774412120712
      ],
      [
        "▁fonu",
        -9.92348312239315
      ],
      [
        "▁hangisi",
        -11.30502578405156
      ],
      [
        "▁gunku",
        -9.09358029864784
      ],
      [
        "▁karakter",
        -9.972910906613498
      ],
      [
        "▁dalın",
        -10.897230975430174
      ],
      [
        "▁icat",
        -10.424646904620099
      ],
      [
        "mediler",
        -11.0907970690753
      ],
      [
        "▁okumus",
        -11.085779156081525
      ],
      [
        "atı",
        -11.610191654727192
      ],
      [
        "▁davranısları",
        -10.880040231284267
      ],
      [
        "▁kalırsa",
        -11.384841779470989
      ],
      [
        "▁20.4",
        -11.330307091249335
      ],
      [
        "▁evi",
        -9.071672541493001
      ],
      [
        "▁yanılt",
        -11.140994947853377
      ],
      [
        "▁fırlaya",
        -11.63735834325503
      ],
      [
        "▁somur",
        -10.970583567375268
      ],
      [
        "▁tahminler",
        -10.911546983985907
      ],
      [
        "▁ydi",
        -6.934268810392527
      ],
      [
        "▁limit",
        -10.86471958818018
      ],
      [
        "▁gorunur",
        -10.428753728093385
      ],
      [
        "▁isvicre",
        -10.888281214892036
      ],
      [
        "biz",
        -9.163017848330604
      ],
      [
        "▁x",
        -10.888953945579317
      ],
      [
        "nı",
        -7.704785680192857
      ],
      [
        "▁gunluk",
        -8.314949740132032
      ],
      [
        "▁tavan",
        -9.737005840306281
      ],
      [
        "▁ikna",
        -10.233624645602456
      ],
      [
        "tas",
        -10.25224321664771
      ],
      [
        "▁toprak",
        -9.217594923242372
      ],
      [
        "▁ateste",
        -10.838263920054306
      ],
      [
        "▁yakınında",
        -11.21127283551455
      ],
      [
        "▁alınır",
        -11.141893290035709
      ],
      [
        "▁sapkalı",
        -11.429423219174044
      ],
      [
        "sınız",
        -8.639496929738591
      ],
      [
        "▁payları",
        -10.683675573838334
      ],
      [
        "▁kıtlıgı",
        -11.517921002640655
      ],
      [
        "▁olmaktadır",
        -11.000527025100862
      ],
      [
        "siz",
        -9.00394392008749
      ],
      [
        "▁ilmi",
        -10.72246829411879
      ],
      [
        "▁boy",
        -9.382386474927383
      ],
      [
        "▁etkisini",
        -10.58221952231328
      ],
      [
        "▁demokratlar",
        -10.643618935211173
      ],
      [
        "▁yukledi",
        -11.331343297355259
      ],
      [
        "cor",
        -10.785167445912162
      ],
      [
        "▁boyu",
        -9.44465251913132
      ],
      [
        "ıncı",
        -11.384751340122493
      ],
      [
        "▁zannetti",
        -11.519724671461333
      ],
      [
        "▁listede",
        -11.724699160440393
      ],
      [
        "▁sogukkanlı",
        -11.038937962908905
      ],
      [
        "▁bulundugumuz",
        -11.686002517297817
      ],
      [
        "▁esyaları",
        -10.997983513457633
      ],
      [
        "▁duvarda",
        -10.402199801656602
      ],
      [
        "▁yankılan",
        -11.49418697821424
      ],
      [
        "▁emekli",
        -9.430906588482895
      ],
      [
        "▁yurt",
        -9.23955007175518
      ],
      [
        "▁seyrediyor",
        -10.78744462871362
      ],
      [
        "tan",
        -12.197977976852613
      ],
      [
        "▁315",
        -11.339967272597303
      ],
      [
        "▁lapa",
        -11.375957977769062
      ],
      [
        "▁1400",
        -12.660599974370802
      ],
      [
        "▁1.5",
        -8.706118280921128
      ],
      [
        "▁yuvarlandı",
        -11.545346084180888
      ],
      [
        "▁yana",
        -8.330958350015269
      ],
      [
        "▁serme",
        -11.501569325681643
      ],
      [
        "▁geldi",
        -7.1836233442115365
      ],
      [
        "▁salt",
        -8.610384982840058
      ],
      [
        "▁fransız",
        -9.390936221284583
      ],
      [
        "▁herkeste",
        -9.96599783763588
      ],
      [
        "▁5.0",
        -11.297107706535359
      ],
      [
        "▁kansas",
        -8.75099843323957
      ],
      [
        "▁cumlesi",
        -11.387684753841528
      ],
      [
        "▁kaval",
        -11.042569359845963
      ],
      [
        "▁metal",
        -10.328256293858113
      ],
      [
        "▁ikramiye",
        -11.140011152959033
      ],
      [
        "▁halletti",
        -11.68484121724447
      ],
      [
        "▁hissediyordu",
        -11.152571854158307
      ],
      [
        "▁45",
        -11.56991958847549
      ],
      [
        "▁uzan",
        -10.451402264167578
      ],
      [
        "▁ymıs",
        -9.626106262333561
      ],
      [
        "▁1970'",
        -11.821278764203289
      ],
      [
        "▁isti",
        -9.896054406934939
      ],
      [
        "▁1946",
        -10.893969732266738
      ],
      [
        "▁veriyor",
        -8.428868003637943
      ],
      [
        "▁kagıdı",
        -10.051000394479074
      ],
      [
        "▁fırsatta",
        -11.293327626436398
      ],
      [
        "layacak",
        -9.606823210607118
      ],
      [
        "▁istese",
        -11.460042932861615
      ],
      [
        "▁bedbaht",
        -11.684571078465419
      ],
      [
        "▁yazarların",
        -11.0239938151023
      ],
      [
        "▁2004",
        -10.069273962779134
      ],
      [
        "▁silme",
        -11.508461806674498
      ],
      [
        "▁arayısı",
        -10.910980024320345
      ],
      [
        "la",
        -6.209808105682422
      ],
      [
        "in",
        -6.123130189373411
      ],
      [
        "eri",
        -8.593642937284123
      ],
      [
        "▁anlatacagım",
        -10.865174668909269
      ],
      [
        "▁turuncu",
        -10.948698154450367
      ],
      [
        "▁attıgı",
        -10.162477792743308
      ],
      [
        "▁yonde",
        -10.46273302794634
      ],
      [
        "▁27.5",
        -11.224527615163908
      ],
      [
        "▁13",
        -11.871131575488326
      ],
      [
        "▁3.6",
        -9.569639768443997
      ],
      [
        "▁nefer",
        -11.266707140688204
      ],
      [
        "▁tipi",
        -9.281364095514625
      ],
      [
        "▁akse",
        -10.877614262115468
      ],
      [
        "▁latife",
        -11.138946845258529
      ],
      [
        "▁anlatamadı",
        -11.708447723506575
      ],
      [
        "sunlar",
        -13.189466135893024
      ],
      [
        "▁entari",
        -10.528518574619376
      ],
      [
        "▁cumhurbaskanı",
        -9.85522272567844
      ],
      [
        "▁azı",
        -9.848404558328545
      ],
      [
        "▁degerli",
        -9.651891685916913
      ],
      [
        "▁parla",
        -10.432345646249713
      ],
      [
        "ktan",
        -7.9865665114495945
      ],
      [
        "▁degerlendirilme",
        -11.098868476193429
      ],
      [
        "seni",
        -10.08042601038092
      ],
      [
        "▁mahfouz",
        -11.88457108019639
      ],
      [
        "▁olmadıgında",
        -11.68828592555643
      ],
      [
        "▁divan",
        -10.370231754233714
      ],
      [
        "hangi",
        -8.576513639657144
      ],
      [
        "▁kitaplarını",
        -11.461512071192093
      ],
      [
        "gide",
        -10.842106958864056
      ],
      [
        "▁durur",
        -11.510457288078449
      ],
      [
        "▁dolandırıcılık",
        -11.040291856364203
      ],
      [
        "▁karagoz",
        -11.250055164985696
      ],
      [
        "▁yapacagını",
        -10.117478377417125
      ],
      [
        "▁kanaat",
        -10.787872107912783
      ],
      [
        "▁gedik",
        -11.738757112883691
      ],
      [
        "▁belirledi",
        -11.488810563788448
      ],
      [
        "▁petrol",
        -8.71319915004465
      ],
      [
        "▁namuslu",
        -11.376517859000877
      ],
      [
        "20",
        -12.693313178038208
      ],
      [
        "▁olacagını",
        -8.960332589929923
      ],
      [
        "tmek",
        -10.56969651093135
      ],
      [
        "▁28.3",
        -11.889888743112238
      ],
      [
        "▁hakiki",
        -10.787967057100161
      ],
      [
        "▁arkadasım",
        -10.267507051861019
      ],
      [
        "▁belirtiyor",
        -10.324890466391103
      ],
      [
        "▁cehennem",
        -10.420164754179867
      ],
      [
        "7.00",
        -12.626952273367126
      ],
      [
        "▁h",
        -11.551346784897675
      ],
      [
        "▁arabalar",
        -9.927302288787795
      ],
      [
        "▁gorusunu",
        -11.398785819657705
      ],
      [
        "▁1925",
        -10.711517892978723
      ],
      [
        "▁bunal",
        -10.728056342942404
      ],
      [
        "liydi",
        -8.790946073730272
      ],
      [
        "▁minneapolis",
        -11.227148778614875
      ],
      [
        "▁ovdu",
        -11.52266744017522
      ],
      [
        "▁cıkısı",
        -10.676524231504366
      ],
      [
        "▁129.6",
        -11.553098595959375
      ],
      [
        "unc",
        -6.804290499659833
      ],
      [
        "alty",
        -11.68607553003816
      ],
      [
        "▁elim",
        -10.071131107128352
      ],
      [
        "2'de",
        -11.381561558722504
      ],
      [
        "▁bakıyor",
        -9.272145634345195
      ],
      [
        "mamıstı",
        -10.815348359815115
      ],
      [
        "'daki",
        -9.138146937551333
      ],
      [
        "▁olanakları",
        -9.818725912366693
      ],
      [
        "ıcı",
        -9.093639882012788
      ],
      [
        "▁bos",
        -8.477897368085824
      ],
      [
        "▁sukr",
        -11.264208487236818
      ],
      [
        "▁beyan",
        -10.108295987594458
      ],
      [
        "▁olagan",
        -10.64986660896758
      ],
      [
        "▁ogretmenim",
        -10.731565363638182
      ],
      [
        "▁bekledigimiz",
        -11.041499110175833
      ],
      [
        "▁lloyd",
        -11.541597938878185
      ],
      [
        "▁deneyimi",
        -11.342999015174739
      ],
      [
        "▁deyi",
        -9.56987756966882
      ],
      [
        "▁hasret",
        -10.52857558676838
      ],
      [
        "▁siparisler",
        -11.153257206893958
      ],
      [
        "▁arınc",
        -11.865400116024839
      ],
      [
        "▁ticarette",
        -9.535734315595368
      ],
      [
        "▁kavra",
        -10.492657279838493
      ],
      [
        "▁550",
        -10.58675290347122
      ],
      [
        "▁yetim",
        -11.693364541776543
      ],
      [
        "▁fed",
        -10.29999673417652
      ],
      [
        "▁sovu",
        -11.123682350992835
      ],
      [
        "si'nde",
        -10.843192761202468
      ],
      [
        "▁hulya",
        -9.641166859451452
      ],
      [
        "cigdem",
        -11.271811599493553
      ],
      [
        "▁havalimanı",
        -10.704585757025956
      ],
      [
        "▁mekanizma",
        -11.5901515957649
      ],
      [
        "▁kileri",
        -10.216885740216068
      ],
      [
        "▁dusunme",
        -9.423087416554962
      ],
      [
        "▁mahkeme",
        -8.968010065017458
      ],
      [
        "▁partners",
        -11.332299155324176
      ],
      [
        "▁\"",
        -11.547583693406388
      ],
      [
        "ruh",
        -11.550674384290838
      ],
      [
        "▁yazarlar",
        -10.563310502784045
      ],
      [
        "▁yapar",
        -8.88709811754596
      ],
      [
        "▁fredd",
        -10.716739112265326
      ],
      [
        "▁meselesi",
        -10.22033276614457
      ],
      [
        "▁yavuz",
        -11.250051578773007
      ],
      [
        "▁hanım",
        -8.842327004691157
      ],
      [
        "▁ılımlı",
        -10.787770818644152
      ],
      [
        "932",
        -11.434124268325117
      ],
      [
        "▁getirme",
        -10.222137550354654
      ],
      [
        "▁chi",
        -10.652246833998985
      ],
      [
        "▁charles",
        -11.138951087419246
      ],
      [
        "▁olacagım",
        -10.928272505592677
      ],
      [
        "▁tutamıyor",
        -11.71600708583911
      ],
      [
        "▁hafıza",
        -10.795118384896135
      ],
      [
        "▁yollar",
        -10.02849223635053
      ],
      [
        "▁filan",
        -9.910097997158218
      ],
      [
        "▁japonya'",
        -10.200102454352633
      ],
      [
        "▁kulturu",
        -10.85301225276418
      ],
      [
        "▁belirtile",
        -10.922167581781153
      ],
      [
        "▁ureticiler",
        -10.785163193690066
      ],
      [
        "▁set",
        -10.58560502965127
      ],
      [
        "▁99.1",
        -10.582521126907109
      ],
      [
        "▁sıhhat",
        -11.139048969411025
      ],
      [
        "▁aradı",
        -10.545759492853586
      ],
      [
        "▁baltimore'de",
        -8.322975211257564
      ],
      [
        "▁borcunu",
        -10.655024691499559
      ],
      [
        "▁dell",
        -11.386749972073504
      ],
      [
        "▁istisna",
        -11.13894066042244
      ],
      [
        "▁urun",
        -9.377850149111488
      ],
      [
        "▁donuk",
        -9.984255263965496
      ],
      [
        "▁kaliteli",
        -8.591609880272333
      ],
      [
        "▁boyle",
        -11.656236266939322
      ],
      [
        "6'",
        -10.066810503907313
      ],
      [
        "▁tehlikeli",
        -10.417482497808294
      ],
      [
        "▁istedigimi",
        -10.488741157662163
      ],
      [
        "▁pazartesi",
        -7.9679445322864995
      ],
      [
        "▁iskoc",
        -11.884576353049193
      ],
      [
        "▁noksan",
        -11.375054865642568
      ],
      [
        "▁reklam",
        -9.072331699520007
      ],
      [
        "▁ulastırma",
        -10.971012994013101
      ],
      [
        "▁islam",
        -10.794341623549714
      ],
      [
        "▁bulutu",
        -11.274620586524737
      ],
      [
        "▁dokme",
        -11.371085646785815
      ],
      [
        "▁tesvik",
        -9.410994395058854
      ],
      [
        "bey",
        -10.684041131904888
      ],
      [
        "▁water",
        -11.519792741815895
      ],
      [
        "▁figur",
        -11.139162853841036
      ],
      [
        "▁hijyenik",
        -9.376643070095625
      ],
      [
        "▁kocaman",
        -9.430344530464794
      ],
      [
        "3",
        -9.610721383390596
      ],
      [
        "▁cıktılar",
        -10.572518088766174
      ],
      [
        "162",
        -13.587590570581122
      ],
      [
        "▁115",
        -10.738518260013485
      ],
      [
        "▁inanıyoru",
        -11.230586716192278
      ],
      [
        "▁kesti",
        -9.905694832107281
      ],
      [
        "mıslardı",
        -10.386062822612859
      ],
      [
        "▁yasam",
        -8.965739414704338
      ],
      [
        "▁cinliler",
        -11.50268095205905
      ],
      [
        "▁icim",
        -9.979500151991113
      ],
      [
        "▁masalı",
        -10.92316147239556
      ],
      [
        "▁rotar",
        -11.258403290461668
      ],
      [
        "▁edilmemis",
        -11.588078466501829
      ],
      [
        "▁average",
        -11.038936188919884
      ],
      [
        "▁evliligin",
        -11.27762607881316
      ],
      [
        "▁degistiriyor",
        -10.50735464977572
      ],
      [
        "▁puskul",
        -11.684581223800544
      ],
      [
        "▁faiz",
        -8.178953432763263
      ],
      [
        "miydi",
        -12.691765336723588
      ],
      [
        "▁belirtir",
        -11.501206421474722
      ],
      [
        "▁efsane",
        -10.501957149832567
      ],
      [
        "▁oturacak",
        -11.254568369534436
      ],
      [
        "▁bolgesinde",
        -10.5487370147757
      ],
      [
        "▁uste",
        -9.691119119616548
      ],
      [
        "▁adamı",
        -9.229095285810544
      ],
      [
        "▁hayatında",
        -10.929587950624642
      ],
      [
        "▁sustu",
        -10.626262488092994
      ],
      [
        "▁yuzyıllar",
        -11.206584774328423
      ],
      [
        "▁somurgeci",
        -11.684579395680517
      ],
      [
        "▁cogu",
        -7.787547373785652
      ],
      [
        "▁ma",
        -9.338411177648343
      ],
      [
        "▁yargı",
        -9.62591277648435
      ],
      [
        "▁bilgilendirilme",
        -10.5871875365423
      ],
      [
        "▁global",
        -11.375047268643804
      ],
      [
        "▁kıc",
        -10.811914129052942
      ],
      [
        "'lu",
        -11.96638956942524
      ],
      [
        "▁ordusunu",
        -11.158220659434427
      ],
      [
        "▁gostermek",
        -10.566775477712348
      ],
      [
        "▁boyama",
        -11.631702641633233
      ],
      [
        "▁bura",
        -9.543867932243385
      ],
      [
        "▁goturuyor",
        -11.228237454462086
      ],
      [
        "▁olma",
        -8.284917909112096
      ],
      [
        "▁verirler",
        -11.342327042947002
      ],
      [
        "▁saatini",
        -11.264217505835566
      ],
      [
        "baslı",
        -11.524784174932444
      ],
      [
        "▁dalları",
        -11.11751115741611
      ],
      [
        "▁gonderil",
        -9.975991982995222
      ],
      [
        "▁performansını",
[...]
