{
  "version": "1.0",
  "truncation": null,
  "padding": null,
  "added_tokens": [
    {
      "id": 2431,
      "content": "[SEP]",
      "single_word": false,
      "lstrip": false,
      "rstrip": false,
      "normalized": false,
      "special": true
    },
    {
      "id": 4054,
      "content": "[UNK]",
      "single_word": false,
      "lstrip": false,
      "rstrip": false,
      "normalized": false,
      "special": true
    },
    {
      "id": 5131,
      "content": "[MASK]",
      "single_word": false,
      "lstrip": false,
      "rstrip": false,
      "normalized": false,
      "special": true
    },
    {
      "id": 6598,
      "content": "[PAD]",
      "single_word": false,
      "lstrip": false,
      "rstrip": false,
      "normalized": false,
      "special": true
    },
    {
      "id": 6704,
      "content": "[CLS]",
      "single_word": false,
      "lstrip": false,
      "rstrip": false,
      "normalized": false,
      "special": true
    }
  ],
  "normalizer": {
    "type": "Sequence",
    "normalizers": [
      {
        "type": "NFD"
      },
      {
        "type": "Lowercase"
      },
      {
        "type": "StripAccents"
      }
    ]
  },
  "pre_tokenizer": {
    "type": "Sequence",
    "pretokenizers": [
      {
        "type": "Metaspace",
        "replacement": "▁",
        "prepend_scheme": "always",
        "split": true
      }
    ]
  },
  "post_processor": {
    "type": "TemplateProcessing",
    "single": [
      {
        "SpecialToken": {
          "id": "[CLS]",
          "type_id": 0
        }
      },
      {
        "Sequence": {
          "id": "A",
          "type_id": 0
        }
      },
      {
        "SpecialToken": {
          "id": "[SEP]",
          "type_id": 0
        }
      }
    ],
    "pair": [
      {
        "SpecialToken": {
          "id": "[CLS]",
          "type_id": 0
        }
      },
      {
        "Sequence": {
          "id": "A",
          "type_id": 0
        }
      },
      {
        "SpecialToken": {
          "id": "[SEP]",
          "type_id": 0
        }
      },
      {
        "Sequence": {
          "id": "B",
          "type_id": 1
        }
      },
      {
        "SpecialToken": {
          "id": "[SEP]",
          "type_id": 1
        }
      }
    ],
    "special_tokens": {
      "[CLS]": {
        "id": "[CLS]",
        "ids": [
          6704
        ],
        "tokens": [
          "[CLS]"
        ]
      },
      "[SEP]": {
        "id": "[SEP]",
        "ids": [
          2431
        ],
        "tokens": [
          "[SEP]"
        ]
      }
    }
  },
  "decoder": {
    "type": "Metaspace",
    "replacement": "▁",
    "prepend_scheme": "always",
    "split": true
  },
  "model": {
    "type": "BPE",
    "dropout": null,
    "unk_token": "[UNK]",
    "continuing_subword_prefix": null,
    "end_of_word_suffix": null,
    "fuse_unk": false,
    "byte_fallback": false,
    "ignore_merges": false,
    "vocab": {
      "one": 0,
      "▁%6": 1,
      "▁aldı": 2,
      "▁ceviz": 3,
      "▁hele": 4,
      "▁sch": 5,
      "▁yapmıs": 6,
      "dir": 7,
      "▁475": 8,
      "▁calısıyordu": 9,
      "▁isler": 10,
      "egi": 11,
      "izasyon": 12,
      "cesine": 13,
      "▁emek": 14,
      "▁gelecek": 15,
      "▁tepki": 16,
      "▁general": 17,
      "▁tex": 18,
      "▁gelirler": 19,
      "▁suret": 20,
      "▁tv": 21,
      "▁columbus": 22,
      "▁ocak": 23,
      "▁dekor": 24,
      "▁ankara": 25,
      "▁hafif": 26,
      "orth": 27,
      "▁vef": 28,
      "▁genc": 29,
      "▁iki": 30,
      "▁32": 31,
      "▁piyasaları": 32,
      "sızın": 33,
      "▁sif": 34,
      "acılıgı": 35,
      "▁olduguna": 36,
      "ap": 37,
      "ane": 38,
      "▁ilk": 39,
      "▁subay": 40,
      "▁om": 41,
      "▁verin": 42,
      "s": 43,
      "▁tartıs": 44,
      "▁oluyordu": 45,
      "alardan": 46,
      "▁dalı": 47,
      "▁newark'tan": 48,
      "▁kutur": 49,
      "▁chp": 50,
      "▁on": 51,
      "▁beklen": 52,
      "▁city": 53,
      "▁gar": 54,
      "▁ilave": 55,
      "▁bırakıp": 56,
      "▁siparis": 57,
      "▁21:00-22:30": 58,
      "▁kars": 59,
      "kanın": 60,
      "▁tabur": 61,
      "▁unit": 62,
      "▁olursa": 63,
      "▁yalap": 64,
      "mel": 65,
      "ene": 66,
      "▁ha": 67,
      "▁pu": 68,
      "m": 69,
      "▁hazırlık": 70,
      "▁pop": 71,
      "▁soyluyor": 72,
      "ga": 73,
      "▁car": 74,
      "▁kalkar": 75,
      "▁yoksul": 76,
      "ıyorlar": 77,
      "▁neye": 78,
      "▁birlikte": 79,
      "▁berbat": 80,
      "0.1": 81,
      "▁kaynak": 82,
      "ıp": 83,
      "▁karsil": 84,
      "▁islemlerinde": 85,
      "▁kendine": 86,
      "▁merk": 87,
      "▁gorulen": 88,
      "▁tef": 89,
      "▁cent": 90,
      "▁barda": 91,
      "isco": 92,
      "isiz": 93,
      "▁gorur": 94,
      "▁adım": 95,
      "lt": 96,
      "▁mıdır": 97,
      "ans": 98,
      "▁olabilirdi": 99,
      "▁kasır": 100,
      "▁sinem": 101,
      "▁%22": 102,
      "▁bana": 103,
      "▁gorul": 104,
      "▁mesel": 105,
      "'teki": 106,
      "▁taraftan": 107,
      "larının": 108,
      "▁dakika": 109,
      "▁kayıp": 110,
      "▁sogut": 111,
      "▁gidebilir": 112,
      "▁binbir": 113,
      "▁odeme": 114,
      "tik": 115,
      "▁cılgın": 116,
      "▁-": 117,
      "▁coc": 118,
      "▁unut": 119,
      "▁muhendis": 120,
      "▁84": 121,
      "▁konusuyor": 122,
      "sız": 123,
      "▁akıllı": 124,
      "▁sebeb": 125,
      "▁calısır": 126,
      "▁1979": 127,
      "92": 128,
      "▁8.5": 129,
      "▁bulun": 130,
      "▁0.7": 131,
      "cut": 132,
      "▁verg": 133,
      "larak": 134,
      "vert": 135,
      "tur": 136,
      "▁iyi": 137,
      "▁agırlık": 138,
      "▁temet": 139,
      "▁onları": 140,
      "▁yumurta": 141,
      "uzel": 142,
      "▁sahil": 143,
      "▁hayır": 144,
      "▁guver": 145,
      "▁tac": 146,
      "isti": 147,
      "▁urun": 148,
      "▁buradan": 149,
      "▁yapmaya": 150,
      "▁hanim": 151,
      "▁butun": 152,
      "▁kırmızı": 153,
      "uyorlar": 154,
      "▁400": 155,
      "andan": 156,
      "▁tedir": 157,
      "▁haline": 158,
      "▁vak": 159,
      "▁savur": 160,
      "elig": 161,
      "▁cig": 162,
      "ina": 163,
      "▁demokr": 164,
      "ay": 165,
      "▁havada": 166,
      "▁140": 167,
      "mu": 168,
      "▁destekli": 169,
      "▁isi": 170,
      "▁lideri": 171,
      "▁ser": 172,
      "ayarak": 173,
      "5": 174,
      ".19": 175,
      "▁uvey": 176,
      "des": 177,
      "usunun": 178,
      "▁hiz": 179,
      "▁corba": 180,
      "ız": 181,
      "pa": 182,
      "ese": 183,
      "aladı": 184,
      "▁cıg": 185,
      "▁cirkin": 186,
      "ende": 187,
      "▁eder": 188,
      "▁%50": 189,
      "imli": 190,
      "▁verir": 191,
      "bes": 192,
      "▁doksan": 193,
      "▁tasım": 194,
      "▁hayatını": 195,
      "▁degisimi": 196,
      "▁beyin": 197,
      "▁konum": 198,
      "▁sampiyon": 199,
      "am": 200,
      "uk": 201,
      "▁koy": 202,
      "▁yed": 203,
      "▁indianapolis'e": 204,
      "▁bolg": 205,
      "▁verim": 206,
      "▁must": 207,
      "iddet": 208,
      "▁lub": 209,
      "▁birik": 210,
      "▁asır": 211,
      "▁muzakere": 212,
      "▁kansas": 213,
      "dınız": 214,
      "▁bush": 215,
      "▁dusunuyor": 216,
      "▁bos": 217,
      "▁edin": 218,
      "▁18": 219,
      "▁ice": 220,
      "urlu": 221,
      "▁delikanlı": 222,
      "unda": 223,
      "▁kapan": 224,
      "▁bitti": 225,
      "▁birbiriyle": 226,
      "▁kulak": 227,
      "x": 228,
      "▁suyun": 229,
      "▁anlamak": 230,
      "▁rum": 231,
      "gele": 232,
      "▁nik": 233,
      "▁bosal": 234,
      "▁mudur": 235,
      "▁500": 236,
      "▁maliyetleri": 237,
      "graf": 238,
      "▁tipik": 239,
      "▁“": 240,
      "ori": 241,
      "▁acisindan": 242,
      "ith": 243,
      "toru": 244,
      "2-23": 245,
      "▁mich": 246,
      "idik": 247,
      "▁harp": 248,
      "co": 249,
      "▁gecip": 250,
      "▁tel": 251,
      "▁,": 252,
      "▁kalmadim": 253,
      "▁indi": 254,
      "▁sure": 255,
      "▁kendinde": 256,
      "▁toren": 257,
      "bakır": 258,
      "▁mik": 259,
      "▁%14": 260,
      "▁mesut": 261,
      "lamıs": 262,
      "yol": 263,
      "▁resmen": 264,
      "san": 265,
      "mıstı": 266,
      "▁men": 267,
      "'i": 268,
      "▁gonullu": 269,
      "▁cinsel": 270,
      "luydu": 271,
      "emmel": 272,
      "▁delta": 273,
      "▁gozuk": 274,
      "▁ark": 275,
      "▁4": 276,
      "▁nuf": 277,
      "▁muhaseb": 278,
      "▁sirket": 279,
      "▁iliskin": 280,
      "▁zor": 281,
      "amiz": 282,
      "▁merak": 283,
      "▁hava": 284,
      "▁gormez": 285,
      "▁sattı": 286,
      "osunda": 287,
      "▁temp": 288,
      "▁beyle": 289,
      "▁temmuz": 290,
      "▁ayın": 291,
      "mas": 292,
      "eden": 293,
      "▁toronto'dan": 294,
      "▁stand": 295,
      "isinden": 296,
      "▁dair": 297,
      "▁haber": 298,
      "▁tamamlan": 299,
      "▁sizinle": 300,
      "▁gerek": 301,
      "▁mısınız": 302,
      "▁ornek": 303,
      "▁demek": 304,
      "▁jose'ye": 305,
      "▁kalmak": 306,
      "▁yurum": 307,
      "▁kendisinin": 308,
      "▁sonuc": 309,
      "▁oyk": 310,
      "▁bet": 311,
      "liginde": 312,
      "▁west": 313,
      "▁fut": 314,
      "dırdı": 315,
      "▁dow": 316,
      "ımıza": 317,
      "▁gelin": 318,
      "▁sub": 319,
      "▁gıldır": 320,
      "▁olu": 321,
      "▁'de": 322,
      "▁bisiklet": 323,
      "ligine": 324,
      "▁rest": 325,
      "▁gerceklesti": 326,
      "▁midir": 327,
      "rika": 328,
      "▁duzen": 329,
      "ayıf": 330,
      "bac": 331,
      "▁durumda": 332,
      "▁sevg": 333,
      "▁dile": 334,
      "lamalar": 335,
      "▁odanin": 336,
      "▁sal": 337,
      "▁feder": 338,
      "▁alabilir": 339,
      "▁listele": 340,
      "▁sohbet": 341,
      "▁oldur": 342,
      "▁esas": 343,
      "diginiz": 344,
      "▁600": 345,
      "▁lung": 346,
      "bah": 347,
      ".03": 348,
      "yen": 349,
      "▁yusuf": 350,
      "mada": 351,
      "▁ettigi": 352,
      "▁personelin": 353,
      "er'in": 354,
      ",": 355,
      "▁a.b.": 356,
      "▁%0.3": 357,
      "▁munaseb": 358,
      "▁karmas": 359,
      "▁105": 360,
      "ide": 361,
      "▁kurtul": 362,
      "▁oglan": 363,
      "▁kısa": 364,
      "▁laf": 365,
      "▁komut": 366,
      "estir": 367,
      "▁kararsizim": 368,
      "▁metre": 369,
      "▁alarak": 370,
      "▁is": 371,
      "▁hayatta": 372,
      "▁tanrı": 373,
      "▁yumur": 374,
      "larıyla": 375,
      "▁acele": 376,
      "ris": 377,
      "▁vucut": 378,
      "▁italyan": 379,
      "▁inc.": 380,
      "▁yildiz": 381,
      "fa": 382,
      "▁belirt": 383,
      "▁fiyati": 384,
      "▁yılının": 385,
      "▁tutul": 386,
      "▁onune": 387,
      "likte": 388,
      "▁vegas'a": 389,
      "edir": 390,
      "▁gosterir": 391,
      "▁zayıf": 392,
      "▁kahr": 393,
      "▁epey": 394,
      "▁zincir": 395,
      "aturk": 396,
      "misler": 397,
      "▁john": 398,
      "stit": 399,
      "amadim": 400,
      "▁esi": 401,
      "onik": 402,
      "▁sayesinde": 403,
      "▁tazmin": 404,
      "▁dinlemek": 405,
      "ılmıs": 406,
      "iyel": 407,
      "▁inanıyor": 408,
      "▁pitt": 409,
      "ada": 410,
      "82": 411,
      "▁hepsini": 412,
      "gen": 413,
      "est": 414,
      "eye": 415,
      "▁bakanı": 416,
      "tir": 417,
      "siy": 418,
      "▁mah": 419,
      "▁am": 420,
      "▁dusunceler": 421,
      "▁bogaz": 422,
      "▁muzak": 423,
      "▁imalat": 424,
      "▁alman": 425,
      "▁yuregi": 426,
      "to": 427,
      "ental": 428,
      "▁universitesi": 429,
      "▁ur": 430,
      "▁cıkmıs": 431,
      "▁parc": 432,
      "▁yeni": 433,
      "lıgına": 434,
      "amadım": 435,
      "▁yatırımcılar": 436,
      "▁partiler": 437,
      "▁yapabil": 438,
      "▁seyin": 439,
      "▁kızgın": 440,
      "wn": 441,
      "elikle": 442,
      "endir": 443,
      "▁80": 444,
      "▁count": 445,
      "▁toparlan": 446,
      "▁elim": 447,
      "agon": 448,
      "ru": 449,
      "lım": 450,
      "▁yıgın": 451,
      "▁mac": 452,
      "▁oynat": 453,
      "▁yeteri": 454,
      "▁mak": 455,
      "▁nis": 456,
      "▁islet": 457,
      "▁goster": 458,
      "▁dalga": 459,
      "▁suyunu": 460,
      "▁pir": 461,
      "mayı": 462,
      "manın": 463,
      "▁kriz": 464,
      "▁istik": 465,
      "▁olusan": 466,
      "▁ma": 467,
      "▁fazlaydi": 468,
      "▁seniz": 469,
      "▁ulus": 470,
      "▁sis": 471,
      "▁deprem": 472,
      "▁avuk": 473,
      "▁ton": 474,
      "▁istedi": 475,
      "▁olma": 476,
      "▁kuzey": 477,
      "di": 478,
      "▁kul": 479,
      "urlar": 480,
      "▁fab": 481,
      "▁gunluk": 482,
      "▁1.25": 483,
      "lerini": 484,
      "▁caresiz": 485,
      ".6": 486,
      "ugu": 487,
      "▁br": 488,
      "▁pat": 489,
      "▁haziran'da": 490,
      "▁ev": 491,
      "▁zamandan": 492,
      "▁cin": 493,
      "b.": 494,
      "▁agustos'ta": 495,
      "▁donen": 496,
      "elerek": 497,
      "▁dondu": 498,
      "lukla": 499,
      "att": 500,
      "▁`": 501,
      "▁dusus": 502,
      "▁dul": 503,
      "▁fot": 504,
      "▁kon": 505,
      "▁yeterli": 506,
      "teki": 507,
      "cakt": 508,
      "baskan": 509,
      "▁davranıs": 510,
      "25": 511,
      "▁2008": 512,
      "▁takdir": 513,
      "▁kemik": 514,
      "▁cıl": 515,
      "▁acıkca": 516,
      "▁78": 517,
      "cular": 518,
      "▁%99": 519,
      "dıgında": 520,
      "▁od": 521,
      "ew": 522,
      "▁savası": 523,
      "▁gaz": 524,
      "▁bolgede": 525,
      "▁pacific": 526,
      "▁gosterebilir": 527,
      "▁bakalım": 528,
      "▁tok": 529,
      "▁ap": 530,
      "▁kıyas": 531,
      "lenir": 532,
      "▁gov": 533,
      "▁ihtim": 534,
      "▁kadınların": 535,
      "▁izledi": 536,
      "▁mum": 537,
      "▁kendime": 538,
      "▁3.8": 539,
      "▁hır": 540,
      "▁brit": 541,
      "▁tokyo": 542,
      "▁sozles": 543,
      "▁kun": 544,
      "▁odaydi": 545,
      "▁kredi": 546,
      "▁akıl": 547,
      "▁cek": 548,
      "▁soylen": 549,
      "▁ler": 550,
      "▁vasıt": 551,
      "▁yuzyıl": 552,
      "ilm": 553,
      "▁49": 554,
      "▁tuccar": 555,
      "isindan": 556,
      "▁1989-": 557,
      "▁gidis": 558,
      "▁nisan": 559,
      "kiz": 560,
      "▁merrill": 561,
      "▁%5.4": 562,
      "▁boylece": 563,
      "▁lık": 564,
      "▁soyluyorlar": 565,
      "▁dum": 566,
      "▁hisselerini": 567,
      "▁onsekiz": 568,
      "▁tahmin": 569,
      "▁142": 570,
      "▁ymis": 571,
      "ılmaz": 572,
      "▁american": 573,
      "▁salt": 574,
      "▁700": 575,
      "▁yoksun": 576,
      "▁kopr": 577,
      "eme": 578,
      "ızı": 579,
      "▁kirliydi": 580,
      "▁birisini": 581,
      "▁seref": 582,
      "▁rekor": 583,
      "seniz": 584,
      "▁cıkmaz": 585,
      "▁calar": 586,
      "▁gorduk": 587,
      "▁altından": 588,
      "▁nashville": 589,
      "▁cog": 590,
      "▁alıs": 591,
      "tık": 592,
      "▁tip": 593,
      "▁hızla": 594,
      "▁yasıyor": 595,
      "▁2.7": 596,
      "▁binlerce": 597,
      "yak": 598,
      "leyip": 599,
      "alandır": 600,
      "▁zey": 601,
      "▁gon": 602,
      "digini": 603,
      "▁sahiptir": 604,
      "f": 605,
      "▁cesitleri": 606,
      "edik": 607,
      "▁ucuncu": 608,
      "▁onemli": 609,
      "▁kimi": 610,
      "yle": 611,
      "▁ornegin": 612,
      "▁yandan": 613,
      "encer": 614,
      "▁dogr": 615,
      "▁daima": 616,
      "▁dieg": 617,
      "▁sad": 618,
      "▁isim": 619,
      "▁ilgilenmedi": 620,
      "▁mi": 621,
      "▁kasab": 622,
      "▁ruh": 623,
      "gılan": 624,
      "▁boyle": 625,
      "▁bık": 626,
      "▁oakland'a": 627,
      "▁ardından": 628,
      "▁dib": 629,
      "▁uz": 630,
      "▁hij": 631,
      "siniz": 632,
      "▁olmaktan": 633,
      "▁cıktı": 634,
      "▁neyin": 635,
      "▁cel": 636,
      "▁oldugun": 637,
      "ran": 638,
      "▁savun": 639,
      "▁hakk": 640,
      "asi": 641,
      "▁suresi": 642,
      "▁bicimde": 643,
      "▁tertemiz": 644,
      "▁kalabalikti": 645,
      "▁tetik": 646,
      "▁almanya": 647,
      "|": 648,
      "▁nerede": 649,
      "▁kasık": 650,
      "▁bardagı": 651,
      "▁tehdit": 652,
      "▁ulkemiz": 653,
      "▁cumhuriyeti": 654,
      "▁yayım": 655,
      "▁ilgisizdi": 656,
      "▁oldugumuz": 657,
      "▁tanım": 658,
      "distan": 659,
      "26": 660,
      "▁maas": 661,
      "kan": 662,
      "▁ekmek": 663,
      "▁basın": 664,
      "▁bod": 665,
      "▁donemi": 666,
      "▁payı": 667,
      "▁oteli": 668,
      "▁persembe": 669,
      "▁kaldı": 670,
      "▁sadece": 671,
      "▁yukselen": 672,
      "i": 673,
      "▁satısı": 674,
      "inc": 675,
      "▁yiy": 676,
      "▁diyarbakır": 677,
      "▁yemekleri": 678,
      "▁sırada": 679,
      "▁derli": 680,
      "▁eline": 681,
      "sim": 682,
      "▁bog": 683,
      "▁piyasa": 684,
      "▁catlak": 685,
      "▁kok": 686,
      "▁yakal": 687,
      "▁kahv": 688,
      "▁aynı": 689,
      "oker": 690,
      "▁a.": 691,
      "▁avrupa": 692,
      "▁edebiyat": 693,
      "▁katildim": 694,
      "▁basında": 695,
      "tia": 696,
      "olu": 697,
      "▁fiili": 698,
      "▁05.": 699,
      "dıgına": 700,
      "▁tom": 701,
      "▁sokakta": 702,
      "▁1000": 703,
      "▁tor": 704,
      "▁ilet": 705,
      "▁36": 706,
      "▁hic": 707,
      "▁yetistir": 708,
      "▁kisisel": 709,
      "▁750": 710,
      "▁tık": 711,
      "▁fonu": 712,
      "onel": 713,
      "▁gecer": 714,
      "▁dısında": 715,
      "▁itiraf": 716,
      "sunuz": 717,
      "ic": 718,
      "▁yay": 719,
      "cok": 720,
      "▁kompoz": 721,
      "▁dolayı": 722,
      "▁halkı": 723,
      "▁ucusun": 724,
      "▁gonder": 725,
      ";": 726,
      "▁istikrar": 727,
      "ki": 728,
      "▁temiz": 729,
      "allı": 730,
      "▁lik": 731,
      "▁icer": 732,
      "▁etmektedir": 733,
      "▁denen": 734,
      "▁miydi": 735,
      "▁ile": 736,
      "amanın": 737,
      "▁tehlik": 738,
      "▁birbucuk": 739,
      "▁sekil": 740,
      "▁neh": 741,
      "anet": 742,
      "cısı": 743,
      "uklu": 744,
      "▁ter": 745,
      "▁kategor": 746,
      "▁ph": 747,
      "▁curuk": 748,
      "agının": 749,
      "▁boyn": 750,
      "si": 751,
      "▁degistir": 752,
      "▁gorunce": 753,
      "▁baslayacak": 754,
      "▁bilet": 755,
      "▁girip": 756,
      "ilmez": 757,
      "▁pan": 758,
      "mey": 759,
      "▁incelem": 760,
      "▁istemez": 761,
      "mazdı": 762,
      "▁puan": 763,
      "▁biles": 764,
      "▁ayakk": 765,
      "▁hukumeti": 766,
      "▁meyv": 767,
      "asının": 768,
      "laya": 769,
      "bas": 770,
      "▁sayisi": 771,
      "▁ka": 772,
      "▁acıdan": 773,
      "▁kop": 774,
      "e": 775,
      "▁kısmı": 776,
      "▁gittikce": 777,
      "abilirdi": 778,
      "▁yuzden": 779,
      "ret": 780,
      "▁gorev": 781,
      "▁'d": 782,
      "▁siyasi": 783,
      "▁surat": 784,
      "▁ydik": 785,
      "▁yap": 786,
      "▁degillerdi": 787,
      "amayacagını": 788,
      "▁cocuklu": 789,
      "arken": 790,
      "▁ilginc": 791,
      "▁istedik": 792,
      "▁kitap": 793,
      "▁soyler": 794,
      "▁vek": 795,
      "▁geldim": 796,
      "▁hadi": 797,
      "▁tep": 798,
      "▁ince": 799,
      "▁hulya": 800,
      "kal": 801,
      "an": 802,
      "dog": 803,
      "▁mim": 804,
      "▁baglan": 805,
      "▁268": 806,
      "▁islerini": 807,
      "▁makin": 808,
      "▁ucusların": 809,
      "▁busbutun": 810,
      "▁olmuyor": 811,
      "▁tasarru": 812,
      "▁inc": 813,
      "tigini": 814,
      "▁ogretmen": 815,
      "fez": 816,
      "▁ahmet": 817,
      "ıyla": 818,
      "ee": 819,
      "aman": 820,
      "▁anda": 821,
      "▁yakında": 822,
      "▁kam": 823,
      "▁tek": 824,
      "▁diyerek": 825,
      "▁hizmet": 826,
      "▁her": 827,
      "▁alım-sat": 828,
      "biy": 829,
      "▁tev": 830,
      "▁ikincisi": 831,
      "siyon": 832,
      "ter": 833,
      "▁hatta": 834,
      "▁sehri": 835,
      "▁siv": 836,
      "▁detroit": 837,
      "▁%17": 838,
      "macı": 839,
      "▁continental": 840,
      "▁ettim": 841,
      "▁tak": 842,
      "▁telefonla": 843,
      "▁agrı": 844,
      "▁ber": 845,
      "ukee": 846,
      "gmen": 847,
      "▁ex": 848,
      "ecek": 849,
      "▁gayret": 850,
      "gis": 851,
      "▁maden": 852,
      "▁kez": 853,
      "▁senet": 854,
      "▁louis": 855,
      "▁yanı": 856,
      "9.3": 857,
      "▁yut": 858,
      "asyonu": 859,
      "▁mucadele": 860,
      "▁nar": 861,
      "▁gogsun": 862,
      "▁fokur": 863,
      "▁baslangıc": 864,
      "▁okur": 865,
      "▁komun": 866,
      "▁istiyordu": 867,
      "ark": 868,
      "▁yardım": 869,
      "▁fed": 870,
      "▁etmek": 871,
      "ıyoruz": 872,
      "▁hosuma": 873,
      "ich": 874,
      "▁zarf": 875,
      "kin": 876,
      "▁kadın": 877,
      "mez": 878,
      "▁atar": 879,
      "▁kemal": 880,
      "iza": 881,
      "▁rıhtım": 882,
      "▁cad": 883,
      "sil": 884,
      "▁cim": 885,
      "66": 886,
      "▁cizgi": 887,
      "▁gorustuk": 888,
      "▁yagm": 889,
      "▁yoluyla": 890,
      "▁marj": 891,
      "▁serp": 892,
      "▁soyledik": 893,
      "s'in": 894,
      "▁temizdi": 895,
      "▁kendisin": 896,
      "▁1991-19": 897,
      "tigi": 898,
      "▁taks": 899,
      "▁dı": 900,
      "▁dev": 901,
      "▁uzan": 902,
      "▁agac": 903,
      "▁herkese": 904,
      "'ne": 905,
      "kuz": 906,
      "▁gormek": 907,
      "▁pazar": 908,
      "▁nere": 909,
      "▁kavram": 910,
      "re": 911,
      "▁angel": 912,
      "▁net": 913,
      "▁det": 914,
      "▁cadır": 915,
      "▁gelgelelim": 916,
      "▁hicbir": 917,
      "▁al": 918,
      "▁sız": 919,
      "▁koyun": 920,
      "▁dusmus": 921,
      "▁kons": 922,
      "▁niye": 923,
      "▁191": 924,
      "▁ozellikle": 925,
      "▁istasyon": 926,
      "rah": 927,
      "▁traf": 928,
      "▁sarhos": 929,
      "▁mahkeme": 930,
      "▁pozisyon": 931,
      "yum": 932,
      "▁aksam": 933,
      "igini": 934,
      "esinden": 935,
      "▁birlestir": 936,
      "▁ise": 937,
      "▁paranin": 938,
      "▁muhafaz": 939,
      "las": 940,
      "▁sonucu": 941,
      "▁pers": 942,
      "▁francisco'ya": 943,
      "▁bufe": 944,
      "▁cekici": 945,
      "▁mevdu": 946,
      "▁geriye": 947,
      "ebilecegini": 948,
      "▁alcak": 949,
      "▁surec": 950,
      "▁kendimde": 951,
      "ist": 952,
      "fi": 953,
      "▁isra": 954,
      "lıyordu": 955,
      "okr": 956,
      "▁giderek": 957,
      "▁yanıt": 958,
      "▁tahta": 959,
      "▁ruy": 960,
      "▁donup": 961,
      "▁''": 962,
      "uydu": 963,
      "▁efendim": 964,
      "▁uzerinden": 965,
      "▁41": 966,
      "suz": 967,
      "▁biliyorum": 968,
      "▁cizg": 969,
      "▁birkac": 970,
      "▁bisik": 971,
      "▁david": 972,
      "▁verdi": 973,
      "▁olabilecegini": 974,
      "agın": 975,
      "▁and": 976,
      "▁isters": 977,
      "▁ek": 978,
      "ester": 979,
      "ehir": 980,
      "atın": 981,
      "▁yasa": 982,
      "▁polit": 983,
      "▁gelis": 984,
      "▁88": 985,
      "▁war": 986,
      "▁paul": 987,
      "▁ayrılıp": 988,
      "ng": 989,
      "▁guler": 990,
      "▁yas": 991,
      "paz": 992,
      "▁hitap": 993,
      "▁yurut": 994,
      "▁kıyafet": 995,
      "gimi": 996,
      "▁deli": 997,
      "▁alındı": 998,
      "▁mevz": 999,
      "▁raki": 1000,
      "ab": 1001,
      "▁tekrar": 1002,
      "esi": 1003,
      "uler": 1004,
      "▁houston": 1005,
      "▁ondan": 1006,
      "▁nasıl": 1007,
      "▁westchester": 1008,
      "▁yırt": 1009,
      "lass": 1010,
      "icileri": 1011,
      "▁nikah": 1012,
      "all": 1013,
      "▁alınması": 1014,
      "▁panik": 1015,
      "▁tarafından": 1016,
      "▁finanse": 1017,
      "landı": 1018,
      "inal": 1019,
      "og": 1020,
      "▁ciftlik": 1021,
      "▁kongr": 1022,
      "▁dusunmuyor": 1023,
      "uf": 1024,
      "▁kactı": 1025,
      "anci": 1026,
      "▁ragmen": 1027,
      "▁str": 1028,
      "▁geril": 1029,
      "▁kab": 1030,
      "▁karsıl": 1031,
      "▁taslar": 1032,
      "▁yerler": 1033,
      "▁kaldıgı": 1034,
      "▁biraz": 1035,
      "muyor": 1036,
      "▁ilisk": 1037,
      "▁kıy": 1038,
      "uh": 1039,
      "tex": 1040,
      "gil": 1041,
      "eet": 1042,
      "▁rej": 1043,
      "▁katkıda": 1044,
      "▁suren": 1045,
      "▁orn": 1046,
      "▁1999": 1047,
      "▁6": 1048,
      "▁merkezli": 1049,
      "biye": 1050,
      "tıkca": 1051,
      "▁parcası": 1052,
      "▁hes": 1053,
      "▁37": 1054,
      "lattı": 1055,
      "▁arizona": 1056,
      "aydi": 1057,
      "'lik": 1058,
      "▁git": 1059,
      "▁hepsinin": 1060,
      "▁dr.": 1061,
      "▁new": 1062,
      "▁alkıs": 1063,
      "mek": 1064,
      "▁mıs": 1065,
      "▁5.2": 1066,
      "▁bulundu": 1067,
      "▁iktis": 1068,
      "▁filan": 1069,
      "if": 1070,
      "▁almayı": 1071,
      "▁parca": 1072,
      "▁18.": 1073,
      "▁endustri": 1074,
      "▁istemedi": 1075,
      "▁model": 1076,
      "gar": 1077,
      "▁oda": 1078,
      "▁lond": 1079,
      "▁etrafında": 1080,
      "▁edilem": 1081,
      "▁diyen": 1082,
      "ayan": 1083,
      "▁kanıt": 1084,
      "▁san": 1085,
      "▁siyaset": 1086,
      "nin": 1087,
      "▁kesin": 1088,
      "▁yok": 1089,
      "bak": 1090,
      "▁saatte": 1091,
      "▁cıkart": 1092,
      "▁oakland'dan": 1093,
      "▁cocuga": 1094,
      "▁kahvaltisi": 1095,
      "▁toplantı": 1096,
      "▁kaya": 1097,
      "▁ediyordu": 1098,
      "ige": 1099,
      "▁gere": 1100,
      "▁suc": 1101,
      "▁birtakım": 1102,
      "▁teskil": 1103,
      "00000": 1104,
      "▁yapılacak": 1105,
      "▁3\\/8": 1106,
      "lıgından": 1107,
      "▁otelden": 1108,
      "acagına": 1109,
      "▁olanaklari": 1110,
      "▁bask": 1111,
      "▁hissediyor": 1112,
      "▁ahlak": 1113,
      "▁sikayet": 1114,
      "▁bekler": 1115,
      "▁beden": 1116,
      "▁begendik": 1117,
      "▁yemis": 1118,
      "▁okumak": 1119,
      "2.9": 1120,
      "dern": 1121,
      "▁10": 1122,
      "▁banka": 1123,
      "▁ikti": 1124,
      "▁%3.": 1125,
      "▁haksız": 1126,
      "▁taraf": 1127,
      "▁direk": 1128,
      ".15": 1129,
      "▁yelpaz": 1130,
      "▁muc": 1131,
      "▁ipotek": 1132,
      "▁sıngır": 1133,
      "av": 1134,
      "▁inan": 1135,
      "▁dususle": 1136,
      "iler": 1137,
      "lama": 1138,
      "'ın": 1139,
      "▁#": 1140,
      "▁hi": 1141,
      "▁olmay": 1142,
      "▁eksik": 1143,
      "▁anayas": 1144,
      "▁alım-satım": 1145,
      "su": 1146,
      "▁ihal": 1147,
      "▁cal": 1148,
      "▁aln": 1149,
      "mıyordu": 1150,
      "ach": 1151,
      "▁zinc": 1152,
      "▁teklifini": 1153,
      "ha": 1154,
      "▁sanırım": 1155,
      "eyecek": 1156,
      "▁fısır": 1157,
      "▁acil": 1158,
      "▁ugr": 1159,
      "▁francisco'dan": 1160,
      "▁jur": 1161,
      "▁tuk": 1162,
      "▁pet": 1163,
      "lugunu": 1164,
      "▁yuklen": 1165,
      "gımız": 1166,
      "▁dam": 1167,
      "esem": 1168,
      "yası": 1169,
      "cag": 1170,
      "▁dırlar": 1171,
      "leniyor": 1172,
      "▁izmir": 1173,
      "▁sendika": 1174,
      "▁maliyeti": 1175,
      "/8'e": 1176,
      "▁dolasır": 1177,
      "▁adına": 1178,
      "▁ti": 1179,
      "▁memnun": 1180,
      "▁degilse": 1181,
      "▁asker": 1182,
      "on": 1183,
      "▁yuks": 1184,
      "isten": 1185,
      "lıyor": 1186,
      "maz": 1187,
      "veland": 1188,
      "▁$": 1189,
      "ıma": 1190,
      "▁goren": 1191,
      "etti": 1192,
      "▁yemeklerin": 1193,
      "sa": 1194,
      "▁doviz": 1195,
      "ildigi": 1196,
      "be": 1197,
      "abilir": 1198,
      "▁pufur": 1199,
      "▁gecen": 1200,
      "gor": 1201,
      "▁dili": 1202,
      "▁ıskarta": 1203,
      "▁baslarında": 1204,
      "▁karab": 1205,
      "▁benzer": 1206,
      "medim": 1207,
      "▁diego'dan": 1208,
      "▁artıs": 1209,
      "▁list": 1210,
      "▁corb": 1211,
      "▁kucuktu": 1212,
      "se": 1213,
      "asa": 1214,
      "ica": 1215,
      "acılık": 1216,
      "▁mil": 1217,
      "42": 1218,
      "▁konferans": 1219,
      "▁saglayan": 1220,
      "▁kırık": 1221,
      "uldugunu": 1222,
      "▁mas": 1223,
      "▁yanl": 1224,
      "▁genel": 1225,
      "▁lezzetleri": 1226,
      "▁madd": 1227,
      "dugunu": 1228,
      "etik": 1229,
      "▁manc": 1230,
      "▁resmi": 1231,
      "▁israil": 1232,
      "▁sevgi": 1233,
      "likler": 1234,
      "cik": 1235,
      "▁ogl": 1236,
      "iyat": 1237,
      "▁actı": 1238,
      "▁tem": 1239,
      "▁1995": 1240,
      "▁seker": 1241,
      "sinin": 1242,
      "▁personellerden": 1243,
      "rilyon": 1244,
      "dal": 1245,
      "ımızı": 1246,
      "denin": 1247,
      "▁subat": 1248,
      "ılıgıyla": 1249,
      "▁olası": 1250,
      "▁ekip": 1251,
      "▁cogunun": 1252,
      "▁ortalam": 1253,
      "▁bildir": 1254,
      "bat": 1255,
      "▁gozlu": 1256,
      "dukları": 1257,
      "▁yıllık": 1258,
      "▁etk": 1259,
      "▁oyle": 1260,
      "▁58": 1261,
      "acagim": 1262,
      "▁4.3": 1263,
      "▁onunla": 1264,
      "▁2.4": 1265,
      "memis": 1266,
      "▁yoktur": 1267,
      "oma": 1268,
      "▁portf": 1269,
      "▁idar": 1270,
      "wa": 1271,
      "▁tehdi": 1272,
      "▁sıgın": 1273,
      "▁th": 1274,
      "-p": 1275,
      "▁catıs": 1276,
      "▁1961": 1277,
      "▁sipar": 1278,
      "masına": 1279,
      "▁baslayan": 1280,
      "lerinde": 1281,
      "▁kası": 1282,
      "aci": 1283,
      "▁mes": 1284,
      "▁yetmis": 1285,
      "▁57": 1286,
      "▁han": 1287,
      "▁hayatın": 1288,
      "timore": 1289,
      "▁edi": 1290,
      "▁verildi": 1291,
      "ılacak": 1292,
      ".39": 1293,
      "▁asam": 1294,
      "▁bono": 1295,
      "▁fener": 1296,
      "ant": 1297,
      "▁sorunu": 1298,
      "▁geldi": 1299,
      "▁duzenlem": 1300,
      "▁77": 1301,
      "ligi": 1302,
      "ot": 1303,
      "agı": 1304,
      "▁kultur": 1305,
      "▁gay": 1306,
      "▁suruk": 1307,
      "▁yapacagını": 1308,
      "g": 1309,
      "▁adlandır": 1310,
      "▁ustlen": 1311,
      "amadı": 1312,
      "▁kendilerine": 1313,
      "\\/": 1314,
      "▁mevduat": 1315,
      "kırk": 1316,
      "▁lynch": 1317,
      "▁y": 1318,
      "▁dep": 1319,
      "▁adama": 1320,
      "▁s": 1321,
      "tım": 1322,
      "▁cd": 1323,
      "▁62": 1324,
      "▁mısır": 1325,
      "ılmıstı": 1326,
      "ırda": 1327,
      "▁destek": 1328,
      "▁teor": 1329,
      "▁2.5": 1330,
      "▁katlı": 1331,
      "▁toplantıda": 1332,
      "▁yapacak": 1333,
      "▁ozgur": 1334,
      "▁elma": 1335,
      "▁havaalan": 1336,
      "▁malz": 1337,
      "▁acıl": 1338,
      "▁itibariyle": 1339,
      "imler": 1340,
      "2:30": 1341,
      "▁kral": 1342,
      "elerine": 1343,
      "▁zav": 1344,
      "▁yaptir": 1345,
      "▁tuketici": 1346,
      "▁yıllarca": 1347,
      "▁kapali": 1348,
      "▁hizmetinden": 1349,
      "malarına": 1350,
      "▁3.7": 1351,
      "amamıs": 1352,
      "eceg": 1353,
      "▁rahatti": 1354,
      "▁par": 1355,
      "▁herhal": 1356,
      ".05": 1357,
      "endim": 1358,
      "ebilir": 1359,
      "▁degisiklikler": 1360,
      "st": 1361,
      "▁yalan": 1362,
      "lerindeki": 1363,
      "pe": 1364,
      "▁yur": 1365,
      "lıg": 1366,
      "ıldır": 1367,
      "▁kontrol": 1368,
      "lerimi": 1369,
      "▁idare": 1370,
      "▁sh": 1371,
      "ımı": 1372,
      "▁zorunda": 1373,
      "sek": 1374,
      "▁yasama": 1375,
      "▁birbirimizi": 1376,
      "tılı": 1377,
      "▁basarili": 1378,
      "▁devrim": 1379,
      "▁pittsburgh": 1380,
      "▁yusu": 1381,
      "▁peyn": 1382,
      "ınızı": 1383,
      "▁baba": 1384,
      "▁kutup": 1385,
      "adel": 1386,
      "unlu": 1387,
      "4000": 1388,
      "▁altındaki": 1389,
      "▁sarkı": 1390,
      "▁112": 1391,
      "▁degis": 1392,
      "lıdır": 1393,
      "▁64": 1394,
      "▁uzer": 1395,
      "▁golg": 1396,
      "▁5.3": 1397,
      "▁aktarmasız": 1398,
      "▁olmadı": 1399,
      "▁bilgil": 1400,
      "memiz": 1401,
      "tuk": 1402,
      "eyh": 1403,
      "▁yaratı": 1404,
      "▁amc": 1405,
      "▁kılıc": 1406,
      "/4": 1407,
      "▁g": 1408,
      "ing": 1409,
      "▁po": 1410,
      "▁planı": 1411,
      "▁yıllarda": 1412,
      "▁tavır": 1413,
      "▁eylul": 1414,
      "▁bic": 1415,
      "▁oldular": 1416,
      "▁gosteren": 1417,
      "ılmıstır": 1418,
      "▁11": 1419,
      "▁ingiltere": 1420,
      "▁sasırtıcı": 1421,
      "▁seviyesinde": 1422,
      "▁zar": 1423,
      "niyet": 1424,
      "emi": 1425,
      "uluyor": 1426,
      "▁hab": 1427,
      "indan": 1428,
      "▁rak": 1429,
      "▁fazla": 1430,
      "esinin": 1431,
      "aat": 1432,
      "▁aldigim": 1433,
      "▁ucusa": 1434,
      "liydi": 1435,
      "lek": 1436,
      "8'de": 1437,
      "asıyla": 1438,
      "▁korumak": 1439,
      "▁gurur": 1440,
      "maları": 1441,
      "▁sacları": 1442,
      "▁cıkıs": 1443,
      "▁$'dan": 1444,
      "adet": 1445,
      "▁degerlendir": 1446,
      "▁artır": 1447,
      "▁tırn": 1448,
      "▁sıv": 1449,
      "▁evden": 1450,
      "▁48": 1451,
      "▁%3.43": 1452,
      "▁petersburg'a": 1453,
      "▁ucuslarını": 1454,
      "▁sip": 1455,
      "▁fizik": 1456,
      "▁damar": 1457,
      ".00": 1458,
      "▁dc'den": 1459,
      "▁peki": 1460,
      "ımdan": 1461,
      "▁luks": 1462,
      "▁bugun": 1463,
      "▁uyarı": 1464,
      "▁oran": 1465,
      "▁var": 1466,
      "▁toplum": 1467,
      "▁phoeni": 1468,
      "▁karmasık": 1469,
      "▁egemen": 1470,
      "▁bası": 1471,
      "▁charl": 1472,
      "▁gerci": 1473,
      "▁av": 1474,
      "lu": 1475,
      "▁nedenlerden": 1476,
      "▁cap": 1477,
      "▁yataklar": 1478,
      "▁birey": 1479,
      "arik": 1480,
      "▁dayalı": 1481,
      "▁tohum": 1482,
      "▁mendil": 1483,
      "▁ifad": 1484,
      "▁getirdi": 1485,
      "▁huseyin": 1486,
      "▁polon": 1487,
      "dav": 1488,
      "▁anı": 1489,
      "▁ucusu": 1490,
      "ete": 1491,
      "mini": 1492,
      "meye": 1493,
      "▁guleryuzluydu": 1494,
      "▁sovyet": 1495,
      "▁sor": 1496,
      "fer": 1497,
      "ize": 1498,
      "▁81": 1499,
      "adem": 1500,
      "▁cıkmak": 1501,
      "oc": 1502,
      "malar": 1503,
      "▁biz": 1504,
      "▁masanın": 1505,
      "▁boy": 1506,
      "inn": 1507,
      "▁agustos": 1508,
      "fur": 1509,
      "aca": 1510,
      "▁birlik": 1511,
      "▁kend": 1512,
      "▁ra": 1513,
      "▁acık": 1514,
      "lisi": 1515,
      "▁avukatlar": 1516,
      "p": 1517,
      "▁senato": 1518,
      "yeni": 1519,
      "▁kadınlar": 1520,
      "▁kus": 1521,
      "▁haftalık": 1522,
      "▁orlando": 1523,
      "larında": 1524,
      "▁kullanıyor": 1525,
      "sk": 1526,
      "▁alakaliydi": 1527,
      "▁olurdu": 1528,
      "▁hakkinda": 1529,
      "▁birbirler": 1530,
      "ern": 1531,
      "▁ucusunu": 1532,
      "▁minim": 1533,
      "▁koc": 1534,
      "▁olabilir": 1535,
      "▁lutfen": 1536,
      "amayacak": 1537,
      "▁tamamladı": 1538,
      "▁suz": 1539,
      "▁musteriler": 1540,
      "▁rus": 1541,
      "▁acıklanmadı": 1542,
      "▁1.": 1543,
      "▁nus": 1544,
      "▁tasar": 1545,
      "▁benden": 1546,
      "▁risk": 1547,
      "orn": 1548,
      "ınca": 1549,
      "▁tesvik": 1550,
      "▁tavsiye": 1551,
      "▁sayısı": 1552,
      "siyonu": 1553,
      "ville": 1554,
      "▁ceb": 1555,
      "'ye": 1556,
      "▁anne": 1557,
      "▁ıskar": 1558,
      "▁1992": 1559,
      "▁parcaları": 1560,
      "▁genislet": 1561,
      "emiz": 1562,
      "▁sozlerine": 1563,
      "▁phil": 1564,
      "▁cey": 1565,
      "▁oranı": 1566,
      "▁nazik": 1567,
      "▁hak": 1568,
      "▁avrupalı": 1569,
      "▁benz": 1570,
      "▁1.7": 1571,
      "▁akl": 1572,
      "▁hong": 1573,
      "▁ode": 1574,
      "'a": 1575,
      "▁anlattı": 1576,
      "▁degildi": 1577,
      "▁evine": 1578,
      "▁155": 1579,
      "al": 1580,
      "▁newark": 1581,
      "gunuz": 1582,
      "▁orland": 1583,
      "▁ant": 1584,
      "cev": 1585,
      "▁4.2": 1586,
      "▁kalmadigim": 1587,
      "▁airlines'in": 1588,
      "▁1989": 1589,
      "_": 1590,
      "mi": 1591,
      "▁ortalık": 1592,
      "▁telerate": 1593,
      "▁ureticisi": 1594,
      "▁cumhurbaskanı": 1595,
      "▁oyunun": 1596,
      "▁sers": 1597,
      "▁den": 1598,
      "▁yirmi": 1599,
      "▁yerel": 1600,
      "▁9.8": 1601,
      "▁kapıya": 1602,
      "▁vic": 1603,
      "ası": 1604,
      "▁deneyim": 1605,
      "▁elbise": 1606,
      "▁washington'dan": 1607,
      "▁milyondan": 1608,
      "▁duvara": 1609,
      "▁kat": 1610,
      "asır": 1611,
      "du": 1612,
      "▁kestir": 1613,
      ".45": 1614,
      "▁91": 1615,
      "kat": 1616,
      "ai": 1617,
      "▁kosul": 1618,
      "▁toronto": 1619,
      "▁gitmis": 1620,
      "▁menkul": 1621,
      "▁washington": 1622,
      "ave": 1623,
      "▁at": 1624,
      "ansız": 1625,
      "▁saglık": 1626,
      "ilmesi": 1627,
      "▁reh": 1628,
      "▁355": 1629,
      "gini": 1630,
      "▁pey": 1631,
      "▁zir": 1632,
      "▁ters": 1633,
      "▁sair": 1634,
      "▁...\"": 1635,
      "▁kuyu": 1636,
      "adelphia": 1637,
      "▁bak": 1638,
      "▁oldu": 1639,
      "anları": 1640,
      "▁oyuncu": 1641,
      "uston": 1642,
      "▁saskın": 1643,
      "▁direkt": 1644,
      "ili": 1645,
      "▁yon": 1646,
      "▁din": 1647,
      "▁iyisi": 1648,
      "▁mı": 1649,
      "▁incel": 1650,
      "▁baslamıs": 1651,
      "▁3/8": 1652,
      "▁350": 1653,
      "▁dor": 1654,
      "▁ucusta": 1655,
      "▁otele": 1656,
      "▁robert": 1657,
      "▁malzem": 1658,
      "▁uygundu": 1659,
      "▁cor": 1660,
      "▁pac": 1661,
      "▁plaj": 1662,
      "▁yetkil": 1663,
      "▁gunah": 1664,
      "▁istif": 1665,
      "anda": 1666,
      "▁onceki": 1667,
      "ham": 1668,
      "eligi": 1669,
      "▁iri": 1670,
      "▁itibar": 1671,
      "tadır": 1672,
      "▁limon": 1673,
      "▁ayrıntı": 1674,
      "?": 1675,
      "▁icme": 1676,
      "▁cıvıl": 1677,
      "gu": 1678,
      "ulugun": 1679,
      "▁yukarı": 1680,
      "▁er": 1681,
      "ılık": 1682,
      "▁vadeli": 1683,
      "gun": 1684,
      "▁almak": 1685,
      "▁hemen": 1686,
      "dedil": 1687,
      "▁nisan'da": 1688,
      "▁satıs": 1689,
      "▁seyler": 1690,
      "▁urunler": 1691,
      "$": 1692,
      "▁komitesi": 1693,
      "▁patlıcan": 1694,
      "▁aracılıgıyla": 1695,
      "▁ne": 1696,
      "▁ihtiyacım": 1697,
      "▁hırsız": 1698,
      "cılık": 1699,
      "y's": 1700,
      "-19": 1701,
      "ip": 1702,
      "▁hasan": 1703,
      "▁teknik": 1704,
      "lav": 1705,
      "▁tespit": 1706,
      "usuna": 1707,
      "▁yanına": 1708,
      "▁saglayacak": 1709,
      "▁im": 1710,
      "▁cos": 1711,
      "▁muduru": 1712,
      "▁diken": 1713,
      "▁baglantılı": 1714,
      "▁rengi": 1715,
      "▁vermedi": 1716,
      "▁dediler": 1717,
      "▁aras": 1718,
      "iv": 1719,
      "▁elinde": 1720,
      "ıldı": 1721,
      "▁kem": 1722,
      "lerine": 1723,
      "▁yaparak": 1724,
      "▁omz": 1725,
      "ici": 1726,
      "▁soylediler": 1727,
      "▁mon": 1728,
      "ey": 1729,
      "▁butce": 1730,
      "▁alkol": 1731,
      "▁baslamıstı": 1732,
      "endigi": 1733,
      "▁ucusları": 1734,
      "▁196": 1735,
      "▁yazı": 1736,
      "▁vermis": 1737,
      "▁cid": 1738,
      "▁oglu": 1739,
      "▁adeta": 1740,
      "▁sokaga": 1741,
      "▁resep": 1742,
      "▁69": 1743,
      "has": 1744,
      "yo": 1745,
      "ince": 1746,
      "▁avustralya": 1747,
      "▁wh": 1748,
      "▁kokusu": 1749,
      "▁hoca": 1750,
      "▁aran": 1751,
      "▁zamana": 1752,
      "▁merkezine": 1753,
      "agan": 1754,
      "▁ordu": 1755,
      "▁gir": 1756,
      "masından": 1757,
      "dok": 1758,
      "uc": 1759,
      "▁mukemmeldi": 1760,
      "mıs": 1761,
      "▁tesisten": 1762,
      "▁shearson": 1763,
      "▁flori": 1764,
      "'ndan": 1765,
      "▁konumunu": 1766,
      "▁ce": 1767,
      "▁anim": 1768,
      "▁dunyaya": 1769,
      "▁ait": 1770,
      "▁ayrım": 1771,
      "▁kapsam": 1772,
      "▁kahvalti": 1773,
      "▁ucus": 1774,
      "▁bura": 1775,
      "umlu": 1776,
      "▁yeri": 1777,
      "▁odadan": 1778,
      "▁sekl": 1779,
      "▁icten": 1780,
      "chell": 1781,
      "▁cob": 1782,
      "▁herhangi": 1783,
      "▁kafa": 1784,
      "▁etti": 1785,
      "▁gazetec": 1786,
      "▁alın": 1787,
      "▁6.25": 1788,
      "▁sicak": 1789,
      "▁verdigimiz": 1790,
      "▁geldigi": 1791,
      "▁havlu": 1792,
      "▁gol": 1793,
      "ısında": 1794,
      "ledigi": 1795,
      "▁bulunmaktadır": 1796,
      "in": 1797,
      "▁philadelphia": 1798,
      "afet": 1799,
      "▁hastalı": 1800,
      "maktadır": 1801,
      "▁anlıyor": 1802,
      "▁vergisi": 1803,
      "▁muht": 1804,
      "▁ısıl": 1805,
      "▁gozlerini": 1806,
      "▁fr": 1807,
      "=": 1808,
      "▁cins": 1809,
      "▁birligi": 1810,
      "▁fil": 1811,
      "▁cak": 1812,
      "▁tampa'dan": 1813,
      "atin": 1814,
      "yim": 1815,
      "▁muhal": 1816,
      "▁sabaha": 1817,
      "▁mad": 1818,
      "evizyon": 1819,
      "▁dayan": 1820,
      "▁mod": 1821,
      "▁hicbirinin": 1822,
      "elerden": 1823,
      "▁kalmaya": 1824,
      "▁ıs": 1825,
      "▁yasındaki": 1826,
      "▁falan": 1827,
      "▁yahu": 1828,
      "▁cleveland'a": 1829,
      "er": 1830,
      "▁manzar": 1831,
      "▁yapabilir": 1832,
      "lıgının": 1833,
      "▁gunlerde": 1834,
      "▁kapısını": 1835,
      "▁yolda": 1836,
      "▁haziran": 1837,
      "▁gunleri": 1838,
      "▁cum": 1839,
      "▁olanlar": 1840,
      "▁kulub": 1841,
      "▁degildir": 1842,
      "▁miktar": 1843,
      "▁elde": 1844,
      "▁atıl": 1845,
      "▁ogrenmek": 1846,
      "▁ım": 1847,
      "▁mek": 1848,
      "memek": 1849,
      "▁ibrahim": 1850,
      "▁tuh": 1851,
      "ladıgı": 1852,
      "▁yatırımcıları": 1853,
      "▁satıcı": 1854,
      "▁masal": 1855,
      "mma": 1856,
      "eksiyon": 1857,
      "▁kurtar": 1858,
      "ulmus": 1859,
      "▁kadar": 1860,
      "rar": 1861,
      "▁cen": 1862,
      "▁bakar": 1863,
      "ırıl": 1864,
      "▁etkin": 1865,
      "▁merh": 1866,
      "ıyor": 1867,
      "▁mikr": 1868,
      "▁ispan": 1869,
      "▁145": 1870,
      "▁halk": 1871,
      "▁dusurdu": 1872,
      "▁ucretlerini": 1873,
      "▁ucuslar": 1874,
      "▁amacıyla": 1875,
      "▁1987": 1876,
      "▁hel": 1877,
      "▁kilit": 1878,
      "▁kateg": 1879,
      "▁kızın": 1880,
      "▁gecmis": 1881,
      "▁kut": 1882,
      "chester": 1883,
      "▁izin": 1884,
      "ez": 1885,
      "▁aqu": 1886,
      "▁oak": 1887,
      "istik": 1888,
      "▁vad": 1889,
      "▁sozcuk": 1890,
      "▁ihtimal": 1891,
      "▁fas": 1892,
      "ser": 1893,
      "▁hepimiz": 1894,
      "▁um": 1895,
      "▁hisseleri": 1896,
      "▁duygu": 1897,
      "▁he": 1898,
      "▁parti": 1899,
      "lıkları": 1900,
      "▁dalg": 1901,
      "▁bug": 1902,
      "▁bilgisay": 1903,
      "▁yerli": 1904,
      "▁yasan": 1905,
      "▁radyo": 1906,
      "▁arasında": 1907,
      "▁yav": 1908,
      "▁sehre": 1909,
      "▁babası": 1910,
      "▁kurk": 1911,
      "▁ster": 1912,
      "▁gerekti": 1913,
      "▁0.": 1914,
      "▁65": 1915,
      "▁alınan": 1916,
      "▁montreal'a": 1917,
      "▁yumurt": 1918,
      "▁abd'de": 1919,
      "eld": 1920,
      "▁gold": 1921,
      "▁kaymak": 1922,
      "▁kendisinde": 1923,
      "▁sayıl": 1924,
      "▁ihracat": 1925,
      "ecegine": 1926,
      "▁eliyle": 1927,
      "▁mesaj": 1928,
      "ume": 1929,
      "▁mus": 1930,
      "▁derg": 1931,
      "amıstı": 1932,
      "ılma": 1933,
      "▁kazancı": 1934,
      "▁kabul": 1935,
      "▁ic": 1936,
      "▁anlay": 1937,
      "▁sular": 1938,
      "▁meger": 1939,
      "▁olmustu": 1940,
      "▁ltd.": 1941,
      "▁donuyor": 1942,
      "▁gotur": 1943,
      "▁hasta": 1944,
      "▁artısı": 1945,
      "▁rast": 1946,
      "▁grev": 1947,
      "▁%3.4": 1948,
      "▁katilmak": 1949,
      "▁izliyor": 1950,
      "▁kel": 1951,
      "▁beraber": 1952,
      "▁annesinin": 1953,
      "▁dısarıya": 1954,
      "▁103": 1955,
      "▁2.1": 1956,
      "liyordu": 1957,
      "▁tay": 1958,
      "▁ko": 1959,
      "▁kurumsal": 1960,
      ":30": 1961,
      "▁4.6": 1962,
      "anın": 1963,
      "▁yiyecekler": 1964,
      "▁misin": 1965,
      "▁dergi": 1966,
      "▁gosterin": 1967,
      "▁vermek": 1968,
      "▁=": 1969,
      "▁financi": 1970,
      "▁vol": 1971,
      "▁en": 1972,
      "▁zay": 1973,
      "▁ettir": 1974,
      "▁leri": 1975,
      "▁kan": 1976,
      "▁tiyatr": 1977,
      "sun": 1978,
      "▁duvarlar": 1979,
      "▁garson": 1980,
      "▁rakamlar": 1981,
      "3.8": 1982,
      "elendir": 1983,
      "▁son": 1984,
      "▁vah": 1985,
      "▁bilgi": 1986,
      "▁cocuk": 1987,
      "▁seneye": 1988,
      "▁vardır": 1989,
      "ald": 1990,
      "▁atlan": 1991,
      "mesinin": 1992,
      "▁donan": 1993,
      "sekiz": 1994,
      "▁kokulu": 1995,
      "▁karanlık": 1996,
      "▁dusundu": 1997,
      "▁iste": 1998,
      "liginden": 1999,
      "ege": 2000,
      "▁for": 2001,
      "▁eastern": 2002,
      "▁aks": 2003,
      "89-": 2004,
      "▁kıbr": 2005,
      "ash": 2006,
      "▁olagan": 2007,
      "duk": 2008,
      "▁asil": 2009,
      "▁acaba": 2010,
      "▁bolun": 2011,
      "▁yararlan": 2012,
      "ell": 2013,
      "ucuk": 2014,
      "▁55": 2015,
      "▁ves": 2016,
      "▁sut": 2017,
      "▁kaybeden": 2018,
      "▁aksamları": 2019,
      "▁caz": 2020,
      "▁3/4": 2021,
      "▁fa": 2022,
      "▁kural": 2023,
      "meyen": 2024,
      "▁systems": 2025,
      "▁isbir": 2026,
      "▁isini": 2027,
      "▁may": 2028,
      "▁pant": 2029,
      "▁3.6": 2030,
      "▁ihtiyacı": 2031,
      "ustur": 2032,
      "▁buldu": 2033,
      ".76": 2034,
      "arak": 2035,
      "▁veren": 2036,
      "▁bul": 2037,
      "▁temettu": 2038,
      "▁5.9": 2039,
      "▁umur": 2040,
      "▁yasal": 2041,
      "▁dalgalan": 2042,
      "iz": 2043,
      "▁1989-8": 2044,
      "▁sorustur": 2045,
      "▁harıl": 2046,
      "▁gecirdik": 2047,
      "▁puanlama": 2048,
      "▁cesitliligi": 2049,
      "▁klas": 2050,
      "▁icin": 2051,
      "▁et": 2052,
      "ormal": 2053,
      "ilir": 2054,
      "▁ların": 2055,
      "▁yarı": 2056,
      "▁abdul": 2057,
      "onelik": 2058,
      "▁degismedi": 2059,
      "▁avrupa'da": 2060,
      "▁'": 2061,
      "▁vurdu": 2062,
      "▁1.8": 2063,
      "indeki": 2064,
      "▁sahn": 2065,
      "loy": 2066,
      "▁oturdu": 2067,
      "▁ır": 2068,
      "▁birer": 2069,
      "▁kalab": 2070,
      "alanı": 2071,
      "▁hazin": 2072,
      "▁japonya'nın": 2073,
      "▁animasyon": 2074,
      "▁cıkarıyor": 2075,
      "▁7.8": 2076,
      "▁bolge": 2077,
      "▁gittik": 2078,
      "▁ankete": 2079,
      "▁yaptılar": 2080,
      "▁sevinc": 2081,
      "▁arasına": 2082,
      "▁koruy": 2083,
      "▁kendini": 2084,
      "▁peters": 2085,
      "eket": 2086,
      "cık": 2087,
      "▁sıf": 2088,
      "▁ceyrekte": 2089,
      "▁grup": 2090,
      "▁yız": 2091,
      "xel": 2092,
      "▁cr": 2093,
      "▁kork": 2094,
      "usu": 2095,
      "▁boston'a": 2096,
      "ıc": 2097,
      "▁americ": 2098,
      "gının": 2099,
      "▁kov": 2100,
      "▁mal": 2101,
      "▁indianapolis": 2102,
      "▁ortak": 2103,
      "▁olduk": 2104,
      "▁secen": 2105,
      "▁musta": 2106,
      "‘": 2107,
      "altı": 2108,
      "▁haft": 2109,
      "sini": 2110,
      "▁karsiladi": 2111,
      "▁suya": 2112,
      "▁avantaj": 2113,
      "ginde": 2114,
      "▁agr": 2115,
      "▁cekiyor": 2116,
      "▁arkad": 2117,
      "▁kucuk": 2118,
      "▁fiyatlandır": 2119,
      "▁diye": 2120,
      "▁olsun": 2121,
      "▁3000": 2122,
      ".2": 2123,
      "emedim": 2124,
      "▁mud": 2125,
      "ıyorum": 2126,
      "▁elestir": 2127,
      "raf": 2128,
      "▁guzeldi": 2129,
      "▁ort": 2130,
      "▁nesil": 2131,
      "▁dogan": 2132,
      "▁gitmeyi": 2133,
      "▁yabancı": 2134,
      "▁sesle": 2135,
      "▁koyu": 2136,
      "▁soylemek": 2137,
      "▁edilir": 2138,
      "enkul": 2139,
      "▁karakter": 2140,
      "▁yargıc": 2141,
      "ıs": 2142,
      "ort": 2143,
      "▁nor": 2144,
      "▁tug": 2145,
      "▁yaz": 2146,
      "▁yolculuk": 2147,
      "▁siddetli": 2148,
      "▁babamın": 2149,
      "▁pamuk": 2150,
      ".70": 2151,
      "melidir": 2152,
      "▁oturu": 2153,
      "▁kendisi": 2154,
      "gi": 2155,
      "▁boynun": 2156,
      "tre": 2157,
      "'yu": 2158,
      "▁lab": 2159,
      "▁rut": 2160,
      "▁%5": 2161,
      "▁iht": 2162,
      "▁dolay": 2163,
      "▁%10": 2164,
      "▁oncesi": 2165,
      "▁oldukları": 2166,
      "▁sıg": 2167,
      "lerdeki": 2168,
      "▁icine": 2169,
      "alara": 2170,
      "▁diyar": 2171,
      "▁konuyu": 2172,
      "43": 2173,
      ".625": 2174,
      "▁skan": 2175,
      "ific": 2176,
      "▁ileri": 2177,
      "▁sayı": 2178,
      "▁nihayet": 2179,
      "▁gun": 2180,
      "▁tarafı": 2181,
      "▁ilgililerdi": 2182,
      "▁tarafa": 2183,
      "asında": 2184,
      "▁evde": 2185,
      "ational": 2186,
      "▁kelime": 2187,
      "esiyle": 2188,
      "▁iddia": 2189,
      "▁ucak": 2190,
      "▁gez": 2191,
      "▁porcuk": 2192,
      "▁memnunum": 2193,
      "▁cagdas": 2194,
      "dol": 2195,
      "▁merkeze": 2196,
      "▁pos": 2197,
      "▁islemi": 2198,
      "▁gece": 2199,
      "lul": 2200,
      "▁dagın": 2201,
      "▁hang": 2202,
      "▁denize": 2203,
      "▁magaz": 2204,
      "▁sm": 2205,
      "▁fıkır": 2206,
      "▁kapının": 2207,
      "▁cami": 2208,
      "▁bagımsız": 2209,
      "▁cub": 2210,
      "0.4": 2211,
      "▁yerde": 2212,
      "▁ih": 2213,
      "▁alıyor": 2214,
      "▁hin": 2215,
      "▁isaret": 2216,
      "▁sonraki": 2217,
      "ahh": 2218,
      "▁terc": 2219,
      "▁kucucuk": 2220,
      "▁bindokuzyuz": 2221,
      "cisi": 2222,
      "▁mekan": 2223,
      "▁gre": 2224,
      "▁dilek": 2225,
      "▁tuccarlar": 2226,
      "vest": 2227,
      "▁alan": 2228,
      "▁hazine": 2229,
      "ayıp": 2230,
      "▁kagıt": 2231,
      "▁ilgisiz": 2232,
      "▁listeleyin": 2233,
      "unuz": 2234,
      "▁pis": 2235,
      "▁st.": 2236,
      "▁onlardan": 2237,
      "▁degerlendiririm": 2238,
      "▁seattle'ye": 2239,
      "▁sas": 2240,
      "▁bilgisayar": 2241,
      "vır": 2242,
      "▁olanakları": 2243,
      "▁bulunuyor": 2244,
      "▁edebil": 2245,
      "▁hicbirini": 2246,
      "yetmis": 2247,
      "▁d": 2248,
      "▁a": 2249,
      "▁soluk": 2250,
      "▁elimi": 2251,
      "liginin": 2252,
      "▁millet": 2253,
      "▁kardesim": 2254,
      "▁cle": 2255,
      "oglu": 2256,
      "▁saglıklı": 2257,
      "iyorum": 2258,
      "▁kerem": 2259,
      "▁capında": 2260,
      "▁derece": 2261,
      "▁izley": 2262,
      "▁ederdi": 2263,
      "▁.\"": 2264,
      "▁kullanmadim": 2265,
      "▁vur": 2266,
      "▁elden": 2267,
      "atur": 2268,
      "▁parlam": 2269,
      "▁kimseye": 2270,
      "▁yarıs": 2271,
      "▁azdi": 2272,
      "de": 2273,
      "▁duydu": 2274,
      "mayacak": 2275,
      "▁hut": 2276,
      "▁sona": 2277,
      "▁piyasada": 2278,
      "▁yahut": 2279,
      "ması": 2280,
      "▁sım": 2281,
      "▁degisim": 2282,
      "▁sık": 2283,
      "▁bilg": 2284,
      "▁birbirimize": 2285,
      "▁teknoloj": 2286,
      "▁yıldan": 2287,
      "▁felsef": 2288,
      "▁parlak": 2289,
      "▁can": 2290,
      "▁ısık": 2291,
      "▁kongre": 2292,
      "▁cocuklar": 2293,
      "▁ufakti": 2294,
      "▁ozgurluk": 2295,
      "▁gerceklestir": 2296,
      "▁soguktu": 2297,
      "▁;": 2298,
      "▁silin": 2299,
      "▁dog": 2300,
      "▁universit": 2301,
      "▁%27": 2302,
      "▁ortadan": 2303,
      "▁olsa": 2304,
      "▁bahs": 2305,
      "▁muthis": 2306,
      "▁klim": 2307,
      "▁aksama": 2308,
      "▁law": 2309,
      "elerinden": 2310,
      "kti": 2311,
      "▁meydana": 2312,
      "▁camasır": 2313,
      "▁kontr": 2314,
      "▁buk": 2315,
      "▁kım": 2316,
      "▁bayan": 2317,
      "▁da": 2318,
      "▁kaps": 2319,
      "▁maliyet": 2320,
      "▁kusursuz": 2321,
      "▁operasyon": 2322,
      "sinde": 2323,
      "elli": 2324,
      "▁hot": 2325,
      "▁/": 2326,
      "▁yaglı": 2327,
      "▁sıkıstır": 2328,
      "▁terbiy": 2329,
      "z": 2330,
      "▁hedefi": 2331,
      "▁memphis": 2332,
      "▁zirv": 2333,
      "▁buyume": 2334,
      "▁aklına": 2335,
      "▁kaydetti": 2336,
      "malı": 2337,
      "▁diego'ya": 2338,
      "▁yumusak": 2339,
      "eniz": 2340,
      "▁agzı": 2341,
      "▁yıllardır": 2342,
      "ımızdan": 2343,
      "▁kak": 2344,
      "▁ora": 2345,
      "▁dusman": 2346,
      "▁seksen": 2347,
      "/8": 2348,
      "eci": 2349,
      "uz": 2350,
      "▁renkli": 2351,
      "me": 2352,
      "▁suyu": 2353,
      "▁cık": 2354,
      "ladık": 2355,
      "▁stan": 2356,
      "ıtır": 2357,
      "▁soguk": 2358,
      "▁a.b.d.": 2359,
      "▁birbirine": 2360,
      "alama": 2361,
      "▁kısmını": 2362,
      "▁toz": 2363,
      "▁2.6": 2364,
      "▁68": 2365,
      "▁fen": 2366,
      "▁burbank": 2367,
      "30": 2368,
      "▁aleyh": 2369,
      "▁85": 2370,
      "▁gecmiste": 2371,
      "▁yukseltti": 2372,
      "▁kullanıl": 2373,
      "madik": 2374,
      "▁185": 2375,
      "▁saat": 2376,
      "▁kısıt": 2377,
      "▁7.6": 2378,
      "▁bar": 2379,
      "▁kendileri": 2380,
      "▁nes": 2381,
      "▁varacak": 2382,
      "▁konustu": 2383,
      "▁1\\/4": 2384,
      "▁orman": 2385,
      "▁konusu": 2386,
      "▁de": 2387,
      "▁hast": 2388,
      "▁25": 2389,
      "▁tar": 2390,
      "▁ibm": 2391,
      "▁sp": 2392,
      "▁kil": 2393,
      "▁benim": 2394,
      "eleriyle": 2395,
      "▁yanlıs": 2396,
      "ısır": 2397,
      "▁ayrılan": 2398,
      "dıgımız": 2399,
      "▁altern": 2400,
      "madıgı": 2401,
      "▁dır": 2402,
      "▁cer": 2403,
      "▁gozler": 2404,
      "▁buyum": 2405,
      "▁vade": 2406,
      "▁kahve": 2407,
      "'nı": 2408,
      "kı": 2409,
      "▁%9": 2410,
      "hur": 2411,
      "▁tekn": 2412,
      "▁bankalar": 2413,
      "anlar": 2414,
      "▁edildi": 2415,
      "emedik": 2416,
      "▁salı": 2417,
      "▁alaka": 2418,
      "▁yerleri": 2419,
      "▁gelir": 2420,
      "▁agabey": 2421,
      "▁konak": 2422,
      "▁york": 2423,
      "ota": 2424,
      "eo": 2425,
      "akin": 2426,
      "ırak": 2427,
      "▁sektor": 2428,
      "▁fit": 2429,
      "▁deg": 2430,
      "[SEP]": 2431,
      "▁fay": 2432,
      "iki": 2433,
      "dız": 2434,
      "mayan": 2435,
      "▁ister": 2436,
      "▁ustun": 2437,
      "▁!..": 2438,
      "▁almadim": 2439,
      "▁sar": 2440,
      "ogram": 2441,
      "▁halbuki": 2442,
      "▁ner": 2443,
      "ebilmek": 2444,
      "▁tur": 2445,
      "ama": 2446,
      "▁sır": 2447,
      "gı": 2448,
      "▁babasının": 2449,
      "guna": 2450,
      "▁satan": 2451,
      "▁karsılas": 2452,
      "▁olacagını": 2453,
      "▁bazıları": 2454,
      "▁rady": 2455,
      "▁si": 2456,
      "▁cuma": 2457,
      "▁performans": 2458,
      "48": 2459,
      "masın": 2460,
      "daki": 2461,
      "amay": 2462,
      "▁perakende": 2463,
      "ginden": 2464,
      "▁boyu": 2465,
      "iyorlardı": 2466,
      "▁tul": 2467,
      "arl": 2468,
      "▁derhal": 2469,
      "landır": 2470,
      "int": 2471,
      "▁sark": 2472,
      "madigim": 2473,
      "▁dakikada": 2474,
      "▁istiyor": 2475,
      ".3": 2476,
      "▁birbirinin": 2477,
      "▁tamir": 2478,
      "▁az": 2479,
      "▁kısı": 2480,
      "▁komutan": 2481,
      "▁kendimiz": 2482,
      "▁1991": 2483,
      "▁milletvek": 2484,
      "▁surdu": 2485,
      "▁cocukların": 2486,
      "▁durdu": 2487,
      "▁il": 2488,
      "'e": 2489,
      "▁tı": 2490,
      "▁gelmez": 2491,
      "▁ayakta": 2492,
      "▁las": 2493,
      "▁siir": 2494,
      "▁sok": 2495,
      "▁calısmaya": 2496,
      "▁zorunlu": 2497,
      "▁yerinde": 2498,
      "▁varmıs": 2499,
      "isik": 2500,
      "▁etkili": 2501,
      "mur": 2502,
      "▁koku": 2503,
      "▁ortasında": 2504,
      "▁mıyım": 2505,
      "▁insanı": 2506,
      "▁vatan": 2507,
      "▁7.7": 2508,
      "▁anım": 2509,
      "ti": 2510,
      "▁yemekler": 2511,
      "▁or": 2512,
      "igit": 2513,
      "esini": 2514,
      "▁yag": 2515,
      "▁mut": 2516,
      "adi": 2517,
      "▁end": 2518,
      "▁yudum": 2519,
      "▁odey": 2520,
      "—": 2521,
      "lbu": 2522,
      "▁hepsi": 2523,
      "sarı": 2524,
      "▁yapmayı": 2525,
      "▁karsiligini": 2526,
      "▁176": 2527,
      "▁sandal": 2528,
      "▁icecekler": 2529,
      "▁yıl": 2530,
      "▁ticarette": 2531,
      "▁civarında": 2532,
      "mis": 2533,
      "▁mart": 2534,
      "dut": 2535,
      "▁haykır": 2536,
      "▁almıs": 2537,
      "▁serin": 2538,
      "▁uzun": 2539,
      "eyman": 2540,
      "▁ver": 2541,
      "▁sorun": 2542,
      "ahmet": 2543,
      "▁niyet": 2544,
      "▁yerden": 2545,
      "▁kendin": 2546,
      "ortaj": 2547,
      "et": 2548,
      "ton": 2549,
      "▁ulusal": 2550,
      "75": 2551,
      "ısına": 2552,
      "▁ucu": 2553,
      "eyle": 2554,
      "▁sah": 2555,
      "▁lez": 2556,
      "▁111": 2557,
      "mazlar": 2558,
      "▁zamanla": 2559,
      "▁erkek": 2560,
      "▁ulkenin": 2561,
      "▁arap": 2562,
      "▁kadını": 2563,
      "▁yerine": 2564,
      "▁elbis": 2565,
      "▁sıng": 2566,
      "elerin": 2567,
      "▁yaptıgını": 2568,
      "▁kayı": 2569,
      "ona": 2570,
      "▁se": 2571,
      "ur": 2572,
      "▁bile": 2573,
      "▁dilim": 2574,
      "▁haldır": 2575,
      "▁chic": 2576,
      "▁calı": 2577,
      "▁dipl": 2578,
      "▁sert": 2579,
      "▁tatildi": 2580,
      "▁lı": 2581,
      "▁gittim": 2582,
      "▁tuf": 2583,
      "▁hanım": 2584,
      "▁vardı": 2585,
      "▁bizleri": 2586,
      "▁mor": 2587,
      "ilik": 2588,
      "eh": 2589,
      "▁ses": 2590,
      "▁birbirlerinin": 2591,
      "▁amac": 2592,
      "▁koca": 2593,
      "▁kinden": 2594,
      "lit": 2595,
      "▁tampa'ya": 2596,
      "▁tabak": 2597,
      "lin": 2598,
      "lanır": 2599,
      "mamız": 2600,
      "▁yetersiz": 2601,
      "▁kalitesi": 2602,
      "▁pay": 2603,
      "▁onay": 2604,
      "▁aktiv": 2605,
      "▁vasıtasıyla": 2606,
      "▁olanak": 2607,
      "▁%51": 2608,
      "gim": 2609,
      "▁corp.": 2610,
      "meyin": 2611,
      "▁yapılıyor": 2612,
      "agına": 2613,
      "▁ama": 2614,
      "▁soyleyen": 2615,
      "▁1986": 2616,
      "▁getirmek": 2617,
      "'nin": 2618,
      "▁yasam": 2619,
      "▁20": 2620,
      "▁listesini": 2621,
      "▁gorunen": 2622,
      "▁yurek": 2623,
      "▁sart": 2624,
      "▁ar": 2625,
      "▁bat": 2626,
      "▁ydi": 2627,
      "▁hep": 2628,
      "40": 2629,
      "▁keyif": 2630,
      "▁yedi": 2631,
      "ebilirdi": 2632,
      "▁spekul": 2633,
      "▁ailelere": 2634,
      "▁eh": 2635,
      "▁sanat": 2636,
      "ilebilir": 2637,
      "▁yapmak": 2638,
      "▁ola": 2639,
      "▁asa": 2640,
      "▁turku": 2641,
      "our": 2642,
      "▁atıyor": 2643,
      "▁115": 2644,
      "▁vurgul": 2645,
      "layarak": 2646,
      "bel": 2647,
      "▁sifir": 2648,
      "▁130": 2649,
      "maya": 2650,
      "▁hangileri": 2651,
      "▁kimsen": 2652,
      "▁bahset": 2653,
      "▁rolu": 2654,
      "▁baskan": 2655,
      "▁gelistir": 2656,
      "▁edici": 2657,
      "▁coktan": 2658,
      "▁federal": 2659,
      "▁imkan": 2660,
      "▁artan": 2661,
      "▁farkında": 2662,
      "▁kuy": 2663,
      "▁gazi": 2664,
      "▁artısla": 2665,
      "▁saldır": 2666,
      "ult": 2667,
      "▁seh": 2668,
      "▁hız": 2669,
      "-sat": 2670,
      "▁yaptim": 2671,
      "▁rom": 2672,
      "▁uretim": 2673,
      "forman": 2674,
      "▁borc": 2675,
      "sizlik": 2676,
      "▁nobet": 2677,
      "gin": 2678,
      "ve": 2679,
      "abilecegini": 2680,
      "▁yonet": 2681,
      "▁columbus'tan": 2682,
      "▁yardim": 2683,
      "▁gormus": 2684,
      "▁karsısına": 2685,
      "cekti": 2686,
      "▁gosterdi": 2687,
      "▁mutluluk": 2688,
      "▁lezzet": 2689,
      "▁eroin": 2690,
      "▁odamiz": 2691,
      "▁199": 2692,
      "▁sahin": 2693,
      "▁kahval": 2694,
      "ilecek": 2695,
      "▁gayrimenkul": 2696,
      "uye": 2697,
      "mesin": 2698,
      "▁1998": 2699,
      "▁beye": 2700,
      "medik": 2701,
      "dak": 2702,
      "▁sel": 2703,
      "▁tuy": 2704,
      "▁bilim": 2705,
      "▁yasası": 2706,
      "digim": 2707,
      "▁yiyecek": 2708,
      "▁baltimore'ye": 2709,
      "▁12": 2710,
      "imizin": 2711,
      "▁hassas": 2712,
      "▁alacak": 2713,
      "eb": 2714,
      "dugu": 2715,
      "▁planlıyor": 2716,
      "▁hul": 2717,
      "enn": 2718,
      "▁yeryuz": 2719,
      "anc": 2720,
      "eyip": 2721,
      "▁recep": 2722,
      "avuz": 2723,
      "▁ustelik": 2724,
      "▁ulkede": 2725,
      "eceksin": 2726,
      "press": 2727,
      "'te": 2728,
      "'ler": 2729,
      "▁vegas": 2730,
      "ılması": 2731,
      "▁ucuyor": 2732,
      "▁anket": 2733,
      "▁istem": 2734,
      "ika": 2735,
      "▁ta": 2736,
      "sir": 2737,
      "▁ogrenciler": 2738,
      "ugunu": 2739,
      "▁yukseldi": 2740,
      "▁spor": 2741,
      "ever": 2742,
      "▁kud": 2743,
      "nız": 2744,
      "ce": 2745,
      "▁yıldız": 2746,
      "▁150": 2747,
      "▁duzel": 2748,
      "▁seattle'den": 2749,
      "rem": 2750,
      "▁tum": 2751,
      "▁avukat": 2752,
      "▁masraf": 2753,
      "▁adlı": 2754,
      "ulup": 2755,
      "▁.'": 2756,
      "▁gor": 2757,
      "▁arkadaslar": 2758,
      "▁kızar": 2759,
      "▁yans": 2760,
      "▁duruma": 2761,
      "▁mev": 2762,
      "▁edecegim": 2763,
      "▁7": 2764,
      "dıgından": 2765,
      "▁konut": 2766,
      "▁aklı": 2767,
      "▁satısa": 2768,
      "▁tatli": 2769,
      "▁sizi": 2770,
      "▁civ": 2771,
      "ecegimiz": 2772,
      "▁allah": 2773,
      "▁verdim": 2774,
      ".000": 2775,
      "▁nadir": 2776,
      "oy": 2777,
      "esindeki": 2778,
      "▁aracı": 2779,
      "1": 2780,
      "dor": 2781,
      "ya'da": 2782,
      "ultu": 2783,
      "▁ikisinin": 2784,
      "▁insaat": 2785,
      "▁becer": 2786,
      "oru": 2787,
      "▁alev": 2788,
      "▁kuzu": 2789,
      "ilerden": 2790,
      "▁sozler": 2791,
      "ıldıgı": 2792,
      "▁?..": 2793,
      "burg": 2794,
      "mistir": 2795,
      "▁hik": 2796,
      "▁ardı": 2797,
      "▁icecek": 2798,
      "▁hus": 2799,
      "▁dil": 2800,
      "▁durum": 2801,
      "▁danıs": 2802,
      "▁mood": 2803,
      "▁dun": 2804,
      "▁kard": 2805,
      "▁dobra": 2806,
      "▁yemeklerini": 2807,
      "▁lir": 2808,
      "o'dan": 2809,
      "▁davet": 2810,
      "▁ingil": 2811,
      "▁ala": 2812,
      "let": 2813,
      "amayan": 2814,
      "▁muhab": 2815,
      "▁duran": 2816,
      "ita": 2817,
      "ice": 2818,
      "ung": 2819,
      "▁alet": 2820,
      "eyerek": 2821,
      ".49": 2822,
      "▁adam": 2823,
      "der": 2824,
      "amam": 2825,
      "▁doner": 2826,
      "▁kaybet": 2827,
      "▁disiplin": 2828,
      "▁istiyoruz": 2829,
      "▁tane": 2830,
      "▁asıl": 2831,
      "▁yaptır": 2832,
      "▁boston'dan": 2833,
      "rat": 2834,
      "agıt": 2835,
      "▁tahmini": 2836,
      "▁zamanı": 2837,
      "▁konfor": 2838,
      "▁zaman": 2839,
      "▁dortluk": 2840,
      "▁geldik": 2841,
      "▁uzerinde": 2842,
      "▁strate": 2843,
      "▁rıh": 2844,
      "veren": 2845,
      "▁'nin": 2846,
      "/32": 2847,
      "▁esy": 2848,
      "▁kad": 2849,
      "▁fat": 2850,
      "▁bakim": 2851,
      "▁birbirleriyle": 2852,
      "usuz": 2853,
      "▁kavus": 2854,
      "▁mahs": 2855,
      "dır": 2856,
      "▁ind": 2857,
      "▁lt": 2858,
      "▁iz": 2859,
      "▁istanbul": 2860,
      "gında": 2861,
      "ano": 2862,
      "▁0": 2863,
      "▁sehr": 2864,
      "▁os": 2865,
      "▁sunu": 2866,
      "▁sosyal": 2867,
      "au": 2868,
      "▁bulbul": 2869,
      "▁cetin": 2870,
      "▁merhaba": 2871,
      "giniz": 2872,
      "▁bicim": 2873,
      "▁bastan": 2874,
      "▁sek": 2875,
      "'s": 2876,
      "ıg": 2877,
      "▁aydınlık": 2878,
      "▁but": 2879,
      "▁cet": 2880,
      "har": 2881,
      "▁huc": 2882,
      "▁icini": 2883,
      "▁tatlı": 2884,
      "▁sade": 2885,
      "▁%3": 2886,
      "▁selam": 2887,
      "▁buh": 2888,
      "▁pantolon": 2889,
      "alet": 2890,
      "rub": 2891,
      "▁aralık'ta": 2892,
      "enz": 2893,
      "larla": 2894,
      "▁lak": 2895,
      "▁pah": 2896,
      "▁sevgil": 2897,
      "▁cinayet": 2898,
      "▁muhim": 2899,
      "▁karı": 2900,
      "▁dedik": 2901,
      "▁tesekkurler": 2902,
      "▁elektrik": 2903,
      "▁gorevl": 2904,
      "iser": 2905,
      "▁olmustur": 2906,
      "ansiyon": 2907,
      "▁yonelik": 2908,
      "▁dısına": 2909,
      "▁kendisiyle": 2910,
      "▁dest": 2911,
      "▁yetersizdi": 2912,
      "▁krizi": 2913,
      "▁osmanlı": 2914,
      "eyn": 2915,
      "▁kaybol": 2916,
      "leme": 2917,
      "ıydı": 2918,
      "▁bekledigim": 2919,
      "gan": 2920,
      "▁sayın": 2921,
      "▁times": 2922,
      "▁laci": 2923,
      "▁du": 2924,
      "▁dahi": 2925,
      "▁milyardan": 2926,
      "▁miz": 2927,
      "yalar": 2928,
      "▁ogren": 2929,
      "▁odam": 2930,
      "▁olabil": 2931,
      "unce": 2932,
      "▁ov": 2933,
      "▁sıcak": 2934,
      "▁buraya": 2935,
      "▁sat": 2936,
      "ed": 2937,
      "▁birisine": 2938,
      "▁dısarıda": 2939,
      "med": 2940,
      "▁keskin": 2941,
      "▁yuvarlak": 2942,
      "istler": 2943,
      "atını": 2944,
      "▁love": 2945,
      "tıcı": 2946,
      "zet": 2947,
      "▁bakkal": 2948,
      "▁bunlar": 2949,
      "hut": 2950,
      "▁do": 2951,
      "▁anay": 2952,
      "bs": 2953,
      "▁emre": 2954,
      "▁hazırlanısı": 2955,
      "▁sayet": 2956,
      "▁resim": 2957,
      "imini": 2958,
      "▁basarı": 2959,
      "▁4.": 2960,
      "▁geride": 2961,
      "sat": 2962,
      "▁biber": 2963,
      "▁antr": 2964,
      "liligi": 2965,
      "▁ucretleri": 2966,
      "▁ed": 2967,
      "▁c": 2968,
      "undaki": 2969,
      "▁oper": 2970,
      "▁cumhuriyet": 2971,
      "▁olun": 2972,
      "ıza": 2973,
      "▁atmak": 2974,
      "▁baslay": 2975,
      "▁enerji": 2976,
      "▁93": 2977,
      "▁birbirlerine": 2978,
      "▁gecir": 2979,
      "▁mevsim": 2980,
      "▁hamle": 2981,
      "emin": 2982,
      "ediy": 2983,
      "▁60": 2984,
      "▁reklam": 2985,
      "▁%7.7": 2986,
      "▁impar": 2987,
      "▁sıc": 2988,
      "▁begendim": 2989,
      "▁artarak": 2990,
      "liklerini": 2991,
      "▁olay": 2992,
      "65": 2993,
      "maması": 2994,
      "miyorum": 2995,
      "rim": 2996,
      "miyor": 2997,
      "▁merdiven": 2998,
      "▁herif": 2999,
      "lif": 3000,
      "9.8": 3001,
      "▁un": 3002,
      "▁met": 3003,
      "ick": 3004,
      "▁kapat": 3005,
      "▁aktarma": 3006,
      "meni": 3007,
      "lem": 3008,
      "ında": 3009,
      "ınıza": 3010,
      "36": 3011,
      "ent": 3012,
      "▁karıstır": 3013,
      "▁gunde": 3014,
      "▁zeytin": 3015,
      "▁rev": 3016,
      "ft": 3017,
      "▁istedigim": 3018,
      "dıgınız": 3019,
      "▁restor": 3020,
      "iligi": 3021,
      "edil": 3022,
      "▁sıkın": 3023,
      "yal": 3024,
      "cının": 3025,
      "▁ard": 3026,
      "ly": 3027,
      "sızlık": 3028,
      "sal": 3029,
      "▁buyur": 3030,
      "▁sahipleri": 3031,
      "▁)": 3032,
      "▁yangın": 3033,
      "▁tanıt": 3034,
      "apur": 3035,
      "▁seklinde": 3036,
      "▁istanbul'un": 3037,
      "▁hissed": 3038,
      "▁donmus": 3039,
      "▁hamam": 3040,
      "▁cas": 3041,
      "ırt": 3042,
      "▁havayollarını": 3043,
      "▁no": 3044,
      "ka": 3045,
      "▁oyn": 3046,
      "▁66": 3047,
      "▁2003": 3048,
      "▁odada": 3049,
      "usunu": 3050,
      "cı": 3051,
      "iyoruz": 3052,
      "madıgını": 3053,
      "▁0.2": 3054,
      "▁cbs": 3055,
      "▁otelin": 3056,
      "3.2": 3057,
      "▁atlanta": 3058,
      "▁akın": 3059,
      "▁sizlere": 3060,
      "das": 3061,
      "▁cicek": 3062,
      "▁orada": 3063,
      "▁agzını": 3064,
      "suzluk": 3065,
      "ının": 3066,
      "▁isciler": 3067,
      "▁bıy": 3068,
      "▁bakanlıgı": 3069,
      "▁birinde": 3070,
      "▁degilsiniz": 3071,
      "▁guvenilir": 3072,
      "▁saldırı": 3073,
      "▁ozen": 3074,
      "asındaki": 3075,
      "yım": 3076,
      "▁ann": 3077,
      "▁ef": 3078,
      "▁sırt": 3079,
      "dıkca": 3080,
      "▁aldır": 3081,
      "▁tasın": 3082,
      "aydı": 3083,
      "▁ın": 3084,
      "▁kıs": 3085,
      "eti": 3086,
      "▁yılı": 3087,
      "▁ikib": 3088,
      "▁kayb": 3089,
      "pan": 3090,
      "▁endise": 3091,
      "▁muh": 3092,
      "▁topr": 3093,
      "▁vas": 3094,
      "▁eden": 3095,
      "▁hos": 3096,
      "▁hangisi": 3097,
      "▁kimisi": 3098,
      "▁2.": 3099,
      "▁3": 3100,
      "▁ayakkabı": 3101,
      "▁mini": 3102,
      "acak": 3103,
      "▁zih": 3104,
      "alım": 3105,
      "▁got": 3106,
      "gul": 3107,
      "▁kalabalık": 3108,
      "▁yaralan": 3109,
      "▁adalet": 3110,
      "gumu": 3111,
      "▁nisp": 3112,
      "▁sebep": 3113,
      "▁oc": 3114,
      "▁mısın": 3115,
      "▁o": 3116,
      "▁ucreti": 3117,
      "▁hikay": 3118,
      "▁lamb": 3119,
      "▁olması": 3120,
      "▁giydi": 3121,
      "▁gidiyorum": 3122,
      "'nde": 3123,
      "erin": 3124,
      "▁hal": 3125,
      "▁hareket": 3126,
      "lasma": 3127,
      "etir": 3128,
      "▁insanlara": 3129,
      "▁birincisi": 3130,
      "▁personeli": 3131,
      "▁yasat": 3132,
      "▁buyut": 3133,
      "aber": 3134,
      "▁cesi": 3135,
      "▁fin": 3136,
      "▁burun": 3137,
      "▁ayrıca": 3138,
      "tas": 3139,
      "▁sermaye": 3140,
      "▁rez": 3141,
      "▁gozet": 3142,
      "▁15": 3143,
      "liyorum": 3144,
      "▁kanada": 3145,
      "▁bahc": 3146,
      "▁beklenen": 3147,
      "▁manzarasi": 3148,
      "ıya": 3149,
      "▁arkadas": 3150,
      "▁ittifak": 3151,
      "melerin": 3152,
      "▁33": 3153,
      "▁kabil": 3154,
      "ef": 3155,
      "▁yapılan": 3156,
      "'den": 3157,
      "ad": 3158,
      "▁daha": 3159,
      "​": 3160,
      "▁zayif": 3161,
      "stems": 3162,
      "▁canlı": 3163,
      "▁bekleyen": 3164,
      "▁sayılır": 3165,
      "▁cogunu": 3166,
      "▁agab": 3167,
      "ırım": 3168,
      "asından": 3169,
      "lilik": 3170,
      "▁lut": 3171,
      "iyas": 3172,
      "ish": 3173,
      "age": 3174,
      ".25": 3175,
      "▁gec": 3176,
      "▁bizden": 3177,
      "▁ail": 3178,
      "mustu": 3179,
      "mıyorum": 3180,
      "▁i": 3181,
      "▁senar": 3182,
      "▁12'den": 3183,
      "▁kıvr": 3184,
      "▁silah": 3185,
      "layı": 3186,
      "▁yemek": 3187,
      "▁ki": 3188,
      "#": 3189,
      "▁donus": 3190,
      "▁kır": 3191,
      "onom": 3192,
      "lendi": 3193,
      "ima": 3194,
      "▁99": 3195,
      "▁cagır": 3196,
      "▁soyledi": 3197,
      "tin": 3198,
      "▁co": 3199,
      "▁yıla": 3200,
      "▁el": 3201,
      "▁halbu": 3202,
      "▁2.8": 3203,
      "▁musunuz": 3204,
      "▁boylu": 3205,
      "▁sın": 3206,
      "larda": 3207,
      "ulması": 3208,
      "▁bez": 3209,
      "▁dallas'tan": 3210,
      "ilerin": 3211,
      "eginde": 3212,
      "▁havası": 3213,
      "▁dava": 3214,
      "▁hayv": 3215,
      "ley": 3216,
      "▁hay": 3217,
      "▁yumus": 3218,
      "▁hur": 3219,
      "▁eli": 3220,
      "▁bulan": 3221,
      "▁59": 3222,
      "▁mahalle": 3223,
      "ila": 3224,
      "apolis": 3225,
      "ak": 3226,
      "▁mimar": 3227,
      "▁onur": 3228,
      "▁herkesin": 3229,
      "▁ogrenci": 3230,
      "▁etmey": 3231,
      "▁carol": 3232,
      "▁dos": 3233,
      "▁yapı": 3234,
      "▁olgun": 3235,
      "ısını": 3236,
      "i'nin": 3237,
      "▁kit": 3238,
      "▁kampanyalar": 3239,
      "▁te": 3240,
      "▁ick": 3241,
      "▁tedarik": 3242,
      "▁bilen": 3243,
      "▁bolumu": 3244,
      "▁asık": 3245,
      "▁sorunun": 3246,
      "egine": 3247,
      "▁1985": 3248,
      "▁doları": 3249,
      "▁dunyanın": 3250,
      "▁ticari": 3251,
      "lah": 3252,
      ":00": 3253,
      "▁soyledim": 3254,
      "op": 3255,
      "45": 3256,
      "▁oldugum": 3257,
      "▁vererek": 3258,
      "▁gelen": 3259,
      "▁yıg": 3260,
      "▁tutuk": 3261,
      "▁46": 3262,
      "▁onunde": 3263,
      "▁biri": 3264,
      "▁katkı": 3265,
      "▁sozcu": 3266,
      "▁fal": 3267,
      "▁lutf": 3268,
      "▁isit": 3269,
      "'ı": 3270,
      "▁satıslar": 3271,
      "▁dol": 3272,
      "▁gormedim": 3273,
      "▁teklifi": 3274,
      "▁evin": 3275,
      "ilmesini": 3276,
      "▁hap": 3277,
      "ucu": 3278,
      "▁sirketinin": 3279,
      "▁hoslan": 3280,
      "▁bany": 3281,
      "▁durak": 3282,
      "\\/32": 3283,
      "ia": 3284,
      "▁buf": 3285,
      "▁sizin": 3286,
      "ladılar": 3287,
      "▁fiyata": 3288,
      "inin": 3289,
      "for": 3290,
      "ardan": 3291,
      "▁tacoma'ya": 3292,
      "▁basvur": 3293,
      "▁ali": 3294,
      "endi": 3295,
      "▁kalabal": 3296,
      "▁yemeklerden": 3297,
      "▁olcu": 3298,
      "▁gorevlisi": 3299,
      "lan": 3300,
      "▁olmus": 3301,
      "▁sahip": 3302,
      "▁fasul": 3303,
      "▁futbol": 3304,
      "▁ideal": 3305,
      "▁yatır": 3306,
      "▁van": 3307,
      "▁suk": 3308,
      "▁aldıgı": 3309,
      "▁tesadu": 3310,
      "▁duk": 3311,
      "▁sonradan": 3312,
      "▁kaz": 3313,
      "▁yukselerek": 3314,
      "▁kendinize": 3315,
      "▁194": 3316,
      "▁dukkan": 3317,
      "▁yansı": 3318,
      "▁onem": 3319,
      "▁ucretini": 3320,
      "▁bah": 3321,
      "▁patates": 3322,
      "▁sene": 3323,
      "masıyla": 3324,
      "▁degilim": 3325,
      "▁faturam": 3326,
      "▁basbakan": 3327,
      "▁yan": 3328,
      "▁ydım": 3329,
      "▁gitti": 3330,
      "▁uygun": 3331,
      "▁birbir": 3332,
      "ver": 3333,
      "▁has": 3334,
      "dur": 3335,
      "▁nereye": 3336,
      "enler": 3337,
      "▁enerj": 3338,
      "▁beni": 3339,
      "ku": 3340,
      "arlar": 3341,
      "a": 3342,
      "▁tanesi": 3343,
      "▁business": 3344,
      "ence": 3345,
      "▁vazgec": 3346,
      "▁be": 3347,
      "diler": 3348,
      "▁koltu": 3349,
      "▁abd": 3350,
      "▁faal": 3351,
      "▁akr": 3352,
      "▁analist": 3353,
      "▁olayı": 3354,
      "ami": 3355,
      "▁yenil": 3356,
      "▁sunuyor": 3357,
      "▁derecede": 3358,
      "▁hakkı": 3359,
      "▁ydık": 3360,
      "uldugu": 3361,
      "▁olmak": 3362,
      "▁cok": 3363,
      "+": 3364,
      "atır": 3365,
      "▁107": 3366,
      "temiz": 3367,
      "tır": 3368,
      "▁turkiye": 3369,
      "▁numaralı": 3370,
      "▁3.3": 3371,
      "▁milwa": 3372,
      "▁taz": 3373,
      "▁meydan": 3374,
      "▁arkasında": 3375,
      "88": 3376,
      "▁klasik": 3377,
      "▁boston": 3378,
      "▁olarak": 3379,
      "▁dallas'ta": 3380,
      "▁del": 3381,
      "▁veya": 3382,
      "▁cam": 3383,
      "ilerek": 3384,
      "▁ekonomik": 3385,
      "ıh": 3386,
      "miyordu": 3387,
      "▁birkacı": 3388,
      "ilerle": 3389,
      "▁kalp": 3390,
      "▁yemeklerde": 3391,
      "acaktır": 3392,
      "▁5'ten": 3393,
      "por": 3394,
      "▁yavas": 3395,
      "ate": 3396,
      "▁geliri": 3397,
      "▁dunku": 3398,
      "▁mat": 3399,
      "▁odaya": 3400,
      "▁uyum": 3401,
      "ij": 3402,
      "▁islem": 3403,
      "▁uyuy": 3404,
      "▁telef": 3405,
      "▁sit": 3406,
      "▁oturan": 3407,
      "▁miy": 3408,
      "▁kaldik": 3409,
      "mam": 3410,
      "▁ederim": 3411,
      "▁yapıyor": 3412,
      "▁kosk": 3413,
      "vil": 3414,
      "▁kahkah": 3415,
      "el": 3416,
      "▁sus": 3417,
      "▁pıtır": 3418,
      "▁cesaret": 3419,
      "isim": 3420,
      "▁di": 3421,
      "▁kararı": 3422,
      "▁aqua": 3423,
      "vili": 3424,
      "▁had": 3425,
      "r.": 3426,
      "▁soyleyebilir": 3427,
      "▁sepet": 3428,
      "▁huzur": 3429,
      "▁asırı": 3430,
      "▁toplu": 3431,
      "▁uyar": 3432,
      "▁yana": 3433,
      "alarına": 3434,
      "▁she": 3435,
      "urt": 3436,
      "▁duygusal": 3437,
      "▁dalgın": 3438,
      "▁karsilama": 3439,
      "▁guven": 3440,
      "umuz": 3441,
      "▁say": 3442,
      "dıklarını": 3443,
      "▁munasebet": 3444,
      "emli": 3445,
      "uncu": 3446,
      "▁ofk": 3447,
      "▁ihtiyat": 3448,
      "▁balık": 3449,
      "▁first": 3450,
      "▁sıfır": 3451,
      "▁senden": 3452,
      "ari": 3453,
      "▁beach": 3454,
      "abını": 3455,
      "▁0.3": 3456,
      "▁top": 3457,
      "▁dolayi": 3458,
      "▁oteller": 3459,
      "▁uzakti": 3460,
      "esti": 3461,
      "▁boru": 3462,
      "elim": 3463,
      "▁mecl": 3464,
      "anbul": 3465,
      "▁yetkililer": 3466,
      "cileri": 3467,
      "▁elektr": 3468,
      "cılı": 3469,
      "ers": 3470,
      "unden": 3471,
      "▁ded": 3472,
      "▁halihazırda": 3473,
      "▁cogun": 3474,
      "medi": 3475,
      "▁county": 3476,
      "▁besin": 3477,
      "'u": 3478,
      "a'nın": 3479,
      "▁sef": 3480,
      "▁konumu": 3481,
      "▁giden": 3482,
      "▁yakalan": 3483,
      "▁7.9": 3484,
      "▁seg": 3485,
      "85": 3486,
      "▁sev": 3487,
      "▁pe": 3488,
      "▁ozel": 3489,
      "layacak": 3490,
      "▁197": 3491,
      "▁%1": 3492,
      "inde": 3493,
      "▁gelmedi": 3494,
      "▁as": 3495,
      "▁simdiye": 3496,
      "oloj": 3497,
      "▁3\\/4": 3498,
      "▁temel": 3499,
      "▁lu": 3500,
      "▁yat": 3501,
      "▁195": 3502,
      "▁tit": 3503,
      "▁savunma": 3504,
      "ekler": 3505,
      "▁dav": 3506,
      "▁corp": 3507,
      "▁suph": 3508,
      "luk": 3509,
      "afir": 3510,
      "▁iceriye": 3511,
      "▁plastik": 3512,
      "▁durumunda": 3513,
      "▁karsılık": 3514,
      "▁bircok": 3515,
      "▁ikna": 3516,
      "▁dc": 3517,
      "▁gidecek": 3518,
      "▁ikinci": 3519,
      "▁newark'a": 3520,
      "▁cincinnati": 3521,
      "▁vapur": 3522,
      "▁3.4": 3523,
      "imdi": 3524,
      "▁firma": 3525,
      "▁yararlı": 3526,
      "▁olanaklarını": 3527,
      "tanın": 3528,
      "ırlar": 3529,
      "▁gecenin": 3530,
      "▁altı": 3531,
      "lardaki": 3532,
      "▁tesaduf": 3533,
      "▁usul": 3534,
      "▁hacim": 3535,
      "▁kapı": 3536,
      "iski": 3537,
      "luluk": 3538,
      "▁ayak": 3539,
      "80": 3540,
      "▁1\\/8": 3541,
      "▁mehmet": 3542,
      "▁musteri": 3543,
      "-22:30": 3544,
      "▁patlı": 3545,
      "▁bizler": 3546,
      "osy": 3547,
      "▁yurudu": 3548,
      "▁civarı": 3549,
      "abet": 3550,
      "▁north": 3551,
      "lı": 3552,
      "▁darb": 3553,
      "umda": 3554,
      "▁leh": 3555,
      "▁bedel": 3556,
      "▁beyaz": 3557,
      "▁urk": 3558,
      "▁acısından": 3559,
      "▁10'dan": 3560,
      "sam": 3561,
      "▁onc": 3562,
      "▁onun": 3563,
      "▁yen": 3564,
      "-23": 3565,
      "▁kuvvetli": 3566,
      "▁bilgiye": 3567,
      "▁odalar": 3568,
      "▁cincinnati'den": 3569,
      "▁tutun": 3570,
      "▁yonetim": 3571,
      "▁ucmak": 3572,
      "eledi": 3573,
      "▁ellerini": 3574,
      "▁sozunu": 3575,
      "bir": 3576,
      "▁ceyr": 3577,
      "ge": 3578,
      "▁sevin": 3579,
      "▁kisilerin": 3580,
      "gileri": 3581,
      "▁portakal": 3582,
      "▁post": 3583,
      "▁duruyordu": 3584,
      "akat": 3585,
      "▁calıs": 3586,
      "▁havayolları": 3587,
      "▁yeme": 3588,
      "amaya": 3589,
      "▁veril": 3590,
      "▁geriledi": 3591,
      "▁pirinc": 3592,
      "ega": 3593,
      "▁eski": 3594,
      "`": 3595,
      "▁gom": 3596,
      "▁bırak": 3597,
      "▁lev": 3598,
      "▁baglı": 3599,
      "▁aylık": 3600,
      "umun": 3601,
      "▁farklılık": 3602,
      "artesi": 3603,
      "unde": 3604,
      "▁perd": 3605,
      "▁19": 3606,
      "▁yalnızca": 3607,
      "▁kampanya": 3608,
      "▁cıkardı": 3609,
      "amadan": 3610,
      "▁ert": 3611,
      "ner": 3612,
      "▁korkut": 3613,
      "▁ib": 3614,
      "mıstır": 3615,
      "▁yun": 3616,
      "▁med": 3617,
      "▁verici": 3618,
      "tim": 3619,
      "▁fotograf": 3620,
      "▁masaya": 3621,
      "▁kazancları": 3622,
      "▁gitmek": 3623,
      "▁altında": 3624,
      "▁2.9": 3625,
      "ıstır": 3626,
      "atı": 3627,
      "▁nice": 3628,
      "gumuz": 3629,
      "▁bodrum": 3630,
      "▁yatırımcıların": 3631,
      "▁coktu": 3632,
      "▁isletme": 3633,
      "▁garanti": 3634,
      "▁kr": 3635,
      "ahat": 3636,
      "100": 3637,
      "imleri": 3638,
      "▁yiz": 3639,
      "▁iskonto": 3640,
      "▁gerekir": 3641,
      "▁sizden": 3642,
      "tep": 3643,
      "▁haberdar": 3644,
      "yor": 3645,
      "aması": 3646,
      "ir": 3647,
      "▁ulasımı": 3648,
      "▁finc": 3649,
      "▁olmadıgını": 3650,
      "▁kazanan": 3651,
      "▁cesitli": 3652,
      "▁kara": 3653,
      "mistim": 3654,
      "▁u": 3655,
      "5'e": 3656,
      "larından": 3657,
      "▁soru": 3658,
      "▁donemde": 3659,
      "▁muhendi": 3660,
      "▁kiler": 3661,
      "▁derec": 3662,
      "ustr": 3663,
      "▁dallas'a": 3664,
      "arında": 3665,
      "▁turlu": 3666,
      "▁haket": 3667,
      "'nda": 3668,
      "ımın": 3669,
      "▁doldur": 3670,
      "▁kurum": 3671,
      "▁est": 3672,
      "▁marka": 3673,
      "▁bahar": 3674,
      "▁1.9": 3675,
      "▁william": 3676,
      "aket": 3677,
      "▁goz": 3678,
      "ler": 3679,
      "▁iy": 3680,
      "▁diler": 3681,
      "00": 3682,
      "▁kısın": 3683,
      "▁ihtiy": 3684,
      "ıyı": 3685,
      "imde": 3686,
      "▁belki": 3687,
      "▁ziyaret": 3688,
      "▁sizler": 3689,
      "▁havalimanı": 3690,
      "bilir": 3691,
      "lig": 3692,
      "▁nicin": 3693,
      "sak": 3694,
      "▁ederek": 3695,
      "▁rap": 3696,
      "▁sofr": 3697,
      "kırı": 3698,
      "▁mar": 3699,
      "▁tabi": 3700,
      "▁olmasına": 3701,
      "4.5": 3702,
      "▁ve": 3703,
      "ım": 3704,
      "▁duser": 3705,
      "▁%9.": 3706,
      "akar": 3707,
      "▁bankası": 3708,
      "qu": 3709,
      "ini": 3710,
      "▁hayatı": 3711,
      "▁pahali": 3712,
      "uyu": 3713,
      "▁varsa": 3714,
      "mus": 3715,
      "▁buz": 3716,
      "▁kal": 3717,
      "▁ihrac": 3718,
      "5'ten": 3719,
      "id": 3720,
      "▁sıkıntı": 3721,
      "▁:": 3722,
      "luktan": 3723,
      "emedi": 3724,
      "▁dorduncu": 3725,
      "▁deney": 3726,
      "cilerin": 3727,
      "▁aksi": 3728,
      "▁dak": 3729,
      "ugh": 3730,
      "▁uyk": 3731,
      "▁temizlik": 3732,
      "▁takımı": 3733,
      "▁34": 3734,
      "▁doların": 3735,
      "▁otelde": 3736,
      "▁seninle": 3737,
      "▁biliyor": 3738,
      "▁ticaret": 3739,
      "madı": 3740,
      "▁kasıgı": 3741,
      "▁basladılar": 3742,
      "▁cif": 3743,
      "ileri": 3744,
      "▁kapıyı": 3745,
      "▁etmeye": 3746,
      "dedi": 3747,
      "▁izlen": 3748,
      "▁prens": 3749,
      "▁umut": 3750,
      "▁yesil": 3751,
      "86": 3752,
      "▁heykel": 3753,
      "▁sirketler": 3754,
      "▁gem": 3755,
      "▁&": 3756,
      ".7": 3757,
      "▁ustune": 3758,
      "bol": 3759,
      "▁kendimize": 3760,
      "▁cıkınca": 3761,
      "▁dagıt": 3762,
      "meden": 3763,
      "deniz": 3764,
      "▁potansiy": 3765,
      "lıktan": 3766,
      "dik": 3767,
      "▁kenara": 3768,
      "▁hayata": 3769,
      "▁7/8": 3770,
      "▁beklentim": 3771,
      "meyi": 3772,
      "▁arz": 3773,
      "▁taze": 3774,
      "inda": 3775,
      "ı": 3776,
      "▁onumuz": 3777,
      "ken": 3778,
      "dunuz": 3779,
      "alarında": 3780,
      "▁cekildi": 3781,
      "▁%1.7": 3782,
      "▁sıkı": 3783,
      "▁bazi": 3784,
      "▁kas": 3785,
      "▁sms": 3786,
      "▁banyo": 3787,
      "▁seyahat": 3788,
      "▁hakkında": 3789,
      "▁detroit'e": 3790,
      "▁ku": 3791,
      "▁basit": 3792,
      "▁tuttu": 3793,
      "▁mey": 3794,
      "▁les": 3795,
      "▁cadd": 3796,
      "istir": 3797,
      "▁fazlay": 3798,
      "uyla": 3799,
      "▁boyut": 3800,
      "▁raf": 3801,
      "▁bunlara": 3802,
      "▁kacır": 3803,
      "▁tasarruf": 3804,
      "im": 3805,
      "oeni": 3806,
      "▁degiller": 3807,
      "▁baslar": 3808,
      "▁fon": 3809,
      "▁300": 3810,
      "▁sabahı": 3811,
      "▁ıcı": 3812,
      "▁mide": 3813,
      ":": 3814,
      "esine": 3815,
      "ihan": 3816,
      "▁yarat": 3817,
      "▁sayılı": 3818,
      "4": 3819,
      "▁bulus": 3820,
      "▁verdik": 3821,
      "▁memphis'e": 3822,
      "▁sınav": 3823,
      "▁gozunu": 3824,
      "▁8'den": 3825,
      "deri": 3826,
      "27": 3827,
      "▁askeri": 3828,
      "▁hit": 3829,
      "▁yara": 3830,
      "▁diren": 3831,
      "istim": 3832,
      "▁deyip": 3833,
      "▁pisti": 3834,
      "lanıyor": 3835,
      "▁tren": 3836,
      "▁yum": 3837,
      "▁org": 3838,
      "▁ye": 3839,
      "mamıstı": 3840,
      "▁erken": 3841,
      "▁ugras": 3842,
      "▁.)": 3843,
      "▁guclu": 3844,
      "▁kalan": 3845,
      "▁gectigimiz": 3846,
      "acılar": 3847,
      "▁ger": 3848,
      "▁pırıl": 3849,
      "▁birinci": 3850,
      "▁sofor": 3851,
      "▁tic": 3852,
      "leri": 3853,
      "▁mos": 3854,
      "▁saf": 3855,
      "▁22": 3856,
      "▁ik": 3857,
      "▁yog": 3858,
      "br": 3859,
      "▁sahib": 3860,
      "▁aktivite": 3861,
      "▁pitts": 3862,
      "▁ihracı": 3863,
      "▁ceza": 3864,
      "▁yanak": 3865,
      "▁neler": 3866,
      "▁karısı": 3867,
      "leriyle": 3868,
      "11": 3869,
      "ciler": 3870,
      "▁birisi": 3871,
      "▁ucusunuz": 3872,
      "▁nakit": 3873,
      "cek": 3874,
      "▁cocukları": 3875,
      "▁yoneticisi": 3876,
      "▁kesildi": 3877,
      "▁kapasit": 3878,
      "▁ep": 3879,
      "▁fir": 3880,
      "acagı": 3881,
      "▁kendi": 3882,
      "▁yal": 3883,
      "▁olmayı": 3884,
      "▁bag": 3885,
      "▁yunan": 3886,
      "▁anlama": 3887,
      "▁deh": 3888,
      "▁toh": 3889,
      "▁egz": 3890,
      "▁dem": 3891,
      "▁tuhaf": 3892,
      "▁cogunlukla": 3893,
      "lesti": 3894,
      "▁bıyık": 3895,
      "▁teb": 3896,
      "igi": 3897,
      "▁ad": 3898,
      "▁rezerv": 3899,
      "pr": 3900,
      "lamak": 3901,
      "▁soyley": 3902,
      "▁tarif": 3903,
      "▁celik": 3904,
      "▁korkunc": 3905,
      "▁gormuyor": 3906,
      "esi'nde": 3907,
      "▁gen": 3908,
      "▁birim": 3909,
      "▁texas": 3910,
      "▁itibaren": 3911,
      "amız": 3912,
      "▁isletmeler": 3913,
      "▁profesyonel": 3914,
      "▁kusk": 3915,
      "▁bab": 3916,
      "uv": 3917,
      "▁baz": 3918,
      "▁asagıda": 3919,
      "elerde": 3920,
      "meli": 3921,
      "▁yaptık": 3922,
      "▁bekleniyor": 3923,
      "▁sirketlerin": 3924,
      "▁duyg": 3925,
      "▁bileti": 3926,
      "▁yeter": 3927,
      "is": 3928,
      "▁yuz": 3929,
      "▁nedenle": 3930,
      "▁durdur": 3931,
      "onu": 3932,
      "▁rot": 3933,
      "dım": 3934,
      "▁pus": 3935,
      "▁con": 3936,
      "▁artık": 3937,
      "▁calısıyor": 3938,
      "as": 3939,
      "\\": 3940,
      "luga": 3941,
      "▁geor": 3942,
      "▁1.000": 3943,
      "▁yaslı": 3944,
      "▁sureci": 3945,
      "▁wall": 3946,
      "▁derken": 3947,
      "dılar": 3948,
      "▁gorun": 3949,
      "uyle": 3950,
      "lıkla": 3951,
      "▁sans": 3952,
      ".43": 3953,
      "▁restoran": 3954,
      "▁kap": 3955,
      "lugun": 3956,
      "▁ted": 3957,
      "▁ust": 3958,
      "▁76": 3959,
      "▁form": 3960,
      "▁seattle": 3961,
      "▁omer": 3962,
      "▁dedim": 3963,
      "▁efsan": 3964,
      "▁ey": 3965,
      "▁veto": 3966,
      "gın": 3967,
      "adar": 3968,
      "▁kosulları": 3969,
      "cu": 3970,
      "▁satılan": 3971,
      "sık": 3972,
      "▁kampanyalardan": 3973,
      "hane": 3974,
      "iskin": 3975,
      "▁dans": 3976,
      "▁iceri": 3977,
      "▁re": 3978,
      "▁saray": 3979,
      "rin": 3980,
      "▁sıy": 3981,
      "▁lim": 3982,
      "mun": 3983,
      "▁yarısı": 3984,
      "▁dusuyor": 3985,
      "▁miras": 3986,
      "▁cir": 3987,
      "▁gam": 3988,
      "mec": 3989,
      "kır": 3990,
      "▁montre": 3991,
      "▁lezzetliydi": 3992,
      "▁tasıyor": 3993,
      "▁takip": 3994,
      "▁sanatcı": 3995,
      "▁bunun": 3996,
      "gından": 3997,
      "y": 3998,
      "▁pro": 3999,
      "▁muyuz": 4000,
      "lerden": 4001,
      "lesmis": 4002,
      "tıktan": 4003,
      "▁polis": 4004,
      "▁adi": 4005,
      "▁denilen": 4006,
      "▁arkadası": 4007,
      "▁iyiydi": 4008,
      "▁neredeyse": 4009,
      "…": 4010,
      "▁%4.8": 4011,
      "tar": 4012,
      "'daki": 4013,
      "..": 4014,
      "▁karlı": 4015,
      "▁yah": 4016,
      "▁evi": 4017,
      "hi": 4018,
      "▁uzerine": 4019,
      "▁mustafa": 4020,
      "var": 4021,
      "▁yasanan": 4022,
      "▁elli": 4023,
      "une": 4024,
      "▁plas": 4025,
      "▁mark": 4026,
      "▁haydi": 4027,
      "▁gurultu": 4028,
      "▁istemiyorum": 4029,
      "▁hangi": 4030,
      "▁baktı": 4031,
      "▁oldug": 4032,
      "▁salat": 4033,
      "arım": 4034,
      "▁oglum": 4035,
      "▁kanun": 4036,
      "▁donuk": 4037,
      "▁tuc": 4038,
      "▁kutu": 4039,
      "▁yarar": 4040,
      "▁televizyon": 4041,
      "▁carsı": 4042,
      "▁okun": 4043,
      "lanması": 4044,
      "▁erdi": 4045,
      "asıyor": 4046,
      "▁uretic": 4047,
      "▁kesti": 4048,
      "▁kendimi": 4049,
      "▁gey": 4050,
      "fik": 4051,
      "▁uygulan": 4052,
      "▁kullanılan": 4053,
      "[UNK]": 4054,
      "muyordu": 4055,
      "▁sivil": 4056,
      "▁goc": 4057,
      "cel": 4058,
      "▁henuz": 4059,
      "▁ign": 4060,
      "▁tarz": 4061,
      "▁kendiler": 4062,
      "▁teslim": 4063,
      "cilik": 4064,
      "▁bilmek": 4065,
      "▁ask": 4066,
      "▁aktif": 4067,
      "▁giy": 4068,
      "mar": 4069,
      "▁arıyor": 4070,
      "▁avuc": 4071,
      "▁parmak": 4072,
      "▁beyan": 4073,
      "▁mendi": 4074,
      "▁cunku": 4075,
      "▁kayıt": 4076,
      "▁oluyor": 4077,
      "▁yuksel": 4078,
      "▁ogr": 4079,
      "ar": 4080,
      "▁seyr": 4081,
      "▁utan": 4082,
      "▁isv": 4083,
      "▁haf": 4084,
      "▁duman": 4085,
      "▁yenilen": 4086,
      "▁kalkıyor": 4087,
      "▁burn": 4088,
      "▁vatandas": 4089,
      "▁aga": 4090,
      "▁serv": 4091,
      "▁27": 4092,
      "▁petersburg'dan": 4093,
      "▁iktidar": 4094,
      "▁jon": 4095,
      "▁paraya": 4096,
      "▁zihn": 4097,
      "gah": 4098,
      "▁hurr": 4099,
      "▁86": 4100,
      "▁prof": 4101,
      "▁zengin": 4102,
      "▁haval": 4103,
      "▁dudak": 4104,
      "▁stratej": 4105,
      "▁bıcak": 4106,
      "▁adamı": 4107,
      "▁secim": 4108,
      "▁baktım": 4109,
      "▁cı": 4110,
      "▁kapattı": 4111,
      "▁direktoru": 4112,
      "isel": 4113,
      "▁gorunuyordu": 4114,
      "▁engel": 4115,
      "▁tim": 4116,
      "una": 4117,
      "▁kapas": 4118,
      "▁yonetimi": 4119,
      "▁tesisi": 4120,
      "▁acent": 4121,
      "▁enf": 4122,
      "▁twa": 4123,
      "▁k": 4124,
      "▁sultan": 4125,
      "▁110": 4126,
      "▁tedavul": 4127,
      "▁tucc": 4128,
      "▁bes": 4129,
      "'de": 4130,
      "▁sigorta": 4131,
      ".4": 4132,
      "▁gumbur": 4133,
      "▁tesekkur": 4134,
      "▁muhtesem": 4135,
      "▁golge": 4136,
      "▁kızlar": 4137,
      "▁kırk": 4138,
      ".125": 4139,
      "gelelim": 4140,
      "▁merkezi": 4141,
      "▁etkisi": 4142,
      "▁3.1": 4143,
      "lerdir": 4144,
      "▁w": 4145,
      "▁saatlerinde": 4146,
      "▁tedav": 4147,
      "▁lou": 4148,
      "ıklı": 4149,
      "▁dım": 4150,
      "▁dısı": 4151,
      "▁ceh": 4152,
      "acagımı": 4153,
      "ırı": 4154,
      "▁ag": 4155,
      "▁sag": 4156,
      "▁bro": 4157,
      "▁prob": 4158,
      "▁seni": 4159,
      "asına": 4160,
      "▁ikiye": 4161,
      "▁sinir": 4162,
      "iniki": 4163,
      "▁edec": 4164,
      "▁alma": 4165,
      "▁bulabilir": 4166,
      "▁yatırımcı": 4167,
      "▁olustur": 4168,
      "▁ital": 4169,
      "2'den": 4170,
      "ust": 4171,
      "ulmaz": 4172,
      "lebilir": 4173,
      "▁kaliteye": 4174,
      "'un": 4175,
      "ato": 4176,
      "▁belir": 4177,
      "▁hareketi": 4178,
      "'ya": 4179,
      "▁olmadan": 4180,
      "▁kurus": 4181,
      "▁vakti": 4182,
      "▁dort": 4183,
      "▁cik": 4184,
      "lak": 4185,
      "etin": 4186,
      "fet": 4187,
      "ilig": 4188,
      "▁sil": 4189,
      "ug": 4190,
      "▁ig": 4191,
      "▁lisans": 4192,
      "▁fer": 4193,
      "▁cleveland'dan": 4194,
      "▁mahk": 4195,
      "▁yavr": 4196,
      "▁fazlası": 4197,
      "▁elleri": 4198,
      "▁gib": 4199,
      "▁olmalıydı": 4200,
      "ladım": 4201,
      ".85": 4202,
      "▁sars": 4203,
      "▁n": 4204,
      "▁pantol": 4205,
      "▁5": 4206,
      "▁kor": 4207,
      "acı": 4208,
      "ood": 4209,
      "ebilecek": 4210,
      "ill": 4211,
      "▁grub": 4212,
      "▁karıs": 4213,
      "▁tasır": 4214,
      "▁hacmi": 4215,
      "▁gecerli": 4216,
      "ugun": 4217,
      ":00-22:30": 4218,
      "▁hizmetten": 4219,
      "dat": 4220,
      "▁mahkem": 4221,
      "▁dolu": 4222,
      "▁city'e": 4223,
      "▁arasındaki": 4224,
      "lardır": 4225,
      "unca": 4226,
      "lasyon": 4227,
      "▁pisir": 4228,
      "▁ithalat": 4229,
      "ayı": 4230,
      "▁konusur": 4231,
      "enen": 4232,
      "▁kazandı": 4233,
      "artman": 4234,
      "▁dengesi": 4235,
      "dıktan": 4236,
      "ilmek": 4237,
      "'deki": 4238,
      "▁kıt": 4239,
      "▁endis": 4240,
      "▁cumle": 4241,
      "▁olacagı": 4242,
      "▁istiyorlar": 4243,
      "'dan": 4244,
      "▁don": 4245,
      "▁mesela": 4246,
      "o": 4247,
      "▁mektup": 4248,
      "▁yildi": 4249,
      "▁kurtaj": 4250,
      "▁oraya": 4251,
      "▁chicago'ya": 4252,
      "misti": 4253,
      "▁kazanc": 4254,
      "cıların": 4255,
      "▁isp": 4256,
      "▁mobil": 4257,
      "ekul": 4258,
      "1.2": 4259,
      "▁tut": 4260,
      "tari": 4261,
      "ems": 4262,
      "▁national": 4263,
      "iliyor": 4264,
      "ıt": 4265,
      "andı": 4266,
      "▁hapis": 4267,
      "lasmıs": 4268,
      "▁erkekler": 4269,
      "▁ozlem": 4270,
      "malıdır": 4271,
      "▁analiz": 4272,
      "▁sakal": 4273,
      "bucuk": 4274,
      "▁korun": 4275,
      "▁zavallı": 4276,
      "▁devam": 4277,
      "tay": 4278,
      "irmi": 4279,
      "iyet": 4280,
      "len": 4281,
      "▁ref": 4282,
      "▁%0.2": 4283,
      "▁pa": 4284,
      "▁havuz": 4285,
      "▁ecz": 4286,
      "▁genclik": 4287,
      "▁vır": 4288,
      "▁kurulu": 4289,
      "▁zırt": 4290,
      "dim": 4291,
      "▁vakit": 4292,
      "▁bomb": 4293,
      "▁tedavulde": 4294,
      "▁fıkı": 4295,
      "▁burada": 4296,
      "likleri": 4297,
      "▁35": 4298,
      "▁arası": 4299,
      "▁yapmadı": 4300,
      "▁man": 4301,
      "▁cincinnati'ye": 4302,
      "▁j.": 4303,
      "min": 4304,
      "▁20.": 4305,
      "▁cuk": 4306,
      "▁800": 4307,
      "say": 4308,
      "▁yapti": 4309,
      "▁milyonluk": 4310,
      "▁nedeniyle": 4311,
      "▁urunleri": 4312,
      "▁yitir": 4313,
      "day": 4314,
      ".875": 4315,
      "nal": 4316,
      "▁boz": 4317,
      "▁chicago": 4318,
      "▁kiz": 4319,
      "-1": 4320,
      "vıl": 4321,
      "u": 4322,
      "▁durumu": 4323,
      "▁seyir": 4324,
      "▁uluslar": 4325,
      "▁neyi": 4326,
      "▁biridir": 4327,
      "▁genelde": 4328,
      "sik": 4329,
      "▁cat": 4330,
      "▁yuzunden": 4331,
      "▁kırm": 4332,
      "▁cav": 4333,
      "▁der": 4334,
      "▁film": 4335,
      "▁so": 4336,
      "▁kaliteli": 4337,
      "▁baltimore'den": 4338,
      "ısıyla": 4339,
      "▁acı": 4340,
      "iyordu": 4341,
      "▁b": 4342,
      "▁bel": 4343,
      "▁sırasında": 4344,
      "▁bosalt": 4345,
      "▁esn": 4346,
      "▁yolcu": 4347,
      "▁iler": 4348,
      "sar": 4349,
      "▁bu": 4350,
      "▁kitab": 4351,
      "ınıyor": 4352,
      "▁indianapolis'ten": 4353,
      "▁taht": 4354,
      "▁fiyatlarını": 4355,
      "▁mektu": 4356,
      "▁luk": 4357,
      "▁ikibiniki": 4358,
      "▁%11": 4359,
      "▁onumuzdeki": 4360,
      "▁aykırı": 4361,
      "▁geri": 4362,
      "▁eser": 4363,
      "▁agız": 4364,
      "siz": 4365,
      "'nun": 4366,
      "▁arttı": 4367,
      "▁gider": 4368,
      "▁dogum": 4369,
      "▁resepsiyon": 4370,
      "▁herhan": 4371,
      "▁yazar": 4372,
      "lerde": 4373,
      "▁dis": 4374,
      "▁birinin": 4375,
      "▁temsil": 4376,
      "▁kisiyi": 4377,
      "ock": 4378,
      "▁nasdaq": 4379,
      "▁goturdu": 4380,
      "ekli": 4381,
      "▁hukuk": 4382,
      "7": 4383,
      "▁biy": 4384,
      "▁lor": 4385,
      "▁gm": 4386,
      "▁yonetici": 4387,
      "ji": 4388,
      "iciler": 4389,
      "▁12.5": 4390,
      "▁onların": 4391,
      "amıyor": 4392,
      "▁cıkan": 4393,
      "▁almaya": 4394,
      "▁mill": 4395,
      "▁denizin": 4396,
      "▁yapıldı": 4397,
      "▁denet": 4398,
      "▁kendilerini": 4399,
      "▁guleryuzlu": 4400,
      "▁%12": 4401,
      "ısıl": 4402,
      "▁eglenceli": 4403,
      "▁tahvilleri": 4404,
      "▁huz": 4405,
      "▁alıskan": 4406,
      "▁devlet": 4407,
      "▁iptal": 4408,
      "▁alımı": 4409,
      "j": 4410,
      "▁yetis": 4411,
      "▁otuz": 4412,
      "▁dagı": 4413,
      "▁basv": 4414,
      "▁yargı": 4415,
      "▁birdenbire": 4416,
      "▁hor": 4417,
      "▁borsa": 4418,
      "▁ydı": 4419,
      "▁evlen": 4420,
      "▁pembe": 4421,
      "▁vardi": 4422,
      "eni": 4423,
      "lerin": 4424,
      "▁ip": 4425,
      "▁siyas": 4426,
      "▁yasar": 4427,
      "▁ogle": 4428,
      "tıgım": 4429,
      "▁mel": 4430,
      "iyak": 4431,
      "ımızda": 4432,
      "▁tey": 4433,
      "▁poz": 4434,
      "▁elem": 4435,
      "▁rakı": 4436,
      "▁tutmak": 4437,
      "lerinin": 4438,
      "▁alır": 4439,
      "▁muhalef": 4440,
      "▁eks": 4441,
      "6.6": 4442,
      "▁kay": 4443,
      "▁verdigim": 4444,
      "▁hakim": 4445,
      "▁firmalar": 4446,
      "▁yak": 4447,
      "▁siddet": 4448,
      "▁houston'a": 4449,
      "▁yatırım": 4450,
      "▁fikir": 4451,
      "▁sermay": 4452,
      "oks": 4453,
      "▁gurult": 4454,
      "▁maz": 4455,
      "▁diy": 4456,
      "▁netic": 4457,
      "▁verdigini": 4458,
      "▁esk": 4459,
      "▁kup": 4460,
      "▁ikisi": 4461,
      "▁cevirdi": 4462,
      "▁id": 4463,
      "▁ilgilen": 4464,
      "▁hukumetin": 4465,
      "isleri": 4466,
      "astır": 4467,
      "▁birbirini": 4468,
      "lamıstı": 4469,
      "▁hisse": 4470,
      "rek": 4471,
      "malarını": 4472,
      "▁californ": 4473,
      "ye": 4474,
      "▁muslum": 4475,
      "▁piyasası": 4476,
      "tel": 4477,
      "▁veriyor": 4478,
      "▁”": 4479,
      "um": 4480,
      "▁yasayan": 4481,
      "▁murat": 4482,
      "▁ediliyor": 4483,
      "▁alısver": 4484,
      "▁eb": 4485,
      "▁dosy": 4486,
      "▁ayında": 4487,
      "▁ediyorum": 4488,
      "▁florida": 4489,
      "it": 4490,
      "▁tuz": 4491,
      "▁art": 4492,
      "▁icecekleri": 4493,
      "▁tanıs": 4494,
      "▁tesisin": 4495,
      "▁edil": 4496,
      "▁pahaliydi": 4497,
      "▁%4": 4498,
      "dıgı": 4499,
      "▁japonya": 4500,
      "tal": 4501,
      "▁harekete": 4502,
      "gel": 4503,
      "▁diyorum": 4504,
      "▁otobus": 4505,
      "ul": 4506,
      "▁tumu": 4507,
      "▁barın": 4508,
      "▁bahsederim": 4509,
      "▁istir": 4510,
      "▁politik": 4511,
      "▁zamanlar": 4512,
      "▁ısı": 4513,
      "▁biriydi": 4514,
      "ilere": 4515,
      "▁kısmen": 4516,
      "▁pil": 4517,
      "▁1.4": 4518,
      "▁etraf": 4519,
      "lil": 4520,
      "▁7.5": 4521,
      "duz": 4522,
      "▁415": 4523,
      "▁ydim": 4524,
      "esiz": 4525,
      "ding": 4526,
      "ayım": 4527,
      "▁birka": 4528,
      "or": 4529,
      "▁komisyon": 4530,
      "▁kacın": 4531,
      "und": 4532,
      "▁bıraktı": 4533,
      "'yi": 4534,
      "▁yukselt": 4535,
      "gıl": 4536,
      "emiyor": 4537,
      "▁24": 4538,
      "▁kirp": 4539,
      "▁soy": 4540,
      "▁aktar": 4541,
      "▁sog": 4542,
      "▁iddi": 4543,
      "▁fedakar": 4544,
      "▁rah": 4545,
      "▁rahatsız": 4546,
      "▁farklı": 4547,
      "▁domates": 4548,
      "▁co.": 4549,
      "▁17": 4550,
      "acagım": 4551,
      "ersin": 4552,
      "▁abd'nin": 4553,
      "edim": 4554,
      "▁uzakta": 4555,
      "▁eylem": 4556,
      "20": 4557,
      "▁sonrası": 4558,
      "▁yapma": 4559,
      "egini": 4560,
      "▁dolas": 4561,
      "▁doktor": 4562,
      "▁istedigi": 4563,
      "ack": 4564,
      "leyerek": 4565,
      "set": 4566,
      "▁bey": 4567,
      "imin": 4568,
      "▁konfer": 4569,
      "▁vatand": 4570,
      "ograf": 4571,
      "▁cozum": 4572,
      ".08": 4573,
      "▁fabrika": 4574,
      "▁nokta": 4575,
      "▁makal": 4576,
      "eyebilir": 4577,
      "▁franc": 4578,
      "▁nur": 4579,
      "ec": 4580,
      "ayet": 4581,
      "dıgım": 4582,
      "▁husus": 4583,
      "▁icerisinde": 4584,
      "lar": 4585,
      "ya": 4586,
      "▁gerekli": 4587,
      "▁koydu": 4588,
      "▁george": 4589,
      "tif": 4590,
      "uldu": 4591,
      "▁bilinen": 4592,
      "ılır": 4593,
      "dın": 4594,
      "▁bon": 4595,
      "▁yani": 4596,
      "▁hem": 4597,
      "ecegiz": 4598,
      "▁!": 4599,
      "▁sapır": 4600,
      "tedir": 4601,
      "vek": 4602,
      "▁olmam": 4603,
      "▁memphis'ten": 4604,
      "▁uyandır": 4605,
      "▁unlu": 4606,
      "▁1988": 4607,
      "lara": 4608,
      "▁trafik": 4609,
      "▁ayn": 4610,
      "▁amer": 4611,
      "mesini": 4612,
      "▁hisseye": 4613,
      "lerdi": 4614,
      "ısı": 4615,
      "inize": 4616,
      "▁borsası": 4617,
      "▁performansi": 4618,
      "gunu": 4619,
      "▁kaynagı": 4620,
      "▁paran": 4621,
      "▁baltimore": 4622,
      "▁bunda": 4623,
      "hangi": 4624,
      "nam": 4625,
      "kar": 4626,
      "▁pazartesi": 4627,
      "▁fena": 4628,
      "▁cıkacak": 4629,
      "emem": 4630,
      "ore": 4631,
      "samba": 4632,
      "▁saglamak": 4633,
      "▁kıymetler": 4634,
      "▁st": 4635,
      "iyordum": 4636,
      "▁kendisinden": 4637,
      ".1": 4638,
      "▁kapıdan": 4639,
      "▁deger": 4640,
      "▁soh": 4641,
      "▁piyasalar": 4642,
      "▁duvar": 4643,
      "gru": 4644,
      "▁mitchell": 4645,
      "bire": 4646,
      "▁sez": 4647,
      "▁endustr": 4648,
      "▁esya": 4649,
      "▁%13": 4650,
      "▁begenmedim": 4651,
      "▁yapar": 4652,
      "▁getiri": 4653,
      "▁uzere": 4654,
      "▁vakıf": 4655,
      "lam": 4656,
      "▁sorum": 4657,
      "▁big": 4658,
      "▁misafirimiz": 4659,
      "▁finans": 4660,
      "▁onunden": 4661,
      "▁kalktı": 4662,
      "▁yolun": 4663,
      "▁boyunca": 4664,
      "▁ulasıl": 4665,
      "gım": 4666,
      "▁mavi": 4667,
      "▁bocek": 4668,
      "▁geliyordu": 4669,
      "▁eger": 4670,
      "▁agzına": 4671,
      "▁northwest": 4672,
      "iste": 4673,
      "emez": 4674,
      "up": 4675,
      "ından": 4676,
      "▁kamp": 4677,
      "▁harik": 4678,
      "unu": 4679,
      "▁corap": 4680,
      "imiz": 4681,
      "▁saman": 4682,
      "▁gelmis": 4683,
      "*": 4684,
      "▁hayat": 4685,
      "bar": 4686,
      "ni": 4687,
      "▁trans": 4688,
      "▁sozcusu": 4689,
      "sas": 4690,
      "▁gidec": 4691,
      "▁fev": 4692,
      "▁cogu": 4693,
      "▁kaptan": 4694,
      "▁ford": 4695,
      "mer": 4696,
      "eral": 4697,
      "▁1997": 4698,
      "ag": 4699,
      "▁mantık": 4700,
      "▁animasyonlar": 4701,
      "▁ab": 4702,
      "▁duruyor": 4703,
      "▁cocugun": 4704,
      "▁digerleri": 4705,
      "emiyorum": 4706,
      "asyon": 4707,
      "'si": 4708,
      "kel": 4709,
      "▁gide": 4710,
      "▁arb": 4711,
      "dikleri": 4712,
      "▁ticareti": 4713,
      "▁har": 4714,
      "▁ymıs": 4715,
      "22": 4716,
      "▁deniz": 4717,
      "olojik": 4718,
      "▁nitelik": 4719,
      "▁tepk": 4720,
      "ani": 4721,
      "▁duserek": 4722,
      "▁sokak": 4723,
      "▁dusunce": 4724,
      "▁duydum": 4725,
      "▁karsilamadi": 4726,
      "▁durus": 4727,
      "abz": 4728,
      "▁eglence": 4729,
      "omur": 4730,
      "ati": 4731,
      "gur": 4732,
      "▁seyret": 4733,
      "▁kim": 4734,
      "▁tırman": 4735,
      "▁serb": 4736,
      "▁fırıl": 4737,
      "▁salon": 4738,
      "▁ban": 4739,
      "▁gelince": 4740,
      "▁kur": 4741,
      "▁etmem": 4742,
      "▁fe": 4743,
      "ligini": 4744,
      "▁araba": 4745,
      "▁imkanlari": 4746,
      "▁ederler": 4747,
      "▁aydın": 4748,
      "▁degilsin": 4749,
      "▁hom": 4750,
      "arası": 4751,
      ".0": 4752,
      "@": 4753,
      "sı": 4754,
      "▁azalt": 4755,
      "▁arab": 4756,
      "don": 4757,
      "▁gelmisti": 4758,
      "▁lehman": 4759,
      "▁azından": 4760,
      "▁gelip": 4761,
      "uyorlardı": 4762,
      "▁tad": 4763,
      "▁soylem": 4764,
      "▁petrol": 4765,
      "teb": 4766,
      "ımızın": 4767,
      "▁": 4768,
      "▁bekliyor": 4769,
      "▁yapın": 4770,
      "▁16": 4771,
      "▁%7.8": 4772,
      "▁kadeh": 4773,
      "▁ul": 4774,
      "ebi": 4775,
      ".": 4776,
      "▁lastik": 4777,
      "ına": 4778,
      "▁yit": 4779,
      "ancı": 4780,
      "▁kid": 4781,
      "▁nas": 4782,
      "tıklarını": 4783,
      "▁olmayan": 4784,
      "ard": 4785,
      "▁cag": 4786,
      "ise": 4787,
      "▁gecm": 4788,
      "▁hug": 4789,
      "▁gid": 4790,
      "▁halen": 4791,
      "▁des": 4792,
      "▁buldum": 4793,
      "▁islemlerde": 4794,
      "▁ramiz": 4795,
      "▁iskont": 4796,
      "▁altın": 4797,
      "▁cleveland": 4798,
      "▁getirir": 4799,
      "▁mali": 4800,
      "rum": 4801,
      "▁galiba": 4802,
      "ligin": 4803,
      "▁birden": 4804,
      "ayi": 4805,
      "udu": 4806,
      "▁gecirdi": 4807,
      "tor": 4808,
      "▁kuf": 4809,
      "▁yalnız": 4810,
      "▁japon": 4811,
      "▁hat": 4812,
      "▁kullan": 4813,
      "▁tat": 4814,
      "▁havaliman": 4815,
      "▁yeniden": 4816,
      "sizdi": 4817,
      "▁aradi": 4818,
      "▁amerika": 4819,
      "▁acıkladı": 4820,
      "ılım": 4821,
      "larınız": 4822,
      "▁umuyor": 4823,
      "▁li": 4824,
      "▁isvicre": 4825,
      "uklum": 4826,
      "▁devralma": 4827,
      "▁kumar": 4828,
      "▁karın": 4829,
      "▁hizmetleri": 4830,
      "▁baslat": 4831,
      "▁sesi": 4832,
      "▁annem": 4833,
      "▁avrup": 4834,
      "▁okudu": 4835,
      "▁kisilik": 4836,
      "▁uydur": 4837,
      "ediye": 4838,
      "▁26": 4839,
      "▁cırp": 4840,
      "▁ugra": 4841,
      "▁reform": 4842,
      "▁havaya": 4843,
      "▁rey": 4844,
      "▁sorular": 4845,
      "▁aslında": 4846,
      "▁ingiliz": 4847,
      "▁yuksekti": 4848,
      "ade": 4849,
      "▁kımıl": 4850,
      "▁hil": 4851,
      "lik": 4852,
      "▁city'den": 4853,
      "▁vuc": 4854,
      "ker": 4855,
      "ily": 4856,
      "▁geyik": 4857,
      "▁sup": 4858,
      "'li": 4859,
      "▁…": 4860,
      "lerinden": 4861,
      "ısından": 4862,
      "ment": 4863,
      "▁yaklasık": 4864,
      "▁havaalanı": 4865,
      "oloji": 4866,
      "ustu": 4867,
      "▁ug": 4868,
      "emey": 4869,
      "'n": 4870,
      "▁1.0": 4871,
      "yon": 4872,
      "n": 4873,
      "gimiz": 4874,
      "▁koylu": 4875,
      "iniz": 4876,
      "▁koltuk": 4877,
      "▁minne": 4878,
      "▁devr": 4879,
      "▁sirketleri": 4880,
      "▁olmadıgı": 4881,
      "▁qu": 4882,
      "▁naci": 4883,
      "iber": 4884,
      "▁altına": 4885,
      "▁ediyoruz": 4886,
      "uy": 4887,
      "▁atan": 4888,
      "orta": 4889,
      "▁fransa": 4890,
      "▁anlas": 4891,
      "▁calismas": 4892,
      "▁takv": 4893,
      "▁6.4": 4894,
      "▁ayrıl": 4895,
      "▁denver'de": 4896,
      "▁beri": 4897,
      "▁ikimiz": 4898,
      "▁ikibin": 4899,
      "▁bilinc": 4900,
      "man": 4901,
      "▁saatlerce": 4902,
      "▁tab": 4903,
      "▁olm": 4904,
      "▁beklentiler": 4905,
      "▁plan": 4906,
      "enin": 4907,
      "▁dusundum": 4908,
      "▁olcude": 4909,
      "▁besik": 4910,
      "▁durur": 4911,
      "ess": 4912,
      "▁teknoloji": 4913,
      "istan": 4914,
      "lerimiz": 4915,
      "▁ayr": 4916,
      "▁aksamı": 4917,
      "▁%8.2": 4918,
      "▁krav": 4919,
      "▁edilebilir": 4920,
      "▁gunler": 4921,
      "sah": 4922,
      "▁karayol": 4923,
      "detti": 4924,
      "▁gecti": 4925,
      "▁sahibi": 4926,
      "▁3\\/": 4927,
      "▁oldugundan": 4928,
      "▁insanları": 4929,
      "▁ciz": 4930,
      "ire": 4931,
      "▁milwaukee'den": 4932,
      "▁ediyorlar": 4933,
      "osu": 4934,
      "▁sezon": 4935,
      "▁bo": 4936,
      "adaki": 4937,
      "lıga": 4938,
      "'": 4939,
      "▁kom": 4940,
      "▁yardımcısı": 4941,
      "▁meclis": 4942,
      "▁benimle": 4943,
      "▁verdiler": 4944,
      "tiy": 4945,
      "▁yansıt": 4946,
      "▁colum": 4947,
      "▁dinlem": 4948,
      "▁fiyat": 4949,
      "▁yasadı": 4950,
      "▁girer": 4951,
      "▁faydalan": 4952,
      "▁topu": 4953,
      "▁98": 4954,
      "aten": 4955,
      "▁ofis": 4956,
      "▁ayaga": 4957,
      "▁fiyatlar": 4958,
      "▁geceleri": 4959,
      "▁in": 4960,
      "larını": 4961,
      "▁1500": 4962,
      "▁agır": 4963,
      "ob": 4964,
      "▁56": 4965,
      "▁iflas": 4966,
      "▁teksas": 4967,
      "▁3.9": 4968,
      "ıntı": 4969,
      "▁isteyen": 4970,
      "▁dunya": 4971,
      "▁bulut": 4972,
      "▁tampa": 4973,
      "▁dortyuz": 4974,
      "uyordu": 4975,
      "larımı": 4976,
      "▁alısveris": 4977,
      "▁takır": 4978,
      "▁oteki": 4979,
      "▁gures": 4980,
      "▁cekip": 4981,
      "▁suleyman": 4982,
      "▁yoldan": 4983,
      "larımızı": 4984,
      "unuyor": 4985,
      "▁tu": 4986,
      "▁em": 4987,
      "▁amel": 4988,
      "ikti": 4989,
      "▁herk": 4990,
      "▁iken": 4991,
      "▁olmas": 4992,
      "uste": 4993,
      "▁servis": 4994,
      "▁duzey": 4995,
      "umu": 4996,
      "▁yerlerde": 4997,
      "pıs": 4998,
      "▁%8": 4999,
      "▁alıcı": 5000,
      "▁cesitlilik": 5001,
      "▁emtia": 5002,
      "▁mec": 5003,
      "adır": 5004,
      "▁heves": 5005,
      "atik": 5006,
      "edef": 5007,
      "▁degerli": 5008,
      "dek": 5009,
      "▁financial": 5010,
      "▁yetk": 5011,
      "gına": 5012,
      "▁arastır": 5013,
      "vey": 5014,
      "▁geciyor": 5015,
      "dirde": 5016,
      "▁kuc": 5017,
      "▁azal": 5018,
      "▁yasay": 5019,
      "▁466": 5020,
      "9": 5021,
      "▁sob": 5022,
      "▁isten": 5023,
      "▁198": 5024,
      "▁demir": 5025,
      "▁cagr": 5026,
      "▁pur": 5027,
      "▁hayal": 5028,
      "▁vucu": 5029,
      "▁kalmıs": 5030,
      "ig": 5031,
      "ıl": 5032,
      "ata": 5033,
      "▁ucrete": 5034,
      "▁toplan": 5035,
      "ecegi": 5036,
      "▁hepsin": 5037,
      "abil": 5038,
      "▁damak": 5039,
      "▁gorunuyor": 5040,
      "▁yapıl": 5041,
      "▁kamu": 5042,
      "▁dondur": 5043,
      "▁iletisim": 5044,
      "▁red": 5045,
      "seksen": 5046,
      "47": 5047,
      "▁aram": 5048,
      "▁piyasaya": 5049,
      "▁kis": 5050,
      "▁ız": 5051,
      "▁ken": 5052,
      "▁zevk": 5053,
      "▁aileler": 5054,
      "▁atlanta'dan": 5055,
      "ılı": 5056,
      "▁ruzgar": 5057,
      "▁mayıs": 5058,
      "▁125": 5059,
      "▁0.0": 5060,
      "▁duny": 5061,
      "▁141": 5062,
      "▁belli": 5063,
      "▁gene": 5064,
      "▁calisanlar": 5065,
      "▁bakıs": 5066,
      "▁38": 5067,
      "▁87": 5068,
      "▁gitmem": 5069,
      "▁ittif": 5070,
      "▁tatil": 5071,
      "▁fort": 5072,
      "▁..\"": 5073,
      "▁yazılım": 5074,
      "0.7": 5075,
      "▁turist": 5076,
      "▁acik": 5077,
      "▁us": 5078,
      "▁anlamda": 5079,
      "▁ihtiyar": 5080,
      "▁gayrim": 5081,
      "▁puana": 5082,
      "cusu": 5083,
      "▁sını": 5084,
      "▁key": 5085,
      "▁vasat": 5086,
      "▁protest": 5087,
      "▁mol": 5088,
      "▁icindeki": 5089,
      "▁coban": 5090,
      "▁ertesi": 5091,
      "aların": 5092,
      "▁yuzu": 5093,
      "dini": 5094,
      "vel": 5095,
      "▁kimin": 5096,
      "ket": 5097,
      "▁ona": 5098,
      "▁eskiydi": 5099,
      "▁siy": 5100,
      "▁girdi": 5101,
      "▁13.": 5102,
      "eginden": 5103,
      "▁tefek": 5104,
      "32": 5105,
      "▁british": 5106,
      "▁cift": 5107,
      "▁icinden": 5108,
      "▁yol": 5109,
      "▁sem": 5110,
      "▁dip": 5111,
      "liy": 5112,
      "idi": 5113,
      "rli": 5114,
      "▁ote": 5115,
      "lıgında": 5116,
      "eviz": 5117,
      "▁bol": 5118,
      "▁gıda": 5119,
      "ısız": 5120,
      "▁ortada": 5121,
      "▁gidi": 5122,
      "▁gosterg": 5123,
      "▁tec": 5124,
      "azım": 5125,
      "▁durgun": 5126,
      "▁gecesi": 5127,
      "▁100": 5128,
      "lim": 5129,
      "▁endeks": 5130,
      "[MASK]": 5131,
      "▁fet": 5132,
      "▁nikkei": 5133,
      "▁bildirdi": 5134,
      "▁ada": 5135,
      "likten": 5136,
      "▁225": 5137,
      "▁azın": 5138,
      "▁oysa": 5139,
      "▁onlem": 5140,
      "▁duy": 5141,
      "▁stu": 5142,
      "urken": 5143,
      "larındaki": 5144,
      "▁neyse": 5145,
      "▁fakir": 5146,
      "unt": 5147,
      "▁rich": 5148,
      "bal": 5149,
      "tıyor": 5150,
      "▁seatt": 5151,
      "▁es": 5152,
      "'da": 5153,
      "yıl": 5154,
      "▁charlotte'den": 5155,
      "▁hoc": 5156,
      "▁ikibinuc": 5157,
      "▁isci": 5158,
      "▁odan": 5159,
      "larken": 5160,
      ".5": 5161,
      "▁suredir": 5162,
      "▁omr": 5163,
      "▁egil": 5164,
      "▁plaji": 5165,
      "▁zaten": 5166,
      "▁bir": 5167,
      "aj": 5168,
      "▁peynir": 5169,
      "▁dobr": 5170,
      "▁alb": 5171,
      "negin": 5172,
      "▁senator": 5173,
      "▁halı": 5174,
      "▁gunku": 5175,
      "▁kimden": 5176,
      "v": 5177,
      "\"": 5178,
      "digi": 5179,
      "▁vergi": 5180,
      "eyin": 5181,
      "meleri": 5182,
      "▁orlando'ya": 5183,
      "▁araz": 5184,
      "▁mudahal": 5185,
      "agını": 5186,
      "▁gibiydi": 5187,
      "irken": 5188,
      "▁gozden": 5189,
      "▁ceker": 5190,
      "▁40": 5191,
      "▁nev": 5192,
      "oj": 5193,
      "▁mul": 5194,
      "van": 5195,
      "ın": 5196,
      "ost": 5197,
      "▁guney": 5198,
      "ps": 5199,
      "▁moda": 5200,
      "▁yoksa": 5201,
      "▁kalacak": 5202,
      "▁min": 5203,
      "▁t": 5204,
      "▁e": 5205,
      "▁los": 5206,
      "▁mutlu": 5207,
      "▁yılında": 5208,
      "▁21": 5209,
      "▁sorumlu": 5210,
      "▁kuv": 5211,
      "▁journal": 5212,
      "▁duzenli": 5213,
      "▁vakt": 5214,
      "▁taraftar": 5215,
      "▁mezar": 5216,
      "▁yakin": 5217,
      "▁sav": 5218,
      "▁devir": 5219,
      "▁dık": 5220,
      "ol": 5221,
      "▁uzum": 5222,
      "lemis": 5223,
      "ong": 5224,
      "▁batı": 5225,
      "▁kimsenin": 5226,
      "▁fikri": 5227,
      "us": 5228,
      "▁odasına": 5229,
      ".375": 5230,
      "▁yaptirmadim": 5231,
      "ildik": 5232,
      "▁kot": 5233,
      "ılıyor": 5234,
      "/2": 5235,
      "▁kıtır": 5236,
      "▁indir": 5237,
      "akk": 5238,
      "ogu": 5239,
      "▁hun": 5240,
      "▁2009": 5241,
      "▁bolum": 5242,
      "▁r": 5243,
      "▁komisyonu": 5244,
      "▁dısarı": 5245,
      "▁yuk": 5246,
      "dan": 5247,
      "▁masa": 5248,
      "▁gorusmeler": 5249,
      "▁istek": 5250,
      "▁suru": 5251,
      "▁ayhan": 5252,
      "▁bundan": 5253,
      "adan": 5254,
      "%": 5255,
      "▁etkilen": 5256,
      "▁kenar": 5257,
      "mıslar": 5258,
      "alan": 5259,
      "▁memleket": 5260,
      "▁far": 5261,
      "▁cem": 5262,
      "erken": 5263,
      "▁lira": 5264,
      "▁nedeni": 5265,
      "▁edip": 5266,
      "▁suy": 5267,
      "▁oturuyor": 5268,
      "▁busbut": 5269,
      "▁ismini": 5270,
      "lestir": 5271,
      "egen": 5272,
      "▁giriyor": 5273,
      "▁hanimdi": 5274,
      "▁edilmis": 5275,
      "ont": 5276,
      "lardı": 5277,
      "ilen": 5278,
      "uya": 5279,
      "▁babam": 5280,
      "▁hicbirine": 5281,
      "▁acılan": 5282,
      "▁lo": 5283,
      "▁portfoy": 5284,
      "▁kalem": 5285,
      "▁bazen": 5286,
      "asız": 5287,
      "▁0.9": 5288,
      "▁carsaf": 5289,
      "▁gizli": 5290,
      "▁meh": 5291,
      "▁otur": 5292,
      "▁pesinde": 5293,
      "▁cevap": 5294,
      "▁kavr": 5295,
      ")": 5296,
      "▁201": 5297,
      "▁bilmez": 5298,
      "▁kasım": 5299,
      "▁otom": 5300,
      "lemeye": 5301,
      "▁95": 5302,
      "▁park": 5303,
      "▁cez": 5304,
      "▁canı": 5305,
      "▁yeg": 5306,
      "ecegim": 5307,
      "▁hakkındaki": 5308,
      "▁etme": 5309,
      "▁lungur": 5310,
      "▁yorgun": 5311,
      "sul": 5312,
      "aba": 5313,
      "▁pam": 5314,
      "▁8.9": 5315,
      "▁palt": 5316,
      "▁tarihinde": 5317,
      "ıcık": 5318,
      "enek": 5319,
      "emis": 5320,
      "lo": 5321,
      "▁paz": 5322,
      "▁olas": 5323,
      "▁turkler": 5324,
      "▁kocası": 5325,
      "▁dur": 5326,
      "▁gereken": 5327,
      "▁gune": 5328,
      "▁minneapolis": 5329,
      "▁gidiyor": 5330,
      "▁goruyor": 5331,
      "hos": 5332,
      "bul": 5333,
      "▁taban": 5334,
      "“": 5335,
      "▁gerc": 5336,
      "▁ilgin": 5337,
      "▁doları'ndan": 5338,
      "▁getiriyor": 5339,
      "tiv": 5340,
      "▁getiren": 5341,
      "▁aman": 5342,
      "▁oteldi": 5343,
      "asıdır": 5344,
      "▁tıpıs": 5345,
      "▁saatlerde": 5346,
      "▁1/4": 5347,
      "▁sap": 5348,
      "ro": 5349,
      "raz": 5350,
      "35": 5351,
      "▁alk": 5352,
      "▁asl": 5353,
      "▁zayifti": 5354,
      "▁ho": 5355,
      "▁bunları": 5356,
      "daydı": 5357,
      "▁bakıyor": 5358,
      "▁dahil": 5359,
      "yse": 5360,
      "▁dolandır": 5361,
      "elerle": 5362,
      "▁genellikle": 5363,
      "▁eglen": 5364,
      "3.9": 5365,
      "ington": 5366,
      "▁pla": 5367,
      "▁giris": 5368,
      "▁ucan": 5369,
      "lenen": 5370,
      "▁mecbur": 5371,
      "▁ataturk": 5372,
      "▁temizligi": 5373,
      "apon": 5374,
      "▁uste": 5375,
      "▁neresi": 5376,
      "iyiz": 5377,
      "▁sayg": 5378,
      "▁insanın": 5379,
      "▁1960": 5380,
      "▁oner": 5381,
      "lerimizi": 5382,
      "▁cocugu": 5383,
      "ıcılık": 5384,
      "ırtı": 5385,
      "▁houston'dan": 5386,
      "▁dre": 5387,
      "2.1": 5388,
      "ayacak": 5389,
      "▁tutum": 5390,
      "ep": 5391,
      "▁sirketi": 5392,
      "▁uygulam": 5393,
      "▁vir": 5394,
      "▁isvic": 5395,
      "▁uluslararası": 5396,
      "▁charlotte": 5397,
      "▁siz": 5398,
      "▁kapasitesi": 5399,
      "▁cumhurbaskan": 5400,
      "▁bakan": 5401,
      "▁sefer": 5402,
      "▁adina": 5403,
      "istin": 5404,
      "▁5.5": 5405,
      "c": 5406,
      "▁kuvvetleri": 5407,
      "▁imparator": 5408,
      "▁mun": 5409,
      "▁kıl": 5410,
      "▁gulums": 5411,
      "▁sanayi": 5412,
      "▁ekim": 5413,
      "▁korum": 5414,
      "▁blok": 5415,
      "▁7.1": 5416,
      "▁havuzlari": 5417,
      "▁kurulus": 5418,
      "▁senin": 5419,
      "obr": 5420,
      "▁sakın": 5421,
      "▁ysa": 5422,
      "asın": 5423,
      "▁baskı": 5424,
      "▁yoneticileri": 5425,
      "▁teker": 5426,
      "erdi": 5427,
      "▁kelim": 5428,
      "▁cihaz": 5429,
      "▁oldugu": 5430,
      "▁baska": 5431,
      "▁zek": 5432,
      "▁102": 5433,
      "izik": 5434,
      "diniz": 5435,
      "▁mırıl": 5436,
      "▁geldigini": 5437,
      "▁dugun": 5438,
      "▁%7.": 5439,
      "▁emekli": 5440,
      "▁aramız": 5441,
      "▁vit": 5442,
      "▁baslık": 5443,
      "▁mars": 5444,
      "▁fransız": 5445,
      "▁ilgisi": 5446,
      "▁felaket": 5447,
      "▁yık": 5448,
      "▁bakarak": 5449,
      "▁sendik": 5450,
      "▁kıyaslan": 5451,
      "▁cıkar": 5452,
      "tıg": 5453,
      "mustum": 5454,
      "▁yakından": 5455,
      "▁askın": 5456,
      "▁olar": 5457,
      "▁sey": 5458,
      "▁muam": 5459,
      "▁yasamak": 5460,
      "▁yse": 5461,
      "▁tarihli": 5462,
      "cin": 5463,
      "▁ası": 5464,
      "▁yagı": 5465,
      "▁tesis": 5466,
      "▁%30": 5467,
      "▁namaz": 5468,
      "▁proj": 5469,
      "▁annesi": 5470,
      "▁korku": 5471,
      "d.": 5472,
      "▁harikaydi": 5473,
      "▁gecici": 5474,
      "▁109": 5475,
      "▁hayli": 5476,
      "▁0.25": 5477,
      "ıcı": 5478,
      "▁lis": 5479,
      "nek": 5480,
      "ersey": 5481,
      "▁kopar": 5482,
      "▁hasır": 5483,
      "▁konforu": 5484,
      "▁olmadi": 5485,
      "▁uzat": 5486,
      "▁kahvaltı": 5487,
      "▁anlam": 5488,
      "▁obur": 5489,
      "▁attıgı": 5490,
      "▁olsaydı": 5491,
      "▁teminat": 5492,
      "▁gal": 5493,
      "ali": 5494,
      "phia": 5495,
      "▁degil": 5496,
      "▁sonbahar": 5497,
      "▁dogu": 5498,
      "rut": 5499,
      "▁kart": 5500,
      "▁af": 5501,
      "aga": 5502,
      "▁2002": 5503,
      "▁yuruy": 5504,
      "▁elektronik": 5505,
      "▁kıymet": 5506,
      "adı": 5507,
      "▁dıs": 5508,
      "▁lakin": 5509,
      "▁ede": 5510,
      "▁uzman": 5511,
      "▁muy": 5512,
      "▁aileye": 5513,
      "▁yanında": 5514,
      "▁rezervasyon": 5515,
      "▁detroit'ten": 5516,
      "▁kotuydu": 5517,
      "ebil": 5518,
      "▁kes": 5519,
      "▁mo": 5520,
      "▁mc": 5521,
      "▁ederken": 5522,
      "▁caba": 5523,
      "▁boya": 5524,
      "▁dustu": 5525,
      "▁14": 5526,
      "undeki": 5527,
      "▁uyustur": 5528,
      "▁arkasına": 5529,
      "▁rapor": 5530,
      "isle": 5531,
      "▁kir": 5532,
      "▁annemin": 5533,
      "▁halde": 5534,
      "▁kahraman": 5535,
      "▁onca": 5536,
      "ece": 5537,
      "▁pilot": 5538,
      "▁girmis": 5539,
      "▁birimiz": 5540,
      "gunde": 5541,
      "▁lar": 5542,
      "▁performan": 5543,
      "alap": 5544,
      "▁satın": 5545,
      "'na": 5546,
      "egas": 5547,
      "mamalı": 5548,
      "iyon": 5549,
      "▁calisanlari": 5550,
      "▁univers": 5551,
      "han": 5552,
      "▁dolan": 5553,
      "▁angeles": 5554,
      "▁roman": 5555,
      "▁hepsine": 5556,
      "▁baslı": 5557,
      "▁giderken": 5558,
      "▁buy": 5559,
      "ond": 5560,
      "▁kapalı": 5561,
      "▁havayollarında": 5562,
      "▁halkın": 5563,
      "▁seviyesine": 5564,
      "▁balayi": 5565,
      "os": 5566,
      "iss": 5567,
      "▁personellerin": 5568,
      "▁turkce": 5569,
      "▁saglam": 5570,
      "▁tan": 5571,
      "▁ogleden": 5572,
      "▁yurtdıs": 5573,
      "▁intern": 5574,
      "menin": 5575,
      "▁hastan": 5576,
      "▁42": 5577,
      "▁90": 5578,
      "▁gercekten": 5579,
      "▁zev": 5580,
      "▁sı": 5581,
      "▁def": 5582,
      "▁yagmur": 5583,
      "▁gro": 5584,
      "▁calısmalar": 5585,
      "▁sig": 5586,
      "tek": 5587,
      "vet": 5588,
      "▁zeki": 5589,
      "▁'lu": 5590,
      "▁dig": 5591,
      "▁bugune": 5592,
      "▁ener": 5593,
      "▁hedef": 5594,
      "▁hesap": 5595,
      "▁bulur": 5596,
      "▁bl": 5597,
      ".53": 5598,
      "lıkta": 5599,
      "▁finansal": 5600,
      "▁sekiz": 5601,
      "▁425": 5602,
      "▁dusunur": 5603,
      "▁toprak": 5604,
      "▁bal": 5605,
      "▁sorumluluk": 5606,
      "▁harc": 5607,
      "▁deng": 5608,
      "▁sohret": 5609,
      "digimiz": 5610,
      "▁yasadıgı": 5611,
      "evi": 5612,
      "▁50": 5613,
      "lere": 5614,
      "▁gob": 5615,
      "dokuzyuz": 5616,
      "ijinal": 5617,
      "▁dug": 5618,
      "▁odak": 5619,
      "▁islemler": 5620,
      "▁mu": 5621,
      "▁asagı": 5622,
      "il": 5623,
      "▁gordugu": 5624,
      "▁pittsburgh'tan": 5625,
      "▁yurt": 5626,
      "▁yasamadik": 5627,
      "▁uyan": 5628,
      "▁cıkıyor": 5629,
      "▁amerikan": 5630,
      "ana": 5631,
      "-2": 5632,
      "ca": 5633,
      "▁of": 5634,
      "▁250": 5635,
      "omet": 5636,
      "▁ets": 5637,
      "ates": 5638,
      "ebilirim": 5639,
      "▁lider": 5640,
      "▁konumundan": 5641,
      "▁tacoma": 5642,
      "▁tuttur": 5643,
      "▁verilen": 5644,
      "esil": 5645,
      "▁diyor": 5646,
      "▁1\\/": 5647,
      "▁kaba": 5648,
      "▁degeri": 5649,
      "▁turk": 5650,
      "iri": 5651,
      "imizi": 5652,
      "▁kanı": 5653,
      "▁sende": 5654,
      "▁sakin": 5655,
      "▁kı": 5656,
      "▁deneme": 5657,
      "da": 5658,
      "▁ayır": 5659,
      "▁ici": 5660,
      "ento": 5661,
      "▁misiniz": 5662,
      "▁acıklama": 5663,
      "▁og": 5664,
      "baren": 5665,
      "▁edir": 5666,
      "▁piy": 5667,
      "▁koz": 5668,
      "▁mem": 5669,
      "▁giz": 5670,
      "▁benzin": 5671,
      "gal": 5672,
      "▁sunları": 5673,
      "▁yerinden": 5674,
      "▁tıklım": 5675,
      "▁hijyenik": 5676,
      "▁100000": 5677,
      "▁nefret": 5678,
      "gını": 5679,
      "ları": 5680,
      "▁hucr": 5681,
      "▁sauna": 5682,
      "cagız": 5683,
      "anmıs": 5684,
      "od": 5685,
      "▁haberi": 5686,
      "▁res": 5687,
      "lamaya": 5688,
      "▁basladım": 5689,
      "ısık": 5690,
      "▁ailenin": 5691,
      "▁adı": 5692,
      "▁istih": 5693,
      "lıgıyla": 5694,
      "▁verdigi": 5695,
      "▁gordugum": 5696,
      "▁ruz": 5697,
      "▁dolarlık": 5698,
      "zi": 5699,
      "▁wil": 5700,
      "tra": 5701,
      "d": 5702,
      "▁pencer": 5703,
      "men": 5704,
      "lulu": 5705,
      "ons": 5706,
      "▁mahm": 5707,
      "▁vi": 5708,
      "▁olum": 5709,
      "▁rol": 5710,
      "eleri": 5711,
      "▁mısıl": 5712,
      "▁bitk": 5713,
      "din": 5714,
      "▁boyun": 5715,
      "tısı": 5716,
      "▁7.2": 5717,
      "▁sac": 5718,
      "'tan": 5719,
      "izm": 5720,
      "▁sisman": 5721,
      "▁kaldır": 5722,
      "▁kalmadı": 5723,
      "▁aralık": 5724,
      "▁1/8": 5725,
      "▁thom": 5726,
      "▁ucaga": 5727,
      "▁kendim": 5728,
      "▁uyusturucu": 5729,
      "her": 5730,
      "▁misafir": 5731,
      "ersiz": 5732,
      "▁mesaf": 5733,
      "▁bilgilendir": 5734,
      "tıkları": 5735,
      "ital": 5736,
      "saf": 5737,
      "▁bakımından": 5738,
      "diginde": 5739,
      "▁dim": 5740,
      "▁ortalama": 5741,
      "▁temmuz'da": 5742,
      "arı": 5743,
      "▁1\\/2": 5744,
      "▁bakın": 5745,
      "▁dogal": 5746,
      "▁arka": 5747,
      "▁bilin": 5748,
      "▁2": 5749,
      "▁yapildi": 5750,
      "'ndaki": 5751,
      "▁--": 5752,
      "▁10000": 5753,
      "▁lek": 5754,
      "▁egitim": 5755,
      "▁pr": 5756,
      "▁anayasa": 5757,
      "▁once": 5758,
      "▁baker": 5759,
      "▁haftada": 5760,
      "▁cukur": 5761,
      "alarının": 5762,
      "▁anlat": 5763,
      "▁4.8": 5764,
      "▁dunyayı": 5765,
      "▁bununla": 5766,
      "▁etken": 5767,
      "▁mırıldan": 5768,
      "▁trust": 5769,
      "▁trilyon": 5770,
      "▁hafta": 5771,
      "bin": 5772,
      "▁isterim": 5773,
      "▁ba": 5774,
      "▁anahtar": 5775,
      "▁yaptı": 5776,
      "meler": 5777,
      "isini": 5778,
      "cak": 5779,
      "▁hac": 5780,
      "▁merkez": 5781,
      "▁ny": 5782,
      "'taki": 5783,
      "▁part": 5784,
      "▁saclarını": 5785,
      "▁%7.5": 5786,
      "usal": 5787,
      "▁ak": 5788,
      "▁alay": 5789,
      "▁contin": 5790,
      "▁mis": 5791,
      "▁listel": 5792,
      "ite": 5793,
      "▁derler": 5794,
      "▁yildizli": 5795,
      "▁ugur": 5796,
      "000": 5797,
      "▁kalk": 5798,
      "▁denver": 5799,
      "▁tik": 5800,
      "▁m": 5801,
      "▁makam": 5802,
      "▁ucuslarının": 5803,
      "▁oyunu": 5804,
      "y'nin": 5805,
      "▁olmasını": 5806,
      "▁borsası'nda": 5807,
      "fı": 5808,
      "▁muzik": 5809,
      "iliyordu": 5810,
      "ydı": 5811,
      "/": 5812,
      "▁dokun": 5813,
      "60": 5814,
      "▁bek": 5815,
      "▁yatak": 5816,
      "▁gectik": 5817,
      "▁ana": 5818,
      "▁soyles": 5819,
      "▁turu": 5820,
      "larım": 5821,
      "▁birbirlerini": 5822,
      "▁konuda": 5823,
      "▁120": 5824,
      "▁demokratik": 5825,
      "▁pittsburgh'a": 5826,
      "dort": 5827,
      "alı": 5828,
      "▁mevcut": 5829,
      "▁ettik": 5830,
      "▁por": 5831,
      "▁petersburg": 5832,
      "▁bank": 5833,
      "▁tap": 5834,
      "▁badem": 5835,
      "▁test": 5836,
      "ardı": 5837,
      "elle": 5838,
      "▁alti": 5839,
      "▁secildi": 5840,
      "▁ayda": 5841,
      "▁cont": 5842,
      "▁sozlesmesi": 5843,
      "ıb": 5844,
      "▁'li": 5845,
      "▁yuzey": 5846,
      "▁yola": 5847,
      "▁cekir": 5848,
      "▁birimi": 5849,
      "▁ulasılamadı": 5850,
      "om": 5851,
      "mesi": 5852,
      "▁etm": 5853,
      "▁dolar": 5854,
      "▁burbank'a": 5855,
      "▁zen": 5856,
      "kil": 5857,
      "tı": 5858,
      "▁atese": 5859,
      "▁hindistan": 5860,
      "▁oyun": 5861,
      "▁sigort": 5862,
      "▁turb": 5863,
      "▁oranında": 5864,
      "gec": 5865,
      "inden": 5866,
      "iyor": 5867,
      "▁erkenden": 5868,
      "▁makine": 5869,
      "▁mail": 5870,
      "5.": 5871,
      "▁yerini": 5872,
      "▁kıv": 5873,
      "muz": 5874,
      "▁kıp": 5875,
      "▁1.3": 5876,
      "▁evinde": 5877,
      "▁``": 5878,
      "▁demokrat": 5879,
      "▁bors": 5880,
      "ledi": 5881,
      "▁.": 5882,
      "▁istiyorum": 5883,
      "▁anlasma": 5884,
      "▁fu": 5885,
      "▁mer": 5886,
      "▁yapan": 5887,
      "▁31": 5888,
      "▁birileri": 5889,
      "mak": 5890,
      "▁bas": 5891,
      "▁fak": 5892,
      "▁gucu": 5893,
      "lardan": 5894,
      "▁ceken": 5895,
      "&": 5896,
      "▁azınlık": 5897,
      "▁tencer": 5898,
      "▁jour": 5899,
      "▁yolu": 5900,
      "▁yontem": 5901,
      "▁esit": 5902,
      "▁ot": 5903,
      "liler": 5904,
      "▁bekledi": 5905,
      "▁katılım": 5906,
      "0": 5907,
      "ıda": 5908,
      "▁$'a": 5909,
      "▁oynuyor": 5910,
      "ci": 5911,
      "▁acar": 5912,
      "▁39": 5913,
      "unun": 5914,
      "▁beydi": 5915,
      "▁istihdam": 5916,
      "▁dost": 5917,
      "▁ucret": 5918,
      "ediyor": 5919,
      "▁buyuk": 5920,
      "▁oturup": 5921,
      "▁satısları": 5922,
      "▁renk": 5923,
      "▁engin": 5924,
      "▁ugram": 5925,
      "▁ates": 5926,
      "▁servisi": 5927,
      "yı": 5928,
      "▁vucud": 5929,
      "ecekti": 5930,
      "▁dey": 5931,
      "ere": 5932,
      "▁sozlesme": 5933,
      "▁kızı": 5934,
      "▁coz": 5935,
      "lum": 5936,
      "mıyor": 5937,
      "▁ekibi": 5938,
      "▁jaguar": 5939,
      "ustum": 5940,
      "an'ın": 5941,
      "▁yarım": 5942,
      "▁nok": 5943,
      "▁titr": 5944,
      "▁ihr": 5945,
      "▁gomle": 5946,
      "ical": 5947,
      "▁ayni": 5948,
      "▁rehberimiz": 5949,
      "▁tiril": 5950,
      "▁olc": 5951,
      "▁nef": 5952,
      "irdi": 5953,
      "egin": 5954,
      "▁irak": 5955,
      "sen": 5956,
      "▁sınız": 5957,
      "▁ayrıldı": 5958,
      "yet": 5959,
      "▁cop": 5960,
      "dı": 5961,
      "▁manz": 5962,
      "▁cozul": 5963,
      "det": 5964,
      "▁yim": 5965,
      "uyoruz": 5966,
      "▁icki": 5967,
      "▁meslek": 5968,
      "▁bec": 5969,
      "ev": 5970,
      "▁sistem": 5971,
      "▁cıkarıp": 5972,
      "abiliyor": 5973,
      "ede": 5974,
      "isinin": 5975,
      "isi": 5976,
      "aret": 5977,
      "▁cabuk": 5978,
      "▁bircog": 5979,
      "ex": 5980,
      "▁ut": 5981,
      "▁kahvalt": 5982,
      "mesinden": 5983,
      "ib": 5984,
      "▁huy": 5985,
      "0'": 5986,
      "▁%2": 5987,
      "ımları": 5988,
      "▁iskel": 5989,
      "▁bulundugu": 5990,
      "▁normal": 5991,
      "▁ariz": 5992,
      "eri": 5993,
      "▁haklı": 5994,
      "▁karsısında": 5995,
      "▁olmasa": 5996,
      "▁karg": 5997,
      "▁200": 5998,
      "▁hakik": 5999,
      "▁ibaret": 6000,
      "▁45": 6001,
      "h": 6002,
      "▁mutf": 6003,
      "dikten": 6004,
      "yız": 6005,
      "aki": 6006,
      "▁halka": 6007,
      "▁fan": 6008,
      "▁calıstır": 6009,
      "▁hayran": 6010,
      "▁emeklilik": 6011,
      "▁posta": 6012,
      "▁desik": 6013,
      "▁beb": 6014,
      "acagız": 6015,
      "▁6.9": 6016,
      "at": 6017,
      "▁bilgis": 6018,
      "asını": 6019,
      "▁hev": 6020,
      "▁jersey": 6021,
      "▁aldım": 6022,
      "▁kısm": 6023,
      "▁kaliteliydi": 6024,
      "ır": 6025,
      "▁pahalı": 6026,
      "3": 6027,
      "ista": 6028,
      "▁cic": 6029,
      "▁long": 6030,
      "▁hurriyet": 6031,
      "den": 6032,
      "▁bunların": 6033,
      "▁arac": 6034,
      "▁muhtemelen": 6035,
      "erek": 6036,
      "▁tahviller": 6037,
      "ven": 6038,
      "▁tiyat": 6039,
      "siye": 6040,
      "▁tahsil": 6041,
      "uyorum": 6042,
      "▁tercih": 6043,
      "tılar": 6044,
      "▁alabil": 6045,
      "▁guvenlik": 6046,
      "▁bahce": 6047,
      "▁seri": 6048,
      "▁cesit": 6049,
      "▁yasak": 6050,
      "-m": 6051,
      "▁bazıların": 6052,
      "▁ayrı": 6053,
      "▁kullanım": 6054,
      "▁britan": 6055,
      "▁fingir": 6056,
      "▁nak": 6057,
      "▁atlanta'da": 6058,
      "▁zaf": 6059,
      "▁olup": 6060,
      "▁fazlas": 6061,
      "▁analistler": 6062,
      "dar": 6063,
      "▁gosteriyor": 6064,
      "▁aktarmalı": 6065,
      "▁b.": 6066,
      "▁arzu": 6067,
      "▁basını": 6068,
      "'y": 6069,
      "dun": 6070,
      "▁partisi": 6071,
      "▁uygulama": 6072,
      "▁mulk": 6073,
      "▁sahne": 6074,
      "art": 6075,
      "▁23": 6076,
      "▁j": 6077,
      "▁ilac": 6078,
      "▁denver'e": 6079,
      "▁bizi": 6080,
      "▁turkiye'de": 6081,
      "▁ekipman": 6082,
      "▁dolardan": 6083,
      "▁guvenli": 6084,
      "▁edecek": 6085,
      "▁gozleri": 6086,
      "▁super": 6087,
      "▁zorluk": 6088,
      "▁phoenix": 6089,
      "▁ch": 6090,
      "▁bulas": 6091,
      "isine": 6092,
      "net": 6093,
      "ile": 6094,
      "yedi": 6095,
      "▁egit": 6096,
      "▁hepimizi": 6097,
      "▁paranın": 6098,
      "▁gogus": 6099,
      "▁haz": 6100,
      "▁tavuk": 6101,
      "▁tadi": 6102,
      "▁kalb": 6103,
      "▁karsılıklı": 6104,
      "▁faktor": 6105,
      "▁tam": 6106,
      "▁alanda": 6107,
      "▁kimse": 6108,
      "▁vaz": 6109,
      "▁yolunda": 6110,
      "▁bost": 6111,
      "▁milyona": 6112,
      "▁day": 6113,
      "enc": 6114,
      "▁kalkıp": 6115,
      "10": 6116,
      "'la": 6117,
      "▁anal": 6118,
      "dem": 6119,
      "▁uygul": 6120,
      "▁tahk": 6121,
      "▁cercev": 6122,
      "▁karn": 6123,
      "▁francisco": 6124,
      "yi": 6125,
      "▁dusur": 6126,
      "▁halinde": 6127,
      "▁emir": 6128,
      "▁goruyorum": 6129,
      "roit": 6130,
      "yn": 6131,
      "▁doları'na": 6132,
      "▁ceket": 6133,
      "▁ilgili": 6134,
      "mem": 6135,
      "▁personelden": 6136,
      "umus": 6137,
      "do": 6138,
      "▁rezervasyonu": 6139,
      "iness": 6140,
      "▁varan": 6141,
      "▁cevir": 6142,
      "baz": 6143,
      "▁cev": 6144,
      "▁eve": 6145,
      "▁muhtemel": 6146,
      "▁cil": 6147,
      "▁sak": 6148,
      "▁airlines": 6149,
      "▁piyas": 6150,
      "▁erk": 6151,
      "▁yor": 6152,
      "akal": 6153,
      "▁yuzlerce": 6154,
      "▁nufus": 6155,
      "iye": 6156,
      "sizim": 6157,
      "iyle": 6158,
      "▁isine": 6159,
      "▁komisyonlar": 6160,
      "▁yerles": 6161,
      "▁arıyorum": 6162,
      "▁fl": 6163,
      "▁uzaktan": 6164,
      "▁miami": 6165,
      "bi": 6166,
      "▁kalmıstı": 6167,
      "▁aldıgını": 6168,
      "▁ani": 6169,
      "▁ilgil": 6170,
      "anı": 6171,
      "■": 6172,
      "▁baglantı": 6173,
      "▁isle": 6174,
      "▁hissedar": 6175,
      "embe": 6176,
      "▁yuzluydu": 6177,
      "▁yuksek": 6178,
      "▁oyna": 6179,
      "▁milliyet": 6180,
      "▁pasa": 6181,
      "▁wash": 6182,
      "▁ok": 6183,
      "maktan": 6184,
      "lat": 6185,
      "eki": 6186,
      "▁fiyatları": 6187,
      "▁uc": 6188,
      "les": 6189,
      "▁sa": 6190,
      "em": 6191,
      "yla": 6192,
      "▁ettiler": 6193,
      "▁defa": 6194,
      "▁muz": 6195,
      "mekte": 6196,
      "▁pes": 6197,
      "\\/8": 6198,
      "▁kalma": 6199,
      "▁meyal": 6200,
      "▁1/": 6201,
      "his": 6202,
      "azı": 6203,
      "▁kose": 6204,
      "▁bagım": 6205,
      "▁degilmis": 6206,
      "▁ellerinde": 6207,
      "–": 6208,
      "▁kisiler": 6209,
      "▁musait": 6210,
      "▁konusma": 6211,
      "▁67": 6212,
      "▁tas": 6213,
      "ıldıgında": 6214,
      "▁zorlu": 6215,
      "lanan": 6216,
      "inip": 6217,
      "▁saz": 6218,
      "▁suruyor": 6219,
      "▁dikkat": 6220,
      "▁indirim": 6221,
      "▁400000": 6222,
      "bet": 6223,
      "▁istedigini": 6224,
      "▁iyimser": 6225,
      "▁bazılarının": 6226,
      "▁lyn": 6227,
      "▁calısan": 6228,
      "▁dizi": 6229,
      "▁sise": 6230,
      "▁kimyasal": 6231,
      "▁faz": 6232,
      "kara": 6233,
      "▁tası": 6234,
      "▁amma": 6235,
      "▁degisik": 6236,
      "▁bed": 6237,
      "ındaki": 6238,
      "▁tes": 6239,
      "▁bayrak": 6240,
      "▁mermer": 6241,
      "▁tuv": 6242,
      "▁hisseler": 6243,
      "▁tun": 6244,
      "ecik": 6245,
      "yasal": 6246,
      "▁kaydı": 6247,
      "▁ogul": 6248,
      "▁vazif": 6249,
      "▁dc'ye": 6250,
      "▁tanın": 6251,
      "▁agz": 6252,
      "▁faaliyet": 6253,
      "▁oturma": 6254,
      "▁kisi": 6255,
      "▁egem": 6256,
      "kun": 6257,
      "▁sik": 6258,
      "▁edecegini": 6259,
      "▁cıktım": 6260,
      "▁tır": 6261,
      "▁sınıf": 6262,
      "nun": 6263,
      "▁doneminde": 6264,
      "▁kent": 6265,
      "▁col": 6266,
      "isler": 6267,
      "▁iliskiler": 6268,
      "▁kitabı": 6269,
      "▁sorunları": 6270,
      "▁yedek": 6271,
      "▁ihtiyac": 6272,
      "▁yolc": 6273,
      "▁p": 6274,
      "elerinin": 6275,
      "4.8": 6276,
      "dokuz": 6277,
      "▁matem": 6278,
      "▁ifade": 6279,
      "▁organizasyon": 6280,
      "▁kims": 6281,
      "▁varlık": 6282,
      "eten": 6283,
      "▁paris": 6284,
      "▁olmamıs": 6285,
      "unku": 6286,
      "▁komsu": 6287,
      "▁ortal": 6288,
      "▁makaleye": 6289,
      "▁detay": 6290,
      "▁sistemi": 6291,
      "alar": 6292,
      "▁onde": 6293,
      "▁yuzune": 6294,
      "▁sy": 6295,
      "▁h": 6296,
      "▁eki": 6297,
      "▁yeten": 6298,
      "ecekler": 6299,
      "▁fazlasını": 6300,
      "▁kızıl": 6301,
      "ilmisti": 6302,
      "▁smith": 6303,
      "▁obu": 6304,
      "▁ustunde": 6305,
      "▁bus": 6306,
      "▁ayar": 6307,
      "▁jones": 6308,
      "ma": 6309,
      "▁kacak": 6310,
      "▁bakım": 6311,
      "▁kabar": 6312,
      "memisti": 6313,
      "omb": 6314,
      "▁potansiyel": 6315,
      "▁190": 6316,
      "li": 6317,
      "▁gunun": 6318,
      "▁ney": 6319,
      "▁yab": 6320,
      "▁alıyordu": 6321,
      "▁1": 6322,
      "adu": 6323,
      "0.": 6324,
      "▁metr": 6325,
      "▁tamam": 6326,
      "ını": 6327,
      "▁otek": 6328,
      "are": 6329,
      "▁pek": 6330,
      "▁yapıp": 6331,
      "▁efendi": 6332,
      "▁konusunda": 6333,
      "▁bende": 6334,
      "▁basarısız": 6335,
      "5000": 6336,
      "▁vermeye": 6337,
      "▁ısrar": 6338,
      "▁arkadasım": 6339,
      "sel": 6340,
      "gine": 6341,
      "▁kendilerinden": 6342,
      "▁yardımcı": 6343,
      "▁denem": 6344,
      "▁fel": 6345,
      "▁bitir": 6346,
      "▁personel": 6347,
      "▁ii": 6348,
      "inci": 6349,
      "▁rakam": 6350,
      "▁sezl": 6351,
      "▁sozu": 6352,
      "▁talih": 6353,
      "▁hol": 6354,
      "▁2.2": 6355,
      "▁afrika": 6356,
      "▁kans": 6357,
      "ılıgını": 6358,
      "▁ferah": 6359,
      "▁elini": 6360,
      "oyu": 6361,
      "▁uy": 6362,
      "0.3": 6363,
      "▁yılın": 6364,
      "▁kalın": 6365,
      "ılabilir": 6366,
      "anti": 6367,
      "▁gergin": 6368,
      "ıldıgını": 6369,
      "▁kısk": 6370,
      "▁antik": 6371,
      "▁sabit": 6372,
      "gıc": 6373,
      "▁kıdem": 6374,
      "▁ist": 6375,
      "▁sapk": 6376,
      "▁sizleri": 6377,
      "▁adını": 6378,
      "▁sever": 6379,
      "ustuk": 6380,
      "▁california": 6381,
      "▁disip": 6382,
      "▁%18": 6383,
      "cuk": 6384,
      "dıg": 6385,
      "▁fırladı": 6386,
      "lli": 6387,
      "▁yılda": 6388,
      "▁89-": 6389,
      "▁ciddi": 6390,
      "▁sep": 6391,
      "▁yorum": 6392,
      "esif": 6393,
      "▁aptal": 6394,
      "▁gr": 6395,
      "▁yakın": 6396,
      "▁ismi": 6397,
      "ya'nın": 6398,
      "▁odalari": 6399,
      "▁soz": 6400,
      "▁sol": 6401,
      "▁anladı": 6402,
      "▁ucagın": 6403,
      "o'ya": 6404,
      "▁giriste": 6405,
      "▁acıklam": 6406,
      "▁mot": 6407,
      "▁fır": 6408,
      "▁birbirimiz": 6409,
      "▁ettigini": 6410,
      "▁karsılan": 6411,
      "ph": 6412,
      "▁basım": 6413,
      "▁teler": 6414,
      "ek": 6415,
      "casına": 6416,
      "▁hani": 6417,
      "▁dikkatli": 6418,
      "atlar": 6419,
      "▁vası": 6420,
      "▁sikinti": 6421,
      "▁mahall": 6422,
      "west": 6423,
      "▁otob": 6424,
      "kul": 6425,
      "▁ob": 6426,
      "▁kursun": 6427,
      "▁isken": 6428,
      "ikler": 6429,
      "ole": 6430,
      "s.": 6431,
      "▁sof": 6432,
      "▁umit": 6433,
      "▁kopek": 6434,
      "▁tartısmalar": 6435,
      "abı": 6436,
      "▁yaptıgı": 6437,
      "mac": 6438,
      "met": 6439,
      "▁ord": 6440,
      "▁tersine": 6441,
      "▁oglen": 6442,
      "▁bekley": 6443,
      "▁fes": 6444,
      "▁homur": 6445,
      ".23": 6446,
      "▁52": 6447,
      "▁not": 6448,
      "▁senetleri": 6449,
      "rı": 6450,
      "▁kaliforniya": 6451,
      "▁geleneksel": 6452,
      "▁sıkır": 6453,
      "▁lacivert": 6454,
      "ibar": 6455,
      "▁sana": 6456,
      "▁ac": 6457,
      "▁cevr": 6458,
      "▁kar": 6459,
      "▁birles": 6460,
      "▁44": 6461,
      "▁grubu": 6462,
      "▁2017": 6463,
      "▁ipot": 6464,
      "▁satır": 6465,
      "tın": 6466,
      "'luk": 6467,
      "▁hızlı": 6468,
      "bahar": 6469,
      ".51": 6470,
      "▁eskiden": 6471,
      "▁baslıyor": 6472,
      "▁1974": 6473,
      "isin": 6474,
      "rily": 6475,
      "▁biriler": 6476,
      "madi": 6477,
      "▁fakat": 6478,
      "▁takım": 6479,
      "sef": 6480,
      "ah": 6481,
      "ron": 6482,
      "ub": 6483,
      "▁bilesik": 6484,
      "▁takdirde": 6485,
      "ilmaz": 6486,
      "▁tah": 6487,
      "'yı": 6488,
      "▁tıpkı": 6489,
      "▁ir": 6490,
      "▁harika": 6491,
      "▁degerinde": 6492,
      "▁asla": 6493,
      "▁politika": 6494,
      "▁ekm": 6495,
      "▁capital": 6496,
      "dy": 6497,
      "▁idi": 6498,
      "▁kuru": 6499,
      "▁medya": 6500,
      "eyim": 6501,
      "▁seyrediyor": 6502,
      "lıklar": 6503,
      "▁hayret": 6504,
      "-6": 6505,
      "lilig": 6506,
      "▁omuz": 6507,
      "▁bugunku": 6508,
      "ustri": 6509,
      "▁olmaz": 6510,
      "▁%6.9": 6511,
      "ırdı": 6512,
      "oster": 6513,
      "▁sul": 6514,
      "▁yurtdı": 6515,
      "lerce": 6516,
      "▁fonlar": 6517,
      "edi": 6518,
      "▁matematik": 6519,
      "ırk": 6520,
      "▁demektir": 6521,
      "ruk": 6522,
      "▁yı": 6523,
      "▁seyleri": 6524,
      "▁sıra": 6525,
      ".9": 6526,
      "▁seviyede": 6527,
      "alarda": 6528,
      "▁aday": 6529,
      "▁sagladı": 6530,
      "▁kılı": 6531,
      "hu": 6532,
      "▁mahal": 6533,
      "▁7\\/8": 6534,
      "▁ucyuz": 6535,
      "masında": 6536,
      "▁fok": 6537,
      "▁...": 6538,
      "▁f": 6539,
      "▁sam": 6540,
      "▁iliskileri": 6541,
      "aya": 6542,
      "oya": 6543,
      "▁nash": 6544,
      "▁..": 6545,
      "▁iceren": 6546,
      "▁fiyatina": 6547,
      "iyi": 6548,
      "son": 6549,
      "ast": 6550,
      "▁heyecan": 6551,
      "▁duzenlenen": 6552,
      ".55": 6553,
      "▁genis": 6554,
      "▁kidder": 6555,
      "▁ham": 6556,
      "▁dal": 6557,
      "▁kendisine": 6558,
      "▁etmedi": 6559,
      "▁alem": 6560,
      "▁endi": 6561,
      "▁bilmiyor": 6562,
      "tmis": 6563,
      "▁2016": 6564,
      "ydi": 6565,
      "ud": 6566,
      "▁kanal": 6567,
      "▁ceyrek": 6568,
      "▁tav": 6569,
      "a.": 6570,
      "▁hiss": 6571,
      "ısın": 6572,
      "emek": 6573,
      "▁ontari": 6574,
      "▁mevzu": 6575,
      "▁gunduz": 6576,
      "8": 6577,
      "▁gomlek": 6578,
      "▁yaklas": 6579,
      "▁yapılır": 6580,
      "▁kep": 6581,
      "▁2005": 6582,
      "▁cogal": 6583,
      "▁%85": 6584,
      "▁care": 6585,
      "▁ziy": 6586,
      "▁oradan": 6587,
      "▁mıydı": 6588,
      "▁saatleri": 6589,
      "▁kub": 6590,
      "duncu": 6591,
      "▁yardimci": 6592,
      "▁kazan": 6593,
      "▁deri": 6594,
      "ation": 6595,
      "▁burası": 6596,
      "▁yemegi": 6597,
      "[PAD]": 6598,
      "▁bacak": 6599,
      "tr": 6600,
      "ulur": 6601,
      "'nın": 6602,
      "▁bit": 6603,
      "▁piyasanın": 6604,
      "4'te": 6605,
      "na": 6606,
      "sınız": 6607,
      "▁muay": 6608,
      "▁ders": 6609,
      "▁odul": 6610,
      "▁senedi": 6611,
      "▁54": 6612,
      "-4": 6613,
      "▁sirketin": 6614,
      "▁california'ya": 6615,
      "eler": 6616,
      "▁900": 6617,
      "▁muda": 6618,
      "lenmis": 6619,
      "ık": 6620,
      "▁air": 6621,
      "▁rakip": 6622,
      "▁bulunan": 6623,
      "isk": 6624,
      "▁kaf": 6625,
      "▁fıldır": 6626,
      "▁%25": 6627,
      "▁hakları": 6628,
      "▁sonrasında": 6629,
      "▁hav": 6630,
      "▁holding": 6631,
      "▁bıc": 6632,
      "inizi": 6633,
      "▁97": 6634,
      "dıgını": 6635,
      "▁dusen": 6636,
      "alarını": 6637,
      "▁pal": 6638,
      "raj": 6639,
      "▁denizi": 6640,
      "▁danısman": 6641,
      ".65": 6642,
      "▁sekilde": 6643,
      "▁mosk": 6644,
      "▁philadelphia'ya": 6645,
      "▁olduklarını": 6646,
      "▁mily": 6647,
      "▁kav": 6648,
      "▁nec": 6649,
      "▁dedigi": 6650,
      "▁gu": 6651,
      "▁otomobil": 6652,
      ">": 6653,
      "bası": 6654,
      "▁kanat": 6655,
      "▁sırtında": 6656,
      "iy": 6657,
      "tum": 6658,
      "ih": 6659,
      "adılar": 6660,
      "▁gidip": 6661,
      "▁allak": 6662,
      "par": 6663,
      "▁cocuklara": 6664,
      "▁ikram": 6665,
      "▁ara": 6666,
      "▁4'ten": 6667,
      "▁tamamen": 6668,
      "▁eti": 6669,
      "▁muster": 6670,
      "orp": 6671,
      "▁tahvili": 6672,
      "▁cit": 6673,
      "▁fayd": 6674,
      "▁gi": 6675,
      "▁davası": 6676,
      "ayın": 6677,
      "ufur": 6678,
      "▁acıklan": 6679,
      "▁muhaf": 6680,
      "sına": 6681,
      "▁cıyak": 6682,
      "▁defter": 6683,
      "o'nun": 6684,
      "▁calisan": 6685,
      "▁boc": 6686,
      "atif": 6687,
      "iyorlar": 6688,
      "▁kisiye": 6689,
      "▁titiz": 6690,
      "▁industri": 6691,
      "▁dogur": 6692,
      "▁bosluk": 6693,
      "▁z": 6694,
      "▁ancak": 6695,
      "▁milyon": 6696,
      "▁sınıfı": 6697,
      "▁uretimi": 6698,
      "▁atesi": 6699,
      "▁gorus": 6700,
      "▁%7.875": 6701,
      "▁vat": 6702,
      "▁univ": 6703,
      "[CLS]": 6704,
      "▁yer": 6705,
      "▁yerlestir": 6706,
      "iydi": 6707,
      "▁1.2": 6708,
      "makta": 6709,
      "▁minneapolis'e": 6710,
      "ıcak": 6711,
      "▁ailesi": 6712,
      "ahi": 6713,
      "▁fiyatı": 6714,
      "ilerini": 6715,
      "▁ipek": 6716,
      "ıkır": 6717,
      "▁basladık": 6718,
      "▁8": 6719,
      "imden": 6720,
      "▁8.8": 6721,
      "▁gerektigini": 6722,
      "per": 6723,
      "▁yuzde": 6724,
      "agından": 6725,
      "eliydi": 6726,
      "▁standart": 6727,
      "▁1980": 6728,
      "▁53": 6729,
      "ke": 6730,
      "ilmis": 6731,
      "▁cekin": 6732,
      "rik": 6733,
      "▁yuzlu": 6734,
      "imizde": 6735,
      "rill": 6736,
      "▁tir": 6737,
      "▁kopru": 6738,
      "tiler": 6739,
      "▁ulk": 6740,
      "▁ydu": 6741,
      "▁ikiyuz": 6742,
      "▁gordum": 6743,
      "▁normaldi": 6744,
      "ektif": 6745,
      "ger": 6746,
      ".52": 6747,
      "▁etmeyi": 6748,
      "▁onlar": 6749,
      "▁alıp": 6750,
      "▁icimde": 6751,
      "▁%6.90": 6752,
      "▁chicago'dan": 6753,
      "sın": 6754,
      "lerim": 6755,
      "▁sergil": 6756,
      "▁dusun": 6757,
      "▁emin": 6758,
      "▁hen": 6759,
      "▁zamanda": 6760,
      "▁5\\/8": 6761,
      "▁durmadan": 6762,
      "ale": 6763,
      "ze": 6764,
      "▁sonr": 6765,
      "▁su": 6766,
      "cal": 6767,
      "lastı": 6768,
      "ibe": 6769,
      "ıyorsun": 6770,
      "ıyordu": 6771,
      "▁bizde": 6772,
      "anlık": 6773,
      "▁belirli": 6774,
      "▁belirsiz": 6775,
      "▁plani": 6776,
      "▁fatih": 6777,
      "▁diger": 6778,
      "oz": 6779,
      ".50": 6780,
      "▁olumlu": 6781,
      "▁yere": 6782,
      "ımız": 6783,
      "▁olur": 6784,
      "un": 6785,
      "▁etmez": 6786,
      "abilmek": 6787,
      "▁dusuktu": 6788,
      "▁kesinlikle": 6789,
      "ens": 6790,
      "▁altmıs": 6791,
      "▁canım": 6792,
      "orm": 6793,
      "gır": 6794,
      "▁fark": 6795,
      "▁faiz": 6796,
      "▁dostu": 6797,
      "▁%15": 6798,
      "▁one": 6799,
      "▁bayram": 6800,
      "leyici": 6801,
      "ların": 6802,
      "▁kere": 6803,
      "erv": 6804,
      "▁kusur": 6805,
      "▁lif": 6806,
      "▁yemeklerinden": 6807,
      "mesine": 6808,
      "cog": 6809,
      "▁tanık": 6810,
      "▁karısık": 6811,
      "▁it": 6812,
      "▁size": 6813,
      "▁nez": 6814,
      "▁lakırtı": 6815,
      "ren": 6816,
      "anla": 6817,
      "ınız": 6818,
      "▁etkil": 6819,
      "ledim": 6820,
      "▁sir": 6821,
      "▁angeles'ten": 6822,
      "▁arm": 6823,
      "▁oy": 6824,
      "▁aslan": 6825,
      "▁psik": 6826,
      "▁miktarda": 6827,
      "▁sorgul": 6828,
      "iyetini": 6829,
      "▁ustunden": 6830,
      "▁havayollarının": 6831,
      "ecegini": 6832,
      "▁bastır": 6833,
      "▁mutlaka": 6834,
      "▁esir": 6835,
      "▁phoenix'den": 6836,
      "▁gokyuz": 6837,
      "ch": 6838,
      "▁belediye": 6839,
      "sem": 6840,
      "▁talep": 6841,
      "ov": 6842,
      "▁ste": 6843,
      "▁montreal": 6844,
      "▁dert": 6845,
      "▁ustu": 6846,
      "(": 6847,
      "▁herkesten": 6848,
      "▁dolap": 6849,
      "▁olmalı": 6850,
      "l": 6851,
      "alt": 6852,
      "ove": 6853,
      "▁ucretin": 6854,
      "▁saglıyor": 6855,
      "▁konuk": 6856,
      "▁camur": 6857,
      "lis": 6858,
      "▁okul": 6859,
      "▁ihtil": 6860,
      "eydi": 6861,
      "may": 6862,
      "▁tecrub": 6863,
      "▁express": 6864,
      "▁tutarında": 6865,
      "▁veriyorum": 6866,
      "ut": 6867,
      "▁seye": 6868,
      "▁phoenix'e": 6869,
      "▁oturmus": 6870,
      "▁75": 6871,
      "▁arastırma": 6872,
      "b": 6873,
      "ry": 6874,
      "▁serbest": 6875,
      "ank": 6876,
      "▁sarı": 6877,
      "▁70": 6878,
      "▁yuzunu": 6879,
      "▁karsılastır": 6880,
      "iran": 6881,
      "▁kong": 6882,
      "▁fırsat": 6883,
      "lesine": 6884,
      "▁yine": 6885,
      "▁okuy": 6886,
      "liam": 6887,
      "▁nereden": 6888,
      "▁etmisti": 6889,
      "aguar": 6890,
      "▁sakat": 6891,
      "▁aksine": 6892,
      "▁hayvan": 6893,
      "▁dok": 6894,
      "larca": 6895,
      "▁mektep": 6896,
      "▁komit": 6897,
      "▁anadolu": 6898,
      "▁yken": 6899,
      "▁gunu": 6900,
      "▁mir": 6901,
      "▁ziyade": 6902,
      "▁fing": 6903,
      "▁onlarla": 6904,
      "▁gazet": 6905,
      "▁iceriyor": 6906,
      "▁karan": 6907,
      "▁listeleyebilir": 6908,
      "▁muk": 6909,
      "▁ilgiliydi": 6910,
      "▁edile": 6911,
      "▁alak": 6912,
      "▁zır": 6913,
      "dular": 6914,
      "▁%3.5": 6915,
      "▁gelsin": 6916,
      "▁ren": 6917,
      "▁dinliyor": 6918,
      "iforn": 6919,
      "ulen": 6920,
      "▁kampan": 6921,
      "▁37.5": 6922,
      "▁yaptirdi": 6923,
      "▁mola": 6924,
      "lesi": 6925,
      "▁istedim": 6926,
      "yan": 6927,
      "medigini": 6928,
      "tu": 6929,
      "▁13": 6930,
      "▁dusunuyorum": 6931,
      "kur": 6932,
      "mustur": 6933,
      "▁tabii": 6934,
      "larımız": 6935,
      "▁ilan": 6936,
      "▁sessiz": 6937,
      "▁gunden": 6938,
      "▁gog": 6939,
      "sin": 6940,
      "▁uyesi": 6941,
      "▁fi": 6942,
      "19": 6943,
      "alarla": 6944,
      "▁aktivit": 6945,
      "acag": 6946,
      "alık": 6947,
      "tıgı": 6948,
      "▁perde": 6949,
      "cılar": 6950,
      "▁ten": 6951,
      "▁beh": 6952,
      "alak": 6953,
      "▁anad": 6954,
      "▁kadının": 6955,
      "▁tanı": 6956,
      "isse": 6957,
      "▁?": 6958,
      "edeki": 6959,
      "▁2004": 6960,
      "▁beklent": 6961,
      "uru": 6962,
      "▁konforlu": 6963,
      "▁kız": 6964,
      "▁s&p": 6965,
      "▁kucak": 6966,
      "▁zira": 6967,
      "▁veririm": 6968,
      "▁morgan": 6969,
      "▁oldugunu": 6970,
      "95": 6971,
      "obil": 6972,
      "▁basarılı": 6973,
      "▁modern": 6974,
      "▁gemi": 6975,
      "▁som": 6976,
      "▁ero": 6977,
      "iger": 6978,
      "▁seviye": 6979,
      "▁verebilirim": 6980,
      "▁me": 6981,
      "▁iliski": 6982,
      "luyor": 6983,
      "▁hakan": 6984,
      "▁9": 6985,
      "▁cep": 6986,
      "masının": 6987,
      "▁gozlem": 6988,
      "▁cekil": 6989,
      "▁nasda": 6990,
      "'ta": 6991,
      "▁nesn": 6992,
      "▁verilm": 6993,
      "▁hacı": 6994,
      "▁yaklasimi": 6995,
      "▁hale": 6996,
      "unup": 6997,
      "▁geleni": 6998,
      "▁edilmesi": 6999,
      "lası": 7000,
      "▁vegas'tan": 7001,
      "▁parayı": 7002,
      "mamıs": 7003,
      "▁lake": 7004,
      "▁dogrudan": 7005,
      "▁val": 7006,
      "▁eg": 7007,
      "▁hicbiri": 7008,
      "▁basa": 7009,
      "▁iyice": 7010,
      "▁doy": 7011,
      "▁international": 7012,
      "▁dunyada": 7013,
      "▁kitaplar": 7014,
      "ılıgı": 7015,
      "▁pap": 7016,
      "▁dolayısıyla": 7017,
      "▁donem": 7018,
      "▁bin": 7019,
      "▁saygı": 7020,
      "makla": 7021,
      "▁cinc": 7022,
      "▁durgunluk": 7023,
      "▁com": 7024,
      "▁memur": 7025,
      "▁surekli": 7026,
      "en": 7027,
      "▁ons": 7028,
      "▁%": 7029,
      "▁1990": 7030,
      "melerini": 7031,
      "▁motor": 7032,
      "▁enflasyon": 7033,
      "▁bence": 7034,
      "▁herkes": 7035,
      "▁barıs": 7036,
      "▁seviyesinden": 7037,
      "▁kurdu": 7038,
      "▁port": 7039,
      "▁olunca": 7040,
      "▁0.1": 7041,
      "▁philadelphia'dan": 7042,
      "▁darbe": 7043,
      "▁dinlen": 7044,
      "oh": 7045,
      "deki": 7046,
      "▁verimli": 7047,
      "ames": 7048,
      "▁yapılandır": 7049,
      "▁ortaya": 7050,
      "▁agacın": 7051,
      "6": 7052,
      "▁mucadel": 7053,
      "▁kurulan": 7054,
      "▁ısın": 7055,
      "ladıgını": 7056,
      "▁pul": 7057,
      "▁kol": 7058,
      "▁doga": 7059,
      "▁uret": 7060,
      "▁gunes": 7061,
      "▁ogret": 7062,
      "leb": 7063,
      "▁aradilar": 7064,
      "▁uf": 7065,
      "af": 7066,
      "w": 7067,
      "▁geliyor": 7068,
      "tern": 7069,
      "▁karsın": 7070,
      "iyim": 7071,
      "hat": 7072,
      ".31": 7073,
      "▁nam": 7074,
      "▁hepimizin": 7075,
      ".8": 7076,
      "acık": 7077,
      "▁cın": 7078,
      "ri": 7079,
      "▁numara": 7080,
      "▁%0": 7081,
      "▁supur": 7082,
      "▁sasır": 7083,
      "▁oldum": 7084,
      "'in": 7085,
      "38": 7086,
      "larına": 7087,
      "laması": 7088,
      "amb": 7089,
      "▁arayan": 7090,
      "▁surdur": 7091,
      "▁101": 7092,
      "▁cumhur": 7093,
      "▁kapandı": 7094,
      "▁1984": 7095,
      "▁didik": 7096,
      "▁satım": 7097,
      "▁buc": 7098,
      "▁basar": 7099,
      "▁gerekiyor": 7100,
      "ums": 7101,
      "ladı": 7102,
      "▁adamları": 7103,
      "▁ilgilendiler": 7104,
      "ıstı": 7105,
      "▁bugday": 7106,
      "▁oyuncak": 7107,
      "ıy": 7108,
      "▁nedir": 7109,
      "uga": 7110,
      "▁tezgah": 7111,
      "▁york'ta": 7112,
      "▁saga": 7113,
      "lendir": 7114,
      "ten": 7115,
      "▁ol": 7116,
      "▁73": 7117,
      "▁hukum": 7118,
      "▁aray": 7119,
      "▁beklem": 7120,
      "▁yakindi": 7121,
      "▁nob": 7122,
      "▁gev": 7123,
      "▁tasıyan": 7124,
      "▁bardak": 7125,
      "igin": 7126,
      "▁63": 7127,
      "ert": 7128,
      "dis": 7129,
      "iden": 7130,
      "▁toplam": 7131,
      "▁sin": 7132,
      "▁calısma": 7133,
      "▁galib": 7134,
      "▁ekledi": 7135,
      "▁sahneye": 7136,
      "▁mag": 7137,
      "▁diyordu": 7138,
      "37": 7139,
      "▁sonra": 7140,
      "agi": 7141,
      "▁elindeki": 7142,
      "▁lazım": 7143,
      "▁sim": 7144,
      "▁angeles'e": 7145,
      "isinde": 7146,
      "▁duzgun": 7147,
      "hal": 7148,
      "▁gok": 7149,
      "▁miami'ye": 7150,
      "ustos": 7151,
      "▁tulum": 7152,
      "▁maruz": 7153,
      "iti": 7154,
      "▁tasıy": 7155,
      "ıpıs": 7156,
      "▁hey": 7157,
      "▁demis": 7158,
      "▁ila": 7159,
      "usunda": 7160,
      "▁per": 7161,
      "▁isleri": 7162,
      "wood": 7163,
      "▁oldukca": 7164,
      "▁sun": 7165,
      "▁zehir": 7166,
      "▁yarın": 7167,
      "▁gitt": 7168,
      "akende": 7169,
      "uma": 7170,
      "rak": 7171,
      "▁kagı": 7172,
      "bil": 7173,
      "▁toplantıs": 7174,
      "▁sordu": 7175,
      "▁ciyak": 7176,
      "▁odem": 7177,
      "▁nit": 7178,
      "ba": 7179,
      "▁olus": 7180,
      "▁nefes": 7181,
      "▁mur": 7182,
      "▁5/8": 7183,
      "▁nuk": 7184,
      "▁fonları": 7185,
      "▁termal": 7186,
      "▁buna": 7187,
      "ion": 7188,
      "▁south": 7189,
      "▁kuvvet": 7190,
      "mekten": 7191,
      "▁amerikalı": 7192,
      "▁ecekti": 7193,
      "▁yaygın": 7194,
      "▁patır": 7195,
      "burgh": 7196,
      "▁raporu": 7197,
      "uth": 7198,
      "▁guclendir": 7199,
      "▁tarihi": 7200,
      "▁verecek": 7201,
      "▁denizinden": 7202,
      "▁servet": 7203,
      "▁acaktı": 7204,
      "▁uyku": 7205,
      "▁tesp": 7206,
      "▁sekret": 7207,
      "▁yonel": 7208,
      "▁43": 7209,
      "ra": 7210,
      "▁insanların": 7211,
      "▁programı": 7212,
      "▁denk": 7213,
      "q": 7214,
      "▁class": 7215,
      "▁sesleri": 7216,
      "5-1": 7217,
      "▁kum": 7218,
      "lasıyor": 7219,
      "▁bakır": 7220,
      "▁londra": 7221,
      "▁6'dan": 7222,
      "ira": 7223,
      "▁yapılmıs": 7224,
      "▁dag": 7225,
      "▁nic": 7226,
      "▁sonuclar": 7227,
      "▁universite": 7228,
      "▁inanc": 7229,
      "▁stok": 7230,
      "▁gelenek": 7231,
      "▁tez": 7232,
      "▁internet": 7233,
      "▁kaybetti": 7234,
      "amın": 7235,
      "▁usta": 7236,
      "ele": 7237,
      "abiliriz": 7238,
      "ayla": 7239,
      "▁personelleri": 7240,
      "le": 7241,
      "▁andır": 7242,
      "▁girdik": 7243,
      "▁cant": 7244,
      "▁market": 7245,
      "▁dus": 7246,
      "lılık": 7247,
      "▁isk": 7248,
      "▁gunumuz": 7249,
      "▁nokt": 7250,
      "▁firması": 7251,
      "▁iran": 7252,
      "▁hazır": 7253,
      "▁cevre": 7254,
      "▁onlara": 7255,
      "ılan": 7256,
      "▁girmek": 7257,
      "▁alım": 7258,
      "meyecek": 7259,
      "▁rad": 7260,
      "▁if": 7261,
      "▁duyar": 7262,
      "▁28": 7263,
      "▁sinirli": 7264,
      "ıng": 7265,
      "▁asag": 7266,
      "▁endeksi": 7267,
      "▁kolay": 7268,
      "”": 7269,
      "gum": 7270,
      "iyeti": 7271,
      "ator": 7272,
      "yuz": 7273,
      "eyince": 7274,
      "▁sist": 7275,
      "▁baskanı": 7276,
      "lugu": 7277,
      "mal": 7278,
      "▁kocaman": 7279,
      "sine": 7280,
      "itt": 7281,
      "▁29": 7282,
      "▁devral": 7283,
      "▁bekledigini": 7284,
      "▁ekonom": 7285,
      "▁uzak": 7286,
      "▁komur": 7287,
      "ulu": 7288,
      "▁jose": 7289,
      "▁etmesi": 7290,
      "▁arasından": 7291,
      "tis": 7292,
      "▁tutan": 7293,
      "ilerdi": 7294,
      "▁finansman": 7295,
      "ho": 7296,
      "▁insanlar": 7297,
      "▁soyle": 7298,
      "▁q": 7299,
      "▁derin": 7300,
      "▁dolara": 7301,
      "▁olacak": 7302,
      "rahim": 7303,
      "▁delik": 7304,
      "▁guzel": 7305,
      "▁9.7": 7306,
      "▁musun": 7307,
      "▁yel": 7308,
      "▁imal": 7309,
      "apol": 7310,
      "▁diplom": 7311,
      "▁bina": 7312,
      "’": 7313,
      "ine": 7314,
      "▁4.5": 7315,
      "▁mav": 7316,
      "▁aldim": 7317,
      "gunda": 7318,
      "▁sabahın": 7319,
      "eg": 7320,
      "▁kurban": 7321,
      "▁bahseder": 7322,
      "°": 7323,
      "89": 7324,
      "lasan": 7325,
      "▁kade": 7326,
      "▁yem": 7327,
      "▁insa": 7328,
      "▁hop": 7329,
      "▁cay": 7330,
      "▁carsamba": 7331,
      "▁bakıyordu": 7332,
      "▁havuzlar": 7333,
      "ımda": 7334,
      "ltı": 7335,
      "▁bun": 7336,
      "▁rek": 7337,
      "▁ortam": 7338,
      "▁yım": 7339,
      "amadik": 7340,
      "▁balk": 7341,
      "▁sesini": 7342,
      "▁yasında": 7343,
      "masını": 7344,
      "▁devletin": 7345,
      "elerini": 7346,
      "ksen": 7347,
      "▁birini": 7348,
      "▁worth'a": 7349,
      "1-19": 7350,
      "▁sanay": 7351,
      "▁kurt": 7352,
      "la": 7353,
      "▁oranları": 7354,
      "layan": 7355,
      "▁hepsinden": 7356,
      "amdan": 7357,
      "▁miami'den": 7358,
      "lemek": 7359,
      "▁l": 7360,
      "▁icim": 7361,
      "▁nashville'den": 7362,
      "▁yont": 7363,
      "▁hizmeti": 7364,
      "▁747": 7365,
      "▁*": 7366,
      "abi": 7367,
      "▁milwaukee": 7368,
      "▁hala": 7369,
      "▁merdi": 7370,
      "▁89": 7371,
      "imet": 7372,
      "▁tuken": 7373,
      "ektr": 7374,
      "▁sum": 7375,
      "▁arttır": 7376,
      "rup": 7377,
      "▁malzemeler": 7378,
      "▁sınır": 7379,
      "▁united": 7380,
      "▁kedi": 7381,
      "▁%7": 7382,
      "▁teyz": 7383,
      "▁acıp": 7384,
      "agım": 7385,
      "▁kodu": 7386,
      "amak": 7387,
      "tan": 7388,
      "bank": 7389,
      "ihaz": 7390,
      "▁yapmaktan": 7391,
      "▁kuz": 7392,
      "madim": 7393,
      "ber": 7394,
      "tansiy": 7395,
      "▁sic": 7396,
      "▁rekabet": 7397,
      "▁telefon": 7398,
      "▁dar": 7399,
      "▁72": 7400,
      "▁kalite": 7401,
      "▁fatur": 7402,
      "masız": 7403,
      "▁elb": 7404,
      "▁duyur": 7405,
      "▁gum": 7406,
      "▁kendisini": 7407,
      "agında": 7408,
      "▁diz": 7409,
      "eyen": 7410,
      "▁250000": 7411,
      "▁olan": 7412,
      "▁havayolu": 7413,
      "▁tutuyor": 7414,
      "bus": 7415,
      "▁oz": 7416,
      "▁duv": 7417,
      "ayol": 7418,
      "▁chicag": 7419,
      "▁ual": 7420,
      "▁bilimsel": 7421,
      "aliydi": 7422,
      "▁endek": 7423,
      "▁havalim": 7424,
      "▁dek": 7425,
      "▁oakland": 7426,
      "▁gur": 7427,
      "1'de": 7428,
      "▁tuket": 7429,
      "▁parasını": 7430,
      "▁personeller": 7431,
      "▁carp": 7432,
      "use": 7433,
      "▁denver'den": 7434,
      "▁uzay": 7435,
      "▁gazete": 7436,
      "▁dokuz": 7437,
      "lay": 7438,
      "▁gozluk": 7439,
      "ohn": 7440,
      "arlan": 7441,
      "▁sebebi": 7442,
      "▁edilecek": 7443,
      "▁ulastı": 7444,
      "▁katıl": 7445,
      "▁bizimle": 7446,
      "▁%2.7": 7447,
      "▁bulmaya": 7448,
      "▁elbet": 7449,
      "▁oksur": 7450,
      "arson": 7451,
      "▁sehrin": 7452,
      "▁temin": 7453,
      "tere": 7454,
      "▁superdi": 7455,
      "▁sevk": 7456,
      "▁benziyor": 7457,
      "▁kendilerinin": 7458,
      "▁dusuk": 7459,
      "▁buny": 7460,
      "unc": 7461,
      ".38": 7462,
      "▁toronto'ya": 7463,
      "▁ekonomi": 7464,
      "▁yıllar": 7465,
      "▁kardes": 7466,
      "▁kumas": 7467,
      "dıkları": 7468,
      "▁tal": 7469,
      "▁atlanta'ya": 7470,
      "▁22-23": 7471,
      "▁kavg": 7472,
      "▁nelerdir": 7473,
      "▁fabrik": 7474,
      "▁gecik": 7475,
      "▁sec": 7476,
      "▁sonunda": 7477,
      "▁borcu": 7478,
      "▁insana": 7479,
      "▁zafer": 7480,
      "▁arabalar": 7481,
      "undan": 7482,
      "▁sayıda": 7483,
      "bur": 7484,
      "▁imz": 7485,
      "▁belirtti": 7486,
      "▁3/": 7487,
      "▁61": 7488,
      "▁gul": 7489,
      "tıgını": 7490,
      "▁organ": 7491,
      "▁%3.1": 7492,
      "▁lob": 7493,
      "▁gonul": 7494,
      "dık": 7495,
      "▁num": 7496,
      "ildi": 7497,
      "▁kararlı": 7498,
      "▁numar": 7499,
      "▁populer": 7500,
      "▁ez": 7501,
      "manı": 7502,
      "eyi": 7503,
      "▁washington'a": 7504,
      "▁karayolu": 7505,
      "aseb": 7506,
      "lıgını": 7507,
      "▁verme": 7508,
      "▁yogun": 7509,
      "▁kayak": 7510,
      "▁bur": 7511,
      "0000": 7512,
      "▁1.1": 7513,
      "▁%20": 7514,
      "olog": 7515,
      "▁alacaklı": 7516,
      "r": 7517,
      "▁adet": 7518,
      "▁besyuz": 7519,
      "yalı": 7520,
      "▁yetkili": 7521,
      "▁eylul'de": 7522,
      "edigini": 7523,
      "▁meden": 7524,
      "▁oyku": 7525,
      "▁eas": 7526,
      "▁girisim": 7527,
      "▁kasım'da": 7528,
      "▁naz": 7529,
      "liyor": 7530,
      "mamak": 7531,
      "▁yaprak": 7532,
      "erse": 7533,
      "▁elinden": 7534,
      "kın": 7535,
      "▁karsı": 7536,
      "otuz": 7537,
      "yiz": 7538,
      "▁muhar": 7539,
      "ala": 7540,
      "▁yeterliydi": 7541,
      "▁ortaydi": 7542,
      "▁kayık": 7543,
      "▁kardesi": 7544,
      "▁basına": 7545,
      "▁2.3": 7546,
      "▁sonu": 7547,
      "▁gelisim": 7548,
      "▁sosy": 7549,
      "▁satıl": 7550,
      "▁donustur": 7551,
      "▁siyah": 7552,
      "▁yeterince": 7553,
      "▁bozuk": 7554,
      "▁osman": 7555,
      "madım": 7556,
      "▁icra": 7557,
      "▁worth": 7558,
      "mektedir": 7559,
      "▁altıncı": 7560,
      "lıgı": 7561,
      "▁degildim": 7562,
      "▁nori": 7563,
      "▁%6.4": 7564,
      "▁charlotte'ye": 7565,
      "▁teh": 7566,
      "can": 7567,
      "isyon": 7568,
      "▁sevdigi": 7569,
      "▁kalkan": 7570,
      "likle": 7571,
      "-200": 7572,
      "▁calısması": 7573,
      "tak": 7574,
      "leyin": 7575,
      "▁yetkilileri": 7576,
      "cinin": 7577,
      "▁inti": 7578,
      "▁dov": 7579,
      "t": 7580,
      "▁sallan": 7581,
      "taki": 7582,
      "onun": 7583,
      "▁gibi": 7584,
      "▁odanın": 7585,
      "▁yonlendir": 7586,
      "▁hissesi": 7587,
      "▁edebilir": 7588,
      "amm": 7589,
      "▁yamalak": 7590,
      "isiyle": 7591,
      "▁zarif": 7592,
      "▁sos": 7593,
      "▁ulas": 7594,
      "▁_": 7595,
      "▁sehir": 7596,
      "saydı": 7597,
      "liye": 7598,
      "▁icinde": 7599,
      "▁1/2": 7600,
      "▁iyilestir": 7601,
      "▁ben": 7602,
      "cesi": 7603,
      "▁3.": 7604,
      "ısının": 7605,
      "▁tarih": 7606,
      "▁dik": 7607,
      "▁hastalık": 7608,
      "▁sen": 7609,
      "▁bulmak": 7610,
      "▁sabır": 7611,
      "▁ucuz": 7612,
      "▁eksikligi": 7613,
      "▁ataturk'un": 7614,
      "▁gozlerim": 7615,
      "'ten": 7616,
      "ne": 7617,
      "▁dakik": 7618,
      "▁basbak": 7619,
      "▁bilmem": 7620,
      "▁garip": 7621,
      "▁duskun": 7622,
      "▁olaganustu": 7623,
      "▁kef": 7624,
      "▁olumsuz": 7625,
      "▁para": 7626,
      "otte": 7627,
      "▁attı": 7628,
      "▁acıldı": 7629,
      "ırken": 7630,
      "▁jos": 7631,
      "▁begen": 7632,
      "▁kos": 7633,
      "uyor": 7634,
      "▁dom": 7635,
      "ac": 7636,
      "▁3.5": 7637,
      "▁yuklu": 7638,
      "▁roportaj": 7639,
      "ael": 7640,
      "▁pır": 7641,
      "▁yen'e": 7642,
      "▁memph": 7643,
      "lanma": 7644,
      "▁birbirinden": 7645,
      "▁orta": 7646,
      "ıf": 7647,
      "yas": 7648,
      "▁iti": 7649,
      "▁mit": 7650,
      "▁yapım": 7651,
      "ustral": 7652,
      "lamayı": 7653,
      "and": 7654,
      "▁seyden": 7655,
      "alıgı": 7656,
      "▁bagır": 7657,
      "▁ilgi": 7658,
      "▁getir": 7659,
      "▁komp": 7660,
      "mesiyle": 7661,
      "▁insan": 7662,
      "▁evet": 7663,
      "urdu": 7664,
      "61": 7665,
      "▁yuzme": 7666,
      "▁tr": 7667,
      "elen": 7668,
      "▁ec": 7669,
      "▁rahat": 7670,
      "ann": 7671,
      "▁arada": 7672,
      "50": 7673,
      ".36": 7674,
      "▁etmistir": 7675,
      "ınc": 7676,
      "▁hisset": 7677,
      "▁sov": 7678,
      "▁alt": 7679,
      "cıları": 7680,
      "▁secenek": 7681,
      "▁kah": 7682,
      "▁minneapolis'ten": 7683,
      "▁ozet": 7684,
      "▁degisiklik": 7685,
      "▁goze": 7686,
      "▁ulasım": 7687,
      "▁5.1": 7688,
      "▁york'a": 7689,
      "▁gercek": 7690,
      "▁kibar": 7691,
      "▁degiliz": 7692,
      "lık": 7693,
      "▁planlam": 7694,
      "▁karar": 7695,
      "amıs": 7696,
      "▁yam": 7697,
      "▁div": 7698,
      "uluk": 7699,
      "▁ge": 7700,
      "▁milli": 7701,
      "▁gonl": 7702,
      "▁135": 7703,
      "▁zarar": 7704,
      "abilecek": 7705,
      "▁simdilik": 7706,
      "▁kapsamlı": 7707,
      "ara": 7708,
      "▁yahudi": 7709,
      "▁arkadasim": 7710,
      "▁guc": 7711,
      "▁avustral": 7712,
      "ulan": 7713,
      "▁s&": 7714,
      "▁anlayıs": 7715,
      "'le": 7716,
      "▁telas": 7717,
      "▁bay": 7718,
      "▁gercekles": 7719,
      "▁emniyet": 7720,
      "▁dogrusu": 7721,
      "▁ozgu": 7722,
      "▁esim": 7723,
      "ime": 7724,
      "▁83": 7725,
      "▁sab": 7726,
      "▁ı": 7727,
      "▁(": 7728,
      "▁hisselerin": 7729,
      "ledik": 7730,
      "▁belg": 7731,
      "▁cıp": 7732,
      "lor": 7733,
      "▁serg": 7734,
      "▁la": 7735,
      "▁louis'e": 7736,
      "▁memnunuz": 7737,
      "erve": 7738,
      "▁edeb": 7739,
      "▁ilgilendi": 7740,
      "▁pol": 7741,
      "▁ingilizce": 7742,
      "zira": 7743,
      "▁5-1": 7744,
      ".12": 7745,
      "▁kirli": 7746,
      "aklı": 7747,
      "▁yıldır": 7748,
      "▁kalır": 7749,
      "izi": 7750,
      "▁yet": 7751,
      "▁an": 7752,
      "▁yi": 7753,
      "▁sent": 7754,
      "▁tesek": 7755,
      "▁gorusuldu": 7756,
      "iyer": 7757,
      "▁karak": 7758,
      "▁1981": 7759,
      "ben": 7760,
      "lanmıs": 7761,
      "▁orgut": 7762,
      "▁tıp": 7763,
      "aları": 7764,
      "▁mahkemesi": 7765,
      "▁yayın": 7766,
      "▁cab": 7767,
      "▁fran": 7768,
      "▁5000": 7769,
      "-": 7770,
      "uar": 7771,
      "▁sanki": 7772,
      "▁indian": 7773,
      "▁mahkum": 7774,
      "▁tesisti": 7775,
      "▁yuc": 7776,
      "▁vet": 7777,
      "▁hasar": 7778,
      "▁personellerinden": 7779,
      "▁teklif": 7780,
      "▁uslu": 7781,
      "▁ayarlan": 7782,
      "isli": 7783,
      "▁problem": 7784,
      "▁cıkıp": 7785,
      "▁mid": 7786,
      "▁cıtır": 7787,
      "▁hijyen": 7788,
      "land": 7789,
      "▁ongor": 7790,
      "laka": 7791,
      "▁ele": 7792,
      "▁kendimizi": 7793,
      "▁fikr": 7794,
      "▁basından": 7795,
      "57": 7796,
      "ram": 7797,
      "acaklar": 7798,
      "▁paylas": 7799,
      "▁yaptik": 7800,
      "▁terk": 7801,
      "▁bor": 7802,
      "eder": 7803,
      "▁dallas": 7804,
      "▁davran": 7805,
      "lal": 7806,
      "▁cıkmıstı": 7807,
      "▁uzerindeki": 7808,
      "elere": 7809,
      "aa": 7810,
      "esin": 7811,
      "lıgın": 7812,
      "▁cumartesi": 7813,
      "▁gumus": 7814,
      "▁birbiri": 7815,
      "77": 7816,
      "▁aralarında": 7817,
      "▁izm": 7818,
      "▁seyi": 7819,
      "▁rec": 7820,
      "miz": 7821,
      "lamaları": 7822,
      "madan": 7823,
      "amet": 7824,
      "▁kaybı": 7825,
      "imi": 7826,
      "▁gozu": 7827,
      "▁edilen": 7828,
      "▁diyorlar": 7829,
      "▁kendinden": 7830,
      "▁basta": 7831,
      "2": 7832,
      "▁parm": 7833,
      "medigi": 7834,
      "▁kamyon": 7835,
      "▁tablo": 7836,
      "▁ameliyat": 7837,
      "irler": 7838,
      "digine": 7839,
      "▁v": 7840,
      "▁istanbul'da": 7841,
      "▁calısmak": 7842,
      "▁yen'den": 7843,
      "▁sabah": 7844,
      "▁kaldim": 7845,
      "▁zamanlarda": 7846,
      "dum": 7847,
      "▁ilg": 7848,
      "▁dan": 7849,
      "ilerine": 7850,
      "▁sayf": 7851,
      "▁kendinizi": 7852,
      "▁odedigim": 7853,
      "▁duzelt": 7854,
      "▁profes": 7855,
      "▁dogru": 7856,
      "▁alamadik": 7857,
      "▁korfez": 7858,
      "▁8.3": 7859,
      "▁katil": 7860,
      "▁yil": 7861,
      "▁gayet": 7862,
      "7.2": 7863,
      "▁endisel": 7864,
      "▁anlamına": 7865,
      "lige": 7866,
      "▁savas": 7867,
      "▁tiyatro": 7868,
      "▁yolunu": 7869,
      "ekim": 7870,
      "▁kalit": 7871,
      "▁taleb": 7872,
      "▁cekmek": 7873,
      "▁erdog": 7874,
      "▁ili": 7875,
      "▁meyve": 7876,
      "▁turkiye'nin": 7877,
      "▁kaliforn": 7878,
      "sanız": 7879,
      "▁bilgisi": 7880,
      "90": 7881,
      "amaz": 7882,
      "▁onceden": 7883,
      "▁haric": 7884,
      "▁bulmadim": 7885,
      "▁kotu": 7886,
      "imser": 7887,
      "▁yar": 7888,
      "▁metal": 7889,
      "▁fik": 7890,
      "layıp": 7891,
      "▁kalkıslı": 7892,
      "esel": 7893,
      "▁kalıyor": 7894,
      "▁kost": 7895,
      "▁profesyon": 7896,
      "▁musa": 7897,
      "▁katı": 7898,
      "▁sigara": 7899,
      "▁itir": 7900,
      "k": 7901,
      "▁halihaz": 7902,
      "▁dir": 7903,
      "▁eris": 7904,
      "▁guleryuz": 7905,
      "▁simdi": 7906,
      "▁47": 7907,
      "▁bucuk": 7908,
      "▁sonuna": 7909,
      "▁ayı": 7910,
      "▁bilmiyorum": 7911,
      "▁108": 7912,
      "▁olamaz": 7913,
      "ılmaya": 7914,
      "▁kullanılıyor": 7915,
      "▁odun": 7916,
      "▁paket": 7917,
      "▁katıldı": 7918,
      "▁2000": 7919,
      "▁sovyetler": 7920,
      "▁olmaya": 7921,
      "▁giren": 7922,
      "▁bunu": 7923,
      "he": 7924,
      "▁york'tan": 7925,
      "ow": 7926,
      "16": 7927,
      "nan": 7928,
      "▁tutar": 7929,
      "amı": 7930,
      "▁ajans": 7931,
      ".75": 7932,
      "on'un": 7933,
      "▁miyim": 7934,
      "▁noktası": 7935,
      "5'te": 7936,
      "▁birin": 7937,
      "▁rehber": 7938,
      "▁1983": 7939,
      "▁'l": 7940,
      "▁lok": 7941,
      "▁konu": 7942,
      "▁muhtem": 7943,
      "▁ları": 7944,
      "0.8": 7945,
      "▁dedi": 7946,
      "dig": 7947,
      "lulugu": 7948,
      "▁harcam": 7949,
      "▁yoktu": 7950,
      "ahtar": 7951,
      "▁yapması": 7952,
      "leket": 7953,
      "▁istanbul'a": 7954,
      "elik": 7955,
      "▁toront": 7956,
      "▁yonetic": 7957,
      "te": 7958,
      "erler": 7959,
      "▁milwaukee'ye": 7960,
      "▁sikin": 7961,
      "▁mukemmel": 7962,
      "▁tım": 7963,
      "kah": 7964,
      "▁etmiyor": 7965,
      "▁iyil": 7966,
      "▁orani": 7967,
      "▁arabayı": 7968,
      "▁rob": 7969,
      "vi": 7970,
      "▁bireysel": 7971,
      "▁aldılar": 7972,
      "▁gezin": 7973,
      "▁ya": 7974,
      "▁gerektir": 7975,
      "▁bebek": 7976,
      "▁ces": 7977,
      "▁kurul": 7978,
      "▁yuzunde": 7979,
      "ik": 7980,
      "▁lan": 7981,
      "▁ulke": 7982,
      "iya": 7983,
      "▁madde": 7984,
      "▁street": 7985,
      "▁hanimla": 7986,
      "▁konus": 7987,
      "▁cur": 7988,
      "▁ufak": 7989,
      "es": 7990,
      "▁calis": 7991,
      "taj": 7992,
      "▁dusunc": 7993,
      "▁kalmadik": 7994,
      "▁varıyor": 7995,
      "▁birinden": 7996,
      "▁\"": 7997,
      "▁ker": 7998,
      "line": 7999,
      "egim": 8000,
      "▁aj": 8001,
      "▁bil": 8002,
      "▁alternatif": 8003,
      "▁seb": 8004,
      "esinde": 8005,
      "ova": 8006,
      "adir": 8007,
      "▁nesi": 8008,
      "▁kıbrıs": 8009,
      "vik": 8010,
      "▁sur": 8011,
      "▁giyin": 8012,
      "▁istifa": 8013,
      "▁amerik": 8014,
      "lastır": 8015,
      "▁alakali": 8016,
      "▁gelecekteki": 8017,
      "▁sanız": 8018,
      "▁mez": 8019,
      "bu": 8020,
      "antaj": 8021,
      "▁mumkun": 8022,
      "▁kurb": 8023,
      "alarından": 8024,
      "▁mıy": 8025,
      "▁%80": 8026,
      "▁kisinin": 8027,
      "kei": 8028,
      "anlı": 8029,
      "▁71": 8030,
      "▁129": 8031,
      "imize": 8032,
      "▁aile": 8033,
      "▁elbette": 8034,
      "erk": 8035,
      "▁oden": 8036,
      "▁senetlerinin": 8037,
      "▁bilir": 8038,
      "▁karsıya": 8039,
      "▁51": 8040,
      "oth": 8041,
      "ta": 8042,
      "▁birtak": 8043,
      "▁lezzeti": 8044,
      "▁orlando'dan": 8045,
      "▁heyec": 8046,
      "udum": 8047,
      "▁etmis": 8048,
      "▁bell": 8049,
      "▁evvel": 8050,
      "▁cekti": 8051,
      "▁gulus": 8052,
      "▁neden": 8053,
      "▁kac": 8054,
      "▁huk": 8055,
      "▁rop": 8056,
      "▁hatır": 8057,
      "utur": 8058,
      "▁arkasından": 8059,
      "▁kalitesinden": 8060,
      "eli": 8061,
      "▁bize": 8062,
      "▁havuzu": 8063,
      "▁pas": 8064,
      "▁otel": 8065,
      "ang": 8066,
      "▁gund": 8067,
      "irim": 8068,
      "▁havaalanından": 8069,
      "▁temizlen": 8070,
      "▁dah": 8071,
      "▁1.5": 8072,
      "▁ah": 8073,
      "▁sahipti": 8074,
      "▁birine": 8075,
      "verdi": 8076,
      "▁tedbir": 8077,
      "ecektir": 8078,
      "▁alamadim": 8079,
      "▁frank": 8080,
      "ts": 8081,
      "▁cennet": 8082,
      "▁gore": 8083,
      "▁bagıs": 8084,
      "▁havayol": 8085,
      "▁reddetti": 8086,
      "▁okum": 8087,
      "▁ide": 8088,
      "usun": 8089,
      "tıs": 8090,
      "ok": 8091,
      "▁saati": 8092,
      "▁yuvar": 8093,
      "▁bizim": 8094,
      "▁ca": 8095,
      "▁program": 8096,
      "▁nih": 8097,
      "▁kek": 8098,
      "▁bazı": 8099,
      "ılıp": 8100,
      "▁burokr": 8101,
      "▁samp": 8102,
      "amda": 8103,
      "▁gidiyoruz": 8104,
      "▁fık": 8105,
      "▁the": 8106,
      "▁onu": 8107,
      "▁yapıs": 8108,
      "dam": 8109,
      "▁ayse": 8110,
      "▁buyuy": 8111,
      "▁bulmus": 8112,
      "▁basladı": 8113,
      "▁cır": 8114,
      "▁kime": 8115,
      "▁james": 8116,
      "▁ediyor": 8117,
      "▁eglenc": 8118,
      "enk": 8119,
      "▁fıs": 8120,
      "▁sonucları": 8121,
      "of": 8122,
      "▁itiraz": 8123,
      "▁isin": 8124,
      "elerinde": 8125,
      "innati": 8126,
      "▁prot": 8127,
      "▁hizmete": 8128,
      "▁ay": 8129,
      "▁30": 8130,
      "ilerinin": 8131,
      "acagını": 8132,
      "▁ithal": 8133,
      "▁konusmalar": 8134,
      "▁mutfak": 8135,
      "▁duz": 8136,
      "lerle": 8137,
      "!": 8138,
      "▁acakt": 8139,
      "lari": 8140,
      "▁.8": 8141,
      "▁gel": 8142,
      "▁cıplak": 8143,
      "leyen": 8144,
      "▁hali": 8145,
      "▁op": 8146,
      "▁yazık": 8147,
      "▁airlin": 8148,
      "▁ederiz": 8149,
      "az": 8150,
      "▁hata": 8151,
      "▁8.4": 8152,
      "▁lezzetli": 8153,
      "▁yuv": 8154,
      "▁hukumet": 8155,
      "▁sozleri": 8156,
      "▁adamın": 8157,
      "▁hazırlan": 8158,
      "▁olmasi": 8159,
      "nik": 8160,
      "▁le": 8161,
      "▁olmayacak": 8162,
      "▁araya": 8163,
      "but": 8164,
      "▁sigar": 8165,
      "▁birlesik": 8166,
      "rol": 8167,
      "▁milyar": 8168,
      "▁baslan": 8169,
      "▁gerekc": 8170,
      "▁seviy": 8171,
      "▁buyudu": 8172,
      "▁olacaktır": 8173,
      "▁bunlardan": 8174,
      "▁kayn": 8175,
      "▁onda": 8176,
      "▁tahvil": 8177,
      "▁kalkıs": 8178,
      "▁evren": 8179,
      "▁omur": 8180,
      "▁kesint": 8181,
      "emb": 8182,
      "amıyorum": 8183,
      "▁eyalet": 8184,
      "▁gordu": 8185,
      "▁herhalde": 8186,
      "▁1.6": 8187,
      "▁4.9": 8188,
      "mayın": 8189,
      "sur": 8190,
      "▁oburu": 8191
    },
    "merges": [
      [
        "lan",
        "ır"
      ],
      [
        "tık",
        "tan"
      ],
      [
        "▁ger",
        "iye"
      ],
      [
        "▁kı",
        "br"
      ],
      [
        "m",
        "ayan"
      ],
      [
        "▁yeter",
        "liydi"
      ],
      [
        "c",
        "al"
      ],
      [
        "▁m",
        "ec"
      ],
      [
        "▁ay",
        "ar"
      ],
      [
        "ac",
        "h"
      ],
      [
        "▁l",
        "o"
      ],
      [
        "▁bil",
        "in"
      ],
      [
        "▁b",
        "ıcak"
      ],
      [
        "ımız",
        "da"
      ],
      [
        "▁taraf",
        "tan"
      ],
      [
        "▁s",
        "ep"
      ],
      [
        "▁k",
        "el"
      ],
      [
        "alar",
        "dan"
      ],
      [
        "▁mez",
        "ar"
      ],
      [
        "▁cor",
        "ap"
      ],
      [
        "l",
        "uydu"
      ],
      [
        "ing",
        "ton"
      ],
      [
        "▁bir",
        "ini"
      ],
      [
        "r",
        "ah"
      ],
      [
        "▁bil",
        "en"
      ],
      [
        "▁it",
        "tif"
      ],
      [
        "▁kullan",
        "ım"
      ],
      [
        "▁ol",
        "us"
      ],
      [
        "lı",
        "k"
      ],
      [
        "▁gon",
        "l"
      ],
      [
        "▁an",
        "lay"
      ],
      [
        "lam",
        "ıs"
      ],
      [
        "▁boyle",
        "ce"
      ],
      [
        "▁dolar",
        "dan"
      ],
      [
        "▁nuf",
        "us"
      ],
      [
        "▁pos",
        "ta"
      ],
      [
        "▁0",
        "5."
      ],
      [
        "▁or",
        "ta"
      ],
      [
        "▁cor",
        "p"
      ],
      [
        "▁mu",
        "h"
      ],
      [
        "k",
        "ah"
      ],
      [
        "▁aras",
        "tır"
      ],
      [
        "▁kil",
        "it"
      ],
      [
        "▁sur",
        "edir"
      ],
      [
        "▁%3.4",
        "3"
      ],
      [
        "am",
        "es"
      ],
      [
        "▁olm",
        "as"
      ],
      [
        "▁al",
        "dim"
      ],
      [
        "▁n",
        "uf"
      ],
      [
        "▁ilgin",
        "c"
      ],
      [
        "▁amerik",
        "an"
      ],
      [
        "▁cı",
        "yak"
      ],
      [
        "▁ol",
        "an"
      ],
      [
        "▁finans",
        "man"
      ],
      [
        "▁b",
        "ucuk"
      ],
      [
        "▁olm",
        "adı"
      ],
      [
        "▁f",
        "i"
      ],
      [
        "o",
        "s"
      ],
      [
        "▁bug",
        "day"
      ],
      [
        "s",
        "em"
      ],
      [
        "▁ener",
        "j"
      ],
      [
        "d",
        "as"
      ],
      [
        "▁gel",
        "sin"
      ],
      [
        "▁fr",
        "ansız"
      ],
      [
        "▁yan",
        "ında"
      ],
      [
        "▁s",
        "ic"
      ],
      [
        "▁il",
        "isk"
      ],
      [
        "▁d",
        "ah"
      ],
      [
        "le",
        "dim"
      ],
      [
        "mam",
        "ıs"
      ],
      [
        "▁bah",
        "ce"
      ],
      [
        "▁gun",
        "ler"
      ],
      [
        "▁cincinnati",
        "'ye"
      ],
      [
        "▁olagan",
        "ustu"
      ],
      [
        "▁c",
        "r"
      ],
      [
        "▁1.",
        "25"
      ],
      [
        "d",
        "ir"
      ],
      [
        "▁ciz",
        "g"
      ],
      [
        "▁boz",
        "uk"
      ],
      [
        "▁kar",
        "g"
      ],
      [
        "adı",
        "lar"
      ],
      [
        "▁b",
        "ası"
      ],
      [
        "▁muh",
        "ar"
      ],
      [
        "▁gec",
        "ti"
      ],
      [
        "▁emek",
        "lilik"
      ],
      [
        "▁siyas",
        "i"
      ],
      [
        "▁kılı",
        "c"
      ],
      [
        "ist",
        "in"
      ],
      [
        "m",
        "e"
      ],
      [
        "▁k",
        "ır"
      ],
      [
        "▁hakk",
        "ında"
      ],
      [
        "▁bek",
        "len"
      ],
      [
        "▁tan",
        "esi"
      ],
      [
        "▁t",
        "oz"
      ],
      [
        "▁soy",
        "len"
      ],
      [
        "ist",
        "en"
      ],
      [
        "▁gi",
        "d"
      ],
      [
        "l",
        "o"
      ],
      [
        "an",
        "k"
      ],
      [
        "▁dov",
        "iz"
      ],
      [
        "ok",
        "s"
      ],
      [
        "▁dusuk",
        "tu"
      ],
      [
        "▁olm",
        "asına"
      ],
      [
        "▁duzen",
        "li"
      ],
      [
        "▁sor",
        "gul"
      ],
      [
        "▁olma",
        "dıgını"
      ],
      [
        "▁d",
        "uv"
      ],
      [
        "▁c",
        "le"
      ],
      [
        "duk",
        "ları"
      ],
      [
        "7",
        "5"
      ],
      [
        "▁kor",
        "k"
      ],
      [
        "▁top",
        "r"
      ],
      [
        "▁m",
        "ed"
      ],
      [
        "tık",
        "ca"
      ],
      [
        "l",
        "il"
      ],
      [
        "▁kar",
        "ar"
      ],
      [
        "lerin",
        "deki"
      ],
      [
        "▁top",
        "arlan"
      ],
      [
        "▁miami",
        "'den"
      ],
      [
        "eceg",
        "ini"
      ],
      [
        "▁ail",
        "enin"
      ],
      [
        "▁tav",
        "siye"
      ],
      [
        "▁sav",
        "as"
      ],
      [
        "ası",
        "yla"
      ],
      [
        "▁say",
        "gı"
      ],
      [
        "'",
        "le"
      ],
      [
        "▁bul",
        "un"
      ],
      [
        "m",
        "al"
      ],
      [
        "▁ad",
        "ama"
      ],
      [
        "z",
        "e"
      ],
      [
        "▁cab",
        "a"
      ],
      [
        "▁o",
        "larak"
      ],
      [
        "▁korum",
        "ak"
      ],
      [
        "il",
        "a"
      ],
      [
        "▁kullan",
        "ıyor"
      ],
      [
        "▁6",
        "5"
      ],
      [
        "▁bost",
        "on"
      ],
      [
        "▁sahib",
        "i"
      ],
      [
        "2",
        "'den"
      ],
      [
        "leb",
        "ilir"
      ],
      [
        "'",
        "ta"
      ],
      [
        "et",
        "i"
      ],
      [
        "▁v",
        "az"
      ],
      [
        "▁ister",
        "im"
      ],
      [
        "▁4",
        ".9"
      ],
      [
        "k",
        "ti"
      ],
      [
        "▁derec",
        "ede"
      ],
      [
        "▁ann",
        "esinin"
      ],
      [
        "en",
        "z"
      ],
      [
        "▁",
        "ısıl"
      ],
      [
        "al",
        "d"
      ],
      [
        "▁'",
        "nin"
      ],
      [
        "▁kend",
        "ine"
      ],
      [
        "at",
        "lar"
      ],
      [
        "▁ayr",
        "ılan"
      ],
      [
        "▁k",
        "os"
      ],
      [
        "l",
        "ık"
      ],
      [
        "▁is",
        "le"
      ],
      [
        "▁di",
        "ler"
      ],
      [
        "▁par",
        "lam"
      ],
      [
        "▁k",
        "af"
      ],
      [
        "▁etk",
        "ilen"
      ],
      [
        "1",
        "-19"
      ],
      [
        "lam",
        "ak"
      ],
      [
        "▁g",
        "ev"
      ],
      [
        "▁ail",
        "eye"
      ],
      [
        "▁8",
        "0"
      ],
      [
        "▁200",
        "8"
      ],
      [
        "ı",
        "k"
      ],
      [
        "▁kıyas",
        "lan"
      ],
      [
        "▁vaz",
        "gec"
      ],
      [
        "▁k",
        "ul"
      ],
      [
        "▁sen",
        "ato"
      ],
      [
        "▁...",
        "\""
      ],
      [
        "eg",
        "inden"
      ],
      [
        "▁eg",
        "em"
      ],
      [
        "▁199",
        "5"
      ],
      [
        "▁var",
        "ıyor"
      ],
      [
        "▁sul",
        "eyman"
      ],
      [
        "▁yur",
        "um"
      ],
      [
        "▁gel",
        "dim"
      ],
      [
        "▁avustral",
        "ya"
      ],
      [
        "▁dog",
        "an"
      ],
      [
        "▁t",
        "ef"
      ],
      [
        "▁soh",
        "ret"
      ],
      [
        "d",
        "y"
      ],
      [
        "▁..",
        "."
      ],
      [
        "▁s",
        "m"
      ],
      [
        "▁ger",
        "ek"
      ],
      [
        "▁ol",
        "duk"
      ],
      [
        "ti",
        "a"
      ],
      [
        "▁yetersiz",
        "di"
      ],
      [
        "▁c",
        "if"
      ],
      [
        "is",
        "ini"
      ],
      [
        "ciler",
        "in"
      ],
      [
        "▁vur",
        "gul"
      ],
      [
        "▁t",
        "ak"
      ],
      [
        "▁uc",
        "us"
      ],
      [
        "▁tir",
        "il"
      ],
      [
        "▁dok",
        "un"
      ],
      [
        "▁l",
        "azım"
      ],
      [
        "l",
        "as"
      ],
      [
        "▁cev",
        "irdi"
      ],
      [
        "▁siz",
        "in"
      ],
      [
        "ug",
        "h"
      ],
      [
        "▁oy",
        "sa"
      ],
      [
        "▁dus",
        "en"
      ],
      [
        "▁aksam",
        "ları"
      ],
      [
        "▁ayr",
        "ı"
      ],
      [
        "▁gun",
        "es"
      ],
      [
        "▁agz",
        "ına"
      ],
      [
        "i",
        "z"
      ],
      [
        "▁lı",
        "k"
      ],
      [
        "▁cincinnati",
        "'den"
      ],
      [
        "ur",
        "lu"
      ],
      [
        "▁uc",
        "an"
      ],
      [
        "▁fiyat",
        "a"
      ],
      [
        "▁fiyat",
        "ı"
      ],
      [
        "▁bal",
        "ayi"
      ],
      [
        "▁d",
        "am"
      ],
      [
        "▁2",
        "0."
      ],
      [
        "▁dav",
        "et"
      ],
      [
        "▁yuk",
        "arı"
      ],
      [
        "▁y",
        "ırt"
      ],
      [
        "▁insan",
        "ın"
      ],
      [
        "medi",
        "k"
      ],
      [
        "mis",
        "ler"
      ],
      [
        "▁m",
        "ev"
      ],
      [
        "▁ogren",
        "ci"
      ],
      [
        "▁on",
        "ce"
      ],
      [
        "▁sor",
        "unun"
      ],
      [
        "▁2",
        ".3"
      ],
      [
        "▁siz",
        "leri"
      ],
      [
        "▁fab",
        "rika"
      ],
      [
        "▁sist",
        "em"
      ],
      [
        "▁muhtem",
        "el"
      ],
      [
        "▁kav",
        "ram"
      ],
      [
        "▁5",
        "\\/8"
      ],
      [
        "▁ede",
        "b"
      ],
      [
        "▁dem",
        "okr"
      ],
      [
        "▁tak",
        "dirde"
      ],
      [
        "an",
        "lar"
      ],
      [
        "▁dom",
        "ates"
      ],
      [
        "▁c",
        "on"
      ],
      [
        "▁erken",
        "den"
      ],
      [
        "▁sa",
        "m"
      ],
      [
        "s",
        "ız"
      ],
      [
        "▁gor",
        "muyor"
      ],
      [
        "▁on",
        "un"
      ],
      [
        "▁c",
        "uk"
      ],
      [
        "▁cor",
        "ba"
      ],
      [
        "▁huc",
        "r"
      ],
      [
        "▁tut",
        "tur"
      ],
      [
        "▁hareket",
        "e"
      ],
      [
        "m",
        "eli"
      ],
      [
        "▁univers",
        "it"
      ],
      [
        "▁chicag",
        "o"
      ],
      [
        "▁son",
        "bahar"
      ],
      [
        "▁bas",
        "layan"
      ],
      [
        "▁gol",
        "ge"
      ],
      [
        "▁il",
        "er"
      ],
      [
        "▁m",
        "eden"
      ],
      [
        "ur",
        "t"
      ],
      [
        "▁d",
        "est"
      ],
      [
        "▁sub",
        "at"
      ],
      [
        "al",
        "an"
      ],
      [
        "▁yanl",
        "ıs"
      ],
      [
        "▁bir",
        "imi"
      ],
      [
        "▁son",
        "unda"
      ],
      [
        "▁m",
        "is"
      ],
      [
        "▁list",
        "el"
      ],
      [
        "▁ne",
        "f"
      ],
      [
        "▁h",
        "el"
      ],
      [
        "y",
        "dı"
      ],
      [
        "▁tah",
        "mini"
      ],
      [
        "o",
        "od"
      ],
      [
        "▁t",
        "om"
      ],
      [
        "▁minneapolis",
        "'ten"
      ],
      [
        "as",
        "tır"
      ],
      [
        "it",
        "a"
      ],
      [
        "▁fiyat",
        "landır"
      ],
      [
        "el",
        "iydi"
      ],
      [
        "len",
        "en"
      ],
      [
        "ye",
        "tmis"
      ],
      [
        "▁yur",
        "ut"
      ],
      [
        "ladı",
        "m"
      ],
      [
        "os",
        "t"
      ],
      [
        "▁de",
        "sik"
      ],
      [
        "▁",
        "et"
      ],
      [
        "▁komisyon",
        "lar"
      ],
      [
        "▁%2",
        ".7"
      ],
      [
        "▁i",
        "ti"
      ],
      [
        "▁sas",
        "kın"
      ],
      [
        ".5",
        "5"
      ],
      [
        "▁yuk",
        "s"
      ],
      [
        "▁hen",
        "uz"
      ],
      [
        "p",
        "or"
      ],
      [
        "▁s",
        "ur"
      ],
      [
        "len",
        "iyor"
      ],
      [
        "▁olm",
        "ayı"
      ],
      [
        "r",
        "et"
      ],
      [
        "▁ceyrek",
        "te"
      ],
      [
        "s",
        "an"
      ],
      [
        "ir",
        "di"
      ],
      [
        "am",
        "da"
      ],
      [
        "▁e",
        "den"
      ],
      [
        "▁k",
        "ar"
      ],
      [
        "▁kur",
        "du"
      ],
      [
        "▁et",
        "m"
      ],
      [
        "mıs",
        "tır"
      ],
      [
        "▁",
        "im"
      ],
      [
        "▁v",
        "apur"
      ],
      [
        "in",
        "n"
      ],
      [
        "▁ekip",
        "man"
      ],
      [
        "▁kal",
        "ab"
      ],
      [
        "▁istem",
        "iyorum"
      ],
      [
        "ımız",
        "ın"
      ],
      [
        "k",
        "et"
      ],
      [
        "▁sig",
        "ort"
      ],
      [
        "▁par",
        "ayı"
      ],
      [
        "▁duy",
        "gu"
      ],
      [
        "▁n",
        "ational"
      ],
      [
        "r",
        "im"
      ],
      [
        "▁du",
        "m"
      ],
      [
        "▁hiss",
        "e"
      ],
      [
        "▁acık",
        "ladı"
      ],
      [
        "▁edil",
        "iyor"
      ],
      [
        "ar",
        "lan"
      ],
      [
        "▁or",
        "aya"
      ],
      [
        "▁yap",
        "ıl"
      ],
      [
        "▁h",
        "ır"
      ],
      [
        "▁dis",
        "ip"
      ],
      [
        "▁merdi",
        "ven"
      ],
      [
        "▁bas",
        "ta"
      ],
      [
        "'",
        "u"
      ],
      [
        "▁gok",
        "yuz"
      ],
      [
        "▁ingil",
        "iz"
      ],
      [
        "▁yetkil",
        "iler"
      ],
      [
        "▁",
        "'"
      ],
      [
        "m",
        "er"
      ],
      [
        "▁basar",
        "ılı"
      ],
      [
        "am",
        "am"
      ],
      [
        "og",
        "lu"
      ],
      [
        "ler",
        "iyle"
      ],
      [
        "▁ust",
        "len"
      ],
      [
        "▁7",
        ".1"
      ],
      [
        "▁profesyon",
        "el"
      ],
      [
        "▁d",
        "et"
      ],
      [
        "▁an",
        "lıyor"
      ],
      [
        "▁yetkil",
        "ileri"
      ],
      [
        "▁sev",
        "er"
      ],
      [
        "unu",
        "p"
      ],
      [
        "▁yak",
        "ında"
      ],
      [
        "▁bil",
        "miyor"
      ],
      [
        "▁senet",
        "leri"
      ],
      [
        "▁art",
        "arak"
      ],
      [
        "▁gun",
        "ah"
      ],
      [
        "▁tel",
        "ef"
      ],
      [
        "▁sov",
        "yet"
      ],
      [
        "▁diger",
        "leri"
      ],
      [
        "▁top",
        "u"
      ],
      [
        "▁soru",
        "lar"
      ],
      [
        "▁ot",
        "uz"
      ],
      [
        "▁j",
        "os"
      ],
      [
        "▁1.",
        "9"
      ],
      [
        "▁4",
        "00"
      ],
      [
        "▁lo",
        "u"
      ],
      [
        "▁du",
        "dak"
      ],
      [
        "em",
        "s"
      ],
      [
        "▁at",
        "tıgı"
      ],
      [
        "▁sek",
        "ret"
      ],
      [
        "▁kos",
        "ul"
      ],
      [
        "▁dunya",
        "da"
      ],
      [
        "▁is",
        "let"
      ],
      [
        "orm",
        "al"
      ],
      [
        "▁gun",
        "lerde"
      ],
      [
        "y",
        "la"
      ],
      [
        "▁hal",
        "de"
      ],
      [
        "▁emek",
        "li"
      ],
      [
        "▁agustos",
        "'ta"
      ],
      [
        "▁cık",
        "an"
      ],
      [
        "▁teh",
        "di"
      ],
      [
        "5",
        "000"
      ],
      [
        "▁y",
        "ay"
      ],
      [
        "oh",
        "n"
      ],
      [
        "iy",
        "et"
      ],
      [
        "▁0.",
        "7"
      ],
      [
        "▁goz",
        "ler"
      ],
      [
        "emedi",
        "k"
      ],
      [
        "▁yukselt",
        "ti"
      ],
      [
        "▁ydi",
        "m"
      ],
      [
        "▁w",
        "ar"
      ],
      [
        "▁bul",
        "dum"
      ],
      [
        "8",
        "2"
      ],
      [
        "▁sonr",
        "ası"
      ],
      [
        "▁s",
        "alı"
      ],
      [
        "▁en",
        "gin"
      ],
      [
        "▁10",
        "1"
      ],
      [
        "az",
        "ım"
      ],
      [
        "▁d",
        "ib"
      ],
      [
        "▁yap",
        "maya"
      ],
      [
        "▁t",
        "ık"
      ],
      [
        "▁cık",
        "tım"
      ],
      [
        "▁h",
        "os"
      ],
      [
        "▁%3",
        "0"
      ],
      [
        "▁nas",
        "da"
      ],
      [
        "▁p",
        "ah"
      ],
      [
        "▁yal",
        "nız"
      ],
      [
        "▁h",
        "af"
      ],
      [
        "▁yay",
        "ın"
      ],
      [
        "▁mir",
        "as"
      ],
      [
        "▁bek",
        "ler"
      ],
      [
        "▁mey",
        "ve"
      ],
      [
        "▁p",
        "itt"
      ],
      [
        "▁r",
        "enk"
      ],
      [
        "▁an",
        "dır"
      ],
      [
        "▁8",
        "9"
      ],
      [
        "▁bun",
        "a"
      ],
      [
        "▁s",
        "am"
      ],
      [
        "▁f",
        "it"
      ],
      [
        "▁agac",
        "ın"
      ],
      [
        "▁alıs",
        "ver"
      ],
      [
        "lar",
        "dı"
      ],
      [
        "el",
        "i"
      ],
      [
        "▁",
        "ları"
      ],
      [
        "ler",
        "in"
      ],
      [
        "▁devr",
        "im"
      ],
      [
        "▁cin",
        "ayet"
      ],
      [
        "ır",
        "k"
      ],
      [
        "▁13",
        "."
      ],
      [
        "▁g",
        "iydi"
      ],
      [
        "▁eglen",
        "c"
      ],
      [
        "▁city",
        "'den"
      ],
      [
        "▁bas",
        "it"
      ],
      [
        "▁m",
        "obil"
      ],
      [
        "▁otel",
        "di"
      ],
      [
        "▁pac",
        "ific"
      ],
      [
        "▁angeles",
        "'ten"
      ],
      [
        "▁zaman",
        "dan"
      ],
      [
        "▁yap",
        "ı"
      ],
      [
        "▁on",
        "u"
      ],
      [
        "▁as",
        "il"
      ],
[...]
