{
  "version": "1.0",
  "truncation": null,
  "padding": null,
  "added_tokens": [
    {
      "id": 756,
      "content": "[SEP]",
      "single_word": false,
      "lstrip": false,
      "rstrip": false,
      "normalized": false,
      "special": true
    },
    {
      "id": 3103,
      "content": "[CLS]",
      "single_word": false,
      "lstrip": false,
      "rstrip": false,
      "normalized": false,
      "special": true
    },
    {
      "id": 12256,
      "content": "[UNK]",
      "single_word": false,
      "lstrip": false,
      "rstrip": false,
      "normalized": false,
      "special": true
    },
    {
      "id": 13495,
      "content": "[MASK]",
      "single_word": false,
      "lstrip": false,
      "rstrip": false,
      "normalized": false,
      "special": true
    },
    {
      "id": 14247,
      "content": "[PAD]",
      "single_word": false,
      "lstrip": false,
      "rstrip": false,
      "normalized": false,
      "special": true
    }
  ],
  "normalizer": {
    "type": "Sequence",
    "normalizers": [
      {
        "type": "NFD"
      },
      {
        "type": "Lowercase"
      },
      {
        "type": "StripAccents"
      }
    ]
  },
  "pre_tokenizer": {
    "type": "Sequence",
    "pretokenizers": [
      {
        "type": "Metaspace",
        "replacement": "▁",
        "prepend_scheme": "always",
        "split": true
      }
    ]
  },
  "post_processor": {
    "type": "TemplateProcessing",
    "single": [
      {
        "SpecialToken": {
          "id": "[CLS]",
          "type_id": 0
        }
      },
      {
        "Sequence": {
          "id": "A",
          "type_id": 0
        }
      },
      {
        "SpecialToken": {
          "id": "[SEP]",
          "type_id": 0
        }
      }
    ],
    "pair": [
      {
        "SpecialToken": {
          "id": "[CLS]",
          "type_id": 0
        }
      },
      {
        "Sequence": {
          "id": "A",
          "type_id": 0
        }
      },
      {
        "SpecialToken": {
          "id": "[SEP]",
          "type_id": 0
        }
      },
      {
        "Sequence": {
          "id": "B",
          "type_id": 1
        }
      },
      {
        "SpecialToken": {
          "id": "[SEP]",
          "type_id": 1
        }
      }
    ],
    "special_tokens": {
      "[CLS]": {
        "id": "[CLS]",
        "ids": [
          3103
        ],
        "tokens": [
          "[CLS]"
        ]
      },
      "[SEP]": {
        "id": "[SEP]",
        "ids": [
          756
        ],
        "tokens": [
          "[SEP]"
        ]
      }
    }
  },
  "decoder": {
    "type": "Metaspace",
    "replacement": "▁",
    "prepend_scheme": "always",
    "split": true
  },
  "model": {
    "type": "WordPiece",
    "unk_token": "[UNK]",
    "continuing_subword_prefix": "##",
    "max_input_chars_per_word": 100,
    "vocab": {
      "▁sikin": 0,
      "▁uzaklastır": 1,
      "##ıyorlar": 2,
      "▁muthis": 3,
      "##ase": 4,
      "▁qintex": 5,
      "▁ucretle": 6,
      "▁206": 7,
      "▁araba": 8,
      "▁ekledi": 9,
      "▁giderek": 10,
      "▁kıyaslanır": 11,
      "##io": 12,
      "▁297": 13,
      "▁nın": 14,
      "▁yil": 15,
      "▁yaptıgını": 16,
      "▁yasası": 17,
      "▁vakıf": 18,
      "▁donemin": 19,
      "##essus": 20,
      "##digimiz": 21,
      "▁degillerdi": 22,
      "▁tahsil": 23,
      "▁universitesi": 24,
      "##naz": 25,
      "▁bıcak": 26,
      "▁mevsim": 27,
      "▁kurs": 28,
      "▁brad": 29,
      "▁olas": 30,
      "▁al": 31,
      "▁birimidir": 32,
      "▁dev": 33,
      "▁halkı": 34,
      "▁oldugumuz": 35,
      "▁kongre": 36,
      "##ligin": 37,
      "▁kıraat": 38,
      "▁1942": 39,
      "▁tasıt": 40,
      "▁6.000": 41,
      "▁&": 42,
      "▁sih": 43,
      "▁seher": 44,
      "▁parkı": 45,
      "▁sundugu": 46,
      "##ustum": 47,
      "▁emre": 48,
      "▁yalnızlık": 49,
      "##can": 50,
      "▁mi": 51,
      "▁ramazan": 52,
      "##yim": 53,
      "▁munaseb": 54,
      "▁mutlaka": 55,
      "▁dini": 56,
      "##ip": 57,
      "##ort": 58,
      "▁tol": 59,
      "▁kimsen": 60,
      "▁istem": 61,
      "▁iyice": 62,
      "##'lık": 63,
      "##tep": 64,
      "▁tahminleri": 65,
      "▁karanlıkta": 66,
      "##er": 67,
      "▁ulkenin": 68,
      "▁arayıp": 69,
      "▁tul": 70,
      "▁endiselen": 71,
      "##asmıs": 72,
      "##otik": 73,
      "▁tek": 74,
      "##lulu": 75,
      "▁samp": 76,
      "▁subat": 77,
      "▁dilber": 78,
      "▁kazan": 79,
      "##malık": 80,
      "▁salınc": 81,
      "▁koken": 82,
      "▁hukum": 83,
      "▁10000": 84,
      "##d.": 85,
      "▁arama": 86,
      "▁rezalet": 87,
      "▁ucretini": 88,
      "##dıran": 89,
      "▁duzgun": 90,
      "▁dolusu": 91,
      "▁karsısındaki": 92,
      "▁yaralan": 93,
      "▁basınc": 94,
      "▁erkegi": 95,
      "▁uzuntu": 96,
      "##abiliyor": 97,
      "##erv": 98,
      "▁gelisme": 99,
      "▁%0": 100,
      "▁feda": 101,
      "##ras": 102,
      "##yayı": 103,
      "▁golgesi": 104,
      "▁sikinti": 105,
      "▁koyden": 106,
      "▁gerekli": 107,
      "▁gelirlerinin": 108,
      "▁dogrul": 109,
      "▁pazar": 110,
      "▁tutacak": 111,
      "▁sordular": 112,
      "▁tik": 113,
      "▁23": 114,
      "d": 115,
      "▁ortadan": 116,
      "##0.3": 117,
      "##ers": 118,
      "▁obu": 119,
      "##gımız": 120,
      "▁aranmak": 121,
      "▁atesi": 122,
      "##end": 123,
      "▁kacar": 124,
      "▁amel": 125,
      "▁cak": 126,
      "▁meydana": 127,
      "▁fark": 128,
      "##iligin": 129,
      "▁per": 130,
      "##ebilirim": 131,
      "##all": 132,
      "▁ayni": 133,
      "▁ismini": 134,
      "▁anadolu'nun": 135,
      "▁kart": 136,
      "##dunuz": 137,
      "##imde": 138,
      "▁surum": 139,
      "▁basarısız": 140,
      "##lebi": 141,
      "##gate": 142,
      "▁sırı": 143,
      "▁fiyatlı": 144,
      "▁yasından": 145,
      "▁cesi": 146,
      "##eyn": 147,
      "▁kolaylıkla": 148,
      "▁redingot": 149,
      "##ap": 150,
      "##'unu": 151,
      "▁gormedigini": 152,
      "▁dagdan": 153,
      "▁tesisi": 154,
      "▁oldugundan": 155,
      "▁%1": 156,
      "▁nedeniyle": 157,
      "▁gozlerle": 158,
      "▁gorusu": 159,
      "▁lig": 160,
      "##lu": 161,
      "▁ilgilenmediler": 162,
      "▁altından": 163,
      "##66": 164,
      "▁genisti": 165,
      "▁kuvvetli": 166,
      "▁oyunları": 167,
      "##mar": 168,
      "▁otekini": 169,
      "▁odullendir": 170,
      "##esem": 171,
      "▁izni": 172,
      "##lanta": 173,
      "▁donemi": 174,
      "##'uncu": 175,
      "##tanın": 176,
      "▁duymus": 177,
      "▁endustrisinin": 178,
      "▁arasına": 179,
      "▁ayak": 180,
      "▁klasik": 181,
      "##verdi": 182,
      "▁oglunun": 183,
      "▁yunak": 184,
      "▁etkisi": 185,
      "▁unvan": 186,
      "##are": 187,
      "▁birinde": 188,
      "##elig": 189,
      "##enkul": 190,
      "▁cozum": 191,
      "▁dunyası": 192,
      "▁icti": 193,
      "▁bankacılar": 194,
      "##imize": 195,
      "▁beye": 196,
      "▁fazlaydi": 197,
      "▁garanti": 198,
      "▁hit": 199,
      "##ogramı": 200,
      "▁yonetimin": 201,
      "▁malik": 202,
      "▁acıklanmadı": 203,
      "▁tut": 204,
      "▁manasız": 205,
      "▁kasa": 206,
      "▁bakıyor": 207,
      "▁ez": 208,
      "▁birbirimiz": 209,
      "▁kacırdı": 210,
      "##acılıgı": 211,
      "##0.60": 212,
      "##.11": 213,
      "##lerine": 214,
      "▁yerel": 215,
      "▁gro": 216,
      "▁188": 217,
      "▁asagida": 218,
      "▁der": 219,
      "##siyonu": 220,
      "▁saldır": 221,
      "▁acik": 222,
      "▁yaslan": 223,
      "▁sanıyor": 224,
      "▁elbis": 225,
      "▁yazık": 226,
      "##hard": 227,
      "##elemek": 228,
      "6": 229,
      "▁avans": 230,
      "##detti": 231,
      "##80": 232,
      "▁karsısına": 233,
      "##unuz": 234,
      "##elerine": 235,
      "▁nah": 236,
      "##9'a": 237,
      "▁verdikleri": 238,
      "▁mort": 239,
      "▁degiller": 240,
      "##sever": 241,
      "▁mubar": 242,
      "▁sirketten": 243,
      "▁kestir": 244,
      "##'yle": 245,
      "▁meksika": 246,
      "##lendir": 247,
      "▁aynı": 248,
      "##ilerini": 249,
      "▁meselesi": 250,
      "▁eylul'de": 251,
      "▁ilahi": 252,
      "▁alaycı": 253,
      "▁onune": 254,
      "▁must": 255,
      "##isiyle": 256,
      "▁bircok": 257,
      "▁hassas": 258,
      "▁sevimli": 259,
      "▁getirilerinin": 260,
      "▁birileri": 261,
      "▁aydır": 262,
      "▁sayan": 263,
      "▁uydur": 264,
      "▁acıyordu": 265,
      "▁price": 266,
      "▁dısisleri": 267,
      "▁ov": 268,
      "▁gozume": 269,
      "▁neg": 270,
      "▁meydan": 271,
      "▁cocukluk": 272,
      "▁guver": 273,
      "##mediler": 274,
      "##’": 275,
      "▁kis": 276,
      "▁9'dan": 277,
      "▁caz": 278,
      "▁kapsamında": 279,
      "##muyor": 280,
      "▁gidilebilecek": 281,
      "▁davranislari": 282,
      "▁94": 283,
      "##ise": 284,
      "##aman": 285,
      "▁gozet": 286,
      "▁lokasyonu": 287,
      "▁dırlar": 288,
      "▁belg": 289,
      "▁birilerinin": 290,
      "▁his": 291,
      "▁surdugu": 292,
      "##imiz": 293,
      "▁kupon": 294,
      "▁03:": 295,
      "▁dusunerek": 296,
      "▁bagım": 297,
      "▁osmanlı": 298,
      "▁sarılı": 299,
      "▁haketmiyor": 300,
      "▁kac": 301,
      "▁191": 302,
      "##arya": 303,
      "##otu": 304,
      "##ex": 305,
      "▁oteller": 306,
      "▁miydim": 307,
      "##leb": 308,
      "▁kadar": 309,
      "▁dı": 310,
      "▁aksine": 311,
      "▁dip": 312,
      "▁dustuk": 313,
      "▁odu": 314,
      "▁bıyıkları": 315,
      "##art": 316,
      "▁hotel": 317,
      "##ali": 318,
      "##abody": 319,
      "▁yapıldı": 320,
      "##ce": 321,
      "▁test": 322,
      "##igim": 323,
      "##isine": 324,
      "▁yalı": 325,
      "▁merve": 326,
      "▁yit": 327,
      "▁lab": 328,
      "▁gotur": 329,
      "▁yatmıs": 330,
      "▁pilotlar": 331,
      "▁katib": 332,
      "##anci": 333,
      "▁lub": 334,
      "▁wall": 335,
      "##ith": 336,
      "▁hareketli": 337,
      "##gs": 338,
      "##lestirdi": 339,
      "##ısa": 340,
      "▁rok": 341,
      "▁cekir": 342,
      "▁uctu": 343,
      "▁yonlendirdi": 344,
      "▁santa": 345,
      "▁konsol": 346,
      "▁bahcı": 347,
      "▁yasak": 348,
      "##imser": 349,
      "▁yiyecekler": 350,
      "▁itiraf": 351,
      "▁serkan": 352,
      "▁ozgu": 353,
      "##lige": 354,
      "▁cekic": 355,
      "▁acılması": 356,
      "▁ugrayan": 357,
      "##0'e": 358,
      "▁insan": 359,
      "▁yarısı": 360,
      "▁senden": 361,
      "##alog": 362,
      "##anda": 363,
      "▁yolculuk": 364,
      "##hin": 365,
      "▁kalitesizdi": 366,
      "▁memlekette": 367,
      "▁rot": 368,
      "▁cesaretini": 369,
      "##amıza": 370,
      "▁ya": 371,
      "▁konustular": 372,
      "▁haber": 373,
      "▁barut": 374,
      "▁danısmanlık": 375,
      "▁almasını": 376,
      "##uzel": 377,
      "▁konuya": 378,
      "▁sehrinde": 379,
      "▁cıkıs": 380,
      "▁temmuz'da": 381,
      "▁kod": 382,
      "▁genelkurmay": 383,
      "▁40.4": 384,
      "##oloj": 385,
      "▁imz": 386,
      "▁birbirler": 387,
      "▁sayısını": 388,
      "▁217": 389,
      "##irmis": 390,
      "▁gecirecek": 391,
      "▁devi": 392,
      "▁ulastı": 393,
      "▁hafta": 394,
      "▁fut": 395,
      "##ular": 396,
      ">": 397,
      "▁yaptıgı": 398,
      "▁kapsam": 399,
      "▁takın": 400,
      "##emeyen": 401,
      "▁zev": 402,
      "▁bash": 403,
      "▁gecirdigi": 404,
      "▁motors": 405,
      "▁kalitesiz": 406,
      "r": 407,
      "▁yuzon": 408,
      "▁kuzey": 409,
      "▁heyecanla": 410,
      "▁gun": 411,
      "▁louis'e": 412,
      "▁onunla": 413,
      "▁kıymetleri": 414,
      "▁194": 415,
      "▁genc": 416,
      "▁evr": 417,
      "▁guneydogu": 418,
      "▁cekti": 419,
      "▁ediyorlar": 420,
      "▁pec": 421,
      "▁oranı": 422,
      "▁goremedim": 423,
      "▁toz": 424,
      "▁olanlar": 425,
      "▁yoldan": 426,
      "▁oksur": 427,
      "▁yapabil": 428,
      "▁konusur": 429,
      "▁bizler": 430,
      "▁aylık": 431,
      "▁yapı": 432,
      "▁gorgu": 433,
      "▁19.7": 434,
      "▁yakal": 435,
      "##ales": 436,
      "▁oder": 437,
      "▁birin": 438,
      "▁kayıtsız": 439,
      "▁tazmin": 440,
      "▁8.32": 441,
      "##.0": 442,
      "##ediye": 443,
      "▁nobet": 444,
      "##esini": 445,
      "▁muhakkak": 446,
      "▁oncelikle": 447,
      "##ts": 448,
      "▁okuyan": 449,
      "▁251": 450,
      "▁kalın": 451,
      "##ırak": 452,
      "##ech": 453,
      "##memistir": 454,
      "##iye": 455,
      "▁manzar": 456,
      "##ardı": 457,
      "##agoz": 458,
      "▁adında": 459,
      "▁100000": 460,
      "▁michig": 461,
      "▁hatırlattı": 462,
      "▁cıkmaya": 463,
      "▁parlamento": 464,
      "▁kullanıldı": 465,
      "##isi": 466,
      "▁st": 467,
      "▁ucrete": 468,
      "▁4145": 469,
      "##lamanın": 470,
      "▁turkiye": 471,
      "▁trelleborg": 472,
      "▁gorusleri": 473,
      "▁baskı": 474,
      "##duktan": 475,
      "▁5.9": 476,
      "##ması": 477,
      "▁komplek": 478,
      "▁genclerin": 479,
      "▁kayıplar": 480,
      "▁gereksiz": 481,
      "▁cisim": 482,
      "▁onbes": 483,
      "▁umum": 484,
      "##ke": 485,
      "##61": 486,
      "▁yurum": 487,
      "▁iskonto": 488,
      "▁londra": 489,
      "▁girisimi": 490,
      "##ug": 491,
      "▁sunları": 492,
      "##iss": 493,
      "▁ibm": 494,
      "##dıgın": 495,
      "▁katına": 496,
      "▁yaparım": 497,
      "▁itti": 498,
      "▁ogrencilerin": 499,
      "▁yapmam": 500,
      "▁hacmi": 501,
      "▁rotar": 502,
      "▁yıp": 503,
      "▁mahkum": 504,
      "▁calıstır": 505,
      "▁terbiy": 506,
      "▁1960'": 507,
      "▁askerlik": 508,
      "▁fast": 509,
      "▁uyelik": 510,
      "▁cıktıktan": 511,
      "▁cıkmıstı": 512,
      "▁kl": 513,
      "▁gal": 514,
      "##layalım": 515,
      "▁yetkil": 516,
      "▁p&g": 517,
      "▁tarla": 518,
      "▁fik": 519,
      "▁almamıs": 520,
      "▁kosede": 521,
      "▁karı": 522,
      "▁beb": 523,
      "▁yatır": 524,
      "##rir": 525,
      "▁lirayı": 526,
      "▁denecek": 527,
      "▁savasta": 528,
      "▁risk": 529,
      "▁tembel": 530,
      "▁dunyayı": 531,
      "##-200": 532,
      "▁gunese": 533,
      "▁odedi": 534,
      "▁getiri": 535,
      "▁krize": 536,
      "▁katır": 537,
      "▁ihtiyar": 538,
      "▁yukseliyor": 539,
      "▁ureticileri": 540,
      ";": 541,
      "▁akıllı": 542,
      "▁arb": 543,
      "▁sı": 544,
      "##.75": 545,
      "##cılar": 546,
      "▁iyisi": 547,
      "##lasır": 548,
      "▁dedim": 549,
      "▁evrenin": 550,
      "▁telas": 551,
      "▁cozul": 552,
      "▁kin": 553,
      "▁dostu": 554,
      "▁hediye": 555,
      "▁kullanan": 556,
      "▁yumuk": 557,
      "▁toplantıs": 558,
      "▁kend": 559,
      "▁sl": 560,
      "▁kam": 561,
      "▁muhtac": 562,
      "▁montreal'a": 563,
      "▁parc": 564,
      "##off": 565,
      "▁elmas": 566,
      "▁1\\/2": 567,
      "▁calın": 568,
      "▁burhan": 569,
      "▁yapıstır": 570,
      "▁gormek": 571,
      "##med": 572,
      "▁kıskan": 573,
      "▁siy": 574,
      "##85": 575,
      "▁yardımcısıydı": 576,
      "▁yardimci": 577,
      "▁dirsek": 578,
      "##'ne": 579,
      "▁kendilerinden": 580,
      "▁belirtmis": 581,
      "▁firması": 582,
      "▁%30": 583,
      "▁nashville'ye": 584,
      "▁a.b.": 585,
      "##ligine": 586,
      "▁ihr": 587,
      "▁odenek": 588,
      "▁ekim": 589,
      "##5'ten": 590,
      "▁bayiler": 591,
      "▁kıymet": 592,
      "▁bilen": 593,
      "▁ofisi": 594,
      "▁430": 595,
      "▁!": 596,
      "▁konusmaya": 597,
      "▁merak": 598,
      "##lastır": 599,
      "##and": 600,
      "▁paranın": 601,
      "▁musluman": 602,
      "▁gormezden": 603,
      "▁adı": 604,
      "▁defter": 605,
      "▁personellerinden": 606,
      "▁tarih": 607,
      "▁the": 608,
      "▁kadınla": 609,
      "▁parcasını": 610,
      "##meli": 611,
      "▁enflasyonun": 612,
      "▁adamının": 613,
      "##lanmaya": 614,
      "##al'ın": 615,
      "##imet": 616,
      "▁sırtını": 617,
      "##kar": 618,
      "##sat": 619,
      "##masından": 620,
      "▁isciler": 621,
      "##lemis": 622,
      "▁cekip": 623,
      "▁kanun": 624,
      "##lanması": 625,
      "▁tahminlerinin": 626,
      "▁anlasılıyor": 627,
      "▁benimle": 628,
      "##dut": 629,
      "▁soyle": 630,
      "▁sızdır": 631,
      "▁ramp": 632,
      "$": 633,
      "▁sır": 634,
      "▁rahatti": 635,
      "▁brez": 636,
      "▁ert": 637,
      "▁eglendir": 638,
      "▁enstit": 639,
      "▁goturduler": 640,
      "▁mich": 641,
      "▁tavsiy": 642,
      "▁malzemesi": 643,
      "##lerini": 644,
      "##liginde": 645,
      "##abi": 646,
      "▁gomlek": 647,
      "▁istegi": 648,
      "▁kızart": 649,
      "▁tasarım": 650,
      "▁suik": 651,
      "▁sinizdir": 652,
      "▁kabugu": 653,
      "▁kurtardı": 654,
      "##emez": 655,
      "▁ugur": 656,
      "##ucusu": 657,
      "##tt": 658,
      "▁azıcık": 659,
      "▁mısıl": 660,
      "▁standar": 661,
      "##sı": 662,
      "▁ep": 663,
      "▁zeytiny": 664,
      "▁yarattı": 665,
      "▁atila": 666,
      "▁345": 667,
      "▁halihazırda": 668,
      "▁arastir": 669,
      "##iliyor": 670,
      "▁abdul": 671,
      "▁milli": 672,
      "▁yazdı": 673,
      "##este": 674,
      "▁uluslararası": 675,
      "▁kampanyalar": 676,
      "▁sımsıkı": 677,
      "▁yılları": 678,
      "##ayık": 679,
      "▁rutin": 680,
      "▁karsısında": 681,
      "▁golgesinde": 682,
      "##irler": 683,
      "##asız": 684,
      "▁etmediler": 685,
      "##mamıstır": 686,
      "▁titriyordu": 687,
      "▁reddetti": 688,
      "▁persembe": 689,
      "▁ailesini": 690,
      "▁yurdum": 691,
      "▁gag": 692,
      "▁ucuz": 693,
      "▁odemek": 694,
      "▁yaklasıyor": 695,
      "▁emanet": 696,
      "▁urkek": 697,
      "##arson": 698,
      "▁kolayca": 699,
      "##ahan": 700,
      "▁abd'de": 701,
      "##eyi": 702,
      "▁yaptirmadim": 703,
      "##ilmesini": 704,
      "##amıslar": 705,
      "▁ice": 706,
      "▁kullanılıyor": 707,
      "▁baslık": 708,
      "▁goruyoruz": 709,
      "##od": 710,
      "▁dusunmuyor": 711,
      "▁orgut": 712,
      "▁yakında": 713,
      "▁vietnam": 714,
      "▁etkileri": 715,
      "##lay": 716,
      "▁geldiginde": 717,
      "▁gecerli": 718,
      "▁sozune": 719,
      "##bih": 720,
      "##sir": 721,
      "▁kap": 722,
      "▁tatmin": 723,
      "##asıyor": 724,
      "▁yabanci": 725,
      "▁subay": 726,
      "▁sist": 727,
      "▁bosal": 728,
      "▁20.": 729,
      "##835": 730,
      "▁yuruyen": 731,
      "▁yanıp": 732,
      "▁bilgiye": 733,
      "##des": 734,
      "▁muslum": 735,
      "▁cen": 736,
      "▁verilecek": 737,
      "##ems": 738,
      "▁oturuyor": 739,
      "▁deger": 740,
      "##web": 741,
      "▁bolgede": 742,
      "▁edilmedi": 743,
      "##8.4": 744,
      "▁loc": 745,
      "▁dogum": 746,
      "▁traj": 747,
      "##ılmayan": 748,
      "##uston": 749,
      "##emiyorum": 750,
      "▁duyuyorum": 751,
      "▁memnunuz": 752,
      "▁mallar": 753,
      "▁yaptirdi": 754,
      "▁kitabın": 755,
      "[SEP]": 756,
      "▁1997": 757,
      "##mafih": 758,
      "##et": 759,
      "##ang": 760,
      "▁zamanlar": 761,
      "##gunuz": 762,
      "▁ok": 763,
      "▁gelmisti": 764,
      "##trol": 765,
      "▁lez": 766,
      "##liydi": 767,
      "▁kamar": 768,
      "▁ydik": 769,
      "▁icer": 770,
      "▁sınıfı": 771,
      "##etli": 772,
      "▁isgucu": 773,
      "▁plana": 774,
      "▁doları'na": 775,
      "▁zel": 776,
      "▁inandır": 777,
      "▁kırık": 778,
      "▁teseb": 779,
      "▁havalandır": 780,
      "▁kuvvet": 781,
      "▁yaptıg": 782,
      "##eyim": 783,
      "▁bayramı": 784,
      "▁erdog": 785,
      "▁tok": 786,
      "▁gucuyle": 787,
      "▁olabilecegi": 788,
      "▁sıf": 789,
      "▁2.77": 790,
      "▁alır": 791,
      "▁adamı": 792,
      "##ıng": 793,
      "##gelelim": 794,
      "▁isa": 795,
      "▁olumu": 796,
      "▁bakanlıgı'nın": 797,
      "##ecegim": 798,
      "▁otesi": 799,
      "▁hay": 800,
      "▁olu": 801,
      "▁palt": 802,
      "##emesi": 803,
      "▁yurttas": 804,
      "▁ailece": 805,
      "##ada": 806,
      "##ansiyon": 807,
      "▁2005'e": 808,
      "▁5.5": 809,
      "##ısıydı": 810,
      "##cet": 811,
      "▁tabiat": 812,
      "▁belirttigim": 813,
      "▁texas": 814,
      "▁read": 815,
      "▁davul": 816,
      "▁hicbirini": 817,
      "##gıc": 818,
      "▁parıl": 819,
      "##hanede": 820,
      "▁kavur": 821,
      "▁44877": 822,
      "##el": 823,
      "▁sutu": 824,
      "▁fiyatlara": 825,
      "▁ri": 826,
      "▁ilgilendiler": 827,
      "▁borek": 828,
      "##ılmasını": 829,
      "▁seyin": 830,
      "▁girip": 831,
      "▁koymus": 832,
      "##ough": 833,
      "▁dusus": 834,
      "##tre": 835,
      "▁kısır": 836,
      "▁hac": 837,
      "▁sivil": 838,
      "##eyin": 839,
      "▁koymak": 840,
      "▁du": 841,
      "▁dusurdu": 842,
      "▁ayarlan": 843,
      "▁biri": 844,
      "▁seviyorum": 845,
      "▁siparisini": 846,
      "▁tutustur": 847,
      "▁uygulan": 848,
      "▁ogrendim": 849,
      "▁30000": 850,
      "▁kisinin": 851,
      "##ozof": 852,
      "▁pop": 853,
      "▁gerceklesti": 854,
      "▁ons": 855,
      "▁etmeye": 856,
      "##7.8": 857,
      "▁hedef": 858,
      "##ilm": 859,
      "▁ideal": 860,
      "3": 861,
      "▁idar": 862,
      "▁mıydı": 863,
      "▁calis": 864,
      "▁540": 865,
      "##ont": 866,
      "##uga": 867,
      "##7.2": 868,
      "▁merrill": 869,
      "▁ekonomisi": 870,
      "▁karsıma": 871,
      "▁ım": 872,
      "▁lev": 873,
      "▁rak": 874,
      "▁secildi": 875,
      "▁phoeni": 876,
      "##.48": 877,
      "▁islet": 878,
      "▁0.88": 879,
      "##isler": 880,
      "▁yapmadim": 881,
      "▁cekmeye": 882,
      "▁alkolsuz": 883,
      "▁studyo": 884,
      "▁degirmen": 885,
      "▁kisisel": 886,
      "▁balıkcı": 887,
      "▁deve": 888,
      "▁verdim": 889,
      "▁je": 890,
      "##leer": 891,
      "▁newark": 892,
      "▁cag": 893,
      "▁yatıyor": 894,
      "▁yargıc": 895,
      "▁edildigi": 896,
      "▁sevinc": 897,
      "▁yataklar": 898,
      "▁gununden": 899,
      "▁istikrar": 900,
      "▁cıkarken": 901,
      "▁merkur": 902,
      "▁digerleri": 903,
      "▁cekis": 904,
      "▁dogruldu": 905,
      "▁havuzu": 906,
      "##inson": 907,
      "▁sokuldu": 908,
      "▁franklin": 909,
      "##apur": 910,
      "▁muraca": 911,
      "##cılara": 912,
      "▁vucu": 913,
      "##aye": 914,
      "▁ifad": 915,
      "▁istedi": 916,
      "▁cekmek": 917,
      "▁dustum": 918,
      "##sum": 919,
      "▁universitede": 920,
      "▁sic": 921,
      "▁basından": 922,
      "▁cazib": 923,
      "▁doneminde": 924,
      "▁olgun": 925,
      "▁islemler": 926,
      "▁onceden": 927,
      "▁unu": 928,
      "▁cektigi": 929,
      "▁tamamıyla": 930,
      "##ebiliriz": 931,
      "##lesinde": 932,
      "##yn": 933,
      "▁bemb": 934,
      "##ayıf": 935,
      "▁se": 936,
      "▁ucretlerini": 937,
      "▁havuzlari": 938,
      "##igin": 939,
      "▁yanisira": 940,
      "##og": 941,
      "▁peki": 942,
      "▁deri": 943,
      "▁dagı": 944,
      "▁1.625": 945,
      "##kiz": 946,
      "##gul": 947,
      "▁durumunda": 948,
      "▁ekstra": 949,
      "▁lik": 950,
      "▁kapılar": 951,
      "▁adama": 952,
      "▁akla": 953,
      "##tı": 954,
      "▁iciyor": 955,
      "▁kimin": 956,
      "##larca": 957,
      "▁sabaha": 958,
      "▁sorunları": 959,
      "▁ictik": 960,
      "##amda": 961,
      "▁ihtiy": 962,
      "▁tedavulde": 963,
      "▁alabilir": 964,
      "##tis": 965,
      "##ftadır": 966,
      "▁bir": 967,
      "▁nitelendir": 968,
      "▁17": 969,
      "▁borcunu": 970,
      "##el'in": 971,
      "##ler": 972,
      "▁zer": 973,
      "▁soz": 974,
      "##eliydi": 975,
      "##yedi": 976,
      "▁odanın": 977,
      "##es'in": 978,
      "▁krist": 979,
      "▁finc": 980,
      "▁los": 981,
      "▁tel": 982,
      "##on'un": 983,
      "▁taahh": 984,
      "▁ucusun": 985,
      "▁jose'den": 986,
      "▁derl": 987,
      "▁pas": 988,
      "▁yakıt": 989,
      "##ach": 990,
      "▁odanin": 991,
      "▁verg": 992,
      "##gım": 993,
      "▁yal": 994,
      "##.5": 995,
      "##acagına": 996,
      "##\\/8'e": 997,
      "##emb": 998,
      "▁bu": 999,
      "▁gozunu": 1000,
      "▁onunu": 1001,
      "▁kostur": 1002,
      "▁service": 1003,
      "▁yonunde": 1004,
      "▁dusunup": 1005,
      "▁konak": 1006,
      "▁yuksel": 1007,
      "▁gelis": 1008,
      "##ene": 1009,
      "▁umutsuz": 1010,
      "▁restoran": 1011,
      "▁mul": 1012,
      "▁marks": 1013,
      "▁buyukluk": 1014,
      "▁gazel": 1015,
      "▁minneapolis": 1016,
      "▁arkadan": 1017,
      "▁belgeler": 1018,
      "▁katil": 1019,
      "▁rekabet": 1020,
      "▁duz": 1021,
      "▁dediko": 1022,
      "▁eristi": 1023,
      "▁arabaya": 1024,
      "▁tahvil": 1025,
      "▁gevset": 1026,
      "▁dursun": 1027,
      "▁zehir": 1028,
      "▁golg": 1029,
      "▁kalite": 1030,
      "▁guv": 1031,
      "▁zann": 1032,
      "▁nadiren": 1033,
      "▁1.42": 1034,
      "▁menkul": 1035,
      "##layı": 1036,
      "▁dekorasyon": 1037,
      "▁piy": 1038,
      "▁simsek": 1039,
      "▁tahminler": 1040,
      "▁kapasit": 1041,
      "▁abd'deki": 1042,
      "▁bolgenin": 1043,
      "▁ikibindort": 1044,
      "▁yaslar": 1045,
      "▁alıcılar": 1046,
      "▁olum": 1047,
      "▁dısı": 1048,
      "▁sandıgı": 1049,
      "▁havayı": 1050,
      "▁tutarlı": 1051,
      "▁seref": 1052,
      "##ım": 1053,
      "▁doları'ndan": 1054,
      "▁sf": 1055,
      "▁yapmak": 1056,
      "▁tur": 1057,
      "▁set": 1058,
      "▁soth": 1059,
      "##tadır": 1060,
      "##azz": 1061,
      "▁denir": 1062,
      "▁beline": 1063,
      "▁tepki": 1064,
      "▁bolumunu": 1065,
      "▁mac": 1066,
      "▁kısı": 1067,
      "▁soylediler": 1068,
      "▁hatun": 1069,
      "▁puan": 1070,
      "▁izin": 1071,
      "▁algıl": 1072,
      "##aladım": 1073,
      "##taydı": 1074,
      "▁maksimum": 1075,
      "▁noktaya": 1076,
      "##set": 1077,
      "▁kırp": 1078,
      "▁89.6": 1079,
      "▁girebilir": 1080,
      "▁fingir": 1081,
      "##egin": 1082,
      "▁sizde": 1083,
      "##yol": 1084,
      "▁rej": 1085,
      "▁getiren": 1086,
      "▁urkut": 1087,
      "▁kayı": 1088,
      "▁kosk": 1089,
      "▁hatırlat": 1090,
      "##menler": 1091,
      "▁arab": 1092,
      "▁artık": 1093,
      "▁kullanılan": 1094,
      "▁gayet": 1095,
      "##ılıyordu": 1096,
      "▁ettin": 1097,
      "##ro": 1098,
      "##du": 1099,
      "▁elden": 1100,
      "▁verdigimiz": 1101,
      "▁bonosu": 1102,
      "▁anap": 1103,
      "▁asans": 1104,
      "▁health": 1105,
      "▁yakısık": 1106,
      "▁piyasalarda": 1107,
      "▁zamankinden": 1108,
      "▁yagı": 1109,
      "▁anıms": 1110,
      "##lısı": 1111,
      "▁atlanta'dan": 1112,
      "▁fıs": 1113,
      "##tlar": 1114,
      "▁bucuk": 1115,
      "▁kat": 1116,
      "▁toplayan": 1117,
      "##8.6": 1118,
      "▁isleme": 1119,
      "▁141": 1120,
      "▁firma": 1121,
      "▁agız": 1122,
      "▁gorup": 1123,
      "##a'ya": 1124,
      "▁mass": 1125,
      "▁siniz": 1126,
      "▁yalın": 1127,
      "▁kullanarak": 1128,
      "▁diego": 1129,
      "▁ayse": 1130,
      "▁milyonluk": 1131,
      "▁silahlı": 1132,
      "▁hazır": 1133,
      "▁acıkladı": 1134,
      "▁mahall": 1135,
      "▁divan": 1136,
      "▁fransa": 1137,
      "p": 1138,
      "▁yerlestir": 1139,
      "▁assets": 1140,
      "▁duzenlenen": 1141,
      "##bs": 1142,
      "▁05.": 1143,
      "▁dogmus": 1144,
      "##‘": 1145,
      "▁candan": 1146,
      "▁bık": 1147,
      "▁sudan": 1148,
      "▁405": 1149,
      "▁york'taki": 1150,
      "▁australia": 1151,
      "▁girer": 1152,
      "##5'": 1153,
      "##mur": 1154,
      "▁vermem": 1155,
      "##tern": 1156,
      "▁vermeyi": 1157,
      "▁seviyesine": 1158,
      "##edinin": 1159,
      "▁kapıya": 1160,
      "▁luft": 1161,
      "▁macın": 1162,
      "▁kufur": 1163,
      "▁ortusu": 1164,
      "▁soy": 1165,
      "▁hol": 1166,
      "▁azdı": 1167,
      "▁arayan": 1168,
      "▁ileride": 1169,
      "▁muda": 1170,
      "▁sınıfın": 1171,
      "▁tın": 1172,
      "▁kurus": 1173,
      "▁kadir": 1174,
      "▁nerden": 1175,
      "▁port": 1176,
      "##emm": 1177,
      "▁protokol": 1178,
      "▁yankılan": 1179,
      "##mistir": 1180,
      "▁garip": 1181,
      "▁mermer": 1182,
      "▁elektrikli": 1183,
      "▁yazıyı": 1184,
      "##'an": 1185,
      "▁yuks": 1186,
      "▁kimyasal": 1187,
      "▁ink": 1188,
      "▁konfor": 1189,
      "▁kalitesini": 1190,
      "▁kavanoz": 1191,
      "##ekte": 1192,
      "▁usta": 1193,
      "##iv": 1194,
      "▁huner": 1195,
      "##nol": 1196,
      "▁komunist": 1197,
      "▁2017": 1198,
      "▁feodal": 1199,
      "▁normaldi": 1200,
      "##uck": 1201,
      "▁politikası": 1202,
      "▁kusku": 1203,
      "▁secimi": 1204,
      "##res": 1205,
      "▁sesleri": 1206,
      "▁feder": 1207,
      "▁tep": 1208,
      "▁rahmet": 1209,
      "▁hucum": 1210,
      "##ur": 1211,
      "▁istihbar": 1212,
      "▁fabrikası": 1213,
      "▁tarafında": 1214,
      "▁cav": 1215,
      "▁alamadik": 1216,
      "##6.1": 1217,
      "▁kalıyordu": 1218,
      "▁aile": 1219,
      "▁'ydi": 1220,
      "▁yukseltti": 1221,
      "▁mahal": 1222,
      "▁yaz": 1223,
      "▁hazırlanısı": 1224,
      "##isidir": 1225,
      "##beri": 1226,
      "▁memur": 1227,
      "▁piyasanın": 1228,
      "▁pilotların": 1229,
      "▁yse": 1230,
      "▁isveren": 1231,
      "▁edince": 1232,
      "▁tereddut": 1233,
      "▁analizciler": 1234,
      "▁milwaukee'den": 1235,
      "▁yapay": 1236,
      "##eye": 1237,
      "##antaj": 1238,
      "▁parcaları": 1239,
      "▁parki": 1240,
      "▁1761": 1241,
      "▁137.2": 1242,
      "▁hasret": 1243,
      "▁ulkemizde": 1244,
      "▁columbus'a": 1245,
      "##bank": 1246,
      "▁lincoln": 1247,
      "▁fiyatı": 1248,
      "▁kaybetti": 1249,
      "▁turkler": 1250,
      "▁zalim": 1251,
      "▁sezlong": 1252,
      "▁99.14": 1253,
      "##taki": 1254,
      "##lıkları": 1255,
      "##olik": 1256,
      "##90": 1257,
      "▁yatan": 1258,
      "▁davayı": 1259,
      "▁tanıt": 1260,
      "##ladı": 1261,
      "##ılır": 1262,
      "▁asagı": 1263,
      "▁yaklasimi": 1264,
      "##bay": 1265,
      "▁doksan": 1266,
      "▁sin": 1267,
      "▁hissedar": 1268,
      "▁yedir": 1269,
      "▁andıran": 1270,
      "▁borcun": 1271,
      "▁beyzbol": 1272,
      "▁alısık": 1273,
      "▁aslında": 1274,
      "▁pis": 1275,
      "▁ihtiyatlı": 1276,
      "▁kuresel": 1277,
      "▁korkusu": 1278,
      "▁bedeli": 1279,
      "▁soguk": 1280,
      "▁olgu": 1281,
      "##ancı": 1282,
      "##ente": 1283,
      "▁yurek": 1284,
      "▁img": 1285,
      "▁farkına": 1286,
      "▁izmir": 1287,
      "▁istasyon": 1288,
      "▁vucuda": 1289,
      "##amadım": 1290,
      "▁kalabalık": 1291,
      "▁165": 1292,
      "▁oteli": 1293,
      "▁planlıyor": 1294,
      "▁eldiven": 1295,
      "##oy": 1296,
      "##115": 1297,
      "▁grub": 1298,
      "“": 1299,
      "▁1.000": 1300,
      "▁cant": 1301,
      "▁hayli": 1302,
      "▁nasihat": 1303,
      "▁cıkarmadan": 1304,
      "▁chemical": 1305,
      "##afir": 1306,
      "▁endustri": 1307,
      "▁ilgisizlerdi": 1308,
      "▁cesaret": 1309,
      "▁gerektigine": 1310,
      "##...": 1311,
      "▁ziyade": 1312,
      "▁ufacık": 1313,
      "▁amerika'nın": 1314,
      "▁gozalt": 1315,
      "▁kilo": 1316,
      "▁cıktıgı": 1317,
      "▁cocugunu": 1318,
      "##ors": 1319,
      "##eket": 1320,
      "▁zeh": 1321,
      "▁sade": 1322,
      "##av": 1323,
      "▁teknik": 1324,
      "▁yelken": 1325,
      "▁ucuza": 1326,
      "▁kib": 1327,
      "▁toplantı": 1328,
      "▁uzan": 1329,
      "▁havalimanı'nda": 1330,
      "▁suru": 1331,
      "▁business": 1332,
      "▁tibet": 1333,
      "▁sonundan": 1334,
      "▁altmıs": 1335,
      "▁ucusunu": 1336,
      "▁memleketin": 1337,
      "▁burcu": 1338,
      "▁ikibinuc'te": 1339,
      "▁valley": 1340,
      "▁vazgecti": 1341,
      "▁dilen": 1342,
      "▁halefi": 1343,
      "▁maymun": 1344,
      "▁kurtulus": 1345,
      "▁ihtiyat": 1346,
      "▁izledi": 1347,
      "▁118": 1348,
      "##ıp": 1349,
      "##uya": 1350,
      "▁sabun": 1351,
      "##aat": 1352,
      "▁%13": 1353,
      "##imat": 1354,
      "▁david": 1355,
      "▁yapıt": 1356,
      "##ned": 1357,
      "▁beklem": 1358,
      "▁gelerek": 1359,
      "▁tersine": 1360,
      "##lamalı": 1361,
      "##s'in": 1362,
      "##acaktır": 1363,
      "▁havası": 1364,
      "▁herhangi": 1365,
      "▁falan": 1366,
      "▁hesap": 1367,
      "##ıcılık": 1368,
      "▁gecip": 1369,
      "##5$": 1370,
      "##ebon": 1371,
      "▁filan": 1372,
      "##ustu": 1373,
      "​": 1374,
      "▁talebin": 1375,
      "##inghouse": 1376,
      "##oglan": 1377,
      "▁senetleri": 1378,
      "▁a": 1379,
      "▁1991'de": 1380,
      "▁bey'in": 1381,
      "▁karmakar": 1382,
      "▁tepe": 1383,
      "▁atın": 1384,
      "▁soyleyen": 1385,
      "▁kitab": 1386,
      "▁oynay": 1387,
      "▁acılıyor": 1388,
      "▁vakit": 1389,
      "▁karn": 1390,
      "▁gececek": 1391,
      "##iyim": 1392,
      "▁organize": 1393,
      "▁verecegim": 1394,
      "▁sebeplerden": 1395,
      "▁mangal": 1396,
      "▁sipar": 1397,
      "▁kapıcı": 1398,
      "##iyoruz": 1399,
      "##izik": 1400,
      "▁sonucta": 1401,
      "##'unun": 1402,
      "▁hak": 1403,
      "▁hafifce": 1404,
      "▁yeni": 1405,
      "▁gostermis": 1406,
      "▁buf": 1407,
      "##ater": 1408,
      "▁animasyonlari": 1409,
      "▁gerdan": 1410,
      "▁istemis": 1411,
      "▁gorunen": 1412,
      "▁tim": 1413,
      "▁cıv": 1414,
      "▁kullanmadik": 1415,
      "▁acılmıs": 1416,
      "▁iciniz": 1417,
      "▁kazandır": 1418,
      "▁alınmıs": 1419,
      "▁arkamda": 1420,
      "##tırken": 1421,
      "##co": 1422,
      "▁onemli": 1423,
      "▁sessizce": 1424,
      "▁1500": 1425,
      "##cılık": 1426,
      "▁insal": 1427,
      "▁oyuna": 1428,
      "▁iyidir": 1429,
      "▁aff": 1430,
      "▁aramayin": 1431,
      "▁kume": 1432,
      "##adan": 1433,
      "▁tet": 1434,
      "▁olmuyor": 1435,
      "y": 1436,
      "▁olanaklari": 1437,
      "▁serg": 1438,
      "▁atılım": 1439,
      "▁buyum": 1440,
      "##uzları": 1441,
      "▁kıc": 1442,
      "▁mahrum": 1443,
      "▁surpriz": 1444,
      "##ildik": 1445,
      "▁4.2": 1446,
      "▁kazanclar": 1447,
      "▁baskanlıgı": 1448,
      "▁edebilir": 1449,
      "▁37": 1450,
      "##madıgı": 1451,
      "▁lerdir": 1452,
      "##ir'in": 1453,
      "##ys": 1454,
      "▁gorus": 1455,
      "▁yildiz": 1456,
      "▁tav": 1457,
      "##9.4": 1458,
      "##umuzun": 1459,
      "##elerin": 1460,
      "▁gelecekler": 1461,
      "▁sıkın": 1462,
      "##ogg": 1463,
      "▁birbirine": 1464,
      "▁ote": 1465,
      "▁zorun": 1466,
      "▁otlar": 1467,
      "▁sıcrama": 1468,
      "▁sk": 1469,
      "▁muj": 1470,
      "▁atese": 1471,
      "##sal": 1472,
      "▁yuzuk": 1473,
      "▁istinaden": 1474,
      "##ken": 1475,
      "▁1648": 1476,
      "▁telef": 1477,
      "▁sp": 1478,
      "▁dipl": 1479,
      "▁roman": 1480,
      "▁british": 1481,
      "▁gunlerin": 1482,
      "▁masaj": 1483,
      "▁buyumeye": 1484,
      "▁hazin": 1485,
      "▁cikista": 1486,
      "▁anlasılmaz": 1487,
      "▁fuk": 1488,
      "▁nisan": 1489,
      "##kam": 1490,
      "##ord": 1491,
      "▁bahtiy": 1492,
      "▁cevabı": 1493,
      "##'i": 1494,
      "##sadı": 1495,
      "▁zeyn": 1496,
      "▁sıyır": 1497,
      "##dah": 1498,
      "▁fonların": 1499,
      "▁alısveris": 1500,
      "▁1.25": 1501,
      "▁hon": 1502,
      "▁ilac": 1503,
      "▁y": 1504,
      "▁olmek": 1505,
      "▁ki": 1506,
      "▁alamadı": 1507,
      "▁canlı": 1508,
      "▁takımın": 1509,
      "▁goruntu": 1510,
      "▁donustu": 1511,
      "##izin": 1512,
      "▁burbank'tan": 1513,
      "▁sad": 1514,
      "▁teksas": 1515,
      "▁benzin": 1516,
      "▁imkanlari": 1517,
      "▁tutmaya": 1518,
      "▁miktarı": 1519,
      "▁gereken": 1520,
      "▁idaresi": 1521,
      "▁bazılarını": 1522,
      "▁sım": 1523,
      "##amıyordu": 1524,
      "▁dardi": 1525,
      "▁mekan": 1526,
      "▁insanlara": 1527,
      "##aydi": 1528,
      "▁kahkaha": 1529,
      "▁pat": 1530,
      "▁ederken": 1531,
      "▁yardımı": 1532,
      "▁utangac": 1533,
      "##eph": 1534,
      "▁toplumun": 1535,
      "▁gosterisli": 1536,
      "▁kit": 1537,
      "##ılmasına": 1538,
      "▁sanmıyorum": 1539,
      "5": 1540,
      "▁zek": 1541,
      "##mekten": 1542,
      "##obil": 1543,
      "##ahat": 1544,
      "▁olmamıs": 1545,
      "##edir": 1546,
      "▁adeta": 1547,
      "▁birden": 1548,
      "▁sessiz": 1549,
      "##iyorlar": 1550,
      "▁hum": 1551,
      "▁in": 1552,
      "▁derken": 1553,
      "▁190": 1554,
      "▁kazanmak": 1555,
      "▁istir": 1556,
      "▁nice": 1557,
      "▁dısına": 1558,
      "▁memuru": 1559,
      "##undan": 1560,
      "▁acık": 1561,
      "▁kosesinde": 1562,
      "##ımdaki": 1563,
      "▁baskanın": 1564,
      "▁inek": 1565,
      "▁dunyadaki": 1566,
      "▁karyol": 1567,
      "▁esmer": 1568,
      "##ure": 1569,
      "▁wash": 1570,
      "▁ekib": 1571,
      "▁antik": 1572,
      "▁giren": 1573,
      "▁muhafazakar": 1574,
      "▁53": 1575,
      "##gec": 1576,
      "▁alacagım": 1577,
      "▁nakliy": 1578,
      "▁9.5": 1579,
      "▁telefonla": 1580,
      "▁parayi": 1581,
      "▁biten": 1582,
      "▁karar": 1583,
      "▁mantık": 1584,
      "▁meh": 1585,
      "▁karlı": 1586,
      "▁sıcaktan": 1587,
      "▁yetersizligi": 1588,
      "▁mab": 1589,
      "▁boyl": 1590,
      "▁yagmur": 1591,
      "##embe": 1592,
      "##oster": 1593,
      "##'nu": 1594,
      "▁onumuz": 1595,
      "▁hasta": 1596,
      "▁gozune": 1597,
      "▁olma": 1598,
      "##tone": 1599,
      "▁kans": 1600,
      "▁ide": 1601,
      "▁kurk": 1602,
      "▁suyun": 1603,
      "▁ikisi": 1604,
      "▁kızın": 1605,
      "▁22.6": 1606,
      "##ko": 1607,
      "▁durumuna": 1608,
      "##lıgı": 1609,
      "▁mahkem": 1610,
      "▁fiyatina": 1611,
      "▁arm": 1612,
      "▁kaptan": 1613,
      "▁calısarak": 1614,
      "▁omrunde": 1615,
      "##mesinde": 1616,
      "##ıyordu": 1617,
      "▁bunlardan": 1618,
      "▁israil'in": 1619,
      "▁insaat": 1620,
      "▁birtak": 1621,
      "▁fa": 1622,
      "▁gog": 1623,
      "▁alınması": 1624,
      "▁ulu": 1625,
      "▁mıyım": 1626,
      "▁isteyecek": 1627,
      "▁1/4": 1628,
      "▁kel": 1629,
      "▁isk": 1630,
      "▁fin": 1631,
      "▁zan": 1632,
      "▁ruya": 1633,
      "▁ortacag": 1634,
      "▁nerde": 1635,
      "▁planda": 1636,
      "▁gl": 1637,
      "▁dy": 1638,
      "▁yapmaya": 1639,
      "▁sch": 1640,
      "▁basla": 1641,
      "▁hukm": 1642,
      "▁sonucların": 1643,
      "##umlu": 1644,
      "##ama": 1645,
      "▁yildizli": 1646,
      "▁hizmette": 1647,
      "▁usulca": 1648,
      "▁1955": 1649,
      "▁diyebilirim": 1650,
      "▁sart": 1651,
      "▁yiyecekleri": 1652,
      "▁tahkik": 1653,
      "▁giriyor": 1654,
      "##zi": 1655,
      "▁disinda": 1656,
      "▁yuzluydu": 1657,
      "▁denizden": 1658,
      "##ville": 1659,
      "▁sustur": 1660,
      "▁zem": 1661,
      "##idge": 1662,
      "▁dusmanı": 1663,
      "▁aaa": 1664,
      "▁surun": 1665,
      "▁duyarlı": 1666,
      "▁ucunu": 1667,
      "▁utu": 1668,
      "▁ster": 1669,
      "▁ekim'de": 1670,
      "##eb": 1671,
      "▁dun": 1672,
      "##mayı": 1673,
      "▁yasanan": 1674,
      "▁babasından": 1675,
      "▁hava": 1676,
      "▁kanada": 1677,
      "▁buny": 1678,
      "##ulur": 1679,
      "▁devamlı": 1680,
      "▁zeytinyagı": 1681,
      "▁ruzgarı": 1682,
      "▁koyar": 1683,
      "▁332": 1684,
      "▁bayılmıs": 1685,
      "▁polonya": 1686,
      "▁muhafaza": 1687,
      "▁taze": 1688,
      "▁tutan": 1689,
      "##ları": 1690,
      "##mislerdir": 1691,
      "##amızın": 1692,
      "▁yapmadıgını": 1693,
      "▁edemey": 1694,
      "▁%99": 1695,
      "##son": 1696,
      "##tator": 1697,
      "▁zarif": 1698,
      "##ıg": 1699,
      "▁binanın": 1700,
      "▁230": 1701,
      "##dir": 1702,
      "▁memnun": 1703,
      "##mede": 1704,
      "▁ann": 1705,
      "##itt": 1706,
      "▁tat": 1707,
      "▁geride": 1708,
      "▁charlotte'den": 1709,
      "b": 1710,
      "▁sırada": 1711,
      "▁etmenin": 1712,
      "▁fan": 1713,
      "▁car": 1714,
      "##inci": 1715,
      "▁soluk": 1716,
      "▁avrupa'da": 1717,
      "▁derg": 1718,
      "▁muay": 1719,
      "▁5.2": 1720,
      "##inden": 1721,
      "▁tepk": 1722,
      "▁liraya": 1723,
      "▁usx": 1724,
      "▁1245": 1725,
      "▁arabayı": 1726,
      "▁tadına": 1727,
      "▁burosu": 1728,
      "▁mutlu": 1729,
      "▁kenarında": 1730,
      "##etik": 1731,
      "##ıldıgını": 1732,
      "▁anlamına": 1733,
      "▁dususu": 1734,
      "▁kayg": 1735,
      "▁seniz": 1736,
      "▁journal": 1737,
      "▁idim": 1738,
      "##agımı": 1739,
      "▁kımıl": 1740,
      "▁bekleniyor": 1741,
      "##ico": 1742,
      "▁hayatın": 1743,
      "##ecegimiz": 1744,
      "▁bazılarına": 1745,
      "▁yapıp": 1746,
      "▁asik": 1747,
      "▁arastır": 1748,
      "▁gormemis": 1749,
      "##ad": 1750,
      "▁lezzeti": 1751,
      "##timore": 1752,
      "▁dis": 1753,
      "▁azgın": 1754,
      "▁tıb": 1755,
      "▁cırp": 1756,
      "▁kalkan": 1757,
      "▁buldular": 1758,
      "▁tutar": 1759,
      "##ıyorsun": 1760,
      "▁yabanc": 1761,
      "##tin": 1762,
      "▁por": 1763,
      "▁vermis": 1764,
      "▁kaliteliydi": 1765,
      "▁bagısık": 1766,
      "▁resep": 1767,
      "▁secer": 1768,
      "▁giderken": 1769,
      "▁kosul": 1770,
      "▁400": 1771,
      "▁soyleyerek": 1772,
      "▁samet": 1773,
      "▁keder": 1774,
      "▁ongoruyor": 1775,
      "▁teorik": 1776,
      "▁ardı": 1777,
      "▁otesinde": 1778,
      "▁sezer": 1779,
      "▁tb": 1780,
      "▁gordun": 1781,
      "##yon": 1782,
      "▁malz": 1783,
      "▁ulasan": 1784,
      "▁2004": 1785,
      "##6.5": 1786,
      "▁yapamam": 1787,
      "▁kizim": 1788,
      "▁dakik": 1789,
      "▁mutfak": 1790,
      "▁sesle": 1791,
      "▁guvert": 1792,
      "##ist": 1793,
      "##miyordu": 1794,
      "▁koprunun": 1795,
      "##/4": 1796,
      "▁temin": 1797,
      "▁gorulur": 1798,
      "▁lamb": 1799,
      "##but": 1800,
      "▁biraz": 1801,
      "##9'un": 1802,
      "▁ozellikle": 1803,
      "##lek": 1804,
      "##alarda": 1805,
      "▁ulasılamadı": 1806,
      "▁dusunceleri": 1807,
      "▁world": 1808,
      "##ikli": 1809,
      "▁duserken": 1810,
      "▁vasıf": 1811,
      "▁ucuslarınız": 1812,
      "##mma": 1813,
      "▁gecmesi": 1814,
      "▁piyasaya": 1815,
      "▁hamuru": 1816,
      "▁bahseder": 1817,
      "▁gecmisi": 1818,
      "▁kova": 1819,
      "▁korudu": 1820,
      "▁olmayı": 1821,
      "##ite": 1822,
      "##lal": 1823,
      "▁kızıl": 1824,
      "▁eng": 1825,
      "▁376": 1826,
      "▁usak": 1827,
      "▁zarf": 1828,
      "▁gerekse": 1829,
      "##acılara": 1830,
      "▁verilir": 1831,
      "▁melek": 1832,
      "▁340": 1833,
      "##det": 1834,
      "▁cene": 1835,
      "▁macında": 1836,
      "▁kapsamlı": 1837,
      "▁dede": 1838,
      "▁13.1": 1839,
      "▁indirimi": 1840,
      "▁normal": 1841,
      "▁urunu": 1842,
      "▁kapanısına": 1843,
      "▁soh": 1844,
      "▁tavana": 1845,
      "▁tasvir": 1846,
      "▁senetlerinin": 1847,
      "▁bizleri": 1848,
      "▁evlat": 1849,
      "▁115": 1850,
      "▁kisilerin": 1851,
      "▁ik": 1852,
      "▁cumle": 1853,
      "##lıg": 1854,
      "##as": 1855,
      "##fil": 1856,
      "▁alli": 1857,
      "##77": 1858,
      "▁istek": 1859,
      "##ere": 1860,
      "▁hediy": 1861,
      "##meyecek": 1862,
      "▁inanıyorum": 1863,
      "##e'nin": 1864,
      "##hami": 1865,
      "▁yazılmıs": 1866,
      "▁hissetti": 1867,
      "▁mamafih": 1868,
      "▁sını": 1869,
      "▁neleri": 1870,
      "##cuların": 1871,
      "▁iste": 1872,
      "▁caf": 1873,
      "##astır": 1874,
      "##v": 1875,
      "##dıgından": 1876,
      "▁farz": 1877,
      "▁d.": 1878,
      "▁dunyaya": 1879,
      "▁aktivite": 1880,
      "##alt": 1881,
      "▁7.8": 1882,
      "▁sarkıcı": 1883,
      "##madik": 1884,
      "##baz": 1885,
      "##oker": 1886,
      "##.31": 1887,
      "▁departman": 1888,
      "▁cız": 1889,
      "##iser": 1890,
      "▁time": 1891,
      "▁icinizde": 1892,
      "▁ziyaret": 1893,
      "▁hile": 1894,
      "▁madem": 1895,
      "▁kimine": 1896,
      "▁sultan": 1897,
      "▁cıkarmak": 1898,
      "##iyetle": 1899,
      "▁istanbul": 1900,
      "▁5000": 1901,
      "▁esv": 1902,
      "▁gozler": 1903,
      "##is'in": 1904,
      "▁takıldı": 1905,
      "##'ı": 1906,
      "##iller": 1907,
      "▁kimimiz": 1908,
      "▁taz": 1909,
      "▁muhaseb": 1910,
      "▁damla": 1911,
      "▁genelde": 1912,
      "▁bulacak": 1913,
      "▁59": 1914,
      "##artman": 1915,
      "##afet": 1916,
      "▁cicek": 1917,
      "▁aradı": 1918,
      "##deger": 1919,
      "##ılırsa": 1920,
      "▁``": 1921,
      "▁destekleyen": 1922,
      "▁ertug": 1923,
      "▁400000": 1924,
      "▁kolay": 1925,
      "▁496": 1926,
      "▁bırakıyor": 1927,
      "▁kitap": 1928,
      "▁uclu": 1929,
      "▁diyor": 1930,
      "▁degis": 1931,
      "▁1925": 1932,
      "##metik": 1933,
      "▁1.11": 1934,
      "▁cıtır": 1935,
      "▁puandan": 1936,
      "▁gelismeler": 1937,
      "▁islemlerin": 1938,
      "▁armagan": 1939,
      "▁hayvan": 1940,
      "##lerimizin": 1941,
      "▁ortalama": 1942,
      "▁sened": 1943,
      "##elenmis": 1944,
      "▁istendi": 1945,
      "▁denizi": 1946,
      "##adın": 1947,
      "▁piyasa": 1948,
      "▁birik": 1949,
      "▁teklifini": 1950,
      "##lugunda": 1951,
      "▁oden": 1952,
      "▁efendi": 1953,
      "▁kurumlar": 1954,
      "▁cıldır": 1955,
      "▁zemin": 1956,
      "▁gormuyor": 1957,
      "▁karan": 1958,
      "▁yanıt": 1959,
      "▁99.1": 1960,
      "▁kostum": 1961,
      "c": 1962,
      "▁yolcu": 1963,
      "▁ogleden": 1964,
      "▁yılı": 1965,
      "▁mcca": 1966,
      "▁dalgalan": 1967,
      "▁onsekiz": 1968,
      "##emedik": 1969,
      "▁mae": 1970,
      "▁dogu'da": 1971,
      "▁piyango": 1972,
      "▁kimseye": 1973,
      "▁cbs": 1974,
      "##tur": 1975,
      "##dıgının": 1976,
      "▁ayrı": 1977,
      "▁eskiydi": 1978,
      "▁yasay": 1979,
      "##tigi": 1980,
      "▁kanad": 1981,
      "▁degir": 1982,
      "▁sak": 1983,
      "##23": 1984,
      "▁gereksin": 1985,
      "▁yukselmistir": 1986,
      "▁zavallı": 1987,
      "▁adıyla": 1988,
      "##sak": 1989,
      "▁mevcut": 1990,
      "▁bildir": 1991,
      "▁bolgesel": 1992,
      "##ımız": 1993,
      "##alanmıs": 1994,
      "▁balta": 1995,
      "▁sanıyorum": 1996,
      "##acılık": 1997,
      "##dukca": 1998,
      "▁hapis": 1999,
      "▁olaydan": 2000,
      "▁muess": 2001,
      "▁2008": 2002,
      "▁nusret": 2003,
      "▁153": 2004,
      "▁muzikal": 2005,
      "##mısım": 2006,
      "▁bulup": 2007,
      "▁bilez": 2008,
      "▁seb": 2009,
      "▁emine": 2010,
      "▁gecenin": 2011,
      "##asıdır": 2012,
      "▁bell": 2013,
      "▁toren": 2014,
      "##'": 2015,
      "▁derde": 2016,
      "##sul": 2017,
      "▁yemeklerden": 2018,
      "▁okyan": 2019,
      "▁ulasımı": 2020,
      "▁tov": 2021,
      "##>": 2022,
      "▁rek": 2023,
      "▁tutul": 2024,
      "##\\/8": 2025,
      "▁$'dan": 2026,
      "▁gul": 2027,
      "▁tas": 2028,
      "▁bloke": 2029,
      "▁gider": 2030,
      "##dik": 2031,
      "▁cumhuriyet": 2032,
      "##ole": 2033,
      "▁mesin": 2034,
      "▁ilim": 2035,
      "▁koru": 2036,
      "##ulan": 2037,
      "▁onlarca": 2038,
      "▁rustu": 2039,
      "▁sise": 2040,
      "▁defa": 2041,
      "##it'in": 2042,
      "▁aktarmasız": 2043,
      "▁borsada": 2044,
      "▁cic": 2045,
      "##45": 2046,
      "##laki": 2047,
      "▁kısın": 2048,
      "▁15000": 2049,
      "▁cekiliyor": 2050,
      "▁odul": 2051,
      "▁derim": 2052,
      "▁deneyim": 2053,
      "▁karak": 2054,
      "▁cocugu": 2055,
      "▁sahan": 2056,
      "▁konakla": 2057,
      "▁201": 2058,
      "▁kalab": 2059,
      "▁dusmanca": 2060,
      "▁siyaset": 2061,
      "##.24": 2062,
      "##kil": 2063,
      "▁demez": 2064,
      "▁gordu": 2065,
      "##dır": 2066,
      "▁bircokları": 2067,
      "▁nam": 2068,
      "▁depremde": 2069,
      "##niyet": 2070,
      "##'deki": 2071,
      "##masız": 2072,
      "▁deng": 2073,
      "▁bakanlar": 2074,
      "▁kılıc": 2075,
      "##alı": 2076,
      "▁ydılar": 2077,
      "▁vakfı": 2078,
      "▁mademki": 2079,
      "▁1'de": 2080,
      "▁sabahları": 2081,
      "▁sofraya": 2082,
      "▁van": 2083,
      "▁basvur": 2084,
      "▁homurdan": 2085,
      "##uter": 2086,
      "▁donum": 2087,
      "▁tavuk": 2088,
      "▁malları": 2089,
      "▁endek": 2090,
      "##emistir": 2091,
      "▁268": 2092,
      "▁tak": 2093,
      "▁gitmeye": 2094,
      "▁paral": 2095,
      "▁''": 2096,
      "▁alıs": 2097,
      "▁sicak": 2098,
      "▁zum": 2099,
      "▁aramak": 2100,
      "▁7.6": 2101,
      "▁turs": 2102,
      "▁kopr": 2103,
      "##ısır": 2104,
      "▁sayfa": 2105,
      "▁kazanc": 2106,
      "▁verimsiz": 2107,
      "▁mcc": 2108,
      "▁pittsburgh": 2109,
      "▁havayolları": 2110,
      "▁mek": 2111,
      "▁kopuklu": 2112,
      "##dav": 2113,
      "▁dallas": 2114,
      "▁gomle": 2115,
      "▁astı": 2116,
      "▁karsilama": 2117,
      "##agından": 2118,
      "▁ihmal": 2119,
      "##ski": 2120,
      "▁zal": 2121,
      "▁ikiye": 2122,
      "##'e": 2123,
      "▁tacoma'dan": 2124,
      "▁louis'ten": 2125,
      "▁par": 2126,
      "##ustuk": 2127,
      "▁mesaj": 2128,
      "▁darb": 2129,
      "▁beyefendi": 2130,
      "▁dag": 2131,
      "▁verdik": 2132,
      "▁kelim": 2133,
      "▁kurnaz": 2134,
      "▁degerler": 2135,
      "▁dim": 2136,
      "▁topraga": 2137,
      "##alım": 2138,
      "▁getirdi": 2139,
      "▁bilimleri": 2140,
      "▁hakkinda": 2141,
      "##say": 2142,
      "▁kisiye": 2143,
      "▁sucu": 2144,
      "▁bakımdan": 2145,
      "▁cokus": 2146,
      "▁haklar": 2147,
      "▁mimar": 2148,
      "##asyonu": 2149,
      "▁ihale": 2150,
      "▁zamandır": 2151,
      "▁ocagın": 2152,
      "▁kabiliyeti": 2153,
      "▁ona": 2154,
      "##mal": 2155,
      "▁aziz": 2156,
      "▁boru": 2157,
      "▁states": 2158,
      "▁canavar": 2159,
      "##lip": 2160,
      "▁tahvili": 2161,
      "##era": 2162,
      "▁mar": 2163,
      "▁ekleyerek": 2164,
      "##ardi": 2165,
      "▁m": 2166,
      "▁aldılar": 2167,
      "▁haric": 2168,
      "▁1.0": 2169,
      "▁lam": 2170,
      "▁char": 2171,
      "▁gonderdi": 2172,
      "▁bayan": 2173,
      "▁satılan": 2174,
      "##mamalı": 2175,
      "▁ayrica": 2176,
      "##ydi": 2177,
      "▁kadr": 2178,
      "▁yerleri": 2179,
      "▁laborat": 2180,
      "▁kotums": 2181,
      "▁yerlesik": 2182,
      "▁cikol": 2183,
      "▁geciyor": 2184,
      "▁anlattık": 2185,
      "▁duvar": 2186,
      "▁tombul": 2187,
      "##.7": 2188,
      "▁sıngır": 2189,
      "▁agladı": 2190,
      "▁oldugumu": 2191,
      "▁birbirlerini": 2192,
      "▁evir": 2193,
      "▁cub": 2194,
      "##lardir": 2195,
      "##”": 2196,
      "▁birbiri": 2197,
      "▁tacirler": 2198,
      "▁yurtdısında": 2199,
      "▁kacak": 2200,
      "▁ayının": 2201,
      "▁yargılan": 2202,
      "▁kuralları": 2203,
      "##me": 2204,
      "▁soyley": 2205,
      "▁saatlerinde": 2206,
      "▁bicimi": 2207,
      "▁limuz": 2208,
      "▁kazancı": 2209,
      "▁bur": 2210,
      "▁cad": 2211,
      "▁bulanık": 2212,
      "▁potansiy": 2213,
      "▁boz": 2214,
      "##malara": 2215,
      "▁riv": 2216,
      "▁abart": 2217,
      "▁seni": 2218,
      "##abında": 2219,
      "▁konuları": 2220,
      "▁1/4'e": 2221,
      "▁yek": 2222,
      "##ans": 2223,
      "▁espr": 2224,
      "▁sabahı": 2225,
      "▁tumuyle": 2226,
      "##uyor": 2227,
      "##atik": 2228,
      "▁agacların": 2229,
      "▁numara": 2230,
      "▁bilhassa": 2231,
      "▁kulaga": 2232,
      "▁uygulamaları": 2233,
      "##agan": 2234,
      "▁ısıgı": 2235,
      "▁kulagına": 2236,
      "▁pey": 2237,
      "▁23.5": 2238,
      "▁toplan": 2239,
      "▁olmadıgına": 2240,
      "▁bilgisayar-programı": 2241,
      "▁anladı": 2242,
      "▁calısıyorum": 2243,
      "▁alıskan": 2244,
      "▁boldu": 2245,
      "##eller": 2246,
      "▁tuz": 2247,
      "##amayacagını": 2248,
      "▁oku": 2249,
      "▁kimseyi": 2250,
      "▁ileriye": 2251,
      "▁zannet": 2252,
      "##'nda": 2253,
      "##osa": 2254,
      "##ell": 2255,
      "▁erdogan": 2256,
      "##eff": 2257,
      "▁kurulu'nun": 2258,
      "▁haberim": 2259,
      "▁fel": 2260,
      "▁goruyordu": 2261,
      "▁beton": 2262,
      "▁enter": 2263,
      "▁isten": 2264,
      "▁semt": 2265,
      "▁dort": 2266,
      "▁sıra": 2267,
      "##enek": 2268,
      "▁yatırımcıların": 2269,
      "▁denver'de": 2270,
      "▁tarihe": 2271,
      "▁romanc": 2272,
      "▁kayboldu": 2273,
      "▁tezgah": 2274,
      "##gi": 2275,
      "##ayıp": 2276,
      "▁nereye": 2277,
      "▁fe": 2278,
      "▁elleriyle": 2279,
      "##ulmustur": 2280,
      "▁vicdan": 2281,
      "▁birisini": 2282,
      "##cısı": 2283,
      "▁minder": 2284,
      "▁cocukca": 2285,
      "▁adi": 2286,
      "▁odenmesi": 2287,
      "=": 2288,
      "▁dolastım": 2289,
      "▁ansik": 2290,
      "▁tarafından": 2291,
      "▁kuz": 2292,
      "▁plaj": 2293,
      "▁kambur": 2294,
      "▁telefonu": 2295,
      "##rem": 2296,
      "▁evi": 2297,
      "▁duzenli": 2298,
      "▁ydi": 2299,
      "▁edildigini": 2300,
      "##mik": 2301,
      "##ten": 2302,
      "##os'un": 2303,
      "▁etrafta": 2304,
      "▁girdigi": 2305,
      "▁yut": 2306,
      "▁uygulamaya": 2307,
      "##n": 2308,
      "▁kıyafet": 2309,
      "##.73": 2310,
      "▁1988": 2311,
      "##dinci": 2312,
      "##kı": 2313,
      "▁basbakan": 2314,
      "##iger": 2315,
      "▁kalktı": 2316,
      "▁yelpaz": 2317,
      "▁tucc": 2318,
      "##luguna": 2319,
      "▁tasa": 2320,
      "▁buyuy": 2321,
      "▁istiyorum": 2322,
      "▁kalmadı": 2323,
      "▁ardından": 2324,
      "▁besinci": 2325,
      "▁uygunsuz": 2326,
      "▁degerlendiril": 2327,
      "##mustur": 2328,
      "##iyat": 2329,
      "▁yapmaktan": 2330,
      "▁uzandı": 2331,
      "▁fatura": 2332,
      "▁pu": 2333,
      "▁kısım": 2334,
      "##emki": 2335,
      "▁hisseyle": 2336,
      "##dos": 2337,
      "▁4": 2338,
      "▁incecik": 2339,
      "##ult": 2340,
      "##o": 2341,
      "▁seatt": 2342,
      "▁ısır": 2343,
      "▁serb": 2344,
      "##ısındaki": 2345,
      "##unuyor": 2346,
      "▁q": 2347,
      "▁hekim": 2348,
      "▁kov": 2349,
      "##hi": 2350,
      "▁kabuk": 2351,
      "▁sizden": 2352,
      "▁analiz": 2353,
      "▁merkeze": 2354,
      "▁bana": 2355,
      "▁fant": 2356,
      "▁6.9": 2357,
      "##-merkez": 2358,
      "##isti": 2359,
      "##tra": 2360,
      "▁kucak": 2361,
      "▁bm": 2362,
      "▁gaz": 2363,
      "▁kos": 2364,
      "▁daire": 2365,
      "##.01": 2366,
      "▁bakarak": 2367,
      "▁sor": 2368,
      "##alarında": 2369,
      "▁ir": 2370,
      "▁birligi": 2371,
      "▁sayıda": 2372,
      "▁yorumu": 2373,
      "▁amerika": 2374,
      "▁acentamiza": 2375,
      "▁evler": 2376,
      "▁duzel": 2377,
      "!": 2378,
      "▁sehr": 2379,
      "▁taraftan": 2380,
      "▁kıl": 2381,
      "▁esen": 2382,
      "▁calıs": 2383,
      "▁soruları": 2384,
      "▁konuyla": 2385,
      "##teler": 2386,
      "▁dergisi": 2387,
      "##dor": 2388,
      "▁ick": 2389,
      "▁3.1": 2390,
      "▁koyde": 2391,
      "##vari": 2392,
      "▁1962": 2393,
      "▁balkon": 2394,
      "▁eczacı": 2395,
      "▁dervis": 2396,
      "▁allah'a": 2397,
      "▁oldukca": 2398,
      "##36": 2399,
      "##diler": 2400,
      "▁yaslarında": 2401,
      "##ari": 2402,
      "##one": 2403,
      "▁tenis": 2404,
      "##ran": 2405,
      "##he": 2406,
      "▁dogal": 2407,
      "▁agrı": 2408,
      "▁40": 2409,
      "▁turist": 2410,
      "▁ozellikleri": 2411,
      "▁esy": 2412,
      "▁cezb": 2413,
      "▁louis": 2414,
      "##-m": 2415,
      "▁zamaninda": 2416,
      "##abilmis": 2417,
      "▁genis": 2418,
      "▁arap": 2419,
      "▁sum": 2420,
      "▁tef": 2421,
      "▁belirsiz": 2422,
      "▁gormez": 2423,
      "▁gecirdim": 2424,
      "▁arkadasım": 2425,
      "▁sokup": 2426,
      "▁109.85": 2427,
      "▁eders": 2428,
      "▁j.": 2429,
      "▁bisiklet": 2430,
      "##leleri": 2431,
      "##dog": 2432,
      "▁gercekles": 2433,
      "▁ucusunun": 2434,
      "▁otekine": 2435,
      "##lamıstı": 2436,
      "##7'den": 2437,
      "▁kahvalti": 2438,
      "##aktan": 2439,
      "▁kim": 2440,
      "##.52": 2441,
      "▁yazın": 2442,
      "##ekom": 2443,
      "##abilmek": 2444,
      "▁gom": 2445,
      "▁okuyup": 2446,
      "▁baskasın": 2447,
      "▁giyin": 2448,
      "##ledigini": 2449,
      "▁filiz": 2450,
      "▁l.": 2451,
      "▁boh": 2452,
      "##usuz": 2453,
      "##uce": 2454,
      "▁ların": 2455,
      "##imli": 2456,
      "▁sicakti": 2457,
      "▁patlıc": 2458,
      "##ısıl": 2459,
      "##iliyordu": 2460,
      "▁ibm'in": 2461,
      "▁kor": 2462,
      "▁tuttum": 2463,
      "##esine": 2464,
      "##lıgını": 2465,
      "▁alıyor": 2466,
      "▁teblig": 2467,
      "▁prop": 2468,
      "▁kaldırdı": 2469,
      "▁demin": 2470,
      "▁3135": 2471,
      "▁%20": 2472,
      "▁ideoloj": 2473,
      "▁kilis": 2474,
      "▁konumu": 2475,
      "##lıgında": 2476,
      "▁fevkal": 2477,
      "▁buyume": 2478,
      "##usuyla": 2479,
      "▁gectigi": 2480,
      "▁etek": 2481,
      "▁shar": 2482,
      "▁benziyor": 2483,
      "▁buhran": 2484,
      "▁basın": 2485,
      "▁mevdu": 2486,
      "▁be": 2487,
      "##allı": 2488,
      "▁ima": 2489,
      "▁boyle": 2490,
      "▁eb": 2491,
      "▁isvic": 2492,
      "▁4200'e": 2493,
      "▁didik": 2494,
      "##tem": 2495,
      "▁bog": 2496,
      "▁kahve": 2497,
      "▁14": 2498,
      "##.95": 2499,
      "▁seklinde": 2500,
      "##1.7": 2501,
      "▁sınırlarını": 2502,
      "▁sirketin": 2503,
      "▁orland": 2504,
      "▁%9": 2505,
      "▁kalmaya": 2506,
      "▁sozu": 2507,
      "▁trust": 2508,
      "▁doz": 2509,
      "▁degistiriyor": 2510,
      "▁capındaki": 2511,
      "##lumu": 2512,
      "##inle": 2513,
      "##les": 2514,
      "##lendirdi": 2515,
      "##iel": 2516,
      "▁mosk": 2517,
      "▁sc": 2518,
      "▁cin": 2519,
      "▁airlines": 2520,
      "▁ysan": 2521,
      "▁campeau": 2522,
      "▁merkezinde": 2523,
      "▁1987'de": 2524,
      "##ol": 2525,
      "▁agresif": 2526,
      "▁istemeye": 2527,
      "▁miydi": 2528,
      "▁america": 2529,
      "▁tarihini": 2530,
      "▁olurdu": 2531,
      "▁yorul": 2532,
      "▁anlama": 2533,
      "▁uygar": 2534,
      "##itler": 2535,
      "##lasın": 2536,
      "▁oksuruk": 2537,
      "▁pitts": 2538,
      "##luga": 2539,
      "▁cocugum": 2540,
      "▁soyledi": 2541,
      "▁gorusmedik": 2542,
      "▁bagırsak": 2543,
      "##di": 2544,
      "▁erdem": 2545,
      "▁mana": 2546,
      "▁tavan": 2547,
      "▁bilinmez": 2548,
      "▁ger": 2549,
      "▁potansiyel": 2550,
      "##—": 2551,
      "##ligini": 2552,
      "▁yazıya": 2553,
      "##ıyorum": 2554,
      "▁ton": 2555,
      "▁tv": 2556,
      "▁286": 2557,
      "▁yersiz": 2558,
      "▁taslar": 2559,
      "▁egit": 2560,
      "▁kı": 2561,
      "▁yanda": 2562,
      "##mamacasına": 2563,
      "##otiv": 2564,
      "▁gunlerden": 2565,
      "▁kırac": 2566,
      "▁bo": 2567,
      "##lıktan": 2568,
      "##lasması": 2569,
      "▁saman": 2570,
      "▁zamana": 2571,
      "▁2683.2": 2572,
      "▁*": 2573,
      "▁bastır": 2574,
      "▁ucus": 2575,
      "▁yanını": 2576,
      "##ini": 2577,
      "▁kale": 2578,
      "##ıla": 2579,
      "▁kurban": 2580,
      "▁ana": 2581,
      "▁konusmalar": 2582,
      "▁yılında": 2583,
      "▁hikayeler": 2584,
      "▁otob": 2585,
      "▁demir": 2586,
      "▁huy": 2587,
      "▁yarısından": 2588,
      "▁tuhaf": 2589,
      "▁!..": 2590,
      "▁yolun": 2591,
      "▁benzeyen": 2592,
      "▁hastane": 2593,
      "▁bilirler": 2594,
      "▁dernek": 2595,
      "▁krizi": 2596,
      "▁doktorun": 2597,
      "▁getiriyordu": 2598,
      "▁miami'den": 2599,
      "▁pesine": 2600,
      "▁koruyan": 2601,
      "▁dediler": 2602,
      "##–": 2603,
      "▁evin": 2604,
      "▁kucuktu": 2605,
      "▁bank": 2606,
      "##lulugunu": 2607,
      "▁iyisini": 2608,
      "▁cekmis": 2609,
      "▁bari": 2610,
      "▁div": 2611,
      "▁bulur": 2612,
      "▁143": 2613,
      "##iyeti": 2614,
      "▁kalabalı": 2615,
      "▁sakin": 2616,
      "##pi": 2617,
      "▁vadede": 2618,
      "##sın": 2619,
      "▁verilen": 2620,
      "▁twa": 2621,
      "▁ayr": 2622,
      "##iness": 2623,
      "▁yıldan": 2624,
      "▁populer": 2625,
      "▁kaynak": 2626,
      "▁sivri": 2627,
      "▁tabanc": 2628,
      "##'nin": 2629,
      "▁tuccarlar": 2630,
      "▁uvey": 2631,
      "▁isim": 2632,
      "▁psikolojik": 2633,
      "▁sozler": 2634,
      "▁denet": 2635,
      "▁tanıyor": 2636,
      "▁isciyi": 2637,
      "▁calisan": 2638,
      "##'li": 2639,
      "▁unit": 2640,
      "▁baslayacak": 2641,
      "##/8'e": 2642,
      "##malıyız": 2643,
      "▁yuf": 2644,
      "▁gunku": 2645,
      "##isleri": 2646,
      "##ucu": 2647,
      "▁gunduz": 2648,
      "▁ortulu": 2649,
      "▁tarlas": 2650,
      "▁gittik": 2651,
      "▁bilgi": 2652,
      "▁gozlerine": 2653,
      "▁sait": 2654,
      "▁farkın": 2655,
      "▁milano": 2656,
      "##ational": 2657,
      "▁yayınladı": 2658,
      "▁doviz": 2659,
      "▁canlandır": 2660,
      "▁o'": 2661,
      "▁grubu": 2662,
      "▁ar": 2663,
      "▁guzelce": 2664,
      "v": 2665,
      "##mem": 2666,
      "▁kokusu": 2667,
      "##lekli": 2668,
      "▁konustu": 2669,
      "##larim": 2670,
      "▁levh": 2671,
      "▁iler": 2672,
      "▁kurumsal": 2673,
      "▁derecelendir": 2674,
      "##istiy": 2675,
      "▁gezer": 2676,
      "▁baskent": 2677,
      "▁sotheb": 2678,
      "##aci": 2679,
      "▁rakipler": 2680,
      "▁uret": 2681,
      "▁rezerve": 2682,
      "##dat": 2683,
      "##eh": 2684,
      "▁zihn": 2685,
      "▁dogur": 2686,
      "▁yazarın": 2687,
      "▁40000": 2688,
      "▁okuyor": 2689,
      "▁bahis": 2690,
      "▁arif": 2691,
      "##'nun": 2692,
      "▁istemedi": 2693,
      "▁muazzam": 2694,
      "▁muhabiri": 2695,
      "▁hu": 2696,
      "##o'ya": 2697,
      "▁moskova": 2698,
      "▁adam": 2699,
      "▁dram": 2700,
      "▁umudu": 2701,
      "##ahmet": 2702,
      "▁colorad": 2703,
      "▁salomon": 2704,
      "▁haline": 2705,
      "▁italyan": 2706,
      "▁gazi": 2707,
      "▁noktada": 2708,
      "▁operasyonlarını": 2709,
      "▁lee": 2710,
      "▁motiv": 2711,
      "▁kurt": 2712,
      "▁pazarın": 2713,
      "##2.9": 2714,
      "##lugundan": 2715,
      "▁sofra": 2716,
      "▁olacagını": 2717,
      "▁viz": 2718,
      "▁ulan": 2719,
      "▁bicimde": 2720,
      "##cesi": 2721,
      "▁west": 2722,
      "▁tedbir": 2723,
      "▁sordu": 2724,
      "▁almanlar": 2725,
      "##amı": 2726,
      "▁vurur": 2727,
      "▁olusturul": 2728,
      "▁sendika": 2729,
      "▁pisman": 2730,
      "▁kosu": 2731,
      "▁yansıt": 2732,
      "##jektif": 2733,
      "▁kullanisli": 2734,
      "##dık": 2735,
      "##ilerinden": 2736,
      "▁dahil": 2737,
      "▁cos": 2738,
      "▁gurult": 2739,
      "▁kuy": 2740,
      "##lendirmek": 2741,
      "##vik": 2742,
      "▁savas": 2743,
      "▁florida": 2744,
      "▁macer": 2745,
      "##ıcak": 2746,
      "▁tiksin": 2747,
      "▁yılda": 2748,
      "▁musunuz": 2749,
      "▁iliskimiz": 2750,
      "##liginin": 2751,
      "▁gumus": 2752,
      "▁dinlen": 2753,
      "▁asılı": 2754,
      "▁yanımda": 2755,
      "▁destekli": 2756,
      "##lerdi": 2757,
      "##imin": 2758,
      "▁mahkemesi": 2759,
      "▁communications": 2760,
      "##59": 2761,
      "▁billur": 2762,
      "##urt": 2763,
      "▁elimden": 2764,
      "▁ucusla": 2765,
      "##diginde": 2766,
      "▁oyku": 2767,
      "▁iyiden": 2768,
      "▁0.6": 2769,
      "##maların": 2770,
      "▁gıda": 2771,
      "▁bulbul": 2772,
      "▁ezber": 2773,
      "▁biriyle": 2774,
      "▁yed": 2775,
      "▁hakkı": 2776,
      "▁sıkıstır": 2777,
      "▁gunden": 2778,
      "▁gazetec": 2779,
      "▁konusup": 2780,
      "▁ettiginiz": 2781,
      "▁20": 2782,
      "▁dustugu": 2783,
      "▁kaliforn": 2784,
      "▁811": 2785,
      "▁girmez": 2786,
      "▁kuruluslarındaki": 2787,
      "##ysa": 2788,
      "##63": 2789,
      "▁yemege": 2790,
      "▁dikkatle": 2791,
      "▁270": 2792,
      "##vet": 2793,
      "▁ucmak": 2794,
      "##ref": 2795,
      "▁1981": 2796,
      "##alarını": 2797,
      "▁itib": 2798,
      "▁degildik": 2799,
      "▁1.60": 2800,
      "▁dalk": 2801,
      "▁video": 2802,
      "##ohn": 2803,
      "▁fist": 2804,
      "▁oldugun": 2805,
      "▁alısver": 2806,
      "##za": 2807,
      "▁vasat": 2808,
      "▁aklıma": 2809,
      "##len": 2810,
      "##edilen": 2811,
      "##use": 2812,
      "▁2010": 2813,
      "▁198120000": 2814,
      "▁tadı": 2815,
      "##amm": 2816,
      "▁getirmeye": 2817,
      "▁edilemez": 2818,
      "▁federal": 2819,
      "##diginden": 2820,
      "##asında": 2821,
      "▁bebek": 2822,
      "##ain": 2823,
      "▁1977": 2824,
      "▁ters": 2825,
      "▁comert": 2826,
      "▁halef": 2827,
      "▁ny": 2828,
      "▁midwest": 2829,
      "▁cet": 2830,
      "▁cekirdek": 2831,
      "▁midir": 2832,
      "▁lider": 2833,
      "▁askeri": 2834,
      "▁halim": 2835,
      "▁jo": 2836,
      "▁herkesi": 2837,
      "▁seyrek": 2838,
      "▁yapıyor": 2839,
      "▁7.52": 2840,
      "▁rab": 2841,
      "▁kendileriyle": 2842,
      "▁kalıyor": 2843,
      "▁zirv": 2844,
      "▁camı": 2845,
      "▁gerekiyor": 2846,
      "▁adımı": 2847,
      "▁sunu": 2848,
      "▁dolma": 2849,
      "▁vel": 2850,
      "▁birbiriyle": 2851,
      "▁sed": 2852,
      "▁yaslı": 2853,
      "▁1200": 2854,
      "▁acıkca": 2855,
      "▁kıvıl": 2856,
      "▁cayır": 2857,
      "▁faaliyete": 2858,
      "▁adlandır": 2859,
      "▁aleyhine": 2860,
      "##ir": 2861,
      "##em": 2862,
      "▁%51": 2863,
      "▁yokus": 2864,
      "▁oyla": 2865,
      "▁catı": 2866,
      "▁yoktu": 2867,
      "▁buyudu": 2868,
      "▁ro": 2869,
      "▁esnaf": 2870,
      "▁bilgisi": 2871,
      "▁cincinnati": 2872,
      "▁ettigini": 2873,
      "▁bolgesi": 2874,
      "▁civ": 2875,
      "▁ankete": 2876,
      "▁adem": 2877,
      "▁temizligi": 2878,
      "▁iceriye": 2879,
      "▁burn": 2880,
      "▁isinin": 2881,
      "▁cıktık": 2882,
      "▁anlıyor": 2883,
      "▁isaret": 2884,
      "▁cleveland'dan": 2885,
      "▁jim": 2886,
      "##tari": 2887,
      "▁arkasından": 2888,
      "##koy": 2889,
      "▁itaat": 2890,
      "▁gecit": 2891,
      "▁211": 2892,
      "▁mut": 2893,
      "▁basta": 2894,
      "▁tarafsız": 2895,
      "▁birbirlerine": 2896,
      "##nam": 2897,
      "▁polit": 2898,
      "▁ulastırma": 2899,
      "##lidir": 2900,
      "▁balon": 2901,
      "▁icli": 2902,
      "▁york'tan": 2903,
      "▁anti": 2904,
      "▁nominal": 2905,
      "▁azaltmak": 2906,
      "▁kaymakam": 2907,
      "▁borclanma": 2908,
      "▁doktoru": 2909,
      "##9:": 2910,
      "▁ambar": 2911,
      "▁amacla": 2912,
      "▁okullar": 2913,
      "▁nazar": 2914,
      "▁politik": 2915,
      "▁olanagı": 2916,
      "▁lakırtı": 2917,
      "##imizde": 2918,
      "▁edecegim": 2919,
      "▁buyuyor": 2920,
      "▁inanıyor": 2921,
      "##udu": 2922,
      "##lesin": 2923,
      "##mamız": 2924,
      "▁gencler": 2925,
      "▁sauna": 2926,
      "▁cekilmesi": 2927,
      "▁1.500": 2928,
      "▁arastırma": 2929,
      "##'de": 2930,
      "##enlerin": 2931,
      "▁anlayislari": 2932,
      "▁michael": 2933,
      "▁guvercin": 2934,
      "##dikten": 2935,
      "▁sınıfta": 2936,
      "▁mag": 2937,
      "▁60000": 2938,
      "##acıkta": 2939,
      "##dayım": 2940,
      "##ki": 2941,
      "##sef": 2942,
      "##umuzde": 2943,
      "▁calısması": 2944,
      "▁2240": 2945,
      "▁inc": 2946,
      "▁olarak": 2947,
      "##va": 2948,
      "▁tanınmıs": 2949,
      "▁torb": 2950,
      "##ver": 2951,
      "▁iyil": 2952,
      "##eceginden": 2953,
      "▁ogul": 2954,
      "▁saldırgan": 2955,
      "##ıydı": 2956,
      "▁yen'e": 2957,
      "▁nav": 2958,
      "▁tavır": 2959,
      "▁esrar": 2960,
      "▁41": 2961,
      "▁cercev": 2962,
      "##alak": 2963,
      "##isyen": 2964,
      "▁dokum": 2965,
      "▁askerler": 2966,
      "##ırt": 2967,
      "▁havuzun": 2968,
      "▁kıvır": 2969,
      "▁ariz": 2970,
      "▁cıkınca": 2971,
      "▁fıskır": 2972,
      "▁cevap": 2973,
      "▁paralar": 2974,
      "▁yanl": 2975,
      "▁hazırlamıs": 2976,
      "▁dikkatini": 2977,
      "▁mil": 2978,
      "▁odun": 2979,
      "##eyip": 2980,
      "▁tumu": 2981,
      "▁karsil": 2982,
      "▁engellemek": 2983,
      "▁prenses": 2984,
      "▁hareket": 2985,
      "▁yanlıs": 2986,
      "▁magaza": 2987,
      "▁bulent": 2988,
      "▁olası": 2989,
      "▁bankalarındaki": 2990,
      "▁seydi": 2991,
      "▁ortalıgı": 2992,
      "##'ten": 2993,
      "▁karsılıgını": 2994,
      "▁citicorp": 2995,
      "▁tabl": 2996,
      "▁puanlarim": 2997,
      "##ında": 2998,
      "▁oldugunu": 2999,
      "▁manevi": 3000,
      "▁bıraktım": 3001,
      "▁havuzlar": 3002,
      "##yetmisbes": 3003,
      "▁kısmı": 3004,
      "▁mudur": 3005,
      "▁ikincisi": 3006,
      "▁kazanmıs": 3007,
      "▁%2.7": 3008,
      "▁gayrimenkul": 3009,
      "▁yazarlar": 3010,
      "▁degildi": 3011,
      "▁kalkar": 3012,
      "##eniz": 3013,
      "▁kuslar": 3014,
      "▁edilebilir": 3015,
      "▁sordum": 3016,
      "▁ter": 3017,
      "▁express": 3018,
      "▁tutam": 3019,
      "▁mahk": 3020,
      "##amaya": 3021,
      "▁fran": 3022,
      "##ons": 3023,
      "▁plat": 3024,
      "▁gerilim": 3025,
      "▁gork": 3026,
      "##15": 3027,
      "▁piyasaları": 3028,
      "##.69": 3029,
      "▁zinciri": 3030,
      "▁oynuyor": 3031,
      "▁memphis'e": 3032,
      "##6'dan": 3033,
      "▁bilgilerini": 3034,
      "▁boyu": 3035,
      "##ec": 3036,
      "▁hey": 3037,
      "▁yazıyorum": 3038,
      "▁sabahın": 3039,
      "##deler": 3040,
      "▁degistiren": 3041,
      "##xel": 3042,
      "##abuk": 3043,
      "▁575000": 3044,
      "▁babamın": 3045,
      "▁dorduncu": 3046,
      "▁yollarda": 3047,
      "▁guvenli": 3048,
      "##ectr": 3049,
      "▁aramaya": 3050,
      "▁karaya": 3051,
      "##iskin": 3052,
      "##rib": 3053,
      "##ude": 3054,
      "▁gectigimiz": 3055,
      "▁eden": 3056,
      "▁yaradı": 3057,
      "▁fener": 3058,
      "##ato": 3059,
      "▁dilek": 3060,
      "▁duyan": 3061,
      "▁kumas": 3062,
      "▁damar": 3063,
      "▁nukleer": 3064,
      "▁cıktı": 3065,
      "▁italya": 3066,
      "▁berbat": 3067,
      "▁juri": 3068,
      "▁listeler": 3069,
      "##akal": 3070,
      "▁calısanları": 3071,
      "▁arka": 3072,
      "▁dirler": 3073,
      "##bac": 3074,
      "▁bilgil": 3075,
      "▁temelinde": 3076,
      "▁spekulasyon": 3077,
      "▁dım": 3078,
      "▁arkasında": 3079,
      "▁dagınık": 3080,
      "▁part": 3081,
      "▁krav": 3082,
      "▁tanıy": 3083,
      "▁ekipmanı": 3084,
      "▁charlotte": 3085,
      "▁duzenlen": 3086,
      "▁ayaklarını": 3087,
      "▁hastan": 3088,
      "##'in": 3089,
      "##mazdı": 3090,
      "▁bayagı": 3091,
      "▁4.92": 3092,
      "▁yerlerde": 3093,
      "##ıllı": 3094,
      "▁yururken": 3095,
      "▁uzmanı": 3096,
      "##daydı": 3097,
      "##int": 3098,
      "▁kesik": 3099,
      "▁badem": 3100,
      "▁fransa'nın": 3101,
      "▁#": 3102,
      "[CLS]": 3103,
      "▁5.7": 3104,
      "▁getirileri": 3105,
      "▁murat": 3106,
      "▁turden": 3107,
      "▁birbirimizi": 3108,
      "▁tecavuz": 3109,
      "▁ahir": 3110,
      "▁1.59": 3111,
      "▁kusak": 3112,
      "▁temerrut": 3113,
      "▁unifor": 3114,
      "▁cevir": 3115,
      "▁asil": 3116,
      "##tıgında": 3117,
      "▁faizli": 3118,
      "▁elektr": 3119,
      "##hangi": 3120,
      "▁istedigi": 3121,
      "##abilecek": 3122,
      "▁ithal": 3123,
      "▁vek": 3124,
      "▁kavustur": 3125,
      "▁etkilen": 3126,
      "##lıgım": 3127,
      "▁yeryuz": 3128,
      "▁guler": 3129,
      "##bol": 3130,
      "▁doy": 3131,
      "▁cıglık": 3132,
      "▁yuruyus": 3133,
      "▁ısıl": 3134,
      "▁1.05": 3135,
      "▁mic": 3136,
      "▁okula": 3137,
      "▁giyinmis": 3138,
      "▁yapmıyor": 3139,
      "▁birini": 3140,
      "▁uf": 3141,
      "##leyin": 3142,
      "▁466": 3143,
      "▁delikanlı": 3144,
      "▁7\\/32": 3145,
      "▁pittsburgh'a": 3146,
      "▁faaliyeti": 3147,
      "▁ucumuz": 3148,
      "▁karısmıs": 3149,
      "▁past": 3150,
      "▁hewlett": 3151,
      "##0000": 3152,
      "##ant": 3153,
      "▁mintan": 3154,
      "▁azami": 3155,
      "##ıstır": 3156,
      "##'ndaki": 3157,
      "▁bogazici": 3158,
      "▁onceki": 3159,
      "##4.7": 3160,
      "▁gerekecek": 3161,
      "##isa": 3162,
      "▁varır": 3163,
      "##ersey": 3164,
      "▁nikkei": 3165,
      "▁zil": 3166,
      "▁gosterdigi": 3167,
      "##tmis": 3168,
      "▁vekil": 3169,
      "▁hek": 3170,
      "▁basladılar": 3171,
      "▁dinliyor": 3172,
      "▁versiyonu": 3173,
      "▁buhar": 3174,
      "▁ltd.": 3175,
      "▁rah": 3176,
      "##leket": 3177,
      "▁faal": 3178,
      "▁piyasayı": 3179,
      "##emex": 3180,
      "▁mukemmeldi": 3181,
      "▁erdir": 3182,
      "▁yurumeye": 3183,
      "▁rop": 3184,
      "▁mekteb": 3185,
      "▁atlanta'ya": 3186,
      "j": 3187,
      "▁makin": 3188,
      "##ces": 3189,
      "▁ofis": 3190,
      "▁1.22": 3191,
      "▁power": 3192,
      "▁ayrildik": 3193,
      "▁ug": 3194,
      "▁gitmisti": 3195,
      "▁ucaklar": 3196,
      "##yen": 3197,
      "▁hizmetleri": 3198,
      "▁havalimanı": 3199,
      "▁uzul": 3200,
      "▁pot": 3201,
      "▁cezası": 3202,
      "▁seyret": 3203,
      "##yetmis": 3204,
      "##fer": 3205,
      "▁manzum": 3206,
      "▁gorunmuyor": 3207,
      "▁yegen": 3208,
      "▁ilg": 3209,
      "▁doya": 3210,
      "▁memuriyet": 3211,
      "▁olmasıdır": 3212,
      "▁kusun": 3213,
      "▁amacıyla": 3214,
      "▁1973": 3215,
      "##iyetli": 3216,
      "▁kesfet": 3217,
      "▁alanı": 3218,
      "▁neye": 3219,
      "▁bulmaya": 3220,
      "##bi": 3221,
      "▁sezl": 3222,
      "▁intik": 3223,
      "▁koz": 3224,
      "▁dav": 3225,
      "▁nda": 3226,
      "▁havayoludur": 3227,
      "▁yatar": 3228,
      "▁kurtarma": 3229,
      "▁muhendi": 3230,
      "▁ıcı": 3231,
      "▁kararlar": 3232,
      "▁gune": 3233,
      "##..": 3234,
      "▁agzı": 3235,
      "##ırlar": 3236,
      "▁pahali": 3237,
      "▁baslangıcı": 3238,
      "▁dogan": 3239,
      "▁tasarlan": 3240,
      "▁cesitli": 3241,
      "▁okuy": 3242,
      "##lerim": 3243,
      "▁122": 3244,
      "▁35000": 3245,
      "▁ara": 3246,
      "▁odama": 3247,
      "▁birbir": 3248,
      "▁carptı": 3249,
      "▁sebze": 3250,
      "##larının": 3251,
      "▁endeksi": 3252,
      "▁baslangıcta": 3253,
      "▁dokunulmaz": 3254,
      "▁fed": 3255,
      "▁yaygın": 3256,
      "##digince": 3257,
      "##bos": 3258,
      "##lanmıs": 3259,
      "▁kar": 3260,
      "▁bulmus": 3261,
      "▁yene": 3262,
      "▁agaclarının": 3263,
      "▁harry": 3264,
      "▁kudret": 3265,
      "▁yogun": 3266,
      "▁bakır": 3267,
      "▁uymadi": 3268,
      "▁elektronik": 3269,
      "▁denizciler": 3270,
      "##lık": 3271,
      "▁biy": 3272,
      "▁gemi": 3273,
      "▁sat": 3274,
      "##saf": 3275,
      "▁200": 3276,
      "▁oynan": 3277,
      "▁les": 3278,
      "##luluk": 3279,
      "▁vucudu": 3280,
      "▁aylarca": 3281,
      "▁senem": 3282,
      "##cok": 3283,
      "▁elem": 3284,
      "▁hisselerinin": 3285,
      "##ade": 3286,
      "▁tetik": 3287,
      "##eyerek": 3288,
      "▁57.5": 3289,
      "▁yakın": 3290,
      "▁kesip": 3291,
      "▁skan": 3292,
      "▁pır": 3293,
      "▁net": 3294,
      "##-a": 3295,
      "▁oranlar": 3296,
      "##lunun": 3297,
      "▁neyse": 3298,
      "▁yerles": 3299,
      "▁%6": 3300,
      "▁veremem": 3301,
      "▁336": 3302,
      "▁laub": 3303,
      "▁geliyor": 3304,
      "▁edebil": 3305,
      "▁%50": 3306,
      "▁kendisiyle": 3307,
      "▁ydum": 3308,
      "▁evimiz": 3309,
      "##!": 3310,
      "▁beg": 3311,
      "▁kesen": 3312,
      "▁amacı": 3313,
      "&": 3314,
      "▁bankaları": 3315,
      "##ciligi": 3316,
      "▁sokul": 3317,
      "▁almak": 3318,
      "▁kirliydi": 3319,
      "##miyor": 3320,
      "▁telerate": 3321,
      "##uldugu": 3322,
      "▁ucret": 3323,
      "▁kalkarak": 3324,
      "▁ye": 3325,
      "▁cocuklarının": 3326,
      "▁emper": 3327,
      "▁1115": 3328,
      "##7.9": 3329,
      "▁527": 3330,
      "▁imam": 3331,
      "▁saygısız": 3332,
      "▁husus": 3333,
      "▁haldun": 3334,
      "▁stat": 3335,
      "▁cef": 3336,
      "▁turkce": 3337,
      "▁kursu": 3338,
      "##t": 3339,
      "▁genel": 3340,
      "▁cont": 3341,
      "##acılar": 3342,
      "▁oldugum": 3343,
      "##afi": 3344,
      "##larımız": 3345,
      "▁merkezi": 3346,
      "##ij": 3347,
      "▁bunal": 3348,
      "##ha": 3349,
      "▁igne": 3350,
      "▁kendimiz": 3351,
      "▁vermektedir": 3352,
      "##hal": 3353,
      "▁ansızın": 3354,
      "▁dinley": 3355,
      "▁basıyor": 3356,
      "▁sanırım": 3357,
      "▁yusu": 3358,
      "▁isletmeler": 3359,
      "▁alırım": 3360,
      "##da": 3361,
      "▁yasadik": 3362,
      "▁cuh": 3363,
      "▁ecev": 3364,
      "##uyu": 3365,
      "▁askın": 3366,
      "▁britanya": 3367,
      "▁kararını": 3368,
      "▁yerin": 3369,
      "▁ızdır": 3370,
      "▁serbest": 3371,
      "▁asf": 3372,
      "▁grubunun": 3373,
      "▁okumaya": 3374,
      "▁edildi": 3375,
      "##ullah": 3376,
      "▁veriliyor": 3377,
      "▁kuf": 3378,
      "▁ign": 3379,
      "##lik": 3380,
      "▁kandır": 3381,
      "▁guclu": 3382,
      "▁kozmetik": 3383,
      "##ayabilir": 3384,
      "▁gunumuzde": 3385,
      "##imler": 3386,
      "##amızı": 3387,
      "▁salata": 3388,
      "▁devreye": 3389,
      "▁stock": 3390,
      "▁para": 3391,
      "▁bacagını": 3392,
      "▁tiyatr": 3393,
      "▁talih": 3394,
      "▁helal": 3395,
      "▁odemis": 3396,
      "▁memphis": 3397,
      "▁2.46": 3398,
      "▁odasına": 3399,
      "▁cın": 3400,
      "▁cuk": 3401,
      "▁ozlem": 3402,
      "▁gecirir": 3403,
      "▁uzaklastı": 3404,
      "▁jersey": 3405,
      "##8'de": 3406,
      "##sarı": 3407,
      "▁bomb": 3408,
      "▁uygun": 3409,
      "▁surucu": 3410,
      "▁engin": 3411,
      "▁ceviz": 3412,
      "##acaksınız": 3413,
      "##diginiz": 3414,
      "▁goruyorum": 3415,
      "▁onerdi": 3416,
      "▁1986": 3417,
      "▁bakım": 3418,
      "▁trans": 3419,
      "##arik": 3420,
      "▁kendini": 3421,
      "▁asset": 3422,
      "▁cıkarak": 3423,
      "▁haftalarda": 3424,
      "▁yuklu": 3425,
      "▁1993": 3426,
      "▁liber": 3427,
      "▁%11": 3428,
      "▁ulkeye": 3429,
      "▁kumsali": 3430,
      "▁ayın": 3431,
      "▁isliyor": 3432,
      "▁550": 3433,
      "▁nashville'den": 3434,
      "##ingir": 3435,
      "▁bekliyordu": 3436,
      "▁azından": 3437,
      "▁kurmus": 3438,
      "##abıyla": 3439,
      "▁seyde": 3440,
      "▁muster": 3441,
      "▁asci": 3442,
      "▁hoslan": 3443,
      "▁ontario'dan": 3444,
      "▁gozlerinde": 3445,
      "▁rezerv": 3446,
      "##iyordum": 3447,
      "##uncusu": 3448,
      "▁peter": 3449,
      "##oeni": 3450,
      "▁kıt": 3451,
      "▁160": 3452,
      "▁8'den": 3453,
      "▁tasıdı": 3454,
      "▁haksızlık": 3455,
      "▁852": 3456,
      "▁durmadan": 3457,
      "▁degismis": 3458,
      "▁atmıs": 3459,
      "▁yasamı": 3460,
      "▁koltu": 3461,
      "▁lafı": 3462,
      "▁bulan": 3463,
      "##&t": 3464,
      "▁nasıl": 3465,
      "▁oper": 3466,
      "##est": 3467,
      "▁kem": 3468,
      "▁gunde": 3469,
      "▁gecmiyor": 3470,
      "▁mız": 3471,
      "▁nazaran": 3472,
      "▁degistirdi": 3473,
      "▁sımsık": 3474,
      "▁1.125": 3475,
      "▁106": 3476,
      "▁orlando'dan": 3477,
      "▁satısa": 3478,
      "▁hic": 3479,
      "▁cekirde": 3480,
      "##tıs": 3481,
      "▁gorustuk": 3482,
      "▁ucundan": 3483,
      "▁pound": 3484,
      "▁blok": 3485,
      "▁beklenmedik": 3486,
      "▁harcadı": 3487,
      "▁7.88": 3488,
      "▁kutusu": 3489,
      "▁verip": 3490,
      "▁unuttur": 3491,
      "▁epeyce": 3492,
      "##ical": 3493,
      "▁88.12": 3494,
      "▁dusundu": 3495,
      "▁neredeyse": 3496,
      "▁agırlık": 3497,
      "▁fiyatlarında": 3498,
      "▁cuz": 3499,
      "▁kimi": 3500,
      "▁ilerleme": 3501,
      "▁d": 3502,
      "▁beyi": 3503,
      "▁ul": 3504,
      "▁cabalar": 3505,
      "##op": 3506,
      "▁yapr": 3507,
      "▁yanakları": 3508,
      "▁eleman": 3509,
      "##larla": 3510,
      "▁tereyagı": 3511,
      "▁vic": 3512,
      "▁agr": 3513,
      "##sizce": 3514,
      "▁gunesli": 3515,
      "▁acısı": 3516,
      "##ıcısı": 3517,
      "▁ciyak": 3518,
      "▁muac": 3519,
      "▁dizinin": 3520,
      "▁suk": 3521,
      "▁okan": 3522,
      "▁for": 3523,
      "▁indim": 3524,
      "▁istedik": 3525,
      "▁6.7": 3526,
      "▁korkuyorum": 3527,
      "▁doneme": 3528,
      "##ilerden": 3529,
      "▁sıfır": 3530,
      "▁dagıl": 3531,
      "▁keyif": 3532,
      "▁faturamin": 3533,
      "##yuz": 3534,
      "##uste": 3535,
      "▁houston": 3536,
      "▁gecirmek": 3537,
      "▁atarak": 3538,
      "▁yetkilisi": 3539,
      "▁rejim": 3540,
      "▁detroit'ten": 3541,
      "##sında": 3542,
      "▁seckin": 3543,
      "▁vuruyor": 3544,
      "##icisi": 3545,
      "▁sosyalist": 3546,
      "▁gonlunu": 3547,
      "▁surdurmek": 3548,
      "▁olmamak": 3549,
      "▁vergi": 3550,
      "▁olimp": 3551,
      "##culuk": 3552,
      "▁kesiyor": 3553,
      "▁yıllık": 3554,
      "##asından": 3555,
      "▁acmayı": 3556,
      "##inal": 3557,
      "##eyince": 3558,
      "▁cıkmak": 3559,
      "▁100": 3560,
      "##emey": 3561,
      "▁tanesi": 3562,
      "▁bırakın": 3563,
      "▁verdi": 3564,
      "▁basvuru": 3565,
      "▁bolge": 3566,
      "▁gazino": 3567,
      "##tım": 3568,
      "▁br": 3569,
      "▁toplumu": 3570,
      "▁yardımc": 3571,
      "▁stand": 3572,
      "##leyi": 3573,
      "▁salonu": 3574,
      "▁padi": 3575,
      "▁sakalı": 3576,
      "▁japonlar": 3577,
      "▁plaji": 3578,
      "▁bedava": 3579,
      "▁televizyon": 3580,
      "▁bekledigini": 3581,
      "▁ontario": 3582,
      "▁birbirlerinin": 3583,
      "▁konusu": 3584,
      "▁ma": 3585,
      "##miyorum": 3586,
      "▁3.5": 3587,
      "▁mide": 3588,
      "▁durumu": 3589,
      "▁gayrim": 3590,
      "▁kırıklıgı": 3591,
      "▁kagıdı": 3592,
      "▁onca": 3593,
      "▁kullanılmıs": 3594,
      "▁acel": 3595,
      "▁kurdular": 3596,
      "▁aya": 3597,
      "▁.'": 3598,
      "▁hizmete": 3599,
      "▁olusan": 3600,
      "▁parmak": 3601,
      "▁quebec": 3602,
      "▁oburunu": 3603,
      "▁2007'nin": 3604,
      "▁benzer": 3605,
      "▁millet": 3606,
      "▁mecl": 3607,
      "▁jack": 3608,
      "▁gecis": 3609,
      "▁?": 3610,
      "▁memleket": 3611,
      "▁yaptım": 3612,
      "▁hissesinin": 3613,
      "▁18": 3614,
      "▁vegas'tan": 3615,
      "▁cip": 3616,
      "▁havayolunun": 3617,
      "▁duzey": 3618,
      "##ence": 3619,
      "##ay'ın": 3620,
      "▁evrak": 3621,
      "▁yemeklerde": 3622,
      "##ledil": 3623,
      "▁uyusturucu": 3624,
      "▁olduk": 3625,
      "##ıldıgı": 3626,
      "▁kus": 3627,
      "##nu": 3628,
      "##tigim": 3629,
      "▁sekizinci": 3630,
      "▁itibariyle": 3631,
      "▁do": 3632,
      "▁kesildi": 3633,
      "▁karton": 3634,
      "▁verilmesi": 3635,
      "▁richard": 3636,
      "▁paralel": 3637,
      "▁hayal": 3638,
      "▁uzay": 3639,
      "▁gorulen": 3640,
      "▁39": 3641,
      "##\\": 3642,
      "▁katkı": 3643,
      "▁cocugun": 3644,
      "▁kademeli": 3645,
      "##resi": 3646,
      "▁dondu": 3647,
      "▁bagımsız": 3648,
      "▁electric": 3649,
      "▁eminim": 3650,
      "▁one": 3651,
      "s": 3652,
      "▁boc": 3653,
      "▁kurtulmak": 3654,
      "▁88": 3655,
      "##sira": 3656,
      "▁temkin": 3657,
      "▁yukselirken": 3658,
      "▁efsan": 3659,
      "##asip": 3660,
      "▁etkinlikler": 3661,
      "▁salonda": 3662,
      "▁pozisyon": 3663,
      "▁aydınlat": 3664,
      "▁puf": 3665,
      "▁tarihleri": 3666,
      "▁sasırtıcı": 3667,
      "▁demiray": 3668,
      "▁satılık": 3669,
      "▁durust": 3670,
      "▁ada": 3671,
      "▁coskun": 3672,
      "▁phoenix": 3673,
      "▁nedenle": 3674,
      "▁oralarda": 3675,
      "▁32.125": 3676,
      "▁gergin": 3677,
      "##ai": 3678,
      "▁dururdu": 3679,
      "▁kayıp": 3680,
      "▁sınırı": 3681,
      "▁kabar": 3682,
      "▁satımı": 3683,
      "▁sırasında": 3684,
      "▁ocagı": 3685,
      "▁muk": 3686,
      "▁egilim": 3687,
      "▁hijyen": 3688,
      "##loy": 3689,
      "▁224070000": 3690,
      "▁oz": 3691,
      "▁westchester": 3692,
      "##usten": 3693,
      "##lar": 3694,
      "▁sundu": 3695,
      "▁edeb": 3696,
      "▁o": 3697,
      "##.43": 3698,
      "▁hayat": 3699,
      "▁onlardan": 3700,
      "▁13": 3701,
      "▁yetk": 3702,
      "▁tesisten": 3703,
      "▁bulas": 3704,
      "▁ozellik": 3705,
      "▁onlarda": 3706,
      "▁hamil": 3707,
      "▁harap": 3708,
      "▁dokmek": 3709,
      "▁gorevlisi": 3710,
      "▁japonya'nın": 3711,
      "##42": 3712,
      "▁yetkilileri": 3713,
      "▁101": 3714,
      "▁150000": 3715,
      "##onspor": 3716,
      "##9'da": 3717,
      "▁cekil": 3718,
      "▁dinlem": 3719,
      "▁3.05": 3720,
      "##lıyorum": 3721,
      "##ansiy": 3722,
      "▁fal": 3723,
      "▁davası": 3724,
      "##57": 3725,
      "##urum": 3726,
      "##amet": 3727,
      "▁silip": 3728,
      "▁boston'da": 3729,
      "▁esiyor": 3730,
      "▁emel": 3731,
      "▁oykuler": 3732,
      "▁yaratır": 3733,
      "##ca": 3734,
      "▁house": 3735,
      "▁oranları": 3736,
      "▁bilgilerin": 3737,
      "▁hec": 3738,
      "▁tartısmaya": 3739,
      "▁bilinc": 3740,
      "▁ta": 3741,
      "▁ohi": 3742,
      "▁harekete": 3743,
      "##atil": 3744,
      "▁tesisin": 3745,
      "▁kayak": 3746,
      "▁asla": 3747,
      "▁lyn": 3748,
      "7": 3749,
      "▁dolastı": 3750,
      "▁yayın": 3751,
      "▁muamel": 3752,
      "▁petrol": 3753,
      "▁gulus": 3754,
      "▁dususler": 3755,
      "▁surdur": 3756,
      "▁zorlastır": 3757,
      "##rum": 3758,
      "##es": 3759,
      "▁herkesten": 3760,
      "▁kalmadik": 3761,
      "▁sahin": 3762,
      "▁annesinin": 3763,
      "▁ec": 3764,
      "▁izah": 3765,
      "▁oturum": 3766,
      "▁etken": 3767,
      "##ılıgıyla": 3768,
      "▁maddi": 3769,
      "##ates": 3770,
      "▁uzere": 3771,
      "##ılık": 3772,
      "▁edemedi": 3773,
      "▁taraf": 3774,
      "▁inat": 3775,
      "▁aday": 3776,
      "▁te": 3777,
      "▁ayrım": 3778,
      "▁havalimanından": 3779,
      "▁ap": 3780,
      "▁ustu": 3781,
      "▁%6.9": 3782,
      "##le": 3783,
      "##malı": 3784,
      "##ihat": 3785,
      "▁eline": 3786,
      "##eley": 3787,
      "##p.": 3788,
      "▁halk": 3789,
      "▁vermedi": 3790,
      "▁cincinnati'ye": 3791,
      "▁hutton": 3792,
      "▁kinden": 3793,
      "▁denen": 3794,
      "▁telefon": 3795,
      "▁pencerenin": 3796,
      "▁ayrılan": 3797,
      "▁bom": 3798,
      "▁muhur": 3799,
      "▁ortagı": 3800,
      "▁ayarlandı": 3801,
      "▁sevk": 3802,
      "▁kırk": 3803,
      "▁ak": 3804,
      "▁zafer": 3805,
      "##mamıstı": 3806,
      "▁kaygı": 3807,
      "▁muhasebe": 3808,
      "▁kısıtlam": 3809,
      "▁yavasti": 3810,
      "▁sem": 3811,
      "▁mily": 3812,
      "▁toy": 3813,
      "▁oto": 3814,
      "▁cogun": 3815,
      "▁nak": 3816,
      "▁tuh": 3817,
      "▁pratik": 3818,
      "##aseb": 3819,
      "▁elver": 3820,
      "▁sozlesmesi": 3821,
      "▁0.25": 3822,
      "##ersin": 3823,
      "▁bilimin": 3824,
      "▁asgari": 3825,
      "▁ingiliz": 3826,
      "▁org": 3827,
      "▁minneapolis'ten": 3828,
      "##izdi": 3829,
      "▁3.4": 3830,
      "▁ortaklık": 3831,
      "▁lung": 3832,
      "##b": 3833,
      "##.87": 3834,
      "▁sigort": 3835,
      "▁dosem": 3836,
      "##ugh": 3837,
      "▁saga": 3838,
      "▁gorur": 3839,
      "▁201622": 3840,
      "▁esim": 3841,
      "##sen": 3842,
      "▁tampa'ya": 3843,
      "▁aran": 3844,
      "▁gizem": 3845,
      "▁beklenenden": 3846,
      "##a'da": 3847,
      "▁gecin": 3848,
      "▁ferah": 3849,
      "▁illa": 3850,
      "##ılıgını": 3851,
      "##ginde": 3852,
      "▁oyk": 3853,
      "▁sozlesmeler": 3854,
      "##efendi": 3855,
      "▁kenarına": 3856,
      "▁iliskilerinde": 3857,
      "▁olaylara": 3858,
      "▁rusya": 3859,
      "▁kurcal": 3860,
      "▁topragı": 3861,
      "##isse": 3862,
      "##yat": 3863,
      "▁milyon": 3864,
      "##oru": 3865,
      "##rat": 3866,
      "##acası": 3867,
      "▁baskan": 3868,
      "▁dolayısıyla": 3869,
      "▁salih": 3870,
      "##evher": 3871,
      "▁ogrenildi": 3872,
      "▁0.24": 3873,
      "▁karanlık": 3874,
      "▁sırasıyla": 3875,
      "▁nihal": 3876,
      "▁oturmus": 3877,
      "▁milwaukee": 3878,
      "▁ugrasıyor": 3879,
      "▁asker": 3880,
      "▁gitt": 3881,
      "▁kopuk": 3882,
      "▁a.b.d.": 3883,
      "▁koku": 3884,
      "▁sanız": 3885,
      "▁kurul": 3886,
      "▁1988'de": 3887,
      "▁ır": 3888,
      "▁pak": 3889,
      "##goz": 3890,
      "▁rezervasyonlar": 3891,
      "##ilmiyor": 3892,
      "▁ayarlanabilir": 3893,
      "##elerim": 3894,
      "##ılmak": 3895,
      "▁fıstık": 3896,
      "▁pasa": 3897,
      "##il": 3898,
      "##atla": 3899,
      "▁kaldik": 3900,
      "##ık": 3901,
      "▁ederler": 3902,
      "▁kut": 3903,
      "▁ezbere": 3904,
      "▁temp": 3905,
      "##lerde": 3906,
      "▁11:": 3907,
      "▁milletvek": 3908,
      "##azım": 3909,
      "▁giden": 3910,
      "▁kıymetler": 3911,
      "##roit": 3912,
      "▁asama": 3913,
      "▁kosullar": 3914,
      "▁ahbap": 3915,
      "▁otomobiller": 3916,
      "▁cansız": 3917,
      "▁37.5": 3918,
      "▁iklim": 3919,
      "##ica": 3920,
      "▁ozgurluk": 3921,
      "▁birlesik": 3922,
      "##ibar": 3923,
      "▁evinden": 3924,
      "▁carsı": 3925,
      "##ich": 3926,
      "▁allianz": 3927,
      "▁oran": 3928,
      "▁ellerini": 3929,
      "##'te": 3930,
      "##ay": 3931,
      "▁3.3": 3932,
      "▁aldı": 3933,
      "##agını": 3934,
      "##71": 3935,
      "▁cins": 3936,
      "##aga": 3937,
      "▁542": 3938,
      "▁babam": 3939,
      "▁turkuler": 3940,
      "▁kolombiya": 3941,
      "##urdan": 3942,
      "▁gur": 3943,
      "##l": 3944,
      "▁actı": 3945,
      "##laması": 3946,
      "▁celik": 3947,
      "▁patates": 3948,
      "▁tazminat": 3949,
      "▁inter": 3950,
      "▁1.4": 3951,
      "▁oncu": 3952,
      "▁dinkins": 3953,
      "▁evvel": 3954,
      "▁ilgilenmedi": 3955,
      "▁istasyonu": 3956,
      "▁birbirleriyle": 3957,
      "##our": 3958,
      "▁iyiles": 3959,
      "▁tacoma'ya": 3960,
      "▁kıyaslandıgında": 3961,
      "##ba": 3962,
      "▁sevdik": 3963,
      "▁cebinden": 3964,
      "▁sinyal": 3965,
      "▁gundem": 3966,
      "##ster": 3967,
      "▁hep": 3968,
      "▁sevim": 3969,
      "▁karsiligi": 3970,
      "▁tesek": 3971,
      "▁yaptıktan": 3972,
      "▁yola": 3973,
      "▁seks": 3974,
      "▁damg": 3975,
      "##lukla": 3976,
      "▁dısarıdan": 3977,
      "▁tokyo'daki": 3978,
      "▁ucusa": 3979,
      "▁yuzer": 3980,
      "▁kaz": 3981,
      "▁anlasmalar": 3982,
      "▁oradan": 3983,
      "##bap": 3984,
      "▁suleyman": 3985,
      "##ındır": 3986,
      "##emezler": 3987,
      "##mesine": 3988,
      "##tak": 3989,
      "▁yumruk": 3990,
      "▁yonlu": 3991,
      "▁4.3": 3992,
      "▁mısınız": 3993,
      "##icorp": 3994,
      "▁olasılıkla": 3995,
      "##mektir": 3996,
      "▁ayrılıyor": 3997,
      "▁muhalefet": 3998,
      "▁kalmıs": 3999,
      "▁kubb": 4000,
      "▁gonzalez": 4001,
      "▁tug": 4002,
      "##hut": 4003,
      "▁11.5": 4004,
      "▁dizgin": 4005,
      "▁lıgı": 4006,
      "▁kuskusuz": 4007,
      "##anların": 4008,
      "##ektr": 4009,
      "▁otomobilin": 4010,
      "▁kapali": 4011,
      "▁sende": 4012,
      "▁dedigim": 4013,
      "▁grupları": 4014,
      "▁francisco'da": 4015,
      "▁ses": 4016,
      "▁atesle": 4017,
      "▁prov": 4018,
      "▁okulun": 4019,
      "▁gol": 4020,
      "##ile": 4021,
      "▁yapıldıgı": 4022,
      "##gune": 4023,
      "▁acıklıyor": 4024,
      "▁yatak": 4025,
      "▁miss": 4026,
      "▁tutsak": 4027,
      "▁yumus": 4028,
      "▁esas": 4029,
      "##r.": 4030,
      "▁sek": 4031,
      "▁yazdıgı": 4032,
      "▁kocasının": 4033,
      "▁18.65": 4034,
      "▁yaklasım": 4035,
      "▁reddediyor": 4036,
      "▁nok": 4037,
      "▁hasıl": 4038,
      "▁bitim": 4039,
      "▁iskar": 4040,
      "▁1.85": 4041,
      "▁450": 4042,
      "▁yapacagını": 4043,
      "▁yabancilara": 4044,
      "▁otomotiv": 4045,
      "▁itibarendir": 4046,
      "##2000": 4047,
      "▁oldug": 4048,
      "▁alması": 4049,
      "▁5.": 4050,
      "▁sar": 4051,
      "##leye": 4052,
      "▁yapıl": 4053,
      "##st": 4054,
      "▁ogrenci": 4055,
      "▁planın": 4056,
      "▁jose": 4057,
      "▁kesf": 4058,
      "▁seyrediyordu": 4059,
      "▁olmaz": 4060,
      "▁sanatcılar": 4061,
      "▁da": 4062,
      "▁comp": 4063,
      "▁volkan": 4064,
      "▁ozenle": 4065,
      "▁olusturdu": 4066,
      "▁indirdi": 4067,
      "##ıldı": 4068,
      "▁karsıtı": 4069,
      "▁yolunda": 4070,
      "▁canını": 4071,
      "▁olen": 4072,
      "▁satısların": 4073,
      "▁olayda": 4074,
      "▁zapt": 4075,
      "▁asgar": 4076,
      "▁kutur": 4077,
      "▁dek": 4078,
      "▁sebebi": 4079,
      "▁sırf": 4080,
      "▁gorusemedik": 4081,
      "▁aglamaya": 4082,
      "##-b": 4083,
      "▁bizden": 4084,
      "##gal": 4085,
      "▁savunuyor": 4086,
      "▁yonde": 4087,
      "▁koruk": 4088,
      "▁dumduz": 4089,
      "▁toronto": 4090,
      "▁12000": 4091,
      "t": 4092,
      "▁fuz": 4093,
      "▁oburleri": 4094,
      "▁2659.22": 4095,
      "##boy": 4096,
      "▁750": 4097,
      "##trust": 4098,
      "▁trak": 4099,
      "▁klima": 4100,
      "##aba": 4101,
      "▁etmey": 4102,
      "▁alan": 4103,
      "▁karsiladi": 4104,
      "▁ipot": 4105,
      "▁beach'a": 4106,
      "▁agaca": 4107,
      "▁raf": 4108,
      "▁kutuk": 4109,
      "##iyel": 4110,
      "▁dikkat": 4111,
      "▁gelince": 4112,
      "▁dir": 4113,
      "▁cenaze": 4114,
      "▁alakaliydi": 4115,
      "▁b.a.": 4116,
      "▁chev": 4117,
      "▁arbitraj": 4118,
      "▁nag": 4119,
      "▁kaps": 4120,
      "▁oyna": 4121,
      "▁musterek": 4122,
      "▁yonlendir": 4123,
      "▁gezin": 4124,
      "▁hastalı": 4125,
      "▁katip": 4126,
      "▁kocasını": 4127,
      "▁olmasını": 4128,
      "▁beyef": 4129,
      "##way": 4130,
      "##rol": 4131,
      "▁profesor": 4132,
      "▁yuzd": 4133,
      "##emizde": 4134,
      "▁ufuk": 4135,
      "▁yadig": 4136,
      "▁omer": 4137,
      "▁subv": 4138,
      "▁karab": 4139,
      "▁baslardı": 4140,
      "▁tasım": 4141,
      "▁ucuyor": 4142,
      "▁basbak": 4143,
      "##.3": 4144,
      "▁coz": 4145,
      "▁soyledik": 4146,
      "▁urun": 4147,
      "▁guzel": 4148,
      "##leriyle": 4149,
      "##sim": 4150,
      "▁ani": 4151,
      "▁evini": 4152,
      "##0.1": 4153,
      "▁odalarin": 4154,
      "▁madde": 4155,
      "##g": 4156,
      "▁gund": 4157,
      "##land": 4158,
      "##'ta": 4159,
      "▁leri": 4160,
      "▁bang": 4161,
      "▁yuzum": 4162,
      "##madi": 4163,
      "##tay": 4164,
      "▁yaglı": 4165,
      "▁368": 4166,
      "▁25.96": 4167,
      "▁kalkmıs": 4168,
      "▁katilmak": 4169,
      "▁750000": 4170,
      "▁muhtelif": 4171,
      "▁istik": 4172,
      "▁otuz": 4173,
      "##daki": 4174,
      "▁kec": 4175,
      "▁yapardı": 4176,
      "##ital": 4177,
      "▁niyet": 4178,
      "▁yetki": 4179,
      "▁tal": 4180,
      "▁tavla": 4181,
      "▁talim": 4182,
      "▁sebep": 4183,
      "▁oysa": 4184,
      "▁taahhut": 4185,
      "▁karsılıklı": 4186,
      "##cog": 4187,
      "▁sectik": 4188,
      "▁iliskin": 4189,
      "##die": 4190,
      "▁personel": 4191,
      "▁oranlarını": 4192,
      "##kur": 4193,
      "##dim": 4194,
      "##ustral": 4195,
      "##pa": 4196,
      "##'yı": 4197,
      "▁merdiven": 4198,
      "▁havlu": 4199,
      "▁tatb": 4200,
      "##4.3": 4201,
      "▁karısının": 4202,
      "▁olar": 4203,
      "▁ını": 4204,
      "▁ucum": 4205,
      "▁selam": 4206,
      "▁bazilari": 4207,
      "##alarına": 4208,
      "##deri": 4209,
      "▁pren": 4210,
      "▁gelmesi": 4211,
      "▁bakıp": 4212,
      "▁otelden": 4213,
      "##'ndan": 4214,
      "▁beri": 4215,
      "▁123": 4216,
      "##leniyor": 4217,
      "▁cocukların": 4218,
      "##ney": 4219,
      "##yanın": 4220,
      "▁dog": 4221,
      "##asın": 4222,
      "##ıver": 4223,
      "##ecegin": 4224,
      "▁parca": 4225,
      "▁3.16": 4226,
      "▁kesmis": 4227,
      "▁mahf": 4228,
      "▁budur": 4229,
      "▁ustesinden": 4230,
      "▁kadın": 4231,
      "▁musterilere": 4232,
      "▁coluk": 4233,
      "▁guzelim": 4234,
      "▁buyumus": 4235,
      "##.23": 4236,
      "▁cihaz": 4237,
      "▁degilim": 4238,
      "▁verdigini": 4239,
      "▁zaf": 4240,
      "▁duygusal": 4241,
      "##ilya": 4242,
      "▁260": 4243,
      "##adına": 4244,
      "▁22-23": 4245,
      "##isle": 4246,
      "▁corp'un": 4247,
      "▁dedikleri": 4248,
      "▁demeye": 4249,
      "▁kapısında": 4250,
      "▁has": 4251,
      "▁bilimi": 4252,
      "▁gerekir": 4253,
      "##ınıyor": 4254,
      "▁zahmet": 4255,
      "▁best": 4256,
      "▁duru": 4257,
      "##ilerde": 4258,
      "##as'ın": 4259,
      "▁end": 4260,
      "##.02": 4261,
      "##lerinden": 4262,
      "▁beni": 4263,
      "▁ekonomi": 4264,
      "▁bira": 4265,
      "▁lezzet": 4266,
      "▁mudahal": 4267,
      "▁hemen": 4268,
      "##eis": 4269,
      "▁kategor": 4270,
      "##-p": 4271,
      "▁yuzunden": 4272,
      "▁alaka": 4273,
      "▁hissediyor": 4274,
      "##dıgım": 4275,
      "##ft": 4276,
      "▁yumurta": 4277,
      "##0.000": 4278,
      "##ulmamıs": 4279,
      "▁sorumlu": 4280,
      "▁icimi": 4281,
      "▁tecrub": 4282,
      ",": 4283,
      "▁sahiptir": 4284,
      "##dikce": 4285,
      "▁degisir": 4286,
      "##sis": 4287,
      "▁zay": 4288,
      "▁70": 4289,
      "##irdi": 4290,
      "▁kendinize": 4291,
      "▁had": 4292,
      "##viri": 4293,
      "▁baskaldır": 4294,
      "##larak": 4295,
      "▁basrol": 4296,
      "▁programın": 4297,
      "##at": 4298,
      "▁aldıgı": 4299,
      "▁kagıtları": 4300,
      "##irmi": 4301,
      "▁60": 4302,
      "##.ceyrek": 4303,
      "##nik": 4304,
      "##yaları": 4305,
      "▁tekstil": 4306,
      "##'ni": 4307,
      "##a'nın": 4308,
      "▁neb": 4309,
      "▁ısıklı": 4310,
      "▁200000": 4311,
      "▁mit": 4312,
      "##delen": 4313,
      "▁bastı": 4314,
      "▁durak": 4315,
      "▁yuzunu": 4316,
      "##ingen": 4317,
      "##adar": 4318,
      "▁etmekte": 4319,
      "▁ıslak": 4320,
      "▁saatlerdeki": 4321,
      "▁`": 4322,
      "▁satısın": 4323,
      "▁hırsız": 4324,
      "##te": 4325,
      "▁chicago'dan": 4326,
      "▁hoc": 4327,
      "▁tı": 4328,
      "##eri": 4329,
      "▁sandaly": 4330,
      "##osu": 4331,
      "▁sep": 4332,
      "▁pro": 4333,
      "▁guncel": 4334,
      "▁rec": 4335,
      "▁metr": 4336,
      "▁vucud": 4337,
      "▁programını": 4338,
      "▁planlama": 4339,
      "▁bakıyordu": 4340,
      "▁kıbrıs": 4341,
      "▁beyn": 4342,
      "##digimi": 4343,
      "▁denli": 4344,
      "▁okurdu": 4345,
      "▁dokulen": 4346,
      "▁dogu": 4347,
      "▁yemek": 4348,
      "▁gelmis": 4349,
      "▁yukselen": 4350,
      "▁getirdiler": 4351,
      "##ıntıları": 4352,
      "▁yepyeni": 4353,
      "▁morgan": 4354,
      "▁slog": 4355,
      "▁kabiliyet": 4356,
      "▁denizde": 4357,
      "##.79": 4358,
      "▁kendisinden": 4359,
      "##egi": 4360,
      "▁irf": 4361,
      "##enin": 4362,
      "▁kullanıl": 4363,
      "##ıcık": 4364,
      "▁uzaga": 4365,
      "▁bek": 4366,
      "▁bush'un": 4367,
      "▁lokant": 4368,
      "▁doksaniki": 4369,
      "##cilerin": 4370,
      "▁lloyd": 4371,
      "##inip": 4372,
      "##madigim": 4373,
      "▁dolardı": 4374,
      "▁8.1": 4375,
      "▁farklılık": 4376,
      "▁ilc": 4377,
      "▁zorluyor": 4378,
      "▁hukmu": 4379,
      "▁apple": 4380,
      "▁macta": 4381,
      "▁sıkıntısı": 4382,
      "▁kusat": 4383,
      "▁agustos": 4384,
      "▁ortaydi": 4385,
      "▁sozlesme": 4386,
      "##amadı": 4387,
      "▁imis": 4388,
      "▁yatırımcı": 4389,
      "##rily": 4390,
      "##om": 4391,
      "▁yım": 4392,
      "▁oglan": 4393,
      "▁ass": 4394,
      "▁gorbacov": 4395,
      "▁kayda": 4396,
      "▁girdim": 4397,
      "##batı": 4398,
      "▁muhatap": 4399,
      "▁alet": 4400,
      "▁karsilas": 4401,
      "##.96": 4402,
      "##asındaki": 4403,
      "##5.": 4404,
      "▁g": 4405,
      "##ye": 4406,
      "▁ustun": 4407,
      "▁turizm": 4408,
      "▁gorusmeler": 4409,
      "▁425000": 4410,
      "▁malı": 4411,
      "##amamıs": 4412,
      "▁hong": 4413,
      "▁actılar": 4414,
      "▁yengec": 4415,
      "▁kabin": 4416,
      "▁li": 4417,
      "##ılıp": 4418,
      "▁aldim": 4419,
      "▁otellerin": 4420,
      "##ilip": 4421,
      "▁ero": 4422,
      "▁baslarında": 4423,
      "▁odenmemis": 4424,
      "▁tetkik": 4425,
      "##se": 4426,
      "▁oldugunda": 4427,
      "▁iskele": 4428,
      "▁arn": 4429,
      "▁patr": 4430,
      "▁analist": 4431,
      "▁bunlara": 4432,
      "##lig": 4433,
      "##la": 4434,
      "▁guney": 4435,
      "▁varil": 4436,
      "▁depremden": 4437,
      "▁veren": 4438,
      "##?": 4439,
      "▁did": 4440,
      "▁aldıkları": 4441,
      "▁eglence": 4442,
      "▁evli": 4443,
      "▁leblebi": 4444,
      "▁yalnızca": 4445,
      "▁olmayabilir": 4446,
      "##ton": 4447,
      "▁algı": 4448,
      "##ıslı": 4449,
      "▁zayıf": 4450,
      "▁bazen": 4451,
      "▁,": 4452,
      "▁borsası": 4453,
      "▁patlat": 4454,
      "##isten": 4455,
      "▁kaval": 4456,
      "##47": 4457,
      "▁suyunu": 4458,
      "▁gorunt": 4459,
      "##mıssın": 4460,
      "▁kendiniz": 4461,
      "▁uykuya": 4462,
      "▁maruz": 4463,
      "##ass": 4464,
      "▁meraklı": 4465,
      "▁mutsuz": 4466,
      "▁engelleri": 4467,
      "▁unsuru": 4468,
      "▁ker": 4469,
      "▁tık": 4470,
      "▁york'a": 4471,
      "##kei": 4472,
      "##ities": 4473,
      "▁yetkisi": 4474,
      "▁an": 4475,
      "##tia": 4476,
      "▁okul": 4477,
      "##26": 4478,
      "▁olusuyor": 4479,
      "▁simdi": 4480,
      "▁sevin": 4481,
      "▁tuttugu": 4482,
      "▁ayaz": 4483,
      "##ek": 4484,
      "▁madd": 4485,
      "##mez": 4486,
      "▁barın": 4487,
      "▁etrafı": 4488,
      "▁satısı": 4489,
      "▁50000": 4490,
      "▁amerikan": 4491,
      "▁surec": 4492,
      "▁buk": 4493,
      "▁miydik": 4494,
      "▁78": 4495,
      "##met": 4496,
      "##meyi": 4497,
      "▁kullandim": 4498,
      "▁otomobil": 4499,
      "▁yazılım": 4500,
      "▁inanır": 4501,
      "▁onunden": 4502,
      "▁korkuyor": 4503,
      "▁tesir": 4504,
      "▁hud": 4505,
      "▁1.9": 4506,
      "##ildi": 4507,
      "▁gittigi": 4508,
      "▁tablo": 4509,
      "▁kanadı": 4510,
      "▁oner": 4511,
      "▁ucretin": 4512,
      "▁diniz": 4513,
      "##emedi": 4514,
      "▁almıstım": 4515,
      "▁sonucları": 4516,
      "▁kinde": 4517,
      "▁yıldız": 4518,
      "##luy": 4519,
      "▁kullanma": 4520,
      "▁ab'ye": 4521,
      "▁muht": 4522,
      "▁animator": 4523,
      "▁448": 4524,
      "▁otele": 4525,
      "##memis": 4526,
      "##may": 4527,
      "▁olabil": 4528,
      "▁islemlerini": 4529,
      "▁duzenley": 4530,
      "##ayıcı": 4531,
      "▁yakis": 4532,
      "▁22.": 4533,
      "▁calısma": 4534,
      "▁seydir": 4535,
      "▁uzgun": 4536,
      "▁aktif": 4537,
      "▁baltimore'den": 4538,
      "▁sozde": 4539,
      "▁fasulye": 4540,
      "##lenmesi": 4541,
      "▁muzaker": 4542,
      "▁adnan": 4543,
      "▁geleni": 4544,
      "▁pitt": 4545,
      "▁orası": 4546,
      "##dukları": 4547,
      "##ayacak": 4548,
      "##imi": 4549,
      "▁karsılıgında": 4550,
      "##digini": 4551,
      "▁but": 4552,
      "##unce": 4553,
      "▁itibari": 4554,
      "▁1.58": 4555,
      "▁omzuna": 4556,
      "▁joseph": 4557,
      "▁ayrılır": 4558,
      "▁hel": 4559,
      "##dogu": 4560,
      "▁izlemek": 4561,
      "▁dayan": 4562,
      "##mes": 4563,
      "##lem": 4564,
      "▁profes": 4565,
      "##esip": 4566,
      "▁mıs": 4567,
      "▁91/2": 4568,
      "##usetts": 4569,
      "##ale": 4570,
      "▁boynuna": 4571,
      "▁takdir": 4572,
      "▁dondum": 4573,
      "▁po": 4574,
      "##dız": 4575,
      "”": 4576,
      "▁katıldı": 4577,
      "▁dayanıklı": 4578,
      "▁indian": 4579,
      "▁hindistan": 4580,
      "▁prosed": 4581,
      "▁kurulus": 4582,
      "▁pesinde": 4583,
      "▁hisse": 4584,
      "▁zaten": 4585,
      "▁konusma": 4586,
      "▁tarzı": 4587,
      "##etin": 4588,
      "▁bekliyorlar": 4589,
      "▁fısıl": 4590,
      "▁tepeden": 4591,
      "##tıgım": 4592,
      "▁120": 4593,
      "▁iddi": 4594,
      "▁yukseldi": 4595,
      "▁zevk": 4596,
      "▁hepimizi": 4597,
      "##ayım": 4598,
      "4": 4599,
      "##-4": 4600,
      "##ilige": 4601,
      "##elendir": 4602,
      "▁n.": 4603,
      "##umus": 4604,
      "▁bası": 4605,
      "▁hurr": 4606,
      "##umda": 4607,
      "▁yeng": 4608,
      "▁gam": 4609,
      "▁chat": 4610,
      "▁yeme": 4611,
      "▁baslar": 4612,
      "##sınız": 4613,
      "▁konuyu": 4614,
      "▁donemlerde": 4615,
      "▁1.8": 4616,
      "▁ideolojik": 4617,
      "▁gule": 4618,
      "##ew": 4619,
      "▁el": 4620,
      "▁katıl": 4621,
      "▁depr": 4622,
      "▁gıc": 4623,
      "▁ilave": 4624,
      "▁katılım": 4625,
      "##abilirdim": 4626,
      "▁suradan": 4627,
      "▁talep": 4628,
      "▁gorundugu": 4629,
      "▁girince": 4630,
      "##ızı": 4631,
      "##alarının": 4632,
      "▁islerinde": 4633,
      "▁bulut": 4634,
      "▁orani": 4635,
      "▁calıstı": 4636,
      "▁975": 4637,
      "▁ytl": 4638,
      "##gumuz": 4639,
      "▁geceler": 4640,
      "▁oyunun": 4641,
      "▁vet": 4642,
      "▁tutulan": 4643,
      "##'lı": 4644,
      "▁mesg": 4645,
      "▁baktım": 4646,
      "▁ticaretinde": 4647,
      "▁civarı": 4648,
      "▁0.95": 4649,
      "▁tesvik": 4650,
      "▁kullanılır": 4651,
      "▁alıyorlar": 4652,
      "▁varlıgı": 4653,
      "▁47": 4654,
      "▁yonelikti": 4655,
      "▁gelene": 4656,
      "▁hakikat": 4657,
      "▁eti": 4658,
      "##lım": 4659,
      "▁ant": 4660,
      "▁degistirmek": 4661,
      "▁jones": 4662,
      "▁1.5820": 4663,
      "▁yumurt": 4664,
      "▁kacır": 4665,
      "▁etik": 4666,
      "▁ob": 4667,
      "▁aram": 4668,
      "▁kesif": 4669,
      "▁240": 4670,
      "▁omur": 4671,
      "▁ıs": 4672,
      "▁sof": 4673,
      "▁islere": 4674,
      "▁yaban": 4675,
      "▁mezar": 4676,
      "##ik": 4677,
      "▁musteriler": 4678,
      "▁kaynar": 4679,
      "▁suretiyle": 4680,
      "▁planının": 4681,
      "##esinde": 4682,
      "▁edilmektedir": 4683,
      "▁ne": 4684,
      "▁bekleniyordu": 4685,
      "▁518": 4686,
      "▁isaretleri": 4687,
      "##0'": 4688,
      "▁anlamı": 4689,
      "▁haftada": 4690,
      "##ildigini": 4691,
      "▁ymıs": 4692,
      "▁sınıf": 4693,
      "▁karıstırın": 4694,
      "▁fon": 4695,
      "##bal": 4696,
      "▁bakma": 4697,
      "▁belirten": 4698,
      "▁aynada": 4699,
      "▁worth'da": 4700,
      "▁emperyal": 4701,
      "▁insana": 4702,
      "▁kuvvetleri": 4703,
      "▁samimi": 4704,
      "▁kulturu": 4705,
      "▁veril": 4706,
      "▁sistemini": 4707,
      "##ladıkları": 4708,
      "▁suph": 4709,
      "▁2": 4710,
      "▁kullanmaya": 4711,
      "▁memnuniyet": 4712,
      "▁rus": 4713,
      "▁mahmut": 4714,
      "##abiliriz": 4715,
      "▁helmsley": 4716,
      "▁kagıt": 4717,
      "▁inkıl": 4718,
      "##lıklarını": 4719,
      "▁pal": 4720,
      "▁konusmayı": 4721,
      "##lası": 4722,
      "##de": 4723,
      "▁dusunce": 4724,
      "▁re": 4725,
      "▁cesit": 4726,
      "▁sahane": 4727,
      "▁ucurt": 4728,
      "▁tiyatro": 4729,
      "##abildi": 4730,
      "▁cekildi": 4731,
      "##ilen": 4732,
      "##elli": 4733,
      "▁surecinin": 4734,
      "▁gurur": 4735,
      "▁sef": 4736,
      "##mesi": 4737,
      "▁bankaların": 4738,
      "▁ortaklıgı": 4739,
      "▁spor": 4740,
      "▁yasarken": 4741,
      "##id": 4742,
      "▁nut": 4743,
      "##ekul": 4744,
      "##48": 4745,
      "▁burbank'a": 4746,
      "▁tutuldu": 4747,
      "▁doktorlar": 4748,
      "▁tayyip": 4749,
      "▁soyledim": 4750,
      "▁haberdar": 4751,
      "▁direktoru": 4752,
      "▁olabilirler": 4753,
      "##lerimin": 4754,
      "▁emrah": 4755,
      "##malarına": 4756,
      "▁piyas": 4757,
      "▁inc.": 4758,
      "▁etmiyor": 4759,
      "▁canlan": 4760,
      "▁belirt": 4761,
      "##esinin": 4762,
      "▁sonuclar": 4763,
      "##ner": 4764,
      "▁hepimizin": 4765,
      "▁duran": 4766,
      "▁730": 4767,
      "▁sorgul": 4768,
      "##4.4": 4769,
      "##edik": 4770,
      "##ındak": 4771,
      "##holm": 4772,
      "##lerindeki": 4773,
      "##del": 4774,
      "▁ortalaması": 4775,
      "▁hayv": 4776,
      "##emiyordu": 4777,
      "▁dekor": 4778,
      "▁civarında": 4779,
      "##elerde": 4780,
      "▁arar": 4781,
      "▁neresinde": 4782,
      "▁1949": 4783,
      "▁tesise": 4784,
      "▁kırım": 4785,
      "▁kapıyı": 4786,
      "▁harcam": 4787,
      "▁kazanan": 4788,
      "▁tekn": 4789,
      "▁3.8": 4790,
      "▁nesnel": 4791,
      "▁yılın": 4792,
      "##une": 4793,
      "▁cent": 4794,
      "▁genelinde": 4795,
      "▁kaydet": 4796,
      "▁etmek": 4797,
      "▁cesme": 4798,
      "▁mater": 4799,
      "▁duman": 4800,
      "▁securities": 4801,
      "##izi": 4802,
      "▁tedavi": 4803,
      "▁kez": 4804,
      "▁9.81": 4805,
      "▁herhalde": 4806,
      "▁saclarının": 4807,
      "▁bahce": 4808,
      "▁yararlan": 4809,
      "##.68": 4810,
      "▁saatchi": 4811,
      "▁sinemaya": 4812,
      "##sch": 4813,
      "▁hort": 4814,
      "▁bakımından": 4815,
      "▁dob": 4816,
      "▁perde": 4817,
      "▁dunyada": 4818,
      "▁konusan": 4819,
      "##aclı": 4820,
      "##liye": 4821,
      "##ut": 4822,
      "##dirdi": 4823,
      "▁baglamıs": 4824,
      "##7'de": 4825,
      "▁erz": 4826,
      "##6.6": 4827,
      "▁kaf": 4828,
      "▁iceriyor": 4829,
      "▁ilgililerdi": 4830,
      "▁angeles'ten": 4831,
      "▁miras": 4832,
      "##hen": 4833,
      "##.71": 4834,
      "▁kurmak": 4835,
      "▁hırs": 4836,
      "▁baskal": 4837,
      "##ler'in": 4838,
      "▁davet": 4839,
      "▁saniye": 4840,
      "▁solgun": 4841,
      "▁plak": 4842,
      "▁antren": 4843,
      "▁hisseleri": 4844,
      "▁yiyor": 4845,
      "##casına": 4846,
      "▁canadian": 4847,
      "▁reklam": 4848,
      "▁81": 4849,
      "##gılan": 4850,
      "##fa": 4851,
      "▁co": 4852,
      "##mezdi": 4853,
      "▁girisim": 4854,
      "▁7.98": 4855,
      "▁altındaki": 4856,
      "▁kullanıcı": 4857,
      "▁kalan": 4858,
      "▁charl": 4859,
      "▁bilgiler": 4860,
      "##ron": 4861,
      "▁nasda": 4862,
      "##amayacak": 4863,
      "##temiz": 4864,
      "▁atmosfer": 4865,
      "▁yeterli": 4866,
      "▁deli": 4867,
      "▁bunyesinde": 4868,
      "##ltı": 4869,
      "▁166": 4870,
      "▁idari": 4871,
      "▁\"": 4872,
      "▁yazısı": 4873,
      "▁parmakları": 4874,
      "▁kapısının": 4875,
      "▁85": 4876,
      "▁belirlenen": 4877,
      "▁durusma": 4878,
      "▁tuk": 4879,
      "▁gitmek": 4880,
      "▁halen": 4881,
      "▁hastaneye": 4882,
      "▁devrimci": 4883,
      "▁etleri": 4884,
      "▁hayatı": 4885,
      "▁yalnız": 4886,
      "##imini": 4887,
      "▁dogrudan": 4888,
      "▁avuk": 4889,
      "▁mesaf": 4890,
      "▁akar": 4891,
      "▁650": 4892,
      "▁ayna": 4893,
      "▁ti": 4894,
      "▁sunul": 4895,
      "▁266": 4896,
      "##ılarak": 4897,
      "▁bat": 4898,
      "##ılım": 4899,
      "▁atıyordu": 4900,
      "▁vegas": 4901,
      "▁editoru": 4902,
      "▁gitgide": 4903,
      "▁corb": 4904,
      "▁onda": 4905,
      "##egimiz": 4906,
      "▁senede": 4907,
      "▁kemer": 4908,
      "▁aylarda": 4909,
      "▁soylemedi": 4910,
      "▁konusunda": 4911,
      "##3.5": 4912,
      "▁problem": 4913,
      "▁guvenlik": 4914,
      "▁ley": 4915,
      "▁1983": 4916,
      "##asyon": 4917,
      "▁star": 4918,
      "▁keser": 4919,
      "▁havuz": 4920,
      "▁saz": 4921,
      "##sk": 4922,
      "▁fazl": 4923,
      "▁santim": 4924,
      "▁hatırlam": 4925,
      "▁boyuna": 4926,
      "▁besi": 4927,
      "▁sifir": 4928,
      "##acagı": 4929,
      "##eveyn": 4930,
      "##mun": 4931,
      "▁denver'e": 4932,
      "▁kendinden": 4933,
      "▁gosterirler": 4934,
      "▁olduktan": 4935,
      "▁istedigimi": 4936,
      "##okr": 4937,
      "▁ortalık": 4938,
      "##estr": 4939,
      "##nda": 4940,
      "▁bakın": 4941,
      "▁romanı": 4942,
      "##9.8": 4943,
      "▁kısm": 4944,
      "▁donen": 4945,
      "##ka": 4946,
      "##istik": 4947,
      "▁22.8": 4948,
      "##.33": 4949,
      "##ıklar": 4950,
      "▁ret": 4951,
      "▁hazırlan": 4952,
      "##eliyim": 4953,
      "▁isareti": 4954,
      "▁binbir": 4955,
      "▁sefer": 4956,
      "▁olabilecegini": 4957,
      "##liyordu": 4958,
      "▁ruz": 4959,
      "▁takımı": 4960,
      "▁boeing": 4961,
      "▁ba": 4962,
      "▁0.4": 4963,
      "##orld": 4964,
      "▁anlıslanabilirlik": 4965,
      "##mesin": 4966,
      "▁yont": 4967,
      "▁gorunce": 4968,
      "▁baslangıc": 4969,
      "▁benden": 4970,
      "##fik": 4971,
      "▁aki": 4972,
      "▁v": 4973,
      "##irken": 4974,
      "▁nihai": 4975,
      "▁kullanılacak": 4976,
      "▁kavg": 4977,
      "▁kuruldu": 4978,
      "▁ii": 4979,
      "▁post": 4980,
      "##ayan": 4981,
      "▁diken": 4982,
      "▁mesajı": 4983,
      "▁ark": 4984,
      "##anları": 4985,
      "##sin": 4986,
      "▁baktıg": 4987,
      "▁zab": 4988,
      "▁%3": 4989,
      "▁kendilerine": 4990,
      "▁faktor": 4991,
      "▁duzine": 4992,
      "##ıkır": 4993,
      "▁agb": 4994,
      "▁kurdugu": 4995,
      "##ave": 4996,
      "▁saun": 4997,
      "▁8.98": 4998,
      "▁1967": 4999,
      "▁gold": 5000,
      "▁gok": 5001,
      "▁yeryuzunde": 5002,
      "▁eli": 5003,
      "▁ondan": 5004,
      "▁alamaz": 5005,
      "▁yıg": 5006,
      "▁dama": 5007,
      "▁almanya": 5008,
      "▁kalp": 5009,
      "▁dibinde": 5010,
      "▁dumanı": 5011,
      "▁yapılmıstır": 5012,
      "▁karabiber": 5013,
      "▁yerlerini": 5014,
      "▁odada": 5015,
      "##ator": 5016,
      "##xte": 5017,
      "▁sınır": 5018,
      "▁gormus": 5019,
      "▁mı": 5020,
      "▁geyik": 5021,
      "▁enf": 5022,
      "▁urper": 5023,
      "▁sustu": 5024,
      "▁patır": 5025,
      "▁getirdigi": 5026,
      "▁1.835": 5027,
      "▁hindistan'ın": 5028,
      "▁edecektir": 5029,
      "▁1994": 5030,
      "▁bilmiyoruz": 5031,
      "▁bi": 5032,
      "##.81": 5033,
      "▁hakan": 5034,
      "▁isletme": 5035,
      "##ray": 5036,
      "▁1.7": 5037,
      "▁hala": 5038,
      "##'yi": 5039,
      "▁isine": 5040,
      "▁miktarda": 5041,
      "▁9.7": 5042,
      "▁yatırımı": 5043,
      "▁keyf": 5044,
      "▁di": 5045,
      "▁cocuga": 5046,
      "▁dolastır": 5047,
      "▁karasu": 5048,
      "▁yucel": 5049,
      "▁say": 5050,
      "▁ucsuz": 5051,
      "▁35587.85": 5052,
      "##in": 5053,
      "##ibet": 5054,
      "▁2662.91": 5055,
      "▁24": 5056,
      "▁getiriyor": 5057,
      "▁harcama": 5058,
      "▁mos": 5059,
      "▁gerceklesen": 5060,
      "▁lu": 5061,
      "▁tren": 5062,
      "##mayacagı": 5063,
      "▁oyun": 5064,
      "▁bilmek": 5065,
      "▁farklı": 5066,
      "▁olmadı": 5067,
      "▁dikkate": 5068,
      "▁iyimser": 5069,
      "##alıyor": 5070,
      "▁argum": 5071,
      "▁kay": 5072,
      "##ulmesi": 5073,
      "##isim": 5074,
      "▁bagr": 5075,
      "▁dısarı": 5076,
      "▁sezonu": 5077,
      "##uh": 5078,
      "▁oluyorlar": 5079,
      "▁yan": 5080,
      "▁balık": 5081,
      "##lemesine": 5082,
      "▁gogs": 5083,
      "▁cektim": 5084,
      "▁kıyas": 5085,
      "k": 5086,
      "▁host": 5087,
      "▁gecirdik": 5088,
      "▁sez": 5089,
      "▁gelsin": 5090,
      "▁basmak": 5091,
      "##:00-22:30": 5092,
      "▁ayrılıp": 5093,
      "▁ille": 5094,
      "##sizlik": 5095,
      "▁senedir": 5096,
      "▁saldırı": 5097,
      "▁mavi": 5098,
      "▁cıkarmıs": 5099,
      "##.38": 5100,
      "▁gelecekteki": 5101,
      "▁9.88": 5102,
      "▁atılmıs": 5103,
      "##attı": 5104,
      "##sey": 5105,
      "▁sahis": 5106,
      "▁225": 5107,
      "▁kisiden": 5108,
      "▁yılından": 5109,
      "▁ogle": 5110,
      "##ulebilir": 5111,
      "##alama": 5112,
      "▁erdi": 5113,
      "▁yatırımcının": 5114,
      "▁sapka": 5115,
      "▁si": 5116,
      "▁abc": 5117,
      "▁mecmu": 5118,
      "▁thomas": 5119,
      "▁ekonominin": 5120,
      "▁rahatsız": 5121,
      "▁gitmedi": 5122,
      "##adı": 5123,
      "##adu": 5124,
      "▁kambiyo": 5125,
      "▁cıplak": 5126,
      "▁coc": 5127,
      "▁oakland": 5128,
      "▁ekip": 5129,
      "▁anlatmak": 5130,
      "▁yetkili": 5131,
      "▁bildik": 5132,
      "▁uyum": 5133,
      "▁haps": 5134,
      "▁okulda": 5135,
      "▁ydınız": 5136,
      "▁besyuzelli": 5137,
      "▁ydık": 5138,
      "▁niyetinde": 5139,
      "▁erdogan'ın": 5140,
      "##uyle": 5141,
      "▁ol": 5142,
      "▁konut": 5143,
      "▁burnun": 5144,
      "▁hesaba": 5145,
      "##er'in": 5146,
      "▁girmek": 5147,
      "▁kiralık": 5148,
      "▁havaya": 5149,
      "##muz": 5150,
      "▁em": 5151,
      "▁california'ya": 5152,
      "▁sıkıl": 5153,
      "▁sekiz": 5154,
      "##125": 5155,
      "▁felsefe": 5156,
      "##ılıga": 5157,
      "##mıyordu": 5158,
      "##9'dan": 5159,
      "▁muamele": 5160,
      "▁kapladı": 5161,
      "##m": 5162,
      "##lemek": 5163,
      "▁genclik": 5164,
      "▁yenilg": 5165,
      "▁arttı": 5166,
      "▁dokuz": 5167,
      "▁kimisi": 5168,
      "▁aktiviteler": 5169,
      "##unca": 5170,
      "▁ozen": 5171,
      "▁borsası'nda": 5172,
      "##iyorsunuz": 5173,
      "▁geril": 5174,
      "▁gelisi": 5175,
      "▁saglık": 5176,
      "▁ortaya": 5177,
      "##ment": 5178,
      "▁orgu": 5179,
      "▁ataturk": 5180,
      "##,000": 5181,
      "▁harıl": 5182,
      "▁yt": 5183,
      "▁serhat": 5184,
      "##likti": 5185,
      "##uruz": 5186,
      "▁yasin": 5187,
      "▁2.1": 5188,
      "▁52.75": 5189,
      "u": 5190,
      "##endir": 5191,
      "▁7.2": 5192,
      "▁yapalım": 5193,
      "▁kullandıkları": 5194,
      "▁gitti": 5195,
      "h": 5196,
      "▁kurek": 5197,
      "##.55": 5198,
      "▁olduguna": 5199,
      "▁rica": 5200,
      "##of": 5201,
      "▁firmaları": 5202,
      "▁dille": 5203,
      "▁hicbirinin": 5204,
      "▁dolasıyor": 5205,
      "▁sebeb": 5206,
      "▁istemez": 5207,
      "▁uzakta": 5208,
      "▁harik": 5209,
      "▁959.3": 5210,
      "▁ettik": 5211,
      "▁umit": 5212,
      "▁uy": 5213,
      "▁sevdigim": 5214,
      "▁balk": 5215,
      "##estir": 5216,
      "▁kafasına": 5217,
      "▁gecerek": 5218,
      "▁ergen": 5219,
      "##lesiyor": 5220,
      "▁kemal'in": 5221,
      "▁ondokuz": 5222,
      "▁yel": 5223,
      "▁okumak": 5224,
      "▁1995'te": 5225,
      "▁baykal": 5226,
      "▁gununde": 5227,
      "▁kotu": 5228,
      "▁canak": 5229,
      "▁suy": 5230,
      "▁camur": 5231,
      "▁bekledi": 5232,
      "▁teknede": 5233,
      "▁guclendir": 5234,
      "▁fig": 5235,
      "▁baglilik": 5236,
      "▁arada": 5237,
      "▁or": 5238,
      "▁armut": 5239,
      "##organ": 5240,
      "▁razı": 5241,
      "▁kag": 5242,
      "▁buro": 5243,
      "##y": 5244,
      "▁dul": 5245,
      "▁kızının": 5246,
      "##ford": 5247,
      "▁teker": 5248,
      "▁marj": 5249,
      "▁kacın": 5250,
      "▁yavasca": 5251,
      "▁09:": 5252,
      "▁x": 5253,
      "▁kanaat": 5254,
      "▁kredileri": 5255,
      "▁dalar": 5256,
      "▁ailelere": 5257,
      "##lav": 5258,
      "▁elli": 5259,
      "##oc": 5260,
      "▁temizliginden": 5261,
      "▁calısmaları": 5262,
      "##kelam": 5263,
      "##ukee": 5264,
      "▁fiyatını": 5265,
      "▁h": 5266,
      "▁olmayan": 5267,
      "▁evren": 5268,
      "▁ala": 5269,
      "▁sahipleri": 5270,
      "▁164830000": 5271,
      "▁etki": 5272,
      "▁bono": 5273,
      "▁fas": 5274,
      "▁kongr": 5275,
      "##kanın": 5276,
      "▁tarihte": 5277,
      "##seler": 5278,
      "##yirmi": 5279,
      "▁tıbbi": 5280,
      "##92": 5281,
      "##inin": 5282,
      "##laya": 5283,
      "▁mutem": 5284,
      "▁acem": 5285,
      "▁acisindan": 5286,
      "▁bacak": 5287,
      "##avuk": 5288,
      "##her": 5289,
      "▁belcika": 5290,
      "▁sahn": 5291,
      "▁islemlerde": 5292,
      "▁etkileyici": 5293,
      "▁kızlar": 5294,
      "▁hug": 5295,
      "▁kala": 5296,
      "##cal": 5297,
      "▁12'den": 5298,
      "▁matba": 5299,
      "▁huzur": 5300,
      "▁oteden": 5301,
      "▁yasıyoruz": 5302,
      "##orth": 5303,
      "▁gelmez": 5304,
      "▁terbiye": 5305,
      "▁kaybederek": 5306,
      "▁250000": 5307,
      "##ılma": 5308,
      "▁degerlendirme": 5309,
      "▁12.6": 5310,
      "▁mixte": 5311,
      "▁idi": 5312,
      "▁avcı": 5313,
      "##ag": 5314,
      "▁iscileri": 5315,
      "▁cocuklarına": 5316,
      "▁belinde": 5317,
      "▁cirkin": 5318,
      "▁ders": 5319,
      "▁kisilik": 5320,
      "##lat": 5321,
      "▁banyosu": 5322,
      "▁etmeden": 5323,
      "▁acmaz": 5324,
      "▁dosy": 5325,
      "▁nesil": 5326,
      "▁devre": 5327,
      "▁cogunlugu": 5328,
      "▁murekk": 5329,
      "##eleyen": 5330,
      "▁rıhtım": 5331,
      "##akları": 5332,
      "▁teslim": 5333,
      "▁9.75": 5334,
      "##_": 5335,
      "▁savundu": 5336,
      "▁odası": 5337,
      "▁a.m": 5338,
      "▁kontrol": 5339,
      "▁bush": 5340,
      "▁esir": 5341,
      "▁kapasitesi": 5342,
      "▁sureli": 5343,
      "##imizle": 5344,
      "▁toplumsal": 5345,
      "▁satısını": 5346,
      "▁65": 5347,
      "▁semsiye": 5348,
      "▁rjr": 5349,
      "▁herkes": 5350,
      "▁215": 5351,
      "▁meseleyi": 5352,
      "##acak": 5353,
      "▁dogdu": 5354,
      "▁anad": 5355,
      "▁talebi": 5356,
      "▁ev": 5357,
      "▁siv": 5358,
      "▁ifade": 5359,
      "▁duy": 5360,
      "▁may": 5361,
      "▁oyleyse": 5362,
      "##inaydi": 5363,
      "▁lut": 5364,
      "▁uzerinde": 5365,
      "▁yapılanma": 5366,
      "▁yuk": 5367,
      "##lugunun": 5368,
      "##ing": 5369,
      "▁269": 5370,
      "▁muz": 5371,
      "##kb": 5372,
      "##malıdır": 5373,
      "▁kurulusu": 5374,
      "▁musta": 5375,
      "▁edilecek": 5376,
      "▁(": 5377,
      "▁milliyetci": 5378,
      "▁olan": 5379,
      "▁1": 5380,
      "▁randev": 5381,
      "▁gurultu": 5382,
      "▁yo": 5383,
      "▁tenha": 5384,
      "▁solda": 5385,
      "▁kasvet": 5386,
      "▁konuma": 5387,
      "▁univ": 5388,
      "▁nih": 5389,
      "##uk": 5390,
      "▁sorum": 5391,
      "▁dusuk": 5392,
      "▁karsılık": 5393,
      "##ısıyla": 5394,
      "##liklerini": 5395,
      "##cagız": 5396,
      "▁ucyuzyetmis": 5397,
      "▁birisi": 5398,
      "▁kaya": 5399,
      "##mu": 5400,
      "▁kusları": 5401,
      "##egiyle": 5402,
      "##y.": 5403,
      "##man'ın": 5404,
      "▁odeyecek": 5405,
      "##lesme": 5406,
      "##manın": 5407,
      "▁karıs": 5408,
      "▁padisah": 5409,
      "▁sogut": 5410,
      "▁suları": 5411,
      "▁izleri": 5412,
      "▁durdum": 5413,
      "▁kazanıyor": 5414,
      "▁day": 5415,
      "▁oturur": 5416,
      "▁kuk": 5417,
      "▁hayalet": 5418,
      "f": 5419,
      "▁gosteren": 5420,
      "▁arizona": 5421,
      "▁keten": 5422,
      "▁1.90": 5423,
      "##dilar": 5424,
      "▁vaktim": 5425,
      "▁komun": 5426,
      "▁sevdigi": 5427,
      "▁listeleyin": 5428,
      "▁kucucuk": 5429,
      "▁kabul": 5430,
      "▁yasındaki": 5431,
      "▁finansal": 5432,
      "▁uzakti": 5433,
      "▁yili": 5434,
      "##ener": 5435,
      "##edim": 5436,
      "▁ogretmeni": 5437,
      "##ıldım": 5438,
      "##adak": 5439,
      "▁israil": 5440,
      "▁sulu": 5441,
      "▁vız": 5442,
      "##ega'nın": 5443,
      "##arlık": 5444,
      "##eti": 5445,
      "##liyorum": 5446,
      "##eyrek": 5447,
      "▁kalmadim": 5448,
      "▁beach": 5449,
      "▁seviyesinden": 5450,
      "▁saatini": 5451,
      "▁asırı": 5452,
      "##bur": 5453,
      "▁pap": 5454,
      "▁rob": 5455,
      "▁zinc": 5456,
      "▁kodu": 5457,
      "▁kredilere": 5458,
      "##mesinin": 5459,
      "▁kaldıgını": 5460,
      "▁safh": 5461,
      "▁yoktur": 5462,
      "▁cemal": 5463,
      "▁william": 5464,
      "▁1.39": 5465,
      "▁yanlı": 5466,
      "▁okum": 5467,
      "▁tir": 5468,
      "##egen": 5469,
      "▁pros": 5470,
      "▁anlasmayı": 5471,
      "▁bircogu": 5472,
      "▁temizlikte": 5473,
      "▁od": 5474,
      "▁koydugu": 5475,
      "▁tor": 5476,
      "▁odayı": 5477,
      "▁urunler": 5478,
      "▁geriye": 5479,
      "##maca": 5480,
      "##1.9": 5481,
      "▁inc.'in": 5482,
      "##cası": 5483,
      "##ırdı": 5484,
      "▁savcılar": 5485,
      "▁cezalandır": 5486,
      "▁kavga": 5487,
      "##elerek": 5488,
      "##innati": 5489,
      "▁kızar": 5490,
      "▁dez": 5491,
      "▁ilk": 5492,
      "▁masayı": 5493,
      "▁tadima": 5494,
      "▁hasarı": 5495,
      "▁mevs": 5496,
      "##agu": 5497,
      "▁mahm": 5498,
      "▁meshur": 5499,
      "▁kaldırma": 5500,
      "▁2023": 5501,
      "▁teyz": 5502,
      "▁verici": 5503,
      "##abz": 5504,
      "▁ihtiyacım": 5505,
      "▁dugun": 5506,
      "▁..": 5507,
      "▁anlatan": 5508,
      "▁yumur": 5509,
      "▁klim": 5510,
      "▁anlamda": 5511,
      "▁erken": 5512,
      "▁cekiyordu": 5513,
      "▁mccaw": 5514,
      "▁459": 5515,
      "▁kullanıyor": 5516,
      "▁manev": 5517,
      "▁yapmakta": 5518,
      "▁wcr": 5519,
      "▁dai": 5520,
      "▁gec": 5521,
      "▁tasımacılıgı": 5522,
      "▁duyuyordu": 5523,
      "▁yarı": 5524,
      "▁kompleks": 5525,
      "▁hangisine": 5526,
      "▁yeri": 5527,
      "##elop": 5528,
      "▁gerektir": 5529,
      "▁sorunlarının": 5530,
      "▁daral": 5531,
      "##=": 5532,
      "▁gobek": 5533,
      "▁boynunda": 5534,
      "▁farkında": 5535,
      "##emezsin": 5536,
      "▁etsin": 5537,
      "##4": 5538,
      "▁birim": 5539,
      "▁delta'nın": 5540,
      "▁kub": 5541,
      "▁tapın": 5542,
      "##oniki": 5543,
      "▁asılmıs": 5544,
      "▁fikirleri": 5545,
      "##esi'nde": 5546,
      "▁91": 5547,
      "▁onların": 5548,
      "▁2683.20": 5549,
      "▁karadag": 5550,
      "##iyor": 5551,
      "▁1976": 5552,
      "▁indi": 5553,
      "▁10.3": 5554,
      "▁329": 5555,
      "##mistik": 5556,
      "▁tasf": 5557,
      "▁yuzde": 5558,
      "▁etmektedir": 5559,
      "##5'te": 5560,
      "▁durup": 5561,
      "##sunuz": 5562,
      "▁atlat": 5563,
      "▁kaldırılması": 5564,
      "##unu": 5565,
      "▁avustralya": 5566,
      "▁kredi": 5567,
      "▁buldum": 5568,
      "▁aks": 5569,
      "##.09": 5570,
      "▁tanrı": 5571,
      "▁aldat": 5572,
      "##anoz": 5573,
      "▁edilmis": 5574,
      "▁kopmus": 5575,
      "▁agzını": 5576,
      "▁isra": 5577,
      "▁274": 5578,
      "▁yerlerden": 5579,
      "##ihaz": 5580,
      "##sali": 5581,
      "▁zul": 5582,
      "▁kamuoy": 5583,
      "▁yeterliydi": 5584,
      "▁ste": 5585,
      "▁hakediyor": 5586,
      "▁yapmadı": 5587,
      "▁bildigi": 5588,
      "▁geregi": 5589,
      "▁1980": 5590,
      "▁gelistirme": 5591,
      "##lamaya": 5592,
      "##tırdı": 5593,
      "##isk": 5594,
      "##'yu": 5595,
      "##ladıgı": 5596,
      "▁havayollarında": 5597,
      "▁sokagı": 5598,
      "▁personelleri": 5599,
      "▁kalacak": 5600,
      "▁gelecekte": 5601,
      "▁seattle'den": 5602,
      "▁alakasi": 5603,
      "##65": 5604,
      "▁asa": 5605,
      "▁sears": 5606,
      "▁faaliyetinde": 5607,
      "##muyordu": 5608,
      "▁soba": 5609,
      "▁406": 5610,
      "▁anasının": 5611,
      "▁inerek": 5612,
      "▁giz": 5613,
      "▁koyuldu": 5614,
      "▁1\\/4": 5615,
      "▁onume": 5616,
      "▁dususle": 5617,
      "▁'dir": 5618,
      "▁esi": 5619,
      "▁haklı": 5620,
      "##madık": 5621,
      "##ilmemis": 5622,
      "▁mekaniz": 5623,
      "▁busbut": 5624,
      "▁sıc": 5625,
      "▁8": 5626,
      "▁%25": 5627,
      "▁simdilik": 5628,
      "##iri": 5629,
      "▁iptal": 5630,
      "▁okuma": 5631,
      "▁turunu": 5632,
      "▁40.1": 5633,
      "▁bitince": 5634,
      "▁key": 5635,
      "▁yavru": 5636,
      "▁evimizde": 5637,
      "▁mir": 5638,
      "##amadik": 5639,
      "▁0.9": 5640,
      "▁yollardan": 5641,
      "▁18.7": 5642,
      "▁ettiginde": 5643,
      "▁850": 5644,
      "▁karam": 5645,
      "##isindeki": 5646,
      "▁kacta": 5647,
      "▁yahudi": 5648,
      "▁gezdim": 5649,
      "▁deneme": 5650,
      "▁gri": 5651,
      "▁alım-sat": 5652,
      "▁samimiyet": 5653,
      "▁veriyorlar": 5654,
      "▁gay": 5655,
      "▁ucunda": 5656,
      "▁otuzbes": 5657,
      "▁kayde": 5658,
      "▁yar": 5659,
      "▁acabilir": 5660,
      "▁umut": 5661,
      "▁renk": 5662,
      "▁cevre": 5663,
      "▁mahkemesinde": 5664,
      "##isel": 5665,
      "▁varmak": 5666,
      "▁omz": 5667,
      "▁latin": 5668,
      "##dev": 5669,
      "▁so": 5670,
      "▁hewlett-packard": 5671,
      "▁suya": 5672,
      "▁uzmanlar": 5673,
      "▁esk": 5674,
      "▁38.50": 5675,
      "▁titiz": 5676,
      "##lıydı": 5677,
      "▁sub": 5678,
      "▁sınav": 5679,
      "▁dusmeye": 5680,
      "##iyla": 5681,
      "▁parayla": 5682,
      "▁dudakları": 5683,
      "▁long": 5684,
      "▁degildir": 5685,
      "▁inis": 5686,
      "▁gunluk": 5687,
      "▁168": 5688,
      "▁icimden": 5689,
      "▁haykır": 5690,
      "▁1.27": 5691,
      "##ınıp": 5692,
      "▁9.8": 5693,
      "▁doları'nda": 5694,
      "▁cıkıp": 5695,
      "##enler": 5696,
      "▁holding": 5697,
      "▁attılar": 5698,
      "##an'a": 5699,
      "▁karıstı": 5700,
      "▁olay": 5701,
      "##lasıp": 5702,
      "▁hijyenik": 5703,
      "▁avrup": 5704,
      "##ıl": 5705,
      "▁yız": 5706,
      "##akta": 5707,
      "##mam": 5708,
      "▁1.72": 5709,
      "##yuzotuzdort": 5710,
      "▁bodrum": 5711,
      "▁cocuklugum": 5712,
      "##ret": 5713,
      "▁beklentimin": 5714,
      "▁jr.": 5715,
      "▁faaliyet": 5716,
      "▁kazanır": 5717,
      "▁olabilecek": 5718,
      "▁sonlarında": 5719,
      "▁kapıdan": 5720,
      "##50": 5721,
      "▁sonraki": 5722,
      "▁oks": 5723,
      "▁cakmak": 5724,
      "▁atılan": 5725,
      "▁bakıyorum": 5726,
      "▁elimizde": 5727,
      "##-packard": 5728,
      "▁dengesiz": 5729,
      "##ami": 5730,
      "▁konya": 5731,
      "▁rap": 5732,
      "▁gelisim": 5733,
      "##ley": 5734,
      "▁carpan": 5735,
      "▁islemi": 5736,
      "▁kata": 5737,
      "##dadı": 5738,
      "##mustu": 5739,
      "▁lokma": 5740,
      "▁ilkokul": 5741,
      "##elleb": 5742,
      "▁katrilyon": 5743,
      "▁kokain": 5744,
      "▁boyun": 5745,
      "##kara": 5746,
      "▁baba": 5747,
      "##ham": 5748,
      "▁algılan": 5749,
      "▁biridir": 5750,
      "▁eki": 5751,
      "▁ırk": 5752,
      "▁bunu": 5753,
      "▁incelem": 5754,
      "▁iri": 5755,
      "▁tamam": 5756,
      "▁maydanoz": 5757,
      "▁26.1": 5758,
      "▁inadına": 5759,
      "##ehir": 5760,
      "▁mevsimsel": 5761,
      "##igine": 5762,
      "▁tah": 5763,
      "▁servis": 5764,
      "▁takım": 5765,
      "▁sayın": 5766,
      "▁anlas": 5767,
      "▁degisimi": 5768,
      "▁birilerini": 5769,
      "##irli": 5770,
      "▁kına": 5771,
      "##livan": 5772,
      "##dur": 5773,
      "▁giriste": 5774,
      "▁olmaya": 5775,
      "##alap": 5776,
      "▁dairesine": 5777,
      "##row": 5778,
      "▁dusunmek": 5779,
      "▁tarihli": 5780,
      "▁muhabbet": 5781,
      "▁calisanlari": 5782,
      "##mak": 5783,
      "▁pudra": 5784,
      "▁de": 5785,
      "##ru": 5786,
      "▁bindokuzyuzotuz": 5787,
      "##ecen": 5788,
      "▁530": 5789,
      "▁kentin": 5790,
      "▁rolu": 5791,
      "▁bora": 5792,
      "▁pc": 5793,
      "▁mesru": 5794,
      "##abını": 5795,
      "▁times": 5796,
      "▁uretiyor": 5797,
      "##etle": 5798,
      "▁meg": 5799,
      "▁kalırdı": 5800,
      "##sizin": 5801,
      "▁bar": 5802,
      "▁egri": 5803,
      "▁egilimi": 5804,
      "▁durur": 5805,
      "▁baslat": 5806,
      "##anlı": 5807,
      "##abın": 5808,
      "▁muy": 5809,
      "▁raporlar": 5810,
      "▁ailenin": 5811,
      "▁yorgun": 5812,
      "▁hayatta": 5813,
      "▁agzına": 5814,
      "▁isv": 5815,
      "##eyh": 5816,
      "▁ata": 5817,
      "##/2": 5818,
      "▁204": 5819,
      "▁guzelligi": 5820,
      "▁bolum": 5821,
      "▁gitmeyi": 5822,
      "▁'lı": 5823,
      "▁etmedim": 5824,
      "##uza": 5825,
      "##chell": 5826,
      "▁flori": 5827,
      "▁bos": 5828,
      "▁fev": 5829,
      "▁vermey": 5830,
      "▁dongu": 5831,
      "▁281": 5832,
      "▁anlatım": 5833,
      "##ove": 5834,
      "▁brown": 5835,
      "▁hıristiy": 5836,
      "▁353": 5837,
      "▁imtiyaz": 5838,
      "▁yapılacak": 5839,
      "##vest": 5840,
      "▁mısın": 5841,
      "▁yayılıyor": 5842,
      "▁saglıklı": 5843,
      "##ların": 5844,
      "##gulu": 5845,
      "▁haberin": 5846,
      "▁mizah": 5847,
      "▁hazırladı": 5848,
      "▁imkanı": 5849,
      "##9-": 5850,
      "▁-": 5851,
      "▁istiyordu": 5852,
      "▁goze": 5853,
      "▁dusunur": 5854,
      "z": 5855,
      "▁giy": 5856,
      "▁hanim": 5857,
      "▁149": 5858,
      "▁karısık": 5859,
      "##eksu": 5860,
      "▁acıklaması": 5861,
      "##rub": 5862,
      "▁pus": 5863,
      "▁union": 5864,
      "▁ecekti": 5865,
      "▁yarına": 5866,
      "▁yet": 5867,
      "▁altern": 5868,
      "▁bayr": 5869,
      "▁acmak": 5870,
      "▁yanından": 5871,
      "▁oneririm": 5872,
      "▁celebi": 5873,
      "▁sene": 5874,
      "▁yapildi": 5875,
      "▁12.5": 5876,
      "##cileri": 5877,
      "##tali": 5878,
      "##mız": 5879,
      "▁washington": 5880,
      "▁145.45": 5881,
      "▁seyir": 5882,
      "▁kıskır": 5883,
      "▁misin": 5884,
      "▁ın": 5885,
      "##asıyla": 5886,
      "▁sehri": 5887,
      "▁birbirlerinden": 5888,
      "▁nufuz": 5889,
      "▁yegane": 5890,
      "▁yudum": 5891,
      "▁sci": 5892,
      "##w": 5893,
      "##ri": 5894,
      "▁degerli": 5895,
      "##gin": 5896,
      "▁biliyor": 5897,
      "▁vasıt": 5898,
      "▁birimleri": 5899,
      "##lamaz": 5900,
      "▁acma": 5901,
      "▁seh": 5902,
      "▁yasında": 5903,
      "▁rev": 5904,
      "▁duruyor": 5905,
      "▁gectigini": 5906,
      "▁amir": 5907,
      "▁duruma": 5908,
      "▁buy": 5909,
      "▁mel": 5910,
      "▁tahk": 5911,
      "▁yavrum": 5912,
      "▁bitisik": 5913,
      "▁lak": 5914,
      "▁personeline": 5915,
      "▁iktis": 5916,
      "##encer": 5917,
      "▁benziyordu": 5918,
      "▁yana": 5919,
      "##mıs": 5920,
      "▁okumus": 5921,
      "▁kısa": 5922,
      "##lerce": 5923,
      "##igini": 5924,
      "##mayla": 5925,
      "##lıga": 5926,
      "▁esvap": 5927,
      "▁piyasası": 5928,
      "▁gelecegini": 5929,
      "▁him": 5930,
      "▁dantel": 5931,
      "▁sonradan": 5932,
      "##manda": 5933,
      "▁suna": 5934,
      "##emize": 5935,
      "▁366": 5936,
      "▁duruyordu": 5937,
      "##esti": 5938,
      "▁ut": 5939,
      "##ilmaz": 5940,
      "▁beklentiler": 5941,
      "▁yiyeceklerin": 5942,
      "##onik": 5943,
      "▁acakt": 5944,
      "▁katolik": 5945,
      "▁yonetim": 5946,
      "▁bus": 5947,
      "▁gelmek": 5948,
      "##yas": 5949,
      "▁devlet": 5950,
      "▁carpık": 5951,
      "▁.": 5952,
      "▁yollar": 5953,
      "▁icermektedir": 5954,
      "##ılmaz": 5955,
      "##irlik": 5956,
      "▁meb": 5957,
      "▁planını": 5958,
      "##osy": 5959,
      "▁soyleyebilir": 5960,
      "▁hedefleri": 5961,
      "▁kaydetti": 5962,
      "▁lanet": 5963,
      "▁kanser": 5964,
      "▁kalkacak": 5965,
      "▁dedigimiz": 5966,
      "▁1.36": 5967,
      "▁ayık": 5968,
      "▁rakamları": 5969,
      "▁dogrusu": 5970,
      "▁ılık": 5971,
      "▁medya": 5972,
      "##.97": 5973,
      "▁begendim": 5974,
      "▁osman": 5975,
      "▁bilincli": 5976,
      "##1'de": 5977,
      "▁versin": 5978,
      "##sel": 5979,
      "▁rend": 5980,
      "▁sureci": 5981,
      "##oj": 5982,
      "▁ku": 5983,
      "##oma": 5984,
      "##den": 5985,
      "▁havada": 5986,
      "▁olurdum": 5987,
      "▁dans": 5988,
      "##ladık": 5989,
      "▁montreal'dan": 5990,
      "▁klor": 5991,
      "##7.6": 5992,
      "##.": 5993,
      "##etti": 5994,
      "▁ugra": 5995,
      "▁gosterin": 5996,
      "▁musteri": 5997,
      "▁kitapları": 5998,
      "▁sup": 5999,
      "▁karsılastık": 6000,
      "##ola": 6001,
      "▁kara": 6002,
      "▁payı": 6003,
      "▁1.08": 6004,
      "▁gozunun": 6005,
      "▁ederek": 6006,
      "▁york'ta": 6007,
      "##lanmıstır": 6008,
      "▁icindir": 6009,
      "▁sirketidir": 6010,
      "▁%80": 6011,
      "▁buranın": 6012,
      "▁sayesinde": 6013,
      "▁tev": 6014,
      "▁yla": 6015,
      "▁kırlangıc": 6016,
      "▁oldular": 6017,
      "▁silah": 6018,
      "▁bilmiyor": 6019,
      "▁satıcılar": 6020,
      "▁toront": 6021,
      "▁harman": 6022,
      "▁62": 6023,
      "▁sekreter": 6024,
      "##lis": 6025,
      "▁duskun": 6026,
      "▁hukumete": 6027,
      "▁tehdidi": 6028,
      "▁senetlerine": 6029,
      "▁ucuslarının": 6030,
      "▁huzun": 6031,
      "##sık": 6032,
      "▁ayından": 6033,
      "▁1.6145": 6034,
      "▁yaparak": 6035,
      "▁esyaları": 6036,
      "##eyecek": 6037,
      "▁dum": 6038,
      "▁spot": 6039,
      "##lastı": 6040,
      "▁sarıldı": 6041,
      "##ısları": 6042,
      "▁maddeler": 6043,
      "▁adım": 6044,
      "▁goreceksin": 6045,
      "##aragu": 6046,
      "▁3.13": 6047,
      "▁kalmaz": 6048,
      "▁zaman": 6049,
      "▁seviyesinde": 6050,
      "▁sıvı": 6051,
      "▁ydım": 6052,
      "▁cozumu": 6053,
      "▁koyan": 6054,
      "▁baslay": 6055,
      "w": 6056,
      "▁kardes": 6057,
      "▁golu": 6058,
      "▁muhtemelen": 6059,
      "▁1.75": 6060,
      "▁agaclar": 6061,
      "▁boyunca": 6062,
      "▁sponsor": 6063,
      "▁dan": 6064,
      "##anan": 6065,
      "▁lezizdi": 6066,
      "▁parti": 6067,
      "▁herkese": 6068,
      "##lerle": 6069,
      "▁sallan": 6070,
      "▁meden": 6071,
      "▁seyh": 6072,
      "▁ulusal": 6073,
      "▁dusuruyor": 6074,
      "##siz": 6075,
      "▁gelenek": 6076,
      "▁esp": 6077,
      "##akar": 6078,
      "▁1.5": 6079,
      "##ih": 6080,
      "▁gitmem": 6081,
      "▁sosyal": 6082,
      "▁ha": 6083,
      "##.88": 6084,
      "▁39.55": 6085,
      "##ısının": 6086,
      "▁hukumdar": 6087,
      "▁esnada": 6088,
      "▁gorevlerini": 6089,
      "▁8.75": 6090,
      "▁neyi": 6091,
      "▁maalesef": 6092,
      "▁dusur": 6093,
      "▁digeri": 6094,
      "▁temas": 6095,
      "▁yurtdi": 6096,
      "▁begenmedik": 6097,
      "▁3.": 6098,
      "▁bedav": 6099,
      "▁bircogunu": 6100,
      "▁kendilerinin": 6101,
      "##.c": 6102,
      "▁mad": 6103,
      "▁bizlerin": 6104,
      "▁sakın": 6105,
      "▁yone": 6106,
      "▁inerken": 6107,
      "##abilir": 6108,
      "##for": 6109,
      "▁sonsuz": 6110,
      "##arn": 6111,
      "▁cıkma": 6112,
      "▁cıktıgını": 6113,
      "##risin": 6114,
      "▁ayır": 6115,
      "▁elimde": 6116,
      "##masıyla": 6117,
      "▁dusundum": 6118,
      "▁yaklas": 6119,
      "▁aracı": 6120,
      "▁kendisine": 6121,
      "▁kimseyle": 6122,
      "▁alanları": 6123,
      "##ılsın": 6124,
      "##izmin": 6125,
      "▁yumru": 6126,
      "▁hersey": 6127,
      "▁direnis": 6128,
      "##das": 6129,
      "▁ederim": 6130,
      "▁secim": 6131,
      "▁ed": 6132,
      "▁kilit": 6133,
      "▁oyunu": 6134,
      "▁ogrenc": 6135,
      "##org": 6136,
      "##bin": 6137,
      "▁fit": 6138,
      "▁pl": 6139,
      "##heim": 6140,
      "▁katında": 6141,
      "▁cog": 6142,
      "▁tehlikeli": 6143,
      "▁endise": 6144,
      "▁alıyordu": 6145,
      "##ugun": 6146,
      "##indan": 6147,
      "▁yır": 6148,
      "▁otede": 6149,
      "▁somut": 6150,
      "▁1900": 6151,
      "▁geldikleri": 6152,
      "▁1.300": 6153,
      "▁degildim": 6154,
      "▁sansı": 6155,
      "▁kurut": 6156,
      "▁herhan": 6157,
      "▁dug": 6158,
      "▁petersburg": 6159,
      "▁coban": 6160,
      "▁sıy": 6161,
      "▁ustunu": 6162,
      "▁edersin": 6163,
      "##seri": 6164,
      "▁hızla": 6165,
      "▁britan": 6166,
      "▁pınar": 6167,
      "▁uyuy": 6168,
      "##d": 6169,
      "▁elini": 6170,
      "▁entar": 6171,
      "▁bilinen": 6172,
      "▁alacak": 6173,
      "▁gorsel": 6174,
      "▁satıs": 6175,
      "▁senaryo": 6176,
      "##3.8": 6177,
      "▁alt": 6178,
      "▁tukur": 6179,
      "▁bany": 6180,
      "##uman": 6181,
      "▁etmisti": 6182,
      "▁degerini": 6183,
      "##38": 6184,
      "▁belir": 6185,
      "▁ciftci": 6186,
      "##tikleri": 6187,
      "▁yurtdı": 6188,
      "▁yanar": 6189,
      "▁fu": 6190,
      "##aturk": 6191,
      "##ilerle": 6192,
      "▁1'den": 6193,
      "▁58": 6194,
      "▁yuku": 6195,
      "▁sasırt": 6196,
      "▁sinem": 6197,
      "▁burbank": 6198,
      "▁cesidi": 6199,
      "▁faturam": 6200,
      "##bakır": 6201,
      "▁dah": 6202,
      "##rar": 6203,
      "▁sorusturma": 6204,
      "▁kararın": 6205,
      "▁neler": 6206,
      "##amalar": 6207,
      "##60": 6208,
      "▁yatırımcılar": 6209,
      "▁wang": 6210,
      "▁600": 6211,
      "▁kaydeden": 6212,
      "▁incel": 6213,
      "▁issiz": 6214,
      "▁dalgaliydi": 6215,
      "▁rahat": 6216,
      "##amıstı": 6217,
      "▁ipotege": 6218,
      "▁beach'tan": 6219,
      "▁yuzlulerdi": 6220,
      "▁yıl": 6221,
      "▁attıgı": 6222,
      "▁verirdi": 6223,
      "▁romantik": 6224,
      "▁gelin": 6225,
      "▁genellikle": 6226,
      "##inde": 6227,
      "##oya": 6228,
      "▁1991": 6229,
      "▁muhar": 6230,
      "▁yontemi": 6231,
      "▁sıng": 6232,
      "▁bostan": 6233,
      "▁acıl": 6234,
      "▁sebek": 6235,
      "▁arti": 6236,
      ".": 6237,
      "▁yatırım": 6238,
      "▁gorun": 6239,
      "##agıyla": 6240,
      "##par": 6241,
      "##ob": 6242,
      "▁spekul": 6243,
      "▁imtiy": 6244,
      "▁egz": 6245,
      "##asa": 6246,
      "▁%1.7": 6247,
      "##sam": 6248,
      "0": 6249,
      "##maktan": 6250,
      "▁kapak": 6251,
      "▁hukumeti": 6252,
      "▁sayf": 6253,
      "▁cehenn": 6254,
      "▁amator": 6255,
      "▁moral": 6256,
      "▁biniki": 6257,
      "▁cikmadi": 6258,
      "▁yetmez": 6259,
      "▁mo": 6260,
      "▁kaldim": 6261,
      "▁satın": 6262,
      "▁ekonomistler": 6263,
      "▁kendisi": 6264,
      "▁jos": 6265,
      "##usa": 6266,
      "▁ikimiz": 6267,
      "|": 6268,
      "▁kare": 6269,
      "▁komitesi": 6270,
      "▁3/32": 6271,
      "▁ayagı": 6272,
      "▁cleveland": 6273,
      "##lardaki": 6274,
      "▁bizde": 6275,
      "▁tec": 6276,
      "▁corp.": 6277,
      "##bek": 6278,
      "▁suruldu": 6279,
      "##gis": 6280,
      "▁erk": 6281,
      "▁yes": 6282,
      "##zin": 6283,
      "▁sıkıntılı": 6284,
      "▁dayat": 6285,
      "▁yayıldı": 6286,
      "▁misyon": 6287,
      "▁bastan": 6288,
      "##tu": 6289,
      "▁koc": 6290,
      "▁alık": 6291,
      "▁yardıma": 6292,
      "##kal": 6293,
      "##su": 6294,
      "##ul": 6295,
      "▁sab": 6296,
      "▁sakat": 6297,
      "▁kaldı": 6298,
      "▁jon": 6299,
      "▁suruk": 6300,
      "##arlar": 6301,
      "▁arat": 6302,
      "l": 6303,
      "##esiyle": 6304,
      "▁bes": 6305,
      "##yiz": 6306,
      "▁bizlere": 6307,
      "▁bre": 6308,
      "▁tum": 6309,
      "▁aramızda": 6310,
      "▁basv": 6311,
      "▁evlilik": 6312,
      "##485": 6313,
      "▁vadeli": 6314,
      "▁oak": 6315,
      "▁rady": 6316,
      "▁yogurt": 6317,
      "▁99": 6318,
      "▁getirebilir": 6319,
      "▁rol": 6320,
      "▁yargı": 6321,
      "▁utanc": 6322,
      "▁alınacak": 6323,
      "▁gir": 6324,
      "▁surekli": 6325,
      "▁sıkıntı": 6326,
      "▁bilmez": 6327,
      "▁tab": 6328,
      "##alardan": 6329,
      "▁verecegini": 6330,
      "▁delta": 6331,
      "▁cıkmasına": 6332,
      "▁gunumuz": 6333,
      "▁kidder": 6334,
      "##anla": 6335,
      "▁sal": 6336,
      "▁stan": 6337,
      "▁suret": 6338,
      "##'a": 6339,
      "▁konusmak": 6340,
      "##ah": 6341,
      "##ogram": 6342,
      "▁%7.5": 6343,
      "▁hız": 6344,
      "▁kosa": 6345,
      "▁anlay": 6346,
      "▁yigit": 6347,
      "▁sıgır": 6348,
      "▁%7.8": 6349,
      "▁francisco'ya": 6350,
      "▁lezzetli": 6351,
      "▁8.3": 6352,
      "▁goz": 6353,
      "##inda": 6354,
      "‘": 6355,
      "▁taraftar": 6356,
      "▁koseye": 6357,
      "▁degisti": 6358,
      "##ahtar": 6359,
      "▁carpıcı": 6360,
      "▁sert": 6361,
      "▁murekkep": 6362,
      "▁celisk": 6363,
      "##dını": 6364,
      "▁bulun": 6365,
      "▁cıkarıl": 6366,
      "▁vır": 6367,
      "▁sif": 6368,
      "▁aldıgımız": 6369,
      "▁yetkililerine": 6370,
      "▁chp": 6371,
      "▁duzeni": 6372,
      "▁sevgili": 6373,
      "##erleri": 6374,
      "▁7.5": 6375,
      "##mislerdi": 6376,
      "▁belediye": 6377,
      "▁plas": 6378,
      "▁soktu": 6379,
      "▁milyara": 6380,
      "▁gidip": 6381,
      "▁bankanın": 6382,
      "▁eder": 6383,
      "▁yarıs": 6384,
      "▁paraları": 6385,
      "##lt": 6386,
      "▁karargah": 6387,
      "▁yosun": 6388,
      "##viz": 6389,
      "▁daldır": 6390,
      "▁personelin": 6391,
      "▁mol": 6392,
      "▁kok": 6393,
      "▁10": 6394,
      "▁bulus": 6395,
      "▁uretimi": 6396,
      "▁guc": 6397,
      "##gar": 6398,
      "▁yılki": 6399,
      "▁350": 6400,
      "▁olcut": 6401,
      "▁33": 6402,
      "▁cık": 6403,
      "▁gecir": 6404,
      "▁ilkel": 6405,
      "▁nakliye": 6406,
      "##amıs": 6407,
      "▁0.10": 6408,
      "▁goturecek": 6409,
      "▁fid": 6410,
      "▁1\\/8": 6411,
      "▁vaktiyle": 6412,
      "▁4.75": 6413,
      "▁kuyruk": 6414,
      "▁cıg": 6415,
      "▁ticari": 6416,
      "▁basladı": 6417,
      "▁kanlı": 6418,
      "▁cerey": 6419,
      "▁ligin": 6420,
      "▁memnunum": 6421,
      "▁kelime": 6422,
      "▁bilgileri": 6423,
      "▁hepsinin": 6424,
      "▁oda": 6425,
      "▁kazandı": 6426,
      "▁edilen": 6427,
      "##agının": 6428,
      "▁saka": 6429,
      "##ram": 6430,
      "▁geldigimiz": 6431,
      "▁bakısı": 6432,
      "▁vad": 6433,
      "##gıcı": 6434,
      "▁/": 6435,
      "▁malumat": 6436,
      "▁sta": 6437,
      "▁?..": 6438,
      "▁ongordu": 6439,
      "▁salon": 6440,
      "▁bilirdi": 6441,
      "▁yardımıyla": 6442,
      "▁urunlerinin": 6443,
      "▁bogaz": 6444,
      "##32": 6445,
      "▁resesyon": 6446,
      "▁dalı": 6447,
      "##nak": 6448,
      "##kırk": 6449,
      "▁endiseli": 6450,
      "▁uslu": 6451,
      "▁gucunu": 6452,
      "▁dususun": 6453,
      "▁cle": 6454,
      "▁saglar": 6455,
      "▁hissedarların": 6456,
      "▁cıkarıp": 6457,
      "▁anadolu": 6458,
      "▁76": 6459,
      "▁cıkıyordu": 6460,
      "▁bugune": 6461,
      "▁asli": 6462,
      "▁140": 6463,
      "▁benzeri": 6464,
      "▁gozunde": 6465,
      "##cıl": 6466,
      "##enn": 6467,
      "▁kimden": 6468,
      "▁sehirde": 6469,
      "▁petersburg'a": 6470,
      "▁tıklım": 6471,
      "##gac": 6472,
      "▁hik": 6473,
      "##ciydi": 6474,
      "▁kesin": 6475,
      "▁eksi": 6476,
      "▁acıklama": 6477,
      "▁aldan": 6478,
      "▁tay": 6479,
      "▁300000": 6480,
      "▁demokrat": 6481,
      "▁hanimdi": 6482,
      "▁endustriyel": 6483,
      "▁suren": 6484,
      "▁ailesi": 6485,
      "▁dobra": 6486,
      "▁azar": 6487,
      "▁yolunu": 6488,
      "▁44": 6489,
      "▁miydin": 6490,
      "##dalı": 6491,
      "##ulugun": 6492,
      "▁duygularını": 6493,
      "▁endi": 6494,
      "▁ayakta": 6495,
      "##ıb": 6496,
      "▁cem": 6497,
      "▁nash": 6498,
      "▁kızım": 6499,
      "▁alanlar": 6500,
      "▁tıpıs": 6501,
      "##ıyan": 6502,
      "▁california'dan": 6503,
      "▁yemis": 6504,
      "▁toyota": 6505,
      "##ven": 6506,
      "▁pasap": 6507,
      "▁alısılma": 6508,
      "▁nadir": 6509,
      "##diven": 6510,
      "▁issizlik": 6511,
      "▁yazma": 6512,
      "▁ettikten": 6513,
      "##-23": 6514,
      "##ern": 6515,
      "▁faturami": 6516,
      "▁2659": 6517,
      "▁ucreti": 6518,
      "▁boyutu": 6519,
      "▁art": 6520,
      "▁bitir": 6521,
      "▁revize": 6522,
      "##ısık": 6523,
      "▁yapma": 6524,
      "##edil": 6525,
      "▁makam": 6526,
      "▁besin": 6527,
      "▁ettiklerini": 6528,
      "▁1989-": 6529,
      "▁kasırga": 6530,
      "▁psil": 6531,
      "##ois": 6532,
      "▁surup": 6533,
      "▁kontrolu": 6534,
      "▁olunca": 6535,
      "▁oyalan": 6536,
      "▁sıralarda": 6537,
      "▁serisi": 6538,
      "▁sola": 6539,
      "▁uykudan": 6540,
      "##akende": 6541,
      "▁nereden": 6542,
      "▁erede": 6543,
      "▁kurtar": 6544,
      "▁hij": 6545,
      "▁tavrı": 6546,
      "▁takır": 6547,
      "##likleri": 6548,
      "▁abd'li": 6549,
      "▁tahrik": 6550,
      "▁hes": 6551,
      "##af": 6552,
      "▁birincisi": 6553,
      "##unda": 6554,
      "##negin": 6555,
      "▁aracları": 6556,
      "▁acayip": 6557,
      "▁yapıldıgını": 6558,
      "▁fatur": 6559,
      "##ev": 6560,
      "▁istedigim": 6561,
      "▁kardesi": 6562,
      "▁almıstı": 6563,
      "▁deyisle": 6564,
      "▁united": 6565,
      "##ıma": 6566,
      "▁asagıda": 6567,
      "▁derv": 6568,
      "▁etrafını": 6569,
      "##tug": 6570,
      "▁dem": 6571,
      "##dayan": 6572,
      "##larında": 6573,
      "▁ogren": 6574,
      "##acan": 6575,
      "##alari": 6576,
      "##imdi": 6577,
      "▁ora": 6578,
      "▁sallayarak": 6579,
      "▁dalgın": 6580,
      "▁merksamer": 6581,
      "▁korid": 6582,
      "▁hissedarlar": 6583,
      "▁calısmaya": 6584,
      "##1.3": 6585,
      "▁imkanlarindan": 6586,
      "▁cagr": 6587,
      "▁ulas": 6588,
      "▁konus": 6589,
      "▁gozden": 6590,
      "▁partiler": 6591,
      "▁sabır": 6592,
      "##luk": 6593,
      "▁group": 6594,
      "▁suphesiz": 6595,
      "##adav": 6596,
      "▁saatlerini": 6597,
      "▁kıtır": 6598,
      "▁vade": 6599,
      "▁biriktir": 6600,
      "▁basladıgını": 6601,
      "▁cıkmıyor": 6602,
      "▁ucretli": 6603,
      "▁uzerinden": 6604,
      "▁0": 6605,
      "▁bakimsizdi": 6606,
      "▁seyinden": 6607,
      "▁gırt": 6608,
      "▁sorunun": 6609,
      "▁altını": 6610,
      "##hane": 6611,
      "▁hucr": 6612,
      "▁adamın": 6613,
      "▁gide": 6614,
      "▁gecik": 6615,
      "▁olaganustu": 6616,
      "▁yanan": 6617,
      "##dimiza": 6618,
      "▁laci": 6619,
      "##dası": 6620,
      "▁sis": 6621,
      "▁yuruy": 6622,
      "▁950": 6623,
      "▁yuruyordu": 6624,
      "▁refah": 6625,
      "▁oynat": 6626,
      "▁katilmadim": 6627,
      "##lasyon": 6628,
      "▁nisp": 6629,
      "▁ucer": 6630,
      "▁icerdigi": 6631,
      "▁kr": 6632,
      "▁misafirimiz": 6633,
      "##-s": 6634,
      "▁iyiye": 6635,
      "##1.4": 6636,
      "▁mev": 6637,
      "▁niss": 6638,
      "▁dolar": 6639,
      "▁meyv": 6640,
      "▁halil": 6641,
      "▁insanlarla": 6642,
      "▁odalarda": 6643,
      "▁cekici": 6644,
      "##iyet": 6645,
      "▁gozleri": 6646,
      "▁u.s.": 6647,
      "▁ozgun": 6648,
      "▁konusunu": 6649,
      "▁soyles": 6650,
      "▁3.69": 6651,
      "▁basbakanlık": 6652,
      "▁tatlilar": 6653,
      "▁con": 6654,
      "▁idare": 6655,
      "▁87": 6656,
      "▁gecek": 6657,
      "▁tarafın": 6658,
      "▁hilmi": 6659,
      "▁yanas": 6660,
      "▁cıkar": 6661,
      "▁edelim": 6662,
      "▁1991-19": 6663,
      "▁donemlerinde": 6664,
      "▁imkan": 6665,
      "▁dislerini": 6666,
      "▁calisti": 6667,
      "▁mutab": 6668,
      "▁devleti": 6669,
      "▁'li": 6670,
      "▁veremiyorum": 6671,
      "▁carpar": 6672,
      "##pan": 6673,
      "▁sorunlar": 6674,
      "▁vasatti": 6675,
      "▁kalitesine": 6676,
      "▁tam": 6677,
      "▁dokundu": 6678,
      "##(": 6679,
      "##lanan": 6680,
      "▁daima": 6681,
      "▁pent": 6682,
      "##cak": 6683,
      "▁saf": 6684,
      "▁kadına": 6685,
      "##digi": 6686,
      "▁ehemm": 6687,
      "▁american": 6688,
      "▁uyelerinin": 6689,
      "▁hangisini": 6690,
      "▁muf": 6691,
      "##imizden": 6692,
      "▁tin": 6693,
      "▁odedigimiz": 6694,
      "'": 6695,
      "##bir": 6696,
      "▁eylul": 6697,
      "##esindeki": 6698,
      "▁daya": 6699,
      "##ahh": 6700,
      "▁etmisler": 6701,
      "▁dib": 6702,
      "▁ciddiyet": 6703,
      "▁anlasmaya": 6704,
      "▁hangisi": 6705,
      "▁parlak": 6706,
      "▁lufthansa": 6707,
      "▁73": 6708,
      "▁kullandıgı": 6709,
      "▁pasif": 6710,
      "▁pantol": 6711,
      "▁yanındaki": 6712,
      "▁yasıyor": 6713,
      "▁nor": 6714,
      "▁oncesi": 6715,
      "▁cebinde": 6716,
      "##.00": 6717,
      "▁mevz": 6718,
      "▁yedi": 6719,
      "▁kirec": 6720,
      "▁ustune": 6721,
      "▁bayıl": 6722,
      "▁tanıs": 6723,
      "##acagız": 6724,
      "##teb": 6725,
      "▁nevi": 6726,
      "▁bagdas": 6727,
      "▁giys": 6728,
      "▁hesabı": 6729,
      "▁odalardan": 6730,
      "##mıyorum": 6731,
      "▁aslına": 6732,
      "▁=": 6733,
      "▁tuylu": 6734,
      "▁kil": 6735,
      "##sız": 6736,
      "##'ın": 6737,
      "▁sozcusu": 6738,
      "▁hızlıca": 6739,
      "▁katı": 6740,
      "▁istifa": 6741,
      "▁masalı": 6742,
      "##elerce": 6743,
      "▁iceriden": 6744,
      "▁75000": 6745,
      "▁secimde": 6746,
      "▁satıslarının": 6747,
      "##endim": 6748,
      "##lıgından": 6749,
      "▁yasadık": 6750,
      "##alarak": 6751,
      "##seksen": 6752,
      "▁ılım": 6753,
      "▁war": 6754,
      "▁yaptirmadigim": 6755,
      "▁iktid": 6756,
      "▁daml": 6757,
      "▁bahsetti": 6758,
      "▁genelkur": 6759,
      "##oll": 6760,
      "▁berrak": 6761,
      "▁sayı": 6762,
      "▁siir": 6763,
      "▁yonu": 6764,
      "▁viraj": 6765,
      "▁acıklamada": 6766,
      "##z": 6767,
      "▁dilim": 6768,
      "▁107": 6769,
      "▁ual": 6770,
      "##330": 6771,
      "▁ozg": 6772,
      "▁kalma": 6773,
      "▁istekli": 6774,
      "▁yapacagım": 6775,
      "▁500": 6776,
      "▁elbet": 6777,
      "▁25": 6778,
      "▁mendi": 6779,
      "##misti": 6780,
      "▁odulu": 6781,
      "##ate": 6782,
      "▁arkada": 6783,
      "▁sohret": 6784,
      "▁gumbur": 6785,
      "▁olacagım": 6786,
      "▁1/2": 6787,
      "▁olanı": 6788,
      "▁avukatı": 6789,
      "▁val": 6790,
      "▁calismas": 6791,
      "▁tahvillerin": 6792,
      "▁tekrardan": 6793,
      "##ee": 6794,
      "##lass": 6795,
      "▁corp.'un": 6796,
      "▁devletin": 6797,
      "▁hattı": 6798,
      "##gından": 6799,
      "##ımızdan": 6800,
      "▁bask": 6801,
      "▁kasım": 6802,
      "▁un": 6803,
      "##phia": 6804,
      "##'den": 6805,
      "##ın": 6806,
      "▁pantolon": 6807,
      "##'lu": 6808,
      "▁41.60": 6809,
      "##ekler": 6810,
      "▁diy": 6811,
      "▁cıkardı": 6812,
      "##ıda": 6813,
      "▁erhan": 6814,
      "▁tertemiz": 6815,
      "▁alısılmadık": 6816,
      "▁rakı": 6817,
      "▁tesaduf": 6818,
      "##lılı": 6819,
      "##umuzu": 6820,
      "▁fevkalade": 6821,
      "▁anımsam": 6822,
      "▁gaziantep": 6823,
      "▁verirler": 6824,
      "##larını": 6825,
      "▁donat": 6826,
      "▁kade": 6827,
      "▁erdeydin": 6828,
      "▁mahs": 6829,
      "▁meyal": 6830,
      "▁olusturan": 6831,
      "▁olcekli": 6832,
      "▁montreal": 6833,
      "##andan": 6834,
      "##ılıyor": 6835,
      "▁yukarıda": 6836,
      "▁karsımda": 6837,
      "▁kapasitesine": 6838,
      "▁tech": 6839,
      "##unik": 6840,
      "▁suc": 6841,
      "▁gorulecek": 6842,
      "▁sakallı": 6843,
      "▁hicbirine": 6844,
      "▁yukselt": 6845,
      "##b.": 6846,
      "▁donmus": 6847,
      "▁uslup": 6848,
      "▁halkla": 6849,
      "▁mesgul": 6850,
      "▁sesiyle": 6851,
      "▁olmasa": 6852,
      "▁guleryuzlulerdi": 6853,
      "▁karsın": 6854,
      "##e'ye": 6855,
      "▁konforlu": 6856,
      "▁sehre": 6857,
      "▁613": 6858,
      "▁mustesar": 6859,
      "##ess": 6860,
      "▁9": 6861,
      "▁tırman": 6862,
      "▁80": 6863,
      "▁iyilik": 6864,
      "▁ysanız": 6865,
      "▁kerv": 6866,
      "▁rich": 6867,
      "##onel": 6868,
      "▁sayisi": 6869,
      "##maması": 6870,
      "▁denge": 6871,
      "▁fak": 6872,
      "##manız": 6873,
      "▁selcuk": 6874,
      "▁tesekkur": 6875,
      "▁kalanlar": 6876,
      "▁ersin": 6877,
      "##yuzotuz": 6878,
      "▁susuz": 6879,
      "##larınızı": 6880,
      "▁calısıyordu": 6881,
      "▁1.19": 6882,
      "▁cunku": 6883,
      "▁gumruk": 6884,
      "▁herkesle": 6885,
      "▁m80": 6886,
      "▁saygın": 6887,
      "▁tarif": 6888,
      "▁yavas": 6889,
      "▁0.31": 6890,
      "▁vesik": 6891,
      "##sik": 6892,
      "▁oyunc": 6893,
      "▁zincir": 6894,
      "▁ikinc": 6895,
      "##egim": 6896,
      "▁ismail": 6897,
      "##raf": 6898,
      "▁allak": 6899,
      "▁getirilen": 6900,
      "▁girmis": 6901,
      "##6'da": 6902,
      "▁birlestir": 6903,
      "▁oncelik": 6904,
      "▁yaptik": 6905,
      "▁secilmis": 6906,
      "▁aglayan": 6907,
      "▁ihracı": 6908,
      "▁oldur": 6909,
      "▁eser": 6910,
      "▁silk": 6911,
      "##hem": 6912,
      "##96": 6913,
      "▁hart": 6914,
      "▁yurt": 6915,
      "▁komite": 6916,
      "▁iseniz": 6917,
      "##gmen": 6918,
      "##tının": 6919,
      "##s'ın": 6920,
      "##°": 6921,
      "▁sonuna": 6922,
      "▁doldurdu": 6923,
      "▁sirketinin": 6924,
      "▁lı": 6925,
      "▁doldurdum": 6926,
      "▁eagle": 6927,
      "##lanmamıs": 6928,
      "▁kadro": 6929,
      "▁heyeti": 6930,
      "##lbu": 6931,
      "##culer": 6932,
      "▁olasılık": 6933,
      "▁carte": 6934,
      "##ındaydı": 6935,
      "▁akıs": 6936,
      "##allah": 6937,
      "▁pırıl": 6938,
      "▁mef": 6939,
      "▁donmedi": 6940,
      "▁sabahleyin": 6941,
      "▁ekonomist": 6942,
      "▁i": 6943,
      "▁fikir": 6944,
      "▁enist": 6945,
      "▁man": 6946,
      "▁7.10": 6947,
      "▁kurtarmak": 6948,
      "▁alana": 6949,
      "▁degisiklikler": 6950,
      "▁7\\/8": 6951,
      "▁haket": 6952,
      "▁hepimize": 6953,
      "▁yas": 6954,
      "▁viski": 6955,
      "▁yag": 6956,
      "▁temmuz": 6957,
      "▁ipotek": 6958,
      "▁pufur": 6959,
      "▁bizzat": 6960,
      "▁kazada": 6961,
      "▁adina": 6962,
      "▁istey": 6963,
      "▁lise": 6964,
      "▁degisikligi": 6965,
      "▁vatandas": 6966,
      "▁baskanlık": 6967,
      "▁ili": 6968,
      "▁eri": 6969,
      "▁166.9": 6970,
      "##mamak": 6971,
      "##alık": 6972,
      "▁3": 6973,
      "##esi'ne": 6974,
      "▁bambaska": 6975,
      "▁hikmet": 6976,
      "▁25.8": 6977,
      "▁notlar": 6978,
      "▁kazandım": 6979,
      "##lemeye": 6980,
      "##amb": 6981,
      "▁vide": 6982,
      "▁animasyonu": 6983,
      "’": 6984,
      "▁serap": 6985,
      "##eydi": 6986,
      "▁kasıgı": 6987,
      "▁satmaya": 6988,
      "##tir": 6989,
      "▁dostum": 6990,
      "##88": 6991,
      "▁kahveci": 6992,
      "▁yapil": 6993,
      "▁yarar": 6994,
      "▁pasifik": 6995,
      "▁dizi": 6996,
      "▁market": 6997,
      "▁baz": 6998,
      "▁fis": 6999,
      "▁daglar": 7000,
      "▁cekilm": 7001,
      "▁ithalatı": 7002,
      "▁sn": 7003,
      "▁develop": 7004,
      "▁saglıyor": 7005,
      "▁mortgage": 7006,
      "▁kravat": 7007,
      "▁kasım'da": 7008,
      "▁jur": 7009,
      "▁artarak": 7010,
      "▁agzından": 7011,
      "▁gelirse": 7012,
      "▁tar": 7013,
      "▁ord": 7014,
      "▁atak": 7015,
      "▁sertif": 7016,
      "▁4.375": 7017,
      "▁27.5": 7018,
      "▁rakamlar": 7019,
      "▁lar": 7020,
      "▁yuksekti": 7021,
      "▁dayanısma": 7022,
      "##ılıgında": 7023,
      "##au": 7024,
      "▁halı": 7025,
      "▁onlarla": 7026,
      "▁edilmesi": 7027,
      "▁141.90": 7028,
      "▁wat": 7029,
      "▁yemegini": 7030,
      "▁veremeyecegim": 7031,
      "▁alk": 7032,
      "▁yirmibir": 7033,
      "▁bagırıyor": 7034,
      "▁dondurdu": 7035,
      "##imizin": 7036,
      "##iyeleri": 7037,
      "▁annemin": 7038,
      "▁kalabal": 7039,
      "▁otor": 7040,
      "▁diye": 7041,
      "▁vurguladı": 7042,
      "▁vucudum": 7043,
      "▁cadır": 7044,
      "▁erbak": 7045,
      "##usel": 7046,
      "▁hamal": 7047,
      "▁0.7": 7048,
      "▁diyen": 7049,
      "▁pismis": 7050,
      "▁faydalan": 7051,
      "##.s.": 7052,
      "##h": 7053,
      "▁catıs": 7054,
      "##rin": 7055,
      "▁925": 7056,
      "▁fac": 7057,
      "▁kızlarla": 7058,
      "##ustugunu": 7059,
      "▁mini": 7060,
      "▁35587": 7061,
      "▁kendinde": 7062,
      "▁edecek": 7063,
      "##cekti": 7064,
      "##.39": 7065,
      "##edecek": 7066,
      "▁erkekler": 7067,
      "▁ilerledi": 7068,
      "▁2.45": 7069,
      "▁hayata": 7070,
      "▁mesafe": 7071,
      "▁belirlen": 7072,
      "▁olacaktır": 7073,
      "▁bulam": 7074,
      "▁nerelere": 7075,
      "▁gidebil": 7076,
      "▁etmiyorum": 7077,
      "▁veri": 7078,
      "##aze": 7079,
      "▁uluslar": 7080,
      "▁plani": 7081,
      "##eliyiz": 7082,
      "▁gormedim": 7083,
      "▁gerekcesiyle": 7084,
      "▁capında": 7085,
      "▁leb": 7086,
      "##5000": 7087,
      "▁igren": 7088,
      "▁kalitesinden": 7089,
      "##anın": 7090,
      "▁dovus": 7091,
      "▁del": 7092,
      "##hur": 7093,
      "▁saatleri": 7094,
      "▁mahkeme": 7095,
      "▁carl": 7096,
      "▁tesp": 7097,
      "##hire": 7098,
      "▁magdur": 7099,
      "▁bahceli": 7100,
      "##br": 7101,
      "##ununun": 7102,
      "##dıgımı": 7103,
      "▁141.70": 7104,
      "##|": 7105,
      "▁havuc": 7106,
      "▁giris": 7107,
      "▁sehrin": 7108,
      "▁hayran": 7109,
      "▁109": 7110,
      "▁ascı": 7111,
      "▁kalb": 7112,
      "▁som": 7113,
      "▁muhaf": 7114,
      "##tugu": 7115,
      "##edildi": 7116,
      "##asının": 7117,
      "▁resim": 7118,
      "▁peynirleri": 7119,
      "##fun": 7120,
      "▁ediyordu": 7121,
      "▁tutum": 7122,
      "▁cizgi": 7123,
      "▁hen": 7124,
      "▁cıkarılan": 7125,
      "##illi": 7126,
      "##'n": 7127,
      "▁oglu": 7128,
      "▁sizinle": 7129,
      "▁ihrac": 7130,
      "▁kaba": 7131,
      "##ekim": 7132,
      "▁adinaydi": 7133,
      "▁borsa": 7134,
      "##anet": 7135,
      "▁kaydedi": 7136,
      "▁olmalıdır": 7137,
      "▁pers": 7138,
      "▁suclu": 7139,
      "▁milyar": 7140,
      "▁acılı": 7141,
      "▁gundeme": 7142,
      "##0": 7143,
      "▁yanına": 7144,
      "##amayan": 7145,
      "##ihan": 7146,
      "▁worth'dan": 7147,
      "▁havayollarının": 7148,
      "▁isimiz": 7149,
      "▁diyoruz": 7150,
      "▁yatırımları": 7151,
      "▁onlemek": 7152,
      "▁bileti": 7153,
      "▁hain": 7154,
      "▁mahkemede": 7155,
      "##olog": 7156,
      "▁yapılandır": 7157,
      "▁kerp": 7158,
      "▁bebegi": 7159,
      "▁tad": 7160,
      "##iyorlardi": 7161,
      "▁evlerin": 7162,
      "##eman": 7163,
      "▁carpıs": 7164,
      "▁yakin": 7165,
      "##amayacagı": 7166,
      "▁adamla": 7167,
      "▁dinledim": 7168,
      "▁asl": 7169,
      "##obal": 7170,
      "▁seyrediyor": 7171,
      "▁vermez": 7172,
      "▁yardımcısı": 7173,
      "##eder": 7174,
      "▁edecekti": 7175,
      "▁825": 7176,
      "▁soruyu": 7177,
      "##14": 7178,
      "##aklar": 7179,
      "▁gonlum": 7180,
      "▁kendiler": 7181,
      "▁84": 7182,
      "▁kasabada": 7183,
      "▁cetin": 7184,
      "▁iliskili": 7185,
      "▁katmer": 7186,
      "▁kendimde": 7187,
      "▁bakıs": 7188,
      "▁seven": 7189,
      "▁sermaye": 7190,
      "▁uzaklas": 7191,
      "▁sedir": 7192,
      "▁p": 7193,
      "▁pasa'nın": 7194,
      "▁egzersiz": 7195,
      "▁santor": 7196,
      "##ısında": 7197,
      "▁batır": 7198,
      "▁gerisinde": 7199,
      "▁det": 7200,
      "▁unut": 7201,
      "▁454": 7202,
      "▁yonetici": 7203,
      "▁no": 7204,
      "▁filmi": 7205,
      "▁skandal": 7206,
      "▁sadak": 7207,
      "▁geciriyor": 7208,
      "▁hasar": 7209,
      "▁merkez": 7210,
      "▁fiyat": 7211,
      "▁oy": 7212,
      "▁koyluler": 7213,
      "▁gogsun": 7214,
      "##.6": 7215,
      "▁yeter": 7216,
      "▁atlanta'da": 7217,
      "##iles": 7218,
      "▁paz": 7219,
      "▁milyarlar": 7220,
      "##ılas": 7221,
      "▁demet": 7222,
      "##mm": 7223,
      "##iyi": 7224,
      "▁2.23": 7225,
      "▁fok": 7226,
      "▁dolarlık": 7227,
      "▁baslayan": 7228,
      "##son'un": 7229,
      "▁tarafına": 7230,
      "▁ahlaki": 7231,
      "##ısı": 7232,
      "▁12.3": 7233,
      "##amadılar": 7234,
      "▁kerim": 7235,
      "##jr": 7236,
      "▁secenekleri": 7237,
      "▁yen": 7238,
      "▁olmadan": 7239,
      "▁alaska": 7240,
      "▁ayn": 7241,
      "##lub": 7242,
      "▁kanalı": 7243,
      "▁begen": 7244,
      "▁kızına": 7245,
      "##uler": 7246,
      "##bul": 7247,
      "▁acıyor": 7248,
      "▁acele": 7249,
      "▁georgia": 7250,
      "▁baraj": 7251,
      "▁adına": 7252,
      "▁ars": 7253,
      "▁ekonomik": 7254,
      "▁bolumu": 7255,
      "▁teması": 7256,
      "▁colum": 7257,
      "▁ken": 7258,
      "##'lik": 7259,
      "▁gıy": 7260,
      "▁dengesi": 7261,
      "▁pul": 7262,
      "▁.7": 7263,
      "▁dunya'nın": 7264,
      "▁koruyor": 7265,
      "▁agır": 7266,
      "▁tavırlı": 7267,
      "▁kid": 7268,
      "##t'in": 7269,
      "▁yenilen": 7270,
      "▁teor": 7271,
      "##yla": 7272,
      "▁harc": 7273,
      "▁ekipman": 7274,
      "▁ted": 7275,
      "▁cıkarmaya": 7276,
      "▁yururluk": 7277,
      "▁vas": 7278,
      "▁gecmeye": 7279,
      "▁boyut": 7280,
      "▁altına": 7281,
      "▁kırmız": 7282,
      "▁kırmızı": 7283,
      "▁gerc": 7284,
      "▁kom": 7285,
      "##mail": 7286,
      "##achusetts": 7287,
      "##gunun": 7288,
      "▁artısla": 7289,
      "##ediy": 7290,
      "▁yapmıs": 7291,
      "##zet": 7292,
      "▁halleri": 7293,
      "▁severek": 7294,
      "▁alev": 7295,
      "▁orta": 7296,
      "▁list": 7297,
      "##bindokuzyuzdoksansekiz": 7298,
      "▁sovyet": 7299,
      "##asindan": 7300,
      "▁tehlik": 7301,
      "##tıkları": 7302,
      "##guzel": 7303,
      "##orn": 7304,
      "▁numaralı": 7305,
      "##azı": 7306,
      "##do": 7307,
      "▁icecekleri": 7308,
      "▁zamanlarını": 7309,
      "▁olsa": 7310,
      "##ınar": 7311,
      "##seniz": 7312,
      "▁edilmisti": 7313,
      "▁field'e": 7314,
      "##elikle": 7315,
      "##ledik": 7316,
      "▁milletinin": 7317,
      "▁dusunul": 7318,
      "▁gozlerini": 7319,
      "##0.33": 7320,
      "▁sarap": 7321,
      "▁koleksiyon": 7322,
      "▁kelimesi": 7323,
      "##uy": 7324,
      "▁nefret": 7325,
      "##ding": 7326,
      "▁muhim": 7327,
      "##00'den": 7328,
      "▁zamanlama": 7329,
      "##lanıp": 7330,
      "▁zırt": 7331,
      "▁arkadasının": 7332,
      "▁saatlik": 7333,
      "▁piyasasındaki": 7334,
      "▁akan": 7335,
      "▁optik": 7336,
      "▁philadelphia": 7337,
      "▁satır": 7338,
      "##ic'in": 7339,
      "▁cit": 7340,
      "##3.4": 7341,
      "▁yol": 7342,
      "▁kedi": 7343,
      "▁paul'a": 7344,
      "##cher": 7345,
      "##lasma": 7346,
      "▁saglayacak": 7347,
      "▁enerj": 7348,
      "▁reagan": 7349,
      "##lisi": 7350,
      "▁hissettim": 7351,
      "##yle": 7352,
      "▁piyang": 7353,
      "▁%3.": 7354,
      "##bine": 7355,
      "##dag": 7356,
      "▁county": 7357,
      "##ifer": 7358,
      "▁transfer": 7359,
      "▁seattle": 7360,
      "▁bakılırsa": 7361,
      "▁stratejik": 7362,
      "▁kuram": 7363,
      "##ati": 7364,
      "▁miami'ye": 7365,
      "▁teh": 7366,
      "▁yolc": 7367,
      "▁cehennem": 7368,
      "▁gosterir": 7369,
      "##larız": 7370,
      "▁252": 7371,
      "##i": 7372,
      "▁breeden": 7373,
      "▁vir": 7374,
      "▁nizam": 7375,
      "▁kansas": 7376,
      "▁emin": 7377,
      "▁zamanında": 7378,
      "▁kıraathan": 7379,
      "▁sapk": 7380,
      "▁etnik": 7381,
      "▁tamamı": 7382,
      "▁topunuz": 7383,
      "##agına": 7384,
      "▁park": 7385,
      "▁getirmisti": 7386,
      "▁goc": 7387,
      "▁sozcu": 7388,
      "▁zat": 7389,
      "▁muall": 7390,
      "▁cat": 7391,
      "▁dinler": 7392,
      "▁etkisiyle": 7393,
      "▁yaratı": 7394,
      "##ulması": 7395,
      "▁boylelikle": 7396,
      "▁mukellef": 7397,
      "▁kuyu": 7398,
      "▁sektor": 7399,
      "▁gorevl": 7400,
      "▁karsiligini": 7401,
      "▁mahsus": 7402,
      "##nes": 7403,
      "▁muhafaz": 7404,
      "▁9.625": 7405,
      "▁desteklemek": 7406,
      "▁amerik": 7407,
      "▁tahviller": 7408,
      "▁6.4": 7409,
      "▁gru": 7410,
      "▁mevcuttur": 7411,
      "▁rezervasyonu": 7412,
      "▁sahipti": 7413,
      "▁bas": 7414,
      "▁6.5": 7415,
      "▁zorlu": 7416,
      "##%": 7417,
      "▁1966": 7418,
      "▁3000": 7419,
      "▁duvarı": 7420,
      "▁475": 7421,
      "▁istanbul'a": 7422,
      "##ıyor": 7423,
      "▁acıgı": 7424,
      "▁havaalanı'ndan": 7425,
      "▁yarın": 7426,
      "▁artı": 7427,
      "▁konul": 7428,
      "▁karsısın": 7429,
      "▁hiddet": 7430,
      "##6": 7431,
      "▁yazıl": 7432,
      "▁kık": 7433,
      "▁fiyatlar": 7434,
      "▁calıyor": 7435,
      "##asinda": 7436,
      "▁hatları": 7437,
      "▁rumeli": 7438,
      "▁islev": 7439,
      "##eyle": 7440,
      "▁gozluk": 7441,
      "▁artır": 7442,
      "##ina": 7443,
      "▁kalkıp": 7444,
      "##oci": 7445,
      "▁yesil": 7446,
      "▁ust": 7447,
      "▁geldim": 7448,
      "▁eglenceli": 7449,
      "▁ayakları": 7450,
      "##ishi": 7451,
      "▁mart": 7452,
      "##dıgımızı": 7453,
      "▁buzlu": 7454,
      "▁hatırlıyorum": 7455,
      "▁mimarisi": 7456,
      "▁kaldıraclı": 7457,
      "▁bildirildi": 7458,
      "▁istanbul'da": 7459,
      "##ino": 7460,
      "▁bayrak": 7461,
      "▁yuklen": 7462,
      "▁seylere": 7463,
      "▁entel": 7464,
      "##lag": 7465,
      "▁pom": 7466,
      "▁olmayacaktır": 7467,
      "##ark": 7468,
      "▁vi": 7469,
      "▁muazz": 7470,
      "##gage": 7471,
      "▁sıyr": 7472,
      "▁ikiyuzkırk": 7473,
      "▁katkıda": 7474,
      "##lugu": 7475,
      "▁durmus": 7476,
      "▁fırc": 7477,
      "▁trabz": 7478,
      "##ıyı": 7479,
      "▁aileye": 7480,
      "##00000": 7481,
      "▁bereket": 7482,
      "▁oynamıs": 7483,
      "▁kimlik": 7484,
      "##ersiniz": 7485,
      "##emeli": 7486,
      "▁yururluge": 7487,
      "▁yetistir": 7488,
      "##8.9": 7489,
      "##erisi": 7490,
      "##pe": 7491,
      "▁birinden": 7492,
      "##etini": 7493,
      "▁sanayi": 7494,
      "▁tartıs": 7495,
      "▁yukarı": 7496,
      "▁onem": 7497,
      "##ori": 7498,
      "▁kıs": 7499,
      "▁dinin": 7500,
      "▁general": 7501,
      "▁sarısın": 7502,
      "##.15": 7503,
      "##emizi": 7504,
      "▁ras": 7505,
      "▁bindokuzyuz": 7506,
      "▁515": 7507,
      "▁cir": 7508,
      "▁catır": 7509,
      "▁etkili": 7510,
      "▁aqu": 7511,
      "▁basına": 7512,
      "##mezse": 7513,
      "▁55": 7514,
      "▁filistin": 7515,
      "▁partners": 7516,
      "▁satım": 7517,
      "▁kost": 7518,
      "##unden": 7519,
      "▁saati": 7520,
      "▁gostererek": 7521,
      "▁hızını": 7522,
      "▁mobilyalar": 7523,
      "##emis": 7524,
      "##osyon": 7525,
      "▁erkenden": 7526,
      "▁cıkararak": 7527,
      "▁muam": 7528,
      "▁cah": 7529,
      "▁kak": 7530,
      "▁firmanın": 7531,
      "▁gelen": 7532,
      "##ics": 7533,
      "▁ilhan": 7534,
      "▁kentsel": 7535,
      "▁yer": 7536,
      "▁j": 7537,
      "▁mah": 7538,
      "▁ikibiniki": 7539,
      "##.92": 7540,
      "▁1950": 7541,
      "▁boyunda": 7542,
      "▁tarihine": 7543,
      "##*": 7544,
      "▁olmaması": 7545,
      "▁adamakıllı": 7546,
      "▁ulasmak": 7547,
      "▁ureten": 7548,
      "▁ciftlik": 7549,
      "▁ilgisini": 7550,
      "▁gubre": 7551,
      "▁dusunuyordu": 7552,
      "▁toplamıs": 7553,
      "▁etmistir": 7554,
      "▁tr": 7555,
      "##uyordum": 7556,
      "▁nine": 7557,
      "▁ikibin": 7558,
      "▁sınıfları": 7559,
      "##8": 7560,
      "##amıyor": 7561,
      "▁sallanıyor": 7562,
      "▁ash": 7563,
      "▁universite": 7564,
      "▁kıy": 7565,
      "▁yoksun": 7566,
      "▁doktor": 7567,
      "▁tası": 7568,
      "▁baslan": 7569,
      "▁dusuyor": 7570,
      "▁amcam": 7571,
      "##asu": 7572,
      "▁raporda": 7573,
      "▁edirne": 7574,
      "▁mekana": 7575,
      "##dıkca": 7576,
      "▁yalvar": 7577,
      "▁operator": 7578,
      "##acık": 7579,
      "▁57": 7580,
      "▁kurum": 7581,
      "▁degin": 7582,
      "▁haksız": 7583,
      "▁yunus": 7584,
      "▁kardesinin": 7585,
      "▁arıyorum": 7586,
      "##dirde": 7587,
      "▁ogretmenim": 7588,
      "▁dol": 7589,
      "##.2": 7590,
      "##elerinin": 7591,
      "▁ilgileniyor": 7592,
      "▁13.": 7593,
      "▁listesini": 7594,
      "▁varsay": 7595,
      "▁alanın": 7596,
      "##emiz": 7597,
      "▁arastırmalar": 7598,
      "▁muc": 7599,
      "▁tolga": 7600,
      "▁tes": 7601,
      "##.45": 7602,
      "▁koskoca": 7603,
      "▁almanya'nın": 7604,
      "▁dolduran": 7605,
      "##omet": 7606,
      "##chester": 7607,
      "▁go": 7608,
      "▁1.375": 7609,
      "▁hayatımız": 7610,
      "##ecegi": 7611,
      "▁ozge": 7612,
      "▁harika": 7613,
      "▁ilgisi": 7614,
      "▁ilgisinden": 7615,
      "▁gerektiriyor": 7616,
      "▁papaz": 7617,
      "##ya": 7618,
      "▁donuk": 7619,
      "##tede": 7620,
      "##ebilir": 7621,
      "▁sırrı": 7622,
      "▁manville": 7623,
      "##arken": 7624,
      "▁dey": 7625,
      "▁duyuru": 7626,
      "▁imza": 7627,
      "▁yatırımcıları": 7628,
      "▁pahalı": 7629,
      "##landa": 7630,
      "##inizin": 7631,
      "▁degilsiniz": 7632,
      "▁ikiz": 7633,
      "▁birlikte": 7634,
      "▁cambaz": 7635,
      "▁yasa": 7636,
      "▁mendil": 7637,
      "▁fıldır": 7638,
      "##cuları": 7639,
      "▁hin": 7640,
      "▁duydum": 7641,
      "▁bab": 7642,
      "##cut": 7643,
      "▁kılavuz": 7644,
      "▁yuzunde": 7645,
      "▁esnasında": 7646,
      "▁1.06": 7647,
      "▁gitmedim": 7648,
      "##samer": 7649,
      "▁niye": 7650,
      "▁arabalar": 7651,
      "▁oranında": 7652,
      "▁calısıyordum": 7653,
      "▁dok": 7654,
      "▁yanı": 7655,
      "▁odamdan": 7656,
      "▁hata": 7657,
      "▁doyur": 7658,
      "▁yıldırım": 7659,
      "▁uzunca": 7660,
      "▁1.750": 7661,
      "▁menfa": 7662,
      "▁'dır": 7663,
      "##lasarak": 7664,
      "▁yaptim": 7665,
      "▁fr": 7666,
      "▁tarafını": 7667,
      "##ilerdi": 7668,
      "▁degisiklikleri": 7669,
      "##yse": 7670,
      "##olun": 7671,
      "▁partinin": 7672,
      "##mustuk": 7673,
      "▁gonder": 7674,
      "▁frankfurt": 7675,
      "##ibi": 7676,
      "▁sag": 7677,
      "▁yetersizdi": 7678,
      "▁insanlardan": 7679,
      "▁calisanlardan": 7680,
      "▁baglı": 7681,
      "▁lap": 7682,
      "▁yıkan": 7683,
      "▁622": 7684,
      "▁kanunu": 7685,
      "##“": 7686,
      "▁performans": 7687,
      "▁yayılan": 7688,
      "▁anladım": 7689,
      "▁bakmıs": 7690,
      "▁evvelki": 7691,
      "▁ulkeler": 7692,
      "▁tatildi": 7693,
      "▁fantez": 7694,
      "▁tarafı": 7695,
      "▁musait": 7696,
      "▁atıp": 7697,
      "▁katılan": 7698,
      "▁82": 7699,
      "##ilmedi": 7700,
      "▁gorunuse": 7701,
      "▁hisselerin": 7702,
      "▁isterseniz": 7703,
      "▁yataktan": 7704,
      "▁26000": 7705,
      "▁315": 7706,
      "▁kulak": 7707,
      "##p": 7708,
      "##lamada": 7709,
      "▁fırlamıs": 7710,
      "▁vurmak": 7711,
      "▁istemem": 7712,
      "##anti": 7713,
      "▁gozum": 7714,
      "##ikti": 7715,
      "▁jour": 7716,
      "##rist": 7717,
      "##ota": 7718,
      "##aco": 7719,
      "▁riskli": 7720,
      "▁field": 7721,
      "▁'y": 7722,
      "▁avrupa": 7723,
      "▁hanima": 7724,
      "▁derd": 7725,
      "▁temettu": 7726,
      "▁hulya": 7727,
      "▁degist": 7728,
      "##$": 7729,
      "##2-23": 7730,
      "▁sohbet": 7731,
      "▁duzen": 7732,
      "▁ucuna": 7733,
      "▁63.52": 7734,
      "▁kaybetmis": 7735,
      "▁rakib": 7736,
      "##dıktan": 7737,
      "##inizi": 7738,
      "▁masanın": 7739,
      "▁marat": 7740,
      "##lil": 7741,
      "▁penn": 7742,
      "##aktadır": 7743,
      "▁teminat": 7744,
      "▁cosk": 7745,
      "##tıklarını": 7746,
      "▁atina": 7747,
      "▁kaldım": 7748,
      "##ti": 7749,
      "▁beyoglu": 7750,
      "▁elemanlar": 7751,
      "▁arastırmacı": 7752,
      "▁ettikleri": 7753,
      "▁telkin": 7754,
      "▁performan": 7755,
      "▁bagırdı": 7756,
      "▁internet": 7757,
      "▁anlattım": 7758,
      "##gum": 7759,
      "▁recet": 7760,
      "▁birinci": 7761,
      "▁ozellestir": 7762,
      "▁soze": 7763,
      "▁kapısına": 7764,
      "▁ikide": 7765,
      "##tıktan": 7766,
      "##lah": 7767,
      "▁warner": 7768,
      "▁tuketici": 7769,
      "##13": 7770,
      "▁sov": 7771,
      "▁carsamba": 7772,
      "##3'te": 7773,
      "▁des": 7774,
      "▁bilgisay": 7775,
      "▁super": 7776,
      "##aladı": 7777,
      "▁alkol": 7778,
      "##egini": 7779,
      "▁simdiye": 7780,
      "▁edilem": 7781,
      "▁senedi": 7782,
      "▁215.04": 7783,
      "▁tumunu": 7784,
      "▁cob": 7785,
      "##edigi": 7786,
      "▁fısır": 7787,
      "▁tuketim": 7788,
      "▁rıza": 7789,
      "▁carolina": 7790,
      "▁meral": 7791,
      "▁program": 7792,
      "▁kızını": 7793,
      "▁konu": 7794,
      "▁kimse": 7795,
      "▁kadif": 7796,
      "##port": 7797,
      "##cusu": 7798,
      "▁%3.4": 7799,
      "##'y": 7800,
      "▁tamamen": 7801,
      "▁santorini": 7802,
      "▁sam": 7803,
      "▁karsılastırıldıgında": 7804,
      "▁249.5": 7805,
      "▁lacivert": 7806,
      "▁bazında": 7807,
      "▁ulkelerde": 7808,
      "▁manevra": 7809,
      "▁yazmak": 7810,
      "▁anlasma": 7811,
      "▁erkege": 7812,
      "▁kahval": 7813,
      "▁demokratik": 7814,
      "##arım": 7815,
      "##ita": 7816,
      "▁adil": 7817,
      "▁duracak": 7818,
      "##medigini": 7819,
      "▁law": 7820,
      "▁ornek": 7821,
      "▁oranla": 7822,
      "▁pin": 7823,
      "▁porcuk": 7824,
      "▁serviste": 7825,
      "▁kole": 7826,
      "▁yuzlerce": 7827,
      "##2'de": 7828,
      "##eligi": 7829,
      "▁yenden": 7830,
      "##ranc": 7831,
      "▁'de": 7832,
      "▁aqua": 7833,
      "▁kasır": 7834,
      "▁takımının": 7835,
      "▁kardesim": 7836,
      "▁9.78": 7837,
      "##omosyon": 7838,
      "##ırtı": 7839,
      "▁taban": 7840,
      "▁kondur": 7841,
      "▁halini": 7842,
      "▁ates": 7843,
      "▁gosteriyordu": 7844,
      "▁gecenlerde": 7845,
      "##tere": 7846,
      "▁varan": 7847,
      "▁saclarını": 7848,
      "▁gaf": 7849,
      "▁okulu": 7850,
      "##kırı": 7851,
      "▁yasat": 7852,
      "▁iliski": 7853,
      "▁gorevini": 7854,
      "▁kıvr": 7855,
      "▁sız": 7856,
      "▁bize": 7857,
      "▁guleryuz": 7858,
      "▁hakları": 7859,
      "▁limuzin": 7860,
      "▁bozuk": 7861,
      "▁yak": 7862,
      "▁olmasi": 7863,
      "▁dusen": 7864,
      "▁katildim": 7865,
      "▁kum": 7866,
      "▁babasının": 7867,
      "▁ornegin": 7868,
      "▁sirketine": 7869,
      "▁romat": 7870,
      "##.28": 7871,
      "▁527.39": 7872,
      "▁gıldır": 7873,
      "##enmis": 7874,
      "▁cih": 7875,
      "##ektif": 7876,
      "▁iyi": 7877,
      "▁faydalı": 7878,
      "▁1100": 7879,
      "▁tekne": 7880,
      "▁haliyle": 7881,
      "▁yaparken": 7882,
      "▁olumlu": 7883,
      "▁kosulları": 7884,
      "▁boya": 7885,
      "▁alabil": 7886,
      "##ga": 7887,
      "▁nay": 7888,
      "▁yemekten": 7889,
      "▁ge": 7890,
      "##esinden": 7891,
      "▁lideri": 7892,
      "▁kapat": 7893,
      "▁duduk": 7894,
      "▁hepsi": 7895,
      "##4.1": 7896,
      "▁bıc": 7897,
      "x": 7898,
      "▁akc": 7899,
      "▁phoenix'den": 7900,
      "▁ded": 7901,
      "▁yılan": 7902,
      "##ling": 7903,
      "▁3.7": 7904,
      "##field": 7905,
      "▁bunda": 7906,
      "▁metre": 7907,
      "##.63": 7908,
      "▁uzadı": 7909,
      "##osunun": 7910,
      "▁hemsir": 7911,
      "▁kalemi": 7912,
      "▁kendime": 7913,
      "##tmi": 7914,
      "▁yaman": 7915,
      "▁koyup": 7916,
      "▁nedenini": 7917,
      "▁analistler": 7918,
      "▁seans": 7919,
      "▁dakikada": 7920,
      "##4.5": 7921,
      "▁secenek": 7922,
      "▁uykusuz": 7923,
      "▁gazetelerde": 7924,
      "▁anlamak": 7925,
      "▁sapır": 7926,
      "##landıgı": 7927,
      "▁klas": 7928,
      "▁dokun": 7929,
      "▁425": 7930,
      "##munic": 7931,
      "▁kamp": 7932,
      "▁med": 7933,
      "▁kars": 7934,
      "##nut": 7935,
      "▁utop": 7936,
      "##ibe": 7937,
      "▁hafiflet": 7938,
      "▁bulunuyor": 7939,
      "▁0.0108": 7940,
      "▁hisselerini": 7941,
      "▁denizin": 7942,
      "▁planı": 7943,
      "▁surgun": 7944,
      "##larımla": 7945,
      "▁cezasını": 7946,
      "##dokuzyuzdoksan": 7947,
      "▁44.5": 7948,
      "▁well": 7949,
      "▁kust": 7950,
      "▁trt": 7951,
      "##1-": 7952,
      "▁baslamadan": 7953,
      "▁bagı": 7954,
      "▁129": 7955,
      "▁mal": 7956,
      "▁gidiyorum": 7957,
      "▁tıp": 7958,
      "▁14.5": 7959,
      "▁olculu": 7960,
      "▁cicekli": 7961,
      "##ald": 7962,
      "o": 7963,
      "##amıyorum": 7964,
      "▁savunma": 7965,
      "##ikler": 7966,
      "▁22": 7967,
      "##osunu": 7968,
      "▁dam": 7969,
      "▁683": 7970,
      "▁tram": 7971,
      "▁steph": 7972,
      "▁kahveren": 7973,
      "▁merkezli": 7974,
      "▁dusun": 7975,
      "##ona": 7976,
      "▁b.": 7977,
      "▁hayattan": 7978,
      "▁kasırg": 7979,
      "▁tarafa": 7980,
      "▁z": 7981,
      "▁gonul": 7982,
      "▁tered": 7983,
      "▁doner": 7984,
      "▁sıradan": 7985,
      "▁dusunuyor": 7986,
      "▁mubarek": 7987,
      "▁evet": 7988,
      "##mer": 7989,
      "##mis": 7990,
      "▁duyulan": 7991,
      "▁num": 7992,
      "▁kaynakları": 7993,
      "▁gittiler": 7994,
      "▁sayılmaz": 7995,
      "▁asık": 7996,
      "##vec": 7997,
      "▁hissede": 7998,
      "▁c.": 7999,
      "▁olumune": 8000,
      "▁hızlı": 8001,
      "▁ertesi": 8002,
      "▁fazlasıyla": 8003,
      "▁universit": 8004,
      "▁tarihinin": 8005,
      "▁korumak": 8006,
      "##ını": 8007,
      "▁acmıstır": 8008,
      "▁cez": 8009,
      "▁tedav": 8010,
      "##olm": 8011,
      "▁birimi": 8012,
      "▁endisel": 8013,
      "▁alıcı": 8014,
      "▁politikaya": 8015,
      "▁me": 8016,
      "▁sark": 8017,
      "▁cami": 8018,
      "▁airlin": 8019,
      "▁hakkında": 8020,
      "##dırlar": 8021,
      "▁cevresi": 8022,
      "##ph": 8023,
      "▁gozlerim": 8024,
      "▁opsiyonu": 8025,
      "##net": 8026,
      "▁avrupalı": 8027,
      "▁isaretler": 8028,
      "##dım": 8029,
      "▁hatirlamiyorum": 8030,
      "▁og": 8031,
      "▁olmakla": 8032,
      "##tiler": 8033,
      "▁cevik": 8034,
      "▁semp": 8035,
      "▁duymuyor": 8036,
      "▁mor": 8037,
      "▁bulabil": 8038,
      "▁don": 8039,
      "▁26": 8040,
      "▁ikiyuz": 8041,
      "▁dayanarak": 8042,
      "##maktadırlar": 8043,
      "▁sartları": 8044,
      "##tif": 8045,
      "▁yoktan": 8046,
      "▁first": 8047,
      "▁teb": 8048,
      "▁cesitler": 8049,
      "##eceginiz": 8050,
      "▁kızı": 8051,
      "▁oncesinde": 8052,
      "##abına": 8053,
      "▁hilton": 8054,
      "▁average": 8055,
      "▁dyp": 8056,
      "▁cas": 8057,
      "▁erit": 8058,
      "▁yaratıyor": 8059,
      "▁galatasaray": 8060,
      "▁tatli": 8061,
      "##wood": 8062,
      "▁degilsin": 8063,
      "▁ran": 8064,
      "▁mechul": 8065,
      "▁yakından": 8066,
      "▁dolayı": 8067,
      "▁eroin": 8068,
      "▁atmaya": 8069,
      "##iber": 8070,
      "##layın": 8071,
      "▁isinde": 8072,
      "##alandır": 8073,
      "##mini": 8074,
      "##pal": 8075,
      "▁degisik": 8076,
      "▁bırakır": 8077,
      "▁tuy": 8078,
      "##aksız": 8079,
      "▁tahakk": 8080,
      "▁185": 8081,
      "▁saffet": 8082,
      "▁dekorasyonu": 8083,
      "##.04": 8084,
      "▁1961": 8085,
      "▁ureticisi": 8086,
      "@": 8087,
      "▁yapar": 8088,
      "▁riski": 8089,
      "▁brit": 8090,
      "##.98": 8091,
      "##ulugu": 8092,
      "##sinden": 8093,
      "##nal": 8094,
      "▁ci": 8095,
      "▁elestirmen": 8096,
      "▁olmadi": 8097,
      "▁belirtmek": 8098,
      "▁termal": 8099,
      "▁seylerin": 8100,
      "##ledigi": 8101,
      "▁34": 8102,
      "##layınca": 8103,
      "▁tasarı": 8104,
      "##adını": 8105,
      "##on": 8106,
      "##'u": 8107,
      "▁belgeleri": 8108,
      "▁ekin": 8109,
      "▁cekilmis": 8110,
      "▁deligi": 8111,
      "▁30.": 8112,
      "▁kast": 8113,
      "##alıklar": 8114,
      "▁tramvay": 8115,
      "##elerdir": 8116,
      "▁engel": 8117,
      "▁2005": 8118,
      "▁tarafta": 8119,
      "▁impar": 8120,
      "▁bulgaristan": 8121,
      "▁bulundur": 8122,
      "##ıcı": 8123,
      "▁sogan": 8124,
      "▁yuvar": 8125,
      "▁isleyen": 8126,
      "##gat": 8127,
      "▁vardı": 8128,
      "▁heyecan": 8129,
      "##1.5": 8130,
      "▁analistlerin": 8131,
      "▁ihtilal": 8132,
      "▁usul": 8133,
      "▁perisan": 8134,
      "▁dist": 8135,
      "▁if": 8136,
      "##uar": 8137,
      "▁home": 8138,
      "▁kırıklıgına": 8139,
      "▁suphe": 8140,
      "▁ex": 8141,
      "▁kahvaltisi": 8142,
      "▁muyum": 8143,
      "▁ayrıntı": 8144,
      "▁havlular": 8145,
      "▁birinc": 8146,
      "▁tutarındaki": 8147,
      "##.70": 8148,
      "##ackard": 8149,
      "▁tun": 8150,
      "▁kur": 8151,
      "▁aksam": 8152,
      "▁otobus": 8153,
      "▁fatma": 8154,
      "##.19": 8155,
      "▁ister": 8156,
      "▁kent": 8157,
      "▁donmek": 8158,
      "▁senin": 8159,
      "▁cihan": 8160,
      "▁anlayan": 8161,
      "▁zey": 8162,
      "▁139": 8163,
      "▁anadolu'da": 8164,
      "▁yapabilir": 8165,
      "▁isini": 8166,
      "▁city": 8167,
      "##.4": 8168,
      "▁mutemadi": 8169,
      "▁bakanlıgı": 8170,
      "▁durmak": 8171,
      "▁olmadıgını": 8172,
      "▁gozlerinin": 8173,
      "▁electr": 8174,
      "▁akım": 8175,
      "▁isleri": 8176,
      "▁birer": 8177,
      "▁stein": 8178,
      "▁kesti": 8179,
      "▁ertel": 8180,
      "▁ilgisiz": 8181,
      "##sub": 8182,
      "▁kıpır": 8183,
      "##145": 8184,
      "##0.4": 8185,
      "##ume": 8186,
      "▁musik": 8187,
      "##amin": 8188,
      "##:00": 8189,
      "▁uzerindeki": 8190,
      "▁paris'te": 8191,
      "▁ymus": 8192,
      "▁huzursuz": 8193,
      "▁seviy": 8194,
      "▁bekliyorum": 8195,
      "▁olmas": 8196,
      "##ograf": 8197,
      "▁allah": 8198,
      "▁temsilcisi": 8199,
      "▁gorusmedim": 8200,
      "##tik": 8201,
      "▁saatte": 8202,
      "##ikatur": 8203,
      "▁46": 8204,
      "▁zeyt": 8205,
      "##iste": 8206,
      "▁saatlerce": 8207,
      "▁limon": 8208,
      "▁kahkah": 8209,
      "▁3.03": 8210,
      "▁titr": 8211,
      "▁degismedi": 8212,
      "▁kapıl": 8213,
      "##tilar": 8214,
      "▁planlarını": 8215,
      "▁bl": 8216,
      "▁67": 8217,
      "##/8'den": 8218,
      "▁tuccar": 8219,
      "▁cekistir": 8220,
      "##.05": 8221,
      "▁financi": 8222,
      "▁fiyatlandır": 8223,
      "▁olmak": 8224,
      "▁formul": 8225,
      "▁surdurdu": 8226,
      "▁kazancları": 8227,
      "##amayı": 8228,
      "▁hikay": 8229,
      "▁bulamaz": 8230,
      "##ub": 8231,
      "▁malzem": 8232,
      "▁yanında": 8233,
      "▁hale": 8234,
      "▁tanık": 8235,
      "▁celal": 8236,
      "▁kuba": 8237,
      "▁kucums": 8238,
      "##ende": 8239,
      "▁aykırı": 8240,
      "##larini": 8241,
      "##masında": 8242,
      "▁deyince": 8243,
      "▁gidil": 8244,
      "▁parmaklarını": 8245,
      "▁sehrinden": 8246,
      "▁ld": 8247,
      "▁selim": 8248,
      "▁ayagında": 8249,
      "▁baslı": 8250,
      "▁perakendeciler": 8251,
      "##li": 8252,
      "▁%10": 8253,
      "▁w": 8254,
      "##ast": 8255,
      "▁memph": 8256,
      "▁ard": 8257,
      "##landıgını": 8258,
      "▁cemil": 8259,
      "▁rum": 8260,
      "▁minnet": 8261,
      "▁terzi": 8262,
      "▁gosterecek": 8263,
      "▁kokuyor": 8264,
      "▁bende": 8265,
      "▁esti": 8266,
      "▁gum": 8267,
      "##aber": 8268,
      "▁yılmaz": 8269,
      "▁bisik": 8270,
      "▁paribas": 8271,
      "▁sokacak": 8272,
      "▁huzurlu": 8273,
      "▁mantıksız": 8274,
      "▁ortasında": 8275,
      "##lardı": 8276,
      "▁inanmak": 8277,
      "▁mırıldandı": 8278,
      "▁servisi": 8279,
      "▁uretimin": 8280,
      "##icilerin": 8281,
      "▁nedeni": 8282,
      "▁32": 8283,
      "▁avukatlar": 8284,
      "▁izliyor": 8285,
      "##rken": 8286,
      "##ayi": 8287,
      "▁iade": 8288,
      "▁kafasını": 8289,
      "▁hot": 8290,
      "▁hatir": 8291,
      "▁olmasın": 8292,
      "▁ab'nin": 8293,
      "▁numarası": 8294,
      "▁haf": 8295,
      "▁baklav": 8296,
      "▁horm": 8297,
      "▁salat": 8298,
      "▁iddia": 8299,
      "##usune": 8300,
      "▁adını": 8301,
      "##lesti": 8302,
      "▁makaleye": 8303,
      "▁bakınca": 8304,
      "##emeyecek": 8305,
      "##lılıgı": 8306,
      "▁calkan": 8307,
      "##istin": 8308,
      "▁m.": 8309,
      "▁yin": 8310,
      "##ladım": 8311,
      "▁iskont": 8312,
      "▁suyuna": 8313,
      "▁yalan": 8314,
      "▁cırpın": 8315,
      "##'yla": 8316,
      "▁hakiki": 8317,
      "▁fiili": 8318,
      "▁giymis": 8319,
      "▁gorbac": 8320,
      "▁28": 8321,
      "▁sekreteri": 8322,
      "##lanarak": 8323,
      "##sev": 8324,
      "▁ilhami": 8325,
      "▁nitelik": 8326,
      "▁kesmek": 8327,
      "▁ustundeki": 8328,
      "▁tu": 8329,
      "▁lun": 8330,
      "▁fırıl": 8331,
      "▁52": 8332,
      "▁%17": 8333,
      "##hasır": 8334,
      "▁bitmisti": 8335,
      "##ody": 8336,
      "▁keyifli": 8337,
      "▁sanslı": 8338,
      "▁boynun": 8339,
      "##vah": 8340,
      "▁oburune": 8341,
      "▁kolalı": 8342,
      "▁gorunur": 8343,
      "##landır": 8344,
      "##madıgını": 8345,
      "▁havaalanı": 8346,
      "▁ustelik": 8347,
      "▁kimileri": 8348,
      "▁yaklasık": 8349,
      "##bus": 8350,
      "▁alamadim": 8351,
      "▁uzum": 8352,
      "▁lobi": 8353,
      "##pen": 8354,
      "▁vez": 8355,
      "▁gelisen": 8356,
      "▁yapmaları": 8357,
      "▁prens": 8358,
      "▁atlanta": 8359,
      "▁geceyi": 8360,
      "▁ral": 8361,
      "▁pahaliydi": 8362,
      "▁atti": 8363,
      "▁bankacı": 8364,
      "▁rusvet": 8365,
      "▁seyleri": 8366,
      "▁iliskisi": 8367,
      "▁..\"": 8368,
      "▁bulunan": 8369,
      "▁olmasına": 8370,
      "▁yerlere": 8371,
      "▁cocuklara": 8372,
      "▁ceyrek": 8373,
      "▁yapmay": 8374,
      "▁once": 8375,
      "▁sevgil": 8376,
      "##tuk": 8377,
      "##sek": 8378,
      "##masa": 8379,
      "▁bilinmeyen": 8380,
      "▁sec": 8381,
      "▁devr": 8382,
      "▁fos": 8383,
      "##na": 8384,
      "▁elestiri": 8385,
      "##sini": 8386,
      "▁yedide": 8387,
      "▁sahneye": 8388,
      "##azi": 8389,
      "▁hastalıgı": 8390,
      "▁air": 8391,
      "▁destan": 8392,
      "▁sıt": 8393,
      "▁75": 8394,
      "##kop": 8395,
      "##ından": 8396,
      "▁soyleyin": 8397,
      "▁sansur": 8398,
      "▁esn": 8399,
      "▁isken": 8400,
      "##asur": 8401,
      "▁imal": 8402,
      "##var": 8403,
      "▁toplulugun": 8404,
      "▁hus": 8405,
      "##isinden": 8406,
      "▁asistan": 8407,
      "##ecekler": 8408,
      "▁yasam": 8409,
      "▁durdur": 8410,
      "▁antr": 8411,
      "##esco": 8412,
      "▁zor": 8413,
      "▁keskin": 8414,
      "▁um": 8415,
      "▁planlanıyor": 8416,
      "##urlar": 8417,
      "▁istedim": 8418,
      "▁sofr": 8419,
      "▁ceh": 8420,
      "▁haldır": 8421,
      "▁kendi": 8422,
      "▁onur": 8423,
      "▁ediyorlardı": 8424,
      "##1'e": 8425,
      "▁ziyan": 8426,
      "▁donusu": 8427,
      "▁abdullah": 8428,
      "▁cop": 8429,
      "##gunu": 8430,
      "##ox": 8431,
      "▁kasket": 8432,
      "▁hurmet": 8433,
      "▁kandil": 8434,
      "##lıdır": 8435,
      "▁yad": 8436,
      "##giniz": 8437,
      "▁hizmetler": 8438,
      "▁hızı": 8439,
      "▁kacamak": 8440,
      "▁ustunden": 8441,
      "▁fazlasını": 8442,
      "▁baglan": 8443,
      "▁yasadigim": 8444,
      "▁mufett": 8445,
      "▁fikri": 8446,
      "▁red": 8447,
      "a": 8448,
      "▁mot": 8449,
      "##ot": 8450,
      "▁ugruna": 8451,
      "▁verir": 8452,
      "##lasan": 8453,
      "▁alalım": 8454,
      "▁siddet": 8455,
      "##ud": 8456,
      "##s'un": 8457,
      "▁muhareb": 8458,
      "##/4'e": 8459,
      "▁eyalet": 8460,
      "▁oyley": 8461,
      "##eliler": 8462,
      "▁uysal": 8463,
      "▁duzenleyici": 8464,
      "▁hayatını": 8465,
      "▁konum": 8466,
      "▁kompozit": 8467,
      "##larımın": 8468,
      "▁mektep": 8469,
      "##sem": 8470,
      "▁yara": 8471,
      "▁mars": 8472,
      "▁61": 8473,
      "▁0.010": 8474,
      "▁terfi": 8475,
      "##ilecek": 8476,
      "##ait": 8477,
      "##vil": 8478,
      "▁yanmıs": 8479,
      "##taz": 8480,
      "▁olacak": 8481,
      "▁iv": 8482,
      "▁t": 8483,
      "▁burak": 8484,
      "▁senato": 8485,
      "▁yamalak": 8486,
      "##melidir": 8487,
      "▁edil": 8488,
      "▁nesi": 8489,
      "##sagı": 8490,
      "▁sorumlulugunu": 8491,
      "▁tutuk": 8492,
      "##melerine": 8493,
      "##elem": 8494,
      "▁1971": 8495,
      "##ance": 8496,
      "▁amerika'da": 8497,
      "##2.91": 8498,
      "▁uye": 8499,
      "▁degeri": 8500,
      "▁talip": 8501,
      "▁1995": 8502,
      "▁177": 8503,
      "▁afgan": 8504,
      "▁hakem": 8505,
      "##amadık": 8506,
      "▁yusuf": 8507,
      "##ligim": 8508,
      "##46": 8509,
      "▁oakland'dan": 8510,
      "##alarca": 8511,
      "##ydı": 8512,
      "▁balo": 8513,
      "▁muhtem": 8514,
      "▁hukmet": 8515,
      "▁duk": 8516,
      "##teki": 8517,
      "▁siyah": 8518,
      "▁hepsinden": 8519,
      "+": 8520,
      "▁kesilmis": 8521,
      "▁alakali": 8522,
      "▁mektup": 8523,
      "▁lob": 8524,
      "▁takiben": 8525,
      "##uyoruz": 8526,
      "▁gecim": 8527,
      "▁ziy": 8528,
      "▁dortyuz": 8529,
      "##elin": 8530,
      "▁abla": 8531,
      "▁kims": 8532,
      "▁besik": 8533,
      "▁web": 8534,
      "▁cebine": 8535,
      "##lum": 8536,
      "▁bug": 8537,
      "##raz": 8538,
      "▁yarım": 8539,
      "▁bilimsel": 8540,
      "▁pes": 8541,
      "▁ua": 8542,
      "▁akadem": 8543,
      "▁aktivit": 8544,
      "▁olmus": 8545,
      "▁care": 8546,
      "▁haftalık": 8547,
      "▁tarihinde": 8548,
      "##fon": 8549,
      "▁birimize": 8550,
      "##ısıp": 8551,
      "▁mucevher": 8552,
      "▁agz": 8553,
      "▁kuyru": 8554,
      "##'tan": 8555,
      "▁agab": 8556,
      "▁sevda": 8557,
      "##ındık": 8558,
      "▁milletin": 8559,
      "▁guven": 8560,
      "▁kapıda": 8561,
      "▁ucakların": 8562,
      "▁fot": 8563,
      "▁hazırlık": 8564,
      "▁edile": 8565,
      "##lana": 8566,
      "▁paul": 8567,
      "▁evlerine": 8568,
      "▁kaymak": 8569,
      "▁muzak": 8570,
      "##umde": 8571,
      "▁ozer": 8572,
      "▁4:30": 8573,
      "▁kambiy": 8574,
      "▁maf": 8575,
      "▁10.625": 8576,
      "##liler": 8577,
      "▁afrika": 8578,
      "##uc": 8579,
      "▁ilgin": 8580,
      "▁international": 8581,
      "▁mayıs": 8582,
      "▁mani": 8583,
      "▁715": 8584,
      "▁paket": 8585,
      "▁alındıgında": 8586,
      "▁ey": 8587,
      "▁vadi": 8588,
      "##ılmamıs": 8589,
      "##erk": 8590,
      "▁belirlemek": 8591,
      "##leriniz": 8592,
      "▁dısında": 8593,
      "▁oturdu": 8594,
      "▁rehberi": 8595,
      "▁temizdi": 8596,
      "▁olmam": 8597,
      "▁detay": 8598,
      "▁gunah": 8599,
      "##onez": 8600,
      "##70": 8601,
      "##ust": 8602,
      "▁bardak": 8603,
      "▁keb": 8604,
      "▁yurtdısına": 8605,
      "##2'ye": 8606,
      "▁bedi": 8607,
      "▁duzelt": 8608,
      "▁aksamki": 8609,
      "##maya": 8610,
      "##bon": 8611,
      "##inizle": 8612,
      "##unc": 8613,
      "▁surat": 8614,
      "▁822": 8615,
      "▁duzeyinde": 8616,
      "##usun": 8617,
      "##emezsiniz": 8618,
      "##.72": 8619,
      "▁icki": 8620,
      "▁dusundugum": 8621,
      "▁devri": 8622,
      "▁karsıladı": 8623,
      "▁teklifleri": 8624,
      "##imizda": 8625,
      "▁ohio": 8626,
      "▁basında": 8627,
      "▁calar": 8628,
      "▁kadınlara": 8629,
      "▁diler": 8630,
      "▁lang": 8631,
      "▁oynarken": 8632,
      "##lenen": 8633,
      "##ket": 8634,
      "▁cumartesi": 8635,
      "▁milyardan": 8636,
      "▁ikiser": 8637,
      "▁...\"": 8638,
      "▁anayasa": 8639,
      "▁milwa": 8640,
      "▁tacoma": 8641,
      "##lenme": 8642,
      "▁insanı": 8643,
      "##untu": 8644,
      "▁tuttur": 8645,
      "##vert": 8646,
      "▁147": 8647,
      "##ediyorum": 8648,
      "▁kararı": 8649,
      "▁pazarda": 8650,
      "##07": 8651,
      "##tın": 8652,
      "▁198": 8653,
      "▁karın": 8654,
      "##eciler": 8655,
      "##ire": 8656,
      "##rut": 8657,
      "▁tit": 8658,
      "▁kagıda": 8659,
      "▁samim": 8660,
      "▁aln": 8661,
      "▁perakende": 8662,
      "▁dalgası": 8663,
      "▁hukuk": 8664,
      "▁kararlastır": 8665,
      "▁fırlat": 8666,
      "▁tanım": 8667,
      "▁getirmis": 8668,
      "▁pah": 8669,
      "▁yine": 8670,
      "##maz": 8671,
      "▁herif": 8672,
      "▁dert": 8673,
      "▁dusup": 8674,
      "▁alınır": 8675,
      "▁bitmeyen": 8676,
      "▁cakır": 8677,
      "##dr": 8678,
      "▁dost": 8679,
      "▁anne": 8680,
      "▁fren": 8681,
      "▁fir": 8682,
      "▁dinlenmek": 8683,
      "▁baris": 8684,
      "▁oluk": 8685,
      "##dok": 8686,
      "▁ucakla": 8687,
      "▁resour": 8688,
      "##'si": 8689,
      "▁kalem": 8690,
      "▁konular": 8691,
      "▁ceyr": 8692,
      "▁dustu": 8693,
      "▁herkesin": 8694,
      "▁bekar": 8695,
      "▁bulgu": 8696,
      "##adaki": 8697,
      "▁seksen": 8698,
[...]
