{
  "version": "1.0",
  "truncation": null,
  "padding": null,
  "added_tokens": [
    {
      "id": 990,
      "content": "[MASK]",
      "single_word": false,
      "lstrip": false,
      "rstrip": false,
      "normalized": false,
      "special": true
    },
    {
      "id": 1319,
      "content": "[PAD]",
      "single_word": false,
      "lstrip": false,
      "rstrip": false,
      "normalized": false,
      "special": true
    },
    {
      "id": 2100,
      "content": "[UNK]",
      "single_word": false,
      "lstrip": false,
      "rstrip": false,
      "normalized": false,
      "special": true
    },
    {
      "id": 2558,
      "content": "[SEP]",
      "single_word": false,
      "lstrip": false,
      "rstrip": false,
      "normalized": false,
      "special": true
    },
    {
      "id": 2586,
      "content": "[CLS]",
      "single_word": false,
      "lstrip": false,
      "rstrip": false,
      "normalized": false,
      "special": true
    }
  ],
  "normalizer": {
    "type": "Sequence",
    "normalizers": [
      {
        "type": "NFD"
      },
      {
        "type": "Lowercase"
      },
      {
        "type": "StripAccents"
      }
    ]
  },
  "pre_tokenizer": {
    "type": "Sequence",
    "pretokenizers": [
      {
        "type": "Metaspace",
        "replacement": "▁",
        "prepend_scheme": "always",
        "split": true
      }
    ]
  },
  "post_processor": {
    "type": "TemplateProcessing",
    "single": [
      {
        "SpecialToken": {
          "id": "[CLS]",
          "type_id": 0
        }
      },
      {
        "Sequence": {
          "id": "A",
          "type_id": 0
        }
      },
      {
        "SpecialToken": {
          "id": "[SEP]",
          "type_id": 0
        }
      }
    ],
    "pair": [
      {
        "SpecialToken": {
          "id": "[CLS]",
          "type_id": 0
        }
      },
      {
        "Sequence": {
          "id": "A",
          "type_id": 0
        }
      },
      {
        "SpecialToken": {
          "id": "[SEP]",
          "type_id": 0
        }
      },
      {
        "Sequence": {
          "id": "B",
          "type_id": 1
        }
      },
      {
        "SpecialToken": {
          "id": "[SEP]",
          "type_id": 1
        }
      }
    ],
    "special_tokens": {
      "[CLS]": {
        "id": "[CLS]",
        "ids": [
          2586
        ],
        "tokens": [
          "[CLS]"
        ]
      },
      "[SEP]": {
        "id": "[SEP]",
        "ids": [
          2558
        ],
        "tokens": [
          "[SEP]"
        ]
      }
    }
  },
  "decoder": {
    "type": "Metaspace",
    "replacement": "▁",
    "prepend_scheme": "always",
    "split": true
  },
  "model": {
    "type": "BPE",
    "dropout": null,
    "unk_token": "[UNK]",
    "continuing_subword_prefix": null,
    "end_of_word_suffix": null,
    "fuse_unk": false,
    "byte_fallback": false,
    "ignore_merges": false,
    "vocab": {
      "▁gosteriyor": 0,
      "apolis": 1,
      "▁%25": 2,
      "alar": 3,
      "▁alan": 4,
      "ikti": 5,
      "fur": 6,
      "▁efendi": 7,
      "sem": 8,
      "▁listele": 9,
      "▁26": 10,
      "ırdı": 11,
      "▁kir": 12,
      "meleri": 13,
      "▁faaliyet": 14,
      "▁col": 15,
      "a": 16,
      "▁elinde": 17,
      "inde": 18,
      "▁nere": 19,
      "▁havayol": 20,
      "▁kalkıyor": 21,
      "▁kısa": 22,
      "▁kas": 23,
      "▁tutun": 24,
      "▁dusunc": 25,
      "ler": 26,
      "▁calıs": 27,
      "▁yuksel": 28,
      "▁olustur": 29,
      "dıgım": 30,
      "uh": 31,
      "▁gund": 32,
      "▁indianapolis'ten": 33,
      "oc": 34,
      "▁karayolu": 35,
      "▁allak": 36,
      "isco": 37,
      "ıc": 38,
      "▁asl": 39,
      "▁yetis": 40,
      "▁listel": 41,
      "▁istemiyorum": 42,
      "▁od": 43,
      "▁aralık": 44,
      "y": 45,
      "▁koca": 46,
      "aturk": 47,
      "elerde": 48,
      "sun": 49,
      "▁doları'na": 50,
      "▁ciz": 51,
      "isine": 52,
      "▁bog": 53,
      "▁49": 54,
      "▁poz": 55,
      "gı": 56,
      "▁soy": 57,
      "▁le": 58,
      "▁kons": 59,
      "▁salı": 60,
      "▁yan": 61,
      "▁sarı": 62,
      "▁sebep": 63,
      "▁hicbiri": 64,
      "▁saray": 65,
      "ufur": 66,
      "tıs": 67,
      "▁23": 68,
      "ers": 69,
      "▁eylem": 70,
      "les": 71,
      "▁sıra": 72,
      "▁cogu": 73,
      "lenen": 74,
      "▁mad": 75,
      "yak": 76,
      "anlı": 77,
      "teki": 78,
      "▁birkac": 79,
      "▁ko": 80,
      "▁yaptirdi": 81,
      "▁anim": 82,
      "liydi": 83,
      "▁isk": 84,
      "▁montre": 85,
      "▁ulas": 86,
      "▁%7": 87,
      "▁gayet": 88,
      "▁ucmak": 89,
      "▁tuc": 90,
      "▁begen": 91,
      "usunu": 92,
      "▁ag": 93,
      "▁ilgisiz": 94,
      "▁orland": 95,
      "▁ancak": 96,
      "▁gar": 97,
      "▁personeli": 98,
      "▁pil": 99,
      "▁de": 100,
      "ırt": 101,
      "ince": 102,
      "▁oranı": 103,
      "▁paul": 104,
      "▁franc": 105,
      "▁kendileri": 106,
      "▁sade": 107,
      "3": 108,
      "unda": 109,
      "ly": 110,
      "▁gir": 111,
      "ru": 112,
      "uldu": 113,
      "tedir": 114,
      "▁kazanc": 115,
      "▁cev": 116,
      "su": 117,
      "▁buldum": 118,
      "▁iddia": 119,
      "▁huz": 120,
      "ların": 121,
      "lerde": 122,
      "▁500": 123,
      "▁karanlık": 124,
      "▁bush": 125,
      "o'dan": 126,
      "▁ornegin": 127,
      "▁fut": 128,
      "▁vardı": 129,
      "'s": 130,
      "▁ihtiyac": 131,
      "▁gormek": 132,
      "▁cont": 133,
      "▁mart": 134,
      "eci": 135,
      "▁ib": 136,
      "▁bagır": 137,
      "ledi": 138,
      "▁oc": 139,
      "▁kontrol": 140,
      "▁olabilirdi": 141,
      "▁uf": 142,
      "▁j": 143,
      "luk": 144,
      "▁ber": 145,
      "ia": 146,
      "▁kaynak": 147,
      "▁hi": 148,
      "kın": 149,
      "▁dis": 150,
      "▁1.5": 151,
      "▁yım": 152,
      "dız": 153,
      "▁bal": 154,
      "ca": 155,
      "▁itibar": 156,
      "▁degistir": 157,
      "imde": 158,
      "▁oz": 159,
      "▁sunu": 160,
      "▁dik": 161,
      "▁soyle": 162,
      "x": 163,
      "yle": 164,
      "▁erk": 165,
      "▁basında": 166,
      "▁sesi": 167,
      "▁zayıf": 168,
      "iyordu": 169,
      "▁beb": 170,
      "lar": 171,
      "▁yuzunden": 172,
      "▁bunu": 173,
      "bank": 174,
      "▁*": 175,
      "▁sonra": 176,
      "▁kaf": 177,
      "▁piyasa": 178,
      "▁duz": 179,
      "r": 180,
      "▁idi": 181,
      "▁muht": 182,
      "meyi": 183,
      "▁indi": 184,
      "▁karsılık": 185,
      "=": 186,
      "▁olarak": 187,
      "apon": 188,
      "ladı": 189,
      "▁hava": 190,
      "▁gosterdi": 191,
      "▁karsıl": 192,
      "'n": 193,
      "▁not": 194,
      "▁tim": 195,
      "vel": 196,
      "▁don": 197,
      "▁cır": 198,
      "▁tavsiye": 199,
      "▁da": 200,
      "siye": 201,
      "▁tiyat": 202,
      "▁rak": 203,
      "lak": 204,
      "madan": 205,
      "medigini": 206,
      "4": 207,
      "e": 208,
      "▁ekip": 209,
      "unu": 210,
      "lıgın": 211,
      "▁si": 212,
      "elerden": 213,
      "▁yasında": 214,
      "▁%7.875": 215,
      "▁%50": 216,
      "▁ces": 217,
      "▁zor": 218,
      "▁konut": 219,
      "▁)": 220,
      "▁tıklım": 221,
      "eh": 222,
      "▁dor": 223,
      "▁oldugu": 224,
      "▁sul": 225,
      "▁porcuk": 226,
      "▁kos": 227,
      "▁gecen": 228,
      "undan": 229,
      "▁zar": 230,
      "▁tesisin": 231,
      "▁fot": 232,
      "▁red": 233,
      "w": 234,
      "▁toplum": 235,
      "▁degilse": 236,
      "▁millet": 237,
      "uyla": 238,
      "▁kabul": 239,
      "ge": 240,
      "▁gok": 241,
      "if": 242,
      "▁if": 243,
      "▁tesekkur": 244,
      "▁e": 245,
      "ıt": 246,
      "van": 247,
      "ır": 248,
      "ess": 249,
      "▁cak": 250,
      "▁temsil": 251,
      "▁gitmek": 252,
      "acagız": 253,
      "ugu": 254,
      "ılmıs": 255,
      "▁fa": 256,
      "▁enf": 257,
      "▁yalan": 258,
      "ise": 259,
      "land": 260,
      "um": 261,
      "▁gecik": 262,
      "▁pasa": 263,
      "▁yılı": 264,
      "▁muk": 265,
      "▁tane": 266,
      "▁istif": 267,
      "▁olur": 268,
      "▁hukum": 269,
      "ilmesi": 270,
      "▁pufur": 271,
      "ey": 272,
      "'ın": 273,
      "▁gercek": 274,
      "▁ucus": 275,
      "ileri": 276,
      "bu": 277,
      "ich": 278,
      "▁=": 279,
      "▁bakıyor": 280,
      "▁sokak": 281,
      "▁beklen": 282,
      "mal": 283,
      "▁n": 284,
      "▁key": 285,
      "▁hala": 286,
      "▁bilgis": 287,
      "urt": 288,
      "▁9": 289,
      "▁faz": 290,
      "m": 291,
      "▁tak": 292,
      "ısız": 293,
      "▁biz": 294,
      "una": 295,
      "tılar": 296,
      "▁beyle": 297,
      "▁rehber": 298,
      "▁ucuslar": 299,
      "▁cag": 300,
      "asında": 301,
      "oz": 302,
      "▁esk": 303,
      "▁numar": 304,
      "may": 305,
      "▁toplan": 306,
      "gin": 307,
      "▁oldukca": 308,
      "▁avukat": 309,
      "▁ba": 310,
      "▁kor": 311,
      "etir": 312,
      "uma": 313,
      "▁hasır": 314,
      "ih": 315,
      "▁guney": 316,
      "▁sh": 317,
      "tıg": 318,
      "▁demek": 319,
      "ci": 320,
      ":": 321,
      "▁malzem": 322,
      "▁tedav": 323,
      "ugun": 324,
      "lilik": 325,
      ".5": 326,
      "st": 327,
      "▁sordu": 328,
      "af": 329,
      "▁cey": 330,
      "▁ho": 331,
      "acagı": 332,
      "▁kr": 333,
      "▁first": 334,
      "layan": 335,
      "g": 336,
      "▁dusus": 337,
      "▁kendim": 338,
      "erk": 339,
      "▁ayakk": 340,
      "▁day": 341,
      "▁polit": 342,
      "larım": 343,
      "▁stok": 344,
      "isti": 345,
      "0'": 346,
      "▁sav": 347,
      "▁,": 348,
      "▁tesis": 349,
      "▁yel": 350,
      "inda": 351,
      "▁yaptıgı": 352,
      "▁basarılı": 353,
      "▁acık": 354,
      "esinde": 355,
      "iydi": 356,
      "▁sınıfı": 357,
      "▁oldug": 358,
      "▁kırık": 359,
      "▁yerine": 360,
      "▁cicek": 361,
      "p": 362,
      "▁kah": 363,
      "▁yıllar": 364,
      "▁onemli": 365,
      "▁kıymet": 366,
      "▁olduk": 367,
      "▁bitir": 368,
      "▁kalma": 369,
      "enek": 370,
      "imdi": 371,
      "▁lungur": 372,
      "▁kurul": 373,
      "▁yavas": 374,
      "▁ev": 375,
      "acı": 376,
      "larında": 377,
      "▁denizi": 378,
      "▁sipar": 379,
      "▁ar": 380,
      "▁ragmen": 381,
      "▁dog": 382,
      "▁musa": 383,
      "▁salt": 384,
      "▁nakit": 385,
      "▁olmadıgı": 386,
      "▁300": 387,
      "lo": 388,
      "sil": 389,
      "art": 390,
      "▁vardır": 391,
      "▁toront": 392,
      "▁5": 393,
      "▁kendisini": 394,
      "▁tah": 395,
      "kuz": 396,
      "▁gizli": 397,
      "mıyor": 398,
      "▁w": 399,
      "▁cogun": 400,
      "▁ekmek": 401,
      "▁ısı": 402,
      "▁etti": 403,
      "amıs": 404,
      "▁ma": 405,
      "▁uzak": 406,
      "▁talep": 407,
      "larıyla": 408,
      "sız": 409,
      "der": 410,
      "▁am": 411,
      "▁air": 412,
      "▁yeniden": 413,
      "▁akl": 414,
      "▁fiyati": 415,
      "▁bayram": 416,
      "▁beklem": 417,
      "▁net": 418,
      "ımız": 419,
      "eden": 420,
      "▁bakan": 421,
      "▁milwaukee'den": 422,
      "▁dusun": 423,
      "▁herk": 424,
      "▁eksik": 425,
      "▁seh": 426,
      "ene": 427,
      "▁kalkıs": 428,
      "▁siyasi": 429,
      "▁hatır": 430,
      "alt": 431,
      "▁verdi": 432,
      "▁ayır": 433,
      "▁dunyanın": 434,
      "▁bunların": 435,
      "▁koyun": 436,
      "▁bilet": 437,
      "rı": 438,
      "meyen": 439,
      "▁edebiyat": 440,
      "▁sır": 441,
      "▁onunla": 442,
      "▁bahs": 443,
      "▁i": 444,
      "▁deniz": 445,
      "burgh": 446,
      "▁bul": 447,
      "▁denver'e": 448,
      "▁hayal": 449,
      "eviz": 450,
      "ya": 451,
      "▁yılın": 452,
      "▁ge": 453,
      "▁bey": 454,
      "▁senin": 455,
      "sın": 456,
      "ına": 457,
      "ıyorlar": 458,
      "mektedir": 459,
      "▁p": 460,
      "▁sinir": 461,
      "dem": 462,
      "aket": 463,
      "▁york'tan": 464,
      "eleri": 465,
      "endi": 466,
      "▁angeles": 467,
      "▁ogle": 468,
      "▁hazine": 469,
      "▁su": 470,
      "lah": 471,
      "sik": 472,
      "▁komisyon": 473,
      "▁gorusuldu": 474,
      "▁sof": 475,
      "▁olar": 476,
      "dar": 477,
      "▁adi": 478,
      "▁vegas'a": 479,
      "▁fik": 480,
      "lige": 481,
      "▁baslıyor": 482,
      "alarını": 483,
      "▁mes": 484,
      "▁kucuk": 485,
      "lere": 486,
      "▁or": 487,
      "▁;": 488,
      "un": 489,
      "▁mus": 490,
      "undeki": 491,
      "▁senedi": 492,
      "▁niyet": 493,
      "artesi": 494,
      "enin": 495,
      "ates": 496,
      "▁cıkan": 497,
      "▁ikib": 498,
      "acagım": 499,
      "ust": 500,
      "▁buz": 501,
      "▁mut": 502,
      "esinden": 503,
      "▁ingiliz": 504,
      "▁gercekles": 505,
      "at": 506,
      "▁dur": 507,
      "ach": 508,
      "▁memur": 509,
      "▁milwaukee'ye": 510,
      "▁gore": 511,
      "a'nın": 512,
      "▁ig": 513,
      "▁madd": 514,
      "udu": 515,
      "miyorum": 516,
      "▁city'e": 517,
      "▁hangisi": 518,
      "▁sovyet": 519,
      "▁ozgur": 520,
      "er": 521,
      "ilig": 522,
      "imize": 523,
      "▁mev": 524,
      "mamıs": 525,
      "▁ydu": 526,
      "▁borc": 527,
      "▁mor": 528,
      "en": 529,
      "▁%6.4": 530,
      "▁hafif": 531,
      "▁yuzme": 532,
      "▁yerinde": 533,
      "bi": 534,
      "▁tuket": 535,
      "▁kuzey": 536,
      "▁yaptirmadim": 537,
      "▁kalmadim": 538,
      "rol": 539,
      "▁begenmedim": 540,
      "▁del": 541,
      "▁muh": 542,
      "▁boston'a": 543,
      "lıkla": 544,
      "ell": 545,
      "▁oldugum": 546,
      "▁dusuk": 547,
      "arı": 548,
      "manı": 549,
      "▁kesinlikle": 550,
      "▁california": 551,
      "▁universit": 552,
      "▁hem": 553,
      "▁saf": 554,
      "▁otomobil": 555,
      "▁hikay": 556,
      "▁hayvan": 557,
      "▁benzer": 558,
      "▁gul": 559,
      "▁oyle": 560,
      "▁ses": 561,
      "▁alım": 562,
      "▁oner": 563,
      "▁anlat": 564,
      "leket": 565,
      "▁aldı": 566,
      "▁dusunuyor": 567,
      "▁yukarı": 568,
      "▁dobr": 569,
      "▁ann": 570,
      "▁tahmin": 571,
      "erken": 572,
      "luluk": 573,
      "▁oyun": 574,
      "▁konak": 575,
      "▁ait": 576,
      "▁f": 577,
      "ti": 578,
      "orm": 579,
      "rem": 580,
      "tas": 581,
      "▁gece": 582,
      "▁yarın": 583,
      "lari": 584,
      "▁sans": 585,
      "▁:": 586,
      "lik": 587,
      "▁bo": 588,
      "▁edilen": 589,
      "▁kullanmadim": 590,
      "memis": 591,
      "▁anda": 592,
      "▁odaydi": 593,
      "▁onay": 594,
      "▁he": 595,
      "ıma": 596,
      "▁ulusal": 597,
      "▁pas": 598,
      "▁biliyor": 599,
      "▁adam": 600,
      "ne": 601,
      "▁merkezine": 602,
      "▁itir": 603,
      "▁sırada": 604,
      "ley": 605,
      "cu": 606,
      "ore": 607,
      "▁konfor": 608,
      "▁ihrac": 609,
      "▁guzeldi": 610,
      "rum": 611,
      "▁gittik": 612,
      "▁menkul": 613,
      "▁dem": 614,
      "arken": 615,
      "dıgı": 616,
      "▁endek": 617,
      "▁seattle": 618,
      "esiyle": 619,
      "▁birles": 620,
      "▁saat": 621,
      "▁anket": 622,
      "ka": 623,
      "▁hik": 624,
      "▁isim": 625,
      "sızlık": 626,
      "▁miyim": 627,
      "ans": 628,
      "▁harika": 629,
      "▁onlara": 630,
      "mistir": 631,
      "▁kot": 632,
      "▁lok": 633,
      "▁haldır": 634,
      "ib": 635,
      "▁kac": 636,
      "landır": 637,
      "▁aile": 638,
      "▁destek": 639,
      "eyn": 640,
      "▁bunun": 641,
      "us": 642,
      "▁28": 643,
      "▁dep": 644,
      "▁naz": 645,
      "▁islet": 646,
      "▁sunları": 647,
      "▁ziy": 648,
      "▁kez": 649,
      "▁birisi": 650,
      "▁basladı": 651,
      "ec": 652,
      "nun": 653,
      "mesi": 654,
      "▁ta": 655,
      "▁onlar": 656,
      "emey": 657,
      "dı": 658,
      "cak": 659,
      "ere": 660,
      "▁birden": 661,
      "▁ticaret": 662,
      "▁etmeye": 663,
      "larak": 664,
      "▁serv": 665,
      "▁mec": 666,
      "▁kahv": 667,
      "▁iler": 668,
      "▁class": 669,
      "ayan": 670,
      "▁ozel": 671,
      "▁acıklam": 672,
      "▁bolum": 673,
      "dun": 674,
      "yalar": 675,
      "▁ez": 676,
      "▁pis": 677,
      "masını": 678,
      "▁muster": 679,
      "arlan": 680,
      "▁ayrıl": 681,
      "▁bakım": 682,
      "▁yarım": 683,
      "▁%11": 684,
      "▁ya": 685,
      "esini": 686,
      "ont": 687,
      "-6": 688,
      "siz": 689,
      "▁yag": 690,
      "sal": 691,
      "adar": 692,
      "▁kol": 693,
      "imden": 694,
      "ayım": 695,
      "ısın": 696,
      "▁ir": 697,
      "▁lutfen": 698,
      "▁tem": 699,
      "co": 700,
      "▁yapıyor": 701,
      "emmel": 702,
      "▁miydi": 703,
      "▁1989-": 704,
      "ının": 705,
      "eni": 706,
      "▁dam": 707,
      "▁edip": 708,
      "▁fabrik": 709,
      "ama": 710,
      "▁kalite": 711,
      "▁ifade": 712,
      "▁isletme": 713,
      "▁odem": 714,
      "▁yoktu": 715,
      "▁sistem": 716,
      "▁derli": 717,
      "emiyor": 718,
      "▁ih": 719,
      "▁ey": 720,
      "'ndan": 721,
      "▁bes": 722,
      "of": 723,
      "▁ik": 724,
      "▁yum": 725,
      "▁onumuz": 726,
      "amak": 727,
      "ligini": 728,
      "▁art": 729,
      "ma": 730,
      "ınca": 731,
      "vet": 732,
      "lerinin": 733,
      "▁ziyaret": 734,
      "▁ikinci": 735,
      "▁tıpıs": 736,
      "isleri": 737,
      "imi": 738,
      "▁kit": 739,
      "aten": 740,
      "▁pittsburgh'a": 741,
      "aları": 742,
      "▁cit": 743,
      "ime": 744,
      "▁te": 745,
      "yse": 746,
      "dan": 747,
      "▁af": 748,
      "▁oden": 749,
      "phia": 750,
      "▁merdi": 751,
      "hal": 752,
      "▁hiss": 753,
      "atı": 754,
      "▁rap": 755,
      "ational": 756,
      "▁oyn": 757,
      "▁ortaya": 758,
      "tuk": 759,
      "mis": 760,
      "▁asagı": 761,
      "idik": 762,
      "▁sigorta": 763,
      "iler": 764,
      "ayet": 765,
      "iniz": 766,
      "▁sorunu": 767,
      "▁gel": 768,
      ".0": 769,
      "▁mem": 770,
      "b": 771,
      "▁yal": 772,
      "ya'nın": 773,
      "▁onları": 774,
      "▁kal": 775,
      "\\/8": 776,
      "▁belir": 777,
      "▁bizde": 778,
      "ırıl": 779,
      "▁yemek": 780,
      "▁tan": 781,
      "ton": 782,
      ";": 783,
      "▁street": 784,
      "▁delik": 785,
      "sin": 786,
      "▁yog": 787,
      "▁bors": 788,
      "▁charlotte": 789,
      "▁havayolu": 790,
      "▁havaalan": 791,
      "ume": 792,
      "▁kut": 793,
      "eyle": 794,
      "▁ust": 795,
      "▁yemeklerinden": 796,
      "▁uzman": 797,
      "▁tezgah": 798,
      "▁memnun": 799,
      "▁27": 800,
      "▁pay": 801,
      "▁57": 802,
      "▁ph": 803,
      "▁azal": 804,
      "ay": 805,
      "▁agac": 806,
      "▁rast": 807,
      "▁yonetim": 808,
      "▁haline": 809,
      "▁dokun": 810,
      "▁alk": 811,
      "▁bicim": 812,
      "▁alacak": 813,
      "▁parmak": 814,
      "▁mudur": 815,
      "▁miy": 816,
      "ub": 817,
      "ilerine": 818,
      "▁bilg": 819,
      "▁kalan": 820,
      "▁gecir": 821,
      "▁kacın": 822,
      "▁cem": 823,
      "cek": 824,
      "ildi": 825,
      "▁43": 826,
      "▁29": 827,
      "▁sosy": 828,
      "▁dı": 829,
      "▁dallas": 830,
      "▁huk": 831,
      "ver": 832,
      "▁benz": 833,
      "▁duruyor": 834,
      "▁boyunca": 835,
      "aat": 836,
      "mıstır": 837,
      "alım": 838,
      "manın": 839,
      "▁didik": 840,
      "▁sozcusu": 841,
      "▁durdur": 842,
      "unuyor": 843,
      "emek": 844,
      "▁kaldır": 845,
      "gan": 846,
      "▁artısla": 847,
      "adı": 848,
      "iya": 849,
      "▁suy": 850,
      "▁fikir": 851,
      "roit": 852,
      "▁ettigini": 853,
      "▁sim": 854,
      "▁patır": 855,
      "▁ataturk": 856,
      "▁mah": 857,
      "▁takır": 858,
      "▁nis": 859,
      "▁temel": 860,
      "▁aktif": 861,
      "▁yuv": 862,
      "▁has": 863,
      "f": 864,
      "▁vergi": 865,
      "▁kere": 866,
      "▁lake": 867,
      "▁dus": 868,
      "▁otur": 869,
      "▁kars": 870,
      "tor": 871,
      "▁askeri": 872,
      "lem": 873,
      "tif": 874,
      "▁baglı": 875,
      "▁yine": 876,
      "▁yirmi": 877,
      "▁memph": 878,
      "▁yaslı": 879,
      "▁sayı": 880,
      "alan": 881,
      "▁boyle": 882,
      "ult": 883,
      "▁konusunda": 884,
      "amız": 885,
      "▁kıyas": 886,
      "▁sikayet": 887,
      "az": 888,
      "▁guzel": 889,
      "▁%7.": 890,
      "▁personelleri": 891,
      "▁belki": 892,
      "ısıyla": 893,
      "▁bor": 894,
      "▁ciyak": 895,
      "▁mur": 896,
      "det": 897,
      "▁artıs": 898,
      "daki": 899,
      "are": 900,
      "▁arka": 901,
      "▁personeller": 902,
      "▁ilgi": 903,
      "ı": 904,
      "▁mun": 905,
      "lemek": 906,
      "uyordu": 907,
      "rar": 908,
      "emiz": 909,
      "uyorlar": 910,
      "arl": 911,
      "▁ban": 912,
      "▁kapalı": 913,
      "▁fr": 914,
      "▁yas": 915,
      "▁bildir": 916,
      "orn": 917,
      "▁beni": 918,
      "▁ucreti": 919,
      "▁arkadas": 920,
      "▁egitim": 921,
      "▁0": 922,
      "▁.": 923,
      "▁aj": 924,
      "asa": 925,
      "dav": 926,
      "▁cıtır": 927,
      "eb": 928,
      "iss": 929,
      "gi": 930,
      "▁sehir": 931,
      "ustr": 932,
      "▁uret": 933,
      "▁gorunuyor": 934,
      "inin": 935,
      "aması": 936,
      "▁washington'a": 937,
      "▁bol": 938,
      "ulmus": 939,
      "▁3": 940,
      "▁baslamıs": 941,
      "▁yay": 942,
      "▁gozlerini": 943,
      "ograf": 944,
      "▁yedi": 945,
      "agı": 946,
      "▁uygul": 947,
      "▁bizi": 948,
      "ez": 949,
      "▁yav": 950,
      "▁ard": 951,
      "ecegi": 952,
      "▁hepsinin": 953,
      "▁tac": 954,
      "▁gitti": 955,
      "▁ekonomik": 956,
      "las": 957,
      "leriyle": 958,
      "uston": 959,
      "mıstı": 960,
      "t": 961,
      "▁akıl": 962,
      "▁say": 963,
      "▁geliyor": 964,
      "▁hastan": 965,
      "▁ner": 966,
      "▁lu": 967,
      "▁av": 968,
      "▁kadar": 969,
      "▁%9": 970,
      "▁yere": 971,
      "ast": 972,
      "▁%2": 973,
      "▁tarih": 974,
      "▁%10": 975,
      "7": 976,
      "▁dolas": 977,
      "ok": 978,
      "▁borsa": 979,
      "▁dedik": 980,
      "ırak": 981,
      "▁istedi": 982,
      "#": 983,
      "▁sessiz": 984,
      "▁1\\/": 985,
      "▁ek": 986,
      "ili": 987,
      "▁evin": 988,
      "muz": 989,
      "[MASK]": 990,
      "uya": 991,
      "▁finans": 992,
      "▁cıyak": 993,
      "ond": 994,
      "▁gorur": 995,
      "▁izin": 996,
      "se": 997,
      "▁cevr": 998,
      "▁fık": 999,
      "▁38": 1000,
      "▁seyden": 1001,
      "▁onunde": 1002,
      "son": 1003,
      "▁duzen": 1004,
      "▁kes": 1005,
      "▁daha": 1006,
      "▁hareket": 1007,
      "▁onların": 1008,
      "anc": 1009,
      "▁vegas": 1010,
      "▁babam": 1011,
      "lin": 1012,
      "imli": 1013,
      "utur": 1014,
      "iz": 1015,
      "ist": 1016,
      "ekler": 1017,
      "samba": 1018,
      "▁danıs": 1019,
      "adel": 1020,
      "▁evvel": 1021,
      "▁tip": 1022,
      "▁198": 1023,
      "▁ornek": 1024,
      "▁kardes": 1025,
      "ıl": 1026,
      "▁sa": 1027,
      "▁dagıt": 1028,
      "▁1989-8": 1029,
      "▁ken": 1030,
      "▁a": 1031,
      "▁gunu": 1032,
      "ide": 1033,
      "▁uzerinden": 1034,
      "▁kelim": 1035,
      "▁rakam": 1036,
      "unun": 1037,
      "unku": 1038,
      "▁&": 1039,
      "▁goz": 1040,
      "gunu": 1041,
      "▁bahc": 1042,
      "▁must": 1043,
      "▁ele": 1044,
      "▁bazi": 1045,
      "▁imz": 1046,
      "▁muzik": 1047,
      "▁ters": 1048,
      "▁gerekiyor": 1049,
      "gmen": 1050,
      "▁sabah": 1051,
      "ation": 1052,
      "▁us": 1053,
      "▁edecek": 1054,
      "▁24": 1055,
      "▁birini": 1056,
      "▁sas": 1057,
      "%": 1058,
      "egas": 1059,
      "▁k": 1060,
      "up": 1061,
      "lum": 1062,
      "▁fıldır": 1063,
      "▁kat": 1064,
      "sat": 1065,
      "ucuk": 1066,
      "▁%80": 1067,
      "▁operasyon": 1068,
      "▁karıstır": 1069,
      "▁buna": 1070,
      "▁taraf": 1071,
      "▁fing": 1072,
      "▁tec": 1073,
      "▁cık": 1074,
      "n": 1075,
      "▁fena": 1076,
      "▁dav": 1077,
      "▁gom": 1078,
      "omur": 1079,
      "ustri": 1080,
      "▁soylem": 1081,
      "▁boylece": 1082,
      "tan": 1083,
      "▁verim": 1084,
      "amaz": 1085,
      "▁bus": 1086,
      "lım": 1087,
      "▁bed": 1088,
      "▁boston": 1089,
      "nız": 1090,
      "ılmaz": 1091,
      "▁karsiligini": 1092,
      "▁diger": 1093,
      "▁son": 1094,
      "egen": 1095,
      "▁def": 1096,
      "▁verilen": 1097,
      ".50": 1098,
      "ten": 1099,
      "▁francisco'ya": 1100,
      "▁hur": 1101,
      "▁misafir": 1102,
      "▁uzun": 1103,
      "▁ekim": 1104,
      "ırım": 1105,
      "est": 1106,
      "▁ac": 1107,
      "▁kitap": 1108,
      "▁azalt": 1109,
      "▁baltimore'den": 1110,
      "ph": 1111,
      "▁elestir": 1112,
      "▁tanım": 1113,
      "iyor": 1114,
      "▁savunma": 1115,
      "▁kampanyalar": 1116,
      "'ten": 1117,
      "▁ucusu": 1118,
      "▁for": 1119,
      "▁vermis": 1120,
      "li": 1121,
      "▁olan": 1122,
      "▁kurt": 1123,
      "eceg": 1124,
      "▁deng": 1125,
      "▁im": 1126,
      "▁3/": 1127,
      "sınız": 1128,
      "ıldı": 1129,
      "▁yapılacak": 1130,
      "tar": 1131,
      "▁%51": 1132,
      "▁kis": 1133,
      "▁dom": 1134,
      "▁?": 1135,
      "▁kultur": 1136,
      "▁ener": 1137,
      "▁direk": 1138,
      "abı": 1139,
      "▁katıl": 1140,
      "▁karsısında": 1141,
      "▁asırı": 1142,
      "sen": 1143,
      "cok": 1144,
      "▁tehlik": 1145,
      "▁wall": 1146,
      "ıyor": 1147,
      "▁.)": 1148,
      "▁utan": 1149,
      "ansız": 1150,
      "▁1.3": 1151,
      "▁sark": 1152,
      "▁pa": 1153,
      "▁kıy": 1154,
      "▁bogaz": 1155,
      "edef": 1156,
      "▁dalg": 1157,
      "▁nak": 1158,
      "▁18": 1159,
      "ısır": 1160,
      "▁once": 1161,
      "be": 1162,
      "▁soyledi": 1163,
      "cut": 1164,
      "abet": 1165,
      "apol": 1166,
      "▁tahvil": 1167,
      "dum": 1168,
      "▁cif": 1169,
      "meli": 1170,
      "hangi": 1171,
      "▁%30": 1172,
      "ihaz": 1173,
      "▁gosterin": 1174,
      "▁faiz": 1175,
      "▁kazandı": 1176,
      "▁evi": 1177,
      "▁ten": 1178,
      "▁superdi": 1179,
      "ersiz": 1180,
      "▁nas": 1181,
      "▁tarif": 1182,
      "ov": 1183,
      "▁cocugun": 1184,
      "eli": 1185,
      "▁bilgi": 1186,
      "▁kapan": 1187,
      "▁yasa": 1188,
      "lif": 1189,
      "esin": 1190,
      "▁ise": 1191,
      "▁surec": 1192,
      "ter": 1193,
      "▁dair": 1194,
      "▁kom": 1195,
      "▁burada": 1196,
      "▁parti": 1197,
      "▁tutar": 1198,
      "▁sup": 1199,
      "alarında": 1200,
      "▁oakland'a": 1201,
      "bir": 1202,
      "▁bana": 1203,
      "ilecek": 1204,
      "▁is": 1205,
      "▁17": 1206,
      "▁196": 1207,
      "ıkır": 1208,
      "▁anad": 1209,
      "▁31": 1210,
      "▁kalkıp": 1211,
      "▁kil": 1212,
      "dim": 1213,
      "▁erken": 1214,
      "▁olsun": 1215,
      "▁bilim": 1216,
      "▁anlam": 1217,
      "▁12": 1218,
      "ecek": 1219,
      "▁ren": 1220,
      "▁hanimdi": 1221,
      "▁alıs": 1222,
      "▁kırk": 1223,
      "▁kendin": 1224,
      "▁deprem": 1225,
      "▁nik": 1226,
      "gında": 1227,
      "▁yık": 1228,
      "mel": 1229,
      "▁60": 1230,
      "▁ha": 1231,
      "▁yi": 1232,
      "▁turlu": 1233,
      "00": 1234,
      "▁yatırımcılar": 1235,
      "▁yalnız": 1236,
      "▁test": 1237,
      "▁satıs": 1238,
      "▁top": 1239,
      "▁cıkmıs": 1240,
      "▁siir": 1241,
      "▁kısı": 1242,
      "$": 1243,
      "▁uz": 1244,
      "▁197": 1245,
      "▁hır": 1246,
      "▁edil": 1247,
      "acagını": 1248,
      "▁dogru": 1249,
      "▁bin": 1250,
      "▁zaman": 1251,
      "▁city": 1252,
      "▁dov": 1253,
      "▁cel": 1254,
      "in": 1255,
      "et": 1256,
      "▁getir": 1257,
      "▁doldur": 1258,
      "ik": 1259,
      "sunuz": 1260,
      "▁maliyet": 1261,
      "▁cı": 1262,
      "ısına": 1263,
      "▁kisi": 1264,
      "fet": 1265,
      "▁dogr": 1266,
      "▁cen": 1267,
      "▁sor": 1268,
      "ve": 1269,
      "▁37": 1270,
      "ark": 1271,
      "pıs": 1272,
      "▁arac": 1273,
      "gur": 1274,
      "▁alabilir": 1275,
      "▁endeks": 1276,
      "▁nelerdir": 1277,
      "ılım": 1278,
      "istan": 1279,
      "▁har": 1280,
      "tern": 1281,
      "dig": 1282,
      "▁yanlıs": 1283,
      "acılar": 1284,
      "▁tır": 1285,
      "▁derin": 1286,
      "▁git": 1287,
      "▁rezervasyonu": 1288,
      "▁elb": 1289,
      "▁cift": 1290,
      "▁basv": 1291,
      "▁ede": 1292,
      "▁tım": 1293,
      "▁kayn": 1294,
      "▁ili": 1295,
      "v": 1296,
      "▁savun": 1297,
      "▁futbol": 1298,
      "sı": 1299,
      "▁insanın": 1300,
      "leyen": 1301,
      "▁deney": 1302,
      "▁gercekten": 1303,
      "uru": 1304,
      "0": 1305,
      "▁kesin": 1306,
      "▁ilk": 1307,
      "gını": 1308,
      "▁baz": 1309,
      "▁ip": 1310,
      "▁21": 1311,
      "▁dar": 1312,
      "▁kayıt": 1313,
      "▁olanak": 1314,
      "▁uc": 1315,
      ".7": 1316,
      "alet": 1317,
      "▁sar": 1318,
      "[PAD]": 1319,
      "▁kadın": 1320,
      "▁corp": 1321,
      "▁%4.8": 1322,
      "▁oteli": 1323,
      "▁5-1": 1324,
      "▁arab": 1325,
      "▁kalkan": 1326,
      "▁ticari": 1327,
      "▁bundan": 1328,
      "▁ter": 1329,
      "▁karak": 1330,
      "▁problem": 1331,
      "lıgı": 1332,
      "pa": 1333,
      "▁h": 1334,
      "9": 1335,
      "▁iyi": 1336,
      "▁gerek": 1337,
      "▁bizimle": 1338,
      ".9": 1339,
      "▁%4": 1340,
      "▁almıs": 1341,
      "▁sig": 1342,
      "ayı": 1343,
      "▁eder": 1344,
      "▁performan": 1345,
      "▁satım": 1346,
      "ları": 1347,
      "▁ici": 1348,
      "emez": 1349,
      "▁kendiler": 1350,
      "▁7": 1351,
      "abil": 1352,
      "▁parca": 1353,
      "▁75": 1354,
      "att": 1355,
      "▁tay": 1356,
      "▁200": 1357,
      "▁sert": 1358,
      "▁nedeniyle": 1359,
      "▁tek": 1360,
      "gileri": 1361,
      "▁sur": 1362,
      "mustu": 1363,
      "timore": 1364,
      "▁ulus": 1365,
      "tik": 1366,
      "▁kans": 1367,
      "agan": 1368,
      "▁dayan": 1369,
      "▁basını": 1370,
      "▁hadi": 1371,
      "ye": 1372,
      "'u": 1373,
      "▁saglık": 1374,
      "▁mayıs": 1375,
      "▁dusman": 1376,
      "▁bizler": 1377,
      "ki": 1378,
      "8": 1379,
      "ade": 1380,
      "▁ulasım": 1381,
      "▁francisco": 1382,
      "▁%7.8": 1383,
      "eet": 1384,
      "▁kusur": 1385,
      "▁sıkı": 1386,
      "▁z": 1387,
      "▁kop": 1388,
      "▁ingil": 1389,
      "▁alak": 1390,
      "'y": 1391,
      "▁bulunuyor": 1392,
      "yen": 1393,
      "▁a.": 1394,
      "▁yapılan": 1395,
      "▁kanı": 1396,
      "▁olm": 1397,
      "▁herkes": 1398,
      "▁cik": 1399,
      "▁meyal": 1400,
      "▁anlas": 1401,
      "▁galib": 1402,
      "let": 1403,
      "▁edi": 1404,
      "▁hizmet": 1405,
      "▁kov": 1406,
      "ulu": 1407,
      "▁199": 1408,
      "▁guleryuzluydu": 1409,
      "isyon": 1410,
      "oloj": 1411,
      "▁t": 1412,
      "alara": 1413,
      "▁ortam": 1414,
      "taj": 1415,
      "▁ile": 1416,
      "▁onem": 1417,
      "▁philadelphia'dan": 1418,
      "▁yagmur": 1419,
      "▁fort": 1420,
      "▁\"": 1421,
      "2": 1422,
      "duncu": 1423,
      "▁dogal": 1424,
      "”": 1425,
      "▁gal": 1426,
      "▁grub": 1427,
      "tıgını": 1428,
      "▁bunları": 1429,
      "▁1.2": 1430,
      "▁program": 1431,
      "ke": 1432,
      "▁surekli": 1433,
      "mem": 1434,
      "lanır": 1435,
      "▁taz": 1436,
      "▁kıv": 1437,
      "larda": 1438,
      "▁gorev": 1439,
      "alarda": 1440,
      "▁cer": 1441,
      "▁eki": 1442,
      "eler": 1443,
      "▁tasar": 1444,
      "ogram": 1445,
      "alanı": 1446,
      "▁eks": 1447,
      "▁yapma": 1448,
      "2:30": 1449,
      "▁yukseldi": 1450,
      "▁ets": 1451,
      "cisi": 1452,
      "uklum": 1453,
      "▁misiniz": 1454,
      "gumuz": 1455,
      "fa": 1456,
      "▁11": 1457,
      "lerin": 1458,
      "▁yapmak": 1459,
      "▁kahve": 1460,
      "▁48": 1461,
      "▁lı": 1462,
      "▁adım": 1463,
      "net": 1464,
      "▁dok": 1465,
      "olu": 1466,
      "ydı": 1467,
      "▁kahval": 1468,
      "▁bilmiyorum": 1469,
      "▁bank": 1470,
      "▁coc": 1471,
      "digini": 1472,
      "fi": 1473,
      "▁proj": 1474,
      "isiz": 1475,
      "iri": 1476,
      "▁cep": 1477,
      "ill": 1478,
      "▁cinc": 1479,
      "▁inc": 1480,
      "▁civ": 1481,
      "▁gem": 1482,
      "▁%8.2": 1483,
      "▁13": 1484,
      "▁fıs": 1485,
      "▁newark": 1486,
      "▁hisse": 1487,
      "ant": 1488,
      "▁bence": 1489,
      "▁kup": 1490,
      "▁begendim": 1491,
      "▁tic": 1492,
      "▁arz": 1493,
      "ebil": 1494,
      "▁bizim": 1495,
      "▁hijyen": 1496,
      "▁amerik": 1497,
      "▁rahat": 1498,
      "ecegini": 1499,
      "orth": 1500,
      "maları": 1501,
      "▁mavi": 1502,
      "maktan": 1503,
      "▁geri": 1504,
      "▁guleryuzlu": 1505,
      "▁yat": 1506,
      "arında": 1507,
      "▁as": 1508,
      "▁%": 1509,
      "▁ka": 1510,
      "▁zamanda": 1511,
      "▁il": 1512,
      "▁end": 1513,
      "'ye": 1514,
      "tık": 1515,
      "lık": 1516,
      "ında": 1517,
      "&": 1518,
      "▁yiy": 1519,
      "▁onun": 1520,
      "sizlik": 1521,
      "▁haft": 1522,
      "▁met": 1523,
      "tim": 1524,
      "bur": 1525,
      "▁sus": 1526,
      "▁york": 1527,
      "▁ucak": 1528,
      "▁allah": 1529,
      "▁pah": 1530,
      "ef": 1531,
      "ıyorum": 1532,
      "iyas": 1533,
      "urken": 1534,
      "▁mol": 1535,
      "▁kurulus": 1536,
      "▁borsası": 1537,
      "▁milwa": 1538,
      "▁sez": 1539,
      "▁em": 1540,
      "▁ufak": 1541,
      "negin": 1542,
      "eg": 1543,
      "rup": 1544,
      "'dan": 1545,
      "▁can": 1546,
      "▁ustu": 1547,
      "▁ic": 1548,
      "es": 1549,
      "▁oteldi": 1550,
      "▁seker": 1551,
      "ap": 1552,
      "gar": 1553,
      "obr": 1554,
      "▁arasındaki": 1555,
      "▁mektup": 1556,
      "▁ucret": 1557,
      "▁tat": 1558,
      "▁mek": 1559,
      "▁may": 1560,
      "▁bize": 1561,
      "eme": 1562,
      "▁kıymetler": 1563,
      "▁bununla": 1564,
      "▁mustafa": 1565,
      "▁kost": 1566,
      "▁.\"": 1567,
      "dek": 1568,
      "▁inan": 1569,
      "▁aynı": 1570,
      "gah": 1571,
      "lerinden": 1572,
      "gis": 1573,
      "acak": 1574,
      "▁dc": 1575,
      "▁seyler": 1576,
      "ıldır": 1577,
      "▁duserek": 1578,
      "'de": 1579,
      "▁%22": 1580,
      "▁corp.": 1581,
      "▁fır": 1582,
      "▁bile": 1583,
      "▁kasım": 1584,
      "▁urun": 1585,
      "▁derece": 1586,
      "▁bah": 1587,
      "▁14": 1588,
      "▁%14": 1589,
      "all": 1590,
      "▁seyahat": 1591,
      "▁gev": 1592,
      "▁kontr": 1593,
      "erler": 1594,
      "▁yolu": 1595,
      "▁'d": 1596,
      "▁sana": 1597,
      "▁yerel": 1598,
      "▁kuv": 1599,
      "etin": 1600,
      "alarına": 1601,
      "ilere": 1602,
      "tak": 1603,
      "ayi": 1604,
      "▁feder": 1605,
      "?": 1606,
      "onu": 1607,
      "▁ben": 1608,
      "▁indir": 1609,
      "▁nokta": 1610,
      "▁gidis": 1611,
      "▁onu": 1612,
      "ısık": 1613,
      "▁belirt": 1614,
      "▁sadece": 1615,
      "umu": 1616,
      "▁19": 1617,
      "▁mıs": 1618,
      "▁kent": 1619,
      "▁dır": 1620,
      "ılık": 1621,
      "▁atlanta": 1622,
      "▁soyluyor": 1623,
      "▁yesil": 1624,
      "ayol": 1625,
      "▁icecek": 1626,
      "ong": 1627,
      "▁titr": 1628,
      "▁icine": 1629,
      "▁birbirine": 1630,
      "-4": 1631,
      "▁istih": 1632,
      "▁dib": 1633,
      "ık": 1634,
      "uyorum": 1635,
      "▁gonder": 1636,
      "▁sahib": 1637,
      "leme": 1638,
      "▁basit": 1639,
      "▁kum": 1640,
      "▁phoeni": 1641,
      "▁yonetic": 1642,
      "eye": 1643,
      "▁deger": 1644,
      "▁sun": 1645,
      "▁fiyat": 1646,
      "as": 1647,
      "…": 1648,
      "▁aslında": 1649,
      "og": 1650,
      "agını": 1651,
      "itt": 1652,
      "▁yardım": 1653,
      "▁1/2": 1654,
      "▁yans": 1655,
      "bet": 1656,
      "▁kur": 1657,
      "▁sil": 1658,
      "▁benimle": 1659,
      "▁bl": 1660,
      "▁ilgilen": 1661,
      "▁ef": 1662,
      "▁dedim": 1663,
      "agın": 1664,
      "▁ucusların": 1665,
      "ınız": 1666,
      "▁kurulu": 1667,
      "hut": 1668,
      "▁ila": 1669,
      "▁parc": 1670,
      "▁soyley": 1671,
      "▁kendisi": 1672,
      "▁ydı": 1673,
      "89": 1674,
      "▁soylen": 1675,
      "▁1987": 1676,
      "▁gerektigini": 1677,
      "eket": 1678,
      "dık": 1679,
      "▁kok": 1680,
      "landı": 1681,
      "▁aks": 1682,
      "▁fok": 1683,
      "▁bulundu": 1684,
      "ash": 1685,
      "▁bası": 1686,
      "▁peki": 1687,
      "▁rus": 1688,
      "▁veren": 1689,
      "▁kapsam": 1690,
      "▁koltuk": 1691,
      "▁ilan": 1692,
      "▁sahibi": 1693,
      "▁halde": 1694,
      "▁oakland": 1695,
      "▁ce": 1696,
      "▁ucuslarını": 1697,
      "mak": 1698,
      "▁yanl": 1699,
      "▁alma": 1700,
      "30": 1701,
      "▁sermaye": 1702,
      "▁21:00-22:30": 1703,
      "▁yuksek": 1704,
      "▁gog": 1705,
      "▁milyon": 1706,
      "dıklarını": 1707,
      "▁cesit": 1708,
      "▁ilisk": 1709,
      "▁sırt": 1710,
      "▁uzerine": 1711,
      "▁pat": 1712,
      "▁cekti": 1713,
      "▁nash": 1714,
      "▁tık": 1715,
      "▁'de": 1716,
      "▁duygu": 1717,
      "lerinde": 1718,
      "▁bırak": 1719,
      "▁sekil": 1720,
      "▁gur": 1721,
      "▁deg": 1722,
      "▁calısma": 1723,
      "tılı": 1724,
      "▁sıkır": 1725,
      "ustu": 1726,
      "inc": 1727,
      "▁ak": 1728,
      "lamak": 1729,
      "▁imkan": 1730,
      "▁silah": 1731,
      "▁pet": 1732,
      "▁aradi": 1733,
      "▁yuz": 1734,
      "▁erkek": 1735,
      "▁hayat": 1736,
      "▁oakland'dan": 1737,
      "▁y": 1738,
      "▁roman": 1739,
      "▁elli": 1740,
      "▁yaptı": 1741,
      "▁rapor": 1742,
      "▁otel": 1743,
      "kal": 1744,
      "▁yapar": 1745,
      "detti": 1746,
      "▁sov": 1747,
      "▁bon": 1748,
      "▁ug": 1749,
      "▁musta": 1750,
      "▁olması": 1751,
      "ar": 1752,
      "▁meydan": 1753,
      "lerle": 1754,
      "▁gum": 1755,
      "▁hanım": 1756,
      "▁yagm": 1757,
      "▁tuz": 1758,
      "ab": 1759,
      "▁acıklan": 1760,
      "▁ol": 1761,
      "▁devlet": 1762,
      "▁dek": 1763,
      "▁yildi": 1764,
      "dak": 1765,
      "▁tav": 1766,
      "▁%6": 1767,
      "▁ders": 1768,
      "▁onceki": 1769,
      "iyeti": 1770,
      "▁hatta": 1771,
      "▁yanında": 1772,
      "▁ay": 1773,
      "▁degildir": 1774,
      "l": 1775,
      "▁mez": 1776,
      "▁yapacak": 1777,
      "▁evet": 1778,
      "▁hepimiz": 1779,
      "▁tı": 1780,
      "\\": 1781,
      "▁ayak": 1782,
      "▁azdi": 1783,
      "▁ask": 1784,
      "▁kav": 1785,
      "▁dısı": 1786,
      "▁toplam": 1787,
      "▁mal": 1788,
      "▁adet": 1789,
      "▁dan": 1790,
      "▁sikinti": 1791,
      "▁hasta": 1792,
      "kin": 1793,
      "▁dıs": 1794,
      "▁yuzlu": 1795,
      "▁delta": 1796,
      "ot": 1797,
      "▁koc": 1798,
      "▁gelis": 1799,
      "elim": 1800,
      "▁hay": 1801,
      "ah": 1802,
      "▁zay": 1803,
      "ag": 1804,
      "cısı": 1805,
      "▁bag": 1806,
      "▁miami'ye": 1807,
      "▁bab": 1808,
      "▁tor": 1809,
      "▁amac": 1810,
      "▁davran": 1811,
      "▁dag": 1812,
      "ji": 1813,
      "▁californ": 1814,
      "▁yemekler": 1815,
      "isler": 1816,
      "▁fatur": 1817,
      "okr": 1818,
      "▁kendisine": 1819,
      "▁analistler": 1820,
      "▁sab": 1821,
      "▁dolardan": 1822,
      "ılıyor": 1823,
      "▁at": 1824,
      "▁kul": 1825,
      "▁4": 1826,
      "arası": 1827,
      "bar": 1828,
      "▁doktor": 1829,
      "▁pr": 1830,
      "▁kend": 1831,
      "▁yolc": 1832,
      "▁havuz": 1833,
      "atır": 1834,
      "kun": 1835,
      "lastı": 1836,
      "▁kayb": 1837,
      "-": 1838,
      "deki": 1839,
      "▁kendilerine": 1840,
      "ital": 1841,
      "▁lezzet": 1842,
      "▁egil": 1843,
      "ep": 1844,
      "▁olcu": 1845,
      "umus": 1846,
      "▁str": 1847,
      "▁cum": 1848,
      "iyak": 1849,
      "evi": 1850,
      "▁seyi": 1851,
      "▁sizin": 1852,
      "▁yalap": 1853,
      "ket": 1854,
      "▁tatil": 1855,
      "madim": 1856,
      "5-1": 1857,
      "+": 1858,
      "▁ileri": 1859,
      "▁dısında": 1860,
      "▁(": 1861,
      "▁detroit": 1862,
      "▁kalın": 1863,
      "▁kapas": 1864,
      "▁ediyorum": 1865,
      "▁amer": 1866,
      "ayıf": 1867,
      "ng": 1868,
      "ması": 1869,
      "aret": 1870,
      "▁kaybet": 1871,
      "amadim": 1872,
      "▁1.8": 1873,
      "▁kız": 1874,
      "erek": 1875,
      "▁okul": 1876,
      "▁arastır": 1877,
      "ısıl": 1878,
      "▁turkiye": 1879,
      "▁actı": 1880,
      "▁altı": 1881,
      "▁gelen": 1882,
      "▁stan": 1883,
      "onom": 1884,
      "▁oper": 1885,
      "▁mıy": 1886,
      "▁ihtiyacım": 1887,
      "op": 1888,
      "sa": 1889,
      "onel": 1890,
      "▁icin": 1891,
      "alarla": 1892,
      "▁gu": 1893,
      "▁alıp": 1894,
      "▁varlık": 1895,
      "▁v": 1896,
      "▁desik": 1897,
      "▁dustu": 1898,
      "▁birinci": 1899,
      "dal": 1900,
      "*": 1901,
      "▁mumkun": 1902,
      "▁dokuz": 1903,
      "'ı": 1904,
      "▁incel": 1905,
      "▁terc": 1906,
      "▁hap": 1907,
      "89-": 1908,
      "▁po": 1909,
      "▁baglan": 1910,
      "▁tesek": 1911,
      "ınc": 1912,
      "ın": 1913,
      "▁hakkında": 1914,
      "▁arada": 1915,
      "▁%5": 1916,
      "lı": 1917,
      "▁vermek": 1918,
      "▁olsa": 1919,
      "▁organ": 1920,
      "eydi": 1921,
      ".4": 1922,
      "▁basına": 1923,
      "–": 1924,
      "▁yaptir": 1925,
      "▁dolu": 1926,
      "agıt": 1927,
      "▁yetkil": 1928,
      "▁201": 1929,
      "alap": 1930,
      "o'nun": 1931,
      "lugun": 1932,
      "alak": 1933,
      "fer": 1934,
      "ız": 1935,
      "▁%13": 1936,
      "maktadır": 1937,
      "▁tep": 1938,
      "▁chic": 1939,
      "▁uyan": 1940,
      "▁denver'den": 1941,
      "misti": 1942,
      "▁lim": 1943,
      "ina": 1944,
      "▁sahip": 1945,
      "ari": 1946,
      "ram": 1947,
      "▁num": 1948,
      "▁kopek": 1949,
      "▁cab": 1950,
      "ilm": 1951,
      "▁%7.7": 1952,
      "▁yani": 1953,
      "medi": 1954,
      "▁politik": 1955,
      "ebilir": 1956,
      "▁yemegi": 1957,
      "lat": 1958,
      "re": 1959,
      "▁ardından": 1960,
      "▁boz": 1961,
      "lass": 1962,
      "▁tamamen": 1963,
      "west": 1964,
      ".3": 1965,
      "▁peters": 1966,
      "▁hamam": 1967,
      "▁herkese": 1968,
      "veland": 1969,
      "▁kendisin": 1970,
      "▁arkad": 1971,
      "ra": 1972,
      "mayacak": 1973,
      "▁%3": 1974,
      "ni": 1975,
      "▁mutlu": 1976,
      "▁obu": 1977,
      "▁anadolu": 1978,
      "▁karıs": 1979,
      "▁ilgilendiler": 1980,
      "▁yorum": 1981,
      "▁doları": 1982,
      "▁anne": 1983,
      "▁islem": 1984,
      "▁kuc": 1985,
      "▁kurum": 1986,
      "esil": 1987,
      "▁ediyordu": 1988,
      "▁havayolları": 1989,
      "-19": 1990,
      "▁minne": 1991,
      "emem": 1992,
      "am": 1993,
      "▁mıydı": 1994,
      "oy": 1995,
      "▁mısıl": 1996,
      "cılar": 1997,
      "▁ihr": 1998,
      "▁tatlı": 1999,
      "ba": 2000,
      "61": 2001,
      "amıyor": 2002,
      "▁fiyata": 2003,
      "▁sigort": 2004,
      "▁dost": 2005,
      "(": 2006,
      "▁yeterli": 2007,
      "▁geril": 2008,
      "▁kendime": 2009,
      "ri": 2010,
      "ilir": 2011,
      "▁cok": 2012,
      "▁olmak": 2013,
      "ızı": 2014,
      "lu": 2015,
      "▁gide": 2016,
      "▁dusuktu": 2017,
      "▁acıkladı": 2018,
      "▁kaldik": 2019,
      "ydi": 2020,
      "ustos": 2021,
      "▁fir": 2022,
      "▁donem": 2023,
      "▁fırıl": 2024,
      "▁lezzeti": 2025,
      "oglu": 2026,
      "▁hak": 2027,
      "cı": 2028,
      "▁bagım": 2029,
      ".25": 2030,
      "asına": 2031,
      "▁kolay": 2032,
      "▁%7.5": 2033,
      "▁yuk": 2034,
      "dugunu": 2035,
      "▁chicago'dan": 2036,
      "▁gelistir": 2037,
      "▁sik": 2038,
      "▁ettim": 2039,
      "▁kanun": 2040,
      "▁cir": 2041,
      "▁36": 2042,
      "▁per": 2043,
      "▁kard": 2044,
      "▁kagıt": 2045,
      "▁ucuncu": 2046,
      "q": 2047,
      "▁etmek": 2048,
      "▁emek": 2049,
      "▁yola": 2050,
      "▁dow": 2051,
      "▁gun": 2052,
      "▁stand": 2053,
      "▁dc'ye": 2054,
      "iyet": 2055,
      "iyorlar": 2056,
      "▁airlines": 2057,
      "uncu": 2058,
      "▁ara": 2059,
      "▁gıldır": 2060,
      "kiz": 2061,
      "osy": 2062,
      "▁univers": 2063,
      "▁mehmet": 2064,
      "iski": 2065,
      "▁yumus": 2066,
      "mek": 2067,
      "meler": 2068,
      "ul": 2069,
      "▁pittsburgh": 2070,
      "▁han": 2071,
      "▁fiyatı": 2072,
      "▁san": 2073,
      "tiler": 2074,
      "▁ort": 2075,
      "▁sut": 2076,
      "▁u": 2077,
      "▁kong": 2078,
      "▁dev": 2079,
      "ran": 2080,
      "▁giden": 2081,
      "▁nedir": 2082,
      "▁sac": 2083,
      "▁altında": 2084,
      "▁oluyor": 2085,
      "▁milyondan": 2086,
      "▁gecti": 2087,
      "▁gelmis": 2088,
      "▁ortalama": 2089,
      "▁cil": 2090,
      "▁avuk": 2091,
      "▁hol": 2092,
      "▁0.": 2093,
      "▁dikkat": 2094,
      "▁iste": 2095,
      "ancı": 2096,
      "▁kıl": 2097,
      "uluyor": 2098,
      "malar": 2099,
      "[UNK]": 2100,
      "▁yam": 2101,
      "kan": 2102,
      "@": 2103,
      "ing": 2104,
      "▁olacak": 2105,
      "▁55": 2106,
      "▁bulmak": 2107,
      "lanıyor": 2108,
      "▁ister": 2109,
      "▁gene": 2110,
      "▁ihtiy": 2111,
      "▁avuc": 2112,
      "▁teknoloj": 2113,
      "▁anlasma": 2114,
      "'yi": 2115,
      "▁sure": 2116,
      "ek": 2117,
      "▁bekleniyor": 2118,
      "▁cıkar": 2119,
      "▁tamam": 2120,
      "▁pırıl": 2121,
      "ustum": 2122,
      "'in": 2123,
      "▁gon": 2124,
      "▁s": 2125,
      "mayan": 2126,
      "alık": 2127,
      "he": 2128,
      "▁karsı": 2129,
      "▁isaret": 2130,
      "▁vucu": 2131,
      "▁duyar": 2132,
      "sam": 2133,
      "▁kab": 2134,
      "ukee": 2135,
      "▁cez": 2136,
      "▁yasama": 2137,
      "▁45": 2138,
      "▁sat": 2139,
      "▁philadelphia'ya": 2140,
      "im": 2141,
      "emi": 2142,
      "ıpıs": 2143,
      "▁ediyoruz": 2144,
      "▁ettigi": 2145,
      "ir": 2146,
      "▁40": 2147,
      "▁ongor": 2148,
      "▁edildi": 2149,
      "evizyon": 2150,
      "'nun": 2151,
      "eral": 2152,
      "meye": 2153,
      "vır": 2154,
      "▁ıs": 2155,
      "bah": 2156,
      "▁seyr": 2157,
      "▁yer": 2158,
      "▁yarat": 2159,
      "isinin": 2160,
      "▁fısır": 2161,
      "bus": 2162,
      "▁cleveland": 2163,
      "▁koy": 2164,
      "▁d": 2165,
      "▁cincinnati": 2166,
      "▁yapan": 2167,
      "dir": 2168,
      "-200": 2169,
      "atik": 2170,
      "▁ulasımı": 2171,
      "▁birlik": 2172,
      "dur": 2173,
      "ro": 2174,
      "▁fas": 2175,
      "▁diy": 2176,
      "ılı": 2177,
      "eyim": 2178,
      "▁hij": 2179,
      "uc": 2180,
      "▁para": 2181,
      "eki": 2182,
      "▁tut": 2183,
      "▁durumu": 2184,
      "▁ortal": 2185,
      "gini": 2186,
      "▁ciddi": 2187,
      "▁henuz": 2188,
      "bas": 2189,
      "▁kalab": 2190,
      "▁bazıları": 2191,
      "▁gaz": 2192,
      "/": 2193,
      "▁mey": 2194,
      "▁seb": 2195,
      "▁ideal": 2196,
      "▁otelden": 2197,
      "▁hafta": 2198,
      "▁duk": 2199,
      "ahat": 2200,
      "▁turk": 2201,
      "oj": 2202,
      "▁sıngır": 2203,
      "▁insanları": 2204,
      "edir": 2205,
      "▁ep": 2206,
      "▁kimse": 2207,
      "▁uyum": 2208,
      "siyon": 2209,
      "▁hicbir": 2210,
      "▁lider": 2211,
      "▁ham": 2212,
      "▁gid": 2213,
      "▁icinde": 2214,
      "▁calisanlar": 2215,
      "▁ger": 2216,
      "▁almak": 2217,
      "▁airlin": 2218,
      "▁uzer": 2219,
      "larımız": 2220,
      "▁sene": 2221,
      "aydı": 2222,
      "▁kendilerini": 2223,
      "wa": 2224,
      "lara": 2225,
      "▁tir": 2226,
      "▁46": 2227,
      "mıslar": 2228,
      "iligi": 2229,
      "ıyordu": 2230,
      "▁%3.1": 2231,
      "▁yaklasık": 2232,
      "▁ser": 2233,
      "▁pıtır": 2234,
      "▁homur": 2235,
      "▁ayni": 2236,
      "▁ov": 2237,
      "▁sefer": 2238,
      "taki": 2239,
      "▁karsil": 2240,
      "▁bunlar": 2241,
      "anbul": 2242,
      "▁asıl": 2243,
      "▁mi": 2244,
      "▁dil": 2245,
      "▁gez": 2246,
      "▁sag": 2247,
      "amay": 2248,
      "▁ist": 2249,
      "▁ker": 2250,
      "▁odam": 2251,
      "▁batı": 2252,
      "dikleri": 2253,
      "mam": 2254,
      "▁kalk": 2255,
      "▁kus": 2256,
      "▁sektor": 2257,
      "▁tel": 2258,
      "lıgını": 2259,
      "▁ul": 2260,
      "▁bit": 2261,
      "▁buy": 2262,
      "▁gorun": 2263,
      "▁giy": 2264,
      "'deki": 2265,
      "▁risk": 2266,
      "▁resim": 2267,
      "▁pers": 2268,
      "▁sıcak": 2269,
      "sas": 2270,
      "istim": 2271,
      "▁isler": 2272,
      "▁international": 2273,
      "▁kem": 2274,
      "▁": 2275,
      "tir": 2276,
      "▁gibi": 2277,
      "▁istem": 2278,
      "▁ucuyor": 2279,
      "▁%8": 2280,
      "▁uzerinde": 2281,
      "▁amerikan": 2282,
      "▁be": 2283,
      "▁musait": 2284,
      "-23": 2285,
      "alı": 2286,
      "10": 2287,
      "▁eski": 2288,
      "▁og": 2289,
      "▁olacagını": 2290,
      "▁park": 2291,
      "irmi": 2292,
      "▁acisindan": 2293,
      "▁kel": 2294,
      "erv": 2295,
      "'daki": 2296,
      "▁dolar": 2297,
      "▁tası": 2298,
      "▁dum": 2299,
      "▁kazan": 2300,
      "isi": 2301,
      "lerine": 2302,
      "▁prob": 2303,
      "-2": 2304,
      "▁birer": 2305,
      "▁cocuklu": 2306,
      "▁baltimore": 2307,
      "enc": 2308,
      "▁th": 2309,
      "adelphia": 2310,
      "kı": 2311,
      "▁51": 2312,
      "▁farklı": 2313,
      "ert": 2314,
      "▁insaat": 2315,
      "an": 2316,
      "ami": 2317,
      "eyi": 2318,
      "▁kayıp": 2319,
      "▁mil": 2320,
      "▁telefonla": 2321,
      "▁ok": 2322,
      "▁sef": 2323,
      "▁atlanta'dan": 2324,
      "▁dısarı": 2325,
      "▁tekn": 2326,
      "acık": 2327,
      "▁agır": 2328,
      "▁tefek": 2329,
      "▁harıl": 2330,
      "aber": 2331,
      "▁indianapolis": 2332,
      "▁isi": 2333,
      "lastır": 2334,
      "ıntı": 2335,
      "▁lazım": 2336,
      "▁op": 2337,
      "▁eylul": 2338,
      "iyi": 2339,
      "▁balık": 2340,
      "▁beydi": 2341,
      "ırlar": 2342,
      "lerce": 2343,
      "gum": 2344,
      "egin": 2345,
      "len": 2346,
      "▁uzerindeki": 2347,
      "▁calısan": 2348,
      "▁kimi": 2349,
      "ort": 2350,
      "▁rec": 2351,
      "▁personel": 2352,
      "▁veririm": 2353,
      "▁sol": 2354,
      "▁yoksa": 2355,
      "▁sm": 2356,
      "▁ekledi": 2357,
      "▁yiyecek": 2358,
      "▁1\\/2": 2359,
      "▁komp": 2360,
      "▁ucretin": 2361,
      "▁sermay": 2362,
      "likle": 2363,
      "▁degerlendir": 2364,
      "▁dava": 2365,
      "▁cek": 2366,
      "▁olmalı": 2367,
      "agına": 2368,
      "▁dogrudan": 2369,
      "▁tez": 2370,
      "▁etme": 2371,
      "▁1/": 2372,
      "▁isten": 2373,
      "▁fel": 2374,
      "▁et": 2375,
      "▁oldur": 2376,
      "▁aktar": 2377,
      "▁ince": 2378,
      "▁takım": 2379,
      "ucu": 2380,
      "▁bay": 2381,
      "▁uzat": 2382,
      "▁gelir": 2383,
      "digim": 2384,
      "▁yatırımcı": 2385,
      "▁sis": 2386,
      "'yı": 2387,
      "▁duvar": 2388,
      "▁sir": 2389,
      "▁konum": 2390,
      "▁yab": 2391,
      "elere": 2392,
      "▁nashville": 2393,
      "de": 2394,
      "han": 2395,
      "▁elektr": 2396,
      "▁co.": 2397,
      "▁karsın": 2398,
      "▁fen": 2399,
      "irler": 2400,
      "▁sent": 2401,
      "▁hic": 2402,
      "'tan": 2403,
      "tre": 2404,
      "▁8": 2405,
      "kar": 2406,
      "▁olmus": 2407,
      "▁tekrar": 2408,
      "o": 2409,
      "▁yor": 2410,
      "di": 2411,
      "▁yem": 2412,
      "ımıza": 2413,
      ",": 2414,
      "▁hin": 2415,
      "▁gorus": 2416,
      "sk": 2417,
      "'a": 2418,
      "cilik": 2419,
      "ara": 2420,
      "▁guclu": 2421,
      "▁--": 2422,
      "cuk": 2423,
      "▁siddet": 2424,
      "▁kıtır": 2425,
      "▁artır": 2426,
      "▁%6.90": 2427,
      "ibar": 2428,
      "▁kapandı": 2429,
      "ost": 2430,
      "ardı": 2431,
      "▁makin": 2432,
      "▁pilot": 2433,
      "▁eve": 2434,
      "lası": 2435,
      "gıc": 2436,
      "▁attı": 2437,
      "▁ayı": 2438,
      "▁genel": 2439,
      "malı": 2440,
      "▁fingir": 2441,
      "▁cuma": 2442,
      "▁las": 2443,
      "▁yatak": 2444,
      "asının": 2445,
      "▁52": 2446,
      "▁1991-19": 2447,
      "▁olduguna": 2448,
      "▁bun": 2449,
      "▁milwaukee": 2450,
      "▁mul": 2451,
      "▁hac": 2452,
      "▁onceden": 2453,
      "▁baskanı": 2454,
      "▁devr": 2455,
      "me": 2456,
      "elerinin": 2457,
      "madı": 2458,
      "▁haval": 2459,
      ">": 2460,
      "▁os": 2461,
      "isindan": 2462,
      "▁-": 2463,
      "ılan": 2464,
      "▁tas": 2465,
      "▁yazı": 2466,
      "▁..\"": 2467,
      "erdi": 2468,
      "▁den": 2469,
      "▁sonuc": 2470,
      "▁telefon": 2471,
      "▁heyecan": 2472,
      "▁gordum": 2473,
      "gec": 2474,
      "▁fokur": 2475,
      "▁saglam": 2476,
      "▁alamadim": 2477,
      "▁umut": 2478,
      "▁gelip": 2479,
      "▁sak": 2480,
      "uyor": 2481,
      "▁duzel": 2482,
      "▁birdenbire": 2483,
      "aların": 2484,
      "▁hisseleri": 2485,
      "uydu": 2486,
      "ada": 2487,
      "▁mc": 2488,
      "▁ail": 2489,
      "▁rad": 2490,
      "▁mer": 2491,
      "tal": 2492,
      "▁yuksekti": 2493,
      "▁zaten": 2494,
      "aj": 2495,
      "▁benden": 2496,
      "▁yerles": 2497,
      "▁etm": 2498,
      "▁yur": 2499,
      "▁genis": 2500,
      "▁onumuzdeki": 2501,
      "▁cay": 2502,
      "86": 2503,
      "abilecek": 2504,
      "▁konustu": 2505,
      "▁tab": 2506,
      "▁”": 2507,
      "lıgına": 2508,
      "▁hukuk": 2509,
      "▁kad": 2510,
      "▁yasak": 2511,
      "▁varan": 2512,
      "▁etraf": 2513,
      "ektr": 2514,
      "▁vır": 2515,
      "digimiz": 2516,
      "▁sehr": 2517,
      "mesini": 2518,
      "ende": 2519,
      "ıg": 2520,
      "asır": 2521,
      "▁biri": 2522,
      "▁salon": 2523,
      "▁hazır": 2524,
      "leri": 2525,
      "▁ilac": 2526,
      "ayıp": 2527,
      "▁orta": 2528,
      "▁pan": 2529,
      "kel": 2530,
      "▁pazar": 2531,
      "▁hız": 2532,
      "unca": 2533,
      "ima": 2534,
      "▁der": 2535,
      "▁diz": 2536,
      "lam": 2537,
      "da": 2538,
      "▁united": 2539,
      "iy": 2540,
      "▁duyg": 2541,
      "iste": 2542,
      "oster": 2543,
      "▁haber": 2544,
      "▁cid": 2545,
      "ese": 2546,
      "▁kar": 2547,
      "▁hisset": 2548,
      "▁angel": 2549,
      "▁mik": 2550,
      "enler": 2551,
      "▁nef": 2552,
      "▁gor": 2553,
      "ege": 2554,
      "yet": 2555,
      "▁fi": 2556,
      "du": 2557,
      "[SEP]": 2558,
      "▁kucuktu": 2559,
      "ilen": 2560,
      "▁veya": 2561,
      "▁sıng": 2562,
      "▁uluslar": 2563,
      "▁gitt": 2564,
      "▁yardımcısı": 2565,
      "▁engel": 2566,
      "▁kutur": 2567,
      "ya'da": 2568,
      "ıcı": 2569,
      "larla": 2570,
      "cusu": 2571,
      "▁neden": 2572,
      "▁devam": 2573,
      "ısını": 2574,
      "▁banka": 2575,
      "▁com": 2576,
      "▁degilim": 2577,
      "▁ye": 2578,
      "▁halk": 2579,
      "▁carsamba": 2580,
      "imizi": 2581,
      "ens": 2582,
      "▁41": 2583,
      "▁anal": 2584,
      "▁edec": 2585,
      "[CLS]": 2586,
      "▁karar": 2587,
      "elerin": 2588,
      "▁aktiv": 2589,
      "▁montreal": 2590,
      "asyonu": 2591,
      "uf": 2592,
      "▁super": 2593,
      "iddet": 2594,
      "▁yogun": 2595,
      "ediye": 2596,
      "▁bekliyor": 2597,
      "lerini": 2598,
      "’": 2599,
      "▁kap": 2600,
      "▁wash": 2601,
      "sel": 2602,
      "▁suc": 2603,
      "▁tr": 2604,
      "▁mis": 2605,
      "▁etmem": 2606,
      "▁ama": 2607,
      "▁onlardan": 2608,
      "▁hakk": 2609,
      "▁kadınlar": 2610,
      "abilir": 2611,
      "ıyla": 2612,
      "ut": 2613,
      "ecegim": 2614,
      ".8": 2615,
      "▁yukselerek": 2616,
      "el": 2617,
      "▁soh": 2618,
      "unde": 2619,
      "▁sınır": 2620,
      "tıyor": 2621,
      "yo": 2622,
      "ıp": 2623,
      "▁hukumet": 2624,
      "▁orada": 2625,
      "▁mat": 2626,
      "▁surdur": 2627,
      "c": 2628,
      "▁misin": 2629,
      "▁yildiz": 2630,
      "▁girisim": 2631,
      "ekli": 2632,
      "▁nasıl": 2633,
      "▁olanaklari": 2634,
      "duk": 2635,
      "▁kaldı": 2636,
      "▁kaliforn": 2637,
      "▁mu": 2638,
      "▁sizi": 2639,
      "▁gunluk": 2640,
      ".1": 2641,
      "▁yıldız": 2642,
      "▁en": 2643,
      "▁harik": 2644,
      "▁araba": 2645,
      "▁vak": 2646,
      "'da": 2647,
      "o'ya": 2648,
      "▁fiyatlar": 2649,
      "ını": 2650,
      "▁tabi": 2651,
      "▁odalar": 2652,
      "tiv": 2653,
      "▁gozleri": 2654,
      "▁adeta": 2655,
      "▁%3.4": 2656,
      "▁mac": 2657,
      "adi": 2658,
      "▁intern": 2659,
      "▁ondan": 2660,
      "▁birbir": 2661,
      "na": 2662,
      "'den": 2663,
      "▁bek": 2664,
      "▁mo": 2665,
      "gın": 2666,
      "▁aras": 2667,
      "si": 2668,
      "▁hal": 2669,
      "▁dol": 2670,
      "irdi": 2671,
      "rub": 2672,
      "▁min": 2673,
      "▁sosyal": 2674,
      "cileri": 2675,
      "▁cur": 2676,
      "muyor": 2677,
      "ken": 2678,
      "istir": 2679,
      "ımızı": 2680,
      "▁dahil": 2681,
      "▁olabilir": 2682,
      "luydu": 2683,
      "▁tuttu": 2684,
      "▁onc": 2685,
      "▁44": 2686,
      "▁mısın": 2687,
      "ij": 2688,
      "▁uy": 2689,
      "▁servis": 2690,
      "onelik": 2691,
      "▁tesisten": 2692,
      "enkul": 2693,
      "▁teh": 2694,
      "esinin": 2695,
      "▁otuz": 2696,
      "▁aksamı": 2697,
      "▁ki": 2698,
      "▁es": 2699,
      "▁70": 2700,
      "▁cumhuriyet": 2701,
      "urdu": 2702,
      "ern": 2703,
      "▁hen": 2704,
      "▁teklif": 2705,
      "ga": 2706,
      "▁savas": 2707,
      "▁..": 2708,
      "▁mevcut": 2709,
      "▁gunes": 2710,
      "inden": 2711,
      "oh": 2712,
      "▁gider": 2713,
      "eti": 2714,
      "ud": 2715,
      "ayacak": 2716,
      "▁%1": 2717,
      "▁new": 2718,
      "▁6": 2719,
      "amb": 2720,
      "1": 2721,
      "▁edin": 2722,
      "▁profes": 2723,
      "suz": 2724,
      "ala": 2725,
      "izm": 2726,
      "rak": 2727,
      "▁egit": 2728,
      "bol": 2729,
      "mus": 2730,
      "▁heyec": 2731,
      "▁ec": 2732,
      "▁unit": 2733,
      "▁listeleyin": 2734,
      "▁hisseler": 2735,
      "▁milyar": 2736,
      "gim": 2737,
      "▁cic": 2738,
      "ator": 2739,
      "▁dort": 2740,
      "arlar": 2741,
      "▁hepsini": 2742,
      "▁…": 2743,
      "▁iht": 2744,
      "▁yazar": 2745,
      "25": 2746,
      "ali": 2747,
      "▁nerede": 2748,
      "▁durumda": 2749,
      "▁sekiz": 2750,
      "2-23": 2751,
      "▁satıslar": 2752,
      "▁fin": 2753,
      "92": 2754,
      "▁dah": 2755,
      "▁istiyor": 2756,
      "▁jos": 2757,
      "▁petrol": 2758,
      "lıg": 2759,
      "▁yardim": 2760,
      "▁dolarlık": 2761,
      "▁%0": 2762,
      "▁%18": 2763,
      "▁memphis": 2764,
      "▁ne": 2765,
      "tıgı": 2766,
      "▁cle": 2767,
      "▁francisco'dan": 2768,
      "▁boy": 2769,
      "▁yıl": 2770,
      "luyor": 2771,
      "▁nereden": 2772,
      "▁ediyor": 2773,
      "ank": 2774,
      "▁japon": 2775,
      "▁port": 2776,
      "forman": 2777,
      "▁gormedim": 2778,
      "▁sahn": 2779,
      "ku": 2780,
      "▁harc": 2781,
      "▁telef": 2782,
      "▁sirketi": 2783,
      "▁olmaz": 2784,
      "▁kırmızı": 2785,
      "em": 2786,
      "▁um": 2787,
      "▁faal": 2788,
      "▁kalit": 2789,
      "▁guler": 2790,
      "▁animasyon": 2791,
      "elen": 2792,
      "▁ana": 2793,
      "▁tartıs": 2794,
      "▁gorul": 2795,
      "▁30": 2796,
      "▁yorgun": 2797,
      "▁bost": 2798,
      "ustuk": 2799,
      "ısından": 2800,
      "▁avrupa": 2801,
      "▁hab": 2802,
      "▁man": 2803,
      "▁om": 2804,
      "▁cam": 2805,
      "▁ustune": 2806,
      "▁boston'dan": 2807,
      "▁sını": 2808,
      "▁miami": 2809,
      "▁dusur": 2810,
      "▁piyas": 2811,
      "'ta": 2812,
      "▁...\"": 2813,
      "sak": 2814,
      "▁%17": 2815,
      "▁ayrıca": 2816,
      "▁toprak": 2817,
      "▁kayı": 2818,
      "▁lung": 2819,
      "laka": 2820,
      "▁rezerv": 2821,
      "esem": 2822,
      "▁olup": 2823,
      "▁hiz": 2824,
      "▁ekonomi": 2825,
      "▁denize": 2826,
      "arak": 2827,
      "▁etkil": 2828,
      "▁kurtar": 2829,
      "aki": 2830,
      "▁m": 2831,
      "▁duy": 2832,
      "▁lar": 2833,
      "▁goster": 2834,
      "ıng": 2835,
      "▁strate": 2836,
      "▁yap": 2837,
      "mi": 2838,
      "▁st": 2839,
      "▁evde": 2840,
      "▁sanat": 2841,
      "k": 2842,
      "▁ayr": 2843,
      "▁her": 2844,
      "is": 2845,
      "▁misafirimiz": 2846,
      "6": 2847,
      "▁un": 2848,
      "▁%27": 2849,
      "▁...": 2850,
      "misler": 2851,
      "▁vaz": 2852,
      "▁ayında": 2853,
      "▁%20": 2854,
      "yan": 2855,
      "▁sona": 2856,
      "larına": 2857,
      ".": 2858,
      "ham": 2859,
      "▁yukselt": 2860,
      "ulan": 2861,
      "▁kisisel": 2862,
      "afir": 2863,
      "▁renk": 2864,
      "▁malz": 2865,
      "kara": 2866,
      "▁hus": 2867,
      "▁sem": 2868,
      "▁kı": 2869,
      "▁yetk": 2870,
      "▁yıllık": 2871,
      "ası": 2872,
      "▁soz": 2873,
      "▁zevk": 2874,
      "otte": 2875,
      "▁neredeyse": 2876,
      "▁kuz": 2877,
      "▁nih": 2878,
      "sizdi": 2879,
      "▁aktarmalı": 2880,
      "▁pazartesi": 2881,
      "adan": 2882,
      "ren": 2883,
      "yla": 2884,
      "▁insa": 2885,
      "▁duzey": 2886,
      "ıyı": 2887,
      "▁sorun": 2888,
      "▁soru": 2889,
      "▁pittsburgh'tan": 2890,
      "▁durum": 2891,
      "endir": 2892,
      "▁ilet": 2893,
      "0.": 2894,
      "uk": 2895,
      "▁kendi": 2896,
      "▁olcude": 2897,
      "▁ceb": 2898,
      "egi": 2899,
      "▁bel": 2900,
      "▁isteyen": 2901,
      "ac": 2902,
      "▁yeter": 2903,
      "▁ogret": 2904,
      "▁reddetti": 2905,
      "▁ode": 2906,
      "▁oyuncu": 2907,
      "la": 2908,
      "▁edeb": 2909,
      "▁el": 2910,
      "▁yemekleri": 2911,
      "‘": 2912,
      "dır": 2913,
      "▁diyor": 2914,
      "▁yılında": 2915,
      "▁%1.7": 2916,
      "▁vur": 2917,
      "▁persembe": 2918,
      "al": 2919,
      "oma": 2920,
      "▁kampan": 2921,
      "▁pu": 2922,
      "▁olumlu": 2923,
      "▁seviy": 2924,
      "likte": 2925,
      "'nda": 2926,
      "▁ederiz": 2927,
      "▁west": 2928,
      "▁bakıs": 2929,
      ".2": 2930,
      "▁suz": 2931,
      "▁petersburg": 2932,
      "ven": 2933,
      "▁eden": 2934,
      "▁indian": 2935,
      "▁siyas": 2936,
      "▁rekabet": 2937,
      "▁resmi": 2938,
      "embe": 2939,
      "▁phoenix": 2940,
      "▁res": 2941,
      "▁tanı": 2942,
      "▁32": 2943,
      "uz": 2944,
      "ire": 2945,
      "▁iliskin": 2946,
      "uzel": 2947,
      "▁sorum": 2948,
      "tigini": 2949,
      "▁hastalık": 2950,
      "▁?..": 2951,
      "▁konus": 2952,
      "▁`": 2953,
      "ıs": 2954,
      "'un": 2955,
      "▁etmis": 2956,
      "ur": 2957,
      "0000": 2958,
      "▁cal": 2959,
      "▁normal": 2960,
      "▁tef": 2961,
      "iyon": 2962,
      "▁sirketler": 2963,
      "indeki": 2964,
      "▁det": 2965,
      "▁simdiye": 2966,
      "▁yuzde": 2967,
      "ede": 2968,
      "▁vakit": 2969,
      "▁musteri": 2970,
      "usu": 2971,
      "▁ithal": 2972,
      "▁''": 2973,
      "▁#": 2974,
      "▁ates": 2975,
      "▁jones": 2976,
      "▁kalmıs": 2977,
      "▁50": 2978,
      "▁washington'dan": 2979,
      "ımda": 2980,
      "▁continental": 2981,
      "▁yılda": 2982,
      "j": 2983,
      "das": 2984,
      "▁so": 2985,
      "asyon": 2986,
      "▁pitt": 2987,
      "▁seni": 2988,
      "▁istik": 2989,
      "tadır": 2990,
      "▁cat": 2991,
      "lul": 2992,
      "▁olma": 2993,
      "▁lut": 2994,
      "▁nit": 2995,
      "lıyor": 2996,
      "▁agz": 2997,
      "▁baltimore'ye": 2998,
      "▁bulunan": 2999,
      "▁dim": 3000,
      "▁kalp": 3001,
      "ic": 3002,
      "▁siyah": 3003,
      "▁cap": 3004,
      "▁20": 3005,
      "▁%2.7": 3006,
      "▁42": 3007,
      "ımı": 3008,
      "▁yuzu": 3009,
      "▁derec": 3010,
      "▁ucusa": 3011,
      "uluk": 3012,
      "​": 3013,
      "▁uygun": 3014,
      "▁mahk": 3015,
      "▁mali": 3016,
      "▁yurut": 3017,
      "▁siz": 3018,
      "▁1990": 3019,
      "br": 3020,
      "_": 3021,
      "▁basar": 3022,
      "▁yun": 3023,
      "ize": 3024,
      "apur": 3025,
      "▁sok": 3026,
      "▁nokt": 3027,
      "▁chicag": 3028,
      "▁dobra": 3029,
      "vıl": 3030,
      "▁$": 3031,
      ".000": 3032,
      "▁tam": 3033,
      "▁sın": 3034,
      "▁kızı": 3035,
      "lendi": 3036,
      "▁sapır": 3037,
      "▁cesitli": 3038,
      "▁senet": 3039,
      "il": 3040,
      "▁merk": 3041,
      "'nın": 3042,
      "▁part": 3043,
      "aba": 3044,
      "▁yaptık": 3045,
      "▁neler": 3046,
      "▁memleket": 3047,
      "▁kumas": 3048,
      "▁haf": 3049,
      "▁teslim": 3050,
      "▁charl": 3051,
      "▁gunku": 3052,
      "▁ayn": 3053,
      "ustur": 3054,
      "▁cumhur": 3055,
      "▁yetersizdi": 3056,
      "▁musun": 3057,
      "▁verdigi": 3058,
      "▁bircok": 3059,
      "rim": 3060,
      "medik": 3061,
      "esine": 3062,
      "▁merkezi": 3063,
      "▁yet": 3064,
      "ayla": 3065,
      "enk": 3066,
      "▁3.": 3067,
      "▁benim": 3068,
      "ligin": 3069,
      "▁tur": 3070,
      "ak": 3071,
      "od": 3072,
      "uyle": 3073,
      "▁ali": 3074,
      "▁genellikle": 3075,
      "▁dos": 3076,
      "▁muhtesem": 3077,
      "'nin": 3078,
      "'te": 3079,
      "▁bos": 3080,
      "▁hat": 3081,
      "gel": 3082,
      "▁defa": 3083,
      "▁eskiydi": 3084,
      "▁american": 3085,
      "layıp": 3086,
      "eri": 3087,
      "▁oldugunu": 3088,
      "▁gidi": 3089,
      "ini": 3090,
      "ate": 3091,
      "▁degiller": 3092,
      "▁sınıf": 3093,
      "▁mukemmel": 3094,
      "▁mar": 3095,
      "▁temmuz": 3096,
      "▁ucuz": 3097,
      "▁kosul": 3098,
      "▁takip": 3099,
      "▁havuzu": 3100,
      "▁gerceklestir": 3101,
      "▁sikin": 3102,
      "▁cent": 3103,
      "▁katkı": 3104,
      "▁geldi": 3105,
      "layarak": 3106,
      "▁bugun": 3107,
      "▁nisan": 3108,
      "▁genc": 3109,
      "▁gunleri": 3110,
      "▁yen": 3111,
      "▁rol": 3112,
      "raf": 3113,
      "hur": 3114,
      "▁sirket": 3115,
      "iliyor": 3116,
      "▁insanların": 3117,
      "▁tu": 3118,
      "▁ederek": 3119,
      "▁ad": 3120,
      "▁iddi": 3121,
      "imin": 3122,
      "▁sah": 3123,
      "▁cevir": 3124,
      "▁okuy": 3125,
      "day": 3126,
      "▁saldır": 3127,
      "▁ark": 3128,
      "▁por": 3129,
      "▁temizligi": 3130,
      "isini": 3131,
      "▁sog": 3132,
      "indan": 3133,
      "▁yarı": 3134,
      "▁org": 3135,
      ":00": 3136,
      "mini": 3137,
      "▁cocuk": 3138,
      "▁hizmeti": 3139,
      "▁mum": 3140,
      "▁tum": 3141,
      "▁atlanta'ya": 3142,
      "▁l": 3143,
      "▁kendini": 3144,
      "ite": 3145,
      "ana": 3146,
      "d": 3147,
      "masına": 3148,
      "▁kims": 3149,
      "ıstır": 3150,
      "ılır": 3151,
      "▁ozellikle": 3152,
      "▁ilg": 3153,
      "▁sub": 3154,
      "dugu": 3155,
      "▁memnunum": 3156,
      "▁bask": 3157,
      "▁vad": 3158,
      "▁ugr": 3159,
      "ilerdi": 3160,
      "ha": 3161,
      "edi": 3162,
      "▁kalitesi": 3163,
      "▁artık": 3164,
      "▁dun": 3165,
      "▁15": 3166,
      "▁ısıl": 3167,
      "gor": 3168,
      "▁ruzgar": 3169,
      "▁siy": 3170,
      "isim": 3171,
      "▁sonr": 3172,
      "▁mahkem": 3173,
      "▁ted": 3174,
      ")": 3175,
      "ol": 3176,
      "▁kan": 3177,
      "lt": 3178,
      "▁yasıyor": 3179,
      "▁lond": 3180,
      "▁baskan": 3181,
      "met": 3182,
      "▁prof": 3183,
      "▁dondu": 3184,
      "▁mir": 3185,
      "nek": 3186,
      "▁iy": 3187,
      "▁tahviller": 3188,
      "▁bilin": 3189,
      "▁ankara": 3190,
      "lay": 3191,
      "▁hanim": 3192,
      "▁endustr": 3193,
      "▁birbirlerine": 3194,
      "▁pac": 3195,
      "▁birinde": 3196,
      "▁americ": 3197,
      "lenmis": 3198,
      "▁bilgisay": 3199,
      "▁aktarmasız": 3200,
      "▁rezervasyon": 3201,
      "yor": 3202,
      "▁film": 3203,
      "▁degisiklik": 3204,
      "▁yetkilileri": 3205,
      "min": 3206,
      "▁ah": 3207,
      "▁calısıyor": 3208,
      "▁ot": 3209,
      "▁anlamda": 3210,
      "lek": 3211,
      "▁butun": 3212,
      "▁mit": 3213,
      "▁kam": 3214,
      "larının": 3215,
      "▁hepsi": 3216,
      "tere": 3217,
      "mıs": 3218,
      "iran": 3219,
      "▁temizdi": 3220,
      "ciler": 3221,
      "▁lezzetli": 3222,
      "lamıs": 3223,
      "▁tok": 3224,
      "▁hangi": 3225,
      "▁sam": 3226,
      "▁sonraki": 3227,
      "unc": 3228,
      "▁herhangi": 3229,
      "ug": 3230,
      "▁zırt": 3231,
      "▁birbiri": 3232,
      "▁yamalak": 3233,
      "▁din": 3234,
      "▁vat": 3235,
      "▁yasan": 3236,
      "▁dig": 3237,
      "▁lak": 3238,
      "▁tal": 3239,
      "\"": 3240,
      "dım": 3241,
      "▁demir": 3242,
      "▁zorunda": 3243,
      "mas": 3244,
      "▁jon": 3245,
      "▁emin": 3246,
      "▁uzan": 3247,
      "▁verir": 3248,
      "▁gonul": 3249,
      "▁cor": 3250,
      "▁ceyrek": 3251,
      "▁paz": 3252,
      "▁katil": 3253,
      "imizin": 3254,
      "▁sı": 3255,
      "gru": 3256,
      "▁dahi": 3257,
      "▁amerika": 3258,
      "▁olacaktır": 3259,
      "..": 3260,
      "▁aylık": 3261,
      "rik": 3262,
      "▁st.": 3263,
      "ohn": 3264,
      "yon": 3265,
      "▁olmasi": 3266,
      "▁22-23": 3267,
      "▁bende": 3268,
      "gimiz": 3269,
      "av": 3270,
      "▁olus": 3271,
      "▁.'": 3272,
      "▁muc": 3273,
      "▁kenar": 3274,
      "▁baslan": 3275,
      "ad": 3276,
      "aya": 3277,
      "▁ortak": 3278,
      "larından": 3279,
      "▁iyiydi": 3280,
      "▁birim": 3281,
      "▁pek": 3282,
      "▁lez": 3283,
      "ger": 3284,
      "▁insanlar": 3285,
      "▁!": 3286,
      "▁tampa": 3287,
      "▁fıkı": 3288,
      "▁halinde": 3289,
      "▁ucusları": 3290,
      "▁sist": 3291,
      "ılacak": 3292,
      "▁olum": 3293,
      "▁beyaz": 3294,
      "▁yatırım": 3295,
      "pan": 3296,
      "uy": 3297,
      "▁hast": 3298,
      "▁hesap": 3299,
      "ılıgı": 3300,
      "▁miktar": 3301,
      "▁acıl": 3302,
      "vil": 3303,
      "▁1.6": 3304,
      "▁degillerdi": 3305,
      "den": 3306,
      ".6": 3307,
      "tr": 3308,
      "▁c": 3309,
      "▁elde": 3310,
      "▁g": 3311,
      "▁dal": 3312,
      "▁alman": 3313,
      "urlu": 3314,
      "rek": 3315,
      "▁%85": 3316,
      "▁orlando'ya": 3317,
      "`": 3318,
      "▁ogren": 3319,
      "elerini": 3320,
      "▁1.": 3321,
      "liyor": 3322,
      "isk": 3323,
      "▁zarar": 3324,
      "▁cunku": 3325,
      "▁tuk": 3326,
      "▁25": 3327,
      "▁giris": 3328,
      "aca": 3329,
      "▁aksam": 3330,
      "▁makal": 3331,
      "▁mag": 3332,
      "ından": 3333,
      "▁fay": 3334,
      "▁mucadel": 3335,
      "ati": 3336,
      "▁rek": 3337,
      "▁ailelere": 3338,
      "esi": 3339,
      "san": 3340,
      "iyorum": 3341,
      "▁giz": 3342,
      "▁davet": 3343,
      "asi": 3344,
      "▁girdi": 3345,
      "▁oak": 3346,
      "anı": 3347,
      "▁sonunda": 3348,
      "lugu": 3349,
      "mur": 3350,
      "▁agustos": 3351,
      "▁ogretmen": 3352,
      "aga": 3353,
      "ecik": 3354,
      "▁buyuk": 3355,
      "▁ulk": 3356,
      "▁list": 3357,
      "▁sip": 3358,
      "ebi": 3359,
      "mey": 3360,
      "tı": 3361,
      "ım": 3362,
      "“": 3363,
      "une": 3364,
      "▁sec": 3365,
      "▁yaklas": 3366,
      "▁odamiz": 3367,
      "kat": 3368,
      "lıga": 3369,
      "▁itibaren": 3370,
      "▁kim": 3371,
      "egini": 3372,
      "▁sirketin": 3373,
      "▁oldu": 3374,
      "▁temiz": 3375,
      "▁22": 3376,
      "▁veriyor": 3377,
      "pr": 3378,
      "▁oda": 3379,
      "'na": 3380,
      "▁%9.": 3381,
      "innati": 3382,
      "▁sen": 3383,
      "▁mak": 3384,
      "lig": 3385,
      "▁dolara": 3386,
      "▁lir": 3387,
      "▁acı": 3388,
      "▁lutf": 3389,
      "ika": 3390,
      "tım": 3391,
      "asından": 3392,
      "▁carp": 3393,
      "aklı": 3394,
      "▁ilgili": 3395,
      "isinde": 3396,
      "▁yakin": 3397,
      "\\/": 3398,
      "▁sık": 3399,
      "▁philadelphia": 3400,
      "▁fon": 3401,
      "▁dukkan": 3402,
      "▁spor": 3403,
      "▁birbirler": 3404,
      "▁konuda": 3405,
      "▁mark": 3406,
      "▁faturam": 3407,
      "anlık": 3408,
      "▁beri": 3409,
      "▁general": 3410,
      "▁doy": 3411,
      "it": 3412,
      "▁sekilde": 3413,
      "▁biraz": 3414,
      "larını": 3415,
      "▁milli": 3416,
      "▁kaldim": 3417,
      "▁arasında": 3418,
      "▁federal": 3419,
      "▁phil": 3420,
      "▁karsılas": 3421,
      "lli": 3422,
      "lama": 3423,
      "75": 3424,
      "yuz": 3425,
      "on": 3426,
      "▁dallas'tan": 3427,
      "▁yonel": 3428,
      "maya": 3429,
      "▁odedigim": 3430,
      "ılması": 3431,
      "ilerin": 3432,
      "kır": 3433,
      "▁yayın": 3434,
      "▁aileler": 3435,
      "▁asla": 3436,
      "dın": 3437,
      "▁muhtem": 3438,
      "▁coz": 3439,
      "▁yurt": 3440,
      "▁pitts": 3441,
      "19": 3442,
      "▁sev": 3443,
      "▁got": 3444,
      "ily": 3445,
      "°": 3446,
      "iyle": 3447,
      "esel": 3448,
      "▁insan": 3449,
      "▁cıktı": 3450,
      "ard": 3451,
      "▁%3.43": 3452,
      "▁seviyesine": 3453,
      "▁fil": 3454,
      "lendir": 3455,
      "▁re": 3456,
      "te": 3457,
      "▁ona": 3458,
      "▁guven": 3459,
      "▁elektrik": 3460,
      "isel": 3461,
      "▁hes": 3462,
      "▁ruh": 3463,
      "▁uzere": 3464,
      "bak": 3465,
      "▁birlikte": 3466,
      "▁yana": 3467,
      "masız": 3468,
      "▁%5.4": 3469,
      "▁oran": 3470,
      "anlar": 3471,
      "▁fazla": 3472,
      "▁cog": 3473,
      "ch": 3474,
      "▁mot": 3475,
      "obil": 3476,
      "atif": 3477,
      "▁1989": 3478,
      "dıgını": 3479,
      "tin": 3480,
      "▁bar": 3481,
      "▁eser": 3482,
      "▁hızlı": 3483,
      "ville": 3484,
      "meden": 3485,
      "▁gorunce": 3486,
      "▁bildirdi": 3487,
      "lılık": 3488,
      "▁arttı": 3489,
      "▁100": 3490,
      "and": 3491,
      "▁sey": 3492,
      "▁nes": 3493,
      "▁ilgilendi": 3494,
      "▁meh": 3495,
      "▁vadeli": 3496,
      "inn": 3497,
      "▁zev": 3498,
      "ecektir": 3499,
      "▁baskı": 3500,
      "▁tercih": 3501,
      "▁kurumsal": 3502,
      "▁sin": 3503,
      "mez": 3504,
      "▁biles": 3505,
      "▁duv": 3506,
      "-1": 3507,
      "▁ayrı": 3508,
      "ligi": 3509,
      "▁diye": 3510,
      "eder": 3511,
      "▁la": 3512,
      "dik": 3513,
      "kur": 3514,
      "▁ısık": 3515,
      "▁35": 3516,
      "▁ettik": 3517,
      "▁worth": 3518,
      "▁1": 3519,
      "▁houston": 3520,
      "▁ton": 3521,
      "▁%99": 3522,
      "iv": 3523,
      "dıg": 3524,
      "▁ekonom": 3525,
      "▁yakın": 3526,
      "inci": 3527,
      "▁yahut": 3528,
      "le": 3529,
      "▁par": 3530,
      "▁r": 3531,
      "tır": 3532,
      "▁manz": 3533,
      "▁bilir": 3534,
      "▁fıkır": 3535,
      "▁baba": 3536,
      "▁of": 3537,
      "▁los": 3538,
      "▁varsa": 3539,
      "▁dunya": 3540,
      "▁uluslararası": 3541,
      "▁beye": 3542,
      "▁seatt": 3543,
      "▁!..": 3544,
      "▁mon": 3545,
      "ıtır": 3546,
      "ladım": 3547,
      "leb": 3548,
      "▁vardi": 3549,
      "h": 3550,
      "▁bir": 3551,
      "▁sakin": 3552,
      "▁ra": 3553,
      "▁1988": 3554,
      "▁louis": 3555,
      "ber": 3556,
      "5": 3557,
      "gun": 3558,
      "▁yuzden": 3559,
      "32": 3560,
      "▁id": 3561,
      "masının": 3562,
      "▁yabancı": 3563,
      "▁john": 3564,
      "din": 3565,
      "ıy": 3566,
      "dular": 3567,
      "▁puan": 3568,
      "▁kotu": 3569,
      "▁sabit": 3570,
      "ırk": 3571,
      "dıkları": 3572,
      "▁kork": 3573,
      "▁annem": 3574,
      "▁yasam": 3575,
      "▁otom": 3576,
      "▁verdigim": 3577,
      "▁ler": 3578,
      "dıktan": 3579,
      "dog": 3580,
      "ine": 3581,
      "■": 3582,
      "▁onune": 3583,
      "▁ustunde": 3584,
      "ob": 3585,
      "miyor": 3586,
      "▁yanı": 3587,
      "▁ap": 3588,
      "▁ney": 3589,
      "▁ilgil": 3590,
      "▁zayif": 3591,
      "▁'nin": 3592,
      "▁cıkardı": 3593,
      "encer": 3594,
      "adaki": 3595,
      "1-19": 3596,
      "▁yuruy": 3597,
      "▁kemal": 3598,
      "▁iti": 3599,
      "for": 3600,
      "▁gumbur": 3601,
      "▁gecer": 3602,
      "▁bazen": 3603,
      "▁istanbul": 3604,
      "unuz": 3605,
      "▁merak": 3606,
      "▁fakat": 3607,
      "▁motor": 3608,
      "▁bic": 3609,
      "▁39": 3610,
      "iforn": 3611,
      "▁zengin": 3612,
      "mayı": 3613,
      "▁du": 3614,
      "anda": 3615,
      "▁cıl": 3616,
      "▁tit": 3617,
      "▁2.7": 3618,
      "▁dak": 3619,
      "lamaya": 3620,
      "anın": 3621,
      "ee": 3622,
      "ındaki": 3623,
      "▁konu": 3624,
      "▁mektu": 3625,
      "zet": 3626,
      "▁dolay": 3627,
      "▁gr": 3628,
      "▁bizden": 3629,
      "▁kırm": 3630,
      "▁lo": 3631,
      "▁seattle'ye": 3632,
      "▁car": 3633,
      "gu": 3634,
      "▁cevap": 3635,
      "▁%6.9": 3636,
      "▁soyler": 3637,
      "asız": 3638,
      "iye": 3639,
      "▁hangileri": 3640,
      "▁konumu": 3641,
      "-22:30": 3642,
      "▁inc.": 3643,
      "laması": 3644,
      "▁iyice": 3645,
      "▁kurtul": 3646,
      "▁ref": 3647,
      "ington": 3648,
      "▁yar": 3649,
      "lanmıs": 3650,
      "▁unut": 3651,
      "u": 3652,
      "!": 3653,
      "▁hepsin": 3654,
      "ung": 3655,
      "elerine": 3656,
      "▁bat": 3657,
      "▁kon": 3658,
      "or": 3659,
      "ısı": 3660,
      "▁reh": 3661,
      "▁analist": 3662,
      "lerden": 3663,
      "s": 3664,
      "▁guc": 3665,
      "▁di": 3666,
      "▁10": 3667,
      "'nde": 3668,
      "▁kendine": 3669,
      "ta": 3670,
      "bire": 3671,
      "▁halen": 3672,
      "▁bak": 3673,
      "▁size": 3674,
      "▁dieg": 3675,
      "▁nok": 3676,
      "ip": 3677,
      "ilmis": 3678,
      "▁olay": 3679,
      "lerim": 3680,
      "▁%3.5": 3681,
      "▁haz": 3682,
      "▁ederim": 3683,
      "▁birinin": 3684,
      "▁baska": 3685,
      "▁zamanlar": 3686,
      "ilik": 3687,
      "▁haziran": 3688,
      "▁kullan": 3689,
      "igini": 3690,
      "▁osman": 3691,
      "▁degisik": 3692,
      "▁rez": 3693,
      "alarının": 3694,
      "▁alıcı": 3695,
      "maz": 3696,
      "▁tesisti": 3697,
      "▁%3.": 3698,
      "sim": 3699,
      "▁hızla": 3700,
      "siy": 3701,
      "▁tiril": 3702,
      "▁geciyor": 3703,
      "per": 3704,
      "▁hep": 3705,
      "▁sel": 3706,
      "ed": 3707,
      "▁gay": 3708,
      "▁birine": 3709,
      "▁kuy": 3710,
      "▁alın": 3711,
      "▁soguk": 3712,
      "▁muz": 3713,
      "amadı": 3714,
      "osu": 3715,
      "▁asker": 3716,
      "▁aydın": 3717,
      "can": 3718,
      "ori": 3719,
      "lardı": 3720,
      "▁/": 3721,
      "▁oldum": 3722,
      ":00-22:30": 3723,
      "▁fer": 3724,
      "▁yalnızca": 3725,
      "yn": 3726,
      "lestir": 3727,
      "▁hav": 3728,
      "▁durgun": 3729,
      "▁okum": 3730,
      "45": 3731,
      "▁kıs": 3732,
      "▁bil": 3733,
      "▁89-": 3734,
      "dılar": 3735,
      "▁ruz": 3736,
      "▁iceri": 3737,
      "▁%0.2": 3738,
      "▁but": 3739,
      "digi": 3740,
      "▁ve": 3741,
      "▁tesekkurler": 3742,
      "▁altın": 3743,
      "▁performans": 3744,
      "▁belirtti": 3745,
      "▁kotuydu": 3746,
      "▁eglen": 3747,
      "▁magaz": 3748,
      "▁hemen": 3749,
      "ig": 3750,
      "▁hizmetleri": 3751,
      "▁sap": 3752,
      "om": 3753,
      "▁mesel": 3754,
      "▁yon": 3755,
      "'ya": 3756,
      "▁plan": 3757,
      "▁hey": 3758,
      "▁oldugun": 3759,
      "▁1.1": 3760,
      "▁sal": 3761,
      "▁yapıl": 3762,
      "▁an": 3763,
      "▁ver": 3764,
      "▁istiyorum": 3765,
      "▁alt": 3766,
      "▁olmayan": 3767,
      "▁mukemmeldi": 3768,
      "▁dogu": 3769,
      "istik": 3770,
      "▁yetersiz": 3771,
      "'": 3772,
      "▁icer": 3773,
      "▁uretic": 3774,
      "▁gordu": 3775,
      "▁olursa": 3776,
      "isten": 3777,
      "ladık": 3778,
      "amaya": 3779,
      "▁gidip": 3780,
      "imiz": 3781,
      "'e": 3782,
      "menin": 3783,
      "siniz": 3784,
      "▁%15": 3785,
      "▁co": 3786,
      "▁gec": 3787,
      "elik": 3788,
      "▁derg": 3789,
      "onik": 3790,
      "▁goruyor": 3791,
      "emin": 3792,
      "▁az": 3793,
      "oeni": 3794,
      "▁demokr": 3795,
      "ent": 3796,
      "▁fayd": 3797,
      "▁dest": 3798,
      "'le": 3799,
      "▁ch": 3800,
      "lardan": 3801,
      "▁kongre": 3802,
      "▁yok": 3803,
      "▁temizlik": 3804,
      "aman": 3805,
      "ırı": 3806,
      "▁kır": 3807,
      "z": 3808,
      "▁fak": 3809,
      "▁dedi": 3810,
      "lanan": 3811,
      "mer": 3812,
      "▁peyn": 3813,
      "▁kapı": 3814,
      "▁adı": 3815,
      "asıyor": 3816,
      "▁sabahı": 3817,
      "▁sp": 3818,
      "ruk": 3819,
      "▁mas": 3820,
      "ici": 3821,
      "▁fotograf": 3822,
      "▁kası": 3823,
      "▁guleryuz": 3824,
      "man": 3825,
      "▁pol": 3826,
      "▁anlay": 3827,
      "▁16": 3828,
      "▁stratej": 3829,
      "id": 3830,
      "▁pahaliydi": 3831,
      "▁olc": 3832,
      "▁kara": 3833,
      "os": 3834,
      "▁eger": 3835,
      "▁fark": 3836,
      "▁“": 3837,
      "▁toplantı": 3838,
      "▁artarak": 3839,
      "▁fab": 3840,
      "▁duny": 3841,
      "eyen": 3842,
      "▁bas": 3843,
      "▁isin": 3844,
      "▁havalim": 3845,
      "▁karayol": 3846,
      "▁fiyatları": 3847,
      "ele": 3848,
      "▁sanki": 3849,
      "▁gotur": 3850,
      "▁cin": 3851,
      "▁kredi": 3852,
      "bes": 3853,
      "▁yonet": 3854,
      "000": 3855,
      "▁eg": 3856,
      "▁ocak": 3857,
      "▁kural": 3858,
      "makta": 3859,
      "▁gen": 3860,
      "▁bolg": 3861,
      "asıyla": 3862,
      "yıl": 3863,
      "tu": 3864,
      "ce": 3865,
      "gul": 3866,
      "▁cocuklar": 3867,
      "▁yaz": 3868,
      "▁havaalanı": 3869,
      "mustur": 3870,
      "▁yonelik": 3871,
      "▁yapmaya": 3872,
      "'i": 3873,
      "▁city'den": 3874,
      "▁gidiyor": 3875,
      "▁on": 3876,
      "ardan": 3877,
      "▁bekledi": 3878,
      "rli": 3879,
      "▁ogleden": 3880,
      "i": 3881,
      "lan": 3882,
      "▁hedef": 3883,
      "ilerini": 3884,
      "▁sart": 3885,
      "▁normaldi": 3886,
      "atur": 3887,
      "▁o": 3888,
      "▁kansas": 3889,
      "▁degildi": 3890,
      "ormal": 3891,
      "▁endeksi": 3892,
      "|": 3893,
      "▁%12": 3894,
      "▁yardimci": 3895,
      "ret": 3896,
      "▁iz": 3897,
      "▁fransız": 3898,
      "ice": 3899,
      "▁hale": 3900,
      "▁gereken": 3901,
      "▁yerde": 3902,
      "asını": 3903,
      "▁bıraktı": 3904,
      "▁sozles": 3905,
      "▁alır": 3906,
      "▁birin": 3907,
      "▁al": 3908,
      "bul": 3909,
      "▁``": 3910,
      "unden": 3911,
      "▁sizler": 3912,
      ":30": 3913,
      "uyu": 3914,
      "▁sasır": 3915,
      "▁yardımcı": 3916,
      "▁reklam": 3917,
      "▁oysa": 3918,
      "▁univ": 3919,
      "▁ti": 3920,
      "elerinde": 3921,
      "burg": 3922,
      "men": 3923,
      "layacak": 3924,
      "▁ihtiyar": 3925,
      "▁kulak": 3926,
      "▁olmadi": 3927,
      "gil": 3928,
      "▁ilgiliydi": 3929,
      "lasyon": 3930,
      "hu": 3931,
      "▁olabil": 3932,
      "▁ur": 3933,
      "▁mily": 3934,
      "▁oy": 3935,
      "▁merkez": 3936,
      "▁secim": 3937,
      "▁kapat": 3938,
      "▁satın": 3939,
      "▁beraber": 3940,
      "cog": 3941,
      "▁pır": 3942,
      "▁cıvıl": 3943,
      "eyin": 3944,
      "▁veriyorum": 3945,
      "▁gelecek": 3946,
      "▁simdi": 3947,
      "▁ert": 3948,
      "▁olmadıgını": 3949,
      "uv": 3950,
      "▁mecl": 3951,
      "▁dir": 3952,
      "▁1/4": 3953,
      "▁kuvvet": 3954,
      "▁bazı": 3955,
      "▁do": 3956,
      "ısının": 3957,
      "▁%0.3": 3958,
      "nin": 3959,
      "▁gol": 3960,
      "izi": 3961,
      "▁mı": 3962,
      "▁lis": 3963,
      "▁yandan": 3964,
      "emedi": 3965,
      "ata": 3966,
      "▁ettiler": 3967,
      "▁lou": 3968,
      "▁dolayi": 3969,
      "▁ab": 3970,
      "▁hayır": 3971,
      "▁mav": 3972,
      "▁pencer": 3973,
      "▁bunlardan": 3974,
      "▁iki": 3975,
      "estir": 3976,
      "▁degil": 3977,
      "▁dolayı": 3978,
      "▁vazgec": 3979,
      "▁bilgisayar": 3980,
      "▁agız": 3981,
      "▁tarafından": 3982,
      "▁laf": 3983,
      "▁suyu": 3984,
      "▁kısıt": 3985,
      "▁'": 3986,
      "▁donus": 3987,
      "ev": 3988,
      "▁kamu": 3989,
      "▁kısm": 3990,
      "▁in": 3991,
      "▁atlan": 3992,
      "▁gecmis": 3993,
      "▁tabii": 3994,
      "ums": 3995,
      "umuz": 3996,
      "aydi": 3997,
      "medim": 3998,
      "▁dakika": 3999,
      "▁yapı": 4000,
      "▁guvenlik": 4001,
      "diler": 4002,
      "▁enflasyon": 4003,
      "▁zen": 4004,
      "mesine": 4005,
      "▁hele": 4006,
      "▁abd": 4007,
      "▁grup": 4008,
      "▁gi": 4009,
      "▁otelin": 4010,
      "▁ca": 4011,
      "aliydi": 4012,
      "▁servisi": 4013,
      "▁televizyon": 4014,
      "▁imkanlari": 4015,
      "acag": 4016,
      "▁elbet": 4017,
      "▁kendimi": 4018,
      "▁b": 4019,
      "▁avrup": 4020,
      "▁yak": 4021,
      "▁calis": 4022,
      "▁ydi": 4023,
      "▁etk": 4024,
      "▁denver": 4025,
      "ısında": 4026,
      "▁var": 4027,
      "▁bulun": 4028,
      "▁uretim": 4029,
      "dıgında": 4030,
      "▁alıyor": 4031,
      "▁bu": 4032,
      "uar": 4033,
      "▁washington": 4034,
      "lim": 4035,
      "▁ed": 4036,
      "▁kay": 4037,
      "▁bayan": 4038,
      "▁cumartesi": 4039,
      "dis": 4040,
      "azım": 4041,
      "▁kaliteli": 4042,
      "▁ide": 4043,
      "▁ucrete": 4044,
      "hi": 4045,
      "▁hos": 4046,
      "▁li": 4047,
      "▁yuks": 4048,
      "▁yeni": 4049,
      "▁bur": 4050,
      "alıgı": 4051,
      "▁rest": 4052,
      "irim": 4053,
      "tigi": 4054,
      "ile": 4055,
      "lerdi": 4056,
      "baren": 4057,
      "▁tes": 4058,
      "▁degis": 4059,
      "▁altına": 4060,
      "—": 4061,
      "▁kaz": 4062,
      "▁yol": 4063,
      "▁gazet": 4064,
      "▁belli": 4065,
      "elerek": 4066,
      "▁it": 4067,
      "esiz": 4068,
      "▁tarihi": 4069,
      "tur": 4070,
      "▁34": 4071,
      "▁sek": 4072,
      "▁contin": 4073,
      "iyat": 4074,
      "▁se": 4075,
      "▁rom": 4076,
      "▁er": 4077,
      "▁sevgil": 4078,
      "ental": 4079,
      "ane": 4080,
      "▁tar": 4081,
      "qu": 4082,
      "rily": 4083,
      "▁2": 4084,
      "▁br": 4085,
      "▁birka": 4086,
      "sekiz": 4087,
      "orta": 4088,
      "▁azından": 4089,
      "▁aldıgı": 4090,
      "▁arası": 4091,
      "ediyor": 4092,
      "▁cagır": 4093,
      "alardan": 4094,
      "▁dallas'a": 4095
    },
    "merges": [
      [
        "d",
        "eki"
      ],
      [
        "▁g",
        "uzel"
      ],
      [
        "▁b",
        "uy"
      ],
      [
        "h",
        "ur"
      ],
      [
        "b",
        "us"
      ],
      [
        "▁kıy",
        "as"
      ],
      [
        "▁",
        "ey"
      ],
      [
        "▁a",
        "f"
      ],
      [
        "▁bor",
        "c"
      ],
      [
        "▁ucret",
        "e"
      ],
      [
        "▁kuz",
        "ey"
      ],
      [
        "▁sig",
        "orta"
      ],
      [
        "▁hik",
        "ay"
      ],
      [
        "▁bil",
        "iyor"
      ],
      [
        "▁dog",
        "ru"
      ],
      [
        "im",
        "li"
      ],
      [
        "▁k",
        "a"
      ],
      [
        "▁hav",
        "ayol"
      ],
      [
        "k",
        "en"
      ],
      [
        "▁d",
        "eg"
      ],
      [
        "▁",
        "ef"
      ],
      [
        "▁d",
        "elik"
      ],
      [
        "am",
        "b"
      ],
      [
        "▁b",
        "os"
      ],
      [
        "▁f",
        "atur"
      ],
      [
        "▁hal",
        "a"
      ],
      [
        "uc",
        "uk"
      ],
      [
        "ıl",
        "ım"
      ],
      [
        "▁p",
        "ar"
      ],
      [
        "▁feder",
        "al"
      ],
      [
        "g",
        "umuz"
      ],
      [
        "ler",
        "in"
      ],
      [
        "u",
        "l"
      ],
      [
        "▁univers",
        "it"
      ],
      [
        "n",
        "et"
      ],
      [
        "ler",
        "inin"
      ],
      [
        "co",
        "g"
      ],
      [
        "▁g",
        "um"
      ],
      [
        "▁kor",
        "k"
      ],
      [
        "▁bas",
        "ar"
      ],
      [
        "ir",
        "e"
      ],
      [
        "▁al",
        "lah"
      ],
      [
        "▁ka",
        "c"
      ],
      [
        "g",
        "un"
      ],
      [
        "▁f",
        "ing"
      ],
      [
        "▁h",
        "ep"
      ],
      [
        "▁k",
        "ok"
      ],
      [
        "uy",
        "le"
      ],
      [
        "▁siyas",
        "i"
      ],
      [
        "▁yapıl",
        "acak"
      ],
      [
        "▁gel",
        "di"
      ],
      [
        "▁her",
        "hangi"
      ],
      [
        "ru",
        "b"
      ],
      [
        "▁y",
        "emek"
      ],
      [
        "▁p",
        "is"
      ],
      [
        "▁mum",
        "kun"
      ],
      [
        "is",
        "el"
      ],
      [
        "am",
        "ız"
      ],
      [
        "▁o",
        "t"
      ],
      [
        "▁sor",
        "um"
      ],
      [
        "orm",
        "al"
      ],
      [
        "im",
        "e"
      ],
      [
        "imiz",
        "in"
      ],
      [
        "▁bil",
        "gi"
      ],
      [
        "▁sat",
        "ım"
      ],
      [
        "▁1.",
        "6"
      ],
      [
        "▁%7.8",
        "75"
      ],
      [
        "▁york",
        "'tan"
      ],
      [
        "t",
        "er"
      ],
      [
        "▁az",
        "ından"
      ],
      [
        "t",
        "ılı"
      ],
      [
        "lar",
        "ına"
      ],
      [
        "▁kalk",
        "ıs"
      ],
      [
        "▁az",
        "alt"
      ],
      [
        "▁d",
        "en"
      ],
      [
        "▁y",
        "ab"
      ],
      [
        "▁t",
        "ep"
      ],
      [
        "▁c",
        "id"
      ],
      [
        "vil",
        "le"
      ],
      [
        "y",
        "en"
      ],
      [
        "▁sey",
        "r"
      ],
      [
        "▁yetkil",
        "ileri"
      ],
      [
        "▁tem",
        "iz"
      ],
      [
        "▁at",
        "es"
      ],
      [
        "▁d",
        "ev"
      ],
      [
        "ların",
        "ın"
      ],
      [
        "un",
        "c"
      ],
      [
        "af",
        "ir"
      ],
      [
        "▁kac",
        "ın"
      ],
      [
        "▁olma",
        "sı"
      ],
      [
        "ıl",
        "ır"
      ],
      [
        "▁sig",
        "ort"
      ],
      [
        "▁mil",
        "let"
      ],
      [
        "on",
        "t"
      ],
      [
        "▁pah",
        "aliydi"
      ],
      [
        "▁a",
        "h"
      ],
      [
        "▁az",
        "di"
      ],
      [
        "ay",
        "ım"
      ],
      [
        "▁top",
        "lum"
      ],
      [
        "▁yaptir",
        "madim"
      ],
      [
        "▁s",
        "as"
      ],
      [
        "i",
        "t"
      ],
      [
        "▁ar",
        "d"
      ],
      [
        "agı",
        "t"
      ],
      [
        "▁c",
        "ol"
      ],
      [
        "▁soy",
        "ler"
      ],
      [
        "▁or",
        "gan"
      ],
      [
        "▁n",
        "e"
      ],
      [
        "▁al",
        "mıs"
      ],
      [
        "es",
        "ini"
      ],
      [
        "▁en",
        "er"
      ],
      [
        "▁var",
        "di"
      ],
      [
        "▁i",
        "c"
      ],
      [
        "▁lak",
        "e"
      ],
      [
        "▁sık",
        "ı"
      ],
      [
        "▁oldu",
        "gu"
      ],
      [
        "▁bak",
        "ıs"
      ],
      [
        "▁st",
        "."
      ],
      [
        "▁a",
        "lt"
      ],
      [
        "▁ek",
        "onom"
      ],
      [
        "or",
        "m"
      ],
      [
        "▁",
        "!"
      ],
      [
        "ey",
        "im"
      ],
      [
        "-",
        "4"
      ],
      [
        "▁",
        "5-1"
      ],
      [
        "iyor",
        "lar"
      ],
      [
        "5",
        "-1"
      ],
      [
        "l",
        "e"
      ],
      [
        "▁sov",
        "yet"
      ],
      [
        "g",
        "ah"
      ],
      [
        "▁olum",
        "lu"
      ],
      [
        "▁l",
        "ak"
      ],
      [
        "g",
        "im"
      ],
      [
        "▁2",
        "0"
      ],
      [
        "▁ak",
        "tif"
      ],
      [
        "▁m",
        "at"
      ],
      [
        "▁seviy",
        "esine"
      ],
      [
        "h",
        "an"
      ],
      [
        "▁4",
        "6"
      ],
      [
        "▁dun",
        "y"
      ],
      [
        "▁da",
        "n"
      ],
      [
        "▁bilgis",
        "ay"
      ],
      [
        "▁2",
        "9"
      ],
      [
        "▁k",
        "ırk"
      ],
      [
        "ur",
        "u"
      ],
      [
        "▁yan",
        "i"
      ],
      [
        "s",
        "on"
      ],
      [
        "is",
        "inin"
      ],
      [
        "b",
        "ar"
      ],
      [
        "ig",
        "ini"
      ],
      [
        "um",
        "uz"
      ],
      [
        "b",
        "ir"
      ],
      [
        "▁n",
        "iyet"
      ],
      [
        "▁%3",
        ".4"
      ],
      [
        "▁bunun",
        "la"
      ],
      [
        "▁if",
        "ade"
      ],
      [
        "▁p",
        "ol"
      ],
      [
        "▁kar",
        "ak"
      ],
      [
        "a",
        "dan"
      ],
      [
        "t",
        "ım"
      ],
      [
        "▁20",
        "1"
      ],
      [
        "▁h",
        "e"
      ],
      [
        "▁min",
        "ne"
      ],
      [
        "tı",
        "gını"
      ],
      [
        "▁t",
        "eh"
      ],
      [
        "at",
        "or"
      ],
      [
        "iy",
        "i"
      ],
      [
        "▁kum",
        "as"
      ],
      [
        "▁ol",
        "dum"
      ],
      [
        "▁he",
        "p"
      ],
      [
        "▁mus",
        "un"
      ],
      [
        "▁i",
        "f"
      ],
      [
        "ım",
        "ız"
      ],
      [
        "▁bay",
        "ram"
      ],
      [
        "▁5",
        "2"
      ],
      [
        "lı",
        "g"
      ],
      [
        "▁sey",
        "ler"
      ],
      [
        "▁ger",
        "i"
      ],
      [
        "▁on",
        "ay"
      ],
      [
        "▁u",
        "y"
      ],
      [
        "en",
        "de"
      ],
      [
        "ı",
        "m"
      ],
      [
        "dig",
        "im"
      ],
      [
        "▁ol",
        "mak"
      ],
      [
        "p",
        "a"
      ],
      [
        "n",
        "a"
      ],
      [
        "▁ka",
        "h"
      ],
      [
        "▁insan",
        "ın"
      ],
      [
        "▁insan",
        "ları"
      ],
      [
        "▁t",
        "e"
      ],
      [
        "▁gi",
        "d"
      ],
      [
        "▁n",
        "ere"
      ],
      [
        "▁a",
        "il"
      ],
      [
        "m",
        "eli"
      ],
      [
        "et",
        "i"
      ],
      [
        "▁m",
        "c"
      ],
      [
        "▁gec",
        "mis"
      ],
      [
        "es",
        "iz"
      ],
      [
        "0",
        "0"
      ],
      [
        "▁et",
        "me"
      ],
      [
        "d",
        "in"
      ],
      [
        "v",
        "e"
      ],
      [
        "▁l",
        "ut"
      ],
      [
        "▁kis",
        "isel"
      ],
      [
        "▁kır",
        "ık"
      ],
      [
        "▁kuv",
        "vet"
      ],
      [
        "▁",
        "19"
      ],
      [
        "▁yemek",
        "ler"
      ],
      [
        "e",
        "de"
      ],
      [
        "▁dolar",
        "lık"
      ],
      [
        "ay",
        "dı"
      ],
      [
        "▁du",
        "k"
      ],
      [
        "▁as",
        "ıl"
      ],
      [
        "▁ay",
        "ında"
      ],
      [
        "▁s",
        "ig"
      ],
      [
        "c",
        "usu"
      ],
      [
        "'n",
        "un"
      ],
      [
        "▁seh",
        "ir"
      ],
      [
        "m",
        "alar"
      ],
      [
        "▁b",
        "or"
      ],
      [
        "▁im",
        "kan"
      ],
      [
        "lar",
        "ım"
      ],
      [
        "▁teh",
        "lik"
      ],
      [
        "▁kendi",
        "ler"
      ],
      [
        "ak",
        "lı"
      ],
      [
        "▁eg",
        "il"
      ],
      [
        "▁k",
        "oc"
      ],
      [
        "▁yıl",
        "lar"
      ],
      [
        "t",
        "uk"
      ],
      [
        "ıs",
        "ıl"
      ],
      [
        "u",
        "gu"
      ],
      [
        "eb",
        "il"
      ],
      [
        "▁3",
        "0"
      ],
      [
        "▁",
        "“"
      ],
      [
        "▁yok",
        "sa"
      ],
      [
        "▁nere",
        "den"
      ],
      [
        "lan",
        "mıs"
      ],
      [
        "▁g",
        "og"
      ],
      [
        "▁y",
        "az"
      ],
      [
        "▁3",
        "9"
      ],
      [
        "o",
        "'dan"
      ],
      [
        "i",
        "y"
      ],
      [
        "8",
        "6"
      ],
      [
        "o",
        "k"
      ],
      [
        "u",
        "r"
      ],
      [
        "2",
        "-23"
      ],
      [
        "▁i",
        "h"
      ],
      [
        "▁yap",
        "an"
      ],
      [
        "▁k",
        "om"
      ],
      [
        "ib",
        "ar"
      ],
      [
        "vel",
        "and"
      ],
      [
        "▁ch",
        "ic"
      ],
      [
        "ok",
        "r"
      ],
      [
        "s",
        "ak"
      ],
      [
        "il",
        "l"
      ],
      [
        "▁mı",
        "s"
      ],
      [
        "▁kaz",
        "an"
      ],
      [
        "▁m",
        "ez"
      ],
      [
        "▁ey",
        "lul"
      ],
      [
        "▁dur",
        "gun"
      ],
      [
        "▁t",
        "it"
      ],
      [
        "▁t",
        "er"
      ],
      [
        "t",
        "aki"
      ],
      [
        "▁tak",
        "ip"
      ],
      [
        "▁sak",
        "in"
      ],
      [
        "er",
        "n"
      ],
      [
        "▁tam",
        "pa"
      ],
      [
        "▁m",
        "ek"
      ],
      [
        "▁ask",
        "er"
      ],
      [
        "inn",
        "ati"
      ],
      [
        "▁bil",
        "es"
      ],
      [
        "▁calıs",
        "ma"
      ],
      [
        "▁oldug",
        "unu"
      ],
      [
        "▁%6",
        ".9"
      ],
      [
        "▁kap",
        "sam"
      ],
      [
        "▁karsil",
        "igini"
      ],
      [
        "es",
        "inden"
      ],
      [
        "▁amerik",
        "an"
      ],
      [
        "▁ben",
        "de"
      ],
      [
        "▁di",
        "ger"
      ],
      [
        "▁et",
        "tiler"
      ],
      [
        "▁tat",
        "lı"
      ],
      [
        "▁g",
        "itt"
      ],
      [
        "▁iz",
        "in"
      ],
      [
        "▁s",
        "h"
      ],
      [
        "▁otel",
        "di"
      ],
      [
        "n",
        "g"
      ],
      [
        "▁is",
        "i"
      ],
      [
        "▁mahk",
        "em"
      ],
      [
        "▁siy",
        "ah"
      ],
      [
        "▁kar",
        "ar"
      ],
      [
        "in",
        "a"
      ],
      [
        "u",
        "d"
      ],
      [
        "▁%7",
        "."
      ],
      [
        "▁belir",
        "t"
      ],
      [
        "r",
        "e"
      ],
      [
        "▁cocuk",
        "lar"
      ],
      [
        "g",
        "imiz"
      ],
      [
        "u",
        "c"
      ],
      [
        "▁t",
        "anı"
      ],
      [
        "▁kay",
        "bet"
      ],
      [
        "l",
        "ayıp"
      ],
      [
        "▁am",
        "er"
      ],
      [
        "▁ediyor",
        "um"
      ],
      [
        "is",
        "indan"
      ],
      [
        "▁acık",
        "lan"
      ],
      [
        "▁ar",
        "ab"
      ],
      [
        "▁ust",
        "unde"
      ],
      [
        "▁s",
        "u"
      ],
      [
        "▁se",
        "kiz"
      ],
      [
        "▁al",
        "ak"
      ],
      [
        "▁kendi",
        "si"
      ],
      [
        "▁s",
        "ark"
      ],
      [
        "'",
        "ı"
      ],
      [
        "▁giz",
        "li"
      ],
      [
        "▁",
        "ak"
      ],
      [
        "▁d",
        "em"
      ],
      [
        "▁l",
        "ond"
      ],
      [
        "▁hal",
        "ine"
      ],
      [
        "e",
        "n"
      ],
      [
        "l",
        "ay"
      ],
      [
        "▁hız",
        "la"
      ],
      [
        "y",
        "or"
      ],
      [
        "s",
        "am"
      ],
      [
        "▁an",
        "lay"
      ],
      [
        "▁kol",
        "ay"
      ],
      [
        "▁gir",
        "di"
      ],
      [
        "oh",
        "n"
      ],
      [
        "ers",
        "iz"
      ],
      [
        "s",
        "al"
      ],
      [
        "ev",
        "iz"
      ],
      [
        "▁den",
        "ey"
      ],
      [
        "▁od",
        "em"
      ],
      [
        "▁.",
        "."
      ],
      [
        "s",
        "iy"
      ],
      [
        "▁sermay",
        "e"
      ],
      [
        "uyor",
        "um"
      ],
      [
        "▁m",
        "ik"
      ],
      [
        "▁yap",
        "ıyor"
      ],
      [
        "▁ic",
        "ecek"
      ],
      [
        "▁milwaukee",
        "'den"
      ],
      [
        "▁in",
        "san"
      ],
      [
        "▁hal",
        "e"
      ],
      [
        "im",
        "de"
      ],
      [
        "lar",
        "dı"
      ],
      [
        "▁kal",
        "kan"
      ],
      [
        "▁g",
        "ur"
      ],
      [
        "▁gercek",
        "lestir"
      ],
      [
        "▁sa",
        "m"
      ],
      [
        "▁b",
        "ey"
      ],
      [
        "u",
        "b"
      ],
      [
        "d",
        "ek"
      ],
      [
        "am",
        "az"
      ],
      [
        "▁ay",
        "n"
      ],
      [
        "▁l",
        "ı"
      ],
      [
        "▁kong",
        "re"
      ],
      [
        "og",
        "ram"
      ],
      [
        "dı",
        "m"
      ],
      [
        "dig",
        "imiz"
      ],
      [
        "▁is",
        "t"
      ],
      [
        "dı",
        "gı"
      ],
      [
        "c",
        "ilik"
      ],
      [
        "▁mal",
        "i"
      ],
      [
        "▁%",
        "0"
      ],
      [
        "ul",
        "an"
      ],
      [
        "▁h",
        "ay"
      ],
      [
        "l",
        "uk"
      ],
      [
        "g",
        "ini"
      ],
      [
        "▁elektr",
        "ik"
      ],
      [
        "en",
        "i"
      ],
      [
        "▁indianapolis",
        "'ten"
      ],
      [
        "▁%1",
        "5"
      ],
      [
        "▁hav",
        "al"
      ],
      [
        "▁%",
        "9"
      ],
      [
        "▁fok",
        "ur"
      ],
      [
        "▁americ",
        "an"
      ],
      [
        "ıs",
        "ın"
      ],
      [
        "▁yuksek",
        "ti"
      ],
      [
        "▁duy",
        "gu"
      ],
      [
        "▁y",
        "di"
      ],
      [
        "▁kendisin",
        "e"
      ],
      [
        "▁normal",
        "di"
      ],
      [
        "▁yok",
        "tu"
      ],
      [
        "▁s",
        "il"
      ],
      [
        "▁de",
        "rli"
      ],
      [
        "o",
        "t"
      ],
      [
        "▁sirket",
        "ler"
      ],
      [
        "▁o",
        "f"
      ],
      [
        "▁19",
        "9"
      ],
      [
        "▁s",
        "ok"
      ],
      [
        "ol",
        "oj"
      ],
      [
        "▁ar",
        "a"
      ],
      [
        "▁",
        "al"
      ],
      [
        "▁li",
        "der"
      ],
      [
        "▁o",
        "lar"
      ],
      [
        "in",
        "g"
      ],
      [
        "▁",
        "iy"
      ],
      [
        "▁duk",
        "kan"
      ],
      [
        "▁kad",
        "ın"
      ],
      [
        "▁han",
        "imdi"
      ],
      [
        "▁mek",
        "tu"
      ],
      [
        "'",
        "y"
      ],
      [
        "▁h",
        "uk"
      ],
      [
        "▁p",
        "et"
      ],
      [
        "▁indian",
        "apolis"
      ],
      [
        "▁bol",
        "um"
      ],
      [
        "▁al",
        "an"
      ],
      [
        "▁hen",
        "uz"
      ],
      [
        "▁end",
        "ustr"
      ],
      [
        "▁dev",
        "am"
      ],
      [
        "ak",
        "et"
      ],
      [
        "d",
        "ik"
      ],
      [
        "▁washington",
        "'dan"
      ],
      [
        "un",
        "deki"
      ],
      [
        "▁denver",
        "'den"
      ],
      [
        "▁rom",
        "an"
      ],
      [
        "▁s",
        "ıkır"
      ],
      [
        "▁gor",
        "dum"
      ],
      [
        "▁hast",
        "alık"
      ],
      [
        "a",
        "l"
      ],
      [
        "▁k",
        "um"
      ],
      [
        "▁4",
        "4"
      ],
      [
        "▁he",
        "m"
      ],
      [
        "▁ter",
        "c"
      ],
      [
        "dig",
        "ini"
      ],
      [
        "▁havuz",
        "u"
      ],
      [
        "▁d",
        "iyor"
      ],
      [
        "t",
        "al"
      ],
      [
        "ust",
        "um"
      ],
      [
        "▁rezervasyon",
        "u"
      ],
      [
        "▁dig",
        "er"
      ],
      [
        "t",
        "ık"
      ],
      [
        "▁",
        "l"
      ],
      [
        "▁",
        "eki"
      ],
      [
        "▁tık",
        "lım"
      ],
      [
        "▁h",
        "aber"
      ],
      [
        "▁t",
        "uk"
      ],
      [
        "▁k",
        "anı"
      ],
      [
        "▁ph",
        "il"
      ],
      [
        "▁par",
        "c"
      ],
      [
        "▁oldu",
        "gunu"
      ],
      [
        "▁g",
        "iy"
      ],
      [
        "▁c",
        "ıl"
      ],
      [
        "▁il",
        "isk"
      ],
      [
        "in",
        "den"
      ],
      [
        "▁d",
        "est"
      ],
      [
        "▁pittsburgh",
        "'a"
      ],
      [
        "▁c",
        "ic"
      ],
      [
        "▁um",
        "ut"
      ],
      [
        "▁y",
        "ine"
      ],
      [
        "▁muz",
        "ik"
      ],
      [
        "an",
        "c"
      ],
      [
        "ac",
        "agı"
      ],
      [
        "▁s",
        "uy"
      ],
      [
        "▁s",
        "ın"
      ],
      [
        "▁",
        "ar"
      ],
      [
        "ıl",
        "ı"
      ],
      [
        "▁d",
        "ef"
      ],
      [
        "▁goster",
        "iyor"
      ],
      [
        "iy",
        "as"
      ],
      [
        "o",
        "ma"
      ],
      [
        "▁ver",
        "digi"
      ],
      [
        "▁ben",
        "i"
      ],
      [
        "ın",
        "ın"
      ],
      [
        "in",
        "da"
      ],
      [
        "▁gorun",
        "ce"
      ],
      [
        "▁kal",
        "ab"
      ],
      [
        "▁guven",
        "lik"
      ],
      [
        "3",
        "2"
      ],
      [
        "▁uret",
        "ic"
      ],
      [
        "ması",
        "z"
      ],
      [
        "ad",
        "an"
      ],
      [
        "▁ol",
        "m"
      ],
      [
        "▁ser",
        "v"
      ],
      [
        "▁ucret",
        "i"
      ],
      [
        "▁ver",
        "mis"
      ],
      [
        "▁y",
        "eni"
      ],
      [
        "▁gal",
        "ib"
      ],
      [
        "▁bas",
        "v"
      ],
      [
        "tim",
        "ore"
      ],
      [
        "▁hat",
        "ta"
      ],
      [
        "▁i",
        "p"
      ],
      [
        "▁r",
        "ak"
      ],
      [
        "▁do",
        "lar"
      ],
      [
        "▁ne",
        "den"
      ],
      [
        "s",
        "el"
      ],
      [
        "▁var",
        "dı"
      ],
      [
        "▁bil",
        "ir"
      ],
      [
        "▁m",
        "ev"
      ],
      [
        "▁muk",
        "emmel"
      ],
      [
        "▁hepsin",
        "i"
      ],
      [
        "s",
        "ı"
      ],
      [
        "▁tek",
        "lif"
      ],
      [
        "▁bag",
        "ım"
      ],
      [
        ".",
        "."
      ],
      [
        "▁havayol",
        "ları"
      ],
      [
        "▁f",
        "ay"
      ],
      [
        "t",
        "ar"
      ],
      [
        "▁dik",
        "kat"
      ],
      [
        "▁al",
        "ıyor"
      ],
      [
        "▁c",
        "ont"
      ],
      [
        "▁t",
        "es"
      ],
      [
        "▁yak",
        "in"
      ],
      [
        "▁p",
        "u"
      ],
      [
        "n",
        "e"
      ],
      [
        "▁de",
        "gil"
      ],
      [
        "▁got",
        "ur"
      ],
      [
        "t",
        "ir"
      ],
      [
        "um",
        "a"
      ],
      [
        "▁ol",
        "mus"
      ],
      [
        "▁yalnız",
        "ca"
      ],
      [
        "ir",
        "i"
      ],
      [
        "c",
        "ak"
      ],
      [
        "▁mut",
        "lu"
      ],
      [
        "▁has",
        "ır"
      ],
      [
        "▁198",
        "9"
      ],
      [
        "▁t",
        "op"
      ],
      [
        "▁dem",
        "ir"
      ],
      [
        "i",
        "yak"
      ],
      [
        "▁sosy",
        "al"
      ],
      [
        "▁pittsburgh",
        "'tan"
      ],
      [
        "▁k",
        "ayıp"
      ],
      [
        "b",
        "et"
      ],
      [
        "▁s",
        "p"
      ],
      [
        "▁nok",
        "t"
      ],
      [
        "▁ili",
        "sk"
      ],
      [
        ":",
        "00"
      ],
      [
        "▁yap",
        "maya"
      ],
      [
        "g",
        "il"
      ],
      [
        "▁sik",
        "ayet"
      ],
      [
        "▁ev",
        "vel"
      ],
      [
        "ay",
        "ı"
      ],
      [
        "▁c",
        "ok"
      ],
      [
        "▁baltimore",
        "'ye"
      ],
      [
        "▁av",
        "rup"
      ],
      [
        "▁charl",
        "otte"
      ],
      [
        "▁yas",
        "ında"
      ],
      [
        "im",
        "i"
      ],
      [
        "▁istem",
        "iyorum"
      ],
      [
        "on",
        "u"
      ],
      [
        "▁yap",
        "acak"
      ],
      [
        "▁on",
        "umuz"
      ],
      [
        "▁b",
        "og"
      ],
      [
        "▁al",
        "ıp"
      ],
      [
        "ab",
        "il"
      ],
      [
        "▁m",
        "uc"
      ],
      [
        "▁ist",
        "e"
      ],
      [
        "▁k",
        "ay"
      ],
      [
        "▁acık",
        "ladı"
      ],
      [
        "ac",
        "ık"
      ],
      [
        "▁on",
        "un"
      ],
      [
        "▁%1",
        "7"
      ],
      [
        "▁h",
        "ac"
      ],
      [
        "▁kur",
        "al"
      ],
      [
        "r",
        "uk"
      ],
      [
        "▁bah",
        "s"
      ],
      [
        "es",
        "em"
      ],
      [
        "han",
        "gi"
      ],
      [
        "▁yardım",
        "cısı"
      ],
      [
        "ı",
        "k"
      ],
      [
        "▁",
        "el"
      ],
      [
        "ler",
        "den"
      ],
      [
        "▁is",
        "let"
      ],
      [
        "▁do",
        "v"
      ],
      [
        "lan",
        "an"
      ],
      [
        "▁y",
        "er"
      ],
      [
        "ı",
        "yor"
      ],
      [
        "▁zaman",
        "lar"
      ],
      [
        "▁kans",
        "as"
      ],
      [
        "▁yer",
        "el"
      ],
      [
        "▁bag",
        "ır"
      ],
      [
        "▁ham",
        "am"
      ],
      [
        "ay",
        "ol"
      ],
      [
        "▁sef",
        "er"
      ],
      [
        "▁yıl",
        "da"
      ],
      [
        "▁kampan",
        "yalar"
      ],
      [
        "▁sab",
        "it"
      ],
      [
        "g",
        "ru"
      ],
      [
        "▁ag",
        "ır"
      ],
      [
        "▁dus",
        "ur"
      ],
      [
        "ma",
        "dan"
      ],
      [
        "▁serv",
        "isi"
      ],
      [
        "▁bu",
        "r"
      ],
      [
        "s",
        "in"
      ],
      [
        "s",
        "uz"
      ],
      [
        "in",
        "ci"
      ],
      [
        "k",
        "ır"
      ],
      [
        "89",
        "-"
      ],
      [
        "▁pa",
        "ul"
      ],
      [
        "▁",
        "edi"
      ],
      [
        "at",
        "ur"
      ],
      [
        "▁t",
        "ac"
      ],
      [
        "▁f",
        "ilm"
      ],
      [
        "c",
        "ut"
      ],
      [
        "l",
        "i"
      ],
      [
        "u",
        "ru"
      ],
      [
        "▁sal",
        "on"
      ],
      [
        "▁ort",
        "ak"
      ],
      [
        "▁kon",
        "ak"
      ],
      [
        "le",
        "b"
      ],
      [
        "▁mey",
        "al"
      ],
      [
        "▁g",
        "el"
      ],
      [
        "m",
        "ıs"
      ],
      [
        "▁kon",
        "us"
      ],
      [
        "▁doları",
        "'na"
      ],
      [
        "i",
        "a"
      ],
      [
        "▁ar",
        "z"
      ],
      [
        "▁or",
        "g"
      ],
      [
        "▁kim",
        "s"
      ],
      [
        "m",
        "isti"
      ],
      [
        "in",
        "e"
      ],
      [
        "c",
        "an"
      ],
      [
        "se",
        "kiz"
      ],
      [
        "▁o",
        "larak"
      ],
      [
        "b",
        "u"
      ],
      [
        "ler",
        "di"
      ],
      [
        "▁ogret",
        "men"
      ],
      [
        "▁ser",
        "may"
      ],
      [
        "▁cum",
        "artesi"
      ],
      [
        "▁3",
        "/"
      ],
      [
        "▁list",
        "el"
      ],
      [
        "▁birlik",
        "te"
      ],
      [
        "a",
        "at"
      ],
      [
        "▁b",
        "egen"
      ],
      [
        "▁bor",
        "s"
      ],
      [
        "siz",
        "di"
      ],
      [
        "▁el",
        "estir"
      ],
      [
        "▁hal",
        "de"
      ],
      [
        "▁",
        "#"
      ],
      [
        "len",
        "dir"
      ],
      [
        "▁h",
        "i"
      ],
      [
        "li",
        "g"
      ],
      [
        "lam",
        "aya"
      ],
      [
        "▁tut",
        "tu"
      ],
      [
        "ı",
        "l"
      ],
      [
        "▁",
        "in"
      ],
      [
        "l",
        "o"
      ],
      [
        "▁",
        "at"
      ],
      [
        "▁n",
        "is"
      ],
      [
        "▁b",
        "ur"
      ],
      [
        "lan",
        "ıyor"
      ],
      [
        "▁gun",
        "leri"
      ],
      [
        "▁d",
        "on"
      ],
      [
        "▁nis",
        "an"
      ],
      [
        "▁ok",
        "uy"
      ],
      [
        "▁og",
        "le"
      ],
      [
        "▁",
        "y"
      ],
      [
        "▁kur",
        "t"
      ],
      [
        "▁",
        "4"
      ],
      [
        "a",
        "r"
      ],
      [
        "▁bir",
        "inci"
      ],
      [
        "▁nas",
        "h"
      ],
      [
        "▁y",
        "ım"
      ],
      [
        "ar",
        "dan"
      ],
      [
        "y",
        "on"
      ],
      [
        "r",
        "ily"
      ],
      [
        "c",
        "ısı"
      ],
      [
        "▁endek",
        "si"
      ],
      [
        "▁h",
        "edef"
      ],
      [
        "▁tem",
        "sil"
      ],
      [
        "▁yak",
        "las"
      ],
      [
        "▁dus",
        "erek"
      ],
      [
        "▁eks",
        "ik"
      ],
      [
        "▁yam",
        "alak"
      ],
      [
        "▁gel",
        "ir"
      ],
      [
        "el",
        "e"
      ],
      [
        "▁pet",
        "rol"
      ],
      [
        "lar",
        "ı"
      ],
      [
        "l",
        "t"
      ],
      [
        "len",
        "en"
      ],
      [
        "ler",
        "le"
      ],
      [
        "▁b",
        "ak"
      ],
      [
        "▁sag",
        "lık"
      ],
      [
        "▁pr",
        "ob"
      ],
      [
        "▁b",
        "ag"
      ],
      [
        "em",
        "e"
      ],
      [
        "b",
        "a"
      ],
      [
        "em",
        "mel"
      ],
      [
        "▁kendim",
        "e"
      ],
      [
        "il",
        "ik"
      ],
      [
        "▁s",
        "or"
      ],
      [
        "▁mil",
        "li"
      ],
      [
        "▁an",
        "kara"
      ],
      [
        "▁is",
        "ler"
      ],
      [
        "▁ingil",
        "iz"
      ],
      [
        "▁gorus",
        "uldu"
      ],
      [
        "▁ev",
        "de"
      ],
      [
        "a",
        "d"
      ],
      [
        "▁5",
        "0"
      ],
      [
        "▁de",
        "k"
      ],
      [
        "ler",
        "ine"
      ],
      [
        "▁al",
        "acak"
      ],
      [
        "e",
        "r"
      ],
      [
        "a",
        "c"
      ],
      [
        "▁%1",
        "1"
      ],
      [
        "▁egit",
        "im"
      ],
      [
        "ir",
        "im"
      ],
      [
        "'",
        "u"
      ],
      [
        "▁",
        "d"
      ],
      [
        "▁%8",
        "0"
      ],
      [
        "ac",
        "ı"
      ],
      [
        "▁don",
        "du"
      ],
      [
        "ler",
        "e"
      ],
      [
        "▁dolar",
        "dan"
      ],
      [
        "▁iht",
        "iy"
      ],
      [
        "▁o",
        "p"
      ],
      [
        "▁g",
        "r"
      ],
      [
        "▁z",
        "ay"
      ],
      [
        "▁an",
        "ad"
      ],
      [
        "▁yas",
        "am"
      ],
      [
        "▁gi",
        "di"
      ],
      [
        "en",
        "c"
      ],
      [
        "▁h",
        "af"
      ],
      [
        "▁kıymet",
        "ler"
      ],
      [
        "▁t",
        "ir"
      ],
      [
        "▁uy",
        "um"
      ],
      [
        "bar",
        "en"
      ],
      [
        "t",
        "iler"
      ],
      [
        "l",
        "ılık"
      ],
      [
        "▁ay",
        "r"
      ],
      [
        "▁i",
        "s"
      ],
      [
        "▁c",
        "oc"
      ],
      [
        "▁k",
        "ac"
      ],
      [
        "▁bilg",
        "is"
      ],
      [
        "ik",
        "ti"
      ],
      [
        "▁y",
        "uk"
      ],
      [
        "▁do",
        "ları"
      ],
      [
        "o",
        "f"
      ],
      [
        "▁yar",
        "ım"
      ],
      [
        "▁3",
        "7"
      ],
      [
        "▁bak",
        "an"
      ],
      [
        "▁%7.",
        "7"
      ],
      [
        "▁s",
        "av"
      ],
      [
        "▁m",
        "em"
      ],
      [
        "imiz",
        "e"
      ],
      [
        "▁or",
        "ta"
      ],
      [
        "▁k",
        "ur"
      ],
      [
        "▁dus",
        "un"
      ],
      [
        "▁olduk",
        "ca"
      ],
      [
        "e",
        "c"
      ],
      [
        "▁kan",
        "un"
      ],
      [
        "▁p",
        "eyn"
      ],
      [
        "a",
        "b"
      ],
      [
        "▁b",
        "ut"
      ],
      [
        "ust",
        "ur"
      ],
      [
        "▁c",
        "om"
      ],
      [
        "▁i",
        "m"
      ],
      [
        "ı",
        "cı"
      ],
      [
        "▁hal",
        "k"
      ],
      [
        "▁1.",
        "5"
      ],
      [
        "▁n",
        "ormal"
      ],
      [
        "▁b",
        "o"
      ],
      [
        "▁olabilir",
        "di"
      ],
      [
        "▁",
        "b"
      ],
      [
        "f",
        "et"
      ],
      [
        "▁3",
        "00"
      ],
      [
        "▁f",
        "i"
      ],
      [
        "'",
        "a"
      ],
      [
        "uc",
        "u"
      ],
      [
        "▁ken",
        "d"
      ],
      [
        "▁b",
        "an"
      ],
      [
        "en",
        "ler"
      ],
      [
        "▁cif",
        "t"
      ],
      [
        "▁d",
        "oy"
      ],
      [
        "▁tabi",
        "i"
      ],
      [
        "▁3",
        "8"
      ],
      [
        "▁d",
        "us"
      ],
      [
        "▁y",
        "dı"
      ],
      [
        "▁ger",
        "il"
      ],
      [
        "er",
        "ek"
      ],
      [
        "▁o",
        "bu"
      ],
      [
        "r",
        "i"
      ],
      [
        "▁%7.",
        "8"
      ],
      [
        "y",
        "ak"
      ],
      [
        "▁an",
        "ket"
      ],
      [
        "▁soy",
        "ley"
      ],
      [
        "▁b",
        "ırak"
      ],
      [
        "l",
        "ah"
      ],
      [
        "▁dog",
        "al"
      ],
      [
        "▁yonet",
        "ic"
      ],
      [
        "▁",
        "ez"
      ],
      [
        "▁californ",
        "ia"
      ],
      [
        "▁b",
        "l"
      ],
      [
        "lar",
        "ını"
      ],
      [
        "▁res",
        "im"
      ],
      [
        "ın",
        "tı"
      ],
      [
        "▁on",
        "c"
      ],
      [
        "▁gitt",
        "ik"
      ],
      [
        "▁ediyor",
        "du"
      ],
      [
        "▁gor",
        "medim"
      ],
      [
        "k",
        "al"
      ],
      [
        "▁hal",
        "inde"
      ],
      [
        "▁cek",
        "ti"
      ],
      [
        "▁",
        "ek"
      ],
      [
        "ag",
        "ına"
      ],
      [
        "▁dedi",
        "m"
      ],
      [
        "▁par",
        "mak"
      ],
      [
        "s",
        "ik"
      ],
      [
        ".",
        "0"
      ],
      [
        "an",
        "lık"
      ],
      [
        "▁ol",
        "ur"
      ],
      [
        "▁eg",
        "len"
      ],
      [
        "is",
        "ine"
      ],
      [
        "▁ger",
        "cek"
      ],
      [
        "▁h",
        "ol"
      ],
      [
        "ar",
        "ak"
      ],
      [
        "▁kim",
        "se"
      ],
      [
        "▁dav",
        "ran"
      ],
      [
        "▁iti",
        "baren"
      ],
      [
        "▁s",
        "ey"
      ],
      [
        "▁",
        "erk"
      ],
      [
        "▁m",
        "ad"
      ],
      [
        "▁hat",
        "ır"
      ],
      [
        "▁angel",
        "es"
      ],
      [
        "e",
        "f"
      ],
      [
        "g",
        "unu"
      ],
      [
        "▁k",
        "i"
      ],
      [
        "▁cid",
        "di"
      ],
      [
        "o",
        "h"
      ],
      [
        "d",
        "em"
      ],
      [
        "i",
        "z"
      ],
      [
        "▁seb",
        "ep"
      ],
      [
        "is",
        "e"
      ],
      [
        "▁d",
        "agıt"
      ],
      [
        "▁yaz",
        "ar"
      ],
      [
        "g",
        "or"
      ],
      [
        "r",
        "o"
      ],
      [
        "▁bak",
        "ıyor"
      ],
      [
        "▁kalk",
        "ıp"
      ],
      [
        "ay",
        "et"
      ],
      [
        "▁yem",
        "egi"
      ],
      [
        "▁4",
        "5"
      ],
      [
        "▁as",
        "la"
      ],
      [
        "uyor",
        "du"
      ],
      [
        "▁neler",
        "dir"
      ],
      [
        "▁has",
        "t"
      ],
      [
        "um",
        "e"
      ],
      [
        "▁",
        "lu"
      ],
      [
        "▁kendi",
        "m"
      ],
      [
        "▁tic",
        "ari"
      ],
      [
        "iler",
        "in"
      ],
      [
        "▁el",
        "b"
      ],
      [
        "-",
        "1"
      ],
      [
        "▁kar",
        "a"
      ],
      [
        "is",
        "co"
      ],
      [
        "on",
        "om"
      ],
      [
        "▁d",
        "am"
      ],
      [
        "▁ann",
        "e"
      ],
      [
        "▁d",
        "al"
      ],
      [
        "▁d",
        "iy"
      ],
      [
        "▁uzer",
        "indeki"
      ],
      [
        "▁dah",
        "a"
      ],
      [
        "\\",
        "/"
      ],
      [
        "ı",
        "y"
      ],
      [
        "▁tah",
        "min"
      ],
      [
        "▁od",
        "am"
      ],
      [
        "▁kazan",
        "dı"
      ],
      [
        "'",
        "ın"
      ],
      [
        "▁amer",
        "ic"
      ],
      [
        "tr",
        "e"
      ],
      [
        "▁",
        "lar"
      ],
      [
        "▁ver",
        "iyorum"
      ],
      [
        "▁19",
        "89-"
      ],
      [
        "▁k",
        "o"
      ],
      [
        "▁bir",
        "cok"
      ],
      [
        "i",
        "j"
      ],
      [
        "▁",
        "ik"
      ],
      [
        "r",
        "af"
      ],
      [
        "▁pil",
        "ot"
      ],
      [
        "lıg",
        "a"
      ],
      [
        "▁dolay",
        "ı"
      ],
      [
        "▁guzel",
        "di"
      ],
      [
        "▁g",
        "etir"
      ],
      [
        "ecek",
        "tir"
      ],
      [
        "▁kendisin",
        "i"
      ],
      [
        "▁ede",
        "b"
      ],
      [
        "▁v",
        "er"
      ],
      [
        "▁den",
        "ver"
      ],
      [
        "a",
        "lt"
      ],
      [
        "lem",
        "e"
      ],
      [
        "▁",
        "0."
      ],
      [
        "▁gon",
        "der"
      ],
      [
        "▁soy",
        "len"
      ],
      [
        "▁bil",
        "et"
      ],
      [
        "▁ortal",
        "ama"
      ],
      [
        "▁montre",
        "al"
      ],
      [
        "▁yuks",
        "el"
      ],
      [
        "▁kahv",
        "e"
      ],
      [
        "▁%1",
        ".7"
      ],
      [
        "▁zay",
        "if"
      ],
      [
        "ist",
        "i"
      ],
      [
        "▁sur",
        "e"
      ],
      [
        "▁hay",
        "van"
      ],
      [
        "▁m",
        "it"
      ],
      [
        "▁n",
        "as"
      ],
      [
        "▁k",
        "ayı"
      ],
      [
        "▁oper",
        "asyon"
      ],
      [
        "ını",
        "z"
      ],
      [
        "al",
        "ap"
      ],
      [
        "ic",
        "e"
      ],
      [
        "▁m",
        "er"
      ],
      [
        "▁sup",
        "erdi"
      ],
      [
        "▁kapan",
        "dı"
      ],
      [
        "i",
        "yle"
      ],
      [
        "▁zaman",
        "da"
      ],
      [
        "▁k",
        "ıtır"
      ],
      [
        "▁yap",
        "mak"
      ],
      [
        "▁kayı",
        "t"
      ],
      [
        "e",
        "h"
      ],
      [
        "l",
        "as"
      ],
      [
        "▁dest",
        "ek"
      ],
      [
        "▁b",
        "el"
      ],
      [
        "al",
        "ım"
      ],
      [
        "in",
        "de"
      ],
      [
        "▁kem",
        "al"
      ],
      [
        "▁esk",
        "iydi"
      ],
      [
        "▁op",
        "er"
      ],
      [
        "▁bir",
        "i"
      ],
      [
        "am",
        "aya"
      ],
      [
        "▁se",
        "m"
      ],
      [
        "m",
        "enin"
      ],
      [
        "lam",
        "ası"
      ],
      [
        "ir",
        "ler"
      ],
      [
        "▁bas",
        "ına"
      ],
      [
        "▁d",
        "ar"
      ],
      [
        "▁it",
        "hal"
      ],
      [
        "▁di",
        "k"
      ],
      [
        "m",
        "ay"
      ],
      [
        "▁sip",
        "ar"
      ],
      [
        "▁kars",
        "il"
      ],
      [
        "▁j",
        "apon"
      ],
      [
        "f",
        "a"
      ],
      [
        "▁yaz",
        "ı"
      ],
      [
        "▁d",
        "ir"
      ],
      [
        "s",
        "ınız"
      ],
      [
        "un",
        "dan"
      ],
      [
        "▁il",
        "an"
      ],
      [
        "▁",
        "v"
      ],
      [
        "▁ilgil",
        "en"
      ],
      [
        "▁%1",
        "2"
      ],
      [
        "▁vak",
        "it"
      ],
      [
        "ar",
        "l"
      ],
      [
        "▁c",
        "um"
      ],
      [
        "▁ol",
        "an"
      ],
      [
        "▁r",
        "ed"
      ],
      [
        "▁olar",
        "ak"
      ],
      [
        "▁i",
        "se"
      ],
      [
        "▁su",
        "r"
      ],
      [
        "▁y",
        "am"
      ],
      [
        "ı",
        "pıs"
      ],
      [
        "'",
        "den"
      ],
      [
        "▁y",
        "al"
      ],
      [
        "is",
        "yon"
      ],
      [
        "me",
        "den"
      ],
      [
        "▁ol",
        "dur"
      ],
      [
        "ist",
        "an"
      ],
      [
        "▁y",
        "ık"
      ],
      [
        "▁olma",
        "dıgı"
      ],
      [
        "▁ayr",
        "ı"
      ],
      [
        "▁7",
        "0"
      ],
      [
        "ark",
        "en"
      ],
      [
        "▁h",
        "as"
      ],
      [
        "▁onlar",
        "dan"
      ],
      [
        "s",
        "a"
      ],
      [
        "li",
        "gi"
      ],
      [
        "▁kucuk",
        "tu"
      ],
      [
        "ladı",
        "k"
      ],
      [
        "▁dur",
        "uyor"
      ],
      [
        "r",
        "ol"
      ],
      [
        "acag",
        "ız"
      ],
      [
        "'",
        "da"
      ],
      [
        "▁g",
        "iz"
      ],
      [
        "▁tas",
        "ar"
      ],
      [
        "▁rez",
        "erv"
      ],
      [
        "▁o",
        "s"
      ],
      [
        "k",
        "el"
      ],
      [
        "u",
        "m"
      ],
      [
        "▁et",
        "s"
      ],
      [
        "as",
        "ına"
      ],
      [
        "ıs",
        "tır"
      ],
      [
        "k",
        "ı"
      ],
      [
        "▁b",
        "ugun"
      ],
      [
        "▁han",
        "im"
      ],
      [
        "▁kesin",
        "likle"
      ],
      [
        "▁yet",
        "is"
      ],
      [
        "d",
        "er"
      ],
      [
        "▁r",
        "ek"
      ],
      [
        "▁kal",
        "it"
      ],
      [
        "▁kam",
        "u"
      ],
      [
        "▁yıl",
        "ında"
      ],
      [
        "▁top",
        "lam"
      ],
      [
        "▁ver",
        "mek"
      ],
      [
        "▁bas",
        "it"
      ],
      [
        "en",
        "dir"
      ],
      [
        "ay",
        "a"
      ],
      [
        "t",
        "u"
      ],
      [
        "▁unit",
        "ed"
      ],
      [
        "▁et",
        "m"
      ],
      [
        "▁herkes",
        "e"
      ],
      [
        "▁ih",
        "t"
      ],
      [
        "▁y",
        "esil"
      ],
      [
        "▁hav",
        "a"
      ],
      [
        "▁",
        ":"
      ],
      [
        "n",
        "i"
      ],
      [
        "▁tan",
        "ım"
      ],
      [
        "▁indi",
        "an"
      ],
      [
        "▁1",
        "6"
      ],
      [
        "c",
        "ek"
      ],
      [
        "▁e",
        "lli"
      ],
      [
        "▁b",
        "at"
      ],
      [
        "▁kon",
        "for"
      ],
      [
        "▁edi",
        "yor"
      ],
      [
        "▁y",
        "ar"
      ],
      [
        "▁son",
        "unda"
      ],
      [
        "ve",
        "l"
      ],
      [
        "b",
        "e"
      ],
      [
        "iler",
        "ini"
      ],
      [
        "▁baz",
        "i"
      ],
      [
        "ler",
        "de"
      ],
      [
        "3",
        "0"
      ],
      [
        "▁k",
        "ah"
      ],
      [
        "▁s",
        "og"
      ],
      [
        "'",
        "ta"
      ],
      [
        "▁",
        "a"
      ],
      [
        "▁k",
        "im"
      ],
      [
        "▁d",
        "ı"
      ],
      [
        "▁sa",
        "at"
      ],
      [
        ":",
        "30"
      ],
      [
        "▁es",
        "ki"
      ],
      [
        "unc",
        "a"
      ],
      [
        "▁uc",
        "mak"
      ],
      [
        "▁ist",
        "iyorum"
      ],
      [
        "▁b",
        "r"
      ],
      [
        "▁m",
        "ul"
      ],
      [
        "▁b",
        "ana"
      ],
      [
        "▁der",
        "in"
      ],
      [
        "in",
        "n"
      ],
      [
        "▁sok",
        "ak"
      ],
      [
        "▁su",
        "b"
      ],
      [
        "▁kim",
        "i"
      ],
      [
        "▁gen",
        "eral"
      ],
      [
        "la",
        "y"
      ],
      [
        "▁bost",
        "on"
      ],
      [
        "▁dav",
        "et"
      ],
      [
        "▁kap",
        "ı"
      ],
      [
        "▁ban",
        "k"
      ],
      [
        "▁sat",
        "ın"
      ],
      [
        "▁in",
        "c"
      ],
      [
        "▁yuz",
        "me"
      ],
      [
        "▁sur",
        "ec"
      ],
      [
        "▁iy",
        "ice"
      ],
      [
        "▁airlin",
        "es"
      ],
      [
        "k",
        "in"
      ],
      [
        "makta",
        "dır"
      ],
      [
        "▁deg",
        "istir"
      ],
      [
        "k",
        "uz"
      ],
      [
        "k",
        "at"
      ],
      [
        "t",
        "a"
      ],
      [
        "▁bag",
        "lı"
      ],
      [
        "ar",
        "ı"
      ],
      [
        "▁c",
        "ay"
      ],
      [
        "2",
        ":30"
      ],
      [
        "▁g",
        "en"
      ],
      [
        "▁ulas",
        "ımı"
      ],
      [
        "iy",
        "or"
      ],
      [
        "o",
        "p"
      ],
      [
        "ec",
        "ek"
      ],
      [
        "▁cum",
        "a"
      ],
      [
        "▁y",
        "du"
      ],
      [
        "▁",
        "”"
      ],
      [
        "▁ha",
        "y"
      ],
      [
        "▁dan",
        "ıs"
      ],
      [
        "▁san",
        "s"
      ],
      [
        "ıs",
        "ıyla"
      ],
      [
        "▁gor",
        "ur"
      ],
      [
        "▁m",
        "on"
      ],
      [
        "▁g",
        "ev"
      ],
      [
        "▁ver",
        "im"
      ],
      [
        "▁ko",
        "tu"
      ],
      [
        "▁por",
        "cuk"
      ],
      [
        "m",
        "eleri"
      ],
      [
        "▁merkez",
        "ine"
      ],
      [
        "im",
        "iz"
      ],
      [
        "▁f",
        "as"
      ],
      [
        "ist",
        "im"
      ],
      [
        "w",
        "est"
      ],
      [
        "▁ail",
        "eler"
      ],
      [
        "▁birin",
        "in"
      ],
      [
        "le",
        "di"
      ],
      [
        "▁gidi",
        "s"
      ],
      [
        "eviz",
        "yon"
      ],
      [
        "▁gec",
        "ik"
      ],
      [
        "las",
        "yon"
      ],
      [
        "▁al",
        "amadim"
      ],
      [
        "▁koy",
        "un"
      ],
      [
        "uy",
        "u"
      ],
      [
        "▁1.",
        "1"
      ],
      [
        "▁oy",
        "le"
      ],
      [
        "▁kontr",
        "ol"
      ],
      [
        "▁fay",
        "d"
      ],
      [
        "▁s",
        "ist"
      ],
      [
        "▁d",
        "in"
      ],
      [
        "'",
        "e"
      ],
      [
        "▁d",
        "uz"
      ],
      [
        "n",
        "un"
      ],
      [
        "di",
        "g"
      ],
      [
        "▁ver",
        "irim"
      ],
      [
        "▁sek",
        "tor"
      ],
      [
        "dıg",
        "ım"
      ],
      [
        "in",
        "i"
      ],
      [
        "y",
        "uz"
      ],
      [
        "g",
        "ul"
      ],
      [
        "▁listel",
        "e"
      ],
      [
        "ye",
        "t"
      ],
      [
        "▁guleryuz",
        "lu"
      ],
      [
        "▁bir",
        "im"
      ],
      [
        "▁lo",
        "u"
      ],
      [
        "▁p",
        "ay"
      ],
      [
        "▁..",
        "\""
      ],
      [
        "▁tic",
        "aret"
      ],
      [
        "lan",
        "dır"
      ],
      [
        "▁b",
        "ed"
      ],
      [
        "▁s",
        "ur"
      ],
      [
        "▁yan",
        "s"
      ],
      [
        "▁2",
        "2-23"
      ],
      [
        "m",
        "ur"
      ],
      [
        "lar",
        "a"
      ],
      [
        "▁",
        "g"
      ],
      [
        "▁k",
        "r"
      ],
      [
        "▁at",
        "aturk"
      ],
      [
        "▁ar",
        "ac"
      ],
      [
        "▁gen",
        "el"
      ],
      [
        "▁tem",
        "el"
      ],
      [
        "l",
        "u"
      ],
      [
        "▁g",
        "uc"
      ],
      [
        "▁ay",
        "lık"
      ],
      [
        "▁fot",
        "ograf"
      ],
      [
        "▁p",
        "lan"
      ],
      [
        "▁uz",
        "ak"
      ],
      [
        "ec",
        "ik"
      ],
      [
        "▁yuks",
        "ek"
      ],
      [
        "▁k",
        "as"
      ],
      [
        "▁m",
        "es"
      ],
      [
        "▁goster",
        "in"
      ],
      [
        "ust",
        "r"
      ],
      [
        "▁1/",
        "4"
      ],
      [
        "d",
        "ır"
      ],
      [
        "▁biz",
        "i"
      ],
      [
        "▁gun",
        "ey"
      ],
      [
        "▁y",
        "ol"
      ],
      [
        "▁d",
        "ayan"
      ],
      [
        "m",
        "istir"
      ],
      [
        "z",
        "et"
      ],
      [
        "▁ar",
        "k"
      ],
      [
        "▁s",
        "ak"
      ],
      [
        "▁oldu",
        "gun"
      ],
      [
        "▁s",
        "ag"
      ],
      [
        "e",
        "p"
      ],
      [
        "▁bil",
        "g"
      ],
      [
        "art",
        "esi"
      ],
      [
        "▁yol",
        "c"
      ],
      [
        "▁birbirler",
        "ine"
      ],
      [
        "▁miy",
        "di"
      ],
      [
        "▁c",
        "og"
      ],
      [
        "▁ok",
        "ul"
      ],
      [
        "▁ph",
        "oeni"
      ],
      [
        "uy",
        "a"
      ],
      [
        "▁b",
        "ek"
      ],
      [
        "▁ot",
        "om"
      ],
      [
        "el",
        "i"
      ],
      [
        "▁as",
        "l"
      ],
      [
        "▁francisco",
        "'dan"
      ],
      [
        "▁g",
        "az"
      ],
      [
        "▁bek",
        "liyor"
      ],
      [
        "at",
        "ik"
      ],
      [
        "▁ver",
        "digim"
      ],
      [
        "▁intern",
        "ational"
      ],
      [
        "▁i",
        "ti"
      ],
      [
        "▁degis",
        "ik"
      ],
      [
        "▁4",
        "1"
      ],
      [
        "▁t",
        "iyat"
      ],
      [
        "▁k",
        "ent"
      ],
      [
        "bir",
        "e"
      ],
      [
        "▁uzer",
        "inden"
      ],
      [
        "ac",
        "a"
      ],
      [
        "▁f",
        "ıldır"
      ],
      [
        "es",
        "iyle"
      ],
      [
        "▁fik",
        "ir"
      ],
      [
        "sun",
        "uz"
      ],
      [
        "em",
        "i"
      ],
      [
        "▁bas",
        "ında"
      ],
      [
        "▁gu",
        "ler"
      ],
      [
        "iyor",
        "du"
      ],
      [
        "ler",
        "inde"
      ],
      [
        "m",
        "iyorum"
      ],
      [
        "▁h",
        "ic"
      ],
      [
        "▁bun",
        "lar"
      ],
      [
        "▁an",
        "al"
      ],
      [
        "▁t",
        "h"
      ],
      [
        "▁h",
        "omur"
      ],
      [
        "▁r",
        "en"
      ],
      [
        "▁al",
        "ıcı"
      ],
      [
        "am",
        "ası"
      ],
      [
        "▁fut",
        "bol"
      ],
      [
        "▁yar",
        "ı"
      ],
      [
        "d",
        "aki"
      ],
      [
        "▁k",
        "uv"
      ],
      [
        "m",
        "i"
      ],
      [
        "as",
        "ır"
      ],
      [
        "▁tef",
        "ek"
      ],
      [
        "▁c",
        "eb"
      ],
      [
        "▁dav",
        "a"
      ],
      [
        "▁n",
        "ok"
      ],
      [
        "al",
        "ık"
      ],
      [
        "▁kal",
        "dı"
      ],
      [
        "il",
        "m"
      ],
      [
        "ler",
        "ce"
      ],
      [
        "▁m",
        "us"
      ],
      [
        "ar",
        "d"
      ],
      [
        "il",
        "iyor"
      ],
      [
        "▁t",
        "u"
      ],
      [
        "ler",
        "i"
      ],
      [
        "alar",
        "dan"
      ],
      [
        "edi",
        "r"
      ],
      [
        "▁mi",
        "y"
      ],
      [
        "▁tes",
        "lim"
      ],
      [
        "-",
        "6"
      ],
      [
        "v",
        "ıl"
      ],
      [
        "lar",
        "ın"
      ],
      [
        "▁t",
        "ic"
      ],
      [
        "lıg",
        "ına"
      ],
      [
        "▁kurt",
        "ul"
      ],
      [
        "▁ak",
        "s"
      ],
      [
        "▁res",
        "mi"
      ],
      [
        "▁",
        "ep"
      ],
      [
        "i",
        "ng"
      ],
      [
        "▁s",
        "iy"
      ],
      [
        "▁ol",
        "acak"
      ],
      [
        "▁s",
        "ut"
      ],
      [
        "um",
        "us"
      ],
      [
        "▁uz",
        "an"
      ],
      [
        "▁",
        "z"
      ],
      [
        "i",
        "de"
      ],
      [
        "ya",
        "'da"
      ],
      [
        "▁s",
        "o"
      ],
      [
        "▁ic",
        "ine"
      ],
      [
        "imiz",
        "i"
      ],
      [
        "al",
        "l"
      ],
      [
        "▁b",
        "ost"
      ],
      [
        "▁son",
        "ra"
      ],
      [
        "▁s",
        "an"
      ],
      [
        "il",
        "er"
      ],
      [
        "▁at",
        "tı"
      ],
      [
        "▁nak",
        "it"
      ],
      [
        "lul",
        "uk"
      ],
      [
        "is",
        "k"
      ],
      [
        "▁ark",
        "ad"
      ],
      [
        "m",
        "an"
      ],
      [
        "▁kat",
        "il"
      ],
      [
        "eg",
        "e"
      ],
      [
        "dı",
        "lar"
      ],
      [
        "▁gor",
        "un"
      ],
      [
        "▁tir",
        "il"
      ],
      [
        "ap",
        "on"
      ],
      [
        "▁iy",
        "iydi"
      ],
      [
        "▁mem",
        "ur"
      ],
      [
        "▁c",
        "ur"
      ],
      [
        "▁bay",
        "an"
      ],
      [
        "▁contin",
        "ental"
      ],
      [
        "▁f",
        "iyat"
      ],
      [
        "al",
        "ar"
      ],
      [
        "▁b",
        "iz"
      ],
      [
        "▁ac",
        "ık"
      ],
      [
        "▁tor",
        "ont"
      ],
      [
        "▁city",
        "'den"
      ],
      [
        "▁kar",
        "ayol"
      ],
      [
        "▁e",
        "v"
      ],
      [
        "as",
        "ının"
      ],
      [
        "▁h",
        "adi"
      ],
      [
        "▁bun",
        "u"
      ],
      [
        "▁odam",
        "iz"
      ],
      [
        "▁degisik",
        "lik"
      ],
      [
        "▁a",
        "y"
      ],
      [
        "▁yat",
        "ak"
      ],
      [
        "▁dc",
        "'ye"
      ],
      [
        "▁degil",
        "di"
      ],
      [
        "▁se",
        "att"
      ],
      [
        "▁",
        "j"
      ],
      [
        "▁m",
        "al"
      ],
      [
        "hu",
        "t"
      ],
      [
        "u",
        "gun"
      ],
      [
        "ede",
        "f"
      ],
      [
        "s",
        "e"
      ],
      [
        "▁bors",
        "ası"
      ],
      [
        "▁b",
        "ab"
      ],
      [
        "les",
        "tir"
      ],
      [
        "▁mot",
        "or"
      ],
      [
        "▁gi",
        "bi"
      ],
      [
        "li",
        "k"
      ],
      [
        "▁m",
        "ot"
      ],
      [
        "▁sikin",
        "ti"
      ],
      [
        "▁ar",
        "t"
      ],
      [
        "is",
        "inde"
      ],
      [
        "v",
        "il"
      ],
      [
        "▁t",
        "ok"
      ],
      [
        "▁se",
        "k"
      ],
      [
        "dık",
        "larını"
      ],
      [
        "▁sın",
        "ır"
      ],
      [
        "sam",
        "ba"
      ],
      [
        "▁yuz",
        "lu"
      ],
      [
        "▁",
        "le"
      ],
      [
        "▁begen",
        "dim"
      ],
      [
        "▁p",
        "ac"
      ],
      [
        "▁sp",
        "or"
      ],
      [
        "at",
        "en"
      ],
      [
        "▁in",
        "dir"
      ],
      [
        "▁o",
        "n"
      ],
      [
        "o",
        "s"
      ],
      [
        "▁f",
        "ark"
      ],
      [
        "▁ch",
        "arl"
      ],
      [
        "medi",
        "gini"
      ],
      [
        "lar",
        "da"
      ],
      [
        "ost",
        "er"
      ],
      [
        "▁olma",
        "yan"
      ],
      [
        "▁ken",
        "di"
      ],
      [
        "r",
        "u"
      ],
      [
        "▁d",
        "et"
      ],
      [
        "'n",
        "dan"
      ],
      [
        "▁kus",
        "ur"
      ],
      [
        "▁kal",
        "k"
      ],
      [
        "is",
        "i"
      ],
      [
        "▁g",
        "unu"
      ],
      [
        "▁1.",
        "2"
      ],
      [
        "▁kal",
        "iforn"
      ],
      [
        "y",
        "et"
      ],
      [
        "▁ed",
        "erek"
      ],
      [
        "▁man",
        "z"
      ],
      [
        "▁bas",
        "k"
      ],
      [
        "▁od",
        "alar"
      ],
      [
        "v",
        "en"
      ],
      [
        "▁ev",
        "et"
      ],
      [
        "ıl",
        "ması"
      ],
      [
        "▁g",
        "em"
      ],
      [
        "▁calis",
        "anlar"
      ],
      [
        "▁ses",
        "siz"
      ],
      [
        "▁bah",
        "c"
      ],
      [
        "ı",
        "g"
      ],
      [
        "▁ayak",
        "k"
      ],
      [
        "▁a",
        "d"
      ],
      [
        "▁yer",
        "ine"
      ],
      [
        "▁biz",
        "im"
      ],
      [
        "es",
        "in"
      ],
      [
        "▁yan",
        "dan"
      ],
      [
        "ım",
        "ı"
      ],
      [
        "es",
        "inin"
      ],
      [
        "▁o",
        "ak"
      ],
      [
        "m",
        "ıyor"
      ],
      [
        "▁hiss",
        "et"
      ],
      [
        "▁3",
        "."
      ],
      [
        "▁personel",
        "i"
      ],
      [
        "ıy",
        "la"
      ],
      [
        "▁h",
        "os"
      ],
      [
        "▁sor",
        "unu"
      ],
      [
        "u",
        "k"
      ],
      [
        "▁m",
        "ar"
      ],
      [
        "▁",
        "e"
      ],
      [
        "u",
        "yor"
      ],
      [
        "▁onlar",
        "ı"
      ],
      [
        "i",
        "n"
      ],
      [
        "▁m",
        "ir"
      ],
      [
        "ul",
        "mus"
      ],
      [
        "d",
        "al"
      ],
      [
        "▁on",
        "em"
      ],
      [
        "▁tes",
        "ek"
      ],
      [
        "en",
        "s"
      ],
      [
        "al",
        "ı"
      ],
      [
        "▁p",
        "encer"
      ],
      [
        "▁bir",
        "ini"
      ],
      [
        "▁haf",
        "if"
      ],
      [
        "n",
        "egin"
      ],
      [
        "▁bil",
        "e"
      ],
      [
        "▁b",
        "en"
      ],
      [
        "▁anlam",
        "da"
      ],
      [
        "a",
        "m"
      ],
      [
        "▁c",
        "o"
      ],
      [
        "▁dak",
        "ika"
      ],
      [
        "▁yardim",
        "ci"
      ],
      [
        "▁bit",
        "ir"
      ],
      [
        "t",
        "e"
      ],
      [
        "▁s",
        "el"
      ],
      [
        "▁cık",
        "ar"
      ],
      [
        "ik",
        "a"
      ],
      [
        "▁f",
        "il"
      ],
      [
        "▁tel",
        "evizyon"
      ],
      [
        "▁s",
        "im"
      ],
      [
        "▁yal",
        "an"
      ],
      [
        "▁a",
        "b"
      ],
      [
        "▁et",
        "ti"
      ],
      [
        "▁may",
        "ıs"
      ],
      [
        "▁4",
        "2"
      ],
      [
        "e",
        "s"
      ],
      [
        "is",
        "t"
      ],
      [
        "ak",
        "i"
      ],
      [
        "▁",
        "1"
      ],
      [
        "▁pers",
        "onel"
      ],
      [
        "▁gercek",
        "ten"
      ],
      [
        "m",
        "esini"
      ],
      [
        "or",
        "ta"
      ],
      [
        "▁r",
        "ast"
      ],
      [
        "▁es",
        "er"
      ],
      [
        "▁at",
        "lan"
      ],
      [
        "▁or",
        "t"
      ],
      [
        "'",
        "de"
      ],
      [
        "iy",
        "on"
      ],
      [
        "▁e",
        "ki"
      ],
      [
        "lam",
        "a"
      ],
      [
        "▁do",
        "lara"
      ],
      [
        "▁yas",
        "ama"
      ],
      [
        "▁y",
        "et"
      ],
      [
        "▁cog",
        "un"
      ],
      [
        "▁kon",
        "g"
      ],
      [
        "abil",
        "ecek"
      ],
      [
        "▁g",
        "ore"
      ],
      [
        "▁c",
        "ıtır"
      ],
      [
        "un",
        "uz"
      ],
      [
        "▁dur",
        "um"
      ],
      [
        "m",
        "edi"
      ],
      [
        "di",
        "gi"
      ],
      [
        "▁seattle",
        "'ye"
      ],
      [
        "e",
        "m"
      ],
      [
        "ag",
        "ı"
      ],
      [
        "▁s",
        "tan"
      ],
      [
        "▁f",
        "en"
      ],
      [
        "▁s",
        "oh"
      ],
      [
        "k",
        "a"
      ],
      [
        "d",
        "ar"
      ],
      [
        "▁",
        "it"
      ],
      [
        "us",
        "unu"
      ],
      [
        "▁haval",
        "im"
      ],
      [
        "▁",
        "er"
      ],
      [
        "g",
        "ar"
      ],
      [
        "▁ac",
        "ı"
      ],
      [
        "d",
        "ir"
      ],
      [
        "▁zor",
        "unda"
      ],
      [
        "▁ol",
        "up"
      ],
      [
        "▁p",
        "o"
      ],
      [
        "r",
        "en"
      ],
      [
        "▁k",
        "il"
      ],
      [
        "▁pr",
        "of"
      ],
      [
        "ı",
        "z"
      ],
      [
        "▁un",
        "ut"
      ],
      [
        "▁",
        "gi"
      ],
      [
        "▁duz",
        "en"
      ],
      [
        "▁p",
        "an"
      ],
      [
        "▁mem",
        "leket"
      ],
      [
        "og",
        "raf"
      ],
      [
        "▁m",
        "ı"
      ],
      [
        "▁her",
        "k"
      ],
      [
        "▁birbir",
        "ine"
      ],
      [
        "▁sur",
        "dur"
      ],
      [
        "▁kul",
        "tur"
      ],
      [
        "ta",
        "j"
      ],
      [
        "iler",
        "di"
      ],
      [
        "ılı",
        "gı"
      ],
      [
        "▁faz",
        "la"
      ],
      [
        "▁ek",
        "ledi"
      ],
      [
        "▁1",
        "\\/"
      ],
      [
        "▁o",
        "l"
      ],
      [
        "▁soz",
        "cusu"
      ],
      [
        "u",
        "ar"
      ],
      [
        "▁ak",
        "tar"
      ],
      [
        "▁uz",
        "at"
      ],
      [
        "▁hava",
        "alanı"
      ],
      [
        "▁e",
        "ger"
      ],
      [
        "▁den",
        "g"
      ],
      [
        "▁ser",
        "t"
      ],
      [
        "▁b",
        "az"
      ],
      [
        "▁%1",
        "0"
      ],
      [
        "▁21",
        ":00-22:30"
      ],
      [
        "▁s",
        "ov"
      ],
      [
        "▁p",
        "ıtır"
      ],
      [
        "▁k",
        "en"
      ],
      [
        "▁s",
        "at"
      ],
      [
        "▁g",
        "it"
      ],
      [
        "▁d",
        "a"
      ],
      [
        "m",
        "ustu"
      ],
      [
        "▁str",
        "ate"
      ],
      [
        "or",
        "e"
      ],
      [
        "un",
        "ku"
      ],
      [
        "▁bulun",
        "du"
      ],
      [
        "▁yemekler",
        "inden"
      ],
      [
        "▁g",
        "er"
      ],
      [
        "▁hep",
        "sin"
      ],
      [
        "l",
        "li"
      ],
      [
        "▁.",
        "'"
      ],
      [
        "y",
        "a"
      ],
      [
        "▁etm",
        "em"
      ],
      [
        "▁mem",
        "nun"
      ],
      [
        "▁gel",
        "ip"
      ],
      [
        "▁milyon",
        "dan"
      ],
      [
        "▁city",
        "'e"
      ],
      [
        "▁hicbir",
        "i"
      ],
      [
        "▁et",
        "mek"
      ],
      [
        "▁bir",
        "likte"
      ],
      [
        "ley",
        "en"
      ],
      [
        "▁erk",
        "en"
      ],
      [
        "▁kap",
        "alı"
      ],
      [
        "▁chicag",
        "o'dan"
      ],
      [
        "▁uzer",
        "ine"
      ],
      [
        "▁s",
        "ana"
      ],
      [
        "▁y",
        "ildi"
      ],
      [
        "▁ya",
        "hut"
      ],
      [
        "▁d",
        "ers"
      ],
      [
        "▁2",
        "4"
      ],
      [
        "▁gidi",
        "yor"
      ],
      [
        "▁i",
        "d"
      ],
      [
        "h",
        "am"
      ],
      [
        "b",
        "i"
      ],
      [
        "p",
        "h"
      ],
      [
        "▁y",
        "ıl"
      ],
      [
        "▁guler",
        "yuz"
      ],
      [
        "m",
        "as"
      ],
      [
        "eceg",
        "im"
      ],
      [
        "h",
        "al"
      ],
      [
        "▁k",
        "uy"
      ],
      [
        "c",
        "ileri"
      ],
      [
        "▁fr",
        "ansız"
      ],
      [
        "▁1\\/",
        "2"
      ],
      [
        "▁der",
        "g"
      ],
      [
        "▁z",
        "ayıf"
      ],
      [
        "▁sah",
        "ip"
      ],
      [
        "ar",
        "a"
      ],
      [
        "▁ol",
        "sa"
      ],
      [
        "dı",
        "g"
      ],
      [
        "▁ziy",
        "aret"
      ],
      [
        "'",
        "n"
      ],
      [
        "ın",
        "daki"
      ],
      [
        "▁al",
        "ım"
      ],
      [
        "▁ul",
        "us"
      ],
      [
        "▁prof",
        "es"
      ],
      [
        "▁j",
        "ohn"
      ],
      [
        "▁",
        "'"
      ],
      [
        "▁r",
        "ad"
      ],
      [
        "d",
        "ı"
      ],
      [
        "g",
        "el"
      ],
      [
        "iler",
        "ine"
      ],
      [
        "▁m",
        "in"
      ],
      [
        "▁k",
        "os"
      ],
      [
        "▁m",
        "uz"
      ],
      [
        "g",
        "ı"
      ],
      [
        "▁gun",
        "luk"
      ],
      [
        "▁baskan",
        "ı"
      ],
      [
        "▁ver",
        "en"
      ],
      [
        "▁sade",
        "ce"
      ],
      [
        "ust",
        "os"
      ],
      [
        "▁r",
        "isk"
      ],
      [
        "▁ef",
        "endi"
      ],
      [
        "▁t",
        "ip"
      ],
      [
        "ist",
        "en"
      ],
      [
        "ıyor",
        "lar"
      ],
      [
        "▁yur",
        "t"
      ],
      [
        "▁biz",
        "ler"
      ],
      [
        "▁siz",
        "ler"
      ],
      [
        "ıs",
        "ız"
      ],
      [
        "ag",
        "ını"
      ],
      [
        "▁ul",
        "k"
      ],
      [
        "ab",
        "ı"
      ],
      [
        "▁yor",
        "gun"
      ],
      [
        "▁lez",
        "zet"
      ],
      [
        "eler",
        "in"
      ],
      [
        "j",
        "i"
      ],
      [
        "▁ne",
        "ler"
      ],
      [
        "▁a",
        "v"
      ],
      [
        "▁tek",
        "n"
      ],
      [
        "eler",
        "inin"
      ],
      [
        "ıl",
        "dı"
      ],
      [
        "▁anal",
        "ist"
      ],
      [
        "u",
        "fur"
      ],
      [
        "ay",
        "la"
      ],
      [
        "▁oy",
        "n"
      ],
      [
        "ın",
        "c"
      ],
      [
        "▁i",
        "b"
      ],
      [
        "▁kal",
        "dim"
      ],
      [
        "▁an",
        "cak"
      ],
      [
        "du",
        "gu"
      ],
      [
        "▁philadelphia",
        "'ya"
      ],
      [
        "▁si",
        "ir"
      ],
      [
        "▁genel",
        "likle"
      ],
      [
        "▁y",
        "a"
      ],
      [
        "▁ne",
        "f"
      ],
      [
        "▁lung",
        "ur"
      ],
      [
        "da",
        "v"
      ],
      [
        "▁ilgilendi",
        "ler"
      ],
      [
        "▁or",
        "nek"
      ],
      [
        "▁corp",
        "."
      ],
      [
        "▁",
        "&"
      ],
      [
        "▁%0",
        ".2"
      ],
      [
        "lak",
        "a"
      ],
      [
        "ati",
        "on"
      ],
      [
        "▁bir",
        "ka"
      ],
      [
        "ası",
        "yor"
      ],
      [
        "▁avrup",
        "a"
      ],
      [
        "▁p",
        "ah"
      ],
      [
        "as",
        "ı"
      ],
      [
        "▁al",
        "ır"
      ],
      [
        "▁y",
        "ok"
      ],
      [
        "m",
        "aları"
      ],
      [
        "▁r",
        "est"
      ],
      [
        "▁calıs",
        "an"
      ],
      [
        "▁an",
        "las"
      ],
      [
        "ek",
        "tr"
      ],
      [
        "'",
        "i"
      ],
      [
        "▁r",
        "ef"
      ],
      [
        "▁etm",
        "eye"
      ],
      [
        "▁kur",
        "um"
      ],
      [
        "▁f",
        "ıs"
      ],
      [
        "▁n",
        "um"
      ],
      [
        "os",
        "t"
      ],
      [
        "ey",
        "in"
      ],
      [
        "▁has",
        "ta"
      ],
      [
        "▁n",
        "eler"
      ],
      [
        "▁f",
        "ırıl"
      ],
      [
        "▁chic",
        "ag"
      ],
      [
        "▁g",
        "ul"
      ],
      [
        "▁konu",
        "da"
      ],
      [
        "▁gec",
        "iyor"
      ],
      [
        "▁sen",
        "edi"
      ],
      [
        "▁h",
        "av"
      ],
      [
        "g",
        "in"
      ],
      [
        "e",
        "lik"
      ],
      [
        "li",
        "gin"
      ],
      [
        "▁yan",
        "l"
      ],
      [
        "l",
        "um"
      ],
      [
        "▁sabah",
        "ı"
      ],
      [
        "▁ye",
        "di"
      ],
      [
        "ti",
        "gi"
      ],
      [
        "▁tı",
        "r"
      ],
      [
        "c",
        "isi"
      ],
      [
        "dı",
        "z"
      ],
      [
        "u",
        "tur"
      ],
      [
        "▁har",
        "c"
      ],
      [
        "ama",
        "dim"
      ],
      [
        "▁s",
        "ek"
      ],
      [
        "ol",
        "u"
      ],
      [
        "▁ag",
        "z"
      ],
      [
        "▁etti",
        "gini"
      ],
      [
        "▁il",
        "g"
      ],
      [
        "▁yeter",
        "li"
      ],
      [
        "▁otel",
        "den"
      ],
      [
        "a",
        "dı"
      ],
      [
        "▁gel",
        "mis"
      ],
      [
        "l",
        "ey"
      ],
      [
        "▁dallas",
        "'tan"
      ],
      [
        "▁al",
        "dı"
      ],
      [
        "▁z",
        "en"
      ],
      [
        "lu",
        "gu"
      ],
      [
        "al",
        "iydi"
      ],
      [
        "m",
        "ini"
      ],
      [
        "▁s",
        "ıng"
      ],
      [
        "u",
        "y"
      ],
      [
        "▁hukum",
        "et"
      ],
      [
        "▁gec",
        "er"
      ],
      [
        "▁k",
        "ıs"
      ],
      [
        "▁ol",
        "duk"
      ],
      [
        "▁ay",
        "ır"
      ],
      [
        "▁z",
        "ev"
      ],
      [
        "▁oakland",
        "'a"
      ],
      [
        "o",
        "n"
      ],
      [
        "▁olanak",
        "lari"
      ],
      [
        "▁on",
        "dan"
      ],
      [
        "▁g",
        "on"
      ],
      [
        "il",
        "ecek"
      ],
      [
        "▁bas",
        "ını"
      ],
      [
        "▁bir",
        "az"
      ],
      [
        "al",
        "et"
      ],
      [
        "▁baz",
        "en"
      ],
      [
        "▁lutf",
        "en"
      ],
      [
        "r",
        "li"
      ],
      [
        "▁",
        "es"
      ],
      [
        "▁sen",
        "in"
      ],
      [
        "am",
        "a"
      ],
      [
        "g",
        "men"
      ],
      [
        "ır",
        "ak"
      ],
      [
        "b",
        "ol"
      ],
      [
        "ah",
        "at"
      ],
      [
        "▁c",
        "ent"
      ],
      [
        "▁l",
        "ir"
      ],
      [
        "▁r",
        "ap"
      ],
      [
        "▁sir",
        "ket"
      ],
      [
        "▁d",
        "ep"
      ],
      [
        "▁sirket",
        "in"
      ],
      [
        "ation",
        "al"
      ],
      [
        "▁uc",
        "ak"
      ],
      [
        "acag",
        "ım"
      ],
      [
        "▁h",
        "ey"
      ],
      [
        "▁f",
        "or"
      ],
      [
        "▁sap",
        "ır"
      ],
      [
        "▁ihr",
        "ac"
      ],
      [
        "▁o",
        "r"
      ],
      [
        "▁kendiler",
        "i"
      ],
      [
        "▁ist",
        "en"
      ],
      [
        "▁bor",
        "sa"
      ],
      [
        "▁p",
        "r"
      ],
      [
        "▁t",
        "um"
      ],
      [
        "▁l",
        "is"
      ],
      [
        "▁s",
        "ik"
      ],
      [
        "det",
        "ti"
      ],
      [
        "▁tuk",
        "et"
      ],
      [
        "b",
        "ah"
      ],
      [
        "iz",
        "i"
      ],
      [
        "▁p",
        "as"
      ],
      [
        "'",
        "un"
      ],
      [
        "▁hangi",
        "si"
      ],
      [
        "▁m",
        "erk"
      ],
      [
        "s",
        "k"
      ],
      [
        "il",
        "ir"
      ],
      [
        "▁vegas",
        "'a"
      ],
      [
        "▁yap",
        "ar"
      ],
      [
        "ad",
        "aki"
      ],
      [
        "▁cı",
        "vıl"
      ],
      [
        "eler",
        "ek"
      ],
      [
        "▁u",
        "c"
      ],
      [
        "▁b",
        "eni"
      ],
      [
        "▁ban",
        "a"
      ],
      [
        "▁paz",
        "ar"
      ],
      [
        "▁1",
        "5"
      ],
      [
        "▁ak",
        "l"
      ],
      [
        "▁bab",
        "am"
      ],
      [
        "▁kay",
        "n"
      ],
      [
        "y",
        "di"
      ],
      [
        "ıl",
        "ık"
      ],
      [
        "▁yay",
        "ın"
      ],
      [
        "▁ic",
        "inde"
      ],
      [
        "an",
        "ı"
      ],
      [
        "eler",
        "ini"
      ],
      [
        "mak",
        "tan"
      ],
      [
        "em",
        "iz"
      ],
      [
        "▁d",
        "om"
      ],
      [
        "▁fa",
        "iz"
      ],
      [
        "▁bunlar",
        "dan"
      ],
      [
        "lar",
        "ında"
      ],
      [
        "▁telef",
        "on"
      ],
      [
        "▁g",
        "oz"
      ],
      [
        "▁o",
        "d"
      ],
      [
        "lan",
        "ır"
      ],
      [
        "▁es",
        "k"
      ],
      [
        "▁k",
        "or"
      ],
      [
        "▁kal",
        "madim"
      ],
      [
        "▁yetk",
        "il"
      ],
      [
        "▁tek",
        "rar"
      ],
      [
        "▁k",
        "em"
      ],
      [
        "▁s",
        "iz"
      ],
      [
        "▁o",
        "c"
      ],
      [
        "▁oy",
        "un"
      ],
      [
        "▁",
        "us"
      ],
      [
        "▁kısı",
        "t"
      ],
      [
        "▁goster",
        "di"
      ],
      [
        "▁m",
        "et"
      ],
      [
        "di",
        "k"
      ],
      [
        "▁ayn",
        "ı"
      ],
      [
        "eg",
        "i"
      ],
      [
        "▁alt",
        "ına"
      ],
      [
        "f",
        "i"
      ],
      [
        "er",
        "k"
      ],
      [
        "▁a",
        "g"
      ],
      [
        "▁aras",
        "ındaki"
      ],
      [
        "▁ic",
        "i"
      ],
      [
        "▁b",
        "eye"
      ],
      [
        "▁hak",
        "k"
      ],
      [
        "k",
        "e"
      ],
      [
        "▁kat",
        "kı"
      ],
      [
        "a",
        "k"
      ],
      [
        "▁s",
        "ab"
      ],
      [
        "▁%",
        "4"
      ],
      [
        "▁t",
        "ec"
      ],
      [
        "▁havayol",
        "u"
      ],
      [
        "▁he",
        "le"
      ],
      [
        "▁al",
        "k"
      ],
      [
        "os",
        "y"
      ],
      [
        "▁ne",
        "dir"
      ],
      [
        "eceg",
        "ini"
      ],
      [
        "▁",
        "6"
      ],
      [
        "y",
        "le"
      ],
      [
        "▁",
        "k"
      ],
      [
        "▁yemek",
        "leri"
      ],
      [
        "▁bel",
        "ir"
      ],
      [
        "▁rezerv",
        "asyon"
      ],
      [
        "s",
        "i"
      ],
      [
        "▁sin",
        "ir"
      ],
      [
        "dık",
        "ları"
      ],
      [
        "▁san",
        "at"
      ],
      [
        "▁kos",
        "ul"
      ],
      [
        "▁hes",
        "ap"
      ],
      [
        "▁u",
        "f"
      ],
      [
        "▁b",
        "it"
      ],
      [
        "i",
        "c"
      ],
      [
        "▁b",
        "er"
      ],
      [
        "▁fir",
        "st"
      ],
      [
        "▁1",
        "/"
      ],
      [
        "er",
        "al"
      ],
      [
        "▁k",
        "av"
      ],
      [
        "ım",
        "a"
      ],
      [
        "▁ay",
        "ak"
      ],
      [
        "▁milwaukee",
        "'ye"
      ],
      [
        "'n",
        "in"
      ],
      [
        "▁adet",
        "a"
      ],
      [
        "t",
        "ur"
      ],
      [
        "r",
        "um"
      ],
      [
        "▁d",
        "e"
      ],
      [
        "▁anlas",
        "ma"
      ],
      [
        "▁an",
        "a"
      ],
      [
        "▁deger",
        "lendir"
      ],
      [
        "▁bul",
        "unuyor"
      ],
      [
        "▁ces",
        "it"
      ],
      [
        "▁",
        "am"
      ],
      [
        "▁tar",
        "ih"
      ],
      [
        "▁yap",
        "ı"
      ],
      [
        "in",
        "deki"
      ],
      [
        "ay",
        "i"
      ],
      [
        "▁gor",
        "ev"
      ],
      [
        "y",
        "e"
      ],
      [
        "el",
        "en"
      ],
      [
        "▁ruz",
        "gar"
      ],
      [
        "▁yer",
        "inde"
      ],
      [
        "▁kar",
        "anlık"
      ],
      [
        "▁har",
        "ıl"
      ],
      [
        "l",
        "ilik"
      ],
      [
        "▁ev",
        "e"
      ],
      [
        "b",
        "as"
      ],
      [
        "▁misafir",
        "imiz"
      ],
      [
        "▁birka",
        "c"
      ],
      [
        "▁t",
        "ay"
      ],
      [
        "▁bu",
        "t"
      ],
      [
        "man",
        "ın"
      ],
      [
        "▁yuk",
        "s"
      ],
      [
        "d",
        "et"
      ],
      [
        "al",
        "a"
      ],
      [
        "p",
        "ıs"
      ],
      [
        "▁univ",
        "ers"
      ],
      [
        "▁must",
        "er"
      ],
      [
        "▁hiss",
        "e"
      ],
      [
        "an",
        "lı"
      ],
      [
        "▁paz",
        "artesi"
      ],
      [
        "o",
        "'nun"
      ],
      [
        "ek",
        "et"
      ],
      [
        "▁cog",
        "u"
      ],
      [
        "▁",
        "ce"
      ],
      [
        "▁duz",
        "ey"
      ],
      [
        "ı",
        "ng"
      ],
      [
        "▁",
        "*"
      ],
      [
        "▁!",
        ".."
      ],
      [
        "▁r",
        "es"
      ],
      [
        "▁%",
        "25"
      ],
      [
        "▁c",
        "h"
      ],
      [
        "▁s",
        "en"
      ],
      [
        "▁l",
        "azım"
      ],
      [
        "▁ek",
        "ip"
      ],
      [
        "m",
        "en"
      ],
      [
        "s",
        "t"
      ],
      [
        "▁ar",
        "adi"
      ],
      [
        "▁bak",
        "ım"
      ],
      [
        "▁haz",
        "ır"
      ],
      [
        "▁",
        "eden"
      ],
      [
        "▁bic",
        "im"
      ],
      [
        "gi",
        "m"
      ],
      [
        "i",
        "f"
      ],
      [
        "▁on",
        "unde"
      ],
      [
        "iy",
        "at"
      ],
      [
        "▁mak",
        "in"
      ],
      [
        "▁s",
        "ev"
      ],
      [
        "▁oyun",
        "cu"
      ],
      [
        "▁c",
        "unku"
      ],
      [
        "▁kendi",
        "mi"
      ],
      [
        "▁a",
        "z"
      ],
      [
        "▁gun",
        "ku"
      ],
      [
        "▁y",
        "irmi"
      ],
      [
        "ık",
        "ır"
      ],
      [
        "▁gun",
        "d"
      ],
      [
        "6",
        "1"
      ],
      [
        "um",
        "u"
      ],
      [
        "▁yonet",
        "im"
      ],
      [
        "▁air",
        "lin"
      ],
      [
        "▁g",
        "al"
      ],
      [
        "▁",
        "?"
      ],
      [
        "▁bizim",
        "le"
      ],
      [
        "▁k",
        "ey"
      ],
      [
        "▁g",
        "ot"
      ],
      [
        "an",
        "d"
      ],
      [
        "▁tar",
        "if"
      ],
      [
        "▁a",
        "di"
      ],
      [
        "t",
        "i"
      ],
      [
        "▁se",
        "v"
      ],
      [
        "ag",
        "a"
      ],
      [
        "▁deniz",
        "e"
      ],
      [
        "▁c",
        "iz"
      ],
      [
        "et",
        "in"
      ],
      [
        "▁seh",
        "r"
      ],
      [
        "▁de",
        "gis"
      ],
      [
        "▁yon",
        "et"
      ],
      [
        "▁ekonom",
        "ik"
      ],
      [
        "▁d",
        "er"
      ],
      [
        "e",
        "l"
      ],
      [
        "▁",
        "ir"
      ],
      [
        "▁der",
        "ec"
      ],
      [
        "▁yıl",
        "ın"
      ],
      [
        ".",
        "6"
      ],
      [
        "▁y",
        "e"
      ],
      [
        "▁kom",
        "isyon"
      ],
      [
        "▁cag",
        "ır"
      ],
      [
        "▁tem",
        "muz"
      ],
      [
        "▁1",
        "7"
      ],
      [
        "▁p",
        "h"
      ],
      [
        "▁haz",
        "iran"
      ],
      [
        "▁h",
        "ij"
      ],
      [
        "▁is",
        "im"
      ],
      [
        "▁a",
        "j"
      ],
      [
        "▁n",
        "edir"
      ],
      [
        "▁m",
        "a"
      ],
      [
        "▁sev",
        "gil"
      ],
      [
        "▁",
        "is"
      ],
      [
        "▁z",
        "or"
      ],
      [
        "▁s",
        "uc"
      ],
      [
        "'",
        "daki"
      ],
      [
        "▁ver",
        "iyor"
      ],
      [
        "▁em",
        "in"
      ],
      [
        "▁",
        "t"
      ],
      [
        "▁r",
        "us"
      ],
      [
        "▁b",
        "ul"
      ],
      [
        "du",
        "gunu"
      ],
      [
        "d",
        "u"
      ],
      [
        "▁gen",
        "e"
      ],
      [
        "▁i",
        "g"
      ],
      [
        "ır",
        "ı"
      ],
      [
        "▁1",
        "3"
      ],
      [
        "u",
        "v"
      ],
      [
        "▁kars",
        "ı"
      ],
      [
        "▁ozel",
        "likle"
      ],
      [
        "▁g",
        "ar"
      ],
      [
        "▁jon",
        "es"
      ],
      [
        "▁1",
        "00"
      ],
      [
        "▁199",
        "0"
      ],
      [
        "▁bur",
        "ada"
      ],
      [
        "▁han",
        "ım"
      ],
      [
        "▁4",
        "9"
      ],
      [
        "▁g",
        "ir"
      ],
      [
        "if",
        "orn"
      ],
      [
        "▁il",
        "er"
      ],
      [
        "i",
        "h"
      ],
      [
        "▁art",
        "ıs"
      ],
      [
        "▁lou",
        "is"
      ],
      [
        "▁1",
        "8"
      ],
      [
        "▁%3",
        "0"
      ],
      [
        "▁g",
        "ayet"
      ],
      [
        "ad",
        "ar"
      ],
      [
        "m",
        "az"
      ],
      [
        "▁ken",
        "ar"
      ],
      [
        "lar",
        "i"
      ],
      [
        "▁c",
        "il"
      ],
      [
        "▁mi",
        "sin"
      ],
      [
        "▁il",
        "gi"
      ],
      [
        "▁konus",
        "unda"
      ],
      [
        "▁ol",
        "ustur"
      ],
      [
        "▁kend",
        "in"
      ],
      [
        "▁n",
        "ak"
      ],
      [
        "un",
        "den"
      ],
      [
        "▁hey",
        "ec"
      ],
      [
        "▁meh",
        "met"
      ],
      [
        "lıg",
        "ını"
      ],
      [
        "▁ver",
        "gi"
      ],
      [
        "▁insa",
        "at"
      ],
      [
        "▁birbir",
        "i"
      ],
      [
        "at",
        "es"
      ],
      [
        "▁ne",
        "w"
      ],
      [
        "▁k",
        "ap"
      ],
      [
        "▁b",
        "on"
      ],
      [
        "▁olan",
        "ak"
      ],
      [
        "l",
        "ak"
      ],
      [
        "ag",
        "ın"
      ],
      [
        "▁in",
        "tern"
      ],
      [
        "▁bag",
        "lan"
      ],
      [
        "or",
        "i"
      ],
      [
        "it",
        "al"
      ],
      [
        "▁?",
        ".."
      ],
      [
        "▁cor",
        "p"
      ],
      [
        "▁h",
        "iss"
      ],
      [
        "▁ek",
        "s"
      ],
      [
        "▁uzer",
        "inde"
      ],
      [
        "▁p",
        "ort"
      ],
      [
        "m",
        "esine"
      ],
      [
        "d",
        "a"
      ],
      [
        "▁taraf",
        "ından"
      ],
      [
        "▁gel",
        "istir"
      ],
      [
        "es",
        "tir"
      ],
      [
        "ım",
        "da"
      ],
      [
        "▁c",
        "en"
      ],
      [
        "▁soy",
        "lem"
      ],
      [
        "▁ic",
        "eri"
      ],
      [
        "i",
        "ly"
      ],
      [
        "▁h",
        "ur"
      ],
      [
        "ir",
        "an"
      ],
      [
        "g",
        "a"
      ],
      [
        "▁y",
        "um"
      ],
      [
        "▁oldu",
        "g"
      ],
      [
        "▁boy",
        "le"
      ],
      [
        "▁sah",
        "n"
      ],
      [
        "▁an",
        "da"
      ],
      [
        "▁olur",
        "sa"
      ],
      [
        "00",
        "0"
      ],
      [
        "▁%1",
        "3"
      ],
      [
        "▁sey",
        "den"
      ],
      [
        "▁kars",
        "ısında"
      ],
      [
        "▁du",
        "r"
      ],
      [
        "▁p",
        "il"
      ],
      [
        "ab",
        "a"
      ],
      [
        "▁er",
        "t"
      ],
      [
        "▁kullan",
        "madim"
      ],
      [
        "▁gec",
        "ti"
      ],
      [
        "▁han",
        "gileri"
      ],
      [
        "ası",
        "yla"
      ],
      [
        "▁uc",
        "uz"
      ],
      [
        "▁tu",
        "r"
      ],
      [
        "▁h",
        "ak"
      ],
      [
        "ların",
        "dan"
      ],
      [
        "▁ilisk",
        "in"
      ],
      [
        "▁%1",
        "8"
      ],
      [
        "▁k",
        "ul"
      ],
      [
        "▁sa",
        "de"
      ],
      [
        "▁tar",
        "tıs"
      ],
      [
        "▁t",
        "ur"
      ],
      [
        "es",
        "ine"
      ],
      [
        "an",
        "lar"
      ],
      [
        "▁ag",
        "ustos"
      ],
      [
        "▁b",
        "es"
      ],
      [
        "▁d",
        "ay"
      ],
      [
        "▁ger",
        "ek"
      ],
      [
        "▁i",
        "z"
      ],
      [
        "▁tit",
        "r"
      ],
      [
        "▁dusun",
        "c"
      ],
      [
        "▁cev",
        "r"
      ],
      [
        "▁b",
        "oz"
      ],
      [
        "mem",
        "is"
      ],
      [
        "o",
        "r"
      ],
      [
        "la",
        "dı"
      ],
      [
        "ad",
        "el"
      ],
      [
        "▁soy",
        "le"
      ],
      [
        "as",
        "a"
      ],
      [
        "▁am",
        "ac"
      ],
      [
        "lig",
        "e"
      ],
      [
        "es",
        "e"
      ],
      [
        "ad",
        "ı"
      ],
      [
        "▁ay",
        "ı"
      ],
      [
        "or",
        "t"
      ],
      [
        "▁i",
        "di"
      ],
      [
        "▁bal",
        "ık"
      ],
      [
        "▁1",
        "1"
      ],
      [
        "▁a",
        "it"
      ],
      [
        "▁denver",
        "'e"
      ],
      [
        "medi",
        "m"
      ],
      [
        "a",
        "y"
      ],
      [
        "eg",
        "as"
      ],
      [
        "▁%3.4",
        "3"
      ],
      [
        "os",
        "u"
      ],
      [
        "▁tat",
        "il"
      ],
      [
        "8",
        "9"
      ],
      [
        "en",
        "in"
      ],
      [
        "▁d",
        "uk"
      ],
      [
        "▁ist",
        "iyor"
      ],
      [
        "us",
        "t"
      ],
      [
        "▁k",
        "on"
      ],
      [
        "▁olma",
        "dıgını"
      ],
      [
        "h",
        "u"
      ],
      [
        "l",
        "an"
      ],
      [
        "▁%2",
        "5"
      ],
      [
        "t",
        "im"
      ],
      [
        "d",
        "ın"
      ],
      [
        "▁yaptı",
        "gı"
      ],
      [
        "▁%4",
        ".8"
      ],
      [
        "▁tekn",
        "oloj"
      ],
      [
        "▁gi",
        "den"
      ],
      [
        "ust",
        "on"
      ],
      [
        "▁im",
        "z"
      ],
      [
        "▁kal",
        "ın"
      ],
      [
        "▁kıs",
        "a"
      ],
      [
        "o",
        "d"
      ],
      [
        "▁tal",
        "ep"
      ],
      [
        "uy",
        "du"
      ],
      [
        "▁ber",
        "aber"
      ],
      [
        "▁buy",
        "uk"
      ],
      [
        "▁il",
        "gil"
      ],
      [
        "▁n",
        "ih"
      ],
      [
        "o",
        "c"
      ],
      [
        "▁ben",
        "im"
      ],
      [
        "▁ıs",
        "ık"
      ],
      [
        "▁eg",
        "it"
      ],
      [
        "▁b",
        "oy"
      ],
      [
        "▁t",
        "i"
      ],
      [
        "▁ort",
        "am"
      ],
      [
        "▁yagm",
        "ur"
      ],
      [
        "▁i",
        "le"
      ],
      [
        "▁b",
        "us"
      ],
      [
        "▁har",
        "ika"
      ],
      [
        "▁ort",
        "al"
      ],
      [
        "▁s",
        "unu"
      ],
      [
        "iyor",
        "um"
      ],
      [
        "▁sek",
        "il"
      ],
      [
        "ayı",
        "f"
      ],
      [
        "▁yal",
        "nız"
      ],
      [
        "▁gel",
        "is"
      ],
      [
        "▁h",
        "o"
      ],
      [
        "w",
        "a"
      ],
      [
        "ıs",
        "ına"
      ],
      [
        "▁gec",
        "ir"
      ],
      [
        "▁s",
        "em"
      ],
      [
        "▁dem",
        "okr"
      ],
      [
        "▁de",
        "n"
      ],
      [
        "▁nere",
        "de"
      ],
      [
        "m",
        "em"
      ],
      [
        "▁h",
        "an"
      ],
      [
        "▁y",
        "ay"
      ],
      [
        "▁haf",
        "ta"
      ],
      [
        "▁dok",
        "tor"
      ],
      [
        "y",
        "dı"
      ],
      [
        "\\/",
        "8"
      ],
      [
        "ı",
        "t"
      ],
      [
        "▁art",
        "tı"
      ],
      [
        "▁mus",
        "a"
      ],
      [
        "▁bo",
        "y"
      ],
      [
        "u",
        "g"
      ],
      [
        "▁kend",
        "ini"
      ],
      [
        "▁t",
        "ut"
      ],
      [
        "▁dıs",
        "arı"
      ],
      [
        "▁anad",
        "olu"
      ],
      [
        "ımız",
        "ı"
      ],
      [
        "▁bir",
        "lik"
      ],
      [
        "▁karsıl",
        "as"
      ],
      [
        "▁ho",
        "uston"
      ],
      [
        "h",
        "a"
      ],
      [
        "▁dev",
        "let"
      ],
      [
        "▁p",
        "az"
      ],
      [
        "o",
        "b"
      ],
      [
        "▁ot",
        "eli"
      ],
      [
        "▁prob",
        "lem"
      ],
      [
        "lay",
        "arak"
      ],
      [
        "▁sev",
        "iy"
      ],
      [
        "▁f",
        "ak"
      ],
      [
        "▁kaz",
        "anc"
      ],
      [
        "▁t",
        "an"
      ],
      [
        "▁z",
        "aten"
      ],
      [
        "▁dolay",
        "i"
      ],
      [
        "▁ki",
        "si"
      ],
      [
        "ar",
        "dı"
      ],
      [
        "▁ist",
        "eyen"
      ],
      [
        "▁var",
        "an"
      ],
      [
        "▁ag",
        "ac"
      ],
      [
        "v",
        "an"
      ],
      [
        "▁ba",
        "z"
      ],
      [
        "▁199",
        "1-19"
      ],
      [
        "ay",
        "acak"
      ],
      [
        "r",
        "ak"
      ],
      [
        "gil",
        "eri"
      ],
      [
        "dı",
        "k"
      ],
      [
        "▁listel",
        "eyin"
      ],
      [
        "e",
        "d"
      ],
      [
        "▁l",
        "u"
      ],
      [
        "▁in",
        "an"
      ],
      [
        "▁b",
        "al"
      ],
      [
        "▁franc",
        "isco"
      ],
      [
        "▁co",
        "."
      ],
      [
        "▁ur",
        "et"
      ],
      [
        "▁bek",
        "ledi"
      ],
      [
        "c",
        "ı"
      ],
      [
        "▁ilgil",
        "iydi"
      ],
      [
        "an",
        "a"
      ],
      [
        "▁bas",
        "lıyor"
      ],
      [
        "▁basar",
        "ılı"
      ],
      [
        "t",
        "r"
      ],
      [
        "i",
        "p"
      ],
      [
        "▁ucret",
        "in"
      ],
      [
        "▁yeni",
        "den"
      ],
      [
        "l",
        "uydu"
      ],
      [
        "▁cey",
        "rek"
      ],
      [
        "t",
        "as"
      ],
      [
        "▁san",
        "ki"
      ],
      [
        "▁toplan",
        "tı"
      ],
      [
        "▁aktar",
        "masız"
      ],
      [
        "▁hepsin",
        "in"
      ],
      [
        "▁og",
        "ret"
      ],
      [
        "▁calıs",
        "ıyor"
      ],
      [
        "▁k",
        "oy"
      ],
      [
        ".",
        "4"
      ],
      [
        "▁kay",
        "b"
      ],
      [
        "▁anim",
        "asyon"
      ],
      [
        "▁m",
        "eh"
      ],
      [
        "▁reh",
        "ber"
      ],
      [
        "▁begen",
        "medim"
      ],
      [
        "▁an",
        "lam"
      ],
      [
        "▁nerede",
        "yse"
      ],
      [
        "em",
        "iyor"
      ],
      [
        "▁kalit",
        "esi"
      ],
      [
        "▁%3.",
        "5"
      ],
      [
        "▁dir",
        "ek"
      ],
      [
        "▁uf",
        "ak"
      ],
      [
        "▁y",
        "og"
      ],
      [
        "l",
        "im"
      ],
      [
        "▁cic",
        "ek"
      ],
      [
        "ey",
        "di"
      ],
      [
        "▁z",
        "ırt"
      ],
      [
        "▁s",
        "m"
      ],
      [
        "▁an",
        "lat"
      ],
      [
        "▁ayrı",
        "ca"
      ],
      [
        "m",
        "eler"
      ],
      [
        "em",
        "ey"
      ],
      [
        "e",
        "b"
      ],
      [
        "am",
        "ay"
      ],
      [
        "m",
        "iyor"
      ],
      [
        "▁f",
        "ut"
      ],
      [
        "m",
        "eye"
      ],
      [
        "▁yas",
        "an"
      ],
      [
        "en",
        "ek"
      ],
      [
        "at",
        "if"
      ],
      [
        "u",
        "z"
      ],
      [
        "▁",
        "ust"
      ],
      [
        "im",
        "in"
      ],
      [
        "▁r",
        "uz"
      ],
      [
        "▁b",
        "ar"
      ],
      [
        "eler",
        "ine"
      ],
      [
        "m",
        "ey"
      ],
      [
        "▁ucus",
        "lar"
      ],
      [
        "as",
        "ından"
      ],
      [
        "▁b",
        "ir"
      ],
      [
        "▁uz",
        "er"
      ],
      [
        "▁c",
        "or"
      ],
      [
        "▁dol",
        "u"
      ],
      [
        "▁c",
        "em"
      ],
      [
        "▁yer",
        "les"
      ],
      [
        "▁l",
        "ok"
      ],
      [
        "▁s",
        "ef"
      ],
      [
        "▁%2",
        "7"
      ],
      [
        "▁ol",
        "us"
      ],
      [
        "▁s",
        "er"
      ],
      [
        "r",
        "an"
      ],
      [
        "▁g",
        "ez"
      ],
      [
        "acag",
        "ını"
      ],
      [
        "ey",
        "le"
      ],
      [
        "-2",
        "2:30"
      ],
      [
        "▁oz",
        "el"
      ],
      [
        "▁yuks",
        "elerek"
      ],
      [
        "▁kes",
        "in"
      ],
      [
        "al",
        "anı"
      ],
      [
        "ar",
        "k"
      ],
      [
        "▁bun",
        "un"
      ],
      [
        "lan",
        "d"
      ],
      [
        "▁dor",
        "t"
      ],
      [
        "▁sist",
        "em"
      ],
      [
        "at",
        "ı"
      ],
      [
        "▁duy",
        "g"
      ],
      [
        "▁k",
        "ut"
      ],
      [
        "▁a",
        "dı"
      ],
      [
        "for",
        "man"
      ],
      [
        "▁ko",
        "v"
      ],
      [
        "▁1",
        "2"
      ],
      [
        "▁il",
        "k"
      ],
      [
        "▁",
        "et"
      ],
      [
        "ek",
        "li"
      ],
      [
        "▁sur",
        "ekli"
      ],
      [
        "▁enf",
        "lasyon"
      ],
      [
        "▁`",
        "`"
      ],
      [
        "▁t",
        "ah"
      ],
      [
        "▁do",
        "w"
      ],
      [
        "k",
        "ar"
      ],
      [
        "▁t",
        "im"
      ],
      [
        "v",
        "el"
      ],
      [
        "▁benim",
        "le"
      ],
      [
        "▁dah",
        "il"
      ],
      [
        "▁amerik",
        "a"
      ],
      [
        "▁k",
        "an"
      ],
      [
        "'",
        "deki"
      ],
      [
        "l",
        "at"
      ],
      [
        "▁d",
        "i"
      ],
      [
        "▁hız",
        "lı"
      ],
      [
        "▁",
        ";"
      ],
      [
        "▁p",
        "or"
      ],
      [
        "m",
        "eyen"
      ],
      [
        "ey",
        "e"
      ],
      [
        "s",
        "u"
      ],
      [
        "▁le",
        "z"
      ],
      [
        "c",
        "iler"
      ],
      [
        "▁b",
        "ası"
      ],
      [
        "▁bırak",
        "tı"
      ],
      [
        "d",
        "e"
      ],
      [
        "asyon",
        "u"
      ],
      [
        "▁ev",
        "i"
      ],
      [
        "▁y",
        "ur"
      ],
      [
        "is",
        "s"
      ],
      [
        "g",
        "e"
      ],
      [
        "edi",
        "yor"
      ],
      [
        "▁gerek",
        "tigini"
      ],
      [
        "gi",
        "l"
      ],
      [
        "in",
        "dan"
      ],
      [
        "▁sal",
        "t"
      ],
      [
        "▁kon",
        "tr"
      ],
      [
        "um",
        "s"
      ],
      [
        "▁savun",
        "ma"
      ],
      [
        "len",
        "di"
      ],
      [
        "er",
        "v"
      ],
      [
        "▁c",
        "inc"
      ],
      [
        "▁ask",
        "eri"
      ],
      [
        "a",
        "v"
      ],
      [
        "▁s",
        "ap"
      ],
      [
        "ıs",
        "ır"
      ],
      [
        "▁sah",
        "ib"
      ],
      [
        "▁k",
        "ısı"
      ],
      [
        "▁en",
        "f"
      ],
      [
        "▁h",
        "at"
      ],
      [
        "▁tı",
        "m"
      ],
      [
        "▁gor",
        "ul"
      ],
      [
        "▁1989-",
        "8"
      ],
      [
        "▁bab",
        "a"
      ],
      [
        "ul",
        "uyor"
      ],
      [
        "▁uc",
        "uyor"
      ],
      [
        "▁d",
        "idik"
      ],
      [
        "ot",
        "te"
      ],
      [
        "▁mag",
        "az"
      ],
      [
        "▁top",
        "rak"
      ],
      [
        "ed",
        "er"
      ],
      [
        "b",
        "ank"
      ],
      [
        "▁hay",
        "at"
      ],
      [
        "▁d",
        "is"
      ],
      [
        "'n",
        "da"
      ],
      [
        "an",
        "da"
      ],
      [
        "▁mus",
        "ta"
      ],
      [
        "▁alt",
        "ı"
      ],
      [
        "▁or",
        "anı"
      ],
      [
        "ları",
        "yla"
      ],
      [
        "▁",
        "ra"
      ],
      [
        "▁deniz",
        "i"
      ],
      [
        "▁",
        "u"
      ],
      [
        "▁inc",
        "."
      ],
      [
        "▁t",
        "at"
      ],
      [
        "unc",
        "u"
      ],
      [
        "▁c",
        "ey"
      ],
      [
        "▁dal",
        "las"
      ],
      [
        "▁u",
        "m"
      ],
      [
        "lıg",
        "ın"
      ],
      [
        "▁r",
        "ez"
      ],
      [
        "▁",
        "ic"
      ],
      [
        "e",
        "v"
      ],
      [
        "▁f",
        "el"
      ],
      [
        "▁mı",
        "y"
      ],
      [
        "▁s",
        "ul"
      ],
      [
        "▁yak",
        "ın"
      ],
      [
        "▁y",
        "i"
      ],
      [
        "▁1.",
        "3"
      ],
      [
        "▁m",
        "ec"
      ],
      [
        "1",
        "0"
      ],
      [
        "▁cont",
        "in"
      ],
      [
        "▁g",
        "rup"
      ],
      [
        "▁s",
        "arı"
      ],
      [
        "▁ucus",
        "a"
      ],
      [
        "▁ediyor",
        "uz"
      ],
      [
        "eg",
        "en"
      ],
      [
        "▁t",
        "r"
      ],
      [
        "▁sır",
        "a"
      ],
      [
        "r",
        "im"
      ],
      [
        "▁gir",
        "is"
      ],
      [
        "g",
        "er"
      ],
      [
        "1",
        "9"
      ],
      [
        "▁ka",
        "l"
      ],
      [
        "▁d",
        "un"
      ],
      [
        "d",
        "um"
      ],
      [
        "▁t",
        "as"
      ],
      [
        "▁1.",
        "8"
      ],
      [
        "▁ver",
        "ir"
      ],
      [
        "▁aksam",
        "ı"
      ],
      [
        "▁o",
        "m"
      ],
      [
        "ar",
        "t"
      ],
      [
        "▁mıy",
        "dı"
      ],
      [
        "ıs",
        "ının"
      ],
      [
        "▁del",
        "ta"
      ],
      [
        "alar",
        "ına"
      ],
      [
        "ab",
        "er"
      ],
      [
        "▁b",
        "in"
      ],
      [
        "▁b",
        "uz"
      ],
      [
        "▁s",
        "iddet"
      ],
      [
        "ın",
        "dan"
      ],
      [
        "▁s",
        "ır"
      ],
      [
        "i",
        "s"
      ],
      [
        "▁fark",
        "lı"
      ],
      [
        "▁mah",
        "k"
      ],
      [
        "▁s",
        "iyas"
      ],
      [
        "▁def",
        "a"
      ],
      [
        "ayı",
        "p"
      ],
      [
        "▁ac",
        "isindan"
      ],
      [
        "▁oak",
        "land"
      ],
      [
        "▁k",
        "el"
      ],
      [
        "▁arab",
        "a"
      ],
      [
        "ilm",
        "esi"
      ],
      [
        "▁k",
        "ı"
      ],
      [
        "▁s",
        "on"
      ],
      [
        "▁ilg",
        "isiz"
      ],
      [
        "▁son",
        "r"
      ],
      [
        "▁benz",
        "er"
      ],
      [
        "▁sag",
        "lam"
      ],
      [
        "▁z",
        "iy"
      ],
      [
        "0",
        "'"
      ],
      [
        "▁it",
        "ibar"
      ],
      [
        "ar",
        "ası"
      ],
      [
        "▁as",
        "agı"
      ],
      [
        "▁m",
        "ay"
      ],
      [
        "▁pitt",
        "s"
      ],
      [
        "i",
        "m"
      ],
      [
        "l",
        "ek"
      ],
      [
        "atur",
        "k"
      ],
      [
        "ası",
        "z"
      ],
      [
        "▁4",
        "3"
      ],
      [
        "iy",
        "di"
      ],
      [
        "h",
        "e"
      ],
      [
        "▁mec",
        "l"
      ],
      [
        "s",
        "ın"
      ],
      [
        "em",
        "be"
      ],
      [
        "las",
        "s"
      ],
      [
        "un",
        "ca"
      ],
      [
        "▁un",
        "it"
      ],
      [
        "p",
        "an"
      ],
      [
        "▁d",
        "ol"
      ],
      [
        "▁tes",
        "t"
      ],
      [
        "▁%5",
        ".4"
      ],
      [
        "▁serv",
        "is"
      ],
      [
        "▁yet",
        "ersiz"
      ],
      [
        "▁4",
        "8"
      ],
      [
        "▁c",
        "ap"
      ],
      [
        "▁ust",
        "une"
      ],
      [
        "▁gen",
        "is"
      ],
      [
        "▁muht",
        "esem"
      ],
      [
        "▁",
        "5"
      ],
      [
        "▁bil",
        "dir"
      ],
      [
        "las",
        "tı"
      ],
      [
        "▁yaklas",
        "ık"
      ],
      [
        "as",
        "yon"
      ],
      [
        "▁dur",
        "umu"
      ],
      [
        "▁muh",
        "t"
      ],
      [
        "▁end",
        "ek"
      ],
      [
        "il",
        "di"
      ],
      [
        "▁ucus",
        "ları"
      ],
      [
        "▁mav",
        "i"
      ],
      [
        "-",
        "2"
      ],
      [
        "▁edil",
        "di"
      ],
      [
        "▁d",
        "ah"
      ],
      [
        "▁t",
        "ed"
      ],
      [
        "▁ak",
        "sam"
      ],
      [
        "▁ar",
        "tır"
      ],
      [
        "▁as",
        "k"
      ],
      [
        "▁m",
        "uk"
      ],
      [
        "▁kar",
        "ıs"
      ],
      [
        "▁y",
        "un"
      ],
      [
        "▁f",
        "r"
      ],
      [
        "▁s",
        "es"
      ],
      [
        "▁h",
        "ız"
      ],
      [
        "am",
        "i"
      ],
      [
        "▁cık",
        "mıs"
      ],
      [
        "▁el",
        "ektr"
      ],
      [
        "▁%",
        "1"
      ],
      [
        "ad",
        "a"
      ],
      [
        "▁ek",
        "mek"
      ],
      [
        "ac",
        "h"
      ],
      [
        "▁1",
        "."
      ],
      [
        "es",
        "inde"
      ],
      [
        "▁kız",
        "ı"
      ],
      [
        "▁n",
        "ik"
      ],
      [
        "an",
        "e"
      ],
      [
        "alı",
        "gı"
      ],
      [
        "▁kas",
        "ım"
      ],
      [
        "▁s",
        "oz"
      ],
      [
        "▁%8",
        "5"
      ],
      [
        "iy",
        "le"
      ],
      [
        "▁a",
        "ir"
      ],
      [
        "▁on",
        "a"
      ],
      [
        "▁al",
        "ın"
      ],
      [
        "l",
        "ik"
      ],
      [
        "▁k",
        "uz"
      ],
      [
        "▁k",
        "at"
      ],
      [
        "▁gor",
        "us"
      ],
      [
[...]
