{
  "version": "1.0",
  "truncation": null,
  "padding": null,
  "added_tokens": [
    {
      "id": 1435,
      "content": "[CLS]",
      "single_word": false,
      "lstrip": false,
      "rstrip": false,
      "normalized": false,
      "special": true
    },
    {
      "id": 2784,
      "content": "[MASK]",
      "single_word": false,
      "lstrip": false,
      "rstrip": false,
      "normalized": false,
      "special": true
    },
    {
      "id": 5612,
      "content": "[PAD]",
      "single_word": false,
      "lstrip": false,
      "rstrip": false,
      "normalized": false,
      "special": true
    },
    {
      "id": 6010,
      "content": "[UNK]",
      "single_word": false,
      "lstrip": false,
      "rstrip": false,
      "normalized": false,
      "special": true
    },
    {
      "id": 7894,
      "content": "[SEP]",
      "single_word": false,
      "lstrip": false,
      "rstrip": false,
      "normalized": false,
      "special": true
    }
  ],
  "normalizer": {
    "type": "Sequence",
    "normalizers": [
      {
        "type": "NFD"
      },
      {
        "type": "Lowercase"
      },
      {
        "type": "StripAccents"
      }
    ]
  },
  "pre_tokenizer": {
    "type": "Sequence",
    "pretokenizers": [
      {
        "type": "Metaspace",
        "replacement": "▁",
        "prepend_scheme": "always",
        "split": true
      }
    ]
  },
  "post_processor": {
    "type": "TemplateProcessing",
    "single": [
      {
        "SpecialToken": {
          "id": "[CLS]",
          "type_id": 0
        }
      },
      {
        "Sequence": {
          "id": "A",
          "type_id": 0
        }
      },
      {
        "SpecialToken": {
          "id": "[SEP]",
          "type_id": 0
        }
      }
    ],
    "pair": [
      {
        "SpecialToken": {
          "id": "[CLS]",
          "type_id": 0
        }
      },
      {
        "Sequence": {
          "id": "A",
          "type_id": 0
        }
      },
      {
        "SpecialToken": {
          "id": "[SEP]",
          "type_id": 0
        }
      },
      {
        "Sequence": {
          "id": "B",
          "type_id": 1
        }
      },
      {
        "SpecialToken": {
          "id": "[SEP]",
          "type_id": 1
        }
      }
    ],
    "special_tokens": {
      "[CLS]": {
        "id": "[CLS]",
        "ids": [
          1435
        ],
        "tokens": [
          "[CLS]"
        ]
      },
      "[SEP]": {
        "id": "[SEP]",
        "ids": [
          7894
        ],
        "tokens": [
          "[SEP]"
        ]
      }
    }
  },
  "decoder": {
    "type": "Metaspace",
    "replacement": "▁",
    "prepend_scheme": "always",
    "split": true
  },
  "model": {
    "type": "Unigram",
    "unk_id": 6010,
    "vocab": [
      [
        "▁yolculugun",
        -10.807021913468095
      ],
      [
        "5.2",
        -9.764068700776681
      ],
      [
        "▁kazancları",
        -9.766079533856438
      ],
      [
        "9.8",
        -10.89906866214311
      ],
      [
        "▁inanıyor",
        -9.600924725803617
      ],
      [
        "▁asık",
        -9.524015446604523
      ],
      [
        "abet",
        -10.878411470113907
      ],
      [
        "ısı",
        -11.051820260445027
      ],
      [
        "▁esra",
        -10.150358819762852
      ],
      [
        "86",
        -12.153008031101203
      ],
      [
        "▁mitchell",
        -10.107578944064073
      ],
      [
        "▁eylul'de",
        -10.109573933023755
      ],
      [
        "▁beni",
        -9.26541129877831
      ],
      [
        "▁hafif",
        -8.429934681377908
      ],
      [
        "▁arkadasları",
        -9.648693210113247
      ],
      [
        "▁eglenceli",
        -10.18916383023512
      ],
      [
        "▁yaglı",
        -10.299540860574995
      ],
      [
        "▁brook",
        -10.521510516665833
      ],
      [
        "▁dinleme",
        -10.419725538239817
      ],
      [
        "▁ticari",
        -9.031867716077759
      ],
      [
        "si",
        -10.840103462583878
      ],
      [
        "cuk",
        -9.44935160884117
      ],
      [
        "▁hatirlam",
        -10.817681647049953
      ],
      [
        "▁ofis",
        -9.307364615716036
      ],
      [
        "▁uygundu",
        -9.398583707240478
      ],
      [
        "▁sultan",
        -9.81572128972108
      ],
      [
        "▁yı",
        -9.218269508698501
      ],
      [
        "▁dolar",
        -6.825058995179382
      ],
      [
        "▁par",
        -9.067684364952369
      ],
      [
        "▁yukseldi",
        -7.779371746896772
      ],
      [
        "▁yaygın",
        -9.910279578661253
      ],
      [
        "▁ugur",
        -9.550419904953788
      ],
      [
        "▁sirkette",
        -10.088841249233566
      ],
      [
        "▁baglantılı",
        -10.432368034540836
      ],
      [
        "▁konus",
        -9.211687632516938
      ],
      [
        "▁kayna",
        -9.131250710602822
      ],
      [
        "iyle",
        -7.799128510186801
      ],
      [
        "▁mesaj",
        -9.550595547888353
      ],
      [
        "▁islemlerinde",
        -9.781461426153331
      ],
      [
        "▁ucuslar",
        -7.0111328783320275
      ],
      [
        "▁inek",
        -10.474767857847233
      ],
      [
        "▁camur",
        -9.95319169092242
      ],
      [
        "▁uzlasma",
        -10.142072953355473
      ],
      [
        "▁coz",
        -9.753150408431747
      ],
      [
        "▁derdi",
        -9.744161270089409
      ],
      [
        "▁degilsin",
        -10.284233516698823
      ],
      [
        "%2",
        -11.706131327571025
      ],
      [
        "dugu",
        -9.154633236817908
      ],
      [
        "▁baslama",
        -9.801600013437518
      ],
      [
        "▁pasta",
        -10.341132674069902
      ],
      [
        "▁agzı",
        -9.593275351057915
      ],
      [
        "▁piyasaları",
        -9.822073260933497
      ],
      [
        "▁iletisim",
        -9.67428778385478
      ],
      [
        "▁market",
        -10.425082802975236
      ],
      [
        "▁%9.6",
        -12.104486163788298
      ],
      [
        "▁worth",
        -10.66013335947656
      ],
      [
        "ın",
        -11.343039948114084
      ],
      [
        "a",
        -11.92994979742507
      ],
      [
        "|",
        -12.809526790838989
      ],
      [
        "▁sıcra",
        -10.72286452167862
      ],
      [
        "▁kuvvetli",
        -9.988509118127443
      ],
      [
        "%7",
        -13.006976400583136
      ],
      [
        "▁kapısında",
        -10.000873819286966
      ],
      [
        "▁gelistirme",
        -9.532081725761378
      ],
      [
        "▁abd'de",
        -9.908896846140227
      ],
      [
        "▁akın",
        -9.852886826608488
      ],
      [
        "▁kutuphane",
        -10.889101675505287
      ],
      [
        "▁kup",
        -10.082208504157556
      ],
      [
        "▁bulunuyordu",
        -10.48020512332814
      ],
      [
        "lı",
        -5.713323221057254
      ],
      [
        "▁no",
        -9.471283081887766
      ],
      [
        "▁milwaukee'",
        -9.177545651179488
      ],
      [
        "▁zihni",
        -9.951107933641692
      ],
      [
        "▁%7.9",
        -11.920349515969981
      ],
      [
        "gini",
        -8.17282343983468
      ],
      [
        "▁yok",
        -6.800579191886875
      ],
      [
        "%4",
        -13.042585516553878
      ],
      [
        "▁hayvan",
        -9.299381126029562
      ],
      [
        "▁ilerle",
        -10.47943755314504
      ],
      [
        "▁istemeye",
        -10.603296928149334
      ],
      [
        "istan",
        -9.49253939813253
      ],
      [
        "▁soyleyebilir",
        -9.868034645740671
      ],
      [
        "30'da",
        -10.253720341808767
      ],
      [
        "▁imalat",
        -9.951075951482117
      ],
      [
        "▁cıplak",
        -10.041988792225817
      ],
      [
        "▁evladı",
        -10.666464219971107
      ],
      [
        "▁icinde",
        -6.86417563443488
      ],
      [
        "▁39.5",
        -10.180672117659016
      ],
      [
        "▁otel",
        -7.292082584975073
      ],
      [
        "▁kopru",
        -9.440522422995834
      ],
      [
        "▁268",
        -10.451941589532739
      ],
      [
        "▁oksur",
        -10.7509761961276
      ],
      [
        "▁plaj",
        -9.45784178486685
      ],
      [
        "▁basbakan",
        -9.457764084070144
      ],
      [
        "agı",
        -9.992656147959854
      ],
      [
        "▁mezarlıg",
        -10.87810421393079
      ],
      [
        "▁arkasın",
        -10.101100121428598
      ],
      [
        "▁kontrolu",
        -10.459483779641348
      ],
      [
        "▁seda",
        -10.22142065361405
      ],
      [
        "klerini",
        -9.531209545724366
      ],
      [
        "▁yuzde",
        -8.819960487550684
      ],
      [
        "▁grubu",
        -9.586876423721828
      ],
      [
        "▁imparatorlugu",
        -10.858881185702318
      ],
      [
        "▁sizler",
        -8.499743326726717
      ],
      [
        "▁yapılan",
        -8.28852121481181
      ],
      [
        "'s",
        -9.620973501839298
      ],
      [
        "▁kalkıyor",
        -9.242340198902848
      ],
      [
        "▁eristi",
        -10.433774667020167
      ],
      [
        "▁rehber",
        -9.22746199240527
      ],
      [
        "▁izleyici",
        -10.688848965545715
      ],
      [
        "▁ihti",
        -10.573097856618585
      ],
      [
        "▁107",
        -9.958900496961556
      ],
      [
        "▁tasıma",
        -10.149192202764407
      ],
      [
        "▁kanada",
        -9.570302389172431
      ],
      [
        "▁5\\/",
        -9.38837327942467
      ],
      [
        "▁almanya'da",
        -10.41675073589898
      ],
      [
        "▁jack",
        -10.889123389945118
      ],
      [
        "▁warner",
        -10.471493731309204
      ],
      [
        "▁yım",
        -8.74331923090018
      ],
      [
        "▁oturu",
        -9.807040070785611
      ],
      [
        "am",
        -10.132659638535351
      ],
      [
        "▁1983",
        -10.347090297617484
      ],
      [
        "▁ihracları",
        -10.559673784449416
      ],
      [
        "abiliyor",
        -9.599090175810002
      ],
      [
        "sanız",
        -9.833853027931095
      ],
      [
        "▁amerika'da",
        -10.489412432733918
      ],
      [
        "▁cekim",
        -10.36210252649962
      ],
      [
        "▁otu",
        -9.62229282447634
      ],
      [
        "▁olacak",
        -7.858687050642196
      ],
      [
        "▁pur",
        -10.29954768990404
      ],
      [
        "cıları",
        -9.317518101644083
      ],
      [
        "▁dısisleri",
        -10.521499687826772
      ],
      [
        "▁manevra",
        -10.817670446365288
      ],
      [
        "▁roma",
        -10.532882572059524
      ],
      [
        "▁geregi",
        -9.95159890403824
      ],
      [
        "▁yola",
        -9.296420302023854
      ],
      [
        "▁baslar",
        -9.232734177125304
      ],
      [
        "8",
        -9.465744679121464
      ],
      [
        "▁yontem",
        -9.674408860832457
      ],
      [
        "▁ezber",
        -10.424220282691332
      ],
      [
        "▁kabar",
        -9.796493092671197
      ],
      [
        "▁cıkarma",
        -9.281868096923358
      ],
      [
        "▁%99",
        -11.810224773061273
      ],
      [
        "bunun",
        -9.6688069440048
      ],
      [
        "▁ısıl",
        -10.427403669964907
      ],
      [
        "▁detay",
        -9.98211846409962
      ],
      [
        "▁kapatma",
        -10.481989879501025
      ],
      [
        "▁kullandıgı",
        -10.181661932665525
      ],
      [
        "▁koydu",
        -9.208571158516158
      ],
      [
        "▁tacirler",
        -10.214977738513927
      ],
      [
        "gimiz",
        -10.423125727388728
      ],
      [
        "▁telekom",
        -10.817683721219565
      ],
      [
        "▁gosteri",
        -9.330055116681622
      ],
      [
        "lastı",
        -8.551164395583438
      ],
      [
        "▁yasama",
        -9.178060433589454
      ],
      [
        "▁nicin",
        -9.894754319412517
      ],
      [
        "▁koridor",
        -10.471494258382059
      ],
      [
        "▁board",
        -10.62968450294404
      ],
      [
        "▁fakulte",
        -10.334941248361803
      ],
      [
        "▁meslek",
        -10.17791251498501
      ],
      [
        "▁magaza",
        -9.116253727693326
      ],
      [
        "▁ucusların",
        -9.264626586058682
      ],
      [
        "▁100'",
        -10.630237954733667
      ],
      [
        "▁bazı",
        -5.798457711104905
      ],
      [
        "27",
        -12.479618671514109
      ],
      [
        "▁hesab",
        -10.571782717325187
      ],
      [
        "ona",
        -9.617245440447812
      ],
      [
        "▁algı",
        -9.684363799399208
      ],
      [
        "▁united",
        -8.583098243128688
      ],
      [
        "▁duydu",
        -9.278935578307268
      ],
      [
        "▁8.",
        -10.286904554380493
      ],
      [
        "▁american",
        -8.467193330494531
      ],
      [
        "▁baslık",
        -10.318203054938024
      ],
      [
        "▁yuku",
        -10.218474162736939
      ],
      [
        "▁akıl",
        -9.37703925545521
      ],
      [
        "lıgı",
        -7.4030676913166005
      ],
      [
        "▁tokat",
        -10.690904245870007
      ],
      [
        "▁istedim",
        -9.96523461087406
      ],
      [
        "▁yuvarlak",
        -10.268361723779861
      ],
      [
        "ladıgı",
        -9.632585083173684
      ],
      [
        "▁aldıgını",
        -9.969518585749508
      ],
      [
        "▁kacınılmaz",
        -10.817742061299924
      ],
      [
        "▁kultur",
        -9.085285948526357
      ],
      [
        "layabilir",
        -10.246638292102542
      ],
      [
        "tı",
        -9.880362748676855
      ],
      [
        "▁varlıgı",
        -9.990044071924386
      ],
      [
        "▁politik",
        -9.932205266906811
      ],
      [
        "▁dogru",
        -7.800956334969652
      ],
      [
        "▁dip",
        -10.400348789389838
      ],
      [
        "▁inceleme",
        -9.600486984490948
      ],
      [
        "▁pittsburgh'ta",
        -7.968695662152065
      ],
      [
        "▁verecegi",
        -10.11823292418044
      ],
      [
        "▁charlotte",
        -10.175491530713728
      ],
      [
        "▁dok",
        -9.191554789476376
      ],
      [
        "4",
        -8.951457305826981
      ],
      [
        "ac",
        -8.948265840803217
      ],
      [
        "▁cıkardıgı",
        -10.409436273284356
      ],
      [
        "▁panama",
        -10.751046235910321
      ],
      [
        ".38",
        -10.174863679830818
      ],
      [
        "ını",
        -9.93219484581724
      ],
      [
        "mek",
        -7.736848457997014
      ],
      [
        "▁don",
        -8.658407596359075
      ],
      [
        "▁muhur",
        -10.753075484170791
      ],
      [
        "▁karsila",
        -10.77712918635223
      ],
      [
        "▁mıs",
        -8.221270484658733
      ],
      [
        "▁aralarında",
        -9.807455283530938
      ],
      [
        "▁gitmeli",
        -10.434270706989428
      ],
      [
        "▁ha",
        -8.423620049332474
      ],
      [
        "▁isi",
        -8.248272358505174
      ],
      [
        "▁yoksul",
        -10.107692183043111
      ],
      [
        "▁silah",
        -8.871982715989976
      ],
      [
        "▁caz",
        -10.523407413289497
      ],
      [
        "▁lacivert",
        -10.334941241658454
      ],
      [
        "▁diyen",
        -9.983923280052423
      ],
      [
        "625",
        -9.9510386817464
      ],
      [
        "▁sachs",
        -10.889126022264591
      ],
      [
        "▁asker",
        -9.306200382175561
      ],
      [
        "▁moody'",
        -10.382561759047341
      ],
      [
        "lamıstı",
        -9.949457895877433
      ],
      [
        "/",
        -9.631263806694347
      ],
      [
        "▁42",
        -8.71427175632828
      ],
      [
        "▁ucusunu",
        -9.849490353565184
      ],
      [
        "▁saglıklı",
        -10.019627505057269
      ],
      [
        "▁dalgalanma",
        -10.159562674902498
      ],
      [
        "▁ısık",
        -8.97954773251584
      ],
      [
        "▁y",
        -8.273434547613135
      ],
      [
        "▁birisini",
        -9.720694529423557
      ],
      [
        "sına",
        -7.105923140220761
      ],
      [
        "▁ye",
        -8.879197343066263
      ],
      [
        "▁degiller",
        -8.877110792197561
      ],
      [
        "▁kedi",
        -9.585738963697938
      ],
      [
        "▁pır",
        -9.196406829614833
      ],
      [
        "▁toplanan",
        -10.690382505202605
      ],
      [
        "▁mus",
        -8.161837378504368
      ],
      [
        "▁oray",
        -9.790235082042276
      ],
      [
        "▁ulusal",
        -8.862421130654113
      ],
      [
        "1'de",
        -9.807721456774898
      ],
      [
        "▁fırca",
        -10.524843553805638
      ],
      [
        "▁uf",
        -9.440208921685585
      ],
      [
        "da",
        -10.957139774156504
      ],
      [
        "▁oyna",
        -8.473289977058762
      ],
      [
        "▁a.b.d",
        -10.687618799754622
      ],
      [
        "▁okur",
        -9.589977825343661
      ],
      [
        "▁gelme",
        -9.290353479910456
      ],
      [
        "▁kanı",
        -10.232646908656875
      ],
      [
        "▁dikil",
        -10.611164683384928
      ],
      [
        "▁yetkili",
        -9.878633299323154
      ],
      [
        "▁giden",
        -7.674226021280106
      ],
      [
        "▁kenarın",
        -10.741386015187139
      ],
      [
        "▁fiili",
        -10.253366682929093
      ],
      [
        "▁za",
        -11.938950486359479
      ],
      [
        "▁baslay",
        -9.974521604414868
      ],
      [
        "▁hele",
        -10.042198059360931
      ],
      [
        "sam",
        -9.000744401817027
      ],
      [
        "▁dogdu",
        -10.37875412851615
      ],
      [
        "▁1.2",
        -8.718415128083837
      ],
      [
        "▁annesini",
        -10.147323585549797
      ],
      [
        "▁seni",
        -10.50476341330945
      ],
      [
        "▁kullanılma",
        -10.853458100345863
      ],
      [
        "48",
        -10.060704301262783
      ],
      [
        "▁perakendeci",
        -10.502319946302123
      ],
      [
        "▁rezerv",
        -9.79055285140731
      ],
      [
        "▁kalkı",
        -9.352249201387664
      ],
      [
        "▁oda",
        -6.903479246720617
      ],
      [
        "▁okuyucu",
        -10.63394450145966
      ],
      [
        "▁edemiyor",
        -10.293854281625137
      ],
      [
        "▁...",
        -13.733825525090593
      ],
      [
        "leniyor",
        -9.278582922992861
      ],
      [
        "00'de",
        -10.091174043408309
      ],
      [
        "▁nor",
        -10.181002915108294
      ],
      [
        "▁uste",
        -9.798390019246929
      ],
      [
        "▁giymis",
        -10.374709771194611
      ],
      [
        "▁hucre",
        -9.951022874729485
      ],
      [
        "▁talebi",
        -9.790695038242761
      ],
      [
        "▁arazi",
        -9.792599891276172
      ],
      [
        "▁verin",
        -9.46195110732942
      ],
      [
        "▁etrafı",
        -10.22611769550399
      ],
      [
        "▁gundem",
        -9.994361512360433
      ],
      [
        "▁sir",
        -9.288563409388757
      ],
      [
        "▁hem",
        -9.309032353492633
      ],
      [
        "▁mantar",
        -10.818365166764593
      ],
      [
        "▁bakın",
        -9.591348455598045
      ],
      [
        "50",
        -8.746174993512678
      ],
      [
        "▁omur",
        -9.95111243860466
      ],
      [
        "▁sahil",
        -10.139925319846725
      ],
      [
        "00",
        -11.587869998328102
      ],
      [
        "▁tv",
        -9.737329438864725
      ],
      [
        "▁kol",
        -8.556655788853892
      ],
      [
        "▁yaptıgı",
        -8.56893103111075
      ],
      [
        "▁arkamda",
        -10.581289677451798
      ],
      [
        "▁montreal'da",
        -10.829888453665548
      ],
      [
        "▁tasır",
        -10.144939762277017
      ],
      [
        "▁spot",
        -10.688922164189911
      ],
      [
        "▁dusun",
        -8.90921517761008
      ],
      [
        "▁kavga",
        -9.458886259273836
      ],
      [
        "▁spor",
        -9.14476481692702
      ],
      [
        "▁arasında",
        -6.703675543688809
      ],
      [
        "d",
        -7.1207973057043885
      ],
      [
        "▁1999",
        -9.957080978253066
      ],
      [
        "▁115",
        -10.738518260013485
      ],
      [
        "yıp",
        -8.772739222759103
      ],
      [
        "▁komisyonu",
        -9.489747175392584
      ],
      [
        "▁karsılas",
        -10.18175144791146
      ],
      [
        "▁tesekkurler",
        -9.147127993126318
      ],
      [
        "▁yılmaz",
        -10.6379916313619
      ],
      [
        "meyi",
        -8.906366878888747
      ],
      [
        "▁agustos'ta",
        -9.406320243568533
      ],
      [
        "▁genel",
        -7.050738503995531
      ],
      [
        "▁yakısıklı",
        -10.629680723254285
      ],
      [
        "lemek",
        -9.321822695448812
      ],
      [
        "▁gerektigin",
        -8.995196442362332
      ],
      [
        "▁dayanıklı",
        -10.688504718997205
      ],
      [
        "▁tr",
        -9.393390670653922
      ],
      [
        "▁ucunu",
        -10.646869683689445
      ],
      [
        "▁rakip",
        -9.867698151400832
      ],
      [
        "▁grubun",
        -9.975472810612203
      ],
      [
        "▁basa",
        -9.07874519405657
      ],
      [
        "▁bulundugu",
        -9.264544834917654
      ],
      [
        "▁diego'",
        -9.340624153057838
      ],
      [
        "▁li",
        -7.775344169606043
      ],
      [
        "ından",
        -8.182815124212445
      ],
      [
        "▁rey",
        -10.208726896166851
      ],
      [
        "▁tuttugu",
        -10.446899703259021
      ],
      [
        "▁guvenli",
        -10.078082907229245
      ],
      [
        "25'",
        -10.696847804421973
      ],
      [
        "▁mutfag",
        -9.951023209980189
      ],
      [
        "–",
        -12.809526790838989
      ],
      [
        "yacak",
        -9.246510795776437
      ],
      [
        "▁uzmanları",
        -10.268704047578266
      ],
      [
        "▁kurallar",
        -10.301876411606768
      ],
      [
        "▁genisleme",
        -10.648203094253695
      ],
      [
        "▁ozur",
        -10.181349045366016
      ],
      [
        "▁deyi",
        -9.453100511106971
      ],
      [
        "▁bri",
        -10.402374073509797
      ],
      [
        "▁yagmur",
        -9.167891534018198
      ],
      [
        "▁buyu",
        -8.98160465913005
      ],
      [
        "▁hamam",
        -9.265803622911932
      ],
      [
        "ydı",
        -7.844397568188546
      ],
      [
        "3/",
        -10.921871214404954
      ],
      [
        "6",
        -9.6814032168264
      ],
      [
        "▁aktarmasız",
        -8.512073042010577
      ],
      [
        "▁kisilik",
        -9.666623408900643
      ],
      [
        "▁4.8",
        -10.58612821686715
      ],
      [
        "▁superdi",
        -9.377990935056527
      ],
      [
        "▁olmadi",
        -8.653142360379096
      ],
      [
        "▁arasın",
        -9.79964509367979
      ],
      [
        "▁yuregi",
        -9.422984126307064
      ],
      [
        "▁ureticisi",
        -9.512337722389615
      ],
      [
        "▁ti",
        -10.486432351554733
      ],
      [
        "▁belirsiz",
        -9.748206993898751
      ],
      [
        "▁ılımlı",
        -10.889099171423412
      ],
      [
        "▁ismini",
        -10.198608409400862
      ],
      [
        "▁77",
        -9.84103054110708
      ],
      [
        "▁%3.",
        -11.182099154216546
      ],
      [
        "▁atmak",
        -10.328020352784728
      ],
      [
        "lerimi",
        -9.648832753926122
      ],
      [
        "▁tabiat",
        -10.180548729692884
      ],
      [
        "▁900",
        -9.844393640014774
      ],
      [
        "▁kardesi",
        -9.976522397483324
      ],
      [
        "▁ulu",
        -10.42852124822684
      ],
      [
        "▁yemekte",
        -10.652859757550582
      ],
      [
        "▁104",
        -10.462214676458556
      ],
      [
        "▁karsıya",
        -9.907997425786572
      ],
      [
        "▁alım-satım",
        -10.142061702507855
      ],
      [
        "▁kucak",
        -10.253969978785463
      ],
      [
        "▁bonoları",
        -10.548811240603468
      ],
      [
        "▁yudum",
        -10.215316115597577
      ],
      [
        "▁icer",
        -8.730846400257693
      ],
      [
        "▁dususle",
        -9.47099860161052
      ],
      [
        "▁sar",
        -8.641715663007382
      ],
      [
        "meleri",
        -10.145955588781078
      ],
      [
        "▁nite",
        -9.902595732749482
      ],
      [
        "▁kibar",
        -10.010738572158939
      ],
      [
        "▁basarı",
        -9.09674868038552
      ],
      [
        "▁durak",
        -10.109021928875329
      ],
      [
        "▁ilkeleri",
        -10.552245062080397
      ],
      [
        "▁almanya'",
        -10.402272417071801
      ],
      [
        "it",
        -8.269578992253804
      ],
      [
        "▁unutu",
        -10.112393814178482
      ],
      [
        "lanmıstı",
        -10.052897302187093
      ],
      [
        "▁baskan",
        -8.181142529676606
      ],
      [
        "▁bur",
        -8.350448928901471
      ],
      [
        "▁tahvil",
        -8.48052807640628
      ],
      [
        "ının",
        -7.718672044570371
      ],
      [
        "▁odun",
        -9.73736958926393
      ],
      [
        "▁kurtul",
        -9.85389827401038
      ],
      [
        "lasmıs",
        -9.548887164043812
      ],
      [
        "▁seksen",
        -9.510386021826939
      ],
      [
        "or",
        -7.910572170892433
      ],
      [
        "25000",
        -10.08621304387279
      ],
      [
        "▁yi",
        -9.990655862087861
      ],
      [
        "▁tasfiye",
        -10.817670952274609
      ],
      [
        "▁ka",
        -7.6821385099399615
      ],
      [
        "lesme",
        -9.054716825709907
      ],
      [
        "▁daglar",
        -9.980729185051022
      ],
      [
        "▁kalabalık",
        -9.531189105071286
      ],
      [
        "▁vazgec",
        -9.794800028882062
      ],
      [
        "▁kadın",
        -7.551145327550358
      ],
      [
        "▁ilis",
        -10.258477183881912
      ],
      [
        "32",
        -8.876639540153514
      ],
      [
        "▁sorunlar",
        -10.326755052603367
      ],
      [
        "▁konut",
        -9.406111897412245
      ],
      [
        "▁agladı",
        -10.709766742386417
      ],
      [
        "▁kalk",
        -8.898990944089457
      ],
      [
        "▁yurdu",
        -9.922558126722034
      ],
      [
        "ı",
        -5.447374185074482
      ],
      [
        "▁tel",
        -8.945462458549805
      ],
      [
        "▁ozellikleri",
        -10.045703276987961
      ],
      [
        "▁odalar",
        -8.772501561569271
      ],
      [
        "▁gorustu",
        -9.49576987824056
      ],
      [
        "▁yaratıcı",
        -10.178102178128068
      ],
      [
        "▁maliyeti",
        -9.510024713581291
      ],
      [
        "▁cozme",
        -10.17250265973872
      ],
      [
        "▁denver'de",
        -7.5935906466265255
      ],
      [
        "ebilirdi",
        -10.31382398232091
      ],
      [
        "u",
        -5.066036806639432
      ],
      [
        "ir",
        -7.329264069611982
      ],
      [
        "▁%8.2",
        -11.920938577525046
      ],
      [
        "▁tuvalet",
        -10.471493575804558
      ],
      [
        "▁ikiyuz",
        -10.584957844453116
      ],
      [
        "▁biraz",
        -6.941773608567418
      ],
      [
        "▁bunca",
        -10.520008690544373
      ],
      [
        "▁atlanta",
        -8.662777513685453
      ],
      [
        "▁eksi",
        -9.826218927254043
      ],
      [
        "▁nerede",
        -7.982980169462512
      ],
      [
        "▁serpil",
        -10.757761320247896
      ],
      [
        "▁sigara",
        -9.079215372639592
      ],
      [
        "▁tamamlanması",
        -10.52442701691756
      ],
      [
        "▁cesitleri",
        -9.785496983274577
      ],
      [
        "doksan",
        -10.280845400016329
      ],
      [
        "▁agzında",
        -10.047366497044962
      ],
      [
        "▁iskence",
        -10.521564349728088
      ],
      [
        "▁ekliyor",
        -10.767029396428516
      ],
      [
        "▁demokrat",
        -9.840883721347232
      ],
      [
        "▁tanıyor",
        -10.616089118329285
      ],
      [
        "▁enflasyon",
        -9.389362440107288
      ],
      [
        "▁dakikada",
        -10.224987481592391
      ],
      [
        "▁dagılı",
        -10.495864999253499
      ],
      [
        "ed",
        -8.735168551912679
      ],
      [
        "▁prof",
        -10.57705075941765
      ],
      [
        "▁ah",
        -8.924114014808065
      ],
      [
        "▁ogreti",
        -10.531422713564233
      ],
      [
        "▁rengi",
        -9.27356823161644
      ],
      [
        "▁mani",
        -9.703075886160345
      ],
      [
        "▁acılma",
        -9.747232689641466
      ],
      [
        "▁inc.",
        -9.037986790246663
      ],
      [
        "▁yuzme",
        -8.853102451111422
      ],
      [
        "▁cikiyor",
        -10.830822733405558
      ],
      [
        "▁nu",
        -9.741558200759126
      ],
      [
        "gel",
        -9.270411228329191
      ],
      [
        "▁sekiz",
        -7.532759790075625
      ],
      [
        "▁ogreni",
        -10.52033620595222
      ],
      [
        "▁lık",
        -9.145996749068345
      ],
      [
        "▁kuyrug",
        -10.751003765766189
      ],
      [
        "▁becer",
        -10.44392994055466
      ],
      [
        "▁bilme",
        -9.825535096588238
      ],
      [
        "▁ithalat",
        -9.611215366451535
      ],
      [
        "▁hill",
        -10.889130416362708
      ],
      [
        "▁yarısı",
        -9.924809070064462
      ],
      [
        "▁bolgede",
        -10.010350148442932
      ],
      [
        "▁gerceklesti",
        -9.694415627784831
      ],
      [
        "▁kayıt",
        -9.310024037926404
      ],
      [
        "▁sozunu",
        -10.12622089031948
      ],
      [
        "▁konaklama",
        -10.38042040753945
      ],
      [
        "▁gucu",
        -9.284371309373768
      ],
      [
        "▁kalmıs",
        -9.310206332674582
      ],
      [
        "▁109",
        -10.300749207696247
      ],
      [
        "▁sinyal",
        -10.753913271651838
      ],
      [
        "▁sene",
        -8.002989329899844
      ],
      [
        "▁ima",
        -9.664257072680247
      ],
      [
        "▁isle",
        -9.277385569153564
      ],
      [
        "▁yaptıkları",
        -10.270694370934354
      ],
      [
        "▁tabanca",
        -10.633985787732248
      ],
      [
        "iyeti",
        -9.628768892631276
      ],
      [
        "▁doları'n",
        -9.174110532236721
      ],
      [
        "▁hakan",
        -10.198169073202301
      ],
      [
        "▁ru",
        -9.990242028489483
      ],
      [
        "▁hay",
        -9.068780009708469
      ],
      [
        "▁tutun",
        -9.235838383823653
      ],
      [
        "▁istegi",
        -10.221836035113704
      ],
      [
        "▁gelismis",
        -10.522596010264378
      ],
      [
        "▁planlanan",
        -10.752784292195598
      ],
      [
        "▁kullanıcı",
        -10.523070864669481
      ],
      [
        "▁1\\/",
        -7.7140516848181395
      ],
      [
        "gu",
        -11.556704943236587
      ],
      [
        "▁buyuk",
        -6.519905376011293
      ],
      [
        "▁ur",
        -9.59151657008663
      ],
      [
        "▁hazırlanı",
        -10.053632931187067
      ],
      [
        "▁katılıyor",
        -10.584549948239198
      ],
      [
        "▁go",
        -9.069405944628912
      ],
      [
        "▁1989-8",
        -11.134501819180723
      ],
      [
        "▁gayri",
        -10.423879762022786
      ],
      [
        "▁sen",
        -6.208861544610927
      ],
      [
        "ul",
        -7.887178131519313
      ],
      [
        "▁terbiye",
        -9.922461906448348
      ],
      [
        "▁moda",
        -9.960203953058185
      ],
      [
        "▁cekil",
        -9.921323220420291
      ],
      [
        "▁kahve",
        -8.28526612606829
      ],
      [
        "▁senato",
        -9.811073773194243
      ],
      [
        "▁ne",
        -5.42483369044023
      ],
      [
        "digim",
        -9.401557721857307
      ],
      [
        "▁bırak",
        -8.34981137341199
      ],
      [
        "▁5.9",
        -10.066471804320791
      ],
      [
        "▁tanımla",
        -10.238693184954673
      ],
      [
        "▁sagladı",
        -10.20923717233622
      ],
      [
        "▁oynuyor",
        -9.816654450026757
      ],
      [
        "▁zı",
        -9.731017994050433
      ],
      [
        "'e",
        -8.084843082147827
      ],
      [
        "▁duvarda",
        -10.574810372532326
      ],
      [
        "▁perde",
        -9.093462775501933
      ],
      [
        "▁tabak",
        -9.978417523623035
      ],
      [
        "▁muhalif",
        -10.471493530149608
      ],
      [
        "▁klima",
        -10.471637672603872
      ],
      [
        "▁hissediyor",
        -9.87083928496986
      ],
      [
        "▁ikisi",
        -9.316595908415728
      ],
      [
        "▁havayolu",
        -9.144189159825459
      ],
      [
        "ist",
        -8.987402041407359
      ],
      [
        "▁iddiaları",
        -10.521560839568775
      ],
      [
        "▁unutma",
        -9.492645220810376
      ],
      [
        "▁birlikte",
        -7.262536962257031
      ],
      [
        "▁dol",
        -9.600133359328915
      ],
      [
        "▁cocugunu",
        -10.554110465897644
      ],
      [
        "▁metal",
        -10.016114232301533
      ],
      [
        "▁ysan",
        -10.60411921712316
      ],
      [
        "dıkları",
        -9.702665226198219
      ],
      [
        "▁uzeri",
        -9.860933022561838
      ],
      [
        "▁post",
        -10.27285596994758
      ],
      [
        "▁field'",
        -10.574183053447705
      ],
      [
        "▁actı",
        -8.568964873947873
      ],
      [
        "▁ikincisi",
        -9.926045298289534
      ],
      [
        "▁m",
        -12.81292342695711
      ],
      [
        "▁takım",
        -8.915679674378909
      ],
      [
        "▁baslangıc",
        -10.350071894684504
      ],
      [
        "▁%7.5",
        -11.120962033768349
      ],
      [
        "lıgın",
        -8.489228943497341
      ],
      [
        "▁huseyin",
        -10.142061825431908
      ],
      [
        "sa",
        -7.057262485085762
      ],
      [
        "▁itibar",
        -9.58963099292765
      ],
      [
        "ilen",
        -8.930867582723865
      ],
      [
        "▁olanlar",
        -10.222486337248284
      ],
      [
        "▁calıstı",
        -9.043795802600327
      ],
      [
        "▁alındı",
        -9.907062196923565
      ],
      [
        "▁yıgın",
        -9.91286977205248
      ],
      [
        "▁yık",
        -9.46316696019965
      ],
      [
        "▁toplumun",
        -10.213207651287412
      ],
      [
        "▁ataturk'u",
        -10.283718358572875
      ],
      [
        "▁6.7",
        -10.380704618024017
      ],
      [
        "▁sukur",
        -10.75125123085783
      ],
      [
        "bunları",
        -10.202574788724675
      ],
      [
        "▁oglum",
        -9.624209445679096
      ],
      [
        "3",
        -9.345899583452661
      ],
      [
        "▁olmaz",
        -8.67923537155518
      ],
      [
        "at",
        -6.734542760195388
      ],
      [
        "▁hapishane",
        -10.575685959552802
      ],
      [
        "bur",
        -9.764709621168155
      ],
      [
        "▁bolge",
        -8.654860315553869
      ],
      [
        "▁avuc",
        -9.375541187825796
      ],
      [
        ".6",
        -9.81388337964757
      ],
      [
        "▁bazi",
        -8.434375528301851
      ],
      [
        "▁gra",
        -10.12367629423941
      ],
      [
        "▁sebepler",
        -10.529813258826138
      ],
      [
        "▁belirtti",
        -9.27434140258869
      ],
      [
        "▁yuzunu",
        -9.502972898249595
      ],
      [
        "ti",
        -13.256482449366915
      ],
      [
        "▁gordugum",
        -10.008304685714927
      ],
      [
        "▁musluman",
        -10.041987578516448
      ],
      [
        "▁secenek",
        -10.773779197701886
      ],
      [
        "▁niyeti",
        -10.50818283392205
      ],
      [
        "▁sok",
        -8.939135169417433
      ],
      [
        "▁donu",
        -9.484740515466278
      ],
      [
        "▁gosterge",
        -9.801249589049233
      ],
      [
        "▁toprag",
        -10.469441671706946
      ],
      [
        "▁oakland'",
        -8.87930440107255
      ],
      [
        "▁col",
        -9.862291427009414
      ],
      [
        "▁ogrendi",
        -10.109860917125872
      ],
      [
        "▁otomobil",
        -8.71710114948596
      ],
      [
        "▁nereler",
        -10.327109737456745
      ],
      [
        "▁atıldı",
        -10.55242156278815
      ],
      [
        "▁bası",
        -8.724964103803757
      ],
      [
        "ılacak",
        -9.62890453275946
      ],
      [
        "▁bahsediyor",
        -10.57450053003097
      ],
      [
        "▁karsı",
        -6.409335831396301
      ],
      [
        "▁nedenle",
        -9.653806577926005
      ],
      [
        "▁ucak",
        -8.119325036548032
      ],
      [
        "▁degisir",
        -10.82571203407797
      ],
      [
        "▁ler",
        -9.237594244454714
      ],
      [
        "▁1100",
        -10.565896809000884
      ],
      [
        "lıgında",
        -9.438605352100552
      ],
      [
        "▁sorunları",
        -9.796330331429068
      ],
      [
        "▁duyguları",
        -10.188133589922904
      ],
      [
        "▁sınav",
        -9.841399987129446
      ],
      [
        "▁boyle",
        -7.130469225286302
      ],
      [
        "▁yas",
        -8.18768980658141
      ],
      [
        "7/",
        -9.640234913681336
      ],
      [
        "▁1.85",
        -10.968222535860983
      ],
      [
        "▁bic",
        -10.241322592582186
      ],
      [
        "▁muhabbet",
        -10.629680220979825
      ],
      [
        "cak",
        -9.130272443037247
      ],
      [
        "▁tutarında",
        -9.74336283568167
      ],
      [
        "▁oyunun",
        -10.001635489252518
      ],
      [
        "▁oldugunu",
        -7.027662086168488
      ],
      [
        "▁kapı",
        -7.66059898459958
      ],
      [
        "▁kos",
        -8.777721072170579
      ],
      [
        "▁aldi",
        -9.858544975706636
      ],
      [
        "▁gonul",
        -9.3553709388326
      ],
      [
        "▁sarkı",
        -8.956287036908048
      ],
      [
        "▁uzerindeki",
        -9.241041403712508
      ],
      [
        "▁dukkan",
        -9.461304308729595
      ],
      [
        "00",
        -9.806858893401529
      ],
      [
        "▁oturdu",
        -9.534334374475456
      ],
      [
        "▁harikayd",
        -9.89275257854022
      ],
      [
        "▁co",
        -8.007472328994126
      ],
      [
        "sıyla",
        -8.596125116545778
      ],
      [
        "▁merkezi",
        -8.33431493226348
      ],
      [
        "ladık",
        -9.80309007084773
      ],
      [
        "▁hesabı",
        -10.075670909699989
      ],
      [
        "▁montreal'",
        -9.770907775584405
      ],
      [
        "▁fort",
        -9.119306679294407
      ],
      [
        "▁kusur",
        -9.44313590178251
      ],
      [
        "▁gazino",
        -10.62975805219296
      ],
      [
        "7.5",
        -9.20992259280443
      ],
      [
        "14",
        -12.716480308396433
      ],
      [
        "▁parasını",
        -9.740455713529403
      ],
      [
        "▁kagıtları",
        -10.473304455552864
      ],
      [
        "▁yil",
        -9.5794532084793
      ],
      [
        "99",
        -10.866053962672542
      ],
      [
        "▁sınıfı",
        -8.949001964633773
      ],
      [
        "51",
        -10.981441885772222
      ],
      [
        "▁kompozit",
        -10.471493083991398
      ],
      [
        "▁gumus",
        -9.697742952349536
      ],
      [
        "▁cogunda",
        -10.93680925498924
      ],
      [
        "▁kacır",
        -9.942346512043427
      ],
      [
        "▁terk",
        -9.486191838510848
      ],
      [
        "▁koydugu",
        -10.607740893887897
      ],
      [
        "19",
        -9.653955124169919
      ],
      [
        "▁279.",
        -10.708748996810979
      ],
      [
        "▁yataklar",
        -9.989391849453886
      ],
      [
        "vı",
        -10.422371062606649
      ],
      [
        "▁iflas",
        -9.790690999352588
      ],
      [
        "▁dısı",
        -9.184348290646248
      ],
      [
        "▁kulak",
        -9.182431248284002
      ],
      [
        "▁degismedi",
        -10.301442842048779
      ],
      [
        "▁il",
        -7.476214463926909
      ],
      [
        "▁yapar",
        -8.710566989124917
      ],
      [
        "90",
        -11.082983173234592
      ],
      [
        "▁delik",
        -10.1351504544932
      ],
      [
        "▁ekmek",
        -8.925389228099885
      ],
      [
        "maktadır",
        -8.08682174791042
      ],
      [
        "▁eksik",
        -9.212334841893739
      ],
      [
        "▁a",
        -7.8556995854492255
      ],
      [
        "var",
        -9.376727674102051
      ],
      [
        "▁biri",
        -7.301416674230443
      ],
      [
        "▁yıl",
        -6.934990561513377
      ],
      [
        "amadım",
        -10.147860558245064
      ],
      [
        "sin",
        -7.740172193961441
      ],
      [
        "▁kelebek",
        -10.75100397666128
      ],
      [
        "▁verilen",
        -9.093542605142938
      ],
      [
        "nızı",
        -9.542755061300033
      ],
      [
        "▁umuyor",
        -9.95906107352015
      ],
      [
        "▁unsurlar",
        -10.817689191613308
      ],
      [
        "▁k",
        -9.253332953015757
      ],
      [
        "▁mark",
        -9.823706932609577
      ],
      [
        "$",
        -7.518283183533239
      ],
      [
        "▁ihtimal",
        -9.631304717382829
      ],
      [
        "▁citicorp",
        -10.817670414605095
      ],
      [
        "▁lig",
        -10.476150793466717
      ],
      [
        "▁otekini",
        -10.58713718106293
      ],
      [
        "wood",
        -10.751004148990873
      ],
      [
        "▁esna",
        -9.952972793890766
      ],
      [
        "▁recep",
        -9.980474030684318
      ],
      [
        "▁azınlık",
        -10.17858683994751
      ],
      [
        "▁paranın",
        -10.126711831773195
      ],
      [
        "▁sevindi",
        -10.648641749797815
      ],
      [
        "▁bakıs",
        -9.05583073608906
      ],
      [
        "▁gorusu",
        -9.768749988293782
      ],
      [
        "▁yavas",
        -8.241825602409856
      ],
      [
        "ize",
        -10.825365656243923
      ],
      [
        "▁cıkı",
        -9.305386909913254
      ],
      [
        "▁temiz",
        -6.86557666474393
      ],
      [
        "▁dongu",
        -10.633632084280421
      ],
      [
        "▁kaliteli",
        -8.701566397897043
      ],
      [
        "▁geldi",
        -7.259115664161856
      ],
      [
        "lesen",
        -9.979476942633138
      ],
      [
        "yor",
        -7.921136094037259
      ],
      [
        "▁zam",
        -10.308530091237078
      ],
      [
        "▁engel",
        -8.889458170547057
      ],
      [
        "▁yunan",
        -10.575338926977864
      ],
      [
        "▁yeg",
        -9.935959698584124
      ],
      [
        "▁denen",
        -10.426506082529869
      ],
      [
        "▁alıcı",
        -9.647593967095316
      ],
      [
        "▁asagı",
        -8.75935248765628
      ],
      [
        "▁etmeyecegi",
        -10.825725644310266
      ],
      [
        "▁mı",
        -5.660593134567461
      ],
      [
        "▁bebegi",
        -10.521698464318037
      ],
      [
        "liyor",
        -8.625839282049043
      ],
      [
        "▁gomul",
        -10.297180711487965
      ],
      [
        "▁bolumunu",
        -10.356858828521634
      ],
      [
        "▁garsonlar",
        -10.463126337250046
      ],
      [
        "▁donus",
        -7.669670357515668
      ],
      [
        "▁adet",
        -8.16744476881232
      ],
      [
        "mekte",
        -9.585611248951993
      ],
      [
        "▁artıs",
        -8.744108654622643
      ],
      [
        "▁sil",
        -8.905896883484168
      ],
      [
        "▁temsilci",
        -10.158411737049958
      ],
      [
        "▁veri",
        -9.453805472639527
      ],
      [
        "▁muharebe",
        -10.817670433672934
      ],
      [
        "▁atıl",
        -9.724392937589354
      ],
      [
        "▁ispanya",
        -10.688504168255236
      ],
      [
        "▁dokulen",
        -10.81838997051818
      ],
      [
        "gar",
        -9.666819412828112
      ],
      [
        "▁19",
        -7.590840352627737
      ],
      [
        "▁degisme",
        -9.79485607174215
      ],
      [
        "▁5",
        -6.399179993357795
      ],
      [
        "▁girecek",
        -10.468231607287422
      ],
      [
        "▁gecirme",
        -10.003506889635613
      ],
      [
        "▁yıldız",
        -9.706286637125496
      ],
      [
        "▁ask",
        -9.149786213892547
      ],
      [
        "▁vermeye",
        -9.90195802154306
      ],
      [
        "▁leh",
        -10.52164827423605
      ],
      [
        "▁yarım",
        -9.04299522506731
      ],
      [
        "▁miami'de",
        -9.905245975784561
      ],
      [
        "▁gorevli",
        -10.321301443527364
      ],
      [
        "▁odamiz",
        -9.23306514262213
      ],
      [
        "▁yiyecek",
        -8.615930886079996
      ],
      [
        "▁saygı",
        -9.158562300574678
      ],
      [
        "▁bilinme",
        -10.246493781068665
      ],
      [
        "ikinci",
        -10.400159785533214
      ],
      [
        "▁atan",
        -9.913566959744578
      ],
      [
        "▁aktarma",
        -9.542790844075164
      ],
      [
        "▁aile",
        -7.8756913680444205
      ],
      [
        "▁patlat",
        -10.524097545069752
      ],
      [
        "▁calı",
        -9.32608584401123
      ],
      [
        "▁rastladı",
        -10.872902717877768
      ],
      [
        "▁uyar",
        -9.454552648838817
      ],
      [
        "ola",
        -9.667374755508707
      ],
      [
        "▁vermedi",
        -9.919690656347916
      ],
      [
        "▁milletvekili",
        -10.378419502896584
      ],
      [
        "▁dolap",
        -10.042124651154893
      ],
      [
        "▁sura",
        -10.269194055459817
      ],
      [
        "▁zirve",
        -10.177777933785041
      ],
      [
        "▁rahmet",
        -10.629680319847118
      ],
      [
        "▁korkuyor",
        -10.325130537728143
      ],
      [
        "▁%2",
        -9.532782587822314
      ],
      [
        "▁yakinlarim",
        -10.689334021707907
      ],
      [
        "▁etmem",
        -8.673576754802706
      ],
      [
        "▁emekli",
        -9.533625197980232
      ],
      [
        "▁yuksel",
        -8.35876322438779
      ],
      [
        "▁3558",
        -10.355449281372612
      ],
      [
        "yani",
        -10.61664784477175
      ],
      [
        "tas",
        -10.057363016908528
      ],
      [
        "▁55",
        -9.177819608601558
      ],
      [
        "stırma",
        -10.060391819451764
      ],
      [
        "▁3.",
        -7.95981787468102
      ],
      [
        "▁cu",
        -9.971384012819627
      ],
      [
        "arak",
        -5.630012307287409
      ],
      [
        "▁getirildi",
        -10.425982910716016
      ],
      [
        "▁acıkladı",
        -9.043149888468568
      ],
      [
        "nla",
        -9.58078058821545
      ],
      [
        "▁eh",
        -10.04356155318024
      ],
      [
        "▁internette",
        -10.862086862603046
      ],
      [
        "▁alıyor",
        -8.999094774893514
      ],
      [
        "▁uzaklas",
        -10.18849906756354
      ],
      [
        "▁to",
        -9.13953607839268
      ],
      [
        "▁duman",
        -9.310345361687911
      ],
      [
        "▁acımasız",
        -10.81770380417474
      ],
      [
        "▁hukuk",
        -9.020376297179045
      ],
      [
        "▁bekleme",
        -9.249453051468862
      ],
      [
        "▁birinci",
        -8.08995841946951
      ],
      [
        "▁arkadasım",
        -10.152160390884935
      ],
      [
        "▁haydi",
        -10.161020935939737
      ],
      [
        "▁gizli",
        -8.954056292840178
      ],
      [
        "▁an",
        -7.546637428198132
      ],
      [
        "▁gorunen",
        -10.049192737141706
      ],
      [
        "▁jul",
        -10.868465607737031
      ],
      [
        "misin",
        -10.122946570541602
      ],
      [
        "▁keman",
        -10.731903084340207
      ],
      [
        "▁minneapolis'",
        -10.40403322430302
      ],
      [
        "▁ucma",
        -10.32326287878249
      ],
      [
        "lanan",
        -8.774160303979523
      ],
      [
        "▁tefe",
        -9.162034969752785
      ],
      [
        "mı",
        -8.374096378826032
      ],
      [
        "'nun",
        -8.227926315128013
      ],
      [
        "▁olagan",
        -10.424036160066034
      ],
      [
        "▁gecici",
        -9.63373607090127
      ],
      [
        "sızlık",
        -10.05379568747077
      ],
      [
        "▁komunist",
        -10.423874050371046
      ],
      [
        "▁havaalanı'nda",
        -10.177957967553757
      ],
      [
        "▁sel",
        -9.625724596960538
      ],
      [
        "unu",
        -7.628669655166714
      ],
      [
        "▁danısmanı",
        -10.446920096162657
      ],
      [
        "eri",
        -8.593642937284123
      ],
      [
        "▁yıldırım",
        -10.822943637390516
      ],
      [
        "oru",
        -10.203952345947869
      ],
      [
        "▁tatsız",
        -10.635190919551135
      ],
      [
        "▁aydınlat",
        -10.631512412456729
      ],
      [
        "-",
        -5.2246448626679545
      ],
      [
        "▁masraf",
        -9.550420101248292
      ],
      [
        "▁geciyor",
        -9.352200166382847
      ],
      [
        "▁kucuk",
        -7.237283938009057
      ],
      [
        "▁acma",
        -9.974347556791765
      ],
      [
        "▁sa",
        -7.058721000505687
      ],
      [
        "▁adina",
        -9.251270885857094
      ],
      [
        "▁uzerinde",
        -7.365913178761241
      ],
      [
        "▁miktarda",
        -10.222850043698468
      ],
      [
        "▁tutan",
        -10.222664914152942
      ],
      [
        "▁cay",
        -8.877127901649068
      ],
      [
        "▁bela",
        -10.003833931804825
      ],
      [
        "▁7.2",
        -10.324098996964956
      ],
      [
        "▁hizmet",
        -6.772839511487491
      ],
      [
        "▁dusunuyoru",
        -9.623147717822057
      ],
      [
        "▁california",
        -10.569216431119877
      ],
      [
        "▁bırakır",
        -10.329528328640464
      ],
      [
        "▁vo",
        -10.564901535592233
      ],
      [
        "▁alma",
        -8.172686678726265
      ],
      [
        "ler",
        -8.561113245009482
      ],
      [
        "▁aklı",
        -9.510085581040633
      ],
      [
        "▁katılan",
        -10.576473342575527
      ],
      [
        "▁istemis",
        -10.316617139390338
      ],
      [
        "▁ucus",
        -6.809929421191383
      ],
      [
        "er",
        -10.61205839064084
      ],
      [
        "▁kendini",
        -6.832826224031009
      ],
      [
        "▁degerli",
        -9.758041369470416
      ],
      [
        "▁piyasasında",
        -10.048191618266939
      ],
      [
        "▁mudur",
        -10.569581647065483
      ],
      [
        "▁piyasada",
        -9.471373236211683
      ],
      [
        "▁burası",
        -9.884453531477519
      ],
      [
        "▁sozleri",
        -9.808154942697339
      ],
      [
        "▁devasa",
        -10.57461557532017
      ],
      [
        "▁37",
        -9.086485923493704
      ],
      [
        "▁iskemle",
        -10.688503999812486
      ],
      [
        "▁girmis",
        -10.073084313660516
      ],
      [
        "▁tasın",
        -10.008920617413846
      ],
      [
        "▁beyan",
        -10.205512039423732
      ],
      [
        "▁havalimanı'nda",
        -10.62978994417751
      ],
      [
        "▁14",
        -8.071408203960583
      ],
      [
        "▁kazı",
        -9.850436849635196
      ],
      [
        "▁olmayacak",
        -9.714693773046125
      ],
      [
        "stro",
        -10.264351420267193
      ],
      [
        "▁seviye",
        -9.311048487703232
      ],
      [
        "▁etmesi",
        -9.714404916657793
      ],
      [
        "▁4",
        -9.148225494436918
      ],
      [
        "▁fizik",
        -10.177818185017129
      ],
      [
        "▁burbank'",
        -10.348281509970931
      ],
      [
        "▁99.1",
        -10.582521126907109
      ],
      [
        "▁tutmus",
        -10.56890829186273
      ],
      [
        "▁%7.8",
        -10.683931952813355
      ],
      [
        "▁bulur",
        -9.71133820087482
      ],
      [
        "▁fırsat",
        -9.208453624950865
      ],
      [
        "▁yat",
        -9.410735049176981
      ],
      [
        "▁q",
        -10.006129207631519
      ],
      [
        "▁v",
        -9.826033055058558
      ],
      [
        "▁gorule",
        -10.458195879730587
      ],
      [
        "▁destekleme",
        -10.447706379706002
      ],
      [
        "▁keci",
        -10.75784133422695
      ],
      [
        "up",
        -7.654337455854028
      ],
      [
        "▁egemen",
        -10.253275796231081
      ],
      [
        "▁anlat",
        -8.634746584992074
      ],
      [
        "▁kacındı",
        -10.375632207217363
      ],
      [
        "sidir",
        -9.877446609991535
      ],
      [
        "▁sendika",
        -9.42408634977744
      ],
      [
        "▁demokratik",
        -10.074810130896468
      ],
      [
        "▁kumsal",
        -10.143440297008974
      ],
      [
        "▁sanıyoru",
        -10.830366049822771
      ],
      [
        "9.2",
        -10.791611926756298
      ],
      [
        "▁gunduz",
        -9.47617254141253
      ],
      [
        "▁ucte",
        -10.496238531617948
      ],
      [
        "▁tıras",
        -10.424009602709704
      ],
      [
        "▁ydi",
        -6.934268810392528
      ],
      [
        "▁2.3",
        -9.999738725484406
      ],
      [
        "▁orlando",
        -10.374383784564625
      ],
      [
        "gım",
        -9.279565655173002
      ],
      [
        "87",
        -11.566550520542979
      ],
      [
        "▁biz",
        -8.642476297928788
      ],
      [
        "tu",
        -7.331845057643293
      ],
      [
        "▁once",
        -7.263909973176918
      ],
      [
        "4",
        -9.5754158912283
      ],
      [
        "▁cıkarır",
        -10.630779633973962
      ],
      [
        "▁oturuyor",
        -10.123079839964705
      ],
      [
        "5.7",
        -10.318971386421392
      ],
      [
        "lerdi",
        -10.730951152828887
      ],
      [
        "▁gecme",
        -8.925314948131433
      ],
      [
        "▁ların",
        -10.358136211971258
      ],
      [
        "▁yuz",
        -7.387323089183921
      ],
      [
        "▁chicago'",
        -9.329331192397662
      ],
      [
        "72",
        -10.467610741066034
      ],
      [
        "▁programını",
        -10.798123661195746
      ],
      [
        "▁dik",
        -8.84133786820156
      ],
      [
        "▁huzurlu",
        -10.474092533708607
      ],
      [
        "▁gu",
        -8.981864394541912
      ],
      [
        "▁planını",
        -10.240762304366813
      ],
      [
        "▁okulda",
        -10.38869691015074
      ],
      [
        "31",
        -10.285071516838899
      ],
      [
        "▁bizim",
        -6.222492561437722
      ],
      [
        "minal",
        -10.426863141536657
      ],
      [
        "▁kullanma",
        -9.878194797112243
      ],
      [
        "▁menkul",
        -8.17635020537487
      ],
      [
        "▁1974",
        -10.065244010153869
      ],
      [
        "▁savundu",
        -10.688641004228106
      ],
      [
        "▁lubnan",
        -10.334941244606869
      ],
      [
        "▁edemedi",
        -10.801896227350973
      ],
      [
        "▁bulan",
        -9.925063072754071
      ],
      [
        "▁iktisa",
        -10.334944650119565
      ],
      [
        "30",
        -12.083484989621075
      ],
      [
        "gına",
        -8.982831398214252
      ],
      [
        "o",
        -10.725630651579849
      ],
      [
        "▁tıp",
        -10.42816235040761
      ],
      [
        "▁padisah",
        -10.88909911721843
      ],
      [
        "▁boyut",
        -9.525038028855404
      ],
      [
        "▁tayf",
        -10.889158456166228
      ],
      [
        "▁o",
        -5.415287549922416
      ],
      [
        "▁asama",
        -9.710779101253948
      ],
      [
        "▁yen",
        -8.86459227799386
      ],
      [
        "▁var",
        -5.943726079857027
      ],
      [
        "▁piyasa",
        -7.846222840166744
      ],
      [
        "▁alman",
        -9.379543760501882
      ],
      [
        "▁donmustu",
        -10.754190247867161
      ],
      [
        "▁turkiye'de",
        -9.345182994029969
      ],
      [
        "▁vermisti",
        -10.264964543739879
      ],
      [
        "▁sorgu",
        -10.336211698890203
      ],
      [
        "▁ani",
        -9.709414503947897
      ],
      [
        "▁vurdu",
        -9.347790668773566
      ],
      [
        "sak",
        -9.361730064096678
      ],
      [
        "▁4.6",
        -10.156452873367982
      ],
      [
        "▁millet",
        -8.963817901732714
      ],
      [
        "▁hac",
        -10.389121231161223
      ],
      [
        "▁kredileri",
        -10.21400231072445
      ],
      [
        "▁aracılıgı",
        -9.8958004603744
      ],
      [
        "▁fevkalade",
        -10.688503747901109
      ],
      [
        "▁dusuncelerini",
        -10.52166826826334
      ],
      [
        "▁for",
        -10.033708255945466
      ],
      [
        "iyat",
        -10.651912295463978
      ],
      [
        "▁bekle",
        -9.284183738983455
      ],
      [
        "▁tahsil",
        -10.424163282272067
      ],
      [
        "▁cogunlugu",
        -10.533452772995041
      ],
      [
        "▁gibi",
        -4.36209696709702
      ],
      [
        "▁fiyat",
        -7.297052674454784
      ],
      [
        "▁cumle",
        -9.389443455696957
      ],
      [
        "▁gitmem",
        -10.285485486788362
      ],
      [
        "▁dokundu",
        -10.576174102058356
      ],
      [
        "errill",
        -9.791074596331587
      ],
      [
        "▁sigortacı",
        -10.144125150289295
      ],
      [
        "ti",
        -6.435322772177241
      ],
      [
        "▁goruyor",
        -9.167890586067951
      ],
      [
        "▁85",
        -10.185528823684125
      ],
      [
        "▁kot",
        -10.56054938410335
      ],
      [
        "ydı",
        -10.034324810756512
      ],
      [
        "▁kıvrıl",
        -10.579055264385806
      ],
      [
        "▁ilgilendi",
        -7.565385447792868
      ],
      [
        "▁yasında",
        -8.457392503192278
      ],
      [
        "▁kullanıla",
        -9.628778672923453
      ],
      [
        "▁bastır",
        -9.748384528170773
      ],
      [
        "▁girisim",
        -9.185938571114669
      ],
      [
        "▁bostan",
        -10.637459048934362
      ],
      [
        "▁surada",
        -10.888683670775977
      ],
      [
        "▁dairesi",
        -10.456537387278697
      ],
      [
        "aj",
        -9.225832067556528
      ],
      [
        "-4",
        -11.354791702071255
      ],
      [
        "dık",
        -9.726813630253405
      ],
      [
        "▁yolun",
        -9.735105898347065
      ],
      [
        "▁niha",
        -9.8961882752756
      ],
      [
        "ku",
        -11.295142931456333
      ],
      [
        "▁bugun",
        -7.641746555908045
      ],
      [
        "▁tesebbus",
        -10.68850374949635
      ],
      [
        "▁bekleniyor",
        -9.176738230581744
      ],
      [
        "▁kavur",
        -10.694871556078622
      ],
      [
        "▁ingilizce",
        -9.846407157084302
      ],
      [
        "lanma",
        -8.534962582287225
      ],
      [
        "▁cakı",
        -9.916660519477375
      ],
      [
        "▁550",
        -10.58675290347122
      ],
      [
        "▁yakı",
        -10.554500281676072
      ],
      [
        "▁cocuklarını",
        -10.53839223204492
      ],
      [
        "ıl",
        -8.387714995321844
      ],
      [
        "▁kolları",
        -10.542911493564892
      ],
      [
        "▁yaka",
        -8.445417824129247
      ],
      [
        "▁milli",
        -8.762751657393865
      ],
      [
        "▁depremde",
        -10.655959363577525
      ],
      [
        "▁allah",
        -9.369040220352645
      ],
      [
        "▁carsı",
        -9.96784346335869
      ],
      [
        "▁izleme",
        -9.99909393710583
      ],
      [
        "▁sembol",
        -10.57414273812531
      ],
      [
        "▁istedigimi",
        -10.610228298766033
      ],
      [
        "▁aykırı",
        -10.253275154102333
      ],
      [
        "sana",
        -10.379928442631538
      ],
      [
        "▁ahır",
        -10.692833675398932
      ],
      [
        "▁gorme",
        -9.536120551376325
      ],
      [
        "700",
        -10.653848653531371
      ],
      [
        "▁toplam",
        -8.554934339752766
      ],
      [
        "▁sorun",
        -8.140900240699487
      ],
      [
        "▁patlıcan",
        -10.010740608168588
      ],
      [
        "▁imaj",
        -10.521936082268155
      ],
      [
        "▁tab",
        -10.222844803158695
      ],
      [
        "▁anca",
        -7.684326379094095
      ],
      [
        "▁memleketi",
        -10.14141155138469
      ],
      [
        "▁verdik",
        -9.802868885713817
      ],
      [
        "▁boy",
        -9.170090228456917
      ],
      [
        "▁rus",
        -9.231766361805857
      ],
      [
        "▁gezer",
        -10.629777289619984
      ],
      [
        "▁protesto",
        -10.334941245134132
      ],
      [
        "▁far",
        -9.410704129758999
      ],
      [
        "▁aban",
        -10.58033134098785
      ],
      [
        "▁duran",
        -9.495679396963528
      ],
      [
        "▁ihtiyacları",
        -10.30962969353146
      ],
      [
        "▁degme",
        -10.288096361064873
      ],
      [
        "▁akım",
        -10.587255635149848
      ],
      [
        "▁igne",
        -9.742495696626507
      ],
      [
        "▁sıkı",
        -8.700678153919762
      ],
      [
        "▁cıktıgı",
        -10.263076436559565
      ],
      [
        ",",
        -8.8524415739513
      ],
      [
        "▁destekley",
        -10.362085949755865
      ],
      [
        "▁olanaklari",
        -8.997774714991692
      ],
      [
        "▁memleket",
        -9.890382273585361
      ],
      [
        "▁kahvaltı",
        -9.719234121213312
      ],
      [
        "▁oakland",
        -9.321270922104931
      ],
      [
        "▁yapacagı",
        -9.658857083228142
      ],
      [
        "▁kasık",
        -10.22423802052494
      ],
      [
        "▁to",
        -12.751217036694445
      ],
      [
        "▁tık",
        -9.4343748137013
      ],
      [
        "yuzseksen",
        -10.322102061271394
      ],
      [
        "▁biber",
        -10.107755308748327
      ],
      [
        "▁bitirdi",
        -10.471887823775521
      ],
      [
        "▁isyan",
        -10.060952842036762
      ],
      [
        "▁olgu",
        -9.648678895414587
      ],
      [
        "▁fal",
        -10.01162282253935
      ],
      [
        "▁beraber",
        -8.975675134427998
      ],
      [
        "▁mektep",
        -10.214832887427464
      ],
      [
        "▁montreal",
        -10.55448739935629
      ],
      [
        "▁anket",
        -8.561179208997185
      ],
      [
        "▁titriyordu",
        -10.753200150233402
      ],
      [
        "▁200",
        -8.144482062339698
      ],
      [
        "senin",
        -8.862336679571293
      ],
      [
        "▁yemegi",
        -8.908655219575856
      ],
      [
        "▁%4",
        -10.363704693096357
      ],
      [
        "▁listele",
        -8.001693679123601
      ],
      [
        "▁kut",
        -9.384279064140935
      ],
      [
        "z",
        -14.190853728377773
      ],
      [
        "▁borek",
        -10.63093405367466
      ],
      [
        "ir",
        -7.694350183988116
      ],
      [
        "%10",
        -13.63797741196559
      ],
      [
        "▁oldugumuz",
        -9.900730249680173
      ],
      [
        "▁times",
        -10.338950815941823
      ],
      [
        "▁yayıncı",
        -10.611533610360663
      ],
      [
        "▁agzın",
        -9.990101593167935
      ],
      [
        "▁dolandırıcı",
        -10.52149346484195
      ],
      [
        "▁tenha",
        -10.629815751887687
      ],
      [
        "binbir",
        -10.307879826362921
      ],
      [
        "-1",
        -12.56517605486793
      ],
      [
        "▁ornek",
        -9.128960707938784
      ],
      [
        "hepsi",
        -10.44660760275194
      ],
      [
        "▁hap",
        -9.662917481172018
      ],
      [
        "▁gordugunu",
        -10.746863858498592
      ],
      [
        "▁dir",
        -7.302651398842159
      ],
      [
        "nuz",
        -9.518044867195085
      ],
      [
        "▁tav",
        -9.65997488851878
      ],
      [
        "▁tak",
        -8.347319564320316
      ],
      [
        "▁pembe",
        -9.951047121633406
      ],
      [
        "boy",
        -10.618621469485278
      ],
      [
        "▁2.62",
        -10.62755014061802
      ],
      [
        "▁bilinc",
        -9.590842987789275
      ],
      [
        "▁koltuk",
        -9.64371086832504
      ],
      [
        "▁kurul",
        -9.449451825335784
      ],
      [
        "▁tedavi",
        -9.841336084931536
      ],
      [
        "▁donme",
        -9.291787816324362
      ],
      [
        "▁istasyon",
        -10.299214666516113
      ],
      [
        "pır",
        -10.285936051152301
      ],
      [
        "'da",
        -9.16403921981313
      ],
      [
        "malı",
        -9.21341165495867
      ],
      [
        "▁tuz",
        -8.848071037164472
      ],
      [
        "▁yaktı",
        -10.2792000170979
      ],
      [
        "▁garanti",
        -9.45776545911589
      ],
      [
        "▁ge",
        -9.06690974463786
      ],
      [
        "▁yapılması",
        -10.456714751393854
      ],
      [
        "▁otobus",
        -9.815734126542724
      ],
      [
        "▁dolasır",
        -10.301869550413812
      ],
      [
        "▁sıra",
        -8.01871663600955
      ],
      [
        "▁dusunur",
        -9.687031387913256
      ],
      [
        "▁yapılır",
        -9.8742431054061
      ],
      [
        "▁ithal",
        -10.422467248029832
      ],
      [
        "yum",
        -9.975111768299772
      ],
      [
        "▁zapt",
        -10.819419903421792
      ],
      [
        "▁ortaklık",
        -10.444657499057998
      ],
      [
        "▁hukumetin",
        -9.751692428800231
      ],
      [
        "▁etegi",
        -10.768568337595235
      ],
      [
        "▁yazıyor",
        -10.326698237347092
      ],
      [
        "▁oldu",
        -6.635919377322158
      ],
      [
        "▁duvar",
        -8.841852976379986
      ],
      [
        "▁tutacak",
        -10.757643456863875
      ],
      [
        "ıyorlar",
        -9.31656897407343
      ],
      [
        "ımı",
        -8.72275775784415
      ],
      [
        "(",
        -6.128634380103216
      ],
      [
        "▁suna",
        -10.226932259071749
      ],
      [
        "▁dururdu",
        -10.635351517175188
      ],
      [
        "▁ecekti",
        -9.815637890076928
      ],
      [
        "▁kurban",
        -9.631351096925673
      ],
      [
        "birini",
        -10.263332186223007
      ],
      [
        "▁peyniri",
        -10.523397358673755
      ],
      [
        "▁gosterdigi",
        -10.490506162729774
      ],
      [
        "▁aqua",
        -10.214813028593895
      ],
      [
        "▁menfaat",
        -10.574124727918743
      ],
      [
        "▁karsilama",
        -9.719357731665497
      ],
      [
        "trik",
        -10.311769426179026
      ],
      [
        "lugunu",
        -9.145209917538184
      ],
      [
        "▁tarafında",
        -7.425395179848694
      ],
      [
        "▁oyuncu",
        -9.457375160174884
      ],
      [
        "▁muzik",
        -9.389612087804649
      ],
      [
        "▁firmaları",
        -10.175164978238337
      ],
      [
        "▁kendiniz",
        -9.659975854683289
      ],
      [
        "2'de",
        -10.17036189759133
      ],
      [
        "▁japonya",
        -10.063763732017714
      ],
      [
        "▁inanc",
        -9.855483195212262
      ],
      [
        "▁konya",
        -10.411479371163761
      ],
      [
        "▁lake",
        -8.769402712778204
      ],
      [
        "▁yaklas",
        -10.009612221763135
      ],
      [
        "▁maas",
        -9.608800439262795
      ],
      [
        "▁islev",
        -10.727229981445126
      ],
      [
        "▁onda",
        -7.567065664976884
      ],
      [
        "▁worth'da",
        -9.94412757824544
      ],
      [
        "▁ozgurluk",
        -10.294490949910122
      ],
      [
        "abilmek",
        -9.755837955407483
      ],
      [
        "▁ureticileri",
        -9.922503388446264
      ],
      [
        "▁kıya",
        -10.523471404526875
      ],
      [
        "▁katilma",
        -9.858302519211009
      ],
      [
        "▁talih",
        -10.107628305452693
      ],
      [
        "▁makaley",
        -10.366623633217097
      ],
      [
        "▁demir",
        -8.419993028793304
      ],
      [
        "▁aptal",
        -10.17778405806347
      ],
      [
        "▁karabiber",
        -10.47149363221414
      ],
      [
        "▁filistin",
        -10.574125397532637
      ],
      [
        "▁yatırımcıları",
        -10.091809199768134
      ],
      [
        "▁degerini",
        -10.517739637831419
      ],
      [
        "▁tasarı",
        -10.481128139194269
      ],
      [
        "▁kısmını",
        -9.970418280564392
      ],
      [
        "▁maliyet",
        -9.814818098016318
      ],
      [
        "▁yabanci",
        -10.690035313122326
      ],
      [
        "▁pesinde",
        -9.772680949208443
      ],
      [
        "2",
        -9.343103933683576
      ],
      [
        "▁yasam",
        -9.03000352334523
      ],
      [
        "▁annem",
        -8.574076688058888
      ],
      [
        "▁ford",
        -10.062941727702691
      ],
      [
        "▁38",
        -9.239513639875167
      ],
      [
        "▁abd",
        -7.983024044838904
      ],
      [
        "▁sadakat",
        -10.293275133790534
      ],
      [
        "▁cesitliligi",
        -10.067425472937298
      ],
      [
        "▁jose'",
        -10.180368808324713
      ],
      [
        "▁kalite",
        -8.283401714577902
      ],
      [
        "▁uzakta",
        -9.59257606095329
      ],
      [
        "▁icki",
        -9.437303697092144
      ],
      [
        "▁tahammul",
        -10.751003761774108
      ],
      [
        "▁uygulamaları",
        -10.446648590037391
      ],
      [
        "▁tahmin",
        -8.314745638194704
      ],
      [
        ".9",
        -10.157851180970589
      ],
      [
        "▁hanım",
        -8.640589526115956
      ],
      [
        "yon",
        -8.928032174965992
      ],
      [
        "▁olumlu",
        -9.296500496608807
      ],
      [
        "▁isteyen",
        -9.373651763207896
      ],
      [
        "▁babam",
        -8.76665185154858
      ],
      [
        "cı",
        -11.34265800487346
      ],
      [
        "▁turkce",
        -9.532487728376006
      ],
      [
        "▁donuyor",
        -9.45530261323584
      ],
      [
        "▁direnc",
        -10.817691906120594
      ],
      [
        "▁international'",
        -10.566444100016907
      ],
      [
        "▁ilan",
        -9.15578935825678
      ],
      [
        "▁150",
        -8.858990735961797
      ],
      [
        "▁paris",
        -10.473533496229559
      ],
      [
        "▁un",
        -9.227054490661004
      ],
      [
        "niz",
        -10.482459069296329
      ],
      [
        "▁kabugu",
        -10.751972405029946
      ],
      [
        "▁verebilir",
        -10.519139705624175
      ],
      [
        "▁per",
        -9.452812924922704
      ],
      [
        "▁degerinde",
        -9.976981222552793
      ],
      [
        "▁borsacılar",
        -10.589138527667478
      ],
      [
        "▁sehir",
        -8.145952378168946
      ],
      [
        "▁dugun",
        -9.805585902389646
      ],
      [
        "▁cocugun",
        -9.54058405892358
      ],
      [
        "mısını",
        -9.042412961741162
      ],
      [
        "▁mi",
        -8.369418781916822
      ],
      [
        "▁dinler",
        -10.514454134177504
      ],
      [
        "▁bilmem",
        -9.6331295137549
      ],
      [
        "▁mev",
        -10.21627820987276
      ],
      [
        "-b",
        -10.709648735791163
      ],
      [
        "▁erkan",
        -10.631619959113547
      ],
      [
        "liginden",
        -9.896018005005416
      ],
      [
        "▁62",
        -9.493396921642924
      ],
      [
        "▁ayarlama",
        -10.526399073327013
      ],
      [
        "degil",
        -8.602188547895151
      ],
      [
        "▁portakal",
        -10.177775988464822
      ],
      [
        "▁ahlak",
        -9.611160963662599
      ],
      [
        "butun",
        -10.250260120426049
      ],
      [
        "▁olusturma",
        -10.424677433708144
      ],
      [
        "▁cıkar",
        -7.66864701345395
      ],
      [
        "▁degisiklikleri",
        -10.147233844464905
      ],
      [
        "▁abla",
        -9.617669581982994
      ],
      [
        "▁azalma",
        -10.618363035891257
      ],
      [
        "▁geliri",
        -9.629748977383427
      ],
      [
        "▁jose'de",
        -10.886860041979716
      ],
      [
        "▁ticarette",
        -9.639191662433637
      ],
      [
        "▁k",
        -7.934094784207783
      ],
      [
        "maları",
        -9.787354021078258
      ],
      [
        "▁dc'",
        -9.182530752669209
      ],
      [
        "▁birbirlerini",
        -8.697935612590925
      ],
      [
        "▁2.4",
        -9.51132940065262
      ],
      [
        "▁evvel",
        -9.570184435141998
      ],
      [
        "▁dort",
        -6.461747336534862
      ],
      [
        "▁isten",
        -9.255124994763671
      ],
      [
        "▁onde",
        -9.638513546920247
      ],
      [
        "▁yemeklerini",
        -10.370533803356222
      ],
      [
        "▁kısın",
        -10.263662343999831
      ],
      [
        "▁'lu",
        -10.01260217427646
      ],
      [
        "▁fransızca",
        -10.57946405524164
      ],
      [
        "▁gozleri",
        -8.405770310489933
      ],
      [
        "▁oldugunu",
        -8.734847030904774
      ],
      [
        "▁dusundu",
        -9.084162619697484
      ],
      [
        "▁fenerbahce",
        -10.521493086096273
      ],
      [
        "▁cihan",
        -10.295850735011054
      ],
      [
        "▁mute",
        -9.856487826282171
      ],
      [
        "▁sekil",
        -9.739903777052938
      ],
      [
        "▁gercegi",
        -10.084480063739164
      ],
      [
        "▁artırma",
        -9.789247485637956
      ],
      [
        "▁pabuc",
        -10.751034435040095
      ],
      [
        "▁7\\/",
        -8.72073896077232
      ],
      [
        "▁guzel",
        -6.479588680678069
      ],
      [
        "▁der",
        -8.434719612321631
      ],
      [
        "▁bog",
        -9.18802367616361
      ],
      [
        "▁capında",
        -9.895514274910628
      ],
      [
        "unda",
        -9.003503406792953
      ],
      [
        "▁kanal",
        -9.831223518454408
      ],
      [
        "▁kapali",
        -10.295796999378204
      ],
      [
        "▁yosun",
        -10.819279598916452
      ],
      [
        "lastırma",
        -9.8681402848762
      ],
      [
        "▁sırasında",
        -9.533579002215951
      ],
      [
        "▁gorebilir",
        -10.691278094119106
      ],
      [
        "▁merdiven",
        -9.389362599826862
      ],
      [
        "▁nisan'da",
        -10.337544093103073
      ],
      [
        "▁kolay",
        -8.406438244619046
      ],
      [
        "▁faktor",
        -10.074312648661746
      ],
      [
        "▁sikinti",
        -9.091408238159492
      ],
      [
        "▁birisi",
        -7.911313708072835
      ],
      [
        "▁vitrin",
        -10.889114567828878
      ],
      [
        "▁sayılı",
        -10.24403010561113
      ],
      [
        "▁musun",
        -8.285459285682773
      ],
      [
        "▁domuz",
        -10.84471690075965
      ],
      [
        "▁secenegi",
        -10.521505644869773
      ],
      [
        "li",
        -8.963794952668183
      ],
      [
        "▁1.25",
        -10.228792362022869
      ],
      [
        "▁vermek",
        -8.564093889660125
      ],
      [
        "▁ne",
        -6.285015399419244
      ],
      [
        "▁halkı",
        -9.732760809574803
      ],
      [
        "▁organ",
        -9.674805686717395
      ],
      [
        "ap",
        -10.192721962100757
      ],
      [
        "▁heves",
        -10.010741620993052
      ],
      [
        "o",
        -4.4249591214071105
      ],
      [
        "▁acılı",
        -10.145448614436022
      ],
      [
        "▁goruluyor",
        -10.332145456019944
      ],
      [
        "▁ist",
        -9.750205657333565
      ],
      [
        "rası",
        -10.607892597440218
      ],
      [
        "▁milyon",
        -5.185931877072128
      ],
      [
        "▁19.",
        -10.17752749623879
      ],
      [
        "▁isciler",
        -9.951691801738809
      ],
      [
        "lıg",
        -9.182204790918746
      ],
      [
        "▁kalır",
        -9.44867899853152
      ],
      [
        "▁almanya",
        -10.14261752550019
      ],
      [
        "tif",
        -9.538208631774086
      ],
      [
        "▁universitesi'n",
        -10.744305311410448
      ],
      [
        "▁faturam",
        -9.054197879896353
      ],
      [
        "3.7",
        -9.817076998536024
      ],
      [
        "▁temizligi",
        -8.060376852666197
      ],
      [
        "▁9.5",
        -10.984718836568197
      ],
      [
        "▁imzaladı",
        -10.633482455370217
      ],
      [
        "▁ve",
        -2.9561960527091937
      ],
      [
        "san",
        -8.617914690386772
      ],
      [
        "▁bilmiyordu",
        -10.756938638149691
      ],
      [
        "▁ayar",
        -9.989344738653692
      ],
      [
        "yle",
        -8.001576640012933
      ],
      [
        "▁bunlar",
        -6.623126046805661
      ],
      [
        "▁yaptirdi",
        -9.020448654098683
      ],
      [
        "▁trust",
        -10.293280369503004
      ],
      [
        "▁1980",
        -9.541001181325427
      ],
      [
        "▁dusurdu",
        -10.18918616533817
      ],
      [
        "den",
        -8.05560578784303
      ],
      [
        "▁louis'te",
        -10.281580973330303
      ],
      [
        "▁moskova",
        -10.37841949224565
      ],
      [
        "▁iki",
        -4.84812175613624
      ],
      [
        "▁karsılastı",
        -9.942523559443398
      ],
      [
        "▁yukseliyor",
        -10.61003020874944
      ],
      [
        "▁oysa",
        -8.598002639171483
      ],
      [
        "▁ilgisi",
        -9.21930280328067
      ],
      [
        "▁yonu",
        -10.001649489394222
      ],
      [
        "▁kırı",
        -9.565119317586063
      ],
      [
        "▁oper",
        -10.427275403960282
      ],
      [
        "▁gıda",
        -10.042244863516785
      ],
      [
        "▁genc",
        -7.837186618139456
      ],
      [
        "▁dunyasında",
        -10.625185824800715
      ],
      [
        "2.2",
        -10.75475064867124
      ],
      [
        "▁muhabir",
        -10.521520006016045
      ],
      [
        "▁inani",
        -10.41624711345229
      ],
      [
        "▁mutfak",
        -10.37842012467873
      ],
      [
        "▁cogunlukla",
        -10.143933506943421
      ],
      [
        "▁4.3",
        -10.31314309105346
      ],
      [
        "ve",
        -5.892970926178803
      ],
      [
        "▁alakaliydi",
        -10.381141778868187
      ],
      [
        "▁kesi",
        -9.36270829341288
      ],
      [
        "▁electric",
        -10.817670414576694
      ],
      [
        "▁deneme",
        -9.195190818358629
      ],
      [
        "on'un",
        -10.010007994208618
      ],
      [
        "▁40.1",
        -11.018623284439725
      ],
      [
        "▁denk",
        -9.77119463229766
      ],
      [
        "▁hedefi",
        -10.244629177028116
      ],
      [
        "▁mc",
        -9.337514172349525
      ],
      [
        "gu",
        -7.584176257484276
      ],
      [
        "midi",
        -10.234213056908338
      ],
      [
        "▁bagır",
        -9.335387435175683
      ],
      [
        "▁dalgın",
        -10.335080080839102
      ],
      [
        "▁muduru",
        -9.289275069447221
      ],
      [
        "▁surecek",
        -10.613475493623124
      ],
      [
        "niz",
        -8.044469973543263
      ],
      [
        "▁birileri",
        -9.482485129175965
      ],
      [
        "olar",
        -7.153116283606411
      ],
      [
        "▁dizi",
        -9.08834048262516
      ],
      [
        "▁sahipti",
        -10.165434574733965
      ],
      [
        "▁ugrama",
        -10.839049722630719
      ],
      [
        "▁gelsin",
        -10.256691902676682
      ],
      [
        "▁fransız",
        -9.491996611680264
      ],
      [
        "mal",
        -9.789795261194353
      ],
      [
        "▁murat",
        -9.9811752600633
      ],
      [
        "▁durumlarda",
        -10.641726003783782
      ],
      [
        "▁kirpikleri",
        -10.694764454386116
      ],
      [
        "▁yonelikti",
        -10.701561205098532
      ],
      [
        "▁kazanıyor",
        -10.40764187204166
      ],
      [
        "▁ici",
        -8.483524967772741
      ],
      [
        "hi",
        -8.616722254642493
      ],
      [
        "herkes",
        -10.46722621044187
      ],
      [
        "▁700.",
        -10.888247410819082
      ],
      [
        "yedi",
        -8.957221228301936
      ],
      [
        "degili",
        -11.009634623297783
      ],
      [
        "▁arastırma",
        -8.747177360936746
      ],
      [
        "▁yaptıgını",
        -9.859111956330482
      ],
      [
        "▁yazık",
        -10.117258731433246
      ],
      [
        "▁gizle",
        -10.38158387258862
      ],
      [
        "87.5",
        -10.15696652924954
      ],
      [
        "▁city'de",
        -9.180512405700577
      ],
      [
        "yı",
        -6.455559314998269
      ],
      [
        "▁dunyada",
        -9.295938181151582
      ],
      [
        "▁alır",
        -8.818305882787577
      ],
      [
        "▁fatura",
        -9.679715932414098
      ],
      [
        "▁sci",
        -10.698403994697088
      ],
      [
        "▁yolu",
        -8.619671921373829
      ],
      [
        "▁yargı",
        -9.378076521979015
      ],
      [
        "baska",
        -10.751556531041588
      ],
      [
        "▁dinlemek",
        -10.402837634050679
      ],
      [
        "▁198",
        -6.9751098025940985
      ],
      [
        "▁bile",
        -6.92368124368375
      ],
      [
        "saydı",
        -10.06428145685213
      ],
      [
        "▁cephe",
        -10.107606246438362
      ],
      [
        "zi",
        -8.737104655733056
      ],
      [
        "▁ad",
        -8.444900142286716
      ],
      [
        "▁sesi",
        -8.899648365038349
      ],
      [
        "▁vergisi",
        -10.249625216022942
      ],
      [
        "▁damga",
        -10.629800434486334
      ],
      [
        "▁arastır",
        -10.061778218295784
      ],
      [
        "▁tu",
        -8.589763158792206
      ],
      [
        "▁secenekleri",
        -10.60993591897202
      ],
      [
        "▁canı",
        -9.950573602283153
      ],
      [
        "▁oburu",
        -9.457000074137701
      ],
      [
        "▁sopa",
        -10.818299155812609
      ],
      [
        "▁beri",
        -9.089021479616731
      ],
      [
        "▁doru",
        -10.630278352032592
      ],
      [
        "▁78",
        -10.25065034304559
      ],
      [
        "▁et",
        -8.122474839755368
      ],
      [
        "▁da",
        -8.077974166631352
      ],
      [
        "▁neresin",
        -10.696300307717065
      ],
      [
        "▁peri",
        -10.16784523576015
      ],
      [
        "▁sauna",
        -9.816595618896043
      ],
      [
        "▁yerde",
        -8.188705417868213
      ],
      [
        "▁ellerinde",
        -9.50278842023261
      ],
      [
        "▁elini",
        -9.102965542093251
      ],
      [
        "▁hatırlıyor",
        -10.703164232398006
      ],
      [
        "▁sor",
        -9.320124468549352
      ],
      [
        "▁long",
        -9.815746105418082
      ],
      [
        "▁burcu",
        -10.338690433510907
      ],
      [
        "onlar",
        -9.411444122687692
      ],
      [
        "▁ipoteg",
        -10.751004131470093
      ],
      [
        "larını",
        -6.378669490975284
      ],
      [
        "▁23.",
        -10.550791494771145
      ],
      [
        "▁devre",
        -9.771982008136268
      ],
      [
        "ucu",
        -9.522373099117019
      ],
      [
        "▁alıcılar",
        -10.350297822306349
      ],
      [
        "▁personellerin",
        -9.33382482390607
      ],
      [
        "▁donuk",
        -10.093668799517836
      ],
      [
        "▁nobet",
        -10.685392848860385
      ],
      [
        "▁cıkma",
        -9.066464085869008
      ],
      [
        "▁olumsuz",
        -9.551079093794424
      ],
      [
        "▁ilk",
        -6.955808584260359
      ],
      [
        "-199",
        -12.825449727997478
      ],
      [
        "▁gorunuyor",
        -9.027715345865312
      ],
      [
        "▁$'",
        -9.043500246050431
      ],
      [
        "▁bosa",
        -9.966386632322507
      ],
      [
        "▁gelmeye",
        -10.445840567692962
      ],
      [
        "▁tırnak",
        -10.471494337620253
      ],
      [
        "▁.",
        -7.588598483541113
      ],
      [
        "▁pilot",
        -9.760858847611331
      ],
      [
        "▁donemi",
        -9.98820007101614
      ],
      [
        "▁mon",
        -9.802409041399743
      ],
      [
        "▁herkeste",
        -9.96599783763588
      ],
      [
        "▁psikoloji",
        -10.88909900829319
      ],
      [
        "▁tabir",
        -10.465194559159581
      ],
      [
        "▁va",
        -8.621923092131443
      ],
      [
        "bilecek",
        -10.268718911108408
      ],
      [
        "▁sordu",
        -8.847382658038043
      ],
      [
        "▁ba",
        -8.061565120220624
      ],
      [
        "▁ekstra",
        -10.471494142883367
      ],
      [
        "1",
        -6.878332744407709
      ],
      [
        "▁cekmek",
        -10.045694419251838
      ],
      [
        "ington",
        -10.523128268698162
      ],
      [
        "▁stokları",
        -10.196963697609755
      ],
      [
        "▁hos",
        -8.823651827049638
      ],
      [
        "▁bardagı",
        -9.74282434060833
      ],
      [
        "d",
        -5.077362734358636
      ],
      [
        "meyecegi",
        -9.54866670619592
      ],
      [
        "▁bulma",
        -9.737677579245364
      ],
      [
        "go",
        -8.91888195779987
      ],
      [
        "di",
        -5.58851982271563
      ],
      [
        "▁egilimi",
        -10.819276709750135
      ],
      [
        "▁pas",
        -9.394632498307008
      ],
      [
        "▁160",
        -10.2698148189397
      ],
      [
        "▁dolara",
        -8.418868927577241
      ],
      [
        "larımızı",
        -9.153370460235159
      ],
      [
        "▁bakkal",
        -10.25347061615112
      ],
      [
        "▁36",
        -9.558374476628076
      ],
      [
        "▁15000",
        -10.523997784269115
      ],
      [
        "▁500",
        -8.369384007022514
      ],
      [
        "▁edip",
        -9.130005084203564
      ],
      [
        "▁muhendis",
        -9.74249080076261
      ],
      [
        "▁bulasık",
        -10.889122420832994
      ],
      [
        "▁houston'da",
        -9.821939590980213
      ],
      [
        "▁gerektiren",
        -10.81768397175211
      ],
      [
        "▁bulama",
        -9.377108561388752
      ],
      [
        "[CLS]",
        0.0
      ],
      [
        "▁hakkında",
        -7.859874816286481
      ],
      [
        "▁degisiklikler",
        -9.722673752880308
      ],
      [
        "▁kırk",
        -7.941980051663087
      ],
      [
        "▁ince",
        -7.9947533735591785
      ],
      [
        "▁siz",
        -6.276467912461138
      ],
      [
        "198",
        -13.651276886405913
      ],
      [
        "▁roman",
        -9.182622148526011
      ],
      [
        "▁kendinizi",
        -9.064126104649338
      ],
      [
        "▁99",
        -9.95661725335496
      ],
      [
        "▁beni",
        -6.136918772172587
      ],
      [
        "6.9",
        -10.490354933540225
      ],
      [
        "▁142.",
        -10.684765078100533
      ],
      [
        "▁gelecegini",
        -10.527597778008147
      ],
      [
        "▁sular",
        -9.790409828762778
      ],
      [
        "▁um",
        -9.795441578913426
      ],
      [
        "4000",
        -10.33227685369215
      ],
      [
        "▁almıs",
        -9.253210330599266
      ],
      [
        "l",
        -6.217016596249758
      ],
      [
        "▁sustu",
        -10.643723188583145
      ],
      [
        "ren",
        -8.67208098952975
      ],
      [
        "▁sezonu",
        -10.746835739700222
      ],
      [
        "▁gul",
        -8.216997852613423
      ],
      [
        "▁cumhuriyeti",
        -10.221539979387195
      ],
      [
        "▁faaliyet",
        -8.971711314591722
      ],
      [
        "▁8",
        -9.93327247929878
      ],
      [
        "diler",
        -9.765298234363025
      ],
      [
        "▁on",
        -8.09825374244956
      ],
      [
        "le",
        -5.901752649258973
      ],
      [
        "▁uret",
        -8.90910024584688
      ],
      [
        "▁kriz",
        -9.732284952974739
      ],
      [
        "▁olabilecegini",
        -9.929018536590396
      ],
      [
        "▁mu",
        -8.087440077312547
      ],
      [
        "▁cogu",
        -7.787547373785652
      ],
      [
        "▁gelmiyor",
        -10.476229510538726
      ],
      [
        "▁serseri",
        -10.629699200695159
      ],
      [
        "▁37.",
        -10.039857345937577
      ],
      [
        "▁fo",
        -9.666610988658622
      ],
      [
        "yla",
        -6.818437337461877
      ],
      [
        "250000",
        -9.683004935867471
      ],
      [
        "▁gecikme",
        -9.868096573372434
      ],
      [
        "▁toplu",
        -10.179097809385649
      ],
      [
        "▁maden",
        -9.761503839453258
      ],
      [
        "▁degilse",
        -8.67508121348586
      ],
      [
        "▁ikram",
        -10.253246388690263
      ],
      [
        "▁numara",
        -8.57569303369304
      ],
      [
        "'te",
        -8.749663191370404
      ],
      [
        "▁vurmus",
        -10.652291954431536
      ],
      [
        "▁doları",
        -8.363114253897972
      ],
      [
        "▁borsası",
        -8.881173914243128
      ],
      [
        "▁turu",
        -10.103444840645125
      ],
      [
        "▁56",
        -10.807443123191756
      ],
      [
        "oyu",
        -10.825250138469526
      ],
      [
        "▁tah",
        -9.572316273841155
      ],
      [
        "▁soguktu",
        -9.82319657849762
      ],
      [
        "altı",
        -9.67109741420516
      ],
      [
        "@",
        -12.809526790838989
      ],
      [
        "▁kur",
        -8.580715257192878
      ],
      [
        "▁hukum",
        -9.549629911703535
      ],
      [
        "▁oyuncular",
        -10.114788603181688
      ],
      [
        "▁karnı",
        -10.305534514113786
      ],
      [
        "▁ceviz",
        -10.334956858450322
      ],
      [
        "▁cakmak",
        -10.817688454403454
      ],
      [
        "▁bulun",
        -8.355433502188315
      ],
      [
        "▁dilim",
        -9.607766052755228
      ],
      [
        "▁yukarıda",
        -10.317133105498685
      ],
      [
        "▁surdurdu",
        -10.752936895144542
      ],
      [
        "▁basar",
        -9.447729356443782
      ],
      [
        "isinda",
        -9.200735552629801
      ],
      [
        "▁telgraf",
        -10.471493085779914
      ],
      [
        "▁arz",
        -9.453610705625541
      ],
      [
        "▁islemlerde",
        -10.108114761183872
      ],
      [
        "▁alanı",
        -10.136674784089031
      ],
      [
        "la",
        -7.417516293723048
      ],
      [
        "verir",
        -10.28687761433984
      ],
      [
        "▁lehman",
        -10.335223899487731
      ],
      [
        "▁ceviri",
        -10.020959828365912
      ],
      [
        "▁bunun",
        -6.1361933051979545
      ],
      [
        "en",
        -7.834124913301681
      ],
      [
        "▁353",
        -10.9188003513503
      ],
      [
        "▁kurdu",
        -9.428022672394711
      ],
      [
        "▁geriledi",
        -9.602159636646666
      ],
      [
        "▁alıskanlık",
        -10.889104159793606
      ],
      [
        "▁deneyim",
        -9.657997720017711
      ],
      [
        "▁thatcher",
        -10.81767041466448
      ],
      [
        "▁malzemeler",
        -9.974776916868679
      ],
      [
        "▁ce",
        -10.279692747770051
      ],
      [
        "▁mah",
        -9.07935768735598
      ],
      [
        "▁1.57",
        -10.304493896230325
      ],
      [
        "▁otele",
        -9.756491544301081
      ],
      [
        "▁hasarı",
        -10.659285085627129
      ],
      [
        "76",
        -9.922494579454352
      ],
      [
        "izm",
        -9.416770415692756
      ],
      [
        "▁ayrıldı",
        -9.698752772758827
      ],
      [
        "▁57",
        -8.71809689298287
      ],
      [
        "▁dahil",
        -8.74803609064581
      ],
      [
        "▁cent",
        -8.864544991519534
      ],
      [
        "▁yonetme",
        -9.947868812278001
      ],
      [
        "▁birlesi",
        -9.704847085365941
      ],
      [
        "▁acısın",
        -9.553481255427654
      ],
      [
        "a",
        -3.993233274470425
      ],
      [
        "▁kez",
        -8.145073823269154
      ],
      [
        "▁hepsini",
        -7.524949703003487
      ],
      [
        "▁icin",
        -8.758185516859182
      ],
      [
        "▁dengeli",
        -10.491002864780718
      ],
      [
        "▁tipi",
        -9.391884688237079
      ],
      [
        "▁dortyuz",
        -10.328547290058722
      ],
      [
        "▁icini",
        -10.235253120972633
      ],
      [
        "▁takımı",
        -9.672087356258873
      ],
      [
        "▁calıs",
        -9.07074227769592
      ],
      [
        "▁savas",
        -8.635287500683862
      ],
      [
        "▁vardı",
        -7.620628865855461
      ],
      [
        "▁getir",
        -8.84635586038371
      ],
      [
        "▁elleri",
        -9.158888050913102
      ],
      [
        "▁bulbul",
        -10.293340578209214
      ],
      [
        "▁gununde",
        -10.785726191799315
      ],
      [
        "▁kentin",
        -10.112561917116741
      ],
      [
        "▁tutma",
        -9.55995132057108
      ],
      [
        "▁yani",
        -6.940966782202292
      ],
      [
        "kl",
        -10.728123182460942
      ],
      [
        "▁okuyan",
        -10.294857784791503
      ],
      [
        "eci",
        -11.809606674317426
      ],
      [
        "▁kapasite",
        -10.18370958513742
      ],
      [
        "▁ceza",
        -8.901591744280498
      ],
      [
        "dir",
        -6.135465397271513
      ],
      [
        "▁yigit",
        -10.817671180152828
      ],
      [
        "▁sistemleri",
        -10.320141577187544
      ],
      [
        "▁konusu",
        -8.858288025660917
      ],
      [
        "▁genclik",
        -10.353582183443738
      ],
      [
        ".5'",
        -10.422330684955423
      ],
      [
        "▁mucevher",
        -10.688503748326447
      ],
      [
        "▁istanbul",
        -9.173459040666378
      ],
      [
        "▁fırın",
        -9.911961109206139
      ],
      [
        "▁basım",
        -9.558068966022635
      ],
      [
        "▁mulkiyet",
        -10.529156478669924
      ],
      [
        "▁adı",
        -8.703099848130027
      ],
      [
        "daki",
        -8.06277461708427
      ],
      [
        "▁gotur",
        -9.245743858320788
      ],
      [
        "▁18.7",
        -10.655048398053445
      ],
      [
        "▁anne",
        -8.77699490023841
      ],
      [
        "ip",
        -7.606095423406283
      ],
      [
        "▁husus",
        -9.610648647804798
      ],
      [
        "▁gelenek",
        -9.654086316291107
      ],
      [
        "▁dudakları",
        -9.938215334145738
      ],
      [
        "▁alcal",
        -10.832376363993696
      ],
      [
        "▁kesfed",
        -10.88910738005876
      ],
      [
        "▁edin",
        -8.940727028787585
      ],
      [
        "▁ti",
        -6.777248598015956
      ],
      [
        "▁amac",
        -8.957653428878139
      ],
      [
        "▁karayolu",
        -8.504989919812232
      ],
      [
        "▁anlatı",
        -9.893803310198006
      ],
      [
        "▁eve",
        -8.081734060187923
      ],
      [
        "lar",
        -4.917116846305177
      ],
      [
        "▁poli",
        -10.325240155230333
      ],
      [
        "▁seyi",
        -8.663923776891192
      ],
      [
        "birinde",
        -9.596124906648416
      ],
      [
        "▁burnu",
        -10.107843196185504
      ],
      [
        "▁degildi",
        -4.719105511077978
      ],
      [
        "d",
        -9.781817406421387
      ],
      [
        "▁sezlong",
        -10.42387416955653
      ],
      [
        "▁doga",
        -9.056708114335052
      ],
      [
        "▁kadınlar",
        -8.783563107225262
      ],
      [
        "▁beklen",
        -9.885151863446886
      ],
      [
        "▁ortalaması",
        -10.477936998161448
      ],
      [
        "▁100",
        -7.323281198345844
      ],
      [
        "▁resepsiyon",
        -10.33494123125793
      ],
      [
        "▁parlamento",
        -10.423874131067052
      ],
      [
        "▁hapis",
        -10.573488002770173
      ],
      [
        "▁2.2",
        -9.85626684278712
      ],
      [
        "▁ısıgı",
        -10.008835131106586
      ],
      [
        "▁1995",
        -10.41751969051543
      ],
      [
        "▁deney",
        -9.58522356082658
      ],
      [
        "▁katilmadi",
        -10.287119450927657
      ],
      [
        "▁hisseleri",
        -8.531582972348879
      ],
      [
        "▁yumurta",
        -9.475622089425162
      ],
      [
        "▁worth'",
        -10.322833003736287
      ],
      [
        ".4",
        -10.830378826620755
      ],
      [
        "▁saskın",
        -9.922554263378876
      ],
      [
        "6'",
        -9.40386702679519
      ],
      [
        "▁acılan",
        -10.21016332467596
      ],
      [
        "hal",
        -9.484452190906307
      ],
      [
        "▁urunleri",
        -9.12993165275459
      ],
      [
        "▁katında",
        -10.416865420347538
      ],
      [
        "hat",
        -7.202131608975829
      ],
      [
        "ecektir",
        -9.665946861735963
      ],
      [
        "▁dil",
        -8.354065342370372
      ],
      [
        "▁barıs",
        -9.310786197687538
      ],
      [
        "ime",
        -9.403102174667204
      ],
      [
        "yesinde",
        -9.645686619412842
      ],
      [
        "▁kalmadı",
        -9.738404972206
      ],
      [
        "7.1",
        -11.020553119748977
      ],
      [
        "▁profesor",
        -10.253275531518064
      ],
      [
        "▁bahseder",
        -9.47579104045405
      ],
      [
        "▁polis",
        -9.29372570804238
      ],
      [
        "▁bor",
        -9.631180366097595
      ],
      [
        "▁donusu",
        -9.96882319616873
      ],
      [
        "▁izliyor",
        -10.151111913321563
      ],
      [
        "▁alamıyor",
        -10.888660775641357
      ],
      [
        "▁kamp",
        -10.142685552388297
      ],
      [
        "▁kan",
        -8.337108475575775
      ],
      [
        "▁3\\/",
        -8.417597687511622
      ],
      [
        "tur",
        -7.886228925077593
      ],
      [
        "▁124",
        -10.122175096116324
      ],
      [
        "▁memur",
        -9.284244250347577
      ],
      [
        "▁bagımsız",
        -9.440255357679042
      ],
      [
        "▁icti",
        -9.65045997193952
      ],
      [
        "▁ismi",
        -9.86269935968259
      ],
      [
        "▁hukumdar",
        -10.751782812307646
      ],
      [
        "▁turkiye",
        -8.695942301703798
      ],
      [
        "▁mesgul",
        -10.142080304312735
      ],
      [
        "▁kuralları",
        -10.24424979582082
      ],
      [
        "▁alına",
        -9.72543155638705
      ],
      [
        "▁cep",
        -9.364810683512694
      ],
      [
        "▁dalı",
        -10.276744853088415
      ],
      [
        "▁oldurme",
        -10.384732778679549
      ],
      [
        "▁degistir",
        -8.935279551181498
      ],
      [
        "▁turkler",
        -9.952823545654246
      ],
      [
        "▁fark",
        -8.567896864875523
      ],
      [
        "▁eden",
        -7.857166338316331
      ],
      [
        "▁orgu",
        -10.628950461644571
      ],
      [
        "▁olmalıdır",
        -10.481260726726017
      ],
      [
        "▁3/4'",
        -10.68850376464209
      ],
      [
        "▁gelebilir",
        -10.636841022830765
      ],
      [
        "▁mevzuat",
        -10.294111097907482
      ],
      [
        "'ın",
        -7.25669744323783
      ],
      [
        "▁parmak",
        -9.321371484120068
      ],
      [
        "ı",
        -11.30808334001589
      ],
      [
        "▁imkanlari",
        -8.986770943484927
      ],
      [
        "landıgını",
        -10.138677179634268
      ],
      [
        "▁madde",
        -8.700368233834544
      ],
      [
        "▁yetkilileri",
        -8.812606844023707
      ],
      [
        "▁koruma",
        -9.884479395242819
      ],
      [
        "▁sis",
        -9.222960276730753
      ],
      [
        "▁hata",
        -9.199989073598328
      ],
      [
        "▁golge",
        -9.104153063061128
      ],
      [
        "▁oteki",
        -9.575859676398903
      ],
      [
        "▁surdu",
        -9.646675967911133
      ],
      [
        "dır",
        -6.723396107358678
      ],
      [
        "▁basvur",
        -9.962132407726134
      ],
      [
        "▁olsun",
        -8.156979777045638
      ],
      [
        "▁kadeh",
        -10.10761250050749
      ],
      [
        ":0",
        -10.853066509912104
      ],
      [
        "▁john",
        -9.790484771218495
      ],
      [
        "birlikte",
        -10.864049484981738
      ],
      [
        "dı",
        -6.432901665981324
      ],
      [
        "▁hesap",
        -8.764049097038662
      ],
      [
        "▁gosterir",
        -9.725342329544336
      ],
      [
        "dar",
        -8.461438437649145
      ],
      [
        "▁ko",
        -8.673237025563058
      ],
      [
        "▁75",
        -9.659339365804398
      ],
      [
        "ıyla",
        -8.230585959435995
      ],
      [
        "▁ayda",
        -10.01045466488932
      ],
      [
        "▁alıs",
        -9.342943051884273
      ],
      [
        "layınca",
        -10.38778890794103
      ],
      [
        "▁ucagın",
        -9.69774881810481
      ],
      [
        "▁3.3",
        -9.971517416991915
      ],
      [
        "▁turizm",
        -10.753395061300674
      ],
      [
        "▁hızı",
        -10.211355443566216
      ],
      [
        "▁esit",
        -9.55788568344024
      ],
      [
        "▁harp",
        -10.053633521362693
      ],
      [
        "▁bil",
        -8.711921099422955
      ],
      [
        "dıgını",
        -8.246037365990563
      ],
      [
        "▁tenis",
        -10.818012556499815
      ],
      [
        "i",
        -9.483528417945884
      ],
      [
        "▁sutu",
        -10.25708836871966
      ],
      [
        "mus",
        -7.420619994540679
      ],
      [
        "irdi",
        -9.567450318094572
      ],
      [
        "▁atar",
        -9.997167527748623
      ],
      [
        "▁konusunda",
        -8.022827493569926
      ],
      [
        "bi",
        -10.77375915330737
      ],
      [
        "▁yeni",
        -6.426881078787231
      ],
      [
        "▁saglıgı",
        -10.112285514644746
      ],
      [
        "▁mantıklı",
        -10.527886426875984
      ],
      [
        "%9",
        -12.047781401844519
      ],
      [
        "lerinin",
        -7.603896919304623
      ],
      [
        "▁beklentimi",
        -10.368272402762425
      ],
      [
        "▁sana",
        -7.031446902661547
      ],
      [
        "▁meze",
        -10.63406661679931
      ],
      [
        "▁vardi",
        -7.968382493571337
      ],
      [
        "▁or",
        -8.783983145324335
      ],
      [
        "s",
        -9.016033344580624
      ],
      [
        "yorlar",
        -9.577084733621096
      ],
      [
        "▁isveren",
        -10.889138959752625
      ],
      [
        "▁suyu",
        -9.017817265764783
      ],
      [
        "▁kaste",
        -10.443307605598548
      ],
      [
        "▁anlasılma",
        -10.423904828021085
      ],
      [
        "▁gene",
        -9.001279044003184
      ],
      [
        "▁jandarma",
        -10.751003752606405
      ],
      [
        "▁parca",
        -8.569789253535472
      ],
      [
        "▁bosuna",
        -10.819666833062705
      ],
      [
        "▁dostluk",
        -10.63318634940632
      ],
      [
        "▁duzeyde",
        -10.63936355134772
      ],
      [
        "▁yayınladı",
        -10.744450514064619
      ],
      [
        "▁tat",
        -10.334642251081442
      ],
      [
        "▁top",
        -8.249806501070461
      ],
      [
        "▁londra",
        -9.917357478745064
      ],
      [
        "▁yukseltti",
        -10.195835018803198
      ],
      [
        "▁sayısını",
        -10.2563044375443
      ],
      [
        "▁2004",
        -10.069273962779134
      ],
      [
        "▁'li",
        -9.48474627959969
      ],
      [
        "▁dagıtım",
        -10.354558441812776
      ],
      [
        "▁bes",
        -6.145071177220371
      ],
      [
        "mayacak",
        -8.873775624192632
      ],
      [
        "ken",
        -8.05548715991957
      ],
      [
        "▁kriz",
        -10.56854697476653
      ],
      [
        "te",
        -6.78927239663252
      ],
      [
        "▁sesleri",
        -9.710011217357346
      ],
      [
        "▁yaklası",
        -7.751527077944115
      ],
      [
        "▁kira",
        -9.149063254655854
      ],
      [
        "▁andır",
        -10.030061472919419
      ],
      [
        ".4",
        -10.0469752426771
      ],
      [
        "▁oyuncak",
        -10.25405309973077
      ],
      [
        "▁belirgin",
        -10.763053101962184
      ],
      [
        "▁hak",
        -8.752435305584662
      ],
      [
        "▁kenar",
        -9.397472382092069
      ],
      [
        "▁altmıs",
        -9.585953801299627
      ],
      [
        "▁haklı",
        -9.756570762582566
      ],
      [
        "▁tedirgin",
        -10.47149599957068
      ],
      [
        "▁express",
        -9.951022750677215
      ],
      [
        "▁ideoloji",
        -10.214813094708262
      ],
      [
        "▁1.1",
        -9.139451599402937
      ],
      [
        "▁tasıdı",
        -10.273761469041075
      ],
      [
        "▁bul",
        -7.970692714516277
      ],
      [
        "▁bosal",
        -9.70768369995469
      ],
      [
        "▁kosar",
        -10.38387524716119
      ],
      [
        "▁g",
        -11.181084115905492
      ],
      [
        "▁bozuk",
        -9.841845264130711
      ],
      [
        "▁edil",
        -9.83335394842478
      ],
      [
        "▁19",
        -9.328962958017108
      ],
      [
        "▁sarar",
        -10.477495545844391
      ],
      [
        "▁devir",
        -9.359754680472166
      ],
      [
        "▁halı",
        -10.236797677564919
      ],
      [
        "oksa",
        -8.161319445537565
      ],
      [
        "7.4",
        -10.58917267964815
      ],
      [
        "▁ulasan",
        -10.47450316536479
      ],
      [
        "▁sayılır",
        -10.374659598834867
      ],
      [
        "▁karısı",
        -9.464333590728575
      ],
      [
        "▁kıvır",
        -10.751003877233792
      ],
      [
        "du",
        -6.38353737342458
      ],
      [
        "▁alt",
        -8.853778980841685
      ],
      [
        "▁uyelerini",
        -10.786234451215277
      ],
      [
        "▁sogut",
        -10.443632705642218
      ],
      [
        "▁olmasi",
        -8.7304724059313
      ],
      [
        "▁doldur",
        -9.207943870314894
      ],
      [
        "▁islem",
        -8.294074838440174
      ],
      [
        "▁usul",
        -9.817693830331805
      ],
      [
        "▁houston'",
        -9.616510898661042
      ],
      [
        "▁babamı",
        -9.969890481591333
      ],
      [
        "▁lisan",
        -10.746541108190554
      ],
      [
        "▁196",
        -9.219426224782298
      ],
      [
        "▁sebze",
        -10.177776927924906
      ],
      [
        "▁ocagı",
        -9.719837023368768
      ],
      [
        "▁ajansı",
        -10.401099392479711
      ],
      [
        "yordu",
        -8.599788741484879
      ],
      [
        "▁herkesin",
        -9.661811396301244
      ],
      [
        "▁urkut",
        -10.889106395843289
      ],
      [
        "▁alabilir",
        -9.260914237717966
      ],
      [
        "▁1.59",
        -10.642903663124859
      ],
      [
        "▁adayı",
        -10.590695132984543
      ],
      [
        "abı",
        -9.268145227149795
      ],
      [
        "▁elde",
        -8.345075012432023
      ],
      [
        "▁dolastı",
        -9.845477263149819
      ],
      [
        "▁gobek",
        -10.751026997522397
      ],
      [
        "▁fatih",
        -9.980680331224129
      ],
      [
        "▁eylem",
        -9.186174231178356
      ],
      [
        "▁boston",
        -8.07042847477151
      ],
      [
        "▁kalkıs",
        -9.316099678922761
      ],
      [
        "8'de",
        -10.276984901970476
      ],
      [
        "▁newark'",
        -9.651408320269468
      ],
      [
        "▁segment",
        -10.81767075293266
      ],
      [
        "▁veriyor",
        -8.548796171045371
      ],
      [
        "▁anadolu",
        -9.472195255620296
      ],
      [
        "▁ipotek",
        -9.766299505193459
      ],
      [
        "▁475000",
        -11.00794604535869
      ],
      [
        "▁cag",
        -9.218081768292878
      ],
      [
        "▁lutfe",
        -7.712817571283248
      ],
      [
        "▁umut",
        -9.325006681532537
      ],
      [
        "▁bırakı",
        -9.500122214572293
      ],
      [
        "▁hız",
        -9.714776934069324
      ],
      [
        "▁imza",
        -9.388267228355232
      ],
      [
        "▁hırsız",
        -9.771345265872258
      ],
      [
        "▁cesur",
        -10.471556821499181
      ],
      [
        "▁3.8",
        -9.902690592795256
      ],
      [
        "▁balık",
        -9.155800671078442
      ],
      [
        "▁sonucları",
        -9.639201891662752
      ],
      [
        "▁dusen",
        -9.45101154241043
      ],
      [
        "▁kalıyor",
        -9.612277711280269
      ],
      [
        "▁hattı",
        -9.81955003900272
      ],
      [
        "▁yu",
        -9.941940758310539
      ],
      [
        "11",
        -9.219857971516147
      ],
      [
        "gımız",
        -9.686128349057217
      ],
      [
        "▁kurulunu",
        -10.607322755731202
      ],
      [
        "▁110",
        -9.85359950354846
      ],
      [
        "▁1963",
        -10.560325746299014
      ],
      [
        "▁duzeni",
        -10.393474567946285
      ],
      [
        "▁edecegini",
        -9.927876721749637
      ],
      [
        "▁yen'",
        -9.543642743581572
      ],
      [
        "▁harman",
        -10.631979166597045
      ],
      [
        "▁sevgi",
        -8.928419160214965
      ],
      [
        "▁ekipman",
        -9.951413888670778
      ],
      [
        "▁misafir",
        -8.953826326976817
      ],
      [
        "so",
        -9.25986668613642
      ],
      [
        "▁yedi",
        -9.142033391432252
      ],
      [
        "▁aman",
        -9.91549607160888
      ],
      [
        "▁sart",
        -9.37367683872621
      ],
      [
        "▁kendin",
        -7.498032269194095
      ],
      [
        "▁olustura",
        -10.345510961867914
      ],
      [
        "▁yeryuzu",
        -10.814651112086366
      ],
      [
        "▁karı",
        -9.185158011551067
      ],
      [
        "lerin",
        -6.508766478987898
      ],
      [
        "▁insanların",
        -8.8989500225538
      ],
      [
        "▁12",
        -10.43372638255218
      ],
      [
        "▁olabil",
        -10.121792770529392
      ],
      [
        "▁edilmisti",
        -10.330412560997257
      ],
      [
        "dokuz.",
        -10.912069309067547
      ],
      [
        ".",
        -1.1654305379107868
      ],
      [
        "masını",
        -8.97722814570334
      ],
      [
        "▁teknik",
        -9.440487283108613
      ],
      [
        "▁cevir",
        -9.606239295485878
      ],
      [
        "▁degisik",
        -10.10799578185507
      ],
      [
        "▁vermis",
        -9.207478939080886
      ],
      [
        "▁populer",
        -10.423896158380446
      ],
      [
        "▁senetleri",
        -9.331217076853873
      ],
      [
        "▁celal",
        -10.472768214694083
      ],
      [
        "▁hazırlana",
        -10.570685338006314
      ],
      [
        "▁saban",
        -10.751302569172525
      ],
      [
        "▁basını",
        -8.88475045217139
      ],
      [
        "100",
        -9.795625293758011
      ],
      [
        "▁saat",
        -7.392454369201045
      ],
      [
        "▁hakem",
        -10.424987264644692
      ],
      [
        "▁dagıtıl",
        -10.845435863351526
      ],
      [
        "▁tavır",
        -9.72071873011657
      ],
      [
        "▁du",
        -9.297251333482727
      ],
      [
        "▁toparla",
        -9.987405375525217
      ],
      [
        "▁sivil",
        -10.074250309622037
      ],
      [
        "▁firma",
        -8.945068607856143
      ],
      [
        "cekli",
        -10.751261042845607
      ],
      [
        "▁vadesi",
        -10.30041438411338
      ],
      [
        "▁26",
        -8.156620768428361
      ],
      [
        "▁taze",
        -9.265902460458333
      ],
      [
        "▁california'",
        -10.230270199710542
      ],
      [
        "▁onbes",
        -10.616644868922243
      ],
      [
        "▁cocukların",
        -9.732476962365551
      ],
      [
        "▁soyledigi",
        -10.145913317670956
      ],
      [
        "▁unuttu",
        -10.277281150551865
      ],
      [
        "▁edilmesi",
        -9.648406840583176
      ],
      [
        "▁alacak",
        -9.00920910350646
      ],
      [
        "▁onun",
        -8.60382160950859
      ],
      [
        "▁saatlerde",
        -9.595547342393397
      ],
      [
        "▁tuccarlar",
        -10.025351362486777
      ],
      [
        "▁tesisin",
        -8.49812353361886
      ],
      [
        "▁sapka",
        -9.76680222341977
      ],
      [
        "▁yetisti",
        -10.131050614432567
      ],
      [
        "▁devrim",
        -9.509485230400283
      ],
      [
        "▁hal",
        -8.56042355446673
      ],
      [
        "▁san",
        -8.769387182055986
      ],
      [
        "lestirdi",
        -10.096513327252406
      ],
      [
        "▁ikisini",
        -10.85643516167853
      ],
      [
        "▁paul",
        -10.079847115287063
      ],
      [
        "▁kenarları",
        -10.431557684734509
      ],
      [
        "▁yaprak",
        -9.945590759617515
      ],
      [
        "▁birden",
        -8.445921963245029
      ],
      [
        "▁sozlesme",
        -9.031176628671842
      ],
      [
        "▁gorevlisi",
        -10.171142733338737
      ],
      [
        "▁isleme",
        -9.867566809437816
      ],
      [
        "▁siyah",
        -8.620657091374838
      ],
      [
        "▁birbirleri",
        -10.091690509749295
      ],
      [
        "▁kısa",
        -8.0353881234014
      ],
      [
        "lmaz",
        -9.522556550844195
      ],
      [
        "▁gerekli",
        -9.402985152208586
      ],
      [
        "▁39",
        -9.172139216265979
      ],
      [
        "▁kazanır",
        -10.686619455994943
      ],
      [
        "▁600",
        -9.671999014576087
      ],
      [
        "ri",
        -7.655377361207013
      ],
      [
        "▁hatıra",
        -10.16180714301969
      ],
      [
        "▁parmagı",
        -10.507999392570325
      ],
      [
        "▁ulke",
        -8.556788892600261
      ],
      [
        "▁miami'",
        -9.17660139851873
      ],
      [
        "▁tutku",
        -10.145033799975101
      ],
      [
        "ıldıgında",
        -10.477524318577009
      ],
      [
        "▁planlıyor",
        -9.85334194732961
      ],
      [
        "▁duser",
        -9.502957719060369
      ],
      [
        "▁sırrı",
        -10.698920463724765
      ],
      [
        "lıkta",
        -8.985215276727631
      ],
      [
        "ch",
        -8.39667474896706
      ],
      [
        "▁11",
        -7.696498369092425
      ],
      [
        "▁kosulları",
        -9.533382839685293
      ],
      [
        "▁bitti",
        -9.751900498219133
      ],
      [
        "ak",
        -10.007494695036996
      ],
      [
        "▁suren",
        -9.74308294125482
      ],
      [
        "▁tanık",
        -9.773333157360074
      ],
      [
        "▁ilerleme",
        -10.242543786586584
      ],
      [
        "▁kostu",
        -9.732141148420014
      ],
      [
        "▁bin",
        -9.274767989632311
      ],
      [
        "▁hastalıgı",
        -9.823860865035408
      ],
      [
        "▁ilac",
        -8.824312764772522
      ],
      [
        "▁tas",
        -7.903060577240075
      ],
      [
        "▁suruyor",
        -9.799307338310536
      ],
      [
        "cı",
        -9.105755383544302
      ],
      [
        "le",
        -6.62633018119359
      ],
      [
        "▁alev",
        -9.729627456208867
      ],
      [
        "▁mukemmel",
        -8.575741854544475
      ],
      [
        "s'in",
        -9.835187149303273
      ],
      [
        "▁smith",
        -10.214814265909888
      ],
      [
        "g",
        -7.334280021086102
      ],
      [
        "ford",
        -10.518553861029554
      ],
      [
        "5000",
        -9.57246777405449
      ],
      [
        "r",
        -4.420291024157979
      ],
      [
        "▁22.",
        -9.951591424162933
      ],
      [
        "lu",
        -6.53516767766677
      ],
      [
        "▁tavuk",
        -9.922671863072646
      ],
      [
        "la",
        -11.941373154467021
      ],
      [
        "kin",
        -10.756068444976854
      ],
      [
        "▁onur",
        -9.72477954865961
      ],
      [
        "▁senaryo",
        -10.293274633665796
      ],
      [
        "▁sermaye",
        -8.842827726174756
      ],
      [
        "▁belirtme",
        -10.453596179312036
      ],
      [
        "▁suclama",
        -9.745095257471617
      ],
      [
        "▁gaf",
        -10.638670204668957
      ],
      [
        "▁zemin",
        -10.214830712148226
      ],
      [
        "▁yukseltme",
        -10.819774662686559
      ],
      [
        "▁tamir",
        -10.018998057963726
      ],
      [
        "mizde",
        -9.167935556635468
      ],
      [
        "ydi",
        -6.578628275021047
      ],
      [
        "'daki",
        -8.938342569756319
      ],
      [
        "gi",
        -7.310804000651388
      ],
      [
        "▁bebek",
        -9.742511144861494
      ],
      [
        "▁cevabı",
        -10.214813844035238
      ],
      [
        "▁oglen",
        -9.938364821554169
      ],
      [
        "▁alem",
        -9.645552180712018
      ],
      [
        "▁adamın",
        -9.398106958738694
      ],
      [
        "▁700",
        -10.516073901324269
      ],
      [
        "▁guvenlik",
        -9.35572223558346
      ],
      [
        "▁dallas'ta",
        -8.122504655281064
      ],
      [
        "▁yetkililer",
        -9.795386355291482
      ],
      [
        "▁katil",
        -9.799372381655976
      ],
      [
        "▁dogmus",
        -10.629896625556531
      ],
      [
        "▁arkada",
        -10.236372093481677
      ],
      [
        "0.2",
        -10.970584158999438
      ],
      [
        "▁fransa",
        -10.652944640428336
      ],
      [
        "▁sarıldı",
        -10.669984474408599
      ],
      [
        "onun",
        -8.69465956388141
      ],
      [
        "▁onyedi",
        -10.921018666201677
      ],
      [
        "▁cehennem",
        -10.521493084582065
      ],
      [
        "▁han",
        -9.492766892019521
      ],
      [
        "▁durgun",
        -9.695642280791096
      ],
      [
        "▁has",
        -8.833741744446876
      ],
      [
        "burg",
        -10.596632624671125
      ],
      [
        "▁aldırma",
        -10.762884903528864
      ],
      [
        "▁baskasını",
        -10.894157486847964
      ],
      [
        "▁baslamıstı",
        -9.67770292697094
      ],
      [
        "he",
        -9.642327013437182
      ],
      [
        "▁esim",
        -9.658242404640355
      ],
      [
        "▁pet",
        -10.283341831896255
      ],
      [
        "▁dul",
        -10.394266729819885
      ],
      [
        "▁getirmis",
        -10.541847385195469
      ],
      [
        "▁6.",
        -10.351703363235046
      ],
      [
        "▁%1",
        -10.278719016848095
      ],
      [
        "▁oldugun",
        -10.612065443969167
      ],
      [
        "▁baz",
        -8.458083637762034
      ],
      [
        "▁hizmetci",
        -10.455894312446329
      ],
      [
        "▁sonraki",
        -9.269392519865796
      ],
      [
        "lama",
        -7.920149797130463
      ],
      [
        "ba",
        -9.859568973466365
      ],
      [
        "▁ramiz",
        -10.380388962465513
      ],
      [
        "▁rota",
        -10.137719178353295
      ],
      [
        "▁patlama",
        -10.044150839095806
      ],
      [
        "▁karakol",
        -10.751180021835168
      ],
      [
        "▁rapor",
        -8.93647949905316
      ],
      [
        "▁olmaya",
        -9.628682319556976
      ],
      [
        "▁corap",
        -10.424003763098186
      ],
      [
        "us",
        -7.905366774980366
      ],
      [
        "▁yeri",
        -9.184272603602274
      ],
      [
        "y",
        -12.399764499659206
      ],
      [
        "▁gazeteci",
        -9.9648467114754
      ],
      [
        "▁kırıklıgı",
        -10.146227124762158
      ],
      [
        "▁temmuz'da",
        -9.37835435226098
      ],
      [
        "▁kiler",
        -8.93960715202065
      ],
      [
        "▁olması",
        -8.454579503888922
      ],
      [
        "z",
        -6.575855094575472
      ],
      [
        "▁kanunu",
        -10.242080724455915
      ],
      [
        "nc",
        -8.8610035120361
      ],
      [
        "▁endeks",
        -9.188423078810619
      ],
      [
        "▁10",
        -10.369758858058088
      ],
      [
        "26",
        -10.035845426624126
      ],
      [
        "uk",
        -8.894509282745897
      ],
      [
        "▁dususu",
        -9.998371926689856
      ],
      [
        "▁baglıdır",
        -10.639700967777557
      ],
      [
        "▁tu",
        -6.9269662373018
      ],
      [
        "▁mevduat",
        -9.980435834463462
      ],
      [
        "▁bu",
        -8.19861195510239
      ],
      [
        "bu",
        -6.521250950590649
      ],
      [
        "▁0.6",
        -10.96494361702419
      ],
      [
        "00-",
        -11.772156729223715
      ],
      [
        "▁yuzum",
        -10.054721795709066
      ],
      [
        "▁pazartesi",
        -8.069275957908282
      ],
      [
        "▁hissi",
        -10.450864603185668
      ],
      [
        "▁ucunda",
        -9.86361245768217
      ],
      [
        "▁shearson",
        -10.041987549541993
      ],
      [
        "▁kilit",
        -9.870539986694556
      ],
      [
        "▁bayram",
        -9.129047330627184
      ],
      [
        "▁gorunum",
        -10.563493304815951
      ],
      [
        "▁ucu",
        -9.239929097601554
      ],
      [
        "▁esas",
        -9.539209387960657
      ],
      [
        "▁parcaları",
        -10.017463601955228
      ],
      [
        "▁telefonu",
        -10.129268276707759
      ],
      [
        "▁elim",
        -10.11179661231979
      ],
      [
        "▁birbirimizi",
        -9.890898695713071
      ],
      [
        "fı",
        -12.849601984454035
      ],
      [
        "▁15.",
        -10.281601801171426
      ],
      [
        "▁oldurul",
        -10.260784582611969
      ],
      [
        "▁%7",
        -10.35898102266814
      ],
      [
        "▁toren",
        -10.183969584492827
      ],
      [
        "▁leblebi",
        -10.574124663104955
      ],
      [
        "mıstır",
        -8.589233154169833
      ],
      [
        "▁alkıs",
        -10.335001391005955
      ],
      [
        "▁0.",
        -10.22058846643642
      ],
      [
        "▁lezzetli",
        -8.421223796641426
      ],
      [
        "▁taslar",
        -10.190081251901393
      ],
      [
        "▁pol",
        -10.448150504752569
      ],
      [
        "an",
        -6.656574563908452
      ],
      [
        "elli",
        -10.223140255659835
      ],
      [
        "▁personeli",
        -8.908665804239131
      ],
      [
        "▁olaganustu",
        -10.17787679539682
      ],
      [
        "▁34",
        -9.06955530779975
      ],
      [
        "▁kapısını",
        -9.927891782621229
      ],
      [
        "▁esmer",
        -10.574726468527526
      ],
      [
        "▁borclanma",
        -10.633924608653084
      ],
      [
        "▁ilgiliydi",
        -7.712200228442429
      ],
      [
        "ba",
        -7.496485207792674
      ],
      [
        "les",
        -9.216545770861785
      ],
      [
        "▁toronto'",
        -9.665913887891255
      ],
      [
        "▁aradi",
        -8.585857290110614
      ],
      [
        "▁8.0",
        -11.013800640243012
      ],
      [
        "▁yorgan",
        -10.817691155684773
      ],
      [
        "▁icten",
        -10.263523724376443
      ],
      [
        "▁balıkcı",
        -9.78852512502814
      ],
      [
        "▁sm",
        -9.994316538891976
      ],
      [
        "▁diyor",
        -7.662409035171545
      ],
      [
        "▁ugultu",
        -10.751003748251883
      ],
      [
        "▁birlesme",
        -9.986039290688764
      ],
      [
        "▁koymak",
        -10.449641319996248
      ],
      [
        "▁sevimli",
        -10.43010797515047
      ],
      [
        "▁kuyu",
        -9.924427880619932
      ],
      [
        "▁geciriyor",
        -10.578645454991722
      ],
      [
        "▁agac",
        -8.962937334647112
      ],
      [
        "▁somur",
        -10.57448750325772
      ],
      [
        "▁tarafı",
        -9.418213934292986
      ],
      [
        "▁sak",
        -9.018013708079367
      ],
      [
        "madım",
        -10.248207080835236
      ],
      [
        "▁mısın",
        -9.040550319257685
      ],
      [
        "▁h",
        -8.500445533960606
      ],
      [
        "▁anımsa",
        -10.14217199793122
      ],
      [
        "ler",
        -5.108238647768193
      ],
      [
        "▁'di",
        -10.329890750168904
      ],
      [
        "▁kanser",
        -10.751923951503219
      ],
      [
        "hicbir",
        -9.453110688665925
      ],
      [
        "▁1.84",
        -10.518468608616592
      ],
      [
        "0",
        -8.865420295759163
      ],
      [
        "▁kazanmıs",
        -10.506186764516922
      ],
      [
        "▁hepimizi",
        -9.081385122939912
      ],
      [
        "▁c",
        -12.071827075693939
      ],
      [
        "▁insanlar",
        -8.01634465319997
      ],
      [
        "▁havuz",
        -8.305497712908297
      ],
      [
        "75",
        -8.267419933820554
      ],
      [
        "ası",
        -11.234917962788039
      ],
      [
        "lugun",
        -8.897834233187748
      ],
      [
        "▁samimi",
        -10.471967032731932
      ],
      [
        "▁cetin",
        -10.424335797332459
      ],
      [
        "▁tren",
        -9.312569105616666
      ],
      [
        "▁so",
        -8.855116676889189
      ],
      [
        "▁hayır",
        -9.142491655177484
      ],
      [
        "bo",
        -8.688794204068145
      ],
      [
        "▁rezervasyonu",
        -8.931588052743216
      ],
      [
        "▁gecti",
        -8.373537333404698
      ],
      [
        "▁gidiyordu",
        -9.963985756548725
      ],
      [
        "▁tele",
        -9.467973672407084
      ],
      [
        "kaya",
        -10.436958962555948
      ],
      [
        "▁soyleyen",
        -10.259837190662275
      ],
      [
        "sen",
        -8.906673460936581
      ],
      [
        "▁111",
        -10.487099343946664
      ],
      [
        "▁249.",
        -10.96810093603428
      ],
      [
        "▁levha",
        -10.817904882988062
      ],
      [
        ".3",
        -10.300901600331066
      ],
      [
        "▁atlay",
        -10.708698057696772
      ],
      [
        "▁arap",
        -9.816764995783481
      ],
      [
        "▁bulus",
        -9.649402351538853
      ],
      [
        "▁di",
        -7.057769738788028
      ],
      [
        "▁cadde",
        -9.62759164952999
      ],
      [
        "▁sal",
        -8.34466812372403
      ],
      [
        "▁sınıfta",
        -10.426202603606658
      ],
      [
        "▁yargıc",
        -9.759982248785995
      ],
      [
        "7",
        -8.957456190361798
      ],
      [
        "▁sona",
        -9.110022100664612
      ],
      [
        "▁yarattı",
        -9.903995880697028
      ],
      [
        "▁sı",
        -9.271147355403482
      ],
      [
        "▁dovus",
        -10.62973864863202
      ],
      [
        "▁acılıs",
        -10.344554587304083
      ],
      [
        "▁gogus",
        -10.293286183091393
      ],
      [
        "▁geldigini",
        -10.030610023599962
      ],
      [
        "▁izin",
        -8.850032400668711
      ],
      [
        "▁oranları",
        -9.563772379706903
      ],
      [
        "▁yirmi",
        -7.392161743074304
      ],
      [
        "▁kapak",
        -10.426672658914725
      ],
      [
        "▁catı",
        -9.631958360429707
      ],
      [
        "▁attıgı",
        -10.267146145564968
      ],
      [
        "▁hosum",
        -10.155832499896274
      ],
      [
        "lik",
        -6.633230434280946
      ],
      [
        "▁deniz",
        -7.382472481215864
      ],
      [
        "k",
        -5.724751612907619
      ],
      [
        "▁stres",
        -10.818008416120332
      ],
      [
        "▁olmak",
        -10.570745522825971
      ],
      [
        "▁sah",
        -9.5259419465671
      ],
      [
        "▁saray",
        -9.237607720756492
      ],
      [
        "▁cami",
        -9.692865694438975
      ],
      [
        "▁rolu",
        -9.89133702507593
      ],
      [
        "▁yaptı",
        -8.026267843637303
      ],
      [
        "▁hayran",
        -9.895303441400111
      ],
      [
        "▁alanda",
        -9.812923142508367
      ],
      [
        "▁8.9",
        -10.558512057576548
      ],
      [
        "ustur",
        -9.028855357473496
      ],
      [
        "▁tempo",
        -10.688508338735772
      ],
      [
        "▁stanley",
        -10.889103837944901
      ],
      [
        "▁gormek",
        -8.982804741136786
      ],
      [
        "▁su",
        -5.781887426912386
      ],
      [
        "▁hong",
        -9.89471192592731
      ],
      [
        "▁doktor",
        -8.777423484441918
      ],
      [
        "▁orijinal",
        -10.471493084141752
      ],
      [
        "▁goremedi",
        -10.335327705504351
      ],
      [
        "▁akıllı",
        -10.1538575794884
      ],
      [
        "▁uc",
        -8.523173369708697
      ],
      [
        "▁bircokları",
        -10.616089019641791
      ],
      [
        "▁yasamı",
        -10.178123317314798
      ],
      [
        "▁nar",
        -10.29652156920416
      ],
      [
        "▁onayın",
        -10.587774705704067
      ],
      [
        "▁tuy",
        -9.948209413529359
      ],
      [
        "▁dua",
        -9.940902442048017
      ],
      [
        "▁ucretlerini",
        -9.763360119206117
      ],
      [
        "▁dusundugum",
        -10.26418267761006
      ],
      [
        "▁karıs",
        -9.6094544059084
      ],
      [
        "▁olmaması",
        -10.511458061297963
      ],
      [
        "▁tı",
        -10.992942583622575
      ],
      [
        "ebilir",
        -8.048426648887393
      ],
      [
        "▁2002",
        -10.319913242692227
      ],
      [
        "▁york'",
        -10.08892471692895
      ],
      [
        "▁ho",
        -9.238355166857806
      ],
      [
        "▁ayrılı",
        -9.106267220550592
      ],
      [
        "▁saclarını",
        -10.028587946606574
      ],
      [
        "▁48",
        -9.376016359367377
      ],
      [
        "▁70'",
        -10.70259020934412
      ],
      [
        "▁acan",
        -10.585034613292597
      ],
      [
        "▁gelecegi",
        -9.866933778827914
      ],
      [
        "▁pri",
        -9.908993366262692
      ],
      [
        "▁kaybeden",
        -10.428583722856366
      ],
      [
        "▁siper",
        -10.574160952385633
      ],
      [
        "▁yollarda",
        -10.622472052429819
      ],
      [
        "▁haklarını",
        -10.592774403794683
      ],
      [
        "▁bush'u",
        -10.609564232817618
      ],
      [
        "▁havaalanı",
        -9.554758690824544
      ],
      [
        "lık",
        -6.546020402530824
      ],
      [
        "▁pozisyon",
        -9.674284626036089
      ],
      [
        "g",
        -5.007317781712471
      ],
      [
        "ster",
        -10.103537862241463
      ],
      [
        "▁hacim",
        -9.373405976308836
      ],
      [
        "▁razı",
        -10.423944135834518
      ],
      [
        "▁diyalog",
        -10.889100578616628
      ],
      [
        "amıyor",
        -9.501679755688944
      ],
      [
        "▁yarar",
        -9.91963795874092
      ],
      [
        "▁camasır",
        -9.674661922026337
      ],
      [
        "▁birlikte",
        -8.408555546501645
      ],
      [
        "ırdı",
        -9.606562413526527
      ],
      [
        "▁satıl",
        -9.518531981814503
      ],
      [
        "▁15",
        -7.200442600775433
      ],
      [
        "▁paralel",
        -10.629923478183136
      ],
      [
        "▁195",
        -10.491617016292869
      ],
      [
        "▁edilir",
        -9.896784572977364
      ],
      [
        "▁varan",
        -8.280295315999266
      ],
      [
        "▁66",
        -10.834958921941556
      ],
      [
        "▁farklılık",
        -10.281199007283199
      ],
      [
        "▁yardım",
        -8.425543114812672
      ],
      [
        "▁yasadıgı",
        -9.688520121563592
      ],
      [
        "▁kuyruk",
        -10.817670426241847
      ],
      [
        "▁cocuklu",
        -8.150154710289828
      ],
      [
        "▁luks",
        -9.924506122318993
      ],
      [
        "▁miami",
        -10.627434325013201
      ],
      [
        "▁yarat",
        -9.77338159379066
      ],
      [
        "▁112",
        -10.140776630495758
      ],
      [
        "▁emin",
        -8.999369084364858
      ],
      [
        "▁kutlama",
        -10.642722005700582
      ],
      [
        "▁puf",
        -10.688562014827088
      ],
      [
        "▁yonlendirdi",
        -10.253719363495879
      ],
      [
        "▁yıllık",
        -8.191396019802621
      ],
      [
        "▁sam",
        -9.296344944262954
      ],
      [
        "▁kendilerini",
        -7.912494984556227
      ],
      [
        "▁cincinnati",
        -10.88679459634709
      ],
      [
        "▁ik",
        -10.108787904356568
      ],
      [
        "▁yalvar",
        -10.574126686510398
      ],
      [
        "▁sogu",
        -9.994314075661913
      ],
      [
        "▁aksamı",
        -9.25142669431968
      ],
      [
        "▁darbe",
        -9.45875071474103
      ],
      [
        "ımız",
        -9.071110820090983
      ],
      [
        "▁etkisini",
        -10.69715258030918
      ],
      [
        "▁istihdam",
        -10.010737695004527
      ],
      [
        "▁kitapları",
        -10.284970826336869
      ],
      [
        "▁kurt",
        -9.516758216340396
      ],
      [
        "▁atlanta'",
        -7.885193825135215
      ],
      [
        "▁damar",
        -9.9000572703449
      ],
      [
        "▁zamanında",
        -10.647752516421294
      ],
      [
        "▁tıbbi",
        -10.751003840990235
      ],
      [
        "▁dc",
        -9.752110790825483
      ],
      [
        "▁ruhu",
        -10.188150400355674
      ],
      [
        "▁ayakkabı",
        -9.356841840680074
      ],
      [
        "▁sevil",
        -10.368875806095666
      ],
      [
        "▁muayene",
        -10.629682265142966
      ],
      [
        "▁fer",
        -9.147692933972676
      ],
      [
        "▁belli",
        -8.603180179958109
      ],
      [
        "▁reserv",
        -10.817686996077908
      ],
      [
        "▁duydugu",
        -10.534528539122858
      ],
      [
        "egi",
        -8.722547943385237
      ],
      [
        "▁ols",
        -9.308168117671995
      ],
      [
        "▁doner",
        -9.65227640308921
      ],
      [
        "▁baygın",
        -10.819487683650161
      ],
      [
        "▁satıslarını",
        -10.630900218724856
      ],
      [
        "▁6'da",
        -9.697606368690609
      ],
      [
        "▁minim",
        -10.264272466863126
      ],
      [
        "cusu",
        -9.931529375877078
      ],
      [
        "ane",
        -10.112659403639153
      ],
      [
        "▁u.s.",
        -10.889098987225736
      ],
      [
        "▁vicdan",
        -10.471512191263894
      ],
      [
        "▁p",
        -8.16946125517236
      ],
      [
        "▁digerleri",
        -9.81917594016735
      ],
      [
        "▁the",
        -9.86889546714434
      ],
      [
        "▁surec",
        -9.637521174886762
      ],
      [
        "lo",
        -8.759439707935933
      ],
      [
        "`",
        -5.1791608978587025
      ],
      [
        "▁dost",
        -9.025660965637702
      ],
      [
        "lı",
        -9.894766648982408
      ],
      [
        "▁1.50",
        -10.826535407539138
      ],
      [
        "▁bekledigini",
        -10.33987538114733
      ],
      [
        "▁kutu",
        -9.392406119399702
      ],
      [
        "▁petrol",
        -8.81452455122481
      ],
      [
        "▁sec",
        -8.614117447452415
      ],
      [
        "▁yakıs",
        -10.335025145317454
      ],
      [
        "▁geleni",
        -10.23735276946719
      ],
      [
        "que",
        -10.184946779607738
      ],
      [
        "▁bat",
        -9.656275521625806
      ],
      [
        "ncı",
        -10.353289485808999
      ],
      [
        "▁sahiptir",
        -9.702689004062385
      ],
      [
        "ma",
        -12.810082874936368
      ],
      [
        "▁aydınlık",
        -10.07706259277661
      ],
      [
        "▁fiyatin",
        -9.419402116717666
      ],
      [
        "▁bolunme",
        -10.574203692393167
      ],
      [
        "▁yayın",
        -8.604731810067186
      ],
      [
        "▁ymis",
        -9.402459541327215
      ],
      [
        "▁yapmıs",
        -9.576680339886426
      ],
      [
        "▁odasında",
        -10.303722605777658
      ],
      [
        "▁145",
        -10.904143579182826
      ],
      [
        "▁istikrar",
        -10.214813242133904
      ],
      [
        "▁uzat",
        -9.589172476584583
      ],
      [
        "ff",
        -9.524781249910944
      ],
      [
        "▁kalan",
        -8.600638989255728
      ],
      [
        "▁cagdas",
        -10.142272323715641
      ],
      [
        "▁perakende",
        -9.933143297996782
      ],
      [
        "▁siir",
        -8.989751407536517
      ],
      [
        "ci",
        -11.309728575382351
      ],
      [
        "▁baska",
        -7.370951733912166
      ],
      [
        "▁sureci",
        -9.913421637923566
      ],
      [
        "fer",
        -9.766896705774583
      ],
      [
        "▁turist",
        -10.144254783913567
      ],
      [
        "▁yakında",
        -9.44303459414963
      ],
      [
        "▁bizleri",
        -9.582690225371444
      ],
      [
        "l",
        -9.263032525714058
      ],
      [
        "▁mudur",
        -9.317231457596275
      ],
      [
        "▁satma",
        -9.608383728118064
      ],
      [
        "▁halkın",
        -9.827560874955607
      ],
      [
        "▁ker",
        -9.633615516669103
      ],
      [
        "ttı",
        -8.851524135947205
      ],
      [
        "▁oran",
        -8.662572312508287
      ],
      [
        "▁bildir",
        -10.000458823462584
      ],
      [
        "▁yemekleri",
        -7.7742733594308895
      ],
      [
        "▁dıs",
        -10.130262604639288
      ],
      [
        "▁gorusmelerin",
        -10.724817732366352
      ],
      [
        "diler",
        -9.77821100615803
      ],
      [
        "▁acıg",
        -10.880964474746829
      ],
      [
        "▁evde",
        -8.687464450759512
      ],
      [
        "▁degistirme",
        -10.454012445672314
      ],
      [
        "▁hep",
        -7.783266411636225
      ],
      [
        "▁benim",
        -5.9820268329993915
      ],
      [
        "▁edep",
        -10.630073132716511
      ],
      [
        "▁birinci",
        -8.83357621359725
      ],
      [
        "▁chi",
        -10.47750079803262
      ],
      [
        "▁civi",
        -10.233413491425265
      ],
      [
        "▁yazdıgı",
        -10.211329621589353
      ],
      [
        "▁salon",
        -10.103203379270646
      ],
      [
        "▁imkan",
        -9.559128611877648
      ],
      [
        "▁oner",
        -9.02196227285451
      ],
      [
        "400",
        -10.878937736978402
      ],
      [
        "▁diger",
        -7.392545940170631
      ],
      [
        "▁yılı",
        -9.15995130274974
      ],
      [
        "▁ustunde",
        -8.312544960929632
      ],
      [
        ".75",
        -9.547328211014653
      ],
      [
        "▁mo",
        -9.075058737263387
      ],
      [
        "▁calıskan",
        -10.630385597283132
      ],
      [
        "meyecek",
        -8.98211467750843
      ],
      [
        "▁calıyor",
        -10.477611403206485
      ],
      [
        "▁fonu",
        -9.983580912204957
      ],
      [
        "son",
        -8.573686909090892
      ],
      [
        "▁zamanı",
        -9.373579148422
      ],
      [
        "leyici",
        -9.97315152557496
      ],
      [
        "▁hav",
        -10.085815911934148
      ],
      [
        "▁atılım",
        -10.480576915769305
      ],
      [
        "▁yuzunde",
        -8.640897136033956
      ],
      [
        "▁%",
        -6.30458812668807
      ],
      [
        "▁kaldı",
        -8.344728274613644
      ],
      [
        "▁kesildi",
        -9.868044625767157
      ],
      [
        "▁elindeki",
        -10.000147818230479
      ],
      [
        "▁olacagını",
        -9.063567740973014
      ],
      [
        "▁isimiz",
        -10.342530849071773
      ],
      [
        "▁korkut",
        -10.5123742932441
      ],
      [
        "▁yarısma",
        -10.222994371311213
      ],
      [
        "▁isvec",
        -10.688513503069125
      ],
      [
        "i'ni",
        -9.515019325333487
      ],
      [
        "ho",
        -9.656503294209466
      ],
      [
        "▁bekledi",
        -9.913866498311354
      ],
      [
        "▁teminat",
        -9.674590808420586
      ],
      [
        "▁calısıl",
        -10.44118414854344
      ],
      [
        "▁8.8",
        -9.884564508981272
      ],
      [
        "▁saglamak",
        -9.885602781627675
      ],
      [
        "▁bulgur",
        -10.7510488658958
      ],
      [
        "▁komisyon",
        -10.31423344227996
      ],
      [
        "▁bolumunde",
        -10.429442471374566
      ],
      [
        "medigini",
        -9.9952223212501
      ],
      [
        "tıgını",
        -9.891305413102383
      ],
      [
        "▁umutsuz",
        -10.690302679025576
      ],
      [
        "▁108",
        -10.94888692485328
      ],
      [
        "▁ku",
        -8.55065641772562
      ],
      [
        "▁ice",
        -10.15559881764592
      ],
      [
        "▁aldıgı",
        -9.057908287887624
      ],
      [
        "▁kuru",
        -8.52377007020485
      ],
      [
        "▁goze",
        -9.421594995941321
      ],
      [
        "▁uzum",
        -10.0878960441986
      ],
      [
        "▁direkt",
        -9.980020390842803
      ],
      [
        "6.23",
        -10.68403202973947
      ],
      [
        "▁karsı",
        -7.425643452349161
      ],
      [
        "▁yoneticiler",
        -10.360852170072576
      ],
      [
        "▁olmasını",
        -9.685394539230266
      ],
      [
        "un",
        -11.506828243750975
      ],
      [
        "dik",
        -8.42747374962083
      ],
      [
        "▁gor",
        -8.554354333399779
      ],
      [
        "▁olmustu",
        -8.808092840118013
      ],
      [
        "▁edilen",
        -8.426927080965298
      ],
      [
        "▁do",
        -9.18663526880855
      ],
      [
        "▁intel",
        -10.752257439999154
      ],
      [
        "▁carp",
        -10.236795541527826
      ],
      [
        "▁kod",
        -10.682864620578702
      ],
      [
        "▁bakmak",
        -10.458132398326907
      ],
      [
        "yu",
        -8.087035996061688
      ],
      [
        "▁canlı",
        -9.342525527174427
      ],
      [
        "▁tarz",
        -10.258257499827348
      ],
      [
        "▁kırdı",
        -10.551361536537003
      ],
      [
        "▁kum",
        -9.02112378593732
      ],
      [
        "▁saydı",
        -10.300373569536553
      ],
      [
        "▁kafes",
        -10.468959512437095
      ],
      [
        "▁yuzun",
        -9.85667766181707
      ],
      [
        "▁iktidar",
        -9.742490378991636
      ],
      [
        "yet",
        -10.787492098028698
      ],
      [
        "▁oglan",
        -9.895876759111056
      ],
      [
        "▁sonunda",
        -8.127454901296371
      ],
      [
        "▁kıza",
        -10.05852527118183
      ],
      [
        "▁kabul",
        -7.78990295153198
      ],
      [
        "▁boslugu",
        -10.757989201918702
      ],
      [
        "▁lokanta",
        -10.041988231201175
      ],
      [
        "z",
        -5.8218905099768
      ],
      [
        "▁gonlu",
        -10.101140979745647
      ],
      [
        "▁kalitesinde",
        -10.283576312213226
      ],
      [
        "▁tırmanı",
        -10.521508523098085
      ],
      [
        "▁muhafaza",
        -10.629466379710829
      ],
      [
        "mesini",
        -8.947113420861637
      ],
      [
        "▁yolculuk",
        -9.743522578239507
      ],
      [
        "▁iade",
        -10.334975851410466
      ],
      [
        "ın",
        -9.400618937104571
      ],
      [
        "▁zı",
        -12.278377134489128
      ],
      [
        "▁gevse",
        -9.790692782588795
      ],
      [
        "▁italya",
        -10.329521036232975
      ],
      [
        "▁reddetti",
        -8.997778809616882
      ],
      [
        "▁1.58",
        -10.735946295945059
      ],
      [
        "▁ysa",
        -10.34563170827051
      ],
      [
        "▁oldugum",
        -10.9668647300527
      ],
      [
        "bazı",
        -9.354229368387426
      ],
      [
        "▁hisse",
        -6.863570822704412
      ],
      [
        "▁hakikat",
        -10.041995273149247
      ],
      [
        "36",
        -9.84309538668002
      ],
      [
        "▁altın",
        -8.051861268165116
      ],
      [
        "letti",
        -10.132812406326682
      ],
      [
        "?",
        -8.89256977613255
      ],
      [
        "▁azaldı",
        -10.257937180261198
      ],
      [
        "se",
        -9.197145699308905
      ],
      [
        "▁mor",
        -9.254979685240938
      ],
      [
        "▁pisiri",
        -9.930566805749638
      ],
      [
        "▁em",
        -8.800702620712908
      ],
      [
        "▁sorular",
        -10.193778188059479
      ],
      [
        "▁arabalar",
        -10.037737253236298
      ],
      [
        "▁kitap",
        -8.837780657831152
      ],
      [
        "▁yıkıl",
        -9.751935260822496
      ],
      [
        "▁a",
        -10.589485858069246
      ],
      [
        "▁konforlu",
        -9.295419573048747
      ],
      [
        "▁inanır",
        -10.652046134454855
      ],
      [
        "▁bankası",
        -9.516986217083751
      ],
      [
        "▁ayagı",
        -9.46642758939552
      ],
      [
        "▁ekonomik",
        -8.932490582562668
      ],
      [
        "▁rusvet",
        -10.751310696980756
      ],
      [
        "8",
        -6.081748992804368
      ],
      [
        "9.3",
        -10.445475024389438
      ],
      [
        "▁big",
        -10.263929292600892
      ],
      [
        "10",
        -12.421114862979588
      ],
      [
        "▁civarı",
        -9.812355072157738
      ],
      [
        "▁ustu",
        -8.768271821147327
      ],
      [
        "iyorum",
        -8.731317348237393
      ],
      [
        "▁yolunu",
        -9.729828385780674
      ],
      [
        "▁inci",
        -9.970154869232994
      ],
      [
        "▁olacagı",
        -9.33488034390589
      ],
      [
        "▁di",
        -8.648081907744196
      ],
      [
        "▁11",
        -10.523214634442592
      ],
      [
        "▁hosgoru",
        -10.889099614191345
      ],
      [
        "▁hicbirini",
        -9.34679240401203
      ],
      [
        "▁karton",
        -10.76262588020751
      ],
      [
        "▁may",
        -10.39400743379247
      ],
      [
        "▁merkezli",
        -9.561635731728472
      ],
      [
        "▁hareketi",
        -9.894622504943113
      ],
      [
        "▁pisti",
        -9.963699610492217
      ],
      [
        "▁elli",
        -8.16695250231819
      ],
      [
        "▁merak",
        -8.843598092709376
      ],
      [
        "▁ele",
        -8.60770425452448
      ],
      [
        "▁demis",
        -9.478615580330473
      ],
      [
        "▁ciz",
        -9.525743126975975
      ],
      [
        "▁west",
        -10.299647388645894
      ],
      [
        "▁cumhurbaskanı",
        -9.951022805236116
      ],
      [
        "ligi",
        -7.640063061180056
      ],
      [
        "▁surer",
        -10.361102151171133
      ],
      [
        "▁ille",
        -10.55695144174092
      ],
      [
        "▁karın",
        -9.783425189487758
      ],
      [
        "▁soyu",
        -9.834143021048593
      ],
      [
        "▁iv",
        -10.506002626656256
      ],
      [
        "▁naz",
        -9.491988402894592
      ],
      [
        "▁kadar",
        -4.58156761453913
      ],
      [
        "▁itiraz",
        -9.719235917894421
      ],
      [
        "▁lamba",
        -9.816035801618039
      ],
      [
        "▁ikibinuc",
        -9.483628766956455
      ],
      [
        "▁kral",
        -9.551330887139697
      ],
      [
        "▁sattı",
        -9.800754598914665
      ],
      [
        "▁agustos",
        -8.786841350423655
      ],
      [
        "▁koy",
        -7.986426011505402
      ],
      [
        "▁1500",
        -10.12598746051761
      ],
      [
        "▁etmedi",
        -9.279384917044208
      ],
      [
        "▁metin",
        -10.45261940709081
      ],
      [
        "▁isteme",
        -9.972439196800924
      ],
      [
        "eri",
        -9.367381273065831
      ],
      [
        "▁zarf",
        -10.736414615016194
      ],
      [
        "2",
        -6.4595835472024214
      ],
      [
        "▁seri",
        -8.897499556392347
      ],
      [
        "▁129",
        -10.694688246814783
      ],
      [
        "▁bekledigim",
        -9.85794361781388
      ],
      [
        "▁ek",
        -8.487858153039689
      ],
      [
        "▁kitabı",
        -9.204484712741458
      ],
      [
        "▁elektronik",
        -9.652788975864407
      ],
      [
        "▁sandal",
        -10.411248935392132
      ],
      [
        "▁gelmek",
        -10.432381303142897
      ],
      [
        "▁ilerledi",
        -10.420917360637
      ],
      [
        "▁yatırım",
        -8.167815019033487
      ],
      [
        "▁urunu",
        -10.312951167139714
      ],
      [
        "▁gok",
        -9.065576621505187
      ],
      [
        "▁girdi",
        -8.65418605878775
      ],
      [
        "▁konsey",
        -10.75168252374868
      ],
      [
        "sinde",
        -7.540175040644526
      ],
      [
        "▁1'de",
        -10.693398851252566
      ],
      [
        "ng",
        -10.94435796899572
      ],
      [
        "▁yana",
        -9.534111522877149
      ],
      [
        "3.8",
        -10.390181989109365
      ],
      [
        "▁81",
        -10.673237713928255
      ],
      [
        "▁cadır",
        -10.074706393712479
      ],
      [
        "▁lokma",
        -10.178304533081544
      ],
      [
        "▁10.6",
        -10.963275517375004
      ],
      [
        "▁ceker",
        -9.66167616210888
      ],
      [
        "▁korumak",
        -10.232952901449622
      ],
      [
        "nizi",
        -9.673548805952015
      ],
      [
        "▁yuklu",
        -10.346979147919365
      ],
      [
        "▁olusturdu",
        -10.25467450887281
      ],
      [
        "▁milletin",
        -10.25739151160699
      ],
      [
        "▁gunah",
        -9.697018135860729
      ],
      [
        "▁sicak",
        -9.980925157216594
      ],
      [
        "▁nitelik",
        -10.350150609545178
      ],
      [
        "+",
        -12.809526790838989
      ],
      [
        "▁orhan",
        -10.472603389682147
      ],
      [
        "▁ses",
        -8.521102397145032
      ],
      [
        "▁istiyor",
        -8.688358832938924
      ],
      [
        "▁farklı",
        -8.491332385993857
      ],
      [
        "olog",
        -10.618812226513494
      ],
      [
        "▁kendisini",
        -7.291834468436704
      ],
      [
        "▁getirme",
        -10.09922261528652
      ],
      [
        "▁katlı",
        -10.39155710636848
      ],
      [
        "▁sabit",
        -9.22231593572425
      ],
      [
        "▁payı",
        -9.818271871122995
      ],
      [
        "▁ytl",
        -10.889125429626057
      ],
      [
        "▁1979",
        -9.957228283983179
      ],
      [
        "▁pu",
        -11.408164597291648
      ],
      [
        "▁kılıc",
        -9.872095832460982
      ],
      [
        "▁borcunu",
        -10.71835738620755
      ],
      [
        "▁kızları",
        -10.37073548739997
      ],
      [
        "▁kararı",
        -9.077993538453217
      ],
      [
        "▁1",
        -8.658172981846157
      ],
      [
        "▁arada",
        -8.441554164011144
      ],
      [
        "▁resim",
        -9.05537058184187
      ],
      [
        "▁care",
        -9.368000562047143
      ],
      [
        "▁bakma",
        -9.769955914316641
      ],
      [
        "▁yaptik",
        -10.246610169493659
      ],
      [
        "▁bekley",
        -10.10859740692059
      ],
      [
        "▁cicek",
        -9.060420554496808
      ],
      [
        "▁du",
        -6.33322890003446
      ],
      [
        "▁serin",
        -9.734680671293923
      ],
      [
        "gan",
        -8.929018109839225
      ],
      [
        "h",
        -6.8937856206294565
      ],
      [
        "▁turkiye'y",
        -10.703487232779146
      ],
      [
        "▁guler",
        -8.186717627250847
      ],
      [
        "▁sent",
        -9.025788965226315
      ],
      [
        "▁istifa",
        -9.13236555101158
      ],
      [
        "▁des",
        -9.84014740970324
      ],
      [
        "0'",
        -9.052401776303567
      ],
      [
        "▁yse",
        -8.979056288198866
      ],
      [
        "tı",
        -8.324715511985309
      ],
      [
        "▁konusuyor",
        -9.397632518442673
      ],
      [
        "ı",
        -6.612256086080283
      ],
      [
        "▁ogretmeni",
        -9.934793931052502
      ],
      [
        "▁gorse",
        -10.180197553338935
      ],
      [
        "sekiz",
        -8.816713050654165
      ],
      [
        "rah",
        -10.032067365267803
      ],
      [
        "▁gorunur",
        -10.540141735791082
      ],
      [
        "▁degisimi",
        -9.982065489384468
      ],
      [
        "lasan",
        -10.050095006058788
      ],
      [
        "▁diy",
        -9.0653246558342
      ],
      [
        "▁tasıya",
        -9.702027508357848
      ],
      [
        "bun",
        -10.777689337686775
      ],
      [
        "▁yakin",
        -9.071254432363848
      ],
      [
        "▁hurriyet",
        -10.293283932903108
      ],
      [
        "su",
        -8.88001573295357
      ],
      [
        "▁buray",
        -9.100176258701712
      ],
      [
        "▁phoenix'",
        -9.697446784216915
      ],
      [
        "▁alet",
        -9.907388772787852
      ],
      [
        "▁temyiz",
        -10.688528382211032
      ],
      [
        "▁edilemez",
        -10.629935565101606
      ],
      [
        "▁arzu",
        -9.567035404640169
      ],
      [
        "300",
        -9.606346454984338
      ],
      [
        "73",
        -10.807847826038392
      ],
      [
        "▁herkes",
        -6.889554463084344
      ],
      [
        "▁me",
        -8.002393157540732
      ],
      [
        "▁icat",
        -10.533507208219078
      ],
      [
        "et",
        -7.724595068204828
      ],
      [
        "'nda",
        -9.515871116441009
      ],
      [
        "e",
        -3.49719760532998
      ],
      [
        "▁atlat",
        -10.432551161295962
      ],
      [
        "▁turlari",
        -10.52828837218223
      ],
      [
        "▁muhak",
        -10.424389911111504
      ],
      [
        "m",
        -5.017397402025317
      ],
      [
        "tu",
        -9.158395043648547
      ],
      [
        "▁kural",
        -10.172185091222477
      ],
      [
        "▁ertelen",
        -10.539461472461712
      ],
      [
        "▁onlem",
        -9.98684998083559
      ],
      [
        "▁cemil",
        -10.576126464138714
      ],
      [
        "yim",
        -9.030144842992392
      ],
      [
        "▁istanbul'",
        -9.708211703432415
      ],
      [
        "▁yoneticileri",
        -9.526876909804539
      ],
      [
        "▁elimi",
        -10.073512868006391
      ],
      [
        "6.6",
        -9.959554949826867
      ],
      [
        "▁satıs",
        -8.206557430594232
      ],
      [
        "▁bar",
        -8.702636981137449
      ],
      [
        "▁5-1",
        -12.163675011319157
      ],
      [
        "▁at",
        -7.642255628230612
      ],
      [
        "▁miktar",
        -10.210539574483994
      ],
      [
        "▁azı",
        -10.022490512512897
      ],
      [
        "▁gunun",
        -9.901722472109352
      ],
      [
        "▁piyano",
        -10.42388246825998
      ],
      [
        "amıyoru",
        -10.341658109428028
      ],
      [
        "▁kucumse",
        -10.75118161728847
      ],
      [
        "▁calismasi",
        -10.33496290497751
      ],
      [
        "▁icin",
        -3.695592988678742
      ],
      [
        "▁hikmet",
        -10.751004165015914
      ],
      [
        "▁dow",
        -9.1168760955542
      ],
      [
        "▁okuma",
        -9.299580895325164
      ],
      [
        "▁ardı",
        -9.451458198429826
      ],
      [
        "ell",
        -9.308821838640654
      ],
      [
        "▁meydan",
        -8.823880375919263
      ],
      [
        "▁washington'",
        -8.877618808970524
      ],
      [
        "▁sakin",
        -8.507772184851637
      ],
      [
        "▁rahat",
        -8.046347636861679
      ],
      [
        "▁muhamme",
        -10.751010552476085
      ],
      [
        "ır",
        -8.522366261923946
      ],
      [
        "▁sık",
        -7.951270457486121
      ],
      [
        "▁oturmus",
        -9.708413061280885
      ],
      [
        "▁dusunce",
        -8.950461502314603
      ],
      [
        "▁yolları",
        -10.345611478796991
      ],
      [
        "▁kız",
        -7.9439734548441265
      ],
      [
        "▁saglıyor",
        -10.156658489634736
      ],
      [
        "ish",
        -10.21527770178504
      ],
      [
        "▁erkekler",
        -9.298920882037212
      ],
      [
        "5.3",
        -10.874273558595595
      ],
      [
        "liydi",
        -8.622274077447003
      ],
      [
        "▁ua",
        -10.475627311714602
      ],
      [
        "▁oz",
        -8.384043584965703
      ],
      [
        "▁acıkca",
        -9.858632024831893
      ],
      [
        "bizi",
        -10.708189506520814
      ],
      [
        "▁patates",
        -9.894676479002
      ],
      [
        "▁birinde",
        -10.56037537442672
      ],
      [
        "▁mat",
        -9.490165032097226
      ],
      [
        "▁manzara",
        -9.103754927046172
      ],
      [
        "▁ep",
        -10.756697479542987
      ],
      [
        "▁tar",
        -9.349853087315905
      ],
      [
        ".60",
        -10.955725625320385
      ],
      [
        "▁genelkurmay",
        -10.889098986883631
      ],
      [
        "▁uzun",
        -7.378282097083598
      ],
      [
        "▁titrey",
        -10.723032352933863
      ],
      [
        "▁ucusunuz",
        -10.017933186892794
      ],
      [
        "▁etmekte",
        -9.467509361271153
      ],
      [
        "u",
        -5.830923563296429
      ],
      [
        "c",
        -6.779551376003666
      ],
      [
        "▁12.0",
        -11.009849125258729
      ],
      [
        "▁beklenen",
        -9.769325079244506
      ],
      [
        "▁kıyaslan",
        -9.757036413371699
      ],
      [
        "▁1.",
        -8.798540166567136
      ],
      [
        "▁akraba",
        -10.3784389742116
      ],
      [
        "ce",
        -8.544836835015023
      ],
      [
        "▁olay",
        -9.135052108834717
      ],
      [
        "landıgı",
        -9.874788957782648
      ],
      [
        "▁philadelphia'",
        -8.051030299046829
      ],
      [
        "ev",
        -11.809602426827798
      ],
      [
        "p",
        -10.99625889677093
      ],
      [
        "▁proje",
        -8.91216156700127
      ],
      [
        "dur",
        -7.659836676129853
      ],
      [
        "▁op",
        -9.770503383765504
      ],
      [
        "▁kaza",
        -8.828034320404488
      ],
      [
        "▁elektrik",
        -9.067165038421745
      ],
      [
        "▁ip",
        -9.528826454585118
      ],
      [
        "▁industries",
        -10.471493083979798
      ],
      [
        "▁evler",
        -10.124859228935577
      ],
      [
        "▁ust",
        -8.464240709848802
      ],
      [
        "st",
        -8.333526778821433
      ],
      [
        "▁sempati",
        -10.75100396436759
      ],
      [
        "▁yatar",
        -10.634406326321951
      ],
      [
        "▁ey",
        -9.61318724151213
      ],
      [
        "▁bahse",
        -9.836132089360692
      ],
      [
        "▁kalmadigim",
        -10.255452355683564
      ],
      [
        "▁goruyordu",
        -10.482211174573905
      ],
      [
        "▁yonunde",
        -10.427431652909902
      ],
      [
        "▁kaldırma",
        -10.146346832453895
      ],
      [
        "▁aradı",
        -10.340605964340199
      ],
      [
        "ıvı",
        -11.887579079084775
      ],
      [
        "▁muh",
        -9.508197964277853
      ],
      [
        "▁hijyenik",
        -9.477561425147709
      ],
      [
        "▁one",
        -9.780608105965435
      ],
      [
        "▁ar",
        -8.187769927223961
      ],
      [
        "▁ellerini",
        -9.667601177731107
      ],
      [
        "▁anlatmaya",
        -10.625355284700674
      ],
      [
        ".23",
        -10.564161431779338
      ],
      [
        "▁idi",
        -9.143928234604788
      ],
      [
        "▁mesel",
        -10.28960542072029
      ],
      [
        "▁komisyonlar",
        -10.256768703375764
      ],
      [
        "▁kurtaj",
        -9.89482182550068
      ],
      [
        "▁serbest",
        -9.493802604054967
      ],
      [
        "▁nasıl",
        -7.725263798863233
      ],
      [
        "▁10'da",
        -9.752058823119508
      ],
      [
        "▁kulagın",
        -10.507071114676158
      ],
      [
        "unları",
        -10.14889697635057
      ],
      [
        "▁boston'",
        -7.978696614006062
      ],
      [
        "▁johnson",
        -10.574637400444464
      ],
      [
        "▁gezdi",
        -9.675693007915433
      ],
      [
        "▁sessiz",
        -8.774020766584531
      ],
      [
        "▁abart",
        -10.472149980046757
      ],
      [
        "▁koz",
        -10.442200576156939
      ],
      [
        "ılmaya",
        -10.651810929519272
      ],
      [
        "▁kalbi",
        -9.44200835515436
      ],
      [
        "▁uyan",
        -9.59554389380417
      ],
      [
        "ki",
        -6.635403197634998
      ],
      [
        "7.8",
        -10.507545661971692
      ],
      [
        "▁tencere",
        -10.041987637712468
      ],
      [
        "▁girince",
        -10.689615584728049
      ],
      [
        "▁sever",
        -9.553731811565799
      ],
      [
        "▁govde",
        -10.04199452587881
      ],
      [
        "▁kayıplar",
        -10.12407683969293
      ],
      [
        "▁kıta",
        -10.471574438826053
      ],
      [
        "▁detroit'",
        -10.283713823053105
      ],
      [
        "▁departman",
        -10.688503749684559
      ],
      [
        "▁getirmek",
        -10.294679591797875
      ],
      [
        "▁etmiyor",
        -9.56939071552643
      ],
      [
        "▁corp.",
        -8.746365734185897
      ],
      [
        "▁calısan",
        -8.813393442314306
      ],
      [
        "▁ihlal",
        -10.817670933999123
      ],
      [
        "▁okuyor",
        -10.3409715643261
      ],
      [
        "▁sa",
        -8.328952601184696
      ],
      [
        "▁mezar",
        -10.00317589029692
      ],
      [
        "▁almak",
        -8.156065310317926
      ],
      [
        "▁198",
        -10.06892958677094
      ],
      [
        "ca",
        -6.350409501597932
      ],
      [
        "▁fedakar",
        -10.334951322209726
      ],
      [
        "▁ilgileniyor",
        -10.143683989304984
      ],
      [
        "▁135",
        -10.524816484443363
      ],
      [
        "▁cuzdan",
        -10.75119221368486
      ],
      [
        "▁karlı",
        -10.056609449517618
      ],
      [
        "▁gorun",
        -8.90770399620942
      ],
      [
        "▁soba",
        -10.217029931182129
      ],
      [
        "▁rekor",
        -9.86768957412698
      ],
      [
        "▁8.5",
        -10.09862692703964
      ],
      [
        "▁acemi",
        -10.688696969962532
      ],
      [
        "▁karanlık",
        -9.359369744775943
      ],
      [
        "▁mesafe",
        -9.867654435841336
      ],
      [
        "-200",
        -11.812779528872541
      ],
      [
        "▁kis",
        -9.793300662325093
      ],
      [
        "▁alınması",
        -9.943992478348472
      ],
      [
        "▁ayna",
        -9.25470248902457
      ],
      [
        "▁pre",
        -10.420549316768923
      ],
      [
        "▁cambaz",
        -10.817685266982219
      ],
      [
        "▁yansıtıyor",
        -10.603821296764123
      ],
      [
        "▁gitme",
        -9.417013666657944
      ],
      [
        "▁secildi",
        -10.22345171249484
      ],
      [
        "▁newark",
        -10.667621363596682
      ],
      [
        "▁birbirimiz",
        -9.361017863192288
      ],
      [
        "memisti",
        -9.957087979263282
      ],
      [
        "▁anı",
        -9.595793818634602
      ],
      [
        "▁ayrica",
        -10.521515656449148
      ],
      [
        "▁vakti",
        -9.265255367419977
      ],
      [
        "▁cocug",
        -10.301953744427296
      ],
      [
        "▁kisi",
        -7.698265296098294
      ],
      [
        "▁oglu",
        -9.744160570798304
      ],
      [
        "▁kanadı",
        -10.522056304214644
      ],
      [
        "▁cevril",
        -9.8676476195251
      ],
      [
        "▁karar",
        -7.873344736235837
      ],
      [
        "man",
        -8.030706817078975
      ],
      [
        "▁yanı",
        -8.411851823386739
      ],
      [
        "20'",
        -10.395066349686374
      ],
      [
        "▁mahkum",
        -9.867766316256432
      ],
      [
        "anlıslanabilirli",
        -10.887677854341668
      ],
      [
        "▁nesil",
        -10.33862937346299
      ],
      [
        "▁uzadı",
        -10.818051558879223
      ],
      [
        "mayan",
        -8.903881813128109
      ],
      [
        "▁belge",
        -9.549277318890315
      ],
      [
        "▁yarısını",
        -10.603016838044457
      ],
      [
        "▁kurtuldu",
        -10.63948150549773
      ],
      [
        "▁degirmen",
        -10.751003844444782
      ],
      [
        "▁resme",
        -10.010769971554854
      ],
      [
        "▁belir",
        -9.1421062588922
      ],
      [
        "gimi",
        -9.77126847836017
      ],
      [
        "▁sokma",
        -10.644962202473423
      ],
      [
        "[MASK]",
        0.0
      ],
      [
        "▁282",
        -10.784349193443067
      ],
      [
        "▁yitir",
        -9.818782550603444
      ],
      [
        "▁ogret",
        -9.931624290791051
      ],
      [
        "cun",
        -6.71166408540965
      ],
      [
        "▁kalitesini",
        -10.528243752321824
      ],
      [
        "▁vatan",
        -9.514780367708939
      ],
      [
        "▁green",
        -10.574184739223075
      ],
      [
        "▁asıl",
        -8.971612475065225
      ],
      [
        "▁gar",
        -9.464909408933377
      ],
      [
        "▁tarife",
        -9.464035887735276
      ],
      [
        "▁onemli",
        -7.896864615531709
      ],
      [
        "▁dans",
        -9.742309321551492
      ],
      [
        "▁etraf",
        -9.74840003559011
      ],
      [
        "llah",
        -9.79718984514707
      ],
      [
        "▁york'ta",
        -8.81122638114256
      ],
      [
        "▁gelecekte",
        -9.757411318555002
      ],
      [
        "sını",
        -7.197320490390268
      ],
      [
        "00",
        -8.310518358353914
      ],
      [
        "▁sunlar",
        -8.674979951815075
      ],
      [
        "▁konusan",
        -10.53171380409892
      ],
      [
        "▁sacı",
        -10.6349630700042
      ],
      [
        "18",
        -12.105479095657515
      ],
      [
        "▁3000",
        -10.442746850365866
      ],
      [
        "▁borclu",
        -10.386790377058508
      ],
      [
        "▁adlandır",
        -10.757627088558106
      ],
      [
        "▁isci",
        -9.241816741511062
      ],
      [
        "▁tarihini",
        -10.755520103964141
      ],
      [
        "▁gereksiz",
        -10.636608810672305
      ],
      [
        "▁savunma",
        -8.932354689713144
      ],
      [
        "▁hissedarları",
        -10.574459071245819
      ],
      [
        "nden",
        -8.060048330852617
      ],
      [
        "▁54",
        -9.863656872981549
      ],
      [
        "▁52",
        -9.474990685845631
      ],
      [
        "▁devredil",
        -10.817778970428579
      ],
      [
        "▁ocak",
        -8.976202790414222
      ],
      [
        "▁cesidi",
        -10.335020571178358
      ],
      [
        "▁benze",
        -9.877592265686236
      ],
      [
        "▁nihayet",
        -9.457787693876423
      ],
      [
        "'li",
        -9.747621430289097
      ],
      [
        "uzere",
        -10.204615232942093
      ],
      [
        "▁meselesi",
        -10.362341278344278
      ],
      [
        "▁sek",
        -10.947438973603319
      ],
      [
        "▁v",
        -8.111888822248401
      ],
      [
        "▁uyum",
        -9.948593713256457
      ],
      [
        "▁ekibi",
        -9.389381555074888
      ],
      [
        "▁fransa'",
        -10.360692310455493
      ],
      [
        "▁calısanları",
        -9.98480879407905
      ],
      [
        "▁saklama",
        -10.865784285824926
      ],
      [
        "▁kale",
        -9.611339414565668
      ],
      [
        "▁nizam",
        -10.521509395664811
      ],
      [
        "▁nispet",
        -10.214813143287136
      ],
      [
        "▁sofor",
        -10.142072126867948
      ],
      [
        "▁s&p",
        -10.142062210927751
      ],
      [
        "▁tarihli",
        -9.944633170824925
      ],
      [
        "▁goster",
        -6.660718044491789
      ],
      [
        "▁gittikc",
        -10.355028070762849
      ],
      [
        "▁vah",
        -9.613085966710406
      ],
      [
        "▁dev",
        -9.27941992001961
      ],
      [
        "▁michael",
        -10.574124682692945
      ],
      [
        "0",
        -9.329708899782709
      ],
      [
        "▁kuvvet",
        -9.186650477087742
      ],
      [
        "▁kimse",
        -8.296606875204915
      ],
      [
        "▁mahalle",
        -9.181212715537455
      ],
      [
        "▁2016",
        -9.308874043928322
      ],
      [
        "▁bayrak",
        -10.081774048058998
      ],
      [
        "▁mutlu",
        -8.997835038609068
      ],
      [
        "▁ihracat",
        -9.72061987393585
      ],
      [
        "▁5.7",
        -10.983174100380875
      ],
      [
        "h",
        -7.700124458784982
      ],
      [
        "▁ısıgında",
        -10.760021009251345
      ],
      [
        "▁aldat",
        -10.346399913268625
      ],
      [
        "▁louis",
        -10.547654466930233
      ],
      [
        "▁iliskileri",
        -9.864789967041167
      ],
      [
        "▁maz",
        -9.901873583641684
      ],
      [
        "▁32",
        -9.8986938258308
      ],
      [
        "1-19",
        -12.809528646007319
      ],
      [
        "▁tayin",
        -10.689307781941348
      ],
      [
        "▁evlenme",
        -10.217975061735356
      ],
      [
        "▁suruklen",
        -10.693313173101172
      ],
      [
        "▁198",
        -13.999596592358095
      ],
      [
        "▁gozum",
        -10.045512888160598
      ],
      [
        "▁%1",
        -8.947074690717066
      ],
      [
        "▁kendi",
        -5.6647228416722895
      ],
      [
        "yuzotuz",
        -10.896203989690056
      ],
      [
        "▁sezginler",
        -10.817672964726455
      ],
      [
        "▁eri",
        -9.158867927055066
      ],
      [
        "▁altı",
        -6.8870572946492
      ],
      [
        "0-1",
        -13.27225999513051
      ],
      [
        "▁bucuk",
        -10.29397407294198
      ],
      [
        "▁orman",
        -9.319347930406138
      ],
      [
        "lar",
        -7.961244385437585
      ],
      [
        "▁beyefendi",
        -10.688503772014673
      ],
      [
        "▁borcu",
        -9.862054739344003
      ],
      [
        "▁rezervasyonlar",
        -10.695461979609712
      ],
      [
        "▁hırs",
        -10.658147556312008
      ],
      [
        "▁95",
        -10.11033810294644
      ],
      [
        "▁51",
        -9.143002594478848
      ],
      [
        "▁kova",
        -9.782313986127516
      ],
      [
        "▁orkestra",
        -10.817670414761405
      ],
      [
        "▁dallas",
        -8.411677136015097
      ],
      [
        "▁vardır",
        -8.40704594696437
      ],
      [
        "▁baglantı",
        -9.947311155772983
      ],
      [
        "▁yuzyıl",
        -9.440372610186033
      ],
      [
        "▁memnuniyeti",
        -10.046340620325761
      ],
      [
        "▁temizlik",
        -8.37440142548385
      ],
      [
        "▁miyi",
        -7.919809520676319
      ],
      [
        "▁soyleyecek",
        -10.720580859178833
      ],
      [
        "▁tersine",
        -10.22166633298312
      ],
      [
        ",",
        -2.073968199337104
      ],
      [
        "▁kararlı",
        -10.223138884671927
      ],
      [
        "▁2.5",
        -9.228150996259865
      ],
      [
        "▁geceleri",
        -9.591896071207564
      ],
      [
        "▁tara",
        -9.546493510053109
      ],
      [
        "▁beyin",
        -9.614648827334634
      ],
      [
        "▁dag",
        -8.908481372573647
      ],
      [
        "▁resmi",
        -8.9121794473133
      ],
      [
        "▁yogun",
        -9.227802281743667
      ],
      [
        "▁2001",
        -10.541663483046875
      ],
      [
        "▁columbia",
        -10.889099063895364
      ],
      [
        "9.6",
        -10.556319638405284
      ],
      [
        "▁199",
        -12.077407608052267
      ],
      [
        "anı",
        -10.80869044060454
      ],
      [
        "ga",
        -7.533082573075653
      ],
      [
        "▁bildirildi",
        -10.683677246207631
      ],
      [
        "▁okuy",
        -10.881462292726168
      ],
      [
        "▁dinledi",
        -10.417778827343865
      ],
      [
        "▁ydı",
        -7.2089507199542044
      ],
      [
        "▁simsek",
        -10.817903602717436
      ],
      [
        "▁ontario'",
        -10.756402897482348
      ],
      [
        "▁dahi",
        -10.23131396396872
      ],
      [
        "▁kullan",
        -8.525728207479673
      ],
      [
        "▁dama",
        -10.026469470066655
      ],
      [
        "im",
        -6.902083910411555
      ],
      [
        "▁donmus",
        -10.144172251071545
      ],
      [
        "▁bak",
        -7.654822538151133
      ],
      [
        "▁cesitli",
        -8.92270917108695
      ],
      [
        "▁kardesini",
        -10.679128341493449
      ],
      [
        "▁mola",
        -9.49791270407702
      ],
      [
        "▁hita",
        -10.044912033097017
      ],
      [
        "yol",
        -10.23710081778001
      ],
      [
        "kleri",
        -9.160282032731267
      ],
      [
        "sini",
        -7.09416311295583
      ],
      [
        "▁oncesi",
        -10.057419361648787
      ],
      [
        "▁tuketici",
        -9.236450630331259
      ],
      [
        "▁297",
        -10.906706760062976
      ],
      [
        "▁sirketler",
        -9.147900765402362
      ],
      [
        "tim",
        -8.85835951425771
      ],
      [
        "'",
        -4.8924320266455865
      ],
      [
        "▁sabır",
        -10.466120392189222
      ],
      [
        "▁er",
        -8.09185238545052
      ],
      [
        "rak",
        -8.566448902691814
      ],
      [
        "mıyor",
        -8.898344689984697
      ],
      [
        "▁cekiyor",
        -10.031155165698099
      ],
      [
        "irim",
        -9.529257223558064
      ],
      [
        "is",
        -8.080272782595433
      ],
      [
        "3:",
        -10.893648315244551
      ],
      [
        "▁partisi",
        -10.04636146768176
      ],
      [
        "▁onu",
        -5.862454001572309
      ],
      [
        "▁s",
        -12.083159505724957
      ],
      [
        "▁bereket",
        -10.629697386887191
      ],
      [
        "▁hijyen",
        -10.515990675952638
      ],
      [
        "ize",
        -9.091640657655384
      ],
      [
        "4",
        -6.5540460640835505
      ],
      [
        "▁ipuc",
        -10.825875518786757
      ],
      [
        "▁5",
        -9.726990897745424
      ],
      [
        "50000",
        -9.481042297468452
      ],
      [
        "▁nadir",
        -9.935226998478877
      ],
      [
        "at",
        -7.5002044794214555
      ],
      [
        "▁dusuyor",
        -10.26937366650053
      ],
      [
        "▁oteki",
        -10.09341093468947
      ],
      [
        "ow",
        -9.783081177892688
      ],
      [
        "▁yatırımcılar",
        -8.907555110482882
      ],
      [
        "▁butu",
        -7.424468291977727
      ],
      [
        "▁fredd",
        -10.819136379630658
      ],
      [
        "▁limuzin",
        -10.574125264328785
      ],
      [
        "▁vaziyet",
        -10.629769824611568
      ],
      [
        "▁ceyreginde",
        -10.379179900836554
      ],
      [
        "▁kupon",
        -10.380902603987874
      ],
      [
        "sen",
        -9.21652649494202
      ],
      [
        "ye",
        -5.532206613247487
      ],
      [
        "▁izmir",
        -10.78102134045849
      ],
      [
        "▁ticaret",
        -8.732889643887344
      ],
      [
        "▁desteklen",
        -10.483172823425308
      ],
      [
        "▁ters",
        -9.36274483658816
      ],
      [
        "▁duz",
        -9.253427244048925
      ],
      [
        "sı",
        -10.41126093834381
      ],
      [
        "▁kasa",
        -9.909274380073512
      ],
      [
        "▁soylendi",
        -10.553675997104367
      ],
      [
        "▁dinlenme",
        -10.476645382158434
      ],
      [
        "alti",
        -10.464776979090464
      ],
      [
        "madık",
        -10.276113832410195
      ],
      [
        "▁gorevini",
        -10.493941195768544
      ],
      [
        "▁45",
        -8.6417252970266
      ],
      [
        "▁arastırmacılar",
        -10.700910612414669
      ],
      [
        "▁yardimci",
        -8.805263557316133
      ],
      [
        "▁sonra",
        -6.821125699686132
      ],
      [
        "▁airlines'i",
        -10.02438122213488
      ],
      [
        "▁yakın",
        -7.915526209286007
      ],
      [
        "▁30",
        -6.961537307481505
      ],
      [
        "▁faaliyeti",
        -10.373061998763836
      ],
      [
        "▁60",
        -8.47541441656007
      ],
      [
        "▁co",
        -10.859016870384504
      ],
      [
        "inler",
        -9.147359778007075
      ],
      [
        "▁cor",
        -9.858463268927224
      ],
      [
        "▁film",
        -8.730112802741207
      ],
      [
        "▁kucu",
        -9.669004179417296
      ],
      [
        "▁panik",
        -10.42409455279897
      ],
      [
        "▁kadını",
        -9.736640078274359
      ],
      [
        "▁yukselisle",
        -10.687913007505617
      ],
      [
        "▁ekim",
        -8.913369903375866
      ],
      [
        "▁yorgunluk",
        -10.524455980579488
      ],
      [
        "▁yasadık",
        -10.508307440617028
      ],
      [
        "▁hisseler",
        -9.453729975780657
      ],
      [
        "5'te",
        -9.86583243726072
      ],
      [
        "▁kaybed",
        -9.694258913926639
      ],
      [
        "▁derin",
        -8.471847951460525
      ],
      [
        "▁city",
        -10.019482205529393
      ],
      [
        "in",
        -11.009759684549362
      ],
      [
        "▁ihtilaf",
        -10.889104963628611
      ],
      [
        "lay",
        -8.357209148287364
      ],
      [
        "▁sterlin",
        -10.378428233099594
      ],
      [
        "▁4.",
        -9.203855788183088
      ],
      [
        "▁ucuslarını",
        -7.789999309236505
      ],
      [
        "▁hayatta",
        -9.774431604460087
      ],
      [
        "▁sirketini",
        -10.626496852967538
      ],
      [
        "▁nere",
        -10.399778541441814
      ],
      [
        "▁sımsı",
        -10.521511267741564
      ],
      [
        "▁lo",
        -8.764482937697469
      ],
      [
        "▁italyan",
        -10.340399790053276
      ],
      [
        "▁gulu",
        -10.491167708417779
      ],
      [
        "▁yatagı",
        -9.844499918603422
      ],
      [
        "▁sallanıyor",
        -10.752427005585748
      ],
      [
        "▁gayret",
        -10.107579803340592
      ],
      [
        "▁noriega",
        -10.856710693969617
      ],
      [
        "top",
        -10.233033928735768
      ],
      [
        "▁gitti",
        -8.226182417379274
      ],
      [
        "▁altı",
        -9.841563011175618
      ],
      [
        "▁goturuyor",
        -10.85978357181898
      ],
      [
        "lenen",
        -9.206948117262328
      ],
      [
        "'nde",
        -10.226628611626325
      ],
      [
        "▁bakanı",
        -9.662473465062076
      ],
      [
        "▁geldigi",
        -9.197099350461098
      ],
      [
        "▁dusuk",
        -7.80350715130743
      ],
      [
        "▁ny",
        -9.8904193517544
      ],
      [
        "▁gu",
        -11.453395732365175
      ],
      [
        "▁nesnel",
        -10.731295041290364
      ],
      [
        "▁gencler",
        -10.249373669344898
      ],
      [
        "▁tampa'",
        -10.297625022890612
      ],
      [
        "ımızda",
        -9.699498780654906
      ],
      [
        "▁boyu",
        -9.497659597333652
      ],
      [
        "▁yaslı",
        -9.047517103835153
      ],
      [
        "▁ciftlik",
        -10.088064501428857
      ],
      [
        "▁sizin",
        -7.488609617365101
      ],
      [
        "▁selam",
        -9.818408248896462
      ],
      [
        "▁'dı",
        -10.576092024699758
      ],
      [
        "▁utan",
        -10.071685556274954
      ],
      [
        "▁bulabilir",
        -10.113615171295288
      ],
      [
        "▁kızım",
        -10.28296412385497
      ],
      [
        "▁jones",
        -9.128918909805758
      ],
      [
        "▁gozunde",
        -10.544664663985724
      ],
      [
        "▁olurdu",
        -9.515679765556847
      ],
      [
        "▁onem",
        -8.83600037840938
      ],
      [
        "▁ydu",
        -8.242796498591797
      ],
      [
        "▁gorev",
        -8.573804851928987
      ],
      [
        "dıklarını",
        -9.73493829873815
      ],
      [
        "ecekti",
        -9.956415596604085
      ],
      [
        "▁kazanc",
        -8.621215104144337
      ],
      [
        "▁diri",
        -10.150105591998264
      ],
      [
        "▁azal",
        -9.287730468581895
      ],
      [
        "▁ucuyor",
        -8.92924150587304
      ],
      [
        "ran",
        -8.282028455631899
      ],
      [
        "▁fa",
        -8.906900049197075
      ],
      [
        "▁malzeme",
        -9.9881983981237
      ],
      [
        "▁kapasitesi",
        -9.86331760413016
      ],
      [
        "▁12'de",
        -10.108220262261412
      ],
      [
        "▁%9.",
        -11.600875950498601
      ],
      [
        "kları",
        -8.83915640026682
      ],
      [
        "▁fis",
        -10.304956502095049
      ],
      [
        "▁isletiyor",
        -10.81820398734924
      ],
      [
        "▁yanakları",
        -10.39671344724146
      ],
      [
        "▁grupları",
        -10.404227491132541
      ],
      [
        "▁konu",
        -7.997758690877331
      ],
      [
        "▁dusmustu",
        -10.488596985568943
      ],
      [
        "▁bizi",
        -7.022754278498933
      ],
      [
        "▁gormus",
        -9.777349363332451
      ],
      [
        "▁bileti",
        -9.524939875434427
      ],
      [
        "di",
        -9.629472024909338
      ],
      [
        "▁hacmi",
        -9.142623965888966
      ],
      [
        "▁odeye",
        -10.563860735233806
      ],
      [
        "▁tartıs",
        -10.022519566206343
      ],
      [
        "▁potansiyel",
        -9.841330728491327
      ],
      [
        "▁karars",
        -10.213490956191073
      ],
      [
        "ik",
        -7.880937854501001
      ],
      [
        "▁ozer",
        -10.301754420426821
      ],
      [
        "fıkı",
        -12.121032786426541
      ],
      [
        "▁400",
        -9.513158611518943
      ],
      [
        "0",
        -7.311164126873569
      ],
      [
        ":",
        -10.074245610202244
      ],
      [
        "▁milliyetci",
        -10.709417578633419
      ],
      [
        "▁7'de",
        -10.07588100437949
      ],
      [
        "▁allah'",
        -10.22475778755312
      ],
      [
        "eyim",
        -9.489608099143567
      ],
      [
        "▁ogrenil",
        -10.815063361162888
      ],
      [
        "▁hane",
        -10.249320999023611
      ],
      [
        "0-6",
        -11.809847726313187
      ],
      [
        "▁olabilecegi",
        -10.578674731031025
      ],
      [
        "▁rahatsız",
        -9.480264065656277
      ],
      [
        "▁gunluk",
        -8.41695264688128
      ],
      [
        "ildi",
        -8.914035533589008
      ],
      [
        "▁yara",
        -8.413062092414771
      ],
      [
        "▁bine",
        -10.545356150114127
      ],
      [
        "▁pencere",
        -8.821858771539045
      ],
      [
        "▁ayrılmıs",
        -10.690125249029997
      ],
      [
        "ator",
        -10.312710322793386
      ],
      [
        "▁bunda",
        -7.528333776484609
      ],
      [
        "▁koku",
        -8.967187767373987
      ],
      [
        "▁kendimde",
        -9.632540964210538
      ],
      [
        "▁mehmet",
        -8.986662159523604
      ],
      [
        "▁sure",
        -7.864269394590424
      ],
      [
        "▁teskil",
        -10.21488114599486
      ],
      [
        "▁koltug",
        -10.421416624840473
      ],
      [
        "▁kisilerin",
        -10.444698262849961
      ],
      [
        "▁halinde",
        -8.922503723471646
      ],
      [
        "lukta",
        -10.437206897658324
      ],
      [
        "▁edecek",
        -8.806606393927595
      ],
      [
        "%",
        -5.612064710322522
      ],
      [
        "mezse",
        -10.267923122423365
      ],
      [
        "▁sokaklarda",
        -10.702379227069752
      ],
      [
        "to",
        -8.499170550452924
      ],
      [
        "▁faturami",
        -10.416633861471666
      ],
      [
        "▁yasanma",
        -10.851033775195631
      ],
      [
        "▁korktu",
        -10.423920394194479
      ],
      [
        "4-",
        -13.308189085778404
      ],
      [
        "▁fu",
        -9.527131004629723
      ],
      [
        "▁tesaduf",
        -10.0419875852325
      ],
      [
        "ların",
        -10.046017326159038
      ],
      [
        "▁62.",
        -10.93445556329254
      ],
      [
        "▁%3.4",
        -11.443083918441491
      ],
      [
        "’",
        -10.688503747893645
      ],
      [
        "1.7",
        -10.932427490878277
      ],
      [
        "▁birimiz",
        -10.302587019003676
      ],
      [
        "▁duzen",
        -8.751287276716841
      ],
      [
        "▁defa",
        -8.547178199142849
      ],
      [
        "larımı",
        -9.435538210514213
      ],
      [
        "▁oranlarını",
        -10.594493209829817
      ],
      [
        "mayı",
        -8.315651335519446
      ],
      [
        "▁konser",
        -9.92271392705076
      ],
      [
        "▁oksa",
        -10.1467265226243
      ],
      [
        "▁rica",
        -10.340222357743254
      ],
      [
        "bindokuzyuz",
        -10.616152285005132
      ],
      [
        "▁duygusal",
        -10.293960893182565
      ],
      [
        "▁hatır",
        -9.154936062409332
      ],
      [
        "▁gures",
        -10.047415778159916
      ],
      [
        "▁sende",
        -9.565810326593109
      ],
      [
        "▁2",
        -6.394889887602322
      ],
      [
        "▁evlilik",
        -10.527342194806844
      ],
      [
        "▁1.19",
        -10.761712764325301
      ],
      [
        "▁f",
        -8.204955159730982
      ],
      [
        "▁tesekkur",
        -8.38052758347661
      ],
      [
        "▁ugras",
        -9.23019679588057
      ],
      [
        "▁ayhan",
        -10.07739284863999
      ],
      [
        "▁burada",
        -7.918770060234484
      ],
      [
        "▁1990",
        -8.286578179816033
      ],
      [
        "▁verme",
        -8.794141246875835
      ],
      [
        "▁kalitesi",
        -7.867302381413524
      ],
      [
        "cik",
        -9.55721065315156
      ],
      [
        "meli",
        -9.093973970450726
      ],
      [
        "▁edeli",
        -10.826806672774886
      ],
      [
        "▁beyle",
        -9.067544905034712
      ],
      [
        "cagız",
        -9.181760665440848
      ],
      [
        "▁300",
        -8.446205231310003
      ],
      [
        "▁verir",
        -9.05988913918613
      ],
      [
        "▁gorunus",
        -10.0577922812004
      ],
      [
        "▁alanında",
        -10.277278067140514
      ],
      [
        "▁sol",
        -8.328303408698616
      ],
      [
        "▁ucusları",
        -6.369933874846425
      ],
      [
        "gun",
        -8.584285829249563
[...]
