{
  "version": "1.0",
  "truncation": null,
  "padding": null,
  "added_tokens": [
    {
      "id": 1029,
      "content": "[UNK]",
      "single_word": false,
      "lstrip": false,
      "rstrip": false,
      "normalized": false,
      "special": true
    },
    {
      "id": 2537,
      "content": "[PAD]",
      "single_word": false,
      "lstrip": false,
      "rstrip": false,
      "normalized": false,
      "special": true
    },
    {
      "id": 2893,
      "content": "[CLS]",
      "single_word": false,
      "lstrip": false,
      "rstrip": false,
      "normalized": false,
      "special": true
    },
    {
      "id": 3376,
      "content": "[SEP]",
      "single_word": false,
      "lstrip": false,
      "rstrip": false,
      "normalized": false,
      "special": true
    },
    {
      "id": 3836,
      "content": "[MASK]",
      "single_word": false,
      "lstrip": false,
      "rstrip": false,
      "normalized": false,
      "special": true
    }
  ],
  "normalizer": {
    "type": "Sequence",
    "normalizers": [
      {
        "type": "NFD"
      },
      {
        "type": "Lowercase"
      },
      {
        "type": "StripAccents"
      }
    ]
  },
  "pre_tokenizer": {
    "type": "Sequence",
    "pretokenizers": [
      {
        "type": "Metaspace",
        "replacement": "▁",
        "prepend_scheme": "always",
        "split": true
      }
    ]
  },
  "post_processor": {
    "type": "TemplateProcessing",
    "single": [
      {
        "SpecialToken": {
          "id": "[CLS]",
          "type_id": 0
        }
      },
      {
        "Sequence": {
          "id": "A",
          "type_id": 0
        }
      },
      {
        "SpecialToken": {
          "id": "[SEP]",
          "type_id": 0
        }
      }
    ],
    "pair": [
      {
        "SpecialToken": {
          "id": "[CLS]",
          "type_id": 0
        }
      },
      {
        "Sequence": {
          "id": "A",
          "type_id": 0
        }
      },
      {
        "SpecialToken": {
          "id": "[SEP]",
          "type_id": 0
        }
      },
      {
        "Sequence": {
          "id": "B",
          "type_id": 1
        }
      },
      {
        "SpecialToken": {
          "id": "[SEP]",
          "type_id": 1
        }
      }
    ],
    "special_tokens": {
      "[CLS]": {
        "id": "[CLS]",
        "ids": [
          2893
        ],
        "tokens": [
          "[CLS]"
        ]
      },
      "[SEP]": {
        "id": "[SEP]",
        "ids": [
          3376
        ],
        "tokens": [
          "[SEP]"
        ]
      }
    }
  },
  "decoder": {
    "type": "Metaspace",
    "replacement": "▁",
    "prepend_scheme": "always",
    "split": true
  },
  "model": {
    "type": "Unigram",
    "unk_id": 1029,
    "vocab": [
      [
        "▁amerikan",
        -7.695337787897906
      ],
      [
        "▁hacim",
        -9.50436534545878
      ],
      [
        "▁1989",
        -7.7880954400216265
      ],
      [
        "▁sorunları",
        -9.425974670333805
      ],
      [
        "▁kagıt",
        -8.791002462386043
      ],
      [
        "ladı",
        -7.31748361839111
      ],
      [
        "on",
        -7.694572906383204
      ],
      [
        "▁bulut",
        -9.726192348122936
      ],
      [
        "▁yuzd",
        -7.43297417020483
      ],
      [
        "▁dengesi",
        -9.875516874814522
      ],
      [
        "▁degisim",
        -9.232188448144342
      ],
      [
        "▁ayni",
        -9.325001183433221
      ],
      [
        "if",
        -8.320450407507982
      ],
      [
        "▁cocugun",
        -9.380961425110309
      ],
      [
        "▁uzun",
        -7.455025669325789
      ],
      [
        "▁ker",
        -9.408524136075851
      ],
      [
        "▁60",
        -8.47541441656007
      ],
      [
        "=",
        -11.309526790838989
      ],
      [
        "▁halkı",
        -9.425216983001933
      ],
      [
        "▁ingiltere",
        -9.827755088862592
      ],
      [
        "▁yolunu",
        -9.852357584246512
      ],
      [
        "▁dikkat",
        -8.352853640052917
      ],
      [
        "cagız",
        -9.042107885452184
      ],
      [
        "▁bozul",
        -9.789970248332624
      ],
      [
        "▁danısman",
        -9.411128589373835
      ],
      [
        "▁defa",
        -8.679369722622454
      ],
      [
        "▁taban",
        -9.537960905900913
      ],
      [
        "▁konum",
        -8.521437551428445
      ],
      [
        "sin",
        -7.65841915590292
      ],
      [
        "▁ton",
        -9.388301370019493
      ],
      [
        "▁salı",
        -8.195592363186133
      ],
      [
        "eden",
        -8.92134862813515
      ],
      [
        "gini",
        -8.137641850084428
      ],
      [
        "yacak",
        -9.30119291587988
      ],
      [
        "ır",
        -8.522366261923946
      ],
      [
        "▁ataturk",
        -9.557003857833479
      ],
      [
        "▁ismi",
        -9.538716737898902
      ],
      [
        "▁jones",
        -9.260175901861132
      ],
      [
        "▁ulas",
        -8.655885149117946
      ],
      [
        "cilik",
        -9.22398875101973
      ],
      [
        "▁ydi",
        -6.934268810392528
      ],
      [
        "▁degiller",
        -8.877110792197561
      ],
      [
        "▁salt",
        -8.85349889096462
      ],
      [
        "▁japon",
        -8.641859502009371
      ],
      [
        "▁nere",
        -9.042275396247183
      ],
      [
        "▁bulan",
        -9.62294223693075
      ],
      [
        "▁osmanlı",
        -9.684072863671343
      ],
      [
        "▁ler",
        -9.237594244454714
      ],
      [
        "siz",
        -7.05950373911789
      ],
      [
        "ga",
        -7.066949136890428
      ],
      [
        "ey",
        -8.598578237220202
      ],
      [
        "▁mısır",
        -9.70141502787359
      ],
      [
        "▁doksan",
        -9.193311985443783
      ],
      [
        "1",
        -8.609559587766825
      ],
      [
        "▁ote",
        -8.862183608090394
      ],
      [
        "▁surec",
        -8.971151405245916
      ],
      [
        "gımı",
        -9.71346941343042
      ],
      [
        "at",
        -6.864024170952207
      ],
      [
        "z",
        -5.578889197422031
      ],
      [
        "▁care",
        -9.521568657991004
      ],
      [
        "▁okur",
        -9.496319512318431
      ],
      [
        "▁ydı",
        -7.2089507199542044
      ],
      [
        "25",
        -8.00138996399132
      ],
      [
        "▁birinci",
        -8.08995841946951
      ],
      [
        "▁gerceklestir",
        -9.292163903124807
      ],
      [
        "▁bogaz",
        -9.382053157340334
      ],
      [
        "ucu",
        -9.522373099117019
      ],
      [
        "▁s",
        -7.777255275763156
      ],
      [
        "%6",
        -11.974395327795516
      ],
      [
        "ıp",
        -7.2742003880055535
      ],
      [
        "ist",
        -8.493387358005808
      ],
      [
        "▁sag",
        -7.546406808399721
      ],
      [
        "▁sosyal",
        -8.91824676736732
      ],
      [
        "elik",
        -6.520822795879047
      ],
      [
        "▁ol",
        -5.815072017605014
      ],
      [
        "▁olmayan",
        -8.744900237626066
      ],
      [
        "▁bahar",
        -9.783854198829275
      ],
      [
        "▁miydi",
        -8.422154298711042
      ],
      [
        "▁mantık",
        -9.62519546185833
      ],
      [
        "▁deneyim",
        -9.790561879280364
      ],
      [
        "▁geriledi",
        -9.731897819804754
      ],
      [
        "bil",
        -8.275073873101139
      ],
      [
        "▁dostu",
        -9.489384888375138
      ],
      [
        "▁kirli",
        -9.526103529302056
      ],
      [
        "▁iri",
        -9.573171419173605
      ],
      [
        "▁198",
        -6.975109802594099
      ],
      [
        "▁yolculuk",
        -9.875255226856927
      ],
      [
        "▁kız",
        -7.615697594516653
      ],
      [
        "'nın",
        -7.809388003581404
      ],
      [
        "▁amerikalı",
        -9.576667375948265
      ],
      [
        "acak",
        -7.134853170385037
      ],
      [
        "▁cumhuriyet",
        -8.9365116049754
      ],
      [
        "verdi",
        -9.649750578958002
      ],
      [
        "▁calısır",
        -9.859080155771515
      ],
      [
        "▁op",
        -8.835435380948336
      ],
      [
        "▁olacagını",
        -9.196040188549869
      ],
      [
        "8",
        -9.75904513773084
      ],
      [
        "▁olayı",
        -9.823412271189433
      ],
      [
        "vi",
        -7.848383984312015
      ],
      [
        "ıldıgını",
        -9.829085734651247
      ],
      [
        "▁kapı",
        -7.578234147472066
      ],
      [
        "acagı",
        -8.659319427319453
      ],
      [
        "di",
        -9.629472024909338
      ],
      [
        "ler",
        -8.561113245009482
      ],
      [
        "▁kadar",
        -9.076692001063382
      ],
      [
        "▁unutma",
        -9.737694608692717
      ],
      [
        "▁kıyı",
        -9.175380726074948
      ],
      [
        ".50",
        -9.474023788463791
      ],
      [
        "▁yatırım",
        -8.298549136963107
      ],
      [
        "▁corp",
        -9.804747230480096
      ],
      [
        "▁attı",
        -8.759317236217075
      ],
      [
        "▁demis",
        -9.63364168011573
      ],
      [
        "▁35",
        -8.676949231489617
      ],
      [
        "▁mucadele",
        -9.198412924139983
      ],
      [
        "▁it",
        -8.794598392806797
      ],
      [
        "▁onumuzde",
        -8.64313858104113
      ],
      [
        "▁geci",
        -8.816737743233436
      ],
      [
        "▁yaklası",
        -7.845042333818168
      ],
      [
        "▁baskı",
        -8.820135621730431
      ],
      [
        "▁manzara",
        -9.235002295111173
      ],
      [
        "▁hakkı",
        -9.018460528822224
      ],
      [
        "▁donemde",
        -9.468864645351044
      ],
      [
        "▁de",
        -4.123481529930005
      ],
      [
        ".",
        -9.216358711206777
      ],
      [
        "▁tarife",
        -9.595926175349138
      ],
      [
        "—",
        -12.809526790838989
      ],
      [
        "ben",
        -8.122680783913847
      ],
      [
        "ya",
        -5.196586832465009
      ],
      [
        "bo",
        -8.202992735796595
      ],
      [
        "▁varan",
        -8.4128285136543
      ],
      [
        "▁duk",
        -8.799410016204435
      ],
      [
        "▁ek",
        -7.9458786915230935
      ],
      [
        "y",
        -7.050804997876933
      ],
      [
        "▁perde",
        -9.22596890206755
      ],
      [
        "▁%3",
        -10.101956111336266
      ],
      [
        "▁anda",
        -8.20293932134174
      ],
      [
        "9",
        -8.231584331106367
      ],
      [
        "oksa",
        -8.161319445537565
      ],
      [
        "▁ny",
        -9.87589933174581
      ],
      [
        "sar",
        -9.207099661150039
      ],
      [
        "▁chp",
        -9.922305521644715
      ],
      [
        "▁ru",
        -8.775269578744147
      ],
      [
        "ım",
        -7.469901599322845
      ],
      [
        "▁calisanlari",
        -9.811442890001226
      ],
      [
        "▁altında",
        -8.012488363282564
      ],
      [
        "▁aydın",
        -9.064861755413258
      ],
      [
        "▁yorum",
        -8.175358329546281
      ],
      [
        "▁sekiz",
        -7.532759790075625
      ],
      [
        "▁itibar",
        -9.720744470430763
      ],
      [
        "▁jose'",
        -9.8975773446219
      ],
      [
        "lıyordu",
        -9.233024971844728
      ],
      [
        "▁basını",
        -9.040417234711573
      ],
      [
        "▁al",
        -6.713805819489528
      ],
      [
        "▁air",
        -8.779030508706178
      ],
      [
        "▁mus",
        -8.161837378504368
      ],
      [
        "▁senato",
        -9.466390874196076
      ],
      [
        "▁gecir",
        -8.511647180989259
      ],
      [
        "▁heyecan",
        -9.033204984321506
      ],
      [
        "▁konu",
        -7.8399904739307065
      ],
      [
        "▁bi",
        -9.055809742934358
      ],
      [
        "▁cabuk",
        -9.606871281823697
      ],
      [
        "▁italya",
        -9.762531984039768
      ],
      [
        "▁dallas",
        -8.543621112792469
      ],
      [
        "▁bakıs",
        -8.985702413984995
      ],
      [
        "▁g",
        -8.446443662807983
      ],
      [
        "den",
        -8.05560578784303
      ],
      [
        "▁1.",
        -8.798540166567136
      ],
      [
        "▁yapmayı",
        -9.512023894982693
      ],
      [
        "▁muhafaza",
        -9.897547701486832
      ],
      [
        "su",
        -6.723454897549134
      ],
      [
        "meyecek",
        -9.08643894374838
      ],
      [
        "▁oldugunu",
        -8.734847030904774
      ],
      [
        "▁400",
        -9.513158611518943
      ],
      [
        "olar",
        -7.153116283606411
      ],
      [
        "▁dusen",
        -9.588180718667756
      ],
      [
        "yse",
        -9.25516519263973
      ],
      [
        "▁obur",
        -9.764203541894267
      ],
      [
        "dır",
        -7.55036445965566
      ],
      [
        "▁1.6",
        -8.971239292048033
      ],
      [
        "▁em",
        -8.428839929488857
      ],
      [
        "gin",
        -8.613088552117238
      ],
      [
        "▁%10",
        -10.750026030658061
      ],
      [
        "▁mola",
        -9.636850629990585
      ],
      [
        "mazdı",
        -9.459250341350788
      ],
      [
        "▁adalet",
        -9.92244512092648
      ],
      [
        "inden",
        -7.92471973110301
      ],
      [
        "▁vatandas",
        -9.80603155539233
      ],
      [
        "▁korku",
        -8.498976735223408
      ],
      [
        "abiliyor",
        -9.685850040551351
      ],
      [
        "▁york'ta",
        -8.945834623848455
      ],
      [
        "▁rus",
        -9.173328039635443
      ],
      [
        "▁yazı",
        -7.8905692324169525
      ],
      [
        "▁2.7",
        -8.87867738926752
      ],
      [
        "▁dis",
        -8.684989702191261
      ],
      [
        "▁re",
        -7.3211204972826
      ],
      [
        "▁kadar",
        -4.58156761453913
      ],
      [
        "▁yuregi",
        -9.554262055677935
      ],
      [
        "▁faturam",
        -8.953934754302455
      ],
      [
        "ici",
        -8.501012356898944
      ],
      [
        "gine",
        -9.186686381246188
      ],
      [
        "▁ucret",
        -7.43563882456487
      ],
      [
        "'da",
        -9.16403921981313
      ],
      [
        "▁yeri",
        -9.361245770727574
      ],
      [
        "▁egitim",
        -8.736684331122754
      ],
      [
        "▁dahil",
        -8.85082872451917
      ],
      [
        "▁kart",
        -9.351661908123202
      ],
      [
        "▁bunlar",
        -6.623126046805661
      ],
      [
        "▁61",
        -9.652728695045726
      ],
      [
        "▁ziyaret",
        -9.247504495802744
      ],
      [
        "▁neler",
        -8.468540397938536
      ],
      [
        ",",
        -2.073968199337104
      ],
      [
        "▁ust",
        -8.362029928305347
      ],
      [
        "▁resmi",
        -9.04351530172958
      ],
      [
        "▁sent",
        -9.172448494973436
      ],
      [
        "▁%0.3",
        -11.442857597144098
      ],
      [
        "yı",
        -6.493538851248211
      ],
      [
        "▁ihtiyac",
        -8.546146631382415
      ],
      [
        "▁duyar",
        -9.285931808452847
      ],
      [
        "▁kriz",
        -9.353704203745174
      ],
      [
        "▁emin",
        -9.147249346876208
      ],
      [
        "▁ta",
        -7.040978547830226
      ],
      [
        "▁gozlu",
        -9.75260002590107
      ],
      [
        "▁onunde",
        -8.434986918892859
      ],
      [
        "lerimi",
        -9.387985779140172
      ],
      [
        "▁degisiklikler",
        -9.431026902901106
      ],
      [
        "▁zamanda",
        -8.793111838864204
      ],
      [
        "▁begendi",
        -8.583107062624553
      ],
      [
        "▁teminat",
        -9.805534541734072
      ],
      [
        "kları",
        -8.64846256397854
      ],
      [
        "▁bildirdi",
        -9.348365591008722
      ],
      [
        "▁asıl",
        -9.00825555823684
      ],
      [
        "▁delikanlı",
        -9.472218079334432
      ],
      [
        "2'de",
        -9.921511828037543
      ],
      [
        "▁2.4",
        -9.51132940065262
      ],
      [
        "▁personeli",
        -9.060248158538801
      ],
      [
        "▁uzat",
        -9.174979478715818
      ],
      [
        "digim",
        -8.825358052051326
      ],
      [
        "▁kalkıs",
        -9.452852399692022
      ],
      [
        "▁geliyor",
        -8.155109921291444
      ],
      [
        "▁etmedi",
        -9.442675002563305
      ],
      [
        "▁gozu",
        -8.540741737129036
      ],
      [
        "▁nasıl",
        -7.856533560673513
      ],
      [
        "▁canlı",
        -9.479312062453747
      ],
      [
        "0",
        -9.329708899782707
      ],
      [
        "▁um",
        -8.665381838540915
      ],
      [
        "▁kazı",
        -9.928540875213805
      ],
      [
        "iyeti",
        -8.900904763757794
      ],
      [
        "▁seksen",
        -9.510386021826939
      ],
      [
        "▁%7",
        -10.358981022668138
      ],
      [
        "▁yara",
        -8.346862351014726
      ],
      [
        "▁gelecekte",
        -9.838156679551439
      ],
      [
        "▁onun",
        -5.488682034044008
      ],
      [
        "onun",
        -8.69465956388141
      ],
      [
        "▁koy",
        -7.7608972794856
      ],
      [
        "▁dolu",
        -8.52322620169668
      ],
      [
        "uk",
        -8.359112610324992
      ],
      [
        "du",
        -6.212810006052852
      ],
      [
        "▁edilen",
        -8.56085855666207
      ],
      [
        "▁herif",
        -9.785189740231456
      ],
      [
        "ından",
        -8.199685595901302
      ],
      [
        "▁yanında",
        -8.57235435978041
      ],
      [
        "▁bende",
        -7.864745660393515
      ],
      [
        "kten",
        -8.362329636799577
      ],
      [
        "▁edilme",
        -9.478557103868516
      ],
      [
        "▁bur",
        -8.165638143690838
      ],
      [
        "▁benzer",
        -8.651833051624152
      ],
      [
        "emez",
        -8.918185540199227
      ],
      [
        "ci",
        -6.671020570236158
      ],
      [
        "inler",
        -9.147359778007075
      ],
      [
        "▁hareket",
        -7.784078309776468
      ],
      [
        "▁orta",
        -7.1090484107032665
      ],
      [
        "▁dunyada",
        -9.460184252004323
      ],
      [
        "▁kesti",
        -9.538674686536321
      ],
      [
        "▁calı",
        -9.514410520118993
      ],
      [
        "vı",
        -10.422371062606649
      ],
      [
        "▁%2",
        -9.532782587822313
      ],
      [
        "▁dagıt",
        -8.967339177722355
      ],
      [
        "lastırma",
        -9.700084222025435
      ],
      [
        "▁kusku",
        -9.717403984776745
      ],
      [
        "▁uyu",
        -8.654281321381694
      ],
      [
        "▁ka",
        -7.0394861384462875
      ],
      [
        "▁sayfa",
        -9.572577075181211
      ],
      [
        "▁etmekte",
        -9.666068775442342
      ],
      [
        "ler",
        -5.054731739971512
      ],
      [
        "▁milyar",
        -9.129068258602373
      ],
      [
        "▁haz",
        -9.627532369612346
      ],
      [
        "▁ku",
        -8.078068271721804
      ],
      [
        "tik",
        -7.876585261670358
      ],
      [
        ":30",
        -11.315077693448158
      ],
      [
        "▁katkı",
        -9.129369352195809
      ],
      [
        "▁serbest",
        -9.625052229583407
      ],
      [
        "▁tarihinde",
        -9.661907143676558
      ],
      [
        "▁kazan",
        -8.2048554090186
      ],
      [
        "▁kendinizi",
        -9.064126104649338
      ],
      [
        "▁yanda",
        -9.581330661805522
      ],
      [
        "▁zor",
        -8.294723702269208
      ],
      [
        "▁yardım",
        -8.414896876047703
      ],
      [
        "▁ti",
        -8.922127543731293
      ],
      [
        "▁okuy",
        -9.131088986877453
      ],
      [
        "5'te",
        -9.81848054566576
      ],
      [
        "'ın",
        -7.3547460505853115
      ],
      [
        "▁pesinde",
        -9.906608698058907
      ],
      [
        "u",
        -5.348489171982953
      ],
      [
        "▁dal",
        -8.446432586825376
      ],
      [
        "ton",
        -8.213879650619416
      ],
      [
        "▁fa",
        -8.020009612164898
      ],
      [
        "-4",
        -11.354791702071255
      ],
      [
        "▁gu",
        -8.540660360325226
      ],
      [
        "▁problem",
        -9.07466123865292
      ],
      [
        "nde",
        -7.939303571075523
      ],
      [
        "▁fiyati",
        -9.195402717711701
      ],
      [
        "▁duman",
        -9.442904597027706
      ],
      [
        "6'",
        -9.538621028627944
      ],
      [
        "i",
        -4.740012405433118
      ],
      [
        "▁aklı",
        -8.51251435322138
      ],
      [
        "or",
        -5.553781193793439
      ],
      [
        "▁8",
        -8.034759464810683
      ],
      [
        "▁olabilir",
        -7.648818519600991
      ],
      [
        "▁13",
        -8.043983628244806
      ],
      [
        "yesinde",
        -9.472963265384633
      ],
      [
        "▁ongor",
        -9.381944484898646
      ],
      [
        "u",
        -5.066036806639432
      ],
      [
        "▁3/",
        -8.14222313149267
      ],
      [
        "iyorum",
        -8.396483264630316
      ],
      [
        "▁degili",
        -7.3367447943537805
      ],
      [
        "▁%3.7",
        -11.920921912011625
      ],
      [
        "▁gemi",
        -8.665762528385406
      ],
      [
        "kim",
        -9.596563809862902
      ],
      [
        "▁yık",
        -8.882488047796942
      ],
      [
        "▁yerinde",
        -8.973651775341516
      ],
      [
        "▁merkez",
        -8.5808129832079
      ],
      [
        "▁yapmıs",
        -9.563774456569515
      ],
      [
        "▁tarla",
        -9.329720850708576
      ],
      [
        "▁19",
        -7.590840352627738
      ],
      [
        "uyordu",
        -8.216611616602513
      ],
      [
        "▁kır",
        -7.988080465774058
      ],
      [
        "▁sır",
        -8.472108786206936
      ],
      [
        "ris",
        -9.225381196676278
      ],
      [
        "▁ediyordu",
        -9.128789525870886
      ],
      [
        "'a",
        -7.790828757597828
      ],
      [
        "▁tanrı",
        -9.727652258347874
      ],
      [
        "▁biri",
        -7.301416674230443
      ],
      [
        "▁sirketi",
        -8.736233423751138
      ],
      [
        "▁devir",
        -9.4947990172934
      ],
      [
        "▁dogrusu",
        -9.659299916601306
      ],
      [
        "▁ikisini",
        -9.709257845093296
      ],
      [
        "▁sev",
        -7.841390771695485
      ],
      [
        "▁cift",
        -8.288174800712527
      ],
      [
        "0'",
        -8.305880529856955
      ],
      [
        "un",
        -6.367823876770296
      ],
      [
        "▁birligi",
        -9.402511307564104
      ],
      [
        "*",
        -8.020174383409998
      ],
      [
        "mıstır",
        -8.52406905666259
      ],
      [
        "▁bekley",
        -9.502408979445557
      ],
      [
        "▁getir",
        -8.045737047917326
      ],
      [
        "▁ce",
        -7.3124242240171045
      ],
      [
        "ıyorlar",
        -8.868011892160618
      ],
      [
        "hal",
        -9.184832335593242
      ],
      [
        "▁getirdi",
        -9.221866789327024
      ],
      [
        "▁tren",
        -9.44831167588904
      ],
      [
        "▁fiyatlarını",
        -9.375354278470759
      ],
      [
        "▁bagıs",
        -9.88080921371049
      ],
      [
        "▁yapılmıs",
        -9.64913347152352
      ],
      [
        "▁genc",
        -7.807739584309089
      ],
      [
        "▁hicbirini",
        -9.34679240401203
      ],
      [
        "▁degerlendirir",
        -9.774926877776943
      ],
      [
        "22",
        -10.719045026475126
      ],
      [
        "um",
        -11.351739742103566
      ],
      [
        "▁teori",
        -9.922458229581457
      ],
      [
        "dugunu",
        -8.750376836865769
      ],
      [
        "▁sozlesme",
        -8.823767818934813
      ],
      [
        "▁alabilir",
        -9.389406890530598
      ],
      [
        "▁vazgec",
        -9.441205535976014
      ],
      [
        "lıgında",
        -9.254816083056024
      ],
      [
        "/",
        -5.95097924957408
      ],
      [
        "▁yaptı",
        -8.04343072860232
      ],
      [
        "▁milli",
        -8.894537831119287
      ],
      [
        "▁birlikte",
        -7.262536962257031
      ],
      [
        "▁mas",
        -9.291279979432318
      ],
      [
        "▁1990",
        -8.286578179816033
      ],
      [
        "▁muhtesem",
        -9.381930519699651
      ],
      [
        "03",
        -12.526590051914726
      ],
      [
        "▁omuz",
        -9.742050783643558
      ],
      [
        "▁%5",
        -9.992484952175907
      ],
      [
        "▁?",
        -9.499241568895846
      ],
      [
        "iki",
        -7.943918474887292
      ],
      [
        "▁almanya'",
        -9.764277881004979
      ],
      [
        "▁basar",
        -9.588057309971248
      ],
      [
        "ydu",
        -8.780846685632234
      ],
      [
        "▁senin",
        -6.975285892300653
      ],
      [
        "▁kıyasla",
        -9.506647975991758
      ],
      [
        "ılmıs",
        -8.18607130662625
      ],
      [
        "▁animasyon",
        -8.411926451759186
      ],
      [
        "bu",
        -8.138319709316665
      ],
      [
        "digi",
        -7.99030721541986
      ],
      [
        "degildi",
        -8.151181688592365
      ],
      [
        "%10",
        -13.63797741196559
      ],
      [
        "yle",
        -7.237237409706429
      ],
      [
        "▁ar",
        -7.795934983906903
      ],
      [
        "▁ordu",
        -9.125611569361139
      ],
      [
        "▁bank",
        -9.377138823894153
      ],
      [
        "▁doga",
        -8.783404389415669
      ],
      [
        "2'",
        -9.38295573923006
      ],
      [
        "▁rezerv",
        -9.921725359951607
      ],
      [
        "▁w",
        -8.373659810070096
      ],
      [
        "siniz",
        -8.521756178789774
      ],
      [
        "▁komur",
        -9.92219762158513
      ],
      [
        "▁annesi",
        -9.271820463094294
      ],
      [
        "be",
        -7.239008559173965
      ],
      [
        "▁insa",
        -9.360786281874189
      ],
      [
        "▁belirle",
        -9.382607038461654
      ],
      [
        "▁ozellikle",
        -8.143868757945008
      ],
      [
        "▁makine",
        -8.927492150961356
      ],
      [
        "▁malzemeler",
        -9.710650921203612
      ],
      [
        "den",
        -5.631656105993794
      ],
      [
        "mustu",
        -8.21994171042211
      ],
      [
        "▁yuru",
        -8.26962531226005
      ],
      [
        "▁kurum",
        -8.795907517929678
      ],
      [
        "▁kapsam",
        -9.337695268810073
      ],
      [
        "▁%11",
        -11.430310812463777
      ],
      [
        "▁listele",
        -8.129057039631343
      ],
      [
        "▁doları",
        -8.5292984276086
      ],
      [
        "▁gunduz",
        -9.60706777636183
      ],
      [
        "meli",
        -8.691313475915864
      ],
      [
        "▁%3.",
        -11.182099154216546
      ],
      [
        "▁ureticisi",
        -9.643609438964226
      ],
      [
        "rak",
        -8.507866813517674
      ],
      [
        "▁az",
        -6.954130594423254
      ],
      [
        "▁yarar",
        -9.552047230555115
      ],
      [
        "cılar",
        -8.401498106379062
      ],
      [
        "▁z",
        -11.475475111137184
      ],
      [
        "▁vur",
        -8.47341642533285
      ],
      [
        "▁kasaba",
        -9.36780509427335
      ],
      [
        "▁bagır",
        -9.011015852511203
      ],
      [
        "▁sevin",
        -9.62490442093237
      ],
      [
        "▁%9.6",
        -12.104486163788298
      ],
      [
        "▁yogun",
        -9.199418033690248
      ],
      [
        "▁acıklanmadı",
        -9.662512922007119
      ],
      [
        "▁ornek",
        -9.2603243934755
      ],
      [
        "or",
        -7.270989667158372
      ],
      [
        "▁gecme",
        -8.882730743176861
      ],
      [
        "uyor",
        -7.474684082033633
      ],
      [
        "▁chicago'",
        -9.458438484436567
      ],
      [
        "▁his",
        -9.589272132199506
      ],
      [
        "liydi",
        -8.215657485717394
      ],
      [
        "id",
        -9.133056460515599
      ],
      [
        "▁savası",
        -9.510040484330762
      ],
      [
        "b",
        -4.751618902518528
      ],
      [
        "▁hindistan",
        -9.921937990261593
      ],
      [
        "▁aldı",
        -7.641145762489193
      ],
      [
        "▁hastane",
        -9.461684858184963
      ],
      [
        "▁wall",
        -9.2601777810731
      ],
      [
        "se",
        -6.618819252400144
      ],
      [
        "▁tavsiye",
        -7.484460935271921
      ],
      [
        "larımı",
        -9.551658991996812
      ],
      [
        "▁bacak",
        -9.79350154958923
      ],
      [
        "▁giy",
        -8.364142725055089
      ],
      [
        "▁oluyor",
        -8.422392824418143
      ],
      [
        "▁sokag",
        -9.67330342756873
      ],
      [
        "▁avrupa",
        -8.684758527404552
      ],
      [
        "7",
        -9.393360759411731
      ],
      [
        "da",
        -5.604304682747239
      ],
      [
        "▁olmustu",
        -8.936300518937491
      ],
      [
        "▁sevdigi",
        -9.618936798713126
      ],
      [
        "▁anlasma",
        -8.312964440162599
      ],
      [
        "▁saatlerde",
        -9.709543801523171
      ],
      [
        "▁in",
        -7.629074608450537
      ],
      [
        "▁yarı",
        -8.130753887953134
      ],
      [
        "3",
        -9.345899583452661
      ],
      [
        "▁'y",
        -12.499910982439719
      ],
      [
        "▁yagmur",
        -9.299173014503914
      ],
      [
        "▁derin",
        -8.622110740291518
      ],
      [
        "▁deyi",
        -9.435001615412133
      ],
      [
        "'in",
        -6.955273848296498
      ],
      [
        "▁yalan",
        -9.260192575302415
      ],
      [
        "300",
        -9.606346454984338
      ],
      [
        "▁usta",
        -9.243274755519156
      ],
      [
        "▁su",
        -6.908456969426191
      ],
      [
        "iyordu",
        -7.897968189870133
      ],
      [
        "▁sakin",
        -8.642368384187272
      ],
      [
        "▁felaket",
        -9.805534524388866
      ],
      [
        "▁oldugunda",
        -9.82632923847465
      ],
      [
        "▁ga",
        -8.311090641472514
      ],
      [
        "▁dusme",
        -9.430473322057022
      ],
      [
        "▁onun",
        -8.721998097028802
      ],
      [
        "▁196",
        -9.219426224782298
      ],
      [
        "▁lı",
        -7.292870104275155
      ],
      [
        "▁c",
        -12.071827075693939
      ],
      [
        "▁sahiptir",
        -9.832244214551935
      ],
      [
        "▁evde",
        -8.869529297188187
      ],
      [
        "▁boston",
        -8.202084344082927
      ],
      [
        "benim",
        -9.504691513740548
      ],
      [
        "-",
        -7.655837073912519
      ],
      [
        "dir",
        -7.578919477114084
      ],
      [
        "ilir",
        -8.851032378964824
      ],
      [
        "▁bay",
        -6.4969584944481715
      ],
      [
        "▁zı",
        -9.490951659566083
      ],
      [
        "▁nihayet",
        -9.589062398266645
      ],
      [
        "▁194",
        -9.43256255240131
      ],
      [
        "▁oda",
        -6.827318493496094
      ],
      [
        "85",
        -9.244543557811305
      ],
      [
        "▁har",
        -8.003485113182048
      ],
      [
        "▁baslamıs",
        -9.74918057671293
      ],
      [
        "▁suyu",
        -8.590211462043717
      ],
      [
        "▁bos",
        -8.126243790174986
      ],
      [
        "'de",
        -9.487682717042162
      ],
      [
        "▁36",
        -9.558374476628074
      ],
      [
        "▁yansıt",
        -9.32970958929494
      ],
      [
        "▁vermek",
        -8.710805753583934
      ],
      [
        "ha",
        -7.420619587517812
      ],
      [
        "▁ogrenci",
        -9.005076001244106
      ],
      [
        "▁peynir",
        -9.367644820877384
      ],
      [
        "'te",
        -8.62227985386119
      ],
      [
        "lesti",
        -8.906539338487862
      ],
      [
        "▁guvenlik",
        -9.48280301472835
      ],
      [
        "▁boston'",
        -8.108020155423992
      ],
      [
        "▁4.",
        -9.203855788183088
      ],
      [
        "mayı",
        -7.882346387926568
      ],
      [
        "▁seyler",
        -8.389467777516103
      ],
      [
        "▁ceyrekte",
        -9.461207360795441
      ],
      [
        "▁gunlerde",
        -9.556296807668932
      ],
      [
        "▁hacmi",
        -9.273010687732057
      ],
      [
        "▁bilgi",
        -7.4622146224002845
      ],
      [
        "▁%51",
        -11.429958966910018
      ],
      [
        "▁ho",
        -8.396877419325644
      ],
      [
        "lerde",
        -7.550748624395028
      ],
      [
        "▁reklam",
        -8.670990373276279
      ],
      [
        "ine",
        -6.9610911931729085
      ],
      [
        "▁kul",
        -8.297454578712461
      ],
      [
        "'ta",
        -8.657385157731326
      ],
      [
        "▁mis",
        -9.439033990428584
      ],
      [
        "▁turkiye'de",
        -9.481882778926334
      ],
      [
        "onlar",
        -9.411444122687692
      ],
      [
        "ak",
        -10.007494695036996
      ],
      [
        "▁yemek",
        -7.8366504589594275
      ],
      [
        "lenme",
        -8.35370413250547
      ],
      [
        "sam",
        -9.153526985492856
      ],
      [
        "ve",
        -7.779753755469323
      ],
      [
        "▁dir",
        -7.302651398842159
      ],
      [
        "▁et",
        -7.840673585820713
      ],
      [
        "▁paket",
        -9.520734581567527
      ],
      [
        "▁sessiz",
        -8.907891827926754
      ],
      [
        "▁fır",
        -9.282504400647131
      ],
      [
        "▁%99",
        -11.810224773061273
      ],
      [
        "di",
        -8.50115909711413
      ],
      [
        "▁los",
        -8.794507608278273
      ],
      [
        "▁eden",
        -7.990850018570511
      ],
      [
        "▁%7.9",
        -11.920349515969981
      ],
      [
        "f",
        -6.202104662029809
      ],
      [
        "▁varsa",
        -9.237823455022518
      ],
      [
        "▁zengin",
        -8.663922140885557
      ],
      [
        "▁89",
        -9.66064125857968
      ],
      [
        "▁beyle",
        -9.210032161369384
      ],
      [
        "▁getiri",
        -8.418042104055711
      ],
      [
        "▁sebebi",
        -9.721282098707656
      ],
      [
        "▁tezgah",
        -9.426054026639367
      ],
      [
        "▁mulk",
        -9.522855099514986
      ],
      [
        "▁salon",
        -9.501295752718562
      ],
      [
        "▁geldi",
        -7.298143374510296
      ],
      [
        "▁ver",
        -7.499335220794954
      ],
      [
        "▁kaybetti",
        -9.554227109760342
      ],
      [
        "▁120",
        -9.324473717669948
      ],
      [
        "▁%4.",
        -12.580596872868544
      ],
      [
        "▁kabil",
        -9.725483322331376
      ],
      [
        "lanmıs",
        -8.707073062265101
      ],
      [
        "▁fabrika",
        -9.064134520055097
      ],
      [
        "▁30",
        -6.961537307481505
      ],
      [
        "▁banka",
        -8.22863087725518
      ],
      [
        "▁olcude",
        -9.0501444320569
      ],
      [
        "▁aksamı",
        -9.40375316312441
      ],
      [
        "▁istifa",
        -9.260667050530948
      ],
      [
        "▁donus",
        -7.667555876818271
      ],
      [
        "ren",
        -8.67208098952975
      ],
      [
        "▁oburu",
        -9.457000074137701
      ],
      [
        "la",
        -11.941373154467021
      ],
      [
        "▁madde",
        -8.831642517151689
      ],
      [
        "ilen",
        -8.52692693422019
      ],
      [
        "mak",
        -6.757687944352113
      ],
      [
        "ırım",
        -9.16753364698605
      ],
      [
        "▁ti",
        -10.486432351554733
      ],
      [
        "▁basında",
        -8.35388810800021
      ],
      [
        "▁teklifi",
        -9.198830460208857
      ],
      [
        "▁dedi",
        -6.874959217606895
      ],
      [
        ".",
        -6.78086863364489
      ],
      [
        "▁onlar",
        -6.033271387593335
      ],
      [
        "ı",
        -5.170328674255398
      ],
      [
        "▁kok",
        -8.959710086676633
      ],
      [
        "tur",
        -7.886228925077593
      ],
      [
        "▁servis",
        -8.516376663610476
      ],
      [
        "lak",
        -8.486863924526105
      ],
      [
        "▁",
        -0.7142778471973976
      ],
      [
        "▁yıllık",
        -8.324173720400058
      ],
      [
        "▁milwaukee'",
        -9.308364528652957
      ],
      [
        "▁basarı",
        -9.23640828496072
      ],
      [
        "▁ilgilen",
        -9.127614083772865
      ],
      [
        "▁degis",
        -8.6130916847275
      ],
      [
        "▁cap",
        -9.129782184781174
      ],
      [
        "▁bırakı",
        -9.331060202309818
      ],
      [
        "▁birinde",
        -8.152972439331311
      ],
      [
        "e",
        -10.216012375803206
      ],
      [
        "▁%8.",
        -13.38161600072496
      ],
      [
        "▁hesap",
        -8.751889853653118
      ],
      [
        "gında",
        -8.752684464541293
      ],
      [
        "▁gerekli",
        -9.54925138065137
      ],
      [
        "▁alay",
        -9.584405526588375
      ],
      [
        "▁b",
        -5.969960014838198
      ],
      [
        "▁gozlem",
        -9.620079635820577
      ],
      [
        "lı",
        -5.55800919967287
      ],
      [
        "▁guzel",
        -6.610772685846024
      ],
      [
        "▁cil",
        -9.191918214740724
      ],
      [
        "▁dakika",
        -8.6294421736407
      ],
      [
        "▁yitir",
        -9.72134859262042
      ],
      [
        "▁korkunc",
        -9.851236568189025
      ],
      [
        "▁kızar",
        -9.657712637054626
      ],
      [
        "▁23",
        -8.253328331934624
      ],
      [
        "▁bolge",
        -8.374203942166702
      ],
      [
        "▁takip",
        -9.301093032593204
      ],
      [
        "▁dergi",
        -9.09048778836318
      ],
      [
        "tan",
        -6.65429326037791
      ],
      [
        "▁aralık",
        -8.981142307562138
      ],
      [
        "▁ses",
        -7.951284172194162
      ],
      [
        "▁kontrol",
        -8.882762880020342
      ],
      [
        "se",
        -9.197145699308903
      ],
      [
        ")",
        -6.121952843531647
      ],
      [
        "▁sirketler",
        -9.208166391050705
      ],
      [
        "▁dususle",
        -9.604126184667777
      ],
      [
        "emedi",
        -9.15661830716655
      ],
      [
        "▁mukemmeldi",
        -9.338972951493695
      ],
      [
        "luyor",
        -8.463216171621035
      ],
      [
        "▁dava",
        -8.090091727091483
      ],
      [
        "lugu",
        -8.202548525656908
      ],
      [
        "liginde",
        -9.162657267626226
      ],
      [
        "▁199",
        -12.077407608052267
      ],
      [
        "▁mini",
        -9.128285233470033
      ],
      [
        "asyon",
        -8.450715029804062
      ],
      [
        "▁bunları",
        -6.675178153881778
      ],
      [
        "▁piyasası",
        -9.3417725445772
      ],
      [
        "pa",
        -11.647155356026659
      ],
      [
        "▁oldu",
        -6.801167042509034
      ],
      [
        "▁ekonomi",
        -8.299291012169952
      ],
      [
        "▁futbol",
        -9.299125391578931
      ],
      [
        "▁birik",
        -9.662170978337823
      ],
      [
        "0",
        -7.311164126873568
      ],
      [
        ":00",
        -11.867128241260916
      ],
      [
        "ator",
        -9.142909390511385
      ],
      [
        "▁gaz",
        -8.744070444358616
      ],
      [
        "▁an",
        -7.349697230620575
      ],
      [
        "3.5",
        -9.478301416158967
      ],
      [
        "▁herkesi",
        -8.862982706804999
      ],
      [
        "▁giris",
        -9.27168674375114
      ],
      [
        "leyici",
        -9.17725780250159
      ],
      [
        "▁10'da",
        -9.827943324643112
      ],
      [
        "▁yıldır",
        -9.647725293708161
      ],
      [
        "▁s",
        -7.442766271790305
      ],
      [
        "luk",
        -7.025066765147559
      ],
      [
        "v",
        -6.868202503363127
      ],
      [
        "▁sene",
        -8.146300500825237
      ],
      [
        "▁otuz",
        -7.885014889810017
      ],
      [
        "ken",
        -8.05548715991957
      ],
      [
        "198",
        -13.651276886405913
      ],
      [
        "seniz",
        -9.727799265245029
      ],
      [
        "▁%9",
        -9.782451238871037
      ],
      [
        "ımız",
        -8.856429950142456
      ],
      [
        "cak",
        -5.694975210288683
      ],
      [
        "▁tarih",
        -8.283331975052906
      ],
      [
        "▁kafa",
        -8.396068171707228
      ],
      [
        "▁temmuz'da",
        -9.510737540379655
      ],
      [
        "▁istiyoru",
        -6.914345681670229
      ],
      [
        "ha",
        -11.873864725637613
      ],
      [
        "leri",
        -8.082956769162832
      ],
      [
        "▁va",
        -8.105134914675286
      ],
      [
        "▁hızla",
        -9.008253103574525
      ],
      [
        "▁denk",
        -9.730162792437195
      ],
      [
        "▁sal",
        -7.901687210196612
      ],
      [
        "▁olanakları",
        -9.611486155039309
      ],
      [
        "▁verimli",
        -9.790661426015562
      ],
      [
        "▁bulmak",
        -9.388011901594673
      ],
      [
        "▁nokta",
        -8.4275545137679
      ],
      [
        "▁bası",
        -8.857179086963992
      ],
      [
        "lerden",
        -7.565442477045693
      ],
      [
        "▁kup",
        -9.317251061427001
      ],
      [
        "▁sonunda",
        -8.256112290768762
      ],
      [
        "layıcı",
        -9.900048521324731
      ],
      [
        "▁kisi",
        -7.711517460489275
      ],
      [
        "yorum",
        -8.29551106763858
      ],
      [
        "▁donme",
        -9.555437637584113
      ],
      [
        "ydı",
        -7.762278865229849
      ],
      [
        "▁hangi",
        -6.907736328796224
      ],
      [
        "▁ucagın",
        -9.776197227557276
      ],
      [
        "▁inc",
        -8.885113296427438
      ],
      [
        "▁soyleme",
        -9.158957769063477
      ],
      [
        "ıldı",
        -7.98171182176457
      ],
      [
        "▁bakım",
        -9.375483457446371
      ],
      [
        "▁garanti",
        -9.589016854240052
      ],
      [
        "▁sil",
        -9.049463807677089
      ],
      [
        "▁siyaset",
        -9.921940165459503
      ],
      [
        "▁kuvvet",
        -8.699639347623478
      ],
      [
        "▁holding",
        -9.827755111467587
      ],
      [
        "▁inc.",
        -9.065483922378597
      ],
      [
        "▁9",
        -8.111536213983028
      ],
      [
        "▁bulma",
        -9.3772837650192
      ],
      [
        "▁kendilerini",
        -7.912494984556227
      ],
      [
        "▁han",
        -9.213827384475724
      ],
      [
        "gun",
        -8.411989867056507
      ],
      [
        "nun",
        -8.168935252858324
      ],
      [
        "▁4",
        -6.935914569979488
      ],
      [
        "n",
        -3.8127588826541015
      ],
      [
        "lerimiz",
        -9.310410320483001
      ],
      [
        "p",
        -10.99625889677093
      ],
      [
        "▁baglı",
        -8.619400849291068
      ],
      [
        "▁servisi",
        -9.060562646678296
      ],
      [
        "▁du",
        -6.33322890003446
      ],
      [
        "▁istanbul'u",
        -9.917328861964682
      ],
      [
        "▁hala",
        -8.159993883685313
      ],
      [
        "▁1989-8",
        -11.134501819180723
      ],
      [
        "▁mimar",
        -9.828094681643353
      ],
      [
        "▁alev",
        -9.882491566623289
      ],
      [
        "▁maas",
        -9.777992081127637
      ],
      [
        "▁sistemi",
        -9.342819354940062
      ],
      [
        "▁se",
        -8.046552470362972
      ],
      [
        "▁faiz",
        -8.32334642276488
      ],
      [
        "▁bes",
        -6.145071177220371
      ],
      [
        "cik",
        -8.921699593206476
      ],
      [
        "▁47",
        -9.610585568959918
      ],
      [
        "ınız",
        -9.216641912703256
      ],
      [
        "lar",
        -7.961244385437585
      ],
      [
        "00",
        -8.310518358353914
      ],
      [
        "▁sen",
        -6.208861544610927
      ],
      [
        "▁goc",
        -9.708848757254167
      ],
      [
        "▁konumu",
        -7.418244903004192
      ],
      [
        "▁gel",
        -7.946828807175534
      ],
      [
        "yedi",
        -8.957221228301936
      ],
      [
        "▁genel",
        -7.182368089844288
      ],
      [
        "▁tam",
        -7.650208858215884
      ],
      [
        "lerle",
        -7.8287328541978916
      ],
      [
        "▁toplantı",
        -8.831665279062832
      ],
      [
        "▁ata",
        -8.737961819521404
      ],
      [
        "▁taze",
        -9.402391072265704
      ],
      [
        "▁baslay",
        -9.59251124950066
      ],
      [
        "▁tesvik",
        -9.643570154341482
      ],
      [
        "7/",
        -9.640234913681336
      ],
      [
        "▁kadınlar",
        -8.858837499528935
      ],
      [
        "▁art",
        -7.873378643675458
      ],
      [
        "▁istedigi",
        -8.92038787432433
      ],
      [
        "▁hisse",
        -6.839308677971812
      ],
      [
        "▁dizi",
        -9.26470750318023
      ],
      [
        "llah",
        -9.493837023662515
      ],
      [
        "▁su",
        -5.781887426912386
      ],
      [
        "▁hicbir",
        -5.961517491993648
      ],
      [
        "lu",
        -13.781437440394566
      ],
      [
        "▁hissetti",
        -9.834692088320676
      ],
      [
        "o",
        -10.725630651579849
      ],
      [
        "▁yazar",
        -8.529694171258013
      ],
      [
        "ladıgı",
        -9.240889418111042
      ],
      [
        "▁yerel",
        -9.312668199839752
      ],
      [
        "makta",
        -8.642769265600247
      ],
      [
        "ng",
        -10.94435796899572
      ],
      [
        "▁bizleri",
        -9.582690225371444
      ],
      [
        "▁gecirdi",
        -9.028111529247951
      ],
      [
        "ten",
        -6.76571010123871
      ],
      [
        "▁car",
        -8.379057545643345
      ],
      [
        "daki",
        -7.7022055843250055
      ],
      [
        "imiz",
        -8.353084106296084
      ],
      [
        "▁adım",
        -8.595047796208686
      ],
      [
        "'daki",
        -8.772255652759478
      ],
      [
        "sekiz",
        -8.816713050654165
      ],
      [
        "ki",
        -6.635403197634999
      ],
      [
        "▁kaba",
        -8.691308009443418
      ],
      [
        "▁sehrin",
        -9.34032478594474
      ],
      [
        "madı",
        -8.479082401796951
      ],
      [
        "▁washington",
        -8.311594872156448
      ],
      [
        "▁buray",
        -9.61582519346415
      ],
      [
        "▁yukseldi",
        -7.927147913076655
      ],
      [
        "▁200",
        -8.144482062339698
      ],
      [
        "▁emir",
        -9.592643410838786
      ],
      [
        "▁birlikte",
        -8.53978008109738
      ],
      [
        "ley",
        -8.289482455828967
      ],
      [
        "▁pittsburgh",
        -8.834743347726484
      ],
      [
        "▁%",
        -8.936707931200921
      ],
      [
        "▁asama",
        -9.852035716276127
      ],
      [
        "▁asagıda",
        -9.536376180068151
      ],
      [
        "sa",
        -6.777202496139996
      ],
      [
        "lasma",
        -9.00655087208326
      ],
      [
        "▁konforlu",
        -9.42766997511411
      ],
      [
        "05.",
        -9.557435032262553
      ],
      [
        "▁tur",
        -7.312042345400489
      ],
      [
        "▁kose",
        -8.632956096444218
      ],
      [
        "▁asırı",
        -9.239202211630396
      ],
      [
        "▁degeri",
        -9.614784030557676
      ],
      [
        "▁olmadı",
        -9.603460150816424
      ],
      [
        "▁yuzme",
        -8.985309998857227
      ],
      [
        "madan",
        -8.64643915690644
      ],
      [
        "▁ithalat",
        -9.741684922331197
      ],
      [
        "▁bilimsel",
        -9.742938216359722
      ],
      [
        "▁dolay",
        -6.325603172551561
      ],
      [
        "▁koru",
        -8.700439532367955
      ],
      [
        "▁dudakları",
        -9.92267975413634
      ],
      [
        "▁ayakta",
        -9.662513786500114
      ],
      [
        "▁gitti",
        -8.141531186532381
      ],
      [
        "▁yonel",
        -9.352548702808207
      ],
      [
        "gel",
        -9.270411228329191
      ],
      [
        "▁sever",
        -9.703562452324071
      ],
      [
        "hat",
        -7.202131608975829
      ],
      [
        "▁sorunu",
        -9.033023743568608
      ],
      [
        "▁seker",
        -9.198667216266394
      ],
      [
        "im",
        -8.415921563447386
      ],
      [
        "▁imza",
        -9.260168571009888
      ],
      [
        "▁oakland",
        -9.452501024440167
      ],
      [
        "▁yatırımcılar",
        -8.678011983001205
      ],
      [
        "▁uyku",
        -9.074834103682743
      ],
      [
        "abı",
        -8.806417144117614
      ],
      [
        "7'",
        -9.563016863003803
      ],
      [
        "▁federal",
        -8.775146911961532
      ],
      [
        "▁onay",
        -8.877432251859087
      ],
      [
        "▁keskin",
        -9.662930976418822
      ],
      [
        "▁doneminde",
        -9.882150013443102
      ],
      [
        "▁eylem",
        -9.31743143754035
      ],
      [
        "▁duzey",
        -9.273808497260937
      ],
      [
        "tu",
        -9.158395043648547
      ],
      [
        "▁garip",
        -9.572018954643635
      ],
      [
        "mis",
        -9.010241858862782
      ],
      [
        "▁city'de",
        -9.31264665776195
      ],
      [
        "▁ısı",
        -8.485791554552621
      ],
      [
        "▁hep",
        -9.68908962305779
      ],
      [
        "▁karsiligi",
        -9.099831568340143
      ],
      [
        "▁onu",
        -5.86245400157231
      ],
      [
        "unun",
        -7.908108434107679
      ],
      [
        "izm",
        -9.036497211960583
      ],
      [
        "▁diy",
        -8.508341801792039
      ],
      [
        "▁mehmet",
        -9.11791054761839
      ],
      [
        "▁mah",
        -8.429582511857944
      ],
      [
        "▁arka",
        -8.577101399159439
      ],
      [
        "▁28",
        -8.315177721371974
      ],
      [
        "lenmis",
        -8.802694786954412
      ],
      [
        "▁dısında",
        -8.893407663840645
      ],
      [
        "%8",
        -11.906306491240494
      ],
      [
        "bunu",
        -9.672897037845939
      ],
      [
        ".25",
        -9.611101879508695
      ],
      [
        "le",
        -5.705990088970058
      ],
      [
        "▁ceki",
        -8.258600632188461
      ],
      [
        "▁diz",
        -8.938103259178149
      ],
      [
        "▁cocukları",
        -9.16189188680963
      ],
      [
        "▁gercekles",
        -9.488517613078177
      ],
      [
        "▁bazı",
        -5.798457711104905
      ],
      [
        "▁kalkı",
        -9.402503364372018
      ],
      [
        "▁demek",
        -8.748486644877811
      ],
      [
        "▁odalar",
        -8.83012187168465
      ],
      [
        "▁mıydı",
        -8.489729860708078
      ],
      [
        "▁dı",
        -6.2730598118254735
      ],
      [
        "▁tokyo",
        -9.554230580794304
      ],
      [
        "ger",
        -9.016631229168553
      ],
      [
        "▁japonya'",
        -9.557286680202928
      ],
      [
        "▁ekim",
        -8.869772168819278
      ],
      [
        "▁yıllar",
        -8.7106971688385
      ],
      [
        "▁uzman",
        -9.107022615792317
      ],
      [
        "▁asagı",
        -8.850041933812255
      ],
      [
        "▁asık",
        -9.645042107326656
      ],
      [
        "beni",
        -9.715159833517442
      ],
      [
        "▁isi",
        -8.28172190169338
      ],
      [
        "▁corp.",
        -8.775553796491602
      ],
      [
        "aj",
        -8.983045040414858
      ],
      [
        "▁da",
        -9.420852245950911
      ],
      [
        "▁sevgi",
        -9.064048819697518
      ],
      [
        "pı",
        -10.338625050062623
      ],
      [
        "▁mo",
        -8.377082828174977
      ],
      [
        "▁evin",
        -8.663737617926397
      ],
      [
        "ba",
        -6.935744026012334
      ],
      [
        "larda",
        -7.3005816680018345
      ],
      [
        "▁ates",
        -8.490636100668112
      ],
      [
        "ydi",
        -9.086654733732615
      ],
      [
        "bur",
        -8.936997762491366
      ],
      [
        "sıyla",
        -8.655109323276587
      ],
      [
        "▁ayakkabı",
        -9.488094339988054
      ],
      [
        "▁kızı",
        -8.385740695734391
      ],
      [
        "▁olmadıgını",
        -8.887071605079296
      ],
      [
        "▁havaalanı",
        -9.686071372919479
      ],
      [
        "▁aktarmalı",
        -9.189959352571236
      ],
      [
        "▁ayında",
        -8.491606762320977
      ],
      [
        "v",
        -5.244896794061084
      ],
      [
        "▁ken",
        -6.528281609910964
      ],
      [
        "▁oranı",
        -9.155875806966627
      ],
      [
        "en",
        -7.834124913301681
      ],
      [
        "▁parlak",
        -9.898644023089899
      ],
      [
        "▁alın",
        -8.046131971465012
      ],
      [
        "▁kolay",
        -8.309341215112328
      ],
      [
        "var",
        -9.150245563695083
      ],
      [
        "t",
        -6.307256664581649
      ],
      [
        "arı",
        -9.182295171636294
      ],
      [
        "▁ustelik",
        -9.827865540448459
      ],
      [
        "▁gelmis",
        -8.834015998354513
      ],
      [
        "▁kurumsal",
        -9.326430318623899
      ],
      [
        "▁hayır",
        -9.27493116945532
      ],
      [
        "▁cumle",
        -9.520821962544662
      ],
      [
        "un",
        -11.506828243750975
      ],
      [
        "▁kemal",
        -9.023184521533135
      ],
      [
        "▁milyon",
        -8.650041828704888
      ],
      [
        "▁gorus",
        -8.531314646631202
      ],
      [
        "▁paylas",
        -9.541132742694925
      ],
      [
        "▁arkadası",
        -9.491386480291494
      ],
      [
        "▁yılda",
        -9.151389516648244
      ],
      [
        "caktır",
        -9.66342893916657
      ],
      [
        "▁kendiniz",
        -9.659975854683289
      ],
      [
        "▁ceyrek",
        -9.03019504418868
      ],
      [
        "&",
        -7.474416782928896
      ],
      [
        "kı",
        -11.75119610731039
      ],
      [
        "lendirdi",
        -9.460532032542542
      ],
      [
        "▁git",
        -9.217702181258726
      ],
      [
        "▁mahkeme",
        -8.850140086010766
      ],
      [
        "nizi",
        -9.42186661971936
      ],
      [
        "iye",
        -6.892607271260933
      ],
      [
        "▁baska",
        -7.489745087433294
      ],
      [
        "▁kon",
        -8.060135471592279
      ],
      [
        "▁dans",
        -9.904430102548712
      ],
      [
        "▁tuz",
        -8.991067728663129
      ],
      [
        "▁hanim",
        -7.544868690530587
      ],
      [
        "▁dır",
        -6.97794736662211
      ],
      [
        "▁avukat",
        -8.918247362514066
      ],
      [
        "▁grubu",
        -9.186513615338946
      ],
      [
        "ki",
        -5.926039647948549
      ],
      [
        "larımız",
        -9.086395310634032
      ],
      [
        "▁pat",
        -8.929637751422877
      ],
      [
        "▁niyet",
        -9.263990881402176
      ],
      [
        "▁askı",
        -9.724606038241628
      ],
      [
        "▁sh",
        -9.211448091064455
      ],
      [
        "▁kocaman",
        -9.66434521800886
      ],
      [
        "▁itiraz",
        -9.85048650275613
      ],
      [
        "acagını",
        -8.363219839019813
      ],
      [
        "▁yen",
        -8.819349156316546
      ],
      [
        "▁ekledi",
        -9.216237394346155
      ],
      [
        "▁seviyesinde",
        -9.433355586558147
      ],
      [
        "▁geciyor",
        -9.346847561423957
      ],
      [
        "▁cakı",
        -9.638604689673324
      ],
      [
        "▁kasıgı",
        -9.589078705190616
      ],
      [
        "11",
        -9.219857971516147
      ],
      [
        "▁teknoloji",
        -9.117922671096878
      ],
      [
        "▁arı",
        -9.307641275476165
      ],
      [
        "▁eyalet",
        -9.554234679076025
      ],
      [
        "▁tı",
        -10.992942583622575
      ],
      [
        "▁yesil",
        -8.848504735915256
      ],
      [
        "▁sona",
        -9.303088000144363
      ],
      [
        "dim",
        -7.428725877552782
      ],
      [
        "lanan",
        -8.378359011494926
      ],
      [
        "▁edildi",
        -8.79093319875535
      ],
      [
        "▁karsılık",
        -9.329081484253482
      ],
      [
        "▁teklif",
        -8.16143747057982
      ],
      [
        "abilecek",
        -9.142224217233025
      ],
      [
        "▁seyahat",
        -9.053722260293124
      ],
      [
        "tim",
        -8.888841118162386
      ],
      [
        "▁telefon",
        -8.46681560524587
      ],
      [
        "▁yı",
        -9.218269508698501
      ],
      [
        "▁ne",
        -5.42483369044023
      ],
      [
        "▁tepki",
        -9.456731488040536
      ],
      [
        "▁tak",
        -8.124764519415882
      ],
      [
        "▁cocugu",
        -9.27564718541457
      ],
      [
        "rım",
        -9.468443151705905
      ],
      [
        "ik",
        -7.365898926055057
      ],
      [
        "▁pe",
        -8.343859291737367
      ],
      [
        "▁sahne",
        -9.024670236054263
      ],
      [
        "▁adi",
        -9.443897130884189
      ],
      [
        "/2",
        -9.276631499715991
      ],
      [
        "▁",
        -2.091718453959686
      ],
      [
        "▁yuzyıl",
        -9.571652246906853
      ],
      [
        "▁yabancı",
        -8.514972216448108
      ],
      [
        "▁bilinc",
        -9.723087339942415
      ],
      [
        "▁istasyon",
        -9.897584525431423
      ],
      [
        "▁uye",
        -8.86438474464746
      ],
      [
        "meyen",
        -8.86090436463375
      ],
      [
        "▁zayıf",
        -8.900319032238205
      ],
      [
        "▁yemis",
        -9.737024902542931
      ],
      [
        "▁19",
        -9.04396362681118
      ],
      [
        "▁rahat",
        -8.182280061750072
      ],
      [
        "us",
        -7.383660151917159
      ],
      [
        "▁ayrıca",
        -7.864226462882698
      ],
      [
        "▁kapan",
        -9.45292805903405
      ],
      [
        "▁altın",
        -8.171740913888097
      ],
      [
        "▁1.0",
        -9.508508305454084
      ],
      [
        "meye",
        -7.830894294974238
      ],
      [
        "▁ucuz",
        -7.874505307509717
      ],
      [
        "▁misafirimiz",
        -9.222961496193491
      ],
      [
        "ebilecek",
        -9.591585320086462
      ],
      [
        "▁her",
        -8.134089646571788
      ],
      [
        "▁sacları",
        -9.335156067188084
      ],
      [
        "▁durdu",
        -8.752251993872182
      ],
      [
        "▁fort",
        -9.254487851113396
      ],
      [
        "▁verici",
        -9.705575258177799
      ],
      [
        "co",
        -7.973488916364465
      ],
      [
        "▁ters",
        -9.494020090169247
      ],
      [
        "▁co",
        -7.487167566081312
      ],
      [
        "▁sınıfı",
        -9.109212138472834
      ],
      [
        "▁tutar",
        -9.274995740867196
      ],
      [
        "▁davranıs",
        -9.45812686359387
      ],
      [
        "▁5",
        -9.646582813683786
      ],
      [
        "▁degistir",
        -8.699117458246068
      ],
      [
        "▁yiyecek",
        -8.75795556282776
      ],
      [
        "▁ah",
        -8.594301755494484
      ],
      [
        "▁konak",
        -9.474216347798247
      ],
      [
        "▁hangisi",
        -7.842202844556418
      ],
      [
        "▁nefes",
        -9.42626568919552
      ],
      [
        "▁50",
        -7.6484607958406485
      ],
      [
        "▁yaklasimi",
        -9.874182003758166
      ],
      [
        "▁dag",
        -8.344630522069467
      ],
      [
        "▁sende",
        -9.565810326593109
      ],
      [
        "j",
        -7.864977167017454
      ],
      [
        "▁seattle'",
        -9.023103465152506
      ],
      [
        "▁sovyet",
        -9.42607014784704
      ],
      [
        "▁abla",
        -9.760297061201772
      ],
      [
        "▁oteki",
        -9.711756816128133
      ],
      [
        "▁ince",
        -8.060316706579027
      ],
      [
        "▁bulunuyor",
        -9.326382841484813
      ],
      [
        "dugu",
        -8.45954055665963
      ],
      [
        "▁kullanıl",
        -8.510046648372706
      ],
      [
        "▁kalabalık",
        -9.662438033163372
      ],
      [
        "▁charlotte'de",
        -9.857893883012197
      ],
      [
        "klerini",
        -8.800109689397672
      ],
      [
        "ca",
        -6.099694416750647
      ],
      [
        "▁lev",
        -9.790569276175905
      ],
      [
        "▁yumusak",
        -9.873740078859395
      ],
      [
        "▁sordu",
        -8.981953092492237
      ],
      [
        "▁her",
        -4.351819211849485
      ],
      [
        "▁politika",
        -8.66908928272775
      ],
      [
        "▁mı",
        -11.77324809201157
      ],
      [
        "▁daim",
        -9.539267423507583
      ],
      [
        "▁otelde",
        -9.174064075036753
      ],
      [
        "▁temiz",
        -6.977018927561457
      ],
      [
        "▁bulundu",
        -9.034663058318515
      ],
      [
        "▁hu",
        -8.061407345023913
      ],
      [
        "▁elma",
        -9.534019046141879
      ],
      [
        "▁esas",
        -9.675282516069041
      ],
      [
        "▁ahlak",
        -9.743145604579295
      ],
      [
        "[UNK]",
        0.0
      ],
      [
        "▁guven",
        -8.364905849349483
      ],
      [
        "32",
        -8.876639540153514
      ],
      [
        "g",
        -12.208084104767863
      ],
      [
        "4",
        -8.913216123789928
      ],
      [
        "ag",
        -9.544881160949332
      ],
      [
        "▁zorlu",
        -9.532250868081988
      ],
      [
        "▁caba",
        -8.84920062876624
      ],
      [
        "▁yeter",
        -8.74049609443749
      ],
      [
        "▁bırakma",
        -9.510069905633138
      ],
      [
        "▁bile",
        -7.031450716300776
      ],
      [
        "▁degerlendirme",
        -9.566998548456542
      ],
      [
        "▁gibiydi",
        -9.82847958110099
      ],
      [
        "▁allah",
        -9.516426720942961
      ],
      [
        "▁pilot",
        -9.45661064623526
      ],
      [
        "▁gitmis",
        -9.468038099671709
      ],
      [
        "▁k",
        -9.253332953015757
      ],
      [
        "▁isler",
        -9.295780364858913
      ],
      [
        "▁yuzlu",
        -8.771835352434474
      ],
      [
        "▁olacaktı",
        -9.44899898087443
      ],
      [
        "rak",
        -6.450553508797672
      ],
      [
        "19",
        -9.653955124169919
      ],
      [
        "▁on",
        -6.257864441783672
      ],
      [
        "▁kıymet",
        -9.877139173615873
      ],
      [
        "▁ydu",
        -8.242796498591797
      ],
      [
        "sız",
        -7.224419997636255
      ],
      [
        "▁odalari",
        -9.53403577787872
      ],
      [
        "▁surat",
        -9.752089868538286
      ],
      [
        "lenir",
        -9.478575123896054
      ],
      [
        "▁sizin",
        -7.4886096173651
      ],
      [
        "▁ayır",
        -9.159927669876998
      ],
      [
        "▁gelen",
        -7.789444802507401
      ],
      [
        "▁yas",
        -7.98724187589289
      ],
      [
        "▁gerekiyor",
        -9.014445214914831
      ],
      [
        "gu",
        -7.002228349152346
      ],
      [
        "▁yanlıs",
        -8.768330695152912
      ],
      [
        "▁mevsim",
        -9.68183370338932
      ],
      [
        "▁raf",
        -9.74288056958666
      ],
      [
        "▁baltimore'",
        -8.039628490487903
      ],
      [
        "▁gid",
        -8.591546361214755
      ],
      [
        "6",
        -8.621834869164502
      ],
      [
        "▁ilave",
        -9.681714479297355
      ],
      [
        "kan",
        -7.946790936061732
      ],
      [
        "▁pay",
        -8.201367469234238
      ],
      [
        "▁bol",
        -8.659778829696618
      ],
      [
        "▁bal",
        -8.743150179064244
      ],
      [
        "▁harcama",
        -9.258745796755306
      ],
      [
        "▁olanaklari",
        -9.129024211094729
      ],
      [
        "▁kumas",
        -9.320365621282567
      ],
      [
        "▁21",
        -8.036347926270897
      ],
      [
        "mayacagı",
        -9.431770675963485
      ],
      [
        "▁1991-199",
        -11.945824767265378
      ],
      [
        "bu",
        -10.475098792750922
      ],
      [
        "▁topla",
        -8.886949861207563
      ],
      [
        "lerinde",
        -7.802808672810942
      ],
      [
        "▁sahi",
        -8.774162223856724
      ],
      [
        "or",
        -11.285911387029632
      ],
      [
        "▁agır",
        -8.176537637943772
      ],
      [
        "▁vardır",
        -8.547510065804191
      ],
      [
        "▁gosterdi",
        -8.974571709330565
      ],
      [
        "cu",
        -8.943905749479214
      ],
      [
        "bi",
        -7.786051841493481
      ],
      [
        "▁kanada",
        -9.701993366923986
      ],
      [
        "▁ba",
        -7.796867541496934
      ],
      [
        "ak",
        -7.804092858450923
      ],
      [
        "▁toronto'",
        -9.795887677588835
      ],
      [
        "▁zevk",
        -9.247502906126225
      ],
      [
        "▁ucuyor",
        -9.065487849211845
      ],
      [
        "▁polis",
        -9.152780293021745
      ],
      [
        "▁mektup",
        -9.537278323335658
      ],
      [
        "ecegi",
        -8.641340618154462
      ],
      [
        "▁bekliyor",
        -8.767550165590148
      ],
      [
        "▁farklı",
        -8.464418695796692
      ],
      [
        "te",
        -6.364533269328403
      ],
      [
        "▁sıkı",
        -8.70160665796942
      ],
      [
        "▁yerini",
        -9.475387390648184
      ],
      [
        "▁sec",
        -8.722552694314736
      ],
      [
        "▁bekleme",
        -9.492747276868595
      ],
      [
        "▁mis",
        -8.616742931913802
      ],
      [
        "…",
        -11.80952679083899
      ],
      [
        "▁it",
        -8.726625372775473
      ],
      [
        "▁b",
        -7.628421438274788
      ],
      [
        "▁ip",
        -9.194568194956116
      ],
      [
        "▁baltimore",
        -9.453896005508657
      ],
      [
        "▁ogle",
        -7.603474277144902
      ],
      [
        "▁198",
        -9.003378477605025
      ],
      [
        "▁ellerinde",
        -9.639749208132475
      ],
      [
        "▁21",
        -11.495656579969074
      ],
      [
        "ip",
        -7.574603668617782
      ],
      [
        "▁erkekler",
        -9.414916844909502
      ],
      [
        "▁sur",
        -8.292289438115851
      ],
      [
        "▁an",
        -7.190513088742224
      ],
      [
        "▁uretim",
        -9.25973945112009
      ],
      [
        "inin",
        -7.677734722379156
      ],
      [
        "dur",
        -7.599162758891828
      ],
      [
        "▁evren",
        -9.701690385471824
      ],
      [
        "▁k",
        -7.415380102493439
      ],
      [
        "▁olası",
        -9.142098776110021
      ],
      [
        "▁rehberimiz",
        -9.922499585483877
      ],
      [
        "ta",
        -7.825751804999858
      ],
      [
        "▁te",
        -7.110402857827855
      ],
      [
        "ver",
        -7.983146522857149
      ],
      [
        "▁actı",
        -8.56734834400709
      ],
      [
        "▁33",
        -9.6303224326292
      ],
      [
        "▁iliski",
        -8.357990449141619
      ],
      [
        "▁ogretmen",
        -9.064173185122463
      ],
      [
        "▁yapacak",
        -9.048068986463022
      ],
      [
        "▁oner",
        -9.070397187156534
      ],
      [
        "▁halin",
        -9.102843763310231
      ],
      [
        "▁katı",
        -8.937885772163753
      ],
      [
        "▁guney",
        -9.078880037566947
      ],
      [
        "▁endustri",
        -9.096036860138025
      ],
      [
        "▁to",
        -8.824428738587017
      ],
      [
        "▁cagır",
        -9.239822263970211
      ],
      [
        "▁cok",
        -5.160251942740835
      ],
      [
        "▁calisanlar",
        -9.32234765133898
      ],
      [
        "▁gozlerini",
        -9.058302106856157
      ],
      [
        "▁zamanı",
        -9.555000226428188
      ],
      [
        "▁bi",
        -7.91759027674691
      ],
      [
        "▁bastır",
        -9.861613552166855
      ],
      [
        "▁gunluk",
        -8.550352881413936
      ],
      [
        "%5",
        -12.369826670084198
      ],
      [
        "▁gizli",
        -9.085306514629556
      ],
      [
        "▁dukkan",
        -9.106931803713984
      ],
      [
        "lendiril",
        -9.61070739630008
      ],
      [
        "▁soru",
        -8.423923527372274
      ],
      [
        "emiyor",
        -9.109793854806359
      ],
      [
        "75",
        -8.267419933820554
      ],
      [
        "▁26",
        -8.156620768428361
      ],
      [
        "▁3\\/",
        -8.417597687511622
      ],
      [
        "▁hava",
        -7.668905527279637
      ],
      [
        "uz",
        -6.467160306084705
      ],
      [
        "▁millet",
        -8.84850661818345
      ],
      [
        "▁cıkı",
        -9.478835445952884
      ],
      [
        "%1",
        -10.967803638388565
      ],
      [
        "▁hizmet",
        -6.8667251886563925
      ],
      [
        "lugun",
        -8.713097600441294
      ],
      [
        "▁doktor",
        -8.736821148762276
      ],
      [
        "▁gereken",
        -9.32228553339213
      ],
      [
        "▁ne",
        -6.243207469966276
      ],
      [
        "▁ici",
        -8.48223560473928
      ],
      [
        "▁baslayan",
        -9.646759565086256
      ],
      [
        "▁13.",
        -9.400967380402378
      ],
      [
        "▁burnu",
        -9.796847282756502
      ],
      [
        "man",
        -7.529511808292366
      ],
      [
        "2",
        -9.343103933683576
      ],
      [
        "125",
        -9.016701583305009
      ],
      [
        "ıl",
        -8.387714995321844
      ],
      [
        "unla",
        -8.358546932063437
      ],
      [
        "▁kurdu",
        -9.641638357163632
      ],
      [
        "▁artık",
        -7.589058675110769
      ],
      [
        "cun",
        -6.71166408540965
      ],
      [
        "ci",
        -11.309728575382351
      ],
      [
        "▁goren",
        -9.426382496631518
      ],
      [
        "▁is",
        -6.78242612850941
      ],
      [
        "▁amac",
        -8.551868968475976
      ],
      [
        "▁milyar",
        -5.740472206460095
      ],
      [
        "ıcı",
        -8.440463202812825
      ],
      [
        "▁inceleme",
        -9.736538504459816
      ],
      [
        "ısı",
        -11.051820260445027
      ],
      [
        "▁sevgili",
        -9.496281200749179
      ],
      [
        "▁kut",
        -9.079582395737674
      ],
      [
        "▁satıs",
        -8.284986300785768
      ],
      [
        "▁tatlı",
        -9.013294844603763
      ],
      [
        "▁alt",
        -8.829956665089336
      ],
      [
        "meleri",
        -9.521446768078548
      ],
      [
        "▁ister",
        -8.461141765324777
      ],
      [
        "k",
        -5.724751612907619
      ],
      [
        "▁ham",
        -8.570433477964121
      ],
      [
        "▁oray",
        -9.58672821004198
      ],
      [
        "arak",
        -5.754384822440516
      ],
      [
        "▁kendin",
        -7.498032269194095
      ],
      [
        "oku",
        -11.357596923554134
      ],
      [
        "▁karayolu",
        -8.636237975329585
      ],
      [
        "muyor",
        -8.835587540823061
      ],
      [
        "nla",
        -9.58078058821545
      ],
      [
        "▁pasa",
        -9.19174109987297
      ],
      [
        ";",
        -5.880553062631291
      ],
      [
        "▁man",
        -8.226679467352335
      ],
      [
        "▁sac",
        -8.574665602057562
      ],
      [
        "▁gu",
        -11.453395732365175
      ],
      [
        "▁cevre",
        -8.526452211711884
      ],
      [
        "nda",
        -8.120883562464737
      ],
      [
        "▁bin",
        -8.578448827751696
      ],
      [
        "gi",
        -6.994324594509247
      ],
      [
        "▁olacagı",
        -9.47468416334059
      ],
      [
        "4",
        -6.5540460640835505
      ],
      [
        "▁california'",
        -9.885737154686058
      ],
      [
        "▁orada",
        -8.546951822982004
      ],
      [
        "▁yetersiz",
        -8.256088837128235
      ],
      [
        "▁gazete",
        -8.484558903031953
      ],
      [
        "▁yoneticileri",
        -9.647662048539507
      ],
      [
        "▁18.",
        -9.72340881564127
      ],
      [
        "cı",
        -9.105755383544302
      ],
      [
        "▁durma",
        -9.389881771640361
      ],
      [
        "▁yerde",
        -8.334472081088059
      ],
      [
        "▁mer",
        -8.502834582094197
      ],
      [
        "mayacagını",
        -9.708241912119147
      ],
      [
        "▁veril",
        -8.70233332987107
      ],
      [
        "▁insanlar",
        -8.148819349433044
      ],
      [
        "▁soyley",
        -9.012474258793855
      ],
      [
        "▁daya",
        -8.97389466300989
      ],
      [
        "▁doku",
        -8.517449318346449
      ],
      [
        "▁karısık",
        -9.566820363338161
      ],
      [
        "▁tesis",
        -7.304298948699808
      ],
      [
        "▁ustun",
        -8.34081716786637
      ],
      [
        "▁parmak",
        -9.154034980554057
      ],
      [
        "%7.",
        -14.190853728377773
      ],
      [
        "cu",
        -7.386324579594437
      ],
      [
        "▁hi",
        -8.497350589849942
      ],
      [
        "▁mudur",
        -9.35224114568702
      ],
      [
        "▁peter",
        -9.875041018092542
      ],
      [
        "▁oyku",
        -9.279437891112675
      ],
      [
        "▁anlama",
        -8.721464997410827
      ],
      [
        "ndan",
        -7.9695746437713995
      ],
      [
        "▁hız",
        -9.343656525685727
      ],
      [
        "lıkta",
        -9.035784432988528
      ],
      [
        "zo",
        -9.42791278694568
      ],
      [
        "▁bankacı",
        -9.755120405306098
      ],
      [
        "▁oluyordu",
        -9.766548999809203
      ],
      [
        "▁hulya",
        -9.87388622716131
      ],
      [
        "v",
        -11.12474086345478
      ],
      [
        "tum",
        -8.604569100470624
      ],
      [
        "▁ayag",
        -9.701100014351084
      ],
      [
        "▁kaldi",
        -7.044949101285203
      ],
      [
        "▁odun",
        -9.45720782383625
      ],
      [
        "▁gider",
        -8.386731565862727
      ],
      [
        "▁gozleri",
        -8.435323053889054
      ],
      [
        "▁isim",
        -9.156015113883495
      ],
      [
        "m",
        -9.715460917580963
      ],
      [
        "▁guleryuzlu",
        -8.490250375429138
      ],
      [
        "▁cocuklu",
        -8.232848463452779
      ],
      [
        "▁insanın",
        -8.955546267834542
      ],
      [
        "▁puan",
        -6.96975942908762
      ],
      [
        "mayan",
        -8.878691304125441
      ],
      [
        "▁baltimore'de",
        -8.54941092612653
      ],
      [
        "▁5'te",
        -9.594362042057778
      ],
      [
        "▁kapalı",
        -9.198839901769006
      ],
      [
        "▁hepsi",
        -6.842946748412163
      ],
      [
        "▁%1",
        -8.947074690717066
      ],
      [
        "▁ilgisiz",
        -9.359190859355934
      ],
      [
        "▁dolar",
        -6.961096282844368
      ],
      [
        "▁yolda",
        -9.22438181281646
      ],
      [
        "▁kucuk",
        -7.369111363231277
      ],
      [
        "▁olsun",
        -8.290559983538017
      ],
      [
        "incisi",
        -9.637134642514823
      ],
      [
        "▁olursa",
        -8.95081832868394
      ],
      [
        "90",
        -9.626223619391588
      ],
      [
        "▁%7.7",
        -11.120674655466068
      ],
      [
        "▁israil",
        -9.805556238463774
      ],
      [
        "▁soyu",
        -9.895751968604568
      ],
      [
        "▁hukum",
        -9.409588419129705
      ],
      [
        "▁300",
        -8.446205231310003
      ],
      [
        "▁kat",
        -7.65490251402399
      ],
      [
        "▁olması",
        -8.433172748902734
      ],
      [
        "▁soyle",
        -7.664439107648782
      ],
      [
        "▁twa",
        -9.85052510584886
      ],
      [
        "▁turk",
        -7.728511882274976
      ],
      [
        "ko",
        -8.271774102754684
      ],
      [
        "▁cı",
        -9.94387244233149
      ],
      [
        "▁cıkar",
        -7.494545400675159
      ],
      [
        "▁karsı",
        -7.366290139306572
      ],
      [
        "▁once",
        -7.236122429931177
      ],
      [
        "▁diyor",
        -7.6705930823745225
      ],
      [
        "▁agustos'ta",
        -9.537608820934494
      ],
      [
        "▁4",
        -9.237475727051283
      ],
      [
        "▁buyume",
        -9.153896459243965
      ],
      [
        "▁aktar",
        -9.48727169946098
      ],
      [
        "▁yetki",
        -9.720337143137272
      ],
      [
        "▁sonucları",
        -9.651239637513537
      ],
      [
        "▁sey",
        -6.518081937684776
      ],
      [
        "▁alamadi",
        -8.918392517382621
      ],
      [
        "▁34",
        -9.06955530779975
      ],
      [
        "95",
        -9.457815011772302
      ],
      [
        "▁deme",
        -9.365739132639629
      ],
      [
        "▁personel",
        -7.41905135581655
      ],
      [
        "▁eylul",
        -8.685201514237363
      ],
      [
        "▁babası",
        -9.248175527694059
      ],
      [
        "▁verdi",
        -7.965840250586235
      ],
      [
        "▁yasama",
        -9.139154019762806
      ],
      [
        "▁bagımsız",
        -9.571470665793326
      ],
      [
        "8",
        -6.081748992804368
      ],
      [
        "▁cal",
        -8.343034192650116
      ],
      [
        "▁charlotte'",
        -9.915873297708668
      ],
      [
        "▁belirt",
        -8.50489332013164
      ],
      [
        "23",
        -10.726199957205068
      ],
      [
        "▁komisyon",
        -9.202885023532346
      ],
      [
        "▁komsu",
        -9.331217300789806
      ],
      [
        "▁radyo",
        -9.43492899717652
      ],
      [
        "▁etmem",
        -8.819107724318101
      ],
      [
        "▁zı",
        -12.278377134489128
      ],
      [
        "ti",
        -13.256482449366915
      ],
      [
        "▁buyu",
        -8.354671806237896
      ],
      [
        "▁teslim",
        -9.488094516046676
      ],
      [
        "▁%6",
        -9.731743118183811
      ],
      [
        "▁",
        -5.105726649038706
      ],
      [
        "▁buyuk",
        -6.6398219996684125
      ],
      [
        "▁son",
        -6.756372569164154
      ],
      [
        "▁ha",
        -7.855820490390555
      ],
      [
        "▁odedigim",
        -8.77106571963941
      ],
      [
        "▁kaza",
        -8.968228139306593
      ],
      [
        "▁egili",
        -9.557993754923071
      ],
      [
        "▁mıs",
        -8.221270484658733
      ],
      [
        "▁gorusuldu",
        -7.427912107398445
      ],
      [
        "▁bes",
        -8.97001699334199
      ],
      [
        "▁kalite",
        -8.357724325812594
      ],
      [
        "▁kullanım",
        -9.926657720461112
      ],
      [
        "lik",
        -8.863920459242864
      ],
      [
        "▁bizim",
        -9.460005699798288
      ],
      [
        "00-",
        -11.772156729223715
      ],
      [
        "▁eder",
        -7.880662046604287
      ],
      [
        "14",
        -12.716480308396433
      ],
      [
        "ucu",
        -8.370375213190382
      ],
      [
        "▁kahvaltı",
        -9.850482363873136
      ],
      [
        "▁hemen",
        -7.835487817301122
      ],
      [
        "▁philadelphia'da",
        -8.456541487273382
      ],
      [
        "▁almıs",
        -9.265047611626755
      ],
      [
        "▁bahse",
        -9.740866621458702
      ],
      [
        "eger",
        -6.87329914079828
      ],
      [
        "dim",
        -8.926831132052726
      ],
      [
        "▁ihtiyacım",
        -8.351949682142013
      ],
      [
        "▁rengi",
        -9.363995769462814
      ],
      [
        "lerimizi",
        -9.260361688693262
      ],
      [
        "▁fransız",
        -9.325973765114693
      ],
      [
        "▁62",
        -9.493396921642924
      ],
      [
        "$",
        -7.518283183533239
      ],
      [
        "▁siparis",
        -9.472215347544708
      ],
      [
        "▁yolcu",
        -9.429727172963482
      ],
      [
        "▁kav",
        -8.45090524120771
      ],
      [
        "▁6",
        -7.0338405742876775
      ],
      [
        "▁yasında",
        -8.588453649365125
      ],
      [
        "▁kayna",
        -8.83403776268149
      ],
      [
        "'te",
        -9.34698740237014
      ],
      [
        "▁yonetici",
        -8.943926815954768
      ],
      [
        "▁bekledigim",
        -9.876718643091479
      ],
      [
        "▁calısıyor",
        -8.666483576301237
      ],
      [
        "3",
        -6.9170420672065935
      ],
      [
        "▁kopek",
        -9.367650208608893
      ],
      [
        "▁gosteriyor",
        -9.190690712429031
      ],
      [
        "da",
        -10.957139774156504
      ],
      [
        "▁begenmedi",
        -8.839946311558851
      ],
      [
        "▁tanım",
        -9.350657733400638
      ],
      [
        "▁ikinci",
        -8.955184784343789
      ],
      [
        "▁kalma",
        -8.417689083765408
      ],
      [
        "siz",
        -9.003943920087492
      ],
      [
        "▁ikisi",
        -9.316595908415728
      ],
      [
        "▁dogu",
        -8.304801207226781
      ],
      [
        "s",
        -6.621907703193311
      ],
      [
        "kl",
        -10.728123182460942
      ],
      [
        "▁'li",
        -9.48474627959969
      ],
      [
        "▁cincinnati'de",
        -9.922540255256344
      ],
      [
        "1",
        -6.878332744407709
      ],
      [
        "▁gazeteci",
        -9.762523126801538
      ],
      [
        "▁gorusme",
        -8.777274441178651
      ],
      [
        "▁dusman",
        -8.946328870009975
      ],
      [
        "▁as",
        -7.388387308435603
      ],
      [
        "▁oyna",
        -8.180252492335844
      ],
      [
        "▁koltuk",
        -9.426160551725932
      ],
      [
        "ce",
        -8.544836835015023
      ],
      [
        "bazı",
        -9.354229368387426
      ],
      [
        "so",
        -8.824376372642286
      ],
      [
        "▁yukselis",
        -9.72723535683986
      ],
      [
        "▁zavallı",
        -9.827755207439495
      ],
      [
        "▁birden",
        -8.578522157895563
      ],
      [
        "▁resim",
        -9.187075349405626
      ],
      [
        "▁par",
        -8.457554441209869
      ],
      [
        "▁av",
        -8.468560086587932
      ],
      [
        "▁merkezin",
        -9.274558039366852
      ],
      [
        "▁utan",
        -9.504745316985991
      ],
      [
        "▁bedel",
        -9.903752769394895
      ],
      [
        "▁pantolon",
        -9.921937944403474
      ],
      [
        "s",
        -5.241252115111797
      ],
      [
        "▁esna",
        -9.746692740984454
      ],
      [
        "▁ucus",
        -6.9288721081593865
      ],
      [
        "▁hangi",
        -7.366812081839488
      ],
      [
        "▁zaman",
        -6.87734921626849
      ],
      [
        "▁kuzey",
        -9.299157942156583
      ],
      [
        "▁yel",
        -9.364721690919714
      ],
      [
        "meyi",
        -8.58203407665128
      ],
      [
        "▁rol",
        -9.322534930099678
      ],
      [
        "▁ymıs",
        -9.626106262333563
      ],
      [
        "▁duyu",
        -9.104336880759345
      ],
      [
        "▁ke",
        -7.8038066473977885
      ],
      [
        "8",
        -8.604452423102634
      ],
      [
        "▁isleri",
        -9.5455205322407
      ],
      [
        "▁yatak",
        -9.087260192882367
      ],
      [
        "▁ellerini",
        -9.800424412488834
      ],
      [
        "▁efendi",
        -8.974074470851981
      ],
      [
        "▁alır",
        -8.968403085814433
      ],
      [
        "▁oteldi",
        -9.234208483034049
      ],
      [
        "ayım",
        -9.247742273556243
      ],
      [
        "▁perakende",
        -9.606868862994517
      ],
      [
        "uz",
        -8.872095029722393
      ],
      [
        "▁gittigi",
        -9.717799621535365
      ],
      [
        "▁kurulu",
        -8.168070122165991
      ],
      [
        "▁kalkıyor",
        -9.377261048298358
      ],
      [
        "▁siyah",
        -8.751939226027702
      ],
      [
        "▁model",
        -9.763794982628859
      ],
      [
        "▁kez",
        -8.280257124235352
      ],
      [
        "▁ihrac",
        -9.061776251205892
      ],
      [
        "▁hikaye",
        -9.163118306644172
      ],
      [
        "▁met",
        -9.04108061443829
      ],
      [
        "▁cana",
        -9.372347559051352
      ],
      [
        "▁enflasyon",
        -9.520610621885105
      ],
      [
        "▁lezzetli",
        -8.608095936377403
      ],
      [
        "▁ic",
        -7.503048676817552
      ],
      [
        "▁titre",
        -9.554293445211464
      ],
      [
        "▁gunes",
        -8.481867040667385
      ],
      [
        "▁islem",
        -7.9005860070698875
      ],
      [
        "ligini",
        -8.438370515682045
      ],
      [
        "▁fayda",
        -9.106968034315145
      ],
      [
        "▁yasa",
        -7.312566142834833
      ],
      [
        "il",
        -8.647156063981056
      ],
      [
        "ye",
        -5.585552876991189
      ],
      [
        "bu",
        -6.521250950590648
      ],
      [
        "▁memphis'",
        -9.33967082842921
      ],
      [
        "▁dayan",
        -8.640002560281598
      ],
      [
        "▁ocak",
        -9.108811352930033
      ],
      [
        "▁uzay",
        -9.80586674345604
      ],
      [
        "▁oyun",
        -8.059444319201884
      ],
      [
        "▁37",
        -9.086485923493704
      ],
      [
        "▁uyar",
        -9.086571401415334
      ],
      [
        "▁ilac",
        -8.95645993623459
      ],
      [
        "ot",
        -9.093682363971517
      ],
      [
        "▁ortak",
        -8.701280447876895
      ],
      [
        "ız",
        -8.204933600869634
      ],
      [
        "▁uzerinde",
        -7.4972773292039445
      ],
      [
        "▁or",
        -9.47921096639784
      ],
      [
        "▁ucusu",
        -7.821426409487176
      ],
      [
        "sel",
        -7.860708098218265
      ],
      [
        "▁gidi",
        -9.168934209705439
      ],
      [
        "▁acı",
        -7.604435001503407
      ],
      [
        "30",
        -8.377779257492136
      ],
      [
        "▁dıs",
        -8.899841045991028
      ],
      [
        "▁cu",
        -12.830054443854332
      ],
      [
        "▁dusur",
        -9.077548938662959
      ],
      [
        "▁havayolu",
        -9.106923008328682
      ],
      [
        "▁kalıyor",
        -9.789799761113075
      ],
      [
        "▁gibi",
        -4.36209696709702
      ],
      [
        "▁sigara",
        -9.210472484920354
      ],
      [
        "▁sirketleri",
        -9.29915633786522
      ],
      [
        "▁olan",
        -8.12904392695448
      ],
      [
        "▁hesab",
        -9.721302075154522
      ],
      [
        "▁olmasını",
        -9.81942244831414
      ],
      [
        "▁bicim",
        -9.127665322224153
      ],
      [
        "▁gerektigin",
        -9.096227519344469
      ],
      [
        "▁buz",
        -9.110523629566138
      ],
      [
        "ul",
        -7.179133489161896
      ],
      [
        "▁ozel",
        -8.186500531706542
      ],
      [
        "▁soy",
        -8.761512637552666
      ],
      [
        "ın",
        -11.343039948114084
      ],
      [
        "▁ay",
        -7.069124010889534
      ],
      [
        "▁ser",
        -8.089994638901878
      ],
      [
        "▁banyo",
        -9.411131305734678
      ],
      [
        "▁class",
        -8.98373038043219
      ],
      [
        "▁kadın",
        -7.519355847956053
      ],
      [
        "▁ugras",
        -9.395988544100415
      ],
      [
        "▁iceriyor",
        -9.807380698474198
      ],
      [
        "▁bakan",
        -9.23317448722969
      ],
      [
        "▁dun",
        -7.848605968048156
      ],
      [
        "▁duzenleme",
        -9.4142016545862
      ],
      [
        "o",
        -4.4249591214071105
      ],
      [
        "▁basbakan",
        -9.589016140414497
      ],
      [
        "dokuz",
        -9.67779568828804
      ],
      [
        "5",
        -8.51441408399641
      ],
      [
        "t",
        -8.962720578188764
      ],
      [
        "'da",
        -7.104243501951545
      ],
      [
        "▁delta",
        -8.88272220987978
      ],
      [
        "mıs",
        -6.710114346512351
      ],
      [
        "▁veriri",
        -8.852339848589786
      ],
      [
        "lardı",
        -7.7152424294408295
      ],
      [
        "▁dc",
        -9.899794542995693
      ],
      [
        "▁isini",
        -9.749057416885261
      ],
      [
        "▁ols",
        -9.308168117671995
      ],
      [
        "▁toronto'da",
        -9.62243488353961
      ],
      [
        "▁renkli",
        -9.580952553533354
      ],
      [
        "▁beklenti",
        -9.107360490685645
      ],
      [
        "▁guler",
        -8.27912920486966
      ],
      [
        "▁ekonomik",
        -9.07146676145911
      ],
      [
        "▁uc",
        -5.602242368294277
      ],
      [
        "▁kırmızı",
        -8.865723473747288
      ],
      [
        "sini",
        -7.111281122541552
      ],
      [
        "▁bit",
        -8.369653039097201
      ],
      [
        "▁sefer",
        -8.86538716690461
      ],
      [
        "▁isci",
        -8.805369153753556
      ],
      [
        "▁da",
        -4.365731738433244
      ],
      [
        "▁2",
        -8.796394779857172
      ],
      [
        "sından",
        -8.233379344286597
      ],
      [
        "▁dost",
        -8.893707026411365
      ],
      [
        "▁7",
        -9.214875501642393
      ],
      [
        "ov",
        -9.33591403700246
      ],
      [
        "▁ilgi",
        -8.297227697354101
      ],
      [
        "▁tesisin",
        -8.621597521630829
      ],
      [
        "▁edip",
        -9.262409421000559
      ],
      [
        "▁bekleniyor",
        -9.301145561571756
      ],
      [
        "▁fikri",
        -9.472488861711422
      ],
      [
        "▁taksi",
        -9.547075464856736
      ],
      [
        "▁doner",
        -9.794964752617686
      ],
      [
        "es",
        -7.87555296379098
      ],
      [
        "▁biraz",
        -7.073090129269313
      ],
      [
        "▁onceki",
        -8.55557900168742
      ],
      [
        "9",
        -7.050563821011688
      ],
      [
        "▁saka",
        -9.310823467918407
      ],
      [
        "mis",
        -6.829142570161516
      ],
      [
        "▁kalkan",
        -7.885680280120638
      ],
      [
        "▁otelin",
        -8.419365159458527
      ],
      [
        "▁gr",
        -8.65834947036678
      ],
      [
        "▁uygun",
        -7.7323735480501865
      ],
      [
        "bir",
        -9.545123950984518
      ],
      [
        "▁sak",
        -9.207539794145411
      ],
      [
        "sı",
        -10.411260938343814
      ],
      [
        "▁kendileri",
        -8.465864262322565
      ],
      [
        "▁cılgın",
        -9.897552792237853
      ],
      [
        "▁tartısma",
        -9.006442064333271
      ],
      [
        "▁girme",
        -9.062719136571985
      ],
      [
        "▁arz",
        -9.592150530847618
      ],
      [
        "le",
        -6.62633018119359
      ],
      [
        "mı",
        -8.374096378826032
      ],
      [
        "▁p",
        -12.931071006350244
      ],
      [
        "▁duruyor",
        -9.208739050527772
      ],
      [
        "d",
        -5.077362734358636
      ],
      [
        "▁kendilerin",
        -8.352079679002113
      ],
      [
        "▁rast",
        -9.176334485020506
      ],
      [
        "▁milyon",
        -5.185931877072128
      ],
      [
        "▁dogru",
        -7.823167852843883
      ],
      [
        "yla",
        -7.037844550513473
      ],
      [
        "▁durus",
        -9.288621812245513
      ],
      [
        "▁yakın",
        -8.046105017961292
      ],
      [
        "▁mc",
        -9.21653634168487
      ],
      [
        "▁engel",
        -9.01862368506421
      ],
      [
        "st",
        -7.810908071785605
      ],
      [
        "ilmis",
        -8.306599104433328
      ],
      [
        "ac",
        -8.823144997137888
      ],
      [
        "▁$'",
        -9.174758090417438
      ],
      [
        "x",
        -8.153096863108221
      ],
      [
        "▁alan",
        -7.853189429621455
      ],
      [
        "▁alacak",
        -9.146173348778962
      ],
      [
        "▁29",
        -8.31141521590659
      ],
      [
        "▁insanların",
        -9.029446971844333
      ],
      [
        "ır",
        -6.807285059183476
      ],
      [
        "sizlik",
        -9.067870836454517
      ],
      [
        "▁pu",
        -11.408164597291648
      ],
      [
        "▁grup",
        -8.955825712173406
      ],
      [
        "yıp",
        -8.632102404625488
      ],
      [
        "▁aracı",
        -9.540914455117921
      ],
      [
        "▁havayolları",
        -8.285473147991134
      ],
      [
        "sınız",
        -8.857608028473956
      ],
      [
        "▁alkol",
        -9.899661567773386
      ],
      [
        "▁tartıs",
        -9.866683405622059
      ],
      [
        "leyen",
        -8.802170370723436
      ],
      [
        "8'",
        -9.456022346869526
      ],
      [
        "▁bakıyordu",
        -9.884945907582129
      ],
      [
        "▁tahvil",
        -8.436508556430194
      ],
      [
        "▁kucu",
        -9.393878700191582
      ],
      [
        "▁kendisinde",
        -8.786059734983755
      ],
      [
        "7",
        -6.877042668686723
      ],
      [
        "▁halinde",
        -9.055739717991823
      ],
      [
        "▁icin",
        -8.812912050493708
      ],
      [
        "▁kırk",
        -7.941980051663087
      ],
      [
        "a",
        -4.0160794371592585
      ],
      [
        "▁idi",
        -8.9590315568136
      ],
      [
        "▁sor",
        -9.08893757446559
      ],
      [
        "nın",
        -6.33730855238994
      ],
      [
        "▁ticaret",
        -8.517018773958494
      ],
      [
        "▁ulus",
        -9.57061221320928
      ],
      [
        "▁dede",
        -9.57975026961092
      ],
      [
        "▁1.7",
        -8.760341410648229
      ],
      [
        "▁1",
        -8.031980136919895
      ],
      [
        "▁calıstı",
        -8.815998548043893
      ],
      [
        "is",
        -7.130826440066706
      ],
      [
        "▁so",
        -8.16605915334064
      ],
      [
        "▁dusunuyor",
        -8.881897349876896
      ],
      [
        "▁hızlı",
        -8.996139561653989
      ],
      [
        "-199",
        -12.825449727997478
      ],
      [
        "▁sorun",
        -8.031173147178858
      ],
      [
        "▁super",
        -9.206290197632955
      ],
      [
        "▁cekti",
        -8.816644174901416
      ],
      [
        "▁artısla",
        -8.803162178598198
      ],
      [
        "ımızda",
        -9.463543668519085
      ],
      [
        "▁duz",
        -8.71501380095264
      ],
      [
        "▁liste",
        -9.506746055426465
      ],
      [
        "▁verecek",
        -9.629140104509595
      ],
      [
        "▁7",
        -7.1735568469883
      ],
      [
        "▁park",
        -8.957823000093272
      ],
      [
        "7",
        -8.823662300763893
      ],
      [
        "▁zi",
        -8.843721243824106
      ],
      [
        "▁bel",
        -8.903652505780478
      ],
      [
        "▁katılım",
        -9.805763543775178
      ],
      [
        "re",
        -8.455478699837244
      ],
      [
        "ber",
        -8.481812016020683
      ],
      [
        "▁ra",
        -9.245496693429814
      ],
      [
        "▁benim",
        -5.982026832999391
      ],
      [
        "▁kaygı",
        -9.90340805937846
      ],
      [
        "▁gelecek",
        -8.452772240904034
      ],
      [
        "▁kimse",
        -8.42855271425171
      ],
      [
        "ustur",
        -8.57913183690498
      ],
      [
        "4-",
        -13.308189085778404
      ],
      [
        "▁hak",
        -7.927231744417667
      ],
      [
        "larında",
        -7.585806175449083
      ],
      [
        "▁basit",
        -9.508857781457984
      ],
      [
        "▁39",
        -9.172139216265979
      ],
      [
        "▁ucretleri",
        -9.583657731727486
      ],
      [
        "▁memleket",
        -9.2226560308027
      ],
      [
        "▁gidis",
        -8.147257800947731
      ],
      [
        "maya",
        -7.227138544981184
      ],
      [
        "▁baz",
        -8.596324861113123
      ],
      [
        "y'",
        -9.686867251031844
      ],
      [
        "▁performans",
        -8.551219757106786
      ],
      [
        "ck",
        -8.384154969846952
      ],
      [
        "▁sabahı",
        -8.411055888340478
      ],
      [
        "▁kapandı",
        -8.375989663491875
      ],
      [
        "▁verme",
        -8.309440150302974
      ],
      [
        "▁dusuk",
        -7.934941242012329
      ],
      [
        "▁icecekler",
        -9.163920922591991
      ],
      [
        "▁strateji",
        -9.272980445037389
      ],
      [
        "▁turkce",
        -9.665978850032683
      ],
      [
        "gibi",
        -7.880345455995306
      ],
      [
        "▁adet",
        -8.299820026155404
      ],
      [
        "90",
        -11.082983173234592
      ],
      [
        "▁er",
        -7.711055438241034
      ],
      [
        "▁sp",
        -9.12365990017585
      ],
      [
        "▁en",
        -6.028148110845544
      ],
      [
        "ed",
        -8.54186336368712
      ],
      [
        "▁john",
        -9.537326184353338
      ],
      [
        "▁yana",
        -9.534111522877149
      ],
      [
        "▁0.3",
        -9.730163952983364
      ],
      [
        "▁dısı",
        -9.343914223338796
      ],
      [
        "▁verim",
        -9.532600450997515
      ],
      [
        "▁gul",
        -7.848042943245606
      ],
      [
        "▁ardı",
        -9.598355190212782
      ],
      [
        "▁tav",
        -9.536931673839018
      ],
      [
        "mamıs",
        -9.046574137883571
      ],
      [
        "▁rakı",
        -9.788217958298379
      ],
      [
        "▁ed",
        -7.863526421197429
      ],
      [
        "he",
        -9.642327013437182
      ],
      [
        "▁kasım",
        -9.185480855480305
      ],
      [
        "▁kalmadi",
        -8.321287913235583
      ],
      [
        "▁basta",
        -9.545262691566425
      ],
      [
        ".75",
        -9.547328211014653
      ],
      [
        "▁44",
        -9.186140534000469
      ],
      [
        "1-19",
        -12.809528646007319
      ],
      [
        "abilmek",
        -9.765790863530071
      ],
      [
        "lastı",
        -8.442542069160437
      ],
      [
        "▁dibin",
        -9.784998742712537
      ],
      [
        "▁var",
        -5.978396975439737
      ],
      [
        "▁kutu",
        -9.166993022302204
      ],
      [
        "▁mar",
        -7.964590986952193
      ],
      [
        "▁kusur",
        -9.201220737456733
      ],
      [
        "koy",
        -9.715264912157846
      ],
      [
        "▁yani",
        -6.940966782202292
      ],
      [
        "▁neresi",
        -9.4401415114116
      ],
      [
        "▁dum",
        -7.613297299305508
      ],
      [
        "tti",
        -8.47049517042036
      ],
      [
        "▁yontem",
        -9.80581720426972
      ],
      [
        "▁cam",
        -8.359248271835233
      ],
      [
        "▁yardımcısı",
        -9.287574419940885
      ],
      [
        "▁dok",
        -8.816856926354895
      ],
      [
        "▁atı",
        -8.994733127921997
      ],
      [
        "▁yse",
        -8.979056288198866
      ],
      [
        "▁olduk",
        -8.403540058912242
      ],
      [
        "eyim",
        -9.433253555681913
      ],
      [
        "▁sana",
        -7.031446902661547
      ],
      [
        "▁mal",
        -8.365686107022203
      ],
      [
        "▁ahmet",
        -9.82782404175967
      ],
      [
        "mısını",
        -9.042412961741162
      ],
      [
        "▁gelme",
        -8.615284990481932
      ],
      [
        "▁bina",
        -9.132140564434634
      ],
      [
        "irim",
        -9.420570329027449
      ],
      [
        "▁din",
        -8.341682940248582
      ],
      [
        "▁kalbi",
        -9.576029644947184
      ],
      [
        "▁alem",
        -9.787348666305498
      ],
      [
        "▁tatil",
        -8.13275527655258
      ],
      [
        "gan",
        -8.16058792153985
      ],
      [
        "250000",
        -9.683004935867471
      ],
      [
        "▁yen'",
        -9.680486774340427
      ],
      [
        "▁f",
        -7.8536926679417585
      ],
      [
        "▁baglantı",
        -9.590287975253865
      ],
      [
        "▁kalan",
        -8.737993569363509
      ],
      [
        "▁3",
        -9.07530756559557
      ],
      [
        "▁muduru",
        -9.432622215885642
      ],
      [
        "hicbir",
        -9.453110688665927
      ],
      [
        "▁kosulları",
        -9.692462456152258
      ],
      [
        "siniz",
        -8.3561252313234
      ],
      [
        "▁pahalı",
        -9.783821241195165
      ],
      [
        "cak",
        -8.300738455665638
      ],
      [
        "ti",
        -8.056066862997
      ],
      [
        "▁tabi",
        -8.874998617858447
      ],
      [
        "▁198",
        -13.999596592358095
      ],
      [
        "▁sikayet",
        -9.520610734917089
      ],
      [
        "▁yemeklerde",
        -9.569522251926918
      ],
      [
        "▁cıkma",
        -8.608755600597515
      ],
      [
        "▁kardesi",
        -9.176752825443604
      ],
      [
        "san",
        -8.040444113682927
      ],
      [
        "▁baslangıc",
        -9.411129236916102
      ],
      [
        "▁cıkarma",
        -9.315046638636627
      ],
      [
        "▁olur",
        -7.831528637037798
      ],
      [
        "▁ajans",
        -9.805537591295257
      ],
      [
        "▁beni",
        -6.136918772172587
      ],
      [
        "▁anlat",
        -8.272097297039227
      ],
      [
        "▁yapılan",
        -8.257288011986699
      ],
      [
        "▁dusunur",
        -9.814094402860832
      ],
      [
        "tı",
        -8.324715511985309
      ],
      [
        "gen",
        -8.703204219276314
      ],
      [
        "▁sogu",
        -9.619507765927027
      ],
      [
        "▁calısan",
        -8.53364658661918
      ],
      [
        "▁sehir",
        -8.187371232028607
      ],
      [
        "▁istanbul",
        -9.303940825471502
      ],
      [
        "▁eris",
        -9.569838814992318
      ],
      [
        "▁esya",
        -9.110421204306768
      ],
      [
        "▁yu",
        -7.8223920033804815
      ],
      [
        "▁istiyor",
        -8.393024316538071
      ],
      [
        "▁gelisi",
        -9.48199411878009
      ],
      [
        "bircok",
        -9.673910155888947
      ],
      [
        "▁temel",
        -8.648028472447798
      ],
      [
        "▁deneme",
        -9.327077943919083
      ],
      [
        "ı",
        -11.30808334001589
      ],
      [
        "▁bell",
        -9.886870646495854
      ],
      [
        "▁cogunu",
        -8.76036576942584
      ],
      [
        "▁sekil",
        -9.872081980767828
      ],
      [
        "▁rapor",
        -8.461343694943656
      ],
      [
        "▁duy",
        -8.866238153057882
      ],
      [
        "▁ihtiyar",
        -9.14029596454324
      ],
      [
        "▁north",
        -9.662439117998822
      ],
      [
        "▁tahviller",
        -9.220748397202902
      ],
      [
        "▁nu",
        -8.711134042620683
      ],
      [
        "(",
        -6.128634380103216
      ],
      [
        "▁cin",
        -8.880960358299852
      ],
      [
        "▁52",
        -9.474990685845631
      ],
      [
        "milyon",
        -8.648131795458136
      ],
      [
        "▁oturma",
        -9.662464738210264
      ],
      [
        "▁olacak",
        -8.014894583506065
      ],
      [
        "lmaz",
        -9.180719443663865
      ],
      [
        "▁olma",
        -7.7981672658848105
      ],
      [
        "▁%27",
        -11.811170483524602
      ],
      [
        "▁bonolar",
        -9.82808373315395
      ],
      [
        "▁yaslı",
        -9.184257924499216
      ],
      [
        "▁hastalık",
        -9.349422649107591
      ],
      [
        "▁ayak",
        -8.35536771551008
      ],
      [
        "▁sesi",
        -9.119940064653967
      ],
      [
        "▁es",
        -7.60741197208274
      ],
      [
        "▁olmaz",
        -8.755378389915684
      ],
      [
        "▁dur",
        -7.454968144923028
      ],
      [
        "▁gec",
        -8.030956531254429
      ],
      [
        "▁!",
        -9.510406401262049
      ],
      [
        "▁finans",
        -9.029978976694245
      ],
      [
        "▁iyiydi",
        -6.566074828464216
      ],
      [
        "▁iflas",
        -9.921949726572105
      ],
      [
        "'n",
        -8.496960206853736
      ],
      [
        "▁mezar",
        -9.589104511377666
      ],
      [
        "dıgı",
        -7.6560457538756825
      ],
      [
        "▁kapat",
        -8.998941795654417
      ],
      [
        "▁geldigi",
        -9.122232409390278
      ],
      [
        "▁yarat",
        -9.283716421615075
      ],
      [
        "▁eglence",
        -8.984823275571426
      ],
      [
        "▁neden",
        -7.411773487781502
      ],
      [
        "ıyordu",
        -7.666698771758724
      ],
      [
        "▁gorun",
        -7.989398104297027
      ],
      [
        "▁tarafta",
        -9.473431239403826
      ],
      [
        "▁birbirlerini",
        -8.697935612590925
      ],
      [
        "▁5-1",
        -12.163675011319157
      ],
      [
        "mizi",
        -8.997687320220876
      ],
      [
        "▁sut",
        -9.014554190031607
      ],
      [
        "▁boyut",
        -9.655464131910016
      ],
      [
        "▁ulasılama",
        -9.762656842119853
      ],
      [
        "▁tutu",
        -8.653020593594437
      ],
      [
        "▁dev",
        -8.862008926988302
      ],
      [
        "▁yapma",
        -8.418393442857358
      ],
      [
        "▁ulastı",
        -9.127327311717327
      ],
      [
        "nızı",
        -9.532832227753374
      ],
      [
        "▁konut",
        -9.55877425604506
      ],
      [
        "mız",
        -8.167595968454787
      ],
      [
        "bes",
        -8.256481570860622
      ],
      [
        "▁75",
        -9.659339365804398
      ],
      [
        "▁gosterin",
        -8.050817889615079
      ],
      [
        "▁hay",
        -8.77209153127038
      ],
      [
        "▁louis'",
        -9.563847891016705
      ],
      [
        "▁%",
        -6.30458812668807
      ],
      [
        "▁za",
        -11.938950486359479
      ],
      [
        "▁dusunme",
        -9.141033126020327
      ],
      [
        "▁kus",
        -8.330249515904718
      ],
      [
        "▁okul",
        -8.386398661127298
      ],
      [
        "▁verdigi",
        -8.82291885238747
      ],
      [
        "▁yetkili",
        -9.050101179575705
      ],
      [
        "▁masa",
        -8.022158602134343
      ],
      [
        "▁gecen",
        -7.740156578856176
      ],
      [
        "lere",
        -7.1509989948674395
      ],
      [
        "ırdı",
        -8.6557344872212
      ],
      [
        "ecegini",
        -8.80109566155393
      ],
      [
        "malıydı",
        -9.84744769072077
      ],
      [
        "▁sevinc",
        -9.71654953647515
      ],
      [
        "50",
        -8.746174993512678
      ],
      [
        "▁ara",
        -7.36500669311084
      ],
      [
        "▁meyve",
        -9.64357694762634
      ],
      [
        "▁ucusları",
        -6.507108513758391
      ],
      [
        "▁ofke",
        -9.662442063194947
      ],
      [
        "%",
        -5.612064710322522
      ],
      [
        "▁sap",
        -8.671124779848451
      ],
      [
        "▁mutlak",
        -9.537295197250156
      ],
      [
        "▁22",
        -8.076066059236702
      ],
      [
        "▁direkt",
        -9.762583204389372
      ],
      [
        "dı",
        -8.385939154810046
      ],
      [
        "▁ge",
        -8.429077056775967
      ],
      [
        "▁bulun",
        -8.123345738050878
      ],
      [
        "▁endeks",
        -9.31281965181999
      ],
      [
        "▁mekan",
        -9.592044309517524
      ],
      [
        "▁listesini",
        -9.852125034551769
      ],
      [
        "▁birini",
        -7.9901088460014265
      ],
      [
        "sın",
        -8.044919295447183
      ],
      [
        "▁belirtti",
        -9.156595510007552
      ],
      [
        "▁gene",
        -9.002290911526096
      ],
      [
        "▁2.6",
        -9.300197033415099
      ],
      [
        "▁mute",
        -9.350369379116017
      ],
      [
        "▁soyluyor",
        -8.264482407494576
      ],
      [
        "▁1.1",
        -9.139451599402937
      ],
      [
        "▁bizde",
        -7.888273266411787
      ],
      [
        "on",
        -6.971099666334458
      ],
      [
        "tak",
        -8.636625796253199
      ],
      [
        "▁lezzet",
        -7.7349774512220275
      ],
      [
        "▁.",
        -7.588598483541113
      ],
      [
        "▁ayrı",
        -8.31243187314766
      ],
      [
        "▁neler",
        -8.511358411978613
      ],
      [
        "▁meclis",
        -9.186514031228917
      ],
      [
        "▁tahvilleri",
        -9.43431349028672
      ],
      [
        "▁ba",
        -7.695456264858099
      ],
      [
        "▁uygula",
        -9.465508774201654
      ],
      [
        "▁ortalama",
        -8.446967447662862
      ],
      [
        "▁ayrılı",
        -9.259615324761995
      ],
      [
        "▁kalktı",
        -9.492286170788681
      ],
      [
        "na",
        -8.368796334948598
      ],
      [
        "lerinden",
        -7.891840775863265
      ],
      [
        "▁kal",
        -7.951632083014778
      ],
      [
        "▁alıyor",
        -9.066356820808736
      ],
      [
        "▁uzak",
        -8.669226906142686
      ],
      [
        "▁yaklas",
        -9.490440657542544
      ],
      [
        "▁bat",
        -9.299938751860935
      ],
      [
        "▁giden",
        -7.8030545502980795
      ],
      [
        "▁kar",
        -7.306440082986129
      ],
      [
        "▁ulusal",
        -8.99394983103991
      ],
      [
        "▁senetleri",
        -9.158518858065289
      ],
      [
        "▁acıldı",
        -9.481269269931289
      ],
      [
        "once",
        -9.511381666878972
      ],
      [
        "▁sabit",
        -9.353584926558861
      ],
      [
        "▁cıkıs",
        -9.498071008904942
      ],
      [
        "▁ber",
        -7.601397042744379
      ],
      [
        "50000",
        -9.481042297468452
      ],
      [
        "ların",
        -6.231394799792546
      ],
      [
        "▁pis",
        -8.526063081680249
      ],
      [
        "▁yaygın",
        -9.74501721386989
      ],
      [
        "▁toplam",
        -8.713591460912568
      ],
      [
        "▁eglen",
        -9.830939093817609
      ],
      [
        "▁mahalle",
        -9.312469966340569
      ],
      [
        "ev",
        -11.809602426827798
      ],
      [
        "▁ucag",
        -9.32696226230263
      ],
      [
        "▁cuma",
        -8.184062646167437
      ],
      [
        "▁dallas'ta",
        -8.269298595761168
      ],
      [
        "▁vadeli",
        -8.56050813174603
      ],
      [
        "▁hepimiz",
        -8.170111195120999
      ],
      [
        "▁ihale",
        -9.783797174444869
      ],
      [
        "ktan",
        -8.06294448844352
      ],
      [
        "▁dc'",
        -9.31263158597374
      ],
      [
        "▁devri",
        -9.50495412908283
      ],
      [
        "abilecegi",
        -9.026163964263484
      ],
      [
        "▁mana",
        -9.455218696408778
      ],
      [
        "▁aktarmasız",
        -8.643353216011683
      ],
      [
        "▁aday",
        -9.455280867433398
      ],
      [
        "▁16",
        -8.02885064101159
      ],
      [
        "19",
        -11.864564628225486
      ],
      [
        "▁gerceklesti",
        -9.8241174811166
      ],
      [
        "▁havayollarını",
        -9.46065202017002
      ],
      [
        "▁tasarı",
        -9.384209957238589
      ],
      [
        "gar",
        -8.840785514214964
      ],
      [
        "▁sez",
        -9.20314609831481
      ],
      [
        "▁general",
        -9.33972487213114
      ],
      [
        "▁yayın",
        -8.50990606267258
      ],
      [
        "▁basarılı",
        -9.27705615947293
      ],
      [
        "▁1.8",
        -9.088566293567371
      ],
      [
        "▁46",
        -9.51287412022489
      ],
      [
        "0-1",
        -13.27225999513051
      ],
      [
        "▁kira",
        -8.898863789157383
      ],
      [
        "▁350",
        -9.62531107349585
      ],
      [
        "▁bagımlı",
        -9.92195949412623
      ],
      [
        "▁elde",
        -8.482649075121927
      ],
      [
        "▁%9.",
        -11.600875950498601
      ],
      [
        "▁telefonla",
        -9.41182571381123
      ],
      [
        "▁posta",
        -9.607485848407304
      ],
      [
        "▁belirli",
        -9.673057502824413
      ],
      [
        "d",
        -9.781817406421387
      ],
      [
        "ebilir",
        -7.428256328907694
      ],
      [
        "gunu",
        -8.723887627584766
      ],
      [
        "▁pittsburgh'ta",
        -8.114142360331929
      ],
      [
        "▁ag",
        -8.164870990169355
      ],
      [
        "▁hayvan",
        -9.129111683623776
      ],
      [
        "▁elinde",
        -8.234616776314255
      ],
      [
        "▁fre",
        -9.444787766768734
      ],
      [
        "▁musa",
        -9.525910424904282
      ],
      [
        "▁80",
        -9.245377230161239
      ],
      [
        "▁temizligi",
        -8.116102342209278
      ],
      [
        "▁vergi",
        -8.339807981139629
      ],
      [
        "▁programı",
        -9.403594497131223
      ],
      [
        "▁girer",
        -9.564762482784012
      ],
      [
        "▁persembe",
        -8.444293426746388
      ],
      [
        "▁gecirme",
        -9.75195092178111
      ],
      [
        "▁secil",
        -9.495297156598156
      ],
      [
        "▁nite",
        -9.38744112001734
      ],
      [
        "▁y",
        -12.8595826767005
      ],
      [
        "▁herkes",
        -8.612316935561402
      ],
      [
        "▁dil",
        -8.358391811749737
      ],
      [
        "▁boy",
        -8.542169799067416
      ],
      [
        "▁baslar",
        -9.381504381417287
      ],
      [
        "▁yavas",
        -8.24107390291609
      ],
      [
        "▁toz",
        -9.615816817395611
      ],
      [
        "bb",
        -9.770133315934762
      ],
      [
        "▁18",
        -8.02303047947422
      ],
      [
        "dır",
        -6.571884490825628
      ],
      [
        "▁birlesi",
        -9.831681169245844
      ],
      [
        "▁10",
        -6.062677737991037
      ],
      [
        "▁1992",
        -9.079475517195498
      ],
      [
        "▁cumartesi",
        -8.622678548849034
      ],
      [
        "▁kesi",
        -8.628174444927335
      ],
      [
        "▁cekme",
        -9.099754384912659
      ],
      [
        "▁ilan",
        -9.289202738761684
      ],
      [
        "lar",
        -4.8399050141436195
      ],
      [
        "▁per",
        -9.31664410223674
      ],
      [
        "▁do",
        -9.18663526880855
      ],
      [
        "yordu",
        -8.632994416366177
      ],
      [
        "ya",
        -8.492646272106997
      ],
      [
        "▁pencere",
        -8.807021446082938
      ],
      [
        "61",
        -13.225441943691433
      ],
      [
        "▁baslamıstı",
        -9.801067179488136
      ],
      [
        "▁lazım",
        -9.096061030367224
      ],
      [
        "▁olmasi",
        -8.873741082383937
      ],
      [
        "▁olurdu",
        -9.65652464556386
      ],
      [
        "▁organ",
        -9.80815980532563
      ],
      [
        "▁insanları",
        -9.553906337549522
      ],
      [
        "▁orman",
        -9.469967951551478
      ],
      [
        "▁yapacagı",
        -9.665874563172583
      ],
      [
        "▁yapıyor",
        -8.497261919339142
      ],
      [
        "▁tutun",
        -9.405979937786046
      ],
      [
        "▁14",
        -8.071408203960582
      ],
      [
        "lıgın",
        -8.427029730386721
      ],
      [
        "digini",
        -8.18075205188335
      ],
      [
        "ch",
        -7.91914995566932
      ],
      [
        "▁dik",
        -8.32777577528379
      ],
      [
        "▁zincir",
        -9.625052861498833
      ],
      [
        "ın",
        -9.400618937104571
      ],
      [
        "▁don",
        -8.085097536466154
      ],
      [
        "▁toprag",
        -9.78471988009201
      ],
      [
        "▁basvur",
        -9.456615917113677
      ],
      [
        "p",
        -5.474414383137878
      ],
      [
        "▁tekrar",
        -8.140593433254258
      ],
      [
        "▁kuru",
        -8.438951846819977
      ],
      [
        "lıkla",
        -9.015083223077728
      ],
      [
        "▁birin",
        -9.18186594529358
      ],
      [
        "▁saglaya",
        -9.760545848485926
      ],
      [
        "▁bankası",
        -9.67410786160378
      ],
      [
        "▁ediyor",
        -7.107172282704474
      ],
      [
        "yip",
        -9.007819406626659
      ],
      [
        "der",
        -8.294905960316342
      ],
      [
        "▁bildir",
        -8.935599490700557
      ],
      [
        "▁mavi",
        -8.995816429010254
      ],
      [
        "▁veren",
        -8.843219162891625
      ],
      [
        "▁gayrimenkul",
        -9.850482361674558
      ],
      [
        "▁fiyatı",
        -9.054665724863753
      ],
      [
        "ho",
        -9.373322718181468
      ],
      [
        "▁yak",
        -8.519221287100493
      ],
      [
        "larındaki",
        -9.36970916372233
      ],
      [
        "▁ikibinuc",
        -9.483628766956455
      ],
      [
        "lanma",
        -8.157361514699256
      ],
      [
        "▁199",
        -9.359959182241319
      ],
      [
        "abilecegini",
        -9.940969119377181
      ],
      [
        "▁harika",
        -9.112937658197911
      ],
      [
        "altı",
        -8.424785572045806
      ],
      [
        "▁pa",
        -7.625150484708501
      ],
      [
        "'le",
        -9.487327393534338
      ],
      [
        "▁duvar",
        -8.405732706980263
      ],
      [
        "▁washington'da",
        -9.229879266857264
      ],
      [
        "▁yuz",
        -7.387323089183921
      ],
      [
        "▁agzı",
        -9.139175121805325
      ],
      [
        "▁ney",
        -8.827870655904642
      ],
      [
        "▁2016",
        -9.308874043928322
      ],
      [
        "▁%0.",
        -12.810336710195685
      ],
      [
        "oz",
        -8.978374483908956
      ],
      [
        "▁kullanıyor",
        -9.804693021414236
      ],
      [
        "▁cesit",
        -7.2392222221460605
      ],
      [
        "▁55",
        -9.177819608601558
      ],
      [
        "▁listeley",
        -7.981548151792277
      ],
      [
        "▁tutma",
        -9.410953863471837
      ],
      [
        "▁dusus",
        -8.45464891906829
      ],
      [
        "▁yerlesti",
        -9.62837664041978
      ],
      [
        "sak",
        -9.118476676801967
      ],
      [
        "▁kendimi",
        -7.677155434190539
      ],
      [
        "▁sinir",
        -8.957347939651598
      ],
      [
        "▁ciddi",
        -8.891466041258433
      ],
      [
        "cur",
        -11.810415588524076
      ],
      [
        "▁tanı",
        -7.866231480237896
      ],
      [
        "▁dosya",
        -9.643769849948558
      ],
      [
        "▁toplu",
        -9.595264424364444
      ],
      [
        "▁yemeklerinde",
        -9.60690170437325
      ],
      [
        "▁parcası",
        -9.512313897770273
      ],
      [
        "▁veriyoru",
        -8.273166441701859
      ],
      [
        "▁ilet",
        -9.794053875274123
      ],
      [
        "▁soyler",
        -9.384621725798194
      ],
      [
        "▁keyif",
        -9.741706474475194
      ],
      [
        "▁ideal",
        -9.42605640672912
      ],
      [
        "▁ab",
        -8.423028852608788
      ],
      [
        "tu",
        -6.945024962034392
      ],
      [
        "▁tık",
        -9.196474036464853
      ],
      [
        "5",
        -6.257519171130609
      ],
      [
        "▁baska",
        -7.484803895056222
      ],
      [
        "▁reddetti",
        -9.129021497856145
      ],
      [
        "▁detay",
        -9.721354766796079
      ],
      [
        "▁yemekleri",
        -7.785992053377188
      ],
      [
        "'ı",
        -8.883924867073162
      ],
      [
        "▁sade",
        -7.449757047897101
      ],
      [
        "▁lider",
        -9.140379437159137
      ],
      [
        "bilir",
        -9.408501336803319
      ],
      [
        "▁para",
        -7.05252863478839
      ],
      [
        "▁uzaklas",
        -9.766075470855721
      ],
      [
        "tim",
        -8.85835951425771
      ],
      [
        "▁%5.",
        -13.23714746142396
      ],
      [
        "b",
        -11.061781342297014
      ],
      [
        "▁uyusturucu",
        -9.721275727861373
      ],
      [
        "▁firması",
        -9.722674719772833
      ],
      [
        "▁tipi",
        -9.473684659509814
      ],
      [
        "▁belki",
        -8.26584655745798
      ],
      [
        "▁atlanta",
        -8.793267934565353
      ],
      [
        "ans",
        -9.063333249514454
      ],
      [
        "▁dordu",
        -8.829957619883997
      ],
      [
        "veya",
        -8.908097765809462
      ],
      [
        "▁do",
        -7.762827266133985
      ],
      [
        "▁onem",
        -8.786787059537106
      ],
      [
        "▁cıkmıs",
        -8.939284244124563
      ],
      [
        "imi",
        -8.173564068595436
      ],
      [
        "▁kalitesi",
        -7.870373323819473
      ],
      [
        "ell",
        -8.985153745845299
      ],
      [
        "▁yuzunu",
        -9.634731074496935
      ],
      [
        "▁anadolu",
        -9.367645816504128
      ],
      [
        "▁sofra",
        -9.537287043727831
      ],
      [
        "▁kansas",
        -8.936532958255325
      ],
      [
        "▁f",
        -10.863911410280291
      ],
      [
        "▁muh",
        -8.483521521470948
      ],
      [
        "▁bizler",
        -8.787743749858901
      ],
      [
        "gını",
        -8.004760248338489
      ],
      [
        "▁uzu",
        -9.290737765322937
      ],
      [
        "▁sendika",
        -9.557039092684757
      ],
      [
        "hangi",
        -8.461425620153111
      ],
      [
        "▁hic",
        -9.677431314152003
      ],
      [
        "▁kullan",
        -7.886867775114281
      ],
      [
        "▁onlarda",
        -8.606170649037104
      ],
      [
        "▁kral",
        -9.522997985086077
      ],
      [
        "▁vurdu",
        -9.510626917755747
      ],
      [
        "it",
        -8.004763906264408
      ],
      [
        "abilir",
        -7.5877626904986
      ],
      [
        "lıklar",
        -9.062044936281978
      ],
      [
        "lerin",
        -6.4006457938809245
      ],
      [
        "▁ediliyor",
        -9.657756306678278
      ],
      [
        "fı",
        -12.849601984454036
      ],
      [
        "▁dc'de",
        -9.703787813595424
      ],
      [
        "▁kokusu",
        -9.81521775441062
      ],
      [
        "▁belge",
        -9.397553610595327
      ],
      [
        "▁%8.2",
        -11.920938577525046
      ],
      [
        "▁cay",
        -8.807376618830695
      ],
      [
        "▁ha",
        -9.66166110685669
      ],
      [
        "▁gaye",
        -8.026258026882394
      ],
      [
        "▁belir",
        -8.968987588287888
      ],
      [
        "oloji",
        -9.741121261146263
      ],
      [
        "▁dile",
        -9.079088492353069
      ],
      [
        "▁gelistirme",
        -9.67839495038564
      ],
      [
        "isinda",
        -9.027387132627288
      ],
      [
        "▁ilerle",
        -9.54114343690783
      ],
      [
        "n",
        -3.581209911023066
      ],
      [
        "▁program",
        -8.517729235665133
      ],
      [
        "▁yapı",
        -7.698452381668765
      ],
      [
        "ledi",
        -8.261038339514975
      ],
      [
        "▁cogu",
        -8.617349793483148
      ],
      [
        "▁rezervasyon",
        -9.09418789216437
      ],
      [
        "▁yukarı",
        -9.163135277092621
      ],
      [
        "65",
        -9.675037765306437
      ],
      [
        "▁sok",
        -8.595510385524342
      ],
      [
        "▁bıraktı",
        -8.906081840825763
      ],
      [
        "▁tuttu",
        -8.89055622941563
      ],
      [
        "▁oyle",
        -7.879420935545019
      ],
      [
        "▁okudu",
        -9.530172755599544
      ],
      [
        "!",
        -5.681525786294376
      ],
      [
        "cisi",
        -9.346446715062921
      ],
      [
        "#",
        -10.35952679083899
      ],
      [
        "les",
        -8.457631366099562
      ],
      [
        "medigini",
        -9.677551197501796
      ],
      [
        "do",
        -8.446486448208345
      ],
      [
        "▁st",
        -7.61138685974235
      ],
      [
        "▁fiyatlar",
        -9.088233630673564
      ],
      [
        "▁5\\/",
        -9.38837327942467
      ],
      [
        "▁kimsey",
        -8.57854400842489
      ],
      [
        "▁pahali",
        -8.744530098194137
      ],
      [
        "lanıyor",
        -8.903172121844868
      ],
      [
        "▁takımı",
        -9.708143805869849
      ],
      [
        "▁nashville'",
        -9.643569107545932
      ],
      [
        "▁simdi",
        -7.272086153548058
      ],
      [
        "▁kredi",
        -8.227367814183824
      ],
      [
        "to",
        -8.279992367275327
      ],
      [
        "bire",
        -9.343351773940302
      ],
      [
        "▁olumsuz",
        -9.555358461550039
      ],
      [
        "uldu",
        -8.445374852116384
      ],
      [
        "▁yargıc",
        -9.889334826820837
      ],
      [
        "▁yuksek",
        -7.6366032460836175
      ],
      [
        "▁acab",
        -9.793466999758483
      ],
      [
        "▁ni",
        -8.292132732159178
      ],
      [
        "mez",
        -7.966032239842323
      ],
      [
        "lanır",
        -9.165613900976947
      ],
      [
        "yi",
        -6.715046823876086
      ],
      [
        "▁cıkardı",
        -8.983645534966252
      ],
      [
        "▁demir",
        -8.508340950784895
      ],
      [
        "▁oteli",
        -9.129345289380222
      ],
      [
        "▁ual",
        -9.721741189895525
      ],
      [
        "▁siddet",
        -9.074661137948173
      ],
      [
        "▁garson",
        -9.8978555920366
      ],
      [
        "▁girdi",
        -8.553496388378658
      ],
      [
        "iz",
        -7.423531956578175
      ],
      [
        "ı",
        -6.612256086080282
      ],
      [
        "200",
        -13.183875010531716
      ],
      [
        "▁mali",
        -8.791549040500692
      ],
      [
        "▁vakit",
        -9.29920118514579
      ],
      [
        "3.4",
        -12.811445152892901
      ],
      [
        "▁hasar",
        -9.576162872873063
      ],
      [
        "▁indirim",
        -9.672342322911224
      ],
      [
        "▁dustu",
        -7.915686337483025
      ],
      [
        "18",
        -12.105479095657515
      ],
      [
        "▁ala",
        -8.640586208908413
      ],
      [
        "dir",
        -6.138212601783726
      ],
      [
        "▁tuketici",
        -9.367644261695261
      ],
      [
        "ttı",
        -8.58301489695798
      ],
      [
        "%0.2",
        -13.660889112491356
      ],
      [
        "▁lira",
        -8.78330835128318
      ],
      [
        "▁yuksel",
        -7.941298072809317
      ],
      [
        "▁ceza",
        -8.707305051954044
      ],
      [
        "▁hadi",
        -9.402590035263621
      ],
      [
        "▁yuzde",
        -8.990369198558088
      ],
      [
        "▁tarafı",
        -9.616148944776409
      ],
      [
        "▁bizi",
        -7.022754278498933
      ],
      [
        "c",
        -6.779551376003666
      ],
      [
        "▁kas",
        -8.300165634075803
      ],
      [
        "▁sezon",
        -9.66328503127754
      ],
      [
        "i",
        -9.483528417945884
      ],
      [
        "▁kese",
        -9.736010785200172
      ],
      [
        "▁bul",
        -7.575700402682137
      ],
      [
        "▁carsamba",
        -7.965526360583195
      ],
      [
        "▁karar",
        -7.759016611522166
      ],
      [
        "bin",
        -9.513672347460165
      ],
      [
        "ım",
        -8.568093718523716
      ],
      [
        "madıgı",
        -9.61827410001321
      ],
      [
        "-200",
        -11.812779528872541
      ],
      [
        "▁koltug",
        -9.742039020680785
      ],
      [
        "▁saldırı",
        -9.665698133562591
      ],
      [
        "▁43",
        -8.898012167341692
      ],
      [
        "▁imkanlari",
        -9.118107656372283
      ],
      [
        "n",
        -9.623076971272127
      ],
      [
        "▁kaydetti",
        -9.850485978397435
      ],
      [
        "▁halk",
        -8.746318360611731
      ],
      [
        "▁araba",
        -8.022995583233863
      ],
      [
        "▁akıl",
        -9.126712317500164
      ],
      [
        "mektedir",
        -8.306258285265738
      ],
      [
        "▁olsa",
        -8.341393113880056
      ],
      [
        "▁iletisim",
        -9.805542171902413
      ],
      [
        "▁annem",
        -8.505711696356052
      ],
      [
        "c",
        -12.525513205923579
      ],
      [
        "▁197",
        -9.027229195716876
      ],
      [
        "▁yar",
        -9.417808307064544
      ],
      [
        "▁phoenix'",
        -9.82701112660871
      ],
      [
        "▁ort",
        -9.324583980457225
      ],
      [
        ".7",
        -13.316270462957048
      ],
      [
        "▁hata",
        -9.345117620653918
      ],
      [
        "▁masraf",
        -9.681672272637341
      ],
      [
        "sunu",
        -8.55691237153896
      ],
      [
        "▁ali",
        -8.791799483084809
      ],
      [
        "▁gucu",
        -9.38779825739449
      ],
      [
        "▁kitabı",
        -9.163116083249538
      ],
      [
        "▁ur",
        -9.155759490078006
      ],
      [
        "▁film",
        -8.85704856401772
      ],
      [
        ".4",
        -10.830378826620755
      ],
      [
        "▁no",
        -8.824692142194547
      ],
      [
        "▁petersburg'",
        -9.662437031291418
      ],
      [
        "in",
        -9.31817253420266
      ],
      [
        "ku",
        -11.295142931456333
      ],
      [
        "▁londra",
        -9.62505080181477
      ],
      [
        "▁17",
        -7.930073394966318
      ],
      [
        "▁kol",
        -8.135764175946209
      ],
      [
        "l",
        -5.664088162515049
      ],
      [
        "▁ap",
        -9.337799653288135
      ],
      [
        "isi",
        -8.59687392606191
      ],
      [
        "▁sınıf",
        -8.399147209889872
      ],
      [
        "▁t",
        -13.020326944763564
      ],
      [
        "larını",
        -6.280612265041208
      ],
      [
        "▁`",
        -10.52550487288217
      ],
      [
        "▁boyle",
        -7.262541292284436
      ],
      [
        "▁airlines",
        -8.911330258510297
      ],
      [
        "birinde",
        -9.596124906648416
      ],
      [
        "▁kopu",
        -9.51245493400365
      ],
      [
        "l",
        -9.263032525714058
      ],
      [
        "▁bugun",
        -7.773253140044549
      ],
      [
        "▁d",
        -8.063555699702881
      ],
      [
        "▁kalır",
        -9.615432739311931
      ],
      [
        "▁otel",
        -7.342137325474617
      ],
      [
        "▁aslın",
        -8.739631909678831
      ],
      [
        "▁insan",
        -7.434749523121821
      ],
      [
        "▁degildi",
        -4.719105511077978
      ],
      [
        "6",
        -6.952477388401526
      ],
      [
        "▁meger",
        -9.113731181418167
      ],
      [
        "▁continental",
        -9.0434085560732
      ],
      [
        "▁kendimde",
        -9.632540964210538
      ],
      [
        "li",
        -5.284557323569377
      ],
      [
        "▁uf",
        -9.261391589710101
      ],
      [
        "▁gelisme",
        -9.328736594089701
      ],
      [
        "▁olmaya",
        -9.57658948070318
      ],
      [
        "▁olan",
        -6.073952902459884
      ],
      [
        "%7.8",
        -13.327937914282716
      ],
      [
        "▁savas",
        -8.790530757623742
      ],
      [
        "▁pazartesi",
        -8.200530237779951
      ],
      [
        "▁ileri",
        -8.808493621832575
      ],
      [
        "▁arkadaslar",
        -9.437717865336083
      ],
      [
        "▁satıl",
        -9.292978203988014
      ],
      [
        "▁durum",
        -8.415223909775452
      ],
      [
        "▁ekmek",
        -9.05594697726847
      ],
      [
        "▁lu",
        -11.607158865473217
      ],
      [
        "▁70",
        -8.959668593286574
      ],
      [
        "▁bulama",
        -9.321424377065032
      ],
      [
        "+",
        -12.809526790838989
      ],
      [
        "▁odul",
        -9.664513297888227
      ],
      [
        "▁giriste",
        -9.726619358696338
      ],
      [
        "▁basladı",
        -7.609873282892031
      ],
      [
        "▁deli",
        -8.812753026740555
      ],
      [
        "so",
        -8.893916647833626
      ],
      [
        "▁cesaret",
        -9.897555617290008
      ],
      [
        "▁ola",
        -6.380018922623658
      ],
      [
        "▁insaat",
        -9.261865770938682
      ],
      [
        "▁soluk",
        -9.856846324813562
      ],
      [
        "▁kazandı",
        -8.965724253453981
      ],
      [
        "▁verilen",
        -9.228756912446434
      ],
      [
        "▁degil",
        -5.112904891209204
      ],
      [
        "▁abd",
        -8.07037445041481
      ],
      [
        "▁gelistir",
        -9.413645875737874
      ],
      [
        "▁hamle",
        -9.485009814607798
      ],
      [
        "▁etmisti",
        -9.71581062978339
      ],
      [
        "20",
        -8.933298701372465
      ],
      [
        "▁oldugum",
        -9.376119671988727
      ],
      [
        "▁icer",
        -8.599253202518533
      ],
      [
        "▁ekibi",
        -9.520635748757664
      ],
      [
        "▁temsilci",
        -9.53477263973522
      ],
      [
        "▁san",
        -8.769387182055986
      ],
      [
        "▁gor",
        -7.819149214633885
      ],
      [
        "▁ford",
        -9.879120759571935
      ],
      [
        "▁proje",
        -9.043414049593856
      ],
      [
        "▁seviye",
        -9.0802649801795
      ],
      [
        "▁etki",
        -8.323570310069286
      ],
      [
        "▁street",
        -9.272980940124093
      ],
      [
        "▁sonraki",
        -9.401397874466273
      ],
      [
        "▁miktar",
        -9.339682741751428
      ],
      [
        "▁degillerdi",
        -7.774122767717512
      ],
      [
        "lıgı",
        -7.337049702844419
      ],
      [
        "▁iz",
        -8.10766924320539
      ],
      [
        "87",
        -11.566550520542979
      ],
      [
        "▁sultan",
        -9.873844106165574
      ],
      [
        "0",
        -8.500486158583719
      ],
      [
        "▁borc",
        -8.227774933745913
      ],
      [
        "gin",
        -8.426214247501704
      ],
      [
        "▁1.4",
        -8.80854670130023
      ],
      [
        "▁kiler",
        -8.939607152020653
      ],
      [
        "▁kendisin",
        -7.170173991469403
      ],
      [
        "▁bazılarını",
        -9.09894749944287
      ],
      [
        "nu",
        -11.551857311570275
      ],
      [
        "%",
        -14.190753728377773
      ],
      [
        "10",
        -12.421114862979588
      ],
      [
        "▁si",
        -8.274621359408918
      ],
      [
        "▁beni",
        -9.404093750351866
      ],
      [
        "▁degisme",
        -9.547091579272639
      ],
      [
        "\"",
        -3.89364669064185
      ],
      [
        "▁ozgur",
        -9.400195547303284
      ],
      [
        "▁dondu",
        -8.621560331014658
      ],
      [
        "▁tah",
        -8.763172370087261
      ],
      [
        "ılması",
        -8.770482263787859
      ],
      [
        "cu",
        -11.312055730562165
      ],
      [
        "▁acılma",
        -9.924218326077728
      ],
      [
        "▁ucu",
        -9.239929097601554
      ],
      [
        "▁imkan",
        -9.38171852283874
      ],
      [
        "▁milwaukee'de",
        -9.344816832573994
      ],
      [
        "▁na",
        -7.442627275235236
      ],
      [
        "▁renk",
        -8.96262121404503
      ],
      [
        "▁zarar",
        -8.791010007049026
      ],
      [
        "zi",
        -8.208036986252152
      ],
      [
        "▁kendi",
        -9.608142175442634
      ],
      [
        "▁seyi",
        -8.676874569626904
      ],
      [
        "▁za",
        -7.711127411336931
      ],
      [
        "▁saglık",
        -8.855786171398048
      ],
      [
        "▁yetis",
        -9.249843700110972
      ],
      [
        "'yi",
        -9.33884895894499
      ],
      [
        "nc",
        -8.8610035120361
      ],
      [
        "▁sapka",
        -9.898507375758289
      ],
      [
        "▁ilgilendi",
        -7.700510878397004
      ],
      [
        "▁tek",
        -7.125949620796007
      ],
      [
        "▁20-2",
        -11.921801021663061
      ],
      [
        "40",
        -9.130324045984203
      ],
      [
        "▁yapan",
        -8.528281464029808
      ],
      [
        "▁unlu",
        -9.727393634988672
      ],
      [
        "▁eri",
        -9.399253732152665
      ],
      [
        "▁cıkan",
        -9.119299072294059
      ],
      [
        "▁haziran",
        -9.4067446838758
      ],
      [
        "▁parca",
        -8.352390617067833
      ],
      [
        "▁lo",
        -8.480069028557155
      ],
      [
        "▁tiyatro",
        -9.04340857339323
      ],
      [
        "▁new",
        -7.546074582004401
      ],
      [
        "▁degilse",
        -8.67508121348586
      ],
      [
        "▁gecmis",
        -8.444499314222082
      ],
      [
        "▁urun",
        -8.76219260535343
      ],
      [
        "▁universite",
        -9.064033428367068
      ],
      [
        "ter",
        -8.355553382009322
      ],
      [
        "▁derece",
        -8.454021837807272
      ],
      [
        "▁sı",
        -9.271147355403482
      ],
      [
        "▁iliski",
        -7.241096103232947
      ],
      [
        "al",
        -7.012984869234502
      ],
      [
        "▁deg",
        -9.260036019147945
      ],
      [
        "▁fiyatları",
        -8.474233616881529
      ],
      [
        "▁gormedi",
        -9.021505873913782
      ],
      [
        "▁ustu",
        -8.957153922530766
      ],
      [
        "▁ilgili",
        -7.324171353172152
      ],
      [
        "cı",
        -6.8411421657188605
      ],
      [
        "▁il",
        -8.073530653197789
      ],
      [
        "▁dalga",
        -8.722883638657859
      ],
      [
        "4'",
        -9.769475374857358
      ],
      [
        "▁uret",
        -8.63471157660124
      ],
      [
        "sını",
        -7.13641564281425
      ],
      [
        "”",
        -9.789649445909063
      ],
      [
        "▁kıl",
        -9.07232582833814
      ],
      [
        "sal",
        -8.284346147276374
      ],
      [
        "ne",
        -6.357626487097869
      ],
      [
        "▁hos",
        -8.621274134607873
      ],
      [
        "▁sanat",
        -8.545507137221904
      ],
      [
        "▁yiy",
        -9.358039043323831
      ],
      [
        "▁vurgu",
        -9.59111464800371
      ],
      [
        "▁deniz",
        -7.489847302177044
      ],
      [
        "▁gitme",
        -8.561805540938881
      ],
      [
        "bas",
        -9.392307425498197
      ],
      [
        "▁ufak",
        -8.848529693629924
      ],
      [
        "▁kac",
        -8.465416840291955
      ],
      [
        "sa",
        -9.687890704303967
      ],
      [
        "▁oyuncu",
        -8.966512885675026
      ],
      [
        "ulur",
        -9.741514147526265
      ],
      [
        "sun",
        -7.486216841230521
      ],
      [
        "▁guc",
        -8.255113925898229
      ],
      [
        "▁firs",
        -8.928818816761709
      ],
      [
        "ını",
        -6.823114534903638
      ],
      [
        "▁zayif",
        -9.47223307397908
      ],
      [
        "nca",
        -7.4873843889171265
      ],
      [
        "▁hepsini",
        -7.524949703003487
      ],
      [
        "▁dus",
        -7.871546835520541
      ],
      [
        "▁durumda",
        -8.787796924042999
      ],
      [
        "▁sert",
        -8.939150905555035
      ],
      [
        "▁maliyet",
        -9.40337744341512
      ],
      [
        "%9",
        -12.047781401844519
      ],
      [
        "▁kaybı",
        -9.82954525802449
      ],
      [
        "▁secme",
        -9.912827310998146
      ],
      [
        "▁sek",
        -9.32727940997091
      ],
      [
        "▁huzur",
        -9.353582167665897
      ],
      [
        "▁38",
        -9.239513639875167
      ],
      [
        "▁karı",
        -9.058101322975368
      ],
      [
        "▁city'",
        -8.888857719236395
      ],
      [
        "7.5",
        -9.20992259280443
      ],
      [
        "y",
        -12.399764499659206
      ],
      [
        "▁personeller",
        -7.877886057395566
      ],
      [
        "▁ayagı",
        -9.559600227442456
      ],
      [
        "▁boston'da",
        -7.429198951722499
      ],
      [
        "▁yahu",
        -9.850622815513148
      ],
      [
        "▁kap",
        -7.599853925628213
      ],
      [
        "uc",
        -8.613245906554088
      ],
      [
        "▁kimse",
        -7.5366357151794245
      ],
      [
        "▁kendimiz",
        -8.276308296546611
      ],
      [
        "▁oakland'",
        -9.010062451976967
      ],
      [
        "lo",
        -8.003270353323222
      ],
      [
        "▁dolara",
        -8.56153623189214
      ],
      [
        "▁hepimizi",
        -9.081385122939912
      ],
      [
        "▁%2.",
        -13.027118981959273
      ],
      [
        ".61",
        -13.61469673427371
      ],
      [
        "▁...",
        -13.733825525090593
      ],
      [
        "▁etkisi",
        -9.587435909451585
      ],
      [
        "▁am",
        -8.62719730614678
      ],
      [
        "▁international",
        -9.537277235693281
      ],
      [
        "dıgında",
        -9.274944603347647
      ],
      [
        "rek",
        -8.68358475618227
      ],
      [
        "▁baslat",
        -9.878798072590538
      ],
      [
        "▁jo",
        -9.61171300025979
      ],
      [
        "▁haziran'da",
        -9.857330398399316
      ],
      [
        "birkac",
        -9.543123612950462
      ],
      [
        "▁gotur",
        -9.006764860388326
      ],
      [
        "▁yapmaya",
        -9.401387193661357
      ],
      [
        "▁ingiliz",
        -9.219993780423414
      ],
      [
        "'",
        -4.8924320266455865
      ],
      [
        "▁bas",
        -7.1984323794792875
      ],
      [
        "▁adı",
        -8.787562180224416
      ],
      [
        "ciler",
        -8.454890585210249
      ],
      [
        "▁yo",
        -9.257991067880312
      ],
      [
        "▁bilir",
        -8.878878589577653
      ],
      [
        "meyecegi",
        -9.324460334413718
      ],
      [
        "▁ise",
        -8.206277181065557
      ],
      [
        "gi",
        -11.011931744369868
      ],
      [
        "kendi",
        -9.171575624838027
      ],
      [
        "▁boya",
        -9.148196018257398
      ],
      [
        "▁tehlike",
        -9.24750207211744
      ],
      [
        "▁edebilir",
        -9.574829856299083
      ],
      [
        "▁toren",
        -9.834235213904783
      ],
      [
        "▁kıs",
        -8.052215019698782
      ],
      [
        "▁donem",
        -8.877299497124529
      ],
      [
        "▁basım",
        -9.43301472449128
      ],
      [
        "▁pır",
        -9.196406829614833
      ],
      [
        "en",
        -5.998904542421548
      ],
      [
        "▁olum",
        -8.860492607144046
      ],
      [
        "▁201",
        -9.176385403819815
      ],
      [
        "▁fıkı",
        -10.04396486979278
      ],
      [
        "▁francisco'",
        -7.385385412695491
      ],
      [
        "000",
        -7.492953355410074
      ],
      [
        "▁iste",
        -7.453103563293496
      ],
      [
        "▁erkek",
        -8.662139027653502
      ],
      [
        "▁neredey",
        -9.233660709834622
      ],
      [
        "▁personelleri",
        -7.991808550429151
      ],
      [
        "meden",
        -9.33021385949047
      ],
      [
        "▁duzen",
        -8.27110918034082
      ],
      [
        "▁hayatı",
        -9.212900102301507
      ],
      [
        "let",
        -8.460904285774953
      ],
      [
        "tif",
        -8.843012155640835
      ],
      [
        "▁gorur",
        -9.48198771409221
      ],
      [
        "▁ucretin",
        -9.285715758767534
      ],
      [
        "▁guclu",
        -8.615319163489094
      ],
      [
        "▁okuma",
        -9.153775104149766
      ],
      [
        "▁aktivite",
        -9.29912536300411
      ],
      [
        "▁erte",
        -9.065240612478433
      ],
      [
        "▁sat",
        -8.612345150293496
      ],
      [
        "▁hanım",
        -8.680193415955312
      ],
      [
        "▁oturu",
        -9.140911036925347
      ],
      [
        "▁arama",
        -9.43246921872236
      ],
      [
        "▁cıkıyor",
        -9.303929089123182
      ],
      [
        "4.5",
        -9.340653624415177
      ],
      [
        "nin",
        -6.325801806260994
      ],
      [
        "▁ederi",
        -7.705729927883233
      ],
      [
        "▁yurt",
        -9.117906228261582
      ],
      [
        "▁roman",
        -8.796310476530703
      ],
      [
        "ginde",
        -9.256312057752641
      ],
      [
        "▁tası",
        -8.087699177030249
      ],
      [
        "▁sun",
        -8.429457170599614
      ],
      [
        "▁fotograf",
        -9.235001923831412
      ],
      [
        "▁jaguar",
        -9.873738313217594
      ],
      [
        "▁51",
        -9.143002594478848
      ],
      [
        "▁donuyor",
        -9.623407931412366
      ],
      [
        "▁peri",
        -9.727388188310911
      ],
      [
        "▁karısı",
        -9.634546810128938
      ],
      [
        "▁olmak",
        -7.962749480730372
      ],
      [
        "▁v",
        -8.697657994567095
      ],
      [
        "inci",
        -9.37785935291702
      ],
      [
        "▁camasır",
        -9.805543917070791
      ],
      [
        "▁sahip",
        -7.759291297934946
      ],
      [
        "▁h",
        -8.072987773019255
      ],
      [
        "▁2.",
        -8.831592292554625
      ],
      [
        "▁kendim",
        -8.054983220327934
      ],
      [
        "▁mi",
        -7.81084334140385
      ],
      [
        "▁yardimci",
        -8.936512176426413
      ],
      [
        "▁der",
        -7.7455280267418685
      ],
      [
        "▁ri",
        -8.831120752442544
      ],
      [
        "▁kes",
        -8.290994761137343
      ],
      [
        "▁lezzeti",
        -9.528783336427082
      ],
      [
        "▁yil",
        -9.719256891949518
      ],
      [
        "▁donemi",
        -9.712502410646135
      ],
      [
        "mistir",
        -8.579690850308946
      ],
      [
        "deki",
        -8.15935428451636
      ],
      [
        "▁duydu",
        -9.262932577659761
      ],
      [
        "▁yine",
        -7.816697788488991
      ],
      [
        "▁evi",
        -9.029854649915132
      ],
      [
        "▁ben",
        -4.922539844232007
      ],
      [
        "▁y",
        -8.273434547613135
      ],
      [
        "▁agustos",
        -8.918067885303433
      ],
      [
        "▁vi",
        -8.303805925379619
      ],
      [
        "▁oldugunu",
        -7.159231166583403
      ],
      [
        "▁yılında",
        -8.705167510341163
      ],
      [
        "/",
        -9.45658558890802
      ],
      [
        "▁oto",
        -9.634758037458395
      ],
      [
        "▁arkadasları",
        -9.677644726897602
      ],
      [
        "▁birim",
        -9.070750242020715
      ],
      [
        "%3",
        -12.572089405969253
      ],
      [
        "▁lu",
        -9.307224296284241
      ],
      [
        "▁ocagı",
        -9.85309426383958
      ],
      [
        "e",
        -4.340098415044341
      ],
      [
        "▁ogren",
        -8.321502998182062
      ],
      [
        "▁ymis",
        -9.402459541327215
      ],
      [
        "mek",
        -7.323875118615335
      ],
      [
        "▁sasır",
        -9.625728772999857
      ],
      [
        "▁tutarında",
        -9.87493982572404
      ],
      [
        "▁pı",
        -11.055086030260906
      ],
      [
        "q",
        -9.367467255310546
      ],
      [
        "▁sirket",
        -7.378385332011397
      ],
      [
        "umuz",
        -8.521476467286739
      ],
      [
        "▁or",
        -7.98118564367047
      ],
      [
        "▁tum",
        -5.009593977490714
      ],
      [
        "▁yorgun",
        -9.32598349494523
      ],
      [
        "▁fak",
        -6.30800908383186
      ],
      [
        "▁geri",
        -7.491589438067955
      ],
      [
        "cı",
        -11.34265800487346
      ],
      [
        "▁genis",
        -8.026721217100848
      ],
      [
        "▁yapmak",
        -8.254886784183245
      ],
      [
        "▁ruh",
        -8.862058690628576
      ],
      [
        "▁kac",
        -7.563528189341893
      ],
      [
        "▁bayan",
        -8.821671064238881
      ],
      [
        "375",
        -9.497796058114288
      ],
      [
        "▁edebiyat",
        -9.382022428425316
      ],
      [
        "[PAD]",
        0.0
      ],
      [
        "▁azal",
        -8.627207762174086
      ],
      [
        "▁koca",
        -8.427908643773
      ],
      [
        "▁gordugu",
        -9.325441102882655
      ],
      [
        "-",
        -5.2246448626679545
      ],
      [
        "▁gecer",
        -8.944810243755875
      ],
      [
        "▁savunma",
        -9.063721482683444
      ],
      [
        "▁45",
        -8.6417252970266
      ],
      [
        "s",
        -9.016033344580624
      ],
      [
        "▁kara",
        -7.792541754393853
      ],
      [
        "▁iyi",
        -6.01997847174079
      ],
      [
        "▁yanı",
        -8.50489858587119
      ],
      [
        "leniyor",
        -9.203990229313735
      ],
      [
        "ogr",
        -6.481195157006846
      ],
      [
        "▁deprem",
        -8.848349421698677
      ],
      [
        "▁yıllarda",
        -9.535178082870342
      ],
      [
        "▁celik",
        -9.701176386073218
      ],
      [
        "dikleri",
        -8.949614844174896
      ],
      [
        "▁merak",
        -8.975483288384803
      ],
      [
        "▁dısarı",
        -9.236600402090598
      ],
      [
        "▁golge",
        -9.235959989195603
      ],
      [
        "▁darbe",
        -9.59118388240925
      ],
      [
        "▁san",
        -6.189193146120398
      ],
      [
        "la",
        -7.417516293723048
      ],
      [
        "▁vermis",
        -9.146104576460658
      ],
      [
        "▁maliyeti",
        -9.694582220019669
      ],
      [
        "▁mumkun",
        -9.023106489712
      ],
      [
        "▁spor",
        -9.280114193903099
      ],
      [
        "degil",
        -8.602188547895151
      ],
      [
        "▁ucu",
        -9.183251523215814
      ],
      [
        "▁elleri",
        -9.29996520553288
      ],
      [
        "▁kaldır",
        -8.638989150098478
      ],
      [
        "▁gorme",
        -8.846902374372146
      ],
      [
        "▁vucudu",
        -9.826500844920382
      ],
      [
        "▁francisco",
        -8.408573907345014
      ],
      [
        "▁istanbul'",
        -9.813054337919443
      ],
      [
        "▁sırasında",
        -9.665261301697315
      ],
      [
        "▁boyun",
        -9.342496468519837
      ],
      [
        "▁bilesik",
        -9.572206003257344
      ],
      [
        "▁pas",
        -9.290989183966172
      ],
      [
        "iyor",
        -7.29114343780122
      ],
      [
        "▁kalacak",
        -9.68901912747388
      ],
      [
        "gimiz",
        -8.647807937458651
      ],
      [
        "▁elektronik",
        -9.783793735996175
      ],
      [
        "▁erken",
        -7.7449771234475895
      ],
      [
        "▁co",
        -10.859016870384504
      ],
      [
        "▁ihti",
        -9.553495960545401
      ],
      [
        "▁ulasımı",
        -8.976087389174857
      ],
      [
        "iyle",
        -7.470003093095651
      ],
      [
        "▁ima",
        -9.155296885648319
      ],
      [
        "▁42",
        -8.71427175632828
      ],
      [
        "▁yerin",
        -8.420931670712411
      ],
      [
        "irdi",
        -9.326985555370383
      ],
      [
        "larımızı",
        -9.26819903026471
      ],
      [
        "▁siir",
        -8.916728431222293
      ],
      [
        "▁beraber",
        -9.106927281891192
      ],
      [
        "▁bo",
        -7.757576359240884
      ],
      [
        "▁du",
        -8.51163155185447
      ],
      [
        "siyon",
        -8.803850646092986
      ],
      [
        "▁analistler",
        -8.93214640442354
      ],
      [
        "▁mi",
        -6.260535099972343
      ],
      [
        "sunuz",
        -8.632728012507808
      ],
      [
        "▁ilgilenmedi",
        -9.593728500356356
      ],
      [
        "▁27",
        -7.710104612445034
      ],
      [
        "▁il",
        -7.476214463926909
      ],
      [
        "▁buldu",
        -8.640572794030096
      ],
      [
        "▁donu",
        -9.114137421568806
      ],
      [
        ".",
        -1.1654305379107868
      ],
      [
        "▁uzere",
        -6.627559624279684
      ],
      [
        "▁can",
        -7.711652745246475
      ],
      [
        "▁veya",
        -5.844024816361816
      ],
      [
        "▁arada",
        -8.591437720470921
      ],
      [
        "▁lake",
        -8.901072374212006
      ],
      [
        "▁sınır",
        -8.721957436863526
      ],
      [
        "▁borsası",
        -8.941873347617946
      ],
      [
        "▁magaza",
        -9.24750221512193
      ],
      [
        "▁aileler",
        -8.150102571626874
      ],
      [
        "▁anket",
        -8.6925124280536
      ],
      [
        "▁at",
        -7.255058777344732
      ],
      [
        "ılır",
        -8.666949873899897
      ],
      [
        "▁kampanya",
        -9.923000589560283
      ],
      [
        "▁hafif",
        -8.449944117120241
      ],
      [
        "▁saygı",
        -9.29439664876632
      ],
      [
        "▁havuzu",
        -8.35754737847261
      ],
      [
        "▁zehir",
        -9.87373848098847
      ],
      [
        "ması",
        -7.299996024308091
      ],
      [
        "mam",
        -9.051727593098487
      ],
      [
        "▁kaybed",
        -9.427082649629192
      ],
      [
        "▁gelenek",
        -9.785998757429173
      ],
      [
        "▁neyi",
        -8.422012106070966
      ],
      [
        "▁ucuncu",
        -9.64360305457842
      ],
      [
        "▁me",
        -7.606735313883578
      ],
      [
        "▁gezdi",
        -9.80939262816504
      ],
      [
        "ebilecegi",
        -9.509065719131563
      ],
      [
        "mizde",
        -9.115773722256026
      ],
      [
        "ti",
        -6.147019618394737
      ],
      [
        "▁bakanlıgı",
        -9.564656521405436
      ],
      [
        "▁sav",
        -8.757737585794764
      ],
      [
        "▁bar",
        -8.272031870584165
      ],
      [
        "▁angeles'",
        -9.33741070848474
      ],
      [
        "o",
        -6.6155875328336595
      ],
      [
        "mesine",
        -9.28788679024574
      ],
      [
        "▁houston'",
        -9.745959552265198
      ],
      [
        "▁barıs",
        -9.443151475153945
      ],
      [
        "▁basın",
        -7.968851528175902
      ],
      [
        "▁baslama",
        -9.530895841294232
      ],
      [
        "▁kesinti",
        -9.643777441068343
      ],
      [
        "▁vah",
        -9.75653395876256
      ],
      [
        "▁plan",
        -7.92081841694078
      ],
      [
        "▁lık",
        -9.145996749068345
      ],
      [
        "os",
        -8.715161685915856
      ],
      [
        "▁bebek",
        -9.873864809857473
      ],
      [
        "▁dogal",
        -9.33197621515475
      ],
      [
        "▁saray",
        -9.370796644788772
      ],
      [
        "▁uzakta",
        -9.743338519839734
      ],
      [
        "▁koydu",
        -9.223085794931604
      ],
      [
        "▁merkezi",
        -8.458082322756454
      ],
      [
        "▁gormek",
        -9.131041768174025
      ],
      [
        "r",
        -4.9774359777699715
      ],
      [
        "yon",
        -6.512326317501542
      ],
      [
        "▁yonetimi",
        -9.59949589994059
      ],
      [
        "▁sanatcı",
        -9.821254349500336
      ],
      [
        "ta",
        -6.364411403452837
      ],
      [
        "ap",
        -10.192721962100757
      ],
      [
        "son",
        -8.43401492905808
      ],
      [
        "▁sarkı",
        -9.095325632117142
      ],
      [
        "ktor",
        -9.909561041696447
      ],
      [
        "▁acık",
        -7.67673720628257
      ],
      [
        "▁saglam",
        -9.017533519167648
      ],
      [
        "▁american",
        -8.596098931425987
      ],
      [
        "larından",
        -7.990028012935645
      ],
      [
        "▁islemler",
        -9.191523399335555
      ],
      [
        "luga",
        -9.649800112857818
      ],
      [
        "ola",
        -9.667374755508707
      ],
      [
        ":",
        -5.200922476649725
      ],
      [
        "▁500",
        -8.369384007022514
      ],
      [
        "27",
        -12.479618671514109
      ],
      [
        "▁kalem",
        -9.318053344147012
      ],
      [
        "▁hazine",
        -8.80747972043413
      ],
      [
        "▁1000",
        -8.872740737215933
      ],
      [
        "%7",
        -13.006976400583136
      ],
      [
        "▁satma",
        -9.918684152075542
      ],
      [
        "▁bolum",
        -9.131452302587608
      ],
      [
        "▁biz",
        -8.780758450832561
      ],
      [
        "▁40",
        -7.973724781961952
      ],
      [
        "▁ayrıntı",
        -9.85071025155997
      ],
      [
        "▁benze",
        -9.409287100517902
      ],
      [
        "▁bro",
        -9.628012783465262
      ],
      [
        "f",
        -10.183767360572133
      ],
      [
        "▁sigorta",
        -8.663921273229818
      ],
      [
        "▁yana",
        -8.26114955683115
      ],
      [
        "▁hepsin",
        -9.136321815355377
      ],
      [
        "00",
        -11.587869998328102
      ],
      [
        "▁ticarette",
        -9.77415307661832
      ],
      [
        "▁gercekte",
        -8.569900678008958
      ],
      [
        "▁ulasım",
        -8.881983015309995
      ],
      [
        "▁bakma",
        -9.683980506121848
      ],
      [
        "▁buray",
        -9.100176258701712
      ],
      [
        "diy",
        -5.510942966786964
      ],
      [
        "▁karsiladi",
        -9.764856895944513
      ],
      [
        "▁fark",
        -8.701138821708401
      ],
      [
        "▁ciz",
        -9.425577815666575
      ],
      [
        "▁gonder",
        -8.960826639427896
      ],
      [
        "▁hasta",
        -8.607328354018001
      ],
      [
        "▁idi",
        -9.279724974868017
      ],
      [
        "▁sıcak",
        -8.736822337936452
      ],
      [
        "gımız",
        -9.562711791738169
      ],
      [
        "▁kural",
        -9.259219366042885
      ],
      [
        "▁bolumu",
        -9.2868438066447
      ],
      [
        "▁yılı",
        -9.327346073167663
      ],
      [
        "▁vatan",
        -9.65061820133069
      ],
      [
        "▁yap",
        -7.3809130768217655
      ],
      [
        "▁borsa",
        -8.61915094800245
      ],
      [
        "▁bulunan",
        -8.994823029584463
      ],
      [
        "sinde",
        -7.376199384409419
      ],
      [
        "|",
        -12.809526790838989
      ],
      [
        "▁odamiz",
        -9.363540036846452
      ],
      [
        "im",
        -6.472100042134998
      ],
      [
        "▁mustafa",
        -9.198413074647034
      ],
      [
        "▁yasıyor",
        -9.407937625929204
      ],
      [
        "▁hepsinde",
        -8.889580223615383
      ],
      [
        "▁konusma",
        -8.279780837739539
      ],
      [
        "▁satısları",
        -9.22877065965331
      ],
      [
        "▁yasayan",
        -9.80745056962258
      ],
      [
        "▁1/",
        -7.649302820350562
      ],
      [
        "▁yan",
        -7.530266275345555
      ],
      [
        "▁kotuy",
        -8.441330608771551
      ],
      [
        "▁risk",
        -9.075336264938036
      ],
      [
        "▁sergi",
        -9.387237179518559
      ],
      [
        "ku",
        -7.404675337709749
      ],
      [
        "▁ele",
        -8.614453372878472
      ],
      [
        "mıslar",
        -9.189288183054117
      ],
      [
        "▁gerekir",
        -9.439004531686372
      ],
      [
        "▁misafir",
        -9.085032989692246
      ],
      [
        "▁yım",
        -8.74331923090018
      ],
      [
        "▁birileri",
        -9.482485129175965
      ],
      [
        "▁arasında",
        -6.8313716295975695
      ],
      [
        "▁belli",
        -8.741412963639458
      ],
      [
        "▁fı",
        -10.30638076063471
      ],
      [
        "▁yuksekti",
        -9.267828242956348
      ],
      [
        "▁yol",
        -7.508836754864665
      ],
      [
        "▁kampanyalar",
        -9.381312534900747
      ],
      [
        "▁yılın",
        -9.010886544277813
      ],
      [
        "▁lutfe",
        -7.844065902122524
      ],
      [
        "▁%7.",
        -11.07559443344391
      ],
      [
        "▁zorunda",
        -8.909671941379216
      ],
      [
        "▁temizlik",
        -8.387477879017505
      ],
      [
        "es",
        -12.62948940381247
      ],
      [
        "▁kendisini",
        -7.291834468436704
      ],
      [
        "▁sekilde",
        -7.708834763014894
      ],
      [
        "▁%6.",
        -11.265292792325488
      ],
      [
        "▁edecegi",
        -9.79655655829401
      ],
      [
        "▁s",
        -12.083159505724957
      ],
      [
        "▁birisi",
        -7.911313708072835
      ],
      [
        "▁anayasa",
        -9.589267605119176
      ],
      [
        "ince",
        -8.352436447916432
      ],
      [
        "▁yapıldı",
        -9.763785865719942
      ],
      [
        "▁2.5",
        -9.228150996259865
      ],
      [
        "sının",
        -7.903025344159838
      ],
      [
        "▁denge",
        -9.440389556756443
      ],
      [
        "bası",
        -9.3851796509446
      ],
      [
        "▁hale",
        -8.351613114130021
      ],
      [
        "0000",
        -8.492798317148372
      ],
      [
        "▁oy",
        -8.313309470368463
      ],
      [
        "1989-8",
        -14.177268616744923
      ],
      [
        "▁icme",
        -9.343598922386128
      ],
      [
        "▁turku",
        -9.58014597567732
      ],
      [
        "▁bunu",
        -6.098683502847974
      ],
      [
        "▁uzan",
        -9.382001499230213
      ],
      [
        "ser",
        -8.923152278026187
      ],
      [
        "▁gar",
        -9.647788017934232
      ],
      [
        "▁uzerine",
        -8.034442847111976
      ],
      [
        "h",
        -7.700124458784982
      ],
      [
        "▁arkadas",
        -8.474654912208072
      ],
      [
        "▁oturdu",
        -9.362107940482659
      ],
      [
        "▁3",
        -6.431845748060996
      ],
      [
        "2-",
        -11.482629028872132
      ],
      [
        "▁ait",
        -7.503221732766854
      ],
      [
        "on'un",
        -9.86045199497669
      ],
      [
        "ow",
        -9.463997570859418
      ],
      [
        "gı",
        -6.903616581988207
      ],
      [
        "▁artıs",
        -8.860146795509952
      ],
      [
        "▁hap",
        -9.203349003359474
      ],
      [
        "▁edeme",
        -9.544313000989302
      ],
      [
        "▁ak",
        -7.355919078511302
      ],
      [
        "▁gercek",
        -8.203683901656076
      ],
      [
        "amaz",
        -8.493881577327123
      ],
      [
        "▁ikisi",
        -9.471197700667371
      ],
      [
        "▁cocuk",
        -7.673146275306841
      ],
      [
        "▁haric",
        -9.67598489736719
      ],
      [
        "▁sunu",
        -9.919030871467974
      ],
      [
        "▁maka",
        -9.15608962415814
      ],
      [
        "maz",
        -7.887499600633965
      ],
      [
        "▁tedbir",
        -9.80553501290812
      ],
      [
        "at",
        -6.734542760195386
      ],
      [
        "▁gorunuyor",
        -8.923844578680528
      ],
      [
        "▁yirmi",
        -7.392161743074304
      ],
      [
        "▁yonetim",
        -8.45873651183815
      ],
      [
        "▁etti",
        -6.879784313061134
      ],
      [
        "rken",
        -8.055919429806615
      ],
      [
        "▁kay",
        -8.251711272562527
      ],
      [
        "▁tor",
        -9.207584062042002
      ],
      [
        "▁koruma",
        -9.549868816670191
      ],
      [
        "▁soyledi",
        -6.839448271494699
      ],
      [
        "▁altmıs",
        -9.585953801299627
      ],
      [
        "▁avrupa'da",
        -9.89902895650412
      ],
      [
        "▁gelir",
        -7.465344611169389
      ],
      [
        "▁alım",
        -8.188870091243746
      ],
      [
        "▁sıg",
        -9.391445185531294
      ],
      [
        "▁edilmis",
        -9.478236003944193
      ],
      [
        "th",
        -9.179025343168998
      ],
      [
        "▁bez",
        -9.651642863447933
      ],
      [
        "su",
        -8.88001573295357
      ],
      [
        "▁abd'",
        -9.605321911213917
      ],
      [
        "▁yapti",
        -9.079166198810817
      ],
      [
        "▁kitap",
        -8.373612802686614
      ],
      [
        "▁konustu",
        -8.958222571632907
      ],
      [
        "▁agac",
        -8.423087586742806
      ],
      [
        "▁suru",
        -8.510530533774979
      ],
      [
        "▁kesinlik",
        -8.645432708940522
      ],
      [
        "▁dusundu",
        -9.162203334202655
      ],
      [
        "ff",
        -9.313864607431142
      ],
      [
        "▁des",
        -9.7141126053448
      ],
      [
        "dort",
        -8.300701135237919
      ],
      [
        "▁guleryuzluydu",
        -9.286323329392511
      ],
      [
        "ise",
        -9.285473386053635
      ],
      [
        "▁oldugun",
        -9.233028249942823
      ],
      [
        "▁iceri",
        -8.520485515942802
      ],
      [
        "▁sus",
        -8.635656679184898
      ],
      [
        "▁hizmeti",
        -8.443700695608582
      ],
      [
        "▁gitmek",
        -9.089780023775127
      ],
      [
        "▁yakin",
        -8.805713752881257
      ],
      [
        "▁2-",
        -12.96331608058175
      ],
      [
        "▁tedavulde",
        -9.721275645956705
      ],
      [
        "▁150",
        -8.858990735961797
      ],
      [
        "▁cıktı",
        -7.712117888798581
      ],
      [
        "▁mukemmel",
        -8.707309336227098
      ],
      [
        "▁25",
        -7.6585169186170114
      ],
      [
        "▁elli",
        -8.16695250231819
      ],
      [
        "11",
        -12.812006644751337
      ],
      [
        "▁biz",
        -5.694005228019038
      ],
      [
        "▁ise",
        -6.5821085192563835
      ],
      [
        "▁bilet",
        -9.067291709145813
      ],
      [
        "▁15",
        -7.200442600775433
      ],
      [
        "▁inan",
        -8.442947264747797
      ],
      [
        "▁ticari",
        -9.16311855043756
      ],
      [
        "▁sonuc",
        -8.394707707610692
      ],
      [
        "▁kalmıs",
        -9.44287128400586
      ],
      [
        "'de",
        -7.446120015545725
      ],
      [
        "▁to",
        -12.751217036694445
      ],
      [
        "▁sını",
        -9.67537730256433
      ],
      [
        "atı",
        -11.610191654727192
      ],
      [
        "▁havalimanı",
        -9.681696611935495
      ],
      [
        "▁gecici",
        -9.767085361175297
      ],
      [
        "▁balık",
        -9.295587506837895
      ],
      [
        "▁kendisi",
        -7.037718950108059
      ],
      [
        "▁bilim",
        -8.596276822269136
      ],
      [
        "mu",
        -9.445715218130426
      ],
      [
        "1",
        -9.729838450046955
      ],
      [
        "mi",
        -8.269716776373524
      ],
      [
        "ınca",
        -8.328044938778891
      ],
      [
        "30",
        -12.083484989621075
      ],
      [
        "▁bakıyor",
        -9.285357142334826
      ],
      [
        "▁fon",
        -8.618909607498571
      ],
      [
        "han",
        -8.457808318731372
      ],
      [
        "▁chicago'da",
        -9.532543856824201
      ],
      [
        "biz",
        -9.163017848330604
      ],
      [
        "5",
        -8.82615949688281
      ],
      [
        "▁kadının",
        -9.661666674239978
      ],
      [
        "ile",
        -4.184914623397628
      ],
      [
        "▁kırı",
        -9.009744422203815
      ],
      [
        "▁sıkıntı",
        -9.174842152768768
      ],
      [
        "landı",
        -7.736316922162501
      ],
      [
        "▁ifade",
        -8.394833608743209
      ],
      [
        "▁bahce",
        -8.502291834204868
      ],
      [
        "▁yuzunde",
        -8.746966149394707
      ],
      [
        "▁fer",
        -8.86135246381119
      ],
      [
        "▁ankara",
        -9.163239261004122
      ],
      [
        "lestirme",
        -9.561555464305062
      ],
      [
        "▁bosal",
        -9.646636954314008
      ],
      [
        "▁edecek",
        -8.781433902946226
      ],
      [
        "▁yuk",
        -8.814329514414325
      ],
      [
        "▁temmuz",
        -9.255086125674802
      ],
      [
        "▁konus",
        -9.095959130913485
      ],
      [
        "▁7\\/",
        -8.72073896077232
      ],
      [
        "▁1991",
        -8.737957349104708
      ],
      [
        "hi",
        -7.873816430168646
      ],
      [
        "▁-",
        -9.791300196481245
      ],
      [
        "▁evvel",
        -9.701801514736013
      ],
      [
        "▁tel",
        -9.02568645669047
      ],
      [
        "▁burada",
        -8.17934174242976
      ],
      [
        "▁sorusturma",
        -9.8504977078064
      ],
      [
        "▁top",
        -8.2881513403224
      ],
      [
        "et",
        -6.959594546323866
      ],
      [
        "▁yaptıgı",
        -8.715902121622396
      ],
      [
        "▁gezi",
        -9.240934321944327
      ],
      [
        "[CLS]",
        0.0
      ],
      [
        "ra",
        -6.907926446946048
      ],
      [
        "b",
        -6.90338771397833
      ],
      [
        "▁pi",
        -8.504816238885619
      ],
      [
        "▁1.5",
        -8.706118280921128
      ],
      [
        "dıgını",
        -8.065789548020145
      ],
      [
        "▁beri",
        -9.230233891142024
      ],
      [
        "y",
        -6.06687301377958
      ],
      [
        "▁bil",
        -8.215019838540263
      ],
      [
        "▁sizde",
        -9.613044075128913
      ],
      [
        "3",
        -8.865275909446666
      ],
      [
        "-1",
        -12.56517605486793
      ],
      [
        "z",
        -14.190853728377773
      ],
      [
        "▁gordu",
        -8.024611646527566
      ],
      [
        "acagım",
        -8.912840254655514
      ],
      [
        "▁po",
        -8.07686370266362
      ],
      [
        "▁yavru",
        -9.681669748481376
      ],
      [
        "ında",
        -7.517546670685457
      ],
      [
        "▁600",
        -9.671999014576087
      ],
      [
        "cuk",
        -8.94895956262351
      ],
      [
        "■",
        -12.809526790838989
      ],
      [
        "▁20",
        -7.105754316792156
      ],
      [
        "▁taraf",
        -8.64490381803304
      ],
      [
        "▁adını",
        -9.574691224638944
      ],
      [
        "▁kullanma",
        -9.872205587975383
      ],
      [
        "agı",
        -8.25682913668491
      ],
      [
        "▁durumu",
        -9.062665124884667
      ],
      [
        "▁butun",
        -7.320066118285893
      ],
      [
        "sek",
        -9.210737728370638
      ],
      [
        "▁tesekkur",
        -8.511621790976722
      ],
      [
        "▁etme",
        -8.140974042550798
      ],
      [
        "▁gogsu",
        -9.828418173407313
      ],
      [
        "▁gorev",
        -8.101389281843709
      ],
      [
        "▁ogret",
        -9.606806799056907
      ],
      [
        "eri",
        -8.593642937284123
      ],
      [
        "ına",
        -6.789832208832737
      ],
      [
        "▁denver'",
        -7.892196145062764
      ],
      [
        "▁alaka",
        -8.57693308337194
      ],
      [
        "▁komite",
        -9.662440684556739
      ],
      [
        "▁gunku",
        -9.326794118446909
      ],
      [
        "▁altı",
        -6.8870572946492
      ],
      [
        "▁ugur",
        -9.6816713543055
      ],
      [
        "ma",
        -12.810082874936368
      ],
      [
        "▁takım",
        -8.955128210019677
      ],
      [
        "▁ayrıldı",
        -9.831890728694816
      ],
      [
        "▁kur",
        -7.555847888351495
      ],
      [
        "▁3.",
        -7.95981787468102
      ],
      [
        "▁carp",
        -9.155739374925366
      ],
      [
        "▁rehber",
        -9.151363824517517
      ],
      [
        "▁3.6",
        -9.569639768443997
      ],
      [
        "▁ec",
        -9.770326026475468
      ],
      [
        "▁net",
        -8.896612413878566
      ],
      [
        "dan",
        -5.659182466454016
      ],
      [
        "▁kisisel",
        -9.474530773815632
      ],
      [
        "▁oldugu",
        -9.124071369111872
      ],
      [
        "▁kalp",
        -9.414752420043026
      ],
      [
        "31",
        -12.68710890116767
      ],
      [
        "▁eli",
        -8.64622060611577
      ],
      [
        "▁31",
        -7.811440546527198
      ],
      [
        "▁ok",
        -8.265437979849844
      ],
      [
        "▁gunah",
        -9.829143951762873
      ],
      [
        "▁yaz",
        -7.713235021453993
      ],
      [
        "hangi",
        -8.576513639657144
      ],
      [
        "il",
        -6.926965214072124
      ],
      [
        "▁getirme",
        -9.78098562119316
      ],
      [
        "▁100",
        -7.323281198345844
      ],
      [
        "▁sebep",
        -9.085314867192245
      ],
      [
        "▁washington'",
        -8.999286435431847
      ],
      [
        "▁ilgisi",
        -9.355467525657417
      ],
      [
        "nin",
        -9.301884204327276
      ],
      [
        "▁gelecegi",
        -9.717601044634492
      ],
      [
        "▁satın",
        -8.097200909337587
      ],
      [
        "▁kıymetler",
        -8.53169811339971
      ],
      [
        "▁kazanc",
        -8.170922967503094
      ],
      [
        "▁tas",
        -7.792435507116451
      ],
      [
        "▁orada",
        -7.788164888452199
      ],
      [
        "▁gunu",
        -7.0885398595106786
      ],
      [
        "▁doları'n",
        -9.303878000686755
      ],
      [
        "lasmıs",
        -9.482356287167658
      ],
      [
        "mızı",
        -8.853302160516796
      ],
      [
        "20",
        -12.693313178038208
      ],
      [
        "▁sı",
        -13.077029596797782
      ],
      [
        "▁hali",
        -8.75161665019306
      ],
      [
        "▁hatır",
        -8.645656428421136
      ],
      [
        "▁misin",
        -6.959349652996775
      ],
      [
        "▁h",
        -11.551346784897675
      ],
      [
        "▁am",
        -8.351838422124183
      ],
      [
        "▁elbet",
        -9.247529470571944
      ],
      [
        "▁%7.8",
        -10.683931952813355
      ],
      [
        "▁kultur",
        -8.984314360215901
      ],
      [
        "▁sozu",
        -9.148616284309032
      ],
      [
        "▁anlatı",
        -9.63152272533894
      ],
      [
        "maktadır",
        -8.17296117776651
      ],
      [
        "▁isaret",
        -9.085387218212837
      ],
      [
        "'un",
        -7.727563025353447
      ],
      [
        "▁kavga",
        -9.591812446755684
      ],
      [
        "▁be",
        -7.506736331154971
      ],
      [
        "unc",
        -6.804290499659833
      ],
      [
        "▁dort",
        -6.461747336534862
      ],
      [
        "d",
        -6.383845784902341
      ],
      [
        "▁mevcut",
        -8.250305259152135
      ],
      [
        "▁'d",
        -13.349940624756915
      ],
      [
        "tar",
        -8.71172389503981
      ],
      [
        "her",
        -7.935548295472399
      ],
      [
        "“",
        -9.075235279699385
      ],
      [
        "▁normal",
        -9.31805171506012
      ],
      [
        "ye",
        -8.241620446734027
      ],
      [
        "ligi",
        -7.58127005843353
      ],
      [
        "▁kostu",
        -9.894397845894908
      ],
      [
        "▁yeterli",
        -8.579436602679303
      ],
      [
        "▁bana",
        -9.460614380987973
      ],
      [
        "▁bahseder",
        -9.607163873266147
      ],
      [
        "▁katilma",
        -9.441534116952486
      ],
      [
        "t",
        -5.041052590442877
      ],
      [
        "▁yet",
        -9.481873456738862
      ],
      [
        "▁gelmisti",
        -9.883240059986793
      ],
      [
        "▁televizyon",
        -9.272980444086404
      ],
      [
        "▁basarısız",
        -9.70247602624455
      ],
      [
        "dıklarını",
        -9.522017751202537
      ],
      [
        "▁komisyonu",
        -9.636630445179385
      ],
      [
        "▁diger",
        -7.438164057065226
      ],
      [
        "▁talebi",
        -9.92198400956778
      ],
      [
        "▁belediye",
        -9.537285638524615
      ],
      [
        "▁birbirin",
        -7.401829453096356
      ],
      [
        "▁muhendis",
        -9.873742415463445
      ],
      [
        "▁amerika",
        -9.293544299359153
      ],
      [
        "▁seyred",
        -9.64404952703428
      ],
      [
        "▁ra",
        -8.053191411831143
      ],
      [
        "▁becer",
        -9.82861592239533
      ],
      [
        "▁daha",
        -5.874280914192662
      ],
      [
        "▁tu",
        -7.716030085250397
      ],
      [
        "▁seni",
        -7.053578087856503
      ],
      [
        "▁hizmette",
        -9.914182209709342
      ],
      [
        "▁haber",
        -8.1213607907642
      ],
      [
        "mekte",
        -9.245618230846606
      ],
      [
        "▁olmadi",
        -8.792196392843708
      ],
      [
        "▁enerji",
        -9.299131264308524
      ],
      [
        "▁mev",
        -9.227850394137324
      ],
      [
        "▁galiba",
        -9.701297194821874
      ],
      [
        "▁elestiri",
        -9.741959677252225
      ],
      [
        "urdu",
        -9.08635682341076
      ],
      [
        "▁tut",
        -8.149257436143316
      ],
      [
        "ulmus",
        -8.664001811977696
      ],
      [
        "▁mutlu",
        -8.7673902939732
      ],
      [
        "▁sanayi",
        -9.32674064933965
      ],
      [
        "di",
        -5.473350901440815
      ],
      [
        "▁karanlık",
        -9.490136126457603
      ],
      [
        "▁kayıt",
        -9.441435528801206
      ],
      [
        "▁sart",
        -9.187338510675335
      ],
      [
        "▁gevse",
        -9.921957093150304
      ],
      [
        "▁yarın",
        -8.742073188846115
      ],
      [
        "▁gunde",
        -8.822518272037565
      ],
      [
        "▁alıs",
        -8.845445589550213
      ],
      [
        "▁konusunda",
        -8.153593479893706
      ],
      [
        "istan",
        -8.969416474519537
      ],
      [
        "▁istemiyoru",
        -8.318074147553173
      ],
      [
        "ing",
        -8.672275346125932
      ],
      [
        "▁sokak",
        -9.175506189851074
      ],
      [
        "▁cag",
        -9.125655136347477
      ],
      [
        "▁ki",
        -4.577539143697806
      ],
      [
        "▁bazıları",
        -7.524492058801733
      ],
      [
        "▁sam",
        -8.94105453006788
      ],
      [
        "'",
        -7.186219620033841
      ],
      [
        "▁ti",
        -6.777248598015956
      ],
      [
        "▁sure",
        -7.523871883224283
      ],
      [
        "ımı",
        -8.436737978513747
      ],
      [
        "▁parti",
        -8.53545613758497
      ],
      [
        "lugunu",
        -9.015820467976488
      ],
      [
        "▁kir",
        -9.172231795358856
      ],
      [
        "cileri",
        -9.215541930659665
      ],
      [
        "▁sohbet",
        -9.805533009087016
      ],
      [
        "▁mayıs",
        -9.300309491564965
      ],
      [
        "▁130",
        -9.402318196754825
      ],
      [
        "um",
        -6.342031287832066
      ],
      [
        "▁kor",
        -8.227064277000125
      ],
      [
        "▁oran",
        -8.45381499352556
      ],
      [
        "▁arac",
        -9.106878625159624
      ],
      [
        "▁yaka",
        -8.422080760017103
      ],
      [
        "▁cadde",
        -9.625065346025135
      ],
      [
        "▁sozleri",
        -9.451378316067832
      ],
      [
        "▁un",
        -8.604892661039983
      ],
      [
        "▁g",
        -11.181084115905492
      ],
      [
        "▁j",
        -8.358691229792537
      ],
      [
        "▁%0.2",
        -10.876871859234017
      ],
      [
        "r",
        -8.240384993611011
      ],
      [
        "▁soz",
        -7.7961218616382135
      ],
      [
        "k",
        -8.180812786693188
      ],
      [
        "sında",
        -7.409959481900812
      ],
      [
        "▁istedi",
        -8.782288647385682
      ],
      [
        "▁yeme",
        -8.88645219671799
      ],
      [
        "▁kopru",
        -9.571511786246603
      ],
      [
        "▁baslıyor",
        -9.585089640050704
      ],
      [
        "ro",
        -7.988062877111954
      ],
      [
        "▁tesekkurler",
        -9.278707862695658
      ],
      [
        "li",
        -8.963794952668183
      ],
      [
        "▁kaynak",
        -8.559784641518728
      ],
      [
        "▁89-",
        -13.463494214945312
      ],
      [
        "▁tekne",
        -9.527982572842262
      ],
      [
        "▁cocuklar",
        -8.171219192448106
      ],
      [
        "▁ter",
        -7.771308922344726
      ],
      [
        "el",
        -7.297324857139883
      ],
      [
        "misti",
        -7.848123000385339
      ],
      [
        "yuz",
        -8.978234982981087
      ],
      [
        "▁alma",
        -8.058754871713925
      ],
      [
        "▁tavan",
        -9.786862498536344
      ],
      [
        "cık",
        -8.525362838633631
      ],
      [
        "▁tampa'",
        -9.606878131908905
      ],
      [
        "▁civarında",
        -9.571986970351299
      ],
      [
        "▁calısma",
        -8.102801672166072
      ],
      [
        "▁tı",
        -6.478728049308052
      ],
      [
        "▁%3.8",
        -12.2298689641572
      ],
      [
        "▁islemlerinde",
        -9.921854800058066
      ],
      [
        "▁koyu",
        -9.26803252801719
      ],
      [
        "▁bush",
        -9.473108151555515
      ],
      [
        "gu",
        -11.556704943236587
      ],
      [
        "fıkı",
        -12.121032786426541
      ],
      [
        "'u",
        -9.247240191756605
      ],
      [
        "▁endise",
        -8.983820033118272
      ],
      [
        "layacak",
        -9.191495603151708
      ],
      [
        "dik",
        -7.84104521199231
      ],
      [
        "ret",
        -8.049460337356075
      ],
      [
        "lesme",
        -8.874911028834685
      ],
      [
        "▁bey",
        -6.639405550644869
      ],
      [
        "▁varlıklar",
        -9.606732349719607
      ],
      [
        "▁kimi",
        -7.206057973870432
      ],
      [
        "▁say",
        -8.341536908956405
      ],
      [
        "▁cevap",
        -8.751903498805078
      ],
      [
        "'nde",
        -9.121876960693832
      ],
      [
        "dım",
        -8.408313124615084
      ],
      [
        "▁operasyon",
        -9.285968106990943
      ],
      [
        "▁yerles",
        -9.70564422864449
      ],
      [
        "▁cogu",
        -7.787547373785652
      ],
      [
        "▁kere",
        -8.61697783363022
      ],
      [
        "▁tahta",
        -9.154470121427078
      ],
      [
        "▁dow",
        -9.249697153798527
      ],
      [
        "▁avuc",
        -9.507121370847862
      ],
      [
        "▁sozcu",
        -8.465539242716442
      ],
      [
        "egi",
        -8.722547943385237
      ],
      [
        "▁olmasa",
        -9.711716610257337
      ],
      [
        "▁suclama",
        -9.878465380263394
      ],
      [
        "▁sair",
        -9.454743346314444
      ],
      [
        "▁ev",
        -7.107720455711907
      ],
      [
        "▁katılma",
        -9.896270895714162
      ],
      [
        "▁be",
        -9.393500170655983
      ],
      [
        "▁de",
        -7.37226461477792
      ],
      [
        "▁bakımından",
        -9.806001809434822
      ],
      [
        "▁bun",
        -7.028846573070746
      ],
      [
        "onu",
        -9.066474342630165
      ],
      [
        "▁yedi",
        -9.348775710887438
      ],
      [
        "▁ilk",
        -7.031268230285256
      ],
      [
        "er",
        -6.317287842165637
      ],
      [
        "madıgını",
        -9.794139674343036
      ],
      [
        "▁burbank'",
        -9.850482391739074
      ],
      [
        "▁dusmus",
        -9.491439717502244
      ],
      [
        "▁cerceve",
        -9.827755231342692
      ],
      [
        "▁rekabet",
        -9.32597226515161
      ],
      [
        "▁hayatın",
        -9.221624267853446
      ],
      [
        "▁bic",
        -9.869997025198597
      ],
      [
        "▁%3.4",
        -11.443083918441491
      ],
      [
        "▁isti",
        -8.883422904532459
      ],
      [
        "▁surdu",
        -8.821901354819992
      ],
      [
        "dıkları",
        -9.211374691377248
      ],
      [
        "lenen",
        -9.117324239414941
      ],
      [
        "▁mes",
        -8.845562235621095
      ],
      [
        "▁cek",
        -8.360582116103135
      ],
      [
        "▁da",
        -7.57048383145338
      ],
      [
        "▁indir",
        -9.47249412423285
      ],
      [
        "▁sunlar",
        -8.674979951815075
      ],
      [
        "tır",
        -7.4628463012851265
      ],
      [
        "▁united",
        -8.714291540611633
      ],
      [
        "▁lynch",
        -9.921938091487279
      ],
      [
        "ona",
        -9.617245440447812
      ],
      [
        "▁bicimde",
        -9.839245516401283
      ],
      [
        "lay",
        -7.911680755781244
      ],
      [
        "▁superdi",
        -9.509955376381544
      ],
      [
        "▁isletme",
        -8.685093583378752
      ],
      [
        "▁bilmiyoru",
        -9.293850372090704
      ],
      [
        "▁dar",
        -8.548805104061678
      ],
      [
        "▁tabak",
        -9.874082518069827
      ],
      [
        "▁siz",
        -6.276467912461138
      ],
      [
        "tefe",
        -10.98931158454865
      ],
      [
        "▁uy",
        -9.094522260370116
      ],
      [
        "▁ceker",
        -9.801454408128077
      ],
      [
        "▁karsı",
        -6.409335831396301
      ],
      [
        "▁fazla",
        -6.967186291424922
      ],
      [
        "▁yuzu",
        -8.447171577379716
      ],
      [
        "▁gonlu",
        -9.68210456997894
      ],
      [
        "▁konusu",
        -8.708937356853495
      ],
      [
        "ları",
        -5.457394358049191
      ],
      [
        "▁dallas'",
        -8.210346897976116
      ],
      [
        "▁turkiye",
        -8.821131648421325
      ],
      [
        "▁isin",
        -9.014607584537863
      ],
      [
        "▁yaptirmadi",
        -9.339671453361731
      ],
      [
        "▁miyi",
        -7.919809520676319
      ],
      [
        "yiz",
        -9.259809697696888
      ],
      [
        "▁degisik",
        -9.698858641709961
      ],
      [
        "lık",
        -6.402058888079098
      ],
      [
        "ıyor",
        -6.724243672628974
      ],
      [
        "up",
        -7.598889178310598
      ],
      [
        "gim",
        -8.370853035575573
      ],
      [
        "▁yemegi",
        -9.043838112292221
      ],
      [
        "▁uluslararası",
        -9.456590081863837
      ],
      [
        "▁montreal'",
        -9.595406822923195
      ],
      [
        "▁li",
        -7.775344169606044
      ],
      [
        "0-6",
        -11.809847726313187
      ],
      [
        "▁yaprak",
        -9.68413374768824
      ],
      [
        "▁normaldi",
        -9.481462137474997
      ],
      [
        "70",
        -9.357341639530754
      ],
      [
        "▁bardak",
        -9.685739396807193
      ],
      [
        "▁denile",
        -9.876884645999422
      ],
      [
        "▁peki",
        -9.446494641611709
      ],
      [
        "▁kardes",
        -9.272319815851668
      ],
      [
        "▁onda",
        -7.567065664976884
      ],
      [
        "ligin",
        -8.759452887712932
      ],
      [
        "▁ib",
        -8.877387599196943
      ],
      [
        "▁gerek",
        -8.143857126941171
      ],
      [
        "▁marka",
        -9.490197101353365
      ],
      [
        "▁aldıgı",
        -9.144539697205246
      ],
      [
        "▁bulunma",
        -9.548823925006804
      ],
      [
        "lerini",
        -6.743949856467784
      ],
      [
        "fa",
        -8.217007859845864
      ],
      [
        "▁etmiyor",
        -9.180805034151348
      ],
      [
        "▁hisseleri",
        -8.66845443867452
      ],
      [
        "▁elini",
        -9.238639263614445
      ],
      [
        "▁kim",
[...]
