{
  "version": "1.0",
  "truncation": null,
  "padding": null,
  "added_tokens": [
    {
      "id": 1249,
      "content": "[PAD]",
      "single_word": false,
      "lstrip": false,
      "rstrip": false,
      "normalized": false,
      "special": true
    },
    {
      "id": 3693,
      "content": "[SEP]",
      "single_word": false,
      "lstrip": false,
      "rstrip": false,
      "normalized": false,
      "special": true
    },
    {
      "id": 6688,
      "content": "[UNK]",
      "single_word": false,
      "lstrip": false,
      "rstrip": false,
      "normalized": false,
      "special": true
    },
    {
      "id": 7566,
      "content": "[CLS]",
      "single_word": false,
      "lstrip": false,
      "rstrip": false,
      "normalized": false,
      "special": true
    },
    {
      "id": 8056,
      "content": "[MASK]",
      "single_word": false,
      "lstrip": false,
      "rstrip": false,
      "normalized": false,
      "special": true
    }
  ],
  "normalizer": {
    "type": "Sequence",
    "normalizers": [
      {
        "type": "NFD"
      },
      {
        "type": "Lowercase"
      },
      {
        "type": "StripAccents"
      }
    ]
  },
  "pre_tokenizer": {
    "type": "Sequence",
    "pretokenizers": [
      {
        "type": "Metaspace",
        "replacement": "▁",
        "prepend_scheme": "always",
        "split": true
      }
    ]
  },
  "post_processor": {
    "type": "TemplateProcessing",
    "single": [
      {
        "SpecialToken": {
          "id": "[CLS]",
          "type_id": 0
        }
      },
      {
        "Sequence": {
          "id": "A",
          "type_id": 0
        }
      },
      {
        "SpecialToken": {
          "id": "[SEP]",
          "type_id": 0
        }
      }
    ],
    "pair": [
      {
        "SpecialToken": {
          "id": "[CLS]",
          "type_id": 0
        }
      },
      {
        "Sequence": {
          "id": "A",
          "type_id": 0
        }
      },
      {
        "SpecialToken": {
          "id": "[SEP]",
          "type_id": 0
        }
      },
      {
        "Sequence": {
          "id": "B",
          "type_id": 1
        }
      },
      {
        "SpecialToken": {
          "id": "[SEP]",
          "type_id": 1
        }
      }
    ],
    "special_tokens": {
      "[CLS]": {
        "id": "[CLS]",
        "ids": [
          7566
        ],
        "tokens": [
          "[CLS]"
        ]
      },
      "[SEP]": {
        "id": "[SEP]",
        "ids": [
          3693
        ],
        "tokens": [
          "[SEP]"
        ]
      }
    }
  },
  "decoder": {
    "type": "Metaspace",
    "replacement": "▁",
    "prepend_scheme": "always",
    "split": true
  },
  "model": {
    "type": "Unigram",
    "unk_id": 6688,
    "vocab": [
      [
        "▁bagladı",
        -9.967758952938215
      ],
      [
        "▁hacim",
        -9.373405976308835
      ],
      [
        "▁dusurdu",
        -10.189186165338167
      ],
      [
        "▁senetlerini",
        -10.379559848057132
      ],
      [
        "▁ofis",
        -9.307364615716034
      ],
      [
        "▁luzum",
        -10.574136344395672
      ],
      [
        "▁kacındı",
        -10.375632207217361
      ],
      [
        "▁ev",
        -10.702492886736827
      ],
      [
        "▁cuzdan",
        -10.751192213684856
      ],
      [
        "▁yararlan",
        -9.965439522212659
      ],
      [
        "degili",
        -11.009634623297783
      ],
      [
        "▁yuzunu",
        -9.502972898249594
      ],
      [
        "▁86",
        -10.833266039124373
      ],
      [
        "▁newark'ta",
        -9.63982172993768
      ],
      [
        "▁sesler",
        -10.165714579708016
      ],
      [
        "▁sis",
        -9.222960276730749
      ],
      [
        "▁gosteren",
        -9.897622338880144
      ],
      [
        "▁cogu",
        -8.478709549982966
      ],
      [
        "▁sil",
        -8.905896883484164
      ],
      [
        "▁yargı",
        -9.378076521979011
      ],
      [
        "▁beceri",
        -10.359729055579892
      ],
      [
        "▁cadde",
        -9.627591649529988
      ],
      [
        "▁yuzyıl",
        -9.440372610186031
      ],
      [
        "▁ydı",
        -7.2089507199542044
      ],
      [
        "▁cinsel",
        -10.07629409083702
      ],
      [
        "▁29",
        -8.311415215906592
      ],
      [
        "▁halihazırda",
        -9.815689702196696
      ],
      [
        "▁kalmıstı",
        -9.824523016848975
      ],
      [
        "▁ort",
        -9.720134827627758
      ],
      [
        "▁yanı",
        -8.411851823386737
      ],
      [
        "▁cep",
        -9.364810683512692
      ],
      [
        "▁kedi",
        -9.585738963697938
      ],
      [
        "▁gunluk",
        -8.416952646881278
      ],
      [
        "▁dusun",
        -8.909215177610076
      ],
      [
        "▁olayda",
        -10.498202861032425
      ],
      [
        "5'te",
        -9.758099586533376
      ],
      [
        "▁naci",
        -10.14837049312243
      ],
      [
        "▁site",
        -10.147554747070172
      ],
      [
        "▁universitesi'n",
        -10.744305311410447
      ],
      [
        "lanması",
        -9.619818666134183
      ],
      [
        "▁yay",
        -9.042249915242653
      ],
      [
        "▁tırnak",
        -10.471494337620252
      ],
      [
        "▁hor",
        -10.165506843104113
      ],
      [
        "▁evlenme",
        -10.217975061735352
      ],
      [
        ".80",
        -9.76184326839341
      ],
      [
        "▁35",
        -8.676949231489617
      ],
      [
        "▁zarfın",
        -10.769408836192753
      ],
      [
        "▁cadır",
        -10.074706393712479
      ],
      [
        "▁ticarette",
        -9.639191662433635
      ],
      [
        "abet",
        -10.878411470113907
      ],
      [
        "—",
        -12.809526790838989
      ],
      [
        "▁tutarında",
        -9.743362835681669
      ],
      [
        "▁sus",
        -8.722844399802234
      ],
      [
        "▁dayı",
        -10.421048081765251
      ],
      [
        "▁brit",
        -10.385555178383928
      ],
      [
        "▁yansıtıyor",
        -10.60382129676412
      ],
      [
        "▁fincan",
        -10.142175516660863
      ],
      [
        "▁tadı",
        -10.48603385709621
      ],
      [
        "▁yaptırdı",
        -10.584104949451353
      ],
      [
        "▁cay",
        -8.877127901649066
      ],
      [
        "▁kursun",
        -9.5207290512443
      ],
      [
        "▁hazırlanı",
        -10.053632931187066
      ],
      [
        "▁journal",
        -10.142061719494142
      ],
      [
        "▁yumu",
        -10.819730178470548
      ],
      [
        "▁sarsıntı",
        -10.471500145155261
      ],
      [
        "▁miktarda",
        -10.222850043698466
      ],
      [
        "'yi",
        -9.299550392701168
      ],
      [
        "▁yoktu",
        -7.133277900650744
      ],
      [
        "▁9",
        -10.043440128669296
      ],
      [
        "▁sekiz",
        -7.532759790075625
      ],
      [
        "▁mus",
        -8.161837378504368
      ],
      [
        "▁ediyor",
        -7.052697784021138
      ],
      [
        "▁yiyor",
        -10.274839400487728
      ],
      [
        "den",
        -8.05560578784303
      ],
      [
        "▁kucuk",
        -7.237283938009055
      ],
      [
        "olar",
        -7.153116283606411
      ],
      [
        "▁suyun",
        -9.890511583851032
      ],
      [
        "lestirdi",
        -10.096513327252405
      ],
      [
        "▁azalma",
        -10.618363035891255
      ],
      [
        "▁10'da",
        -9.752058823119507
      ],
      [
        "▁getirildi",
        -10.425982910716014
      ],
      [
        "▁asama",
        -9.710779101253944
      ],
      [
        "▁sarkı",
        -8.956287036908048
      ],
      [
        "▁celal",
        -10.472768214694081
      ],
      [
        "▁sokaklarda",
        -10.70237922706975
      ],
      [
        "▁2.7",
        -8.87867738926752
      ],
      [
        "▁nesne",
        -10.648006535992275
      ],
      [
        "mek",
        -7.736848457997012
      ],
      [
        "▁kili",
        -10.290343088760416
      ],
      [
        "▁kutuphane",
        -10.889101675505286
      ],
      [
        "▁tokyo'da",
        -10.235901979837504
      ],
      [
        "▁onemsiz",
        -10.525642141387651
      ],
      [
        "▁patron",
        -10.378584768638312
      ],
      [
        "▁endise",
        -9.03071063868116
      ],
      [
        "▁kese",
        -9.403060731056307
      ],
      [
        "'da",
        -9.16403921981313
      ],
      [
        "▁bunlar",
        -6.623126046805661
      ],
      [
        "▁peri",
        -10.167845235760147
      ],
      [
        "▁neler",
        -8.468540397938536
      ],
      [
        "▁israil",
        -9.982898053660088
      ],
      [
        "▁%0.3",
        -11.442857597144098
      ],
      [
        "▁1.25",
        -10.228792362022869
      ],
      [
        "▁duydugu",
        -10.534528539122856
      ],
      [
        "▁sim",
        -9.703203401351598
      ],
      [
        "▁zi",
        -9.749058550494292
      ],
      [
        "▁etek",
        -10.21656358415151
      ],
      [
        "▁uygulan",
        -9.732467214891965
      ],
      [
        "▁otele",
        -9.756491544301078
      ],
      [
        "▁kimlik",
        -10.40008925170417
      ],
      [
        "▁kenarları",
        -10.431557684734507
      ],
      [
        "▁isletiyor",
        -10.81820398734924
      ],
      [
        "▁tanrı'",
        -10.40060406264804
      ],
      [
        "▁mani",
        -9.703075886160343
      ],
      [
        "▁maliyetleri",
        -9.884391362427934
      ],
      [
        "▁yapmaya",
        -9.269453981577513
      ],
      [
        "▁darbuka",
        -10.574125619551252
      ],
      [
        "▁izliyor",
        -10.15111191332156
      ],
      [
        "▁cins",
        -9.58691403556022
      ],
      [
        "▁arkadasını",
        -10.562738814451317
      ],
      [
        "▁ismi",
        -9.862699359682589
      ],
      [
        "▁destek",
        -8.97866147773312
      ],
      [
        "▁kurulu",
        -8.559675680269132
      ],
      [
        "▁yetkililer",
        -9.79538635529148
      ],
      [
        "▁soyle",
        -7.7346051787395185
      ],
      [
        "▁washington",
        -8.1771070013679
      ],
      [
        "▁sozunu",
        -10.126220890319479
      ],
      [
        "▁tef",
        -10.163445976690737
      ],
      [
        "▁belirte",
        -10.559499484701433
      ],
      [
        "7.50",
        -11.014001245584971
      ],
      [
        "▁gozle",
        -10.28050720142354
      ],
      [
        "▁recep",
        -9.980474030684316
      ],
      [
        "cık",
        -8.47217572284318
      ],
      [
        "inler",
        -9.147359778007075
      ],
      [
        "▁samimi",
        -10.47196703273193
      ],
      [
        "▁cekme",
        -9.339023616273929
      ],
      [
        "fer",
        -9.76689670577458
      ],
      [
        "vı",
        -10.422371062606649
      ],
      [
        "▁isci",
        -9.24181674151106
      ],
      [
        "20'",
        -10.395066349686372
      ],
      [
        "▁sin",
        -9.242927260521476
      ],
      [
        "▁kesin",
        -9.402827069345463
      ],
      [
        "▁nam",
        -10.089793735612986
      ],
      [
        "▁baslayan",
        -9.514248932015558
      ],
      [
        "abilirdi",
        -9.64316221808862
      ],
      [
        "▁hut",
        -10.243758723724692
      ],
      [
        "fa",
        -8.881202802097874
      ],
      [
        "▁wall",
        -9.128915206650051
      ],
      [
        "▁havada",
        -9.690713325216255
      ],
      [
        "▁umidi",
        -10.751192744396844
      ],
      [
        "bun",
        -10.777689337686775
      ],
      [
        "▁bagımsız",
        -9.44025535767904
      ],
      [
        "▁kadınların",
        -10.054599807494656
      ],
      [
        "▁fırtına",
        -10.142067857480896
      ],
      [
        "▁13",
        -8.043983628244806
      ],
      [
        "▁3/",
        -8.14222313149267
      ],
      [
        "▁taze",
        -9.265902460458332
      ],
      [
        "▁dusen",
        -9.45101154241043
      ],
      [
        "▁imparator",
        -10.846650895034106
      ],
      [
        "▁havuz",
        -8.305497712908295
      ],
      [
        "lemek",
        -9.321822695448809
      ],
      [
        "gimiz",
        -10.423125727388728
      ],
      [
        "▁gerek",
        -8.425192428893645
      ],
      [
        "▁read",
        -10.824083568065532
      ],
      [
        "likleri",
        -9.560595347880405
      ],
      [
        "▁okul",
        -8.717265263496254
      ],
      [
        "▁alkıs",
        -10.335001391005953
      ],
      [
        "▁maliyet",
        -9.814818098016314
      ],
      [
        "▁sandık",
        -10.35352966641942
      ],
      [
        "▁calgı",
        -10.427916922921373
      ],
      [
        "3'",
        -9.885501001310331
      ],
      [
        "▁gemi",
        -8.533353895216557
      ],
      [
        "▁dusurme",
        -10.289797336591107
      ],
      [
        "▁1.37",
        -10.969679322940435
      ],
      [
        "▁yukseltme",
        -10.819774662686557
      ],
      [
        "▁kalitesini",
        -10.52824375232182
      ],
      [
        "▁118",
        -10.951670013373654
      ],
      [
        "▁dolar",
        -6.82505899517938
      ],
      [
        "▁hicbirini",
        -9.34679240401203
      ],
      [
        "▁peyniri",
        -10.523397358673755
      ],
      [
        "▁yapıldı",
        -9.710988394715713
      ],
      [
        "▁ogreniyor",
        -10.855220758419254
      ],
      [
        "▁rekor",
        -9.867689574126977
      ],
      [
        "▁zahmet",
        -10.574124738869065
      ],
      [
        "▁yakında",
        -9.443034594149628
      ],
      [
        "▁not",
        -9.15377508076072
      ],
      [
        "▁futbolcu",
        -10.442447008596051
      ],
      [
        "sh",
        -9.669736018094312
      ],
      [
        "▁calma",
        -10.435977365850482
      ],
      [
        "▁islerin",
        -10.156222431788429
      ],
      [
        "▁3.9",
        -10.791841722125609
      ],
      [
        "▁kısmını",
        -9.97041828056439
      ],
      [
        "▁fo",
        -9.66661098865862
      ],
      [
        "▁agladı",
        -10.709766742386414
      ],
      [
        "ilmis",
        -9.03465198706554
      ],
      [
        ".03",
        -10.426964764726291
      ],
      [
        "▁dusunmuyor",
        -9.475902813227172
      ],
      [
        "ıldıgını",
        -9.958065747749373
      ],
      [
        "du",
        -6.383537373424577
      ],
      [
        "▁yapacagını",
        -10.222036001616825
      ],
      [
        "▁nu",
        -9.741558200759124
      ],
      [
        "▁yazdıgı",
        -10.21132962158935
      ],
      [
        "▁alınması",
        -9.94399247834847
      ],
      [
        "%10",
        -13.63797741196559
      ],
      [
        "▁hav",
        -10.085815911934146
      ],
      [
        "▁cocukları",
        -9.419174915749126
      ],
      [
        "▁paris'te",
        -10.751227715999224
      ],
      [
        "▁yunus",
        -10.472169621210677
      ],
      [
        "▁olmalıdır",
        -10.481260726726013
      ],
      [
        "▁istifa",
        -9.132365551011578
      ],
      [
        "▁ucmak",
        -8.542201837184876
      ],
      [
        "▁eylul'de",
        -10.109573933023754
      ],
      [
        "▁reserv",
        -10.817686996077907
      ],
      [
        "▁zarf",
        -10.736414615016193
      ],
      [
        "rildik",
        -10.75519863236396
      ],
      [
        "▁hizmet",
        -6.772839511487488
      ],
      [
        "▁97",
        -10.408807893499114
      ],
      [
        "▁%3.",
        -11.182099154216546
      ],
      [
        "▁jose'",
        -10.180368808324712
      ],
      [
        "▁istemedi",
        -10.447796731520183
      ],
      [
        "▁114",
        -10.588855785869924
      ],
      [
        "▁ihtimal",
        -9.631304717382829
      ],
      [
        "▁val",
        -10.077586788614601
      ],
      [
        "▁planlıyor",
        -9.85334194732961
      ],
      [
        "▁zorlu",
        -9.781584823554146
      ],
      [
        "▁surdu",
        -9.646675967911131
      ],
      [
        "▁calismasi",
        -10.334962904977512
      ],
      [
        "▁davranıs",
        -9.326310233444445
      ],
      [
        "agı",
        -9.992656147959854
      ],
      [
        "▁teklifler",
        -10.149821715069667
      ],
      [
        "▁gorusmedi",
        -10.145329491205509
      ],
      [
        "mezse",
        -10.267923122423364
      ],
      [
        "▁kapanıs",
        -10.385763441075683
      ],
      [
        "▁'y",
        -12.499910982439719
      ],
      [
        "▁seker",
        -9.066133249966397
      ],
      [
        "▁itibar",
        -9.589630992927649
      ],
      [
        "▁bulur",
        -9.711338200874819
      ],
      [
        "▁tar",
        -9.349853087315903
      ],
      [
        "▁duzenlene",
        -10.414629439673742
      ],
      [
        "▁doldur",
        -9.207943870314892
      ],
      [
        "lasıyor",
        -9.993365497441872
      ],
      [
        "1\\/",
        -10.762842975554703
      ],
      [
        "▁alamıyor",
        -10.888660775641355
      ],
      [
        "▁icecekler",
        -9.50650123701033
      ],
      [
        "▁daim",
        -9.388545972035962
      ],
      [
        "▁william",
        -10.378420616887237
      ],
      [
        "▁inan",
        -8.764807775438525
      ],
      [
        "▁profesyonel",
        -9.980434515402658
      ],
      [
        "▁gures",
        -10.047415778159916
      ],
      [
        "▁meselesi",
        -10.362341278344276
      ],
      [
        "nızı",
        -9.542755061300031
      ],
      [
        "▁mektup",
        -9.40602923949265
      ],
      [
        "▁kitaplar",
        -9.80689149453169
      ],
      [
        "▁ozer",
        -10.301754420426818
      ],
      [
        "▁4.",
        -9.203855788183088
      ],
      [
        "▁sez",
        -9.52536722368228
      ],
      [
        "▁doku",
        -8.978258761084405
      ],
      [
        "▁isinde",
        -10.680509092452892
      ],
      [
        "▁kamyon",
        -9.512334854170492
      ],
      [
        "▁tacoma'",
        -10.133143444245952
      ],
      [
        "▁edip",
        -9.13000508420356
      ],
      [
        "▁aylık",
        -8.835341850840328
      ],
      [
        "onlar",
        -9.411444122687692
      ],
      [
        "ak",
        -10.007494695036996
      ],
      [
        "▁dir",
        -7.302651398842159
      ],
      [
        "▁onlarda",
        -8.606170649037105
      ],
      [
        "▁diego'da",
        -10.25576448471261
      ],
      [
        "▁129.",
        -10.196656814001443
      ],
      [
        "acak",
        -7.2130870487004835
      ],
      [
        "▁verme",
        -8.794141246875835
      ],
      [
        "▁seslendi",
        -10.428304210876753
      ],
      [
        "▁acmak",
        -10.390258932702697
      ],
      [
        "▁chicago'da",
        -9.398818107098288
      ],
      [
        "▁cıkmak",
        -10.012325830086855
      ],
      [
        "▁am",
        -9.401108724093437
      ],
      [
        "▁montreal'",
        -9.770907775584405
      ],
      [
        "kın",
        -10.08007730696629
      ],
      [
        "▁acar",
        -9.771212409159427
      ],
      [
        "▁yapılanma",
        -10.471059630661728
      ],
      [
        "▁internet",
        -10.120212252380533
      ],
      [
        "▁gorunumu",
        -10.775172047863501
      ],
      [
        "▁%8.",
        -13.38161600072496
      ],
      [
        "▁edici",
        -10.254281800918417
      ],
      [
        "▁hafıza",
        -10.574124704347508
      ],
      [
        "nda",
        -10.932538105983836
      ],
      [
        "0.7",
        -10.735277861111918
      ],
      [
        "lasır",
        -10.284057949120477
      ],
      [
        "▁sokak",
        -9.269201584058388
      ],
      [
        "yım",
        -9.53034387784295
      ],
      [
        "▁vermeye",
        -9.901958021543058
      ],
      [
        ":00",
        -11.867128241260916
      ],
      [
        "▁pi",
        -8.641351391439052
      ],
      [
        "3.5",
        -9.478301416158967
      ],
      [
        "▁ettik",
        -9.355496064341482
      ],
      [
        "▁yon",
        -7.834262314247808
      ],
      [
        "▁karma",
        -10.743682419936894
      ],
      [
        "▁ucuncu",
        -9.512702740734808
      ],
      [
        "▁ramiz",
        -10.380388962465512
      ],
      [
        "▁ucretlerini",
        -9.763360119206116
      ],
      [
        "▁simdi",
        -7.140572371169526
      ],
      [
        "▁hayal",
        -8.876539421643795
      ],
      [
        "▁ruhu",
        -10.18815040035567
      ],
      [
        "malıdır",
        -9.733686139308611
      ],
      [
        "▁tezgah",
        -9.294805980974083
      ],
      [
        "▁yag",
        -8.765869572899426
      ],
      [
        "▁yapı",
        -7.958524810823514
      ],
      [
        "▁kullanıla",
        -9.62877867292345
      ],
      [
        "ydu",
        -10.970623744144195
      ],
      [
        "inizi",
        -9.983238270862586
      ],
      [
        "▁birin",
        -9.181865945293579
      ],
      [
        "▁magdur",
        -10.751488605644658
      ],
      [
        "▁terbiye",
        -9.922461906448348
      ],
      [
        "▁emin",
        -8.999369084364856
      ],
      [
        "▁hani",
        -10.08190645368336
      ],
      [
        "ki",
        -5.885453486668912
      ],
      [
        "tan",
        -7.042682902084177
      ],
      [
        "▁gorusu",
        -9.76874998829378
      ],
      [
        "▁istemiyoru",
        -8.205125744021695
      ],
      [
        "▁du",
        -6.33322890003446
      ],
      [
        "▁osman",
        -10.038660210867171
      ],
      [
        "▁bes",
        -6.145071177220371
      ],
      [
        "▁atmak",
        -10.328020352784726
      ],
      [
        "lar",
        -7.961244385437585
      ],
      [
        "▁pencere",
        -8.821858771539045
      ],
      [
        "▁a",
        -10.589485858069246
      ],
      [
        "▁sen",
        -6.208861544610927
      ],
      [
        "▁niyeti",
        -10.508182833922048
      ],
      [
        "▁corp",
        -10.000855968773907
      ],
      [
        "▁gomlegi",
        -10.253283614026719
      ],
      [
        "▁oldugunda",
        -9.691275387236818
      ],
      [
        "▁sık",
        -7.951270457486119
      ],
      [
        "tas",
        -10.057363016908527
      ],
      [
        "sunu",
        -8.837985416896863
      ],
      [
        "▁hicbir",
        -5.961517491993648
      ],
      [
        "▁bekliyor",
        -8.839152378518573
      ],
      [
        "60",
        -9.564211218512561
      ],
      [
        "▁hedefi",
        -10.244629177028115
      ],
      [
        "▁iliski",
        -8.961147497560347
      ],
      [
        "▁olsun",
        -8.156979777045636
      ],
      [
        "▁edebiyat",
        -9.250764723978843
      ],
      [
        "ng",
        -10.94435796899572
      ],
      [
        "▁bizleri",
        -9.582690225371444
      ],
      [
        "▁7.1",
        -10.77984840303767
      ],
      [
        "▁hi",
        -9.239621899248991
      ],
      [
        "▁kaynagı",
        -10.184069463328022
      ],
      [
        "▁kapak",
        -10.426672658914724
      ],
      [
        "mez",
        -8.300674518152785
      ],
      [
        "▁yılı",
        -9.15995130274974
      ],
      [
        "▁iliskisi",
        -10.371412596237626
      ],
      [
        "▁yemekte",
        -10.65285975755058
      ],
      [
        "▁yapacagı",
        -9.65885708322814
      ],
      [
        "▁gaz",
        -9.068689217958674
      ],
      [
        "▁saga",
        -10.192850516940434
      ],
      [
        "▁gelistirme",
        -9.532081725761376
      ],
      [
        "▁2.3",
        -9.999738725484406
      ],
      [
        "▁surdugu",
        -10.668686023943636
      ],
      [
        "▁esi",
        -9.471731581115547
      ],
      [
        "▁dalgın",
        -10.3350800808391
      ],
      [
        "lesmis",
        -9.512193351239976
      ],
      [
        "▁topla",
        -9.225968827354361
      ],
      [
        "▁faaliyet",
        -8.971711314591722
      ],
      [
        "▁tasıma",
        -10.149192202764404
      ],
      [
        "▁gayret",
        -10.107579803340592
      ],
      [
        "▁dolay",
        -6.325603172551561
      ],
      [
        "▁oteki",
        -9.575859676398903
      ],
      [
        "▁sosyal",
        -9.103526959966437
      ],
      [
        "▁aldı",
        -7.542386556335737
      ],
      [
        "lanma",
        -8.534962582287223
      ],
      [
        "im",
        -8.415921563447386
      ],
      [
        "▁edecek",
        -8.806606393927595
      ],
      [
        "▁acılan",
        -10.210163324675959
      ],
      [
        "▁oranı",
        -9.075974075323526
      ],
      [
        "ti",
        -6.435322772177239
      ],
      [
        "▁geldigi",
        -9.197099350461096
      ],
      [
        "▁titriyordu",
        -10.7532001502334
      ],
      [
        "▁petersburg'",
        -9.534185643267008
      ],
      [
        "tu",
        -9.158395043648547
      ],
      [
        "▁hep",
        -9.68908962305779
      ],
      [
        "▁anlamıyla",
        -10.822768839872587
      ],
      [
        "▁agabey",
        -10.107622105142518
      ],
      [
        "▁ya",
        -5.833491254611257
      ],
      [
        "▁destegi",
        -10.335218633556234
      ],
      [
        "▁egili",
        -10.159093105649575
      ],
      [
        "▁pop",
        -10.266046542633088
      ],
      [
        "▁ertelen",
        -10.53946147246171
      ],
      [
        "▁alıs",
        -9.34294305188427
      ],
      [
        "▁fort",
        -9.119306679294407
      ],
      [
        "▁bazı",
        -5.798457711104905
      ],
      [
        "▁ac",
        -7.700227612167609
      ],
      [
        "▁adın",
        -9.973602066425244
      ],
      [
        "▁verimli",
        -9.656486274018455
      ],
      [
        "▁onur",
        -9.724779548659608
      ],
      [
        "▁mevcut",
        -8.192329735802108
      ],
      [
        "▁iceri",
        -8.542080710063061
      ],
      [
        "▁ufak",
        -8.717194975884354
      ],
      [
        "▁malzeme",
        -9.988198398123698
      ],
      [
        "maz",
        -8.489341071370454
      ],
      [
        "▁houston'da",
        -9.821939590980211
      ],
      [
        "▁odalar",
        -8.772501561569268
      ],
      [
        "▁dahi",
        -10.23131396396872
      ],
      [
        "▁icat",
        -10.533507208219076
      ],
      [
        "v",
        -5.244896794061084
      ],
      [
        "▁zehir",
        -10.156590437697023
      ],
      [
        "▁toronto'",
        -9.665913887891254
      ],
      [
        "▁finansman",
        -9.821695628981761
      ],
      [
        "arı",
        -9.182295171636294
      ],
      [
        "▁terzi",
        -10.691401776073581
      ],
      [
        "▁goster",
        -6.660718044491787
      ],
      [
        "▁smith",
        -10.214814265909887
      ],
      [
        "▁8.5",
        -10.09862692703964
      ],
      [
        "▁kurulmus",
        -10.698892860939768
      ],
      [
        "▁bina",
        -8.977813709747
      ],
      [
        "▁kendiniz",
        -9.659975854683289
      ],
      [
        "kı",
        -11.75119610731039
      ],
      [
        "▁kayna",
        -9.13125071060282
      ],
      [
        "▁rakip",
        -9.86769815140083
      ],
      [
        "▁hırs",
        -10.658147556312006
      ],
      [
        "▁ilerle",
        -10.479437553145038
      ],
      [
        "22",
        -9.999031172044875
      ],
      [
        "▁bush",
        -9.683398945532353
      ],
      [
        "▁kolunu",
        -10.58972488019402
      ],
      [
        "▁6.5",
        -10.575469817737618
      ],
      [
        "ci",
        -7.061942978204505
      ],
      [
        "alti",
        -10.464776979090464
      ],
      [
        "mislerdi",
        -10.061670431060175
      ],
      [
        "▁sorunların",
        -10.312132563981775
      ],
      [
        "▁1.60",
        -11.018883638092944
      ],
      [
        "▁oray",
        -9.971739109756703
      ],
      [
        "▁bugun",
        -7.6417465559080435
      ],
      [
        "▁baker",
        -10.36283925742438
      ],
      [
        "▁ses",
        -8.521102397145029
      ],
      [
        "▁korkusu",
        -10.255444477271684
      ],
      [
        "▁salon",
        -10.103203379270646
      ],
      [
        "▁durdurma",
        -10.75665735007213
      ],
      [
        "gunu",
        -8.713996574794592
      ],
      [
        "▁2.1",
        -10.319519851547797
      ],
      [
        "▁onunde",
        -8.302014371246225
      ],
      [
        "▁7",
        -9.353223022765029
      ],
      [
        "▁koltuk",
        -9.643710868325039
      ],
      [
        "▁ibaret",
        -10.042002215983098
      ],
      [
        "▁yırtı",
        -10.107696355724416
      ],
      [
        "▁st",
        -7.637369072750257
      ],
      [
        "▁gelisi",
        -10.246004029024071
      ],
      [
        "▁korku",
        -9.024615450886191
      ],
      [
        "▁bıraktı",
        -8.94459439118248
      ],
      [
        ".39",
        -9.939713617690423
      ],
      [
        "▁seyahat",
        -8.922479142016439
      ],
      [
        "▁bolge",
        -8.654860315553865
      ],
      [
        "▁boylu",
        -9.925563016269578
      ],
      [
        "ıldıgında",
        -10.477524318577007
      ],
      [
        "▁oynuyor",
        -9.816654450026753
      ],
      [
        "▁pilav",
        -10.688554585495726
      ],
      [
        "▁burbank'",
        -10.34828150997093
      ],
      [
        "▁qintex",
        -10.52149308525859
      ],
      [
        "▁buyur",
        -10.269638342735458
      ],
      [
        "▁ucretin",
        -9.343824267132952
      ],
      [
        "▁tren",
        -9.312569105616664
      ],
      [
        "j",
        -8.633899497362899
      ],
      [
        "▁bahsetti",
        -10.221412743925203
      ],
      [
        ".60",
        -10.955725625320385
      ],
      [
        "▁neleri",
        -10.96127278360716
      ],
      [
        "▁geri",
        -7.461467241143221
      ],
      [
        "▁mutlu",
        -8.997835038609068
      ],
      [
        "▁oto",
        -9.989419798085294
      ],
      [
        "▁kırıl",
        -10.305842382016337
      ],
      [
        "▁uf",
        -9.440208921685585
      ],
      [
        "87",
        -9.83586508577357
      ],
      [
        "▁arkadasları",
        -9.648693210113246
      ],
      [
        "▁arastırmacılar",
        -10.700910612414667
      ],
      [
        "▁yapıyordu",
        -10.378276156046482
      ],
      [
        "32",
        -8.876639540153514
      ],
      [
        "liklerini",
        -10.240989789555416
      ],
      [
        "▁desteklen",
        -10.483172823425306
      ],
      [
        "imiz",
        -9.87496007417427
      ],
      [
        "▁karar",
        -7.873344736235834
      ],
      [
        "telif",
        -10.844892613048907
      ],
      [
        "▁k",
        -9.253332953015757
      ],
      [
        "luga",
        -9.599017668245196
      ],
      [
        "▁yiyecekler",
        -9.203478054672193
      ],
      [
        "▁green",
        -10.574184739223075
      ],
      [
        "▁adamı",
        -9.373397236299887
      ],
      [
        "enc",
        -11.02235575751815
      ],
      [
        "▁ydu",
        -8.242796498591797
      ],
      [
        "▁aracılıgı",
        -9.895800460374398
      ],
      [
        "nın",
        -6.131783575398534
      ],
      [
        "▁av",
        -8.805923041047487
      ],
      [
        "▁tedirgin",
        -10.471495999570678
      ],
      [
        "gim",
        -8.731230172836106
      ],
      [
        "▁yaklastı",
        -10.240737446863324
      ],
      [
        "kendisini",
        -10.891738120592706
      ],
      [
        "▁portakal",
        -10.17777598846482
      ],
      [
        "▁geyik",
        -9.92250087088107
      ],
      [
        "ız",
        -8.32788040606879
      ],
      [
        "▁detroit'",
        -10.283713823053104
      ],
      [
        "▁cerceve",
        -9.935481621577196
      ],
      [
        "bu",
        -10.475098792750922
      ],
      [
        "or",
        -11.285911387029632
      ],
      [
        "si'nde",
        -10.26274197896316
      ],
      [
        "ak",
        -7.804092858450923
      ],
      [
        "▁fevkalade",
        -10.688503747901105
      ],
      [
        "▁tampa'",
        -10.29762502289061
      ],
      [
        "oru",
        -10.203952345947865
      ],
      [
        "▁450",
        -10.817535937463706
      ],
      [
        "▁onceki",
        -8.42297336706243
      ],
      [
        "dum",
        -8.765968894649912
      ],
      [
        "…",
        -11.80952679083899
      ],
      [
        "▁andır",
        -10.030061472919417
      ],
      [
        "▁york",
        -8.128011654227414
      ],
      [
        "▁isti",
        -9.16656960020904
      ],
      [
        "▁hayat",
        -8.402161546244686
      ],
      [
        "▁oglan",
        -9.895876759111054
      ],
      [
        "ta",
        -7.825751804999858
      ],
      [
        "▁cene",
        -9.799687002322404
      ],
      [
        "▁goruyor",
        -9.167890586067948
      ],
      [
        "▁mevsim",
        -9.815393397600811
      ],
      [
        "▁jose",
        -10.629434778791062
      ],
      [
        "▁biliyor",
        -9.310717867717539
      ],
      [
        "▁filan",
        -10.012920604911152
      ],
      [
        "▁deniz",
        -7.382472481215863
      ],
      [
        "▁kablo",
        -10.423875263380598
      ],
      [
        "▁bi",
        -7.91759027674691
      ],
      [
        "▁lezzetleri",
        -9.622163804115715
      ],
      [
        "%5",
        -12.369826670084198
      ],
      [
        "▁olmadıgını",
        -8.755468285150704
      ],
      [
        "▁air",
        -8.645659572546759
      ],
      [
        "▁aman",
        -9.915496071608878
      ],
      [
        "▁sefi",
        -10.143139622799438
      ],
      [
        "▁boynunda",
        -10.746144496713027
      ],
      [
        "▁cırpı",
        -9.929511529812686
      ],
      [
        "▁listele",
        -8.0016936791236
      ],
      [
        "▁dusunce",
        -8.950461502314601
      ],
      [
        "▁koyuldu",
        -10.47261254933707
      ],
      [
        "▁california",
        -10.569216431119875
      ],
      [
        "unları",
        -10.14889697635057
      ],
      [
        "▁eve",
        -8.081734060187921
      ],
      [
        "klarını",
        -8.796624005031015
      ],
      [
        "1.9",
        -10.024497484819797
      ],
      [
        "▁13.",
        -9.400967380402378
      ],
      [
        "▁12'de",
        -10.10822026226141
      ],
      [
        "▁yil",
        -9.5794532084793
      ],
      [
        "2",
        -9.343103933683576
      ],
      [
        "▁aslan",
        -9.939576273290752
      ],
      [
        "▁baca",
        -10.430152966252491
      ],
      [
        "▁hanim",
        -7.4981611549188205
      ],
      [
        "▁isteri",
        -9.937884771209564
      ],
      [
        "▁ingiliz",
        -9.089018568530953
      ],
      [
        "▁arkadas",
        -8.753040126544581
      ],
      [
        "▁kızıl",
        -10.009122462737775
      ],
      [
        "▁diyor",
        -7.662409035171543
      ],
      [
        "ed",
        -8.735168551912677
      ],
      [
        "▁ikincisin",
        -10.991639462621036
      ],
      [
        "▁sarhos",
        -10.25329042743701
      ],
      [
        "▁suruklen",
        -10.69331317310117
      ],
      [
        "ji",
        -9.458398678633785
      ],
      [
        "▁trafik",
        -10.177776008001272
      ],
      [
        "rak",
        -8.56644890269181
      ],
      [
        "miz",
        -7.944393076832551
      ],
      [
        "▁bic",
        -10.241322592582184
      ],
      [
        "nla",
        -9.58078058821545
      ],
      [
        "▁yarıs",
        -10.328627806018028
      ],
      [
        "▁kocası",
        -10.089637694024809
      ],
      [
        "▁derler",
        -9.892834438505513
      ],
      [
        "▁1963",
        -10.560325746299014
      ],
      [
        "▁gezer",
        -10.629777289619982
      ],
      [
        "▁hisselerini",
        -9.821434432184834
      ],
      [
        "▁gu",
        -11.453395732365175
      ],
      [
        "▁baslangıcta",
        -10.340959413516684
      ],
      [
        "▁yaktı",
        -10.279200017097898
      ],
      [
        "▁ispanya",
        -10.688504168255236
      ],
      [
        "▁cocugunu",
        -10.554110465897642
      ],
      [
        "▁uyeleri",
        -10.116880937393168
      ],
      [
        "▁kızını",
        -10.714754267499952
      ],
      [
        "▁plani",
        -9.645932103356213
      ],
      [
        "3",
        -8.946685974331961
      ],
      [
        "▁pus",
        -10.219046814835572
      ],
      [
        "▁tablo",
        -9.841445297983942
      ],
      [
        "▁ulus",
        -9.74599742533597
      ],
      [
        "tim",
        -8.962705905073824
      ],
      [
        "▁lynch",
        -9.790689721360225
      ],
      [
        "▁lokma",
        -10.178304533081542
      ],
      [
        "▁sahte",
        -10.180067003600024
      ],
      [
        "▁basladı",
        -7.556185619463424
      ],
      [
        "▁ocagı",
        -9.719837023368768
      ],
      [
        "▁international",
        -9.794218508564065
      ],
      [
        "▁inek",
        -10.474767857847231
      ],
      [
        "▁kaptan",
        -9.956037841039212
      ],
      [
        "▁sartları",
        -10.310928748584317
      ],
      [
        "▁oyunları",
        -10.607413415775792
      ],
      [
        "art",
        -9.961010725909588
      ],
      [
        "▁asagı",
        -8.75935248765628
      ],
      [
        "lu",
        -10.540402499714833
      ],
      [
        "▁kulag",
        -10.773402089337164
      ],
      [
        "larla",
        -7.692347055979403
      ],
      [
        "67",
        -10.805523239280532
      ],
      [
        "▁partisi",
        -10.046361467681757
      ],
      [
        "▁yontem",
        -9.674408860832456
      ],
      [
        "90",
        -9.626223619391588
      ],
      [
        "▁%7.7",
        -11.120674655466068
      ],
      [
        "▁karıstır",
        -9.90100501152786
      ],
      [
        "▁iceriyor",
        -9.6554219537945
      ],
      [
        "▁kırık",
        -10.02548419010633
      ],
      [
        "’",
        -10.688503747893643
      ],
      [
        "▁duyuru",
        -10.22315406922657
      ],
      [
        "▁nakliye",
        -10.293275821864139
      ],
      [
        "▁dedigi",
        -9.697655224051058
      ],
      [
        "▁cı",
        -9.94387244233149
      ],
      [
        "▁oncesi",
        -10.057419361648785
      ],
      [
        "▁recete",
        -10.574151067776985
      ],
      [
        "▁model",
        -9.631678319155615
      ],
      [
        "lige",
        -8.905483722087649
      ],
      [
        "▁sistemleri",
        -10.320141577187542
      ],
      [
        "▁cıglık",
        -10.253275107670323
      ],
      [
        "lardaki",
        -9.925426981245327
      ],
      [
        "▁aktor",
        -10.574720771379653
      ],
      [
        "▁altında",
        -7.876964381693434
      ],
      [
        "▁anlatır",
        -10.419281105494987
      ],
      [
        "▁ib",
        -9.010902212036658
      ],
      [
        "▁ilgilendi",
        -7.565385447792865
      ],
      [
        "▁geceleri",
        -9.591896071207563
      ],
      [
        "'daki",
        -8.938342569756317
      ],
      [
        "▁oranında",
        -9.823287830637767
      ],
      [
        "▁dustu",
        -7.910566585162171
      ],
      [
        "▁love",
        -10.336250372826974
      ],
      [
        "▁sayılı",
        -10.244030105611127
      ],
      [
        "▁dul",
        -10.394266729819883
      ],
      [
        "irdi",
        -9.56745031809457
      ],
      [
        "▁10.6",
        -10.963275517375004
      ],
      [
        "▁%6",
        -9.731743118183811
      ],
      [
        "▁ihmal",
        -10.688503828354305
      ],
      [
        "n",
        -3.5145215456790897
      ],
      [
        "▁bıyık",
        -10.78778000733836
      ],
      [
        "▁cehennem",
        -10.521493084582064
      ],
      [
        "▁kurtarma",
        -10.218307964493093
      ],
      [
        "ey",
        -9.034179521616508
      ],
      [
        "▁dairesi",
        -10.456537387278695
      ],
      [
        "▁0.4",
        -9.905857409742325
      ],
      [
        "▁duzey",
        -9.403829413913645
      ],
      [
        "el",
        -7.6817195438644985
      ],
      [
        "▁borsacılar",
        -10.589138527667476
      ],
      [
        "9.8",
        -10.89906866214311
      ],
      [
        "isinda",
        -9.200735552629798
      ],
      [
        "▁havaalanında",
        -9.861605673606539
      ],
      [
        "▁rapor",
        -8.936479499053158
      ],
      [
        "▁sular",
        -9.790409828762776
      ],
      [
        "▁kriz",
        -10.56854697476653
      ],
      [
        "▁istasyonu",
        -10.679776345408364
      ],
      [
        "tı",
        -9.880362748676854
      ],
      [
        "▁ur",
        -9.591516570086629
      ],
      [
        "▁0.9",
        -9.814412234819317
      ],
      [
        ".",
        -9.216358711206778
      ],
      [
        "▁'li",
        -9.48474627959969
      ],
      [
        "▁olu",
        -10.523711559048557
      ],
      [
        "▁odam",
        -9.504773593838994
      ],
      [
        "▁memphis'",
        -9.209807124039326
      ],
      [
        "▁ders",
        -8.810977959161335
      ],
      [
        "▁jaguar",
        -9.74248994727827
      ],
      [
        "▁toronto",
        -10.163286828532504
      ],
      [
        "cu",
        -7.769685293318501
      ],
      [
        "▁elde",
        -8.34507501243202
      ],
      [
        "▁berbat",
        -10.01076774790919
      ],
      [
        "▁amac",
        -8.957653428878135
      ],
      [
        "▁iceride",
        -10.304839305601226
      ],
      [
        "▁sah",
        -9.525941946567098
      ],
      [
        "▁bıcagı",
        -10.817679981125773
      ],
      [
        "▁hizmetleri",
        -9.21517145045916
      ],
      [
        "▁suc",
        -8.93371611776077
      ],
      [
        "onları",
        -9.763222161918772
      ],
      [
        "oloji",
        -10.107272368021663
      ],
      [
        "▁sterlin",
        -10.37842823309959
      ],
      [
        "▁hattı",
        -9.819550039002717
      ],
      [
        "▁brown",
        -10.574140029450394
      ],
      [
        "▁borc",
        -8.657321759206422
      ],
      [
        "▁artık",
        -7.457772026443432
      ],
      [
        "▁kocasını",
        -10.466052032910703
      ],
      [
        "▁gitme",
        -9.417013666657944
      ],
      [
        "▁95",
        -10.11033810294644
      ],
      [
        "▁las",
        -8.64406612757512
      ],
      [
        "▁kadını",
        -9.736640078274355
      ],
      [
        "▁temettu",
        -10.177776035133263
      ],
      [
        "6.25",
        -9.773362979470317
      ],
      [
        "▁mute",
        -9.856487826282168
      ],
      [
        "▁birimi",
        -9.516656024952413
      ],
      [
        "▁ruhunu",
        -10.85423968293662
      ],
      [
        "▁batı",
        -8.447971905378713
      ],
      [
        "▁met",
        -9.410710102271999
      ],
      [
        "▁iv",
        -10.506002626656256
      ],
      [
        "▁pittsburgh'",
        -8.155825439158217
      ],
      [
        "▁orman",
        -9.319347930406138
      ],
      [
        "▁fiyat",
        -7.297052674454783
      ],
      [
        "▁ceket",
        -9.983561943742796
      ],
      [
        "▁allah",
        -9.369040220352641
      ],
      [
        "▁nisan'da",
        -10.337544093103073
      ],
      [
        "▁gunah",
        -9.697018135860727
      ],
      [
        "▁tab",
        -10.222844803158694
      ],
      [
        "▁gibi",
        -4.36209696709702
      ],
      [
        "▁senedi",
        -8.297590576164787
      ],
      [
        "▁rus",
        -9.231766361805855
      ],
      [
        "270",
        -10.442777589670378
      ],
      [
        "akıllı",
        -10.877061766686435
      ],
      [
        "▁tuccar",
        -10.197177875547462
      ],
      [
        "▁olacak",
        -10.653978238680095
      ],
      [
        "miz",
        -10.62968147525379
      ],
      [
        "▁tarihini",
        -10.75552010396414
      ],
      [
        "t",
        -8.962720578188764
      ],
      [
        "▁haketmiyor",
        -10.751006939756548
      ],
      [
        "▁kayıp",
        -9.54360947251431
      ],
      [
        "▁canım",
        -9.913831718741562
      ],
      [
        "▁yayıncı",
        -10.611533610360661
      ],
      [
        "▁merkezin",
        -9.52837288980589
      ],
      [
        "▁payı",
        -9.818271871122992
      ],
      [
        "▁aile",
        -7.875691368044419
      ],
      [
        "▁gidecek",
        -9.927301216905809
      ],
      [
        "▁ikram",
        -10.253246388690261
      ],
      [
        "ford",
        -10.518553861029552
      ],
      [
        "niz",
        -8.044469973543261
      ],
      [
        "▁fabrika",
        -9.160273693567914
      ],
      [
        "▁sh",
        -9.374574970032478
      ],
      [
        "▁japonya",
        -10.063763732017712
      ],
      [
        "▁korka",
        -10.34498232594483
      ],
      [
        "▁rey",
        -10.20872689616685
      ],
      [
        "▁alındı",
        -9.907062196923565
      ],
      [
        "▁cesidi",
        -10.335020571178356
      ],
      [
        "▁ofisi",
        -10.223255099800271
      ],
      [
        "▁sak",
        -9.207539794145411
      ],
      [
        "▁fazlasını",
        -10.297818629614438
      ],
      [
        "▁olacaktı",
        -9.42330358628412
      ],
      [
        "▁kompozit",
        -10.471493083991396
      ],
      [
        "▁kendileri",
        -8.465864262322565
      ],
      [
        "▁haziran",
        -9.276247691921887
      ],
      [
        "▁kaptır",
        -10.695498201534264
      ],
      [
        "le",
        -6.62633018119359
      ],
      [
        "meli",
        -9.093973970450724
      ],
      [
        "ndaki",
        -9.058445995714266
      ],
      [
        "▁avukat",
        -9.628299609520612
      ],
      [
        "▁p",
        -12.931071006350244
      ],
      [
        "d",
        -5.077362734358636
      ],
      [
        "▁palto",
        -10.253625611996265
      ],
      [
        "▁ayaklarını",
        -10.207982033668722
      ],
      [
        "▁ikinci",
        -8.823909503574232
      ],
      [
        "▁kullanılma",
        -10.853458100345861
      ],
      [
        "▁milyon",
        -5.185931877072128
      ],
      [
        "▁edin",
        -8.940727028787585
      ],
      [
        "▁donu",
        -9.484740515466276
      ],
      [
        "▁bo",
        -8.649780038573343
      ],
      [
        "▁tat",
        -10.33464225108144
      ],
      [
        "▁program",
        -8.722615497809315
      ],
      [
        "▁politikasını",
        -10.848074565250974
      ],
      [
        "▁pu",
        -11.408164597291648
      ],
      [
        "▁ucagın",
        -9.697748818104806
      ],
      [
        "▁nufuz",
        -10.889103284350988
      ],
      [
        "▁ma",
        -8.179273104008894
      ],
      [
        "cısı",
        -9.859761304179852
      ],
      [
        "▁kilise",
        -10.21569374603164
      ],
      [
        "▁lamba",
        -9.816035801618037
      ],
      [
        "▁inat",
        -10.638238794560404
      ],
      [
        "sini",
        -7.094163112955828
      ],
      [
        "▁avantaj",
        -10.423874038254013
      ],
      [
        "▁ilerledi",
        -10.420917360636999
      ],
      [
        "▁kurtaj",
        -9.894821825500678
      ],
      [
        "7",
        -6.877042668686723
      ],
      [
        "▁olimpiyat",
        -10.75100376087408
      ],
      [
        "▁cihaz",
        -10.010737651203211
      ],
      [
        "▁idi",
        -8.9590315568136
      ],
      [
        "▁12.9",
        -10.961399652101639
      ],
      [
        "▁pisiri",
        -9.930566805749637
      ],
      [
        "▁hic",
        -7.048992658573039
      ],
      [
        "▁yas",
        -8.187689806581407
      ],
      [
        "▁bakanı",
        -9.662473465062074
      ],
      [
        "▁edilmesi",
        -9.648406840583174
      ],
      [
        "-199",
        -12.825449727997478
      ],
      [
        "▁kaza",
        -8.828034320404488
      ],
      [
        "▁angeles",
        -10.072923360712705
      ],
      [
        "▁gununu",
        -10.320850494974305
      ],
      [
        "▁gol",
        -9.238823843203104
      ],
      [
        "▁ekibi",
        -9.389381555074886
      ],
      [
        "▁durgun",
        -9.695642280791095
      ],
      [
        "sını",
        -7.197320490390266
      ],
      [
        "ris",
        -9.427260181237216
      ],
      [
        "▁yatırımcıların",
        -9.934283979681922
      ],
      [
        "lardan",
        -7.707889657614044
      ],
      [
        "▁degisimi",
        -9.982065489384466
      ],
      [
        "▁ra",
        -9.245496693429814
      ],
      [
        "▁ressam",
        -10.574129239044566
      ],
      [
        "▁baygın",
        -10.81948768365016
      ],
      [
        "▁olcu",
        -8.953459032284394
      ],
      [
        "ell",
        -9.308821838640654
      ],
      [
        "▁agrı",
        -9.359691256412702
      ],
      [
        "▁anca",
        -7.684326379094092
      ],
      [
        "▁elif",
        -10.63937233075149
      ],
      [
        "▁ugra",
        -9.030309344495034
      ],
      [
        "18",
        -10.39890958852949
      ],
      [
        "▁mutfag",
        -9.951023209980187
      ],
      [
        "▁kazı",
        -9.850436849635194
      ],
      [
        "gibi",
        -7.880345455995306
      ],
      [
        "emiyor",
        -9.517180279612953
      ],
      [
        "▁yana",
        -9.534111522877149
      ],
      [
        "ish",
        -10.215277701785038
      ],
      [
        "ona",
        -9.617245440447814
      ],
      [
        "1'",
        -9.874741197774705
      ],
      [
        "▁yasamadi",
        -9.605464233461172
      ],
      [
        "▁takı",
        -9.506169099146751
      ],
      [
        "▁misin",
        -6.959349652996774
      ],
      [
        "yıp",
        -8.772739222759103
      ],
      [
        "▁gel",
        -8.426219513261227
      ],
      [
        "▁olası",
        -9.179665841997405
      ],
      [
        "▁bel",
        -9.316573588576984
      ],
      [
        "▁37.",
        -10.03985734593758
      ],
      [
        "acagım",
        -9.110307861537944
      ],
      [
        "▁buyuk",
        -6.519905376011292
      ],
      [
        "▁getir",
        -8.84635586038371
      ],
      [
        "mamıs",
        -9.372112410463126
      ],
      [
        "▁bro",
        -9.95280155766581
      ],
      [
        "▁mesel",
        -10.289605420720289
      ],
      [
        "▁kariyer",
        -10.334947470998074
      ],
      [
        "▁vah",
        -9.613085966710404
      ],
      [
        "▁ayrılı",
        -9.106267220550592
      ],
      [
        "▁edilemez",
        -10.629935565101604
      ],
      [
        "▁kıymetler",
        -8.40222748602255
      ],
      [
        "▁cekti",
        -8.67832114040022
      ],
      [
        "▁kıs",
        -8.43535143356858
      ],
      [
        "▁ucunda",
        -9.863612457682166
      ],
      [
        "▁lider",
        -9.841104780905312
      ],
      [
        "▁havlu",
        -10.0121208613313
      ],
      [
        "▁bitme",
        -9.856023284751172
      ],
      [
        "▁si",
        -8.672083505214713
      ],
      [
        "hicbir",
        -9.453110688665927
      ],
      [
        "▁yen'",
        -9.543642743581568
      ],
      [
        "ti",
        -8.056066862997
      ],
      [
        "▁198",
        -13.999596592358095
      ],
      [
        "▁al",
        -7.025279934648983
      ],
      [
        "▁ahır",
        -10.69283367539893
      ],
      [
        "▁tasfiye",
        -10.817670952274607
      ],
      [
        "▁kutu",
        -9.3924061193997
      ],
      [
        "80'",
        -10.801321319901298
      ],
      [
        "▁yumurta",
        -9.475622089425162
      ],
      [
        "▁2.62",
        -10.627550140618016
      ],
      [
        "▁nesnel",
        -10.731295041290362
      ],
      [
        "▁imf",
        -10.75117664373071
      ],
      [
        "▁yahudi",
        -10.296545709393996
      ],
      [
        "▁gecme",
        -8.925314948131433
      ],
      [
        "tı",
        -8.324715511985309
      ],
      [
        "▁sandal",
        -10.41124893539213
      ],
      [
        "▁oglu",
        -9.744160570798302
      ],
      [
        "▁yara",
        -8.41306209241477
      ],
      [
        "▁agız",
        -9.29549304731064
      ],
      [
        "▁makul",
        -10.379955470427626
      ],
      [
        "▁gece",
        -7.48053848436106
      ],
      [
        "▁pa",
        -8.319316082123365
      ],
      [
        "ımızda",
        -9.699498780654904
      ],
      [
        "▁cemil",
        -10.576126464138712
      ],
      [
        "▁katılıyor",
        -10.584549948239196
      ],
      [
        "48",
        -10.060704301262783
      ],
      [
        "▁yuvarlak",
        -10.26836172377986
      ],
      [
        "▁bulusma",
        -10.653018640749119
      ],
      [
        "▁yapıl",
        -9.744234254136689
      ],
      [
        "(",
        -6.128634380103216
      ],
      [
        "▁kopru",
        -9.440522422995832
      ],
      [
        "milyon",
        -8.648131795458136
      ],
      [
        "▁gosteriyor",
        -9.034095944266793
      ],
      [
        "▁kocaman",
        -9.532016904116528
      ],
      [
        "▁dusundugum",
        -10.264182677610059
      ],
      [
        "▁karı",
        -9.185158011551064
      ],
      [
        "cagız",
        -9.181760665440848
      ],
      [
        "▁yoksun",
        -10.192114281947237
      ],
      [
        "▁!",
        -9.510406401262049
      ],
      [
        "▁bitisi",
        -10.751659134741603
      ],
      [
        "yacak",
        -9.246510795776436
      ],
      [
        "▁avlu",
        -10.530969774077356
      ],
      [
        "▁falan",
        -10.016697393565423
      ],
      [
        "▁yemeklerin",
        -9.797532888705039
      ],
      [
        "▁heykel",
        -10.214829488096164
      ],
      [
        "▁yıldır",
        -9.835799418353396
      ],
      [
        "▁ortulu",
        -10.689945954727355
      ],
      [
        "4'",
        -9.646447993447321
      ],
      [
        "▁veri",
        -9.453805472639525
      ],
      [
        "▁houston",
        -10.232326509120979
      ],
      [
        "▁suphesiz",
        -10.820675945268542
      ],
      [
        "▁sırtında",
        -9.889921480791795
      ],
      [
        "▁5-1",
        -12.163675011319157
      ],
      [
        "▁ulasımı",
        -8.909717354131885
      ],
      [
        "▁diri",
        -10.150105591998262
      ],
      [
        "sinin",
        -7.97988090300116
      ],
      [
        "▁oldugunu",
        -7.027662086168486
      ],
      [
        "▁36",
        -9.558374476628076
      ],
      [
        "▁araba",
        -8.08824198209259
      ],
      [
        "▁surekli",
        -8.55402646451098
      ],
      [
        "▁anayasa",
        -9.458134101034293
      ],
      [
        "lik",
        -6.633230434280945
      ],
      [
        "▁%",
        -6.30458812668807
      ],
      [
        "▁esya",
        -8.96933383787663
      ],
      [
        "▁za",
        -11.938950486359479
      ],
      [
        "▁alt",
        -8.853778980841685
      ],
      [
        "39",
        -10.362518549371337
      ],
      [
        "▁nashville'de",
        -10.063927283921053
      ],
      [
        "ja",
        -9.889172854626228
      ],
      [
        "▁bekliyordu",
        -10.351463406948753
      ],
      [
        "▁tarihi",
        -9.123389010229445
      ],
      [
        "ask",
        -9.890352443352278
      ],
      [
        "▁kursu",
        -10.652574647803188
      ],
      [
        "%",
        -5.612064710322522
      ],
      [
        "▁ta",
        -8.376821177347994
      ],
      [
        "▁mezarlıg",
        -10.878104213930788
      ],
      [
        "dı",
        -8.385939154810046
      ],
      [
        "▁kongre",
        -9.031880511532515
      ],
      [
        "▁kusu",
        -10.60818489298394
      ],
      [
        "▁muhamme",
        -10.751010552476082
      ],
      [
        "▁at",
        -7.64225562823061
      ],
      [
        "▁kalma",
        -9.044041222399077
      ],
      [
        "▁birini",
        -7.9901088460014265
      ],
      [
        "▁farklı",
        -8.491332385993857
      ],
      [
        "▁265",
        -10.460843441290223
      ],
      [
        "▁bizde",
        -7.888273266411787
      ],
      [
        "▁eg",
        -9.274432856613466
      ],
      [
        "▁taksi",
        -9.706446815750548
      ],
      [
        "▁geldiginde",
        -10.760164168072757
      ],
      [
        "▁ayrılan",
        -10.013916056725668
      ],
      [
        "▁gitmem",
        -10.28548548678836
      ],
      [
        "▁mur",
        -9.9395289277631
      ],
      [
        "▁dernegi",
        -10.521747746334736
      ],
      [
        "▁tarzı",
        -10.530401399549811
      ],
      [
        "wood",
        -10.751004148990873
      ],
      [
        "▁77",
        -9.84103054110708
      ],
      [
        "▁izleyici",
        -10.688848965545713
      ],
      [
        "meyecek",
        -8.98211467750843
      ],
      [
        "▁cu",
        -9.419480212378659
      ],
      [
        "▁ihtiyat",
        -10.886584878148117
      ],
      [
        "▁85",
        -10.185528823684125
      ],
      [
        "▁egilimi",
        -10.819276709750135
      ],
      [
        "once",
        -9.511381666878972
      ],
      [
        "lasma",
        -9.209398412839723
      ],
      [
        "ebilecegi",
        -9.653405080999667
      ],
      [
        "▁hayret",
        -10.178416989310787
      ],
      [
        "▁ber",
        -7.601397042744379
      ],
      [
        "▁alman",
        -9.37954376050188
      ],
      [
        "76",
        -9.922494579454352
      ],
      [
        "▁vakıf",
        -10.423874313832975
      ],
      [
        "▁oteldi",
        -9.098834347258096
      ],
      [
        "▁ufuk",
        -10.472051538216586
      ],
      [
        "daki",
        -8.06277461708427
      ],
      [
        "▁fon",
        -9.298409875449146
      ],
      [
        "▁charlotte",
        -10.175491530713725
      ],
      [
        "19",
        -11.864564628225486
      ],
      [
        "▁fiili",
        -10.25336668292909
      ],
      [
        "▁de",
        -9.29558926803189
      ],
      [
        "yip",
        -9.22938534058959
      ],
      [
        "▁tas",
        -7.9030605772400735
      ],
      [
        "▁4.9",
        -9.954181334929654
      ],
      [
        "▁adını",
        -9.446254320300515
      ],
      [
        "mem",
        -9.763388767066179
      ],
      [
        "▁makale",
        -9.799531770112392
      ],
      [
        "▁cesitli",
        -8.922709171086947
      ],
      [
        "▁yakısıklı",
        -10.629680723254285
      ],
      [
        "0-1",
        -13.27225999513051
      ],
      [
        "▁edebi",
        -10.185046050157593
      ],
      [
        "▁olmama",
        -10.52755213331103
      ],
      [
        "gında",
        -9.37374958028246
      ],
      [
        "landı",
        -7.882372133907643
      ],
      [
        "d",
        -9.781817406421387
      ],
      [
        "cisi",
        -9.584316028430898
      ],
      [
        "leyin",
        -9.728172259508263
      ],
      [
        "▁80",
        -9.245377230161239
      ],
      [
        "▁rende",
        -10.633732148769582
      ],
      [
        "uyor",
        -8.37579668528532
      ],
      [
        "▁international'",
        -10.566444100016906
      ],
      [
        "▁99",
        -9.95661725335496
      ],
      [
        "▁kamu",
        -9.055605654940493
      ],
      [
        "▁sıfır",
        -10.887677905132326
      ],
      [
        "▁gordu",
        -8.119723736567963
      ],
      [
        "▁cıkan",
        -8.987417379895543
      ],
      [
        "▁pasa",
        -9.16703994344251
      ],
      [
        "lerdi",
        -8.214135304055848
      ],
      [
        "▁hissetti",
        -9.730367762439334
      ],
      [
        "▁kuralları",
        -10.244249795820819
      ],
      [
        "▁gergin",
        -9.980583940254556
      ],
      [
        "▁etkili",
        -10.14311961284851
      ],
      [
        "30000",
        -10.729387378770136
      ],
      [
        "halde",
        -9.74303330583309
      ],
      [
        "lerin",
        -10.512831345665763
      ],
      [
        "▁ali",
        -8.700183122079707
      ],
      [
        "▁islam",
        -10.656171242036134
      ],
      [
        "ligi",
        -7.640063061180054
      ],
      [
        "42",
        -10.270328648458687
      ],
      [
        "▁destekley",
        -10.362085949755864
      ],
      [
        "bil",
        -8.408178538578948
      ],
      [
        "▁kan",
        -8.337108475575775
      ],
      [
        "ılmıs",
        -8.521918994998835
      ],
      [
        "▁cincinnati'",
        -10.290128680391243
      ],
      [
        "▁pittsburgh'ta",
        -7.9686956621520615
      ],
      [
        "sızın",
        -10.443956130538044
      ],
      [
        "▁1979",
        -9.957228283983179
      ],
      [
        "▁aracı",
        -9.361706220100213
      ],
      [
        "▁sayısı",
        -9.502763733659682
      ],
      [
        "▁bi",
        -9.71364828622677
      ],
      [
        "▁konforlu",
        -9.295419573048747
      ],
      [
        "▁guzel",
        -6.479588680678067
      ],
      [
        "▁alev",
        -9.729627456208865
      ],
      [
        "▁yapısı",
        -10.23899353630618
      ],
      [
        "▁vegas",
        -10.602770972498595
      ],
      [
        "▁carptı",
        -10.356834909894532
      ],
      [
        "ydı",
        -7.844397568188543
      ],
      [
        "▁8.9",
        -10.558512057576548
      ],
      [
        "▁yem",
        -10.217691653423632
      ],
      [
        "mıyordu",
        -9.648468523297165
      ],
      [
        "▁ustu",
        -8.768271821147327
      ],
      [
        "lı",
        -5.7133232210572515
      ],
      [
        "▁12.0",
        -11.009849125258729
      ],
      [
        "letti",
        -10.13281240632668
      ],
      [
        "▁konferans",
        -10.253274640521024
      ],
      [
        "▁vermeyi",
        -10.305889605525763
      ],
      [
        "▁acılıyor",
        -10.708200106720415
      ],
      [
        "▁nikah",
        -10.334941934046768
      ],
      [
        "▁tut",
        -8.585866045577275
      ],
      [
        "▁ikibin",
        -10.531438624027286
      ],
      [
        "b",
        -11.061781342297014
      ],
      [
        "▁sabun",
        -10.574214424262642
      ],
      [
        "9.",
        -10.43186829749371
      ],
      [
        "▁katilma",
        -9.858302519211007
      ],
      [
        "gine",
        -9.265712169495476
      ],
      [
        "00",
        -9.806858893401527
      ],
      [
        "▁muzik",
        -9.389612087804647
      ],
      [
        "▁tuttu",
        -8.961960777149391
      ],
      [
        "▁dolasma",
        -10.581899859041597
      ],
      [
        "▁damak",
        -9.560755600917961
      ],
      [
        "▁kesim",
        -9.935017169725874
      ],
      [
        "▁cografya",
        -10.751008444143276
      ],
      [
        "▁piyasa",
        -7.846222840166742
      ],
      [
        "▁us",
        -8.08624754668505
      ],
      [
        "▁buhar",
        -10.522199127437553
      ],
      [
        "▁istasyon",
        -10.29921466651611
      ],
      [
        "▁kısım",
        -10.474352546663404
      ],
      [
        "mektedir",
        -8.221768482176973
      ],
      [
        "▁cumhuriyeti",
        -10.221539979387192
      ],
      [
        "▁1'de",
        -10.693398851252564
      ],
      [
        "lıgı",
        -7.403067691316598
      ],
      [
        "fı",
        -12.849601984454036
      ],
      [
        "▁bırakır",
        -10.329528328640462
      ],
      [
        "▁hırsız",
        -9.771345265872256
      ],
      [
        "▁ha",
        -9.66166110685669
      ],
      [
        "▁sikayet",
        -9.38936238752455
      ],
      [
        "ı",
        -6.612256086080283
      ],
      [
        "larımı",
        -9.43553821051421
      ],
      [
        "▁saman",
        -10.383155185835179
      ],
      [
        "▁hicbirin",
        -10.472486812302424
      ],
      [
        "▁dip",
        -10.400348789389836
      ],
      [
        "▁15.",
        -10.281601801171426
      ],
      [
        "▁grup",
        -9.060550998231278
      ],
      [
        "▁bura",
        -9.467793701270335
      ],
      [
        "65",
        -9.675037765306437
      ],
      [
        "▁olmustu",
        -8.808092840118011
      ],
      [
        "iyorlar",
        -9.376598960471423
      ],
      [
        "▁yelken",
        -10.473354158724533
      ],
      [
        "▁bekley",
        -10.108597406920588
      ],
      [
        "▁kıta",
        -10.471574438826051
      ],
      [
        "▁for",
        -10.033708255945465
      ],
      [
        "▁cıkar",
        -7.668647013453948
      ],
      [
        "▁gonul",
        -9.355370938832598
      ],
      [
        "▁soylenir",
        -10.821278263249923
      ],
      [
        "han",
        -8.645886306000369
      ],
      [
        "▁1988'de",
        -10.42392562932005
      ],
      [
        "bilecek",
        -10.268718911108405
      ],
      [
        "▁10'",
        -10.533652792352392
      ],
      [
        "▁onc",
        -10.23064915328516
      ],
      [
        "▁fiyatını",
        -10.576072465154425
      ],
      [
        "▁sona",
        -9.11002210066461
      ],
      [
        "u",
        -5.830923563296427
      ],
      [
        "mıs",
        -6.736030956282015
      ],
      [
        "▁kurul",
        -9.449451825335782
      ],
      [
        "▁kesilme",
        -10.703735443416775
      ],
      [
        "▁mavi",
        -8.862576679011472
      ],
      [
        "ff",
        -9.52478124991094
      ],
      [
        "▁teknik",
        -9.44048728310861
      ],
      [
        "▁ayır",
        -9.25679705890739
      ],
      [
        "▁gebe",
        -10.850181735365947
      ],
      [
        "▁calısma",
        -8.314160443837311
      ],
      [
        "ım",
        -8.568093718523716
      ],
      [
        "▁soyu",
        -9.834143021048591
      ],
      [
        "▁frank",
        -9.951056329665654
      ],
      [
        "▁gelebilir",
        -10.636841022830765
      ],
      [
        "▁united",
        -8.583098243128687
      ],
      [
        "▁konaklama",
        -10.380420407539447
      ],
      [
        ".7",
        -13.316270462957048
      ],
      [
        "▁dunyada",
        -9.29593818115158
      ],
      [
        "▁koyma",
        -10.779429963018634
      ],
      [
        "▁gorme",
        -9.536120551376325
      ],
      [
        "▁nefes",
        -9.294837519999444
      ],
      [
        "a",
        -3.993233274470425
      ],
      [
        "▁yapma",
        -8.648734770749567
      ],
      [
        "lanan",
        -8.77416030397952
      ],
      [
        "▁etmeli",
        -10.254277852779747
      ],
      [
        "▁hepiniz",
        -10.320468932913874
      ],
      [
        "▁ayva",
        -10.697824162710337
      ],
      [
        "▁titrey",
        -10.723032352933863
      ],
      [
        "ac",
        -8.948265840803215
      ],
      [
        "t",
        -5.435336423985136
      ],
      [
        "▁komisyon",
        -10.31423344227996
      ],
      [
        "▁otomobil",
        -8.717101149485956
      ],
      [
        "73",
        -10.807847826038392
      ],
      [
        "▁icini",
        -10.23525312097263
      ],
      [
        "▁hane",
        -10.24932099902361
      ],
      [
        "▁gelismis",
        -10.522596010264376
      ],
      [
        "▁isin",
        -8.904255942704706
      ],
      [
        "▁meger",
        -9.113731181418167
      ],
      [
        "ecegi",
        -8.899390530679497
      ],
      [
        "▁iptal",
        -10.107629662722672
      ],
      [
        "mıstı",
        -7.907590150509617
      ],
      [
        "▁evler",
        -10.124859228935575
      ],
      [
        "▁1.0",
        -9.508508305454086
      ],
      [
        "▁duvar",
        -8.841852976379986
      ],
      [
        "▁canta",
        -9.824978580980046
      ],
      [
        "▁engin",
        -10.304427150782292
      ],
      [
        "▁calıstıgı",
        -9.94825920655831
      ],
      [
        "▁takımını",
        -10.879974147510744
      ],
      [
        "▁lezzetsiz",
        -10.345544906096034
      ],
      [
        "▁salı",
        -8.068151753152783
      ],
      [
        "ington",
        -10.52312826869816
      ],
      [
        "so",
        -8.893916647833626
      ],
      [
        "▁dolar",
        -10.303909402179123
      ],
      [
        "▁fransız",
        -9.491996611680264
      ],
      [
        "▁disinda",
        -10.575538722966826
      ],
      [
        "▁da",
        -8.07797416663135
      ],
      [
        "▁viski",
        -10.521549351339207
      ],
      [
        "▁degil",
        -5.112904891209204
      ],
      [
        "▁orkestra",
        -10.817670414761404
      ],
      [
        "koy",
        -10.135637094859938
      ],
      [
        "▁beyin",
        -9.614648827334632
      ],
      [
        "ılmaz",
        -10.344287665033724
      ],
      [
        "▁ajans",
        -10.356244657853836
      ],
      [
        "▁hulya",
        -9.742519200178332
      ],
      [
        "\"",
        -3.89364669064185
      ],
      [
        "▁7.2",
        -10.324098996964956
      ],
      [
        "▁1500",
        -10.12598746051761
      ],
      [
        "eyim",
        -9.489608099143565
      ],
      [
        "▁yasına",
        -10.48973473730136
      ],
      [
        "▁bakın",
        -9.591348455598043
      ],
      [
        "▁ucu",
        -9.239929097601554
      ],
      [
        "▁havayolunu",
        -10.875122903312539
      ],
      [
        "gı",
        -7.236887884827285
      ],
      [
        "▁kalacak",
        -9.554888837464677
      ],
      [
        "▁oksur",
        -10.750976196127597
      ],
      [
        "▁tehlike",
        -9.400290741931798
      ],
      [
        "▁yatırımcı",
        -9.52880873466492
      ],
      [
        "▁airlines",
        -8.783020267119287
      ],
      [
        "40",
        -9.130324045984203
      ],
      [
        "▁rezervasyonu",
        -8.931588052743212
      ],
      [
        "lugunu",
        -9.145209917538182
      ],
      [
        "▁ogreti",
        -10.531422713564233
      ],
      [
        "▁ibm'in",
        -10.81776911871419
      ],
      [
        "▁ec",
        -10.285056378831984
      ],
      [
        "▁stres",
        -10.818008416120332
      ],
      [
        "▁ticaretin",
        -10.693271173258246
      ],
      [
        "▁turkce",
        -9.532487728376005
      ],
      [
        "▁sp",
        -9.415372051541251
      ],
      [
        "▁almayı",
        -10.272585630204368
      ],
      [
        "▁ileride",
        -10.417178041350896
      ],
      [
        "▁perakende",
        -9.93314329799678
      ],
      [
        "▁kredileri",
        -10.214002310724448
      ],
      [
        "▁basımız",
        -10.749154594025494
      ],
      [
        "lendi",
        -8.366460824349062
      ],
      [
        "▁kızgın",
        -9.953512455298664
      ],
      [
        "▁sut",
        -9.01353210423662
      ],
      [
        "▁personeller",
        -7.750870390488188
      ],
      [
        "▁damar",
        -9.900057270344899
      ],
      [
        "▁diyordu",
        -10.176130968675512
      ],
      [
        "▁acıklama",
        -8.798300271104129
      ],
      [
        "▁beklenti",
        -9.477002405746429
      ],
      [
        ".38",
        -10.174863679830818
      ],
      [
        "▁varlıklar",
        -10.061990981227206
      ],
      [
        "▁baglı",
        -8.591616895606606
      ],
      [
        "▁sesi",
        -8.899648365038345
      ],
      [
        "▁iyi",
        -5.909018511949251
      ],
      [
        "den",
        -5.571223649519611
      ],
      [
        "▁siyasal",
        -10.426266118861886
      ],
      [
        "nca",
        -7.4873843889171265
      ],
      [
        "ko",
        -8.571311392246667
      ],
      [
        "72",
        -10.467610741066034
      ],
      [
        "%9",
        -12.047781401844519
      ],
      [
        "lanacak",
        -9.990723319922578
      ],
      [
        "▁kıvılcım",
        -10.629680218482006
      ],
      [
        "▁basarili",
        -10.010998705806434
      ],
      [
        "▁kurtar",
        -9.920837763588805
      ],
      [
        "▁ger",
        -10.119515278619001
      ],
      [
        "2",
        -9.228689807849747
      ],
      [
        "▁vatan",
        -9.514780367708937
      ],
      [
        "▁so",
        -5.155031048800389
      ],
      [
        "y",
        -12.399764499659206
      ],
      [
        "liginden",
        -9.896018005005416
      ],
      [
        "▁genc",
        -7.837186618139454
      ],
      [
        "▁turizm",
        -10.753395061300672
      ],
      [
        "▁kimse",
        -7.5366357151794245
      ],
      [
        "▁gecirmek",
        -10.518849940430243
      ],
      [
        "▁kendimiz",
        -8.276308296546611
      ],
      [
        "▁alet",
        -9.90738877278785
      ],
      [
        "▁%2.",
        -13.027118981959273
      ],
      [
        "▁guverte",
        -10.574130129912112
      ],
      [
        "▁bildigi",
        -9.76956520392796
      ],
      [
        "▁yoksul",
        -10.10769218304311
      ],
      [
        "▁kupe",
        -10.437406448478713
      ],
      [
        "diler",
        -9.778211006158028
      ],
      [
        "▁kod",
        -10.6828646205787
      ],
      [
        "▁doner",
        -9.652276403089209
      ],
      [
        "gi",
        -11.011931744369868
      ],
      [
        "▁ekip",
        -9.982385879240516
      ],
      [
        "kendi",
        -9.171575624838027
      ],
      [
        "▁bilmem",
        -9.633129513754898
      ],
      [
        "▁pır",
        -9.196406829614833
      ],
      [
        "▁goremedi",
        -10.33532770550435
      ],
      [
        "▁keyifli",
        -10.406281502226218
      ],
      [
        "▁ahsap",
        -10.817690927110265
      ],
      [
        "▁bin",
        -9.27476798963231
      ],
      [
        "▁olmam",
        -10.87168545940772
      ],
      [
        "▁hatır",
        -9.15493606240933
      ],
      [
        "▁sonu",
        -9.437201778551483
      ],
      [
        "▁canlı",
        -9.342525527174425
      ],
      [
        "▁fi",
        -9.092872102471475
      ],
      [
        "▁okuyor",
        -10.340971564326098
      ],
      [
        "▁kapsamında",
        -10.425898343708521
      ],
      [
        "▁cek",
        -8.829456896109189
      ],
      [
        "▁ayakkabı",
        -9.356841840680072
      ],
      [
        "▁titiz",
        -10.378440222753397
      ],
      [
        "4.5",
        -9.340653624415177
      ],
      [
        "urdu",
        -9.717606266186605
      ],
      [
        "▁yasayan",
        -9.67544666570744
      ],
      [
        "55",
        -9.92364904046065
      ],
      [
        "▁degisir",
        -10.825712034077966
      ],
      [
        "ktor",
        -10.695187800248904
      ],
      [
        "▁oturmus",
        -9.708413061280883
      ],
      [
        "▁2.",
        -8.831592292554625
      ],
      [
        "▁tah",
        -9.572316273841153
      ],
      [
        "▁kullanan",
        -10.695716472284884
      ],
      [
        "5.7",
        -10.318971386421392
      ],
      [
        "▁s&p",
        -10.14206221092775
      ],
      [
        "di",
        -5.588519822715628
      ],
      [
        "▁futbol",
        -9.504951951866248
      ],
      [
        "▁muhur",
        -10.75307548417079
      ],
      [
        "▁felaket",
        -9.67428493513026
      ],
      [
        "ılacak",
        -9.628904532759458
      ],
      [
        "▁suclama",
        -9.745095257471615
      ],
      [
        "▁64",
        -10.361470440366226
      ],
      [
        "▁memuru",
        -10.613400430148817
      ],
      [
        "▁olacak",
        -7.858687050642194
      ],
      [
        "▁hakan",
        -10.1981690732023
      ],
      [
        "▁bilinme",
        -10.246493781068663
      ],
      [
        "▁juri",
        -10.424568147422017
      ],
      [
        "▁aksama",
        -9.736658950437878
      ],
      [
        "▁cevir",
        -9.606239295485876
      ],
      [
        "▁varmıs",
        -10.288945619800549
      ],
      [
        "li",
        -5.633429719442702
      ],
      [
        "kuru",
        -10.771693790698938
      ],
      [
        "▁programı",
        -9.268928782877792
      ],
      [
        "▁cikolata",
        -10.889099017549142
      ],
      [
        "[PAD]",
        0.0
      ],
      [
        "biri",
        -9.770469848347837
      ],
      [
        "▁ocak",
        -8.97620279041422
      ],
      [
        "▁satan",
        -10.082181311214152
      ],
      [
        "▁deve",
        -10.373577469696185
      ],
      [
        "▁buz",
        -8.963774533720654
      ],
      [
        "ogr",
        -6.481195157006846
      ],
      [
        "▁california'",
        -10.23027019971054
      ],
      [
        "▁tabii",
        -8.9767678336543
      ],
      [
        "▁duman",
        -9.310345361687908
      ],
      [
        "▁dow",
        -9.116876095554199
      ],
      [
        "▁ustun",
        -8.214745531544015
      ],
      [
        "la",
        -7.417516293723048
      ],
      [
        "▁ham",
        -8.842947577219558
      ],
      [
        "▁gelmedi",
        -9.531583000571326
      ],
      [
        "▁turkler",
        -9.952823545654244
      ],
      [
        "3.",
        -10.513810258441914
      ],
      [
        "▁peynir",
        -9.569293018721593
      ],
      [
        "ridge",
        -10.818101681603
      ],
      [
        "▁tarih",
        -8.639695258064329
      ],
      [
        "▁0.1",
        -9.205788647950405
      ],
      [
        ".7",
        -10.126140513131103
      ],
      [
        "198",
        -10.731416531976512
      ],
      [
        "▁yakindi",
        -10.332794461925218
      ],
      [
        "▁dururdu",
        -10.635351517175186
      ],
      [
        "▁yusuf",
        -10.041989651943911
      ],
      [
        "▁esas",
        -9.539209387960655
      ],
      [
        "▁ilgilen",
        -10.399708242569892
      ],
      [
        "▁hukum",
        -9.549629911703533
      ],
      [
        "▁mi",
        -6.260535099972343
      ],
      [
        "▁kasıgı",
        -9.458048296190785
      ],
      [
        "▁atma",
        -10.268571627014932
      ],
      [
        "6",
        -8.931480090504023
      ],
      [
        "▁yolda",
        -9.051518806004383
      ],
      [
        "▁soyler",
        -9.21441254282854
      ],
      [
        "▁diy",
        -9.0653246558342
      ],
      [
        "▁ceyreginde",
        -10.379179900836553
      ],
      [
        "▁kalan",
        -8.600638989255724
      ],
      [
        "▁fransa",
        -10.652944640428334
      ],
      [
        "▁bakan",
        -9.099586211149177
      ],
      [
        "▁elestiri",
        -9.595283460452633
      ],
      [
        "lis",
        -9.442908465387877
      ],
      [
        "▁erdi",
        -10.033377881257232
      ],
      [
        "▁gevse",
        -9.790692782588794
      ],
      [
        "ur",
        -7.472478974679346
      ],
      [
        "▁iyiydi",
        -6.435192016104289
      ],
      [
        "▁kaynaklana",
        -10.498160407508479
      ],
      [
        "▁ların",
        -10.358136211971258
      ],
      [
        "▁modern",
        -9.980461169773042
      ],
      [
        "▁diyen",
        -9.983923280052421
      ],
      [
        "▁sınav",
        -9.841399987129444
      ],
      [
        "▁gen",
        -10.243569775566758
      ],
      [
        "▁deney",
        -9.58522356082658
      ],
      [
        "▁vegas'",
        -9.242427447389609
      ],
      [
        "▁worth",
        -10.66013335947656
      ],
      [
        "▁idi",
        -9.143928234604786
      ],
      [
        "▁seferinde",
        -10.825933201879277
      ],
      [
        "▁nicin",
        -9.894754319412513
      ],
      [
        "▁edilmisti",
        -10.330412560997257
      ],
      [
        "▁fer",
        -9.147692933972674
      ],
      [
        "▁seri",
        -8.897499556392344
      ],
      [
        "bel",
        -9.679375237681453
      ],
      [
        "▁agacın",
        -10.197932262875625
      ],
      [
        "kaya",
        -10.436958962555948
      ],
      [
        "▁problem",
        -8.943412658198934
      ],
      [
        "▁sek",
        -9.91414496179247
      ],
      [
        "▁lık",
        -9.145996749068345
      ],
      [
        "2.1",
        -10.060658786717287
      ],
      [
        "▁kirec",
        -10.751037080852816
      ],
      [
        "▁rıhtım",
        -10.378419491107515
      ],
      [
        "▁igne",
        -9.742495696626506
      ],
      [
        "▁getirmis",
        -10.541847385195467
      ],
      [
        "▁evvel",
        -9.570184435141996
      ],
      [
        "▁iflas",
        -9.790690999352588
      ],
      [
        "▁kal",
        -8.18496156310032
      ],
      [
        "▁yasak",
        -9.401099244850752
      ],
      [
        "▁sos",
        -10.282245598550276
      ],
      [
        "▁olmasın",
        -10.603549542040858
      ],
      [
        "▁isteyen",
        -9.373651763207896
      ],
      [
        "▁diego",
        -10.685996356102553
      ],
      [
        ":",
        -5.200922476649725
      ],
      [
        "se",
        -7.02789380022905
      ],
      [
        "▁tepki",
        -9.325378959410557
      ],
      [
        "▁sebepler",
        -10.529813258826136
      ],
      [
        "▁burada",
        -8.05341677702537
      ],
      [
        "▁sak",
        -9.018013708079366
      ],
      [
        "s",
        -6.621907703193312
      ],
      [
        "▁girdi",
        -8.65418605878775
      ],
      [
        "▁doktor",
        -8.777423484441917
      ],
      [
        "68",
        -10.318719612166488
      ],
      [
        "besyuz",
        -10.872440776529665
      ],
      [
        "▁bahse",
        -9.836132089360692
      ],
      [
        "▁ti",
        -9.481672577664659
      ],
      [
        "|",
        -12.809526790838989
      ],
      [
        "▁gerceklesti",
        -9.69441562778483
      ],
      [
        "▁kapattı",
        -9.910192988218782
      ],
      [
        "▁bulunuyor",
        -9.42101400018856
      ],
      [
        "▁hala",
        -8.107481673687783
      ],
      [
        "▁mahkum",
        -9.86776631625643
      ],
      [
        "▁sovyet",
        -9.748733978394133
      ],
      [
        "▁sonbahar",
        -10.041988541584194
      ],
      [
        "▁francisco",
        -8.277894368976867
      ],
      [
        "ku",
        -7.404675337709749
      ],
      [
        "▁paralel",
        -10.629923478183134
      ],
      [
        "▁sıkıntı",
        -9.043554777971405
      ],
      [
        "▁galibiyet",
        -10.889099037427306
      ],
      [
        "▁gur",
        -9.298924860359286
      ],
      [
        "▁rutubet",
        -10.521493096036403
      ],
      [
        "▁fı",
        -10.30638076063471
      ],
      [
        "▁yumusa",
        -10.326136230714043
      ],
      [
        "▁tahvili",
        -10.204038288843881
      ],
      [
        "▁doviz",
        -9.867651823705854
      ],
      [
        "▁kendisini",
        -7.291834468436704
      ],
      [
        "▁%6.",
        -11.265292792325488
      ],
      [
        "▁kinde",
        -10.031918237920724
      ],
      [
        "▁dusunur",
        -9.687031387913255
      ],
      [
        "▁evladı",
        -10.666464219971106
      ],
      [
        "oglu",
        -8.931860420994026
      ],
      [
        "▁konfor",
        -10.169347676930265
      ],
      [
        "yse",
        -9.990082592136982
      ],
      [
        "▁mu",
        -6.543499151083323
      ],
      [
        "▁bunu",
        -6.098683502847974
      ],
      [
        "▁nedenle",
        -9.653806577926003
      ],
      [
        "▁usta",
        -9.092641557298165
      ],
      [
        "▁gorduk",
        -9.537040042881477
      ],
      [
        "▁vadesi",
        -10.300414384113378
      ],
      [
        "▁baglama",
        -10.526690348254187
      ],
      [
        "▁demokrasi",
        -9.980434515396931
      ],
      [
        "▁tencere",
        -10.041987637712467
      ],
      [
        "▁gobegi",
        -10.688695036219132
      ],
      [
        "ba",
        -7.496485207792673
      ],
      [
        "▁birlesi",
        -9.70484708536594
      ],
      [
        "▁yuksek",
        -7.504656461179853
      ],
      [
        "▁turun",
        -10.231635701695302
      ],
      [
        "▁ait",
        -7.503221732766854
      ],
      [
        "▁hacı",
        -10.049091893849848
      ],
      [
        "▁atesi",
        -10.296994498145734
      ],
      [
        "minal",
        -10.426863141536657
      ],
      [
        "▁od",
        -9.96511974480468
      ],
      [
        "▁dustugunu",
        -10.757181390822984
      ],
      [
        "ot",
        -9.148387677754453
      ],
      [
        "▁azalt",
        -9.809881030605352
      ],
      [
        "▁yıllar",
        -8.581705756809004
      ],
      [
        "▁cra",
        -10.462150726081852
      ],
      [
        "▁eri",
        -9.158867927055066
      ],
      [
        "▁dinle",
        -9.534509982818744
      ],
      [
        "▁ve",
        -8.574562353339964
      ],
      [
        "▁altmıs",
        -9.585953801299627
      ],
      [
        "'li",
        -9.747621430289097
      ],
      [
        "▁vurdu",
        -9.347790668773566
      ],
      [
        "mıslardı",
        -10.106575348375163
      ],
      [
        "ise",
        -9.285473386053635
      ],
      [
        "▁atı",
        -8.840323257575408
      ],
      [
        "▁disi",
        -10.464076972051974
      ],
      [
        "▁rezervasyonlar",
        -10.69546197960971
      ],
      [
        "man",
        -8.030706817078974
      ],
      [
        "▁isciler",
        -9.951691801738807
      ],
      [
        "▁agustos",
        -8.786841350423654
      ],
      [
        "▁un",
        -9.227054490661002
      ],
      [
        "▁biz",
        -5.694005228019038
      ],
      [
        "mont",
        -10.793871410804048
      ],
      [
        "▁imkan",
        -9.559128611877647
      ],
      [
        "▁munasebet",
        -10.334941230086258
      ],
      [
        "▁bankaları",
        -10.045092414883802
      ],
      [
        "▁15",
        -7.200442600775433
      ],
      [
        "▁bayan",
        -8.6895749865072
      ],
      [
        "atı",
        -11.610191654727192
      ],
      [
        "▁fis",
        -10.304956502095047
      ],
      [
        "▁ihsan",
        -10.62968040574615
      ],
      [
        "▁arama",
        -9.196621743326737
      ],
      [
        "▁analizciler",
        -10.25679244165962
      ],
      [
        "▁uzay",
        -9.674404410537944
      ],
      [
        "▁kosede",
        -10.220132024427514
      ],
      [
        "▁tayy",
        -10.633334731671113
      ],
      [
        "▁oyunlar",
        -10.246457254786547
      ],
      [
        "30",
        -12.083484989621075
      ],
      [
        "▁ydi",
        -6.934268810392527
      ],
      [
        "▁saglıgı",
        -10.112285514644743
      ],
      [
        "biz",
        -9.163017848330604
      ],
      [
        "▁kosullar",
        -9.948416328774051
      ],
      [
        "▁cumle",
        -9.389443455696956
      ],
      [
        "▁plak",
        -10.473201876989965
      ],
      [
        "▁ipotek",
        -9.766299505193459
      ],
      [
        "siz",
        -9.00394392008749
      ],
      [
        "▁atlanta'da",
        -7.885822903654595
      ],
      [
        "▁jersey",
        -10.378419577569089
      ],
      [
        "▁kul",
        -8.707391008709092
      ],
      [
        "1",
        -6.878332744407707
      ],
      [
        "▁malzemeleri",
        -10.420737120824322
      ],
      [
        "▁yazar",
        -8.395601005599557
      ],
      [
        "▁buyu",
        -8.98160465913005
      ],
      [
        "lenme",
        -8.542883970635284
      ],
      [
        "▁1.5",
        -8.706118280921128
      ],
      [
        "▁dirsek",
        -10.889138153825707
      ],
      [
        "▁herkeste",
        -9.96599783763588
      ],
      [
        "▁siparis",
        -9.34096688598571
      ],
      [
        "▁artırma",
        -9.789247485637954
      ],
      [
        "▁cesme",
        -10.178124993081246
      ],
      [
        "▁ymıs",
        -9.626106262333561
      ],
      [
        "▁1946",
        -10.893969732266738
      ],
      [
        "▁cirkin",
        -9.980436890355037
      ],
      [
        "im",
        -6.902083910411553
      ],
      [
        "▁abd'de",
        -9.908896846140225
      ],
      [
        "▁tepe",
        -9.147367953436568
      ],
      [
        "▁2004",
        -10.069273962779134
      ],
      [
        "abı",
        -9.268145227149795
      ],
      [
        "▁istikrar",
        -10.214813242133904
      ],
      [
        "eri",
        -8.593642937284123
      ],
      [
        "▁peki",
        -9.318725582865909
      ],
      [
        "dik",
        -8.427473749620827
      ],
      [
        "▁benzer",
        -8.515035103254636
      ],
      [
        "▁3.6",
        -9.569639768443997
      ],
      [
        "▁ihlal",
        -10.817670933999121
      ],
      [
        "▁karsıya",
        -9.90799742578657
      ],
      [
        "▁sozlerini",
        -10.422047786328767
      ],
      [
        "▁cevirdi",
        -9.825329316982218
      ],
      [
        "▁huzursuz",
        -10.81880273553708
      ],
      [
        "seni",
        -10.08042601038092
      ],
      [
        "hangi",
        -8.576513639657144
      ],
      [
        "▁calıs",
        -9.07074227769592
      ],
      [
        "▁a",
        -7.855699585449223
      ],
      [
        "▁tenha",
        -10.629815751887683
      ],
      [
        "▁ulkelerde",
        -10.453078881096362
      ],
      [
        "▁kestir",
        -10.39552076599492
      ],
      [
        "▁hukumeti",
        -9.949564073081254
      ],
      [
        "▁gerekli",
        -9.402985152208586
      ],
      [
        "20",
        -12.693313178038208
      ],
      [
        "▁gun",
        -6.835240945056745
      ],
      [
        "▁korkut",
        -10.512374293244097
      ],
      [
        "▁olum",
        -9.223376564229898
      ],
      [
        "▁tanıstı",
        -10.52187527361132
      ],
      [
        "▁kahkaha",
        -10.041987546194752
      ],
      [
        "▁kacır",
        -9.942346512043425
      ],
      [
        "▁raporları",
        -10.50817986088545
      ],
      [
        "▁insanın",
        -8.838001846268257
      ],
      [
        "▁1925",
        -10.711517892978723
      ],
      [
        "▁ab",
        -8.89719558732467
      ],
      [
        "▁ikna",
        -10.334965055749926
      ],
      [
        "▁baltimore",
        -9.323075684310687
      ],
      [
        "unc",
        -6.804290499659833
      ],
      [
        "▁tanım",
        -9.85846466811569
      ],
      [
        "3.",
        -10.328584705640354
      ],
      [
        "▁yetis",
        -9.299902151984837
      ],
      [
        "▁cumhuriyetciler",
        -10.687696846347388
      ],
      [
        "▁para",
        -6.986214088524685
      ],
      [
        "▁konya",
        -10.411479371163761
      ],
      [
        "▁zarif",
        -10.423992679759277
      ],
      [
        "'nde",
        -10.226628611626323
      ],
      [
        "▁korkma",
        -10.643356927172377
      ],
      [
        "▁550",
        -10.58675290347122
      ],
      [
        "▁olanakları",
        -9.919112317039945
      ],
      [
        "▁maske",
        -10.751325319345892
      ],
      [
        "▁girecek",
        -10.46823160728742
      ],
      [
        "▁performans",
        -8.419971538605795
      ],
      [
        "▁bakma",
        -9.76995591431664
      ],
      [
        "▁yemegi",
        -8.908655219575852
      ],
      [
        "is",
        -8.08027278259543
      ],
      [
        "▁kileri",
        -10.216885740216068
      ],
      [
        "▁musait",
        -8.872089894078236
      ],
      [
        "▁minneapolis'te",
        -10.165455948144837
      ],
      [
        "▁madde",
        -8.700368233834542
      ],
      [
        "▁bebegi",
        -10.521698464318035
      ],
      [
        "▁ister",
        -8.828299000246066
      ],
      [
        "bire",
        -9.213377729081706
      ],
      [
        "▁uzeri",
        -9.860933022561834
      ],
      [
        "▁eristi",
        -10.433774667020165
      ],
      [
        "▁olmasi",
        -8.730472405931298
      ],
      [
        "▁protesto",
        -10.33494124513413
      ],
      [
        "▁sıfır",
        -10.334941514174693
      ],
      [
        "▁sırrı",
        -10.698920463724763
      ],
      [
        "▁99.1",
        -10.582521126907109
      ],
      [
        "▁eda",
        -10.221654296311298
      ],
      [
        "▁kardesi",
        -9.976522397483322
      ],
      [
        "▁topu",
        -9.563939305689425
      ],
      [
        "▁parlamento",
        -10.42387413106705
      ],
      [
        "▁elbet",
        -9.116261975251655
      ],
      [
        "imizi",
        -9.682070878048389
      ],
      [
        "▁huy",
        -10.017799591358266
      ],
      [
        "▁ayrılma",
        -9.827017951128218
      ],
      [
        "▁tutun",
        -9.235838383823651
      ],
      [
        "▁leke",
        -10.293313477043908
      ],
      [
        "▁yerel",
        -9.17542927407035
      ],
      [
        "▁duzel",
        -10.595076108985463
      ],
      [
        "▁apartman",
        -10.107579717583228
      ],
      [
        "ikti",
        -10.450215035631732
      ],
      [
        "▁ingiltere",
        -10.684108362228669
      ],
      [
        "▁edemedi",
        -10.801896227350971
      ],
      [
        "indeki",
        -9.79796799021922
      ],
      [
        "ga",
        -7.533082573075651
      ],
      [
        "▁transfer",
        -10.574159561963215
      ],
      [
        "▁saat",
        -7.392454369201043
      ],
      [
        "▁cezası",
        -10.394126210774353
      ],
      [
        "▁hikaye",
        -9.031867986093049
      ],
      [
        "▁koylu",
        -9.782181785025077
      ],
      [
        "▁115",
        -10.738518260013485
      ],
      [
        "▁degisiklik",
        -9.865486535130223
      ],
      [
        "▁prenses",
        -10.47471408460131
      ],
      [
        "▁dısisleri",
        -10.521499687826772
      ],
      [
        "▁amerika",
        -9.490614450832283
      ],
      [
        "▁olabilir",
        -7.5531871630426295
      ],
      [
        "▁sars",
        -9.860116580465336
      ],
      [
        "▁toplulugu",
        -10.823840118496555
      ],
      [
        "▁ucreti",
        -8.32856114653678
      ],
      [
        "▁ri",
        -9.288622323122933
      ],
      [
        "▁ilerleme",
        -10.242543786586584
      ],
      [
        "▁merkezli",
        -9.561635731728469
      ],
      [
        "▁sesle",
        -10.074940086663648
      ],
      [
        "gun",
        -8.58428582924956
      ],
      [
        "▁ustlen",
        -10.103282271402703
      ],
      [
        "▁bomba",
        -10.439311525577292
      ],
      [
        "▁cogu",
        -7.787547373785652
      ],
      [
        "▁aktif",
        -9.195064616585446
      ],
      [
        "▁geriledi",
        -9.602159636646665
      ],
      [
        "▁bakır",
        -9.74173117577839
      ],
      [
        "lerini",
        -6.748887220649363
      ],
      [
        "▁kazanan",
        -10.017275392185455
      ],
      [
        "▁bogul",
        -10.682195477409612
      ],
      [
        "▁zil",
        -10.246790598539757
      ],
      [
        "▁olacagını",
        -9.063567740973012
      ],
      [
        "▁ko",
        -8.673237025563058
      ],
      [
        "▁elini",
        -9.102965542093251
      ],
      [
        "▁guclu",
        -8.48175590626456
      ],
      [
        "gımı",
        -9.93495463586023
      ],
      [
        "▁sunlar",
        -8.674979951815075
      ],
      [
        "meyecegi",
        -9.548666706195917
      ],
      [
        "hi",
        -10.540451875661907
      ],
      [
        "▁65",
        -10.266959732023034
      ],
      [
        "▁yap",
        -7.935552583685139
      ],
      [
        "▁sam",
        -9.296344944262952
      ],
      [
        "▁universite",
        -9.15241675256769
      ],
      [
        "▁ısık",
        -8.979547732515838
      ],
      [
        "▁ozellikleri",
        -10.04570327698796
      ],
      [
        "▁varlıgı",
        -9.990044071924384
      ],
      [
        "▁financial",
        -10.107578943766764
      ],
      [
        "▁lezzeti",
        -9.372958798891961
      ],
      [
        "tefe",
        -10.98931158454865
      ],
      [
        "▁istemez",
        -10.020349353363843
      ],
      [
        "▁oy",
        -8.647471597192121
      ],
      [
        "▁otelin",
        -8.286976753158143
      ],
      [
        "▁getirmek",
        -10.294679591797873
      ],
      [
        "▁balıkcı",
        -9.788525125028139
      ],
      [
        "▁230",
        -10.759579399336223
      ],
      [
        "▁temizlikte",
        -10.3839006612981
      ],
      [
        "&",
        -10.629677029181366
      ],
      [
        "▁calar",
        -10.262598564242571
      ],
      [
        "▁plaj",
        -9.45784178486685
      ],
      [
        "▁yapılıyor",
        -10.295215237758443
      ],
      [
        "▁annemi",
        -10.074388006821604
      ],
      [
        "ıyordu",
        -8.053457337080324
      ],
      [
        "▁seni",
        -10.504763413309448
      ],
      [
        "100",
        -9.795625293758011
      ],
      [
        "▁arkasında",
        -9.098992402684235
      ],
      [
        "▁kanada",
        -9.57030238917243
      ],
      [
        "▁5.",
        -10.465060953483375
      ],
      [
        "▁karısma",
        -10.5718148191434
      ],
      [
        "up",
        -7.6543374558540265
      ],
      [
        "▁aktar",
        -9.358861161567358
      ],
      [
        "▁semsiye",
        -10.889102035858901
      ],
      [
        "▁dunya",
        -7.4836056713235655
      ],
      [
        "▁inter",
        -10.524509400444892
      ],
      [
        "▁isleme",
        -9.867566809437815
      ],
      [
        "▁ihtilaf",
        -10.88910496362861
      ],
      [
        "▁hayvanlar",
        -10.365196406753459
      ],
      [
        "▁1980",
        -9.541001181325427
      ],
      [
        "▁savur",
        -9.996884130717943
      ],
      [
        "▁kendi",
        -5.6647228416722895
      ],
      [
        "▁konut",
        -9.406111897412245
      ],
      [
        "▁kalkıs",
        -9.316099678922757
      ],
      [
        "▁sasırtıcı",
        -10.334945260841517
      ],
      [
        "▁yetmis",
        -9.21282420643573
      ],
      [
        "▁musun",
        -8.285459285682773
      ],
      [
        "▁q",
        -10.006129207631517
      ],
      [
        "▁isaret",
        -8.954070713619284
      ],
      [
        "78",
        -10.462843521678048
      ],
      [
        "▁ayak",
        -8.658081985692505
      ],
      [
        "▁bahsediyor",
        -10.574500530030969
      ],
      [
        "▁izledi",
        -10.145654448933684
      ],
      [
        "▁saglama",
        -10.234434300499494
      ],
      [
        "▁heyeti",
        -10.378511145544149
      ],
      [
        "▁4.8",
        -10.58612821686715
      ],
      [
        "▁imkanlari",
        -8.986770943484926
      ],
      [
        "▁kim",
        -6.756681330532899
      ],
      [
        "madık",
        -10.276113832410193
      ],
      [
        "▁dc'",
        -9.182530752669207
      ],
      [
        "▁altın",
        -8.051861268165116
      ],
      [
        "▁vucut",
        -9.95102347132985
      ],
      [
        "▁yun",
        -9.993083304682338
      ],
      [
        "▁18.6",
        -10.657807412583528
      ],
      [
        "▁moody'",
        -10.382561759047338
      ],
      [
        "▁kansas",
        -8.805268515758064
      ],
      [
        "▁alabilir",
        -9.260914237717966
      ],
      [
        "▁baskanlıgı",
        -10.355634601645576
      ],
      [
        "milyar",
        -9.22111722009215
      ],
      [
        "▁bildik",
        -10.478598299402982
      ],
      [
        "86",
        -12.153008031101203
      ],
      [
        "▁belirgin",
        -10.763053101962182
      ],
      [
        "▁ille",
        -10.556951441740917
      ],
      [
        "▁col",
        -9.862291427009412
      ],
      [
        "▁250",
        -9.778090121119606
      ],
      [
        "▁oturum",
        -10.2872046972689
      ],
      [
        "▁patlat",
        -10.52409754506975
      ],
      [
        "▁intihar",
        -10.471494412312707
      ],
      [
        "▁12:",
        -10.56249450003897
      ],
      [
        "▁yılın",
        -8.890631012186802
      ],
      [
        "ment",
        -10.197920830727902
      ],
      [
        "llah",
        -9.797189845147066
      ],
      [
        "▁soyledi",
        -6.736133350445195
      ],
      [
        "▁lisan",
        -10.746541108190552
      ],
      [
        "▁ferah",
        -10.25361840151969
      ],
      [
        "ster",
        -10.103537862241462
      ],
      [
        "▁oteki",
        -10.09341093468947
      ],
      [
        "22.",
        -10.97819844542476
      ],
      [
        "▁civ",
        -10.740275110862505
      ],
      [
        "▁oldurdu",
        -10.867519125400138
      ],
      [
        "la",
        -5.938858957973388
      ],
      [
        "'ta",
        -8.779917119882423
      ],
      [
        "'a",
        -7.888843243050994
      ],
      [
        ".8",
        -9.85732708364736
      ],
      [
        "▁deli",
        -8.858108322032738
      ],
      [
        "▁sessiz",
        -8.774020766584528
      ],
      [
        "▁alınma",
        -10.315148839248035
      ],
      [
        "▁nite",
        -9.90259573274948
      ],
      [
        "▁j",
        -9.262677194622775
      ],
      [
        "▁sendika",
        -9.424086349777436
      ],
      [
        "▁seyirci",
        -9.92276111848846
      ],
      [
        "▁adamcagız",
        -10.754215920425732
      ],
      [
        "▁bekleme",
        -9.249453051468862
      ],
      [
        "communications",
        -10.688503747893646
      ],
      [
        "▁edecegim",
        -10.353995229658567
      ],
      [
        "▁onumuzde",
        -8.511868125094374
      ],
      [
        "▁temsil",
        -9.621943942925537
      ],
      [
        "▁58",
        -10.166226496023125
      ],
      [
        "▁baltimore'",
        -7.90879386039956
      ],
      [
        "▁kutusu",
        -10.813676697475351
      ],
      [
        "du",
        -9.107384677214492
      ],
      [
        "▁bat",
        -9.656275521625805
      ],
      [
        "▁yu",
        -9.941940758310539
      ],
      [
        "ril",
        -10.35952688725795
      ],
      [
        "▁yolculuk",
        -9.743522578239505
      ],
      [
        "arak",
        -5.630012307287408
      ],
      [
        "▁ellerinde",
        -9.502788420232609
      ],
      [
        "▁continental",
        -8.912160315216788
      ],
      [
        "▁degerlendir",
        -10.041886126649711
      ],
      [
        ".5",
        -9.430731754711669
      ],
      [
        "▁konser",
        -9.922713927050758
      ],
      [
        "▁ortak",
        -8.87084154342686
      ],
      [
        "▁aydınlat",
        -10.631512412456726
      ],
      [
        "▁alıyordu",
        -10.397157346796032
      ],
      [
        "on'un",
        -10.010007994208614
      ],
      [
        "▁katil",
        -9.799372381655974
      ],
      [
        "▁denver'",
        -7.7624886800322415
      ],
      [
        "iz",
        -7.724972496175176
      ],
      [
        "▁times",
        -10.338950815941821
      ],
      [
        "▁dolandırıcı",
        -10.52149346484195
      ],
      [
        "▁7.8",
        -10.09782097110945
      ],
      [
        "f",
        -9.763506623770068
      ],
      [
        "ser",
        -9.78742225093195
      ],
      [
        "▁kırdı",
        -10.551361536537001
      ],
      [
        "ane",
        -10.112659403639148
      ],
      [
        "▁tuketici",
        -9.236450630331257
      ],
      [
        "▁herif",
        -9.653121085323196
      ],
      [
        "va",
        -8.127192787134325
      ],
      [
        "▁lig",
        -10.476150793466715
      ],
      [
        "▁kurumlar",
        -10.286078678069446
      ],
      [
        "31",
        -10.285071516838899
      ],
      [
        "mis",
        -9.010241858862784
      ],
      [
        "▁yol",
        -7.717127975871772
      ],
      [
        "▁muhak",
        -10.424389911111502
      ],
      [
        "▁mısın",
        -9.040550319257685
      ],
      [
        "▁odeme",
        -8.548949071382381
      ],
      [
        "ledigi",
        -9.604448424316566
      ],
      [
        "▁gelistir",
        -9.566865025541297
      ],
      [
        "▁konak",
        -10.012071651034322
      ],
      [
        "burg",
        -10.596632624671123
      ],
      [
        "▁vurmus",
        -10.652291954431535
      ],
      [
        "▁tap",
        -10.127345740396265
      ],
      [
        "▁yasayı",
        -10.509529135608275
      ],
      [
        "▁aralık'ta",
        -10.074789499517436
      ],
      [
        "pır",
        -10.285936051152301
      ],
      [
        "▁uretim",
        -9.14537524073146
      ],
      [
        "▁basamak",
        -10.718501114929335
      ],
      [
        "▁bolum",
        -9.200070459549064
      ],
      [
        "sek",
        -9.754123511426966
      ],
      [
        "▁bilmiyoru",
        -9.132831922780783
      ],
      [
        "▁belirli",
        -9.529318704311779
      ],
      [
        "▁net",
        -8.719242589673696
      ],
      [
        "▁deger",
        -8.293520125200295
      ],
      [
        "▁etmedi",
        -9.279384917044208
      ],
      [
        "▁anahtar",
        -10.214813992222396
      ],
      [
        "▁odedigim",
        -8.639839272761977
      ],
      [
        "▁verin",
        -9.46195110732942
      ],
      [
        "▁sen",
        -9.301930603177881
      ],
      [
        "▁isleyen",
        -10.822151502860178
      ],
      [
        "▁yudum",
        -10.215316115597576
      ],
      [
        "lmaz",
        -9.522556550844193
      ],
      [
        "▁hali",
        -8.638435899109792
      ],
      [
        "▁bulmustu",
        -10.589882650383219
      ],
      [
        "▁reis",
        -10.567193806890094
      ],
      [
        "▁ben",
        -8.405175311059688
      ],
      [
        "▁oldu",
        -6.635919377322157
      ],
      [
        "▁olanlar",
        -9.85903108694233
      ],
      [
        "▁yıldız",
        -9.706286637125494
      ],
      [
        "▁verici",
        -9.572130530490364
      ],
      [
        "▁dıs",
        -10.130262604639288
      ],
      [
        "▁indianapolis'te",
        -9.370243856601704
      ],
      [
        "▁fırın",
        -9.911961109206139
      ],
      [
        "▁bayagı",
        -10.64438788555232
      ],
      [
        "▁tiyatro",
        -9.162971041738778
      ],
      [
        "▁olan",
        -5.964963244915506
      ],
      [
        "▁pat",
        -9.194816376360079
      ],
      [
        "▁olabil",
        -10.121792770529392
      ],
      [
        "▁belirt",
        -9.85735771145453
      ],
      [
        "▁konus",
        -9.211687632516936
      ],
      [
        "▁pek",
        -7.458171528806968
      ],
      [
        "kendini",
        -10.382347996438032
      ],
      [
        "ası",
        -11.234917962788039
      ],
      [
        "ınca",
        -8.92416291978083
      ],
      [
        "nc",
        -8.861003512036103
      ],
      [
        "▁serbet",
        -10.817915207743965
      ],
      [
        "▁21",
        -10.531831470106791
      ],
      [
        "▁kaldırıl",
        -10.03492295747512
      ],
      [
        "▁hamal",
        -10.437363755110553
      ],
      [
        "▁per",
        -9.452812924922704
      ],
      [
        "▁ozgu",
        -9.873220434222974
      ],
      [
        "▁actı",
        -8.56896487394787
      ],
      [
        "▁asagıdaki",
        -10.530220651266983
      ],
      [
        "▁tu",
        -8.589763158792204
      ],
      [
        "▁gonderil",
        -9.84926666680548
      ],
      [
        "▁zam",
        -10.308530091237074
      ],
      [
        "▁noel",
        -10.819612522370202
      ],
      [
        "▁no",
        -9.471283081887762
      ],
      [
        "▁yolunu",
        -9.729828385780673
      ],
      [
        "▁acımasız",
        -10.817703804174739
      ],
      [
        "▁belirsiz",
        -9.748206993898751
      ],
      [
        "▁gorustu",
        -9.495769878240559
      ],
      [
        "▁iktisa",
        -10.334944650119564
      ],
      [
        "▁hong",
        -9.894711925927309
      ],
      [
        "▁kimligi",
        -10.477534742772681
      ],
      [
        "▁d",
        -6.165377115707738
      ],
      [
        "▁gonderme",
        -10.599137880028113
      ],
      [
        "▁yeni",
        -6.426881078787229
      ],
      [
        "makta",
        -8.677596330740077
      ],
      [
        "lamıstı",
        -9.949457895877433
      ],
      [
        "▁kop",
        -10.09943343422973
      ],
      [
        "▁insanoglu",
        -10.754724459120874
      ],
      [
        "▁insanların",
        -8.898950022553798
      ],
      [
        "▁bolgede",
        -10.01035014844293
      ],
      [
        "▁kır",
        -8.170173745372445
      ],
      [
        "▁%",
        -11.674862837859802
      ],
      [
        "▁arada",
        -8.441554164011144
      ],
      [
        "▁satım",
        -8.866417018735614
      ],
      [
        "▁once",
        -5.94700837285271
      ],
      [
        "▁beklemiyor",
        -10.81914006312915
      ],
      [
        "▁bak",
        -7.654822538151131
      ],
      [
        "▁ajansı",
        -10.40109939247971
      ],
      [
        "▁fiyatlar",
        -8.995206428544131
      ],
      [
        "▁sukur",
        -10.751251230857829
      ],
      [
        "▁hac",
        -10.38912123116122
      ],
      [
        "▁aksamı",
        -9.25142669431968
      ],
      [
        "ma",
        -8.868442509925302
      ],
      [
        "▁karsiligi",
        -9.025523657474125
      ],
      [
        "ikinci",
        -10.400159785533214
      ],
      [
        "▁kaya",
        -9.155999967898204
      ],
      [
        "▁birbirlerin",
        -8.356805554692865
      ],
      [
        "uk",
        -8.894509282745897
      ],
      [
        "▁hamle",
        -9.347628536717078
      ],
      [
        "▁duyguları",
        -10.188133589922904
      ],
      [
        "▁tutu",
        -9.26012974723983
      ],
      [
        "▁ucte",
        -10.496238531617946
      ],
      [
        "▁sacları",
        -9.340443041487667
      ],
      [
        "▁katildi",
        -9.913050761950933
      ],
      [
        "'",
        -9.468205875807456
      ],
      [
        "yı",
        -10.870253784654494
      ],
      [
        "▁kapsa",
        -10.03031615698762
      ],
      [
        "▁uyan",
        -9.595543893804168
      ],
      [
        "▁kesti",
        -9.763395312664379
      ],
      [
        "▁22.",
        -9.951591424162933
      ],
      [
        "▁erkegi",
        -10.393137559408006
      ],
      [
        "▁haziran'da",
        -9.724899502437088
      ],
      [
        "1.5",
        -10.363340149990353
      ],
      [
        "▁zeytin",
        -9.979783645956768
      ],
      [
        "▁durur",
        -10.043581228598189
      ],
      [
        "▁gunduz",
        -9.476172541412529
      ],
      [
        "▁cit",
        -10.597675959549855
      ],
      [
        "cok",
        -7.294857567940702
      ],
      [
        "▁sesleri",
        -9.710011217357344
      ],
      [
        "▁beach'",
        -10.052808639417137
      ],
      [
        "▁namaz",
        -10.1438636075837
      ],
      [
        "m",
        -5.017397402025318
      ],
      [
        "▁sahil",
        -10.139925319846721
      ],
      [
        "bo",
        -8.688794204068145
      ],
      [
        "▁yasar",
        -9.696669059605235
      ],
      [
        "▁il",
        -8.955189206224343
      ],
      [
        "dum",
        -10.559202719587336
      ],
      [
        "be",
        -7.837862904171659
      ],
      [
        "▁istanbul",
        -9.173459040666376
      ],
      [
        "usuyor",
        -10.381692498455653
      ],
      [
        "ne",
        -6.394105493560109
      ],
      [
        "2",
        -6.4595835472024214
      ],
      [
        "▁biten",
        -10.26405376195078
      ],
      [
        "▁kaldıgı",
        -9.748136683210614
      ],
      [
        "▁diger",
        -7.392545940170629
      ],
      [
        "▁curu",
        -10.199987910919916
      ],
      [
        "asyonu",
        -10.212487660643832
      ],
      [
        "lıkla",
        -9.185427695771448
      ],
      [
        "▁kar",
        -7.637593238823415
      ],
      [
        "▁beraber",
        -8.35880103338355
      ],
      [
        "▁seattle'de",
        -10.340182354042929
      ],
      [
        "▁emri",
        -10.301603840723665
      ],
      [
        "▁oneri",
        -9.539394755128818
      ],
      [
        "▁yigit",
        -10.817671180152827
      ],
      [
        "▁dogru",
        -7.80095633496965
      ],
      [
        "23",
        -9.967191016733029
      ],
      [
        "▁kara",
        -7.856395217059061
      ],
      [
        "▁gorece",
        -10.308668010685818
      ],
      [
        "ciler",
        -8.905582585661536
      ],
      [
        "▁yardımcısı",
        -9.157048088323332
      ],
      [
        "▁vermedi",
        -9.919690656347914
      ],
      [
        "71",
        -10.766396853589342
      ],
      [
        "▁fa",
        -9.063505116176476
      ],
      [
        "▁elma",
        -9.748590288647591
      ],
      [
        "▁kudret",
        -10.889099979118894
      ],
      [
        "▁evini",
        -10.606082670026517
      ],
      [
        "▁cift",
        -8.544572520266481
      ],
      [
        "▁istiyoru",
        -6.77510849521936
      ],
      [
        "▁297",
        -10.906706760062976
      ],
      [
        "▁2.9",
        -10.397616535545438
      ],
      [
        "▁satısı",
        -9.498582749706937
      ],
      [
        "▁verim",
        -9.605587064701869
      ],
      [
        "▁toplantıda",
        -10.124235562978487
      ],
      [
        "▁yaklası",
        -7.751527077944114
      ],
      [
        "▁reddetti",
        -8.99777880961688
      ],
      [
        "▁savası",
        -9.427076435444619
      ],
      [
        "▁herkes",
        -6.889554463084344
      ],
      [
        "▁yardımcı",
        -8.833802871367839
      ],
      [
        "meyen",
        -9.107896051054789
      ],
      [
        ".2",
        -10.724523533295079
      ],
      [
        "▁normal",
        -9.186032657850276
      ],
      [
        "bir",
        -5.321339535278412
      ],
      [
        "so",
        -9.259866686136418
      ],
      [
        "▁yarattı",
        -9.903995880697027
      ],
      [
        "▁adı",
        -8.703099848130025
      ],
      [
        "▁yagmur",
        -9.167891534018196
      ],
      [
        "▁nitelik",
        -10.350150609545175
      ],
      [
        "lugun",
        -8.897834233187746
      ],
      [
        "▁ho",
        -9.238355166857804
      ],
      [
        "▁miras",
        -9.981934014457547
      ],
      [
        "▁kıl",
        -8.8938852485703
      ],
      [
        "▁ihti",
        -10.573097856618583
      ],
      [
        "▁tırmandı",
        -10.817672418359862
      ],
      [
        "▁hos",
        -8.823651827049636
      ],
      [
        "sindeki",
        -10.202120375223858
      ],
      [
        "▁kusagı",
        -10.575815112007042
      ],
      [
        "▁suphe",
        -9.456993716447535
      ],
      [
        "▁%7.5",
        -11.120962033768349
      ],
      [
        "▁daha",
        -5.742934854267505
      ],
      [
        "niz",
        -10.482459069296329
      ],
      [
        "▁kok",
        -8.956844432691149
      ],
      [
        "▁kendinde",
        -9.477142414608815
      ],
      [
        "▁sepet",
        -9.980447050913646
      ],
      [
        "▁vardi",
        -7.968382493571335
      ],
      [
        "▁bin",
        -6.8178877110926726
      ],
      [
        "▁beraber",
        -8.975675134427995
      ],
      [
        "▁oyuncular",
        -10.114788603181687
      ],
      [
        "▁1.3",
        -8.686349043806366
      ],
      [
        "▁degistir",
        -8.935279551181498
      ],
      [
        "ugru",
        -10.426916467258927
      ],
      [
        "▁kısmı",
        -9.343759976343765
      ],
      [
        "▁profesor",
        -10.253275531518062
      ],
      [
        "▁geldigini",
        -10.030610023599962
      ],
      [
        "▁karıstırın",
        -10.763735886925135
      ],
      [
        "▁mı",
        -11.773248092011569
      ],
      [
        "▁koymak",
        -10.449641319996246
      ],
      [
        "▁bulanık",
        -10.629838533996681
      ],
      [
        "▁fıstık",
        -10.88909899116756
      ],
      [
        "▁kurulan",
        -10.281288516542855
      ],
      [
        "▁gordugum",
        -10.008304685714926
      ],
      [
        "▁bu",
        -3.220688816836356
      ],
      [
        "▁olu",
        -9.465845653525228
      ],
      [
        "▁cereyan",
        -10.751004558343082
      ],
      [
        "▁donem",
        -9.095364253145213
      ],
      [
        "eden",
        -8.921348628135153
      ],
      [
        "▁oyuncak",
        -10.254053099730768
      ],
      [
        "an'ın",
        -9.846706222218087
      ],
      [
        "▁dikkat",
        -8.491831196155818
      ],
      [
        "▁simsek",
        -10.817903602717434
      ],
      [
        "▁gide",
        -9.975990310059084
      ],
      [
        "top",
        -10.233033928735768
      ],
      [
        "▁yolu",
        -8.619671921373826
      ],
      [
        "▁lacivert",
        -10.334941241658452
      ],
      [
        "▁tutuyor",
        -9.936262154474612
      ],
      [
        "▁bazi",
        -8.434375528301851
      ],
      [
        "▁hesab",
        -10.571782717325185
      ],
      [
        "abiliyor",
        -9.599090175810002
      ],
      [
        "▁katılan",
        -10.576473342575525
      ],
      [
        "▁cocuklar",
        -8.125245180682764
      ],
      [
        "▁skandal",
        -10.29327504410159
      ],
      [
        "ını",
        -9.93219484581724
      ],
      [
        "▁opsiyon",
        -10.142145921624996
      ],
      [
        "butun",
        -10.250260120426047
      ],
      [
        "▁sistemi",
        -9.276786234947764
      ],
      [
        "▁kopmus",
        -10.837893138824802
      ],
      [
        "▁yayım",
        -10.360768890028101
      ],
      [
        "▁282",
        -10.784349193443067
      ],
      [
        "▁kosar",
        -10.383875247161187
      ],
      [
        "▁mat",
        -9.490165032097224
      ],
      [
        "▁mccaw",
        -10.889101287252059
      ],
      [
        "ig",
        -9.95917323886169
      ],
      [
        "▁acıg",
        -10.880964474746827
      ],
      [
        "▁art",
        -7.801558788281898
      ],
      [
        "▁gu",
        -8.98186439454191
      ],
      [
        "▁yet",
        -9.351671274465284
      ],
      [
        "▁'",
        -9.107607116574506
      ],
      [
        "2.5",
        -9.05423783593148
      ],
      [
        ".6",
        -9.813883379647569
      ],
      [
        "il",
        -7.519181067223513
      ],
      [
        "▁73",
        -10.024545959191837
      ],
      [
        "▁kisilerin",
        -10.44469826284996
      ],
      [
        "e",
        -3.49719760532998
      ],
      [
        "ıyorlar",
        -9.31656897407343
      ],
      [
        "▁kuvvetleri",
        -10.11870346292676
      ],
      [
        "mazsa",
        -10.074055953987413
      ],
      [
        "▁meksika",
        -10.521493471264254
      ],
      [
        "▁durumunda",
        -9.901560176698641
      ],
      [
        "▁defa",
        -8.547178199142845
      ],
      [
        "▁mektep",
        -10.214832887427463
      ],
      [
        "4",
        -9.5754158912283
      ],
      [
        "▁1989-1",
        -12.00426588133606
      ],
      [
        "▁tum",
        -9.914691614303637
      ],
      [
        "▁olgu",
        -9.648678895414585
      ],
      [
        "▁yedi",
        -7.304109590298603
      ],
      [
        "unla",
        -8.358546932063435
      ],
      [
        "mus",
        -7.420619994540678
      ],
      [
        "▁uye",
        -9.234121624607901
      ],
      [
        "▁istedigini",
        -9.90379601493036
      ],
      [
        "▁philadelphia",
        -9.149598232259443
      ],
      [
        "▁1936",
        -10.890813215424249
      ],
      [
        "▁garip",
        -9.440745476469514
      ],
      [
        "▁2001",
        -10.541663483046875
      ],
      [
        "▁esna",
        -9.952972793890764
      ],
      [
        "▁nereler",
        -10.327109737456745
      ],
      [
        "▁davası",
        -10.178020772275506
      ],
      [
        "at",
        -6.734542760195388
      ],
      [
        "meyecegini",
        -10.15262871165649
      ],
      [
        "2.2",
        -10.75475064867124
      ],
      [
        "▁konusan",
        -10.531713804098919
      ],
      [
        "▁catısma",
        -10.378635980300595
      ],
      [
        "karsı",
        -9.963012849439925
      ],
      [
        "▁cuma",
        -8.052197242658567
      ],
      [
        "▁restoran",
        -9.457763387945466
      ],
      [
        "larımız",
        -9.020294738849586
      ],
      [
        "▁isvec",
        -10.688513503069123
      ],
      [
        "▁boya",
        -8.977511033233196
      ],
      [
        "▁124",
        -10.122175096116324
      ],
      [
        "▁rock",
        -10.472406200083395
      ],
      [
        "30.1",
        -11.017175497580483
      ],
      [
        "ecek",
        -7.592353467940874
      ],
      [
        "▁gorebilir",
        -10.691278094119102
      ],
      [
        "ol",
        -8.338294193914068
      ],
      [
        "▁acenta",
        -10.629735486346773
      ],
      [
        "▁musteriler",
        -9.73155343585614
      ],
      [
        "▁cekilme",
        -9.93663916960401
      ],
      [
        "▁1.05",
        -10.674560221169152
      ],
      [
        "▁telefonu",
        -10.129268276707757
      ],
      [
        "▁girmek",
        -10.271283640356339
      ],
      [
        "▁konumunu",
        -9.959548461450899
      ],
      [
        "ın",
        -6.547622493002226
      ],
      [
        "▁basarısız",
        -9.90836686087216
      ],
      [
        "▁yaklasimi",
        -9.742646416352425
      ],
      [
        "▁rumeli",
        -10.81804029036435
      ],
      [
        "▁di",
        -8.648081907744192
      ],
      [
        "▁seviyesinde",
        -9.30337169358081
      ],
      [
        "▁deniyor",
        -10.743516205124315
      ],
      [
        "▁rakı",
        -9.653529603467677
      ],
      [
        "▁civarında",
        -9.442544381312947
      ],
      [
        "▁aydın",
        -9.651277282306598
      ],
      [
        "▁gormustu",
        -10.505041367354632
      ],
      [
        "▁dord",
        -10.549929503478227
      ],
      [
        "▁baskan",
        -8.181142529676604
      ],
      [
        "ler",
        -5.108238647768191
      ],
      [
        "▁davran",
        -9.12223385487769
      ],
      [
        "▁gunun",
        -9.901722472109352
      ],
      [
        "▁kılıc",
        -9.872095832460982
      ],
      [
        "▁dinler",
        -10.514454134177504
      ],
      [
        "▁verebilir",
        -10.519139705624173
      ],
      [
        "▁uzum",
        -10.087896044198597
      ],
      [
        "▁kızları",
        -10.370735487399969
      ],
      [
        "▁farklılık",
        -10.281199007283197
      ],
      [
        "▁60",
        -8.47541441656007
      ],
      [
        "▁senaryo",
        -10.293274633665792
      ],
      [
        "labilir",
        -10.43509528384356
      ],
      [
        "▁bri",
        -10.402374073509796
      ],
      [
        "▁inci",
        -9.970154869232992
      ],
      [
        "▁gerektigin",
        -8.99519644236233
      ],
      [
        "▁karısmıs",
        -10.784806954312874
      ],
      [
        "5",
        -8.953289345156671
      ],
      [
        "▁emlak",
        -10.424580423905445
      ],
      [
        "▁francisco'",
        -7.255288254347213
      ],
      [
        "▁tımar",
        -10.889113311331771
      ],
      [
        "▁hazırlana",
        -10.57068533800631
      ],
      [
        "ize",
        -9.091640657655383
      ],
      [
        "▁kategori",
        -10.293274583754766
      ],
      [
        "▁guvenlik",
        -9.35572223558346
      ],
      [
        "▁seyin",
        -9.706052200162384
      ],
      [
        "▁ler",
        -9.237594244454714
      ],
      [
        "▁yiyecek",
        -8.615930886079994
      ],
      [
        "▁01:",
        -10.887699327039211
      ],
      [
        "▁kez",
        -8.14507382326915
      ],
      [
        "▁adam",
        -7.315622935318724
      ],
      [
        "▁konularda",
        -10.537847894359965
      ],
      [
        "▁gorunmuyor",
        -10.523372966368518
      ],
      [
        "▁parla",
        -10.23917024628958
      ],
      [
        "▁ihracları",
        -10.559673784449412
      ],
      [
        "▁herkes",
        -8.48188098120135
      ],
      [
        "▁renkli",
        -9.445794053532982
      ],
      [
        "▁miydi",
        -8.422154298711042
      ],
      [
        "'y",
        -7.852321780930089
      ],
      [
        "▁sordu",
        -8.847382658038043
      ],
      [
        "▁cıkarır",
        -10.630779633973962
      ],
      [
        "san",
        -8.617914690386772
      ],
      [
        "siniz",
        -8.269325570133322
      ],
      [
        "▁1.7",
        -8.76034141064823
      ],
      [
        "ler",
        -8.561113245009482
      ],
      [
        "▁dikkatli",
        -10.235471451929225
      ],
      [
        "▁saha",
        -9.279352837880296
      ],
      [
        "▁chi",
        -10.477500798032619
      ],
      [
        "▁devri",
        -9.357985217337465
      ],
      [
        "▁ice",
        -10.155598817645918
      ],
      [
        "▁borsası'nda",
        -9.815934073827352
      ],
      [
        "▁vakit",
        -9.167902719476626
      ],
      [
        "iyat",
        -10.651912295463974
      ],
      [
        "▁enflasyon",
        -9.389362440107286
      ],
      [
        "▁stok",
        -9.908005054215836
      ],
      [
        "ben",
        -8.122680783913847
      ],
      [
        "▁beygir",
        -10.818576353553347
      ],
      [
        "▁teknoloji",
        -8.98667040747774
      ],
      [
        "oksa",
        -8.161319445537565
      ],
      [
        "▁tık",
        -9.434374813701297
      ],
      [
        "▁sirketini",
        -10.626496852967536
      ],
      [
        "▁dekorasyon",
        -10.384942862433586
      ],
      [
        "▁begeni",
        -10.63151807054287
      ],
      [
        "▁ilce",
        -9.847131625118784
      ],
      [
        "▁depo",
        -9.815728726472877
      ],
      [
        "▁gecis",
        -10.030973110532997
      ],
      [
        "▁yaklas",
        -10.009612221763133
      ],
      [
        "▁yo",
        -9.63867380416794
      ],
      [
        "▁tamamladı",
        -10.117932586704928
      ],
      [
        "▁gercekles",
        -9.419393135568615
      ],
      [
        "▁giy",
        -9.196094710905163
      ],
      [
        "kca",
        -8.414062765520764
      ],
      [
        "▁kaydı",
        -9.866094862577109
      ],
      [
        "▁3/4'",
        -10.688503764642089
      ],
      [
        "▁suruyor",
        -9.799307338310534
      ],
      [
        "▁400",
        -9.513158611518943
      ],
      [
        "lastı",
        -8.551164395583438
      ],
      [
        "▁kullandi",
        -10.220455320152572
      ],
      [
        "▁%10",
        -10.750026030658061
      ],
      [
        "▁sehri",
        -10.041593667341639
      ],
      [
        "▁degistirme",
        -10.454012445672312
      ],
      [
        "gimiz",
        -8.765037967170969
      ],
      [
        "▁kira",
        -9.149063254655854
      ],
      [
        "▁oakland",
        -9.32127092210493
      ],
      [
        "▁ası",
        -9.658539896004044
      ],
      [
        "▁vasat",
        -10.37862005300899
      ],
      [
        "▁beklenen",
        -9.769325079244506
      ],
      [
        "▁kadar",
        -4.58156761453913
      ],
      [
        "lesti",
        -8.955120118386894
      ],
      [
        "▁yi",
        -9.990655862087861
      ],
      [
        "▁kemal",
        -9.024812576087424
      ],
      [
        "▁oyunun",
        -10.001635489252514
      ],
      [
        "amıyor",
        -9.501679755688942
      ],
      [
        "▁karın",
        -9.783425189487756
      ],
      [
        "▁oturu",
        -9.807040070785607
      ],
      [
        "▁oluyor",
        -8.287654319757108
      ],
      [
        "▁onem",
        -8.836000378409379
      ],
      [
        "dı",
        -6.432901665981322
      ],
      [
        "▁dogu",
        -8.640342676374663
      ],
      [
        "▁ezber",
        -10.42422028269133
      ],
      [
        "▁ets",
        -9.2275109242712
      ],
      [
        "▁olan",
        -8.129043926954479
      ],
      [
        "▁gorul",
        -9.546629983053492
      ],
      [
        "▁vazife",
        -10.423874081833798
      ],
      [
        "▁tr",
        -9.393390670653922
      ],
      [
        "▁arkadaslar",
        -9.384522433081298
      ],
      [
        "▁camur",
        -9.953191690922418
      ],
      [
        "▁3640",
        -10.889080833602621
      ],
      [
        "▁adalet",
        -9.790959015078027
      ],
      [
        "▁toplumun",
        -10.213207651287412
      ],
      [
        "▁maas",
        -9.608800439262794
      ],
      [
        "▁dolabı",
        -10.47173642052243
      ],
      [
        "▁torba",
        -10.300924365098556
      ],
      [
        "▁kıdem",
        -10.522884734851617
      ],
      [
        "▁sayılır",
        -10.374659598834864
      ],
      [
        "▁dayanır",
        -10.389585827748892
      ],
      [
        "▁dususu",
        -9.998371926689856
      ],
      [
        "▁kosesinde",
        -10.312975511783835
      ],
      [
        "▁iplik",
        -10.639456049777902
      ],
      [
        ":",
        -10.07424561020224
      ],
      [
        "▁vaziyet",
        -10.629769824611566
      ],
      [
        "▁degerinde",
        -9.97698122255279
      ],
      [
        "▁8.4",
        -9.957395972573948
      ],
      [
        "▁yapıyor",
        -8.441423397853923
      ],
      [
        "▁seksen",
        -9.510386021826939
      ],
      [
        "▁demin",
        -10.695740090144872
      ],
      [
        "▁olayı",
        -10.14819937846221
      ],
      [
        "▁onun",
        -5.488682034044008
      ],
      [
        "onun",
        -8.69465956388141
      ],
      [
        "▁kat",
        -7.842788133533067
      ],
      [
        "gar",
        -9.66681941282811
      ],
      [
        "▁guzeldi",
        -6.243779623899423
      ],
      [
        "▁ozlem",
        -10.093977372382245
      ],
      [
        "▁edilebilir",
        -10.17866099985504
      ],
      [
        "▁icten",
        -10.26352372437644
      ],
      [
        "▁kis",
        -9.793300662325091
      ],
      [
        "▁lazım",
        -8.964806159707194
      ],
      [
        "▁tepede",
        -10.858276653093432
      ],
      [
        "▁%2",
        -9.532782587822313
      ],
      [
        "▁iran",
        -10.742123174274557
      ],
      [
        "▁kosk",
        -9.95317658257818
      ],
      [
        "ecegim",
        -9.249478255127197
      ],
      [
        "▁3'te",
        -10.755429168375228
      ],
      [
        "▁parcası",
        -9.428608129576556
      ],
      [
        "▁kendilerin",
        -8.352079679002111
      ],
      [
        "▁kullanır",
        -10.80975916000444
      ],
      [
        "▁surat",
        -9.639965973282184
      ],
      [
        "▁duzenleyici",
        -10.521766574247303
      ],
      [
        "▁thatcher",
        -10.817670414664478
      ],
      [
        "▁millet",
        -8.963817901732712
      ],
      [
        "▁74",
        -10.261691646216738
      ],
      [
        "▁46",
        -9.512874120224893
      ],
      [
        "▁silah",
        -8.871982715989972
      ],
      [
        "kten",
        -8.39911422915701
      ],
      [
        "▁elektronik",
        -9.652788975864405
      ],
      [
        "▁soylemedi",
        -10.43635286139094
      ],
      [
        "▁nev",
        -10.58593886627544
      ],
      [
        "▁neredey",
        -9.130511626836654
      ],
      [
        "-4",
        -11.354791702071255
      ],
      [
        "▁haftada",
        -10.063663605443065
      ],
      [
        "▁yatırımcılar",
        -8.907555110482878
      ],
      [
        "▁aday",
        -9.592293676944857
      ],
      [
        "▁gordugunu",
        -10.74686385849859
      ],
      [
        "▁8",
        -8.034759464810683
      ],
      [
        "iniz",
        -10.108904679601515
      ],
      [
        "▁ısıgı",
        -10.008835131106586
      ],
      [
        "▁birinci",
        -8.83357621359725
      ],
      [
        "▁bicim",
        -9.56799933410191
      ],
      [
        "▁degili",
        -7.3367447943537805
      ],
      [
        "anlıslanabilirli",
        -10.887677854341668
      ],
      [
        "▁249.",
        -10.96810093603428
      ],
      [
        "▁iskemle",
        -10.688503999812484
      ],
      [
        "▁bulma",
        -9.737677579245362
      ],
      [
        "▁saf",
        -9.256599552318107
      ],
      [
        "▁la",
        -8.133025155725928
      ],
      [
        "▁baslangıcı",
        -10.496482177195135
      ],
      [
        "▁kızar",
        -9.537301252831522
      ],
      [
        "▁geride",
        -10.199528058016053
      ],
      [
        "os",
        -8.681273802500353
      ],
      [
        "▁ikisini",
        -9.709257845093296
      ],
      [
        "dır",
        -6.723396107358676
      ],
      [
        "▁eyalet",
        -9.42298208357267
      ],
      [
        "▁sapka",
        -9.766802223419766
      ],
      [
        "errill",
        -9.791074596331585
      ],
      [
        "▁ayında",
        -8.364039201102697
      ],
      [
        "▁dususle",
        -9.470998601610518
      ],
      [
        "▁uzaklas",
        -10.188499067563537
      ],
      [
        "tu",
        -7.331845057643291
      ],
      [
        "▁fatura",
        -9.679715932414096
      ],
      [
        "▁102.0",
        -10.891447003160536
      ],
      [
        "▁general",
        -9.208443092177628
      ],
      [
        "▁gulus",
        -10.121414532921692
      ],
      [
        "▁kontrolu",
        -10.459483779641346
      ],
      [
        "▁erkan",
        -10.631619959113545
      ],
      [
        "▁yatıyor",
        -10.622720010399023
      ],
      [
        "▁hasıl",
        -10.303050405006168
      ],
      [
        "▁kulak",
        -9.182431248284
      ],
      [
        "▁tel",
        -8.945462458549802
      ],
      [
        "lerindeki",
        -9.68335675174458
      ],
      [
        "▁sonsuz",
        -10.394866789990699
      ],
      [
        "_",
        -10.104344521048294
      ],
      [
        "03",
        -12.526590051914726
      ],
      [
        "▁pri",
        -9.90899336626269
      ],
      [
        "▁fırlat",
        -10.47227485180336
      ],
      [
        "▁arkamda",
        -10.581289677451796
      ],
      [
        "iki",
        -7.943918474887292
      ],
      [
        "lardı",
        -7.643584755172196
      ],
      [
        "▁senin",
        -6.975285892300653
      ],
      [
        "▁tamam",
        -7.928514241177453
      ],
      [
        "▁yesil",
        -8.71716293030342
      ],
      [
        "▁bocek",
        -10.255678944864016
      ],
      [
        "▁ba",
        -8.061565120220624
      ],
      [
        "▁icinde",
        -6.864175634434878
      ],
      [
        "▁aileler",
        -8.05861373732693
      ],
      [
        "▁yapan",
        -8.396065450108743
      ],
      [
        "▁kıyasla",
        -10.542273506113636
      ],
      [
        "▁cesit",
        -7.185262605484182
      ],
      [
        "▁komutan",
        -9.922451547112328
      ],
      [
        "▁gonderdi",
        -10.066906441251811
      ],
      [
        "▁kalkan",
        -7.754098524481259
      ],
      [
        "▁grupları",
        -10.40422749113254
      ],
      [
        "▁belirtti",
        -9.274341402588686
      ],
      [
        "▁devrim",
        -9.509485230400282
      ],
      [
        "▁olmalı",
        -9.626957885648388
      ],
      [
        "▁nefret",
        -10.253281240583485
      ],
      [
        "▁ceker",
        -9.661676162108876
      ],
      [
        "▁olmaya",
        -10.842089066641492
      ],
      [
        "▁prof",
        -10.577050759417649
      ],
      [
        "gan",
        -8.929018109839223
      ],
      [
        "gını",
        -8.307456182447428
      ],
      [
        "▁gelmek",
        -10.432381303142895
      ],
      [
        "▁z",
        -11.475475111137184
      ],
      [
        "▁bekle",
        -9.284183738983451
      ],
      [
        "▁ilkeleri",
        -10.552245062080395
      ],
      [
        "▁bulgur",
        -10.751048865895799
      ],
      [
        "▁dag",
        -8.908481372573647
      ],
      [
        "▁dile",
        -9.032542665912427
      ],
      [
        "▁yakaladı",
        -10.748139109250541
      ],
      [
        "▁kahve",
        -8.28526612606829
      ],
      [
        "b",
        -4.751618902518528
      ],
      [
        "▁isgal",
        -10.216285406819772
      ],
      [
        "▁oluyordu",
        -9.625146228603365
      ],
      [
        "▁biraz",
        -6.941773608567416
      ],
      [
        "▁paylas",
        -9.63924382712852
      ],
      [
        "▁havalimanı'nda",
        -10.629789944177507
      ],
      [
        "▁etmisti",
        -9.598729090834032
      ],
      [
        "mısım",
        -10.125434154858784
      ],
      [
        "3",
        -9.345899583452661
      ],
      [
        "▁yaklasımı",
        -10.403960161843127
      ],
      [
        "▁kalabalık",
        -9.531189105071284
      ],
      [
        "▁155",
        -10.621880712506266
      ],
      [
        "▁kafi",
        -10.293429518951145
      ],
      [
        "▁gezegen",
        -10.629680452643939
      ],
      [
        "▁196",
        -9.219426224782298
      ],
      [
        "▁sıvı",
        -10.293275797946809
      ],
      [
        "▁cagırdı",
        -10.449096890939835
      ],
      [
        "▁lı",
        -7.292870104275155
      ],
      [
        "▁cogunda",
        -10.93680925498924
      ],
      [
        "▁cim",
        -10.10212274765496
      ],
      [
        "▁yaslı",
        -9.047517103835151
      ],
      [
        "dir",
        -7.578919477114084
      ],
      [
        "▁kurtarı",
        -10.778010895944817
      ],
      [
        "85",
        -9.244543557811305
      ],
      [
        "▁koruyor",
        -10.776039323149977
      ],
      [
        "▁devre",
        -9.771982008136266
      ],
      [
        "▁cekmis",
        -10.508385397159133
      ],
      [
        "▁uzlasma",
        -10.142072953355472
      ],
      [
        "▁haydi",
        -10.161020935939735
      ],
      [
        "▁iddiaları",
        -10.521560839568773
      ],
      [
        "▁alanı",
        -10.13667478408903
      ],
      [
        "▁stokları",
        -10.196963697609753
      ],
      [
        "▁225",
        -10.14724153188936
      ],
      [
        "2.6",
        -10.570369279830741
      ],
      [
        "▁basvur",
        -9.962132407726132
      ],
      [
        "▁aradi",
        -8.585857290110614
      ],
      [
        "▁bankalar",
        -9.880055832438519
      ],
      [
        "▁yıkan",
        -10.425549847884206
      ],
      [
        "▁organizasyon",
        -10.29327475164227
      ],
      [
        ".5'",
        -10.422330684955421
      ],
      [
        "▁%51",
        -11.429958966910018
      ],
      [
        "▁hassas",
        -9.922563858118771
      ],
      [
        "▁kopegi",
        -10.472068475809019
      ],
      [
        "▁limon",
        -9.815694219147154
      ],
      [
        "▁muazzam",
        -10.81767041535469
      ],
      [
        "az",
        -9.950871010174431
      ],
      [
        "1/",
        -10.820187175394986
      ],
      [
        "▁f",
        -10.863911410280293
      ],
      [
        "▁kazancı",
        -9.94666052019492
      ],
      [
        "▁kalmak",
        -10.144827370191427
      ],
      [
        "▁sokma",
        -10.64496220247342
      ],
      [
        "▁oran",
        -8.662572312508285
      ],
      [
        "▁%",
        -9.500485810466254
      ],
      [
        "▁%99",
        -11.810224773061273
      ],
      [
        "▁%7.9",
        -11.920349515969981
      ],
      [
        "▁guvenilir",
        -10.215226331944654
      ],
      [
        "mazdı",
        -9.41379194116493
      ],
      [
        "▁ofke",
        -9.53130391651839
      ],
      [
        "▁260",
        -10.758500857706528
      ],
      [
        "▁yedek",
        -10.293422093270545
      ],
      [
        "▁8.",
        -10.286904554380493
      ],
      [
        "▁%4.",
        -12.580596872868544
      ],
      [
        "▁tuketim",
        -10.145231748550781
      ],
      [
        "▁alır",
        -8.818305882787573
      ],
      [
        "▁yarısma",
        -10.222994371311211
      ],
      [
        "▁kalitesi",
        -7.8673023814135234
      ],
      [
        "▁alın",
        -8.518922854266297
      ],
      [
        "▁altı",
        -9.841563011175616
      ],
      [
        "▁bank",
        -9.247905424207746
      ],
      [
        "▁oylama",
        -10.182251400610184
      ],
      [
        "▁fizik",
        -10.177818185017127
      ],
      [
        "▁tatsız",
        -10.635190919551134
      ],
      [
        "▁olmaya",
        -9.628682319556972
      ],
      [
        "▁ici",
        -8.48352496777274
      ],
      [
        "▁telefonla",
        -9.28211281389747
      ],
      [
        "▁mehmet",
        -8.986662159523602
      ],
      [
        "▁cu",
        -9.97138401281963
      ],
      [
        ".200",
        -10.7076635227536
      ],
      [
        "▁bircogunu",
        -10.399043436019916
      ],
      [
        "▁bolunme",
        -10.574203692393166
      ],
      [
        "▁yazan",
        -10.44251207214269
      ],
      [
        "▁sade",
        -7.316177005778321
      ],
      [
        "cilik",
        -9.279876756870912
      ],
      [
        "co",
        -8.283908002033893
      ],
      [
        "▁ele",
        -8.607704254524478
      ],
      [
        "▁5'te",
        -9.460024370129446
      ],
      [
        "▁sonucları",
        -9.63920189166275
      ],
      [
        "▁duyu",
        -9.33998805160771
      ],
      [
        "▁otesinde",
        -10.427492054582931
      ],
      [
        "▁bunları",
        -6.675178153881778
      ],
      [
        "pa",
        -11.647155356026659
      ],
      [
        "▁irak'",
        -10.42492247294506
      ],
      [
        "0",
        -7.311164126873568
      ],
      [
        "▁baska",
        -7.370951733912165
      ],
      [
        "▁an",
        -7.349697230620575
      ],
      [
        "10",
        -12.421114862979591
      ],
      [
        "▁banyo",
        -9.712915344102331
      ],
      [
        "▁bankası",
        -9.51698621708375
      ],
      [
        "gu",
        -7.584176257484275
      ],
      [
        "▁s",
        -7.442766271790305
      ],
      [
        "▁otuz",
        -7.885014889810017
      ],
      [
        "▁soyleme",
        -9.855001235780323
      ],
      [
        "▁9.5",
        -10.984718836568197
      ],
      [
        "▁arif",
        -10.752482582390709
      ],
      [
        "▁saglıyor",
        -10.156658489634733
      ],
      [
        "▁8",
        -9.933272479298779
      ],
      [
        "▁uzattı",
        -10.49998946884118
      ],
      [
        "muyor",
        -9.091173706148261
      ],
      [
        "▁kapsam",
        -9.608249747493398
      ],
      [
        "▁yerles",
        -9.604068630305413
      ],
      [
        "▁hicbirisi",
        -10.97774982045429
      ],
      [
        "ck",
        -8.817119571849831
      ],
      [
        "625",
        -9.9510386817464
      ],
      [
        "▁halkı",
        -9.732760809574799
      ],
      [
        "medigi",
        -9.94393328715676
      ],
      [
        "▁oper",
        -10.42727540396028
      ],
      [
        "▁kadar",
        -8.944260445479614
      ],
      [
        "▁vo",
        -10.564901535592229
      ],
      [
        "▁omur",
        -9.951112438604659
      ],
      [
        "▁sar",
        -8.64171566300738
      ],
      [
        "▁4",
        -9.148225494436915
      ],
      [
        "▁prosedur",
        -10.751005331593523
      ],
      [
        "▁jo",
        -9.839944142105743
      ],
      [
        "'la",
        -9.637397767556415
      ],
      [
        "▁bankacı",
        -10.02515788813906
      ],
      [
        "▁bolumunu",
        -10.356858828521633
      ],
      [
        "▁esra",
        -10.15035881976285
      ],
      [
        "ları",
        -5.610103224622935
      ],
      [
        "▁kurmus",
        -10.569405525753224
      ],
      [
        "▁cocuklarını",
        -10.538392232044918
      ],
      [
        "yorum",
        -8.946856166529045
      ],
      [
        "lu",
        -13.781437440394566
      ],
      [
        "▁borcu",
        -9.862054739344002
      ],
      [
        "ı",
        -5.44737418507448
      ],
      [
        "1.3",
        -9.895349184132954
      ],
      [
        "ki",
        -6.635403197634999
      ],
      [
        "▁bitki",
        -9.65867885118443
      ],
      [
        "▁2002",
        -10.319913242692227
      ],
      [
        "▁cig",
        -10.035149907786383
      ],
      [
        "▁gurultu",
        -9.475620837261555
      ],
      [
        "▁agzında",
        -10.047366497044958
      ],
      [
        "herkes",
        -10.46722621044187
      ],
      [
        "▁cinayet",
        -10.142073748692379
      ],
      [
        "▁tahammul",
        -10.751003761774106
      ],
      [
        "▁baslay",
        -9.974521604414864
      ],
      [
        "h",
        -6.893785620629456
      ],
      [
        "gel",
        -9.270411228329191
      ],
      [
        "hat",
        -7.202131608975829
      ],
      [
        "▁satar",
        -10.524724442944985
      ],
      [
        "misti",
        -7.996022752246036
      ],
      [
        "'te",
        -8.749663191370402
      ],
      [
        "▁v",
        -9.826033055058556
      ],
      [
        "▁coban",
        -9.868077593889387
      ],
      [
        "▁boston'da",
        -7.297094445101738
      ],
      [
        "▁sav",
        -9.103967144861574
      ],
      [
        "▁bindokuzyuz",
        -10.47787773262471
      ],
      [
        "▁odul",
        -9.778572296275922
      ],
      [
        "▁tempo",
        -10.68850833873577
      ],
      [
        "▁begendik",
        -10.054647125793185
      ],
      [
        "▁olur",
        -9.83603068906716
      ],
      [
        "▁kitle",
        -9.951032865603873
      ],
      [
        "▁uzuntu",
        -10.226550961712237
      ],
      [
        "▁degil",
        -10.35291813192068
      ],
      [
        "▁etrafında",
        -9.636257194434604
      ],
      [
        "ren",
        -8.672080989529746
      ],
      [
        "▁yapılması",
        -10.456714751393852
      ],
      [
        "▁vefa",
        -10.522942017973705
      ],
      [
        "▁nar",
        -10.29652156920416
      ],
      [
        "▁johnson",
        -10.574637400444463
      ],
      [
        "▁mıydı",
        -8.489729860708078
      ],
      [
        "nca",
        -8.871592476248708
      ],
      [
        "ının",
        -7.71867204457037
      ],
      [
        "▁cekiyor",
        -10.031155165698095
      ],
      [
        "▁babam",
        -8.76665185154858
      ],
      [
        "▁gerekir",
        -9.301543465695904
      ],
      [
        "▁git",
        -9.111540242131648
      ],
      [
        "▁oglum",
        -9.624209445679094
      ],
      [
        "▁eglendir",
        -10.72403722055119
      ],
      [
        "▁uluslararası",
        -9.325341916741934
      ],
      [
        "▁da",
        -9.420852245950911
      ],
      [
        "▁kut",
        -9.384279064140934
      ],
      [
        "pı",
        -10.338625050062623
      ],
      [
        "ydi",
        -9.086654733732615
      ],
      [
        "▁yasanma",
        -10.851033775195628
      ],
      [
        "▁harika",
        -8.882563028900911
      ],
      [
        "▁uyku",
        -9.288287758459706
      ],
      [
        "▁840.",
        -10.898857609368473
      ],
      [
        "▁nobet",
        -10.685392848860383
      ],
      [
        "▁surucu",
        -10.348855968828932
      ],
      [
        "▁bereket",
        -10.629697386887191
      ],
      [
        "▁olabilecegini",
        -9.929018536590394
      ],
      [
        "t",
        -6.307256664581649
      ],
      [
        "▁yık",
        -9.463166960199649
      ],
      [
        "▁havayolu",
        -9.144189159825457
      ],
      [
        "▁gecikme",
        -9.868096573372432
      ],
      [
        "&",
        -7.474416782928896
      ],
      [
        "▁begendi",
        -8.680696864934283
      ],
      [
        "▁onlem",
        -9.986849980835586
      ],
      [
        "▁sayfa",
        -9.440488722802328
      ],
      [
        "▁d",
        -8.747837876481231
      ],
      [
        "▁dusman",
        -9.010715577966193
      ],
      [
        "▁indirim",
        -9.53540365213223
      ],
      [
        "ilecek",
        -10.371795031338117
      ],
      [
        "▁boston",
        -8.070428474771507
      ],
      [
        "ley",
        -8.696867739429681
      ],
      [
        "▁doga",
        -9.056708114335049
      ],
      [
        "▁bine",
        -10.545356150114124
      ],
      [
        "bir",
        -9.588153145800351
      ],
      [
        "▁tı",
        -10.992942583622575
      ],
      [
        "▁90",
        -9.764304110553487
      ],
      [
        "▁duzeltme",
        -10.28820196984197
      ],
      [
        "▁avrupa",
        -8.768089759370369
      ],
      [
        "▁yı",
        -9.218269508698501
      ],
      [
        "▁gelmesi",
        -10.226335882919546
      ],
      [
        "▁bayag",
        -10.583623353243947
      ],
      [
        "▁japon",
        -8.702856962803658
      ],
      [
        "▁county'",
        -10.839456695197219
      ],
      [
        "▁seks",
        -10.53173221448182
      ],
      [
        "▁nedeni",
        -8.774179843818473
      ],
      [
        "▁ongoruyor",
        -10.83011028849772
      ],
      [
        "▁1.9",
        -9.91890671326831
      ],
      [
        "▁elimi",
        -10.07351286800639
      ],
      [
        "▁haric",
        -9.536536432128965
      ],
      [
        "▁aleyhin",
        -10.378420344551241
      ],
      [
        "▁dıs",
        -8.776948491684298
      ],
      [
        "▁yavru",
        -9.85408461350785
      ],
      [
        "▁firması",
        -9.557393491447066
      ],
      [
        "▁hangisi",
        -7.842202844556418
      ],
      [
        "▁dogal",
        -9.196934742773573
      ],
      [
        "sıdır",
        -9.635721266732824
      ],
      [
        "▁gazeteci",
        -9.964846711475396
      ],
      [
        "▁los",
        -8.664797600745208
      ],
      [
        "▁yeryuzu",
        -10.814651112086365
      ],
      [
        "▁benzeye",
        -10.483846048716462
      ],
      [
        "▁sende",
        -9.565810326593109
      ],
      [
        "luyor",
        -8.765636194767325
      ],
      [
        "▁gok",
        -9.065576621505183
      ],
      [
        "▁denk",
        -9.771194632297657
      ],
      [
        "▁john",
        -9.790484771218491
      ],
      [
        "▁vergi",
        -8.348989694513588
      ],
      [
        "sunuz",
        -8.571917383166053
      ],
      [
        "▁acılıs",
        -10.344554587304081
      ],
      [
        "▁fır",
        -9.898729347149688
      ],
      [
        "▁yakın",
        -7.915526209286006
      ],
      [
        "▁boston'",
        -7.978696614006059
      ],
      [
        "▁kiler",
        -8.93960715202065
      ],
      [
        "▁banka",
        -8.511301136219735
      ],
      [
        "▁yardimci",
        -8.805263557316131
      ],
      [
        "▁75.",
        -10.957302314781408
      ],
      [
        "▁her",
        -4.351819211849485
      ],
      [
        "▁icerisinde",
        -9.42638300084348
      ],
      [
        "▁satıslarını",
        -10.630900218724854
      ],
      [
        "▁buyudu",
        -10.138988199336127
      ],
      [
        "ullah",
        -10.487633602956931
      ],
      [
        "▁ap",
        -9.658354355990904
      ],
      [
        "▁kalmıs",
        -9.310206332674579
      ],
      [
        "▁anadolu",
        -9.472195255620296
      ],
      [
        "▁the",
        -9.868895467144338
      ],
      [
        "▁kurtuldu",
        -10.639481505497729
      ],
      [
        "▁almanya'da",
        -10.416750735898978
      ],
      [
        "▁dini",
        -10.407762898151155
      ],
      [
        "▁duzen",
        -8.751287276716841
      ],
      [
        "ag",
        -9.544881160949332
      ],
      [
        "▁intel",
        -10.752257439999152
      ],
      [
        "▁hızla",
        -9.029846043338399
      ],
      [
        "1.1",
        -10.777775562792534
      ],
      [
        "dıgını",
        -8.246037365990563
      ],
      [
        "▁yukseltti",
        -10.195835018803194
      ],
      [
        "▁122",
        -10.895798066112672
      ],
      [
        "▁mahalle",
        -9.181212715537452
      ],
      [
        "▁on",
        -6.257864441783672
      ],
      [
        "▁sura",
        -10.269194055459817
      ],
      [
        "▁merkezi",
        -8.334314932263478
      ],
      [
        "▁iste",
        -7.7334779137805425
      ],
      [
        "or",
        -7.910572170892431
      ],
      [
        "gen",
        -9.097197721849259
      ],
      [
        "▁sohret",
        -10.378420018229521
      ],
      [
        "▁on",
        -8.098253742449558
      ],
      [
        "▁dagın",
        -10.65975843656725
      ],
      [
        "▁aralarında",
        -9.807455283530937
      ],
      [
        "▁usul",
        -9.817693830331805
      ],
      [
        "▁21",
        -8.036347926270897
      ],
      [
        "▁na",
        -8.155169810574176
      ],
      [
        "▁onayladı",
        -10.323227803657831
      ],
      [
        "▁telas",
        -10.022669583534611
      ],
      [
        "misin",
        -10.122946570541602
      ],
      [
        "mistir",
        -8.595535005645162
      ],
      [
        "▁seklinde",
        -9.71947625254723
      ],
      [
        "▁yazma",
        -9.61315556263236
      ],
      [
        "iyet",
        -8.54268309006902
      ],
      [
        "▁5.3",
        -10.091532489943946
      ],
      [
        "▁1.59",
        -10.642903663124859
      ],
      [
        "▁iti",
        -9.711258695462478
      ],
      [
        "▁degerleri",
        -10.099752524497033
      ],
      [
        "▁yazılım",
        -10.191230030622965
      ],
      [
        "lar",
        -4.917116846305175
      ],
      [
        "▁2",
        -9.099035651577374
      ],
      [
        "▁resim",
        -9.055370581841869
      ],
      [
        "▁davul",
        -10.629685782874294
      ],
      [
        "▁alaka",
        -9.200589091068734
      ],
      [
        "▁alan",
        -8.050885913060966
      ],
      [
        "▁westchester",
        -10.107586529154613
      ],
      [
        "4.7",
        -10.368379649397475
      ],
      [
        "▁doru",
        -10.63027835203259
      ],
      [
        "▁secil",
        -10.126967086980898
      ],
      [
        "▁yuzlerce",
        -10.521655087331826
      ],
      [
        "▁durust",
        -10.525869136362763
      ],
      [
        "▁gozunde",
        -10.544664663985722
      ],
      [
        "siyon",
        -9.808098280596917
      ],
      [
        "▁sıcak",
        -8.611010828119735
      ],
      [
        "▁sert",
        -8.794405422310033
      ],
      [
        "▁dusunme",
        -8.984522548869453
      ],
      [
        "▁haberi",
        -9.578694118846233
      ],
      [
        "suz",
        -7.7206425956780365
      ],
      [
        "▁tok",
        -9.377525722203703
      ],
      [
        "▁329",
        -10.882759451661837
      ],
      [
        "▁ogrenme",
        -10.591851469434268
      ],
      [
        "▁ıslak",
        -10.818071481544377
      ],
      [
        "▁ro",
        -8.746014693605392
      ],
      [
        "imiz",
        -8.544494370514176
      ],
      [
        "▁26",
        -8.156620768428361
      ],
      [
        "▁yıldırım",
        -10.822943637390514
      ],
      [
        "▁bilgisayar",
        -8.301840635904924
      ],
      [
        "▁havalimanı",
        -10.506485832365192
      ],
      [
        "▁okun",
        -10.05853243486691
      ],
      [
        "▁italyan",
        -10.340399790053274
      ],
      [
        "%1",
        -10.967803638388565
      ],
      [
        "▁benziyor",
        -9.816499606553617
      ],
      [
        "▁olduk",
        -8.744444089491758
      ],
      [
        "▁ceyrek",
        -8.89688247618751
      ],
      [
        "▁uyumlu",
        -10.337339333877118
      ],
      [
        "ıl",
        -8.387714995321844
      ],
      [
        "ci",
        -11.309728575382351
      ],
      [
        "▁giriste",
        -9.593514493596306
      ],
      [
        "▁tası",
        -9.1658320981372
      ],
      [
        "▁oyuncu",
        -9.457375160174882
      ],
      [
        "▁750",
        -10.04778876254726
      ],
      [
        "▁ulas",
        -8.808042276070001
      ],
      [
        "▁dar",
        -8.576260056544443
      ],
      [
        "▁kararlı",
        -10.223138884671926
      ],
      [
        "▁anlasıldı",
        -10.88910015399091
      ],
      [
        "▁anlay",
        -9.781098253688851
      ],
      [
        "▁aga",
        -9.611558002621614
      ],
      [
        "▁kadeh",
        -10.107612500507487
      ],
      [
        "▁olusu",
        -10.110413368235655
      ],
      [
        "k",
        -5.724751612907619
      ],
      [
        "▁kendin",
        -7.498032269194095
      ],
      [
        "lanmıs",
        -8.601101863132625
      ],
      [
        "▁bunda",
        -7.528333776484611
      ],
      [
        "▁programları",
        -10.055006029758276
      ],
      [
        "▁subat",
        -10.177836860265584
      ],
      [
        "▁ayrica",
        -10.521515656449147
      ],
      [
        "dıkları",
        -9.702665226198217
      ],
      [
        "cı",
        -9.105755383544302
      ],
      [
        "▁epey",
        -9.69657322225779
      ],
      [
        "▁tasarım",
        -10.307379948913892
      ],
      [
        "▁ismini",
        -10.198608409400858
      ],
      [
        "▁izleme",
        -9.999093937105828
      ],
      [
        "▁turu",
        -10.103444840645123
      ],
      [
        "▁catı",
        -9.631958360429705
      ],
      [
        "▁bru",
        -10.52296819471913
      ],
      [
        "▁karsılasma",
        -10.839493535924902
      ],
      [
        "▁soyleniyor",
        -10.707945483804387
      ],
      [
        "▁tahmin",
        -8.314745638194701
      ],
      [
        "▁imza",
        -9.38826722835523
      ],
      [
        "▁bunda",
        -9.875613103802767
      ],
      [
        "▁yirmisekiz",
        -10.89497697531016
      ],
      [
        "maktadır",
        -8.086821747910417
      ],
      [
        "▁dusus",
        -8.628024004626614
      ],
      [
        "▁kompleks",
        -10.52149308664095
      ],
      [
        "▁135",
        -10.52481648444336
      ],
      [
        "▁gitmedi",
        -10.450432034122873
      ],
      [
        "▁hepsi",
        -6.842946748412163
      ],
      [
        "▁uzag",
        -10.818422196404928
      ],
      [
        "▁degisiklikleri",
        -10.147233844464902
      ],
      [
        "▁sair",
        -9.314442420189351
      ],
      [
        "▁gorunum",
        -10.56349330481595
      ],
      [
        "▁duyma",
        -9.597998903910282
      ],
      [
        "incisi",
        -9.637134642514823
      ],
      [
        "▁gelir",
        -7.550357873384031
      ],
      [
        "▁gucu",
        -9.284371309373766
      ],
      [
        "▁bostan",
        -10.63745904893436
      ],
      [
        "▁cozme",
        -10.172502659738718
      ],
      [
        "▁karmasık",
        -10.17785801747733
      ],
      [
        "▁delta",
        -8.751446600849297
      ],
      [
        "▁pul",
        -10.04496622147291
      ],
      [
        "▁gormeye",
        -10.299864691089006
      ],
      [
        "▁28.",
        -10.331057611006262
      ],
      [
        "9.2",
        -10.791611926756298
      ],
      [
        "▁flor",
        -10.751097521004546
      ],
      [
        "▁istekli",
        -10.38221798877743
      ],
      [
        "▁ters",
        -9.362744836588158
      ],
      [
        "▁kodu",
        -9.533775217763717
      ],
      [
        "95",
        -9.457815011772302
      ],
      [
        "▁dısarıda",
        -9.885411113230765
      ],
      [
        "▁lake",
        -8.769402712778202
      ],
      [
        "▁karsı",
        -7.425643452349159
      ],
      [
        "nce",
        -9.771726990507076
      ],
      [
        "8",
        -6.081748992804368
      ],
      [
        "ra",
        -5.994280594177726
      ],
      [
        "▁cevril",
        -9.867647619525098
      ],
      [
        "▁mesele",
        -9.4520785942672
      ],
      [
        "▁ugrun",
        -10.471693305897759
      ],
      [
        "▁gecmesi",
        -10.466735220225674
      ],
      [
        "▁imkanı",
        -10.603960384655014
      ],
      [
        "sından",
        -8.429725451622138
      ],
      [
        "▁ediliyor",
        -9.501805514156345
      ],
      [
        "▁mes",
        -9.53061342328126
      ],
      [
        "▁110",
        -9.85359950354846
      ],
      [
        "▁1997",
        -10.225323920146403
      ],
      [
        "▁mıs",
        -8.221270484658733
      ],
      [
        "▁gunlerde",
        -9.434858247440152
      ],
      [
        "diginde",
        -9.907196848543704
      ],
      [
        "▁goruyoru",
        -10.32807231395195
      ],
      [
        "lukta",
        -10.43720689765832
      ],
      [
        "lik",
        -8.863920459242864
      ],
      [
        "00-",
        -11.772156729223715
      ],
      [
        "▁kalite",
        -8.283401714577899
      ],
      [
        "▁acıldı",
        -9.392586353756851
      ],
      [
        "▁buyume",
        -8.969359561634558
      ],
      [
        "3:",
        -10.893648315244551
      ],
      [
        "▁oranları",
        -9.5637723797069
      ],
      [
        "▁yazık",
        -10.117258731433244
      ],
      [
        "dim",
        -8.926831132052726
      ],
      [
        "attin",
        -10.869760678150286
      ],
      [
        "ıyla",
        -8.230585959435993
      ],
      [
        "$",
        -7.518283183533239
      ],
      [
        "layacagı",
        -10.457592151413408
      ],
      [
        "▁sorumluluk",
        -10.043285220251299
      ],
      [
        "cılar",
        -8.668949927007336
      ],
      [
        "▁lira",
        -8.65181933382009
      ],
      [
        "▁it",
        -8.72662537277547
      ],
      [
        "'te",
        -9.34698740237014
      ],
      [
        "▁kurban",
        -9.631351096925671
      ],
      [
        "1'de",
        -9.807721456774896
      ],
      [
        "lık",
        -10.730719819647152
      ],
      [
        "▁babamı",
        -9.969890481591332
      ],
      [
        "sun",
        -7.723350706797373
      ],
      [
        "▁menfaat",
        -10.574124727918742
      ],
      [
        "▁0.5",
        -10.29822109188428
      ],
      [
        "▁menkul",
        -8.176350205374868
      ],
      [
        "▁puan",
        -6.88214740950924
      ],
      [
        "bazı",
        -9.354229368387426
      ],
      [
        "kce",
        -9.73661188699879
      ],
      [
        "▁durmus",
        -10.585328795907609
      ],
      [
        "meleri",
        -10.145955588781074
      ],
      [
        "▁telekom",
        -10.817683721219563
      ],
      [
        "▁sakin",
        -8.507772184851635
      ],
      [
        "▁han",
        -9.49276689201952
      ],
      [
        "▁rusvet",
        -10.751310696980752
      ],
      [
        "▁secildi",
        -10.223451712494839
      ],
      [
        "▁tadın",
        -10.299852697187296
      ],
      [
        "▁gosterge",
        -9.801249589049231
      ],
      [
        "ad",
        -9.202784287975739
      ],
      [
        "▁onbes",
        -10.616644868922243
      ],
      [
        "▁yatırım",
        -8.167815019033487
      ],
      [
        "▁tesis",
        -7.284876718979913
      ],
      [
        "▁ef",
        -10.425216804079206
      ],
      [
        "▁arttır",
        -10.058150421424248
      ],
      [
        "▁istedigim",
        -10.070273395580937
      ],
      [
        "▁olumu",
        -9.876727586368336
      ],
      [
        "▁secenegi",
        -10.521505644869771
      ],
      [
        "uz",
        -8.872095029722393
      ],
      [
        "▁kanunu",
        -10.242080724455914
      ],
      [
        "▁emtia",
        -10.293411635080416
      ],
      [
        "?",
        -10.629680218481877
      ],
      [
        "▁bilmez",
        -10.265564819593807
      ],
      [
        "▁yatar",
        -10.634406326321947
      ],
      [
        "▁tanesi",
        -10.193160579843223
      ],
      [
        "▁say",
        -8.888653009501173
      ],
      [
        "do",
        -8.620476592362262
      ],
      [
        "▁gelecek",
        -8.307030909074228
      ],
      [
        "il",
        -8.647156063981056
      ],
      [
        "▁warner",
        -10.471493731309202
      ],
      [
        "▁tarım",
        -10.70648877416095
      ],
      [
        "elli",
        -10.223140255659835
      ],
      [
        "▁dort",
        -10.177816000137106
      ],
      [
        "▁amerikan",
        -7.562769141721597
      ],
      [
        "▁kent",
        -9.021721601195072
      ],
      [
        "▁isbirligi",
        -10.17781015003272
      ],
      [
        "▁oldugun",
        -10.612065443969167
      ],
      [
        "▁gozlem",
        -9.496037405166971
      ],
      [
        "▁burun",
        -9.618484213956206
      ],
      [
        "▁aykırı",
        -10.253275154102331
      ],
      [
        "▁celebi",
        -10.81769283463395
      ],
      [
        "▁maliyeti",
        -9.510024713581288
      ],
      [
        "midi",
        -10.234213056908338
      ],
      [
        "▁ince",
        -7.994753373559177
      ],
      [
        "▁sokakta",
        -9.829158274924959
      ],
      [
        "▁polis",
        -9.293725708042377
      ],
      [
        "▁insan",
        -7.4505506531025105
      ],
      [
        "▁kitapta",
        -10.52570772225927
      ],
      [
        "▁teslim",
        -9.356865935252003
      ],
      [
        "▁york'ta",
        -8.811226381142557
      ],
      [
        "▁komisyonu",
        -9.489747175392584
      ],
      [
        "▁oya",
        -9.886432280746579
      ],
      [
        "▁edilecek",
        -10.31643370218348
      ],
      [
        "▁yapmaktan",
        -10.344847991924599
      ],
      [
        "▁abi",
        -9.90595112487733
      ],
      [
        "▁almadi",
        -10.365745104841013
      ],
      [
        "▁ugultu",
        -10.751003748251883
      ],
      [
        "▁katkı",
        -8.997919496894374
      ],
      [
        "▁koruma",
        -9.884479395242817
      ],
      [
        "diklerini",
        -10.28276262081831
      ],
      [
        "ın",
        -11.343039948114084
      ],
      [
        "▁yatak",
        -9.67094844412557
      ],
      [
        "▁azaltma",
        -10.184067470992659
      ],
      [
        "▁cesur",
        -10.47155682149918
      ],
      [
        "nden",
        -8.060048330852617
      ],
      [
        "us",
        -7.905366774980364
      ],
      [
        "▁tayin",
        -10.689307781941347
      ],
      [
        "▁kadının",
        -9.550834863886626
      ],
      [
        "ger",
        -9.071651980816249
      ],
      [
        "▁yapılır",
        -9.874243105406098
      ],
      [
        "0",
        -9.329708899782709
      ],
      [
        "▁uc",
        -5.602242368294277
      ],
      [
        "▁kelebek",
        -10.751003976661279
      ],
      [
        "▁bıcak",
        -9.766302303877879
      ],
      [
        "▁birinde",
        -10.560375374426718
      ],
      [
        "▁mis",
        -8.616742931913802
      ],
      [
        "▁ziyaret",
        -9.116292201093211
      ],
      [
        "▁ramazan",
        -10.574125914232836
      ],
      [
        "aj",
        -9.225832067556526
      ],
      [
        "▁kel",
        -10.168996943804665
      ],
      [
        "▁belirleme",
        -10.465160271099814
      ],
      [
        "▁securit",
        -10.574133041990931
      ],
      [
        "▁avustralya",
        -10.253274563369315
      ],
      [
        "▁fena",
        -8.753054765384086
      ],
      [
        "ip",
        -7.606095423406281
      ],
      [
        "▁zincir",
        -9.493802717985115
      ],
      [
        "ir",
        -7.32926406961198
      ],
      [
        "▁ulke",
        -8.55678889260026
      ],
      [
        "▁suzu",
        -10.1565361695543
      ],
      [
        "▁es",
        -7.974954494233318
      ],
      [
        "▁kalmadi",
        -8.257349777743828
      ],
      [
        "▁daire",
        -9.576204338434133
      ],
      [
        "▁neresin",
        -10.69630030771706
      ],
      [
        "▁a.b.d.",
        -10.042451506017686
      ],
      [
        "▁haklı",
        -9.756570762582564
      ],
      [
        "inin",
        -7.92095891312098
      ],
      [
        "▁gul",
        -8.21699785261342
      ],
      [
        "▁olay",
        -9.135052108834715
      ],
      [
        "▁blok",
        -10.14208125686131
      ],
      [
        "▁nihayet",
        -9.457787693876421
      ],
      [
        "▁kırk",
        -7.941980051663087
      ],
      [
        "a",
        -4.0160794371592585
      ],
      [
        "▁kıyafet",
        -9.951023241445938
      ],
      [
        "▁tırmanı",
        -10.521508523098083
      ],
      [
        "dıgı",
        -8.022580511601854
      ],
      [
        "▁fiyatı",
        -8.925955047850596
      ],
      [
        "▁7",
        -7.1735568469883
      ],
      [
        "▁goruluyor",
        -10.33214545601994
      ],
      [
        "▁izlenim",
        -10.889103539859326
      ],
      [
        "▁kuf",
        -10.083627374046175
      ],
      [
        "▁taban",
        -9.765733182466676
      ],
      [
        "▁akıllı",
        -10.153857579488399
      ],
      [
        "▁editor",
        -10.253286646920616
      ],
      [
        "▁dovus",
        -10.629738648632019
      ],
      [
        "▁cıkacak",
        -9.870423075668356
      ],
      [
        "▁vade",
        -9.656648884749746
      ],
      [
        "▁cok",
        -5.04793555809858
      ],
      [
        "▁sek",
        -10.947438973603319
      ],
      [
        "▁utan",
        -10.071685556274954
      ],
      [
        "▁giydi",
        -10.617453642570593
      ],
      [
        "malı",
        -9.213411654958668
      ],
      [
        "or",
        -5.55378119379344
      ],
      [
        "▁isi",
        -8.248272358505172
      ],
      [
        "90",
        -11.082983173234592
      ],
      [
        "▁sansur",
        -10.818289390575664
      ],
      [
        "▁va",
        -8.62192309213144
      ],
      [
        "▁denir",
        -10.634725087109548
      ],
      [
        "99",
        -10.866053962672543
      ],
      [
        "▁62.",
        -10.93445556329254
      ],
      [
        "▁tasımacılıgı",
        -10.751040147731889
      ],
      [
        "he",
        -9.642327013437182
      ],
      [
        "▁verdik",
        -9.802868885713815
      ],
      [
        "▁yeteri",
        -9.941718280904844
      ],
      [
        "▁pittsburgh",
        -8.70190354111797
      ],
      [
        "▁fiyatin",
        -9.419402116717663
      ],
      [
        "memisti",
        -9.957087979263278
      ],
      [
        "▁neresi",
        -9.4401415114116
      ],
      [
        "▁8.8",
        -9.884564508981272
      ],
      [
        "▁vardır",
        -8.40704594696437
      ],
      [
        "▁ucuslarını",
        -7.789999309236502
      ],
      [
        "mizde",
        -9.167935556635467
      ],
      [
        "▁yse",
        -8.979056288198866
      ],
      [
        "▁california'da",
        -10.730862249316568
      ],
      [
        "▁cincinnati'de",
        -9.870540276144707
      ],
      [
        "▁edilmis",
        -9.607855233540487
      ],
      [
        "nin",
        -9.301884204327274
      ],
      [
        "▁konustu",
        -8.825124345270652
      ],
      [
        "▁kaybetti",
        -9.422983744181435
      ],
      [
        "▁kacırma",
        -10.817802801320209
      ],
      [
        "▁surecek",
        -10.613475493623124
      ],
      [
        "iy",
        -10.27317174977751
      ],
      [
        "▁danısman",
        -9.66958769241877
      ],
      [
        "▁elestir",
        -10.015621032643539
      ],
      [
        "▁yapildi",
        -10.143520892462151
      ],
      [
        "▁baslattı",
        -10.585673322181556
      ],
      [
        "▁dur",
        -7.454968144923029
      ],
      [
        "▁is",
        -6.993170349575008
      ],
      [
        "▁karısık",
        -9.433208391664591
      ],
      [
        "abilmek",
        -9.75583795540748
      ],
      [
        "▁onum",
        -10.388771109574893
      ],
      [
        ".19",
        -10.744641564672678
      ],
      [
        "▁toplam",
        -8.554934339752762
      ],
      [
        "▁beni",
        -6.136918772172587
      ],
      [
        "▁piyasada",
        -9.471373236211681
      ],
      [
        "bircok",
        -9.673910155888947
      ],
      [
        "▁filistin",
        -10.574125397532635
      ],
      [
        "ter",
        -8.696835432461155
      ],
      [
        "▁alımı",
        -10.001970614097736
      ],
      [
        "▁kuruldu",
        -10.69520776308297
      ],
      [
        "▁52",
        -9.474990685845631
      ],
      [
        "▁gibi",
        -10.886178225453097
      ],
      [
        "rken",
        -8.20171219772828
      ],
      [
        "▁beyefendi",
        -10.688503772014673
      ],
      [
        "▁tuccarlar",
        -10.025351362486775
      ],
      [
        "▁kotu",
        -7.773783751827367
      ],
      [
        "▁mimar",
        -10.405419549398673
      ],
      [
        "▁tatli",
        -10.575795250067697
      ],
      [
        "▁isabet",
        -10.630438446577008
      ],
      [
        "▁olması",
        -10.279507072818573
      ],
      [
        "▁eksi",
        -9.826218927254041
      ],
      [
        "▁ce",
        -10.279692747770051
      ],
      [
        "▁dost",
        -9.025660965637702
      ],
      [
        "▁gucunu",
        -10.37652336743049
      ],
      [
        "▁boyu",
        -9.49765959733365
      ],
      [
        "ıyorsun",
        -9.952232824201113
      ],
      [
        "▁tanrı",
        -9.600742307383495
      ],
      [
        "▁birbirlerini",
        -8.697935612590925
      ],
      [
        "▁balık",
        -9.15580067107844
      ],
      [
        "▁teksas",
        -10.177843536537509
      ],
      [
        "y",
        -6.612915594115094
      ],
      [
        "▁ifade",
        -8.263584741395128
      ],
      [
        "▁geliri",
        -9.629748977383425
      ],
      [
        "10",
        -10.505807693537065
      ],
      [
        "bes",
        -8.256481570860622
      ],
      [
        "▁75",
        -9.659339365804398
      ],
      [
        "1.4",
        -10.425505891963725
      ],
      [
        "▁buku",
        -10.887602199027912
      ],
      [
        "▁oldurul",
        -10.260784582611967
      ],
      [
        "▁mali",
        -8.625844991628487
      ],
      [
        "▁kazanıyor",
        -10.407641872041658
      ],
      [
        "▁far",
        -9.410704129758997
      ],
      [
        "▁par",
        -9.067684364952367
      ],
      [
        "lerde",
        -7.581511526829322
      ],
      [
        "▁22",
        -8.076066059236702
      ],
      [
        "▁kisiyi",
        -10.245276151090415
      ],
      [
        "lendirme",
        -9.35327397114617
      ],
      [
        "▁yollar",
        -10.163101998902938
      ],
      [
        "▁kızlar",
        -9.85955218201232
      ],
      [
        "digini",
        -8.452773236015084
      ],
      [
        "▁anlamak",
        -9.898438990562738
      ],
      [
        "▁musluman",
        -10.041987578516448
      ],
      [
        "lemeye",
        -10.098210829040228
      ],
      [
        "▁zeka",
        -9.951030418592309
      ],
      [
        "▁sutu",
        -10.257088368719659
      ],
      [
        "▁yabancı",
        -8.383542763752263
      ],
      [
        "▁2.6",
        -9.300197033415099
      ],
      [
        "▁1.1",
        -9.139451599402937
      ],
      [
        "▁hamam",
        -9.265803622911932
      ],
      [
        "▁muhalefet",
        -10.37841949106192
      ],
      [
        "▁.",
        -7.588598483541113
      ],
      [
        "▁acıklaya",
        -10.728876889800603
      ],
      [
        "▁adres",
        -10.818020048105355
      ],
      [
        "▁yine",
        -7.685510732076689
      ],
      [
        "▁digerleri",
        -9.819175940167348
      ],
      [
        "▁ulasan",
        -10.474503165364787
      ],
      [
        "▁kere",
        -8.777644808962052
      ],
      [
        "▁bilimin",
        -10.426509536109823
      ],
      [
        "▁bari",
        -9.986386386824515
      ],
      [
        "▁iktidar",
        -9.742490378991635
      ],
      [
        "▁nerede",
        -9.827874280805622
      ],
      [
        "m",
        -4.101365499939513
      ],
      [
        "▁ilgileniyor",
        -10.143683989304982
      ],
      [
        "▁eksiklikler",
        -10.536683503102697
      ],
      [
        "▁acıkca",
        -9.858632024831891
      ],
      [
        "▁roman",
        -9.182622148526008
      ],
      [
        "▁sayi",
        -9.890981516848893
      ],
      [
        "▁tiyatrosu",
        -10.441292652144547
      ],
      [
        "▁davet",
        -9.494032192960482
      ],
      [
        "▁f",
        -8.204955159730979
      ],
      [
        "▁aldi",
        -9.858544975706634
      ],
      [
        "▁kopek",
        -9.23648856272914
      ],
      [
        "▁1.19",
        -10.761712764325301
      ],
      [
        "▁bahcede",
        -10.718377236761533
      ],
      [
        "▁otobus",
        -9.815734126542722
      ],
      [
        "▁ohio",
        -10.688506974959042
      ],
      [
        "▁saklama",
        -10.865784285824924
      ],
      [
        "▁usak",
        -10.427331718251743
      ],
      [
        "▁hepimiz",
        -8.170111195120999
      ],
      [
        "▁yapılacak",
        -8.769534791818794
      ],
      [
        "▁b",
        -8.170274595416242
      ],
      [
        "▁artır",
        -9.552223993987033
      ],
      [
        "▁savunma",
        -8.93235468971314
      ],
      [
        "▁160",
        -10.2698148189397
      ],
      [
        "▁tulum",
        -10.746941552672666
      ],
      [
        "▁kurumsal",
        -9.194847700739093
      ],
      [
        "▁cocuklu",
        -8.150154710289826
      ],
      [
        "▁gogus",
        -10.29328618309139
      ],
      [
        "▁ogle",
        -7.562272136416086
      ],
      [
        "▁arz",
        -9.45361070562554
      ],
      [
        "▁pis",
        -8.909170788429615
      ],
      [
        "dugumuz",
        -10.665366476449574
      ],
      [
        "▁gonullu",
        -10.110736063509357
      ],
      [
        "▁vazgec",
        -9.79480002888206
      ],
      [
        "▁gidebilir",
        -10.254024572361125
      ],
      [
        "▁goren",
        -9.28492148856949
      ],
      [
        "▁kısıt",
        -10.470789572539072
      ],
      [
        "▁camasır",
        -9.674661922026335
      ],
      [
        "▁animasyonlar",
        -9.58104306321474
      ],
      [
        "▁ordusu",
        -10.447695680414578
      ],
      [
        "▁haz",
        -9.771810460462962
      ],
      [
        "▁olusturma",
        -10.424677433708142
      ],
      [
        "▁ilet",
        -9.665522907996994
      ],
      [
        "▁havası",
        -10.118542639375278
      ],
      [
        "▁tutuldu",
        -10.858446076254417
      ],
      [
        "▁dogrusu",
        -9.525092831088527
      ],
      [
        "▁edecegini",
        -9.927876721749636
      ],
      [
        "▁yemekler",
        -7.6400570460729345
      ],
      [
        "▁18",
        -8.02303047947422
      ],
      [
        "▁415",
        -10.282268113923852
      ],
      [
        "▁ozel",
        -8.210468548917204
      ],
      [
        "▁temizligi",
        -8.060376852666195
      ],
      [
        "▁dok",
        -9.191554789476374
      ],
      [
        "▁biliyordu",
        -10.392225235692823
      ],
      [
        "▁oyuncusu",
        -10.577236008426627
      ],
      [
        "▁kimse",
        -8.296606875204914
      ],
      [
        "▁imaj",
        -10.521936082268152
      ],
      [
        "lıklar",
        -9.510482850241543
      ],
      [
        "v",
        -7.60658556772975
      ],
      [
        "▁guleryuzlu",
        -8.359036296385783
      ],
      [
        "▁turlari",
        -10.52828837218223
      ],
      [
        "▁calısanları",
        -9.984808794079049
      ],
      [
        "go",
        -8.918881957799869
      ],
      [
        "▁sempati",
        -10.751003964367587
      ],
      [
        "▁siddet",
        -9.19598804049054
      ],
      [
        "▁fonlar",
        -9.761212066301841
      ],
      [
        "▁cesitliligi",
        -10.067425472937297
      ],
      [
        "8'de",
        -10.276984901970474
      ],
      [
        "▁egzersiz",
        -10.688503763298637
      ],
      [
        "er",
        -6.752276206006941
      ],
      [
        "stro",
        -10.264351420267191
      ],
      [
        "▁199",
        -9.359959182241319
      ],
      [
        "▁ticaret",
        -8.732889643887344
      ],
      [
        "▁ney",
        -8.827870655904642
      ],
      [
        "▁gecen",
        -7.613336566726588
      ],
      [
        "▁demokrat",
        -9.840883721347229
      ],
      [
        "▁bu",
        -8.198611955102388
      ],
      [
        "▁takım",
        -8.915679674378907
      ],
      [
        "▁55",
        -9.177819608601558
      ],
      [
        "▁orlando'",
        -9.153933873693745
      ],
      [
        "cur",
        -11.810415588524076
      ],
      [
        "ville",
        -10.577831390326951
      ],
      [
        "▁konsey",
        -10.751682523748677
      ],
      [
        "▁dayan",
        -8.953513989300827
      ],
      [
        "▁sandalye",
        -10.30497808142296
      ],
      [
        "▁gereken",
        -9.186411519601512
      ],
      [
        "▁ısın",
        -10.05599839489689
      ],
      [
        "▁yonetici",
        -9.641891441856636
      ],
      [
        "▁varacak",
        -9.639549289033711
      ],
      [
        "▁yuksekti",
        -9.140010024825166
      ],
      [
        "kendisi",
        -10.614145787993138
      ],
      [
        "▁halı",
        -10.236797677564917
      ],
      [
        "▁carsı",
        -9.967843463358689
      ],
      [
        "▁yarı",
        -8.53236582032709
      ],
      [
        "▁sene",
        -8.002989329899842
      ],
      [
        "lık",
        -6.5460204025308215
      ],
      [
        "▁politikacı",
        -10.531723425099633
      ],
      [
        "▁turkiye'",
        -9.116694596598368
      ],
      [
        "veya",
        -8.908097765809462
      ],
      [
        "kleri",
        -9.160282032731264
      ],
      [
        "abilir",
        -7.9594090050031925
      ],
      [
        "rası",
        -10.607892597440218
      ],
      [
        "▁ikincisi",
        -9.926045298289534
      ],
      [
        "▁yasadı",
        -9.893040816911007
      ],
      [
        "▁eniste",
        -10.378670804738215
      ],
      [
        "▁uzak",
        -8.507809429920549
      ],
      [
        "klerini",
        -9.531209545724364
      ],
      [
        "▁bizler",
        -8.787743749858901
      ],
      [
        "▁arkada",
        -10.236372093481673
      ],
      [
        "▁kilit",
        -9.870539986694554
      ],
      [
        "▁bildiril",
        -10.615543985762134
      ],
      [
        "▁%8.2",
        -11.920938577525046
      ],
      [
        "▁yılda",
        -8.991614166543542
      ],
      [
        "▁dev",
        -9.27941992001961
      ],
      [
        "▁olursa",
        -8.818756338566224
      ],
      [
        "#",
        -10.35952679083899
      ],
      [
        "▁salt",
        -8.72116689184673
      ],
      [
        "▁kaldır",
        -8.989994602349787
      ],
      [
        "▁mark",
        -9.823706932609575
      ],
      [
        "▁milli",
        -8.762751657393864
      ],
      [
        "▁takımı",
        -9.67208735625887
      ],
      [
        "97",
        -10.419706791220547
      ],
      [
        "▁dinledi",
        -10.417778827343863
      ],
      [
        "madıgı",
        -9.690666961226302
      ],
      [
        "▁hizmette",
        -9.668616633081879
      ],
      [
        "▁kulagım",
        -10.751425968036143
      ],
      [
        "▁kilo",
        -10.334992197421203
      ],
      [
        "▁kopar",
        -9.765886865859935
      ],
      [
        "▁cakı",
        -9.916660519477373
      ],
      [
        "▁dusunuyordu",
        -10.307365870901023
      ],
      [
        "▁birden",
        -8.445921963245027
      ],
      [
        "▁karsili",
        -10.286590989499762
      ],
      [
        "mezdi",
        -9.927696151071387
      ],
      [
        "▁satıcı",
        -9.697115917496323
      ],
      [
        "▁persembe",
        -8.313045156886972
      ],
      [
        "▁dugum",
        -10.828433626992025
      ],
      [
        "nı",
        -7.71052470967095
      ],
      [
        "▁sohbet",
        -9.674284638615516
      ],
      [
        "▁erkekler",
        -9.29892088203721
      ],
      [
        "▁uygulama",
        -9.225240366327618
      ],
      [
        "▁bizi",
        -7.022754278498933
      ],
      [
        "c",
        -6.779551376003666
      ],
      [
        "i",
        -9.483528417945884
      ],
      [
        "▁sey",
        -6.478438447907615
      ],
      [
        "▁basarı",
        -9.096748680385517
      ],
      [
        "▁konumu",
        -7.336623383231342
      ],
      [
        "▁aqua",
        -10.214813028593895
      ],
      [
        "▁city'de",
        -9.180512405700576
      ],
      [
        "▁duru",
        -9.888438380736261
      ],
      [
        "▁katlı",
        -10.391557106368477
      ],
      [
        "▁efsane",
        -10.041996477051118
      ],
      [
        "▁donanım",
        -10.751065201914983
      ],
      [
        "▁montreal'da",
        -10.829888453665546
      ],
      [
        "mal",
        -9.78979526119435
      ],
      [
        "▁jandarma",
        -10.751003752606403
      ],
      [
        "11",
        -9.219857971516149
      ],
      [
        "▁imparatorlugu",
        -10.858881185702316
      ],
      [
        "▁oyun",
        -8.670854883900706
      ],
      [
        "nizi",
        -9.673548805952013
      ],
      [
        "d",
        -7.120797305704387
      ],
      [
        ".4",
        -10.830378826620755
      ],
      [
        "▁oldugu",
        -7.377750279006808
      ],
      [
        "▁eastern",
        -9.980441745355408
      ],
      [
        "▁olmakta",
        -10.109797613195536
      ],
      [
        "le",
        -5.90175264925897
      ],
      [
        "▁bildiri",
        -10.271692380249359
      ],
      [
        "▁17",
        -7.930073394966318
      ],
      [
        "▁pansiyon",
        -10.629697531069414
      ],
      [
        "unun",
        -8.330675715180528
      ],
      [
        "▁bileti",
        -9.524939875434423
      ],
      [
        "▁4'te",
        -10.215506337053732
      ],
      [
        "▁`",
        -10.52550487288217
      ],
      [
        "mesini",
        -8.947113420861635
      ],
      [
        "▁market",
        -10.425082802975234
      ],
      [
        "birinde",
        -9.596124906648416
      ],
      [
        "▁ulkeleri",
        -10.390589389248156
      ],
      [
        "▁148",
        -10.41264142958399
      ],
      [
        "▁kavra",
        -10.204658235123322
      ],
      [
        "l",
        -9.263032525714058
      ],
      [
        "▁degildi",
        -4.719105511077978
      ],
      [
        "▁milliyet",
        -10.50451888760546
      ],
      [
        "▁cumhuriyet",
        -9.710745346588123
      ],
      [
        "▁biliyoru",
        -9.814810660185998
      ],
      [
        "▁yaratıcı",
        -10.178102178128066
      ],
      [
        "▁kısın",
        -10.26366234399983
      ],
      [
        "▁karabiber",
        -10.471493632214138
      ],
      [
        "hat",
        -10.213688043524025
      ],
      [
        "▁70",
        -8.959668593286574
      ],
      [
        "▁film",
        -8.730112802741207
      ],
      [
        "▁hucum",
        -10.57418297550662
      ],
      [
        "▁tesebbus",
        -10.688503749496348
      ],
      [
        "▁planı",
        -9.397366236252369
      ],
      [
        "87.5",
        -10.15696652924954
      ],
      [
        "ve",
        -8.232581526353126
      ],
      [
        "▁data",
        -10.486829609426849
      ],
      [
        "▁charlotte'de",
        -9.726351892978872
      ],
      [
        "▁getirebilir",
        -10.756676493850872
      ],
      [
        "▁cıkmıstı",
        -10.002621923604211
      ],
      [
        "▁degillerdi",
        -7.774122767717512
      ],
      [
        "87",
        -11.566550520542979
      ],
      [
        "4.8",
        -10.233379781774275
      ],
      [
        "▁bazılarını",
        -9.09894749944287
      ],
      [
        "▁calısması",
        -10.346846606648294
      ],
      [
        "▁zavallı",
        -9.696507055073225
      ],
      [
        "ınız",
        -9.388497876448346
      ],
      [
        "▁vaka",
        -9.9159630169811
      ],
      [
        "▁borcunu",
        -10.718357386207547
      ],
      [
        "bunlar",
        -10.166677767552747
      ],
      [
        "▁sart",
        -9.373676838726208
      ],
      [
        "▁2005",
        -9.970985020907277
      ],
      [
        "▁kuzey",
        -9.372981956226402
      ],
      [
        "dım",
        -8.727289002243712
      ],
      [
        "▁7.6",
        -10.134633392216099
      ],
      [
        "▁du",
        -9.297251333482725
      ],
      [
        "▁ikisi",
        -9.446968606829554
      ],
      [
        "▁20-2",
        -11.921801021663061
      ],
      [
        "▁memnuniyeti",
        -10.046340620325761
      ],
      [
        "yon",
        -8.92803217496599
      ],
      [
        "▁soku",
        -9.709393517397844
      ],
      [
        "▁kamp",
        -10.142685552388295
      ],
      [
        "▁alanda",
        -9.812923142508366
      ],
      [
        "▁yu",
        -9.195380628082543
      ],
      [
        "way",
        -10.748969330998014
      ],
      [
        "▁degilse",
        -8.67508121348586
      ],
      [
        "▁agac",
        -8.96293733464711
      ],
      [
        "▁denen",
        -10.426506082529865
      ],
[...]
