{
  "version": "1.0",
  "truncation": null,
  "padding": null,
  "added_tokens": [
    {
      "id": 2479,
      "content": "[SEP]",
      "single_word": false,
      "lstrip": false,
      "rstrip": false,
      "normalized": false,
      "special": true
    },
    {
      "id": 4035,
      "content": "[UNK]",
      "single_word": false,
      "lstrip": false,
      "rstrip": false,
      "normalized": false,
      "special": true
    },
    {
      "id": 5116,
      "content": "[MASK]",
      "single_word": false,
      "lstrip": false,
      "rstrip": false,
      "normalized": false,
      "special": true
    },
    {
      "id": 6597,
      "content": "[PAD]",
      "single_word": false,
      "lstrip": false,
      "rstrip": false,
      "normalized": false,
      "special": true
    },
    {
      "id": 6707,
      "content": "[CLS]",
      "single_word": false,
      "lstrip": false,
      "rstrip": false,
      "normalized": false,
      "special": true
    }
  ],
  "normalizer": {
    "type": "Sequence",
    "normalizers": [
      {
        "type": "NFD"
      },
      {
        "type": "Lowercase"
      },
      {
        "type": "StripAccents"
      }
    ]
  },
  "pre_tokenizer": {
    "type": "Sequence",
    "pretokenizers": [
      {
        "type": "Metaspace",
        "replacement": "▁",
        "prepend_scheme": "always",
        "split": true
      }
    ]
  },
  "post_processor": {
    "type": "TemplateProcessing",
    "single": [
      {
        "SpecialToken": {
          "id": "[CLS]",
          "type_id": 0
        }
      },
      {
        "Sequence": {
          "id": "A",
          "type_id": 0
        }
      },
      {
        "SpecialToken": {
          "id": "[SEP]",
          "type_id": 0
        }
      }
    ],
    "pair": [
      {
        "SpecialToken": {
          "id": "[CLS]",
          "type_id": 0
        }
      },
      {
        "Sequence": {
          "id": "A",
          "type_id": 0
        }
      },
      {
        "SpecialToken": {
          "id": "[SEP]",
          "type_id": 0
        }
      },
      {
        "Sequence": {
          "id": "B",
          "type_id": 1
        }
      },
      {
        "SpecialToken": {
          "id": "[SEP]",
          "type_id": 1
        }
      }
    ],
    "special_tokens": {
      "[CLS]": {
        "id": "[CLS]",
        "ids": [
          6707
        ],
        "tokens": [
          "[CLS]"
        ]
      },
      "[SEP]": {
        "id": "[SEP]",
        "ids": [
          2479
        ],
        "tokens": [
          "[SEP]"
        ]
      }
    }
  },
  "decoder": {
    "type": "Metaspace",
    "replacement": "▁",
    "prepend_scheme": "always",
    "split": true
  },
  "model": {
    "type": "WordPiece",
    "unk_token": "[UNK]",
    "continuing_subword_prefix": "##",
    "max_input_chars_per_word": 100,
    "vocab": {
      "▁%6": 0,
      "##siyon": 1,
      "##yası": 2,
      "▁aldı": 3,
      "##ması": 4,
      "▁ceviz": 5,
      "##ecegiz": 6,
      "▁hele": 7,
      "▁sch": 8,
      "▁yapmıs": 9,
      "▁475": 10,
      "▁calısıyordu": 11,
      "##lem": 12,
      "▁isler": 13,
      "##acagını": 14,
      "##2:30": 15,
      "▁emek": 16,
      "▁gelecek": 17,
      "##eydi": 18,
      "▁tepki": 19,
      "▁general": 20,
      "▁tex": 21,
      "▁gelirler": 22,
      "▁suret": 23,
      "##ulması": 24,
      "##madim": 25,
      "▁tv": 26,
      "▁columbus": 27,
      "▁ocak": 28,
      "▁dekor": 29,
      "##el": 30,
      "▁ankara": 31,
      "▁hafif": 32,
      "▁vef": 33,
      "##ona": 34,
      "▁genc": 35,
      "##layı": 36,
      "▁iki": 37,
      "▁32": 38,
      "▁piyasaları": 39,
      "##ebilir": 40,
      "▁sif": 41,
      "▁olduguna": 42,
      "▁ilk": 43,
      "▁subay": 44,
      "▁om": 45,
      "##etti": 46,
      "##36": 47,
      "##gal": 48,
      "▁verin": 49,
      "s": 50,
      "▁tartıs": 51,
      "▁oluyordu": 52,
      "▁newark'tan": 53,
      "▁kutur": 54,
      "##digine": 55,
      "▁chp": 56,
      "▁on": 57,
      "##amayan": 58,
      "▁beklen": 59,
      "▁city": 60,
      "▁gar": 61,
      "▁ilave": 62,
      "##eti": 63,
      "##tan": 64,
      "▁bırakıp": 65,
      "##lerindeki": 66,
      "##'tan": 67,
      "▁siparis": 68,
      "▁21:00-22:30": 69,
      "▁kars": 70,
      "▁tabur": 71,
      "▁unit": 72,
      "▁olursa": 73,
      "▁yalap": 74,
      "▁ha": 75,
      "##inn": 76,
      "▁pu": 77,
      "m": 78,
      "▁hazırlık": 79,
      "▁pop": 80,
      "▁soyluyor": 81,
      "▁kalkar": 82,
      "▁car": 83,
      "▁yoksul": 84,
      "##eler": 85,
      "▁neye": 86,
      "▁birlikte": 87,
      "##udu": 88,
      "▁berbat": 89,
      "##ade": 90,
      "▁kaynak": 91,
      "▁karsil": 92,
      "▁islemlerinde": 93,
      "##kul": 94,
      "▁kendine": 95,
      "▁merk": 96,
      "##'nda": 97,
      "▁gorulen": 98,
      "▁tef": 99,
      "▁cent": 100,
      "▁barda": 101,
      "▁gorur": 102,
      "▁adım": 103,
      "▁mıdır": 104,
      "▁olabilirdi": 105,
      "▁kasır": 106,
      "▁sinem": 107,
      "▁%22": 108,
      "▁bana": 109,
      "##0'": 110,
      "▁gorul": 111,
      "▁mesel": 112,
      "##arken": 113,
      "##tır": 114,
      "▁taraftan": 115,
      "▁dakika": 116,
      "▁kayıp": 117,
      "▁sogut": 118,
      "##elerden": 119,
      "▁gidebilir": 120,
      "▁binbir": 121,
      "▁odeme": 122,
      "▁cılgın": 123,
      "▁-": 124,
      "▁coc": 125,
      "▁unut": 126,
      "##emek": 127,
      "##inal": 128,
      "▁muhendis": 129,
      "▁84": 130,
      "▁konusuyor": 131,
      "▁akıllı": 132,
      "▁sebeb": 133,
      "▁calısır": 134,
      "▁1979": 135,
      "▁bulun": 136,
      "▁0.7": 137,
      "▁verg": 138,
      "##iski": 139,
      "##ısının": 140,
      "▁iyi": 141,
      "▁agırlık": 142,
      "▁temet": 143,
      "▁onları": 144,
      "##ha": 145,
      "▁yumurta": 146,
      "##ish": 147,
      "##diginde": 148,
      "▁sahil": 149,
      "▁hayır": 150,
      "▁guver": 151,
      "##ator": 152,
      "▁tac": 153,
      "▁urun": 154,
      "##ime": 155,
      "##arak": 156,
      "▁buradan": 157,
      "##ide": 158,
      "▁yapmaya": 159,
      "▁hanim": 160,
      "##9-": 161,
      "▁butun": 162,
      "▁kırmızı": 163,
      "▁400": 164,
      "##liyordu": 165,
      "▁haline": 166,
      "▁vak": 167,
      "##bah": 168,
      "▁savur": 169,
      "##’": 170,
      "##eceg": 171,
      "##aki": 172,
      "▁cig": 173,
      "▁demokr": 174,
      "##ili": 175,
      "▁havada": 176,
      "▁140": 177,
      "##cekti": 178,
      "##larındaki": 179,
      "▁destekli": 180,
      "▁isi": 181,
      "▁lideri": 182,
      "▁ser": 183,
      "5": 184,
      "##2-23": 185,
      "▁uvey": 186,
      "##–": 187,
      "▁hiz": 188,
      "▁corba": 189,
      "##ıstır": 190,
      "▁cıg": 191,
      "▁cirkin": 192,
      "▁eder": 193,
      "##rak": 194,
      "▁%50": 195,
      "▁verir": 196,
      "▁doksan": 197,
      "▁tasım": 198,
      "▁hayatını": 199,
      "▁degisimi": 200,
      "▁beyin": 201,
      "▁konum": 202,
      "▁sampiyon": 203,
      "▁koy": 204,
      "▁yed": 205,
      "▁indianapolis'e": 206,
      "##agı": 207,
      "▁bolg": 208,
      "##oglu": 209,
      "▁verim": 210,
      "▁must": 211,
      "##nan": 212,
      "▁lub": 213,
      "▁birik": 214,
      "▁asır": 215,
      "▁muzakere": 216,
      "▁kansas": 217,
      "▁bush": 218,
      "▁dusunuyor": 219,
      "▁bos": 220,
      "▁edin": 221,
      "▁18": 222,
      "##9.8": 223,
      "▁ice": 224,
      "▁delikanlı": 225,
      "▁kapan": 226,
      "▁bitti": 227,
      "▁birbiriyle": 228,
      "##acılık": 229,
      "▁kulak": 230,
      "x": 231,
      "##57": 232,
      "▁suyun": 233,
      "##aması": 234,
      "##ve": 235,
      "▁rum": 236,
      "▁anlamak": 237,
      "##ılmıstır": 238,
      "##ılacak": 239,
      "▁nik": 240,
      "▁mudur": 241,
      "▁500": 242,
      "▁bosal": 243,
      "▁maliyetleri": 244,
      "##oya": 245,
      "▁tipik": 246,
      "##istler": 247,
      "▁“": 248,
      "▁acisindan": 249,
      "##alara": 250,
      "▁mich": 251,
      "▁harp": 252,
      "▁gecip": 253,
      "▁tel": 254,
      "▁,": 255,
      "▁kalmadim": 256,
      "▁indi": 257,
      "▁sure": 258,
      "##gım": 259,
      "▁kendinde": 260,
      "▁toren": 261,
      "▁mik": 262,
      "▁%14": 263,
      "▁mesut": 264,
      "▁resmen": 265,
      "▁men": 266,
      "##elerinde": 267,
      "▁gonullu": 268,
      "##de": 269,
      "▁cinsel": 270,
      "▁delta": 271,
      "▁gozuk": 272,
      "▁ark": 273,
      "▁4": 274,
      "▁nuf": 275,
      "▁muhaseb": 276,
      "▁sirket": 277,
      "▁iliskin": 278,
      "##gim": 279,
      "▁zor": 280,
      "##.75": 281,
      "##anın": 282,
      "##adet": 283,
      "▁merak": 284,
      "▁hava": 285,
      "##land": 286,
      "▁gormez": 287,
      "▁sattı": 288,
      "▁temp": 289,
      "▁beyle": 290,
      "##00": 291,
      "▁temmuz": 292,
      "▁ayın": 293,
      "▁toronto'dan": 294,
      "▁stand": 295,
      "▁dair": 296,
      "##lıktan": 297,
      "▁haber": 298,
      "▁tamamlan": 299,
      "##sinin": 300,
      "▁sizinle": 301,
      "##iz": 302,
      "▁gerek": 303,
      "▁mısınız": 304,
      "##liginin": 305,
      "▁ornek": 306,
      "▁demek": 307,
      "##undaki": 308,
      "▁jose'ye": 309,
      "##atur": 310,
      "▁kalmak": 311,
      "##ılan": 312,
      "##ina": 313,
      "##eceksin": 314,
      "▁yurum": 315,
      "##bat": 316,
      "▁kendisinin": 317,
      "▁sonuc": 318,
      "##fik": 319,
      "▁oyk": 320,
      "▁bet": 321,
      "▁west": 322,
      "▁fut": 323,
      "▁dow": 324,
      "▁gelin": 325,
      "##ekli": 326,
      "▁sub": 327,
      "▁gıldır": 328,
      "▁olu": 329,
      "▁'de": 330,
      "▁bisiklet": 331,
      "##ed": 332,
      "▁gerceklesti": 333,
      "▁rest": 334,
      "▁midir": 335,
      "##cısı": 336,
      "▁duzen": 337,
      "##ında": 338,
      "##acılar": 339,
      "##a.": 340,
      "##yim": 341,
      "▁durumda": 342,
      "▁sevg": 343,
      "▁dile": 344,
      "▁odanin": 345,
      "▁sal": 346,
      "▁feder": 347,
      "▁alabilir": 348,
      "▁listele": 349,
      "▁sohbet": 350,
      "▁oldur": 351,
      "##lasıyor": 352,
      "▁esas": 353,
      "▁600": 354,
      "##maları": 355,
      "##ental": 356,
      "▁yusuf": 357,
      "▁ettigi": 358,
      "▁personelin": 359,
      "##dam": 360,
      ",": 361,
      "▁a.b.": 362,
      "▁%0.3": 363,
      "##ebi": 364,
      "##tıgı": 365,
      "▁munaseb": 366,
      "▁karmas": 367,
      "##mazlar": 368,
      "##amaz": 369,
      "▁105": 370,
      "##47": 371,
      "▁kurtul": 372,
      "##iy": 373,
      "##masıyla": 374,
      "##edim": 375,
      "▁oglan": 376,
      "▁kısa": 377,
      "▁laf": 378,
      "▁komut": 379,
      "▁kararsizim": 380,
      "▁metre": 381,
      "▁alarak": 382,
      "##alak": 383,
      "▁is": 384,
      "▁hayatta": 385,
      "▁tanrı": 386,
      "▁yumur": 387,
      "▁acele": 388,
      "##ıf": 389,
      "▁vucut": 390,
      "▁italyan": 391,
      "##b.": 392,
      "▁inc.": 393,
      "▁yildiz": 394,
      "▁belirt": 395,
      "##tansiy": 396,
      "▁fiyati": 397,
      "▁yılının": 398,
      "▁tutul": 399,
      "▁onune": 400,
      "▁vegas'a": 401,
      "▁gosterir": 402,
      "▁zayıf": 403,
      "##esinde": 404,
      "▁kahr": 405,
      "##mistim": 406,
      "▁epey": 407,
      "▁zincir": 408,
      "##\\/": 409,
      "▁john": 410,
      "##ici": 411,
      "▁esi": 412,
      "▁sayesinde": 413,
      "▁tazmin": 414,
      "▁dinlemek": 415,
      "##asına": 416,
      "##ulur": 417,
      "##gumu": 418,
      "▁inanıyor": 419,
      "▁pitt": 420,
      "##laması": 421,
      "▁hepsini": 422,
      "▁bakanı": 423,
      "▁mah": 424,
      "##irmi": 425,
      "▁am": 426,
      "▁dusunceler": 427,
      "▁bogaz": 428,
      "##cuk": 429,
      "▁muzak": 430,
      "▁imalat": 431,
      "▁alman": 432,
      "▁yuregi": 433,
      "▁universitesi": 434,
      "##35": 435,
      "##emey": 436,
      "##kat": 437,
      "▁ur": 438,
      "▁cıkmıs": 439,
      "▁parc": 440,
      "▁yeni": 441,
      "▁yatırımcılar": 442,
      "▁partiler": 443,
      "##vıl": 444,
      "▁yapabil": 445,
      "▁seyin": 446,
      "▁kızgın": 447,
      "▁80": 448,
      "▁count": 449,
      "▁toparlan": 450,
      "▁elim": 451,
      "##mel": 452,
      "##anlık": 453,
      "##sk": 454,
      "##emedim": 455,
      "▁yıgın": 456,
      "▁mac": 457,
      "▁oynat": 458,
      "##ok": 459,
      "▁yeteri": 460,
      "▁mak": 461,
      "▁nis": 462,
      "▁islet": 463,
      "▁goster": 464,
      "▁dalga": 465,
      "▁suyunu": 466,
      "▁pir": 467,
      "▁kriz": 468,
      "▁istik": 469,
      "▁olusan": 470,
      "▁ma": 471,
      "##75": 472,
      "▁fazlaydi": 473,
      "▁seniz": 474,
      "▁ulus": 475,
      "▁sis": 476,
      "▁deprem": 477,
      "▁avuk": 478,
      "▁ton": 479,
      "##:00": 480,
      "##sek": 481,
      "▁istedi": 482,
      "▁olma": 483,
      "▁kuzey": 484,
      "▁kul": 485,
      "##anlar": 486,
      "▁fab": 487,
      "▁gunluk": 488,
      "##lara": 489,
      "▁1.25": 490,
      "##aret": 491,
      "▁caresiz": 492,
      "##lav": 493,
      "▁br": 494,
      "##obra": 495,
      "▁pat": 496,
      "▁haziran'da": 497,
      "▁ev": 498,
      "▁zamandan": 499,
      "▁cin": 500,
      "▁agustos'ta": 501,
      "▁donen": 502,
      "▁dondu": 503,
      "##iddet": 504,
      "▁`": 505,
      "▁dusus": 506,
      "▁dul": 507,
      "##ak": 508,
      "▁fot": 509,
      "##ick": 510,
      "##esin": 511,
      "▁kon": 512,
      "▁yeterli": 513,
      "▁davranıs": 514,
      "##cel": 515,
      "##lu": 516,
      "▁2008": 517,
      "##ca": 518,
      "▁takdir": 519,
      "▁kemik": 520,
      "▁cıl": 521,
      "▁acıkca": 522,
      "▁78": 523,
      "▁%99": 524,
      "▁od": 525,
      "##amayacak": 526,
      "##iskin": 527,
      "▁savası": 528,
      "▁gaz": 529,
      "▁bolgede": 530,
      "##lige": 531,
      "▁pacific": 532,
      "##arlan": 533,
      "▁gosterebilir": 534,
      "▁bakalım": 535,
      "▁tok": 536,
      "▁ap": 537,
      "▁kıyas": 538,
      "▁gov": 539,
      "##-23": 540,
      "▁ihtim": 541,
      "▁kadınların": 542,
      "##uh": 543,
      "##aların": 544,
      "▁izledi": 545,
      "##ediyor": 546,
      "▁mum": 547,
      "▁kendime": 548,
      "##rı": 549,
      "▁3.8": 550,
      "▁hır": 551,
      "##lardı": 552,
      "▁brit": 553,
      "▁tokyo": 554,
      "▁sozles": 555,
      "▁kun": 556,
      "▁odaydi": 557,
      "▁kredi": 558,
      "▁akıl": 559,
      "▁cek": 560,
      "▁soylen": 561,
      "▁ler": 562,
      "▁vasıt": 563,
      "▁yuzyıl": 564,
      "▁49": 565,
      "▁tuccar": 566,
      "##denin": 567,
      "##laya": 568,
      "##liginde": 569,
      "##ırlar": 570,
      "##dır": 571,
      "##ust": 572,
      "▁1989-": 573,
      "▁gidis": 574,
      "▁nisan": 575,
      "▁merrill": 576,
      "##enen": 577,
      "▁%5.4": 578,
      "##likte": 579,
      "▁boylece": 580,
      "▁lık": 581,
      "##anmıs": 582,
      "▁soyluyorlar": 583,
      "▁dum": 584,
      "##baskan": 585,
      "▁hisselerini": 586,
      "▁onsekiz": 587,
      "▁tahmin": 588,
      "##enc": 589,
      "##aliydi": 590,
      "▁ymis": 591,
      "##len": 592,
      "##90": 593,
      "▁american": 594,
      "▁salt": 595,
      "▁700": 596,
      "▁yoksun": 597,
      "##t": 598,
      "▁kopr": 599,
      "##vili": 600,
      "▁kirliydi": 601,
      "▁birisini": 602,
      "▁seref": 603,
      "▁rekor": 604,
      "##sil": 605,
      "▁cıkmaz": 606,
      "▁calar": 607,
      "▁gorduk": 608,
      "▁altından": 609,
      "▁nashville": 610,
      "▁cog": 611,
      "▁alıs": 612,
      "▁hızla": 613,
      "▁tip": 614,
      "▁yasıyor": 615,
      "##dem": 616,
      "▁2.7": 617,
      "##5'ten": 618,
      "▁binlerce": 619,
      "##ket": 620,
      "▁zey": 621,
      "▁gon": 622,
      "##elle": 623,
      "##ock": 624,
      "▁sahiptir": 625,
      "f": 626,
      "▁cesitleri": 627,
      "▁ucuncu": 628,
      "▁onemli": 629,
      "##ega": 630,
      "##leniyor": 631,
      "▁kimi": 632,
      "▁ornegin": 633,
      "▁yandan": 634,
      "##raz": 635,
      "▁dogr": 636,
      "▁daima": 637,
      "▁dieg": 638,
      "▁sad": 639,
      "##s'in": 640,
      "##ru": 641,
      "▁isim": 642,
      "▁ilgilenmedi": 643,
      "▁mi": 644,
      "▁kasab": 645,
      "▁ruh": 646,
      "▁boyle": 647,
      "▁bık": 648,
      "##tel": 649,
      "##4'te": 650,
      "▁oakland'a": 651,
      "▁ardından": 652,
      "▁dib": 653,
      "▁uz": 654,
      "▁hij": 655,
      "##/8'e": 656,
      "▁olmaktan": 657,
      "▁cıktı": 658,
      "▁neyin": 659,
      "##1-19": 660,
      "▁cel": 661,
      "▁oldugun": 662,
      "##liy": 663,
      "▁savun": 664,
      "▁hakk": 665,
      "##isler": 666,
      "▁suresi": 667,
      "▁bicimde": 668,
      "▁tertemiz": 669,
      "▁kalabalikti": 670,
      "▁almanya": 671,
      "|": 672,
      "##ınıza": 673,
      "##ucu": 674,
      "▁nerede": 675,
      "##=": 676,
      "▁kasık": 677,
      "▁bardagı": 678,
      "▁tehdit": 679,
      "##dıkca": 680,
      "▁ulkemiz": 681,
      "▁cumhuriyeti": 682,
      "##lardan": 683,
      "▁yayım": 684,
      "##emiz": 685,
      "▁ilgisizdi": 686,
      "▁oldugumuz": 687,
      "##tuk": 688,
      "▁tanım": 689,
      "##os": 690,
      "▁%0.": 691,
      "▁maas": 692,
      "▁ekmek": 693,
      "▁basın": 694,
      "▁bod": 695,
      "##but": 696,
      "##ati": 697,
      "##gimiz": 698,
      "▁donemi": 699,
      "##ıya": 700,
      "▁payı": 701,
      "▁oteli": 702,
      "▁persembe": 703,
      "▁kaldı": 704,
      "##'taki": 705,
      "##ırı": 706,
      "▁sadece": 707,
      "▁yukselen": 708,
      "i": 709,
      "▁satısı": 710,
      "##izasyon": 711,
      "▁yiy": 712,
      "##ali": 713,
      "##ekul": 714,
      "▁diyarbakır": 715,
      "▁yemekleri": 716,
      "▁sırada": 717,
      "▁derli": 718,
      "▁eline": 719,
      "##iyordum": 720,
      "▁bog": 721,
      "▁piyasa": 722,
      "▁catlak": 723,
      "##hi": 724,
      "▁kok": 725,
      "▁yakal": 726,
      "▁kahv": 727,
      "##aları": 728,
      "▁aynı": 729,
      "▁a.": 730,
      "▁avrupa": 731,
      "▁edebiyat": 732,
      "##ıldıgı": 733,
      "▁katildim": 734,
      "##lıklar": 735,
      "▁basında": 736,
      "##.85": 737,
      "##ısında": 738,
      "##cesi": 739,
      "▁fiili": 740,
      "▁05.": 741,
      "▁tom": 742,
      "▁sokakta": 743,
      "▁1000": 744,
      "▁tor": 745,
      "▁ilet": 746,
      "▁36": 747,
      "▁hic": 748,
      "▁yetistir": 749,
      "▁kisisel": 750,
      "##tigini": 751,
      "▁750": 752,
      "##ans": 753,
      "▁tık": 754,
      "##bucuk": 755,
      "▁fonu": 756,
      "##iya": 757,
      "▁gecer": 758,
      "▁dısında": 759,
      "##.08": 760,
      "▁itiraf": 761,
      "##ley": 762,
      "##eyi": 763,
      "▁yay": 764,
      "##ıcı": 765,
      "##-4": 766,
      "▁kompoz": 767,
      "##ess": 768,
      "▁dolayı": 769,
      "##meden": 770,
      "##lek": 771,
      "##iyet": 772,
      "▁halkı": 773,
      "▁ucusun": 774,
      "▁gonder": 775,
      ";": 776,
      "▁istikrar": 777,
      "##pan": 778,
      "##ıydı": 779,
      "▁temiz": 780,
      "▁lik": 781,
      "▁icer": 782,
      "▁etmektedir": 783,
      "▁denen": 784,
      "▁miydi": 785,
      "▁ile": 786,
      "##ill": 787,
      "▁tehlik": 788,
      "▁birbucuk": 789,
      "▁sekil": 790,
      "##dıklarını": 791,
      "▁neh": 792,
      "##:00-22:30": 793,
      "▁ter": 794,
      "▁kategor": 795,
      "▁ph": 796,
      "▁curuk": 797,
      "▁boyn": 798,
      "▁degistir": 799,
      "▁gorunce": 800,
      "▁baslayacak": 801,
      "##'ya": 802,
      "▁bilet": 803,
      "▁girip": 804,
      "##lah": 805,
      "▁pan": 806,
      "##mıslar": 807,
      "▁incelem": 808,
      "▁istemez": 809,
      "##atik": 810,
      "##edeki": 811,
      "▁puan": 812,
      "▁biles": 813,
      "##ice": 814,
      "▁ayakk": 815,
      "▁hukumeti": 816,
      "▁meyv": 817,
      "▁sayisi": 818,
      "▁ka": 819,
      "▁acıdan": 820,
      "▁kop": 821,
      "e": 822,
      "▁kısmı": 823,
      "▁gittikce": 824,
      "##orp": 825,
      "▁yuzden": 826,
      "▁'d": 827,
      "▁gorev": 828,
      "▁siyasi": 829,
      "▁surat": 830,
      "##uru": 831,
      "▁ydik": 832,
      "▁yap": 833,
      "▁degillerdi": 834,
      "##eet": 835,
      "▁cocuklu": 836,
      "▁ilginc": 837,
      "##duncu": 838,
      "▁istedik": 839,
      "▁kitap": 840,
      "▁soyler": 841,
      "▁vek": 842,
      "▁geldim": 843,
      "▁hadi": 844,
      "▁tep": 845,
      "▁ince": 846,
      "##ikti": 847,
      "▁hulya": 848,
      "##esi'nde": 849,
      "▁mim": 850,
      "▁baglan": 851,
      "▁268": 852,
      "▁islerini": 853,
      "▁makin": 854,
      "▁ucusların": 855,
      "##8": 856,
      "▁olmuyor": 857,
      "▁busbutun": 858,
      "▁tasarru": 859,
      "▁inc": 860,
      "▁ogretmen": 861,
      "▁ahmet": 862,
      "▁anda": 863,
      "##let": 864,
      "▁yakında": 865,
      "▁kam": 866,
      "▁tek": 867,
      "▁diyerek": 868,
      "##malar": 869,
      "##alt": 870,
      "▁hizmet": 871,
      "▁her": 872,
      "##izm": 873,
      "▁alım-sat": 874,
      "##men": 875,
      "##yn": 876,
      "▁tev": 877,
      "▁ikincisi": 878,
      "▁hatta": 879,
      "▁sehri": 880,
      "▁siv": 881,
      "▁detroit": 882,
      "▁%17": 883,
      "##imizin": 884,
      "##92": 885,
      "▁continental": 886,
      "▁ettim": 887,
      "▁tak": 888,
      "▁telefonla": 889,
      "▁agrı": 890,
      "▁ber": 891,
      "▁ex": 892,
      "##acaklar": 893,
      "▁gayret": 894,
      "▁maden": 895,
      "▁kez": 896,
      "▁senet": 897,
      "▁louis": 898,
      "▁yanı": 899,
      "▁yut": 900,
      "##yal": 901,
      "##nik": 902,
      "##ırak": 903,
      "▁mucadele": 904,
      "▁nar": 905,
      "▁gogsun": 906,
      "▁fokur": 907,
      "▁baslangıc": 908,
      "▁okur": 909,
      "▁komun": 910,
      "##tık": 911,
      "▁istiyordu": 912,
      "▁yardım": 913,
      "▁fed": 914,
      "▁etmek": 915,
      "##ence": 916,
      "▁hosuma": 917,
      "▁zarf": 918,
      "##alarda": 919,
      "##.45": 920,
      "▁kadın": 921,
      "▁atar": 922,
      "▁kemal": 923,
      "▁rıhtım": 924,
      "##ayacak": 925,
      "▁cad": 926,
      "##liyor": 927,
      "▁cim": 928,
      "##.9": 929,
      "▁cizgi": 930,
      "##6": 931,
      "##uar": 932,
      "▁gorustuk": 933,
      "▁yagm": 934,
      "▁yoluyla": 935,
      "▁marj": 936,
      "▁serp": 937,
      "▁soyledik": 938,
      "##lenmis": 939,
      "▁temizdi": 940,
      "▁kendisin": 941,
      "##ini": 942,
      "##lit": 943,
      "▁1991-19": 944,
      "##oth": 945,
      "▁taks": 946,
      "▁dı": 947,
      "▁dev": 948,
      "▁uzan": 949,
      "##ugun": 950,
      "▁agac": 951,
      "▁herkese": 952,
      "▁gormek": 953,
      "▁pazar": 954,
      "▁nere": 955,
      "▁kavram": 956,
      "▁angel": 957,
      "▁net": 958,
      "▁det": 959,
      "##lardır": 960,
      "▁gelgelelim": 961,
      "▁hicbir": 962,
      "▁cadır": 963,
      "##liydi": 964,
      "▁al": 965,
      "▁sız": 966,
      "▁koyun": 967,
      "▁dusmus": 968,
      "▁kons": 969,
      "▁niye": 970,
      "▁191": 971,
      "▁ozellikle": 972,
      "▁istasyon": 973,
      "▁traf": 974,
      "▁sarhos": 975,
      "▁mahkeme": 976,
      "▁pozisyon": 977,
      "▁aksam": 978,
      "##alı": 979,
      "▁birlestir": 980,
      "▁ise": 981,
      "##'i": 982,
      "▁paranin": 983,
      "▁muhafaz": 984,
      "▁sonucu": 985,
      "▁pers": 986,
      "##isk": 987,
      "##indeki": 988,
      "##asi": 989,
      "▁francisco'ya": 990,
      "▁bufe": 991,
      "##bur": 992,
      "▁cekici": 993,
      "##'la": 994,
      "▁mevdu": 995,
      "▁geriye": 996,
      "▁alcak": 997,
      "▁surec": 998,
      "▁kendimde": 999,
      "##bire": 1000,
      "##lugunu": 1001,
      "▁isra": 1002,
      "##ardan": 1003,
      "##lay": 1004,
      "▁giderek": 1005,
      "▁yanıt": 1006,
      "▁tahta": 1007,
      "▁ruy": 1008,
      "▁donup": 1009,
      "▁''": 1010,
      "##ecik": 1011,
      "▁efendim": 1012,
      "▁uzerinden": 1013,
      "▁41": 1014,
      "▁biliyorum": 1015,
      "▁cizg": 1016,
      "##timore": 1017,
      "▁birkac": 1018,
      "▁bisik": 1019,
      "##ayıf": 1020,
      "▁david": 1021,
      "##yen": 1022,
      "▁verdi": 1023,
      "##&": 1024,
      "▁olabilecegini": 1025,
      "▁and": 1026,
      "▁isters": 1027,
      "▁ek": 1028,
      "▁yasa": 1029,
      "▁polit": 1030,
      "▁gelis": 1031,
      "▁88": 1032,
      "▁war": 1033,
      "##meler": 1034,
      "▁paul": 1035,
      "##'le": 1036,
      "▁ayrılıp": 1037,
      "▁guler": 1038,
      "▁yas": 1039,
      "##'nde": 1040,
      "▁yurut": 1041,
      "▁hitap": 1042,
      "##idik": 1043,
      "▁kıyafet": 1044,
      "##ılabilir": 1045,
      "##acagim": 1046,
      "##/32": 1047,
      "▁deli": 1048,
      "▁alındı": 1049,
      "▁mevz": 1050,
      "▁raki": 1051,
      "▁tekrar": 1052,
      "##gunda": 1053,
      "▁houston": 1054,
      "▁ondan": 1055,
      "▁nasıl": 1056,
      "##evizyon": 1057,
      "##iligi": 1058,
      "▁westchester": 1059,
      "▁yırt": 1060,
      "##gine": 1061,
      "##%": 1062,
      "##26": 1063,
      "▁nikah": 1064,
      "##mma": 1065,
      "▁alınması": 1066,
      "▁panik": 1067,
      "▁tarafından": 1068,
      "▁finanse": 1069,
      "▁ciftlik": 1070,
      "▁kongr": 1071,
      "▁dusunmuyor": 1072,
      "▁kactı": 1073,
      "##4.5": 1074,
      "▁ragmen": 1075,
      "▁str": 1076,
      "##lım": 1077,
      "##umda": 1078,
      "▁geril": 1079,
      "▁kab": 1080,
      "▁karsıl": 1081,
      "##isinden": 1082,
      "▁taslar": 1083,
      "▁yerler": 1084,
      "▁kaldıgı": 1085,
      "▁biraz": 1086,
      "▁ilisk": 1087,
      "▁kıy": 1088,
      "##lik": 1089,
      "▁rej": 1090,
      "▁katkıda": 1091,
      "▁suren": 1092,
      "▁orn": 1093,
      "▁1999": 1094,
      "##etin": 1095,
      "▁6": 1096,
      "▁merkezli": 1097,
      "##onik": 1098,
      "▁parcası": 1099,
      "##.": 1100,
      "▁hes": 1101,
      "▁37": 1102,
      "▁arizona": 1103,
      "##k": 1104,
      "▁git": 1105,
      "##miyorum": 1106,
      "▁hepsinin": 1107,
      "▁dr.": 1108,
      "##imet": 1109,
      "##eyim": 1110,
      "▁new": 1111,
      "▁alkıs": 1112,
      "▁mıs": 1113,
      "▁5.2": 1114,
      "▁bulundu": 1115,
      "▁iktis": 1116,
      "▁filan": 1117,
      "▁almayı": 1118,
      "▁parca": 1119,
      "▁18.": 1120,
      "▁endustri": 1121,
      "▁istemedi": 1122,
      "▁model": 1123,
      "▁oda": 1124,
      "▁lond": 1125,
      "▁etrafında": 1126,
      "##ardı": 1127,
      "##ens": 1128,
      "▁edilem": 1129,
      "▁diyen": 1130,
      "##tadır": 1131,
      "▁kanıt": 1132,
      "▁san": 1133,
      "▁siyaset": 1134,
      "▁kesin": 1135,
      "▁yok": 1136,
      "##ıl": 1137,
      "▁saatte": 1138,
      "▁cıkart": 1139,
      "▁oakland'dan": 1140,
      "##iyordu": 1141,
      "##don": 1142,
      "▁cocuga": 1143,
      "▁kahvaltisi": 1144,
      "▁toplantı": 1145,
      "▁kaya": 1146,
      "▁ediyordu": 1147,
      "▁gere": 1148,
      "▁suc": 1149,
      "▁birtakım": 1150,
      "##fe": 1151,
      "▁teskil": 1152,
      "##amm": 1153,
      "##luyor": 1154,
      "##ektif": 1155,
      "▁yapılacak": 1156,
      "##edigini": 1157,
      "▁3\\/8": 1158,
      "##ahat": 1159,
      "▁otelden": 1160,
      "▁olanaklari": 1161,
      "▁bask": 1162,
      "▁hissediyor": 1163,
      "▁ahlak": 1164,
      "##fet": 1165,
      "▁sikayet": 1166,
      "▁bekler": 1167,
      "▁beden": 1168,
      "▁begendik": 1169,
      "▁yemis": 1170,
      "##ansiyon": 1171,
      "▁okumak": 1172,
      "##ayi": 1173,
      "##aci": 1174,
      "▁10": 1175,
      "▁banka": 1176,
      "▁ikti": 1177,
      "##oh": 1178,
      "##lerden": 1179,
      "▁%3.": 1180,
      "##vik": 1181,
      "▁haksız": 1182,
      "▁taraf": 1183,
      "▁direk": 1184,
      "▁yelpaz": 1185,
      "▁muc": 1186,
      "##?": 1187,
      "▁ipotek": 1188,
      "##ıldır": 1189,
      "▁sıngır": 1190,
      "##landır": 1191,
      "##abilir": 1192,
      "▁inan": 1193,
      "▁dususle": 1194,
      "##asıyor": 1195,
      "##dılar": 1196,
      "▁#": 1197,
      "▁hi": 1198,
      "▁olmay": 1199,
      "▁eksik": 1200,
      "▁anayas": 1201,
      "▁alım-satım": 1202,
      "▁ihal": 1203,
      "▁cal": 1204,
      "▁aln": 1205,
      "▁zinc": 1206,
      "▁teklifini": 1207,
      "▁sanırım": 1208,
      "▁fısır": 1209,
      "▁acil": 1210,
      "▁ugr": 1211,
      "▁francisco'dan": 1212,
      "##siz": 1213,
      "▁jur": 1214,
      "▁tuk": 1215,
      "▁pet": 1216,
      "##ato": 1217,
      "##ıtır": 1218,
      "▁yuklen": 1219,
      "▁dam": 1220,
      "##ost": 1221,
      "##has": 1222,
      "▁izmir": 1223,
      "▁sendika": 1224,
      "##isik": 1225,
      "▁maliyeti": 1226,
      "▁dolasır": 1227,
      "##ohn": 1228,
      "##leyip": 1229,
      "▁adına": 1230,
      "▁ti": 1231,
      "▁memnun": 1232,
      "▁degilse": 1233,
      "##okuz": 1234,
      "##medik": 1235,
      "▁asker": 1236,
      "▁yuks": 1237,
      "##usu": 1238,
      "##fez": 1239,
      "▁$": 1240,
      "▁goren": 1241,
      "##memis": 1242,
      "##dıktan": 1243,
      "▁yemeklerin": 1244,
      "##uc": 1245,
      "##ex": 1246,
      "##usunu": 1247,
      "▁doviz": 1248,
      "▁pufur": 1249,
      "▁gecen": 1250,
      "▁dili": 1251,
      "##olojik": 1252,
      "##fer": 1253,
      "▁ıskarta": 1254,
      "▁baslarında": 1255,
      "##meye": 1256,
      "##n": 1257,
      "##mıstır": 1258,
      "▁karab": 1259,
      "▁benzer": 1260,
      "▁diego'dan": 1261,
      "##abiliyor": 1262,
      "##dav": 1263,
      "##ilmisti": 1264,
      "▁artıs": 1265,
      "▁list": 1266,
      "▁corb": 1267,
      "▁kucuktu": 1268,
      "##'de": 1269,
      "##iti": 1270,
      "##taj": 1271,
      "▁mil": 1272,
      "▁konferans": 1273,
      "▁saglayan": 1274,
      "▁kırık": 1275,
      "▁mas": 1276,
      "▁yanl": 1277,
      "▁genel": 1278,
      "▁lezzetleri": 1279,
      "##bak": 1280,
      "▁madd": 1281,
      "##ydi": 1282,
      "##5.": 1283,
      "▁manc": 1284,
      "▁resmi": 1285,
      "▁israil": 1286,
      "▁sevgi": 1287,
      "##dog": 1288,
      "##sar": 1289,
      "▁ogl": 1290,
      "▁actı": 1291,
      "▁tem": 1292,
      "▁1995": 1293,
      "##urlar": 1294,
      "##bilir": 1295,
      "▁seker": 1296,
      "▁personellerden": 1297,
      "▁subat": 1298,
      "##gul": 1299,
      "▁olası": 1300,
      "▁ekip": 1301,
      "▁cogunun": 1302,
      "▁ortalam": 1303,
      "▁bildir": 1304,
      "##unlu": 1305,
      "##gi": 1306,
      "▁gozlu": 1307,
      "##16": 1308,
      "##iden": 1309,
      "▁yıllık": 1310,
      "▁etk": 1311,
      "▁oyle": 1312,
      "▁58": 1313,
      "##asındaki": 1314,
      "▁4.3": 1315,
      "##lastır": 1316,
      "▁onunla": 1317,
      "▁2.4": 1318,
      "▁yoktur": 1319,
      "##lama": 1320,
      "▁portf": 1321,
      "▁idar": 1322,
      "▁tehdi": 1323,
      "▁sıgın": 1324,
      "▁th": 1325,
      "▁catıs": 1326,
      "▁1961": 1327,
      "##ilen": 1328,
      "▁sipar": 1329,
      "##ont": 1330,
      "▁baslayan": 1331,
      "##un": 1332,
      "##emin": 1333,
      "▁kası": 1334,
      "▁mes": 1335,
      "▁yetmis": 1336,
      "▁57": 1337,
      "##uk": 1338,
      "▁han": 1339,
      "▁hayatın": 1340,
      "▁edi": 1341,
      "▁verildi": 1342,
      "##etik": 1343,
      "##emez": 1344,
      "▁asam": 1345,
      "▁bono": 1346,
      "▁fener": 1347,
      "▁sorunu": 1348,
      "▁geldi": 1349,
      "▁duzenlem": 1350,
      "▁77": 1351,
      "▁kultur": 1352,
      "▁gay": 1353,
      "▁suruk": 1354,
      "▁yapacagını": 1355,
      "g": 1356,
      "##ahi": 1357,
      "▁adlandır": 1358,
      "▁ustlen": 1359,
      "##ate": 1360,
      "##yım": 1361,
      "▁kendilerine": 1362,
      "▁mevduat": 1363,
      "▁lynch": 1364,
      "##lesi": 1365,
      "▁y": 1366,
      "▁dep": 1367,
      "▁adama": 1368,
      "▁s": 1369,
      "##ala": 1370,
      "▁cd": 1371,
      "##s": 1372,
      "▁62": 1373,
      "▁mısır": 1374,
      "▁destek": 1375,
      "##oj": 1376,
      "▁teor": 1377,
      "##ane": 1378,
      "▁2.5": 1379,
      "##pıs": 1380,
      "##mamız": 1381,
      "▁katlı": 1382,
      "▁toplantıda": 1383,
      "▁yapacak": 1384,
      "▁ozgur": 1385,
      "##kin": 1386,
      "##lere": 1387,
      "##tern": 1388,
      "▁elma": 1389,
      "▁havaalan": 1390,
      "##emli": 1391,
      "▁malz": 1392,
      "▁acıl": 1393,
      "▁itibariyle": 1394,
      "▁kral": 1395,
      "##amayacagını": 1396,
      "##ile": 1397,
      "▁zav": 1398,
      "##ad": 1399,
      "▁yaptir": 1400,
      "▁tuketici": 1401,
      "▁yıllarca": 1402,
      "▁kapali": 1403,
      "▁hizmetinden": 1404,
      "▁3.7": 1405,
      "▁rahatti": 1406,
      "▁par": 1407,
      "▁herhal": 1408,
      "##bac": 1409,
      "##ılıgını": 1410,
      "##ata": 1411,
      "▁yalan": 1412,
      "▁degisiklikler": 1413,
      "##:30": 1414,
      "##esem": 1415,
      "▁yur": 1416,
      "▁kontrol": 1417,
      "▁idare": 1418,
      "▁sh": 1419,
      "▁zorunda": 1420,
      "▁yasama": 1421,
      "▁birbirimizi": 1422,
      "▁basarili": 1423,
      "##bası": 1424,
      "▁devrim": 1425,
      "▁pittsburgh": 1426,
      "▁yusu": 1427,
      "▁peyn": 1428,
      "▁baba": 1429,
      "▁kutup": 1430,
      "##larla": 1431,
      "##guna": 1432,
      "##orta": 1433,
      "▁altındaki": 1434,
      "▁sarkı": 1435,
      "▁degis": 1436,
      "##dular": 1437,
      "▁64": 1438,
      "▁uzer": 1439,
      "▁golg": 1440,
      "▁5.3": 1441,
      "▁aktarmasız": 1442,
      "▁olmadı": 1443,
      "▁bilgil": 1444,
      "▁yaratı": 1445,
      "▁amc": 1446,
      "▁kılıc": 1447,
      "##.8": 1448,
      "▁g": 1449,
      "▁po": 1450,
      "▁planı": 1451,
      "▁yıllarda": 1452,
      "▁tavır": 1453,
      "▁eylul": 1454,
      "▁bic": 1455,
      "##ori": 1456,
      "##eyn": 1457,
      "▁oldular": 1458,
      "##sizdi": 1459,
      "▁gosteren": 1460,
      "▁11": 1461,
      "▁ingiltere": 1462,
      "▁sasırtıcı": 1463,
      "▁seviyesinde": 1464,
      "##tedir": 1465,
      "▁zar": 1466,
      "##'deki": 1467,
      "▁hab": 1468,
      "▁rak": 1469,
      "▁fazla": 1470,
      "##p": 1471,
      "##chell": 1472,
      "▁aldigim": 1473,
      "##yol": 1474,
      "##igi": 1475,
      "▁ucusa": 1476,
      "##iniki": 1477,
      "##ograf": 1478,
      "##-": 1479,
      "##ayım": 1480,
      "▁korumak": 1481,
      "▁gurur": 1482,
      "▁sacları": 1483,
      "▁cıkıs": 1484,
      "▁$'dan": 1485,
      "▁degerlendir": 1486,
      "▁artır": 1487,
      "▁tırn": 1488,
      "▁sıv": 1489,
      "▁evden": 1490,
      "▁48": 1491,
      "##dıkları": 1492,
      "▁%3.43": 1493,
      "##>": 1494,
      "▁petersburg'a": 1495,
      "##ımızın": 1496,
      "▁ucuslarını": 1497,
      "▁sip": 1498,
      "▁fizik": 1499,
      "▁damar": 1500,
      "▁dc'den": 1501,
      "▁peki": 1502,
      "▁luks": 1503,
      "▁bugun": 1504,
      "▁uyarı": 1505,
      "##ımdan": 1506,
      "▁oran": 1507,
      "▁var": 1508,
      "▁toplum": 1509,
      "▁phoeni": 1510,
      "▁karmasık": 1511,
      "▁egemen": 1512,
      "▁bası": 1513,
      "▁charl": 1514,
      "▁gerci": 1515,
      "▁av": 1516,
      "##inize": 1517,
      "##afet": 1518,
      "##eyerek": 1519,
      "▁nedenlerden": 1520,
      "▁cap": 1521,
      "##lerdeki": 1522,
      "##lum": 1523,
      "▁yataklar": 1524,
      "▁birey": 1525,
      "▁dayalı": 1526,
      "##cok": 1527,
      "▁tohum": 1528,
      "▁mendil": 1529,
      "▁ifad": 1530,
      "▁getirdi": 1531,
      "▁huseyin": 1532,
      "▁polon": 1533,
      "▁anı": 1534,
      "##38": 1535,
      "▁ucusu": 1536,
      "##up": 1537,
      "▁guleryuzluydu": 1538,
      "##ıldıgını": 1539,
      "▁sovyet": 1540,
      "▁sor": 1541,
      "##izik": 1542,
      "##eleriyle": 1543,
      "▁81": 1544,
      "▁cıkmak": 1545,
      "▁biz": 1546,
      "▁masanın": 1547,
      "▁boy": 1548,
      "##'yi": 1549,
      "▁agustos": 1550,
      "##larıyla": 1551,
      "▁birlik": 1552,
      "##eci": 1553,
      "▁kend": 1554,
      "▁ra": 1555,
      "▁acık": 1556,
      "▁avukatlar": 1557,
      "p": 1558,
      "##sızlık": 1559,
      "▁senato": 1560,
      "▁kadınlar": 1561,
      "▁kus": 1562,
      "▁haftalık": 1563,
      "▁orlando": 1564,
      "▁kullanıyor": 1565,
      "##ilerini": 1566,
      "▁alakaliydi": 1567,
      "##acak": 1568,
      "▁olurdu": 1569,
      "##ud": 1570,
      "▁hakkinda": 1571,
      "▁birbirler": 1572,
      "##asyon": 1573,
      "▁ucusunu": 1574,
      "▁minim": 1575,
      "▁koc": 1576,
      "▁olabilir": 1577,
      "▁lutfen": 1578,
      "▁tamamladı": 1579,
      "▁suz": 1580,
      "▁musteriler": 1581,
      "##ırt": 1582,
      "▁rus": 1583,
      "▁acıklanmadı": 1584,
      "##masında": 1585,
      "▁1.": 1586,
      "▁nus": 1587,
      "##mesi": 1588,
      "▁tasar": 1589,
      "▁benden": 1590,
      "▁risk": 1591,
      "##ıc": 1592,
      "##adelphia": 1593,
      "##'yı": 1594,
      "▁tesvik": 1595,
      "##95": 1596,
      "▁tavsiye": 1597,
      "▁sayısı": 1598,
      "▁ıskar": 1599,
      "▁ceb": 1600,
      "▁anne": 1601,
      "##aseb": 1602,
      "▁1992": 1603,
      "▁parcaları": 1604,
      "▁genislet": 1605,
      "▁sozlerine": 1606,
      "▁phil": 1607,
      "▁cey": 1608,
      "##dern": 1609,
      "▁oranı": 1610,
      "##masın": 1611,
      "##ılmıs": 1612,
      "▁hak": 1613,
      "▁nazik": 1614,
      "▁avrupalı": 1615,
      "▁benz": 1616,
      "▁1.7": 1617,
      "▁akl": 1618,
      "##oc": 1619,
      "▁hong": 1620,
      "▁ode": 1621,
      "▁anlattı": 1622,
      "▁degildi": 1623,
      "##ultu": 1624,
      "▁evine": 1625,
      "▁155": 1626,
      "▁newark": 1627,
      "▁orland": 1628,
      "##larımı": 1629,
      "▁ant": 1630,
      "##ilerine": 1631,
      "▁4.2": 1632,
      "##ların": 1633,
      "▁kalmadigim": 1634,
      "##ginde": 1635,
      "▁airlines'in": 1636,
      "▁1989": 1637,
      "_": 1638,
      "▁ortalık": 1639,
      "▁telerate": 1640,
      "▁ureticisi": 1641,
      "▁cumhurbaskanı": 1642,
      "▁oyunun": 1643,
      "▁sers": 1644,
      "##esinin": 1645,
      "▁den": 1646,
      "▁yirmi": 1647,
      "##o'ya": 1648,
      "##h": 1649,
      "▁yerel": 1650,
      "▁9.8": 1651,
      "##ırtı": 1652,
      "▁kapıya": 1653,
      "▁vic": 1654,
      "##imden": 1655,
      "##irim": 1656,
      "▁deneyim": 1657,
      "##inizi": 1658,
      "▁elbise": 1659,
      "▁washington'dan": 1660,
      "▁milyondan": 1661,
      "▁duvara": 1662,
      "▁kat": 1663,
      "▁kestir": 1664,
      "##isiz": 1665,
      "##oma": 1666,
      "▁kosul": 1667,
      "▁toronto": 1668,
      "▁gitmis": 1669,
      "▁menkul": 1670,
      "##ilecek": 1671,
      "▁washington": 1672,
      "##cut": 1673,
      "▁at": 1674,
      "▁saglık": 1675,
      "##ville": 1676,
      "▁reh": 1677,
      "▁355": 1678,
      "▁pey": 1679,
      "▁zir": 1680,
      "▁ters": 1681,
      "▁sair": 1682,
      "▁...\"": 1683,
      "▁bak": 1684,
      "▁oldu": 1685,
      "▁oyuncu": 1686,
      "▁saskın": 1687,
      "▁direkt": 1688,
      "▁yon": 1689,
      "▁din": 1690,
      "▁iyisi": 1691,
      "▁mı": 1692,
      "##luga": 1693,
      "##01": 1694,
      "▁incel": 1695,
      "▁baslamıs": 1696,
      "▁3/8": 1697,
      "▁350": 1698,
      "▁dor": 1699,
      "▁ucusta": 1700,
      "▁otele": 1701,
      "▁robert": 1702,
      "▁malzem": 1703,
      "▁uygundu": 1704,
      "▁cor": 1705,
      "▁pac": 1706,
      "▁plaj": 1707,
      "▁yetkil": 1708,
      "##mamalı": 1709,
      "##elli": 1710,
      "▁gunah": 1711,
      "▁istif": 1712,
      "##oster": 1713,
      "▁onceki": 1714,
      "▁iri": 1715,
      "▁itibar": 1716,
      "▁limon": 1717,
      "▁ayrıntı": 1718,
      "?": 1719,
      "▁icme": 1720,
      "▁cıvıl": 1721,
      "##ebilirdi": 1722,
      "▁yukarı": 1723,
      "▁er": 1724,
      "▁vadeli": 1725,
      "▁almak": 1726,
      "##das": 1727,
      "▁hemen": 1728,
      "##dugu": 1729,
      "▁nisan'da": 1730,
      "▁satıs": 1731,
      "▁seyler": 1732,
      "▁urunler": 1733,
      "$": 1734,
      "▁komitesi": 1735,
      "▁patlıcan": 1736,
      "##ey": 1737,
      "▁aracılıgıyla": 1738,
      "▁ne": 1739,
      "▁ihtiyacım": 1740,
      "▁hırsız": 1741,
      "##for": 1742,
      "##gan": 1743,
      "▁hasan": 1744,
      "▁teknik": 1745,
      "▁tespit": 1746,
      "▁yanına": 1747,
      "▁saglayacak": 1748,
      "▁im": 1749,
      "▁cos": 1750,
      "▁muduru": 1751,
      "##5": 1752,
      "▁diken": 1753,
      "▁baglantılı": 1754,
      "▁rengi": 1755,
      "▁vermedi": 1756,
      "▁dediler": 1757,
      "▁aras": 1758,
      "##cilerin": 1759,
      "▁elinde": 1760,
      "▁kem": 1761,
      "▁yaparak": 1762,
      "▁omz": 1763,
      "▁soylediler": 1764,
      "▁mon": 1765,
      "##idi": 1766,
      "▁butce": 1767,
      "▁alkol": 1768,
      "▁baslamıstı": 1769,
      "▁ucusları": 1770,
      "▁196": 1771,
      "##mem": 1772,
      "▁yazı": 1773,
      "▁vermis": 1774,
      "##mis": 1775,
      "▁cid": 1776,
      "▁oglu": 1777,
      "▁adeta": 1778,
      "##ta": 1779,
      "▁sokaga": 1780,
      "▁resep": 1781,
      "##kuz": 1782,
      "▁69": 1783,
      "##ist": 1784,
      "##isim": 1785,
      "##ede": 1786,
      "▁avustralya": 1787,
      "▁wh": 1788,
      "▁kokusu": 1789,
      "▁hoca": 1790,
      "▁aran": 1791,
      "▁zamana": 1792,
      "▁merkezine": 1793,
      "##uv": 1794,
      "▁ordu": 1795,
      "▁gir": 1796,
      "▁mukemmeldi": 1797,
      "▁tesisten": 1798,
      "▁shearson": 1799,
      "▁flori": 1800,
      "##er": 1801,
      "▁konumunu": 1802,
      "▁ce": 1803,
      "▁anim": 1804,
      "▁dunyaya": 1805,
      "▁ait": 1806,
      "##esindeki": 1807,
      "##ulu": 1808,
      "▁ayrım": 1809,
      "▁kapsam": 1810,
      "▁kahvalti": 1811,
      "▁ucus": 1812,
      "##ulmaz": 1813,
      "##sef": 1814,
      "▁bura": 1815,
      "▁yeri": 1816,
      "▁odadan": 1817,
      "▁sekl": 1818,
      "▁icten": 1819,
      "▁cob": 1820,
      "##cılık": 1821,
      "▁herhangi": 1822,
      "▁kafa": 1823,
      "##dırdı": 1824,
      "▁etti": 1825,
      "▁gazetec": 1826,
      "▁alın": 1827,
      "▁6.25": 1828,
      "▁sicak": 1829,
      "##tıyor": 1830,
      "##ersiz": 1831,
      "▁verdigimiz": 1832,
      "##mazdı": 1833,
      "▁geldigi": 1834,
      "##mektedir": 1835,
      "▁havlu": 1836,
      "▁gol": 1837,
      "##ksen": 1838,
      "▁bulunmaktadır": 1839,
      "▁philadelphia": 1840,
      "▁hastalı": 1841,
      "▁anlıyor": 1842,
      "▁vergisi": 1843,
      "▁muht": 1844,
      "##liyorum": 1845,
      "▁ısıl": 1846,
      "▁gozlerini": 1847,
      "▁fr": 1848,
      "=": 1849,
      "▁cins": 1850,
      "▁birligi": 1851,
      "▁fil": 1852,
      "▁cak": 1853,
      "▁tampa'dan": 1854,
      "▁muhal": 1855,
      "▁sabaha": 1856,
      "▁mad": 1857,
      "##ayan": 1858,
      "▁dayan": 1859,
      "▁mod": 1860,
      "▁hicbirinin": 1861,
      "##.00": 1862,
      "##isiyle": 1863,
      "▁kalmaya": 1864,
      "▁ıs": 1865,
      "##cının": 1866,
      "▁yasındaki": 1867,
      "▁falan": 1868,
      "▁yahu": 1869,
      "▁cleveland'a": 1870,
      "▁manzar": 1871,
      "##gından": 1872,
      "##kara": 1873,
      "▁yapabilir": 1874,
      "##masına": 1875,
      "▁gunlerde": 1876,
      "▁kapısını": 1877,
      "▁yolda": 1878,
      "▁haziran": 1879,
      "▁gunleri": 1880,
      "▁cum": 1881,
      "▁olanlar": 1882,
      "##her": 1883,
      "▁kulub": 1884,
      "##veren": 1885,
      "▁degildir": 1886,
      "▁miktar": 1887,
      "▁elde": 1888,
      "▁atıl": 1889,
      "▁ogrenmek": 1890,
      "▁ım": 1891,
      "▁mek": 1892,
      "▁ibrahim": 1893,
      "▁tuh": 1894,
      "▁yatırımcıları": 1895,
      "▁satıcı": 1896,
      "▁masal": 1897,
      "##ge": 1898,
      "▁kurtar": 1899,
      "▁kadar": 1900,
      "▁cen": 1901,
      "▁bakar": 1902,
      "▁etkin": 1903,
      "▁merh": 1904,
      "▁mikr": 1905,
      "##alandır": 1906,
      "▁145": 1907,
      "▁ispan": 1908,
      "##is": 1909,
      "▁halk": 1910,
      "▁dusurdu": 1911,
      "##ecegim": 1912,
      "##set": 1913,
      "▁ucretlerini": 1914,
      "▁ucuslar": 1915,
      "▁amacıyla": 1916,
      "▁1987": 1917,
      "▁hel": 1918,
      "##ner": 1919,
      "▁kilit": 1920,
      "▁kateg": 1921,
      "▁kızın": 1922,
      "▁gecmis": 1923,
      "▁kut": 1924,
      "##ustu": 1925,
      "▁izin": 1926,
      "▁aqu": 1927,
      "##am": 1928,
      "##kanın": 1929,
      "▁oak": 1930,
      "▁vad": 1931,
      "▁sozcuk": 1932,
      "▁ihtimal": 1933,
      "##ni": 1934,
      "##amaya": 1935,
      "▁fas": 1936,
      "▁hepimiz": 1937,
      "▁um": 1938,
      "▁hisseleri": 1939,
      "▁duygu": 1940,
      "##in": 1941,
      "##alım": 1942,
      "▁he": 1943,
      "##mez": 1944,
      "▁parti": 1945,
      "▁dalg": 1946,
      "▁bug": 1947,
      "▁bilgisay": 1948,
      "▁yerli": 1949,
      "▁yasan": 1950,
      "▁radyo": 1951,
      "▁arasında": 1952,
      "▁yav": 1953,
      "##iydi": 1954,
      "▁sehre": 1955,
      "▁babası": 1956,
      "▁kurk": 1957,
      "▁ster": 1958,
      "▁gerekti": 1959,
      "▁0.": 1960,
      "##asyonu": 1961,
      "▁65": 1962,
      "▁alınan": 1963,
      "▁montreal'a": 1964,
      "▁yumurt": 1965,
      "##ac": 1966,
      "▁abd'de": 1967,
      "▁gold": 1968,
      "▁kaymak": 1969,
      "▁sayıl": 1970,
      "▁ihracat": 1971,
      "▁eliyle": 1972,
      "▁mesaj": 1973,
      "##88": 1974,
      "▁mus": 1975,
      "▁derg": 1976,
      "##lamak": 1977,
      "##diler": 1978,
      "▁kazancı": 1979,
      "▁kabul": 1980,
      "▁ic": 1981,
      "▁anlay": 1982,
      "▁sular": 1983,
      "▁meger": 1984,
      "##gileri": 1985,
      "▁olmustu": 1986,
      "▁ltd.": 1987,
      "▁donuyor": 1988,
      "▁gotur": 1989,
      "▁hasta": 1990,
      "▁artısı": 1991,
      "▁rast": 1992,
      "▁grev": 1993,
      "▁%3.4": 1994,
      "▁katilmak": 1995,
      "▁izliyor": 1996,
      "▁kel": 1997,
      "▁beraber": 1998,
      "▁annesinin": 1999,
      "##par": 2000,
      "▁dısarıya": 2001,
      "▁103": 2002,
      "▁2.1": 2003,
      "▁tay": 2004,
      "▁ko": 2005,
      "▁kurumsal": 2006,
      "▁4.6": 2007,
      "▁dergi": 2008,
      "▁yiyecekler": 2009,
      "▁misin": 2010,
      "▁gosterin": 2011,
      "▁vermek": 2012,
      "▁=": 2013,
      "▁financi": 2014,
      "##uklum": 2015,
      "▁vol": 2016,
      "▁en": 2017,
      "▁zay": 2018,
      "▁ettir": 2019,
      "▁leri": 2020,
      "▁kan": 2021,
      "##ira": 2022,
      "▁tiyatr": 2023,
      "##anları": 2024,
      "▁duvarlar": 2025,
      "▁garson": 2026,
      "▁rakamlar": 2027,
      "▁son": 2028,
      "▁vah": 2029,
      "##'luk": 2030,
      "▁bilgi": 2031,
      "▁cocuk": 2032,
      "▁seneye": 2033,
      "##82": 2034,
      "##meyi": 2035,
      "▁vardır": 2036,
      "##ehir": 2037,
      "▁atlan": 2038,
      "▁donan": 2039,
      "▁kokulu": 2040,
      "▁karanlık": 2041,
      "▁dusundu": 2042,
      "▁iste": 2043,
      "##4": 2044,
      "##9": 2045,
      "▁for": 2046,
      "▁eastern": 2047,
      "▁aks": 2048,
      "##ısıl": 2049,
      "##ıntı": 2050,
      "##menin": 2051,
      "▁kıbr": 2052,
      "##sel": 2053,
      "▁olagan": 2054,
      "▁asil": 2055,
      "##11": 2056,
      "▁acaba": 2057,
      "▁bolun": 2058,
      "▁yararlan": 2059,
      "▁ves": 2060,
      "▁55": 2061,
      "##dikleri": 2062,
      "▁sut": 2063,
      "##adılar": 2064,
      "▁kaybeden": 2065,
      "##yas": 2066,
      "##enn": 2067,
      "##dirde": 2068,
      "##0.4": 2069,
      "▁aksamları": 2070,
      "▁caz": 2071,
      "▁3/4": 2072,
      "▁fa": 2073,
      "▁kural": 2074,
      "##tik": 2075,
      "▁systems": 2076,
      "▁isbir": 2077,
      "##uston": 2078,
      "##arım": 2079,
      "▁isini": 2080,
      "##ika": 2081,
      "▁may": 2082,
      "▁pant": 2083,
      "▁3.6": 2084,
      "▁ihtiyacı": 2085,
      "▁buldu": 2086,
      "##.2": 2087,
      "▁veren": 2088,
      "▁bul": 2089,
      "##laka": 2090,
      "▁temettu": 2091,
      "▁5.9": 2092,
      "▁umur": 2093,
      "▁yasal": 2094,
      "▁dalgalan": 2095,
      "##0000": 2096,
      "▁1989-8": 2097,
      "▁sorustur": 2098,
      "▁harıl": 2099,
      "▁gecirdik": 2100,
      "▁puanlama": 2101,
      "▁cesitliligi": 2102,
      "▁klas": 2103,
      "▁icin": 2104,
      "▁et": 2105,
      "##.1": 2106,
      "▁ların": 2107,
      "▁yarı": 2108,
      "▁abdul": 2109,
      "▁degismedi": 2110,
      "▁avrupa'da": 2111,
      "▁'": 2112,
      "▁vurdu": 2113,
      "##ova": 2114,
      "##ecekler": 2115,
      "##ag": 2116,
      "▁1.8": 2117,
      "##isleri": 2118,
      "▁sahn": 2119,
      "▁oturdu": 2120,
      "▁ır": 2121,
      "▁birer": 2122,
      "▁kalab": 2123,
      "##isyon": 2124,
      "##lamaları": 2125,
      "▁hazin": 2126,
      "▁japonya'nın": 2127,
      "▁animasyon": 2128,
      "▁cıkarıyor": 2129,
      "▁7.8": 2130,
      "▁bolge": 2131,
      "▁gittik": 2132,
      "▁ankete": 2133,
      "▁yaptılar": 2134,
      "▁sevinc": 2135,
      "▁arasına": 2136,
      "▁koruy": 2137,
      "##asıdır": 2138,
      "▁kendini": 2139,
      "##acagına": 2140,
      "▁peters": 2141,
      "▁sıf": 2142,
      "▁ceyrekte": 2143,
      "▁grup": 2144,
      "▁yız": 2145,
      "▁cr": 2146,
      "▁kork": 2147,
      "##madım": 2148,
      "▁boston'a": 2149,
      "▁americ": 2150,
      "▁kov": 2151,
      "▁mal": 2152,
      "▁indianapolis": 2153,
      "##icileri": 2154,
      "▁ortak": 2155,
      "▁olduk": 2156,
      "▁secen": 2157,
      "▁musta": 2158,
      "‘": 2159,
      "##akat": 2160,
      "▁haft": 2161,
      "▁karsiladi": 2162,
      "▁suya": 2163,
      "▁avantaj": 2164,
      "▁agr": 2165,
      "▁cekiyor": 2166,
      "▁arkad": 2167,
      "##se": 2168,
      "▁kucuk": 2169,
      "▁fiyatlandır": 2170,
      "▁diye": 2171,
      "▁olsun": 2172,
      "▁mud": 2173,
      "▁elestir": 2174,
      "##unuz": 2175,
      "▁guzeldi": 2176,
      "##iv": 2177,
      "▁ort": 2178,
      "##48": 2179,
      "▁nesil": 2180,
      "▁dogan": 2181,
      "▁gitmeyi": 2182,
      "▁yabancı": 2183,
      "▁sesle": 2184,
      "▁koyu": 2185,
      "##tere": 2186,
      "▁soylemek": 2187,
      "▁edilir": 2188,
      "▁karakter": 2189,
      "##lo": 2190,
      "▁yargıc": 2191,
      "##lar": 2192,
      "##acaktır": 2193,
      "▁nor": 2194,
      "▁tug": 2195,
      "▁yaz": 2196,
      "##ustur": 2197,
      "▁yolculuk": 2198,
      "▁siddetli": 2199,
      "##ez": 2200,
      "▁babamın": 2201,
      "▁pamuk": 2202,
      "##25": 2203,
      "▁oturu": 2204,
      "▁kendisi": 2205,
      "##gı": 2206,
      "##meyecek": 2207,
      "▁boynun": 2208,
      "▁lab": 2209,
      "▁rut": 2210,
      "##0": 2211,
      "##masız": 2212,
      "##umus": 2213,
      "▁%5": 2214,
      "▁iht": 2215,
      "▁dolay": 2216,
      "▁%10": 2217,
      "▁oncesi": 2218,
      "##bas": 2219,
      "▁oldukları": 2220,
      "▁sıg": 2221,
      "##medigini": 2222,
      "##aydı": 2223,
      "▁icine": 2224,
      "##tıkları": 2225,
      "▁diyar": 2226,
      "▁konuyu": 2227,
      "##sınız": 2228,
      "▁skan": 2229,
      "▁ileri": 2230,
      "##rahim": 2231,
      "▁sayı": 2232,
      "▁nihayet": 2233,
      "▁gun": 2234,
      "▁tarafı": 2235,
      "▁ilgililerdi": 2236,
      "▁tarafa": 2237,
      "▁evde": 2238,
      "▁kelime": 2239,
      "##hane": 2240,
      "##aa": 2241,
      "##eyle": 2242,
      "▁iddia": 2243,
      "▁ucak": 2244,
      "▁gez": 2245,
      "▁porcuk": 2246,
      "▁memnunum": 2247,
      "##taki": 2248,
      "▁cagdas": 2249,
      "▁merkeze": 2250,
      "▁pos": 2251,
      "▁islemi": 2252,
      "▁gece": 2253,
      "##,": 2254,
      "▁dagın": 2255,
      "▁hang": 2256,
      "##gelelim": 2257,
      "▁denize": 2258,
      "▁magaz": 2259,
      "▁sm": 2260,
      "##ledik": 2261,
      "▁fıkır": 2262,
      "▁kapının": 2263,
      "▁cami": 2264,
      "▁bagımsız": 2265,
      "▁cub": 2266,
      "##elere": 2267,
      "##ef": 2268,
      "##ku": 2269,
      "▁yerde": 2270,
      "▁ih": 2271,
      "▁alıyor": 2272,
      "##lasmıs": 2273,
      "▁hin": 2274,
      "##enler": 2275,
      "▁isaret": 2276,
      "▁sonraki": 2277,
      "▁terc": 2278,
      "▁kucucuk": 2279,
      "▁bindokuzyuz": 2280,
      "▁gre": 2281,
      "▁mekan": 2282,
      "▁dilek": 2283,
      "▁tuccarlar": 2284,
      "▁alan": 2285,
      "▁hazine": 2286,
      "##osunda": 2287,
      "##larda": 2288,
      "▁kagıt": 2289,
      "▁ilgisiz": 2290,
      "##ımızı": 2291,
      "▁listeleyin": 2292,
      "▁pis": 2293,
      "▁st.": 2294,
      "▁onlardan": 2295,
      "▁degerlendiririm": 2296,
      "▁seattle'ye": 2297,
      "▁sas": 2298,
      "▁bilgisayar": 2299,
      "##eket": 2300,
      "▁olanakları": 2301,
      "▁bulunuyor": 2302,
      "▁edebil": 2303,
      "▁hicbirini": 2304,
      "▁d": 2305,
      "▁a": 2306,
      "▁soluk": 2307,
      "▁elimi": 2308,
      "▁millet": 2309,
      "▁kardesim": 2310,
      "▁cle": 2311,
      "▁saglıklı": 2312,
      "▁kerem": 2313,
      "▁capında": 2314,
      "▁derece": 2315,
      "▁izley": 2316,
      "▁ederdi": 2317,
      "▁.\"": 2318,
      "##lerin": 2319,
      "▁kullanmadim": 2320,
      "▁vur": 2321,
      "▁elden": 2322,
      "▁parlam": 2323,
      "▁kimseye": 2324,
      "▁yarıs": 2325,
      "▁azdi": 2326,
      "▁duydu": 2327,
      "▁hut": 2328,
      "▁sona": 2329,
      "##lendi": 2330,
      "▁piyasada": 2331,
      "▁yahut": 2332,
      "▁sım": 2333,
      "▁degisim": 2334,
      "##*": 2335,
      "▁sık": 2336,
      "▁bilg": 2337,
      "▁birbirimize": 2338,
      "▁teknoloj": 2339,
      "▁yıldan": 2340,
      "▁felsef": 2341,
      "▁parlak": 2342,
      "▁can": 2343,
      "▁ısık": 2344,
      "▁kongre": 2345,
      "▁cocuklar": 2346,
      "##iyon": 2347,
      "▁ozgurluk": 2348,
      "▁ufakti": 2349,
      "▁gerceklestir": 2350,
      "##‘": 2351,
      "▁soguktu": 2352,
      "▁;": 2353,
      "▁silin": 2354,
      "##\\/32": 2355,
      "▁dog": 2356,
      "▁universit": 2357,
      "▁%27": 2358,
      "▁ortadan": 2359,
      "▁olsa": 2360,
      "▁bahs": 2361,
      "▁muthis": 2362,
      "▁aksama": 2363,
      "▁law": 2364,
      "##dım": 2365,
      "▁meydana": 2366,
      "▁camasır": 2367,
      "▁kontr": 2368,
      "▁buk": 2369,
      "▁kım": 2370,
      "▁bayan": 2371,
      "▁da": 2372,
      "##say": 2373,
      "▁kaps": 2374,
      "▁maliyet": 2375,
      "▁kusursuz": 2376,
      "▁operasyon": 2377,
      "▁hot": 2378,
      "▁/": 2379,
      "▁yaglı": 2380,
      "▁sıkıstır": 2381,
      "▁terbiy": 2382,
      "z": 2383,
      "##.05": 2384,
      "▁hedefi": 2385,
      "##lemek": 2386,
      "▁memphis": 2387,
      "▁zirv": 2388,
      "▁buyume": 2389,
      "▁aklına": 2390,
      "##alarını": 2391,
      "▁kaydetti": 2392,
      "▁diego'ya": 2393,
      "▁yumusak": 2394,
      "▁agzı": 2395,
      "▁yıllardır": 2396,
      "▁kak": 2397,
      "##ington": 2398,
      "▁ora": 2399,
      "▁dusman": 2400,
      "▁seksen": 2401,
      "▁renkli": 2402,
      "▁suyu": 2403,
      "▁cık": 2404,
      "▁stan": 2405,
      "▁soguk": 2406,
      "▁a.b.d.": 2407,
      "##.55": 2408,
      "▁birbirine": 2409,
      "▁kısmını": 2410,
      "##oz": 2411,
      "▁toz": 2412,
      "▁2.6": 2413,
      "▁68": 2414,
      "▁fen": 2415,
      "▁burbank": 2416,
      "▁aleyh": 2417,
      "▁85": 2418,
      "▁gecmiste": 2419,
      "▁yukseltti": 2420,
      "▁kullanıl": 2421,
      "##ormal": 2422,
      "▁185": 2423,
      "▁saat": 2424,
      "▁kısıt": 2425,
      "▁bar": 2426,
      "##uluk": 2427,
      "##mar": 2428,
      "▁kendileri": 2429,
      "##dıgım": 2430,
      "##.000": 2431,
      "▁nes": 2432,
      "▁varacak": 2433,
      "▁konustu": 2434,
      "▁1\\/4": 2435,
      "##ant": 2436,
      "▁orman": 2437,
      "▁konusu": 2438,
      "▁de": 2439,
      "▁hast": 2440,
      "▁25": 2441,
      "▁tar": 2442,
      "▁ibm": 2443,
      "▁sp": 2444,
      "▁kil": 2445,
      "▁benim": 2446,
      "▁yanlıs": 2447,
      "▁ayrılan": 2448,
      "##amanın": 2449,
      "##iyorlardı": 2450,
      "▁altern": 2451,
      "▁dır": 2452,
      "▁cer": 2453,
      "▁gozler": 2454,
      "▁buyum": 2455,
      "▁vade": 2456,
      "##ale": 2457,
      "▁kahve": 2458,
      "##gu": 2459,
      "▁%9": 2460,
      "##deniz": 2461,
      "▁tekn": 2462,
      "▁bankalar": 2463,
      "##biy": 2464,
      "▁edildi": 2465,
      "▁salı": 2466,
      "▁alaka": 2467,
      "##'in": 2468,
      "▁yerleri": 2469,
      "▁gelir": 2470,
      "▁agabey": 2471,
      "▁konak": 2472,
      "▁york": 2473,
      "##ilebilir": 2474,
      "##'un": 2475,
      "▁sektor": 2476,
      "▁fit": 2477,
      "▁deg": 2478,
      "[SEP]": 2479,
      "▁fay": 2480,
      "##em": 2481,
      "▁ister": 2482,
      "##bol": 2483,
      "▁ustun": 2484,
      "▁!..": 2485,
      "▁almadim": 2486,
      "▁sar": 2487,
      "▁halbuki": 2488,
      "▁ner": 2489,
      "▁tur": 2490,
      "▁sır": 2491,
      "##tıgını": 2492,
      "##son": 2493,
      "▁babasının": 2494,
      "▁satan": 2495,
      "▁karsılas": 2496,
      "▁olacagını": 2497,
      "▁bazıları": 2498,
      "▁rady": 2499,
      "##tısı": 2500,
      "▁si": 2501,
      "▁cuma": 2502,
      "▁performans": 2503,
      "##iciler": 2504,
      "##yla": 2505,
      "▁perakende": 2506,
      "▁boyu": 2507,
      "##mayın": 2508,
      "▁tul": 2509,
      "▁derhal": 2510,
      "▁sark": 2511,
      "▁dakikada": 2512,
      "##rub": 2513,
      "##ee": 2514,
      "##c": 2515,
      "▁istiyor": 2516,
      "##ren": 2517,
      "▁birbirinin": 2518,
      "▁tamir": 2519,
      "▁az": 2520,
      "▁kısı": 2521,
      "▁komutan": 2522,
      "▁kendimiz": 2523,
      "▁1991": 2524,
      "▁milletvek": 2525,
      "▁surdu": 2526,
      "▁cocukların": 2527,
      "▁durdu": 2528,
      "▁il": 2529,
      "##if": 2530,
      "▁tı": 2531,
      "▁gelmez": 2532,
      "▁ayakta": 2533,
      "▁las": 2534,
      "▁siir": 2535,
      "▁sok": 2536,
      "▁calısmaya": 2537,
      "▁zorunlu": 2538,
      "▁yerinde": 2539,
      "##isinde": 2540,
      "▁varmıs": 2541,
      "▁etkili": 2542,
      "##inden": 2543,
      "▁koku": 2544,
      "▁ortasında": 2545,
      "##lılık": 2546,
      "##r": 2547,
      "▁insanı": 2548,
      "▁vatan": 2549,
      "▁mıyım": 2550,
      "▁7.7": 2551,
      "▁anım": 2552,
      "▁yemekler": 2553,
      "▁or": 2554,
      "▁yag": 2555,
      "▁mut": 2556,
      "##tari": 2557,
      "##eder": 2558,
      "▁end": 2559,
      "▁yudum": 2560,
      "##ırdı": 2561,
      "▁odey": 2562,
      "—": 2563,
      "▁hepsi": 2564,
      "▁yapmayı": 2565,
      "▁karsiligini": 2566,
      "▁176": 2567,
      "▁sandal": 2568,
      "▁icecekler": 2569,
      "▁yıl": 2570,
      "▁ticarette": 2571,
      "##ba": 2572,
      "▁civarında": 2573,
      "▁mart": 2574,
      "▁haykır": 2575,
      "##tıktan": 2576,
      "▁almıs": 2577,
      "▁serin": 2578,
      "▁uzun": 2579,
      "▁ver": 2580,
      "▁sorun": 2581,
      "▁niyet": 2582,
      "##si": 2583,
      "▁yerden": 2584,
      "▁kendin": 2585,
      "##cilik": 2586,
      "▁ulusal": 2587,
      "▁ucu": 2588,
      "▁sah": 2589,
      "▁lez": 2590,
      "▁111": 2591,
      "▁zamanla": 2592,
      "▁erkek": 2593,
      "▁ulkenin": 2594,
      "▁arap": 2595,
      "▁kadını": 2596,
      "##cu": 2597,
      "▁yerine": 2598,
      "##dıgını": 2599,
      "##amiz": 2600,
      "▁elbis": 2601,
      "▁yaptıgını": 2602,
      "▁kayı": 2603,
      "▁se": 2604,
      "##amın": 2605,
      "▁bile": 2606,
      "##agın": 2607,
      "▁dilim": 2608,
      "▁haldır": 2609,
      "##van": 2610,
      "##sim": 2611,
      "▁chic": 2612,
      "##sul": 2613,
      "▁calı": 2614,
      "▁dipl": 2615,
      "##ından": 2616,
      "▁sert": 2617,
      "▁tatildi": 2618,
      "▁lı": 2619,
      "▁gittim": 2620,
      "▁tuf": 2621,
      "▁hanım": 2622,
      "▁vardı": 2623,
      "▁bizleri": 2624,
      "▁mor": 2625,
      "##2.9": 2626,
      "▁ses": 2627,
      "##ınc": 2628,
      "▁birbirlerinin": 2629,
      "▁amac": 2630,
      "▁koca": 2631,
      "##press": 2632,
      "##omb": 2633,
      "▁tampa'ya": 2634,
      "▁tabak": 2635,
      "##var": 2636,
      "##eledi": 2637,
      "##-sat": 2638,
      "▁yetersiz": 2639,
      "##sunuz": 2640,
      "▁kalitesi": 2641,
      "▁pay": 2642,
      "▁onay": 2643,
      "##nun": 2644,
      "▁aktiv": 2645,
      "▁olanak": 2646,
      "▁vasıtasıyla": 2647,
      "##ekim": 2648,
      "▁%51": 2649,
      "▁corp.": 2650,
      "▁yapılıyor": 2651,
      "▁ama": 2652,
      "▁soyleyen": 2653,
      "▁1986": 2654,
      "▁getirmek": 2655,
      "##hal": 2656,
      "▁yasam": 2657,
      "▁20": 2658,
      "▁listesini": 2659,
      "▁gorunen": 2660,
      "▁yurek": 2661,
      "▁sart": 2662,
      "▁ar": 2663,
      "▁bat": 2664,
      "▁ydi": 2665,
      "▁hep": 2666,
      "##uzel": 2667,
      "##ligini": 2668,
      "▁keyif": 2669,
      "▁yedi": 2670,
      "##85": 2671,
      "▁spekul": 2672,
      "▁ailelere": 2673,
      "▁eh": 2674,
      "▁sanat": 2675,
      "▁yapmak": 2676,
      "##larını": 2677,
      "▁ola": 2678,
      "▁asa": 2679,
      "▁turku": 2680,
      "##tın": 2681,
      "▁atıyor": 2682,
      "▁115": 2683,
      "▁vurgul": 2684,
      "▁sifir": 2685,
      "▁130": 2686,
      "▁hangileri": 2687,
      "▁kimsen": 2688,
      "▁bahset": 2689,
      "▁rolu": 2690,
      "▁baskan": 2691,
      "▁gelistir": 2692,
      "▁edici": 2693,
      "▁coktan": 2694,
      "▁federal": 2695,
      "▁imkan": 2696,
      "##ılım": 2697,
      "▁artan": 2698,
      "##les": 2699,
      "▁farkında": 2700,
      "▁kuy": 2701,
      "▁gazi": 2702,
      "▁artısla": 2703,
      "▁saldır": 2704,
      "▁seh": 2705,
      "##av": 2706,
      "▁hız": 2707,
      "▁yaptim": 2708,
      "▁rom": 2709,
      "▁uretim": 2710,
      "##ımızda": 2711,
      "▁borc": 2712,
      "▁nobet": 2713,
      "##37": 2714,
      "▁yonet": 2715,
      "▁columbus'tan": 2716,
      "▁yardim": 2717,
      "▁gormus": 2718,
      "▁karsısına": 2719,
      "▁gosterdi": 2720,
      "##.6": 2721,
      "▁mutluluk": 2722,
      "##kah": 2723,
      "▁lezzet": 2724,
      "▁eroin": 2725,
      "▁odamiz": 2726,
      "▁199": 2727,
      "▁sahin": 2728,
      "▁kahval": 2729,
      "##ila": 2730,
      "▁gayrimenkul": 2731,
      "▁1998": 2732,
      "▁beye": 2733,
      "▁sel": 2734,
      "▁tuy": 2735,
      "▁bilim": 2736,
      "▁yasası": 2737,
      "▁yiyecek": 2738,
      "▁baltimore'ye": 2739,
      "▁12": 2740,
      "##40": 2741,
      "▁hassas": 2742,
      "▁alacak": 2743,
      "##|": 2744,
      "▁planlıyor": 2745,
      "▁hul": 2746,
      "##en": 2747,
      "##0.7": 2748,
      "▁yeryuz": 2749,
      "##eli": 2750,
      "##oker": 2751,
      "##aladı": 2752,
      "▁recep": 2753,
      "▁ustelik": 2754,
      "▁ulkede": 2755,
      "##raj": 2756,
      "▁vegas": 2757,
      "##leyici": 2758,
      "##adir": 2759,
      "##uyor": 2760,
      "▁ucuyor": 2761,
      "▁anket": 2762,
      "▁istem": 2763,
      "▁ta": 2764,
      "▁ogrenciler": 2765,
      "▁yukseldi": 2766,
      "▁spor": 2767,
      "##alap": 2768,
      "##man": 2769,
      "▁yıldız": 2770,
      "▁150": 2771,
      "▁duzel": 2772,
      "##use": 2773,
      "▁seattle'den": 2774,
      "##ger": 2775,
      "▁tum": 2776,
      "▁avukat": 2777,
      "▁masraf": 2778,
      "▁adlı": 2779,
      "▁.'": 2780,
      "▁gor": 2781,
      "▁arkadaslar": 2782,
      "▁kızar": 2783,
      "▁yans": 2784,
      "▁duruma": 2785,
      "▁mev": 2786,
      "▁edecegim": 2787,
      "##edi": 2788,
      "##9.3": 2789,
      "▁7": 2790,
      "##irdi": 2791,
      "▁konut": 2792,
      "##ıyla": 2793,
      "▁aklı": 2794,
      "▁satısa": 2795,
      "▁tatli": 2796,
      "▁sizi": 2797,
      "▁civ": 2798,
      "▁allah": 2799,
      "▁verdim": 2800,
      "##unde": 2801,
      "▁nadir": 2802,
      "▁aracı": 2803,
      "1": 2804,
      "▁ikisinin": 2805,
      "▁insaat": 2806,
      "▁becer": 2807,
      "▁alev": 2808,
      "▁kuzu": 2809,
      "▁sozler": 2810,
      "##ugunu": 2811,
      "▁?..": 2812,
      "▁orne": 2813,
      "##gel": 2814,
      "▁hik": 2815,
      "▁ardı": 2816,
      "▁icecek": 2817,
      "▁hus": 2818,
      "▁dil": 2819,
      "▁durum": 2820,
      "▁danıs": 2821,
      "▁mood": 2822,
      "##malarına": 2823,
      "▁dun": 2824,
      "▁kard": 2825,
      "▁dobra": 2826,
      "▁yemeklerini": 2827,
      "▁lir": 2828,
      "▁davet": 2829,
      "▁ingil": 2830,
      "▁ala": 2831,
      "##gar": 2832,
      "▁muhab": 2833,
      "▁duran": 2834,
      "##ırken": 2835,
      "##cak": 2836,
      "##pe": 2837,
      "▁alet": 2838,
      "▁adam": 2839,
      "▁doner": 2840,
      "▁kaybet": 2841,
      "▁disiplin": 2842,
      "##ını": 2843,
      "##layıp": 2844,
      "##ize": 2845,
      "▁istiyoruz": 2846,
      "▁tane": 2847,
      "##ilmez": 2848,
      "▁asıl": 2849,
      "▁yaptır": 2850,
      "▁boston'dan": 2851,
      "▁tahmini": 2852,
      "##10": 2853,
      "▁zamanı": 2854,
      "▁konfor": 2855,
      "##emb": 2856,
      "▁zaman": 2857,
      "▁dortluk": 2858,
      "▁geldik": 2859,
      "▁uzerinde": 2860,
      "##lerinin": 2861,
      "▁strate": 2862,
      "▁rıh": 2863,
      "▁'nin": 2864,
      "▁esy": 2865,
      "▁kad": 2866,
      "▁fat": 2867,
      "▁bakim": 2868,
      "▁birbirleriyle": 2869,
      "##ısına": 2870,
      "▁kavus": 2871,
      "▁mahs": 2872,
      "▁ind": 2873,
      "▁lt": 2874,
      "▁iz": 2875,
      "▁istanbul": 2876,
      "##larca": 2877,
      "##uyorlar": 2878,
      "▁sehr": 2879,
      "▁os": 2880,
      "▁0": 2881,
      "▁sunu": 2882,
      "▁sosyal": 2883,
      "▁bulbul": 2884,
      "▁cetin": 2885,
      "▁merhaba": 2886,
      "▁bicim": 2887,
      "▁bastan": 2888,
      "##bank": 2889,
      "▁sek": 2890,
      "##agon": 2891,
      "▁aydınlık": 2892,
      "##ildi": 2893,
      "▁but": 2894,
      "▁cet": 2895,
      "##bir": 2896,
      "▁huc": 2897,
      "▁icini": 2898,
      "▁tatlı": 2899,
      "▁sade": 2900,
      "▁%3": 2901,
      "▁selam": 2902,
      "▁buh": 2903,
      "▁pantolon": 2904,
      "▁aralık'ta": 2905,
      "▁lak": 2906,
      "▁pah": 2907,
      "▁sevgil": 2908,
      "▁cinayet": 2909,
      "##o'dan": 2910,
      "▁muhim": 2911,
      "▁karı": 2912,
      "▁dedik": 2913,
      "▁tesekkurler": 2914,
      "▁elektrik": 2915,
      "▁gorevl": 2916,
      "▁olmustur": 2917,
      "▁yonelik": 2918,
      "▁dısına": 2919,
      "▁kendisiyle": 2920,
      "▁dest": 2921,
      "▁yetersizdi": 2922,
      "##madi": 2923,
      "▁krizi": 2924,
      "▁osmanlı": 2925,
      "##ledim": 2926,
      "▁kaybol": 2927,
      "##ıcılık": 2928,
      "##veland": 2929,
      "▁bekledigim": 2930,
      "▁sayın": 2931,
      "▁times": 2932,
      "▁laci": 2933,
      "▁du": 2934,
      "##agını": 2935,
      "▁dahi": 2936,
      "▁milyardan": 2937,
      "▁miz": 2938,
      "▁ogren": 2939,
      "▁odam": 2940,
      "▁olabil": 2941,
      "##.3": 2942,
      "▁ov": 2943,
      "▁sıcak": 2944,
      "##)": 2945,
      "##ho": 2946,
      "▁buraya": 2947,
      "▁sat": 2948,
      "##emis": 2949,
      "▁dısarıda": 2950,
      "##lemis": 2951,
      "▁keskin": 2952,
      "##ih": 2953,
      "##lanan": 2954,
      "▁yuvarlak": 2955,
      "▁love": 2956,
      "▁bakkal": 2957,
      "##eligi": 2958,
      "▁bunlar": 2959,
      "▁hazırlanısı": 2960,
      "▁do": 2961,
      "▁anay": 2962,
      "▁emre": 2963,
      "##eg": 2964,
      "▁resim": 2965,
      "##iniz": 2966,
      "##”": 2967,
      "▁basarı": 2968,
      "▁4.": 2969,
      "▁geride": 2970,
      "▁biber": 2971,
      "##amet": 2972,
      "▁antr": 2973,
      "▁ucretleri": 2974,
      "▁ed": 2975,
      "▁c": 2976,
      "##otuz": 2977,
      "▁oper": 2978,
      "##usun": 2979,
      "##'nin": 2980,
      "▁cumhuriyet": 2981,
      "▁olun": 2982,
      "##-200": 2983,
      "▁atmak": 2984,
      "▁baslay": 2985,
      "▁enerji": 2986,
      "▁birbirlerine": 2987,
      "▁gecir": 2988,
      "##vel": 2989,
      "▁mevsim": 2990,
      "▁hamle": 2991,
      "▁60": 2992,
      "▁reklam": 2993,
      "▁%7.7": 2994,
      "▁impar": 2995,
      "##ıp": 2996,
      "▁sıc": 2997,
      "▁begendim": 2998,
      "##amız": 2999,
      "▁artarak": 3000,
      "##teb": 3001,
      "▁olay": 3002,
      "##00000": 3003,
      "##tım": 3004,
      "##apolis": 3005,
      "▁merdiven": 3006,
      "▁herif": 3007,
      "▁un": 3008,
      "▁met": 3009,
      "##100": 3010,
      "##.03": 3011,
      "##ilerdi": 3012,
      "##larım": 3013,
      "▁kapat": 3014,
      "▁aktarma": 3015,
      "##ica": 3016,
      "▁karıstır": 3017,
      "▁gunde": 3018,
      "▁zeytin": 3019,
      "▁rev": 3020,
      "##'n": 3021,
      "##ista": 3022,
      "▁istedigim": 3023,
      "##ara": 3024,
      "##rat": 3025,
      "▁restor": 3026,
      "▁sıkın": 3027,
      "##a'nın": 3028,
      "##meni": 3029,
      "▁ard": 3030,
      "##sas": 3031,
      "##otte": 3032,
      "##ding": 3033,
      "▁buyur": 3034,
      "▁sahipleri": 3035,
      "▁)": 3036,
      "▁yangın": 3037,
      "##mamıs": 3038,
      "▁tanıt": 3039,
      "▁seklinde": 3040,
      "▁istanbul'un": 3041,
      "▁hissed": 3042,
      "▁donmus": 3043,
      "##erdi": 3044,
      "▁hamam": 3045,
      "▁cas": 3046,
      "▁havayollarını": 3047,
      "▁no": 3048,
      "##enkul": 3049,
      "▁oyn": 3050,
      "▁66": 3051,
      "▁2003": 3052,
      "▁odada": 3053,
      "▁0.2": 3054,
      "##tar": 3055,
      "▁cbs": 3056,
      "▁otelin": 3057,
      "▁atlanta": 3058,
      "##diniz": 3059,
      "##ole": 3060,
      "▁akın": 3061,
      "▁sizlere": 3062,
      "▁cicek": 3063,
      "##gun": 3064,
      "▁orada": 3065,
      "▁agzını": 3066,
      "##artman": 3067,
      "▁isciler": 3068,
      "▁bıy": 3069,
      "▁bakanlıgı": 3070,
      "▁birinde": 3071,
      "▁degilsiniz": 3072,
      "▁guvenilir": 3073,
      "▁saldırı": 3074,
      "▁ozen": 3075,
      "▁ann": 3076,
      "▁ef": 3077,
      "▁sırt": 3078,
      "▁aldır": 3079,
      "##as": 3080,
      "##ına": 3081,
      "▁tasın": 3082,
      "▁ın": 3083,
      "▁kıs": 3084,
      "▁yılı": 3085,
      "##■": 3086,
      "##unuyor": 3087,
      "##an": 3088,
      "▁ikib": 3089,
      "▁kayb": 3090,
      "▁endise": 3091,
      "##ersey": 3092,
      "##tıklarını": 3093,
      "▁muh": 3094,
      "▁topr": 3095,
      "▁vas": 3096,
      "##liginden": 3097,
      "▁eden": 3098,
      "▁hos": 3099,
      "▁hangisi": 3100,
      "##gir": 3101,
      "##ume": 3102,
      "▁kimisi": 3103,
      "▁2.": 3104,
      "▁3": 3105,
      "▁ayakkabı": 3106,
      "▁mini": 3107,
      "##ları": 3108,
      "##ısız": 3109,
      "▁zih": 3110,
      "▁got": 3111,
      "▁kalabalık": 3112,
      "▁yaralan": 3113,
      "▁adalet": 3114,
      "▁nisp": 3115,
      "▁sebep": 3116,
      "▁oc": 3117,
      "##larken": 3118,
      "##onel": 3119,
      "▁mısın": 3120,
      "▁o": 3121,
      "▁ucreti": 3122,
      "##+": 3123,
      "##endigi": 3124,
      "##ıcak": 3125,
      "▁hikay": 3126,
      "▁lamb": 3127,
      "▁olması": 3128,
      "▁giydi": 3129,
      "▁gidiyorum": 3130,
      "##eviz": 3131,
      "▁hal": 3132,
      "▁hareket": 3133,
      "##larının": 3134,
      "▁insanlara": 3135,
      "▁birincisi": 3136,
      "##lari": 3137,
      "▁personeli": 3138,
      "▁yasat": 3139,
      "▁buyut": 3140,
      "##asa": 3141,
      "▁cesi": 3142,
      "##abet": 3143,
      "▁fin": 3144,
      "▁burun": 3145,
      "▁ayrıca": 3146,
      "▁sermaye": 3147,
      "▁rez": 3148,
      "▁gozet": 3149,
      "▁15": 3150,
      "▁kanada": 3151,
      "▁bahc": 3152,
      "▁beklenen": 3153,
      "##istik": 3154,
      "▁manzarasi": 3155,
      "▁arkadas": 3156,
      "▁ittifak": 3157,
      "▁33": 3158,
      "▁kabil": 3159,
      "▁yapılan": 3160,
      "▁daha": 3161,
      "​": 3162,
      "▁zayif": 3163,
      "▁canlı": 3164,
      "▁bekleyen": 3165,
      "▁sayılır": 3166,
      "▁cogunu": 3167,
      "▁agab": 3168,
      "▁lut": 3169,
      "▁gec": 3170,
      "##agına": 3171,
      "▁bizden": 3172,
      "▁ail": 3173,
      "##ılıp": 3174,
      "##yıl": 3175,
      "▁i": 3176,
      "▁senar": 3177,
      "▁12'den": 3178,
      "##tay": 3179,
      "##dur": 3180,
      "▁kıvr": 3181,
      "▁silah": 3182,
      "▁yemek": 3183,
      "▁ki": 3184,
      "#": 3185,
      "▁donus": 3186,
      "▁kır": 3187,
      "##4000": 3188,
      "▁99": 3189,
      "▁cagır": 3190,
      "##emedi": 3191,
      "▁yıla": 3192,
      "▁soyledi": 3193,
      "▁co": 3194,
      "▁2.8": 3195,
      "▁el": 3196,
      "▁halbu": 3197,
      "▁musunuz": 3198,
      "▁boylu": 3199,
      "▁sın": 3200,
      "▁bez": 3201,
      "▁dallas'tan": 3202,
      "##ya'nın": 3203,
      "##west": 3204,
      "##cag": 3205,
      "▁havası": 3206,
      "▁dava": 3207,
      "▁hayv": 3208,
      "▁hay": 3209,
      "##ılmaz": 3210,
      "▁yumus": 3211,
      "▁hur": 3212,
      "▁eli": 3213,
      "##.65": 3214,
      "▁bulan": 3215,
      "##adu": 3216,
      "▁59": 3217,
      "▁mahalle": 3218,
      "▁mimar": 3219,
      "▁onur": 3220,
      "▁herkesin": 3221,
      "▁ogrenci": 3222,
      "▁etmey": 3223,
      "▁carol": 3224,
      "##lulu": 3225,
      "##e": 3226,
      "▁dos": 3227,
      "▁yapı": 3228,
      "▁olgun": 3229,
      "▁kit": 3230,
      "▁kampanyalar": 3231,
      "▁te": 3232,
      "▁ick": 3233,
      "##lbu": 3234,
      "▁bilen": 3235,
      "##bar": 3236,
      "▁tedarik": 3237,
      "▁bolumu": 3238,
      "▁asık": 3239,
      "▁sorunun": 3240,
      "##oy": 3241,
      "##ult": 3242,
      "▁1985": 3243,
      "▁doları": 3244,
      "▁dunyanın": 3245,
      "▁ticari": 3246,
      "##yak": 3247,
      "##las": 3248,
      "▁soyledim": 3249,
      "▁oldugum": 3250,
      "▁vererek": 3251,
      "▁gelen": 3252,
      "▁yıg": 3253,
      "▁tutuk": 3254,
      "▁46": 3255,
      "##uz": 3256,
      "▁onunde": 3257,
      "▁biri": 3258,
      "▁katkı": 3259,
      "▁sozcu": 3260,
      "▁fal": 3261,
      "▁lutf": 3262,
      "▁isit": 3263,
      "▁satıslar": 3264,
      "##ıstı": 3265,
      "▁dol": 3266,
      "##ciler": 3267,
      "▁gormedim": 3268,
      "▁teklifi": 3269,
      "##aya": 3270,
      "▁evin": 3271,
      "##ıyoruz": 3272,
      "▁hap": 3273,
      "▁sirketinin": 3274,
      "▁hoslan": 3275,
      "##arı": 3276,
      "▁bany": 3277,
      "▁durak": 3278,
      "▁buf": 3279,
      "##lattı": 3280,
      "##ilmis": 3281,
      "▁sizin": 3282,
      "▁fiyata": 3283,
      "▁tacoma'ya": 3284,
      "▁basvur": 3285,
      "▁ali": 3286,
      "##mini": 3287,
      "▁kalabal": 3288,
      "▁yemeklerden": 3289,
      "▁olcu": 3290,
      "▁gorevlisi": 3291,
      "##mer": 3292,
      "▁olmus": 3293,
      "▁sahip": 3294,
      "▁fasul": 3295,
      "▁futbol": 3296,
      "▁ideal": 3297,
      "▁yatır": 3298,
      "▁van": 3299,
      "▁suk": 3300,
      "##yum": 3301,
      "##dikten": 3302,
      "##dın": 3303,
      "▁aldıgı": 3304,
      "▁tesadu": 3305,
      "▁duk": 3306,
      "▁sonradan": 3307,
      "##tmis": 3308,
      "▁kaz": 3309,
      "▁yukselerek": 3310,
      "##burgh": 3311,
      "##ent": 3312,
      "▁194": 3313,
      "▁kendinize": 3314,
      "##suz": 3315,
      "▁dukkan": 3316,
      "▁yansı": 3317,
      "▁onem": 3318,
      "▁ucretini": 3319,
      "▁bah": 3320,
      "▁patates": 3321,
      "▁sene": 3322,
      "##innati": 3323,
      "▁degilim": 3324,
      "▁faturam": 3325,
      "##lası": 3326,
      "##muz": 3327,
      "▁basbakan": 3328,
      "▁yan": 3329,
      "▁ydım": 3330,
      "▁gitti": 3331,
      "▁uygun": 3332,
      "▁birbir": 3333,
      "##ancı": 3334,
      "▁has": 3335,
      "▁nereye": 3336,
      "▁enerj": 3337,
      "##egen": 3338,
      "▁beni": 3339,
      "a": 3340,
      "▁tanesi": 3341,
      "▁business": 3342,
      "##bil": 3343,
      "▁vazgec": 3344,
      "▁be": 3345,
      "▁koltu": 3346,
      "▁abd": 3347,
      "▁faal": 3348,
      "▁akr": 3349,
      "▁analist": 3350,
      "▁olayı": 3351,
      "▁yenil": 3352,
      "##ith": 3353,
      "▁sunuyor": 3354,
      "▁derecede": 3355,
      "▁hakkı": 3356,
      "▁ydık": 3357,
      "▁olmak": 3358,
      "▁cok": 3359,
      "##i'nin": 3360,
      "+": 3361,
      "▁107": 3362,
      "▁turkiye": 3363,
      "##ıyorum": 3364,
      "▁numaralı": 3365,
      "▁3.3": 3366,
      "▁milwa": 3367,
      "▁taz": 3368,
      "▁meydan": 3369,
      "▁arkasında": 3370,
      "▁klasik": 3371,
      "▁boston": 3372,
      "▁olarak": 3373,
      "▁dallas'ta": 3374,
      "▁del": 3375,
      "▁veya": 3376,
      "▁cam": 3377,
      "##f": 3378,
      "▁ekonomik": 3379,
      "▁birkacı": 3380,
      "▁kalp": 3381,
      "▁yemeklerde": 3382,
      "▁5'ten": 3383,
      "▁yavas": 3384,
      "▁geliri": 3385,
      "▁dunku": 3386,
      "▁mat": 3387,
      "▁odaya": 3388,
      "##lıgından": 3389,
      "▁uyum": 3390,
      "##.19": 3391,
      "▁islem": 3392,
      "▁uyuy": 3393,
      "▁telef": 3394,
      "▁sit": 3395,
      "▁oturan": 3396,
      "▁miy": 3397,
      "▁kaldik": 3398,
      "▁ederim": 3399,
      "##larına": 3400,
      "▁yapıyor": 3401,
      "##elerin": 3402,
      "▁kosk": 3403,
      "▁kahkah": 3404,
      "##melerini": 3405,
      "▁sus": 3406,
      "▁pıtır": 3407,
      "▁cesaret": 3408,
      "▁di": 3409,
      "▁kararı": 3410,
      "▁aqua": 3411,
      "▁had": 3412,
      "▁soyleyebilir": 3413,
      "▁sepet": 3414,
      "▁huzur": 3415,
      "▁asırı": 3416,
      "##isti": 3417,
      "##ılık": 3418,
      "▁toplu": 3419,
      "▁uyar": 3420,
      "##chester": 3421,
      "##asır": 3422,
      "▁yana": 3423,
      "▁she": 3424,
      "##87": 3425,
      "▁duygusal": 3426,
      "▁dalgın": 3427,
      "▁karsilama": 3428,
      "▁guven": 3429,
      "▁say": 3430,
      "▁munasebet": 3431,
      "##ob": 3432,
      "##alanı": 3433,
      "▁ofk": 3434,
      "▁ihtiyat": 3435,
      "▁balık": 3436,
      "▁first": 3437,
      "▁sıfır": 3438,
      "▁senden": 3439,
      "▁beach": 3440,
      "▁0.3": 3441,
      "▁top": 3442,
      "##lal": 3443,
      "##abiliriz": 3444,
      "▁dolayi": 3445,
      "▁oteller": 3446,
      "▁uzakti": 3447,
      "##ahtar": 3448,
      "▁boru": 3449,
      "▁mecl": 3450,
      "##usunun": 3451,
      "##rah": 3452,
      "▁yetkililer": 3453,
      "▁elektr": 3454,
      "▁ded": 3455,
      "▁halihazırda": 3456,
      "▁cogun": 3457,
      "##enek": 3458,
      "##27": 3459,
      "##kan": 3460,
      "▁county": 3461,
      "▁sef": 3462,
      "▁konumu": 3463,
      "▁giden": 3464,
      "▁yakalan": 3465,
      "▁7.9": 3466,
      "▁seg": 3467,
      "▁sev": 3468,
      "▁pe": 3469,
      "▁ozel": 3470,
      "▁197": 3471,
      "▁%1": 3472,
      "▁gelmedi": 3473,
      "##lık": 3474,
      "▁as": 3475,
      "▁simdiye": 3476,
      "##-p": 3477,
      "▁3\\/4": 3478,
      "##des": 3479,
      "▁temel": 3480,
      "▁lu": 3481,
      "##`": 3482,
      "▁yat": 3483,
      "▁195": 3484,
      "▁tit": 3485,
      "▁savunma": 3486,
      "▁dav": 3487,
      "▁corp": 3488,
      "▁suph": 3489,
      "▁iceriye": 3490,
      "▁plastik": 3491,
      "▁durumunda": 3492,
      "▁karsılık": 3493,
      "##ada": 3494,
      "▁bircok": 3495,
      "▁ikna": 3496,
      "▁dc": 3497,
      "##43": 3498,
      "▁gidecek": 3499,
      "▁ikinci": 3500,
      "▁newark'a": 3501,
      "##az": 3502,
      "▁cincinnati": 3503,
      "▁vapur": 3504,
      "▁3.4": 3505,
      "▁firma": 3506,
      "▁yararlı": 3507,
      "##es": 3508,
      "▁olanaklarını": 3509,
      "▁gecenin": 3510,
      "##malıdır": 3511,
      "▁altı": 3512,
      "▁tesaduf": 3513,
      "▁usul": 3514,
      "▁hacim": 3515,
      "▁kapı": 3516,
      "##x": 3517,
      "▁ayak": 3518,
      "##rek": 3519,
      "##ugu": 3520,
      "##ion": 3521,
      "##ımları": 3522,
      "##altı": 3523,
      "▁1\\/8": 3524,
      "▁mehmet": 3525,
      "▁musteri": 3526,
      "▁patlı": 3527,
      "▁bizler": 3528,
      "##ılıgı": 3529,
      "▁yurudu": 3530,
      "▁civarı": 3531,
      "▁north": 3532,
      "▁darb": 3533,
      "##lat": 3534,
      "▁leh": 3535,
      "▁bedel": 3536,
      "##alarında": 3537,
      "##eyecek": 3538,
      "##iyorlar": 3539,
      "▁beyaz": 3540,
      "▁urk": 3541,
      "▁acısından": 3542,
      "##bet": 3543,
      "▁10'dan": 3544,
      "▁onc": 3545,
      "▁onun": 3546,
      "##te": 3547,
      "▁yen": 3548,
      "▁kuvvetli": 3549,
      "▁bilgiye": 3550,
      "##umlu": 3551,
      "▁odalar": 3552,
      "▁cincinnati'den": 3553,
      "▁yonetim": 3554,
      "▁tutun": 3555,
      "##lilik": 3556,
      "▁ucmak": 3557,
      "▁ellerini": 3558,
      "▁sozunu": 3559,
      "▁ceyr": 3560,
      "▁kisilerin": 3561,
      "▁sevin": 3562,
      "##.25": 3563,
      "▁portakal": 3564,
      "##'ndan": 3565,
      "▁post": 3566,
      "▁duruyordu": 3567,
      "▁calıs": 3568,
      "▁havayolları": 3569,
      "▁yeme": 3570,
      "##ita": 3571,
      "▁veril": 3572,
      "##tıs": 3573,
      "▁geriledi": 3574,
      "▁pirinc": 3575,
      "##kun": 3576,
      "##lis": 3577,
      "##umun": 3578,
      "▁eski": 3579,
      "`": 3580,
      "▁gom": 3581,
      "▁bırak": 3582,
      "▁lev": 3583,
      "##imser": 3584,
      "▁baglı": 3585,
      "▁aylık": 3586,
      "##dik": 3587,
      "##emedik": 3588,
      "▁farklılık": 3589,
      "##89-": 3590,
      "##luk": 3591,
      "▁perd": 3592,
      "##isle": 3593,
      "▁19": 3594,
      "▁yalnızca": 3595,
      "▁kampanya": 3596,
      "##um": 3597,
      "▁cıkardı": 3598,
      "▁ert": 3599,
      "▁korkut": 3600,
      "##3.8": 3601,
      "##liam": 3602,
      "▁ib": 3603,
      "▁yun": 3604,
      "▁med": 3605,
      "##eginden": 3606,
      "▁verici": 3607,
      "##dız": 3608,
      "##ınızı": 3609,
      "▁fotograf": 3610,
      "▁masaya": 3611,
      "##ons": 3612,
      "##lı": 3613,
      "▁kazancları": 3614,
      "##unc": 3615,
      "▁gitmek": 3616,
      "##madigim": 3617,
      "▁altında": 3618,
      "▁2.9": 3619,
      "##andan": 3620,
      "▁nice": 3621,
      "▁bodrum": 3622,
      "▁yatırımcıların": 3623,
      "▁coktu": 3624,
      "▁isletme": 3625,
      "##roit": 3626,
      "##ır": 3627,
      "▁garanti": 3628,
      "▁kr": 3629,
      "##gor": 3630,
      "▁gerekir": 3631,
      "▁iskonto": 3632,
      "▁sizden": 3633,
      "##dınız": 3634,
      "▁haberdar": 3635,
      "##lin": 3636,
      "##aat": 3637,
      "##.38": 3638,
      "▁ulasımı": 3639,
      "▁finc": 3640,
      "##leket": 3641,
      "▁olmadıgını": 3642,
      "▁kazanan": 3643,
      "▁cesitli": 3644,
      "▁kara": 3645,
      "▁u": 3646,
      "▁soru": 3647,
      "▁muhendi": 3648,
      "▁donemde": 3649,
      "##asının": 3650,
      "##zet": 3651,
      "##igini": 3652,
      "▁kiler": 3653,
      "▁derec": 3654,
      "▁dallas'a": 3655,
      "##ann": 3656,
      "▁turlu": 3657,
      "▁haket": 3658,
      "##ılma": 3659,
      "▁doldur": 3660,
      "▁kurum": 3661,
      "▁est": 3662,
      "▁marka": 3663,
      "##ıldıgında": 3664,
      "▁bahar": 3665,
      "▁1.9": 3666,
      "▁william": 3667,
      "▁goz": 3668,
      "▁iy": 3669,
      "▁diler": 3670,
      "▁kısın": 3671,
      "▁ihtiy": 3672,
      "▁belki": 3673,
      "##int": 3674,
      "##.50": 3675,
      "##gini": 3676,
      "▁ziyaret": 3677,
      "▁sizler": 3678,
      "▁havalimanı": 3679,
      "##larımızı": 3680,
      "▁nicin": 3681,
      "##anci": 3682,
      "##zi": 3683,
      "##uyu": 3684,
      "##anti": 3685,
      "▁ederek": 3686,
      "▁rap": 3687,
      "▁sofr": 3688,
      "▁mar": 3689,
      "##he": 3690,
      "▁tabi": 3691,
      "▁olmasına": 3692,
      "▁ve": 3693,
      "▁duser": 3694,
      "▁%9.": 3695,
      "▁bankası": 3696,
      "▁hayatı": 3697,
      "▁pahali": 3698,
      "▁varsa": 3699,
      "▁buz": 3700,
      "▁kal": 3701,
      "▁ihrac": 3702,
      "▁sıkıntı": 3703,
      "▁:": 3704,
      "▁dorduncu": 3705,
      "▁deney": 3706,
      "▁aksi": 3707,
      "▁dak": 3708,
      "##cesine": 3709,
      "##rim": 3710,
      "▁uyk": 3711,
      "▁temizlik": 3712,
      "▁takımı": 3713,
      "▁34": 3714,
      "▁doların": 3715,
      "▁otelde": 3716,
      "▁seninle": 3717,
      "▁biliyor": 3718,
      "▁ticaret": 3719,
      "▁kasıgı": 3720,
      "##ının": 3721,
      "##ro": 3722,
      "##iforn": 3723,
      "▁basladılar": 3724,
      "##une": 3725,
      "▁cif": 3726,
      "▁kapıyı": 3727,
      "##ece": 3728,
      "▁etmeye": 3729,
      "▁izlen": 3730,
      "##lamıs": 3731,
      "▁prens": 3732,
      "▁umut": 3733,
      "▁yesil": 3734,
      "▁heykel": 3735,
      "##tr": 3736,
      "▁sirketler": 3737,
      "▁gem": 3738,
      "##uga": 3739,
      "▁&": 3740,
      "▁ustune": 3741,
      "##misler": 3742,
      "##are": 3743,
      "▁kendimize": 3744,
      "##ash": 3745,
      "##ustum": 3746,
      "▁cıkınca": 3747,
      "##madı": 3748,
      "▁dagıt": 3749,
      "▁potansiy": 3750,
      "▁kenara": 3751,
      "##lam": 3752,
      "▁7/8": 3753,
      "▁hayata": 3754,
      "▁beklentim": 3755,
      "▁arz": 3756,
      "##ci": 3757,
      "▁taze": 3758,
      "ı": 3759,
      "▁onumuz": 3760,
      "▁cekildi": 3761,
      "##'na": 3762,
      "▁%1.7": 3763,
      "▁sıkı": 3764,
      "##endi": 3765,
      "##iyle": 3766,
      "▁bazi": 3767,
      "▁kas": 3768,
      "▁sms": 3769,
      "▁banyo": 3770,
      "##30": 3771,
      "▁seyahat": 3772,
      "▁hakkında": 3773,
      "##mesiyle": 3774,
      "##cık": 3775,
      "▁detroit'e": 3776,
      "▁ku": 3777,
      "▁basit": 3778,
      "##dir": 3779,
      "▁tuttu": 3780,
      "▁mey": 3781,
      "▁les": 3782,
      "▁cadd": 3783,
      "▁fazlay": 3784,
      "▁boyut": 3785,
      "▁raf": 3786,
      "▁bunlara": 3787,
      "▁kacır": 3788,
      "▁tasarruf": 3789,
      "##vır": 3790,
      "##ete": 3791,
      "▁degiller": 3792,
      "##ediy": 3793,
      "▁baslar": 3794,
      "▁fon": 3795,
      "##lerde": 3796,
      "▁300": 3797,
      "▁sabahı": 3798,
      "##erse": 3799,
      "▁ıcı": 3800,
      "▁mide": 3801,
      ":": 3802,
      "▁yarat": 3803,
      "▁sayılı": 3804,
      "##esine": 3805,
      "4": 3806,
      "▁bulus": 3807,
      "▁verdik": 3808,
      "##agan": 3809,
      "▁memphis'e": 3810,
      "▁sınav": 3811,
      "▁gozunu": 3812,
      "▁8'den": 3813,
      "▁askeri": 3814,
      "▁hit": 3815,
      "▁yara": 3816,
      "▁diren": 3817,
      "▁pisti": 3818,
      "▁tren": 3819,
      "▁yum": 3820,
      "##ub": 3821,
      "▁org": 3822,
      "##sanız": 3823,
      "▁ye": 3824,
      "##seniz": 3825,
      "▁erken": 3826,
      "▁ugras": 3827,
      "▁.)": 3828,
      "▁guclu": 3829,
      "▁kalan": 3830,
      "▁gectigimiz": 3831,
      "▁ger": 3832,
      "▁pırıl": 3833,
      "##ısır": 3834,
      "▁birinci": 3835,
      "##it": 3836,
      "▁sofor": 3837,
      "▁tic": 3838,
      "▁mos": 3839,
      "##ıyorsun": 3840,
      "##'lik": 3841,
      "▁saf": 3842,
      "▁22": 3843,
      "##pr": 3844,
      "▁ik": 3845,
      "##to": 3846,
      "▁yog": 3847,
      "▁sahib": 3848,
      "##ırım": 3849,
      "▁aktivite": 3850,
      "▁pitts": 3851,
      "▁ihracı": 3852,
      "##ince": 3853,
      "▁ceza": 3854,
      "▁yanak": 3855,
      "▁neler": 3856,
      "▁karısı": 3857,
      "##rar": 3858,
      "##erler": 3859,
      "▁birisi": 3860,
      "▁ucusunuz": 3861,
      "##sına": 3862,
      "▁nakit": 3863,
      "▁cocukları": 3864,
      "▁yoneticisi": 3865,
      "▁kesildi": 3866,
      "▁kapasit": 3867,
      "▁ep": 3868,
      "▁fir": 3869,
      "▁kendi": 3870,
      "▁yal": 3871,
      "▁olmayı": 3872,
      "▁bag": 3873,
      "▁yunan": 3874,
      "▁anlama": 3875,
      "▁deh": 3876,
      "▁toh": 3877,
      "▁egz": 3878,
      "▁dem": 3879,
      "▁tuhaf": 3880,
      "▁cogunlukla": 3881,
      "##orm": 3882,
      "▁bıyık": 3883,
      "▁teb": 3884,
      "##ustuk": 3885,
      "##65": 3886,
      "▁ad": 3887,
      "▁rezerv": 3888,
      "##ıcık": 3889,
      "##lemeye": 3890,
      "▁soyley": 3891,
      "▁tarif": 3892,
      "▁celik": 3893,
      "▁korkunc": 3894,
      "##encer": 3895,
      "▁gormuyor": 3896,
      "▁gen": 3897,
      "▁birim": 3898,
      "##ari": 3899,
      "▁itibaren": 3900,
      "▁texas": 3901,
      "▁isletmeler": 3902,
      "##ah": 3903,
      "##eniz": 3904,
      "▁profesyonel": 3905,
      "▁kusk": 3906,
      "▁bab": 3907,
      "▁baz": 3908,
      "▁asagıda": 3909,
      "▁yaptık": 3910,
      "▁bekleniyor": 3911,
      "▁sirketlerin": 3912,
      "▁duyg": 3913,
      "##amı": 3914,
      "▁bileti": 3915,
      "▁yeter": 3916,
      "▁yuz": 3917,
      "##ave": 3918,
      "##anla": 3919,
      "▁nedenle": 3920,
      "▁durdur": 3921,
      "▁rot": 3922,
      "▁pus": 3923,
      "##eo": 3924,
      "▁con": 3925,
      "▁artık": 3926,
      "▁calısıyor": 3927,
      "\\": 3928,
      "##;": 3929,
      "▁geor": 3930,
      "▁1.000": 3931,
      "▁yaslı": 3932,
      "▁sureci": 3933,
      "▁wall": 3934,
      "▁derken": 3935,
      "▁gorun": 3936,
      "▁sans": 3937,
      "▁restoran": 3938,
      "▁kap": 3939,
      "▁ted": 3940,
      "▁ust": 3941,
      "▁76": 3942,
      "▁form": 3943,
      "▁seattle": 3944,
      "▁omer": 3945,
      "▁dedim": 3946,
      "##0.": 3947,
      "▁efsan": 3948,
      "▁ey": 3949,
      "##day": 3950,
      "▁veto": 3951,
      "▁kosulları": 3952,
      "▁satılan": 3953,
      "▁kampanyalardan": 3954,
      "##siyonu": 3955,
      "##y": 3956,
      "▁iceri": 3957,
      "▁dans": 3958,
      "##iss": 3959,
      "▁re": 3960,
      "▁saray": 3961,
      "▁sıy": 3962,
      "▁lim": 3963,
      "▁yarısı": 3964,
      "▁dusuyor": 3965,
      "▁miras": 3966,
      "▁cir": 3967,
      "▁gam": 3968,
      "##ark": 3969,
      "##may": 3970,
      "##eyal": 3971,
      "▁montre": 3972,
      "▁lezzetliydi": 3973,
      "##°": 3974,
      "▁tasıyor": 3975,
      "▁takip": 3976,
      "▁sanatcı": 3977,
      "▁bunun": 3978,
      "y": 3979,
      "▁pro": 3980,
      "##ire": 3981,
      "##iye": 3982,
      "▁polis": 3983,
      "##ayol": 3984,
      "##ibe": 3985,
      "▁adi": 3986,
      "▁denilen": 3987,
      "▁arkadası": 3988,
      "▁iyiydi": 3989,
      "▁neredeyse": 3990,
      "…": 3991,
      "▁%4.8": 3992,
      "##mamak": 3993,
      "▁karlı": 3994,
      "##me": 3995,
      "##umuz": 3996,
      "▁yah": 3997,
      "▁evi": 3998,
      "▁uzerine": 3999,
      "▁mustafa": 4000,
      "▁yasanan": 4001,
      "▁elli": 4002,
      "▁plas": 4003,
      "##isin": 4004,
      "▁mark": 4005,
      "▁haydi": 4006,
      "▁gurultu": 4007,
      "▁istemiyorum": 4008,
      "▁hangi": 4009,
      "▁baktı": 4010,
      "▁oldug": 4011,
      "##imde": 4012,
      "▁salat": 4013,
      "##anbul": 4014,
      "▁oglum": 4015,
      "▁kanun": 4016,
      "▁donuk": 4017,
      "##uf": 4018,
      "▁tuc": 4019,
      "▁kutu": 4020,
      "▁yarar": 4021,
      "▁televizyon": 4022,
      "##stems": 4023,
      "▁carsı": 4024,
      "▁okun": 4025,
      "▁erdi": 4026,
      "##ber": 4027,
      "▁uretic": 4028,
      "▁kesti": 4029,
      "##art": 4030,
      "▁kendimi": 4031,
      "▁gey": 4032,
      "▁uygulan": 4033,
      "▁kullanılan": 4034,
      "[UNK]": 4035,
      "▁sivil": 4036,
      "▁goc": 4037,
      "▁henuz": 4038,
      "▁ign": 4039,
      "##ga": 4040,
      "##ack": 4041,
      "▁tarz": 4042,
      "##.23": 4043,
      "▁kendiler": 4044,
      "▁teslim": 4045,
      "##emmel": 4046,
      "▁bilmek": 4047,
      "##isel": 4048,
      "▁ask": 4049,
      "▁aktif": 4050,
      "##ıkır": 4051,
      "##mesinin": 4052,
      "▁giy": 4053,
      "▁arıyor": 4054,
      "▁avuc": 4055,
      "##egini": 4056,
      "▁parmak": 4057,
      "▁beyan": 4058,
      "▁mendi": 4059,
      "▁cunku": 4060,
      "##aca": 4061,
      "▁kayıt": 4062,
      "##cı": 4063,
      "▁oluyor": 4064,
      "▁yuksel": 4065,
      "##utur": 4066,
      "▁ogr": 4067,
      "▁seyr": 4068,
      "▁utan": 4069,
      "▁isv": 4070,
      "▁haf": 4071,
      "##med": 4072,
      "##suzluk": 4073,
      "▁duman": 4074,
      "▁yenilen": 4075,
      "▁kalkıyor": 4076,
      "▁burn": 4077,
      "▁vatandas": 4078,
      "▁aga": 4079,
      "▁serv": 4080,
      "▁27": 4081,
      "▁petersburg'dan": 4082,
      "▁iktidar": 4083,
      "▁jon": 4084,
      "▁paraya": 4085,
      "##'da": 4086,
      "▁zihn": 4087,
      "▁hurr": 4088,
      "##wn": 4089,
      "##lerinde": 4090,
      "##il": 4091,
      "▁prof": 4092,
      "▁zengin": 4093,
      "▁haval": 4094,
      "▁86": 4095,
      "▁dudak": 4096,
      "##anlı": 4097,
      "##ımın": 4098,
      "▁stratej": 4099,
      "▁bıcak": 4100,
      "▁adamı": 4101,
      "▁secim": 4102,
      "▁baktım": 4103,
      "##unda": 4104,
      "▁cı": 4105,
      "▁kapattı": 4106,
      "▁direktoru": 4107,
      "##ze": 4108,
      "##sa": 4109,
      "▁gorunuyordu": 4110,
      "▁engel": 4111,
      "▁tim": 4112,
      "##detti": 4113,
      "▁kapas": 4114,
      "▁yonetimi": 4115,
      "▁tesisi": 4116,
      "▁acent": 4117,
      "▁enf": 4118,
      "▁twa": 4119,
      "▁k": 4120,
      "▁sultan": 4121,
      "▁110": 4122,
      "##id": 4123,
      "##misti": 4124,
      "##ug": 4125,
      "▁tedavul": 4126,
      "▁tucc": 4127,
      "▁bes": 4128,
      "##isindan": 4129,
      "##daki": 4130,
      "▁sigorta": 4131,
      "▁gumbur": 4132,
      "▁tesekkur": 4133,
      "▁muhtesem": 4134,
      "##…": 4135,
      "▁golge": 4136,
      "▁kızlar": 4137,
      "▁kırk": 4138,
      "▁merkezi": 4139,
      "▁etkisi": 4140,
      "▁3.1": 4141,
      "▁w": 4142,
      "▁saatlerinde": 4143,
      "▁tedav": 4144,
      "▁lou": 4145,
      "▁dım": 4146,
      "##abilmek": 4147,
      "▁dısı": 4148,
      "▁ceh": 4149,
      "##cinin": 4150,
      "##iness": 4151,
      "▁ag": 4152,
      "▁sag": 4153,
      "##olu": 4154,
      "##kel": 4155,
      "▁bro": 4156,
      "▁prob": 4157,
      "##lıgında": 4158,
      "▁seni": 4159,
      "##ento": 4160,
      "▁ikiye": 4161,
      "▁sinir": 4162,
      "##likten": 4163,
      "▁edec": 4164,
      "▁alma": 4165,
      "▁bulabilir": 4166,
      "▁yatırımcı": 4167,
      "▁olustur": 4168,
      "▁ital": 4169,
      "##ebilecegini": 4170,
      "##isine": 4171,
      "##imize": 4172,
      "▁kaliteye": 4173,
      "##eri": 4174,
      "▁belir": 4175,
      "▁hareketi": 4176,
      "▁olmadan": 4177,
      "▁kurus": 4178,
      "▁vakti": 4179,
      "▁dort": 4180,
      "▁cik": 4181,
      "##layan": 4182,
      "▁sil": 4183,
      "▁ig": 4184,
      "##gumuz": 4185,
      "##ilerle": 4186,
      "▁lisans": 4187,
      "▁fer": 4188,
      "▁cleveland'dan": 4189,
      "##itt": 4190,
      "▁mahk": 4191,
      "▁yavr": 4192,
      "▁fazlası": 4193,
      "▁elleri": 4194,
      "▁gib": 4195,
      "▁olmalıydı": 4196,
      "##yuz": 4197,
      "▁sars": 4198,
      "▁n": 4199,
      "▁pantol": 4200,
      "▁5": 4201,
      "▁kor": 4202,
      "##likle": 4203,
      "##uler": 4204,
      "▁grub": 4205,
      "▁karıs": 4206,
      "▁tasır": 4207,
      "▁hacmi": 4208,
      "▁gecerli": 4209,
      "▁hizmetten": 4210,
      "##(": 4211,
      "##ildigi": 4212,
      "▁mahkem": 4213,
      "▁dolu": 4214,
      "▁city'e": 4215,
      "▁arasındaki": 4216,
      "##masının": 4217,
      "▁pisir": 4218,
      "##3.9": 4219,
      "▁ithalat": 4220,
      "▁konusur": 4221,
      "##1": 4222,
      "▁kazandı": 4223,
      "##ınız": 4224,
      "##digim": 4225,
      "▁dengesi": 4226,
      "##amay": 4227,
      "##din": 4228,
      "▁kıt": 4229,
      "▁endis": 4230,
      "▁cumle": 4231,
      "▁olacagı": 4232,
      "▁istiyorlar": 4233,
      "▁mesela": 4234,
      "▁don": 4235,
      "o": 4236,
      "▁mektup": 4237,
      "▁yildi": 4238,
      "▁kurtaj": 4239,
      "##ırıl": 4240,
      "▁oraya": 4241,
      "▁chicago'ya": 4242,
      "▁kazanc": 4243,
      "##ılır": 4244,
      "##sine": 4245,
      "▁isp": 4246,
      "▁mobil": 4247,
      "▁tut": 4248,
      "##'ler": 4249,
      "##gru": 4250,
      "##.4": 4251,
      "▁national": 4252,
      "##paz": 4253,
      "▁hapis": 4254,
      "▁erkekler": 4255,
      "▁ozlem": 4256,
      "##-19": 4257,
      "▁analiz": 4258,
      "##000": 4259,
      "▁sakal": 4260,
      "##gını": 4261,
      "▁korun": 4262,
      "▁zavallı": 4263,
      "▁devam": 4264,
      "##o'nun": 4265,
      "▁ref": 4266,
      "##uydu": 4267,
      "▁%0.2": 4268,
      "##cal": 4269,
      "▁pa": 4270,
      "##gın": 4271,
      "▁havuz": 4272,
      "##mustum": 4273,
      "▁ecz": 4274,
      "▁genclik": 4275,
      "##asında": 4276,
      "##lıyordu": 4277,
      "▁vır": 4278,
      "▁kurulu": 4279,
      "##ımı": 4280,
      "▁zırt": 4281,
      "▁vakit": 4282,
      "▁bomb": 4283,
      "▁tedavulde": 4284,
      "##ard": 4285,
      "##ij": 4286,
      "▁fıkı": 4287,
      "▁burada": 4288,
      "##ur": 4289,
      "▁derl": 4290,
      "▁35": 4291,
      "▁arası": 4292,
      "▁yapmadı": 4293,
      "▁man": 4294,
      "▁cincinnati'ye": 4295,
      "▁j.": 4296,
      "▁20.": 4297,
      "▁cuk": 4298,
      "##acagımı": 4299,
      "##yedi": 4300,
      "▁800": 4301,
      "▁yapti": 4302,
      "▁milyonluk": 4303,
      "▁nedeniyle": 4304,
      "▁urunleri": 4305,
      "▁yitir": 4306,
      "▁boz": 4307,
      "##imizi": 4308,
      "▁chicago": 4309,
      "▁kiz": 4310,
      "##ileri": 4311,
      "u": 4312,
      "##22": 4313,
      "▁durumu": 4314,
      "##lesmis": 4315,
      "▁seyir": 4316,
      "▁uluslar": 4317,
      "##ecegini": 4318,
      "▁neyi": 4319,
      "▁biridir": 4320,
      "▁genelde": 4321,
      "##dıgımız": 4322,
      "##per": 4323,
      "##anı": 4324,
      "▁cat": 4325,
      "▁yuzunden": 4326,
      "##acagım": 4327,
      "▁kırm": 4328,
      "▁der": 4329,
      "▁film": 4330,
      "▁so": 4331,
      "##cılar": 4332,
      "##ırda": 4333,
      "▁kaliteli": 4334,
      "▁baltimore'den": 4335,
      "##ligin": 4336,
      "▁acı": 4337,
      "##ret": 4338,
      "##yan": 4339,
      "▁b": 4340,
      "##mas": 4341,
      "▁bel": 4342,
      "##lıg": 4343,
      "▁sırasında": 4344,
      "##vet": 4345,
      "▁bosalt": 4346,
      "▁esn": 4347,
      "##ım": 4348,
      "##ebilecek": 4349,
      "▁yolcu": 4350,
      "▁iler": 4351,
      "##att": 4352,
      "▁bu": 4353,
      "▁kitab": 4354,
      "▁indianapolis'ten": 4355,
      "▁taht": 4356,
      "▁fiyatlarını": 4357,
      "▁mektu": 4358,
      "▁luk": 4359,
      "##45": 4360,
      "▁ikibiniki": 4361,
      "▁%11": 4362,
      "##apur": 4363,
      "##ginden": 4364,
      "▁onumuzdeki": 4365,
      "##endim": 4366,
      "▁aykırı": 4367,
      "▁geri": 4368,
      "▁eser": 4369,
      "▁agız": 4370,
      "▁arttı": 4371,
      "▁gider": 4372,
      "▁dogum": 4373,
      "▁resepsiyon": 4374,
      "▁herhan": 4375,
      "▁yazar": 4376,
      "▁dis": 4377,
      "▁birinin": 4378,
      "▁temsil": 4379,
      "▁kisiyi": 4380,
      "▁nasdaq": 4381,
      "▁goturdu": 4382,
      "▁hukuk": 4383,
      "7": 4384,
      "▁biy": 4385,
      "▁lor": 4386,
      "▁gm": 4387,
      "##acagı": 4388,
      "▁yonetici": 4389,
      "##san": 4390,
      "▁12.5": 4391,
      "▁onların": 4392,
      "▁cıkan": 4393,
      "▁almaya": 4394,
      "▁mill": 4395,
      "▁denizin": 4396,
      "▁yapıldı": 4397,
      "##adı": 4398,
      "##ang": 4399,
      "▁denet": 4400,
      "▁kendilerini": 4401,
      "▁guleryuzlu": 4402,
      "##lanmıs": 4403,
      "▁%12": 4404,
      "##eyman": 4405,
      "▁eglenceli": 4406,
      "▁tahvilleri": 4407,
      "▁huz": 4408,
      "▁alıskan": 4409,
      "▁devlet": 4410,
      "▁iptal": 4411,
      "▁alımı": 4412,
      "j": 4413,
      "▁yetis": 4414,
      "▁otuz": 4415,
      "▁dagı": 4416,
      "▁basv": 4417,
      "▁yargı": 4418,
      "▁birdenbire": 4419,
      "▁hor": 4420,
      "▁borsa": 4421,
      "##ihan": 4422,
      "▁ydı": 4423,
      "▁evlen": 4424,
      "▁pembe": 4425,
      "▁vardi": 4426,
      "▁ip": 4427,
      "▁siyas": 4428,
      "▁yasar": 4429,
      "▁ogle": 4430,
      "##iyas": 4431,
      "▁mel": 4432,
      "▁tey": 4433,
      "▁poz": 4434,
      "##lerdi": 4435,
      "##oyu": 4436,
      "▁elem": 4437,
      "##muyor": 4438,
      "##ing": 4439,
      "▁rakı": 4440,
      "▁tutmak": 4441,
      "▁alır": 4442,
      "▁muhalef": 4443,
      "▁eks": 4444,
      "##enin": 4445,
      "▁kay": 4446,
      "▁verdigim": 4447,
      "##sekiz": 4448,
      "▁hakim": 4449,
      "▁firmalar": 4450,
      "▁yak": 4451,
      "▁siddet": 4452,
      "▁houston'a": 4453,
      "▁yatırım": 4454,
      "##anc": 4455,
      "▁fikir": 4456,
      "▁sermay": 4457,
      "▁gurult": 4458,
      "▁maz": 4459,
      "▁diy": 4460,
      "▁netic": 4461,
      "▁verdigini": 4462,
      "▁esk": 4463,
      "▁kup": 4464,
      "▁ikisi": 4465,
      "▁cevirdi": 4466,
      "▁id": 4467,
      "▁ilgilen": 4468,
      "▁hukumetin": 4469,
      "▁birbirini": 4470,
      "▁hisse": 4471,
      "▁californ": 4472,
      "##dıgından": 4473,
      "##yız": 4474,
      "▁muslum": 4475,
      "▁piyasası": 4476,
      "##ew": 4477,
      "▁veriyor": 4478,
      "▁”": 4479,
      "##ızı": 4480,
      "▁yasayan": 4481,
      "▁murat": 4482,
      "▁ediliyor": 4483,
      "▁alısver": 4484,
      "▁eb": 4485,
      "▁dosy": 4486,
      "##cog": 4487,
      "▁ayında": 4488,
      "▁ediyorum": 4489,
      "▁florida": 4490,
      "##rup": 4491,
      "▁tuz": 4492,
      "▁art": 4493,
      "▁icecekleri": 4494,
      "▁tanıs": 4495,
      "▁tesisin": 4496,
      "##oeni": 4497,
      "▁edil": 4498,
      "▁pahaliydi": 4499,
      "##eyen": 4500,
      "##amıyor": 4501,
      "##cıları": 4502,
      "▁%4": 4503,
      "▁japonya": 4504,
      "▁harekete": 4505,
      "▁diyorum": 4506,
      "##isli": 4507,
      "##vey": 4508,
      "▁otobus": 4509,
      "##arson": 4510,
      "##oloji": 4511,
      "▁tumu": 4512,
      "▁barın": 4513,
      "▁bahsederim": 4514,
      "##istim": 4515,
      "▁istir": 4516,
      "##line": 4517,
      "▁politik": 4518,
      "▁zamanlar": 4519,
      "▁ısı": 4520,
      "▁biriydi": 4521,
      "##iza": 4522,
      "▁kısmen": 4523,
      "##cular": 4524,
      "▁pil": 4525,
      "▁1.4": 4526,
      "▁etraf": 4527,
      "▁7.5": 4528,
      "▁415": 4529,
      "▁ydim": 4530,
      "##dut": 4531,
      "##eb": 4532,
      "##esiyle": 4533,
      "▁birka": 4534,
      "▁komisyon": 4535,
      "▁kacın": 4536,
      "▁bıraktı": 4537,
      "##etir": 4538,
      "▁yukselt": 4539,
      "##azım": 4540,
      "▁24": 4541,
      "▁kirp": 4542,
      "▁soy": 4543,
      "▁aktar": 4544,
      "▁sog": 4545,
      "▁iddi": 4546,
      "▁fedakar": 4547,
      "▁rah": 4548,
      "▁rahatsız": 4549,
      "▁farklı": 4550,
      "▁domates": 4551,
      "▁co.": 4552,
      "▁17": 4553,
      "##.31": 4554,
      "▁abd'nin": 4555,
      "▁uzakta": 4556,
      "##ere": 4557,
      "▁eylem": 4558,
      "▁sonrası": 4559,
      "▁yapma": 4560,
      "▁dolas": 4561,
      "##uldugu": 4562,
      "▁doktor": 4563,
      "▁istedigi": 4564,
      "##inin": 4565,
      "##0.3": 4566,
      "▁bey": 4567,
      "▁konfer": 4568,
      "▁vatand": 4569,
      "▁cozum": 4570,
      "▁fabrika": 4571,
      "▁nokta": 4572,
      "▁makal": 4573,
      "##medigi": 4574,
      "##ecegimiz": 4575,
      "▁franc": 4576,
      "▁nur": 4577,
      "▁husus": 4578,
      "##sızın": 4579,
      "▁icerisinde": 4580,
      "▁gerekli": 4581,
      "▁koydu": 4582,
      "▁george": 4583,
      "##di": 4584,
      "▁bilinen": 4585,
      "▁bon": 4586,
      "##memisti": 4587,
      "##ılmaya": 4588,
      "##urken": 4589,
      "▁yani": 4590,
      "▁hem": 4591,
      "▁!": 4592,
      "▁sapır": 4593,
      "##stit": 4594,
      "##una": 4595,
      "▁puf": 4596,
      "##“": 4597,
      "▁olmam": 4598,
      "▁memphis'ten": 4599,
      "▁uyandır": 4600,
      "▁unlu": 4601,
      "▁1988": 4602,
      "##dıgı": 4603,
      "▁trafik": 4604,
      "▁ayn": 4605,
      "▁amer": 4606,
      "▁hisseye": 4607,
      "▁borsası": 4608,
      "▁performansi": 4609,
      "▁kaynagı": 4610,
      "▁paran": 4611,
      "▁baltimore": 4612,
      "▁bunda": 4613,
      "▁pazartesi": 4614,
      "▁fena": 4615,
      "▁cıkacak": 4616,
      "##ıma": 4617,
      "▁saglamak": 4618,
      "##apol": 4619,
      "▁kıymetler": 4620,
      "▁st": 4621,
      "##verdi": 4622,
      "▁kendisinden": 4623,
      "▁kapıdan": 4624,
      "##bin": 4625,
      "▁deger": 4626,
      "##ames": 4627,
      "##met": 4628,
      "▁soh": 4629,
      "▁piyasalar": 4630,
      "▁duvar": 4631,
      "▁mitchell": 4632,
      "▁sez": 4633,
      "▁endustr": 4634,
      "▁esya": 4635,
      "▁%13": 4636,
      "▁begenmedim": 4637,
      "##daydı": 4638,
      "▁yapar": 4639,
      "##lıyor": 4640,
      "▁getiri": 4641,
      "▁uzere": 4642,
      "▁vakıf": 4643,
      "##mesin": 4644,
      "▁sorum": 4645,
      "▁big": 4646,
      "▁misafirimiz": 4647,
      "▁finans": 4648,
      "▁onunden": 4649,
      "▁kalktı": 4650,
      "▁yolun": 4651,
      "▁boyunca": 4652,
      "▁ulasıl": 4653,
      "▁mavi": 4654,
      "▁bocek": 4655,
      "▁geliyordu": 4656,
      "▁eger": 4657,
      "##liler": 4658,
      "▁agzına": 4659,
      "▁northwest": 4660,
      "##alarla": 4661,
      "▁kamp": 4662,
      "▁harik": 4663,
      "##\\": 4664,
      "##ir": 4665,
      "▁corap": 4666,
      "▁saman": 4667,
      "▁gelmis": 4668,
      "*": 4669,
      "▁hayat": 4670,
      "▁trans": 4671,
      "▁sozcusu": 4672,
      "▁gidec": 4673,
      "▁fev": 4674,
      "▁cogu": 4675,
      "##leri": 4676,
      "▁kaptan": 4677,
      "##emiyorum": 4678,
      "▁ford": 4679,
      "▁1997": 4680,
      "▁mantık": 4681,
      "▁animasyonlar": 4682,
      "▁ab": 4683,
      "▁duruyor": 4684,
      "▁cocugun": 4685,
      "▁digerleri": 4686,
      "▁gide": 4687,
      "##ken": 4688,
      "▁arb": 4689,
      "##ip": 4690,
      "##ich": 4691,
      "▁ticareti": 4692,
      "##ota": 4693,
      "▁har": 4694,
      "##'ı": 4695,
      "▁ymıs": 4696,
      "##i": 4697,
      "##on'un": 4698,
      "▁deniz": 4699,
      "##kın": 4700,
      "##istin": 4701,
      "▁nitelik": 4702,
      "▁tepk": 4703,
      "▁duserek": 4704,
      "▁sokak": 4705,
      "▁dusunce": 4706,
      "▁duydum": 4707,
      "▁karsilamadi": 4708,
      "▁durus": 4709,
      "##uma": 4710,
      "##ıy": 4711,
      "▁eglence": 4712,
      "▁seyret": 4713,
      "##yasal": 4714,
      "▁kim": 4715,
      "▁tırman": 4716,
      "▁serb": 4717,
      "▁fırıl": 4718,
      "##miz": 4719,
      "##—": 4720,
      "▁salon": 4721,
      "▁ban": 4722,
      "▁gelince": 4723,
      "▁kur": 4724,
      "##'s": 4725,
      "▁etmem": 4726,
      "▁fe": 4727,
      "▁araba": 4728,
      "▁imkanlari": 4729,
      "##ly": 4730,
      "▁ederler": 4731,
      "▁aydın": 4732,
      "▁degilsin": 4733,
      "##dy": 4734,
      "▁hom": 4735,
      "@": 4736,
      "▁azalt": 4737,
      "▁arab": 4738,
      "▁gelmisti": 4739,
      "▁lehman": 4740,
      "▁azından": 4741,
      "##iyiz": 4742,
      "##edil": 4743,
      "▁gelip": 4744,
      "##leyerek": 4745,
      "##muyordu": 4746,
      "▁tad": 4747,
      "▁soylem": 4748,
      "##ational": 4749,
      "▁petrol": 4750,
      "▁": 4751,
      "▁bekliyor": 4752,
      "▁yapın": 4753,
      "▁16": 4754,
      "▁%7.8": 4755,
      "▁kadeh": 4756,
      "▁ul": 4757,
      "▁lastik": 4758,
      ".": 4759,
      "##abilecek": 4760,
      "▁yit": 4761,
      "▁kid": 4762,
      "▁nas": 4763,
      "▁olmayan": 4764,
      "▁cag": 4765,
      "##dor": 4766,
      "▁gecm": 4767,
      "▁hug": 4768,
      "▁gid": 4769,
      "▁halen": 4770,
      "▁des": 4771,
      "▁buldum": 4772,
      "##elerinden": 4773,
      "▁islemlerde": 4774,
      "▁ramiz": 4775,
      "▁iskont": 4776,
      "▁altın": 4777,
      "▁cleveland": 4778,
      "▁getirir": 4779,
      "##vert": 4780,
      "▁mali": 4781,
      "##kil": 4782,
      "▁galiba": 4783,
      "▁birden": 4784,
      "▁gecirdi": 4785,
      "▁kuf": 4786,
      "▁yalnız": 4787,
      "▁japon": 4788,
      "▁hat": 4789,
      "▁kullan": 4790,
      "▁tat": 4791,
      "▁havaliman": 4792,
      "▁yeniden": 4793,
      "##cılı": 4794,
      "▁amerika": 4795,
      "##ıyorlar": 4796,
      "▁aradi": 4797,
      "▁acıkladı": 4798,
      "##elik": 4799,
      "▁umuyor": 4800,
      "▁li": 4801,
      "▁isvicre": 4802,
      "▁devralma": 4803,
      "▁kumar": 4804,
      "##lerinden": 4805,
      "▁karın": 4806,
      "▁hizmetleri": 4807,
      "▁baslat": 4808,
      "▁sesi": 4809,
      "▁annem": 4810,
      "▁avrup": 4811,
      "##ol": 4812,
      "▁okudu": 4813,
      "▁kisilik": 4814,
      "▁uydur": 4815,
      "##agında": 4816,
      "##obil": 4817,
      "▁26": 4818,
      "▁cırp": 4819,
      "▁ugra": 4820,
      "▁reform": 4821,
      "##50": 4822,
      "▁havaya": 4823,
      "##ye": 4824,
      "##esti": 4825,
      "##ital": 4826,
      "▁rey": 4827,
      "##oru": 4828,
      "▁sorular": 4829,
      "▁aslında": 4830,
      "▁ingiliz": 4831,
      "▁yuksekti": 4832,
      "▁kımıl": 4833,
      "▁hil": 4834,
      "▁city'den": 4835,
      "▁vuc": 4836,
      "▁geyik": 4837,
      "▁sup": 4838,
      "▁…": 4839,
      "##ong": 4840,
      "##imizde": 4841,
      "##likleri": 4842,
      "##tia": 4843,
      "##imin": 4844,
      "▁yaklasık": 4845,
      "▁havaalanı": 4846,
      "▁ug": 4847,
      "▁1.0": 4848,
      "n": 4849,
      "##y'nin": 4850,
      "▁koylu": 4851,
      "▁koltuk": 4852,
      "##ec": 4853,
      "▁minne": 4854,
      "▁devr": 4855,
      "▁sirketleri": 4856,
      "▁olmadıgı": 4857,
      "▁qu": 4858,
      "##fi": 4859,
      "▁naci": 4860,
      "▁altına": 4861,
      "▁ediyoruz": 4862,
      "▁atan": 4863,
      "##lastı": 4864,
      "▁fransa": 4865,
      "▁anlas": 4866,
      "▁calismas": 4867,
      "▁takv": 4868,
      "▁6.4": 4869,
      "▁ayrıl": 4870,
      "▁denver'de": 4871,
      "▁beri": 4872,
      "▁ikimiz": 4873,
      "##/": 4874,
      "▁ikibin": 4875,
      "▁bilinc": 4876,
      "##/4": 4877,
      "▁saatlerce": 4878,
      "▁tab": 4879,
      "▁olm": 4880,
      "##u": 4881,
      "▁beklentiler": 4882,
      "##gur": 4883,
      "▁plan": 4884,
      "##bakır": 4885,
      "▁dusundum": 4886,
      "##'dan": 4887,
      "▁olcude": 4888,
      "▁besik": 4889,
      "▁durur": 4890,
      "▁teknoloji": 4891,
      "##lilig": 4892,
      "##lasyon": 4893,
      "▁ayr": 4894,
      "▁aksamı": 4895,
      "▁%8.2": 4896,
      "##esel": 4897,
      "▁krav": 4898,
      "▁edilebilir": 4899,
      "▁gunler": 4900,
      "▁karayol": 4901,
      "##z": 4902,
      "▁gecti": 4903,
      "▁sahibi": 4904,
      "##atır": 4905,
      "▁3\\/": 4906,
      "##lıgı": 4907,
      "##dıg": 4908,
      "▁oldugundan": 4909,
      "##ayı": 4910,
      "▁insanları": 4911,
      "▁ciz": 4912,
      "▁milwaukee'den": 4913,
      "##ugh": 4914,
      "▁ediyorlar": 4915,
      "##han": 4916,
      "▁sezon": 4917,
      "▁bo": 4918,
      "'": 4919,
      "▁kom": 4920,
      "▁yardımcısı": 4921,
      "##bel": 4922,
      "▁meclis": 4923,
      "▁benimle": 4924,
      "▁verdiler": 4925,
      "##l": 4926,
      "##duk": 4927,
      "▁yansıt": 4928,
      "##onom": 4929,
      "▁colum": 4930,
      "##memiz": 4931,
      "▁fiyat": 4932,
      "▁dinlem": 4933,
      "▁yasadı": 4934,
      "▁girer": 4935,
      "▁faydalan": 4936,
      "▁topu": 4937,
      "▁98": 4938,
      "▁ayaga": 4939,
      "▁ofis": 4940,
      "▁fiyatlar": 4941,
      "▁geceleri": 4942,
      "▁in": 4943,
      "##ortaj": 4944,
      "▁1500": 4945,
      "▁agır": 4946,
      "▁56": 4947,
      "▁iflas": 4948,
      "▁teksas": 4949,
      "▁3.9": 4950,
      "▁isteyen": 4951,
      "▁dunya": 4952,
      "▁bulut": 4953,
      "▁tampa": 4954,
      "▁dortyuz": 4955,
      "##elerini": 4956,
      "##gele": 4957,
      "▁alısveris": 4958,
      "▁takır": 4959,
      "##ra": 4960,
      "▁oteki": 4961,
      "▁gures": 4962,
      "▁cekip": 4963,
      "##lerle": 4964,
      "▁yoldan": 4965,
      "▁suleyman": 4966,
      "##ank": 4967,
      "##'te": 4968,
      "▁tu": 4969,
      "▁em": 4970,
      "##tal": 4971,
      "▁amel": 4972,
      "▁herk": 4973,
      "▁iken": 4974,
      "##'nı": 4975,
      "##ustos": 4976,
      "▁olmas": 4977,
      "##inc": 4978,
      "##20": 4979,
      "##eme": 4980,
      "▁servis": 4981,
      "▁duzey": 4982,
      "##ser": 4983,
      "##ledi": 4984,
      "▁yerlerde": 4985,
      "▁%8": 4986,
      "▁alıcı": 4987,
      "▁cesitlilik": 4988,
      "▁emtia": 4989,
      "##ucuk": 4990,
      "▁mec": 4991,
      "##ıza": 4992,
      "▁heves": 4993,
      "##inci": 4994,
      "▁degerli": 4995,
      "▁financial": 4996,
      "▁yetk": 4997,
      "▁arastır": 4998,
      "▁geciyor": 4999,
      "▁kuc": 5000,
      "▁azal": 5001,
      "▁yasay": 5002,
      "##ates": 5003,
      "##'li": 5004,
      "▁466": 5005,
      "##lerim": 5006,
      "##ilerden": 5007,
      "##ayıp": 5008,
      "9": 5009,
      "##lugu": 5010,
      "▁sob": 5011,
      "##ama": 5012,
      "▁isten": 5013,
      "▁198": 5014,
      "▁demir": 5015,
      "##lukla": 5016,
      "▁cagr": 5017,
      "▁pur": 5018,
      "▁hayal": 5019,
      "▁vucu": 5020,
      "▁kalmıs": 5021,
      "##miyordu": 5022,
      "##mistir": 5023,
      "▁ucrete": 5024,
      "##'ndaki": 5025,
      "##'e": 5026,
      "▁toplan": 5027,
      "▁hepsin": 5028,
      "▁damak": 5029,
      "▁gorunuyor": 5030,
      "▁yapıl": 5031,
      "▁kamu": 5032,
      "▁dondur": 5033,
      "▁iletisim": 5034,
      "##lanır": 5035,
      "##pa": 5036,
      "▁red": 5037,
      "▁aram": 5038,
      "▁piyasaya": 5039,
      "▁kis": 5040,
      "▁ız": 5041,
      "▁ken": 5042,
      "▁zevk": 5043,
      "▁aileler": 5044,
      "##na": 5045,
      "▁atlanta'dan": 5046,
      "##mustu": 5047,
      "##b": 5048,
      "▁mayıs": 5049,
      "▁ruzgar": 5050,
      "▁125": 5051,
      "▁0.0": 5052,
      "▁duny": 5053,
      "▁141": 5054,
      "▁belli": 5055,
      "▁gene": 5056,
      "▁calisanlar": 5057,
      "▁bakıs": 5058,
      "▁38": 5059,
      "▁87": 5060,
      "▁gitmem": 5061,
      "▁ittif": 5062,
      "▁tatil": 5063,
      "##alarından": 5064,
      "▁fort": 5065,
      "##avuz": 5066,
      "▁..\"": 5067,
      "▁yazılım": 5068,
      "▁turist": 5069,
      "▁acik": 5070,
      "▁us": 5071,
      "▁anlamda": 5072,
      "▁ihtiyar": 5073,
      "▁gayrim": 5074,
      "▁puana": 5075,
      "▁sını": 5076,
      "▁key": 5077,
      "##ai": 5078,
      "▁vasat": 5079,
      "▁protest": 5080,
      "▁mol": 5081,
      "▁icindeki": 5082,
      "▁coban": 5083,
      "▁ertesi": 5084,
      "▁yuzu": 5085,
      "##et": 5086,
      "▁kimin": 5087,
      "▁ona": 5088,
      "▁eskiydi": 5089,
      "▁siy": 5090,
      "▁girdi": 5091,
      "▁13.": 5092,
      "##sı": 5093,
      "▁tefek": 5094,
      "▁british": 5095,
      "##-22:30": 5096,
      "▁cift": 5097,
      "▁icinden": 5098,
      "##makta": 5099,
      "▁yol": 5100,
      "▁sem": 5101,
      "▁dip": 5102,
      "##ia": 5103,
      "▁ote": 5104,
      "▁bol": 5105,
      "▁gıda": 5106,
      "▁ortada": 5107,
      "▁gidi": 5108,
      "▁gosterg": 5109,
      "▁tec": 5110,
      "▁durgun": 5111,
      "▁gecesi": 5112,
      "▁100": 5113,
      "##amamıs": 5114,
      "▁endeks": 5115,
      "[MASK]": 5116,
      "▁fet": 5117,
      "▁nikkei": 5118,
      "▁bildirdi": 5119,
      "▁ada": 5120,
      "▁225": 5121,
      "▁azın": 5122,
      "##ums": 5123,
      "▁oysa": 5124,
      "▁duy": 5125,
      "▁onlem": 5126,
      "##iyetini": 5127,
      "▁stu": 5128,
      "▁neyse": 5129,
      "▁fakir": 5130,
      "##ısıyla": 5131,
      "▁rich": 5132,
      "##q": 5133,
      "▁seatt": 5134,
      "▁es": 5135,
      "▁charlotte'den": 5136,
      "##gil": 5137,
      "▁hoc": 5138,
      "▁ikibinuc": 5139,
      "##ilerinin": 5140,
      "▁isci": 5141,
      "▁odan": 5142,
      "▁suredir": 5143,
      "▁omr": 5144,
      "▁egil": 5145,
      "▁plaji": 5146,
      "▁zaten": 5147,
      "▁bir": 5148,
      "##.375": 5149,
      "▁peynir": 5150,
      "▁alb": 5151,
      "▁senator": 5152,
      "▁halı": 5153,
      "▁gunku": 5154,
      "▁kimden": 5155,
      "v": 5156,
      "##sen": 5157,
      "\"": 5158,
      "▁vergi": 5159,
      "▁araz": 5160,
      "▁orlando'ya": 5161,
      "▁mudahal": 5162,
      "▁gibiydi": 5163,
      "▁gozden": 5164,
      "▁ceker": 5165,
      "▁40": 5166,
      "##lıgın": 5167,
      "##ogram": 5168,
      "▁nev": 5169,
      "▁mul": 5170,
      "##ıb": 5171,
      "▁guney": 5172,
      "##alan": 5173,
      "▁moda": 5174,
      "▁yoksa": 5175,
      "▁kalacak": 5176,
      "▁min": 5177,
      "▁t": 5178,
      "▁e": 5179,
      "▁los": 5180,
      "▁mutlu": 5181,
      "▁yılında": 5182,
      "▁21": 5183,
      "##mıyorum": 5184,
      "▁sorumlu": 5185,
      "▁kuv": 5186,
      "##adem": 5187,
      "▁journal": 5188,
      "▁duzenli": 5189,
      "▁vakt": 5190,
      "▁taraftar": 5191,
      "▁mezar": 5192,
      "▁yakin": 5193,
      "##imi": 5194,
      "▁sav": 5195,
      "▁devir": 5196,
      "▁dık": 5197,
      "##lesti": 5198,
      "##uluyor": 5199,
      "▁uzum": 5200,
      "▁batı": 5201,
      "##ilmesini": 5202,
      "▁kimsenin": 5203,
      "▁fikri": 5204,
      "##iki": 5205,
      "##wood": 5206,
      "▁odasına": 5207,
      "##sik": 5208,
      "##erve": 5209,
      "##ical": 5210,
      "▁yaptirmadim": 5211,
      "##ecegi": 5212,
      "▁kot": 5213,
      "##.7": 5214,
      "▁kıtır": 5215,
      "▁indir": 5216,
      "▁hun": 5217,
      "▁2009": 5218,
      "▁bolum": 5219,
      "▁r": 5220,
      "▁komisyonu": 5221,
      "##tiler": 5222,
      "▁dısarı": 5223,
      "▁yuk": 5224,
      "##ore": 5225,
      "▁masa": 5226,
      "▁gorusmeler": 5227,
      "▁istek": 5228,
      "##o": 5229,
      "▁suru": 5230,
      "##memek": 5231,
      "▁ayhan": 5232,
      "▁bundan": 5233,
      "%": 5234,
      "▁etkilen": 5235,
      "▁kenar": 5236,
      "##re": 5237,
      "▁memleket": 5238,
      "▁far": 5239,
      "▁cem": 5240,
      "▁lira": 5241,
      "▁nedeni": 5242,
      "▁edip": 5243,
      "▁suy": 5244,
      "▁oturuyor": 5245,
      "▁busbut": 5246,
      "▁ismini": 5247,
      "▁giriyor": 5248,
      "##iri": 5249,
      "##7": 5250,
      "▁hanimdi": 5251,
      "▁edilmis": 5252,
      "##!": 5253,
      "▁babam": 5254,
      "▁acılan": 5255,
      "▁lo": 5256,
      "▁portfoy": 5257,
      "▁kalem": 5258,
      "##co": 5259,
      "##abz": 5260,
      "##alet": 5261,
      "##makla": 5262,
      "▁bazen": 5263,
      "##yiz": 5264,
      "##meli": 5265,
      "▁0.9": 5266,
      "▁carsaf": 5267,
      "##bs": 5268,
      "▁gizli": 5269,
      "▁meh": 5270,
      "##unup": 5271,
      "##unu": 5272,
      "▁otur": 5273,
      "▁pesinde": 5274,
      "▁cevap": 5275,
      "▁kavr": 5276,
      ")": 5277,
      "▁201": 5278,
      "▁bilmez": 5279,
      "▁kasım": 5280,
      "▁otom": 5281,
      "##madik": 5282,
      "##melerin": 5283,
      "▁95": 5284,
      "▁park": 5285,
      "##der": 5286,
      "▁cez": 5287,
      "▁canı": 5288,
      "▁yeg": 5289,
      "▁hakkındaki": 5290,
      "▁etme": 5291,
      "##dok": 5292,
      "##lıga": 5293,
      "▁lungur": 5294,
      "##sini": 5295,
      "▁yorgun": 5296,
      "▁pam": 5297,
      "▁palt": 5298,
      "▁tarihinde": 5299,
      "##tor": 5300,
      "##endir": 5301,
      "##dedil": 5302,
      "▁paz": 5303,
      "▁olas": 5304,
      "▁turkler": 5305,
      "▁kocası": 5306,
      "▁dur": 5307,
      "▁gereken": 5308,
      "▁gune": 5309,
      "▁minneapolis": 5310,
      "▁gidiyor": 5311,
      "▁goruyor": 5312,
      "▁taban": 5313,
      "“": 5314,
      "▁gerc": 5315,
      "▁ilgin": 5316,
      "##mıyordu": 5317,
      "▁doları'ndan": 5318,
      "▁getiriyor": 5319,
      "▁getiren": 5320,
      "▁aman": 5321,
      "▁oteldi": 5322,
      "##amıs": 5323,
      "▁tıpıs": 5324,
      "▁saatlerde": 5325,
      "▁1/4": 5326,
      "▁sap": 5327,
      "▁alk": 5328,
      "▁asl": 5329,
      "▁zayifti": 5330,
      "▁ho": 5331,
      "▁bunları": 5332,
      "##lıgına": 5333,
      "▁bakıyor": 5334,
      "▁dahil": 5335,
      "##enz": 5336,
      "##lamalar": 5337,
      "▁dolandır": 5338,
      "▁genellikle": 5339,
      "▁eglen": 5340,
      "##raf": 5341,
      "▁pla": 5342,
      "▁giris": 5343,
      "##mam": 5344,
      "▁ucan": 5345,
      "##maz": 5346,
      "##masından": 5347,
      "▁mecbur": 5348,
      "##0.1": 5349,
      "▁ataturk": 5350,
      "▁temizligi": 5351,
      "▁uste": 5352,
      "▁neresi": 5353,
      "##4.8": 5354,
      "▁sayg": 5355,
      "▁insanın": 5356,
      "▁1960": 5357,
      "▁oner": 5358,
      "##lerdir": 5359,
      "##hur": 5360,
      "##ov": 5361,
      "▁cocugu": 5362,
      "##ıg": 5363,
      "▁houston'dan": 5364,
      "▁%8.": 5365,
      "▁tutum": 5366,
      "▁sirketi": 5367,
      "▁uygulam": 5368,
      "##oloj": 5369,
      "▁vir": 5370,
      "▁isvic": 5371,
      "▁uluslararası": 5372,
      "▁charlotte": 5373,
      "▁siz": 5374,
      "▁kapasitesi": 5375,
      "▁cumhurbaskan": 5376,
      "##ern": 5377,
      "▁bakan": 5378,
      "▁sefer": 5379,
      "▁adina": 5380,
      "##mac": 5381,
      "▁5.5": 5382,
      "c": 5383,
      "##w": 5384,
      "##ment": 5385,
      "##baren": 5386,
      "▁kuvvetleri": 5387,
      "▁imparator": 5388,
      "##ısından": 5389,
      "##abi": 5390,
      "▁mun": 5391,
      "▁kıl": 5392,
      "▁gulums": 5393,
      "▁sanayi": 5394,
      "##asını": 5395,
      "▁ekim": 5396,
      "▁korum": 5397,
      "▁blok": 5398,
      "▁7.1": 5399,
      "▁havuzlari": 5400,
      "▁kurulus": 5401,
      "▁senin": 5402,
      "▁sakın": 5403,
      "##bahar": 5404,
      "▁yoneticileri": 5405,
      "▁baskı": 5406,
      "▁teker": 5407,
      "▁kelim": 5408,
      "▁cihaz": 5409,
      "▁oldugu": 5410,
      "▁baska": 5411,
      "▁zek": 5412,
      "▁102": 5413,
      "▁mırıl": 5414,
      "▁geldigini": 5415,
      "▁dugun": 5416,
      "▁%7.": 5417,
      "▁emekli": 5418,
      "▁aramız": 5419,
      "##ne": 5420,
      "##inip": 5421,
      "##'teki": 5422,
      "▁vit": 5423,
      "▁baslık": 5424,
      "▁mars": 5425,
      "▁fransız": 5426,
      "▁ilgisi": 5427,
      "▁felaket": 5428,
      "▁yık": 5429,
      "▁bakarak": 5430,
      "##ustr": 5431,
      "▁sendik": 5432,
      "▁kıyaslan": 5433,
      "▁cıkar": 5434,
      "##uy": 5435,
      "▁yakından": 5436,
      "▁askın": 5437,
      "##amam": 5438,
      "▁olar": 5439,
      "▁sey": 5440,
      "##ke": 5441,
      "▁muam": 5442,
      "▁yasamak": 5443,
      "▁yse": 5444,
      "▁tarihli": 5445,
      "##elerine": 5446,
      "▁ası": 5447,
      "▁tesis": 5448,
      "▁%30": 5449,
      "▁namaz": 5450,
      "▁proj": 5451,
      "▁annesi": 5452,
      "▁korku": 5453,
      "▁harikaydi": 5454,
      "##tir": 5455,
      "▁gecici": 5456,
      "##dokuzyuz": 5457,
      "▁109": 5458,
      "▁hayli": 5459,
      "▁0.25": 5460,
      "##ılıyor": 5461,
      "▁lis": 5462,
      "##eyh": 5463,
      "##ham": 5464,
      "▁kopar": 5465,
      "▁hasır": 5466,
      "▁konforu": 5467,
      "##lif": 5468,
      "▁olmadi": 5469,
      "▁uzat": 5470,
      "▁kahvaltı": 5471,
      "▁anlam": 5472,
      "▁obur": 5473,
      "▁attıgı": 5474,
      "▁olsaydı": 5475,
      "##siy": 5476,
      "▁teminat": 5477,
      "▁gal": 5478,
      "##ris": 5479,
      "▁degil": 5480,
      "##esif": 5481,
      "▁sonbahar": 5482,
      "▁dogu": 5483,
      "▁kart": 5484,
      "▁af": 5485,
      "##unku": 5486,
      "##dugunu": 5487,
      "##ove": 5488,
      "▁2002": 5489,
      "▁yuruy": 5490,
      "▁elektronik": 5491,
      "▁kıymet": 5492,
      "##ildik": 5493,
      "▁dıs": 5494,
      "▁lakin": 5495,
      "▁ede": 5496,
      "##isten": 5497,
      "▁uzman": 5498,
      "▁muy": 5499,
      "▁aileye": 5500,
      "▁yanında": 5501,
      "▁rezervasyon": 5502,
      "▁detroit'ten": 5503,
      "▁kotuydu": 5504,
      "▁kes": 5505,
      "▁mo": 5506,
      "▁mc": 5507,
      "▁ederken": 5508,
      "▁caba": 5509,
      "▁boya": 5510,
      "##kei": 5511,
      "##ev": 5512,
      "##aguar": 5513,
      "▁dustu": 5514,
      "▁14": 5515,
      "▁uyustur": 5516,
      "##alıgı": 5517,
      "▁arkasına": 5518,
      "▁rapor": 5519,
      "##mıstı": 5520,
      "##our": 5521,
      "▁kir": 5522,
      "##ji": 5523,
      "##tep": 5524,
      "▁annemin": 5525,
      "▁halde": 5526,
      "▁kahraman": 5527,
      "▁onca": 5528,
      "▁girmis": 5529,
      "▁pilot": 5530,
      "▁birimiz": 5531,
      "##5000": 5532,
      "▁lar": 5533,
      "▁performan": 5534,
      "▁satın": 5535,
      "▁calisanlari": 5536,
      "##lenir": 5537,
      "▁univers": 5538,
      "▁dolan": 5539,
      "▁angeles": 5540,
      "▁roman": 5541,
      "▁hepsine": 5542,
      "▁baslı": 5543,
      "▁giderken": 5544,
      "##elikle": 5545,
      "▁buy": 5546,
      "##tiy": 5547,
      "▁kapalı": 5548,
      "▁havayollarında": 5549,
      "▁halkın": 5550,
      "▁seviyesine": 5551,
      "▁balayi": 5552,
      "##gılan": 5553,
      "▁personellerin": 5554,
      "▁turkce": 5555,
      "▁saglam": 5556,
      "▁tan": 5557,
      "▁ogleden": 5558,
      "##esinden": 5559,
      "▁yurtdıs": 5560,
      "▁intern": 5561,
      "▁hastan": 5562,
      "▁42": 5563,
      "▁90": 5564,
      "▁gercekten": 5565,
      "▁zev": 5566,
      "▁sı": 5567,
      "##iyor": 5568,
      "▁def": 5569,
      "▁yagmur": 5570,
      "##ver": 5571,
      "▁gro": 5572,
      "▁calısmalar": 5573,
      "##aten": 5574,
      "▁sig": 5575,
      "▁zeki": 5576,
      "##melidir": 5577,
      "▁'lu": 5578,
      "▁dig": 5579,
      "##ya": 5580,
      "##forman": 5581,
      "▁bugune": 5582,
      "▁ener": 5583,
      "##lli": 5584,
      "▁hedef": 5585,
      "▁hesap": 5586,
      "▁bulur": 5587,
      "##ik": 5588,
      "▁bl": 5589,
      "▁sekiz": 5590,
      "▁finansal": 5591,
      "▁425": 5592,
      "##kır": 5593,
      "##egas": 5594,
      "▁dusunur": 5595,
      "##ası": 5596,
      "▁toprak": 5597,
      "▁bal": 5598,
      "▁sorumluluk": 5599,
      "▁harc": 5600,
      "▁deng": 5601,
      "▁sohret": 5602,
      "##ısı": 5603,
      "▁yasadıgı": 5604,
      "##elen": 5605,
      "▁50": 5606,
      "▁gob": 5607,
      "##ab": 5608,
      "##ındaki": 5609,
      "▁dug": 5610,
      "##op": 5611,
      "▁odak": 5612,
      "▁islemler": 5613,
      "##ıyı": 5614,
      "▁mu": 5615,
      "▁asagı": 5616,
      "▁gordugu": 5617,
      "##embe": 5618,
      "▁pittsburgh'tan": 5619,
      "▁yurt": 5620,
      "▁yasamadik": 5621,
      "##yet": 5622,
      "▁uyan": 5623,
      "▁cıkıyor": 5624,
      "▁amerikan": 5625,
      "##alarına": 5626,
      "▁of": 5627,
      "▁250": 5628,
      "##lerce": 5629,
      "▁ets": 5630,
      "▁lider": 5631,
      "▁konumundan": 5632,
      "▁tacoma": 5633,
      "▁tuttur": 5634,
      "##ite": 5635,
      "##ulugun": 5636,
      "▁verilen": 5637,
      "▁diyor": 5638,
      "##erin": 5639,
      "▁1\\/": 5640,
      "##:": 5641,
      "▁kaba": 5642,
      "▁degeri": 5643,
      "▁turk": 5644,
      "##urlu": 5645,
      "##iyoruz": 5646,
      "##st": 5647,
      "##iyi": 5648,
      "##arik": 5649,
      "▁kanı": 5650,
      "##akal": 5651,
      "▁sakin": 5652,
      "▁sende": 5653,
      "▁kı": 5654,
      "▁deneme": 5655,
      "▁ayır": 5656,
      "▁ici": 5657,
      "##amda": 5658,
      "▁misiniz": 5659,
      "▁acıklama": 5660,
      "▁og": 5661,
      "##uyoruz": 5662,
      "##manı": 5663,
      "▁edir": 5664,
      "▁piy": 5665,
      "▁koz": 5666,
      "##ogu": 5667,
      "▁mem": 5668,
      "▁giz": 5669,
      "##ahh": 5670,
      "▁benzin": 5671,
      "##ast": 5672,
      "▁sunları": 5673,
      "▁yerinden": 5674,
      "##ayın": 5675,
      "▁tıklım": 5676,
      "▁hijyenik": 5677,
      "▁100000": 5678,
      "##$": 5679,
      "##60": 5680,
      "▁nefret": 5681,
      "##mayan": 5682,
      "▁hucr": 5683,
      "##asından": 5684,
      "##lor": 5685,
      "▁sauna": 5686,
      "##ege": 5687,
      "##eni": 5688,
      "##'ne": 5689,
      "▁haberi": 5690,
      "▁res": 5691,
      "##uklu": 5692,
      "▁basladım": 5693,
      "##ar": 5694,
      "##nin": 5695,
      "▁ailenin": 5696,
      "▁adı": 5697,
      "▁istih": 5698,
      "▁verdigi": 5699,
      "▁gordugum": 5700,
      "▁ruz": 5701,
      "▁dolarlık": 5702,
      "##dun": 5703,
      "##tas": 5704,
      "▁wil": 5705,
      "d": 5706,
      "##can": 5707,
      "▁pencer": 5708,
      "▁mahm": 5709,
      "##ecek": 5710,
      "▁vi": 5711,
      "▁olum": 5712,
      "▁rol": 5713,
      "##usal": 5714,
      "▁mısıl": 5715,
      "▁bitk": 5716,
      "▁boyun": 5717,
      "##ibar": 5718,
      "▁sac": 5719,
      "##ft": 5720,
      "▁sisman": 5721,
      "▁kaldır": 5722,
      "▁kalmadı": 5723,
      "##erken": 5724,
      "▁aralık": 5725,
      "▁1/8": 5726,
      "▁thom": 5727,
      "##ılı": 5728,
      "▁ucaga": 5729,
      "▁kendim": 5730,
      "##likler": 5731,
      "▁uyusturucu": 5732,
      "▁misafir": 5733,
      "##age": 5734,
      "##kı": 5735,
      "▁mesaf": 5736,
      "▁bilgilendir": 5737,
      "##tis": 5738,
      "▁bakımından": 5739,
      "▁dim": 5740,
      "▁ortalama": 5741,
      "##his": 5742,
      "▁temmuz'da": 5743,
      "▁1\\/2": 5744,
      "▁bakın": 5745,
      "##lulugu": 5746,
      "▁dogal": 5747,
      "##alarının": 5748,
      "▁arka": 5749,
      "▁bilin": 5750,
      "▁2": 5751,
      "▁yapildi": 5752,
      "▁--": 5753,
      "##ladı": 5754,
      "##ın": 5755,
      "▁10000": 5756,
      "▁lek": 5757,
      "▁egitim": 5758,
      "▁pr": 5759,
      "▁anayasa": 5760,
      "##madan": 5761,
      "▁once": 5762,
      "##dum": 5763,
      "▁baker": 5764,
      "▁haftada": 5765,
      "▁cukur": 5766,
      "▁anlat": 5767,
      "▁4.8": 5768,
      "▁dunyayı": 5769,
      "##deki": 5770,
      "▁bununla": 5771,
      "▁etken": 5772,
      "▁mırıldan": 5773,
      "▁trust": 5774,
      "▁trilyon": 5775,
      "##19": 5776,
      "▁hafta": 5777,
      "▁isterim": 5778,
      "▁ba": 5779,
      "▁anahtar": 5780,
      "▁yaptı": 5781,
      "##lass": 5782,
      "##maktadır": 5783,
      "##y's": 5784,
      "##mal": 5785,
      "▁hac": 5786,
      "▁merkez": 5787,
      "##tılar": 5788,
      "▁ny": 5789,
      "##om": 5790,
      "▁part": 5791,
      "▁saclarını": 5792,
      "▁%7.5": 5793,
      "▁ak": 5794,
      "▁alay": 5795,
      "##isse": 5796,
      "▁contin": 5797,
      "▁mis": 5798,
      "▁listel": 5799,
      "##lim": 5800,
      "▁derler": 5801,
      "▁yildizli": 5802,
      "▁ugur": 5803,
      "▁kalk": 5804,
      "▁denver": 5805,
      "▁tik": 5806,
      "##ani": 5807,
      "▁m": 5808,
      "##imdi": 5809,
      "▁makam": 5810,
      "##lıkları": 5811,
      "▁ucuslarının": 5812,
      "▁oyunu": 5813,
      "▁olmasını": 5814,
      "▁borsası'nda": 5815,
      "▁muzik": 5816,
      "/": 5817,
      "▁dokun": 5818,
      "##dan": 5819,
      "##istan": 5820,
      "▁bek": 5821,
      "▁yatak": 5822,
      "▁gectik": 5823,
      "##dak": 5824,
      "▁ana": 5825,
      "▁soyles": 5826,
      "▁turu": 5827,
      "##sak": 5828,
      "▁birbirlerini": 5829,
      "##ı": 5830,
      "▁konuda": 5831,
      "▁120": 5832,
      "##eye": 5833,
      "▁demokratik": 5834,
      "▁pittsburgh'a": 5835,
      "▁mevcut": 5836,
      "▁ettik": 5837,
      "##amak": 5838,
      "▁por": 5839,
      "▁petersburg": 5840,
      "▁bank": 5841,
      "▁tap": 5842,
      "▁test": 5843,
      "##esini": 5844,
      "##fa": 5845,
      "##eld": 5846,
      "▁secildi": 5847,
      "▁ayda": 5848,
      "▁cont": 5849,
      "##aturk": 5850,
      "▁sozlesmesi": 5851,
      "▁yuzey": 5852,
      "▁'li": 5853,
      "##ılması": 5854,
      "▁yola": 5855,
      "##okr": 5856,
      "▁cekir": 5857,
      "▁birimi": 5858,
      "▁ulasılamadı": 5859,
      "▁etm": 5860,
      "▁dolar": 5861,
      "▁burbank'a": 5862,
      "##lugun": 5863,
      "▁zen": 5864,
      "##mu": 5865,
      "##86": 5866,
      "▁atese": 5867,
      "▁hindistan": 5868,
      "##ige": 5869,
      "▁oyun": 5870,
      "##amadı": 5871,
      "▁sigort": 5872,
      "▁oranında": 5873,
      "▁turb": 5874,
      "▁erkenden": 5875,
      "##lanma": 5876,
      "▁makine": 5877,
      "▁mail": 5878,
      "▁yerini": 5879,
      "▁kıv": 5880,
      "▁kıp": 5881,
      "▁1.3": 5882,
      "▁evinde": 5883,
      "▁``": 5884,
      "##3": 5885,
      "▁demokrat": 5886,
      "▁bors": 5887,
      "▁.": 5888,
      "##digimiz": 5889,
      "▁istiyorum": 5890,
      "▁anlasma": 5891,
      "▁fu": 5892,
      "▁mer": 5893,
      "▁yapan": 5894,
      "##mek": 5895,
      "▁31": 5896,
      "▁birileri": 5897,
      "▁bas": 5898,
      "▁fak": 5899,
      "▁gucu": 5900,
      "##ry": 5901,
      "▁ceken": 5902,
      "&": 5903,
      "▁azınlık": 5904,
      "▁tencer": 5905,
      "▁jour": 5906,
      "▁yolu": 5907,
      "##teki": 5908,
      "▁yontem": 5909,
      "▁esit": 5910,
      "##unden": 5911,
      "##ph": 5912,
      "▁ot": 5913,
      "▁bekledi": 5914,
      "▁katılım": 5915,
      "0": 5916,
      "▁$'a": 5917,
      "##.70": 5918,
      "▁oynuyor": 5919,
      "▁acar": 5920,
      "▁39": 5921,
      "▁beydi": 5922,
      "##adar": 5923,
      "▁istihdam": 5924,
      "▁dost": 5925,
      "##eyince": 5926,
      "▁ucret": 5927,
      "▁buyuk": 5928,
      "▁oturup": 5929,
      "##'ta": 5930,
      "▁satısları": 5931,
      "▁renk": 5932,
      "▁engin": 5933,
      "▁ugram": 5934,
      "##.0": 5935,
      "▁ates": 5936,
      "##biye": 5937,
      "▁servisi": 5938,
      "▁vucud": 5939,
      "##alık": 5940,
      "##erek": 5941,
      "##bi": 5942,
      "##sinde": 5943,
      "▁sozlesme": 5944,
      "▁kızı": 5945,
      "▁coz": 5946,
      "##ut": 5947,
      "##42": 5948,
      "▁ekibi": 5949,
      "##vek": 5950,
      "▁jaguar": 5951,
      "▁yarım": 5952,
      "▁nok": 5953,
      "##mec": 5954,
      "▁titr": 5955,
      "▁ihr": 5956,
      "##siniz": 5957,
      "▁gomle": 5958,
      "▁ayni": 5959,
      "##ligi": 5960,
      "##dat": 5961,
      "▁rehberimiz": 5962,
      "▁tiril": 5963,
      "▁olc": 5964,
      "##rilyon": 5965,
      "▁nef": 5966,
      "##ele": 5967,
      "##akk": 5968,
      "▁irak": 5969,
      "##edef": 5970,
      "▁sınız": 5971,
      "##imini": 5972,
      "▁ayrıldı": 5973,
      "▁cop": 5974,
      "##cik": 5975,
      "▁manz": 5976,
      "##det": 5977,
      "##ıklı": 5978,
      "▁cozul": 5979,
      "##gah": 5980,
      "▁yim": 5981,
      "▁icki": 5982,
      "▁meslek": 5983,
      "▁bec": 5984,
      "##1'de": 5985,
      "▁sistem": 5986,
      "▁cıkarıp": 5987,
      "▁cabuk": 5988,
      "▁bircog": 5989,
      "▁ut": 5990,
      "##an'ın": 5991,
      "▁kahvalt": 5992,
      "##igin": 5993,
      "▁huy": 5994,
      "▁%2": 5995,
      "▁iskel": 5996,
      "▁bulundugu": 5997,
      "▁normal": 5998,
      "▁ariz": 5999,
      "▁haklı": 6000,
      "▁karsısında": 6001,
      "##liligi": 6002,
      "▁olmasa": 6003,
      "▁karg": 6004,
      "▁200": 6005,
      "▁hakik": 6006,
      "▁ibaret": 6007,
      "▁45": 6008,
      "h": 6009,
      "▁mutf": 6010,
      "▁halka": 6011,
      "▁fan": 6012,
      "▁calıstır": 6013,
      "▁hayran": 6014,
      "▁emeklilik": 6015,
      "▁posta": 6016,
      "▁desik": 6017,
      "▁beb": 6018,
      "▁6.9": 6019,
      "▁bilgis": 6020,
      "##imleri": 6021,
      "▁hev": 6022,
      "▁jersey": 6023,
      "▁aldım": 6024,
      "▁kısm": 6025,
      "##eliydi": 6026,
      "▁kaliteliydi": 6027,
      "##masını": 6028,
      "▁pahalı": 6029,
      "3": 6030,
      "▁cic": 6031,
      "▁long": 6032,
      "▁hurriyet": 6033,
      "▁bunların": 6034,
      "▁arac": 6035,
      "▁muhtemelen": 6036,
      "##uya": 6037,
      "▁tahviller": 6038,
      "▁tiyat": 6039,
      "##kar": 6040,
      "▁tahsil": 6041,
      "▁tercih": 6042,
      "##gunu": 6043,
      "▁alabil": 6044,
      "▁guvenlik": 6045,
      "▁bahce": 6046,
      "▁seri": 6047,
      "▁cesit": 6048,
      "▁yasak": 6049,
      "▁bazıların": 6050,
      "##emiyor": 6051,
      "▁ayrı": 6052,
      "▁kullanım": 6053,
      "▁britan": 6054,
      "▁fingir": 6055,
      "▁nak": 6056,
      "▁atlanta'da": 6057,
      "▁zaf": 6058,
      "▁olup": 6059,
      "▁fazlas": 6060,
      "▁analistler": 6061,
      "▁gosteriyor": 6062,
      "▁aktarmalı": 6063,
      "▁b.": 6064,
      "▁arzu": 6065,
      "▁basını": 6066,
      "##agının": 6067,
      "▁partisi": 6068,
      "##dar": 6069,
      "▁uygulama": 6070,
      "##acılıgı": 6071,
      "▁mulk": 6072,
      "▁sahne": 6073,
      "▁23": 6074,
      "▁j": 6075,
      "▁ilac": 6076,
      "▁denver'e": 6077,
      "##dig": 6078,
      "▁bizi": 6079,
      "##iger": 6080,
      "##.51": 6081,
      "▁turkiye'de": 6082,
      "▁ekipman": 6083,
      "▁dolardan": 6084,
      "▁guvenli": 6085,
      "▁edecek": 6086,
      "▁gozleri": 6087,
      "##du": 6088,
      "▁super": 6089,
      "▁zorluk": 6090,
      "▁phoenix": 6091,
      "▁ch": 6092,
      "▁bulas": 6093,
      "##sam": 6094,
      "▁egit": 6095,
      "▁hepimizi": 6096,
      "▁paranın": 6097,
      "▁gogus": 6098,
      "▁haz": 6099,
      "▁tavuk": 6100,
      "▁tadi": 6101,
      "##toru": 6102,
      "▁kalb": 6103,
      "▁karsılıklı": 6104,
      "▁faktor": 6105,
      "▁tam": 6106,
      "▁alanda": 6107,
      "▁kimse": 6108,
      "▁vaz": 6109,
      "▁yolunda": 6110,
      "▁bost": 6111,
      "▁day": 6112,
      "##ladılar": 6113,
      "##min": 6114,
      "▁kalkıp": 6115,
      "##a": 6116,
      "▁anal": 6117,
      "▁uygul": 6118,
      "##madıgı": 6119,
      "▁tahk": 6120,
      "▁cercev": 6121,
      "▁karn": 6122,
      "##igit": 6123,
      "▁francisco": 6124,
      "##medi": 6125,
      "##irken": 6126,
      "##ladık": 6127,
      "▁dusur": 6128,
      "▁halinde": 6129,
      "▁emir": 6130,
      "▁goruyorum": 6131,
      "▁doları'na": 6132,
      "▁ceket": 6133,
      "▁ilgili": 6134,
      "▁personelden": 6135,
      "##ep": 6136,
      "##anda": 6137,
      "##sat": 6138,
      "▁rezervasyonu": 6139,
      "▁varan": 6140,
      "▁cevir": 6141,
      "##alama": 6142,
      "##eleri": 6143,
      "▁cev": 6144,
      "##onelik": 6145,
      "▁eve": 6146,
      "▁muhtemel": 6147,
      "▁cil": 6148,
      "▁sak": 6149,
      "▁airlines": 6150,
      "##undan": 6151,
      "▁piyas": 6152,
      "▁erk": 6153,
      "##larında": 6154,
      "▁yor": 6155,
      "▁yuzlerce": 6156,
      "▁nufus": 6157,
      "▁isine": 6158,
      "▁komisyonlar": 6159,
      "▁yerles": 6160,
      "▁arıyorum": 6161,
      "▁fl": 6162,
      "▁uzaktan": 6163,
      "##@": 6164,
      "▁miami": 6165,
      "▁kalmıstı": 6166,
      "▁aldıgını": 6167,
      "▁ani": 6168,
      "##asız": 6169,
      "▁ilgil": 6170,
      "##edir": 6171,
      "##ven": 6172,
      "##osu": 6173,
      "##nek": 6174,
      "##bul": 6175,
      "■": 6176,
      "▁isle": 6177,
      "▁baglantı": 6178,
      "▁hissedar": 6179,
      "▁yuzluydu": 6180,
      "##yor": 6181,
      "▁yuksek": 6182,
      "▁oyna": 6183,
      "▁milliyet": 6184,
      "▁pasa": 6185,
      "##ine": 6186,
      "##ami": 6187,
      "##artesi": 6188,
      "▁wash": 6189,
      "▁ok": 6190,
      "##amadan": 6191,
      "▁fiyatları": 6192,
      "▁uc": 6193,
      "##s.": 6194,
      "##gmen": 6195,
      "##egin": 6196,
      "▁sa": 6197,
      "▁ettiler": 6198,
      "▁defa": 6199,
      "▁muz": 6200,
      "##'nun": 6201,
      "▁pes": 6202,
      "▁kalma": 6203,
      "▁meyal": 6204,
      "▁1/": 6205,
      "##kti": 6206,
      "▁kose": 6207,
      "▁bagım": 6208,
      "▁degilmis": 6209,
      "##amadik": 6210,
      "##ese": 6211,
      "▁ellerinde": 6212,
      "##ayla": 6213,
      "##gıl": 6214,
      "–": 6215,
      "▁kisiler": 6216,
      "▁musait": 6217,
      "▁konusma": 6218,
      "▁67": 6219,
      "▁tas": 6220,
      "##su": 6221,
      "▁zorlu": 6222,
      "##..": 6223,
      "##rol": 6224,
      "▁saz": 6225,
      "▁suruyor": 6226,
      "▁dikkat": 6227,
      "▁indirim": 6228,
      "##bal": 6229,
      "▁400000": 6230,
      "▁istedigini": 6231,
      "##macı": 6232,
      "##au": 6233,
      "▁iyimser": 6234,
      "▁bazılarının": 6235,
      "##.43": 6236,
      "##ts": 6237,
      "▁lyn": 6238,
      "##'ten": 6239,
      "▁calısan": 6240,
      "▁dizi": 6241,
      "##istir": 6242,
      "▁kimyasal": 6243,
      "▁sise": 6244,
      "##giniz": 6245,
      "▁faz": 6246,
      "##akar": 6247,
      "▁tası": 6248,
      "▁amma": 6249,
      "▁degisik": 6250,
      "▁bed": 6251,
      "##ımda": 6252,
      "##gımız": 6253,
      "▁tes": 6254,
      "▁bayrak": 6255,
      "▁mermer": 6256,
      "▁tuv": 6257,
      "##ustral": 6258,
      "##sarı": 6259,
      "▁hisseler": 6260,
      "▁tun": 6261,
      "▁kaydı": 6262,
      "▁ogul": 6263,
      "##be": 6264,
      "▁vazif": 6265,
      "▁dc'ye": 6266,
      "▁tanın": 6267,
      "▁agz": 6268,
      "▁faaliyet": 6269,
      "▁oturma": 6270,
      "▁kisi": 6271,
      "▁egem": 6272,
      "▁sik": 6273,
      "▁edecegini": 6274,
      "▁cıktım": 6275,
      "▁tır": 6276,
      "▁sınıf": 6277,
      "##gis": 6278,
      "▁doneminde": 6279,
      "▁kent": 6280,
      "▁col": 6281,
      "▁iliskiler": 6282,
      "▁kitabı": 6283,
      "▁sorunları": 6284,
      "▁yedek": 6285,
      "▁ihtiyac": 6286,
      "▁yolc": 6287,
      "▁p": 6288,
      "##mesine": 6289,
      "▁matem": 6290,
      "##-6": 6291,
      "▁ifade": 6292,
      "##all": 6293,
      "▁organizasyon": 6294,
      "▁kims": 6295,
      "##ız": 6296,
      "##lt": 6297,
      "▁varlık": 6298,
      "##egine": 6299,
      "▁paris": 6300,
      "▁olmamıs": 6301,
      "##seksen": 6302,
      "▁komsu": 6303,
      "▁ortal": 6304,
      "▁makaleye": 6305,
      "▁detay": 6306,
      "▁sistemi": 6307,
      "▁onde": 6308,
      "▁yuzune": 6309,
      "##'ye": 6310,
      "▁h": 6311,
      "▁eki": 6312,
      "▁sy": 6313,
      "##j": 6314,
      "▁yeten": 6315,
      "##ilm": 6316,
      "▁fazlasını": 6317,
      "▁kızıl": 6318,
      "▁smith": 6319,
      "##lebilir": 6320,
      "▁ustunde": 6321,
      "##estir": 6322,
      "▁bus": 6323,
      "▁obu": 6324,
      "▁ayar": 6325,
      "##amadım": 6326,
      "▁jones": 6327,
      "▁kacak": 6328,
      "▁bakım": 6329,
      "▁kabar": 6330,
      "##elig": 6331,
      "▁potansiyel": 6332,
      "##urt": 6333,
      "▁190": 6334,
      "▁gunun": 6335,
      "##amb": 6336,
      "▁ney": 6337,
      "▁yab": 6338,
      "▁alıyordu": 6339,
      "▁1": 6340,
      "▁metr": 6341,
      "▁tamam": 6342,
      "##har": 6343,
      "▁otek": 6344,
      "▁pek": 6345,
      "▁yapıp": 6346,
      "##sir": 6347,
      "▁efendi": 6348,
      "▁konusunda": 6349,
      "▁bende": 6350,
      "▁basarısız": 6351,
      "▁vermeye": 6352,
      "▁ısrar": 6353,
      "▁arkadasım": 6354,
      "▁kendilerinden": 6355,
      "##d": 6356,
      "▁yardımcı": 6357,
      "▁denem": 6358,
      "▁fel": 6359,
      "▁bitir": 6360,
      "▁personel": 6361,
      "▁ii": 6362,
      "▁rakam": 6363,
      "▁sezl": 6364,
      "▁sozu": 6365,
      "▁talih": 6366,
      "##larından": 6367,
      "▁hol": 6368,
      "▁2.2": 6369,
      "▁afrika": 6370,
      "▁kans": 6371,
      "##eyip": 6372,
      "##ri": 6373,
      "▁ferah": 6374,
      "▁elini": 6375,
      "▁uy": 6376,
      "##nam": 6377,
      "▁yılın": 6378,
      "▁kalın": 6379,
      "##unce": 6380,
      "▁gergin": 6381,
      "▁kısk": 6382,
      "▁antik": 6383,
      "▁sabit": 6384,
      "▁kıdem": 6385,
      "▁ist": 6386,
      "▁sapk": 6387,
      "##iler": 6388,
      "▁adını": 6389,
      "▁sever": 6390,
      "▁california": 6391,
      "▁disip": 6392,
      "##2": 6393,
      "▁%18": 6394,
      "##'daki": 6395,
      "##nal": 6396,
      "▁fırladı": 6397,
      "▁yılda": 6398,
      "▁89-": 6399,
      "▁ciddi": 6400,
      "▁sep": 6401,
      "▁yorum": 6402,
      "▁aptal": 6403,
      "▁gr": 6404,
      "▁yakın": 6405,
      "▁ismi": 6406,
      "▁odalari": 6407,
      "▁soz": 6408,
      "▁sol": 6409,
      "##urdu": 6410,
      "▁anladı": 6411,
      "▁ucagın": 6412,
      "▁giriste": 6413,
      "▁acıklam": 6414,
      "##ul": 6415,
      "▁mot": 6416,
      "▁fır": 6417,
      "▁birbirimiz": 6418,
      "▁ettigini": 6419,
      "▁karsılan": 6420,
      "▁basım": 6421,
      "▁teler": 6422,
      "▁hani": 6423,
      "▁dikkatli": 6424,
      "##af": 6425,
      "##arlar": 6426,
      "▁vası": 6427,
      "▁sikinti": 6428,
      "▁mahall": 6429,
      "##eginde": 6430,
      "▁otob": 6431,
      "##omet": 6432,
      "▁ob": 6433,
      "▁kursun": 6434,
      "▁isken": 6435,
      "▁sof": 6436,
      "▁umit": 6437,
      "▁kopek": 6438,
      "▁tartısmalar": 6439,
      "▁yaptıgı": 6440,
      "▁tefe": 6441,
      "▁ord": 6442,
      "##er'in": 6443,
      "▁tersine": 6444,
      "▁oglen": 6445,
      "▁bekley": 6446,
      "▁fes": 6447,
      "▁homur": 6448,
      "▁52": 6449,
      "##enk": 6450,
      "▁not": 6451,
      "▁senetleri": 6452,
      "##lisi": 6453,
      "▁geleneksel": 6454,
      "▁kaliforniya": 6455,
      "##gimi": 6456,
      "▁sıkır": 6457,
      "▁lacivert": 6458,
      "##irler": 6459,
      "▁sana": 6460,
      "▁ac": 6461,
      "▁cevr": 6462,
      "▁kar": 6463,
      "▁birles": 6464,
      "▁44": 6465,
      "▁grubu": 6466,
      "▁2017": 6467,
      "▁ipot": 6468,
      "▁satır": 6469,
      "##ilik": 6470,
      "▁hızlı": 6471,
      "##elerde": 6472,
      "▁eskiden": 6473,
      "▁baslıyor": 6474,
      "▁1974": 6475,
      "▁biriler": 6476,
      "▁fakat": 6477,
      "##mi": 6478,
      "▁takım": 6479,
      "##ce": 6480,
      "▁bilesik": 6481,
      "##aydi": 6482,
      "##astır": 6483,
      "▁takdirde": 6484,
      "▁tah": 6485,
      "##lıkta": 6486,
      "▁tıpkı": 6487,
      "▁ir": 6488,
      "▁harika": 6489,
      "▁degerinde": 6490,
      "▁asla": 6491,
      "▁politika": 6492,
      "▁ekm": 6493,
      "##adel": 6494,
      "▁capital": 6495,
      "▁idi": 6496,
      "##agım": 6497,
      "▁kuru": 6498,
      "##.875": 6499,
      "▁medya": 6500,
      "##ahmet": 6501,
      "▁seyrediyor": 6502,
      "##diginiz": 6503,
      "▁hayret": 6504,
      "▁omuz": 6505,
      "▁bugunku": 6506,
      "▁olmaz": 6507,
      "##atlar": 6508,
      "▁sul": 6509,
      "▁yurtdı": 6510,
      "▁fonlar": 6511,
      "▁matematik": 6512,
      "##miyor": 6513,
      "▁demektir": 6514,
      "▁yı": 6515,
      "##ydı": 6516,
      "▁seyleri": 6517,
      "##anet": 6518,
      "▁sıra": 6519,
      "▁seviyede": 6520,
      "##aga": 6521,
      "##ise": 6522,
      "▁aday": 6523,
      "##yon": 6524,
      "▁sagladı": 6525,
      "▁kılı": 6526,
      "##ood": 6527,
      "##hangi": 6528,
      "▁mahal": 6529,
      "##ımıza": 6530,
      "▁7\\/8": 6531,
      "▁ucyuz": 6532,
      "##elerle": 6533,
      "▁fok": 6534,
      "▁...": 6535,
      "▁f": 6536,
      "▁sam": 6537,
      "▁iliskileri": 6538,
      "##ka": 6539,
      "##isco": 6540,
      "##\\/8": 6541,
      "##abı": 6542,
      "▁nash": 6543,
      "▁..": 6544,
      "▁iceren": 6545,
      "▁fiyatina": 6546,
      "##ell": 6547,
      "##hat": 6548,
      "▁heyecan": 6549,
      "##or": 6550,
      "▁duzenlenen": 6551,
      "▁genis": 6552,
      "##\"": 6553,
      "▁ham": 6554,
      "▁kidder": 6555,
      "##adi": 6556,
      "▁dal": 6557,
      "▁kendisine": 6558,
      "▁etmedi": 6559,
      "##3.2": 6560,
      "##yse": 6561,
      "▁alem": 6562,
      "▁endi": 6563,
      "##la": 6564,
      "▁bilmiyor": 6565,
      "##tak": 6566,
      "▁2016": 6567,
      "▁kanal": 6568,
      "▁ceyrek": 6569,
      "▁tav": 6570,
      "##ram": 6571,
      "▁hiss": 6572,
      "##ecektir": 6573,
      "▁ontari": 6574,
      "▁mevzu": 6575,
      "▁gunduz": 6576,
      "8": 6577,
      "▁gomlek": 6578,
      "▁yaklas": 6579,
      "▁yapılır": 6580,
      "▁kep": 6581,
      "▁2005": 6582,
      "▁cogal": 6583,
      "##ınca": 6584,
      "▁%85": 6585,
      "▁care": 6586,
      "▁ziy": 6587,
      "▁oradan": 6588,
      "▁mıydı": 6589,
      "▁saatleri": 6590,
      "▁kub": 6591,
      "▁yardimci": 6592,
      "▁kazan": 6593,
      "▁deri": 6594,
      "▁burası": 6595,
      "▁yemegi": 6596,
      "[PAD]": 6597,
      "▁bacak": 6598,
      "##lamayı": 6599,
      "▁bit": 6600,
      "##ilmesi": 6601,
      "▁piyasanın": 6602,
      "##mada": 6603,
      "##ıt": 6604,
      "##esiz": 6605,
      "▁muay": 6606,
      "##uste": 6607,
      "▁ders": 6608,
      "▁odul": 6609,
      "▁senedi": 6610,
      "▁54": 6611,
      "▁sirketin": 6612,
      "##por": 6613,
      "##ific": 6614,
      "##sal": 6615,
      "▁california'ya": 6616,
      "##aber": 6617,
      "▁900": 6618,
      "▁muda": 6619,
      "##atın": 6620,
      "##medim": 6621,
      "▁air": 6622,
      "▁rakip": 6623,
      "▁bulunan": 6624,
      "▁kaf": 6625,
      "▁fıldır": 6626,
      "▁%25": 6627,
      "▁hakları": 6628,
      "▁sonrasında": 6629,
      "▁hav": 6630,
      "▁holding": 6631,
      "▁bıc": 6632,
      "▁97": 6633,
      "▁dusen": 6634,
      "▁pal": 6635,
      "▁denizi": 6636,
      "▁danısman": 6637,
      "▁sekilde": 6638,
      "▁mosk": 6639,
      "▁philadelphia'ya": 6640,
      "▁olduklarını": 6641,
      "▁mily": 6642,
      "▁kav": 6643,
      "▁nec": 6644,
      "▁dedigi": 6645,
      "##acagız": 6646,
      "##abilecegini": 6647,
      "▁gu": 6648,
      "▁otomobil": 6649,
      ">": 6650,
      "▁kanat": 6651,
      "▁sırtında": 6652,
      "##emem": 6653,
      "▁gidip": 6654,
      "▁allak": 6655,
      "▁cocuklara": 6656,
      "▁ikram": 6657,
      "▁ara": 6658,
      "##mey": 6659,
      "##dokuz": 6660,
      "##egi": 6661,
      "▁4'ten": 6662,
      "▁tamamen": 6663,
      "▁eti": 6664,
      "▁muster": 6665,
      "▁tahvili": 6666,
      "▁cit": 6667,
      "##qu": 6668,
      "▁fayd": 6669,
      "##'nın": 6670,
      "##dık": 6671,
      "▁gi": 6672,
      "▁davası": 6673,
      "##32": 6674,
      "##lig": 6675,
      "▁acıklan": 6676,
      "▁muhaf": 6677,
      "##.5": 6678,
      "▁cıyak": 6679,
      "##ch": 6680,
      "▁defter": 6681,
      "##sız": 6682,
      "▁calisan": 6683,
      "##ersin": 6684,
      "▁boc": 6685,
      "▁kisiye": 6686,
      "▁titiz": 6687,
      "▁industri": 6688,
      "##ektr": 6689,
      "▁dogur": 6690,
      "▁z": 6691,
      "▁ancak": 6692,
      "▁bosluk": 6693,
      "▁milyon": 6694,
      "▁sınıfı": 6695,
      "##meleri": 6696,
      "▁uretimi": 6697,
      "▁atesi": 6698,
      "##ık": 6699,
      "▁gorus": 6700,
      "▁%7.875": 6701,
      "▁vat": 6702,
      "##madıgını": 6703,
      "##iran": 6704,
      "##dıgına": 6705,
      "▁univ": 6706,
      "[CLS]": 6707,
      "▁yer": 6708,
      "▁yerlestir": 6709,
      "##digi": 6710,
      "##rum": 6711,
      "▁1.2": 6712,
      "▁minneapolis'e": 6713,
      "▁ailesi": 6714,
      "##larak": 6715,
      "▁fiyatı": 6716,
      "▁ipek": 6717,
      "▁basladık": 6718,
      "▁8": 6719,
      "▁8.8": 6720,
      "▁gerektigini": 6721,
      "▁yuzde": 6722,
      "▁standart": 6723,
      "##tur": 6724,
      "▁1980": 6725,
      "##lamaya": 6726,
      "##sun": 6727,
      "▁53": 6728,
      "▁cekin": 6729,
      "##on": 6730,
      "▁yuzlu": 6731,
      "##ulen": 6732,
      "▁tir": 6733,
      "▁kopru": 6734,
      "##ach": 6735,
      "▁ulk": 6736,
      "▁ydu": 6737,
      "▁ikiyuz": 6738,
      "▁gordum": 6739,
      "▁normaldi": 6740,
      "##aket": 6741,
      "▁etmeyi": 6742,
      "▁onlar": 6743,
      "▁alıp": 6744,
      "▁icimde": 6745,
      "▁%6.90": 6746,
      "▁chicago'dan": 6747,
      "▁sergil": 6748,
      "▁dusun": 6749,
      "▁emin": 6750,
      "##and": 6751,
      "▁hen": 6752,
      "▁zamanda": 6753,
      "▁5\\/8": 6754,
      "▁durmadan": 6755,
      "##leyen": 6756,
      "##eden": 6757,
      "▁sonr": 6758,
      "▁su": 6759,
      "##ladım": 6760,
      "##onun": 6761,
      "##rem": 6762,
      "##lanıyor": 6763,
      "##elerek": 6764,
      "##lanması": 6765,
      "▁bizde": 6766,
      "##ıpıs": 6767,
      "▁belirli": 6768,
      "▁belirsiz": 6769,
      "##luktan": 6770,
      "▁plani": 6771,
      "▁fatih": 6772,
      "▁diger": 6773,
      "##saf": 6774,
      "##indan": 6775,
      "▁olumlu": 6776,
      "##og": 6777,
      "##iliyor": 6778,
      "▁yere": 6779,
      "▁olur": 6780,
      "##cisi": 6781,
      "##gına": 6782,
      "▁etmez": 6783,
      "▁dusuktu": 6784,
      "▁kesinlikle": 6785,
      "##ers": 6786,
      "▁altmıs": 6787,
      "▁canım": 6788,
      "▁fark": 6789,
      "▁faiz": 6790,
      "▁dostu": 6791,
      "▁%15": 6792,
      "▁one": 6793,
      "▁bayram": 6794,
      "▁kere": 6795,
      "▁kusur": 6796,
      "▁lif": 6797,
      "▁yemeklerinden": 6798,
      "▁tanık": 6799,
      "▁karısık": 6800,
      "▁it": 6801,
      "▁size": 6802,
      "▁nez": 6803,
      "▁lakırtı": 6804,
      "▁etkil": 6805,
      "▁sir": 6806,
      "▁angeles'ten": 6807,
      "▁arm": 6808,
      "▁oy": 6809,
      "▁aslan": 6810,
      "▁psik": 6811,
      "▁miktarda": 6812,
      "##nız": 6813,
      "▁sorgul": 6814,
      "▁ustunden": 6815,
      "▁havayollarının": 6816,
      "▁bastır": 6817,
      "##ana": 6818,
      "▁mutlaka": 6819,
      "▁esir": 6820,
      "▁phoenix'den": 6821,
      "▁gokyuz": 6822,
      "▁belediye": 6823,
      "▁talep": 6824,
      "▁montreal": 6825,
      "▁ste": 6826,
      "##distan": 6827,
      "▁dert": 6828,
      "▁ustu": 6829,
      "##mayacak": 6830,
      "##rik": 6831,
      "(": 6832,
      "▁herkesten": 6833,
      "▁dolap": 6834,
      "▁olmalı": 6835,
      "##2'den": 6836,
      "l": 6837,
      "▁ucretin": 6838,
      "▁saglıyor": 6839,
      "▁konuk": 6840,
      "▁camur": 6841,
      "▁okul": 6842,
      "▁ihtil": 6843,
      "▁tecrub": 6844,
      "▁express": 6845,
      "▁tutarında": 6846,
      "▁veriyorum": 6847,
      "##uyordu": 6848,
      "▁seye": 6849,
      "▁phoenix'e": 6850,
      "▁oturmus": 6851,
      "▁75": 6852,
      "▁arastırma": 6853,
      "b": 6854,
      "▁serbest": 6855,
      "▁sarı": 6856,
      "▁70": 6857,
      "▁yuzunu": 6858,
      "▁karsılastır": 6859,
      "##tif": 6860,
      "▁fırsat": 6861,
      "▁kong": 6862,
      "▁yine": 6863,
      "▁okuy": 6864,
      "##rika": 6865,
      "##leriyle": 6866,
      "▁nereden": 6867,
      "▁etmisti": 6868,
      "##ledigi": 6869,
      "▁sakat": 6870,
      "▁aksine": 6871,
      "▁hayvan": 6872,
      "##amıstı": 6873,
      "▁dok": 6874,
      "▁mektep": 6875,
      "##ma": 6876,
      "▁komit": 6877,
      "##1.2": 6878,
      "▁anadolu": 6879,
      "▁yken": 6880,
      "##tu": 6881,
      "▁gunu": 6882,
      "▁mir": 6883,
      "▁ziyade": 6884,
      "▁onlarla": 6885,
      "▁gazet": 6886,
      "▁iceriyor": 6887,
      "▁karan": 6888,
      "▁listeleyebilir": 6889,
      "▁muk": 6890,
      "▁ilgiliydi": 6891,
      "▁edile": 6892,
      "##lıdır": 6893,
      "▁alak": 6894,
      "##abını": 6895,
      "▁zır": 6896,
      "##ek": 6897,
      "##olog": 6898,
      "▁%3.5": 6899,
      "▁gelsin": 6900,
      "▁ren": 6901,
      "▁dinliyor": 6902,
      "▁kampan": 6903,
      "▁37.5": 6904,
      "▁yaptirdi": 6905,
      "▁mola": 6906,
      "##yalı": 6907,
      "▁istedim": 6908,
      "▁13": 6909,
      "▁dusunuyorum": 6910,
      "##tanın": 6911,
      "▁tabii": 6912,
      "##amıyorum": 6913,
      "▁ilan": 6914,
      "▁sessiz": 6915,
      "##ayarak": 6916,
      "▁gunden": 6917,
      "▁gog": 6918,
      "##samba": 6919,
      "▁uyesi": 6920,
      "▁fi": 6921,
      "▁aktivit": 6922,
      "▁perde": 6923,
      "▁ten": 6924,
      "▁beh": 6925,
      "▁anad": 6926,
      "▁kadının": 6927,
      "▁tanı": 6928,
      "▁?": 6929,
      "##'a": 6930,
      "▁2004": 6931,
      "▁beklent": 6932,
      "▁konforlu": 6933,
      "▁kız": 6934,
      "▁s&p": 6935,
      "▁kucak": 6936,
      "##tiv": 6937,
      "▁zira": 6938,
      "##atin": 6939,
      "▁veririm": 6940,
      "##ene": 6941,
      "##lıgıyla": 6942,
      "##ic": 6943,
      "▁morgan": 6944,
      "##esi": 6945,
      "▁oldugunu": 6946,
      "##malı": 6947,
      "▁basarılı": 6948,
      "▁modern": 6949,
      "▁gemi": 6950,
      "▁som": 6951,
      "##ulan": 6952,
      "▁ero": 6953,
      "▁seviye": 6954,
      "##ilerin": 6955,
      "▁verebilirim": 6956,
      "▁me": 6957,
      "▁iliski": 6958,
      "▁hakan": 6959,
      "▁9": 6960,
      "▁cep": 6961,
      "##ayet": 6962,
      "▁gozlem": 6963,
      "##eyebilir": 6964,
      "▁cekil": 6965,
      "▁nasda": 6966,
      "▁nesn": 6967,
      "▁verilm": 6968,
      "▁hacı": 6969,
      "▁yaklasimi": 6970,
      "▁hale": 6971,
      "##im": 6972,
      "▁geleni": 6973,
      "▁edilmesi": 6974,
      "▁vegas'tan": 6975,
      "▁parayı": 6976,
      "##iyat": 6977,
      "▁lake": 6978,
      "▁dogrudan": 6979,
      "▁val": 6980,
      "▁eg": 6981,
      "▁hicbiri": 6982,
      "▁basa": 6983,
      "▁iyice": 6984,
      "▁doy": 6985,
      "##imli": 6986,
      "▁international": 6987,
      "▁dunyada": 6988,
      "##osy": 6989,
      "▁kitaplar": 6990,
      "▁dolayısıyla": 6991,
      "▁pap": 6992,
      "▁donem": 6993,
      "▁bin": 6994,
      "▁saygı": 6995,
      "##gunde": 6996,
      "##gıc": 6997,
      "▁cinc": 6998,
      "##tigi": 6999,
      "▁durgunluk": 7000,
      "▁com": 7001,
      "##ecegine": 7002,
      "▁memur": 7003,
      "##layacak": 7004,
      "▁surekli": 7005,
      "▁ons": 7006,
      "▁%": 7007,
      "##luluk": 7008,
      "▁1990": 7009,
      "##phia": 7010,
      "▁motor": 7011,
      "▁enflasyon": 7012,
      "▁bence": 7013,
      "▁herkes": 7014,
      "▁barıs": 7015,
      "▁seviyesinden": 7016,
      "##orn": 7017,
      "▁kurdu": 7018,
      "▁port": 7019,
      "##dis": 7020,
      "▁olunca": 7021,
      "▁0.1": 7022,
      "▁philadelphia'dan": 7023,
      "▁darbe": 7024,
      "▁dinlen": 7025,
      "##cakt": 7026,
      "##ılıgıyla": 7027,
      "▁verimli": 7028,
      "##ebil": 7029,
      "##lan": 7030,
      "##ond": 7031,
      "▁yapılandır": 7032,
      "▁ortaya": 7033,
      "▁agacın": 7034,
      "6": 7035,
      "▁mucadel": 7036,
      "##ow": 7037,
      "▁kurulan": 7038,
      "▁ısın": 7039,
      "##yı": 7040,
      "▁pul": 7041,
      "▁kol": 7042,
      "▁doga": 7043,
      "▁uret": 7044,
      "##ti": 7045,
      "▁gunes": 7046,
      "▁ogret": 7047,
      "##akende": 7048,
      "##gının": 7049,
      "##ano": 7050,
      "▁aradilar": 7051,
      "##mak": 7052,
      "▁uf": 7053,
      "w": 7054,
      "▁geliyor": 7055,
      "##emi": 7056,
      "▁karsın": 7057,
      "##elim": 7058,
      "##mesini": 7059,
      "▁nam": 7060,
      "▁hepimizin": 7061,
      "##iyel": 7062,
      "▁cın": 7063,
      "▁numara": 7064,
      "##akin": 7065,
      "##tre": 7066,
      "▁supur": 7067,
      "▁sasır": 7068,
      "##larımız": 7069,
      "▁oldum": 7070,
      "##.625": 7071,
      "##ırk": 7072,
      "▁arayan": 7073,
      "▁surdur": 7074,
      "##mayı": 7075,
      "▁101": 7076,
      "##dal": 7077,
      "▁cumhur": 7078,
      "▁kapandı": 7079,
      "▁didik": 7080,
      "▁satım": 7081,
      "▁buc": 7082,
      "▁basar": 7083,
      "##ert": 7084,
      "▁gerekiyor": 7085,
      "▁adamları": 7086,
      "##tek": 7087,
      "▁ilgilendiler": 7088,
      "##ediye": 7089,
      "▁bugday": 7090,
      "▁oyuncak": 7091,
      "▁nedir": 7092,
      "▁york'ta": 7093,
      "▁tezgah": 7094,
      "##dek": 7095,
      "▁saga": 7096,
      "▁ol": 7097,
      "▁73": 7098,
      "##erv": 7099,
      "▁hukum": 7100,
      "▁aray": 7101,
      "▁beklem": 7102,
      "##uyorlardı": 7103,
      "▁nob": 7104,
      "▁yakindi": 7105,
      "▁gev": 7106,
      "▁tasıyan": 7107,
      "##lerimi": 7108,
      "▁bardak": 7109,
      "▁63": 7110,
      "##leyin": 7111,
      "▁toplam": 7112,
      "▁sin": 7113,
      "▁calısma": 7114,
      "▁galib": 7115,
      "▁ekledi": 7116,
      "##_": 7117,
      "▁sahneye": 7118,
      "##le": 7119,
      "▁mag": 7120,
      "##meyin": 7121,
      "▁diyordu": 7122,
      "▁sonra": 7123,
      "▁elindeki": 7124,
      "##est": 7125,
      "▁lazım": 7126,
      "▁sim": 7127,
      "##inda": 7128,
      "▁angeles'e": 7129,
      "▁duzgun": 7130,
      "###": 7131,
      "▁gok": 7132,
      "▁miami'ye": 7133,
      "##afir": 7134,
      "▁tulum": 7135,
      "▁maruz": 7136,
      "▁tasıy": 7137,
      "▁hey": 7138,
      "##loy": 7139,
      "▁demis": 7140,
      "▁ila": 7141,
      "▁per": 7142,
      "##acag": 7143,
      "##ıyor": 7144,
      "▁isleri": 7145,
      "▁oldukca": 7146,
      "▁sun": 7147,
      "▁zehir": 7148,
      "▁yarın": 7149,
      "▁gitt": 7150,
      "##usuna": 7151,
      "##cagız": 7152,
      "▁kagı": 7153,
      "▁toplantıs": 7154,
      "##ebilmek": 7155,
      "▁sordu": 7156,
      "##ems": 7157,
      "##eyin": 7158,
      "▁odem": 7159,
      "▁ciyak": 7160,
      "##ald": 7161,
      "▁nit": 7162,
      "▁olus": 7163,
      "##lestir": 7164,
      "▁mur": 7165,
      "▁nefes": 7166,
      "▁5/8": 7167,
      "▁nuk": 7168,
      "▁fonları": 7169,
      "▁termal": 7170,
      "▁buna": 7171,
      "##saydı": 7172,
      "##ıda": 7173,
      "##uldu": 7174,
      "##ijinal": 7175,
      "##usuz": 7176,
      "▁south": 7177,
      "▁kuvvet": 7178,
      "##rut": 7179,
      "▁amerikalı": 7180,
      "▁ecekti": 7181,
      "##sın": 7182,
      "▁yaygın": 7183,
      "▁patır": 7184,
      "▁raporu": 7185,
      "##'u": 7186,
      "▁guclendir": 7187,
      "##v": 7188,
      "▁tarihi": 7189,
      "##umu": 7190,
      "##und": 7191,
      "##gin": 7192,
      "##ester": 7193,
      "##antaj": 7194,
      "##unun": 7195,
      "▁verecek": 7196,
      "##61": 7197,
      "▁denizinden": 7198,
      "##iser": 7199,
      "▁servet": 7200,
      "▁acaktı": 7201,
      "▁uyku": 7202,
      "▁tesp": 7203,
      "▁sekret": 7204,
      "##leme": 7205,
      "▁yonel": 7206,
      "▁43": 7207,
      "▁insanların": 7208,
      "▁programı": 7209,
      "▁denk": 7210,
      "q": 7211,
      "▁class": 7212,
      "▁sesleri": 7213,
      "##ter": 7214,
      "▁kum": 7215,
      "▁bakır": 7216,
      "##eten": 7217,
      "▁londra": 7218,
      "##gunuz": 7219,
      "▁6'dan": 7220,
      "▁yapılmıs": 7221,
      "##lul": 7222,
      "▁dag": 7223,
      "▁nic": 7224,
      "▁sonuclar": 7225,
      "▁universite": 7226,
      "▁inanc": 7227,
      "▁stok": 7228,
      "▁gelenek": 7229,
      "▁tez": 7230,
      "▁internet": 7231,
      "##-1": 7232,
      "▁kaybetti": 7233,
      "▁usta": 7234,
      "▁personelleri": 7235,
      "▁andır": 7236,
      "▁girdik": 7237,
      "##ıh": 7238,
      "▁cant": 7239,
      "▁market": 7240,
      "##cıların": 7241,
      "▁dus": 7242,
      "##cileri": 7243,
      "▁isk": 7244,
      "▁gunumuz": 7245,
      "##inde": 7246,
      "▁nokt": 7247,
      "▁firması": 7248,
      "▁iran": 7249,
      "▁hazır": 7250,
      "##lerini": 7251,
      "▁cevre": 7252,
      "▁onlara": 7253,
      "▁girmek": 7254,
      "▁alım": 7255,
      "▁rad": 7256,
      "▁if": 7257,
      "##bus": 7258,
      "▁duyar": 7259,
      "▁28": 7260,
      "▁sinirli": 7261,
      "▁asag": 7262,
      "▁endeksi": 7263,
      "▁kolay": 7264,
      "##bra": 7265,
      "##temiz": 7266,
      "”": 7267,
      "##wa": 7268,
      "##'ın": 7269,
      "##ısını": 7270,
      "##alardan": 7271,
      "▁sist": 7272,
      "▁baskanı": 7273,
      "##lyon": 7274,
      "##uyle": 7275,
      "▁kocaman": 7276,
      "##atı": 7277,
      "##amadim": 7278,
      "▁29": 7279,
      "▁devral": 7280,
      "##ihaz": 7281,
      "▁bekledigini": 7282,
      "▁ekonom": 7283,
      "▁uzak": 7284,
      "▁komur": 7285,
      "▁jose": 7286,
      "▁etmesi": 7287,
      "▁arasından": 7288,
      "▁tutan": 7289,
      "##lenen": 7290,
      "▁finansman": 7291,
      "▁insanlar": 7292,
      "##eki": 7293,
      "▁soyle": 7294,
      "##ker": 7295,
      "▁q": 7296,
      "##hos": 7297,
      "▁derin": 7298,
      "▁dolara": 7299,
      "▁olacak": 7300,
      "▁delik": 7301,
      "▁guzel": 7302,
      "▁musun": 7303,
      "▁yel": 7304,
      "▁imal": 7305,
      "##yi": 7306,
      "▁diplom": 7307,
      "▁bina": 7308,
      "’": 7309,
      "▁4.5": 7310,
      "▁mav": 7311,
      "▁aldim": 7312,
      "##'": 7313,
      "▁sabahın": 7314,
      "##lıkla": 7315,
      "▁kurban": 7316,
      "▁bahseder": 7317,
      "°": 7318,
      "##iste": 7319,
      "▁kade": 7320,
      "▁yem": 7321,
      "▁insa": 7322,
      "##od": 7323,
      "▁hop": 7324,
      "▁cay": 7325,
      "▁carsamba": 7326,
      "▁bakıyordu": 7327,
      "▁havuzlar": 7328,
      "▁bun": 7329,
      "▁rek": 7330,
      "▁ortam": 7331,
      "▁yım": 7332,
      "▁balk": 7333,
      "▁sesini": 7334,
      "▁yasında": 7335,
      "▁devletin": 7336,
      "▁birini": 7337,
      "▁worth'a": 7338,
      "▁sanay": 7339,
      "▁kurt": 7340,
      "▁oranları": 7341,
      "▁hepsinden": 7342,
      "##lasma": 7343,
      "##ron": 7344,
      "▁miami'den": 7345,
      "▁l": 7346,
      "▁icim": 7347,
      "▁nashville'den": 7348,
      "▁yont": 7349,
      "▁hizmeti": 7350,
      "▁747": 7351,
      "##casına": 7352,
      "▁*": 7353,
      "##ruk": 7354,
      "▁milwaukee": 7355,
      "▁hala": 7356,
      "▁merdi": 7357,
      "##yalar": 7358,
      "##tı": 7359,
      "▁89": 7360,
      "▁tuken": 7361,
      "▁sum": 7362,
      "▁arttır": 7363,
      "▁malzemeler": 7364,
      "▁sınır": 7365,
      "##burg": 7366,
      "▁united": 7367,
      "▁kedi": 7368,
      "▁%7": 7369,
      "##ilir": 7370,
      "##80": 7371,
      "▁teyz": 7372,
      "▁acıp": 7373,
      "▁kodu": 7374,
      "##ton": 7375,
      "##da": 7376,
      "▁yapmaktan": 7377,
      "▁kuz": 7378,
      "##7.2": 7379,
      "##cev": 7380,
      "▁sic": 7381,
      "##ps": 7382,
      "▁rekabet": 7383,
      "▁telefon": 7384,
      "▁dar": 7385,
      "▁72": 7386,
      "##ran": 7387,
      "##egim": 7388,
      "▁kalite": 7389,
      "##rill": 7390,
      "##yeni": 7391,
      "##.125": 7392,
      "▁fatur": 7393,
      "##edik": 7394,
      "##iyorum": 7395,
      "▁elb": 7396,
      "▁duyur": 7397,
      "##gen": 7398,
      "▁gum": 7399,
      "##aman": 7400,
      "▁kendisini": 7401,
      "▁diz": 7402,
      "##tılı": 7403,
      "▁250000": 7404,
      "▁olan": 7405,
      "▁havayolu": 7406,
      "▁tutuyor": 7407,
      "##sem": 7408,
      "▁oz": 7409,
      "▁duv": 7410,
      "▁ual": 7411,
      "▁chicag": 7412,
      "▁bilimsel": 7413,
      "##tin": 7414,
      "▁endek": 7415,
      "▁havalim": 7416,
      "##ulmus": 7417,
      "▁dek": 7418,
      "▁oakland": 7419,
      "▁gur": 7420,
      "▁tuket": 7421,
      "▁parasını": 7422,
      "▁personeller": 7423,
      "▁carp": 7424,
      "##maktan": 7425,
      "▁denver'den": 7426,
      "▁uzay": 7427,
      "▁gazete": 7428,
      "▁dokuz": 7429,
      "▁gozluk": 7430,
      "▁sebebi": 7431,
      "▁edilecek": 7432,
      "▁ulastı": 7433,
      "▁katıl": 7434,
      "▁bizimle": 7435,
      "▁%2.7": 7436,
      "▁bulmaya": 7437,
      "▁elbet": 7438,
      "▁oksur": 7439,
      "▁sehrin": 7440,
      "▁temin": 7441,
      "▁superdi": 7442,
      "▁sevk": 7443,
      "▁benziyor": 7444,
      "##lendir": 7445,
      "##ladıgını": 7446,
      "▁kendilerinin": 7447,
      "▁dusuk": 7448,
      "▁buny": 7449,
      "▁toronto'ya": 7450,
      "▁ekonomi": 7451,
      "▁yıllar": 7452,
      "▁kardes": 7453,
      "▁kumas": 7454,
      "▁tal": 7455,
      "##evi": 7456,
      "##iyeti": 7457,
      "▁atlanta'ya": 7458,
      "▁22-23": 7459,
      "▁kavg": 7460,
      "##leb": 7461,
      "▁nelerdir": 7462,
      "##m": 7463,
      "▁fabrik": 7464,
      "▁gecik": 7465,
      "▁sec": 7466,
      "▁sonunda": 7467,
      "▁borcu": 7468,
      "▁insana": 7469,
      "##iber": 7470,
      "▁zafer": 7471,
      "##ot": 7472,
      "▁arabalar": 7473,
      "##ima": 7474,
      "##d.": 7475,
      "##tex": 7476,
      "▁sayıda": 7477,
      "▁imz": 7478,
      "▁belirtti": 7479,
      "▁3/": 7480,
      "▁61": 7481,
      "▁gul": 7482,
      "▁organ": 7483,
      "▁%3.1": 7484,
      "▁lob": 7485,
      "▁gonul": 7486,
      "##kiz": 7487,
      "##66": 7488,
      "##lesine": 7489,
      "▁num": 7490,
      "▁kararlı": 7491,
      "▁numar": 7492,
      "▁populer": 7493,
      "##imiz": 7494,
      "▁ez": 7495,
      "##digini": 7496,
      "##arası": 7497,
      "▁washington'a": 7498,
      "▁karayolu": 7499,
      "##asın": 7500,
      "▁verme": 7501,
      "▁yogun": 7502,
      "##aba": 7503,
      "▁kayak": 7504,
      "▁bur": 7505,
      "▁%20": 7506,
      "▁1.1": 7507,
      "##ıs": 7508,
      "▁alacaklı": 7509,
      "r": 7510,
      "▁adet": 7511,
      "▁besyuz": 7512,
      "##ael": 7513,
      "▁yetkili": 7514,
      "▁eylul'de": 7515,
      "▁meden": 7516,
      "▁oyku": 7517,
      "▁eas": 7518,
      "▁girisim": 7519,
      "▁kasım'da": 7520,
      "##elendir": 7521,
      "▁naz": 7522,
      "##lerine": 7523,
      "##ende": 7524,
      "▁yaprak": 7525,
      "▁elinden": 7526,
      "▁karsı": 7527,
      "▁muhar": 7528,
      "▁yeterliydi": 7529,
      "▁ortaydi": 7530,
      "▁kayık": 7531,
      "▁kardesi": 7532,
      "▁basına": 7533,
      "##amdan": 7534,
      "##one": 7535,
      "▁2.3": 7536,
      "▁sonu": 7537,
      "▁gelisim": 7538,
      "▁sosy": 7539,
      "##ecekti": 7540,
      "##'den": 7541,
      "▁satıl": 7542,
      "▁donustur": 7543,
      "▁siyah": 7544,
      "##ation": 7545,
      "▁yeterince": 7546,
      "▁bozuk": 7547,
      "▁osman": 7548,
      "##​": 7549,
      "##esil": 7550,
      "▁icra": 7551,
      "▁worth": 7552,
      "##gır": 7553,
      "▁degildim": 7554,
      "▁altıncı": 7555,
      "▁nori": 7556,
      "▁%6.4": 7557,
      "▁charlotte'ye": 7558,
      "▁teh": 7559,
      "##den": 7560,
      "##bes": 7561,
      "##dunuz": 7562,
      "▁sevdigi": 7563,
      "##ilmaz": 7564,
      "▁kalkan": 7565,
      "▁calısması": 7566,
      "▁yetkilileri": 7567,
      "▁inti": 7568,
      "##uyla": 7569,
      "▁dov": 7570,
      "t": 7571,
      "▁sallan": 7572,
      "▁odanın": 7573,
      "▁gibi": 7574,
      "▁yonlendir": 7575,
      "▁hissesi": 7576,
      "##adan": 7577,
      "▁edebilir": 7578,
      "##baz": 7579,
      "▁yamalak": 7580,
      "▁zarif": 7581,
      "##undeki": 7582,
      "▁sos": 7583,
      "##uye": 7584,
      "▁ulas": 7585,
      "▁_": 7586,
      "▁sehir": 7587,
      "▁icinde": 7588,
      "▁1/2": 7589,
      "▁iyilestir": 7590,
      "▁ben": 7591,
      "▁3.": 7592,
      "▁tarih": 7593,
      "▁dik": 7594,
      "▁hastalık": 7595,
      "▁sen": 7596,
      "##ap": 7597,
      "▁bulmak": 7598,
      "##.52": 7599,
      "▁sabır": 7600,
      "##azı": 7601,
      "▁ucuz": 7602,
      "▁eksikligi": 7603,
      "▁ataturk'un": 7604,
      "▁gozlerim": 7605,
      "▁dakik": 7606,
      "▁basbak": 7607,
      "▁bilmem": 7608,
      "▁garip": 7609,
      "▁duskun": 7610,
      "##ımız": 7611,
      "▁olaganustu": 7612,
      "▁olumsuz": 7613,
      "▁para": 7614,
      "▁attı": 7615,
      "▁acıldı": 7616,
      "▁jos": 7617,
      "▁begen": 7618,
      "▁kos": 7619,
      "▁dom": 7620,
      "▁3.5": 7621,
      "##kur": 7622,
      "▁yuklu": 7623,
      "▁roportaj": 7624,
      "##gec": 7625,
      "▁pır": 7626,
      "▁yen'e": 7627,
      "▁memph": 7628,
      "▁birbirinden": 7629,
      "##hut": 7630,
      "▁orta": 7631,
      "##tra": 7632,
      "##iliyordu": 7633,
      "▁iti": 7634,
      "▁mit": 7635,
      "##lıgının": 7636,
      "▁yapım": 7637,
      "##at": 7638,
      "▁seyden": 7639,
      "##ulup": 7640,
      "▁bagır": 7641,
      "▁ilgi": 7642,
      "▁getir": 7643,
      "▁komp": 7644,
      "▁insan": 7645,
      "##yo": 7646,
      "▁evet": 7647,
      "##ılmıstı": 7648,
      "##acı": 7649,
      "▁yuzme": 7650,
      "▁tr": 7651,
      "▁ec": 7652,
      "▁rahat": 7653,
      "##ustri": 7654,
      "▁arada": 7655,
      "##dort": 7656,
      "##niyet": 7657,
      "▁etmistir": 7658,
      "##alar": 7659,
      "▁hisset": 7660,
      "▁sov": 7661,
      "▁alt": 7662,
      "##udum": 7663,
      "##kırı": 7664,
      "▁secenek": 7665,
      "▁kah": 7666,
      "▁minneapolis'ten": 7667,
      "▁ozet": 7668,
      "▁degisiklik": 7669,
      "▁goze": 7670,
      "▁ulasım": 7671,
      "▁5.1": 7672,
      "▁york'a": 7673,
      "▁gercek": 7674,
      "▁kibar": 7675,
      "▁degiliz": 7676,
      "▁planlam": 7677,
      "▁karar": 7678,
      "▁yam": 7679,
      "▁div": 7680,
      "▁ge": 7681,
      "▁milli": 7682,
      "▁135": 7683,
      "▁gonl": 7684,
      "▁zarar": 7685,
      "▁simdilik": 7686,
      "▁kapsamlı": 7687,
      "▁yahudi": 7688,
      "##al": 7689,
      "▁arkadasim": 7690,
      "▁guc": 7691,
      "##vil": 7692,
      "▁avustral": 7693,
      "▁s&": 7694,
      "▁anlayıs": 7695,
      "##mustur": 7696,
      "▁telas": 7697,
      "▁bay": 7698,
      "▁gercekles": 7699,
      "▁emniyet": 7700,
      "▁dogrusu": 7701,
      "▁ozgu": 7702,
      "▁esim": 7703,
      "▁83": 7704,
      "▁sab": 7705,
      "▁ı": 7706,
      "▁(": 7707,
      "##of": 7708,
      "▁hisselerin": 7709,
      "▁belg": 7710,
      "▁cıp": 7711,
      "▁serg": 7712,
      "▁la": 7713,
      "▁louis'e": 7714,
      "▁memnunuz": 7715,
      "##ort": 7716,
      "▁ilgilendi": 7717,
      "▁edeb": 7718,
      "▁pol": 7719,
      "▁ingilizce": 7720,
      "▁5-1": 7721,
      "##mekten": 7722,
      "##ekler": 7723,
      "▁kirli": 7724,
      "▁yıldır": 7725,
      "▁kalır": 7726,
      "##ikler": 7727,
      "▁yet": 7728,
      "▁an": 7729,
      "▁yi": 7730,
      "▁sent": 7731,
      "##ungur": 7732,
      "▁tesek": 7733,
      "▁gorusuldu": 7734,
      "▁karak": 7735,
      "##gında": 7736,
      "▁1981": 7737,
      "▁orgut": 7738,
      "▁tıp": 7739,
      "▁mahkemesi": 7740,
      "▁yayın": 7741,
      "##malarını": 7742,
      "▁cab": 7743,
      "▁fran": 7744,
      "##asıyla": 7745,
      "-": 7746,
      "▁sanki": 7747,
      "▁indian": 7748,
      "▁mahkum": 7749,
      "▁tesisti": 7750,
      "##ilig": 7751,
      "▁yuc": 7752,
      "##tıgım": 7753,
      "▁vet": 7754,
      "▁hasar": 7755,
      "▁personellerinden": 7756,
      "##ever": 7757,
      "▁teklif": 7758,
      "##abilirdi": 7759,
      "▁uslu": 7760,
      "▁ayarlan": 7761,
      "▁problem": 7762,
      "▁cıkıp": 7763,
      "▁mid": 7764,
      "##isinin": 7765,
      "▁hijyen": 7766,
      "▁cıtır": 7767,
      "##g": 7768,
      "▁ongor": 7769,
      "▁ele": 7770,
      "▁kendimizi": 7771,
      "▁fikr": 7772,
      "##abil": 7773,
      "##eral": 7774,
      "##tıcı": 7775,
      "▁basından": 7776,
      "▁paylas": 7777,
      "▁yaptik": 7778,
      "▁terk": 7779,
      "##ebilirim": 7780,
      "▁bor": 7781,
      "▁dallas": 7782,
      "▁davran": 7783,
      "▁cıkmıstı": 7784,
      "▁uzerindeki": 7785,
      "▁cumartesi": 7786,
      "##uncu": 7787,
      "▁gumus": 7788,
      "▁birbiri": 7789,
      "##ilerek": 7790,
      "▁aralarında": 7791,
      "##agi": 7792,
      "▁seyi": 7793,
      "▁rec": 7794,
      "▁izm": 7795,
      "##lıgını": 7796,
      "▁%6.": 7797,
      "▁kaybı": 7798,
      "##lil": 7799,
      "##apon": 7800,
      "##maya": 7801,
      "▁gozu": 7802,
      "▁edilen": 7803,
      "▁diyorlar": 7804,
      "▁kendinden": 7805,
      "▁basta": 7806,
      "2": 7807,
      "▁parm": 7808,
      "##mun": 7809,
      "##kırk": 7810,
      "▁kamyon": 7811,
      "##uldugunu": 7812,
      "▁tablo": 7813,
      "▁ameliyat": 7814,
      "▁v": 7815,
      "▁istanbul'da": 7816,
      "▁calısmak": 7817,
      "▁yen'den": 7818,
      "▁sabah": 7819,
      "▁kaldim": 7820,
      "##unca": 7821,
      "▁zamanlarda": 7822,
      "▁ilg": 7823,
      "##elerinin": 7824,
      "▁dan": 7825,
      "##/8": 7826,
      "▁sayf": 7827,
      "▁kendinizi": 7828,
      "▁odedigim": 7829,
      "▁duzelt": 7830,
      "▁profes": 7831,
      "▁dogru": 7832,
      "##dı": 7833,
      "▁alamadik": 7834,
      "▁korfez": 7835,
      "##-m": 7836,
      "##ligine": 7837,
      "▁8.3": 7838,
      "▁katil": 7839,
      "##rl": 7840,
      "##agından": 7841,
      "▁yil": 7842,
      "▁gayet": 7843,
      "##us": 7844,
      "▁endisel": 7845,
      "▁anlamına": 7846,
      "▁savas": 7847,
      "##aj": 7848,
      "▁tiyatro": 7849,
      "▁yolunu": 7850,
      "##layarak": 7851,
      "##ansız": 7852,
      "▁kalit": 7853,
      "▁taleb": 7854,
      "▁cekmek": 7855,
      "▁erdog": 7856,
      "▁ili": 7857,
      "▁meyve": 7858,
      "▁turkiye'nin": 7859,
      "##ıldı": 7860,
      "▁kaliforn": 7861,
      "▁bilgisi": 7862,
      "##bu": 7863,
      "##cek": 7864,
      "▁onceden": 7865,
      "▁haric": 7866,
      "▁bulmadim": 7867,
      "▁kotu": 7868,
      "▁yar": 7869,
      "▁metal": 7870,
      "##ler": 7871,
      "▁fik": 7872,
      "▁kalkıslı": 7873,
      "▁kalıyor": 7874,
      "▁kost": 7875,
      "▁profesyon": 7876,
      "▁musa": 7877,
      "##net": 7878,
      "▁katı": 7879,
      "▁sigara": 7880,
      "▁itir": 7881,
      "##maması": 7882,
      "k": 7883,
      "▁halihaz": 7884,
      "##landı": 7885,
      "▁dir": 7886,
      "▁eris": 7887,
      "▁guleryuz": 7888,
      "▁simdi": 7889,
      "▁47": 7890,
      "##sizlik": 7891,
      "##allı": 7892,
      "▁bucuk": 7893,
      "▁sonuna": 7894,
      "##dukları": 7895,
      "▁ayı": 7896,
      "##larınız": 7897,
      "▁bilmiyorum": 7898,
      "▁108": 7899,
      "▁olamaz": 7900,
      "▁kullanılıyor": 7901,
      "▁odun": 7902,
      "▁paket": 7903,
      "▁katıldı": 7904,
      "▁2000": 7905,
      "▁sovyetler": 7906,
      "##'yu": 7907,
      "▁olmaya": 7908,
      "▁giren": 7909,
      "▁bunu": 7910,
      "▁york'tan": 7911,
      "▁tutar": 7912,
      "▁ajans": 7913,
      "▁miyim": 7914,
      "▁noktası": 7915,
      "##manın": 7916,
      "▁birin": 7917,
      "▁rehber": 7918,
      "##luydu": 7919,
      "▁'l": 7920,
      "##ınıyor": 7921,
      "▁lok": 7922,
      "▁konu": 7923,
      "▁muhtem": 7924,
      "▁ları": 7925,
      "##orth": 7926,
      "▁dedi": 7927,
      "##yle": 7928,
      "▁harcam": 7929,
      "##8'de": 7930,
      "▁yoktu": 7931,
      "▁yapması": 7932,
      "▁istanbul'a": 7933,
      "▁toront": 7934,
      "▁yonetic": 7935,
      "##2.1": 7936,
      "▁milwaukee'ye": 7937,
      "▁sikin": 7938,
      "▁mukemmel": 7939,
      "##onu": 7940,
      "##ilere": 7941,
      "▁tım": 7942,
      "▁etmiyor": 7943,
      "▁iyil": 7944,
      "▁orani": 7945,
      "▁arabayı": 7946,
      "▁rob": 7947,
      "##sur": 7948,
      "▁bireysel": 7949,
      "##iyim": 7950,
      "▁aldılar": 7951,
      "▁gezin": 7952,
      "▁ya": 7953,
      "##lerimiz": 7954,
      "##acık": 7955,
      "▁bebek": 7956,
      "▁gerektir": 7957,
      "▁ces": 7958,
      "##ısın": 7959,
      "▁kurul": 7960,
      "▁yuzunde": 7961,
      "▁lan": 7962,
      "▁ulke": 7963,
      "▁madde": 7964,
      "▁street": 7965,
      "##vi": 7966,
      "▁hanimla": 7967,
      "▁konus": 7968,
      "▁cur": 7969,
      "##mekte": 7970,
      "▁ufak": 7971,
      "▁calis": 7972,
      "▁dusunc": 7973,
      "▁kalmadik": 7974,
      "▁varıyor": 7975,
      "▁birinden": 7976,
      "▁\"": 7977,
      "▁ker": 7978,
      "##dıgında": 7979,
      "▁aj": 7980,
      "▁bil": 7981,
      "▁alternatif": 7982,
      "##-2": 7983,
      "##kal": 7984,
      "▁seb": 7985,
      "##ltı": 7986,
      "▁nesi": 7987,
      "▁kıbrıs": 7988,
      "▁sur": 7989,
      "▁giyin": 7990,
      "▁istifa": 7991,
      "▁amerik": 7992,
      "▁alakali": 7993,
      "▁gelecekteki": 7994,
      "##ya'da": 7995,
      "▁sanız": 7996,
      "▁mez": 7997,
      "##cusu": 7998,
      "##tıg": 7999,
      "▁mumkun": 8000,
      "▁kurb": 8001,
      "▁mıy": 8002,
      "▁%80": 8003,
      "▁kisinin": 8004,
      "##agıt": 8005,
      "##'y": 8006,
      "▁71": 8007,
      "▁129": 8008,
      "▁aile": 8009,
      "▁elbette": 8010,
      "▁senetlerinin": 8011,
      "▁oden": 8012,
      "##mamıstı": 8013,
      "▁bilir": 8014,
      "##ımızdan": 8015,
      "▁karsıya": 8016,
      "##deri": 8017,
      "▁51": 8018,
      "▁birtak": 8019,
      "▁lezzeti": 8020,
      "▁orlando'dan": 8021,
      "▁heyec": 8022,
      "##dol": 8023,
      "##erk": 8024,
      "▁etmis": 8025,
      "##lamıstı": 8026,
      "##liklerini": 8027,
      "▁bell": 8028,
      "##uth": 8029,
      "▁evvel": 8030,
      "##tıkca": 8031,
      "▁cekti": 8032,
      "▁gulus": 8033,
      "▁neden": 8034,
      "▁kac": 8035,
      "▁huk": 8036,
      "▁rop": 8037,
      "▁hatır": 8038,
      "▁arkasından": 8039,
      "▁kalitesinden": 8040,
      "▁bize": 8041,
      "▁havuzu": 8042,
      "▁pas": 8043,
      "▁otel": 8044,
      "▁gund": 8045,
      "##lak": 8046,
      "▁havaalanından": 8047,
      "▁temizlen": 8048,
      "##isi": 8049,
      "▁dah": 8050,
      "▁1.5": 8051,
      "▁ah": 8052,
      "▁sahipti": 8053,
      "##meyen": 8054,
      "##liye": 8055,
      "##izi": 8056,
      "##ladıgı": 8057,
      "▁birine": 8058,
      "▁tedbir": 8059,
      "##lerimizi": 8060,
      "##eh": 8061,
      "▁alamadim": 8062,
      "▁frank": 8063,
      "▁cennet": 8064,
      "▁gore": 8065,
      "▁bagıs": 8066,
      "##unt": 8067,
      "▁havayol": 8068,
      "▁reddetti": 8069,
      "▁okum": 8070,
      "▁ide": 8071,
      "▁saati": 8072,
      "▁yuvar": 8073,
      "▁bizim": 8074,
      "▁ca": 8075,
      "▁program": 8076,
      "##mesinden": 8077,
      "▁nih": 8078,
      "▁kek": 8079,
      "##.76": 8080,
      "##lasan": 8081,
      "▁bazı": 8082,
      "▁burokr": 8083,
      "▁samp": 8084,
      "▁gidiyoruz": 8085,
      "▁fık": 8086,
      "▁the": 8087,
      "##mıyor": 8088,
      "##usunda": 8089,
      "▁onu": 8090,
      "▁yapıs": 8091,
      "##ıyordu": 8092,
      "▁ayse": 8093,
      "##tum": 8094,
      "▁buyuy": 8095,
      "▁bulmus": 8096,
      "##br": 8097,
      "▁basladı": 8098,
      "▁cır": 8099,
      "▁kime": 8100,
      "▁james": 8101,
      "▁ediyor": 8102,
      "▁eglenc": 8103,
      "##atif": 8104,
      "▁fıs": 8105,
      "▁sonucları": 8106,
      "##dedi": 8107,
      "▁itiraz": 8108,
      "##efe": 8109,
      "▁isin": 8110,
      "##andı": 8111,
      "▁prot": 8112,
      "▁hizmete": 8113,
      "▁ay": 8114,
      "▁30": 8115,
      "▁konusmalar": 8116,
      "▁ithal": 8117,
      "▁mutfak": 8118,
      "▁duz": 8119,
      "##gum": 8120,
      "!": 8121,
      "▁acakt": 8122,
      "▁.8": 8123,
      "▁gel": 8124,
      "▁cıplak": 8125,
      "##dim": 8126,
      "▁hali": 8127,
      "▁op": 8128,
      "##r.": 8129,
      "▁yazık": 8130,
      "##ib": 8131,
      "##siye": 8132,
      "▁airlin": 8133,
      "▁ederiz": 8134,
      "##ig": 8135,
      "▁hata": 8136,
      "▁8.4": 8137,
      "▁lezzetli": 8138,
      "##ısık": 8139,
      "##arında": 8140,
      "▁yuv": 8141,
      "▁hukumet": 8142,
      "▁sozleri": 8143,
      "##uyorum": 8144,
      "▁adamın": 8145,
      "##aklı": 8146,
      "▁hazırlan": 8147,
      "▁olmasi": 8148,
      "##ay": 8149,
      "▁le": 8150,
      "##arl": 8151,
      "▁olmayacak": 8152,
      "▁araya": 8153,
      "##6.6": 8154,
      "▁sigar": 8155,
      "##li": 8156,
      "▁birlesik": 8157,
      "##oks": 8158,
      "▁milyar": 8159,
      "##ukee": 8160,
      "▁baslan": 8161,
      "▁gerekc": 8162,
      "▁seviy": 8163,
      "##iyer": 8164,
      "▁buyudu": 8165,
      "▁olacaktır": 8166,
      "▁bunlardan": 8167,
      "▁kayn": 8168,
      "##sin": 8169,
      "▁onda": 8170,
      "▁tahvil": 8171,
      "▁kalkıs": 8172,
      "##tim": 8173,
      "▁evren": 8174,
      "##dıgınız": 8175,
      "##ten": 8176,
      "▁omur": 8177,
      "▁kesint": 8178,
      "##isini": 8179,
      "##mıs": 8180,
      "▁eyalet": 8181,
      "▁gordu": 8182,
      "##mus": 8183,
      "##adaki": 8184,
      "##iyak": 8185,
      "▁herhalde": 8186,
      "▁1.6": 8187,
      "##sizim": 8188,
      "▁4.9": 8189,
      "▁oburu": 8190,
      "##ki": 8191
    }
  }
}