{
  "version": "1.0",
  "truncation": null,
  "padding": null,
  "added_tokens": [
    {
      "id": 5358,
      "content": "[PAD]",
      "single_word": false,
      "lstrip": false,
      "rstrip": false,
      "normalized": false,
      "special": true
    },
    {
      "id": 6102,
      "content": "[UNK]",
      "single_word": false,
      "lstrip": false,
      "rstrip": false,
      "normalized": false,
      "special": true
    },
    {
      "id": 6591,
      "content": "[SEP]",
      "single_word": false,
      "lstrip": false,
      "rstrip": false,
      "normalized": false,
      "special": true
    },
    {
      "id": 10799,
      "content": "[CLS]",
      "single_word": false,
      "lstrip": false,
      "rstrip": false,
      "normalized": false,
      "special": true
    },
    {
      "id": 13314,
      "content": "[MASK]",
      "single_word": false,
      "lstrip": false,
      "rstrip": false,
      "normalized": false,
      "special": true
    }
  ],
  "normalizer": {
    "type": "Sequence",
    "normalizers": [
      {
        "type": "NFD"
      },
      {
        "type": "Lowercase"
      },
      {
        "type": "StripAccents"
      }
    ]
  },
  "pre_tokenizer": {
    "type": "Sequence",
    "pretokenizers": [
      {
        "type": "Metaspace",
        "replacement": "▁",
        "prepend_scheme": "always",
        "split": true
      }
    ]
  },
  "post_processor": {
    "type": "TemplateProcessing",
    "single": [
      {
        "SpecialToken": {
          "id": "[CLS]",
          "type_id": 0
        }
      },
      {
        "Sequence": {
          "id": "A",
          "type_id": 0
        }
      },
      {
        "SpecialToken": {
          "id": "[SEP]",
          "type_id": 0
        }
      }
    ],
    "pair": [
      {
        "SpecialToken": {
          "id": "[CLS]",
          "type_id": 0
        }
      },
      {
        "Sequence": {
          "id": "A",
          "type_id": 0
        }
      },
      {
        "SpecialToken": {
          "id": "[SEP]",
          "type_id": 0
        }
      },
      {
        "Sequence": {
          "id": "B",
          "type_id": 1
        }
      },
      {
        "SpecialToken": {
          "id": "[SEP]",
          "type_id": 1
        }
      }
    ],
    "special_tokens": {
      "[CLS]": {
        "id": "[CLS]",
        "ids": [
          10799
        ],
        "tokens": [
          "[CLS]"
        ]
      },
      "[SEP]": {
        "id": "[SEP]",
        "ids": [
          6591
        ],
        "tokens": [
          "[SEP]"
        ]
      }
    }
  },
  "decoder": {
    "type": "Metaspace",
    "replacement": "▁",
    "prepend_scheme": "always",
    "split": true
  },
  "model": {
    "type": "BPE",
    "dropout": null,
    "unk_token": "[UNK]",
    "continuing_subword_prefix": null,
    "end_of_word_suffix": null,
    "fuse_unk": false,
    "byte_fallback": false,
    "ignore_merges": false,
    "vocab": {
      "apolis": 0,
      "▁tahkik": 1,
      "ikti": 2,
      "▁cehenn": 3,
      "42": 4,
      "▁odaya": 5,
      "ebilecek": 6,
      "fur": 7,
      "ıb": 8,
      "▁efendi": 9,
      "sem": 10,
      "▁verilmis": 11,
      "▁yurdum": 12,
      "ırdı": 13,
      "▁isveren": 14,
      "▁kanunu": 15,
      "inde": 16,
      "rilyon": 17,
      "dınız": 18,
      "▁129": 19,
      "▁kısa": 20,
      "bindokuzyuzdoksan": 21,
      "▁bebek": 22,
      "▁yonetiminin": 23,
      "▁sahneye": 24,
      "▁kini": 25,
      "▁cocugu": 26,
      "▁koylerde": 27,
      "▁lill": 28,
      "▁'l": 29,
      "▁ekonomistler": 30,
      "▁gozlu": 31,
      "ler": 32,
      "▁1/8": 33,
      "▁250000": 34,
      "▁gund": 35,
      "▁indianapolis'ten": 36,
      "▁olmamıstı": 37,
      "oc": 38,
      "▁yapılı": 39,
      "▁fazlaydi": 40,
      "lav": 41,
      "▁allak": 42,
      "isco": 43,
      "▁fidan": 44,
      "▁emrah": 45,
      "▁karsıladı": 46,
      "▁yetis": 47,
      "▁sikint": 48,
      "▁hızlıca": 49,
      "▁haberleri": 50,
      "▁istemiyorum": 51,
      "▁sevdigim": 52,
      "▁veriyordu": 53,
      "▁elektrikli": 54,
      "▁mich": 55,
      "▁tıb": 56,
      "▁yargı": 57,
      "▁yaslarında": 58,
      "▁belirley": 59,
      "▁hissenin": 60,
      "ece": 61,
      "elerde": 62,
      "lenme": 63,
      "▁miydin": 64,
      "▁ustur": 65,
      "indedir": 66,
      "▁alıskan": 67,
      "▁buyukluk": 68,
      "cesi": 69,
      "▁ros": 70,
      "ekom": 71,
      "▁seye": 72,
      "▁mesaf": 73,
      "▁sarı": 74,
      "▁perakende": 75,
      "tıs": 76,
      "▁profesyonel": 77,
      "nie": 78,
      "▁23": 79,
      "enmis": 80,
      "▁mustes": 81,
      "gunde": 82,
      "▁sıra": 83,
      "▁baslık": 84,
      "▁berlin": 85,
      "▁gorevli": 86,
      "elle": 87,
      "tıgım": 88,
      "anlı": 89,
      "▁had": 90,
      "larini": 91,
      "▁ko": 92,
      "anta": 93,
      "▁kamar": 94,
      "6.1": 95,
      "▁alakali": 96,
      "▁philadelphia'daki": 97,
      "▁ymis": 98,
      "fon": 99,
      "▁burbank'tan": 100,
      "▁okulun": 101,
      "▁gayet": 102,
      "▁ag": 103,
      "▁deniyor": 104,
      "▁secur": 105,
      "▁veh": 106,
      "▁orland": 107,
      "▁jose'ye": 108,
      "▁ancak": 109,
      "jr": 110,
      "▁sisman": 111,
      "▁12.5": 112,
      "ince": 113,
      "▁oranı": 114,
      "▁kemik": 115,
      "▁paul": 116,
      "imet": 117,
      "▁halkı": 118,
      "▁indiana": 119,
      "▁eline": 120,
      "▁unvan": 121,
      "▁gosterge": 122,
      "▁tanrı'nın": 123,
      ":11": 124,
      "▁kendileri": 125,
      "▁devir": 126,
      "unda": 127,
      "ly": 128,
      "▁muv": 129,
      "▁kursu": 130,
      "ru": 131,
      "ayık": 132,
      "▁ederdi": 133,
      "▁plas": 134,
      "▁ua": 135,
      "▁kerv": 136,
      ".s.": 137,
      "▁iddia": 138,
      "▁amel": 139,
      "▁yıgılmıs": 140,
      "▁yavrusu": 141,
      "mamıstı": 142,
      "▁kapsamlı": 143,
      "▁konusmak": 144,
      "▁volkan": 145,
      "▁500": 146,
      "ps": 147,
      "▁canavar": 148,
      "▁pantol": 149,
      "▁she": 150,
      "▁19.51": 151,
      "▁susuz": 152,
      "▁iyisi": 153,
      "▁22.6": 154,
      "▁nori": 155,
      "▁hareketi": 156,
      "ogramı": 157,
      "▁isaretleri": 158,
      "▁bitk": 159,
      "▁bulamaz": 160,
      "▁izlen": 161,
      "ledi": 162,
      "▁oc": 163,
      "▁124": 164,
      "▁ulkeye": 165,
      "▁yuruyor": 166,
      "▁olabilirdi": 167,
      "▁havayolunun": 168,
      "stems": 169,
      "luk": 170,
      "▁hi": 171,
      "▁huv": 172,
      "▁fakultesi": 173,
      "▁dis": 174,
      "▁mantıksız": 175,
      "▁itibar": 176,
      "▁dolandır": 177,
      "▁merkeze": 178,
      "▁ayırt": 179,
      "▁kılı": 180,
      "unla": 181,
      "▁muthis": 182,
      "ilerde": 183,
      "▁olumsuzluk": 184,
      "▁bizzat": 185,
      "▁soyle": 186,
      "▁gulunc": 187,
      "▁uygunsuz": 188,
      "▁hane": 189,
      "yle": 190,
      "▁anlattı": 191,
      "▁piskin": 192,
      "iyordu": 193,
      "▁ayse": 194,
      "▁kahkah": 195,
      "▁beb": 196,
      "▁muzakere": 197,
      "▁balo": 198,
      "▁ahir": 199,
      "▁dagılmıs": 200,
      "▁1.22": 201,
      "▁dogrul": 202,
      "▁bunu": 203,
      "▁beyg": 204,
      "▁kuvvetleri": 205,
      "▁kagıda": 206,
      "▁piyasa": 207,
      "▁merdivenleri": 208,
      "r": 209,
      "▁idi": 210,
      "▁sasırtıcı": 211,
      "▁araya": 212,
      "▁yaptıklarını": 213,
      "▁indi": 214,
      "▁karsılık": 215,
      "likleri": 216,
      "▁bell": 217,
      "▁gecirdik": 218,
      "▁yurek": 219,
      "▁korsan": 220,
      "▁1500": 221,
      "▁katilmadim": 222,
      "ladı": 223,
      "▁hava": 224,
      "▁gosterdi": 225,
      "/16": 226,
      "▁milletvek": 227,
      "▁yumurta": 228,
      "acıları": 229,
      "▁geldik": 230,
      "▁gostermis": 231,
      "▁not": 232,
      "▁satıslarını": 233,
      "vel": 234,
      "▁5.8": 235,
      "▁cır": 236,
      "▁toh": 237,
      "▁sım": 238,
      "siye": 239,
      "▁planlar": 240,
      "▁merksamer": 241,
      "▁gozlerim": 242,
      "malıyım": 243,
      "▁rak": 244,
      "madan": 245,
      "▁davalı": 246,
      "▁ihtilal": 247,
      "▁adamının": 248,
      "▁eastern'in": 249,
      "▁alanı": 250,
      "▁lin": 251,
      "▁simdiki": 252,
      "unu": 253,
      "▁pesinde": 254,
      "▁takv": 255,
      "▁)": 256,
      "▁ilgin": 257,
      "▁onunu": 258,
      "▁eris": 259,
      "▁olusturmak": 260,
      "▁yemeklerden": 261,
      "▁ugruna": 262,
      "▁halbu": 263,
      "▁sul": 264,
      "▁ex": 265,
      "▁savur": 266,
      "▁edilm": 267,
      "▁yaklasım": 268,
      "▁okuma": 269,
      "▁fot": 270,
      "▁zeytin": 271,
      "▁kızın": 272,
      "w": 273,
      "▁uzakti": 274,
      "▁doktorlar": 275,
      "▁aldik": 276,
      "▁toplum": 277,
      "▁ihtil": 278,
      "▁gosterebilir": 279,
      "▁taahh": 280,
      "▁millet": 281,
      "uyla": 282,
      "▁kabul": 283,
      "ge": 284,
      "▁suphe": 285,
      "▁denizci": 286,
      "▁ucurt": 287,
      "▁gas": 288,
      "▁samimiyet": 289,
      "▁chat": 290,
      "▁takılmıs": 291,
      "▁columbus'a": 292,
      "▁oyley": 293,
      "▁tavır": 294,
      "▁ellerini": 295,
      "▁otlar": 296,
      ".04": 297,
      "▁1.21": 298,
      "▁unis": 299,
      "ledigini": 300,
      "▁4.5": 301,
      "▁izledi": 302,
      "iyetle": 303,
      "▁icme": 304,
      "ır": 305,
      "ess": 306,
      "▁organ": 307,
      "duklarını": 308,
      "digince": 309,
      "form": 310,
      "▁enf": 311,
      "▁yalan": 312,
      "▁fa": 313,
      "gımız": 314,
      "▁ozenle": 315,
      "▁arkadan": 316,
      "ise": 317,
      "▁nobet": 318,
      "um": 319,
      "▁aydan": 320,
      "▁wh": 321,
      "▁depr": 322,
      "▁tane": 323,
      "▁ikiyuzkırkyedi": 324,
      "▁630": 325,
      "▁hayvanlar": 326,
      "▁oglan": 327,
      "▁renkli": 328,
      "▁toplantıs": 329,
      "▁patlat": 330,
      "ey": 331,
      "▁arkasındaki": 332,
      "▁161.5": 333,
      "▁gercek": 334,
      "▁geldiginde": 335,
      "▁=": 336,
      "▁muhareb": 337,
      "▁donald": 338,
      "▁belirterek": 339,
      "▁yanlis": 340,
      "▁seda": 341,
      "dikten": 342,
      "▁bilgis": 343,
      "▁tırn": 344,
      "▁aydınlık": 345,
      "urt": 346,
      "▁sebeb": 347,
      "▁sahibinin": 348,
      "ısız": 349,
      "emeyen": 350,
      "▁iyiye": 351,
      "▁kıdemli": 352,
      "▁kalabalıgı": 353,
      "▁sehrinden": 354,
      "▁aracları": 355,
      "▁polonya": 356,
      "una": 357,
      "▁bilgili": 358,
      "akin": 359,
      "▁66": 360,
      "▁turgut": 361,
      "▁worth'a": 362,
      "▁hayata": 363,
      "alari": 364,
      "▁bosan": 365,
      "oz": 366,
      "▁rall": 367,
      "▁numar": 368,
      "▁gittigim": 369,
      "▁avukat": 370,
      "gin": 371,
      "▁ba": 372,
      "▁dantel": 373,
      "▁kor": 374,
      "▁denizciler": 375,
      "uma": 376,
      "▁sh": 377,
      "ih": 378,
      "▁duzenley": 379,
      "▁gurult": 380,
      "▁84": 381,
      "▁performansı": 382,
      ".5": 383,
      "▁vurur": 384,
      "▁donemlerinde": 385,
      "▁hararet": 386,
      "▁kuram": 387,
      "▁arb": 388,
      "▁kr": 389,
      "▁baglantı": 390,
      "▁binaen": 391,
      "ikat": 392,
      "▁first": 393,
      "layan": 394,
      "▁muhar": 395,
      "▁vaktim": 396,
      "iyetli": 397,
      "▁tiyatr": 398,
      "▁yoneticiler": 399,
      "gune": 400,
      "▁pom": 401,
      "erk": 402,
      "▁sukun": 403,
      "▁kazanclar": 404,
      "▁teseb": 405,
      "▁kendim": 406,
      "▁ithalatı": 407,
      "▁acıga": 408,
      "▁kh": 409,
      "▁yaratıcı": 410,
      "▁ayrılıp": 411,
      "mazdı": 412,
      "▁19.9": 413,
      "▁yurutme": 414,
      "▁sav": 415,
      "▁tadına": 416,
      "▁tarlayı": 417,
      "▁yaptıgı": 418,
      "▁desen": 419,
      "▁sınıfı": 420,
      "▁doktorların": 421,
      "▁incecik": 422,
      "mektir": 423,
      "▁verilir": 424,
      "▁oldug": 425,
      "▁'li": 426,
      "'d": 427,
      "▁baktım": 428,
      "▁iciniz": 429,
      "▁analizciler": 430,
      "memektedir": 431,
      "▁koyu": 432,
      "▁tasımacılıgı": 433,
      "▁otobus": 434,
      "▁bozuk": 435,
      "▁corb": 436,
      "▁yapabilir": 437,
      "▁yıllar": 438,
      "tıklarını": 439,
      "▁onemli": 440,
      "▁psikolojik": 441,
      "▁yasarken": 442,
      "▁etstur": 443,
      "'dir": 444,
      "▁somur": 445,
      "▁vucudum": 446,
      "▁olduk": 447,
      "▁olsaydı": 448,
      "▁0.0108": 449,
      "▁beklenmedik": 450,
      "dıgından": 451,
      "▁davanın": 452,
      "▁krav": 453,
      "▁catlak": 454,
      "▁44.3": 455,
      "▁baslayacagını": 456,
      "▁durusma": 457,
      "▁iktis": 458,
      "▁firmaları": 459,
      "▁kadınları": 460,
      "▁kosu": 461,
      "▁lungur": 462,
      "▁serisi": 463,
      "▁ev": 464,
      "▁esiyle": 465,
      "▁kapıları": 466,
      "▁asf": 467,
      "▁alsın": 468,
      "ısındaki": 469,
      "▁muhalefet": 470,
      "▁seyrediyor": 471,
      "lo": 472,
      "▁43.3": 473,
      "▁uretimi": 474,
      "▁kendisini": 475,
      "▁gizli": 476,
      "▁tah": 477,
      "▁bilez": 478,
      "▁acıklayan": 479,
      "port": 480,
      "▁ekmek": 481,
      "▁hasan": 482,
      "▁angeles'e": 483,
      "▁odedi": 484,
      "▁zirv": 485,
      "▁etti": 486,
      "▁kafası": 487,
      "▁saglar": 488,
      "▁sakız": 489,
      "▁talep": 490,
      "▁sorunların": 491,
      "375": 492,
      "▁2.77": 493,
      "ilerek": 494,
      "▁helms": 495,
      "▁bayram": 496,
      "▁bolgesel": 497,
      "▁am": 498,
      "uslar": 499,
      "tıgında": 500,
      "▁kesif": 501,
      "▁kaynar": 502,
      "▁1991": 503,
      "ımız": 504,
      "▁uygulan": 505,
      "▁satır": 506,
      "▁populer": 507,
      "▁ozelligi": 508,
      "tigim": 509,
      "▁baslangıc": 510,
      "ene": 511,
      "▁kayda": 512,
      "▁isci": 513,
      "▁kagıdı": 514,
      "▁59": 515,
      "▁hatır": 516,
      "▁acmıs": 517,
      "ira": 518,
      "alt": 519,
      "▁surpriz": 520,
      "▁1.4": 521,
      "▁0.0": 522,
      "▁dunyanın": 523,
      "▁koyun": 524,
      "cılıgı": 525,
      "▁kalmıstı": 526,
      "fr": 527,
      "▁begenmedik": 528,
      "▁yos": 529,
      "▁7.25": 530,
      "meyen": 531,
      "lıktır": 532,
      "▁sırı": 533,
      "▁siyasal": 534,
      "▁sır": 535,
      "ace": 536,
      "▁soylenir": 537,
      "▁okuyup": 538,
      "▁kaynaklanan": 539,
      "uel": 540,
      "▁dususten": 541,
      "▁sorumluluk": 542,
      "▁bul": 543,
      "▁denver'e": 544,
      "▁cıp": 545,
      "▁zem": 546,
      "▁surpr": 547,
      "▁yapıstır": 548,
      "▁hastane": 549,
      "zin": 550,
      "▁rum": 551,
      "sın": 552,
      "ına": 553,
      "▁konul": 554,
      "▁dere": 555,
      "▁6.7": 556,
      "▁cocuklarının": 557,
      "▁buyumeye": 558,
      "▁yetmi": 559,
      "▁kitaplar": 560,
      "▁york'tan": 561,
      "▁$'a": 562,
      "▁kasık": 563,
      "▁zur": 564,
      "▁manevi": 565,
      "eleri": 566,
      "endi": 567,
      "▁ulasmak": 568,
      "▁475": 569,
      "sik": 570,
      "▁asistan": 571,
      "lah": 572,
      "▁sof": 573,
      "▁projeyi": 574,
      "▁baslıyor": 575,
      "▁deyince": 576,
      "menler": 577,
      "▁kurk": 578,
      "▁ekran": 579,
      "▁mes": 580,
      "▁kucuk": 581,
      "▁isleyen": 582,
      "▁ictik": 583,
      "▁;": 584,
      "▁inanıyorum": 585,
      "▁kuyum": 586,
      "undeki": 587,
      "▁senedi": 588,
      "▁niyet": 589,
      "uce": 590,
      "▁dalar": 591,
      "artesi": 592,
      "▁oncesi": 593,
      "dedildi": 594,
      "▁yurumek": 595,
      "▁buz": 596,
      "▁etmesine": 597,
      "esinden": 598,
      "ang": 599,
      "idge": 600,
      "▁gercekles": 601,
      "issiz": 602,
      "at": 603,
      "ach": 604,
      "▁milwaukee'ye": 605,
      "▁utanc": 606,
      "berg": 607,
      "▁silkin": 608,
      "▁madd": 609,
      "▁hırs": 610,
      "▁telerate": 611,
      "▁amir": 612,
      "memeye": 613,
      "▁arti": 614,
      "▁mev": 615,
      "▁yavru": 616,
      "mamıs": 617,
      "icorp": 618,
      "▁aittir": 619,
      "▁142": 620,
      "▁field'e": 621,
      "en": 622,
      "▁ılım": 623,
      "▁zorlastır": 624,
      "▁hafif": 625,
      "▁yuzme": 626,
      "memiz": 627,
      "▁sunuyor": 628,
      "▁secti": 629,
      "▁ihtiyacını": 630,
      "▁kuzey": 631,
      "▁yaptirmadim": 632,
      "▁cami": 633,
      "▁ugrasıyor": 634,
      "rol": 635,
      "▁veril": 636,
      "▁del": 637,
      "▁serit": 638,
      "▁sarılmıs": 639,
      "▁kuzu": 640,
      "▁dayak": 641,
      "▁birbirinden": 642,
      "▁gorsel": 643,
      "▁color": 644,
      "▁boston'a": 645,
      "▁ihtiyarın": 646,
      "▁tif": 647,
      "lıkla": 648,
      "ell": 649,
      "lagı": 650,
      "▁kilo": 651,
      "▁enter": 652,
      "▁direktoru": 653,
      "▁kaldıraclı": 654,
      "▁anlamıs": 655,
      "▁listesini": 656,
      "▁oykusu": 657,
      "▁eglence": 658,
      "▁california": 659,
      "▁muhal": 660,
      "▁tutum": 661,
      "0.60": 662,
      "ment": 663,
      "▁yoksun": 664,
      "▁140": 665,
      "▁anap": 666,
      "▁hem": 667,
      "au": 668,
      "aci": 669,
      "▁dagıtım": 670,
      "▁kodu": 671,
      "▁ses": 672,
      "▁yatagı": 673,
      "▁nihayet": 674,
      "▁indirdi": 675,
      "▁alf": 676,
      "▁dusunuyor": 677,
      "▁dobr": 678,
      "erken": 679,
      "▁saatini": 680,
      "inizin": 681,
      "dıkoy": 682,
      "▁ertugrul": 683,
      "▁cıkmasına": 684,
      ".875": 685,
      "cil": 686,
      "▁insanı": 687,
      "▁sekizinci": 688,
      "▁akr": 689,
      "gunden": 690,
      "▁yaklasıyor": 691,
      "▁kacırdı": 692,
      "▁14.5": 693,
      "▁toz": 694,
      "▁ozet": 695,
      "▁368": 696,
      "▁muhalleb": 697,
      "▁anda": 698,
      "▁b.": 699,
      "▁donuk": 700,
      "▁belirtir": 701,
      "▁yumur": 702,
      "▁pas": 703,
      "▁adam": 704,
      "ne": 705,
      "▁merkezine": 706,
      "madi": 707,
      "▁sırada": 708,
      "▁meydanı": 709,
      "▁konfor": 710,
      "cu": 711,
      "▁ihrac": 712,
      "▁gorundu": 713,
      "▁ucretlerini": 714,
      "▁refah": 715,
      "▁degildiler": 716,
      "▁cıkarmadan": 717,
      "▁masadan": 718,
      "▁gerekirdi": 719,
      "▁arap": 720,
      "arken": 721,
      "▁vererek": 722,
      "dıran": 723,
      "▁tecavuz": 724,
      "▁kıskanc": 725,
      "stit": 726,
      "eff": 727,
      "▁geciyordu": 728,
      "▁acıklı": 729,
      "ic'in": 730,
      "gunda": 731,
      "▁ucretler": 732,
      "▁etrafını": 733,
      "▁serk": 734,
      "▁148": 735,
      "▁tahsis": 736,
      "▁ceviri": 737,
      "▁lok": 738,
      "▁ocagı": 739,
      "▁acıkca": 740,
      "▁seyrediyordu": 741,
      "▁korun": 742,
      "zo": 743,
      "▁burhan": 744,
      "landır": 745,
      "▁gorunumu": 746,
      "▁destek": 747,
      "▁olimpiyat": 748,
      "▁750": 749,
      "ulmesi": 750,
      "▁agacın": 751,
      "erin": 752,
      "▁zihn": 753,
      "▁akan": 754,
      "▁ziy": 755,
      "▁birisi": 756,
      "▁sogan": 757,
      "'teki": 758,
      "▁basladı": 759,
      "▁bitirdi": 760,
      "▁166": 761,
      "▁10'dan": 762,
      "lanın": 763,
      "▁kabus": 764,
      "emey": 765,
      "▁data": 766,
      "ere": 767,
      "▁erit": 768,
      "▁olayı": 769,
      "▁yuf": 770,
      "▁cene": 771,
      "▁yukselen": 772,
      "▁etki": 773,
      "▁massachusetts": 774,
      "▁dunyaya": 775,
      "▁cob": 776,
      "▁agzı": 777,
      "▁uzanan": 778,
      "dirde": 779,
      "▁doc": 780,
      "▁tasır": 781,
      "▁iler": 782,
      "ayan": 783,
      "▁kasabaya": 784,
      "▁bugunun": 785,
      "▁termal": 786,
      "▁bitim": 787,
      "▁oncelik": 788,
      "▁geride": 789,
      "abilecegini": 790,
      "▁muster": 791,
      "▁guclerini": 792,
      "likler": 793,
      "tt": 794,
      "▁birimi": 795,
      "▁degismedi": 796,
      "-6": 797,
      "lebi": 798,
      "▁aradilar": 799,
      "lunun": 800,
      "▁satılık": 801,
      "▁unsur": 802,
      "imden": 803,
      "ayım": 804,
      "▁edebilir": 805,
      "▁tol": 806,
      "▁omr": 807,
      "acılara": 808,
      "▁tem": 809,
      "co": 810,
      "larıma": 811,
      "emmel": 812,
      "▁dam": 813,
      "▁cekiliyor": 814,
      "▁doktu": 815,
      "▁fabrik": 816,
      "▁hindistan": 817,
      "nik": 818,
      "▁olmasın": 819,
      "tc": 820,
      "▁odem": 821,
      "▁sistem": 822,
      "emiyor": 823,
      "▁mab": 824,
      "'ndan": 825,
      "▁bes": 826,
      "▁yatırımcının": 827,
      "▁gulumsedi": 828,
      "of": 829,
      "▁yum": 830,
      "amak": 831,
      "ligini": 832,
      "▁kapıyı": 833,
      "▁art": 834,
      "▁salonu": 835,
      "▁mevdu": 836,
      "yse": 837,
      "roit": 838,
      "ımlar": 839,
      "eceksiniz": 840,
      "ime": 841,
      "▁ink": 842,
      "dan": 843,
      "vin": 844,
      "▁merdi": 845,
      "▁tarihinde": 846,
      "▁yaralan": 847,
      "▁suret": 848,
      "▁hizmette": 849,
      "kop": 850,
      "▁cirkin": 851,
      "▁cerrah": 852,
      "ikler": 853,
      "tuk": 854,
      "▁yılını": 855,
      "▁yanakları": 856,
      "yal": 857,
      "idik": 858,
      "fır": 859,
      "▁kıskan": 860,
      "▁cansu": 861,
      "eman": 862,
      "▁agaclar": 863,
      "▁kolundan": 864,
      "iniz": 865,
      "▁'dir": 866,
      "▁gel": 867,
      "▁celebi": 868,
      "▁dibinde": 869,
      "▁meb": 870,
      "▁orgutu": 871,
      "▁penc": 872,
      "▁kal": 873,
      "unup": 874,
      "▁gorunum": 875,
      "ırıl": 876,
      "▁yemek": 877,
      "3.3": 878,
      "▁intihar": 879,
      "▁istedigimi": 880,
      "7.2": 881,
      "▁bors": 882,
      "▁fet": 883,
      "▁yaptıkları": 884,
      "▁gorustu": 885,
      "▁gecme": 886,
      "baum": 887,
      "▁alakasi": 888,
      "▁ekonomisi": 889,
      "▁munasebet": 890,
      "▁uzman": 891,
      "▁sindir": 892,
      "▁lakin": 893,
      "▁kızını": 894,
      "▁sıfır": 895,
      "▁dokun": 896,
      "ay": 897,
      "▁bicim": 898,
      "▁378": 899,
      "▁gecmiste": 900,
      "▁mudur": 901,
      "mamacasına": 902,
      "ough": 903,
      "mıyorlar": 904,
      "▁fiyatlandır": 905,
      "▁anlasmayı": 906,
      "▁atese": 907,
      "▁etmeyen": 908,
      "▁dizinin": 909,
      "▁ucsuz": 910,
      "▁kardesinin": 911,
      "▁cekilm": 912,
      "▁eseri": 913,
      "emm": 914,
      "▁kapak": 915,
      "▁bilgisi": 916,
      "▁43": 917,
      "ilme": 918,
      "dam": 919,
      "▁kolları": 920,
      "▁baslayan": 921,
      "▁huk": 922,
      "ver": 923,
      "▁benz": 924,
      "▁belinde": 925,
      "▁kapıda": 926,
      "▁duduk": 927,
      "alım": 928,
      "▁sachs": 929,
      "▁programın": 930,
      "▁1994": 931,
      "▁erede": 932,
      "▁kesme": 933,
      "▁degisimi": 934,
      "▁cisim": 935,
      "aklar": 936,
      "▁fikir": 937,
      "▁fasul": 938,
      "▁yurum": 939,
      "▁erhan": 940,
      "▁duracak": 941,
      "uvar": 942,
      "▁nis": 943,
      "▁hissedarların": 944,
      "▁sertifik": 945,
      "▁fazlası": 946,
      "▁ayag": 947,
      "▁kelimeler": 948,
      "ergah": 949,
      "▁burc": 950,
      "▁dalkavuk": 951,
      "▁kredisi": 952,
      "▁kiral": 953,
      "lk": 954,
      "▁cia": 955,
      "emezler": 956,
      "▁otur": 957,
      "▁muall": 958,
      "▁sosyalist": 959,
      "▁balik": 960,
      "▁hissettim": 961,
      "▁acaktı": 962,
      "▁gerceklesti": 963,
      "▁vazgecti": 964,
      "lem": 965,
      "▁11.5": 966,
      "▁gidebil": 967,
      "▁universite": 968,
      "tif": 969,
      "▁tech": 970,
      "▁ontario'dan": 971,
      "▁kartal": 972,
      "▁cıkıyor": 973,
      "▁tutmus": 974,
      "▁kavr": 975,
      "oru": 976,
      "er'in": 977,
      "bil": 978,
      "▁mıydım": 979,
      "▁past": 980,
      "▁f.": 981,
      "taraf": 982,
      "▁kıyas": 983,
      "dukca": 984,
      "sanın": 985,
      "▁etkileri": 986,
      "▁denil": 987,
      "▁guzel": 988,
      "kelam": 989,
      "ısıyla": 990,
      "▁fre": 991,
      "▁400000": 992,
      "▁suya": 993,
      "▁metal": 994,
      "▁mudahale": 995,
      "▁ciyak": 996,
      "▁mid": 997,
      "malarını": 998,
      "▁banyosu": 999,
      "det": 1000,
      "daki": 1001,
      "▁ilgi": 1002,
      "ı": 1003,
      "lemek": 1004,
      "▁sımsıkı": 1005,
      "▁promosyon": 1006,
      "ksen": 1007,
      "▁ual": 1008,
      "▁3554": 1009,
      "uyordu": 1010,
      "▁usx": 1011,
      "▁ucum": 1012,
      "memek": 1013,
      "▁hacmi": 1014,
      "▁yas": 1015,
      "▁inen": 1016,
      "▁beni": 1017,
      "ys": 1018,
      "55": 1019,
      "▁enerj": 1020,
      "▁dikkatini": 1021,
      "▁11:": 1022,
      "▁yasıyoruz": 1023,
      "▁okula": 1024,
      "imindan": 1025,
      "▁siyaset": 1026,
      "▁seneye": 1027,
      "▁ayrılan": 1028,
      "▁evlen": 1029,
      "▁keske": 1030,
      "▁yedi": 1031,
      "agı": 1032,
      "▁uygul": 1033,
      "▁yururken": 1034,
      "ez": 1035,
      "▁9.78": 1036,
      "dos": 1037,
      "▁ulkemiz": 1038,
      "leye": 1039,
      "▁kasten": 1040,
      "▁tac": 1041,
      "▁hepsinde": 1042,
      "▁fenerbahce": 1043,
      "▁yuzd": 1044,
      "▁canan": 1045,
      "▁biber": 1046,
      "▁tecrub": 1047,
      "▁zorun": 1048,
      "▁pilotların": 1049,
      "aff": 1050,
      "▁ressam": 1051,
      "▁say": 1052,
      "▁hastan": 1053,
      "▁alay": 1054,
      "▁securities": 1055,
      "▁bankalarındaki": 1056,
      "▁analiz": 1057,
      "▁invest": 1058,
      "▁isterseniz": 1059,
      "▁vaat": 1060,
      "▁vizyon": 1061,
      "▁kadar": 1062,
      "▁%9": 1063,
      "▁baslangıcta": 1064,
      "▁ajansı": 1065,
      "▁dagın": 1066,
      "▁geregi": 1067,
      "▁6.2": 1068,
      "▁1995'te": 1069,
      "▁bufe": 1070,
      "res": 1071,
      "▁dolas": 1072,
      "▁tahm": 1073,
      "▁istedi": 1074,
      "▁kararlı": 1075,
      "▁1\\/": 1076,
      "emizde": 1077,
      "ili": 1078,
      "▁gorur": 1079,
      "muz": 1080,
      "ond": 1081,
      "▁inerek": 1082,
      "▁avrupalı": 1083,
      "▁izin": 1084,
      "▁hareketle": 1085,
      "▁tahk": 1086,
      "▁seyden": 1087,
      "▁dururdu": 1088,
      "▁kahvalt": 1089,
      "▁girdiler": 1090,
      "▁giyin": 1091,
      "▁onların": 1092,
      "kti": 1093,
      "▁hesabı": 1094,
      "alamak": 1095,
      "▁gelmeye": 1096,
      "▁babam": 1097,
      "▁mcc": 1098,
      "▁hilmi": 1099,
      "iz": 1100,
      "▁cokus": 1101,
      "▁1648": 1102,
      "▁cadır": 1103,
      "▁gordun": 1104,
      "▁alısık": 1105,
      "akıllı": 1106,
      "▁gelirken": 1107,
      "usuz": 1108,
      "▁karsilama": 1109,
      "▁170": 1110,
      "300": 1111,
      "▁kadife": 1112,
      "▁kopegi": 1113,
      "but": 1114,
      "▁gorunt": 1115,
      "▁andan": 1116,
      "▁sa": 1117,
      "▁1936": 1118,
      "▁1989-8": 1119,
      "▁ken": 1120,
      "▁a": 1121,
      "▁durumuna": 1122,
      "▁basımda": 1123,
      "ide": 1124,
      "▁senaryo": 1125,
      "▁elimizde": 1126,
      "unun": 1127,
      "▁goturecek": 1128,
      "▁&": 1129,
      "▁goz": 1130,
      "▁atesten": 1131,
      "▁must": 1132,
      "▁imz": 1133,
      "▁bazi": 1134,
      "▁kayık": 1135,
      "▁odası": 1136,
      "▁tuzlu": 1137,
      "gulu": 1138,
      "▁sabah": 1139,
      "ation": 1140,
      "▁evini": 1141,
      "▁damar": 1142,
      "▁gormedi": 1143,
      "▁ispanya": 1144,
      "▁birbiriyle": 1145,
      "▁oh": 1146,
      "▁bıyık": 1147,
      "iligini": 1148,
      "egas": 1149,
      "▁kazancları": 1150,
      "▁calisanlarin": 1151,
      "▁0.95": 1152,
      "▁piyasalarda": 1153,
      "▁kirlilik": 1154,
      "▁etmeyi": 1155,
      "▁operasyon": 1156,
      "▁bitki": 1157,
      "▁213": 1158,
      "▁temettu": 1159,
      "asur": 1160,
      "▁oldurmek": 1161,
      "▁dusunul": 1162,
      "baz": 1163,
      "▁cık": 1164,
      "duler": 1165,
      "▁gom": 1166,
      "iyla": 1167,
      "▁suat": 1168,
      "omur": 1169,
      "▁cogunlugu": 1170,
      "▁pc": 1171,
      "▁pismis": 1172,
      "▁yasına": 1173,
      "▁warner": 1174,
      "▁incelen": 1175,
      "tan": 1176,
      "▁266": 1177,
      "▁bus": 1178,
      "▁kavus": 1179,
      "▁uykusuz": 1180,
      "▁karsiligini": 1181,
      "▁2.73": 1182,
      "▁q": 1183,
      "uyorlardı": 1184,
      "▁varmak": 1185,
      "olojik": 1186,
      "▁def": 1187,
      "▁verilen": 1188,
      "▁sultan": 1189,
      "igim": 1190,
      "lenin": 1191,
      "▁ogrendi": 1192,
      "▁beyz": 1193,
      "ırım": 1194,
      "▁rab": 1195,
      "1.7": 1196,
      "▁karsılan": 1197,
      "▁turizm": 1198,
      "▁mukad": 1199,
      "▁gozlerle": 1200,
      "abilirdi": 1201,
      "▁taksit": 1202,
      "juv": 1203,
      "▁cevresel": 1204,
      "bs": 1205,
      "▁sınırlarını": 1206,
      "▁yorgunluk": 1207,
      "▁bolumu": 1208,
      "▁fiyatlarını": 1209,
      "▁tanım": 1210,
      "▁gununun": 1211,
      "▁bakimsiz": 1212,
      "emeyecek": 1213,
      "▁savunma": 1214,
      "▁video": 1215,
      "▁ucusu": 1216,
      "▁kurut": 1217,
      "▁vermis": 1218,
      "olik": 1219,
      "▁oranda": 1220,
      "▁204": 1221,
      "▁olan": 1222,
      "ecekler": 1223,
      "▁hut": 1224,
      "▁izler": 1225,
      "▁sular": 1226,
      "irleri": 1227,
      "▁kiralama": 1228,
      "▁charlotte'ye": 1229,
      "▁yaptıg": 1230,
      "▁%51": 1231,
      "▁?": 1232,
      "▁gidiyorum": 1233,
      "oglan": 1234,
      "▁kontrolunu": 1235,
      "▁sıkıntı": 1236,
      "▁karton": 1237,
      "▁asırı": 1238,
      "zal": 1239,
      "▁avans": 1240,
      "▁olasılıkla": 1241,
      "▁kalmıstır": 1242,
      "▁aramak": 1243,
      "▁sanız": 1244,
      "has": 1245,
      "▁atan": 1246,
      "▁sessizce": 1247,
      "▁4.92": 1248,
      "▁50000": 1249,
      "▁dusuruyor": 1250,
      "▁fiyatlarının": 1251,
      "▁gitmez": 1252,
      "▁milliyet": 1253,
      "2.91": 1254,
      "▁kanalı": 1255,
      "lebilir": 1256,
      "▁duruyorlar": 1257,
      "▁sekl": 1258,
      "▁bogaz": 1259,
      "▁dusmanı": 1260,
      "▁nisp": 1261,
      "▁odalari": 1262,
      "▁mahal": 1263,
      "▁oyleyse": 1264,
      "▁18": 1265,
      "▁evlat": 1266,
      "▁once": 1267,
      "▁komisyonları": 1268,
      "▁soyledi": 1269,
      "▁harman": 1270,
      "▁samim": 1271,
      "▁cif": 1272,
      "▁sende": 1273,
      "▁%30": 1274,
      "▁entar": 1275,
      "▁alıyorlar": 1276,
      "▁eklendi": 1277,
      "▁kazandı": 1278,
      "acaksınız": 1279,
      "▁cekistir": 1280,
      "▁ten": 1281,
      "ersiz": 1282,
      "▁2.23": 1283,
      "▁zavallı": 1284,
      "▁olaganustu": 1285,
      "lesiyor": 1286,
      "▁ortu": 1287,
      "eli": 1288,
      "musum": 1289,
      "▁birtak": 1290,
      "▁yasa": 1291,
      "lif": 1292,
      "▁sınıflandır": 1293,
      "casına": 1294,
      "▁fat": 1295,
      "▁rıza": 1296,
      "▁surec": 1297,
      "-merkez": 1298,
      "▁hepsinden": 1299,
      "ter": 1300,
      "▁baslamak": 1301,
      "▁376": 1302,
      "elleb": 1303,
      "▁oakland'a": 1304,
      "▁sand": 1305,
      "▁sk": 1306,
      "▁17": 1307,
      "rken": 1308,
      "▁parcalar": 1309,
      "▁kalkıp": 1310,
      "▁31": 1311,
      "▁sahan": 1312,
      "▁kil": 1313,
      "▁wil": 1314,
      "▁piyasasında": 1315,
      "▁olsun": 1316,
      "▁olaydan": 1317,
      "▁12": 1318,
      "▁ren": 1319,
      "▁hanimdi": 1320,
      "▁kestir": 1321,
      "▁gosterecek": 1322,
      "▁akp": 1323,
      "▁limuzin": 1324,
      "▁giydir": 1325,
      "▁basketbol": 1326,
      "abını": 1327,
      "00": 1328,
      "▁kaleci": 1329,
      "ilebilir": 1330,
      "▁satıs": 1331,
      "liginden": 1332,
      "dag": 1333,
      "bucuk": 1334,
      "▁bolumunu": 1335,
      "▁kısı": 1336,
      "▁kambur": 1337,
      "▁haftaya": 1338,
      "▁insallah": 1339,
      "ılas": 1340,
      "▁loc": 1341,
      "▁muhtelif": 1342,
      "▁kardesi": 1343,
      "▁baklav": 1344,
      "acagını": 1345,
      "▁bin": 1346,
      "▁korkutucu": 1347,
      "▁zaman": 1348,
      "▁city": 1349,
      "▁dov": 1350,
      "▁lam": 1351,
      "▁uzlas": 1352,
      "▁gezi": 1353,
      "▁doldur": 1354,
      "▁maliyet": 1355,
      "▁bozul": 1356,
      "▁duyurdu": 1357,
      "▁ikisi": 1358,
      "altı": 1359,
      "▁pisir": 1360,
      "▁sevk": 1361,
      "fet": 1362,
      "▁sor": 1363,
      "▁dusundu": 1364,
      "▁683": 1365,
      "▁sayg": 1366,
      "▁esyalar": 1367,
      "radı": 1368,
      "▁degin": 1369,
      "▁8.1": 1370,
      "pıs": 1371,
      "▁isken": 1372,
      "▁manhattan": 1373,
      "▁kırıldı": 1374,
      "▁vol": 1375,
      "▁alabilir": 1376,
      "▁anlıslanabilirlik": 1377,
      "▁havalimanı'nda": 1378,
      "▁bahadir": 1379,
      "▁iktisat": 1380,
      "ılım": 1381,
      "▁har": 1382,
      "mede": 1383,
      "edin": 1384,
      "▁tır": 1385,
      "▁rezervasyonu": 1386,
      "▁otomobiller": 1387,
      "▁lob": 1388,
      "▁pozit": 1389,
      "▁cift": 1390,
      "tek": 1391,
      "▁tabidir": 1392,
      "▁acmayı": 1393,
      "▁gelenek": 1394,
      "▁azami": 1395,
      "▁ili": 1396,
      "▁futbol": 1397,
      "▁burnun": 1398,
      ".08": 1399,
      "▁ayagını": 1400,
      "0": 1401,
      "▁kesin": 1402,
      "▁baz": 1403,
      "▁ip": 1404,
      "▁turlar": 1405,
      "ilya": 1406,
      "▁dar": 1407,
      "▁fabrikayı": 1408,
      "▁yarar": 1409,
      "▁onayladı": 1410,
      "▁gelmiyor": 1411,
      ".66": 1412,
      "ogret": 1413,
      "▁12:": 1414,
      "▁uc": 1415,
      "alet": 1416,
      "fez": 1417,
      "elenmis": 1418,
      "▁sokagın": 1419,
      "▁sar": 1420,
      "▁yaptıgım": 1421,
      "▁kadın": 1422,
      "▁%4.8": 1423,
      "guzel": 1424,
      "▁devrimci": 1425,
      "▁kalkan": 1426,
      "▁batılı": 1427,
      "▁ticari": 1428,
      "pa": 1429,
      "▁h": 1430,
      "▁iyi": 1431,
      "iel": 1432,
      "▁saclı": 1433,
      "ayı": 1434,
      "▁ici": 1435,
      "emez": 1436,
      "▁neh": 1437,
      "▁cesur": 1438,
      "att": 1439,
      "▁rezalet": 1440,
      "▁teneke": 1441,
      "▁grand": 1442,
      "▁luft": 1443,
      "▁kans": 1444,
      "▁tanesi": 1445,
      "caktır": 1446,
      "eber": 1447,
      "baskan": 1448,
      "▁dayan": 1449,
      "▁inter": 1450,
      "ye": 1451,
      "ebiliriz": 1452,
      "▁saglık": 1453,
      "▁mesaj": 1454,
      "▁0.9": 1455,
      "▁bizler": 1456,
      "sık": 1457,
      "ade": 1458,
      "8": 1459,
      "▁evvela": 1460,
      "▁esim": 1461,
      "▁getirebilir": 1462,
      "▁olunca": 1463,
      "▁ingil": 1464,
      "▁saban": 1465,
      "▁gitmedim": 1466,
      "'y": 1467,
      "ıklar": 1468,
      "yen": 1469,
      "▁emir": 1470,
      "▁a.": 1471,
      "▁ceket": 1472,
      "▁direktor": 1473,
      "▁basak": 1474,
      "'ne": 1475,
      "sinden": 1476,
      "▁onundeki": 1477,
      "▁anlıs": 1478,
      "▁nav": 1479,
      "▁kov": 1480,
      "▁hizmet": 1481,
      "▁kapıya": 1482,
      "▁199": 1483,
      "▁indianapolis'e": 1484,
      "▁final": 1485,
      "▁t": 1486,
      "▁denli": 1487,
      "▁doneme": 1488,
      "▁gormustum": 1489,
      "▁ortam": 1490,
      "▁kaymakam": 1491,
      "▁hok": 1492,
      "14": 1493,
      "▁176": 1494,
      "▁ısıklı": 1495,
      "hos": 1496,
      "▁bagımsız": 1497,
      "▁boston'da": 1498,
      "▁onemi": 1499,
      "▁bosal": 1500,
      "tıcı": 1501,
      "icilerin": 1502,
      "▁sarar": 1503,
      "2": 1504,
      "▁havuzlar": 1505,
      "cakt": 1506,
      "”": 1507,
      "tıgını": 1508,
      "say": 1509,
      "▁program": 1510,
      "▁onerdi": 1511,
      "▁mobilyalar": 1512,
      "▁cikmadi": 1513,
      "mem": 1514,
      "▁yansıt": 1515,
      "▁taz": 1516,
      "▁uyar": 1517,
      "▁seyret": 1518,
      "sinin": 1519,
      "▁1979": 1520,
      "▁ailece": 1521,
      "dası": 1522,
      "▁ediliyor": 1523,
      "▁cer": 1524,
      "▁sayıda": 1525,
      "▁sadakat": 1526,
      "ogram": 1527,
      "▁38.50": 1528,
      "▁puanlama": 1529,
      "▁piyasanın": 1530,
      "▁ets": 1531,
      "cisi": 1532,
      "▁hewlett": 1533,
      "▁bilgil": 1534,
      "▁dusunuyorum": 1535,
      "▁arastırmalar": 1536,
      "▁pesinden": 1537,
      "▁8.32": 1538,
      "▁yonde": 1539,
      "▁karam": 1540,
      "ilip": 1541,
      "▁icecekleri": 1542,
      "▁yoluna": 1543,
      "▁oncelikle": 1544,
      "▁umit": 1545,
      "▁kuyruk": 1546,
      "▁baskal": 1547,
      "▁gonlunu": 1548,
      "▁ceng": 1549,
      "▁niss": 1550,
      "amayacagını": 1551,
      "▁rutubet": 1552,
      "denin": 1553,
      "▁acent": 1554,
      "▁gundur": 1555,
      "▁48": 1556,
      "▁103": 1557,
      "▁ifsa": 1558,
      "▁dok": 1559,
      "ydı": 1560,
      "▁belgeler": 1561,
      "▁malı": 1562,
      "▁kahval": 1563,
      "▁coc": 1564,
      "fi": 1565,
      "6.7": 1566,
      "iri": 1567,
      "▁konforlu": 1568,
      "leyip": 1569,
      "▁olmasa": 1570,
      "▁esi": 1571,
      "▁deri": 1572,
      "▁yukum": 1573,
      "▁1.79": 1574,
      "▁civ": 1575,
      "▁babama": 1576,
      "▁bitmis": 1577,
      "▁edecekti": 1578,
      "▁rehberlik": 1579,
      "▁kahvenin": 1580,
      "▁kalanlar": 1581,
      "▁newark": 1582,
      "▁ruzgarı": 1583,
      "▁mecmu": 1584,
      "▁tic": 1585,
      "▁muhabbet": 1586,
      "▁jet": 1587,
      "langıc": 1588,
      "▁enflasyonun": 1589,
      "▁real": 1590,
      "ucak": 1591,
      "▁mavi": 1592,
      "▁26.23": 1593,
      "▁arbitraj": 1594,
      "lasarak": 1595,
      "▁geri": 1596,
      "▁duyarl": 1597,
      "▁yat": 1598,
      "▁haket": 1599,
      "arında": 1600,
      "▁pilotlar": 1601,
      "▁105": 1602,
      "▁topa": 1603,
      "▁parki": 1604,
      "▁bindokuzyuzotuz": 1605,
      "▁il": 1606,
      "▁fırsatı": 1607,
      "▁icindeydi": 1608,
      "lık": 1609,
      "lardir": 1610,
      "▁hanımı": 1611,
      "▁bilimin": 1612,
      "▁kusak": 1613,
      "▁gazel": 1614,
      "▁kamyon": 1615,
      "▁kalmıyor": 1616,
      "▁devleti": 1617,
      "▁emperyal": 1618,
      "itte": 1619,
      "unlu": 1620,
      "▁dinam": 1621,
      "▁yasındaki": 1622,
      "dern": 1623,
      "▁dunyası": 1624,
      "▁erzurum": 1625,
      "uzları": 1626,
      "▁pah": 1627,
      "▁yılmaz": 1628,
      "ıyorum": 1629,
      ".78": 1630,
      "iyas": 1631,
      "▁ucyuz": 1632,
      "▁odeyecek": 1633,
      "▁sez": 1634,
      "▁burus": 1635,
      "▁can": 1636,
      "▁tıkır": 1637,
      "▁oteldi": 1638,
      "eller": 1639,
      "ski": 1640,
      "▁cekerdi": 1641,
      "▁koylu": 1642,
      "▁nezaket": 1643,
      "▁cın": 1644,
      "▁950": 1645,
      "erson": 1646,
      "▁bununla": 1647,
      "▁kost": 1648,
      "dek": 1649,
      "▁ellerinde": 1650,
      "bre": 1651,
      "tap": 1652,
      "▁inan": 1653,
      "▁r.": 1654,
      "gis": 1655,
      "▁yavuz": 1656,
      "'de": 1657,
      "ılıgında": 1658,
      "▁ima": 1659,
      "▁derece": 1660,
      "▁urun": 1661,
      "▁quebec": 1662,
      ".80": 1663,
      "▁tuketiciler": 1664,
      "▁hissesini": 1665,
      "▁yolu": 1666,
      "▁doldurdu": 1667,
      "▁tabur": 1668,
      "ayi": 1669,
      "▁bakanlıgı'nın": 1670,
      "▁komite": 1671,
      "ecen": 1672,
      "▁latif": 1673,
      "▁korku": 1674,
      "iza": 1675,
      "▁indir": 1676,
      "acıların": 1677,
      "▁westinghouse": 1678,
      "▁nokta": 1679,
      "▁bulunmaktadır": 1680,
      "▁gorusmeler": 1681,
      "umuzun": 1682,
      "▁gidis": 1683,
      "ısık": 1684,
      "▁trilyon": 1685,
      "▁5\\/8": 1686,
      "4.7": 1687,
      "▁1.52": 1688,
      "▁sadece": 1689,
      "▁cekip": 1690,
      "▁desteklen": 1691,
      "▁bekliyorum": 1692,
      "▁ihracları": 1693,
      "▁islam": 1694,
      "anci": 1695,
      "▁agacların": 1696,
      "▁golg": 1697,
      "▁cenaz": 1698,
      "gusu": 1699,
      "▁dib": 1700,
      "▁suruk": 1701,
      "▁reding": 1702,
      "leme": 1703,
      "▁editor": 1704,
      "▁yiyor": 1705,
      "▁sun": 1706,
      "▁7.1": 1707,
      "9.7": 1708,
      "▁piyango": 1709,
      "▁arkasını": 1710,
      "as": 1711,
      "▁kararsizim": 1712,
      "dirdi": 1713,
      "▁iktidara": 1714,
      "▁1/2": 1715,
      "▁29.6": 1716,
      "▁raporu": 1717,
      "▁benimle": 1718,
      "▁fig": 1719,
      "sinde": 1720,
      "▁burası": 1721,
      "▁sandıgı": 1722,
      "ilmez": 1723,
      "agın": 1724,
      "▁ucusların": 1725,
      "▁amc": 1726,
      "▁paralel": 1727,
      "▁sıcaktan": 1728,
      "▁enstitusu": 1729,
      "apark": 1730,
      "jektif": 1731,
      "▁karabiber": 1732,
      "▁kendisi": 1733,
      "▁kandil": 1734,
      "▁mr.": 1735,
      "▁gerektigini": 1736,
      "▁18.65": 1737,
      "▁etkinlikler": 1738,
      "▁peki": 1739,
      "▁bası": 1740,
      "▁calısacak": 1741,
      "▁veren": 1742,
      "▁kapsam": 1743,
      "▁tahvili": 1744,
      "ento": 1745,
      "▁anlattım": 1746,
      "▁baslar": 1747,
      "▁fener": 1748,
      "▁chp": 1749,
      "▁talebin": 1750,
      "▁tex": 1751,
      "▁dimdik": 1752,
      "▁kesintiler": 1753,
      "temiz": 1754,
      "▁oakland": 1755,
      "ray": 1756,
      "▁hakediyor": 1757,
      "▁medeniyet": 1758,
      "mak": 1759,
      "▁vazif": 1760,
      "▁nisan'da": 1761,
      "▁dolasıp": 1762,
      "▁mıydık": 1763,
      "▁ilisk": 1764,
      "▁edilebilir": 1765,
      "▁pat": 1766,
      "▁hew": 1767,
      "▁duvarın": 1768,
      "▁bogazici": 1769,
      "▁meyve": 1770,
      "batı": 1771,
      "▁ertesi": 1772,
      "▁vuc": 1773,
      "▁kimseyi": 1774,
      "▁herif": 1775,
      "leyecek": 1776,
      "▁etmisler": 1777,
      "digimi": 1778,
      "▁bildirildi": 1779,
      "▁deg": 1780,
      "▁3.7": 1781,
      "▁corp.'un": 1782,
      "madım": 1783,
      "38": 1784,
      "web": 1785,
      "▁aradi": 1786,
      "▁istediler": 1787,
      "yalı": 1788,
      "▁hollanda": 1789,
      "▁tırman": 1790,
      "▁dolarına": 1791,
      "▁oakland'dan": 1792,
      "▁roman": 1793,
      "▁islemlerin": 1794,
      "▁yaptı": 1795,
      "▁alıyordu": 1796,
      "▁futbolcu": 1797,
      "▁155": 1798,
      "▁topluma": 1799,
      "ilmisti": 1800,
      "▁prensip": 1801,
      "▁musta": 1802,
      "▁meydan": 1803,
      "▁minder": 1804,
      "▁esyaları": 1805,
      "▁isletmeler": 1806,
      "▁faktor": 1807,
      "▁endise": 1808,
      "▁ol": 1809,
      "▁devlet": 1810,
      "▁mahkemede": 1811,
      "▁stanley": 1812,
      "▁tesh": 1813,
      "▁tav": 1814,
      "▁03:25": 1815,
      "▁yapmaktadır": 1816,
      "▁secmek": 1817,
      "iyeti": 1818,
      "▁tıpkı": 1819,
      "ano": 1820,
      "▁yanında": 1821,
      "▁cografya": 1822,
      "▁kisiler": 1823,
      "▁palt": 1824,
      "▁kavg": 1825,
      "▁hurr": 1826,
      "▁mez": 1827,
      "▁uygundu": 1828,
      "▁evet": 1829,
      "▁tenha": 1830,
      "\\": 1831,
      "▁telgraf": 1832,
      "▁mahkeme": 1833,
      "▁zinc": 1834,
      "▁kahveci": 1835,
      "alas": 1836,
      "yas": 1837,
      "▁toronto'dan": 1838,
      "▁ask": 1839,
      "▁yasanan": 1840,
      "▁mitchell": 1841,
      "▁toplam": 1842,
      "▁kızdır": 1843,
      "▁cana": 1844,
      "▁sikinti": 1845,
      "▁dan": 1846,
      "lasıyor": 1847,
      "▁hasta": 1848,
      "▁yuzlu": 1849,
      "▁dıs": 1850,
      "▁delta": 1851,
      "ot": 1852,
      "▁baslaması": 1853,
      "▁hay": 1854,
      "▁tesisleri": 1855,
      "▁pudra": 1856,
      "▁sepet": 1857,
      "cısı": 1858,
      "▁amac": 1859,
      "▁stu": 1860,
      "▁toparlanma": 1861,
      "▁sit": 1862,
      "▁yardımcısıydı": 1863,
      "▁davran": 1864,
      "▁dag": 1865,
      "▁puruz": 1866,
      "▁atık": 1867,
      "▁konusma": 1868,
      "▁yemekler": 1869,
      ":0": 1870,
      "▁at": 1871,
      "▁edemey": 1872,
      "arası": 1873,
      "▁imam": 1874,
      "▁neyi": 1875,
      "▁kend": 1876,
      "▁saldırgan": 1877,
      "▁havuz": 1878,
      "kun": 1879,
      "par": 1880,
      "▁saray'ın": 1881,
      "▁olcu": 1882,
      "▁mahmut": 1883,
      "▁bilinc": 1884,
      "▁teras": 1885,
      "▁tahta": 1886,
      "▁proje": 1887,
      "3'e": 1888,
      "▁hissede": 1889,
      "▁seyi": 1890,
      "yiz": 1891,
      "▁edici": 1892,
      "ılıgını": 1893,
      "tıga": 1894,
      "madim": 1895,
      "tlar": 1896,
      "▁cıkarmıs": 1897,
      "acısı": 1898,
      "▁detroit": 1899,
      "▁dip": 1900,
      ".07": 1901,
      "▁(": 1902,
      "▁rey": 1903,
      "▁gunune": 1904,
      "▁mixte": 1905,
      "▁vas": 1906,
      "▁ediyorum": 1907,
      "▁orman": 1908,
      ".625": 1909,
      "▁89": 1910,
      "agımı": 1911,
      "▁kerp": 1912,
      "▁makam": 1913,
      "▁seyir": 1914,
      "erek": 1915,
      "▁sutu": 1916,
      "▁sapk": 1917,
      "▁tutan": 1918,
      "ısıl": 1919,
      "▁tesiste": 1920,
      "▁babasından": 1921,
      "▁urkut": 1922,
      "▁102.06": 1923,
      "▁reklamlar": 1924,
      "▁ote": 1925,
      "maların": 1926,
      "▁cebinden": 1927,
      "op": 1928,
      "▁yuvarlak": 1929,
      "▁koruma": 1930,
      "▁cıkması": 1931,
      "▁mans": 1932,
      "an'ın": 1933,
      "▁sistemini": 1934,
      "▁ceph": 1935,
      "▁varlık": 1936,
      "▁v": 1937,
      "kırk": 1938,
      "▁kesik": 1939,
      "tıgına": 1940,
      "▁fulton": 1941,
      "masında": 1942,
      "▁ansik": 1943,
      "▁dokuz": 1944,
      "▁25.96": 1945,
      "ilmesine": 1946,
      "▁studyo": 1947,
      "▁makinesi": 1948,
      "▁baglan": 1949,
      "▁zapt": 1950,
      "▁tesek": 1951,
      "▁aylarında": 1952,
      "▁fed": 1953,
      "▁seattle'den": 1954,
      "▁'dı": 1955,
      "▁kocası": 1956,
      "ın": 1957,
      "▁ihmal": 1958,
      "▁%5": 1959,
      "▁cezb": 1960,
      "ale": 1961,
      "iger": 1962,
      "▁kazanmak": 1963,
      "▁ayrica": 1964,
      "in'in": 1965,
      "▁gectiler": 1966,
      "▁sahis": 1967,
      "▁yaptir": 1968,
      "▁201": 1969,
      "▁tesaduf": 1970,
      "▁baykal": 1971,
      "▁acakt": 1972,
      "▁cıkarıyor": 1973,
      "▁vec": 1974,
      "▁dede": 1975,
      "▁bilmiyordu": 1976,
      "alak": 1977,
      "▁listelenen": 1978,
      "fer": 1979,
      "▁10.625": 1980,
      "itraj": 1981,
      "▁gecenin": 1982,
      "asu": 1983,
      "▁kef": 1984,
      "▁%13": 1985,
      "▁jac": 1986,
      "eginden": 1987,
      "▁oynuyor": 1988,
      "▁jandarma": 1989,
      "▁0.31": 1990,
      "▁tep": 1991,
      "▁izleyen": 1992,
      "▁denver'den": 1993,
      "▁isbirligi": 1994,
      "ari": 1995,
      "▁ii": 1996,
      "▁tavr": 1997,
      "▁fiyatını": 1998,
      "▁topluluk": 1999,
      "bası": 2000,
      "▁imis": 2001,
      "▁zamanı": 2002,
      "▁hizmete": 2003,
      "▁taraftar": 2004,
      "▁umur": 2005,
      "ait": 2006,
      "▁sendika": 2007,
      "▁yazısı": 2008,
      "▁vesik": 2009,
      "▁iliskisi": 2010,
      "▁suclu": 2011,
      "▁fac": 2012,
      "ebilir": 2013,
      "▁yemegi": 2014,
      "▁ayrılmak": 2015,
      "▁grubunun": 2016,
      "▁guvert": 2017,
      "▁tamamen": 2018,
      "▁herhal": 2019,
      "▁ayrıntı": 2020,
      ".3": 2021,
      "bin": 2022,
      "▁sebze": 2023,
      "▁194": 2024,
      "▁herkese": 2025,
      "▁bakıyorum": 2026,
      "▁kendisin": 2027,
      "7.9": 2028,
      "▁ucer": 2029,
      "▁derken": 2030,
      "▁fıskır": 2031,
      ".39": 2032,
      "eyt": 2033,
      "▁anadolu": 2034,
      "▁obu": 2035,
      "▁karıstı": 2036,
      "▁ilgilendiler": 2037,
      "▁nar": 2038,
      "▁yorum": 2039,
      "▁istemek": 2040,
      "▁kuc": 2041,
      "esil": 2042,
      "▁pist": 2043,
      "▁icerisinde": 2044,
      "▁boyutu": 2045,
      "siyonu": 2046,
      "▁tasıdı": 2047,
      "▁ulkede": 2048,
      "oy": 2049,
      "mislerdir": 2050,
      "▁panik": 2051,
      "▁kumsali": 2052,
      "▁dostlar": 2053,
      "cılar": 2054,
      "▁lal": 2055,
      "ba": 2056,
      "▁kızım": 2057,
      "▁fiyata": 2058,
      "▁birey": 2059,
      "▁recet": 2060,
      "(": 2061,
      "▁6.31": 2062,
      "▁piyano": 2063,
      "▁amr": 2064,
      "▁bine": 2065,
      "▁phoenix'den": 2066,
      "▁cah": 2067,
      "ri": 2068,
      "set": 2069,
      "▁album": 2070,
      "▁kocaman": 2071,
      "▁mangal": 2072,
      "▁helmsley": 2073,
      "▁dagıtır": 2074,
      "96": 2075,
      "▁yogurt": 2076,
      "▁esv": 2077,
      "iden": 2078,
      "▁141.70": 2079,
      "▁dolardı": 2080,
      "▁ederler": 2081,
      "ific": 2082,
      "▁okullar": 2083,
      "▁dusuyor": 2084,
      "▁veyahut": 2085,
      "▁kartı": 2086,
      "▁kadınlara": 2087,
      "▁ederken": 2088,
      "enz": 2089,
      "▁oldugumuz": 2090,
      "▁montreal'dan": 2091,
      "▁chicago'dan": 2092,
      "lardaki": 2093,
      "▁balta": 2094,
      "▁sik": 2095,
      "▁karsilamadi": 2096,
      "▁bosa": 2097,
      "▁ucusuna": 2098,
      "▁hedefleri": 2099,
      "▁yapamam": 2100,
      "▁iskele": 2101,
      "▁dow": 2102,
      "▁parıl": 2103,
      "▁isg": 2104,
      "▁cograf": 2105,
      "▁6.000": 2106,
      "▁vermeye": 2107,
      "▁sevimli": 2108,
      "▁97": 2109,
      "▁gıldır": 2110,
      "sur": 2111,
      "▁vurus": 2112,
      "▁univers": 2113,
      "iski": 2114,
      "▁ruzg": 2115,
      "▁onder": 2116,
      "▁belirtildi": 2117,
      "▁cogunun": 2118,
      "▁2.79": 2119,
      "▁darbe": 2120,
      "▁kle": 2121,
      "▁mevzuat": 2122,
      "▁san": 2123,
      "▁ortusu": 2124,
      "▁bulamıyor": 2125,
      "▁denizde": 2126,
      "▁u": 2127,
      "▁gram": 2128,
      "▁kimya": 2129,
      "▁2002": 2130,
      "▁billur": 2131,
      "lenip": 2132,
      "▁mccaw": 2133,
      "▁giden": 2134,
      "▁babanın": 2135,
      "▁milyondan": 2136,
      "▁havlular": 2137,
      "▁gelmis": 2138,
      "lasması": 2139,
      "▁avuk": 2140,
      "▁turkiye'yi": 2141,
      "▁hol": 2142,
      "▁sozcu": 2143,
      "▁surun": 2144,
      "▁erdir": 2145,
      "gam": 2146,
      "▁dikkat": 2147,
      "▁iste": 2148,
      "yeni": 2149,
      "manız": 2150,
      "▁kızlarla": 2151,
      "▁duzenlen": 2152,
      "▁mesa": 2153,
      "▁teskil": 2154,
      "▁kurek": 2155,
      "malar": 2156,
      "▁eb": 2157,
      "▁nereye": 2158,
      "▁dinlen": 2159,
      "▁neleri": 2160,
      "▁emanet": 2161,
      "@": 2162,
      "77": 2163,
      "▁1'den": 2164,
      "▁haps": 2165,
      "▁yargıl": 2166,
      "▁gene": 2167,
      "▁mart'ta": 2168,
      "▁gelistirmek": 2169,
      "▁milyardan": 2170,
      "▁sure": 2171,
      "▁4.3": 2172,
      "▁taahhut": 2173,
      "uter": 2174,
      "▁cıkar": 2175,
      "'in": 2176,
      "▁gon": 2177,
      "bay": 2178,
      "▁aslına": 2179,
      "▁isaret": 2180,
      "istler": 2181,
      "▁ucyuzyetmis": 2182,
      "▁duyar": 2183,
      "▁kimseler": 2184,
      "▁yapacagız": 2185,
      "▁tarafsız": 2186,
      "ukee": 2187,
      "▁birimizin": 2188,
      "▁45": 2189,
      "▁4.2": 2190,
      "▁kolaylastır": 2191,
      "bat": 2192,
      "▁ayrıldı": 2193,
      "▁40": 2194,
      "▁yaprakları": 2195,
      "▁kahvalti": 2196,
      "meye": 2197,
      "▁huzun": 2198,
      "▁ıs": 2199,
      "▁fikirler": 2200,
      "▁personelin": 2201,
      "▁seyr": 2202,
      "atmıs": 2203,
      "isinin": 2204,
      "▁fısır": 2205,
      "bus": 2206,
      "▁yetersizligi": 2207,
      "▁koy": 2208,
      "▁yaptim": 2209,
      "▁cincinnati": 2210,
      "▁amacı": 2211,
      "▁serp": 2212,
      "▁arabası": 2213,
      "dir": 2214,
      "ino": 2215,
      "▁alısver": 2216,
      "▁cogumuz": 2217,
      "▁intik": 2218,
      "▁kahverengi": 2219,
      "▁gunun": 2220,
      "▁kemer": 2221,
      "▁ortal": 2222,
      "▁hadis": 2223,
      "▁ciddi": 2224,
      "▁kurumlar": 2225,
      "bas": 2226,
      "lıgım": 2227,
      "▁akdeniz": 2228,
      "ezz": 2229,
      "▁imparatorlugu": 2230,
      "▁soyles": 2231,
      "▁pabuc": 2232,
      "oj": 2233,
      "▁insanları": 2234,
      "liligini": 2235,
      "▁1.11": 2236,
      "siyon": 2237,
      "▁35587": 2238,
      "▁sokaklarda": 2239,
      "▁bahset": 2240,
      "▁gelismeler": 2241,
      "▁hicbir": 2242,
      "▁1981": 2243,
      "▁kıdem": 2244,
      "▁gid": 2245,
      "ow": 2246,
      "ilmek": 2247,
      "▁arkası": 2248,
      "▁olurlar": 2249,
      "▁tereyagı": 2250,
      "▁acente": 2251,
      "▁gey": 2252,
      "▁boyunda": 2253,
      "▁gecim": 2254,
      "▁koyde": 2255,
      "ugunu": 2256,
      "▁zamandan": 2257,
      "▁gecmisi": 2258,
      "▁yaklasık": 2259,
      "meniz": 2260,
      "▁gozune": 2261,
      "▁kullanır": 2262,
      "▁uzadı": 2263,
      "▁ayni": 2264,
      "▁gorevi": 2265,
      "lulugun": 2266,
      "▁agladı": 2267,
      "▁kondur": 2268,
      "▁bırakır": 2269,
      "▁kusu": 2270,
      "▁getirmek": 2271,
      "▁newark'a": 2272,
      "▁seninle": 2273,
      "▁mi": 2274,
      "▁dil": 2275,
      "dikleri": 2276,
      "▁bilen": 2277,
      "▁ist": 2278,
      "▁ker": 2279,
      "▁programı": 2280,
      "▁yaratı": 2281,
      "▁italya": 2282,
      "▁oburleri": 2283,
      "▁ayakkabı": 2284,
      "▁kud": 2285,
      "▁kullanılan": 2286,
      "▁gorulen": 2287,
      "▁kus": 2288,
      "▁calısıyorum": 2289,
      "▁622": 2290,
      "▁kesiyor": 2291,
      "▁associates": 2292,
      "▁kurtulur": 2293,
      "▁sorular": 2294,
      "▁nasdaq": 2295,
      "▁resim": 2296,
      "▁yalı": 2297,
      "▁saglıgı": 2298,
      "▁cimento": 2299,
      "▁hatalar": 2300,
      "▁bulent": 2301,
      "▁selim": 2302,
      "▁sanmıyorum": 2303,
      "▁international": 2304,
      "▁kem": 2305,
      "tir": 2306,
      "▁dergiler": 2307,
      "▁115": 2308,
      "▁amerikan": 2309,
      "▁be": 2310,
      "larımı": 2311,
      "-23": 2312,
      "▁belirli": 2313,
      "▁olacagını": 2314,
      "▁mısınız": 2315,
      "▁aylarda": 2316,
      "▁otekinden": 2317,
      "▁acisindan": 2318,
      "▁basladıgı": 2319,
      "▁dumanı": 2320,
      "▁koprunun": 2321,
      "▁girdim": 2322,
      "d.": 2323,
      "▁kateg": 2324,
      "▁guber": 2325,
      "▁dolar": 2326,
      "▁enstit": 2327,
      "▁acıklıyor": 2328,
      "▁tası": 2329,
      "ektuel": 2330,
      "▁korumak": 2331,
      "▁teyz": 2332,
      "▁kızıl": 2333,
      "▁durdu": 2334,
      "▁pasa'nın": 2335,
      "▁surede": 2336,
      "▁laci": 2337,
      "▁daldı": 2338,
      "▁birer": 2339,
      "▁cocuklu": 2340,
      "▁sevg": 2341,
      "▁hikaye": 2342,
      "ıyım": 2343,
      "20000": 2344,
      "▁arkamdan": 2345,
      "enc": 2346,
      "▁yek": 2347,
      "▁yakında": 2348,
      "ert": 2349,
      "▁147": 2350,
      "▁ent": 2351,
      "▁mulkiyet": 2352,
      "▁savunuyor": 2353,
      "▁doyum": 2354,
      "▁tucc": 2355,
      "▁kayıp": 2356,
      "▁kadınların": 2357,
      "▁kalıcı": 2358,
      "▁bunlara": 2359,
      "▁telefonla": 2360,
      "▁sef": 2361,
      "acık": 2362,
      "▁dısarı": 2363,
      "▁bolgenin": 2364,
      "▁agır": 2365,
      "▁yuzles": 2366,
      "▁ettiginiz": 2367,
      "▁suleyman": 2368,
      "▁birbirinin": 2369,
      "▁tefek": 2370,
      "▁indianapolis": 2371,
      "tın": 2372,
      "▁nikkei": 2373,
      "▁kaynaklan": 2374,
      "lastır": 2375,
      "ıntı": 2376,
      "▁sanatcılar": 2377,
      "▁eylul": 2378,
      "▁ikibucuk": 2379,
      "▁istanbul'u": 2380,
      "mik": 2381,
      "▁3.9": 2382,
      "▁beyin": 2383,
      "▁calısan": 2384,
      "umuzu": 2385,
      "▁1.7": 2386,
      "▁uyelik": 2387,
      "▁sakallı": 2388,
      "▁ekledi": 2389,
      "▁peynir": 2390,
      "▁toplayan": 2391,
      "▁boynunda": 2392,
      "likle": 2393,
      "▁cek": 2394,
      "agına": 2395,
      "luguna": 2396,
      "▁tanın": 2397,
      "▁1/": 2398,
      "▁boncuk": 2399,
      "▁et": 2400,
      "▁cikol": 2401,
      "▁roportaj": 2402,
      "culuk": 2403,
      "▁dogran": 2404,
      "ucu": 2405,
      "▁calgı": 2406,
      "lanması": 2407,
      "▁varol": 2408,
      "▁alabildigine": 2409,
      "▁kedi": 2410,
      "▁adamdı": 2411,
      "▁muslum": 2412,
      ".81": 2413,
      "▁otob": 2414,
      "sali": 2415,
      "▁nut": 2416,
      "▁sir": 2417,
      "▁gidiyorduk": 2418,
      "▁nashville": 2419,
      "▁yetkisi": 2420,
      "▁olcum": 2421,
      "cr": 2422,
      "▁isleri": 2423,
      "▁karsın": 2424,
      "▁sent": 2425,
      "▁vaktiyle": 2426,
      "▁hic": 2427,
      "erisi": 2428,
      "▁otor": 2429,
      "▁degilsin": 2430,
      "▁islev": 2431,
      "▁projesi": 2432,
      "urcuk": 2433,
      "▁desteklemek": 2434,
      "▁suresini": 2435,
      "▁yem": 2436,
      "▁475000": 2437,
      "▁atılmıs": 2438,
      "▁guv": 2439,
      "▁dengesiz": 2440,
      "▁3135": 2441,
      "▁icten": 2442,
      "▁calisan": 2443,
      "cuk": 2444,
      "▁--": 2445,
      ".43": 2446,
      "▁siddet": 2447,
      "▁artır": 2448,
      "her": 2449,
      "elendir": 2450,
      "afi": 2451,
      "▁%6.90": 2452,
      "▁agresif": 2453,
      "▁makin": 2454,
      "▁sekreteri": 2455,
      "inizle": 2456,
      "▁gelirse": 2457,
      "▁ayı": 2458,
      "▁cozmek": 2459,
      "▁yaradılıs": 2460,
      "▁yatak": 2461,
      "▁52": 2462,
      "▁kategorisi": 2463,
      "▁cuk": 2464,
      "med": 2465,
      "▁bun": 2466,
      "▁tasıyor": 2467,
      "lanmıstı": 2468,
      "▁cazib": 2469,
      "deri": 2470,
      "▁ailesini": 2471,
      "▁varmıs": 2472,
      "▁hac": 2473,
      "▁odenecek": 2474,
      "madı": 2475,
      "▁haval": 2476,
      "▁yenilg": 2477,
      "▁ozver": 2478,
      "▁os": 2479,
      "▁besi": 2480,
      "isindan": 2481,
      "▁karsiladi": 2482,
      "▁mikr": 2483,
      "ılan": 2484,
      "dil": 2485,
      "▁ilgiliydiler": 2486,
      "▁den": 2487,
      "▁hakim": 2488,
      "▁kacınılmaz": 2489,
      "▁telefon": 2490,
      "▁aklım": 2491,
      "gec": 2492,
      "▁saglam": 2493,
      "▁umut": 2494,
      "▁duzel": 2495,
      "▁abart": 2496,
      "▁atılım": 2497,
      "ayıcı": 2498,
      "▁ortaklıgı": 2499,
      "▁tadını": 2500,
      "▁muamele": 2501,
      "▁hızlandır": 2502,
      "▁cant": 2503,
      "▁borcun": 2504,
      "otiv": 2505,
      "▁etmekte": 2506,
      "▁kib": 2507,
      "ii": 2508,
      "▁etm": 2509,
      "86": 2510,
      "▁durumunu": 2511,
      "▁avrupa'ya": 2512,
      "▁milyarını": 2513,
      "▁vaziyet": 2514,
      "asinda": 2515,
      "▁degismis": 2516,
      "▁tab": 2517,
      "gac": 2518,
      "▁”": 2519,
      "▁hukuk": 2520,
      "▁kad": 2521,
      "▁fatura": 2522,
      "▁35000": 2523,
      "▁olurum": 2524,
      "▁hah": 2525,
      "▁518": 2526,
      "ıg": 2527,
      "▁saygı": 2528,
      "▁deli": 2529,
      "▁olmas": 2530,
      "▁kızar": 2531,
      "ineweb": 2532,
      "▁urunleri": 2533,
      "▁orta": 2534,
      "▁salata": 2535,
      "▁ikisini": 2536,
      "▁bina": 2537,
      "▁hız": 2538,
      "▁soyleyerek": 2539,
      "▁beach": 2540,
      "ima": 2541,
      "▁dern": 2542,
      "▁rekabetin": 2543,
      "▁tavsan": 2544,
      "▁tazmin": 2545,
      "▁gunlerini": 2546,
      "ese": 2547,
      "▁haber": 2548,
      "▁yapabil": 2549,
      "▁saffet": 2550,
      "▁balkan": 2551,
      "▁yuzyılda": 2552,
      "▁olabilecek": 2553,
      "▁sikintimiz": 2554,
      "▁yuruyordu": 2555,
      "▁gorusleri": 2556,
      ".45": 2557,
      "alandı": 2558,
      "▁hani": 2559,
      "▁jo": 2560,
      "▁tatildi": 2561,
      "▁fi": 2562,
      "yet": 2563,
      "▁jack": 2564,
      "▁60000": 2565,
      "▁kalkacak": 2566,
      "sh": 2567,
      "iyenin": 2568,
      "▁15.8": 2569,
      "▁veya": 2570,
      "▁sacları": 2571,
      "cayı": 2572,
      "▁kıbrıs": 2573,
      "▁kimsen": 2574,
      "▁evimizde": 2575,
      "▁avsar": 2576,
      "▁bilimi": 2577,
      "▁dolaylı": 2578,
      "▁sual": 2579,
      "▁saga": 2580,
      "cusu": 2581,
      "▁banka": 2582,
      "▁com": 2583,
      "▁hosuma": 2584,
      "▁ye": 2585,
      "8'in": 2586,
      "cesine": 2587,
      "▁fred": 2588,
      "▁anal": 2589,
      "amadım": 2590,
      "rahim": 2591,
      "nes": 2592,
      "▁karar": 2593,
      "elerin": 2594,
      "▁montreal": 2595,
      "lesmis": 2596,
      "▁gelecekteki": 2597,
      "▁avustralya": 2598,
      "uf": 2599,
      "▁hatirlamiyorum": 2600,
      "izin": 2601,
      "lerini": 2602,
      "▁kap": 2603,
      "▁tr": 2604,
      "▁sezl": 2605,
      "▁vuruyor": 2606,
      "▁irf": 2607,
      "▁dusunun": 2608,
      "▁konusuyorlar": 2609,
      "ecegim": 2610,
      ".8": 2611,
      "▁buklum": 2612,
      "el": 2613,
      "unde": 2614,
      "▁sınır": 2615,
      "485": 2616,
      "▁tekerlek": 2617,
      "yo": 2618,
      "pal": 2619,
      "▁imaj": 2620,
      "▁orada": 2621,
      "▁misin": 2622,
      "c": 2623,
      "▁hın": 2624,
      "ekli": 2625,
      "▁olanaklari": 2626,
      "duk": 2627,
      "▁ondokuz": 2628,
      "suzluk": 2629,
      "▁kaldı": 2630,
      "▁kaliforn": 2631,
      "▁revize": 2632,
      "▁gune": 2633,
      "cul": 2634,
      ".68": 2635,
      "▁hayatımız": 2636,
      "▁columbia": 2637,
      "▁nasır": 2638,
      "emeli": 2639,
      "ona": 2640,
      "4.5": 2641,
      "▁istemiyor": 2642,
      "▁baban": 2643,
      "attı": 2644,
      "▁tramv": 2645,
      "▁dogu'da": 2646,
      "tiv": 2647,
      "▁yerler": 2648,
      "▁gozleri": 2649,
      "▁adeta": 2650,
      "▁acıklama": 2651,
      "ler'in": 2652,
      "▁kimsenin": 2653,
      "▁1.42": 2654,
      "▁intern": 2655,
      "▁altından": 2656,
      "elerinden": 2657,
      "▁mıdır": 2658,
      "▁iskel": 2659,
      "▁bek": 2660,
      "▁uzerindeydi": 2661,
      "▁muj": 2662,
      "gın": 2663,
      "▁kumral": 2664,
      "▁istiklal": 2665,
      "▁sosyal": 2666,
      "▁min": 2667,
      "▁yasın": 2668,
      "▁senetlerinin": 2669,
      "▁6.9": 2670,
      "▁tanıs": 2671,
      "▁bosluk": 2672,
      "▁calısıyorlar": 2673,
      "▁lik": 2674,
      "▁hilm": 2675,
      "▁inkıl": 2676,
      "▁hisseye": 2677,
      "▁onc": 2678,
      "▁bacak": 2679,
      "▁mısın": 2680,
      "▁teknede": 2681,
      "ij": 2682,
      "▁uzaklastır": 2683,
      "▁dosem": 2684,
      "▁sayın": 2685,
      "▁catısma": 2686,
      "▁lezzetsiz": 2687,
      "▁tesisten": 2688,
      "enkul": 2689,
      "▁otuz": 2690,
      "▁dikti": 2691,
      "▁ceyrekte": 2692,
      "▁haram": 2693,
      "▁bakanlar": 2694,
      "▁bilgilendirilmek": 2695,
      "▁inis": 2696,
      "ern": 2697,
      "atlı": 2698,
      "ga": 2699,
      "▁gozle": 2700,
      "▁gunes": 2701,
      "▁iptal": 2702,
      "ud": 2703,
      "▁istanbul'a": 2704,
      "▁ism": 2705,
      "▁bob": 2706,
      "▁icermektedir": 2707,
      "▁islemciler": 2708,
      "▁bircogu": 2709,
      "▁bahar": 2710,
      "▁nedense": 2711,
      "▁pkk": 2712,
      "▁uzul": 2713,
      "▁berbat": 2714,
      "bol": 2715,
      "ıslı": 2716,
      "▁cumle": 2717,
      "▁dusundum": 2718,
      "▁muvaff": 2719,
      "▁listeleyin": 2720,
      "▁kullanılmıs": 2721,
      "ir'in": 2722,
      "▁pacific": 2723,
      "▁cic": 2724,
      "▁alabil": 2725,
      "▁dort": 2726,
      "▁ikinc": 2727,
      "ibet": 2728,
      "▁…": 2729,
      "▁menfa": 2730,
      "diki": 2731,
      "eginiz": 2732,
      "memistim": 2733,
      "▁odada": 2734,
      "▁goremedim": 2735,
      "ali": 2736,
      "osunun": 2737,
      "agon": 2738,
      "▁milyonluk": 2739,
      "▁altmıs": 2740,
      "▁jos": 2741,
      "▁tuh": 2742,
      "▁kurtarma": 2743,
      "ner": 2744,
      "▁petrol": 2745,
      "da'nın": 2746,
      "▁2009": 2747,
      "▁ne": 2748,
      "urlar": 2749,
      "▁kitab": 2750,
      "▁masal": 2751,
      "▁tamir": 2752,
      "tıgı": 2753,
      "▁cle": 2754,
      "bahar": 2755,
      "▁kendisinden": 2756,
      "▁parkta": 2757,
      "▁apartman": 2758,
      "luyor": 2759,
      ".24": 2760,
      "yirmi": 2761,
      "▁fonu": 2762,
      "▁ediyor": 2763,
      "sah": 2764,
      "▁japon": 2765,
      "ds": 2766,
      "▁bitisik": 2767,
      "ilirken": 2768,
      "▁sokul": 2769,
      "▁trelleb": 2770,
      "▁koye": 2771,
      "▁dolusu": 2772,
      "▁um": 2773,
      "▁elimde": 2774,
      "▁komsu": 2775,
      "▁animasyon": 2776,
      "▁austral": 2777,
      "▁kisiye": 2778,
      "▁oradaki": 2779,
      "nak": 2780,
      "▁olaca": 2781,
      "▁kaybetti": 2782,
      "▁surer": 2783,
      "ustuk": 2784,
      "▁hukumeti": 2785,
      "ısından": 2786,
      "▁avrupa": 2787,
      "▁airlines'in": 2788,
      "emle": 2789,
      "ann": 2790,
      "▁om": 2791,
      "▁nuf": 2792,
      "deydin": 2793,
      "▁cam": 2794,
      "▁brez": 2795,
      "▁lufthansa": 2796,
      "▁serbest": 2797,
      "▁inat": 2798,
      "▁yavasca": 2799,
      "▁piyas": 2800,
      "▁geciriyor": 2801,
      "▁uste": 2802,
      "▁dey": 2803,
      "▁toprak": 2804,
      "▁rezerv": 2805,
      "▁sehrinde": 2806,
      "▁olup": 2807,
      "▁2007'nin": 2808,
      "tone": 2809,
      "dyo": 2810,
      "arak": 2811,
      "▁bahcı": 2812,
      "▁set": 2813,
      "▁beline": 2814,
      "▁rıhtım": 2815,
      "aki": 2816,
      "▁duy": 2817,
      "▁lar": 2818,
      "ısal": 2819,
      "▁kısır": 2820,
      "▁strate": 2821,
      "agoz": 2822,
      "▁hayatın": 2823,
      "▁istemeye": 2824,
      "▁koruyor": 2825,
      "▁yapılandır": 2826,
      "is": 2827,
      "anet": 2828,
      "▁keb": 2829,
      "6": 2830,
      "▁acıktı": 2831,
      "▁baslamıstı": 2832,
      "▁havuzdan": 2833,
      "▁un": 2834,
      "▁alar": 2835,
      "▁agb": 2836,
      "▁adamın": 2837,
      "▁...": 2838,
      "▁britan": 2839,
      "▁bahce": 2840,
      "achusetts": 2841,
      "▁%20": 2842,
      "▁yapmadıgını": 2843,
      "ıyorlardı": 2844,
      "ladıgı": 2845,
      "▁sapt": 2846,
      "▁munaseb": 2847,
      "▁muess": 2848,
      "ogg": 2849,
      "▁birkacının": 2850,
      "▁fran": 2851,
      "▁tuhaf": 2852,
      "▁duygularını": 2853,
      "afir": 2854,
      "▁malz": 2855,
      "▁edecegim": 2856,
      "▁hus": 2857,
      "▁haric": 2858,
      "▁ucte": 2859,
      "▁hosnut": 2860,
      "▁gecmisti": 2861,
      "▁merkur": 2862,
      "▁gorevlisi": 2863,
      "▁oyunlar": 2864,
      "▁2.1": 2865,
      "▁zevk": 2866,
      "▁matematik": 2867,
      "ası": 2868,
      "▁sanatcı": 2869,
      "otte": 2870,
      "attan": 2871,
      "▁kuz": 2872,
      "▁askerler": 2873,
      "oll": 2874,
      "▁ettigimiz": 2875,
      "▁saglamak": 2876,
      "anan": 2877,
      "artmanı": 2878,
      "▁depremden": 2879,
      "▁pir": 2880,
      "▁surat": 2881,
      "▁bereket": 2882,
      "isli": 2883,
      "▁ogrenc": 2884,
      "▁verileri": 2885,
      "▁tasarısı": 2886,
      "kam": 2887,
      "▁sizde": 2888,
      "▁saati": 2889,
      "▁zıp": 2890,
      "sanız": 2891,
      "▁pittsburgh'tan": 2892,
      "▁durum": 2893,
      "endir": 2894,
      "0.": 2895,
      "▁sokaga": 2896,
      "eligini": 2897,
      "▁kenarına": 2898,
      "▁201622": 2899,
      "▁titiz": 2900,
      "▁bilmiyoruz": 2901,
      "▁o'": 2902,
      "▁bel": 2903,
      "▁yeter": 2904,
      "▁ogret": 2905,
      "▁yuze": 2906,
      "▁ode": 2907,
      "▁birlesme": 2908,
      "▁algı": 2909,
      "▁ilce": 2910,
      "▁atila": 2911,
      "▁karasu": 2912,
      "▁budak": 2913,
      "▁yeng": 2914,
      "‘": 2915,
      "▁yılında": 2916,
      "aktan": 2917,
      "▁kararın": 2918,
      "▁borsası'nda": 2919,
      "▁bildigi": 2920,
      "▁toplanan": 2921,
      "▁varlıklar": 2922,
      "mos": 2923,
      "▁santa": 2924,
      "▁anlıslanabilir": 2925,
      "▁ankete": 2926,
      "▁kaps": 2927,
      "▁kenara": 2928,
      "▁zorla": 2929,
      "▁indian": 2930,
      "'su": 2931,
      "▁yasemin": 2932,
      "▁siyas": 2933,
      ".52": 2934,
      "▁800": 2935,
      "▁jfk": 2936,
      "▁yapmadim": 2937,
      "▁kondu": 2938,
      "▁trafik": 2939,
      "▁oynayacak": 2940,
      "▁res": 2941,
      "▁yılan": 2942,
      "▁iliskin": 2943,
      "▁duydu": 2944,
      "▁kırp": 2945,
      "▁keci": 2946,
      "▁terzi": 2947,
      "▁p&g": 2948,
      "▁seyh": 2949,
      "▁nek": 2950,
      "▁`": 2951,
      "ıs": 2952,
      "'un": 2953,
      "cag": 2954,
      "▁uzaklastı": 2955,
      "ur": 2956,
      "▁doktorun": 2957,
      "▁istekli": 2958,
      "▁sirketler": 2959,
      "▁aldıgını": 2960,
      "▁sonucları": 2961,
      "▁iyiles": 2962,
      "leniyor": 2963,
      "▁1961": 2964,
      "▁arizona": 2965,
      "▁isini": 2966,
      "▁atmosfer": 2967,
      "▁mutemadiyen": 2968,
      "▁mukelle": 2969,
      "▁inanılmaz": 2970,
      "▁imtiy": 2971,
      "0.5": 2972,
      "▁1.06": 2973,
      "▁terbiye": 2974,
      "▁mufet": 2975,
      "▁mekana": 2976,
      "▁41.60": 2977,
      "asyon": 2978,
      "▁94": 2979,
      "▁selam": 2980,
      "tadır": 2981,
      "lul": 2982,
      "amızı": 2983,
      "▁olma": 2984,
      "▁britanya": 2985,
      "▁lut": 2986,
      "▁filmi": 2987,
      "lıdır": 2988,
      "▁baslamadan": 2989,
      "▁odami": 2990,
      "▁baltimore'ye": 2991,
      "▁dim": 2992,
      "▁1.26": 2993,
      "▁kendinin": 2994,
      "▁%2.7": 2995,
      "▁42": 2996,
      "ımı": 2997,
      "▁golgesinde": 2998,
      "sis": 2999,
      "yı": 3000,
      "▁gerdan": 3001,
      "▁yapıyoruz": 3002,
      "▁mel": 3003,
      "▁mahk": 3004,
      "▁icimi": 3005,
      "▁degerinde": 3006,
      "▁ontario": 3007,
      "▁7.98": 3008,
      "▁bulup": 3009,
      "▁yun": 3010,
      "apur": 3011,
      "ize": 3012,
      "▁sok": 3013,
      "uza": 3014,
      "▁bizlerin": 3015,
      "▁sorusturma": 3016,
      "▁tasıt": 3017,
      "▁oglunun": 3018,
      "▁dobra": 3019,
      "▁dunyada": 3020,
      "▁elemanlar": 3021,
      "▁0.24": 3022,
      "▁asagıda": 3023,
      "vıl": 3024,
      "▁kriz": 3025,
      "ıydı": 3026,
      "▁bagısık": 3027,
      "▁yeteri": 3028,
      "▁hicbirisi": 3029,
      "▁tin": 3030,
      "▁basbak": 3031,
      "▁onar": 3032,
      "▁sacma": 3033,
      "▁chase": 3034,
      "▁hizmetten": 3035,
      "▁cocukca": 3036,
      "▁yemeklerini": 3037,
      "▁koru": 3038,
      "▁vadesi": 3039,
      "dıgının": 3040,
      "▁cim": 3041,
      "▁kumas": 3042,
      "gıcı": 3043,
      "▁teslim": 3044,
      "afeti": 3045,
      "▁temizlikte": 3046,
      "▁domates": 3047,
      "▁uygulama": 3048,
      "▁raf": 3049,
      "▁gorunur": 3050,
      "▁zamankinden": 3051,
      "cası": 3052,
      "▁verdigimiz": 3053,
      "▁karsılastırıldıgında": 3054,
      "▁dumduz": 3055,
      "▁cumhur": 3056,
      "▁mintan": 3057,
      "▁ran": 3058,
      "rim": 3059,
      "medik": 3060,
      "ayla": 3061,
      "▁uzaga": 3062,
      "▁saman": 3063,
      "▁cumhuriyetci": 3064,
      "▁benim": 3065,
      "ligin": 3066,
      "▁27.5": 3067,
      "▁tur": 3068,
      "▁his": 3069,
      "▁vasıf": 3070,
      "▁asans": 3071,
      "abilirim": 3072,
      "▁noel": 3073,
      "▁eminim": 3074,
      "▁genellikle": 3075,
      "▁ailesi": 3076,
      "▁oldukları": 3077,
      "ayabilir": 3078,
      "▁.8": 3079,
      "▁pop": 3080,
      "▁anlamı": 3081,
      "▁bos": 3082,
      "▁hat": 3083,
      "▁eskiydi": 3084,
      "▁gunde": 3085,
      "arson": 3086,
      "▁jose'den": 3087,
      "▁konusmaya": 3088,
      "▁diyebilirim": 3089,
      "▁musterileri": 3090,
      "▁portfoy": 3091,
      "adılar": 3092,
      "eri": 3093,
      "verir": 3094,
      "▁havlu": 3095,
      "▁teb": 3096,
      "▁gazeteler": 3097,
      "▁bulamay": 3098,
      "▁corba": 3099,
      "▁mukemmel": 3100,
      "▁inc.'in": 3101,
      "▁duyan": 3102,
      "▁650": 3103,
      "▁havuzu": 3104,
      "j.": 3105,
      "▁sınav": 3106,
      "▁cayır": 3107,
      "▁dustuk": 3108,
      "▁avantaj": 3109,
      "layarak": 3110,
      "ations": 3111,
      "▁varlıgını": 3112,
      "▁santorini": 3113,
      "rika": 3114,
      "▁fannie": 3115,
      "hur": 3116,
      "▁sirket": 3117,
      "▁konuma": 3118,
      "▁insanların": 3119,
      "▁ederek": 3120,
      "▁gre": 3121,
      "▁ad": 3122,
      "▁korkuyor": 3123,
      "emeyecegini": 3124,
      "▁avut": 3125,
      "▁480": 3126,
      "▁vucuda": 3127,
      "▁tumu": 3128,
      "▁ihtilaf": 3129,
      "▁temizligi": 3130,
      "▁sog": 3131,
      "▁org": 3132,
      "itler": 3133,
      "tmis": 3134,
      "▁bilgilerini": 3135,
      "▁mum": 3136,
      "▁pencerenin": 3137,
      "▁atlanta'ya": 3138,
      "▁hırsızlık": 3139,
      "▁fransa'nın": 3140,
      "ındaydı": 3141,
      "▁koseye": 3142,
      "▁acik": 3143,
      "aklık": 3144,
      "▁yt": 3145,
      "▁mutab": 3146,
      "▁sanatkar": 3147,
      "▁sormak": 3148,
      "ıstır": 3149,
      "▁kims": 3150,
      "asmıs": 3151,
      "▁adında": 3152,
      "▁ozellikle": 3153,
      "▁ilg": 3154,
      "▁tamamlanması": 3155,
      "asıdır": 3156,
      "dugu": 3157,
      "▁donemi": 3158,
      "▁memnunum": 3159,
      "▁pekala": 3160,
      "ecekti": 3161,
      "sızın": 3162,
      "▁itib": 3163,
      "▁philip": 3164,
      "▁kime": 3165,
      "▁holly": 3166,
      "▁kalitesi": 3167,
      "▁466": 3168,
      "▁yenilen": 3169,
      "gor": 3170,
      "▁durmadan": 3171,
      "▁mikrop": 3172,
      "el'in": 3173,
      "▁banyo": 3174,
      "▁samimi": 3175,
      "▁teksas": 3176,
      "▁sonr": 3177,
      "ol": 3178,
      "ula": 3179,
      "▁sureci": 3180,
      "▁yasıyor": 3181,
      "etler": 3182,
      "▁birbirini": 3183,
      "▁soyledik": 3184,
      "▁'di": 3185,
      "ılıyordu": 3186,
      "met": 3187,
      "▁mir": 3188,
      "iser": 3189,
      "▁uretiyor": 3190,
      "▁atıyor": 3191,
      "▁duzenleyen": 3192,
      "▁oteden": 3193,
      "▁iy": 3194,
      "acagınız": 3195,
      "▁bilin": 3196,
      "▁ankara": 3197,
      "▁sarsın": 3198,
      "▁duymuyor": 3199,
      "▁cizgi": 3200,
      "▁pac": 3201,
      "▁baskent": 3202,
      "esince": 3203,
      "▁rakamları": 3204,
      "▁birinde": 3205,
      "▁sehri": 3206,
      "▁fiyatlarındaki": 3207,
      "▁beyzbol": 3208,
      "▁5.9": 3209,
      "▁katında": 3210,
      "▁dinler": 3211,
      "▁goruyorum": 3212,
      "▁gozlerimi": 3213,
      "▁calısıyor": 3214,
      "▁kokulu": 3215,
      "bac": 3216,
      "ysa": 3217,
      "▁verimli": 3218,
      "▁petro": 3219,
      "▁sonraki": 3220,
      "▁bıyıkları": 3221,
      "▁saglıyor": 3222,
      "madıgı": 3223,
      "▁kırsal": 3224,
      "▁paylas": 3225,
      "▁cıkart": 3226,
      "▁yazan": 3227,
      "ıcının": 3228,
      "▁yapması": 3229,
      "▁yayınlan": 3230,
      "▁gorusu": 3231,
      "▁tal": 3232,
      "▁tutuk": 3233,
      "▁corap": 3234,
      "▁yemegin": 3235,
      "▁dusunmuyorum": 3236,
      "▁kurdular": 3237,
      "▁gogsun": 3238,
      "▁teror": 3239,
      "▁208": 3240,
      "▁patlıcan": 3241,
      "▁actıgı": 3242,
      "▁tavrı": 3243,
      "▁hattı": 3244,
      "eceginden": 3245,
      "▁ilgisizdi": 3246,
      "▁kapısında": 3247,
      "▁bakkal": 3248,
      "▁141.90": 3249,
      "▁temp": 3250,
      "▁bilincli": 3251,
      ",3": 3252,
      "▁sı": 3253,
      "▁genelinde": 3254,
      "▁kampanyalardan": 3255,
      "▁amerika": 3256,
      "▁iltif": 3257,
      "▁katib": 3258,
      "ohn": 3259,
      "yon": 3260,
      "▁florida": 3261,
      "▁tesir": 3262,
      "▁soyleniyor": 3263,
      "▁22-23": 3264,
      "▁aldıgımız": 3265,
      "▁tutma": 3266,
      "lamanın": 3267,
      "▁jose": 3268,
      "av": 3269,
      "▁olus": 3270,
      "▁7'den": 3271,
      "▁yardımc": 3272,
      "▁kenar": 3273,
      "▁simdiden": 3274,
      "ad": 3275,
      "aya": 3276,
      "▁parm": 3277,
      "larından": 3278,
      "▁geleni": 3279,
      "▁haberler": 3280,
      "▁8.5": 3281,
      "▁papaz": 3282,
      "var": 3283,
      "▁katildim": 3284,
      "▁kambiyo": 3285,
      "▁sif": 3286,
      "▁kaba": 3287,
      "▁maas": 3288,
      "avar": 3289,
      "adu": 3290,
      "▁etrafı": 3291,
      "▁olum": 3292,
      "▁kapanıs": 3293,
      "▁gazetesinin": 3294,
      "▁cekilmesi": 3295,
      "▁oyalan": 3296,
      "uy": 3297,
      "▁derv": 3298,
      "▁miktar": 3299,
      "aladım": 3300,
      "bab": 3301,
      "▁cevre": 3302,
      "▁cadde": 3303,
      "▁bulgur": 3304,
      "vil": 3305,
      "▁campe": 3306,
      "▁varil": 3307,
      "▁uzunca": 3308,
      "gısını": 3309,
      "▁planı": 3310,
      "▁kampanyası": 3311,
      "▁odun": 3312,
      "▁yeten": 3313,
      "▁gunlerce": 3314,
      "▁%85": 3315,
      "▁portf": 3316,
      "lamadan": 3317,
      "▁soyun": 3318,
      "▁1.": 3319,
      "▁huner": 3320,
      "▁25": 3321,
      "larindan": 3322,
      "▁sorunlarının": 3323,
      "▁112": 3324,
      "▁noh": 3325,
      "▁kupon": 3326,
      "▁25.000": 3327,
      "▁70'e": 3328,
      "▁soyledim": 3329,
      "▁abon": 3330,
      "vert": 3331,
      "erj": 3332,
      "▁mucadel": 3333,
      "ati": 3334,
      "▁cercevesinde": 3335,
      "▁dısındaki": 3336,
      "▁dolma": 3337,
      "▁anladı": 3338,
      "▁tanıy": 3339,
      "▁kaldırım": 3340,
      "▁109": 3341,
      "san": 3342,
      "▁sımsık": 3343,
      "▁guzelce": 3344,
      "▁0.6": 3345,
      "asi": 3346,
      "▁dc'de": 3347,
      "▁oak": 3348,
      "ortaj": 3349,
      "mur": 3350,
      "▁yelpaz": 3351,
      "▁6'dan": 3352,
      "▁515": 3353,
      "▁ogretmen": 3354,
      "aga": 3355,
      "▁g.": 3356,
      "▁buyuk": 3357,
      "abz": 3358,
      "▁ayaklı": 3359,
      "▁500'u": 3360,
      "▁karlar": 3361,
      "▁kıraathan": 3362,
      "▁karsılıgını": 3363,
      "ota": 3364,
      "▁acılıyor": 3365,
      "▁1973": 3366,
      "▁tumuyle": 3367,
      "▁kim": 3368,
      "tanın": 3369,
      "▁temiz": 3370,
      "▁esy": 3371,
      "▁boeing": 3372,
      "▁yengec": 3373,
      "▁oda": 3374,
      "ilmaz": 3375,
      "▁sen": 3376,
      "▁uzeri": 3377,
      "▁dahilinde": 3378,
      "▁degerlendiril": 3379,
      "▁titreyerek": 3380,
      "▁91/2": 3381,
      "asından": 3382,
      "▁570": 3383,
      "▁yakin": 3384,
      "▁ray": 3385,
      "▁dul": 3386,
      "▁ras": 3387,
      "▁titriyordu": 3388,
      "▁philadelphia": 3389,
      "▁dong": 3390,
      "▁rutin": 3391,
      "▁tavan": 3392,
      "▁mahkemesi": 3393,
      "▁69": 3394,
      "▁karab": 3395,
      "▁yanından": 3396,
      "▁yonu": 3397,
      "▁arif": 3398,
      "ımızda": 3399,
      "▁bulgar": 3400,
      "dıgınız": 3401,
      "▁basvuru": 3402,
      "it": 3403,
      "▁arm": 3404,
      "▁fikr": 3405,
      "▁281": 3406,
      "▁sekilde": 3407,
      "ebilmek": 3408,
      "▁mumu": 3409,
      "▁donen": 3410,
      "sum": 3411,
      "▁etkisi": 3412,
      "▁havayı": 3413,
      "▁25.8": 3414,
      "amadıgını": 3415,
      "▁conn": 3416,
      "▁johnson": 3417,
      "▁uysal": 3418,
      "on": 3419,
      "▁babamı": 3420,
      "▁1900": 3421,
      "ılması": 3422,
      "▁kadir": 3423,
      "'uncu": 3424,
      "▁yayın": 3425,
      "con": 3426,
      "▁10.3": 3427,
      "▁muhtem": 3428,
      "▁orgut": 3429,
      "▁ortada": 3430,
      "▁yurt": 3431,
      "rill": 3432,
      "19": 3433,
      "▁kulag": 3434,
      "▁gelistirme": 3435,
      "ily": 3436,
      "iyle": 3437,
      "▁orn": 3438,
      "▁santral": 3439,
      "▁acıkla": 3440,
      "▁iad": 3441,
      "▁akrab": 3442,
      "▁fil": 3443,
      "lendir": 3444,
      "▁9.81": 3445,
      "▁temin": 3446,
      "saf": 3447,
      "▁sum": 3448,
      "▁sirkete": 3449,
      "dırlar": 3450,
      "▁mater": 3451,
      "▁kusk": 3452,
      "▁uzere": 3453,
      "▁mahm": 3454,
      "▁yana": 3455,
      "masız": 3456,
      "▁bırakıp": 3457,
      "▁ediyorlardı": 3458,
      "▁825": 3459,
      "▁19.7": 3460,
      "▁achen": 3461,
      "anlar": 3462,
      "0'den": 3463,
      "agındaki": 3464,
      "melerin": 3465,
      "▁kotules": 3466,
      "obil": 3467,
      "▁bazılarına": 3468,
      "▁1989": 3469,
      "dıgını": 3470,
      "tin": 3471,
      "rne": 3472,
      "▁kanaat": 3473,
      "▁japonya'nın": 3474,
      "▁dizgin": 3475,
      "▁dokunulmaz": 3476,
      "▁100": 3477,
      "▁nush": 3478,
      "▁nes": 3479,
      "▁muraca": 3480,
      "▁tadima": 3481,
      "inn": 3482,
      "▁satısını": 3483,
      "▁baskı": 3484,
      "▁tercih": 3485,
      "▁katk": 3486,
      "▁havanın": 3487,
      "▁cagr": 3488,
      "▁evir": 3489,
      "▁yazıyor": 3490,
      "▁vb": 3491,
      "isindeki": 3492,
      "▁tespit": 3493,
      "▁1.38": 3494,
      "▁topragın": 3495,
      "▁odasında": 3496,
      "▁yoluyla": 3497,
      "▁asarak": 3498,
      "▁kullanılıyor": 3499,
      "▁ucumuz": 3500,
      "▁parmakları": 3501,
      "▁girip": 3502,
      "ligi": 3503,
      "▁diye": 3504,
      "▁buldular": 3505,
      "▁852": 3506,
      "▁35": 3507,
      "▁ettik": 3508,
      "▁onunden": 3509,
      "▁1": 3510,
      "▁abdul": 3511,
      "▁fevkalade": 3512,
      "▁%99": 3513,
      "▁bayıl": 3514,
      "▁yakın": 3515,
      "▁dakik": 3516,
      "▁degisken": 3517,
      "▁kıvran": 3518,
      "▁yahut": 3519,
      "▁yuzunde": 3520,
      "▁89.6": 3521,
      "▁kadını": 3522,
      "▁hu": 3523,
      "▁binmis": 3524,
      "lendim": 3525,
      "▁irak'ta": 3526,
      "▁camur": 3527,
      "▁varsa": 3528,
      "▁adlandırıyor": 3529,
      "▁alternatif": 3530,
      "▁seatt": 3531,
      "lilig": 3532,
      "▁sozune": 3533,
      "▁ozgun": 3534,
      "usun": 3535,
      "leb": 3536,
      "▁dostu": 3537,
      "▁gelisim": 3538,
      "▁vardi": 3539,
      "h": 3540,
      "▁bekar": 3541,
      "▁daml": 3542,
      "ber": 3543,
      "▁1.03": 3544,
      "5": 3545,
      "▁yuzden": 3546,
      "▁pl": 3547,
      "80000": 3548,
      "▁sayfa": 3549,
      "▁id": 3550,
      "▁fuj": 3551,
      "▁bagırsak": 3552,
      "▁yabancı": 3553,
      "▁bulur": 3554,
      "din": 3555,
      "▁adamları": 3556,
      "▁dibine": 3557,
      "▁deneyimli": 3558,
      "▁puan": 3559,
      "▁kotu": 3560,
      "▁kork": 3561,
      "▁oylama": 3562,
      "5'": 3563,
      "▁522": 3564,
      "ine": 3565,
      "▁seferinde": 3566,
      "▁'lı": 3567,
      "▁sirkette": 3568,
      "▁arsız": 3569,
      "▁him": 3570,
      "▁yanı": 3571,
      "▁ap": 3572,
      "▁akım": 3573,
      "▁konumda": 3574,
      "▁tev": 3575,
      "lanma": 3576,
      "▁yıg": 3577,
      "▁stat": 3578,
      "▁ney": 3579,
      "▁esnasında": 3580,
      "▁kendimize": 3581,
      "▁dama": 3582,
      "▁yetki": 3583,
      "▁zayif": 3584,
      "▁cıkardı": 3585,
      "dadı": 3586,
      "▁yurumeye": 3587,
      "▁zorluyor": 3588,
      "▁kızına": 3589,
      "▁sonuna": 3590,
      "▁kemal": 3591,
      "eriya": 3592,
      "▁dayat": 3593,
      "▁iti": 3594,
      "for": 3595,
      "▁fos": 3596,
      "▁civarı": 3597,
      "▁icini": 3598,
      "▁sozde": 3599,
      "▁pap": 3600,
      "2.76": 3601,
      "▁2.45": 3602,
      "▁istedik": 3603,
      "amamıs": 3604,
      "iforn": 3605,
      "▁ogluna": 3606,
      "8.4": 3607,
      "▁soyleyebilir": 3608,
      "▁kun": 3609,
      "▁beyler": 3610,
      "▁doludur": 3611,
      "▁tacirler": 3612,
      "▁dak": 3613,
      "▁gaziantep": 3614,
      "cılıgın": 3615,
      "▁urunu": 3616,
      "▁'ydi": 3617,
      "▁lıgı": 3618,
      "▁tokyo": 3619,
      ".73": 3620,
      "ecilik": 3621,
      "▁konu": 3622,
      "▁kaldırma": 3623,
      "▁alacagım": 3624,
      "zet": 3625,
      "▁sartları": 3626,
      "▁parayla": 3627,
      "▁iskem": 3628,
      "▁yası": 3629,
      "▁karamsar": 3630,
      "▁yonuyle": 3631,
      "▁askı": 3632,
      "1.3": 3633,
      "gu": 3634,
      "▁citicorp": 3635,
      "▁bora": 3636,
      "▁almalar": 3637,
      "▁agaclarının": 3638,
      "▁business": 3639,
      "lıgıyla": 3640,
      "▁santor": 3641,
      "▁iyice": 3642,
      "elmis": 3643,
      "ington": 3644,
      "▁yaramaz": 3645,
      "▁resmin": 3646,
      "▁otomotiv": 3647,
      "▁biten": 3648,
      "▁mens": 3649,
      "▁35587.85": 3650,
      "▁unut": 3651,
      "▁sirk": 3652,
      "▁vs": 3653,
      "▁yapamaz": 3654,
      "or": 3655,
      "lemis": 3656,
      "iyorsunuz": 3657,
      "ıncı": 3658,
      "▁gunlerden": 3659,
      "▁10": 3660,
      "▁hurmet": 3661,
      "▁halen": 3662,
      "ta": 3663,
      "▁mood": 3664,
      "▁iliskileri": 3665,
      "▁yolun": 3666,
      "▁artan": 3667,
      "islari": 3668,
      "lerim": 3669,
      "▁dırlar": 3670,
      "y'nin": 3671,
      "▁birinin": 3672,
      "▁onde": 3673,
      "▁baska": 3674,
      "▁yakalandı": 3675,
      "ilik": 3676,
      "▁haziran": 3677,
      "acagın": 3678,
      "▁ucretli": 3679,
      "▁yatır": 3680,
      "▁hasret": 3681,
      "lugunda": 3682,
      "▁elem": 3683,
      "ilan": 3684,
      "▁tulb": 3685,
      "maz": 3686,
      "▁bi": 3687,
      "sim": 3688,
      "eley": 3689,
      "▁amerikalılar": 3690,
      "siy": 3691,
      "digine": 3692,
      "▁gitmisti": 3693,
      "▁war": 3694,
      "▁baglilik": 3695,
      "▁kazıy": 3696,
      "▁kacta": 3697,
      "▁hep": 3698,
      "▁sel": 3699,
      "ed": 3700,
      "1.4": 3701,
      "▁muz": 3702,
      "▁asker": 3703,
      "osu": 3704,
      "▁aydın": 3705,
      "▁mantık": 3706,
      "▁eksiksiz": 3707,
      "▁operasyonlarını": 3708,
      "r.": 3709,
      "▁gm": 3710,
      "'lerde": 3711,
      "▁journal'ın": 3712,
      "▁hav": 3713,
      "▁durgun": 3714,
      "▁hareketler": 3715,
      "danoz": 3716,
      "▁1925": 3717,
      "▁bulabil": 3718,
      "▁verirler": 3719,
      "cet": 3720,
      "▁gozume": 3721,
      "muyordu": 3722,
      "▁quot": 3723,
      "▁%0.2": 3724,
      "▁derdi": 3725,
      "▁ve": 3726,
      "▁gozalt": 3727,
      "▁altın": 3728,
      "▁polis": 3729,
      "▁olaylar": 3730,
      "▁cesaret": 3731,
      "▁segment": 3732,
      "▁kotuydu": 3733,
      "▁eglen": 3734,
      "▁hizmetleri": 3735,
      "▁hemen": 3736,
      "▁odak": 3737,
      "▁vade": 3738,
      "▁yon": 3739,
      "▁hey": 3740,
      "▁b.a.t": 3741,
      "▁1.1": 3742,
      "▁sal": 3743,
      "▁sahiptir": 3744,
      "▁muhab": 3745,
      "▁soylendi": 3746,
      "▁teknoloji": 3747,
      "▁ver": 3748,
      "▁olmayan": 3749,
      "▁bankası": 3750,
      "lenir": 3751,
      "▁bosalt": 3752,
      "▁26000": 3753,
      "▁mukemmeldi": 3754,
      "▁york'taki": 3755,
      "masa": 3756,
      "▁ilgilenmedi": 3757,
      "▁edecektir": 3758,
      "▁icer": 3759,
      "▁solda": 3760,
      "▁hazırlanan": 3761,
      "▁talip": 3762,
      "▁sicak": 3763,
      "▁yollar": 3764,
      "isten": 3765,
      "▁birak": 3766,
      "▁karsılastırılabilir": 3767,
      "▁malzemeleri": 3768,
      "▁101": 3769,
      "▁koydular": 3770,
      "imiz": 3771,
      "'e": 3772,
      "▁kaptan": 3773,
      "▁david": 3774,
      "eis": 3775,
      "▁carc": 3776,
      "▁indirimi": 3777,
      "▁gectigini": 3778,
      "▁%15": 3779,
      "ekte": 3780,
      "▁co": 3781,
      "▁yasını": 3782,
      "▁ucmanın": 3783,
      "onik": 3784,
      "▁northwest": 3785,
      "▁salın": 3786,
      "▁skandal": 3787,
      "ling": 3788,
      "▁saka": 3789,
      "▁dest": 3790,
      "▁hum": 3791,
      "▁elleri": 3792,
      "▁isra": 3793,
      "▁bekliyordu": 3794,
      "▁ch": 3795,
      "▁yılki": 3796,
      "▁calısanların": 3797,
      "▁calisanlardan": 3798,
      "▁yonetmen": 3799,
      "aman": 3800,
      "▁yayım": 3801,
      "▁yaklasımı": 3802,
      "▁yureginde": 3803,
      "▁odadan": 3804,
      "▁dedi": 3805,
      "lanan": 3806,
      "▁senedir": 3807,
      "▁kullanabil": 3808,
      "▁sabahı": 3809,
      "▁sp": 3810,
      "▁planlıyor": 3811,
      "▁mendi": 3812,
      "▁fan": 3813,
      "▁sokuldu": 3814,
      "ıla": 3815,
      "▁konusu": 3816,
      "▁yusuf": 3817,
      "▁dusunuyordu": 3818,
      "▁olc": 3819,
      "▁bunlarda": 3820,
      "▁ortalık": 3821,
      "os": 3822,
      "▁eger": 3823,
      "▁bahceli": 3824,
      "▁olmasına": 3825,
      "-h": 3826,
      "▁islemeli": 3827,
      "▁eas": 3828,
      "▁fab": 3829,
      "▁netic": 3830,
      "▁average": 3831,
      "▁qu": 3832,
      "▁gozunun": 3833,
      "▁etmeyecegini": 3834,
      "▁temsilcisi": 3835,
      "▁bilmiyor": 3836,
      "▁perisan": 3837,
      "▁cin": 3838,
      "▁kredi": 3839,
      "▁piyasasını": 3840,
      "eyecek": 3841,
      "▁ikili": 3842,
      "▁kural": 3843,
      "makta": 3844,
      "▁luzum": 3845,
      "▁bolg": 3846,
      "▁kadınla": 3847,
      "▁milyarlar": 3848,
      "▁harek": 3849,
      "5000": 3850,
      "iyo": 3851,
      "tu": 3852,
      "ce": 3853,
      "▁taylor": 3854,
      "▁avcı": 3855,
      "▁406": 3856,
      "▁1996": 3857,
      "▁yaz": 3858,
      "▁9.5": 3859,
      "▁havaalanı": 3860,
      "lendigini": 3861,
      "▁bagı": 3862,
      "▁bw": 3863,
      "▁1977": 3864,
      "'i": 3865,
      "▁city'den": 3866,
      "▁kilomet": 3867,
      "▁on": 3868,
      "▁isinden": 3869,
      "▁mamafi": 3870,
      "lan": 3871,
      "▁hedef": 3872,
      "use": 3873,
      "atur": 3874,
      "ılmasına": 3875,
      "▁etmiyor": 3876,
      "▁oyuncak": 3877,
      "▁pasif": 3878,
      "▁kentin": 3879,
      "▁degildi": 3880,
      "ormal": 3881,
      "▁temer": 3882,
      "▁ipotek": 3883,
      "ice": 3884,
      "▁konser": 3885,
      "▁nihai": 3886,
      "▁166.9": 3887,
      "▁kuvvetli": 3888,
      "▁sozles": 3889,
      "▁cılgın": 3890,
      "▁aktivite": 3891,
      "'lu": 3892,
      "▁goturuyor": 3893,
      "bul": 3894,
      "▁ortasında": 3895,
      "▁alana": 3896,
      "▁``": 3897,
      "▁sizler": 3898,
      ":30": 3899,
      "▁asli": 3900,
      "▁arınc": 3901,
      "▁sesler": 3902,
      "uyu": 3903,
      "▁sasır": 3904,
      "▁kolalı": 3905,
      "▁salona": 3906,
      "▁lerin": 3907,
      "▁reklam": 3908,
      "▁kadıkoy": 3909,
      "▁1960'": 3910,
      "▁32.125": 3911,
      "▁1.90": 3912,
      "▁secenekleri": 3913,
      "elerinde": 3914,
      "▁satımı": 3915,
      "▁dısına": 3916,
      "▁kulak": 3917,
      "▁istanbul'dan": 3918,
      "▁olmadi": 3919,
      "▁yetkili": 3920,
      "▁17.01": 3921,
      "▁atacak": 3922,
      "▁qx": 3923,
      "▁gazino": 3924,
      "▁ilgiliydi": 3925,
      "hu": 3926,
      "▁olabil": 3927,
      "▁profesyon": 3928,
      "▁oy": 3929,
      "▁cocukların": 3930,
      "▁secim": 3931,
      "▁oyunun": 3932,
      "▁kısın": 3933,
      "ehan": 3934,
      "▁beraber": 3935,
      "▁diego'ya": 3936,
      "▁gunler": 3937,
      "▁pır": 3938,
      "dah": 3939,
      "eyin": 3940,
      "acaklar": 3941,
      "▁veriyorum": 3942,
      "▁tartısma": 3943,
      "▁yurtdisin": 3944,
      "▁seydir": 3945,
      "▁bazı": 3946,
      "▁alaka": 3947,
      "▁goremedik": 3948,
      "▁cins": 3949,
      "▁ugras": 3950,
      "▁54": 3951,
      "▁neg": 3952,
      "▁%0.3": 3953,
      "▁olanagı": 3954,
      "▁gozet": 3955,
      "▁kapısından": 3956,
      "▁agr": 3957,
      "▁oranının": 3958,
      "▁sirketlerini": 3959,
      "layın": 3960,
      "▁altust": 3961,
      "▁oldugunda": 3962,
      "▁ab": 3963,
      "▁dolayi": 3964,
      "▁hayır": 3965,
      "▁mav": 3966,
      "▁montreal'a": 3967,
      "▁mudahal": 3968,
      "▁silin": 3969,
      "▁yarattı": 3970,
      "▁yumru": 3971,
      "▁uzuntu": 3972,
      "▁vazgec": 3973,
      "▁oluk": 3974,
      "▁yolunu": 3975,
      "▁parasını": 3976,
      "▁akadem": 3977,
      "▁4200'e": 3978,
      "tısına": 3979,
      "▁roy": 3980,
      "tıgımız": 3981,
      "▁yasamadik": 3982,
      "▁kapladı": 3983,
      "▁in": 3984,
      "▁mevki": 3985,
      "ums": 3986,
      "▁tavuk": 3987,
      "▁oku": 3988,
      "aydi": 3989,
      "orp": 3990,
      "▁adamla": 3991,
      "▁hasarı": 3992,
      "lıktan": 3993,
      "▁tersine": 3994,
      "erse": 3995,
      "ememis": 3996,
      "▁vakt": 3997,
      "▁giyinmis": 3998,
      "▁lan": 3999,
      "lerimizi": 4000,
      "▁otelin": 4001,
      "▁yavrum": 4002,
      "▁medeni": 4003,
      "oci": 4004,
      "aliydi": 4005,
      "▁gurultu": 4006,
      "▁kaybeden": 4007,
      "mun": 4008,
      "▁elbet": 4009,
      "▁ısın": 4010,
      "▁1.08": 4011,
      "▁avrup": 4012,
      "▁goren": 4013,
      "▁asagıdaki": 4014,
      "▁dalgası": 4015,
      "▁burcu": 4016,
      "emeyecegim": 4017,
      "▁kapısını": 4018,
      "▁uygulanan": 4019,
      "▁lezzetliydi": 4020,
      "▁kust": 4021,
      "ft": 4022,
      "▁etk": 4023,
      "ısında": 4024,
      "▁heyeti": 4025,
      "▁dusundur": 4026,
      "▁kanad": 4027,
      "▁sayi": 4028,
      "▁anlayan": 4029,
      "▁uretim": 4030,
      "▁alıyor": 4031,
      "diginiz": 4032,
      "▁bonosu": 4033,
      "▁isteyecek": 4034,
      "43": 4035,
      "dis": 4036,
      "▁anlatmak": 4037,
      "esyon": 4038,
      "▁donat": 4039,
      "▁nufuz": 4040,
      "▁kaliteli": 4041,
      "▁pe": 4042,
      "▁topunuz": 4043,
      "▁yardıma": 4044,
      "▁sakat": 4045,
      "▁sanatı": 4046,
      "▁yıla": 4047,
      "▁ucrete": 4048,
      "▁uretimin": 4049,
      "▁dokundu": 4050,
      "anlarla": 4051,
      "▁rah": 4052,
      "▁yukselmistir": 4053,
      "ubet": 4054,
      "▁telefonu": 4055,
      "▁malzemesi": 4056,
      "▁ikibinuc'te": 4057,
      "ile": 4058,
      "▁web": 4059,
      "▁zır": 4060,
      "▁acaba": 4061,
      "▁altına": 4062,
      "▁worth'dan": 4063,
      "▁maymun": 4064,
      "▁sayisi": 4065,
      "ligine": 4066,
      "elerek": 4067,
      "▁arabanın": 4068,
      "▁birbucuk": 4069,
      "▁34": 4070,
      "▁karıstırın": 4071,
      "▁bec": 4072,
      "▁3.45": 4073,
      "▁tet": 4074,
      "amet": 4075,
      "▁memuriyet": 4076,
      "▁mesin": 4077,
      "▁er": 4078,
      "▁parcasını": 4079,
      "▁sorunları": 4080,
      "▁kullanılır": 4081,
      "dok": 4082,
      "rily": 4083,
      "▁br": 4084,
      "▁kalabalik": 4085,
      "▁dısarıdan": 4086,
      "▁arası": 4087,
      "▁oyuna": 4088,
      "3.2": 4089,
      "▁restor": 4090,
      "▁kaldırılması": 4091,
      "▁%25": 4092,
      "▁alan": 4093,
      "▁dediler": 4094,
      "▁gencler": 4095,
      "▁yarıs": 4096,
      "▁ozellestir": 4097,
      "▁bakıma": 4098,
      "daydı": 4099,
      "▁3.2": 4100,
      "lamasına": 4101,
      "▁getirdi": 4102,
      "▁listele": 4103,
      "▁26": 4104,
      "▁kırlangıc": 4105,
      "▁kir": 4106,
      "▁yabanci": 4107,
      "▁faaliyet": 4108,
      "▁kerim": 4109,
      "▁elinde": 4110,
      "▁almaya": 4111,
      "mayla": 4112,
      "▁jand": 4113,
      "▁ajans": 4114,
      "▁tutun": 4115,
      "▁makine": 4116,
      "▁gerisi": 4117,
      "▁rjr": 4118,
      "▁festiv": 4119,
      "▁yirmisekiz": 4120,
      "▁tahmini": 4121,
      "▁yapıyorlar": 4122,
      "▁basarıya": 4123,
      "▁kafasını": 4124,
      "▁olumsuz": 4125,
      "▁rustu": 4126,
      "▁bıraktım": 4127,
      "▁sing": 4128,
      "▁ailesinin": 4129,
      "▁yapıldıgı": 4130,
      "ıc": 4131,
      "▁cekim": 4132,
      "▁capında": 4133,
      "▁payını": 4134,
      "▁dalmıs": 4135,
      "▁1.71": 4136,
      "▁birincisi": 4137,
      "▁surerek": 4138,
      "ledim": 4139,
      "▁kullanarak": 4140,
      "y": 4141,
      "▁4.8": 4142,
      "▁karsılıgında": 4143,
      "▁masaj": 4144,
      "▁kaydeden": 4145,
      "3'te": 4146,
      "▁bog": 4147,
      "▁acıyor": 4148,
      "gı": 4149,
      "▁gozlem": 4150,
      "▁soy": 4151,
      "▁177": 4152,
      "▁cezasını": 4153,
      "▁armagan": 4154,
      "▁katana": 4155,
      "▁belle": 4156,
      "▁yerlere": 4157,
      "▁musterilere": 4158,
      "▁suslu": 4159,
      "▁oylesine": 4160,
      "ers": 4161,
      "les": 4162,
      "▁muhtar": 4163,
      "▁2.90": 4164,
      "▁diyarbakır": 4165,
      "▁eserleri": 4166,
      "▁havuzundan": 4167,
      "▁subv": 4168,
      "▁gecmiyor": 4169,
      "acaktı": 4170,
      "▁radikal": 4171,
      "ebon": 4172,
      "▁darb": 4173,
      "teki": 4174,
      "▁birkac": 4175,
      "▁600": 4176,
      "▁anim": 4177,
      "liydi": 4178,
      "▁kavur": 4179,
      "▁ısır": 4180,
      "▁almadim": 4181,
      "oloji": 4182,
      "▁diego": 4183,
      "▁ihtiyat": 4184,
      "▁patates": 4185,
      "▁ilgisiz": 4186,
      "▁ekleyerek": 4187,
      "▁satmayı": 4188,
      "▁direkt": 4189,
      "▁de": 4190,
      "usune": 4191,
      "▁tamamladı": 4192,
      "▁muzaffer": 4193,
      "▁sesini": 4194,
      "▁gir": 4195,
      "▁iflas": 4196,
      "▁musik": 4197,
      "bap": 4198,
      ".51": 4199,
      "▁200000": 4200,
      "▁duzine": 4201,
      "tedir": 4202,
      "▁kazanc": 4203,
      "▁itibariyle": 4204,
      "▁ydik": 4205,
      "▁halihazırda": 4206,
      "▁olmasıdır": 4207,
      "▁kızının": 4208,
      "▁mutem": 4209,
      "lerde": 4210,
      "▁karanlık": 4211,
      "▁giymis": 4212,
      "▁cagrı": 4213,
      "o'dan": 4214,
      "▁times": 4215,
      "▁abd'ye": 4216,
      "▁ornegin": 4217,
      "▁tasıy": 4218,
      "▁fut": 4219,
      "a.": 4220,
      "'s": 4221,
      "▁1974": 4222,
      "▁ihtiyac": 4223,
      "▁hamle": 4224,
      "lanacak": 4225,
      "esiydi": 4226,
      "spor": 4227,
      "▁mart": 4228,
      "lendirme": 4229,
      "▁yse": 4230,
      "▁kontrol": 4231,
      "▁yapr": 4232,
      "▁j": 4233,
      "▁bekir": 4234,
      "▁marat": 4235,
      "▁hosgor": 4236,
      "▁sıt": 4237,
      "dız": 4238,
      "▁karadeniz": 4239,
      "▁hacm": 4240,
      "▁yapının": 4241,
      "don": 4242,
      "imde": 4243,
      "▁oz": 4244,
      "▁piy": 4245,
      "▁yansıtıyor": 4246,
      "eligi": 4247,
      "x": 4248,
      "▁korkunc": 4249,
      "▁merrill": 4250,
      "▁bitmisti": 4251,
      "▁alevi": 4252,
      "▁kullanmaya": 4253,
      "▁bileti": 4254,
      "▁aramayin": 4255,
      "▁daya": 4256,
      "▁koskoca": 4257,
      "▁eksi": 4258,
      "▁mam": 4259,
      "ebilirler": 4260,
      "▁ulkeleri": 4261,
      "▁herkesin": 4262,
      "lılar": 4263,
      "▁2.2": 4264,
      "▁zat": 4265,
      "▁odayı": 4266,
      "▁sonra": 4267,
      "▁gemiydi": 4268,
      "▁87": 4269,
      "▁duz": 4270,
      "▁minnet": 4271,
      "▁kamuoy": 4272,
      "▁carl": 4273,
      "▁kalabalikti": 4274,
      "meyi": 4275,
      "▁tele": 4276,
      "=": 4277,
      "▁olarak": 4278,
      "▁odamdan": 4279,
      "▁625.4": 4280,
      "'ini": 4281,
      "▁kurmus": 4282,
      "▁kırıl": 4283,
      "▁communications": 4284,
      "▁stone": 4285,
      "larınızı": 4286,
      "▁don": 4287,
      "▁sizlere": 4288,
      "▁tavsiye": 4289,
      "▁kurnaz": 4290,
      "▁mic": 4291,
      "▁mos": 4292,
      "▁yasamın": 4293,
      "▁psil": 4294,
      "▁cuz": 4295,
      "4": 4296,
      "▁ekip": 4297,
      "▁mahluk": 4298,
      "▁yuzum": 4299,
      "▁ilave": 4300,
      "▁si": 4301,
      "amadik": 4302,
      "▁yasında": 4303,
      "▁konut": 4304,
      "▁arabalar": 4305,
      "▁carpıs": 4306,
      "▁yaptıgını": 4307,
      "▁magaza": 4308,
      "endigi": 4309,
      "▁gorundugu": 4310,
      "▁porcuk": 4311,
      "▁toplayıp": 4312,
      "▁baglantılı": 4313,
      "▁ret": 4314,
      "▁gitar": 4315,
      "▁marifet": 4316,
      "malıyız": 4317,
      "▁belirlenen": 4318,
      "▁tutsak": 4319,
      "▁reddet": 4320,
      "▁isyan": 4321,
      "▁asansor": 4322,
      "▁toparlan": 4323,
      "▁degilse": 4324,
      "▁calısmak": 4325,
      "46": 4326,
      "▁burosunda": 4327,
      "▁if": 4328,
      "▁e": 4329,
      "▁perdesi": 4330,
      "▁ulkeler": 4331,
      "ıt": 4332,
      "acagına": 4333,
      "▁kisiyi": 4334,
      "▁karları": 4335,
      "▁acmıstır": 4336,
      "acagız": 4337,
      "▁3/8": 4338,
      "▁lerdir": 4339,
      "▁hukm": 4340,
      ".31": 4341,
      "▁islemlerine": 4342,
      "land": 4343,
      "▁haftada": 4344,
      "▁pasa": 4345,
      "edinin": 4346,
      "▁hukmet": 4347,
      "▁bond": 4348,
      "▁yaparken": 4349,
      "▁elle": 4350,
      "▁epey": 4351,
      "▁hukum": 4352,
      "ilmesi": 4353,
      "▁pufur": 4354,
      "▁haldun": 4355,
      "'ın": 4356,
      "▁bakıyor": 4357,
      "▁ucus": 4358,
      "▁yuruyen": 4359,
      "▁havuzun": 4360,
      "▁yasadık": 4361,
      "▁endustrisi": 4362,
      "▁yaman": 4363,
      "mal": 4364,
      "▁9": 4365,
      "▁faz": 4366,
      "▁tahıl": 4367,
      "▁pur": 4368,
      "▁calıstım": 4369,
      "▁kendimden": 4370,
      "malıdır": 4371,
      "onun": 4372,
      "kah": 4373,
      "likti": 4374,
      "▁geldigimiz": 4375,
      "▁konuları": 4376,
      "▁5.7": 4377,
      "tılar": 4378,
      "▁111": 4379,
      "▁yakısıklı": 4380,
      "▁beyle": 4381,
      "s'un": 4382,
      "▁otoy": 4383,
      "▁haklarını": 4384,
      "t'in": 4385,
      "▁ucuslar": 4386,
      "▁amacıyla": 4387,
      "▁cag": 4388,
      "▁arabaya": 4389,
      "▁basladılar": 4390,
      "may": 4391,
      "▁oldukca": 4392,
      ".00": 4393,
      "▁aradan": 4394,
      "oca": 4395,
      "medigi": 4396,
      "▁gecm": 4397,
      "ediy": 4398,
      "▁almayı": 4399,
      "ci": 4400,
      "▁3.13": 4401,
      "lilik": 4402,
      "▁aylar": 4403,
      "▁kimlik": 4404,
      "▁ho": 4405,
      "ledigi": 4406,
      "ydin": 4407,
      "g": 4408,
      "▁ayakk": 4409,
      "▁polit": 4410,
      "▁elver": 4411,
      "▁stok": 4412,
      "isti": 4413,
      "▁nihat": 4414,
      "▁meclis": 4415,
      "▁425000": 4416,
      "▁kılıc": 4417,
      "▁tutustur": 4418,
      "0'": 4419,
      "▁far": 4420,
      "▁kapının": 4421,
      "▁,": 4422,
      "▁cıkabilir": 4423,
      "▁nuri": 4424,
      "▁safh": 4425,
      "▁ameliyat": 4426,
      "▁kayısı": 4427,
      ".85": 4428,
      "▁iskence": 4429,
      "▁aldık": 4430,
      "▁yitir": 4431,
      "▁board": 4432,
      "▁besinci": 4433,
      "edil": 4434,
      "▁emeklilik": 4435,
      "▁40.4": 4436,
      "delen": 4437,
      "▁zer": 4438,
      "▁tanıtım": 4439,
      "cagız": 4440,
      "▁yerine": 4441,
      "imler": 4442,
      "▁cicek": 4443,
      "edildi": 4444,
      "23": 4445,
      "iyetini": 4446,
      "▁prenses": 4447,
      "▁kıymet": 4448,
      "▁somut": 4449,
      "▁bitir": 4450,
      "▁kalma": 4451,
      "mayalım": 4452,
      "▁duran": 4453,
      "▁baslayacak": 4454,
      "▁serseri": 4455,
      "▁kelep": 4456,
      "▁meydana": 4457,
      "▁soyluyorum": 4458,
      "145": 4459,
      "▁yavas": 4460,
      "▁kendileriyle": 4461,
      "▁2.75": 4462,
      "▁durumdan": 4463,
      "▁cıkmadı": 4464,
      "▁sipar": 4465,
      "▁2662.91": 4466,
      "▁ragmen": 4467,
      "▁ismet": 4468,
      "▁musa": 4469,
      "▁almaktadır": 4470,
      "▁salt": 4471,
      "▁nakit": 4472,
      "-k": 4473,
      "▁300": 4474,
      "sil": 4475,
      "art": 4476,
      "▁vardır": 4477,
      "▁gidilebilecek": 4478,
      "▁hakem": 4479,
      "mıyor": 4480,
      "▁w": 4481,
      "▁ymıs": 4482,
      "▁6.76": 4483,
      "▁israil": 4484,
      "▁planlarını": 4485,
      "▁temelinde": 4486,
      "▁kisiden": 4487,
      "▁sahipti": 4488,
      "▁yene": 4489,
      "amıs": 4490,
      "▁fasuly": 4491,
      "▁uzak": 4492,
      "▁cekiyor": 4493,
      "▁sears": 4494,
      "▁gecis": 4495,
      "sız": 4496,
      "▁fiyati": 4497,
      "▁yaban": 4498,
      "▁saglayacak": 4499,
      "▁net": 4500,
      "▁uctu": 4501,
      "▁orani": 4502,
      "▁bakan": 4503,
      "▁herk": 4504,
      "▁sonradan": 4505,
      "▁siper": 4506,
      "mekte": 4507,
      "▁birimize": 4508,
      "▁toplulugun": 4509,
      "▁gov": 4510,
      "▁kurdugu": 4511,
      "-m": 4512,
      "▁havaalanından": 4513,
      "▁yetmez": 4514,
      "rı": 4515,
      "▁zafer": 4516,
      "▁yorg": 4517,
      "▁tehlike": 4518,
      "▁onunla": 4519,
      "▁yiyecekler": 4520,
      "▁olmuyor": 4521,
      "akar": 4522,
      "▁agzını": 4523,
      "▁doksaniki": 4524,
      "▁caz": 4525,
      "▁buyukel": 4526,
      "▁yatırımları": 4527,
      "▁hayal": 4528,
      "mustuk": 4529,
      "▁bey": 4530,
      "amdan": 4531,
      "▁ithalat": 4532,
      "▁hayv": 4533,
      "ral": 4534,
      "▁hazırlanıyor": 4535,
      "dem": 4536,
      "▁smith": 4537,
      "aket": 4538,
      "▁iletisim": 4539,
      "▁tipik": 4540,
      "▁83": 4541,
      "lumu": 4542,
      "▁hazine": 4543,
      "▁cd": 4544,
      "▁ogle": 4545,
      "▁severim": 4546,
      "▁vegas'a": 4547,
      "▁kurulunun": 4548,
      "▁olurdum": 4549,
      "▁komisyon": 4550,
      "▁derinden": 4551,
      "dar": 4552,
      "▁konuk": 4553,
      "98": 4554,
      "▁fik": 4555,
      "▁21.": 4556,
      "▁vilayet": 4557,
      "munications": 4558,
      "▁duzenlenen": 4559,
      "▁1.25": 4560,
      "ısım": 4561,
      "lere": 4562,
      "▁yazıyı": 4563,
      "▁925": 4564,
      "20": 4565,
      "▁biter": 4566,
      "▁ikib": 4567,
      "ımın": 4568,
      "acagım": 4569,
      "ust": 4570,
      "inizde": 4571,
      "▁bozulmus": 4572,
      "▁zamanla": 4573,
      "▁bulunmak": 4574,
      "▁cincinnati'ye": 4575,
      "▁atol": 4576,
      "▁ingiliz": 4577,
      "▁daglar": 4578,
      "▁seytan": 4579,
      "▁ayna": 4580,
      "▁kalb": 4581,
      "▁memur": 4582,
      ".59": 4583,
      "▁baslıca": 4584,
      "▁saatlerdeki": 4585,
      "▁gore": 4586,
      "▁ortamı": 4587,
      "a'nın": 4588,
      "▁gelmesi": 4589,
      "▁kaydet": 4590,
      "▁adnan": 4591,
      "miyorum": 4592,
      "▁asama": 4593,
      "▁hangisi": 4594,
      "▁maddi": 4595,
      "▁omrunde": 4596,
      "imize": 4597,
      "▁mevcuttur": 4598,
      "▁fırsat": 4599,
      "▁istasyonu": 4600,
      "▁amerika'nın": 4601,
      "▁borc": 4602,
      "▁dunya'nın": 4603,
      "▁diyarbakır'a": 4604,
      "▁mor": 4605,
      "▁nadi": 4606,
      "▁muhafaza": 4607,
      "▁odul": 4608,
      "▁samet": 4609,
      "▁tutus": 4610,
      "▁begenmedim": 4611,
      "▁surecinde": 4612,
      "▁sadak": 4613,
      "▁duvarda": 4614,
      "▁yavr": 4615,
      "este": 4616,
      "▁sanırım": 4617,
      "▁sebebini": 4618,
      "▁kuslar": 4619,
      "▁1.5795": 4620,
      "▁telafi": 4621,
      "▁haksızlık": 4622,
      "▁kesinlikle": 4623,
      "▁iliskiler": 4624,
      "▁isletiyor": 4625,
      "▁universit": 4626,
      "▁strateji": 4627,
      "pe": 4628,
      "▁kalitesinden": 4629,
      "▁doner": 4630,
      "▁bulanık": 4631,
      "omb": 4632,
      "▁arkadasım": 4633,
      "▁odan": 4634,
      "dıgına": 4635,
      "▁dua": 4636,
      "▁katrilyon": 4637,
      "▁hayvan": 4638,
      "▁resepsiyon": 4639,
      "▁torun": 4640,
      "▁cıt": 4641,
      "▁digital": 4642,
      "ebilen": 4643,
      "lerimizin": 4644,
      "▁oncesine": 4645,
      "etini": 4646,
      ".63": 4647,
      "▁ısıkları": 4648,
      "▁yazmak": 4649,
      "larca": 4650,
      "emezsiniz": 4651,
      "▁kasaba": 4652,
      "▁egitimi": 4653,
      "ebilirdi": 4654,
      "▁arkadasını": 4655,
      "'li": 4656,
      "dort": 4657,
      "▁05.": 4658,
      "ti": 4659,
      "ımızdaki": 4660,
      "orm": 4661,
      "rem": 4662,
      "▁gece": 4663,
      "irse": 4664,
      "▁ydim": 4665,
      "▁arkamda": 4666,
      "▁isbir": 4667,
      "lari": 4668,
      "▁cokmus": 4669,
      "▁gosterirler": 4670,
      "▁oyna": 4671,
      "▁alab": 4672,
      "▁kurallar": 4673,
      "▁kullanmadim": 4674,
      "memis": 4675,
      "▁odaydi": 4676,
      "▁yaparlar": 4677,
      "▁he": 4678,
      "▁isimler": 4679,
      "▁1.45": 4680,
      "▁olanaklarını": 4681,
      "▁itir": 4682,
      "▁222": 4683,
      "ley": 4684,
      "▁edilmektedir": 4685,
      "▁kendilerinden": 4686,
      "▁guzeldi": 4687,
      "▁duman": 4688,
      "▁kalmadigim": 4689,
      "▁dinlenmek": 4690,
      "▁w.": 4691,
      "▁1.875": 4692,
      "▁essiz": 4693,
      "esiyle": 4694,
      "▁seattle": 4695,
      "▁birles": 4696,
      "▁bebegi": 4697,
      "▁layık": 4698,
      "▁caddenin": 4699,
      "ıyan": 4700,
      "▁cezası": 4701,
      "▁kalması": 4702,
      "▁toronto'ya": 4703,
      "lerimin": 4704,
      "mayın": 4705,
      "▁islemler": 4706,
      "▁koyup": 4707,
      "8.6": 4708,
      "▁yıllardır": 4709,
      "▁saglay": 4710,
      "▁2.50": 4711,
      "lamalı": 4712,
      "▁kot": 4713,
      "▁959.3": 4714,
      "muslar": 4715,
      "▁2003": 4716,
      "▁28": 4717,
      "▁degisiklikleri": 4718,
      "eyn": 4719,
      "▁bela": 4720,
      "▁karmasık": 4721,
      "usunun": 4722,
      "▁arkada": 4723,
      "▁sunları": 4724,
      "▁gittim": 4725,
      "▁ifad": 4726,
      "dogu": 4727,
      "▁kez": 4728,
      "▁gorunmuyor": 4729,
      "▁6.6": 4730,
      "▁kosa": 4731,
      "▁2017": 4732,
      "ec": 4733,
      "▁500000": 4734,
      "▁zeytinyagı": 4735,
      "lıgından": 4736,
      "gına": 4737,
      "dı": 4738,
      "cak": 4739,
      "▁doları'nda": 4740,
      "▁etmeye": 4741,
      "▁sarap": 4742,
      "subishi": 4743,
      "▁bankacı": 4744,
      "▁zih": 4745,
      "▁icra": 4746,
      "▁191": 4747,
      "▁herkesten": 4748,
      "▁sandaly": 4749,
      "▁salınc": 4750,
      "▁bom": 4751,
      "▁bolum": 4752,
      "dun": 4753,
      "▁keleb": 4754,
      "masını": 4755,
      "▁bakım": 4756,
      "arlan": 4757,
      "▁birileri": 4758,
      "▁1997": 4759,
      "▁dusup": 4760,
      "▁bilesik": 4761,
      "▁ikisinin": 4762,
      "▁seylere": 4763,
      "▁22.": 4764,
      "▁associ": 4765,
      "esini": 4766,
      "ont": 4767,
      "adar": 4768,
      "gele": 4769,
      "imser": 4770,
      "▁cıktıgını": 4771,
      "▁lutfen": 4772,
      "▁sapka": 4773,
      "▁diktator": 4774,
      "▁piyasasının": 4775,
      "▁cip": 4776,
      "▁secimi": 4777,
      "▁sabahın": 4778,
      "▁edemiyor": 4779,
      "▁tarafın": 4780,
      "▁korktu": 4781,
      "▁1989-": 4782,
      "▁edip": 4783,
      "▁1960": 4784,
      "▁bran": 4785,
      "▁kalite": 4786,
      "▁gercekci": 4787,
      "▁tahammul": 4788,
      "▁isletme": 4789,
      "▁yoktu": 4790,
      "▁arat": 4791,
      "▁ih": 4792,
      "▁zul": 4793,
      "▁'dır": 4794,
      "▁duzlem": 4795,
      "▁ayın": 4796,
      "▁ik": 4797,
      "▁ureticiler": 4798,
      "▁konaklama": 4799,
      "▁boylu": 4800,
      "▁ilerledi": 4801,
      "▁onlarda": 4802,
      "▁oturma": 4803,
      "▁goruldu": 4804,
      "▁dostum": 4805,
      "ma": 4806,
      "▁nedim": 4807,
      "▁adamlarının": 4808,
      "▁ziyaret": 4809,
      "▁rahmet": 4810,
      "▁read": 4811,
      "▁hediye": 4812,
      "▁william": 4813,
      "▁cit": 4814,
      "▁duyunca": 4815,
      "▁te": 4816,
      "affer": 4817,
      "▁kaldıgı": 4818,
      "▁cetin": 4819,
      "phia": 4820,
      ".46": 4821,
      "▁dogmus": 4822,
      "hal": 4823,
      "▁doların": 4824,
      "▁hiss": 4825,
      "▁oyn": 4826,
      "▁gozunu": 4827,
      "mekle": 4828,
      "▁abd'nin": 4829,
      "▁abdullah": 4830,
      "▁yaratan": 4831,
      "▁ecevit": 4832,
      "ayet": 4833,
      "▁destekli": 4834,
      ".0": 4835,
      "▁ekonomist": 4836,
      "▁resesyon": 4837,
      "▁nedenle": 4838,
      "▁yanını": 4839,
      "▁hugo": 4840,
      "▁isciyi": 4841,
      "feld": 4842,
      "▁dukkanın": 4843,
      "▁danısmanlık": 4844,
      "▁9.7": 4845,
      "▁ugur": 4846,
      "▁ingilizce": 4847,
      "ısıydı": 4848,
      "▁katlı": 4849,
      "ton": 4850,
      ";": 4851,
      "▁degerlendirmek": 4852,
      "▁yog": 4853,
      "▁ticareti": 4854,
      "▁pasap": 4855,
      "▁senden": 4856,
      "▁hakikat": 4857,
      "▁gunden": 4858,
      "ume": 4859,
      "eyle": 4860,
      "ılırsa": 4861,
      "▁kısk": 4862,
      "▁ust": 4863,
      "▁bug": 4864,
      "▁memnun": 4865,
      "▁idare": 4866,
      "▁27": 4867,
      "▁pay": 4868,
      "▁ettikten": 4869,
      "▁kararlastır": 4870,
      "▁olumune": 4871,
      "▁cra": 4872,
      "▁agac": 4873,
      "▁dalgaliydi": 4874,
      "▁yerlesik": 4875,
      "liam": 4876,
      "▁miy": 4877,
      "rut": 4878,
      "▁havaya": 4879,
      "▁bakınız": 4880,
      "▁dusmek": 4881,
      "▁sci": 4882,
      "a'ya": 4883,
      "▁akıllı": 4884,
      "▁yemin": 4885,
      "▁sırtını": 4886,
      "▁ayrılık": 4887,
      "▁edilec": 4888,
      "cek": 4889,
      "ildi": 4890,
      "▁dengeli": 4891,
      "▁12.3": 4892,
      "▁mısır": 4893,
      "▁duzenleyici": 4894,
      "oth": 4895,
      "▁sorustur": 4896,
      "ani": 4897,
      "▁29": 4898,
      "▁53": 4899,
      "▁soylemek": 4900,
      "▁yapmıslar": 4901,
      "▁dallas": 4902,
      "▁542": 4903,
      "lice": 4904,
      "▁kaydetti": 4905,
      "▁yı": 4906,
      "▁rub": 4907,
      "▁tutarak": 4908,
      "▁temerrut": 4909,
      "▁sola": 4910,
      "▁detay": 4911,
      "▁didik": 4912,
      "▁durdur": 4913,
      "emek": 4914,
      "▁kaldır": 4915,
      "gan": 4916,
      "iya": 4917,
      "adı": 4918,
      "edim": 4919,
      "▁cadd": 4920,
      "▁ramaz": 4921,
      "▁kapasitesine": 4922,
      "▁temel": 4923,
      "▁seviyede": 4924,
      "▁yank": 4925,
      "▁yurd": 4926,
      "▁lobi": 4927,
      "▁kalırdı": 4928,
      "▁vergi": 4929,
      "▁verebilirim": 4930,
      "▁dalk": 4931,
      "▁guver": 4932,
      "▁teklifi": 4933,
      "dut": 4934,
      "agım": 4935,
      "▁dr": 4936,
      "▁beton": 4937,
      "▁elektronik": 4938,
      "▁askeri": 4939,
      "▁1.58": 4940,
      "▁saldırı": 4941,
      "▁telas": 4942,
      "▁oynak": 4943,
      "▁viraj": 4944,
      "▁dengel": 4945,
      "▁elini": 4946,
      "▁islemlerinde": 4947,
      "▁memph": 4948,
      "▁yaslı": 4949,
      "▁birimleri": 4950,
      "▁sayı": 4951,
      "▁bulas": 4952,
      "▁sinemaya": 4953,
      "▁gelerek": 4954,
      "▁ogut": 4955,
      "amız": 4956,
      "▁asil": 4957,
      "abody": 4958,
      "▁tatlilar": 4959,
      "▁temmuz'da": 4960,
      "▁icmek": 4961,
      "▁%7.": 4962,
      "▁belki": 4963,
      "▁med": 4964,
      "▁sansur": 4965,
      "▁tepk": 4966,
      "are": 4967,
      "uyorlar": 4968,
      "▁kapalı": 4969,
      "▁0.3": 4970,
      "▁biy": 4971,
      "▁odalardan": 4972,
      ".87": 4973,
      "▁muhendislik": 4974,
      "▁davacı": 4975,
      "▁gozluk": 4976,
      "▁doyur": 4977,
      "isse": 4978,
      "▁vasat": 4979,
      "▁yarısına": 4980,
      "asa": 4981,
      "▁6.5": 4982,
      "iss": 4983,
      "▁senetleri": 4984,
      "▁igne": 4985,
      "ustr": 4986,
      "▁uret": 4987,
      "aması": 4988,
      "▁saglıklı": 4989,
      "▁calismasina": 4990,
      "▁tarafına": 4991,
      "ladıkları": 4992,
      "▁yuzune": 4993,
      "▁pak": 4994,
      "▁sise": 4995,
      "▁yorul": 4996,
      "▁3": 4997,
      "▁gozlerini": 4998,
      "▁secenek": 4999,
      "▁hort": 5000,
      "▁yaptirmadigim": 5001,
      "▁olayların": 5002,
      "yetmis": 5003,
      "▁tarl": 5004,
      "▁asılı": 5005,
      "▁soba": 5006,
      "rir": 5007,
      "▁100000": 5008,
      "▁ekonomik": 5009,
      "ikli": 5010,
      "▁8.75": 5011,
      "las": 5012,
      "uston": 5013,
      "▁belirtmek": 5014,
      "▁ayarlan": 5015,
      "▁lezzetleri": 5016,
      "▁geliyor": 5017,
      "▁kuf": 5018,
      "▁yansı": 5019,
      ".96": 5020,
      "▁dalgalar": 5021,
      "▁lu": 5022,
      "andan": 5023,
      "▁tayyip": 5024,
      "▁av": 5025,
      "▁santaj": 5026,
      "▁koleksiyon": 5027,
      "▁istendi": 5028,
      "▁cıktım": 5029,
      "▁300000": 5030,
      "tırdı": 5031,
      "▁altern": 5032,
      "▁%2": 5033,
      "▁3\\/4": 5034,
      "7": 5035,
      "▁love": 5036,
      "▁bilirdi": 5037,
      "▁borsa": 5038,
      "ok": 5039,
      "▁numaralı": 5040,
      "▁dalı": 5041,
      "ırak": 5042,
      "▁fedakarlık": 5043,
      "▁ek": 5044,
      "▁bro": 5045,
      "mıslardı": 5046,
      "▁tarihli": 5047,
      "▁duskun": 5048,
      "▁evin": 5049,
      "▁gormeden": 5050,
      "uya": 5051,
      "abilirsiniz": 5052,
      "▁standart": 5053,
      "se": 5054,
      "▁cevr": 5055,
      "▁38": 5056,
      "▁meclisi": 5057,
      "▁onunde": 5058,
      "▁dairesine": 5059,
      "lamayı": 5060,
      "▁gozlerinin": 5061,
      "▁alcak": 5062,
      "elerle": 5063,
      "▁107": 5064,
      "▁cagırdı": 5065,
      "▁inanmak": 5066,
      "▁cekic": 5067,
      "▁sivri": 5068,
      "▁farklılık": 5069,
      "▁tehdi": 5070,
      "▁1.8470": 5071,
      "▁ayagı": 5072,
      "lin": 5073,
      "▁dyp": 5074,
      "▁ayla": 5075,
      "▁masası": 5076,
      "▁aldan": 5077,
      "36": 5078,
      "▁istat": 5079,
      "irmis": 5080,
      "adel": 5081,
      "▁savr": 5082,
      "ıver": 5083,
      "▁evvel": 5084,
      "▁tip": 5085,
      "ding": 5086,
      "▁yapildi": 5087,
      "▁charles": 5088,
      "▁vatandas": 5089,
      "▁hazret": 5090,
      "▁fiyatlı": 5091,
      "▁gecmeye": 5092,
      "▁degerler": 5093,
      "sini": 5094,
      "ıyoruz": 5095,
      "mıssın": 5096,
      "▁ayrildik": 5097,
      "gunu": 5098,
      "▁ele": 5099,
      "▁eyalet": 5100,
      "masıyla": 5101,
      "▁helal": 5102,
      "▁cehre": 5103,
      "▁sehrine": 5104,
      "▁gerekiyor": 5105,
      "lılı": 5106,
      "▁24": 5107,
      "▁birini": 5108,
      "▁gunesli": 5109,
      "▁lap": 5110,
      "▁donuyor": 5111,
      "▁sas": 5112,
      "luyordu": 5113,
      "▁levent": 5114,
      "▁dusecek": 5115,
      "▁haluk": 5116,
      "▁giriste": 5117,
      "nal": 5118,
      "▁zararı": 5119,
      "▁fıldır": 5120,
      ".02": 5121,
      "▁kat": 5122,
      "▁okurdu": 5123,
      "ucuk": 5124,
      "▁anayasa": 5125,
      "▁mola": 5126,
      "▁karmakar": 5127,
      "▁%80": 5128,
      "▁buna": 5129,
      "▁onyedi": 5130,
      "▁taraf": 5131,
      "▁fing": 5132,
      "lanta": 5133,
      "▁girmek": 5134,
      "n": 5135,
      "rinin": 5136,
      "▁dav": 5137,
      "▁agırlık": 5138,
      "imp": 5139,
      "idi": 5140,
      "▁1986": 5141,
      "lendigi": 5142,
      "▁verim": 5143,
      "amaz": 5144,
      "▁kesip": 5145,
      "▁kullanıl": 5146,
      "ılmaz": 5147,
      "agında": 5148,
      "egen": 5149,
      "▁pantolon": 5150,
      "▁yiyip": 5151,
      "▁koyar": 5152,
      "▁tesebbus": 5153,
      "▁buzlu": 5154,
      "▁yolculugun": 5155,
      "▁hur": 5156,
      "▁hucr": 5157,
      "▁kaybetmis": 5158,
      "▁0.010": 5159,
      "▁odenmemis": 5160,
      "▁getirileri": 5161,
      "▁kalmadik": 5162,
      "▁ac": 5163,
      "▁azalt": 5164,
      "ayarak": 5165,
      "▁bircokları": 5166,
      "▁ste": 5167,
      "▁kolayca": 5168,
      "▁elestir": 5169,
      "▁ciro": 5170,
      "lının": 5171,
      "▁yemekten": 5172,
      "dıgımızı": 5173,
      "▁gunlerde": 5174,
      "tum": 5175,
      "▁olen": 5176,
      "▁ergen": 5177,
      "▁ortaydi": 5178,
      "▁maliye": 5179,
      "'ten": 5180,
      "ody": 5181,
      "kab": 5182,
      "▁hastanın": 5183,
      "▁balıgı": 5184,
      "▁edilemez": 5185,
      "▁konuyla": 5186,
      "▁uyus": 5187,
      "▁gorec": 5188,
      "▁kaptır": 5189,
      "▁kıc": 5190,
      "lular": 5191,
      "▁eastern": 5192,
      "▁seyirci": 5193,
      "▁deng": 5194,
      "▁siddetli": 5195,
      "akat": 5196,
      "▁guvenli": 5197,
      "▁seviyesinde": 5198,
      "▁anlamak": 5199,
      "tar": 5200,
      "und": 5201,
      "▁1.6145": 5202,
      "▁10.": 5203,
      "▁cebine": 5204,
      "▁kultur": 5205,
      "▁garson": 5206,
      "▁direk": 5207,
      "abı": 5208,
      "▁katıl": 5209,
      "melerini": 5210,
      "▁dini": 5211,
      "▁ayaklarının": 5212,
      "▁sagır": 5213,
      "▁memnundum": 5214,
      "▁1.02": 5215,
      "malık": 5216,
      "ındık": 5217,
      "▁sabırsız": 5218,
      "▁davranislari": 5219,
      "▁mektep": 5220,
      "▁bekler": 5221,
      "▁1.3": 5222,
      "▁muhasebe": 5223,
      "▁arabacı": 5224,
      "acılıgı": 5225,
      "▁tik": 5226,
      "▁cekici": 5227,
      "▁unu": 5228,
      "cut": 5229,
      "▁ım": 5230,
      "antaj": 5231,
      "▁goruluyor": 5232,
      "▁gelmeden": 5233,
      "▁maliyeti": 5234,
      "▁duymus": 5235,
      "▁gosterin": 5236,
      "▁kur'an": 5237,
      "▁faiz": 5238,
      "▁ihracı": 5239,
      "▁kacamak": 5240,
      "▁evi": 5241,
      "▁planın": 5242,
      "▁nas": 5243,
      "▁erkege": 5244,
      "ov": 5245,
      "▁borcunu": 5246,
      "▁sayıl": 5247,
      "▁ins": 5248,
      "▁kapan": 5249,
      "cher": 5250,
      "▁giyim": 5251,
      "▁haliyle": 5252,
      "▁kactı": 5253,
      "esin": 5254,
      "▁kardesim": 5255,
      "▁sozlerine": 5256,
      "▁duyur": 5257,
      "gunun": 5258,
      "▁politikası": 5259,
      "▁kom": 5260,
      "▁parti": 5261,
      "▁tarafını": 5262,
      "▁tutar": 5263,
      "▁sup": 5264,
      "alarında": 5265,
      "▁ılık": 5266,
      "▁rıh": 5267,
      "ilecek": 5268,
      "▁bana": 5269,
      "▁teor": 5270,
      "▁anad": 5271,
      "▁romantik": 5272,
      "▁3'ten": 5273,
      "▁tanr": 5274,
      "▁sohbet": 5275,
      "▁dusunceler": 5276,
      "▁halil": 5277,
      "▁kızdı": 5278,
      "▁kırk": 5279,
      "ecek": 5280,
      "▁ugram": 5281,
      "▁cocuklarını": 5282,
      "▁suyuna": 5283,
      "▁575": 5284,
      "▁nik": 5285,
      "▁deprem": 5286,
      "gında": 5287,
      "▁sehit": 5288,
      "cıl": 5289,
      "▁oyunc": 5290,
      "▁ilgilenmiyor": 5291,
      "mel": 5292,
      "▁francisco'da": 5293,
      "▁yi": 5294,
      "▁aktor": 5295,
      "▁turlu": 5296,
      "▁zeyt": 5297,
      "▁yatırımcılar": 5298,
      "▁erbakan": 5299,
      "▁columbus": 5300,
      "eveyn": 5301,
      "▁3\\/8": 5302,
      "▁top": 5303,
      "▁siir": 5304,
      "▁bakalım": 5305,
      "$": 5306,
      "▁197": 5307,
      "▁hır": 5308,
      "▁abd'de": 5309,
      "et": 5310,
      "▁getir": 5311,
      "▁cı": 5312,
      "▁ilgilenmediler": 5313,
      "gunuz": 5314,
      "▁kisi": 5315,
      "▁ekm": 5316,
      "▁hınc": 5317,
      "▁toreni": 5318,
      "'an": 5319,
      "▁olusuyor": 5320,
      "▁olculu": 5321,
      "▁terk": 5322,
      "▁ittifak": 5323,
      "ucusu": 5324,
      "▁gecmeden": 5325,
      "▁suruklen": 5326,
      "▁mobil": 5327,
      "▁boyun": 5328,
      "dig": 5329,
      "▁supur": 5330,
      "livan": 5331,
      "▁muham": 5332,
      "▁tepki": 5333,
      "▁gag": 5334,
      "▁kayn": 5335,
      "▁istanbul'un": 5336,
      "v": 5337,
      "▁savun": 5338,
      "sı": 5339,
      "leyen": 5340,
      "▁deney": 5341,
      "▁hikmet": 5342,
      "▁erz": 5343,
      "▁versiyonu": 5344,
      "▁sahil": 5345,
      "▁yemegini": 5346,
      "▁cember": 5347,
      "▁alırdı": 5348,
      "gumu": 5349,
      "lıyordu": 5350,
      "▁114": 5351,
      "▁veriyoruz": 5352,
      ".375": 5353,
      "amazlar": 5354,
      "▁190": 5355,
      "emiyordu": 5356,
      "▁gunlerinde": 5357,
      "[PAD]": 5358,
      "alarca": 5359,
      "▁mustesar": 5360,
      "▁arab": 5361,
      "▁yakinlar": 5362,
      "▁1.0": 5363,
      "▁boyu": 5364,
      "▁budur": 5365,
      "▁uyk": 5366,
      "65": 5367,
      "▁karak": 5368,
      "lıgı": 5369,
      "▁bencil": 5370,
      "▁aga": 5371,
      "▁kira": 5372,
      "▁gerek": 5373,
      "▁baskaları": 5374,
      "▁bizimle": 5375,
      "▁muay": 5376,
      "/4'e": 5377,
      "▁gonzal": 5378,
      "gide": 5379,
      "▁kolu": 5380,
      "▁dai": 5381,
      "▁performan": 5382,
      "▁eder": 5383,
      "▁kaleme": 5384,
      "▁lezizdi": 5385,
      "▁parca": 5386,
      "abil": 5387,
      "▁plana": 5388,
      "▁75": 5389,
      "▁oyku": 5390,
      "arik": 5391,
      "▁dursun": 5392,
      "▁tek": 5393,
      "▁ugrayacak": 5394,
      "gileri": 5395,
      "mustu": 5396,
      "▁cıkarmaya": 5397,
      "timore": 5398,
      "▁iltifat": 5399,
      "ecekleri": 5400,
      "▁ulus": 5401,
      "▁211": 5402,
      "▁gru": 5403,
      "▁yardı": 5404,
      "ecegine": 5405,
      "'u": 5406,
      "▁cicekli": 5407,
      "▁sezonu": 5408,
      "▁bulbul": 5409,
      "▁bazilari": 5410,
      "▁kucums": 5411,
      "▁yayınlar": 5412,
      "▁uslup": 5413,
      "elemek": 5414,
      "▁sayısını": 5415,
      "▁mahs": 5416,
      "ki": 5417,
      "▁ulasım": 5418,
      "▁francisco": 5419,
      "▁mute": 5420,
      "▁ortaklık": 5421,
      "▁londra": 5422,
      "▁harap": 5423,
      "▁tesisi": 5424,
      "▁oranlarının": 5425,
      "▁sokaktan": 5426,
      "▁serin": 5427,
      "uncaya": 5428,
      "▁edi": 5429,
      "▁guleryuzluydu": 5430,
      "▁yanıp": 5431,
      "ulu": 5432,
      "osyon": 5433,
      "▁anlar": 5434,
      "illi": 5435,
      "▁tavla": 5436,
      "alara": 5437,
      "olf": 5438,
      "▁alkıs": 5439,
      "avuk": 5440,
      "▁havuzlari": 5441,
      "▁borsası'ndaki": 5442,
      "abilecegi": 5443,
      "▁koku": 5444,
      "▁5.94": 5445,
      "▁95.2": 5446,
      "▁burun": 5447,
      "▁arkadası": 5448,
      "▁ile": 5449,
      "▁nihal": 5450,
      "▁birlesik": 5451,
      "▁amcam": 5452,
      "▁405": 5453,
      "▁ozg": 5454,
      "▁yagmur": 5455,
      "▁faizli": 5456,
      "▁gosterdigini": 5457,
      "mes": 5458,
      "▁64": 5459,
      "heim": 5460,
      "▁bunları": 5461,
      "▁akısı": 5462,
      "▁degerlendirme": 5463,
      "▁7.8": 5464,
      "▁yılının": 5465,
      "▁tacoma'dan": 5466,
      "▁bekledigi": 5467,
      "alarda": 5468,
      "▁eki": 5469,
      "alanı": 5470,
      "▁yapma": 5471,
      "▁sıc": 5472,
      "▁tasları": 5473,
      "▁aynen": 5474,
      "▁sayan": 5475,
      "▁yukseldi": 5476,
      "eyince": 5477,
      "▁gozlerinden": 5478,
      "uklum": 5479,
      "▁ugradı": 5480,
      "gumuz": 5481,
      "▁bm": 5482,
      "atas": 5483,
      "▁yerlerini": 5484,
      "▁sirketleri": 5485,
      "▁arkadaslar": 5486,
      "duz": 5487,
      "▁1.50": 5488,
      "▁adım": 5489,
      "olu": 5490,
      "▁vali": 5491,
      "▁edilecek": 5492,
      "▁etmey": 5493,
      "inghouse": 5494,
      "cıların": 5495,
      "▁mih": 5496,
      "isiz": 5497,
      "▁yuru": 5498,
      "▁usa": 5499,
      "▁cep": 5500,
      "▁cinc": 5501,
      "ersiniz": 5502,
      "▁biriktir": 5503,
      "▁fıs": 5504,
      "▁13": 5505,
      "ant": 5506,
      "amayacagı": 5507,
      "▁kup": 5508,
      "▁tampa'dan": 5509,
      "liklerini": 5510,
      "▁pin": 5511,
      "▁begendim": 5512,
      "▁sevda": 5513,
      "▁aramız": 5514,
      "▁muayene": 5515,
      "▁sekizoniki": 5516,
      "▁buluyor": 5517,
      "▁arz": 5518,
      "▁dislerini": 5519,
      "▁kavram": 5520,
      "▁yapılmıs": 5521,
      "ildigini": 5522,
      "▁bazında": 5523,
      "▁aglamaya": 5524,
      "6'da": 5525,
      "▁rahat": 5526,
      "▁ohi": 5527,
      "▁tatili": 5528,
      "▁yoz": 5529,
      "▁karsilayan": 5530,
      "maktan": 5531,
      "▁ayık": 5532,
      "▁abi": 5533,
      "▁ilgisini": 5534,
      "▁as": 5535,
      "6'dan": 5536,
      "isiniz": 5537,
      "▁zamanda": 5538,
      "▁end": 5539,
      "▁raki": 5540,
      "celi": 5541,
      "eniz": 5542,
      "▁92": 5543,
      "▁mahf": 5544,
      "▁mitsubishi": 5545,
      "▁catır": 5546,
      "93": 5547,
      "▁oranını": 5548,
      "&": 5549,
      "▁sizden": 5550,
      "paz": 5551,
      "lamasını": 5552,
      "▁mana": 5553,
      "▁oynan": 5554,
      "aragu": 5555,
      "▁canadian": 5556,
      "bur": 5557,
      "▁kollarını": 5558,
      "▁oyunu": 5559,
      "▁askın": 5560,
      "▁devreye": 5561,
      "▁kalıyor": 5562,
      "erve": 5563,
      "▁1966": 5564,
      "▁kalkıslı": 5565,
      "▁grev": 5566,
      "▁vurmus": 5567,
      "negin": 5568,
      "▁yukarıda": 5569,
      "▁em": 5570,
      "▁yemeklerde": 5571,
      "▁torb": 5572,
      "▁surdurdu": 5573,
      "▁kargo": 5574,
      "▁takımın": 5575,
      "▁ruy": 5576,
      "▁ic": 5577,
      "es": 5578,
      "ıya": 5579,
      "▁sınıfın": 5580,
      "▁150000": 5581,
      "▁tarihin": 5582,
      "▁iceriden": 5583,
      "▁arasındaki": 5584,
      "▁gordugum": 5585,
      "▁kulah": 5586,
      "▁arasından": 5587,
      "▁mek": 5588,
      "▁merkezli": 5589,
      "▁yazdıgı": 5590,
      "0.4": 5591,
      "▁cekmec": 5592,
      "▁hayatta": 5593,
      "▁guvenilir": 5594,
      "▁balkon": 5595,
      "▁fenerbah": 5596,
      "▁oturup": 5597,
      "▁ideolojik": 5598,
      "▁imtiyaz": 5599,
      "▁gundem": 5600,
      "▁dc": 5601,
      "▁cet": 5602,
      "▁murekk": 5603,
      "▁muhafazakar": 5604,
      "▁corp.": 5605,
      "▁evinin": 5606,
      "uculuk": 5607,
      "deniz": 5608,
      "▁yolcu": 5609,
      "▁asık": 5610,
      "▁dolandırıcılık": 5611,
      "▁go": 5612,
      "▁1761": 5613,
      "▁seyahat": 5614,
      "ith": 5615,
      "▁sana": 5616,
      "▁atları": 5617,
      "▁0.2": 5618,
      "▁planlamam": 5619,
      "▁dahası": 5620,
      "▁konusuyor": 5621,
      "▁feder": 5622,
      "lerimiz": 5623,
      "▁ri": 5624,
      "?": 5625,
      "ix": 5626,
      "▁tenis": 5627,
      "▁bugday": 5628,
      "▁luz": 5629,
      "▁vermedi": 5630,
      "▁olumu": 5631,
      "▁ısrar": 5632,
      "▁onu": 5633,
      "acagim": 5634,
      "▁kategor": 5635,
      "▁81": 5636,
      "▁aksamki": 5637,
      "▁kent": 5638,
      "▁dır": 5639,
      "ılık": 5640,
      "▁count": 5641,
      ".05": 5642,
      "▁yesil": 5643,
      "▁gecirir": 5644,
      "▁halleri": 5645,
      "▁yanıyordu": 5646,
      "▁nissan": 5647,
      "▁iktidar": 5648,
      "▁andıran": 5649,
      "▁kuba": 5650,
      ".97": 5651,
      "▁boru": 5652,
      "▁hon": 5653,
      "▁elime": 5654,
      "▁kırıklıgına": 5655,
      "mısım": 5656,
      "ık": 5657,
      "▁yapmadı": 5658,
      "▁gonder": 5659,
      "▁kısaca": 5660,
      "▁lor": 5661,
      "▁kum": 5662,
      "▁phoeni": 5663,
      "▁tımar": 5664,
      "▁tanıyor": 5665,
      "▁maruz": 5666,
      "▁muhtac": 5667,
      "…": 5668,
      "▁optik": 5669,
      "▁1999": 5670,
      "▁eleman": 5671,
      "▁yardım": 5672,
      "▁33": 5673,
      "▁cincinnati'den": 5674,
      "▁yans": 5675,
      ".92": 5676,
      "▁gorunmek": 5677,
      "▁performansi": 5678,
      "▁1991'de": 5679,
      "▁ef": 5680,
      "▁yargıc": 5681,
      "akal": 5682,
      "▁comert": 5683,
      "ınız": 5684,
      "▁journal": 5685,
      "▁yasamak": 5686,
      "▁konforluydu": 5687,
      "▁koskun": 5688,
      "▁degildik": 5689,
      "▁ipot": 5690,
      "▁yahudi": 5691,
      "▁jersey": 5692,
      "▁ormanın": 5693,
      "▁efendim": 5694,
      "▁1987": 5695,
      "▁heyecanla": 5696,
      "▁gelmez": 5697,
      "▁rus": 5698,
      "▁ilkbahar": 5699,
      "▁ilan": 5700,
      "▁kalmayı": 5701,
      "▁siiri": 5702,
      "▁halde": 5703,
      "▁dl": 5704,
      "▁beklentimin": 5705,
      "ulmustur": 5706,
      "esiye": 5707,
      "elig": 5708,
      "▁ce": 5709,
      "▁ucuslarını": 5710,
      "▁sonuclarını": 5711,
      "▁sallayarak": 5712,
      "30": 5713,
      "wn": 5714,
      "▁sermaye": 5715,
      "▁goruyordu": 5716,
      "▁ucusunu": 5717,
      "▁yuksek": 5718,
      "▁21:00-22:30": 5719,
      "▁tarihten": 5720,
      "▁negatif": 5721,
      "▁milyon": 5722,
      "lesmisti": 5723,
      "▁basladım": 5724,
      "▁sirketini": 5725,
      "▁ozellikleri": 5726,
      "yim": 5727,
      "▁gıda": 5728,
      "it'in": 5729,
      "▁kulfet": 5730,
      "▁anlasılıyor": 5731,
      "▁'de": 5732,
      "▁duygu": 5733,
      "▁kaybederek": 5734,
      "▁sekil": 5735,
      "▁gur": 5736,
      "▁calısma": 5737,
      "▁cizg": 5738,
      "tılı": 5739,
      "▁cas": 5740,
      "ustu": 5741,
      "asındaki": 5742,
      "▁ak": 5743,
      "▁imkan": 5744,
      "▁olmamıs": 5745,
      "▁topraga": 5746,
      "▁spekulasyon": 5747,
      "▁anlatım": 5748,
      "digin": 5749,
      "rist": 5750,
      "ınıza": 5751,
      "▁memlekette": 5752,
      "▁erkek": 5753,
      "▁hayat": 5754,
      "▁ilgilendir": 5755,
      "▁bagları": 5756,
      "▁y": 5757,
      "▁7.52": 5758,
      "▁uye": 5759,
      "emesi": 5760,
      "ico": 5761,
      "kal": 5762,
      "▁kitapları": 5763,
      "▁digerleri": 5764,
      "▁1.6030": 5765,
      "▁172": 5766,
      "▁sov": 5767,
      "▁zeki": 5768,
      "▁bon": 5769,
      "▁icerir": 5770,
      "▁kalem": 5771,
      "▁sendik": 5772,
      "verdi": 5773,
      "ansiyon": 5774,
      "lıklarını": 5775,
      "▁yildi": 5776,
      "▁dikkatle": 5777,
      "▁getirildi": 5778,
      "▁brothers": 5779,
      "▁guzelligi": 5780,
      "▁paya": 5781,
      "▁yonelt": 5782,
      "▁ayrıntılı": 5783,
      "▁ihale": 5784,
      "▁ders": 5785,
      "▁onceki": 5786,
      "▁coskun": 5787,
      "▁temsilciler": 5788,
      "▁ucaklar": 5789,
      "▁1992'de": 5790,
      "▁almadan": 5791,
      "▁ay": 5792,
      "uye": 5793,
      "▁doga": 5794,
      "▁olmayacagını": 5795,
      "l": 5796,
      "▁ceza": 5797,
      "▁ucuslarla": 5798,
      "▁danısman": 5799,
      "▁yaprak": 5800,
      "▁odeme": 5801,
      "▁cicegi": 5802,
      "▁faaliyetleri": 5803,
      "▁pilav": 5804,
      "▁karısık": 5805,
      "▁national": 5806,
      "otik": 5807,
      "▁dekorasyonu": 5808,
      "▁evlilig": 5809,
      "▁mal": 5810,
      "▁ceyr": 5811,
      "▁sofraya": 5812,
      "▁muaf": 5813,
      "sler": 5814,
      "tırken": 5815,
      ".33": 5816,
      "▁dagdan": 5817,
      "▁muhafaz": 5818,
      "▁girmez": 5819,
      "ah": 5820,
      "▁zay": 5821,
      "▁yeg": 5822,
      "▁universitesi'nde": 5823,
      "▁parmagını": 5824,
      "▁miami'ye": 5825,
      "▁doktora": 5826,
      "▁cıglık": 5827,
      "▁gittigi": 5828,
      "▁850": 5829,
      "ji": 5830,
      "▁caresiz": 5831,
      "larımızın": 5832,
      "▁tavana": 5833,
      "▁degmis": 5834,
      "isler": 5835,
      "▁fatur": 5836,
      "▁analistler": 5837,
      "▁kopuk": 5838,
      "▁yıkan": 5839,
      "▁sab": 5840,
      "▁ikiye": 5841,
      "▁kendisine": 5842,
      "irlik": 5843,
      "▁istah": 5844,
      "▁talih": 5845,
      "▁ucagın": 5846,
      "tikleri": 5847,
      "▁maliyetleri": 5848,
      "▁sterlin": 5849,
      "▁gunese": 5850,
      "emezdi": 5851,
      "▁dudak": 5852,
      "lendiriyor": 5853,
      "egim": 5854,
      "duktan": 5855,
      "▁uygar": 5856,
      "▁kayb": 5857,
      "-": 5858,
      "▁kendilerine": 5859,
      "▁finanse": 5860,
      "▁brad": 5861,
      "▁geliyordu": 5862,
      "▁sunun": 5863,
      "▁fikirleri": 5864,
      "▁cocuklarına": 5865,
      "▁isvic": 5866,
      "7.6": 5867,
      "mac": 5868,
      "hanede": 5869,
      "▁haiz": 5870,
      "▁aldılar": 5871,
      "▁4.75": 5872,
      "▁yalap": 5873,
      "▁koyuldu": 5874,
      "▁esvap": 5875,
      "▁tatil": 5876,
      "▁ysa": 5877,
      "alıyor": 5878,
      "▁nerelere": 5879,
      "field": 5880,
      "+": 5881,
      "▁zorluk": 5882,
      "▁keyifli": 5883,
      "▁alet": 5884,
      "▁kucucuk": 5885,
      "▁basrol": 5886,
      "▁olanakları": 5887,
      "▁prot": 5888,
      "▁mevsim": 5889,
      "▁amer": 5890,
      "ayıf": 5891,
      "uga": 5892,
      "ması": 5893,
      "aret": 5894,
      "▁201622.": 5895,
      "ng": 5896,
      "ılsın": 5897,
      "▁oldurme": 5898,
      "▁control": 5899,
      "larmıs": 5900,
      "▁dondurdu": 5901,
      "▁edile": 5902,
      "▁kız": 5903,
      "▁taks": 5904,
      "▁turkiye": 5905,
      "▁altı": 5906,
      "▁thatcher": 5907,
      "ciden": 5908,
      "▁oper": 5909,
      "▁endustrinin": 5910,
      "▁gununu": 5911,
      "▁muyum": 5912,
      "▁gu": 5913,
      "▁ız": 5914,
      "▁etek": 5915,
      "▁rahatsızlık": 5916,
      "▁desik": 5917,
      "▁birinci": 5918,
      "dal": 5919,
      "▁yıllarında": 5920,
      "*": 5921,
      "▁temas": 5922,
      "▁calisirim": 5923,
      "'ı": 5924,
      "▁incel": 5925,
      "▁terc": 5926,
      "▁basbakanlık": 5927,
      "▁odulu": 5928,
      "ınc": 5929,
      "▁bulunmadıgını": 5930,
      "▁arada": 5931,
      "▁vatan": 5932,
      "urluge": 5933,
      "▁patron": 5934,
      "▁sarısın": 5935,
      "▁bulasık": 5936,
      "kul": 5937,
      "▁topr": 5938,
      "▁pic": 5939,
      "▁buldugu": 5940,
      "–": 5941,
      "▁harp": 5942,
      "▁severek": 5943,
      "▁karsiligi": 5944,
      "▁dikilmis": 5945,
      "▁birazcık": 5946,
      "▁herhalde": 5947,
      "▁ihlal": 5948,
      "▁bayramı": 5949,
      "ıldım": 5950,
      "▁0.13": 5951,
      "▁agab": 5952,
      "▁planda": 5953,
      "▁gelinceye": 5954,
      "▁0.5": 5955,
      "▁chic": 5956,
      "▁that": 5957,
      "▁cekmek": 5958,
      "▁hatir": 5959,
      "▁baslandı": 5960,
      "ram": 5961,
      "▁cab": 5962,
      "▁fit": 5963,
      "▁azı": 5964,
      "▁kahveren": 5965,
      "▁dusunduk": 5966,
      "▁yani": 5967,
      "▁.3": 5968,
      "▁ortalamaydi": 5969,
      "▁isle": 5970,
      "▁dolardır": 5971,
      "4000": 5972,
      "lasma": 5973,
      "medi": 5974,
      "▁yaparım": 5975,
      "▁gl": 5976,
      "▁olmalıydı": 5977,
      "lat": 5978,
      "▁som": 5979,
      "tugu": 5980,
      "lass": 5981,
      "▁kapısı": 5982,
      "ınıp": 5983,
      "▁surum": 5984,
      "▁hamam": 5985,
      "▁yegen": 5986,
      "veland": 5987,
      "▁ettigim": 5988,
      "ra": 5989,
      "▁derya": 5990,
      "▁tasarru": 5991,
      "▁put": 5992,
      "lanmak": 5993,
      "▁bazılarımız": 5994,
      "▁izleri": 5995,
      "▁dogasi": 5996,
      "▁sedir": 5997,
      "▁havayolları": 5998,
      "▁1245": 5999,
      "16": 6000,
      "▁minne": 6001,
      "▁soyluyordu": 6002,
      "▁demokratlar": 6003,
      "▁hızı": 6004,
      "▁duruma": 6005,
      "▁olusturuyor": 6006,
      "▁tatlı": 6007,
      "61": 6008,
      "▁sersem": 6009,
      "▁olmaktan": 6010,
      "▁batır": 6011,
      "▁ipek": 6012,
      "▁gunlerin": 6013,
      "▁ozur": 6014,
      "▁kerpic": 6015,
      "3.9": 6016,
      "▁attılar": 6017,
      "ilir": 6018,
      "▁olmak": 6019,
      "▁dusmustu": 6020,
      "▁acıkladı": 6021,
      "▁kaldik": 6022,
      "▁berek": 6023,
      "▁degn": 6024,
      "▁tuttum": 6025,
      "▁fir": 6026,
      "▁donem": 6027,
      "amam": 6028,
      "▁benzeri": 6029,
      "▁halef": 6030,
      "▁lezzeti": 6031,
      "▁otekine": 6032,
      "▁3.46": 6033,
      "ser": 6034,
      "diven": 6035,
      "cı": 6036,
      ".25": 6037,
      "▁ulasan": 6038,
      "▁yanar": 6039,
      "asına": 6040,
      "igh": 6041,
      "▁yuk": 6042,
      "▁kule": 6043,
      "▁eglenc": 6044,
      "▁manevra": 6045,
      "▁onumuzde": 6046,
      "▁bindokuzyuz": 6047,
      "▁beach'a": 6048,
      "▁cir": 6049,
      "dırdı": 6050,
      "▁musteriler": 6051,
      "▁kagıt": 6052,
      "q": 6053,
      "▁etmek": 6054,
      "▁bankalar": 6055,
      "▁kod": 6056,
      "mesiyle": 6057,
      "iyorlar": 6058,
      "▁airlines": 6059,
      "elif": 6060,
      "▁ltd.": 6061,
      "uncu": 6062,
      "yasal": 6063,
      "▁istenen": 6064,
      "▁kiler": 6065,
      "madigim": 6066,
      "▁kıyısında": 6067,
      "▁miami'den": 6068,
      "▁healt": 6069,
      "▁yumus": 6070,
      "▁932": 6071,
      "▁kosuyor": 6072,
      "meler": 6073,
      "▁han": 6074,
      "▁mekaniz": 6075,
      "lıkları": 6076,
      "▁okumak": 6077,
      "▁bulacak": 6078,
      "▁dolastım": 6079,
      "▁kabın": 6080,
      "▁sorar": 6081,
      "adına": 6082,
      "ran": 6083,
      "▁nedir": 6084,
      "▁sac": 6085,
      "▁carpıcı": 6086,
      "▁lacivert": 6087,
      "▁buyum": 6088,
      "▁88": 6089,
      "▁cil": 6090,
      "▁bulam": 6091,
      "▁gunduz": 6092,
      "tcı": 6093,
      "▁bilgilerin": 6094,
      "acasına": 6095,
      "▁irad": 6096,
      "▁kıl": 6097,
      "▁ind": 6098,
      "▁bık": 6099,
      "▁nitelik": 6100,
      "uluyor": 6101,
      "[UNK]": 6102,
      "▁ucunu": 6103,
      "▁antren": 6104,
      "▁dediko": 6105,
      "kan": 6106,
      "▁yonetici": 6107,
      "▁nal": 6108,
      "▁olacak": 6109,
      "▁bulmak": 6110,
      "2'ye": 6111,
      "▁55": 6112,
      "dıkca": 6113,
      "lanıyor": 6114,
      "urdan": 6115,
      "▁servet": 6116,
      "▁kast": 6117,
      "▁urk": 6118,
      "1'de": 6119,
      "▁fesi": 6120,
      "▁guzelim": 6121,
      "▁alınan": 6122,
      "▁dallas'ta": 6123,
      "▁bang": 6124,
      "▁umdugunu": 6125,
      "▁diri": 6126,
      "▁acma": 6127,
      "ustum": 6128,
      "isin": 6129,
      "▁pırıl": 6130,
      "iginde": 6131,
      "▁tap": 6132,
      "veren": 6133,
      "▁resmen": 6134,
      "luktan": 6135,
      "▁planının": 6136,
      "▁dolasıyor": 6137,
      "mayan": 6138,
      "he": 6139,
      "▁vucu": 6140,
      "eles": 6141,
      "▁neresinde": 6142,
      "ırda": 6143,
      "▁philadelphia'ya": 6144,
      "im": 6145,
      "emi": 6146,
      "▁8.59": 6147,
      "iliyordu": 6148,
      "▁77": 6149,
      "▁nev": 6150,
      "▁gorusmedim": 6151,
      "▁selcuk": 6152,
      "▁kırkaltı": 6153,
      "▁hissed": 6154,
      "evizyon": 6155,
      "▁alb": 6156,
      "giniz": 6157,
      "▁elbise": 6158,
      "▁okyan": 6159,
      "▁mani": 6160,
      "eral": 6161,
      "▁olsunlar": 6162,
      "▁iseniz": 6163,
      "▁borsasında": 6164,
      "▁sayılı": 6165,
      "▁vermiyor": 6166,
      "▁deyisle": 6167,
      "▁tasliydi": 6168,
      "▁duydum": 6169,
      "▁tatilimiz": 6170,
      "▁sorumlulugunu": 6171,
      "▁sınırları": 6172,
      "▁vahsi": 6173,
      "▁102": 6174,
      "▁d": 6175,
      "▁surdugu": 6176,
      "▁mud": 6177,
      "▁meseleler": 6178,
      "eledigi": 6179,
      "▁sigortacılar": 6180,
      "raz": 6181,
      "▁listeleyebilir": 6182,
      "▁oto": 6183,
      "ılı": 6184,
      "'unu": 6185,
      "▁tut": 6186,
      "▁buradan": 6187,
      "melerine": 6188,
      "▁lag": 6189,
      "▁1.9": 6190,
      "gini": 6191,
      "▁izmir": 6192,
      "▁prosedur": 6193,
      "▁henuz": 6194,
      "mil": 6195,
      "▁gulus": 6196,
      "▁kalab": 6197,
      "▁fransa": 6198,
      "▁bazıları": 6199,
      "▁bulmustu": 6200,
      "▁bilgilendirme": 6201,
      "▁duk": 6202,
      "▁alısılmadık": 6203,
      "▁kasabada": 6204,
      "edir": 6205,
      "▁sattı": 6206,
      "▁kimse": 6207,
      "▁uyum": 6208,
      "emis": 6209,
      "igit": 6210,
      "ılmasını": 6211,
      "amalı": 6212,
      "▁lider": 6213,
      "meliyim": 6214,
      "oyu": 6215,
      "6.5": 6216,
      "4.8": 6217,
      "▁duzeni": 6218,
      "larız": 6219,
      "▁ger": 6220,
      "▁minneapolis'ten": 6221,
      "landa": 6222,
      "ilt": 6223,
      "▁prov": 6224,
      "▁havayollarında": 6225,
      "aydı": 6226,
      "▁guldu": 6227,
      "▁kendilerini": 6228,
      "mıslar": 6229,
      "lara": 6230,
      "▁hazin": 6231,
      "▁s&p": 6232,
      "▁tir": 6233,
      "▁46": 6234,
      "▁dy": 6235,
      "abilmis": 6236,
      "ıyordu": 6237,
      "-c": 6238,
      "▁saime": 6239,
      "▁disi": 6240,
      "▁atar": 6241,
      "▁sehirler": 6242,
      "▁%3.1": 6243,
      "sizce": 6244,
      "▁cıkıs": 6245,
      "▁acan": 6246,
      "▁acabilir": 6247,
      "▁yurtdısında": 6248,
      "▁baslarında": 6249,
      "▁badan": 6250,
      "▁bunlar": 6251,
      "▁yedide": 6252,
      "edeki": 6253,
      "anbul": 6254,
      "▁kurdu": 6255,
      "▁buhran": 6256,
      "▁1/2'den": 6257,
      "▁tedir": 6258,
      "▁teklifleri": 6259,
      "▁labor": 6260,
      "▁broker": 6261,
      "▁kaya": 6262,
      "▁2.000": 6263,
      "▁hec": 6264,
      "▁paraya": 6265,
      "▁yit": 6266,
      "mam": 6267,
      "▁tuccar": 6268,
      "▁kanada": 6269,
      "▁bit": 6270,
      "▁gorun": 6271,
      "▁buy": 6272,
      "▁giy": 6273,
      "▁verici": 6274,
      "▁risk": 6275,
      "▁hakları": 6276,
      "▁gazi": 6277,
      "ems": 6278,
      "▁arkadasim": 6279,
      "kei": 6280,
      "▁calısanları": 6281,
      "▁atı": 6282,
      "▁viy": 6283,
      "▁isler": 6284,
      "▁otomatik": 6285,
      "▁": 6286,
      "▁duzgun": 6287,
      "▁vaka": 6288,
      "▁yukseldigini": 6289,
      "▁ford": 6290,
      "iskin": 6291,
      "▁sanayicileri": 6292,
      "▁demis": 6293,
      "▁ulkenin": 6294,
      "an'a": 6295,
      "10": 6296,
      "▁eski": 6297,
      "▁alındı": 6298,
      "za": 6299,
      "▁palto": 6300,
      "azlıgı": 6301,
      "▁tasf": 6302,
      "▁dogrultusunda": 6303,
      "▁nimet": 6304,
      "onez": 6305,
      "▁7.5": 6306,
      "▁sic": 6307,
      "erv": 6308,
      "▁sınırlı": 6309,
      "▁tedirgin": 6310,
      "▁ettiklerini": 6311,
      "▁hangisini": 6312,
      "▁yataktan": 6313,
      "▁dusmus": 6314,
      "▁ustun": 6315,
      "▁prob": 6316,
      "▁riskli": 6317,
      "▁ertel": 6318,
      "▁muduru": 6319,
      "▁alas": 6320,
      "▁heves": 6321,
      "▁bucuk": 6322,
      "▁kelimesi": 6323,
      "▁grupları": 6324,
      "-2": 6325,
      "agıyla": 6326,
      "▁baltimore": 6327,
      "▁th": 6328,
      "▁biliyordu": 6329,
      "adelphia": 6330,
      "▁psik": 6331,
      "9.5": 6332,
      "▁5.": 6333,
      "▁insaat": 6334,
      "▁rusya": 6335,
      "an": 6336,
      "ami": 6337,
      "▁guvercin": 6338,
      "▁yır": 6339,
      "▁nasa": 6340,
      "▁mil": 6341,
      "sine": 6342,
      "▁yepyeni": 6343,
      "ahir": 6344,
      "▁sesiyle": 6345,
      ".125": 6346,
      "▁olusturdu": 6347,
      "▁dusundugum": 6348,
      "malara": 6349,
      "▁husus": 6350,
      "▁dusurdu": 6351,
      "▁nil": 6352,
      "▁harıl": 6353,
      "rif": 6354,
      "aber": 6355,
      "▁62": 6356,
      "▁potansiyel": 6357,
      "▁cehr": 6358,
      "ulmamıs": 6359,
      "▁balık": 6360,
      "iyi": 6361,
      "▁anım": 6362,
      "▁beydi": 6363,
      "▁insanlardan": 6364,
      "▁yasıyorum": 6365,
      "egin": 6366,
      "▁hayatımda": 6367,
      "▁tesvik": 6368,
      "ois": 6369,
      "▁mutf": 6370,
      "ort": 6371,
      "▁rec": 6372,
      "▁calısmalar": 6373,
      "▁personel": 6374,
      "▁veririm": 6375,
      "▁materyal": 6376,
      "▁bulundugunu": 6377,
      "▁1998": 6378,
      "▁sm": 6379,
      "▁kullandıkları": 6380,
      "▁fal": 6381,
      "▁moda": 6382,
      "▁electric": 6383,
      "▁.65": 6384,
      "▁degerlendir": 6385,
      "▁dava": 6386,
      "▁olmalı": 6387,
      "▁makaleye": 6388,
      "▁korudu": 6389,
      "▁depremde": 6390,
      "▁isten": 6391,
      "▁gorebilir": 6392,
      "▁alım-sat": 6393,
      "▁muracaat": 6394,
      "▁oldur": 6395,
      "▁hepiniz": 6396,
      "▁takım": 6397,
      "▁aldim": 6398,
      "▁tarafı": 6399,
      "▁guvertede": 6400,
      "▁bay": 6401,
      "▁uyeleri": 6402,
      "▁harcam": 6403,
      "▁koyarak": 6404,
      "digim": 6405,
      "▁arttır": 6406,
      "ekul": 6407,
      "▁6.25": 6408,
      "▁odemis": 6409,
      "▁geyik": 6410,
      "▁kapasite": 6411,
      "▁demokrasi": 6412,
      "▁acıklay": 6413,
      "▁bill": 6414,
      "▁antr": 6415,
      "▁doviz": 6416,
      "▁konum": 6417,
      "▁yab": 6418,
      "elere": 6419,
      "▁aleyh": 6420,
      "▁anlatmaya": 6421,
      "▁fen": 6422,
      "irler": 6423,
      "mediler": 6424,
      "▁birbirimizi": 6425,
      "▁sıkıntılı": 6426,
      "biye": 6427,
      "▁zey": 6428,
      "▁cos": 6429,
      "▁duvarı": 6430,
      "'tan": 6431,
      "▁8": 6432,
      "▁yapmıs": 6433,
      "▁yasadı": 6434,
      "▁suphesiz": 6435,
      "▁orgu": 6436,
      "kar": 6437,
      "▁8.9": 6438,
      "▁ustesinden": 6439,
      "luga": 6440,
      "di": 6441,
      "▁gibiydi": 6442,
      "▁karara": 6443,
      "▁gorus": 6444,
      "▁cocukluk": 6445,
      "▁icti": 6446,
      "▁fazlasını": 6447,
      "imis": 6448,
      "▁9.88": 6449,
      "▁3.35": 6450,
      "▁beden": 6451,
      "▁hakkinda": 6452,
      "beri": 6453,
      "▁guclu": 6454,
      "▁icindeki": 6455,
      "▁manev": 6456,
      "bine": 6457,
      "▁gonderdi": 6458,
      "▁suda": 6459,
      "▁muzigi": 6460,
      "▁nispeten": 6461,
      "▁burbank'a": 6462,
      "▁sanatın": 6463,
      "ibar": 6464,
      "▁okudu": 6465,
      "▁isimiz": 6466,
      "▁ihtimalle": 6467,
      "▁lira": 6468,
      "ardı": 6469,
      "▁haziran'da": 6470,
      "1.2": 6471,
      "ımdaki": 6472,
      "▁power": 6473,
      "▁hel": 6474,
      "imizda": 6475,
      "▁topladı": 6476,
      "▁rot": 6477,
      "▁bankacılık": 6478,
      "gıc": 6479,
      "▁sunul": 6480,
      "▁basımıza": 6481,
      "malı": 6482,
      "▁motors": 6483,
      "▁cuma": 6484,
      "▁protok": 6485,
      "▁akc": 6486,
      "▁bizleri": 6487,
      "▁sarmas": 6488,
      "▁imal": 6489,
      "▁musterilerin": 6490,
      "▁mul": 6491,
      "▁transfer": 6492,
      "▁cıkag": 6493,
      "▁tanz": 6494,
      "▁baskanı": 6495,
      "▁yumusak": 6496,
      "▁milyona": 6497,
      "▁bura": 6498,
      "▁atlanta'da": 6499,
      "▁senem": 6500,
      "▁lyn": 6501,
      "▁20.": 6502,
      "tısını": 6503,
      "▁nec": 6504,
      "▁jeff": 6505,
      "▁olanlar": 6506,
      "▁kalacaktır": 6507,
      "▁annesinin": 6508,
      "▁sonuc": 6509,
      "abilirler": 6510,
      "▁1993": 6511,
      "▁bagırarak": 6512,
      "▁gordum": 6513,
      "▁telekom": 6514,
      "sef": 6515,
      "▁alamadim": 6516,
      "akta": 6517,
      "▁fokur": 6518,
      "125": 6519,
      "▁gelip": 6520,
      ".01": 6521,
      "▁yadig": 6522,
      "▁215": 6523,
      "aların": 6524,
      "▁164830000": 6525,
      "▁gozyası": 6526,
      "▁kazancların": 6527,
      "8.2": 6528,
      "▁benziyordu": 6529,
      "▁ail": 6530,
      "▁a.b.d.": 6531,
      "ove": 6532,
      "▁mer": 6533,
      "tal": 6534,
      "dugum": 6535,
      "▁yuksekti": 6536,
      "▁benden": 6537,
      "▁yagı": 6538,
      "▁540": 6539,
      "▁komutan": 6540,
      "▁cay": 6541,
      "gılan": 6542,
      "▁yarısını": 6543,
      "▁hicbirimiz": 6544,
      "kaltı": 6545,
      "▁'y": 6546,
      "▁erdi": 6547,
      "▁813": 6548,
      "▁inip": 6549,
      "▁engellemek": 6550,
      "▁yerden": 6551,
      "digimiz": 6552,
      "▁ozgu": 6553,
      "▁vır": 6554,
      "▁mask": 6555,
      "▁duyuldu": 6556,
      "▁2004": 6557,
      "▁hersey": 6558,
      "▁ayaklarını": 6559,
      "▁biri": 6560,
      "▁zengindi": 6561,
      "▁hazır": 6562,
      "▁kapıl": 6563,
      "▁planlı": 6564,
      "▁gercekte": 6565,
      "▁inadına": 6566,
      "▁feda": 6567,
      "unca": 6568,
      "▁canlı": 6569,
      "▁sureli": 6570,
      "▁lif": 6571,
      "▁yolsuz": 6572,
      "da": 6573,
      "▁sanay": 6574,
      "▁havaalanı'ndan": 6575,
      "ılmıstır": 6576,
      "iste": 6577,
      "▁hukumete": 6578,
      "▁kar": 6579,
      "▁angel": 6580,
      "▁80": 6581,
      "▁mik": 6582,
      "▁raporda": 6583,
      "▁emniyet": 6584,
      "lenmesi": 6585,
      "▁turklerin": 6586,
      "vermis": 6587,
      "▁protokol": 6588,
      "▁yil": 6589,
      "du": 6590,
      "[SEP]": 6591,
      "▁puanlarim": 6592,
      "tefik": 6593,
      "ilen": 6594,
      "▁graf": 6595,
      "▁8.8": 6596,
      "▁trabz": 6597,
      "▁alarak": 6598,
      "▁diyet": 6599,
      "▁fey": 6600,
      "▁manzar": 6601,
      "▁turden": 6602,
      "mezse": 6603,
      "▁yururluge": 6604,
      "▁1937": 6605,
      "larla": 6606,
      "▁neden": 6607,
      "▁41": 6608,
      "▁pesine": 6609,
      "bakır": 6610,
      "▁olas": 6611,
      "leyin": 6612,
      "▁rehberi": 6613,
      "▁barıs": 6614,
      "iddet": 6615,
      "▁kızart": 6616,
      "▁muhalif": 6617,
      "bel": 6618,
      "▁seans": 6619,
      "▁caf": 6620,
      "▁odalı": 6621,
      "▁derecede": 6622,
      "▁ovun": 6623,
      "▁mis": 6624,
      "▁onlardan": 6625,
      "▁kadınlar": 6626,
      "▁hakk": 6627,
      "▁ulkelerde": 6628,
      "▁tedavi": 6629,
      "▁yetenek": 6630,
      "ıyla": 6631,
      "ut": 6632,
      "sadı": 6633,
      "▁istanbul'da": 6634,
      "▁aram": 6635,
      "▁sekizonikibindokuzyuzdoksansekiz": 6636,
      "▁basındaki": 6637,
      "tıyor": 6638,
      "▁inmis": 6639,
      "▁sırası": 6640,
      "lendirmek": 6641,
      "▁pamuk": 6642,
      "▁va": 6643,
      "▁hukumet": 6644,
      "▁525000": 6645,
      "▁mat": 6646,
      "▁girisim": 6647,
      "▁gonl": 6648,
      "▁guardi": 6649,
      "▁aqu": 6650,
      "▁cans": 6651,
      "▁nasıl": 6652,
      "▁ortalıgı": 6653,
      "▁rend": 6654,
      "unik": 6655,
      "▁piyasaları": 6656,
      "▁yırt": 6657,
      "▁cocuga": 6658,
      "aclı": 6659,
      "▁bulundugu": 6660,
      "▁yıldız": 6661,
      "▁sevim": 6662,
      "▁en": 6663,
      "▁pencere": 6664,
      "▁olabilecegi": 6665,
      ".ceyrek": 6666,
      "▁arayan": 6667,
      "▁4145": 6668,
      "▁hanima": 6669,
      "▁1946'da": 6670,
      "▁yuzer": 6671,
      "▁vak": 6672,
      "'da": 6673,
      "▁noktaya": 6674,
      "ını": 6675,
      "▁tabi": 6676,
      "▁mechul": 6677,
      "▁resour": 6678,
      "▁odalar": 6679,
      "▁dunku": 6680,
      "▁1.847": 6681,
      "▁mac": 6682,
      "adi": 6683,
      "▁ondan": 6684,
      "▁kurs": 6685,
      "▁yerlerden": 6686,
      "▁house": 6687,
      "▁pencereden": 6688,
      "▁macta": 6689,
      "▁ucusla": 6690,
      "'den": 6691,
      "lisi": 6692,
      "▁mo": 6693,
      "▁20.000": 6694,
      "▁alındıgında": 6695,
      "▁aras": 6696,
      "si": 6697,
      "rub": 6698,
      "kil": 6699,
      "▁leblebi": 6700,
      "▁anlatır": 6701,
      "▁haklar": 6702,
      "▁vietnam": 6703,
      "▁koruk": 6704,
      "istir": 6705,
      "▁dokuluyor": 6706,
      "-b": 6707,
      "▁rahatlat": 6708,
      "▁ob": 6709,
      "▁198120000": 6710,
      "odos": 6711,
      "▁komit": 6712,
      "▁44": 6713,
      "▁bakımdan": 6714,
      "▁toplu": 6715,
      "▁serhat": 6716,
      "▁british": 6717,
      "▁tuccarlar": 6718,
      "ıldıgını": 6719,
      "▁teh": 6720,
      "▁kalmak": 6721,
      "▁isleme": 6722,
      "▁ki": 6723,
      "▁bilhassa": 6724,
      "▁verdikleri": 6725,
      "▁komur": 6726,
      "▁yazılan": 6727,
      "▁tarihleri": 6728,
      "▁karma": 6729,
      "▁296": 6730,
      "▁mukaf": 6731,
      "▁hen": 6732,
      "▁elif": 6733,
      "▁opsiyonu": 6734,
      "▁etrafta": 6735,
      "▁birimidir": 6736,
      "▁yonlendir": 6737,
      "▁ayrım": 6738,
      "▁yurudu": 6739,
      "▁fiyatina": 6740,
      "sever": 6741,
      "▁gitmedi": 6742,
      "▁dikis": 6743,
      "▁rastlan": 6744,
      "rak": 6745,
      "▁istifa": 6746,
      "▁heyec": 6747,
      "▁hatırlat": 6748,
      "▁otuzbes": 6749,
      "▁mendil": 6750,
      "▁dilim": 6751,
      "▁bakar": 6752,
      "▁hisseler": 6753,
      "▁benzin": 6754,
      "▁olanları": 6755,
      "▁temizlikten": 6756,
      "▁kanser": 6757,
      "ator": 6758,
      "▁casus": 6759,
      "▁inc.,": 6760,
      "▁hatun": 6761,
      "emli": 6762,
      "▁hepsini": 6763,
      "▁iht": 6764,
      "▁dant": 6765,
      "▁sahte": 6766,
      "▁muzaker": 6767,
      "▁nerede": 6768,
      "▁satıslar": 6769,
      "▁fin": 6770,
      "▁dah": 6771,
      "adet": 6772,
      "▁goc": 6773,
      "▁olanlara": 6774,
      "▁irs": 6775,
      "▁doneminde": 6776,
      "▁yardim": 6777,
      "uman": 6778,
      "▁dolarlık": 6779,
      "▁memphis": 6780,
      "tuel": 6781,
      "▁ilgisinden": 6782,
      "▁francisco'dan": 6783,
      "▁veto": 6784,
      "▁aer": 6785,
      "forman": 6786,
      "▁zarif": 6787,
      "▁sektoru": 6788,
      "▁attım": 6789,
      "▁erdeydin": 6790,
      "▁sahn": 6791,
      "▁seyde": 6792,
      "▁ulasıl": 6793,
      "▁harc": 6794,
      "▁kırmızı": 6795,
      "▁rakı": 6796,
      "▁gununde": 6797,
      "▁girisimi": 6798,
      "em": 6799,
      "ılıp": 6800,
      "▁ikiyuzkırk": 6801,
      "▁ilgisi": 6802,
      "▁30": 6803,
      "▁yorgun": 6804,
      "▁erdem": 6805,
      "▁artcı": 6806,
      "▁yuce": 6807,
      "▁guleryuzlulerdi": 6808,
      "▁aqua": 6809,
      "▁hab": 6810,
      "▁yonlendirdi": 6811,
      "▁hoc": 6812,
      "▁suradan": 6813,
      "▁muhabiri": 6814,
      "▁ustune": 6815,
      "▁kompleks": 6816,
      "▁karlı": 6817,
      "'ta": 6818,
      "▁birkacı": 6819,
      "sak": 6820,
      "▁sakınc": 6821,
      "▁arazi": 6822,
      "▁ortalıkta": 6823,
      "▁ogrendim": 6824,
      "cuya": 6825,
      "▁8.7": 6826,
      "▁etkil": 6827,
      "▁medya": 6828,
      "▁530": 6829,
      "▁petersburg'dan": 6830,
      "▁dongu": 6831,
      "iligine": 6832,
      "▁nic": 6833,
      "▁goster": 6834,
      "▁verg": 6835,
      "▁yap": 6836,
      "ıcısı": 6837,
      "mi": 6838,
      "▁gidelim": 6839,
      "▁esiyor": 6840,
      "▁evde": 6841,
      "▁kacar": 6842,
      "▁kesmis": 6843,
      "▁her": 6844,
      "tede": 6845,
      "▁carsaf": 6846,
      "▁misafirimiz": 6847,
      "bek": 6848,
      "gate": 6849,
      "▁durup": 6850,
      "▁%27": 6851,
      "▁baker": 6852,
      "▁milano": 6853,
      "▁eh": 6854,
      "▁ucyuzyirmi": 6855,
      "misler": 6856,
      "▁vaz": 6857,
      "▁m80": 6858,
      "yan": 6859,
      "▁pik": 6860,
      "iriz": 6861,
      "▁itfa": 6862,
      "▁hamal": 6863,
      "▁41.3": 6864,
      "▁ikincisi": 6865,
      "▁ydum": 6866,
      "▁satıcılar": 6867,
      "usuna": 6868,
      "▁toplandı": 6869,
      "▁dogdu": 6870,
      "kara": 6871,
      "▁muazzam": 6872,
      "▁sıcr": 6873,
      "▁galip": 6874,
      "▁yıllık": 6875,
      "▁buro": 6876,
      "▁hasar": 6877,
      "▁duygusal": 6878,
      "▁saha": 6879,
      "▁neredeyse": 6880,
      "▁aklına": 6881,
      "▁nih": 6882,
      "▁kazanclarını": 6883,
      "▁uymadi": 6884,
      "▁buldu": 6885,
      "▁soguktu": 6886,
      "cılık": 6887,
      "▁pazartesi": 6888,
      "▁hacı": 6889,
      "adan": 6890,
      "▁rumeli": 6891,
      "▁salonunda": 6892,
      "▁insa": 6893,
      "▁nereler": 6894,
      "▁odenek": 6895,
      "▁konmus": 6896,
      "▁devralma": 6897,
      "▁turkler": 6898,
      "▁141": 6899,
      "▁gelelim": 6900,
      "▁pazarda": 6901,
      "▁allian": 6902,
      "▁uygulamaya": 6903,
      ".72": 6904,
      "▁bilgisayar-pr": 6905,
      "ocu": 6906,
      "▁145.45": 6907,
      "▁imalat": 6908,
      "▁seher": 6909,
      "▁evrensel": 6910,
      "▁sarhos": 6911,
      "▁alıstır": 6912,
      "▁busbut": 6913,
      "▁hisseyle": 6914,
      "▁internet": 6915,
      "▁550": 6916,
      "▁hazırlanısı": 6917,
      "▁ucuslarınız": 6918,
      "zira": 6919,
      "▁cıkardık": 6920,
      "▁kesfet": 6921,
      "▁cerey": 6922,
      "▁reddetti": 6923,
      "la": 6924,
      "▁2023": 6925,
      "▁veda": 6926,
      "dır": 6927,
      "▁diyor": 6928,
      "oma": 6929,
      "▁%1.7": 6930,
      "▁yayıldı": 6931,
      "▁persembe": 6932,
      "▁sedef": 6933,
      "▁muzak": 6934,
      "▁engelken": 6935,
      "▁pu": 6936,
      "▁olumlu": 6937,
      "▁emine": 6938,
      "▁maksim": 6939,
      "▁kirec": 6940,
      "likte": 6941,
      "▁kasvet": 6942,
      "▁yazılı": 6943,
      "lıgında": 6944,
      "▁abla": 6945,
      "▁hangisine": 6946,
      "▁bakıs": 6947,
      "▁etmiyorum": 6948,
      "▁bunda": 6949,
      "▁ansiklop": 6950,
      "▁romanı": 6951,
      "▁girmeden": 6952,
      "▁rekabet": 6953,
      "▁okulda": 6954,
      "▁umumi": 6955,
      "▁750000": 6956,
      "▁thom": 6957,
      "▁kabil": 6958,
      "uz": 6959,
      "▁aklından": 6960,
      "▁aracılıgıyla": 6961,
      "▁dusen": 6962,
      "▁kendisiyle": 6963,
      "uzel": 6964,
      "▁hastalık": 6965,
      "▁devri": 6966,
      "▁uyandır": 6967,
      "▁7.7": 6968,
      "▁pazarlık": 6969,
      "'yle": 6970,
      "▁reddediyor": 6971,
      "▁?..": 6972,
      "▁faydalı": 6973,
      "▁asagida": 6974,
      "▁biniki": 6975,
      "mayacagı": 6976,
      "0000": 6977,
      "▁turuncu": 6978,
      "▁alabilmek": 6979,
      "▁hamile": 6980,
      "iyon": 6981,
      "▁farz": 6982,
      "▁simdiye": 6983,
      "▁det": 6984,
      "▁antal": 6985,
      "▁musteri": 6986,
      "▁tumunu": 6987,
      "▁miktarda": 6988,
      "usu": 6989,
      "▁l.": 6990,
      "▁50": 6991,
      "ımda": 6992,
      "▁continental": 6993,
      ".71": 6994,
      "j": 6995,
      "▁prosed": 6996,
      "▁so": 6997,
      "▁olacagına": 6998,
      "▁siniz": 6999,
      "▁kentte": 7000,
      "▁sildi": 7001,
      "▁cesitlilik": 7002,
      "▁post": 7003,
      "▁olusturdugu": 7004,
      "▁cat": 7005,
      "▁olayları": 7006,
      "▁bakıyordu": 7007,
      "▁ehemm": 7008,
      "lıyor": 7009,
      "▁agz": 7010,
      "amanın": 7011,
      "▁tug": 7012,
      "▁otelde": 7013,
      "▁kıp": 7014,
      "▁uzunt": 7015,
      "ic": 7016,
      "▁cesitliydi": 7017,
      "▁ersin": 7018,
      "▁andır": 7019,
      "▁donmek": 7020,
      "allı": 7021,
      "▁yuzu": 7022,
      "▁trabzonspor": 7023,
      "▁salomon": 7024,
      "▁ender": 7025,
      "▁ons": 7026,
      "▁arıyor": 7027,
      "uluk": 7028,
      "▁mali": 7029,
      "▁niyeti": 7030,
      "▁yapti": 7031,
      "▁faturamin": 7032,
      "▁isterse": 7033,
      "▁birbirlerini": 7034,
      "▁tartısmalar": 7035,
      "sch": 7036,
      "eliyim": 7037,
      "▁atıyordu": 7038,
      "▁etmedi": 7039,
      "▁gosteren": 7040,
      "▁12.9": 7041,
      "▁duzeyinde": 7042,
      "▁tokat": 7043,
      "▁shearson": 7044,
      "▁bayat": 7045,
      "▁olmaktadır": 7046,
      "▁yanlısı": 7047,
      "▁dunyadaki": 7048,
      "row": 7049,
      "▁$": 7050,
      "▁saglayan": 7051,
      "▁neyse": 7052,
      ".000": 7053,
      "▁tam": 7054,
      "▁sın": 7055,
      "▁ozgurluk": 7056,
      "aba": 7057,
      "▁cambaz": 7058,
      "▁memleket": 7059,
      "▁boyuna": 7060,
      "▁1.80": 7061,
      "▁group": 7062,
      "▁charl": 7063,
      "▁geminin": 7064,
      "▁niz": 7065,
      "22": 7066,
      "baska": 7067,
      "▁rastgele": 7068,
      "▁atti": 7069,
      "▁yetersizdi": 7070,
      "▁verdigi": 7071,
      "seksen": 7072,
      "▁getirisi": 7073,
      "▁kokain": 7074,
      "▁bildik": 7075,
      "enlik": 7076,
      "▁yazma": 7077,
      "▁kazancı": 7078,
      "▁damat": 7079,
      "▁gevs": 7080,
      "▁iskar": 7081,
      "▁ali": 7082,
      "▁dos": 7083,
      "▁muhtesem": 7084,
      "▁mevzu": 7085,
      "▁defa": 7086,
      "▁7.4": 7087,
      "▁yasadıgı": 7088,
      "▁aldigim": 7089,
      "▁one": 7090,
      "▁aktiviteler": 7091,
      "▁oldugunu": 7092,
      "▁gidi": 7093,
      "▁yapmıstı": 7094,
      "▁4.25": 7095,
      "ini": 7096,
      "▁bolumde": 7097,
      "▁esat": 7098,
      "▁2.": 7099,
      "▁uyuy": 7100,
      "▁sınıf": 7101,
      "▁aksamları": 7102,
      "▁america": 7103,
      "▁savcı": 7104,
      "▁ordek": 7105,
      "▁bulmaya": 7106,
      "▁hizmetlerini": 7107,
      "4'de": 7108,
      "▁yemis": 7109,
      "▁esliginde": 7110,
      "▁geldi": 7111,
      "▁corry": 7112,
      "▁bugun": 7113,
      "▁nisan": 7114,
      "▁arıyorum": 7115,
      "▁genc": 7116,
      "▁2659.22": 7117,
      "▁ilker": 7118,
      "▁rotar": 7119,
      "▁10'": 7120,
      "lamaz": 7121,
      "▁dergisi": 7122,
      "▁iddi": 7123,
      "▁mahkemesinde": 7124,
      "▁zordur": 7125,
      "dediyor": 7126,
      "▁cevir": 7127,
      "▁bonolar": 7128,
      "▁york'a": 7129,
      "untu": 7130,
      "▁hazırlamıs": 7131,
      "▁tenek": 7132,
      "▁sorgul": 7133,
      "0'da": 7134,
      "▁rej": 7135,
      "▁ark": 7136,
      "▁kendilerinin": 7137,
      "larımın": 7138,
      "▁azıcık": 7139,
      "▁yarı": 7140,
      "▁kazanır": 7141,
      "▁yaradı": 7142,
      "mini": 7143,
      "ekk": 7144,
      "▁yapacagını": 7145,
      "▁hizmeti": 7146,
      "▁tum": 7147,
      "tip": 7148,
      "▁istediklerini": 7149,
      "▁onume": 7150,
      "▁duvarları": 7151,
      "▁l": 7152,
      "▁mektub": 7153,
      "▁oldugundan": 7154,
      "▁news": 7155,
      "samer": 7156,
      "▁gelisen": 7157,
      "letti": 7158,
      "masına": 7159,
      "▁gormeye": 7160,
      "ılır": 7161,
      "▁hicbirine": 7162,
      "▁sahtek": 7163,
      "▁900": 7164,
      "▁gunah": 7165,
      "▁fırladı": 7166,
      "▁besyuzelli": 7167,
      "▁hatırlam": 7168,
      "▁aklını": 7169,
      "ilerdi": 7170,
      "▁sozlesme": 7171,
      "▁krem": 7172,
      "▁kadro": 7173,
      "mar": 7174,
      "▁cekin": 7175,
      "▁22.125": 7176,
      "▁hardal": 7177,
      "▁ulasımını": 7178,
      "▁yenil": 7179,
      "▁bankaya": 7180,
      "▁nez": 7181,
      "▁yeterliydi": 7182,
      "ijinal": 7183,
      "▁tolga": 7184,
      "isim": 7185,
      "arlık": 7186,
      "▁ted": 7187,
      "▁suruldu": 7188,
      "▁kalitesizdi": 7189,
      "▁vermisler": 7190,
      "▁kan": 7191,
      "▁unuttur": 7192,
      "▁kıymetleri": 7193,
      "▁hanım'ın": 7194,
      "▁sanslı": 7195,
      "▁esra": 7196,
      "▁baskan": 7197,
      "tug": 7198,
      "nek": 7199,
      "▁tahviller": 7200,
      "lay": 7201,
      "▁midir": 7202,
      "▁reserve": 7203,
      "▁franklin": 7204,
      "▁americ": 7205,
      "▁kuralları": 7206,
      "▁aktarmasız": 7207,
      "▁rezervasyon": 7208,
      "▁yetkilileri": 7209,
      "▁california'dan": 7210,
      "▁kosar": 7211,
      "▁icecekler": 7212,
      "ces": 7213,
      "▁kog": 7214,
      "▁kompoz": 7215,
      "▁anlamda": 7216,
      "▁parkı": 7217,
      "lek": 7218,
      "▁onalt": 7219,
      "▁etmesi": 7220,
      "iran": 7221,
      "ciler": 7222,
      "lamıs": 7223,
      "▁vurguladı": 7224,
      "▁hangi": 7225,
      "▁sam": 7226,
      "▁filiz": 7227,
      "allah": 7228,
      "unc": 7229,
      "▁bekledigim": 7230,
      "▁genislet": 7231,
      "indi": 7232,
      "ug": 7233,
      "emedik": 7234,
      "▁colum": 7235,
      "▁birimiz": 7236,
      "▁gostergeleri": 7237,
      "▁mıymıs": 7238,
      "▁birilerinin": 7239,
      "▁1959": 7240,
      "▁cozul": 7241,
      "▁yamalak": 7242,
      "▁ogrenci": 7243,
      "▁slog": 7244,
      "oluk": 7245,
      "amazdı": 7246,
      "▁cıkmıyor": 7247,
      "▁camı": 7248,
      "eyaz": 7249,
      "▁duyguları": 7250,
      "▁vat": 7251,
      "▁yasan": 7252,
      "▁uzmanlar": 7253,
      "▁gozlerine": 7254,
      "▁merdiv": 7255,
      "▁lak": 7256,
      "ustan": 7257,
      "▁zorunda": 7258,
      "▁tanık": 7259,
      "mas": 7260,
      "dıgımda": 7261,
      "▁uzan": 7262,
      "acaklarını": 7263,
      "▁206": 7264,
      "▁borsanın": 7265,
      "▁sevincle": 7266,
      "▁tacoma": 7267,
      "▁kullandıgı": 7268,
      "rin": 7269,
      "▁yurttas": 7270,
      "▁gonul": 7271,
      "▁hor": 7272,
      "▁olamaz": 7273,
      "▁muthisti": 7274,
      "▁korkuyorum": 7275,
      "▁cıkaracak": 7276,
      "▁dahi": 7277,
      "▁finc": 7278,
      "..": 7279,
      "▁assets": 7280,
      "larin": 7281,
      "▁st.": 7282,
      "layıcı": 7283,
      "uldugu": 7284,
      "▁gereksin": 7285,
      "okul": 7286,
      "11": 7287,
      "▁hissesi": 7288,
      "▁bende": 7289,
      "▁sırtına": 7290,
      "▁mci": 7291,
      "▁ceker": 7292,
      "▁anlasmalar": 7293,
      "▁sebz": 7294,
      "▁analistleri": 7295,
      "▁kapıcı": 7296,
      "▁pek": 7297,
      "landıgı": 7298,
      "ger": 7299,
      "▁insanlar": 7300,
      "▁!": 7301,
      "▁nac": 7302,
      "▁baskanın": 7303,
      "ersey": 7304,
      "gen": 7305,
      "▁camasır": 7306,
      "ersin": 7307,
      "▁grubun": 7308,
      "▁etmekle": 7309,
      "besyuz": 7310,
      "▁orası": 7311,
      "▁oglu": 7312,
      "▁sist": 7313,
      "ginde": 7314,
      "so": 7315,
      "▁yatırım": 7316,
      "▁cocukları": 7317,
      "pan": 7318,
      "▁hesap": 7319,
      "▁york'ta": 7320,
      "▁animator": 7321,
      "ılıgı": 7322,
      "▁verdik": 7323,
      "▁orhan": 7324,
      "▁345": 7325,
      "▁verme": 7326,
      "▁yuvar": 7327,
      "calı": 7328,
      "▁12'den": 7329,
      "▁bagımlı": 7330,
      "▁masasında": 7331,
      "ko": 7332,
      "▁muyuz": 7333,
      "▁jim": 7334,
      "▁bahan": 7335,
      "▁fırt": 7336,
      "▁imkanlarindan": 7337,
      "▁fah": 7338,
      "▁calıstıgını": 7339,
      "liyor": 7340,
      "isk": 7341,
      "▁konusmanın": 7342,
      "▁duyuyorum": 7343,
      "e'de": 7344,
      "▁yasin": 7345,
      "▁komisyonlar": 7346,
      "aca": 7347,
      "▁gecesi": 7348,
      "uldugunu": 7349,
      "▁sahin": 7350,
      "▁bakmak": 7351,
      "▁yazlık": 7352,
      "▁depo": 7353,
      "▁oder": 7354,
      "▁gulums": 7355,
      "'yla": 7356,
      "▁asset": 7357,
      "▁giz": 7358,
      "-pr": 7359,
      "▁melek": 7360,
      "0.1": 7361,
      "▁sozlesmesi": 7362,
      "▁bırakarak": 7363,
      "▁girdi": 7364,
      "▁ign": 7365,
      "▁sonunda": 7366,
      "▁atıldı": 7367,
      "▁mimari": 7368,
      "▁12000": 7369,
      "▁yuzyılın": 7370,
      "▁unutmus": 7371,
      "▁yo": 7372,
      "ackard": 7373,
      "▁varsay": 7374,
      "▁cıkmak": 7375,
      "▁suları": 7376,
      "aladı": 7377,
      "▁63": 7378,
      "▁ulk": 7379,
      "llarca": 7380,
      "▁kargas": 7381,
      "▁sip": 7382,
      "▁gorusmek": 7383,
      "▁lokasyonu": 7384,
      "▁hall": 7385,
      "ım": 7386,
      "▁taleb": 7387,
      "▁imparator": 7388,
      "▁taklit": 7389,
      "▁brown": 7390,
      "▁study": 7391,
      "une": 7392,
      "▁sec": 7393,
      "▁defter": 7394,
      "▁istihbar": 7395,
      "▁klas": 7396,
      "▁nerelerde": 7397,
      "▁batar": 7398,
      "▁itibaren": 7399,
      "ihat": 7400,
      "▁gonzalez": 7401,
      "ledil": 7402,
      "▁karal": 7403,
      "▁yaptır": 7404,
      "▁yanas": 7405,
      "▁yetkilisi": 7406,
      "▁noktası": 7407,
      "▁etkinlik": 7408,
      "▁zeh": 7409,
      "5.2": 7410,
      "▁phoenix'e": 7411,
      "innati": 7412,
      "'na": 7413,
      "▁kole": 7414,
      "▁tren": 7415,
      "▁basma": 7416,
      "lig": 7417,
      "▁dolara": 7418,
      "▁hata": 7419,
      "▁tatile": 7420,
      "▁beyefendi": 7421,
      "▁islere": 7422,
      "▁lir": 7423,
      "▁63.52": 7424,
      "▁toplantıda": 7425,
      "▁bayiler": 7426,
      "▁dr.": 7427,
      "tım": 7428,
      "ısmıs": 7429,
      "▁protesto": 7430,
      "▁ilgili": 7431,
      "isinde": 7432,
      "toru": 7433,
      "▁sık": 7434,
      "▁dukkan": 7435,
      "▁planlanıyor": 7436,
      "▁vazo": 7437,
      "▁birbirler": 7438,
      "▁pozisyon": 7439,
      "▁otek": 7440,
      "▁babası": 7441,
      "▁sirketlerinin": 7442,
      "▁beri": 7443,
      "▁hisselerini": 7444,
      "▁hissedarlar": 7445,
      "▁esp": 7446,
      "▁general": 7447,
      "▁hukmu": 7448,
      "▁aclıktan": 7449,
      "▁tramvay": 7450,
      "▁unif": 7451,
      "▁saclarını": 7452,
      "chester": 7453,
      "▁mont": 7454,
      "▁genislem": 7455,
      "▁1.72": 7456,
      "▁tokyo'da": 7457,
      "▁150": 7458,
      "▁oynat": 7459,
      "▁kaldim": 7460,
      "▁ayakta": 7461,
      "▁federal": 7462,
      "lli": 7463,
      "▁annesini": 7464,
      "▁rakib": 7465,
      "▁industri": 7466,
      "asindan": 7467,
      "yar": 7468,
      "esindeki": 7469,
      "▁hafız": 7470,
      "▁cenaze": 7471,
      "▁tedavulde": 7472,
      "▁yonel": 7473,
      "▁dedikleri": 7474,
      "▁guzeli": 7475,
      "etli": 7476,
      "▁3/32": 7477,
      "▁daima": 7478,
      "dın": 7479,
      "▁istedim": 7480,
      "▁kadif": 7481,
      "▁krenz": 7482,
      "▁gob": 7483,
      "▁ucuslarda": 7484,
      "▁amex": 7485,
      "▁sezlong": 7486,
      "meyle": 7487,
      "esel": 7488,
      "eceginiz": 7489,
      "▁vurdum": 7490,
      "▁arayıp": 7491,
      "▁almamıs": 7492,
      "5'ten": 7493,
      "▁1963": 7494,
      "▁cıktı": 7495,
      "▁527": 7496,
      "▁kileri": 7497,
      "organ": 7498,
      "▁gib": 7499,
      "▁re": 7500,
      "▁yanındaki": 7501,
      "▁fiyatlari": 7502,
      "▁fırlamıs": 7503,
      "isel": 7504,
      "▁ona": 7505,
      "&t": 7506,
      "os'un": 7507,
      "▁dalları": 7508,
      "▁gozlerinde": 7509,
      "liginde": 7510,
      "bak": 7511,
      "▁mim": 7512,
      "▁%5.4": 7513,
      "▁numaraları": 7514,
      "▁padisah": 7515,
      "▁cog": 7516,
      "▁domuz": 7517,
      "▁arar": 7518,
      "▁acacak": 7519,
      "▁kapasitesi": 7520,
      "▁atak": 7521,
      "▁bar": 7522,
      "▁kilis": 7523,
      "▁bazılarını": 7524,
      "▁eser": 7525,
      "▁sıyır": 7526,
      "▁misk": 7527,
      "ville": 7528,
      "▁paul'a": 7529,
      "hol": 7530,
      "▁kavustur": 7531,
      "▁141.45": 7532,
      "▁merc": 7533,
      "▁temizlen": 7534,
      "▁bulunuyordu": 7535,
      "▁potansiy": 7536,
      "▁ortalaması": 7537,
      "melidir": 7538,
      "▁tutuyor": 7539,
      "▁yontem": 7540,
      "▁ayaz": 7541,
      "▁cıkmaz": 7542,
      "▁atlı": 7543,
      "▁otele": 7544,
      "▁bambaska": 7545,
      "▁holding": 7546,
      "▁yatırımı": 7547,
      "▁mevduat": 7548,
      "▁roma": 7549,
      "▁puanlık": 7550,
      "▁buyur": 7551,
      "▁kurumu": 7552,
      "▁gelirleri": 7553,
      "▁cevresi": 7554,
      "▁masayı": 7555,
      "▁biles": 7556,
      "▁sizinle": 7557,
      "▁74": 7558,
      "▁duv": 7559,
      "▁kaliteye": 7560,
      "▁ayrı": 7561,
      "▁topu": 7562,
      "▁hastalı": 7563,
      "▁trav": 7564,
      "▁menfaat": 7565,
      "▁yapım": 7566,
      "40": 7567,
      "▁ton": 7568,
      "iv": 7569,
      "▁sanıyor": 7570,
      "dıg": 7571,
      "le": 7572,
      "▁par": 7573,
      "hs": 7574,
      "▁manz": 7575,
      "▁edilmistir": 7576,
      "▁bilemiyorum": 7577,
      "▁bilmem": 7578,
      "dev": 7579,
      "▁fırtın": 7580,
      "▁betim": 7581,
      "▁dunya": 7582,
      "'ndaki": 7583,
      "sap": 7584,
      "▁niyetinde": 7585,
      "8'den": 7586,
      "▁!..": 7587,
      "lugunun": 7588,
      "▁mon": 7589,
      "ladım": 7590,
      "lulu": 7591,
      "▁sakin": 7592,
      "vik": 7593,
      "▁etkilen": 7594,
      "▁klor": 7595,
      "▁chan": 7596,
      "▁izini": 7597,
      "▁gelmisti": 7598,
      "9'a": 7599,
      "gun": 7600,
      "▁mırıldandı": 7601,
      "▁286": 7602,
      "▁calkal": 7603,
      "▁yazının": 7604,
      "masının": 7605,
      "▁suru": 7606,
      "▁fuz": 7607,
      "▁99.14": 7608,
      "dular": 7609,
      "▁denizin": 7610,
      "▁annem": 7611,
      "▁tuketici": 7612,
      "bih": 7613,
      "▁algılan": 7614,
      "▁tutmak": 7615,
      "▁ustunde": 7616,
      "▁mahkemeye": 7617,
      "▁cıktık": 7618,
      "▁doluydu": 7619,
      "▁gezin": 7620,
      "▁5.4": 7621,
      "▁ecekti": 7622,
      "▁ilgil": 7623,
      "▁ikide": 7624,
      "▁geldiniz": 7625,
      "▁yıpran": 7626,
      "▁genelkurmay": 7627,
      "lag": 7628,
      "ack": 7629,
      "▁actım": 7630,
      "▁inanc": 7631,
      "encer": 7632,
      "adaki": 7633,
      "▁faydalan": 7634,
      "1-19": 7635,
      "▁gumbur": 7636,
      "▁algıl": 7637,
      "osunu": 7638,
      "▁gecer": 7639,
      "▁maden": 7640,
      "▁sinirli": 7641,
      "▁ozlem": 7642,
      "▁paribas": 7643,
      "▁gazete": 7644,
      "▁endustriyel": 7645,
      "▁dukkanı": 7646,
      "mayı": 7647,
      "▁kızları": 7648,
      "anda": 7649,
      "▁yankılan": 7650,
      "▁bulgaristan": 7651,
      "▁tit": 7652,
      "ato": 7653,
      "▁5.2": 7654,
      "▁kurulu'nun": 7655,
      "▁fransızca": 7656,
      "ee": 7657,
      "▁cef": 7658,
      "▁balıkcı": 7659,
      "lıkta": 7660,
      "▁mektu": 7661,
      "▁rengi": 7662,
      "▁intel": 7663,
      "▁kahr": 7664,
      "▁ny": 7665,
      "▁cekiyordu": 7666,
      "▁sozunu": 7667,
      "▁kırm": 7668,
      "▁gomlek": 7669,
      "▁dumen": 7670,
      "▁gelirlerinin": 7671,
      "tz": 7672,
      "▁saatte": 7673,
      "▁laz": 7674,
      "▁meseleyi": 7675,
      "bos": 7676,
      "▁konumu": 7677,
      "▁karsilik": 7678,
      "duc": 7679,
      "▁inc.": 7680,
      "laması": 7681,
      ".76": 7682,
      "▁bilgisayarlar": 7683,
      "▁iliskili": 7684,
      "▁tuken": 7685,
      "/2": 7686,
      "▁seklinde": 7687,
      "▁paraları": 7688,
      "▁capkın": 7689,
      "▁agrı": 7690,
      "▁oranlar": 7691,
      "▁kanep": 7692,
      "▁120": 7693,
      "▁kon": 7694,
      "▁dilerim": 7695,
      "lerden": 7696,
      "lerdeki": 7697,
      "mıstım": 7698,
      "▁ortamda": 7699,
      "▁0.1": 7700,
      "amlı": 7701,
      "▁muhakkak": 7702,
      "▁mutluluk": 7703,
      "bire": 7704,
      "▁lodos": 7705,
      "▁yanıyor": 7706,
      "▁bak": 7707,
      "▁nese": 7708,
      "▁dieg": 7709,
      "▁nok": 7710,
      "ip": 7711,
      "▁calmaya": 7712,
      "▁belirttigim": 7713,
      "▁murekkep": 7714,
      "▁bozdu": 7715,
      "▁edinmek": 7716,
      "▁kısmen": 7717,
      "ald": 7718,
      "▁haz": 7719,
      "▁goldman": 7720,
      "▁nadir": 7721,
      "▁ilgileniyor": 7722,
      "▁istek": 7723,
      "▁durdurdu": 7724,
      "esif": 7725,
      "▁991": 7726,
      "meme": 7727,
      "▁matba": 7728,
      "ciydi": 7729,
      "▁yanık": 7730,
      "▁rep": 7731,
      "▁icimden": 7732,
      "▁kullan": 7733,
      "▁tahrik": 7734,
      "alarının": 7735,
      "▁birisine": 7736,
      ".49": 7737,
      "▁calısması": 7738,
      "▁ucundan": 7739,
      "▁erdogan": 7740,
      "▁kayak": 7741,
      "▁hızla": 7742,
      "▁giderek": 7743,
      "▁devamli": 7744,
      "▁atladı": 7745,
      "▁kayseri": 7746,
      "▁7'de": 7747,
      "▁18.": 7748,
      "▁01": 7749,
      "▁bulut": 7750,
      "▁esrar": 7751,
      "▁gay": 7752,
      "▁alın": 7753,
      "can": 7754,
      "▁kacıyor": 7755,
      "lardı": 7756,
      "▁/": 7757,
      "▁71": 7758,
      "▁pittsburgh'ta": 7759,
      ":00-22:30": 7760,
      "▁geldikleri": 7761,
      "▁basından": 7762,
      "▁best": 7763,
      "yn": 7764,
      "▁onlem": 7765,
      "▁okum": 7766,
      "▁senar": 7767,
      "▁bırakıyor": 7768,
      "▁evrenin": 7769,
      "45": 7770,
      "▁alık": 7771,
      "▁est": 7772,
      "753": 7773,
      "▁surecin": 7774,
      "▁ogul": 7775,
      "▁patlıc": 7776,
      "▁filozof": 7777,
      "▁ruz": 7778,
      "▁iceri": 7779,
      "▁but": 7780,
      "▁performans": 7781,
      "▁belirtti": 7782,
      "▁agustos'ta": 7783,
      "▁verirdi": 7784,
      "▁ankara'ya": 7785,
      "ig": 7786,
      "▁atıs": 7787,
      "▁degir": 7788,
      "▁uyku": 7789,
      "▁kazanarak": 7790,
      "▁oldugun": 7791,
      "▁world": 7792,
      "▁oncesinde": 7793,
      "▁tarife": 7794,
      "▁kokuyordu": 7795,
      "▁alt": 7796,
      "▁istiyorum": 7797,
      "▁fizik": 7798,
      "▁uyarı": 7799,
      "▁atlat": 7800,
      "▁kidder": 7801,
      "▁kata": 7802,
      "▁malzemeler": 7803,
      "▁verdigini": 7804,
      "▁kararını": 7805,
      "▁okuldan": 7806,
      "▁2005'e": 7807,
      "▁oyla": 7808,
      "▁fes": 7809,
      "▁dogu": 7810,
      "▁esmer": 7811,
      "osunda": 7812,
      "▁613": 7813,
      "▁gordu": 7814,
      "▁olursa": 7815,
      "▁cinayet": 7816,
      "▁1930": 7817,
      "ladık": 7818,
      "amaya": 7819,
      "seniz": 7820,
      "▁bastır": 7821,
      "▁dayanıklı": 7822,
      "abına": 7823,
      "▁vide": 7824,
      "'lık": 7825,
      "▁09:": 7826,
      "▁gec": 7827,
      "elik": 7828,
      "abildi": 7829,
      "▁donmus": 7830,
      "▁hoca": 7831,
      "▁arkasından": 7832,
      "▁organizasyon": 7833,
      "▁az": 7834,
      "▁fayd": 7835,
      "▁cırp": 7836,
      "ael": 7837,
      "▁gerekir": 7838,
      "▁sigortası": 7839,
      "▁butc": 7840,
      "▁hesaba": 7841,
      "▁birilerini": 7842,
      "▁senetlerine": 7843,
      "▁davranıs": 7844,
      "▁ucusunuz": 7845,
      "▁aynada": 7846,
      "▁laik": 7847,
      "'lı": 7848,
      "lardan": 7849,
      "▁kongre": 7850,
      "▁yok": 7851,
      "▁cevik": 7852,
      "▁temizlik": 7853,
      "▁atmaya": 7854,
      "▁cosk": 7855,
      "▁degistirdi": 7856,
      "▁iyidir": 7857,
      "▁atıp": 7858,
      "mer": 7859,
      "ilerle": 7860,
      "▁anlasmaz": 7861,
      "▁peyn": 7862,
      "▁1850": 7863,
      "tex": 7864,
      "gından": 7865,
      "▁98": 7866,
      "ruk": 7867,
      "alog": 7868,
      "▁kahkaha": 7869,
      "ici": 7870,
      "▁hatırlıyorum": 7871,
      "▁brit": 7872,
      "▁guleryuz": 7873,
      "man": 7874,
      "▁332": 7875,
      "▁stratej": 7876,
      "▁tv": 7877,
      "lasan": 7878,
      "▁fark": 7879,
      "▁vef": 7880,
      "akk": 7881,
      "▁41.2": 7882,
      "▁huy": 7883,
      "▁dokul": 7884,
      "olun": 7885,
      "▁yasından": 7886,
      "▁26.1": 7887,
      "▁sebebi": 7888,
      "▁dususu": 7889,
      "▁yargıtay": 7890,
      "▁turb": 7891,
      "ele": 7892,
      "▁kaygı": 7893,
      "▁gıc": 7894,
      "bes": 7895,
      "▁tasv": 7896,
      "▁yonet": 7897,
      "000": 7898,
      "▁duru": 7899,
      "▁pahali": 7900,
      "▁muhtemelen": 7901,
      "alay": 7902,
      "yıl": 7903,
      "▁tesadu": 7904,
      "▁paranın": 7905,
      "gul": 7906,
      "▁kravat": 7907,
      "▁big": 7908,
      "▁latin": 7909,
      "▁oturmus": 7910,
      "▁1.23": 7911,
      "zer": 7912,
      "▁yonelik": 7913,
      "▁kasıgı": 7914,
      "▁gidil": 7915,
      "▁bekledi": 7916,
      "▁ogleden": 7917,
      "▁normaldi": 7918,
      "▁pentagon": 7919,
      "ilerini": 7920,
      "estr": 7921,
      "elerce": 7922,
      "bia": 7923,
      "▁teler": 7924,
      "▁bacagını": 7925,
      "▁otede": 7926,
      "▁kansas": 7927,
      "▁vasıt": 7928,
      "▁lilly": 7929,
      "▁unlu": 7930,
      "▁yardimci": 7931,
      "▁iz": 7932,
      "▁yazık": 7933,
      "▁sıvı": 7934,
      "▁yolunda": 7935,
      "▁dayanır": 7936,
      "usten": 7937,
      "▁yerde": 7938,
      "▁alır": 7939,
      "▁diniz": 7940,
      "▁degerlendiririm": 7941,
      "▁baslangıcı": 7942,
      "▁perakendeciler": 7943,
      "▁sıp": 7944,
      "▁huzursuz": 7945,
      "unden": 7946,
      "▁fakir": 7947,
      "▁deh": 7948,
      "▁kamp": 7949,
      "▁hatice": 7950,
      "▁maalesef": 7951,
      "lup": 7952,
      "▁nın": 7953,
      "▁sundu": 7954,
      "▁ti": 7955,
      "men": 7956,
      "dukları": 7957,
      "▁dusunmeye": 7958,
      "▁illa": 7959,
      "▁mudu": 7960,
      "gil": 7961,
      "▁raporları": 7962,
      "▁gerekti": 7963,
      "cunun": 7964,
      "▁2000": 7965,
      "▁sonbah": 7966,
      "▁merkez": 7967,
      "▁yiyeceklerin": 7968,
      "▁282": 7969,
      "▁kapat": 7970,
      "gimi": 7971,
      "▁yazılmıs": 7972,
      "oker": 7973,
      "▁paralar": 7974,
      "▁olmadıgını": 7975,
      "▁vadesiz": 7976,
      "▁kuvvet": 7977,
      "▁192": 7978,
      "▁0.10": 7979,
      "▁topcu": 7980,
      "▁do": 7981,
      "ıh": 7982,
      "▁deligi": 7983,
      "izi": 7984,
      "▁baglıdır": 7985,
      "▁gordugumuz": 7986,
      "▁mı": 7987,
      "▁lis": 7988,
      "▁ettiler": 7989,
      "▁lou": 7990,
      "▁donemde": 7991,
      "▁bono": 7992,
      "▁umuyor": 7993,
      "▁pel": 7994,
      "▁basınc": 7995,
      "▁iki": 7996,
      "estir": 7997,
      "▁degil": 7998,
      "▁dolayı": 7999,
      "▁bakanı": 8000,
      "▁spons": 8001,
      "▁bilgisayar": 8002,
      "▁kımıl": 8003,
      "▁agız": 8004,
      "▁dist": 8005,
      "▁pansiyon": 8006,
      "▁govde": 8007,
      "▁1969": 8008,
      "▁zinciri": 8009,
      "▁tarafından": 8010,
      "▁devre": 8011,
      "▁yapil": 8012,
      "▁vadede": 8013,
      "▁kaldım": 8014,
      "▁nuk": 8015,
      "▁birbirlerinin": 8016,
      "▁baskasın": 8017,
      "▁'": 8018,
      "▁minimum": 8019,
      "▁arız": 8020,
      "▁kısm": 8021,
      "cıya": 8022,
      "▁pazarı": 8023,
      "▁sonucunda": 8024,
      "▁tabii": 8025,
      "eyman": 8026,
      "▁renkleri": 8027,
      "▁dakika": 8028,
      "medim": 8029,
      "▁tahminler": 8030,
      "abıyla": 8031,
      "▁yapı": 8032,
      "▁enflasyon": 8033,
      "▁zen": 8034,
      "mesine": 8035,
      "▁cihaz": 8036,
      "▁hele": 8037,
      "▁1.91": 8038,
      "▁aln": 8039,
      "▁aktivit": 8040,
      "▁cesitliligi": 8041,
      "▁yıcı": 8042,
      "▁sahili": 8043,
      "▁82.1": 8044,
      "▁reviz": 8045,
      "▁birtakım": 8046,
      "▁sivr": 8047,
      "▁nukleer": 8048,
      "▁imkanlari": 8049,
      "▁4'ten": 8050,
      "▁manville": 8051,
      "▁birbirlerinden": 8052,
      "▁isgucu": 8053,
      "▁kendimi": 8054,
      "▁b": 8055,
      "▁gosterg": 8056,
      "▁gecerli": 8057,
      "▁yak": 8058,
      "▁kesf": 8059,
      "▁hurriyet": 8060,
      "▁s.": 8061,
      "▁odalarin": 8062,
      "▁hong": 8063,
      "▁kalktım": 8064,
      "▁parayı": 8065,
      "▁biridir": 8066,
      "▁1.63": 8067,
      "▁gozde": 8068,
      "▁kesmek": 8069,
      "▁bulun": 8070,
      "viz": 8071,
      "▁bilirler": 8072,
      "▁sunan": 8073,
      "▁torp": 8074,
      "egimiz": 8075,
      "▁yukseltti": 8076,
      "▁campeau": 8077,
      "▁aldat": 8078,
      "▁washington": 8079,
      "▁no": 8080,
      "▁kasırga": 8081,
      "▁ed": 8082,
      "▁halihaz": 8083,
      "▁bayan": 8084,
      "▁cumartesi": 8085,
      "▁turkiye'ye": 8086,
      "▁hırsız": 8087,
      "yedi": 8088,
      "▁eksikligi": 8089,
      "▁350": 8090,
      "▁hepimizi": 8091,
      "▁istiyordum": 8092,
      "▁yah": 8093,
      "▁numara": 8094,
      "▁bakısı": 8095,
      "▁calısmaya": 8096,
      "▁agar": 8097,
      "▁civar": 8098,
      "▁251": 8099,
      "lıgımı": 8100,
      "▁gucluk": 8101,
      "▁icinizde": 8102,
      "▁edilir": 8103,
      "▁mahrum": 8104,
      "▁yuks": 8105,
      "▁yeni": 8106,
      "▁bilirim": 8107,
      "▁industrial": 8108,
      "▁yapamayacagim": 8109,
      "▁otellerde": 8110,
      "▁reklamları": 8111,
      "ige": 8112,
      "▁sonuclar": 8113,
      "▁olanı": 8114,
      "▁ali'nin": 8115,
      "lerdi": 8116,
      "baren": 8117,
      "▁yirmibir": 8118,
      "▁neyin": 8119,
      "▁degis": 8120,
      "▁fiyatlara": 8121,
      "▁kaz": 8122,
      "▁davası": 8123,
      "i'ye": 8124,
      "▁it": 8125,
      "esiz": 8126,
      "dayım": 8127,
      "dıgın": 8128,
      "▁kulturel": 8129,
      "▁operator": 8130,
      "▁toplantısında": 8131,
      "▁akıyor": 8132,
      "▁fabrika": 8133,
      "▁hamuru": 8134,
      "▁rom": 8135,
      "▁buruk": 8136,
      "▁candan": 8137,
      "▁tar": 8138,
      "qu": 8139,
      "isyen": 8140,
      "▁azından": 8141,
      "ilmiyor": 8142,
      "▁aldıgı": 8143,
      "▁icimde": 8144,
      "oks": 8145,
      "fik": 8146,
      "ediyor": 8147,
      "▁cagır": 8148,
      "▁basbakan": 8149,
      "esco": 8150,
      "▁gosteriyor": 8151,
      "alar": 8152,
      "▁bolun": 8153,
      "▁527.39": 8154,
      "▁40.1": 8155,
      "▁haklarının": 8156,
      "▁tutarında": 8157,
      "meleri": 8158,
      "▁tasıma": 8159,
      "▁giys": 8160,
      "▁col": 8161,
      "▁gazetesi": 8162,
      "▁nere": 8163,
      "▁degilmis": 8164,
      "▁havayol": 8165,
      "larınız": 8166,
      "▁ertelen": 8167,
      "▁silk": 8168,
      "▁kas": 8169,
      "▁acıklanmadı": 8170,
      "▁calıyor": 8171,
      "▁dusunc": 8172,
      "▁tarihini": 8173,
      "▁calıs": 8174,
      "▁yuksel": 8175,
      "▁fiyatlarında": 8176,
      "▁yalın": 8177,
      "▁well": 8178,
      "dıgım": 8179,
      "▁satısları": 8180,
      "▁cıkmıstı": 8181,
      "cev": 8182,
      "leriniz": 8183,
      "▁getirdigi": 8184,
      "▁hakkını": 8185,
      "▁sanal": 8186,
      "▁04": 8187,
      "▁kırac": 8188,
      "▁kurmak": 8189,
      "oniki": 8190,
      "▁tuylu": 8191,
      "▁47": 8192,
      "▁asl": 8193,
      "▁teklifini": 8194,
      "undaki": 8195,
      "▁listel": 8196,
      "imizde": 8197,
      "▁adımlarla": 8198,
      "dor": 8199,
      "▁odanın": 8200,
      "▁sigar": 8201,
      "our": 8202,
      "▁yad": 8203,
      "▁derde": 8204,
      "aturk": 8205,
      "▁tuvalet": 8206,
      "sun": 8207,
      "▁ciz": 8208,
      "isine": 8209,
      "bal": 8210,
      "dokuzyuz": 8211,
      "liy": 8212,
      "▁sevinc": 8213,
      "▁poz": 8214,
      "▁49": 8215,
      "▁gomle": 8216,
      "▁ını": 8217,
      "▁ayarlanabilir": 8218,
      "▁le": 8219,
      "▁kons": 8220,
      "▁cihan": 8221,
      "▁kaslarını": 8222,
      "▁belirgin": 8223,
      "▁sebep": 8224,
      "▁olmustu": 8225,
      "▁kl": 8226,
      "▁hicbiri": 8227,
      "▁romanc": 8228,
      "▁saray": 8229,
      "▁konustuk": 8230,
      "▁hile": 8231,
      "▁dısarıda": 8232,
      "▁pen": 8233,
      "▁eylem": 8234,
      "▁diyorum": 8235,
      "▁besik": 8236,
      "▁cogu": 8237,
      "amalar": 8238,
      "▁degisiyor": 8239,
      "lenen": 8240,
      "▁mad": 8241,
      "▁sahipleri": 8242,
      "▁kendiliginden": 8243,
      "▁turn": 8244,
      "▁veremeyecegim": 8245,
      "▁zehir": 8246,
      "yak": 8247,
      "▁icli": 8248,
      "▁sivrisin": 8249,
      "larsa": 8250,
      "▁kaldıgını": 8251,
      "▁yaptirdi": 8252,
      "▁muam": 8253,
      "▁karmakarısık": 8254,
      "▁meg": 8255,
      "▁irak": 8256,
      "▁cıg": 8257,
      "▁ucmak": 8258,
      "▁begen": 8259,
      "usunu": 8260,
      "▁buny": 8261,
      "▁bankaları": 8262,
      "▁musunuz": 8263,
      "nol": 8264,
      "▁gar": 8265,
      "ırt": 8266,
      "▁harikaydi": 8267,
      "▁pil": 8268,
      "▁yolda": 8269,
      "liginin": 8270,
      "▁busbutun": 8271,
      "▁birisini": 8272,
      "▁franc": 8273,
      "▁guclendir": 8274,
      "▁yanıl": 8275,
      "▁jr": 8276,
      "▁seviye": 8277,
      "3": 8278,
      "▁telefonda": 8279,
      ".30": 8280,
      "8.3": 8281,
      "lanmamıs": 8282,
      "▁kapsamında": 8283,
      "▁agzına": 8284,
      "▁klima": 8285,
      "▁uzmanı": 8286,
      "▁okan": 8287,
      "uldu": 8288,
      "▁karısının": 8289,
      "su": 8290,
      "▁buldum": 8291,
      "▁cev": 8292,
      "▁drexel": 8293,
      "masi": 8294,
      "ların": 8295,
      "▁seyleri": 8296,
      "▁bizlere": 8297,
      "▁konferans": 8298,
      "▁duzenlemeleri": 8299,
      "▁kufur": 8300,
      "▁breeden": 8301,
      "▁dugum": 8302,
      "▁cız": 8303,
      "▁sektorunde": 8304,
      "▁varacak": 8305,
      "▁bayagi": 8306,
      "▁ulasıyor": 8307,
      "▁sırasıyla": 8308,
      "▁gormek": 8309,
      "▁haydi": 8310,
      "eci": 8311,
      "ugh": 8312,
      "▁anlasılan": 8313,
      "acının": 8314,
      "abuk": 8315,
      "▁yayımlanan": 8316,
      "▁1.5": 8317,
      "▁yım": 8318,
      "mislerdi": 8319,
      "▁istegi": 8320,
      "▁dik": 8321,
      "▁alacagını": 8322,
      "▁ikibinbir": 8323,
      "▁7.9": 8324,
      "▁degismeden": 8325,
      "▁erk": 8326,
      "▁memnuniyeti": 8327,
      "▁firmanın": 8328,
      "▁sesi": 8329,
      "▁temizliginden": 8330,
      "▁men": 8331,
      "▁vermisti": 8332,
      "▁zayıf": 8333,
      "60": 8334,
      "▁unuttum": 8335,
      "ıstı": 8336,
      "▁yalancı": 8337,
      "▁onur": 8338,
      "▁verilmesi": 8339,
      "85": 8340,
      "▁yuzunden": 8341,
      "▁allah'a": 8342,
      "▁olmamakla": 8343,
      "▁pazarın": 8344,
      "▁kaf": 8345,
      "akları": 8346,
      "▁hayret": 8347,
      "▁cıkardıgı": 8348,
      "▁gordugunuz": 8349,
      "▁muht": 8350,
      "▁1.19": 8351,
      "▁beyef": 8352,
      "▁bekledigini": 8353,
      "apon": 8354,
      "▁oynar": 8355,
      "▁afgan": 8356,
      "▁yiz": 8357,
      "edecek": 8358,
      "▁istihdam": 8359,
      "sana": 8360,
      "▁george": 8361,
      "'n": 8362,
      "ales": 8363,
      "ie": 8364,
      "▁dersiniz": 8365,
      "▁duyduk": 8366,
      "▁139": 8367,
      "▁da": 8368,
      "▁alırım": 8369,
      "▁bayr": 8370,
      "izik": 8371,
      "▁ramiz": 8372,
      "acası": 8373,
      "▁boc": 8374,
      "lak": 8375,
      "▁calıstır": 8376,
      "medigini": 8377,
      "▁sabahleyin": 8378,
      "e": 8379,
      "▁yolculuk": 8380,
      "▁yiyen": 8381,
      "lıgın": 8382,
      "▁petersburg'a": 8383,
      "elerden": 8384,
      "▁kıvr": 8385,
      "▁%50": 8386,
      "▁meksika": 8387,
      "eh": 8388,
      "▁biricik": 8389,
      "▁dor": 8390,
      "▁oldugu": 8391,
      "▁yarısı": 8392,
      "emden": 8393,
      "▁verecektir": 8394,
      "▁bunyesinde": 8395,
      "▁cleveland'dan": 8396,
      "undan": 8397,
      "iyorlardi": 8398,
      "▁kullandı": 8399,
      "▁duzeyde": 8400,
      "48": 8401,
      "▁gidiyordu": 8402,
      "▁konuya": 8403,
      "▁dususun": 8404,
      "▁edilem": 8405,
      "▁red": 8406,
      "▁kurumları": 8407,
      "ebilecegini": 8408,
      "▁baskalarına": 8409,
      "▁topragı": 8410,
      "▁alınır": 8411,
      "▁silik": 8412,
      "▁gok": 8413,
      "sarı": 8414,
      "▁ceo": 8415,
      "▁tahvillerin": 8416,
      "▁getiri": 8417,
      "if": 8418,
      "▁tesekkur": 8419,
      "▁girdik": 8420,
      "van": 8421,
      "▁temsil": 8422,
      "▁beklenen": 8423,
      "▁borclu": 8424,
      "ugu": 8425,
      "uzu": 8426,
      "▁1200": 8427,
      "ron": 8428,
      "▁salonda": 8429,
      "▁ro": 8430,
      "▁endustri": 8431,
      "▁tw": 8432,
      "▁ayagında": 8433,
      "▁kaldık": 8434,
      "▁istif": 8435,
      "▁kıt": 8436,
      "teler": 8437,
      "▁akıs": 8438,
      "▁sozlerini": 8439,
      "▁bagdas": 8440,
      "▁evrak": 8441,
      "▁yasası": 8442,
      "▁sadık": 8443,
      "▁arı": 8444,
      "▁yapacagim": 8445,
      "ileri": 8446,
      "sir": 8447,
      "▁beklen": 8448,
      "▁incelem": 8449,
      "▁kalkarak": 8450,
      "▁n": 8451,
      "▁key": 8452,
      "▁ilham": 8453,
      "▁whit": 8454,
      "▁dayanarak": 8455,
      "▁hala": 8456,
      "▁kendimde": 8457,
      "▁nusret": 8458,
      "▁memuru": 8459,
      "▁acıyordu": 8460,
      "l'ın": 8461,
      "▁yatıyordu": 8462,
      "ebec": 8463,
      "▁tartısmaya": 8464,
      "▁tak": 8465,
      "▁kendisinde": 8466,
      "▁olcut": 8467,
      "▁gubre": 8468,
      "▁konsol": 8469,
      "▁biz": 8470,
      "▁ustunden": 8471,
      "▁verdiginiz": 8472,
      "▁gorgu": 8473,
      "▁kinden": 8474,
      "▁liralık": 8475,
      "▁havaalanı'nda": 8476,
      "▁abd'li": 8477,
      "▁inek": 8478,
      "▁rehber": 8479,
      "▁hareketli": 8480,
      "chi": 8481,
      "▁5'te": 8482,
      "ular": 8483,
      "igi": 8484,
      "▁dekorasyon": 8485,
      "asında": 8486,
      "▁houston'dan": 8487,
      "▁esk": 8488,
      "▁toplan": 8489,
      "▁cesidi": 8490,
      "▁munhasır": 8491,
      "▁cesitleri": 8492,
      "▁bastı": 8493,
      "▁dustugu": 8494,
      "▁hasır": 8495,
      "25000": 8496,
      "▁bakınca": 8497,
      "▁fist": 8498,
      "▁rakipler": 8499,
      "▁tedav": 8500,
      "▁3000": 8501,
      "▁basarili": 8502,
      "▁itaat": 8503,
      "▁teorik": 8504,
      "eceksin": 8505,
      "▁cey": 8506,
      "▁yenilik": 8507,
      "acagı": 8508,
      "▁oglen": 8509,
      "▁geceleri": 8510,
      "mesinin": 8511,
      "▁parası": 8512,
      "▁donup": 8513,
      "munic": 8514,
      "0.8": 8515,
      "▁eliyle": 8516,
      "▁avukatlar": 8517,
      "uruz": 8518,
      "▁yosun": 8519,
      "▁day": 8520,
      "'si": 8521,
      "▁vi": 8522,
      "▁kopr": 8523,
      "▁partisi": 8524,
      "▁etken": 8525,
      "macı": 8526,
      "▁evinden": 8527,
      "▁hissediyorum": 8528,
      "▁basarılı": 8529,
      "▁personellerden": 8530,
      "▁capital": 8531,
      "esinde": 8532,
      "iydi": 8533,
      "▁kırık": 8534,
      "▁ettin": 8535,
      "▁tered": 8536,
      "▁700": 8537,
      "▁at&t": 8538,
      "▁kapasit": 8539,
      "▁parcası": 8540,
      "▁anadolu'da": 8541,
      "▁binlerce": 8542,
      "▁cikiyordu": 8543,
      "tator": 8544,
      "▁sf": 8545,
      "▁kalıp": 8546,
      "aktadır": 8547,
      "▁gunumuzde": 8548,
      "p": 8549,
      "▁okurken": 8550,
      "▁garip": 8551,
      "▁ilkeleri": 8552,
      "2000": 8553,
      "▁bugunlerde": 8554,
      "▁ramp": 8555,
      "▁delikanlı": 8556,
      "▁carsı": 8557,
      "lıyorum": 8558,
      "ecegimi": 8559,
      "▁sebeplerden": 8560,
      "enek": 8561,
      "▁kıyaslanabilir": 8562,
      "▁diyar": 8563,
      "▁sabır": 8564,
      "▁2600": 8565,
      "-f": 8566,
      "▁buranın": 8567,
      "▁surgun": 8568,
      "▁agı": 8569,
      "▁otuzaltı": 8570,
      "▁kısım": 8571,
      "sy": 8572,
      "ediyorum": 8573,
      "7000": 8574,
      "▁kurul": 8575,
      "igine": 8576,
      "▁elindeki": 8577,
      "▁isteyenler": 8578,
      "▁ley": 8579,
      "▁isa": 8580,
      "kım": 8581,
      "larında": 8582,
      "▁ar": 8583,
      "lamaları": 8584,
      "▁karaya": 8585,
      "▁dog": 8586,
      "4'te": 8587,
      "▁vermeyen": 8588,
      "▁yep": 8589,
      "▁takiben": 8590,
      "▁bolumunun": 8591,
      "kuz": 8592,
      "▁kongr": 8593,
      "▁calısanı": 8594,
      "▁canlan": 8595,
      "▁esnaf": 8596,
      "▁ısı": 8597,
      "▁eli": 8598,
      "▁gorunen": 8599,
      "▁buc": 8600,
      "▁akl": 8601,
      "▁beklem": 8602,
      "eden": 8603,
      "▁milwaukee'den": 8604,
      "▁dusun": 8605,
      "▁hayatını": 8606,
      "▁jaguar": 8607,
      "▁buradaki": 8608,
      "▁durumun": 8609,
      "obal": 8610,
      "ical": 8611,
      "▁seh": 8612,
      "▁lynch": 8613,
      "▁evren": 8614,
      "▁hun": 8615,
      "▁getiren": 8616,
      "▁kalkıs": 8617,
      "▁partiler": 8618,
      "▁yandı": 8619,
      "ater": 8620,
      "▁454": 8621,
      "▁nashville'den": 8622,
      "▁yuku": 8623,
      "ınızda": 8624,
      "▁dosy": 8625,
      "▁olacagı": 8626,
      "ıcılar": 8627,
      "▁basladıgını": 8628,
      "▁toronto": 8629,
      "ustugunu": 8630,
      "▁tıp": 8631,
      "▁ayır": 8632,
      "▁dolduran": 8633,
      "▁finansman": 8634,
      "▁kibar": 8635,
      "▁bilet": 8636,
      "▁isters": 8637,
      "▁hoslan": 8638,
      "mekten": 8639,
      "▁8.4": 8640,
      "▁ytl": 8641,
      "▁i": 8642,
      "▁toplamak": 8643,
      "burgh": 8644,
      "▁yatırımcıların": 8645,
      "eviz": 8646,
      "▁ge": 8647,
      "▁katı": 8648,
      "▁1.750": 8649,
      "ya": 8650,
      "▁yatkın": 8651,
      "▁bursa": 8652,
      "▁askerlik": 8653,
      "▁kurtulmak": 8654,
      "▁cekis": 8655,
      "por": 8656,
      "▁bilinmeyen": 8657,
      "▁kaydı": 8658,
      "mektedir": 8659,
      "▁kıraat": 8660,
      "▁berrak": 8661,
      "▁angeles": 8662,
      "▁sonucu": 8663,
      "▁su": 8664,
      "3.6": 8665,
      "▁adi": 8666,
      "▁gorusuldu": 8667,
      "ben": 8668,
      "▁nab": 8669,
      "▁1.000": 8670,
      "▁kibr": 8671,
      "▁sustu": 8672,
      "▁sokagı": 8673,
      "alarını": 8674,
      "uler": 8675,
      "▁kesilmis": 8676,
      "▁asfalt": 8677,
      "▁edward": 8678,
      "un": 8679,
      "ford": 8680,
      "▁plat": 8681,
      "▁cıkan": 8682,
      "▁sayf": 8683,
      "▁savcılar": 8684,
      "▁solgun": 8685,
      "▁yavaslama": 8686,
      "▁ertug": 8687,
      "▁yuzey": 8688,
      "ulugun": 8689,
      "▁lerle": 8690,
      "▁yonetimin": 8691,
      "cide": 8692,
      "/4": 8693,
      "▁azalarak": 8694,
      "▁zav": 8695,
      "andı": 8696,
      "▁dur": 8697,
      "▁yakasına": 8698,
      "▁kabl": 8699,
      "▁endisel": 8700,
      "▁zamanki": 8701,
      "cılı": 8702,
      "▁kararı": 8703,
      "ick": 8704,
      "▁hayli": 8705,
      "▁nane": 8706,
      "iyiz": 8707,
      "▁tutacak": 8708,
      "▁ig": 8709,
      "lanarak": 8710,
      "ılmayan": 8711,
      "▁hems": 8712,
      "▁service": 8713,
      "▁mesajı": 8714,
      "udu": 8715,
      "▁buzdol": 8716,
      "nut": 8717,
      "▁fuk": 8718,
      "▁ozgur": 8719,
      "er": 8720,
      "▁uzakta": 8721,
      "▁sessizlik": 8722,
      "▁cekirdek": 8723,
      "▁hisselerinin": 8724,
      "▁mutlaka": 8725,
      "▁katılıyor": 8726,
      "gat": 8727,
      "▁serap": 8728,
      "▁yerinde": 8729,
      "bi": 8730,
      "▁tuket": 8731,
      "▁teselli": 8732,
      "emizi": 8733,
      "lerindeki": 8734,
      "▁kalmadim": 8735,
      "▁vit": 8736,
      "▁yemege": 8737,
      "▁fincan": 8738,
      "▁cıktıgı": 8739,
      "▁muh": 8740,
      "▁165": 8741,
      "▁bulunacak": 8742,
      "▁kısıtlam": 8743,
      "▁buyukler": 8744,
      "▁basımı": 8745,
      "▁alakaliydi": 8746,
      "▁ellerim": 8747,
      "▁planlama": 8748,
      "▁degisikligi": 8749,
      "lısı": 8750,
      "▁tekstil": 8751,
      "▁etmez": 8752,
      "▁cekmis": 8753,
      "▁hikay": 8754,
      "▁cinsel": 8755,
      "▁sıy": 8756,
      "▁benzer": 8757,
      "▁oyle": 8758,
      "▁1.5820": 8759,
      "▁alım": 8760,
      "leket": 8761,
      "▁masalı": 8762,
      "▁electr": 8763,
      "▁tahmin": 8764,
      "▁konak": 8765,
      "luluk": 8766,
      "▁moral": 8767,
      "▁kurus": 8768,
      "▁lafı": 8769,
      "▁rezil": 8770,
      "▁broth": 8771,
      "▁hesapları": 8772,
      "metik": 8773,
      "▁bede": 8774,
      "ildigi": 8775,
      "▁kadındı": 8776,
      "▁kepenk": 8777,
      "tas": 8778,
      "▁yarın": 8779,
      "etnam": 8780,
      "▁etmekten": 8781,
      "▁gerektiriyor": 8782,
      "▁liradan": 8783,
      "▁tun": 8784,
      "▁havaalanlarını": 8785,
      "lik": 8786,
      "▁bo": 8787,
      "▁argum": 8788,
      "68": 8789,
      "▁mırıldan": 8790,
      "▁klasik": 8791,
      "▁bakımından": 8792,
      "cum": 8793,
      "▁gıy": 8794,
      "▁dogruldu": 8795,
      "▁olduktan": 8796,
      "▁nedenlerden": 8797,
      "eksiyon": 8798,
      "likten": 8799,
      "▁turunu": 8800,
      "▁temkin": 8801,
      "anoz": 8802,
      "ore": 8803,
      "▁oluyorum": 8804,
      "▁kasır": 8805,
      "▁politika": 8806,
      "▁plani": 8807,
      "▁kelebek": 8808,
      ".23": 8809,
      "▁muac": 8810,
      "▁dem": 8811,
      "aguar": 8812,
      "▁westchester": 8813,
      "▁1953": 8814,
      "▁endek": 8815,
      "▁gonullu": 8816,
      "▁anket": 8817,
      "ka": 8818,
      "sızlık": 8819,
      "▁yapayım": 8820,
      "▁aniden": 8821,
      "▁zann": 8822,
      "▁dinley": 8823,
      "▁miyim": 8824,
      "▁onlara": 8825,
      "▁ambar": 8826,
      "▁gormemis": 8827,
      "▁gergin": 8828,
      "▁iyilik": 8829,
      "▁haldır": 8830,
      "▁edecegini": 8831,
      "▁375": 8832,
[...]
