{
  "version": "1.0",
  "truncation": null,
  "padding": null,
  "added_tokens": [
    {
      "id": 6403,
      "content": "[PAD]",
      "single_word": false,
      "lstrip": false,
      "rstrip": false,
      "normalized": false,
      "special": true
    },
    {
      "id": 7529,
      "content": "[MASK]",
      "single_word": false,
      "lstrip": false,
      "rstrip": false,
      "normalized": false,
      "special": true
    },
    {
      "id": 7709,
      "content": "[UNK]",
      "single_word": false,
      "lstrip": false,
      "rstrip": false,
      "normalized": false,
      "special": true
    },
    {
      "id": 12798,
      "content": "[CLS]",
      "single_word": false,
      "lstrip": false,
      "rstrip": false,
      "normalized": false,
      "special": true
    },
    {
      "id": 13237,
      "content": "[SEP]",
      "single_word": false,
      "lstrip": false,
      "rstrip": false,
      "normalized": false,
      "special": true
    }
  ],
  "normalizer": {
    "type": "Sequence",
    "normalizers": [
      {
        "type": "NFD"
      },
      {
        "type": "Lowercase"
      },
      {
        "type": "StripAccents"
      }
    ]
  },
  "pre_tokenizer": {
    "type": "Sequence",
    "pretokenizers": [
      {
        "type": "Metaspace",
        "replacement": "▁",
        "prepend_scheme": "always",
        "split": true
      }
    ]
  },
  "post_processor": {
    "type": "TemplateProcessing",
    "single": [
      {
        "SpecialToken": {
          "id": "[CLS]",
          "type_id": 0
        }
      },
      {
        "Sequence": {
          "id": "A",
          "type_id": 0
        }
      },
      {
        "SpecialToken": {
          "id": "[SEP]",
          "type_id": 0
        }
      }
    ],
    "pair": [
      {
        "SpecialToken": {
          "id": "[CLS]",
          "type_id": 0
        }
      },
      {
        "Sequence": {
          "id": "A",
          "type_id": 0
        }
      },
      {
        "SpecialToken": {
          "id": "[SEP]",
          "type_id": 0
        }
      },
      {
        "Sequence": {
          "id": "B",
          "type_id": 1
        }
      },
      {
        "SpecialToken": {
          "id": "[SEP]",
          "type_id": 1
        }
      }
    ],
    "special_tokens": {
      "[CLS]": {
        "id": "[CLS]",
        "ids": [
          12798
        ],
        "tokens": [
          "[CLS]"
        ]
      },
      "[SEP]": {
        "id": "[SEP]",
        "ids": [
          13237
        ],
        "tokens": [
          "[SEP]"
        ]
      }
    }
  },
  "decoder": {
    "type": "Metaspace",
    "replacement": "▁",
    "prepend_scheme": "always",
    "split": true
  },
  "model": {
    "type": "WordPiece",
    "unk_token": "[UNK]",
    "continuing_subword_prefix": "##",
    "max_input_chars_per_word": 100,
    "vocab": {
      "▁milyardan": 0,
      "▁agız": 1,
      "▁kahvenin": 2,
      "##emical": 3,
      "▁ilim": 4,
      "##96": 5,
      "##malıydı": 6,
      "▁dilin": 7,
      "▁vesil": 8,
      "▁yuzyılın": 9,
      "▁sif": 10,
      "▁pekmez": 11,
      "▁sic": 12,
      "▁141.90": 13,
      "##to": 14,
      "▁alamadim": 15,
      "▁chat": 16,
      "▁cozumu": 17,
      "▁hast": 18,
      "▁ettigimiz": 19,
      "▁yonel": 20,
      "▁mudahal": 21,
      "▁7.65": 22,
      "▁sonradan": 23,
      "##dah": 24,
      "▁basındaki": 25,
      "##dugunu": 26,
      "##elim": 27,
      "▁tesek": 28,
      "▁oynamaya": 29,
      "▁onbes": 30,
      "▁ec": 31,
      "##esince": 32,
      "▁ha": 33,
      "▁must": 34,
      "▁reddet": 35,
      "▁aras": 36,
      "▁herkesi": 37,
      "▁bakma": 38,
      "▁ucretle": 39,
      "▁miami'den": 40,
      "▁form": 41,
      "▁beklenen": 42,
      "▁jr.": 43,
      "▁savr": 44,
      "##una": 45,
      "▁uzeri": 46,
      "▁ticari": 47,
      "▁cekerek": 48,
      "▁gezin": 49,
      "▁temerrut": 50,
      "▁kazandır": 51,
      "##erse": 52,
      "▁sırada": 53,
      "▁sarkı": 54,
      "▁ebeveyn": 55,
      "▁thomas": 56,
      "▁tahamm": 57,
      "▁topragı": 58,
      "##it'in": 59,
      "▁kapıyı": 60,
      "##acaksınız": 61,
      "▁ili": 62,
      "##'ler": 63,
      "##son": 64,
      "##ikatur": 65,
      "▁q": 66,
      "▁9.625": 67,
      "▁elimizde": 68,
      "▁toplamak": 69,
      "▁uzakta": 70,
      "▁olayı": 71,
      "▁fedakarlık": 72,
      "▁%9.": 73,
      "▁birimizin": 74,
      "▁kanep": 75,
      "▁zorla": 76,
      "▁esn": 77,
      "##ildim": 78,
      "▁burnu": 79,
      "▁gittim": 80,
      "##asır": 81,
      "▁alakasi": 82,
      "▁halbuki": 83,
      "▁coz": 84,
      "▁4.6": 85,
      "▁cerey": 86,
      "##tiniz": 87,
      "▁adlandır": 88,
      "▁dinledi": 89,
      "▁pesinden": 90,
      "▁memuriyet": 91,
      "▁yeniden": 92,
      "▁otelde": 93,
      "▁hangisini": 94,
      "▁benims": 95,
      "▁gecmisi": 96,
      "▁nay": 97,
      "▁artıs": 98,
      "▁angeles'e": 99,
      "▁0.05": 100,
      "▁salın": 101,
      "▁buy": 102,
      "##lasyon": 103,
      "▁iran": 104,
      "▁well": 105,
      "▁birlestir": 106,
      "##lık": 107,
      "##an'ın": 108,
      "▁ifsa": 109,
      "▁arasında": 110,
      "▁durmus": 111,
      "▁standart": 112,
      "▁ozellikleri": 113,
      "▁krenz": 114,
      "▁yazarı": 115,
      "▁ulasımı": 116,
      "▁y": 117,
      "##-p": 118,
      "▁calısıyorlar": 119,
      "▁olustur": 120,
      "▁yur": 121,
      "▁severim": 122,
      "##5.7": 123,
      "▁yapmadıgını": 124,
      "▁dong": 125,
      "▁1953": 126,
      "▁carsı": 127,
      "##0.000": 128,
      "▁oturt": 129,
      "##eyal": 130,
      "▁heyec": 131,
      "##han": 132,
      "▁manevra": 133,
      "▁gogus": 134,
      "▁aray": 135,
      "▁buc": 136,
      "▁ilgilendir": 137,
      "▁hilton": 138,
      "▁sorusturma": 139,
      "▁u": 140,
      "##alarda": 141,
      "▁azar": 142,
      "##'nde": 143,
      "▁kolombiya": 144,
      "▁gezdim": 145,
      "▁fig": 146,
      "▁yken": 147,
      "▁carl": 148,
      "▁isteyen": 149,
      "##laka": 150,
      "▁1.37": 151,
      "▁once": 152,
      "▁indian": 153,
      "##mayla": 154,
      "▁2017": 155,
      "##mıstır": 156,
      "##emizi": 157,
      "▁yılına": 158,
      "▁mar": 159,
      "▁bitir": 160,
      "▁ucuslarla": 161,
      "▁edemez": 162,
      "▁sunan": 163,
      "▁bilgisayar": 164,
      "▁dudakları": 165,
      "▁degerli": 166,
      "▁hisseyi": 167,
      "▁tesp": 168,
      "▁saatlik": 169,
      "##ılırsa": 170,
      "▁ra": 171,
      "##hur": 172,
      "▁baslam": 173,
      "▁katılıyor": 174,
      "##amızın": 175,
      "▁karara": 176,
      "##'ı": 177,
      "▁soylemeye": 178,
      "▁rıh": 179,
      "▁spons": 180,
      "▁kirliydi": 181,
      "▁pencereden": 182,
      "▁yururken": 183,
      "##elerek": 184,
      "▁marif": 185,
      "▁kaydetti": 186,
      "▁sir": 187,
      "▁adı": 188,
      "▁cıkarılan": 189,
      "▁havalimanı": 190,
      "▁trafik": 191,
      "▁temizlikten": 192,
      "▁sonucların": 193,
      "▁unsuru": 194,
      "▁first": 195,
      "▁futbolcu": 196,
      "##uldugunu": 197,
      "▁karabiber": 198,
      "▁ameliyat": 199,
      "▁kokuyordu": 200,
      "##alanı": 201,
      "##84": 202,
      "▁aldıktan": 203,
      "▁anlatmak": 204,
      "▁hazine'nin": 205,
      "▁temel": 206,
      "▁kısmen": 207,
      "▁ydim": 208,
      "▁mih": 209,
      "▁geldigim": 210,
      "▁tanın": 211,
      "##atil": 212,
      "▁patlıc": 213,
      "##un": 214,
      "▁mucadele": 215,
      "##ladılar": 216,
      "▁aramay": 217,
      "##imizin": 218,
      "▁vadesiz": 219,
      "▁traj": 220,
      "▁gozler": 221,
      "##lenmesi": 222,
      "##kuz": 223,
      "▁perdesi": 224,
      "▁kritik": 225,
      "▁irf": 226,
      "▁reserve": 227,
      "▁boy": 228,
      "▁sanıyorum": 229,
      "##tılar": 230,
      "▁iplik": 231,
      "▁etmisler": 232,
      "▁ora": 233,
      "▁parkta": 234,
      "▁tesisten": 235,
      "▁esiyor": 236,
      "▁harikaydi": 237,
      "##elikle": 238,
      "##se": 239,
      "▁demokratik": 240,
      "▁kenarları": 241,
      "▁kirpik": 242,
      "▁gecer": 243,
      "▁macı": 244,
      "▁tum": 245,
      "▁yonetiminin": 246,
      "▁kasırga": 247,
      "▁indianapolis'ten": 248,
      "▁annem": 249,
      "##yeni": 250,
      "▁duygusu": 251,
      "▁guzelim": 252,
      "▁dc'de": 253,
      "▁akl": 254,
      "▁nut": 255,
      "▁hakkı": 256,
      "▁farkına": 257,
      "▁kahveci": 258,
      "▁burnun": 259,
      "##meli": 260,
      "##isinden": 261,
      "▁boc": 262,
      "▁bahset": 263,
      "▁yan": 264,
      "##lerdi": 265,
      "▁acıklam": 266,
      "▁eriyor": 267,
      "##vır": 268,
      "▁mat": 269,
      "##y'nin": 270,
      "▁baksana": 271,
      "▁kaynaklan": 272,
      "▁ayının": 273,
      "▁baskanlıgı": 274,
      "##tır": 275,
      "▁tacoma": 276,
      "▁bec": 277,
      "##1'de": 278,
      "▁hersey": 279,
      "▁saniye": 280,
      "▁control": 281,
      "##ic'in": 282,
      "##distan": 283,
      "##org": 284,
      "##igine": 285,
      "▁mani": 286,
      "▁yukselt": 287,
      "▁kep": 288,
      "▁yetersizdi": 289,
      "▁plaj": 290,
      "##isk": 291,
      "▁mektup": 292,
      "##iyla": 293,
      "▁turk'un": 294,
      "##adav": 295,
      "##'ne": 296,
      "▁yavr": 297,
      "▁degistiriyor": 298,
      "▁odeyecek": 299,
      "▁konusmaya": 300,
      "▁madde": 301,
      "##8'de": 302,
      "▁yapti": 303,
      "▁olabilecegi": 304,
      "▁sivil": 305,
      "▁boyl": 306,
      "▁limuz": 307,
      "▁dolardır": 308,
      "▁ray": 309,
      "▁samet": 310,
      "▁planını": 311,
      "▁pur": 312,
      "▁yuzluydu": 313,
      "##ugum": 314,
      "▁ariz": 315,
      "##ke": 316,
      "▁deligi": 317,
      "##muyor": 318,
      "##s'ın": 319,
      "▁mısın": 320,
      "▁mesle": 321,
      "##ega'nın": 322,
      "▁kendimle": 323,
      "▁sapan": 324,
      "▁herkesle": 325,
      "▁inceleme": 326,
      "##elerde": 327,
      "##madık": 328,
      "▁dolduran": 329,
      "▁prot": 330,
      "##lasın": 331,
      "▁birka": 332,
      "▁kilerin": 333,
      "▁dusmanca": 334,
      "▁adında": 335,
      "▁0.24": 336,
      "##lilig": 337,
      "▁koruy": 338,
      "▁bolumu": 339,
      "▁diego'ya": 340,
      "##'tan": 341,
      "##dan": 342,
      "##bin": 343,
      "▁kendimizi": 344,
      "▁evrenin": 345,
      "▁tırman": 346,
      "##beri": 347,
      "##o'dan": 348,
      "▁senem": 349,
      "▁mademki": 350,
      "▁thom": 351,
      "▁iyidir": 352,
      "▁ice": 353,
      "▁siy": 354,
      "##yan": 355,
      "##iyetin": 356,
      "▁rafin": 357,
      "▁yangın": 358,
      "▁verebilirim": 359,
      "▁teras": 360,
      "▁kulag": 361,
      "##duktan": 362,
      "▁1.06": 363,
      "##ad": 364,
      "▁taks": 365,
      "▁italyan": 366,
      "”": 367,
      "▁abi": 368,
      "▁demisti": 369,
      "▁bon": 370,
      "▁vak": 371,
      "▁skandal": 372,
      "▁bilmek": 373,
      "##acaklarını": 374,
      "▁bildir": 375,
      "▁yukselerek": 376,
      "▁koltuklar": 377,
      "##.88": 378,
      "##aray": 379,
      "▁dususu": 380,
      "##ydi": 381,
      "##lal": 382,
      "▁dua": 383,
      "▁ceza": 384,
      "▁endustrisi": 385,
      "▁insanlardan": 386,
      "▁evden": 387,
      "▁aslında": 388,
      "▁dip": 389,
      "▁islemciler": 390,
      "##gı": 391,
      "▁kumsal": 392,
      "▁pazarlık": 393,
      "▁fid": 394,
      "▁bulasık": 395,
      "##ill": 396,
      "▁alıcı": 397,
      "▁ortalık": 398,
      "▁gelistirme": 399,
      "▁sevg": 400,
      "▁merh": 401,
      "##ızı": 402,
      "▁chicago'dan": 403,
      "##mesinin": 404,
      "▁rap": 405,
      "▁sekiz": 406,
      "##cıları": 407,
      "▁hayatımda": 408,
      "▁dostları": 409,
      "▁dururdu": 410,
      "▁zıp": 411,
      "▁kim": 412,
      "▁goruyoruz": 413,
      "▁saglam": 414,
      "▁ugrasıyor": 415,
      "▁yetkilileri": 416,
      "##amdan": 417,
      "▁yalap": 418,
      "▁kaynaklanıyor": 419,
      "▁tut": 420,
      "▁hayal": 421,
      "▁dondum": 422,
      "▁york'tan": 423,
      "▁hesaba": 424,
      "▁yıcı": 425,
      "▁milletvek": 426,
      "▁duygular": 427,
      "▁sim": 428,
      "▁rend": 429,
      "▁veyahut": 430,
      "▁uretimin": 431,
      "▁alısveris": 432,
      "▁tahminleri": 433,
      "##nu": 434,
      "▁%99": 435,
      "▁yırt": 436,
      "▁ayn": 437,
      "▁prob": 438,
      "##gunuz": 439,
      "##abilirsiniz": 440,
      "▁reviz": 441,
      "▁gunlerden": 442,
      "▁soyledigi": 443,
      "▁ihtiras": 444,
      "##.62": 445,
      "##amda": 446,
      "▁kaybet": 447,
      "▁oldugumuzu": 448,
      "▁itibari": 449,
      "▁gelmeden": 450,
      "▁etmez": 451,
      "▁yaparlar": 452,
      "▁kk": 453,
      "##daki": 454,
      "▁bulunan": 455,
      "##'ye": 456,
      "##ırda": 457,
      "▁koyun": 458,
      "▁kulturu": 459,
      "▁edinmek": 460,
      "▁karsılas": 461,
      "▁ask": 462,
      "▁muamel": 463,
      "##memesi": 464,
      "▁hain": 465,
      "▁tanr": 466,
      "▁pazarlama": 467,
      "▁gonzal": 468,
      "▁dc'ye": 469,
      "▁verecek": 470,
      "##ong": 471,
      "▁calısması": 472,
      "▁miydim": 473,
      "##heim": 474,
      "##1'e": 475,
      "▁boeing": 476,
      "▁dısına": 477,
      "##'luk": 478,
      "▁dusuktu": 479,
      "##2'de": 480,
      "▁read": 481,
      "▁anlasılıyor": 482,
      "▁yaptıgını": 483,
      "▁mc": 484,
      "▁neyi": 485,
      "▁eriy": 486,
      "▁eserleri": 487,
      "▁seyh": 488,
      "▁saatler": 489,
      "▁12.9": 490,
      "▁esyaları": 491,
      "▁mikrop": 492,
      "▁mood": 493,
      "##eyecek": 494,
      "▁alaska": 495,
      "▁uctu": 496,
      "▁toplantı": 497,
      "##dem": 498,
      "▁begenmedim": 499,
      "##uy": 500,
      "▁olumlu": 501,
      "▁ob": 502,
      "##ogg": 503,
      "▁istinaden": 504,
      "▁lazımdır": 505,
      "##-m": 506,
      "▁veririm": 507,
      "▁1.0": 508,
      "▁w.": 509,
      "▁secer": 510,
      "##iss": 511,
      "##saydı": 512,
      "▁lawson": 513,
      "▁1950": 514,
      "▁mud": 515,
      "##maca": 516,
      "▁alıskan": 517,
      "▁zamanlama": 518,
      "▁diger": 519,
      "▁hun": 520,
      "##ti": 521,
      "▁aklıma": 522,
      "##emizin": 523,
      "##uyorlardı": 524,
      "▁hollywood": 525,
      "▁kavga": 526,
      "▁birbirler": 527,
      "▁ilg": 528,
      "▁kose": 529,
      "▁fırtın": 530,
      "▁harcamaları": 531,
      "##bil": 532,
      "▁almıs": 533,
      "##oth": 534,
      "▁evrensel": 535,
      "##lasmıs": 536,
      "▁genislet": 537,
      "▁korkut": 538,
      "▁kog": 539,
      "##osunu": 540,
      "▁delta": 541,
      "▁bah": 542,
      "##ato": 543,
      "##oker": 544,
      "##tıs": 545,
      "▁durmak": 546,
      "▁amex": 547,
      "▁etkin": 548,
      "▁buyume": 549,
      "▁laborat": 550,
      "▁gam": 551,
      "##mayacagı": 552,
      "▁1963": 553,
      "▁guver": 554,
      "▁kendiler": 555,
      "▁zeytiny": 556,
      "▁icli": 557,
      "▁almanya'da": 558,
      "▁azalt": 559,
      "▁yedi": 560,
      "▁ugradı": 561,
      "▁kostur": 562,
      "▁pittsburgh'ta": 563,
      "▁tı": 564,
      "▁gecmez": 565,
      "▁parcacık": 566,
      "▁n": 567,
      "##ray": 568,
      "▁cap": 569,
      "▁cukur": 570,
      "▁almadan": 571,
      "##ilt": 572,
      "▁aniden": 573,
      "▁tad": 574,
      "##ruz": 575,
      "▁doktorlar": 576,
      "▁1100": 577,
      "▁rop": 578,
      "##izasyon": 579,
      "▁acente": 580,
      "▁duduk": 581,
      "##adem": 582,
      "▁yolun": 583,
      "▁yam": 584,
      "▁dr": 585,
      "▁malzemeleri": 586,
      "▁askın": 587,
      "##memek": 588,
      "▁parib": 589,
      "##tre": 590,
      "##l": 591,
      "▁mubarek": 592,
      "▁turunu": 593,
      "▁guber": 594,
      "▁merksamer": 595,
      "▁adinaydi": 596,
      "##lamalı": 597,
      "##lasması": 598,
      "##ld": 599,
      "▁ayrılık": 600,
      "▁besi": 601,
      "▁uy": 602,
      "▁sınıfa": 603,
      "▁sanatın": 604,
      "▁sanki": 605,
      "##ırıl": 606,
      "▁feryat": 607,
      "▁ankara'ya": 608,
      "▁bulut": 609,
      "▁esi": 610,
      "▁tepk": 611,
      "▁sureci": 612,
      "##amazlar": 613,
      "▁yasındaki": 614,
      "▁5.7": 615,
      "##'nu": 616,
      "##lanıyor": 617,
      "▁%80": 618,
      "▁gel": 619,
      "▁yıllarında": 620,
      "▁ekonominin": 621,
      "▁edilmisti": 622,
      "▁evli": 623,
      "▁bot": 624,
      "▁konusurken": 625,
      "▁sonraki": 626,
      "▁toplulugun": 627,
      "▁adlı": 628,
      "▁han": 629,
      "##dev": 630,
      "▁zinciri": 631,
      "▁faaliyete": 632,
      "▁muddet": 633,
      "▁sirketin": 634,
      "▁oyunun": 635,
      "▁ima": 636,
      "▁degildiler": 637,
      "##egas": 638,
      "▁lan": 639,
      "▁suyuna": 640,
      "##aa": 641,
      "▁hıc": 642,
      "▁96": 643,
      "▁washington'a": 644,
      "▁fazlay": 645,
      "##umuza": 646,
      "▁kucucuk": 647,
      "▁senetlerinin": 648,
      "▁mcca": 649,
      "▁hayata": 650,
      "##teb": 651,
      "▁verimli": 652,
      "##7.9": 653,
      "▁ehemm": 654,
      "▁6.7": 655,
      "▁leri": 656,
      "▁gucu": 657,
      "▁yıllarda": 658,
      "▁bitki": 659,
      "##alet": 660,
      "▁iyiden": 661,
      "▁40.4": 662,
      "▁daha": 663,
      "▁uykusuz": 664,
      "##ep": 665,
      "▁sav": 666,
      "▁lif": 667,
      "▁duyduk": 668,
      "▁mimar": 669,
      "▁elimize": 670,
      "▁1648": 671,
      "▁duyuyordu": 672,
      "##rat": 673,
      "▁mahkum": 674,
      "▁chase": 675,
      "##ındır": 676,
      "▁degillerdi": 677,
      "▁toplamda": 678,
      "##bar": 679,
      "▁insanları": 680,
      "##ograf": 681,
      "##ave": 682,
      "##ebilirim": 683,
      "▁eline": 684,
      "▁tesiste": 685,
      "▁samim": 686,
      "##arası": 687,
      "▁cumartesi": 688,
      "##ım": 689,
      "▁katilmadim": 690,
      "▁sikint": 691,
      "▁ahenk": 692,
      "▁faturam": 693,
      "##ilebilir": 694,
      "▁e.": 695,
      "▁oylesine": 696,
      "##eller": 697,
      "▁hayatını": 698,
      "▁sauna": 699,
      "▁gorusuldu": 700,
      "##ı": 701,
      "▁eksikligi": 702,
      "##abıyla": 703,
      "▁romat": 704,
      "▁baltimore'ye": 705,
      "##iki": 706,
      "▁sınıflandır": 707,
      "##eledigi": 708,
      "##lesmis": 709,
      "##malar": 710,
      "▁baslarını": 711,
      "▁bekledigini": 712,
      "▁kaptan": 713,
      "▁gunlerini": 714,
      "▁yemegi": 715,
      "▁diyar": 716,
      "▁cd": 717,
      "▁cia": 718,
      "▁cekerdi": 719,
      "▁ism": 720,
      "▁pilot": 721,
      "▁kopr": 722,
      "▁bilinen": 723,
      "▁kazanıyor": 724,
      "▁oranlar": 725,
      "▁sayfa": 726,
      "▁saime": 727,
      "▁koyan": 728,
      "▁cek": 729,
      "##eyin": 730,
      "▁sokacak": 731,
      "▁ogrenci": 732,
      "▁ların": 733,
      "##alıga": 734,
      "▁ki": 735,
      "▁kazanclarını": 736,
      "▁katılan": 737,
      "▁isine": 738,
      "##7.6": 739,
      "▁verdim": 740,
      "▁fiyatlı": 741,
      "▁dinley": 742,
      "▁g.": 743,
      "▁doları'nda": 744,
      "▁borcunu": 745,
      "##ger": 746,
      "▁alma": 747,
      "▁ucyuzyetmis": 748,
      "##-2": 749,
      "##tcı": 750,
      "▁sezginler": 751,
      "##vah": 752,
      "▁yukumluluk": 753,
      "▁salı": 754,
      "▁serin": 755,
      "▁sahte": 756,
      "##ace": 757,
      "▁sars": 758,
      "##uldugu": 759,
      "▁yapil": 760,
      "##vansiy": 761,
      "##umuze": 762,
      "▁37": 763,
      "▁basbak": 764,
      "##abz": 765,
      "▁unit": 766,
      "▁okuyucu": 767,
      "▁sanatcılar": 768,
      "▁ohi": 769,
      "##avuz": 770,
      "##yuzotuz": 771,
      "▁bay": 772,
      "##be": 773,
      "▁durgunluk": 774,
      "▁sıf": 775,
      "▁veto": 776,
      "##icisi": 777,
      "▁dusundu": 778,
      "▁idare": 779,
      "##lıgıyla": 780,
      "▁durdur": 781,
      "##isan": 782,
      "▁okut": 783,
      "▁acıklaması": 784,
      "▁muam": 785,
      "▁alas": 786,
      "▁deri": 787,
      "▁baslıyor": 788,
      "▁kine": 789,
      "▁ailenin": 790,
      "▁muvaff": 791,
      "▁kurumlar": 792,
      "▁carc": 793,
      "##lerin": 794,
      "▁utangac": 795,
      "▁denizden": 796,
      "▁co": 797,
      "▁diyorlar": 798,
      "##ilerinin": 799,
      "▁girerken": 800,
      "▁genclik": 801,
      "##ılmasına": 802,
      "▁gerektigini": 803,
      "▁meydanı": 804,
      "##cum": 805,
      "▁elimde": 806,
      "▁rustu": 807,
      "▁verir": 808,
      "▁altı": 809,
      "▁ocak'ta": 810,
      "▁cekilmis": 811,
      "▁hazırlamıs": 812,
      "##mu": 813,
      "▁gazel": 814,
      "▁ondan": 815,
      "▁kesmis": 816,
      "##may": 817,
      "▁bekleniyor": 818,
      "▁gerekiyordu": 819,
      "▁yonetici": 820,
      "▁oturuyor": 821,
      "▁tamamlan": 822,
      "▁gectigimiz": 823,
      "▁onder": 824,
      "▁dokundu": 825,
      "▁konustular": 826,
      "▁hanımı": 827,
      "▁haberim": 828,
      "▁listesine": 829,
      "##umus": 830,
      "▁hukumet": 831,
      "▁2.9": 832,
      "##sekiz": 833,
      "▁ded": 834,
      "▁sakal": 835,
      "##gunun": 836,
      "▁ihtiyac": 837,
      "▁ilgililerdi": 838,
      "▁gokyuz": 839,
      "▁iltif": 840,
      "▁bekleyen": 841,
      "▁avukatları": 842,
      "▁315": 843,
      "##dıgımız": 844,
      "##isel": 845,
      "▁ezber": 846,
      "▁yapıstır": 847,
      "##likte": 848,
      "▁acabilir": 849,
      "▁saglık": 850,
      "▁otop": 851,
      "▁macın": 852,
      "##uluk": 853,
      "##asyona": 854,
      "▁hepsine": 855,
      "##boy": 856,
      "▁ikibinuc'te": 857,
      "▁ce": 858,
      "▁baskalarına": 859,
      "▁ger": 860,
      "▁icini": 861,
      "▁yemegin": 862,
      "##evizyon": 863,
      "▁tanıklık": 864,
      "▁hayatta": 865,
      "##dı": 866,
      "##ator": 867,
      "##red": 868,
      "▁genellikle": 869,
      "▁bıraktım": 870,
      "▁son": 871,
      "▁domates": 872,
      "▁mill": 873,
      "▁dunya": 874,
      "▁hatice": 875,
      "##gal": 876,
      "##e": 877,
      "▁derginin": 878,
      "▁parti": 879,
      "##urt": 880,
      "▁maddeler": 881,
      "▁konuk": 882,
      "##ing": 883,
      "▁arabacı": 884,
      "▁ondokuz": 885,
      "##cuları": 886,
      "▁iseniz": 887,
      "▁bakimsizdi": 888,
      "##subishi": 889,
      "▁dustugu": 890,
      "▁ey": 891,
      "▁mesaf": 892,
      "▁moskova": 893,
      "▁ydin": 894,
      "##pıs": 895,
      "▁hak": 896,
      "▁insanlık": 897,
      "▁yurdum": 898,
      "▁sahiden": 899,
      "▁edecegim": 900,
      "##edinin": 901,
      "▁yuz": 902,
      "▁bus": 903,
      "▁atan": 904,
      "##lin": 905,
      "▁itib": 906,
      "##mi": 907,
      "##.52": 908,
      "▁cag": 909,
      "▁belediy": 910,
      "▁niyetinde": 911,
      "##.02": 912,
      "▁devral": 913,
      "##leyip": 914,
      "▁dik": 915,
      "▁yerlere": 916,
      "▁boston": 917,
      "▁mantıksız": 918,
      "▁kırmız": 919,
      "▁kalkıs": 920,
      "▁dokuluyor": 921,
      "▁cıkıs": 922,
      "##saltı": 923,
      "▁vermeden": 924,
      "▁sigortacılar": 925,
      "##'ta": 926,
      "▁yapı": 927,
      "▁olmustu": 928,
      "##egiyle": 929,
      "##eyebilir": 930,
      "##tc": 931,
      "▁dusunmuyorum": 932,
      "▁dov": 933,
      "▁gitmeye": 934,
      "##0.8": 935,
      "▁onsekiz": 936,
      "▁tepeden": 937,
      "▁kitaplar": 938,
      "▁duv": 939,
      "▁hastalıgı": 940,
      "▁bahan": 941,
      "▁beyi": 942,
      "▁almak": 943,
      "▁zengin": 944,
      "▁tadını": 945,
      "▁kıymetler": 946,
      "▁temizligi": 947,
      "▁inmis": 948,
      "▁45000": 949,
      "##dum": 950,
      "▁kalabal": 951,
      "▁yuzyılda": 952,
      "▁bircog": 953,
      "▁tahvil": 954,
      "▁buyumeye": 955,
      "▁bayılmıs": 956,
      "▁esmer": 957,
      "▁hab": 958,
      "▁mir": 959,
      "▁las": 960,
      "##ader": 961,
      "▁aydınlık": 962,
      "▁esliginde": 963,
      "▁prof": 964,
      "▁acmaz": 965,
      "▁canı": 966,
      "▁ucusla": 967,
      "▁rastlan": 968,
      "##tıgına": 969,
      "▁ekib": 970,
      "▁tasıt": 971,
      "▁taraf": 972,
      "▁fark": 973,
      "▁hukumeti": 974,
      "▁yayıldı": 975,
      "▁tul": 976,
      "▁tarihini": 977,
      "▁kelimeyle": 978,
      "##umuzun": 979,
      "▁6.6": 980,
      "▁burbank'tan": 981,
      "▁islerinin": 982,
      "▁69": 983,
      "▁ekran": 984,
      "##larından": 985,
      "▁tehlikeye": 986,
      "▁ytl": 987,
      "##imize": 988,
      "▁fr": 989,
      "##otuz": 990,
      "▁capraz": 991,
      "▁gorusemedik": 992,
      "▁1.22": 993,
      "▁varır": 994,
      "▁vardi": 995,
      "▁icten": 996,
      "▁s.": 997,
      "▁calisanlardan": 998,
      "▁yatan": 999,
      "▁boynuna": 1000,
      "##lıga": 1001,
      "▁1945'te": 1002,
      "##dadı": 1003,
      "▁weis": 1004,
      "▁yadig": 1005,
      "##lamayı": 1006,
      "▁isvec": 1007,
      "▁yerlesik": 1008,
      "##emesi": 1009,
      "▁ilgilen": 1010,
      "▁duyarlı": 1011,
      "▁ilgilenmedi": 1012,
      "##ody": 1013,
      "##acaksın": 1014,
      "▁gran": 1015,
      "▁diken": 1016,
      "▁he": 1017,
      "▁dır": 1018,
      "▁inc.": 1019,
      "##iliyordu": 1020,
      "▁hayır": 1021,
      "▁kesme": 1022,
      "##at": 1023,
      "▁havlu": 1024,
      "##sum": 1025,
      "##larının": 1026,
      "▁akr": 1027,
      "▁philadelphia'ya": 1028,
      "▁ihsan": 1029,
      "▁guzeldi": 1030,
      "▁kutu": 1031,
      "▁karsilas": 1032,
      "▁isgucu": 1033,
      "▁ozur": 1034,
      "▁canak": 1035,
      "▁defa": 1036,
      "▁antal": 1037,
      "▁ovun": 1038,
      "▁kusu": 1039,
      "▁danısmanlık": 1040,
      "▁olm": 1041,
      "##nol": 1042,
      "▁bilimleri": 1043,
      "▁gerisi": 1044,
      "▁sez": 1045,
      "▁yuzume": 1046,
      "▁koltuk": 1047,
      "▁fiyatlandır": 1048,
      "##26": 1049,
      "##larınız": 1050,
      "▁betim": 1051,
      "##ıldıgında": 1052,
      "##onspor": 1053,
      "▁gorunmek": 1054,
      "▁benim": 1055,
      ".": 1056,
      "▁patlı": 1057,
      "▁milliyetci": 1058,
      "▁os": 1059,
      "##asın": 1060,
      "▁etkinlik": 1061,
      "▁uyeleri": 1062,
      "▁milwa": 1063,
      "▁verebilir": 1064,
      "▁kurdu": 1065,
      "▁superdi": 1066,
      "##alarla": 1067,
      "▁katildim": 1068,
      "▁karsılıgını": 1069,
      "▁cakmak": 1070,
      "▁lutf": 1071,
      "▁worth'dan": 1072,
      "▁925": 1073,
      "▁kral": 1074,
      "▁uzaktan": 1075,
      "z": 1076,
      "▁18": 1077,
      "▁zur": 1078,
      "##lige": 1079,
      "▁okudu": 1080,
      "▁birisi": 1081,
      "▁?..": 1082,
      "▁avuc": 1083,
      "▁erzurum": 1084,
      "▁kariyer": 1085,
      "▁kor": 1086,
      "##ulan": 1087,
      "▁bu": 1088,
      "▁inti": 1089,
      "▁baskent": 1090,
      "▁dest": 1091,
      "▁yarısını": 1092,
      "▁vasıtasıyla": 1093,
      "▁british": 1094,
      "▁bazıları": 1095,
      "▁gazetesi": 1096,
      "▁biber": 1097,
      "▁yukselisle": 1098,
      "▁akar": 1099,
      "▁500000": 1100,
      "▁cagır": 1101,
      "▁ydiler": 1102,
      "##niyet": 1103,
      "▁uyuz": 1104,
      "##abildi": 1105,
      "▁hissettim": 1106,
      "▁6": 1107,
      "##lara": 1108,
      "▁kalkıyor": 1109,
      "▁ustesinden": 1110,
      "▁gonder": 1111,
      "##ikten": 1112,
      "▁denizci": 1113,
      "▁vic": 1114,
      "▁merve": 1115,
      "▁sayan": 1116,
      "▁aktar": 1117,
      "##ega": 1118,
      "##lanmamıs": 1119,
      "##elere": 1120,
      "##tıgında": 1121,
      "▁attım": 1122,
      "▁detroit'e": 1123,
      "##dikce": 1124,
      "▁ucakla": 1125,
      "▁cenaz": 1126,
      "▁aktiv": 1127,
      "▁temizlen": 1128,
      "##ical": 1129,
      "▁bekliyor": 1130,
      "▁376": 1131,
      "▁zaman": 1132,
      "##sak": 1133,
      "▁tasarru": 1134,
      "▁bolgenin": 1135,
      "▁armut": 1136,
      "▁dukkanı": 1137,
      "##makta": 1138,
      "▁boyn": 1139,
      "▁ozdemir": 1140,
      "▁oyuncuları": 1141,
      "##o": 1142,
      "▁yontem": 1143,
      "▁75000": 1144,
      "##7.1": 1145,
      "▁kendisini": 1146,
      "▁iceride": 1147,
      "##ecegim": 1148,
      "▁iddi": 1149,
      "▁kıyasla": 1150,
      "##m": 1151,
      "▁frenk": 1152,
      "##dim": 1153,
      "▁ruz": 1154,
      "▁seyrediyordu": 1155,
      "▁partiler": 1156,
      "▁kabin": 1157,
      "▁cadd": 1158,
      "▁bagladı": 1159,
      "▁kulagına": 1160,
      "▁anlayislari": 1161,
      "##lıktan": 1162,
      "▁mektubu": 1163,
      "▁tif": 1164,
      "▁h": 1165,
      "▁9.7": 1166,
      "##ci": 1167,
      "▁yılki": 1168,
      "▁kentte": 1169,
      "▁sozcu": 1170,
      "##abına": 1171,
      "▁tipik": 1172,
      "▁ocagın": 1173,
      "▁santor": 1174,
      "##isine": 1175,
      "##mesin": 1176,
      "##leyecek": 1177,
      "▁505": 1178,
      "▁miami'ye": 1179,
      "▁mırıldan": 1180,
      "▁ustelik": 1181,
      "▁402": 1182,
      "▁cocukluk": 1183,
      "▁70'e": 1184,
      "▁ulusal": 1185,
      "▁yuruyen": 1186,
      "▁177": 1187,
      "##aff": 1188,
      "▁gonderdi": 1189,
      "▁sabahın": 1190,
      "▁abd'nin": 1191,
      "##erdi": 1192,
      "▁kurdular": 1193,
      "##emde": 1194,
      "▁toront": 1195,
      "▁dey": 1196,
      "▁ayrıl": 1197,
      "▁huv": 1198,
      "##ove": 1199,
      "▁uyur": 1200,
      "##fon": 1201,
      "▁kına": 1202,
      "▁sayısını": 1203,
      "▁``": 1204,
      "▁otekini": 1205,
      "▁kıtır": 1206,
      "▁yara": 1207,
      "▁saatlerdeki": 1208,
      "▁bugday": 1209,
      "▁verdigi": 1210,
      "▁lok": 1211,
      "▁gorunt": 1212,
      "▁sık": 1213,
      "▁fiziksel": 1214,
      "▁cans": 1215,
      "##'un": 1216,
      "▁komp": 1217,
      "▁bankası": 1218,
      "##-b": 1219,
      "▁dusmesi": 1220,
      "▁269": 1221,
      "##olik": 1222,
      "▁istedigimiz": 1223,
      "▁agaclar": 1224,
      "▁gitmis": 1225,
      "▁gectiler": 1226,
      "▁daml": 1227,
      "▁kelimesi": 1228,
      "##meye": 1229,
      "▁tug": 1230,
      "▁isciyi": 1231,
      "##us": 1232,
      "▁busbutun": 1233,
      "##gun": 1234,
      "▁tasar": 1235,
      "▁kime": 1236,
      "▁veriyor": 1237,
      "##port": 1238,
      "##‘": 1239,
      "##mediler": 1240,
      "##imizle": 1241,
      "▁omrunde": 1242,
      "▁etmiyorum": 1243,
      "##ar": 1244,
      "▁azaltmak": 1245,
      "▁mumkun": 1246,
      "▁gosterilen": 1247,
      "##ederek": 1248,
      "##hal": 1249,
      "▁ortamda": 1250,
      "##ık": 1251,
      "▁ilerleme": 1252,
      ",": 1253,
      "▁107": 1254,
      "▁fır": 1255,
      "▁sahs": 1256,
      "##ımın": 1257,
      "▁yiyecekler": 1258,
      "##mada": 1259,
      "▁tiril": 1260,
      "▁kimseyi": 1261,
      "##ni": 1262,
      "▁ayagında": 1263,
      "▁cocuklu": 1264,
      "▁japonya'da": 1265,
      "▁ens": 1266,
      "▁milyarlar": 1267,
      "▁ayrılır": 1268,
      "##lamaya": 1269,
      "▁seyler": 1270,
      "▁uzandı": 1271,
      "▁ets": 1272,
      "▁telef": 1273,
      "▁cocugu": 1274,
      "##'nın": 1275,
      "▁isgal": 1276,
      "##otik": 1277,
      "▁inip": 1278,
      "▁olmayı": 1279,
      "▁gelismis": 1280,
      "##raf": 1281,
      "▁ettim": 1282,
      "▁zap": 1283,
      "▁vars": 1284,
      "▁giderler": 1285,
      "▁kacak": 1286,
      "▁kasa": 1287,
      "▁ellerine": 1288,
      "▁imalat": 1289,
      "##:30": 1290,
      "▁icine": 1291,
      "▁kopru": 1292,
      "▁ispan": 1293,
      "▁harit": 1294,
      "▁seydi": 1295,
      "▁planın": 1296,
      "##ecen": 1297,
      "▁hiss": 1298,
      "▁sirketlerinin": 1299,
      "▁gozluk": 1300,
      "##mıstı": 1301,
      "▁oldugunun": 1302,
      "▁viraj": 1303,
      "▁health": 1304,
      "▁nec": 1305,
      "##samer": 1306,
      "▁sunu": 1307,
      "▁bahis": 1308,
      "▁sehit": 1309,
      "▁cenaze": 1310,
      "##tern": 1311,
      "▁28.": 1312,
      "▁kopuk": 1313,
      "▁salih": 1314,
      "▁adamdı": 1315,
      "▁%5": 1316,
      "▁ilan": 1317,
      "##ıya": 1318,
      "▁ellerinde": 1319,
      "▁6'dan": 1320,
      "▁viz": 1321,
      "▁konu": 1322,
      "▁franklin": 1323,
      "▁kullanabil": 1324,
      "▁seyinden": 1325,
      "▁la": 1326,
      "▁tatil": 1327,
      "▁deh": 1328,
      "##istiy": 1329,
      "▁nikah": 1330,
      "▁345": 1331,
      "▁kalması": 1332,
      "##tıkca": 1333,
      "▁geliyorlar": 1334,
      "▁siyasal": 1335,
      "##all": 1336,
      "▁olarak": 1337,
      "▁agı": 1338,
      "▁krav": 1339,
      "▁alması": 1340,
      "##enince": 1341,
      "▁ogleye": 1342,
      "▁coluk": 1343,
      "▁bıy": 1344,
      "▁15": 1345,
      "▁21.6": 1346,
      "▁mo": 1347,
      "##arım": 1348,
      "▁apartman": 1349,
      "##adına": 1350,
      "##ist": 1351,
      "▁arazi": 1352,
      "▁doneme": 1353,
      "▁perde": 1354,
      "▁yunanistan": 1355,
      "▁camur": 1356,
      "▁seviy": 1357,
      "▁”": 1358,
      "▁yuzlerce": 1359,
      "▁pazartesi": 1360,
      "▁seyir": 1361,
      "▁firmaları": 1362,
      "▁fre": 1363,
      "▁gozum": 1364,
      "▁aktarmalı": 1365,
      "##isyen": 1366,
      "▁degistirmek": 1367,
      "##ilmeye": 1368,
      "▁hayr": 1369,
      "##sur": 1370,
      "▁edec": 1371,
      "▁belir": 1372,
      "▁andıran": 1373,
      "▁cagırdı": 1374,
      "▁yeg": 1375,
      "▁reh": 1376,
      "▁.1": 1377,
      "▁un": 1378,
      "▁bitirdi": 1379,
      "▁basında": 1380,
      "##gunu": 1381,
      "▁olar": 1382,
      "##ys": 1383,
      "▁okuma": 1384,
      "▁gercegi": 1385,
      "▁dedigi": 1386,
      "▁urunlerin": 1387,
      "▁ihale": 1388,
      "##ılarak": 1389,
      "▁revize": 1390,
      "##ısır": 1391,
      "▁oda": 1392,
      "▁gunes": 1393,
      "▁baktılar": 1394,
      "##'an": 1395,
      "▁dol": 1396,
      "▁aracılıgıyla": 1397,
      "##ulmaz": 1398,
      "▁sanatı": 1399,
      "▁noktasına": 1400,
      "▁mayıs": 1401,
      "##culuk": 1402,
      "▁bekliyorlar": 1403,
      "▁ay": 1404,
      "▁aldır": 1405,
      "##isyon": 1406,
      "▁sk": 1407,
      "##ilmiyor": 1408,
      "##ırk": 1409,
      "▁medeni": 1410,
      "▁faal": 1411,
      "▁7.52": 1412,
      "u": 1413,
      "▁acan": 1414,
      "▁omuz": 1415,
      "▁kalitesine": 1416,
      "##ıda": 1417,
      "##ang": 1418,
      "##ihat": 1419,
      "▁aradı": 1420,
      "##odal": 1421,
      "▁yalancı": 1422,
      "▁kaf": 1423,
      "▁erecek": 1424,
      "▁ikti": 1425,
      "▁unut": 1426,
      "▁isleyen": 1427,
      "▁bono": 1428,
      "##bon": 1429,
      "▁davaya": 1430,
      "▁vilayet": 1431,
      "▁gucsuz": 1432,
      "##iyenin": 1433,
      "▁actıgı": 1434,
      "▁francisco'ya": 1435,
      "▁olacaktı": 1436,
      "▁aga": 1437,
      "##yasını": 1438,
      "▁pazarlam": 1439,
      "##lardır": 1440,
      "▁sacma": 1441,
      "▁tapın": 1442,
      "▁merkezine": 1443,
      "▁hijyen": 1444,
      "▁1761": 1445,
      "##a'da": 1446,
      "▁fısır": 1447,
      "▁balayi": 1448,
      "▁olduktan": 1449,
      "▁hatalı": 1450,
      "▁yavuz": 1451,
      "▁kullanmadim": 1452,
      "▁urk": 1453,
      "##ener": 1454,
      "##olm": 1455,
      "▁ureten": 1456,
      "▁kasabada": 1457,
      "##.71": 1458,
      "▁.3": 1459,
      "▁yuzon": 1460,
      "##tuk": 1461,
      "▁meyv": 1462,
      "##lasıp": 1463,
      "▁yaptim": 1464,
      "▁nbc": 1465,
      "▁calıyor": 1466,
      "▁kalmıstır": 1467,
      "▁500": 1468,
      "##.00": 1469,
      "▁cagrı": 1470,
      "▁suna": 1471,
      "▁yapan": 1472,
      "▁biy": 1473,
      "##apark": 1474,
      "##ahat": 1475,
      "▁count": 1476,
      "▁karsılastır": 1477,
      "▁hızlıca": 1478,
      "▁tazmin": 1479,
      "##;": 1480,
      "▁kesiyor": 1481,
      "▁dep": 1482,
      "▁yakıs": 1483,
      "▁tehlik": 1484,
      "▁atlat": 1485,
      "##malı": 1486,
      "##layınca": 1487,
      "##gimiz": 1488,
      "▁duzey": 1489,
      "##agında": 1490,
      "▁istedi": 1491,
      "##bi": 1492,
      "##sub": 1493,
      "▁etrafta": 1494,
      "##okr": 1495,
      "▁yapmıstı": 1496,
      "▁tası": 1497,
      "▁gulus": 1498,
      "▁analizciler": 1499,
      "##ota": 1500,
      "▁uzattı": 1501,
      "▁karagoz": 1502,
      "▁gumbur": 1503,
      "▁teori": 1504,
      "▁329": 1505,
      "▁atlan": 1506,
      "▁real": 1507,
      "▁orman": 1508,
      "##bur": 1509,
      "▁keyif": 1510,
      "▁pratik": 1511,
      "▁kuskusuz": 1512,
      "▁kullanım": 1513,
      "##ice": 1514,
      "▁dorduncu": 1515,
      "▁tahminlerinin": 1516,
      "▁kadın": 1517,
      "▁evini": 1518,
      "▁tabir": 1519,
      "▁war": 1520,
      "##ırı": 1521,
      "##ow": 1522,
      "▁rock": 1523,
      "▁161.5": 1524,
      "▁ur": 1525,
      "▁oakland'a": 1526,
      "▁epey": 1527,
      "▁munasebet": 1528,
      "##lesme": 1529,
      "▁guardi": 1530,
      "##tep": 1531,
      "▁yapayım": 1532,
      "▁muhalleb": 1533,
      "▁icinden": 1534,
      "▁mesele": 1535,
      "&": 1536,
      "▁kravat": 1537,
      "##ligini": 1538,
      "##7.2": 1539,
      "▁pel": 1540,
      "▁secur": 1541,
      "▁nuf": 1542,
      "▁duzlem": 1543,
      "▁sub": 1544,
      "▁oyuncak": 1545,
      "▁hisseler": 1546,
      "▁yolsuz": 1547,
      "▁sayı": 1548,
      "▁hijyenik": 1549,
      "▁tır": 1550,
      "▁129": 1551,
      "##-a": 1552,
      "▁istanbul'dan": 1553,
      "▁118": 1554,
      "##dıkca": 1555,
      "▁sened": 1556,
      "▁oyuncu": 1557,
      "▁yanas": 1558,
      "▁nikkei": 1559,
      "▁dursun": 1560,
      "▁1.36": 1561,
      "▁dikilmis": 1562,
      "▁gosterecek": 1563,
      "##ini": 1564,
      "▁karsil": 1565,
      "▁ucuslar": 1566,
      "▁edil": 1567,
      "▁faydası": 1568,
      "▁kuram": 1569,
      "▁baslayacak": 1570,
      "▁trabzonspor": 1571,
      "▁sehrine": 1572,
      "▁sektorunde": 1573,
      "▁tecrub": 1574,
      "##ısları": 1575,
      "##.125": 1576,
      "▁iyisini": 1577,
      "▁meraklı": 1578,
      "▁135": 1579,
      "▁=": 1580,
      "▁ziyan": 1581,
      "##can": 1582,
      "##aklık": 1583,
      "▁hazırlanan": 1584,
      "p": 1585,
      "▁ibm": 1586,
      "▁cuv": 1587,
      "▁bugunun": 1588,
      "▁527": 1589,
      "▁tugla": 1590,
      "##\\/8'e": 1591,
      "▁world": 1592,
      "▁diego'dan": 1593,
      "▁217": 1594,
      "▁cıkaracak": 1595,
      "▁%12": 1596,
      "▁musteri": 1597,
      "▁ogrenciler": 1598,
      "▁esv": 1599,
      "▁adan": 1600,
      "##92": 1601,
      "▁gizem": 1602,
      "▁nese": 1603,
      "▁aki": 1604,
      "##a'nın": 1605,
      "##esip": 1606,
      "▁zannet": 1607,
      "▁star": 1608,
      "##veland": 1609,
      "▁dusecek": 1610,
      "▁etrafa": 1611,
      "##elen": 1612,
      "##lerce": 1613,
      "▁ezbere": 1614,
      "▁vazgec": 1615,
      "▁insanın": 1616,
      "▁vatand": 1617,
      "▁dagdan": 1618,
      "▁alcak": 1619,
      "▁segment": 1620,
      "▁olcude": 1621,
      "##wer": 1622,
      "▁tavuk": 1623,
      "##press": 1624,
      "▁konusup": 1625,
      "▁ekonomistler": 1626,
      "##anet": 1627,
      "##esil": 1628,
      "▁bitiyor": 1629,
      "▁prop": 1630,
      "▁dokun": 1631,
      "▁doc": 1632,
      "▁dama": 1633,
      "▁big": 1634,
      "▁odemis": 1635,
      "▁baz": 1636,
      "▁1.500": 1637,
      "##lamak": 1638,
      "▁bors": 1639,
      "▁1.91": 1640,
      "▁odalarin": 1641,
      "▁gosteren": 1642,
      "▁haberler": 1643,
      "▁1989": 1644,
      "▁odedigim": 1645,
      "▁1975": 1646,
      "▁hatları": 1647,
      "▁dustum": 1648,
      "▁birinc": 1649,
      "▁herhal": 1650,
      "▁olmaları": 1651,
      "▁iltifat": 1652,
      "▁edilmesi": 1653,
      "##etti": 1654,
      "▁rom": 1655,
      "##iyeti": 1656,
      "▁aglayan": 1657,
      "▁sehir": 1658,
      "▁zamanda": 1659,
      "▁57.5": 1660,
      "▁sahibi": 1661,
      "▁sapk": 1662,
      "▁avantaj": 1663,
      "▁kıvır": 1664,
      "▁imkanı": 1665,
      "▁kup": 1666,
      "##undeki": 1667,
      "▁aram": 1668,
      "▁bulgu": 1669,
      "▁bazılarının": 1670,
      "▁kalkın": 1671,
      "##kım": 1672,
      "##.12": 1673,
      "##emki": 1674,
      "▁olus": 1675,
      "▁dogan": 1676,
      "##luyor": 1677,
      "##vir": 1678,
      "▁vide": 1679,
      "##ustum": 1680,
      "##miyordu": 1681,
      "##ster": 1682,
      "▁degilsiniz": 1683,
      "▁yolculuk": 1684,
      "▁sekizoniki": 1685,
      "▁intik": 1686,
      "##acıların": 1687,
      "▁acıklay": 1688,
      "▁iade": 1689,
      "▁bakım": 1690,
      "▁elestiri": 1691,
      "▁donunce": 1692,
      "▁fi": 1693,
      "##gım": 1694,
      "▁anlamıs": 1695,
      "▁imis": 1696,
      "▁tasavv": 1697,
      "▁geciriyor": 1698,
      "▁alalım": 1699,
      "▁profesyon": 1700,
      "▁edilen": 1701,
      "▁maliye": 1702,
      "▁cuzdan": 1703,
      "▁anay": 1704,
      "▁hamur": 1705,
      "▁201": 1706,
      "▁9.81": 1707,
      "##br": 1708,
      "##dern": 1709,
      "##tel": 1710,
      "▁f.": 1711,
      "▁sınırlı": 1712,
      "▁derd": 1713,
      "▁besyuzelli": 1714,
      "▁gosterileri": 1715,
      "▁painewebber": 1716,
      "▁tabak": 1717,
      "##sına": 1718,
      "▁466": 1719,
      "##ecegin": 1720,
      "##ediler": 1721,
      "▁tuttugu": 1722,
      "▁phillips": 1723,
      "▁stratej": 1724,
      "▁canan": 1725,
      "▁tiyatr": 1726,
      "▁mer": 1727,
      "##acaktır": 1728,
      "##bac": 1729,
      "▁akgun": 1730,
      "▁alanında": 1731,
      "▁tutmus": 1732,
      "▁kenar": 1733,
      "##ledigi": 1734,
      "▁goruldu": 1735,
      "##memistir": 1736,
      "▁kaybetti": 1737,
      "##27": 1738,
      "▁denizi": 1739,
      "##amlı": 1740,
      "▁isimler": 1741,
      "▁kı": 1742,
      "▁sımsıkı": 1743,
      "▁olmek": 1744,
      "▁kans": 1745,
      "▁yapay": 1746,
      "▁loc": 1747,
      "▁12.5": 1748,
      "▁katk": 1749,
      "##esinde": 1750,
      "▁kapan": 1751,
      "▁derl": 1752,
      "▁cifti": 1753,
      "▁duruyor": 1754,
      "##ars": 1755,
      "▁com": 1756,
      "▁gıldır": 1757,
      "##maya": 1758,
      "▁iskele": 1759,
      "##imi": 1760,
      "▁ecz": 1761,
      "##2'den": 1762,
      "▁kahveren": 1763,
      "▁kalkarak": 1764,
      "▁south": 1765,
      "##mamalı": 1766,
      "▁uzlasma": 1767,
      "##4.3": 1768,
      "▁imkanlarindan": 1769,
      "▁aban": 1770,
      "▁gerisinde": 1771,
      "▁pas": 1772,
      "▁atın": 1773,
      "▁cıplak": 1774,
      "▁suda": 1775,
      "▁yaklasıyor": 1776,
      "▁yararlan": 1777,
      "▁til": 1778,
      "▁chan": 1779,
      "▁kambiy": 1780,
      "▁basları": 1781,
      "##ken": 1782,
      "▁okuy": 1783,
      "▁bilen": 1784,
      "##egini": 1785,
      "▁continental": 1786,
      "▁bunlar": 1787,
      "▁anlama": 1788,
      "▁kendilerine": 1789,
      "▁ekonomist": 1790,
      "▁ertug": 1791,
      "▁fırıl": 1792,
      "▁gitmeyi": 1793,
      "▁19.9": 1794,
      "▁89": 1795,
      "##edim": 1796,
      "▁ilerledi": 1797,
      "▁laz": 1798,
      "▁birbucuk": 1799,
      "▁katılım": 1800,
      "▁rezalet": 1801,
      "▁cocukları": 1802,
      "▁sachs": 1803,
      "▁yakısıklı": 1804,
      "##&": 1805,
      "▁degistiren": 1806,
      "▁kalemi": 1807,
      "▁12:": 1808,
      "▁fırtına": 1809,
      "▁gunese": 1810,
      "▁kalem": 1811,
      "▁sını": 1812,
      "▁gri": 1813,
      "▁veya": 1814,
      "▁gorunmuyor": 1815,
      "▁onunla": 1816,
      "▁0.01": 1817,
      "▁sefer": 1818,
      "▁oranları": 1819,
      "▁lodos": 1820,
      "▁97": 1821,
      "##ediyorum": 1822,
      "▁gosterdigini": 1823,
      "▁gitmek": 1824,
      "##9'da": 1825,
      "▁saldırgan": 1826,
      "▁gelgelelim": 1827,
      "▁genelinde": 1828,
      "▁isler": 1829,
      "##ınar": 1830,
      "▁akrab": 1831,
      "▁annemin": 1832,
      "##.01": 1833,
      "▁haram": 1834,
      "▁minimum": 1835,
      "▁muhafaza": 1836,
      "▁baslat": 1837,
      "##dıkoy": 1838,
      "▁kimseye": 1839,
      "▁adil": 1840,
      "##ra": 1841,
      "▁merk": 1842,
      "▁bakanlar": 1843,
      "▁ertugrul": 1844,
      "▁197": 1845,
      "▁840.8": 1846,
      "▁mute": 1847,
      "▁vol": 1848,
      "##\\/8": 1849,
      "▁ready": 1850,
      "▁got": 1851,
      "##0'": 1852,
      "▁cı": 1853,
      "▁2662.91": 1854,
      "▁575000": 1855,
      "▁poz": 1856,
      "▁katib": 1857,
      "##ecek": 1858,
      "##sinin": 1859,
      "##yas": 1860,
      "▁ev": 1861,
      "▁cıv": 1862,
      "▁dersiniz": 1863,
      "▁simdiye": 1864,
      "▁eng": 1865,
      "▁altmıs": 1866,
      "▁micr": 1867,
      "▁gaziantep": 1868,
      "▁koruyan": 1869,
      "##kaz": 1870,
      "##eligini": 1871,
      "▁secimde": 1872,
      "##win": 1873,
      "▁yazık": 1874,
      "▁kitabın": 1875,
      "▁eglenc": 1876,
      "▁amacı": 1877,
      "▁koyup": 1878,
      "▁ideolojik": 1879,
      "##kelam": 1880,
      "▁midir": 1881,
      "▁sakın": 1882,
      "▁meger": 1883,
      "▁otede": 1884,
      "▁astı": 1885,
      "▁pro": 1886,
      "▁ink": 1887,
      "##yalar": 1888,
      "##let": 1889,
      "▁telefonu": 1890,
      "▁aralık": 1891,
      "##isiniz": 1892,
      "##atik": 1893,
      "▁vurgul": 1894,
      "▁gerektir": 1895,
      "▁dug": 1896,
      "▁fazlasıyla": 1897,
      "▁burokrat": 1898,
      "▁pilotlar": 1899,
      "▁fa": 1900,
      "▁geldikleri": 1901,
      "▁4145": 1902,
      "▁kararı": 1903,
      "##lanma": 1904,
      "##naz": 1905,
      "##ece": 1906,
      "##acagınız": 1907,
      "▁fidan": 1908,
      "▁ydılar": 1909,
      "▁diren": 1910,
      "▁n.": 1911,
      "##ce": 1912,
      "▁tem": 1913,
      "##tz": 1914,
      "##el": 1915,
      "▁ozen": 1916,
      "▁tavana": 1917,
      "▁olusan": 1918,
      "▁komutan": 1919,
      "▁galatas": 1920,
      "▁tercih": 1921,
      "▁altust": 1922,
      "▁adımı": 1923,
      "▁mini": 1924,
      "##ıyorsun": 1925,
      "##ubet": 1926,
      "##rif": 1927,
      "##leri": 1928,
      "##unku": 1929,
      "▁gerekecek": 1930,
      "##mm": 1931,
      "▁hang": 1932,
      "##amayan": 1933,
      "▁muayene": 1934,
      "▁arada": 1935,
      "▁vapur": 1936,
      "##,000": 1937,
      "5": 1938,
      "▁kendinizi": 1939,
      "▁past": 1940,
      "▁`": 1941,
      "▁zaten": 1942,
      "▁cevresi": 1943,
      "▁otomotiv": 1944,
      "▁shar": 1945,
      "▁dc'den": 1946,
      "▁35": 1947,
      "##ikler": 1948,
      "▁168": 1949,
      "▁hale": 1950,
      "##liligini": 1951,
      "▁yakal": 1952,
      "▁alımı": 1953,
      "▁basın": 1954,
      "▁alabil": 1955,
      "▁kıraathan": 1956,
      "▁ilgili": 1957,
      "▁mantık": 1958,
      "▁dolgun": 1959,
      "##lamasına": 1960,
      "▁yse": 1961,
      "▁sis": 1962,
      "▁03:25": 1963,
      "▁onlar": 1964,
      "▁atarak": 1965,
      "##330": 1966,
      "▁473.9": 1967,
      "▁iflas": 1968,
      "▁pah": 1969,
      "▁daima": 1970,
      "##aların": 1971,
      "▁telekom": 1972,
      "▁refer": 1973,
      "##gimi": 1974,
      "▁ceo": 1975,
      "▁suleyman": 1976,
      "▁atmos": 1977,
      "▁sonsuz": 1978,
      "▁ogr": 1979,
      "▁eve": 1980,
      "▁masaya": 1981,
      "▁piyas": 1982,
      "▁yılından": 1983,
      "▁polisler": 1984,
      "##acagını": 1985,
      "▁18.7": 1986,
      "##ıyor": 1987,
      "▁minnet": 1988,
      "▁agustos": 1989,
      "▁muc": 1990,
      "▁eller": 1991,
      "▁achenbaum": 1992,
      "▁yılını": 1993,
      "▁arsız": 1994,
      "▁ama": 1995,
      "▁degerleri": 1996,
      "##olk": 1997,
      "##oseksu": 1998,
      "▁yazıyor": 1999,
      "▁pasif": 2000,
      "##lebilecek": 2001,
      "▁doviz": 2002,
      "▁aldıgı": 2003,
      "▁yorg": 2004,
      "▁acıkca": 2005,
      "##laması": 2006,
      "▁sait": 2007,
      "▁yetistir": 2008,
      "▁sadakat": 2009,
      "##dıg": 2010,
      "▁universitesi'nde": 2011,
      "##1.1": 2012,
      "##imden": 2013,
      "▁olmuyor": 2014,
      "▁akım": 2015,
      "▁07": 2016,
      "▁varan": 2017,
      "▁farkı": 2018,
      "##zal": 2019,
      "▁4.9": 2020,
      "▁ruzgarı": 2021,
      "▁karayolu": 2022,
      "▁anlar": 2023,
      "▁1961": 2024,
      "▁rakibini": 2025,
      "▁gidecek": 2026,
      "▁olabilirler": 2027,
      "▁busbut": 2028,
      "▁mahkeme": 2029,
      "▁ticareti": 2030,
      "##ayım": 2031,
      "▁olun": 2032,
      "##yaz": 2033,
      "##ciler": 2034,
      "▁yiyecekleri": 2035,
      "##emiyor": 2036,
      "▁kab": 2037,
      "##timore": 2038,
      "##eyecegini": 2039,
      "▁hikay": 2040,
      "▁kle": 2041,
      "▁azalan": 2042,
      "##ladın": 2043,
      "▁dum": 2044,
      "##30": 2045,
      "▁shearson": 2046,
      "▁fabrikası": 2047,
      "▁elleri": 2048,
      "▁wh": 2049,
      "▁pır": 2050,
      "▁johnson": 2051,
      "▁seyrediyor": 2052,
      "▁dısı": 2053,
      "##aragu": 2054,
      "▁ulus": 2055,
      "##uyla": 2056,
      "▁mız": 2057,
      "▁jur": 2058,
      "##ecegimiz": 2059,
      "▁pıtır": 2060,
      "▁yetin": 2061,
      "▁zaf": 2062,
      "▁uyanık": 2063,
      "▁rehber": 2064,
      "▁gunune": 2065,
      "##07": 2066,
      "▁kak": 2067,
      "▁yurtdıs": 2068,
      "▁kayseri": 2069,
      "▁yigit": 2070,
      "▁muhtemel": 2071,
      "##field": 2072,
      "▁bazi": 2073,
      "▁lam": 2074,
      "##sas": 2075,
      "▁yavrum": 2076,
      "▁.65": 2077,
      "##omosyon": 2078,
      "##aber": 2079,
      "▁sofraya": 2080,
      "▁insaf": 2081,
      "▁sorustur": 2082,
      "▁ceviz": 2083,
      "##izin": 2084,
      "▁muydu": 2085,
      "▁hisseye": 2086,
      "▁pozisyon": 2087,
      "▁hem": 2088,
      "▁gonullu": 2089,
      "▁sozlerini": 2090,
      "▁kapat": 2091,
      "▁kırıklıgına": 2092,
      "▁ca": 2093,
      "▁nihat": 2094,
      "▁cıkma": 2095,
      "▁meb": 2096,
      "##meyecek": 2097,
      "▁calıstıgını": 2098,
      "▁konforu": 2099,
      "▁oturma": 2100,
      "▁oteli": 2101,
      "▁yureginde": 2102,
      "▁ceng": 2103,
      "▁som": 2104,
      "▁iddia": 2105,
      "▁ettikleri": 2106,
      "▁financi": 2107,
      "▁tabl": 2108,
      "▁aclıktan": 2109,
      "##uyordu": 2110,
      "▁sta": 2111,
      "▁0.00": 2112,
      "▁konular": 2113,
      "▁beyaz": 2114,
      "▁diz": 2115,
      "▁42.9": 2116,
      "▁guldur": 2117,
      "##undan": 2118,
      "▁test": 2119,
      "▁duran": 2120,
      "▁nimet": 2121,
      "▁ceyreginde": 2122,
      "▁cari": 2123,
      "▁kızının": 2124,
      "▁paylar": 2125,
      "▁subat": 2126,
      "▁dram": 2127,
      "▁salonun": 2128,
      "▁asli": 2129,
      "##ot": 2130,
      "▁kılı": 2131,
      "▁alanlarda": 2132,
      "▁getirdim": 2133,
      "▁rob": 2134,
      "▁zamana": 2135,
      "▁goturdu": 2136,
      "▁garaj": 2137,
      "##gune": 2138,
      "▁hakkinda": 2139,
      "▁edilmedi": 2140,
      "##umun": 2141,
      "▁baslardı": 2142,
      "##enmis": 2143,
      "##dy": 2144,
      "##iyi": 2145,
      "▁hatırlam": 2146,
      "▁harca": 2147,
      "##ıyorlar": 2148,
      "▁etkileyici": 2149,
      "▁islet": 2150,
      "▁montre": 2151,
      "▁sakat": 2152,
      "%": 2153,
      "▁birbirlerini": 2154,
      "▁gormez": 2155,
      "▁01": 2156,
      "▁katrilyon": 2157,
      "▁houston'a": 2158,
      "▁evvelki": 2159,
      "▁damg": 2160,
      "▁kısın": 2161,
      "▁yonetim": 2162,
      "##47": 2163,
      "▁beraber": 2164,
      "▁degerlendirme": 2165,
      "▁me": 2166,
      "▁kurmaya": 2167,
      "▁1.9": 2168,
      "▁bozuk": 2169,
      "▁kisiye": 2170,
      "▁nadiren": 2171,
      "▁kıy": 2172,
      "▁id": 2173,
      "▁org": 2174,
      "##ales": 2175,
      "##ecegi": 2176,
      "##ro": 2177,
      "▁tesise": 2178,
      "▁hakediyor": 2179,
      "▁aday": 2180,
      "▁kasvet": 2181,
      "▁okuldan": 2182,
      "▁detroit": 2183,
      "▁adımlarla": 2184,
      "▁hasıl": 2185,
      "##dagı": 2186,
      "##agıt": 2187,
      "▁dahilinde": 2188,
      "▁sozunu": 2189,
      "##tefik": 2190,
      "▁belirten": 2191,
      "▁havalimanı'nda": 2192,
      "▁ısıklar": 2193,
      "▁indianapolis": 2194,
      "##cet": 2195,
      "▁ny": 2196,
      "##landır": 2197,
      "##.59": 2198,
      "▁kad": 2199,
      "▁3.9": 2200,
      "##acılık": 2201,
      "▁arkaya": 2202,
      "▁atlanta'dan": 2203,
      "▁sonucu": 2204,
      "▁yoldan": 2205,
      "▁esek": 2206,
      "##gından": 2207,
      "▁stokları": 2208,
      "##iel": 2209,
      "▁southern": 2210,
      "▁iktisat": 2211,
      "▁reddediyor": 2212,
      "▁turlerini": 2213,
      "▁fonların": 2214,
      "▁fos": 2215,
      "▁sınız": 2216,
      "▁1.300": 2217,
      "▁18.65": 2218,
      "▁7.6": 2219,
      "▁calısarak": 2220,
      "▁icim": 2221,
      "▁gozuyle": 2222,
      "##tede": 2223,
      "▁futbol": 2224,
      "▁sevgil": 2225,
      "##iyetle": 2226,
      "▁lirayı": 2227,
      "▁cet": 2228,
      "▁bear": 2229,
      "▁evlerin": 2230,
      "▁var": 2231,
      "▁olumsuzluk": 2232,
      "▁milyara": 2233,
      "▁essiz": 2234,
      "▁alt": 2235,
      "▁104": 2236,
      "▁lider": 2237,
      "▁dusunuyorum": 2238,
      "▁sorar": 2239,
      "##.60": 2240,
      "▁sofra": 2241,
      "▁tenha": 2242,
      "▁etmeden": 2243,
      "▁ibaret": 2244,
      "▁donemin": 2245,
      "##vec": 2246,
      "▁yansıt": 2247,
      "##udum": 2248,
      "▁kacındı": 2249,
      "▁balo": 2250,
      "▁derde": 2251,
      "##ayan": 2252,
      "▁ciddi": 2253,
      "##ınıyor": 2254,
      "▁gormedim": 2255,
      "▁saatte": 2256,
      "▁aldıgını": 2257,
      "▁tukur": 2258,
      "##akkak": 2259,
      "▁breeden": 2260,
      "▁anladı": 2261,
      "##uydu": 2262,
      "▁adını": 2263,
      "##ey": 2264,
      "▁charl": 2265,
      "▁kalmaz": 2266,
      "##nal": 2267,
      "▁bilet": 2268,
      "▁acıyor": 2269,
      "▁bill": 2270,
      "▁neye": 2271,
      "▁birisiyle": 2272,
      "▁fir": 2273,
      "▁dibine": 2274,
      "▁depremin": 2275,
      "▁tıras": 2276,
      "##til": 2277,
      "▁toplumun": 2278,
      "▁basmak": 2279,
      "▁uzerine": 2280,
      "▁icermektedir": 2281,
      "▁lazım": 2282,
      "▁tatmin": 2283,
      "▁kod": 2284,
      "▁biridir": 2285,
      "▁karısı": 2286,
      "▁amerikalılar": 2287,
      "▁1967": 2288,
      "▁sezlong": 2289,
      "▁giyinmis": 2290,
      "▁yumuk": 2291,
      "▁birim": 2292,
      "▁bocek": 2293,
      "▁kadıkoy": 2294,
      "##osa": 2295,
      "▁540": 2296,
      "##lanın": 2297,
      "▁kola": 2298,
      "▁gecmisti": 2299,
      "▁yem": 2300,
      "▁bakır": 2301,
      "▁malı": 2302,
      "▁minim": 2303,
      "▁400": 2304,
      "▁personel": 2305,
      "▁gecmiyor": 2306,
      "##egiz": 2307,
      "▁kisiyi": 2308,
      "▁giydi": 2309,
      "##-s": 2310,
      "▁burn": 2311,
      "▁egitimli": 2312,
      "▁cinc": 2313,
      "▁kurulan": 2314,
      "▁dolar": 2315,
      "▁yos": 2316,
      "##afir": 2317,
      "▁fransız": 2318,
      "▁ortulu": 2319,
      "▁mısınız": 2320,
      "▁biliyorlar": 2321,
      "▁yılın": 2322,
      "##sana": 2323,
      "▁istedik": 2324,
      "##tia": 2325,
      "▁baskasına": 2326,
      "▁basar": 2327,
      "▁oncesi": 2328,
      "▁pa": 2329,
      "##rem": 2330,
      "▁kolon": 2331,
      "▁160": 2332,
      "▁yetkililer": 2333,
      "▁olacag": 2334,
      "##alandı": 2335,
      "▁bagırarak": 2336,
      "▁agzından": 2337,
      "▁sy": 2338,
      "▁ziyaret": 2339,
      "##acag": 2340,
      "▁kavur": 2341,
      "##elerin": 2342,
      "▁hiz": 2343,
      "▁omz": 2344,
      "▁utah": 2345,
      "▁vakt": 2346,
      "▁lerle": 2347,
      "▁gunun": 2348,
      "▁bil": 2349,
      "▁gunler": 2350,
      "▁sahibinin": 2351,
      "##ısma": 2352,
      "##lop": 2353,
      "▁dolardan": 2354,
      "▁teslim": 2355,
      "▁tutarında": 2356,
      "▁yaratı": 2357,
      "▁minneapolis'e": 2358,
      "##atır": 2359,
      "▁binanın": 2360,
      "▁oakland'dan": 2361,
      "▁bakımından": 2362,
      "▁olusturmak": 2363,
      "▁10'": 2364,
      "▁birkac": 2365,
      "▁vadeli": 2366,
      "▁tarihli": 2367,
      "▁kırık": 2368,
      "▁cocuktu": 2369,
      "▁makal": 2370,
      "▁dusmek": 2371,
      "▁kendisi": 2372,
      "▁uzaklas": 2373,
      "▁nab": 2374,
      "##pus": 2375,
      "▁telefonda": 2376,
      "▁takır": 2377,
      "▁misiniz": 2378,
      "▁butun": 2379,
      "##mektedir": 2380,
      "▁fiyatları": 2381,
      "▁mod": 2382,
      "▁kira": 2383,
      "##lestir": 2384,
      "##acaklar": 2385,
      "##.63": 2386,
      "▁pittsburgh": 2387,
      "▁ayaklarını": 2388,
      "##inizle": 2389,
      "##zer": 2390,
      "▁angel": 2391,
      "▁yal": 2392,
      "▁askıya": 2393,
      "▁emre": 2394,
      "▁ıs": 2395,
      "▁mobil": 2396,
      "▁memphis'ten": 2397,
      "▁satısa": 2398,
      "▁pırıltı": 2399,
      "▁petrol": 2400,
      "▁icimde": 2401,
      "▁isg": 2402,
      "##ned": 2403,
      "▁daldır": 2404,
      "##cuya": 2405,
      "▁ugras": 2406,
      "▁dedigim": 2407,
      "▁vermez": 2408,
      "▁dolasıp": 2409,
      "▁og": 2410,
      "▁fers": 2411,
      "▁etrafını": 2412,
      "▁11:5": 2413,
      "▁hakkında": 2414,
      "▁cıkmıstı": 2415,
      "▁adet": 2416,
      "▁ortalıgı": 2417,
      "▁sorumluluk": 2418,
      "▁kalite": 2419,
      "▁kimimiz": 2420,
      "##.49": 2421,
      "▁kesip": 2422,
      "▁yolunda": 2423,
      "▁satar": 2424,
      "▁sigortası": 2425,
      "##x": 2426,
      "▁giymis": 2427,
      "▁yer": 2428,
      "▁verdikleri": 2429,
      "##lı": 2430,
      "▁kurk": 2431,
      "▁klim": 2432,
      "▁kot": 2433,
      "▁cıkıyordu": 2434,
      "▁halini": 2435,
      "▁karsiligini": 2436,
      "▁oldugunu": 2437,
      "▁bilesik": 2438,
      "▁radyo": 2439,
      "▁93": 2440,
      "▁406": 2441,
      "▁donmesi": 2442,
      "▁zorluk": 2443,
      "▁etmiyor": 2444,
      "▁pir": 2445,
      "##ltı": 2446,
      "▁s": 2447,
      "▁sekl": 2448,
      "▁asag": 2449,
      "▁pay": 2450,
      "##lerinden": 2451,
      "▁varmak": 2452,
      "▁disi": 2453,
      "##sm": 2454,
      "▁mam": 2455,
      "▁pantolon": 2456,
      "▁allah": 2457,
      "▁vali": 2458,
      "▁belirtmek": 2459,
      "##.97": 2460,
      "▁hacmi": 2461,
      "▁eti": 2462,
      "▁bakınız": 2463,
      "▁ihtimal": 2464,
      "▁birisinin": 2465,
      "▁1.71": 2466,
      "##tain": 2467,
      "▁1.5753": 2468,
      "▁atti": 2469,
      "##tıktan": 2470,
      "##ich": 2471,
      "▁kurut": 2472,
      "##.875": 2473,
      "##enkul": 2474,
      "##dokuzyuzdoksan": 2475,
      "▁625": 2476,
      "▁diyor": 2477,
      "##ecegiz": 2478,
      "▁zab": 2479,
      "▁havuzun": 2480,
      "##mazlar": 2481,
      "▁yuklen": 2482,
      "##11": 2483,
      "##ers": 2484,
      "▁yollarını": 2485,
      "▁2.2": 2486,
      "▁uyku": 2487,
      "▁hepsinden": 2488,
      "▁renkli": 2489,
      "▁jul": 2490,
      "▁kazancların": 2491,
      "▁evvela": 2492,
      "▁geciren": 2493,
      "##tex": 2494,
      "▁ettiginde": 2495,
      "▁york'ta": 2496,
      "▁dem": 2497,
      "▁ucus": 2498,
      "▁sistemi": 2499,
      "##.28": 2500,
      "▁allianz": 2501,
      "##lanmıstır": 2502,
      "▁baykal": 2503,
      "##det": 2504,
      "▁zat": 2505,
      "▁iyilik": 2506,
      "▁karamsar": 2507,
      "▁pitts": 2508,
      "▁hizmet": 2509,
      "##lanması": 2510,
      "##rub": 2511,
      "▁ozlem": 2512,
      "▁suret": 2513,
      "▁mol": 2514,
      "▁ucretleri": 2515,
      "▁ozgurluk": 2516,
      "▁kopek": 2517,
      "▁kuvvetleri": 2518,
      "▁teseb": 2519,
      "▁20": 2520,
      "▁1.6": 2521,
      "▁88.12": 2522,
      "▁kalan": 2523,
      "▁donald": 2524,
      "▁kurtardı": 2525,
      "▁dedim": 2526,
      "##5'e": 2527,
      "▁mayıs'ta": 2528,
      "▁duyulan": 2529,
      "▁zorluyor": 2530,
      "▁kaliforniy": 2531,
      "▁farz": 2532,
      "##iligi": 2533,
      "▁muham": 2534,
      "##7.8": 2535,
      "▁ro": 2536,
      "▁rej": 2537,
      "▁karsıladı": 2538,
      "##0000": 2539,
      "▁tech": 2540,
      "##usunda": 2541,
      "▁surum": 2542,
      "##alarıyla": 2543,
      "▁yakalan": 2544,
      "▁yazdıgı": 2545,
      "##larini": 2546,
      "##tis": 2547,
      "▁nedenini": 2548,
      "##ayi": 2549,
      "##.5": 2550,
      "▁lez": 2551,
      "▁konaklama": 2552,
      "▁hatırlattı": 2553,
      "##ıc": 2554,
      "▁portakal": 2555,
      "##elem": 2556,
      "▁vakit": 2557,
      "##rika": 2558,
      "▁carptı": 2559,
      "▁pros": 2560,
      "▁elektrikli": 2561,
      "▁koyarak": 2562,
      "▁575": 2563,
      "##uh": 2564,
      "▁tanınmıs": 2565,
      "▁talip": 2566,
      "▁tiyat": 2567,
      "▁medya": 2568,
      "▁kotu": 2569,
      "##'nda": 2570,
      "##lemisti": 2571,
      "▁agresif": 2572,
      "▁insanoglu": 2573,
      "▁denver'deki": 2574,
      "1": 2575,
      "##mamız": 2576,
      "▁sair": 2577,
      "▁tamamladı": 2578,
      "▁'lik": 2579,
      "▁milyarlarca": 2580,
      "##ck": 2581,
      "▁kalenin": 2582,
      "▁tetkik": 2583,
      "▁hafifce": 2584,
      "▁vakfı": 2585,
      "▁faizli": 2586,
      "##ince": 2587,
      "##anti": 2588,
      "▁akla": 2589,
      "▁hisselerinin": 2590,
      "▁uzmanları": 2591,
      "▁yapacagım": 2592,
      "##af": 2593,
      "▁hakikaten": 2594,
      "▁kemer": 2595,
      "▁etsin": 2596,
      "▁isareti": 2597,
      "##ucak": 2598,
      "##raz": 2599,
      "▁hav": 2600,
      "▁sosyal": 2601,
      "▁hizmetleri": 2602,
      "##mak": 2603,
      "▁elmas": 2604,
      "▁tarafindan": 2605,
      "▁berbat": 2606,
      "▁sarısın": 2607,
      "▁kendilerinin": 2608,
      "▁102.06": 2609,
      "▁paranın": 2610,
      "▁gectikten": 2611,
      "##ry": 2612,
      "▁celik": 2613,
      "▁danıs": 2614,
      "▁cekiliyor": 2615,
      "▁destek": 2616,
      "##emezsin": 2617,
      "##inizin": 2618,
      "▁dinc": 2619,
      "##lerime": 2620,
      "▁alatur": 2621,
      "▁nashville'den": 2622,
      "▁iht": 2623,
      "##ıldıgı": 2624,
      "▁temer": 2625,
      "▁tanıt": 2626,
      "▁haftaya": 2627,
      "▁sehrinde": 2628,
      "##iyorlardi": 2629,
      "##6.7": 2630,
      "▁224070000": 2631,
      "▁otellerin": 2632,
      "##ton": 2633,
      "▁vız": 2634,
      "▁deyip": 2635,
      "▁ten": 2636,
      "▁kondur": 2637,
      "▁baslık": 2638,
      "##is'in": 2639,
      "##esel": 2640,
      "▁asistan": 2641,
      "▁uzerinde": 2642,
      "##.9": 2643,
      "▁bush'un": 2644,
      "▁206": 2645,
      "▁merdi": 2646,
      "▁yazılı": 2647,
      "##liyat": 2648,
      "▁seviyede": 2649,
      "▁gozlerinin": 2650,
      "▁kullanılır": 2651,
      "▁19.51": 2652,
      "▁cektim": 2653,
      "▁sisman": 2654,
      "▁oteldi": 2655,
      "▁kuyum": 2656,
      "▁deyince": 2657,
      "▁serhat": 2658,
      "▁gram": 2659,
      "▁yahya": 2660,
      "##meyi": 2661,
      "▁hos": 2662,
      "▁cor": 2663,
      "▁orlando'ya": 2664,
      "▁sertif": 2665,
      "▁basa": 2666,
      "▁cahil": 2667,
      "▁nukleer": 2668,
      "▁rapor": 2669,
      "▁diyebilirim": 2670,
      "▁ben": 2671,
      "##ciydi": 2672,
      "##gına": 2673,
      "##lemis": 2674,
      "##icilerin": 2675,
      "▁etmeyi": 2676,
      "▁arap": 2677,
      "▁evet": 2678,
      "▁ihracları": 2679,
      "▁donemde": 2680,
      "▁elif": 2681,
      "##egin": 2682,
      "▁meyhan": 2683,
      "▁inis": 2684,
      "▁dil": 2685,
      "##isim": 2686,
      "▁mesela": 2687,
      "▁geminin": 2688,
      "▁ailesinin": 2689,
      "▁misk": 2690,
      "▁kapıda": 2691,
      "▁sovyetler": 2692,
      "##aması": 2693,
      "##ması": 2694,
      "##urlu": 2695,
      "##elerinin": 2696,
      "▁kırmızı": 2697,
      "▁eglence": 2698,
      "▁mıdır": 2699,
      "▁8.50": 2700,
      "▁ates": 2701,
      "▁yerdi": 2702,
      "##gili": 2703,
      "▁kask": 2704,
      "▁kurus": 2705,
      "▁duvar": 2706,
      "▁sikayet": 2707,
      "▁industrial": 2708,
      "▁odayı": 2709,
      "▁acıktı": 2710,
      "##munic": 2711,
      "▁secilmis": 2712,
      "▁televizyon": 2713,
      "▁limuzin": 2714,
      "##dediyor": 2715,
      "▁bulmustu": 2716,
      "▁dogrul": 2717,
      "▁grupları": 2718,
      "▁bom": 2719,
      "##s.": 2720,
      "▁teskil": 2721,
      "▁bedeli": 2722,
      "▁yla": 2723,
      "▁dieg": 2724,
      "▁actılar": 2725,
      "##.81": 2726,
      "▁katır": 2727,
      "▁2.6": 2728,
      "▁muyum": 2729,
      "▁malz": 2730,
      "▁tasliydi": 2731,
      "##.66": 2732,
      "##mıs": 2733,
      "▁biter": 2734,
      "▁muaf": 2735,
      "▁masada": 2736,
      "▁yuzme": 2737,
      "▁ide": 2738,
      "▁176100000": 2739,
      "##ultu": 2740,
      "▁meyve": 2741,
      "▁15.6": 2742,
      "▁haldır": 2743,
      "▁uzerinden": 2744,
      "▁ulu": 2745,
      "▁acılıyor": 2746,
      "▁tarafında": 2747,
      "▁yıldız": 2748,
      "##zin": 2749,
      "▁cicekleri": 2750,
      "▁gunesin": 2751,
      "▁kosesinde": 2752,
      "▁baglamıs": 2753,
      "▁sondaj": 2754,
      "▁korfez": 2755,
      "▁bilgi": 2756,
      "▁amc": 2757,
      "##elerinde": 2758,
      "▁63": 2759,
      "e": 2760,
      "▁190": 2761,
      "▁baglilik": 2762,
      "▁kullanarak": 2763,
      "▁haft": 2764,
      "▁kıyas": 2765,
      "▁sersem": 2766,
      "▁maddi": 2767,
      "▁soylemek": 2768,
      "▁haberin": 2769,
      "##alanmıs": 2770,
      "##aklar": 2771,
      "▁yeni": 2772,
      "▁dinkins": 2773,
      "##spor": 2774,
      "▁organizasyon": 2775,
      "▁cadde": 2776,
      "▁doluydu": 2777,
      "▁yonden": 2778,
      "▁ilaclar": 2779,
      "▁davranıs": 2780,
      "▁malum": 2781,
      "▁alıyorlar": 2782,
      "▁tutup": 2783,
      "▁kalkıp": 2784,
      "▁204": 2785,
      "##ib": 2786,
      "##ırt": 2787,
      "▁tutsak": 2788,
      "▁genelkur": 2789,
      "▁hadi": 2790,
      "##emex": 2791,
      "▁doyur": 2792,
      "##rak": 2793,
      "▁ayaklarının": 2794,
      "▁mufett": 2795,
      "▁olmayabilir": 2796,
      "▁vad": 2797,
      "▁gecip": 2798,
      "##'da": 2799,
      "▁bilek": 2800,
      "▁egz": 2801,
      "▁tereddut": 2802,
      "▁yazmak": 2803,
      "▁tahkik": 2804,
      "▁dagınık": 2805,
      "▁gitgide": 2806,
      "##3.6": 2807,
      "##odos": 2808,
      "▁gozlerinde": 2809,
      "##dık": 2810,
      "##her": 2811,
      "▁yatagı": 2812,
      "▁kullanisli": 2813,
      "▁cikiyordu": 2814,
      "▁duracak": 2815,
      "##allah": 2816,
      "▁yıldan": 2817,
      "▁343": 2818,
      "▁masalı": 2819,
      "▁corp": 2820,
      "##dog": 2821,
      "▁tesis": 2822,
      "▁bilgileri": 2823,
      "▁tarafın": 2824,
      "##'nden": 2825,
      "▁nokta": 2826,
      "▁ortak": 2827,
      "▁her": 2828,
      "▁hikaye": 2829,
      "▁gorduler": 2830,
      "##die": 2831,
      "▁ilgiliydiler": 2832,
      "▁beklenenden": 2833,
      "##unc": 2834,
      "▁ideoloj": 2835,
      "▁ot": 2836,
      "▁yanı": 2837,
      "▁sekizyuz": 2838,
      "▁kag": 2839,
      "▁aman": 2840,
      "▁mustesar": 2841,
      "▁karsilayan": 2842,
      "▁sorunların": 2843,
      "▁halihazırda": 2844,
      "▁hurr": 2845,
      "##tılı": 2846,
      "▁oncesine": 2847,
      "▁sartları": 2848,
      "▁govde": 2849,
      "▁dava": 2850,
      "▁oyu": 2851,
      "▁hardal": 2852,
      "▁lyn": 2853,
      "▁1.847": 2854,
      "▁fonlar": 2855,
      "▁olanak": 2856,
      "##stit": 2857,
      "##tugu": 2858,
      "▁haftada": 2859,
      "##ben": 2860,
      "▁kisiden": 2861,
      "▁indirimi": 2862,
      "##ılıgında": 2863,
      "▁dolarına": 2864,
      "▁calgı": 2865,
      "▁gozlem": 2866,
      "▁hit": 2867,
      "▁care": 2868,
      "##ozof": 2869,
      "▁ilet": 2870,
      "▁konumu": 2871,
      "▁kızım": 2872,
      "▁insanların": 2873,
      "▁santaj": 2874,
      "##lıgın": 2875,
      "##lit": 2876,
      "▁yukselen": 2877,
      "▁agır": 2878,
      "##emem": 2879,
      "▁komplek": 2880,
      "▁yatıyor": 2881,
      "▁cozmek": 2882,
      "##+": 2883,
      "##vili": 2884,
      "##1.4": 2885,
      "▁organ": 2886,
      "▁lill": 2887,
      "▁cah": 2888,
      "▁eden": 2889,
      "▁agr": 2890,
      "##idi": 2891,
      "▁mecbur": 2892,
      "▁ım": 2893,
      "▁topcu": 2894,
      "▁danısmanı": 2895,
      "▁conn": 2896,
      "▁ogrencilerin": 2897,
      "▁securities": 2898,
      "▁hewlett": 2899,
      "▁ucusun": 2900,
      "▁gazeteci": 2901,
      "##tator": 2902,
      "##yet": 2903,
      "▁300": 2904,
      "▁1991-19": 2905,
      "▁sponsor": 2906,
      "▁1993": 2907,
      "▁yaslarında": 2908,
      "##yip": 2909,
      "##ont": 2910,
      "▁cıktı": 2911,
      "+": 2912,
      "▁ileride": 2913,
      "▁chemical": 2914,
      "▁cıktıgı": 2915,
      "▁dısarıda": 2916,
      "▁izah": 2917,
      "▁sus": 2918,
      "▁hatta": 2919,
      "##tug": 2920,
      "▁katil": 2921,
      "▁23.5": 2922,
      "##%": 2923,
      "▁temiz": 2924,
      "▁sup": 2925,
      "▁louis'e": 2926,
      "▁anladım": 2927,
      "▁insanlarla": 2928,
      "▁geldigimiz": 2929,
      "▁cocugum": 2930,
      "▁cırp": 2931,
      "▁ge": 2932,
      "▁olmasi": 2933,
      "▁giren": 2934,
      "▁babacan": 2935,
      "▁karadeniz": 2936,
      "▁yargıc": 2937,
      "▁250000": 2938,
      "▁getirdi": 2939,
      "▁ucmanın": 2940,
      "▁skan": 2941,
      "▁hınc": 2942,
      "▁air'in": 2943,
      "##lamadan": 2944,
      "▁cılız": 2945,
      "▁adamla": 2946,
      "##ikat": 2947,
      "▁olurlar": 2948,
      "##mis": 2949,
      "▁oper": 2950,
      "▁kadına": 2951,
      "▁ucuza": 2952,
      "▁pab": 2953,
      "▁em": 2954,
      "##abilecek": 2955,
      "▁yurd": 2956,
      "▁namus": 2957,
      "▁twa": 2958,
      "▁ızdır": 2959,
      "▁olmamakla": 2960,
      "▁haftalık": 2961,
      "##koy": 2962,
      "##etin": 2963,
      "##lanmak": 2964,
      "▁koltugun": 2965,
      "▁calısıyor": 2966,
      "▁israil": 2967,
      "▁ilgisizlerdi": 2968,
      "▁emper": 2969,
      "▁hakim": 2970,
      "##giniz": 2971,
      "▁sayf": 2972,
      "▁cincinnati'ye": 2973,
      "##itt": 2974,
      "▁kayıp": 2975,
      "▁sonu": 2976,
      "▁sanay": 2977,
      "x": 2978,
      "▁etkilen": 2979,
      "##duy": 2980,
      "##ker": 2981,
      "▁istanbul'a": 2982,
      "▁acıp": 2983,
      "▁koruk": 2984,
      "▁yarım": 2985,
      "▁calısmaya": 2986,
      "##ediy": 2987,
      "▁baskaları": 2988,
      "▁fırın": 2989,
      "▁sotheby's": 2990,
      "▁yurttas": 2991,
      "▁bitmeyen": 2992,
      "▁hangi": 2993,
      "▁balta": 2994,
      "▁cirkin": 2995,
      "▁13.3": 2996,
      "▁makul": 2997,
      "▁dilber": 2998,
      "##ebec": 2999,
      "▁yarattı": 3000,
      "##indedir": 3001,
      "▁nek": 3002,
      "##ende": 3003,
      "##ecilik": 3004,
      "▁olmadı": 3005,
      "▁yaradılıs": 3006,
      "▁evvel": 3007,
      "##asa": 3008,
      "▁iskont": 3009,
      "▁temizliginden": 3010,
      "▁koru": 3011,
      "▁6.4": 3012,
      "▁ekim'de": 3013,
      "##ardi": 3014,
      "▁istah": 3015,
      "▁mezun": 3016,
      "▁tevfik": 3017,
      "▁secen": 3018,
      "##lısı": 3019,
      "▁ekliyor": 3020,
      "▁getiri": 3021,
      "▁atesli": 3022,
      "▁bell": 3023,
      "▁olacagım": 3024,
      "▁otobus": 3025,
      "▁ugrayan": 3026,
      "▁satır": 3027,
      "##lıgının": 3028,
      "▁fuz": 3029,
      "▁protesto": 3030,
      "▁iciyor": 3031,
      "▁dogu'da": 3032,
      "▁mim": 3033,
      "##4.8": 3034,
      "▁kısmı": 3035,
      "##ass": 3036,
      "▁huzun": 3037,
      "▁temelinde": 3038,
      "▁padi": 3039,
      "▁motiv": 3040,
      "▁states": 3041,
      "▁gelecegi": 3042,
      "▁oturur": 3043,
      "▁oak": 3044,
      "##.33": 3045,
      "▁karmasık": 3046,
      "##.96": 3047,
      "▁hik": 3048,
      "##eyh": 3049,
      "▁oyunc": 3050,
      "j": 3051,
      "▁kalmıyor": 3052,
      "▁risk": 3053,
      "▁ac": 3054,
      "##'s": 3055,
      "▁ramiz": 3056,
      "▁orada": 3057,
      "▁dern": 3058,
      "▁fis": 3059,
      "▁tartısmaya": 3060,
      "▁81": 3061,
      "▁konumda": 3062,
      "▁gob": 3063,
      "▁2003": 3064,
      "▁alacagını": 3065,
      "##ayıp": 3066,
      "▁klasik": 3067,
      "▁magdur": 3068,
      "▁bulacak": 3069,
      "▁calisirim": 3070,
      "▁rol": 3071,
      "▁taylor": 3072,
      "##ize": 3073,
      "##unun": 3074,
      "▁donustu": 3075,
      "▁gostergeleri": 3076,
      "▁kalkacak": 3077,
      "##ec": 3078,
      "▁sandal": 3079,
      "##urdu": 3080,
      "##ilmistir": 3081,
      "▁oranında": 3082,
      "##ulur": 3083,
      "▁paul'a": 3084,
      "##opunuz": 3085,
      "▁basak": 3086,
      "▁fac": 3087,
      "▁kay": 3088,
      "▁bisiklet": 3089,
      "▁st": 3090,
      "▁oyunlar": 3091,
      "▁avaz": 3092,
      "##ladık": 3093,
      "▁malzeme": 3094,
      "▁kinden": 3095,
      "##bay": 3096,
      "##mel": 3097,
      "▁sınıfta": 3098,
      "▁belle": 3099,
      "##eceksiniz": 3100,
      "##lerimiz": 3101,
      "▁cocukların": 3102,
      "▁alıkoy": 3103,
      "▁buklum": 3104,
      "##langıc": 3105,
      "##1.3": 3106,
      "▁atmıs": 3107,
      "##ısıl": 3108,
      "##and": 3109,
      "▁cıkararak": 3110,
      "##ını": 3111,
      "##yi": 3112,
      "▁torp": 3113,
      "▁elimi": 3114,
      "##eis": 3115,
      "##id": 3116,
      "▁kimin": 3117,
      "▁tufek": 3118,
      "▁fl": 3119,
      "##sine": 3120,
      "▁etnik": 3121,
      "▁duvarın": 3122,
      "▁iktidar": 3123,
      "▁misafir": 3124,
      "▁yaptıgı": 3125,
      "##yen": 3126,
      "▁raporları": 3127,
      "##.7": 3128,
      "##ward": 3129,
      "##4": 3130,
      "▁obur": 3131,
      "▁ep": 3132,
      "▁milwaukee": 3133,
      "▁idim": 3134,
      "##imin": 3135,
      "▁tuc": 3136,
      "▁girdi": 3137,
      "▁sola": 3138,
      "▁fık": 3139,
      "▁dostluk": 3140,
      "##9'dan": 3141,
      "▁sozlesmeler": 3142,
      "▁diri": 3143,
      "▁usa": 3144,
      "▁tutacak": 3145,
      "▁dergisi": 3146,
      "▁prosed": 3147,
      "▁tuccar": 3148,
      "▁varlıklar": 3149,
      "▁4.3": 3150,
      "▁bolum": 3151,
      "▁yanıt": 3152,
      "▁bagırdı": 3153,
      "▁eger": 3154,
      "▁koptu": 3155,
      "▁gozune": 3156,
      "▁ayrılıyor": 3157,
      "▁cokus": 3158,
      "▁dans": 3159,
      "##ilerle": 3160,
      "▁sh": 3161,
      "▁ciro": 3162,
      "##sinde": 3163,
      "▁fevkal": 3164,
      "▁teminat": 3165,
      "#": 3166,
      "▁luft": 3167,
      "▁baslamıs": 3168,
      "▁jones": 3169,
      "▁sifir": 3170,
      "▁hum": 3171,
      "▁taktik": 3172,
      "▁koken": 3173,
      "▁dinkin": 3174,
      "▁yiy": 3175,
      "##pi": 3176,
      "##ris": 3177,
      "▁salata": 3178,
      "▁dizginleri": 3179,
      "▁tutan": 3180,
      "##.51": 3181,
      "##abil": 3182,
      "▁komisyonları": 3183,
      "▁acel": 3184,
      "##imle": 3185,
      "##istan": 3186,
      "▁lezizdi": 3187,
      "▁0.7": 3188,
      "▁dusuncelerini": 3189,
      "##70": 3190,
      "▁gecenlerde": 3191,
      "▁deb": 3192,
      "▁yurur": 3193,
      "▁ugra": 3194,
      "▁baskasın": 3195,
      "▁sinyal": 3196,
      "▁milli": 3197,
      "▁uzakti": 3198,
      "▁mecmu": 3199,
      "▁gayri": 3200,
      "▁ydik": 3201,
      "▁tekrar": 3202,
      "##i": 3203,
      "▁pansiyon": 3204,
      "##olun": 3205,
      "▁toz": 3206,
      "▁asır": 3207,
      "▁yayınladı": 3208,
      "▁kaldırılması": 3209,
      "▁lufthansa": 3210,
      "##uz": 3211,
      "▁acil": 3212,
      "▁konforluydu": 3213,
      "▁bırakıl": 3214,
      "▁verimlilik": 3215,
      "▁1.5920": 3216,
      "▁yakalı": 3217,
      "▁sers": 3218,
      "▁300000": 3219,
      "▁rezerve": 3220,
      "▁yatırımcıları": 3221,
      "##iden": 3222,
      "▁ici": 3223,
      "▁emlak": 3224,
      "##edilen": 3225,
      "▁algılan": 3226,
      "▁resour": 3227,
      "▁filmin": 3228,
      "##obil": 3229,
      "▁gelisti": 3230,
      "##tere": 3231,
      "▁degistirdi": 3232,
      "▁cekilmesi": 3233,
      "▁muhal": 3234,
      "▁stratejik": 3235,
      "##obal": 3236,
      "▁1.85": 3237,
      "##cide": 3238,
      "▁gercekten": 3239,
      "▁olsa": 3240,
      "##kur": 3241,
      "##v": 3242,
      "▁edi": 3243,
      "▁edince": 3244,
      "##unuyordu": 3245,
      "▁hissesinin": 3246,
      "##era": 3247,
      "##suzdu": 3248,
      "▁toptan": 3249,
      "▁hukuki": 3250,
      "▁fal": 3251,
      "▁yahut": 3252,
      "##enler": 3253,
      "▁ani": 3254,
      "▁122": 3255,
      "▁karısmıs": 3256,
      "▁kamuoy": 3257,
      "▁'": 3258,
      "▁durmadan": 3259,
      "▁kur'an": 3260,
      "▁kısalt": 3261,
      "##leyen": 3262,
      "▁canadi": 3263,
      "▁kalbi": 3264,
      "##utur": 3265,
      "▁rut": 3266,
      "▁nob": 3267,
      "▁arayip": 3268,
      "▁yardımıyla": 3269,
      "##imizi": 3270,
      "▁olmustur": 3271,
      "▁puf": 3272,
      "##unt": 3273,
      "▁soba": 3274,
      "▁oykusu": 3275,
      "##ase": 3276,
      "▁boyunda": 3277,
      "▁degisimi": 3278,
      "▁odamiz": 3279,
      "▁hayran": 3280,
      "▁1.625": 3281,
      "▁kullanıldı": 3282,
      "##etleri": 3283,
      "▁vahsi": 3284,
      "▁soyluyorlar": 3285,
      "##akıllı": 3286,
      "▁gorebilir": 3287,
      "▁yasanan": 3288,
      "▁karasu": 3289,
      "▁sol": 3290,
      "▁ilgisizdi": 3291,
      "▁dengeli": 3292,
      "▁ban": 3293,
      "##tanın": 3294,
      "▁bankalar": 3295,
      "▁ag": 3296,
      "▁paralarını": 3297,
      "▁opec": 3298,
      "▁layık": 3299,
      "▁basınc": 3300,
      "▁toyota": 3301,
      "▁dayanısma": 3302,
      "▁ila": 3303,
      "▁tastan": 3304,
      "▁hayatı": 3305,
      "▁itir": 3306,
      "▁gitt": 3307,
      "▁suru": 3308,
      "▁cark": 3309,
      "▁ney": 3310,
      "▁inen": 3311,
      "▁basbakan": 3312,
      "▁acarak": 3313,
      "▁mesgul": 3314,
      "▁sayisi": 3315,
      "▁cezası": 3316,
      "▁gunumuzde": 3317,
      "▁parası": 3318,
      "##igim": 3319,
      "▁kristal": 3320,
      "▁aydır": 3321,
      "##j.": 3322,
      "▁basvur": 3323,
      "▁austral": 3324,
      "▁600": 3325,
      "▁2004": 3326,
      "▁vi": 3327,
      "▁hikayeler": 3328,
      "##6'da": 3329,
      "▁odenmemis": 3330,
      "##dor": 3331,
      "▁mevcut": 3332,
      "▁gelmesi": 3333,
      "▁tatsız": 3334,
      "▁verin": 3335,
      "▁oniki": 3336,
      "▁dusunceler": 3337,
      "▁ozgur": 3338,
      "▁konuları": 3339,
      "▁%3.5": 3340,
      "▁hakikat": 3341,
      "▁binmis": 3342,
      "▁turgut": 3343,
      "▁cab": 3344,
      "▁veremem": 3345,
      "▁kader": 3346,
      "▁36": 3347,
      "▁muhim": 3348,
      "▁cıkarmaya": 3349,
      "▁gunlerinde": 3350,
      "▁1.125": 3351,
      "▁sıkıstır": 3352,
      "▁ayrılan": 3353,
      "▁2.625": 3354,
      "▁bekliyorum": 3355,
      "▁kong": 3356,
      "▁ceb": 3357,
      "▁ustunu": 3358,
      "▁edward": 3359,
      "▁kampanya": 3360,
      "▁yiyen": 3361,
      "##tik": 3362,
      "▁kambiyo": 3363,
      "▁kez": 3364,
      "▁yapacagı": 3365,
      "▁alısılma": 3366,
      "▁devleti": 3367,
      "##zet": 3368,
      "▁1250": 3369,
      "##dikal": 3370,
      "▁hamil": 3371,
      "▁miras": 3372,
      "##istik": 3373,
      "##alıyor": 3374,
      "▁kullanmaya": 3375,
      "▁bakar": 3376,
      "▁soyle": 3377,
      "##luluk": 3378,
      "▁elinin": 3379,
      "▁haydi": 3380,
      "▁kam": 3381,
      "▁zengindi": 3382,
      "##ilerinden": 3383,
      "▁sebz": 3384,
      "▁nedeniyle": 3385,
      "▁italya": 3386,
      "▁olasılıkla": 3387,
      "▁dolan": 3388,
      "##85": 3389,
      "▁yavrusu": 3390,
      "##cıların": 3391,
      "▁kadif": 3392,
      "▁alabilirdim": 3393,
      "▁kop": 3394,
      "▁americ": 3395,
      "▁olmadıgını": 3396,
      "##etnam": 3397,
      "##ight": 3398,
      "▁dususle": 3399,
      "▁senaryo": 3400,
      "##ings": 3401,
      "##emeyen": 3402,
      "▁yay": 3403,
      "##ras": 3404,
      "▁haket": 3405,
      "▁koydular": 3406,
      "▁kimseyle": 3407,
      "▁colorad": 3408,
      "▁kampanyası": 3409,
      "##gec": 3410,
      "▁karn": 3411,
      "▁gelirler": 3412,
      "▁sesli": 3413,
      "##32": 3414,
      "▁kendime": 3415,
      "▁dizi": 3416,
      "▁mıydık": 3417,
      "▁ersin": 3418,
      "##larken": 3419,
      "▁kalitesi": 3420,
      "##-h": 3421,
      "▁devir": 3422,
      "##48": 3423,
      "▁baltimore'den": 3424,
      "▁fena": 3425,
      "▁bembeyaz": 3426,
      "##tilar": 3427,
      "▁dede": 3428,
      "▁temmuz": 3429,
      "▁artıyor": 3430,
      "##ev": 3431,
      "▁kosk": 3432,
      "▁bob": 3433,
      "▁1/4'e": 3434,
      "##iski": 3435,
      "▁olduklarını": 3436,
      "▁uysal": 3437,
      "##anta": 3438,
      "##iddet": 3439,
      "##kei": 3440,
      "##salar": 3441,
      "▁kızın": 3442,
      "▁rahatlat": 3443,
      "##ladı": 3444,
      "##medigi": 3445,
      "▁alınan": 3446,
      "▁dosya": 3447,
      "▁devi": 3448,
      "##nie": 3449,
      "##cu": 3450,
      "▁alamaz": 3451,
      "▁1.6030": 3452,
      "##aver": 3453,
      "▁muhabiri": 3454,
      "##ibet": 3455,
      "▁hewlett-packard": 3456,
      "▁aqua": 3457,
      "▁super": 3458,
      "▁calmaya": 3459,
      "▁bayıl": 3460,
      "▁283.8": 3461,
      "▁psil": 3462,
      "▁hepimize": 3463,
      "▁7.25": 3464,
      "▁bahc": 3465,
      "▁kıvr": 3466,
      "▁konusmalar": 3467,
      "##vik": 3468,
      "▁teblig": 3469,
      "▁ormanın": 3470,
      "▁yukselmistir": 3471,
      "▁gay": 3472,
      "▁iy": 3473,
      "▁ufacık": 3474,
      "▁sf": 3475,
      "▁gold": 3476,
      "▁tarl": 3477,
      "▁katmer": 3478,
      "▁karsın": 3479,
      "▁5-1": 3480,
      "▁attıgı": 3481,
      "▁biniki": 3482,
      "▁ysan": 3483,
      "▁tip": 3484,
      "▁10'dan": 3485,
      "▁isci": 3486,
      "▁okulu": 3487,
      "▁invest": 3488,
      "▁gecme": 3489,
      "▁nus": 3490,
      "▁tun": 3491,
      "▁buhar": 3492,
      "▁dl": 3493,
      "▁havuzu": 3494,
      "▁kamyon": 3495,
      "▁tampa'ya": 3496,
      "▁kendim": 3497,
      "▁fikirleri": 3498,
      "▁jr": 3499,
      "▁fikrini": 3500,
      "▁destan": 3501,
      "▁sıt": 3502,
      "▁sesleri": 3503,
      "##eceginiz": 3504,
      "▁hepimizi": 3505,
      "▁duruyordu": 3506,
      "▁hazırlık": 3507,
      "▁balik": 3508,
      "▁topladı": 3509,
      "▁ayakk": 3510,
      "▁ydın": 3511,
      "##ob": 3512,
      "▁vatan": 3513,
      "▁perisan": 3514,
      "▁kirk": 3515,
      "##dam": 3516,
      "▁sacak": 3517,
      "▁verilmis": 3518,
      "▁boston'dan": 3519,
      "▁satısları": 3520,
      "##mıslardı": 3521,
      "▁getirisi": 3522,
      "▁abd'de": 3523,
      "##lebilir": 3524,
      "▁azami": 3525,
      "▁maymun": 3526,
      "▁1990'da": 3527,
      "##masa": 3528,
      "▁yonet": 3529,
      "▁fevkalade": 3530,
      "▁fazlas": 3531,
      "▁harekete": 3532,
      "▁marks": 3533,
      "▁yemeklerin": 3534,
      "▁paul'dan": 3535,
      "▁heyeti": 3536,
      "▁gibidir": 3537,
      "▁miyim": 3538,
      "▁topal": 3539,
      "##gılan": 3540,
      "▁petersburg'dan": 3541,
      "▁takiben": 3542,
      "▁emin": 3543,
      "##gul": 3544,
      "▁tor": 3545,
      "?": 3546,
      "▁sorunları": 3547,
      "##acaktı": 3548,
      "▁konvansiyonel": 3549,
      "▁yuzlulerdi": 3550,
      "▁miz": 3551,
      "##tane": 3552,
      "##abilmis": 3553,
      "##stil": 3554,
      "▁lilly": 3555,
      "▁american": 3556,
      "▁i": 3557,
      "##madıgı": 3558,
      "▁urun": 3559,
      "▁ekleyerek": 3560,
      "▁onayladı": 3561,
      "▁ustun": 3562,
      "▁mirkelam": 3563,
      "##amıstı": 3564,
      "▁muazz": 3565,
      "##teler": 3566,
      "##lılıgını": 3567,
      "▁umit": 3568,
      "▁universitesi": 3569,
      "▁ılık": 3570,
      "##eph": 3571,
      "_": 3572,
      "▁kar": 3573,
      "▁temas": 3574,
      "▁saglıyor": 3575,
      "▁gelmisti": 3576,
      "▁bagdas": 3577,
      "▁kırıl": 3578,
      "▁yiyip": 3579,
      "▁otob": 3580,
      "##tısına": 3581,
      "▁gonlum": 3582,
      "▁olmak": 3583,
      "▁dolmus": 3584,
      "▁olusturan": 3585,
      "▁cıkar": 3586,
      "##illi": 3587,
      "▁belirgin": 3588,
      "▁isbir": 3589,
      "##rken": 3590,
      "▁okan": 3591,
      "##ez": 3592,
      "▁onyedi": 3593,
      "##arak": 3594,
      "##cel": 3595,
      "##lendirme": 3596,
      "##ude": 3597,
      "##lasma": 3598,
      "▁tam": 3599,
      "##ig": 3600,
      "##ref": 3601,
      "▁sanayicileri": 3602,
      "▁dalga": 3603,
      "▁veda": 3604,
      "##ecegimizi": 3605,
      "##ulen": 3606,
      "▁cumhurbaskanı": 3607,
      "▁nev": 3608,
      "▁riski": 3609,
      "▁o'": 3610,
      "▁nez": 3611,
      "##icik": 3612,
      "▁basan": 3613,
      "▁ası": 3614,
      "##iyetini": 3615,
      "▁rezerv": 3616,
      "▁amma": 3617,
      "▁683": 3618,
      "▁mcdon": 3619,
      "▁tiyatro": 3620,
      "▁karakter": 3621,
      "▁tecavuz": 3622,
      "▁bıyık": 3623,
      "▁degilim": 3624,
      "▁bahsederim": 3625,
      "▁bahs": 3626,
      "▁yıpran": 3627,
      "▁olmanın": 3628,
      "▁sual": 3629,
      "▁doksan": 3630,
      "▁sahnede": 3631,
      "▁artan": 3632,
      "▁pac": 3633,
      "##agındaki": 3634,
      "▁varlıgını": 3635,
      "##dini": 3636,
      "▁hakkındaki": 3637,
      "▁guleryuzlu": 3638,
      "▁gro": 3639,
      "▁ediyor": 3640,
      "▁dusundur": 3641,
      "##.87": 3642,
      "▁allah'a": 3643,
      "##ulugu": 3644,
      "##acagımız": 3645,
      "##emis": 3646,
      "##idik": 3647,
      "▁derim": 3648,
      "##tırdı": 3649,
      "▁1989-8": 3650,
      "▁davran": 3651,
      "▁klor": 3652,
      "▁haber": 3653,
      "##maktadır": 3654,
      "▁asama": 3655,
      "##ısını": 3656,
      "▁3.000": 3657,
      "▁acayip": 3658,
      "▁altına": 3659,
      "▁yaramaz": 3660,
      "▁44": 3661,
      "▁saffet": 3662,
      "▁havayı": 3663,
      "##erin": 3664,
      "\"": 3665,
      "▁yuklu": 3666,
      "▁yalnız": 3667,
      "▁memphis'e": 3668,
      "▁memph": 3669,
      "▁endiselen": 3670,
      "##ginin": 3671,
      "##ata": 3672,
      "▁belirlemek": 3673,
      "▁oyn": 3674,
      "▁kentin": 3675,
      "▁planlıyor": 3676,
      "▁intikam": 3677,
      "▁ham": 3678,
      "▁duru": 3679,
      "▁okumak": 3680,
      "▁hurmet": 3681,
      "▁temet": 3682,
      "##uyu": 3683,
      "▁girmek": 3684,
      "##elerine": 3685,
      "▁toh": 3686,
      "▁18.": 3687,
      "▁tavan": 3688,
      "▁m": 3689,
      "##o'nun": 3690,
      "▁gerekir": 3691,
      "▁kapasitesine": 3692,
      "##dırdı": 3693,
      "##daydi": 3694,
      "##lıg": 3695,
      "▁onlarda": 3696,
      "▁resesyon": 3697,
      "##/4": 3698,
      "▁soylen": 3699,
      "▁niss": 3700,
      "▁.8": 3701,
      "▁politik": 3702,
      "▁ulasıl": 3703,
      "##kinden": 3704,
      "▁verileri": 3705,
      "▁3.5": 3706,
      "▁konusunda": 3707,
      "▁temkin": 3708,
      "##asındaki": 3709,
      "▁ankete": 3710,
      "##he": 3711,
      "▁show": 3712,
      "▁onlemek": 3713,
      "▁serb": 3714,
      "▁gunlerde": 3715,
      "##cılara": 3716,
      "▁ig": 3717,
      "▁ve": 3718,
      "▁aglamaya": 3719,
      "##ıllı": 3720,
      "▁power": 3721,
      "▁yıllardır": 3722,
      "▁kasım": 3723,
      "▁isley": 3724,
      "▁zır": 3725,
      "▁kuralları": 3726,
      "▁lezzet": 3727,
      "##60": 3728,
      "▁82": 3729,
      "##atlar": 3730,
      "▁sikinti": 3731,
      "▁kabl": 3732,
      "▁isini": 3733,
      "▁lokant": 3734,
      "▁oldur": 3735,
      "▁surece": 3736,
      "##do": 3737,
      "##'su": 3738,
      "▁getirileri": 3739,
      "##acagim": 3740,
      "▁varlık": 3741,
      "▁egitim": 3742,
      "##ının": 3743,
      "##ew": 3744,
      "▁sukur": 3745,
      "▁zapt": 3746,
      "##or": 3747,
      "▁inanmak": 3748,
      "##bu": 3749,
      "▁yanında": 3750,
      "▁sırrı": 3751,
      "▁yururluge": 3752,
      "▁istiyorum": 3753,
      "▁oturup": 3754,
      "##rap": 3755,
      "##iri": 3756,
      "▁konsep": 3757,
      "▁york'a": 3758,
      "▁oyk": 3759,
      "##.1": 3760,
      "▁communications": 3761,
      "▁havayollarının": 3762,
      "▁gazetec": 3763,
      "▁haiz": 3764,
      "▁yalnızlık": 3765,
      "▁eren": 3766,
      "##gumuz": 3767,
      "##enc": 3768,
      "▁delikan": 3769,
      "##dirler": 3770,
      "▁denem": 3771,
      "▁budak": 3772,
      "##elig": 3773,
      "▁elleriyle": 3774,
      "▁gerekiyor": 3775,
      "▁edenler": 3776,
      "▁uyandır": 3777,
      "▁salkım": 3778,
      "▁ydi": 3779,
      "▁ipek": 3780,
      "▁bol": 3781,
      "##ale": 3782,
      "▁sayın": 3783,
      "▁aldıgımız": 3784,
      "##la": 3785,
      "▁anlayan": 3786,
      "▁yunan": 3787,
      "##0.3": 3788,
      "##inal": 3789,
      "▁ver": 3790,
      "▁incecik": 3791,
      "▁krizi": 3792,
      "▁ucan": 3793,
      "##93": 3794,
      "##uncusu": 3795,
      "▁yatkın": 3796,
      "##°": 3797,
      "▁bin": 3798,
      "▁cesitler": 3799,
      "##6.2": 3800,
      "▁ceren": 3801,
      "▁yav": 3802,
      "▁1.59": 3803,
      "▁selim": 3804,
      "▁odalı": 3805,
      "▁hangisi": 3806,
      "▁gucuyle": 3807,
      "▁olmaktadır": 3808,
      "▁cıkardık": 3809,
      "##elerim": 3810,
      "▁gobek": 3811,
      "▁bilin": 3812,
      "▁ailesini": 3813,
      "@": 3814,
      "▁calısan": 3815,
      "▁tedarik": 3816,
      "▁sac": 3817,
      "▁atılan": 3818,
      "▁ilgil": 3819,
      "##emin": 3820,
      "▁andan": 3821,
      "##isti": 3822,
      "▁acmayı": 3823,
      "▁ikibindort": 3824,
      "##kop": 3825,
      "▁britan": 3826,
      "▁faaliyet": 3827,
      "▁dom": 3828,
      "##mesinde": 3829,
      "▁tasın": 3830,
      "▁bod": 3831,
      "▁surecek": 3832,
      "▁1984": 3833,
      "##iy": 3834,
      "▁mukelle": 3835,
      "##etler": 3836,
      "▁hikayesi": 3837,
      "▁duskun": 3838,
      "▁anlatır": 3839,
      "▁ciftciler": 3840,
      "▁sp": 3841,
      "▁avrupa": 3842,
      "##lesine": 3843,
      "##mma": 3844,
      "▁bok": 3845,
      "▁sarılmıs": 3846,
      "▁yıllardan": 3847,
      "▁mıyım": 3848,
      "▁burjuv": 3849,
      "##anla": 3850,
      "▁ayrildik": 3851,
      "▁koydugu": 3852,
      "▁onyedi.": 3853,
      "##lemesine": 3854,
      "▁asıl": 3855,
      "##usal": 3856,
      "▁bilincli": 3857,
      "▁maliyeti": 3858,
      "▁vurmak": 3859,
      "##eligine": 3860,
      "▁gectigi": 3861,
      "▁istis": 3862,
      "▁oyunları": 3863,
      "##ilerin": 3864,
      "##ıb": 3865,
      "▁tuhaf": 3866,
      "##uste": 3867,
      "##eyaz": 3868,
      "▁berkeley": 3869,
      "▁yazılım": 3870,
      "▁liraya": 3871,
      "▁helal": 3872,
      "▁gelirlerinin": 3873,
      "##kan": 3874,
      "▁ucu": 3875,
      "▁dere": 3876,
      "▁rezervasyonlar": 3877,
      "##var": 3878,
      "▁ydum": 3879,
      "▁eczan": 3880,
      "##kim": 3881,
      "##dek": 3882,
      "▁yıg": 3883,
      "▁dinlenmek": 3884,
      "▁uykudan": 3885,
      "▁onemsiz": 3886,
      "▁binbir": 3887,
      "▁him": 3888,
      "▁philip": 3889,
      "▁harry": 3890,
      "▁yollu": 3891,
      "##cog": 3892,
      "▁kisi": 3893,
      "▁beyz": 3894,
      "▁gorusme": 3895,
      "▁taz": 3896,
      "▁buldugu": 3897,
      "▁pin": 3898,
      "▁ikisi": 3899,
      "▁duydum": 3900,
      "▁leblebi": 3901,
      "▁rutin": 3902,
      "▁donemli": 3903,
      "▁geldigini": 3904,
      "##leyerek": 3905,
      "n": 3906,
      "▁ticaret": 3907,
      "▁tutk": 3908,
      "▁ahbap": 3909,
      "▁cih": 3910,
      "▁toplumsal": 3911,
      "▁sarı": 3912,
      "▁talim": 3913,
      "▁harf": 3914,
      "▁kalabalıgı": 3915,
      "▁kesif": 3916,
      "▁237": 3917,
      "▁baban": 3918,
      "▁edin": 3919,
      "▁karsıt": 3920,
      "▁cez": 3921,
      "▁kalit": 3922,
      "##ucu": 3923,
      "▁kıymetleri": 3924,
      "▁ikinc": 3925,
      "##ani": 3926,
      "▁itiraz": 3927,
      "##elmis": 3928,
      "▁ele": 3929,
      "▁aydın": 3930,
      "▁kade": 3931,
      "▁pırıl": 3932,
      "▁toplan": 3933,
      "▁parmaklarını": 3934,
      "▁gund": 3935,
      "##'ım": 3936,
      "▁mens": 3937,
      "▁1987'de": 3938,
      "▁analistleri": 3939,
      "▁kork": 3940,
      "▁baglar": 3941,
      "▁muhtar": 3942,
      "▁cıktım": 3943,
      "▁olmalıdır": 3944,
      "▁yuksel": 3945,
      "▁etkil": 3946,
      "##yaları": 3947,
      "▁milyarını": 3948,
      "▁kabil": 3949,
      "▁seylerin": 3950,
      "##usel": 3951,
      "▁kavram": 3952,
      "##uru": 3953,
      "▁bankalarındaki": 3954,
      "▁oturdu": 3955,
      "▁mıymıs": 3956,
      "##anları": 3957,
      "▁odaya": 3958,
      "▁gorunuse": 3959,
      "▁seslerini": 3960,
      "▁anımsam": 3961,
      "▁tasıyor": 3962,
      "##esin": 3963,
      "▁getirmis": 3964,
      "▁hisse": 3965,
      "▁sanal": 3966,
      "▁birbirinden": 3967,
      "##4.5": 3968,
      "##ısa": 3969,
      "▁calısanların": 3970,
      "##dik": 3971,
      "▁tesisti": 3972,
      "▁veriyorum": 3973,
      "▁sırf": 3974,
      "▁actım": 3975,
      "▁tw": 3976,
      "▁okumaya": 3977,
      "▁cer": 3978,
      "▁nasihat": 3979,
      "▁engelken": 3980,
      "▁4.75": 3981,
      "##.72": 3982,
      "▁kısı": 3983,
      "##abildigi": 3984,
      "▁ucusunuz": 3985,
      "▁odenecek": 3986,
      "##lif": 3987,
      "▁1980": 3988,
      "▁atıp": 3989,
      "▁ihtiyatlı": 3990,
      "▁tımar": 3991,
      "▁oynamak": 3992,
      "##yse": 3993,
      "##ca": 3994,
      "▁gazet": 3995,
      "▁bankacılık": 3996,
      "▁soyleyecek": 3997,
      "▁ual": 3998,
      "▁tarafına": 3999,
      "▁seyr": 4000,
      "##ersiz": 4001,
      "▁kaybol": 4002,
      "▁yerlerde": 4003,
      "▁1995": 4004,
      "▁esvap": 4005,
      "▁aklını": 4006,
      "▁185": 4007,
      "##ınc": 4008,
      "▁acın": 4009,
      "▁yayını": 4010,
      "##yn": 4011,
      "##les": 4012,
      "▁arkadasım": 4013,
      "▁bagı": 4014,
      "▁bicimde": 4015,
      "▁okum": 4016,
      "▁ekmegini": 4017,
      "▁baslı": 4018,
      "▁annesinin": 4019,
      "▁bolumunde": 4020,
      "##danoz": 4021,
      "##tal": 4022,
      "▁esir": 4023,
      "▁yapildi": 4024,
      "▁unifor": 4025,
      "▁orgut": 4026,
      "▁otekine": 4027,
      "##acagına": 4028,
      "▁brooks": 4029,
      "▁kurnaz": 4030,
      "▁baska": 4031,
      "▁yapamam": 4032,
      "▁devrimci": 4033,
      "▁astım": 4034,
      "##s": 4035,
      "##4'te": 4036,
      "▁1.5795": 4037,
      "▁176": 4038,
      "##bak": 4039,
      "▁gitti": 4040,
      "▁indirim": 4041,
      "▁tanım": 4042,
      "▁animasyonlar": 4043,
      "▁aer": 4044,
      "▁kurtulus": 4045,
      "▁bıc": 4046,
      "▁fedakar": 4047,
      "▁kemir": 4048,
      "▁kutur": 4049,
      "▁olcut": 4050,
      "▁kadar": 4051,
      "##ilerine": 4052,
      "▁vermeye": 4053,
      "##erve": 4054,
      "▁sivr": 4055,
      "▁kahval": 4056,
      "▁on": 4057,
      "▁cars": 4058,
      "##viz": 4059,
      "▁kategorisi": 4060,
      "▁geciyor": 4061,
      "▁2005": 4062,
      "##dalı": 4063,
      "##t": 4064,
      "▁acılması": 4065,
      "▁eserler": 4066,
      "▁ulasan": 4067,
      "▁kaybeden": 4068,
      "▁belirttigim": 4069,
      "▁yt": 4070,
      "▁suyunu": 4071,
      "##lerdeki": 4072,
      "▁ustunden": 4073,
      "h": 4074,
      "##lenip": 4075,
      "▁1994": 4076,
      "▁atlanta'ya": 4077,
      "▁ydım": 4078,
      "▁139": 4079,
      "▁potansiy": 4080,
      "▁bizle": 4081,
      "▁araya": 4082,
      "▁sokup": 4083,
      "##his": 4084,
      "▁mis": 4085,
      "▁miy": 4086,
      "▁buyumesini": 4087,
      "▁kule": 4088,
      "▁bayan": 4089,
      "▁tv": 4090,
      "▁sehirde": 4091,
      "▁kaldim": 4092,
      "▁beyler": 4093,
      "▁bor": 4094,
      "▁oyunu": 4095,
      "##ırtı": 4096,
      "▁edersin": 4097,
      "##anc": 4098,
      "▁gok": 4099,
      "##ıntı": 4100,
      "▁pembe": 4101,
      "##gam": 4102,
      "▁dahili": 4103,
      "##lumu": 4104,
      "▁port": 4105,
      "▁time": 4106,
      "##st": 4107,
      "▁istiyordu": 4108,
      "▁iyiye": 4109,
      "▁fransa": 4110,
      "▁ardına": 4111,
      "▁2.46": 4112,
      "▁pr": 4113,
      "▁yokusu": 4114,
      "▁birkacı": 4115,
      "▁piyano": 4116,
      "▁0.10": 4117,
      "▁istemeye": 4118,
      "▁ureticisi": 4119,
      "▁sanıyor": 4120,
      "▁ısı": 4121,
      "##lugunda": 4122,
      "▁ucyuz": 4123,
      "▁ardında": 4124,
      "##rl": 4125,
      "##eci": 4126,
      "▁uzlas": 4127,
      "▁america": 4128,
      "▁denli": 4129,
      "▁kitapları": 4130,
      "##2-23": 4131,
      "▁sandıgı": 4132,
      "▁145.45": 4133,
      "##tem": 4134,
      "▁gruba": 4135,
      "▁ad": 4136,
      "▁ash": 4137,
      "▁washington'dan": 4138,
      "▁%3.4": 4139,
      "##-22:30": 4140,
      "▁dokum": 4141,
      "▁dolastır": 4142,
      "▁prensip": 4143,
      "▁karnı": 4144,
      "##agu": 4145,
      "▁isletiyor": 4146,
      "▁tezgah": 4147,
      "▁sunlar": 4148,
      "▁sokaklarda": 4149,
      "▁hazırlanısı": 4150,
      "▁itaat": 4151,
      "▁50000": 4152,
      "▁calısanları": 4153,
      "▁juri": 4154,
      "▁pav": 4155,
      "▁prenses": 4156,
      "▁cemil": 4157,
      "##ici": 4158,
      "▁cogunlugu": 4159,
      "##sanız": 4160,
      "▁lah": 4161,
      "▁unlu": 4162,
      "▁1991": 4163,
      "▁raporlar": 4164,
      "##cası": 4165,
      "##melerine": 4166,
      "▁islev": 4167,
      "▁yavasca": 4168,
      "▁varıyor": 4169,
      "▁350000": 4170,
      "▁isletmeler": 4171,
      "▁puanlarim": 4172,
      "▁gectikce": 4173,
      "▁agustos'ta": 4174,
      "##gen": 4175,
      "##alıgı": 4176,
      "▁mesru": 4177,
      "##mistik": 4178,
      "▁dukkan": 4179,
      "▁%13": 4180,
      "▁fuar": 4181,
      "▁boston'da": 4182,
      "▁koyluler": 4183,
      "##ekul": 4184,
      "▁duzelt": 4185,
      "▁kolaylastır": 4186,
      "▁bilgisayarlar": 4187,
      "▁turkler": 4188,
      "▁gor": 4189,
      "▁nereler": 4190,
      "▁yapacagız": 4191,
      "##livan": 4192,
      "##ag": 4193,
      "▁sokagın": 4194,
      "##pe": 4195,
      "▁yogun": 4196,
      "##gac": 4197,
      "▁terc": 4198,
      "▁tokyo": 4199,
      "▁protok": 4200,
      "…": 4201,
      "▁kızarmıs": 4202,
      "▁yont": 4203,
      "▁geldiler": 4204,
      "▁cıkarma": 4205,
      "▁meseleyi": 4206,
      "▁direnc": 4207,
      "▁artırmak": 4208,
      "▁denizini": 4209,
      "▁kast": 4210,
      "▁niyet": 4211,
      "▁ingilizce": 4212,
      "▁ayr": 4213,
      "##siyon": 4214,
      "##uga": 4215,
      "▁edile": 4216,
      "##larında": 4217,
      "▁siyas": 4218,
      "▁tarihleri": 4219,
      "▁bahceye": 4220,
      "▁duzeyinde": 4221,
      "##ud": 4222,
      "▁mor": 4223,
      "##ino": 4224,
      "▁757": 4225,
      "▁muduru": 4226,
      "##ko": 4227,
      "▁samp": 4228,
      "▁yanlis": 4229,
      "▁kalmamıs": 4230,
      "▁anlasmayı": 4231,
      "##gini": 4232,
      "▁degerlendiririm": 4233,
      "▁birdenbire": 4234,
      "##yiz": 4235,
      "▁orgu": 4236,
      "▁tiksin": 4237,
      "▁indir": 4238,
      "##elik": 4239,
      "▁kapasitesi": 4240,
      "▁tanıdık": 4241,
      "##ılmaz": 4242,
      "▁ib": 4243,
      "▁ap": 4244,
      "▁olmaz": 4245,
      "▁pom": 4246,
      "##lıkla": 4247,
      "▁konum": 4248,
      "▁gazete": 4249,
      "▁saclı": 4250,
      "▁hamuru": 4251,
      "##.s.": 4252,
      "##'lerde": 4253,
      "##lıgından": 4254,
      "▁muy": 4255,
      "▁0.13": 4256,
      "▁ph": 4257,
      "##gunde": 4258,
      "▁kadro": 4259,
      "▁78": 4260,
      "##ıydı": 4261,
      "##mek": 4262,
      "▁sevis": 4263,
      "▁aldılar": 4264,
      "▁ongordu": 4265,
      "▁olmayacagını": 4266,
      "##doksan": 4267,
      "##ıldıgını": 4268,
      "▁ka": 4269,
      "▁dow": 4270,
      "▁ekibi": 4271,
      "▁ucusuna": 4272,
      "##ahi": 4273,
      "▁milyonluk": 4274,
      "▁egzersiz": 4275,
      "▁65": 4276,
      "▁yuregini": 4277,
      "##eck": 4278,
      "▁genc": 4279,
      "##agon": 4280,
      "▁luzum": 4281,
      "▁bunlara": 4282,
      "▁cleveland'a": 4283,
      "▁kalıp": 4284,
      "▁law": 4285,
      "▁titr": 4286,
      "▁birkacının": 4287,
      "▁dedikodu": 4288,
      "##mik": 4289,
      "▁rez": 4290,
      "▁kut": 4291,
      "##lar": 4292,
      "▁arab": 4293,
      "▁hisset": 4294,
      "▁mily": 4295,
      "▁sırasında": 4296,
      "##ayın": 4297,
      "##sızın": 4298,
      "▁muzigi": 4299,
      "▁ısmar": 4300,
      "▁alay": 4301,
      "##485": 4302,
      "▁birinin": 4303,
      "##agın": 4304,
      "##nan": 4305,
      "▁fikri": 4306,
      "▁simdiki": 4307,
      "##dım": 4308,
      "##mekle": 4309,
      "##jektif": 4310,
      "▁nihal": 4311,
      "▁donmustu": 4312,
      "▁karak": 4313,
      "▁birbirinin": 4314,
      "▁idaresi": 4315,
      "▁arastırmacı": 4316,
      "##emb": 4317,
      "▁ince": 4318,
      "▁kapısına": 4319,
      "##iyas": 4320,
      "▁avustral": 4321,
      "▁ithalat": 4322,
      "▁hangileri": 4323,
      "▁yaptir": 4324,
      "▁gelis": 4325,
      "▁16": 4326,
      "▁gere": 4327,
      "▁yatırımları": 4328,
      "▁hul": 4329,
      "▁agab": 4330,
      "▁sınır": 4331,
      "▁14": 4332,
      "##lulugunu": 4333,
      "▁sc": 4334,
      "▁kullandim": 4335,
      "##yal": 4336,
      "▁mıydım": 4337,
      "▁iste": 4338,
      "▁hill": 4339,
      "▁ov": 4340,
      "▁buyum": 4341,
      "##5'": 4342,
      "▁olayları": 4343,
      "▁ozver": 4344,
      "▁eas": 4345,
      "▁tasıdı": 4346,
      "–": 4347,
      "▁basarı": 4348,
      "▁denizin": 4349,
      "▁kayıplar": 4350,
      "▁1150000": 4351,
      "▁yog": 4352,
      "▁sabaha": 4353,
      "▁cogal": 4354,
      "##tıgımız": 4355,
      "▁kalacak": 4356,
      "▁imtiyaz": 4357,
      "▁yurtdi": 4358,
      "##ligim": 4359,
      "##lerine": 4360,
      "▁durust": 4361,
      "▁tutum": 4362,
      "▁ısıl": 4363,
      "▁tartısmalar": 4364,
      "▁olmayacaktır": 4365,
      "▁degisiklikleri": 4366,
      "##samba": 4367,
      "▁yakinlarima": 4368,
      "▁bolgesel": 4369,
      "▁anlasmaz": 4370,
      "▁kolu": 4371,
      "▁cami": 4372,
      "▁tasları": 4373,
      "▁muyuz": 4374,
      "▁huner": 4375,
      "▁newport": 4376,
      "▁sehr": 4377,
      "▁onlarca": 4378,
      "▁piskin": 4379,
      "▁doz": 4380,
      "▁dagıt": 4381,
      "##emli": 4382,
      "▁baskalarının": 4383,
      "▁nam": 4384,
      "▁tac": 4385,
      "▁onay": 4386,
      "▁saglar": 4387,
      "▁atıs": 4388,
      "▁fiz": 4389,
      "▁rab": 4390,
      "##inson": 4391,
      "##y": 4392,
      "▁sayet": 4393,
      "▁seyahat": 4394,
      "▁verimsiz": 4395,
      "▁bag": 4396,
      "▁mater": 4397,
      "▁konumundan": 4398,
      "▁murekkep": 4399,
      "▁odama": 4400,
      "▁sekreter": 4401,
      "▁karsılan": 4402,
      "▁camı": 4403,
      "▁eb": 4404,
      "▁muhtemelen": 4405,
      "▁kalmıstı": 4406,
      "▁ismail": 4407,
      "##ımızdaki": 4408,
      "▁gelirin": 4409,
      "▁kundur": 4410,
      "##eksu": 4411,
      "▁in": 4412,
      "▁1955": 4413,
      "▁boncuk": 4414,
      "▁bilmeyen": 4415,
      "▁kepenk": 4416,
      "▁garsonlar": 4417,
      "▁iki": 4418,
      "##met": 4419,
      "▁cem": 4420,
      "▁tarafa": 4421,
      "##lesti": 4422,
      "▁yasay": 4423,
      "##um": 4424,
      "▁j": 4425,
      "▁paralar": 4426,
      "▁cogunu": 4427,
      "##5.": 4428,
      "▁calisanlari": 4429,
      "▁2005'e": 4430,
      "##gileri": 4431,
      "▁caddenin": 4432,
      "▁borcu": 4433,
      "##ikti": 4434,
      "##ram": 4435,
      "▁giysiler": 4436,
      "▁verecegini": 4437,
      "##iyesi": 4438,
      "▁seylere": 4439,
      "▁levh": 4440,
      "▁pam": 4441,
      "##ksen": 4442,
      "▁vergisi": 4443,
      "▁kaygı": 4444,
      "▁bunda": 4445,
      "▁hijyenikti": 4446,
      "▁altında": 4447,
      "▁konularda": 4448,
      "▁maksim": 4449,
      "▁vasat": 4450,
      "▁fatma": 4451,
      "▁nik": 4452,
      "▁istemis": 4453,
      "▁kapısından": 4454,
      "##lice": 4455,
      "▁sayısı": 4456,
      "▁kırdı": 4457,
      "▁goruyordu": 4458,
      "##bindokuzyuzdoksan": 4459,
      "▁nin": 4460,
      "▁adamlarının": 4461,
      "▁kirec": 4462,
      "▁atıstır": 4463,
      "▁yaratır": 4464,
      "▁kalk": 4465,
      "##00'den": 4466,
      "▁yurtdisin": 4467,
      "##iyon": 4468,
      "▁elver": 4469,
      "▁becer": 4470,
      "##|": 4471,
      "▁musta": 4472,
      "▁yene": 4473,
      "▁erede": 4474,
      "▁californ": 4475,
      "▁atıl": 4476,
      "▁bekledik": 4477,
      "▁ayında": 4478,
      "##are": 4479,
      "▁geb": 4480,
      "▁bununla": 4481,
      "▁kayda": 4482,
      "▁ir": 4483,
      "▁jose'ye": 4484,
      "##bine": 4485,
      "▁seytan": 4486,
      "▁damak": 4487,
      "##llarca": 4488,
      "##0'a": 4489,
      "##-merkezli": 4490,
      "▁yoksul": 4491,
      "▁gorunum": 4492,
      "▁p": 4493,
      "▁odem": 4494,
      "▁9.8": 4495,
      "▁5.6": 4496,
      "▁trav": 4497,
      "▁mercan": 4498,
      "▁istedigimi": 4499,
      "▁agacların": 4500,
      "▁lu": 4501,
      "▁kelep": 4502,
      "▁fırlat": 4503,
      "##ite": 4504,
      "▁olimpiyat": 4505,
      "▁nerelere": 4506,
      "##chester": 4507,
      "▁yasından": 4508,
      "▁phoenix'e": 4509,
      "▁hasta": 4510,
      "▁gunesi": 4511,
      "▁peynirleri": 4512,
      "##meni": 4513,
      "▁kasaba": 4514,
      "##lig": 4515,
      "##vil": 4516,
      "▁kotums": 4517,
      "##esine": 4518,
      "▁bolgesi": 4519,
      "▁musteriler": 4520,
      "▁yılların": 4521,
      "▁nav": 4522,
      "##esi'ne": 4523,
      "▁taahhut": 4524,
      "▁ruy": 4525,
      "##dok": 4526,
      "▁istedigi": 4527,
      "▁kanlı": 4528,
      "▁city'den": 4529,
      "▁yasa": 4530,
      "▁seviyesine": 4531,
      "▁75": 4532,
      "▁inek": 4533,
      "▁nedeni": 4534,
      "▁yetk": 4535,
      "▁rahmet": 4536,
      "▁onayına": 4537,
      "▁istanbul": 4538,
      "▁varlıgı": 4539,
      "▁united": 4540,
      "##endim": 4541,
      "▁karsilama": 4542,
      "▁onalt": 4543,
      "▁esyalar": 4544,
      "▁fazlasını": 4545,
      "▁11.5": 4546,
      "##mesini": 4547,
      "▁sınav": 4548,
      "##eligi": 4549,
      "▁bık": 4550,
      "▁icindeydi": 4551,
      "▁delta'nın": 4552,
      "▁calıstır": 4553,
      "▁tahmini": 4554,
      "▁hok": 4555,
      "▁odam": 4556,
      "$": 4557,
      "▁yapmaktan": 4558,
      "▁olsaydı": 4559,
      "▁1.72": 4560,
      "▁haps": 4561,
      "##ecekleri": 4562,
      "▁bagır": 4563,
      "▁asagıdaki": 4564,
      "▁azdı": 4565,
      "▁balkan": 4566,
      "▁hev": 4567,
      "##up": 4568,
      "▁ltd.": 4569,
      "▁surup": 4570,
      "##kiz": 4571,
      "▁sarmıs": 4572,
      "▁parayla": 4573,
      "▁havaalanı'nda": 4574,
      "▁570": 4575,
      "▁1.1": 4576,
      "##sah": 4577,
      "▁bankacılar": 4578,
      "▁hizmetlerini": 4579,
      "##inin": 4580,
      "▁gemiydi": 4581,
      "▁partisi": 4582,
      "▁durup": 4583,
      "##000": 4584,
      "▁usul": 4585,
      "##emedi": 4586,
      "##kırk": 4587,
      "▁gokyuzunu": 4588,
      "▁kin": 4589,
      "##jur": 4590,
      "▁olusturdugu": 4591,
      "▁sov": 4592,
      "##ıstır": 4593,
      "▁kapsamında": 4594,
      "▁yasında": 4595,
      "##yası": 4596,
      "##86": 4597,
      "##temiz": 4598,
      "▁yuzey": 4599,
      "▁103": 4600,
      "▁catır": 4601,
      "▁622": 4602,
      "##lıdır": 4603,
      "▁halihaz": 4604,
      "▁donemi": 4605,
      "##lusu": 4606,
      "▁aylarda": 4607,
      "▁yasıyorum": 4608,
      "▁kalır": 4609,
      "▁kredileri": 4610,
      "▁turlar": 4611,
      "▁iceri": 4612,
      "▁av": 4613,
      "▁cıkardıgı": 4614,
      "▁975": 4615,
      "▁o": 4616,
      "##nut": 4617,
      "▁oranda": 4618,
      "▁odamdan": 4619,
      "##rill": 4620,
      "▁devlet": 4621,
      "▁magar": 4622,
      "▁masal": 4623,
      "▁sundugu": 4624,
      "▁jandar": 4625,
      "▁tatlilar": 4626,
      "▁kademeli": 4627,
      "▁kalıyordu": 4628,
      "##ic": 4629,
      "##ven": 4630,
      "▁sandaly": 4631,
      "▁mitsubishi": 4632,
      "▁hatir": 4633,
      "##am": 4634,
      "▁urunleri": 4635,
      "##lan": 4636,
      "▁mekan": 4637,
      "▁6.9": 4638,
      "▁hemsir": 4639,
      "▁birles": 4640,
      "##ough": 4641,
      "##nes": 4642,
      "▁duyar": 4643,
      "▁kahraman": 4644,
      "▁acele": 4645,
      "▁demektir": 4646,
      "▁kırlangıc": 4647,
      "▁hani": 4648,
      "▁etmediler": 4649,
      "▁laub": 4650,
      "##alar": 4651,
      "▁oz": 4652,
      "##pson": 4653,
      "▁sofor": 4654,
      "▁average": 4655,
      "▁ab": 4656,
      "##ald": 4657,
      "##liklerini": 4658,
      "##asında": 4659,
      "▁48": 4660,
      "▁sozcuk": 4661,
      "▁cit": 4662,
      "▁tit": 4663,
      "##ze": 4664,
      "▁sayg": 4665,
      "▁terbiye": 4666,
      "▁destekliyor": 4667,
      "▁gıy": 4668,
      "▁sears": 4669,
      "##-1": 4670,
      "▁cagın": 4671,
      "▁hazırladı": 4672,
      "▁agzını": 4673,
      "▁nom": 4674,
      "▁kosu": 4675,
      "▁yegen": 4676,
      "▁1974": 4677,
      "▁urkek": 4678,
      "▁huzursuz": 4679,
      "##iz": 4680,
      "##ecekti": 4681,
      "▁belli": 4682,
      "▁kalitesinden": 4683,
      "▁konusuyor": 4684,
      "▁meshur": 4685,
      "##'la": 4686,
      "▁muz": 4687,
      "▁konustu": 4688,
      "##dunuz": 4689,
      "▁duyan": 4690,
      "▁8.32": 4691,
      "▁olusturmaktadır": 4692,
      "##anız": 4693,
      "##undaki": 4694,
      "▁yardımcısı": 4695,
      "▁basit": 4696,
      "##deniz": 4697,
      "▁verip": 4698,
      "▁sabahtan": 4699,
      "##liyorum": 4700,
      "▁kullanıyor": 4701,
      "▁uygunsuz": 4702,
      "▁527.39": 4703,
      "▁99.1": 4704,
      "▁homurdan": 4705,
      "▁68": 4706,
      "▁arkasında": 4707,
      "▁japonya'nın": 4708,
      "▁teklifleri": 4709,
      "▁biri": 4710,
      "▁ucuslarınız": 4711,
      "▁109.85": 4712,
      "▁lideri": 4713,
      "##teki": 4714,
      "▁oburunu": 4715,
      "▁ceyrek": 4716,
      "▁zevk": 4717,
      "▁sıp": 4718,
      "▁kilit": 4719,
      "▁egem": 4720,
      "▁acılıs": 4721,
      "##ki": 4722,
      "▁arastir": 4723,
      "▁iyilestir": 4724,
      "▁california": 4725,
      "▁mantıklı": 4726,
      "##.50": 4727,
      "##arlık": 4728,
      "##'si": 4729,
      "▁yazıyorum": 4730,
      "##amam": 4731,
      "▁dam": 4732,
      "##lının": 4733,
      "##edik": 4734,
      "▁asılmıs": 4735,
      "▁kıyıya": 4736,
      "##yıl": 4737,
      "##ustan": 4738,
      "▁bm": 4739,
      "▁kıbr": 4740,
      "▁iz": 4741,
      "▁kalıyor": 4742,
      "▁babama": 4743,
      "##ational": 4744,
      "▁unsur": 4745,
      "▁arac": 4746,
      "▁seksen": 4747,
      "▁kacınılmaz": 4748,
      "▁sure": 4749,
      "▁soguk": 4750,
      "▁eliyle": 4751,
      "▁basarili": 4752,
      "▁uretimi": 4753,
      "▁83": 4754,
      "▁4": 4755,
      "▁yaratan": 4756,
      "▁seg": 4757,
      "▁birlikte": 4758,
      "▁gonl": 4759,
      "▁azal": 4760,
      "▁ciftci": 4761,
      "▁470.80": 4762,
      "▁memlekette": 4763,
      "▁kom": 4764,
      "▁mesg": 4765,
      "▁demeye": 4766,
      "▁hizmetlerinden": 4767,
      "▁kaldırım": 4768,
      "▁yedinci": 4769,
      "▁charlotte": 4770,
      "▁olanagı": 4771,
      "▁dokulen": 4772,
      "▁aff": 4773,
      "▁filiz": 4774,
      "▁hedefi": 4775,
      "▁gordugumuz": 4776,
      "##eceg": 4777,
      "▁yapılan": 4778,
      "▁425": 4779,
      "▁icra": 4780,
      "##sarı": 4781,
      "▁bıraktı": 4782,
      "▁motor": 4783,
      "▁kacın": 4784,
      "▁hom": 4785,
      "▁zil": 4786,
      "▁hip": 4787,
      "##ente": 4788,
      "▁hah": 4789,
      "▁kusuru": 4790,
      "▁simdi": 4791,
      "##olog": 4792,
      "▁potansiyel": 4793,
      "▁ergen": 4794,
      "▁trelleborg": 4795,
      "▁urunlerinin": 4796,
      "▁arb": 4797,
      "|": 4798,
      "▁size": 4799,
      "▁kotuydu": 4800,
      "▁servet": 4801,
      "▁sorumlulugunu": 4802,
      "▁tembel": 4803,
      "##radı": 4804,
      "▁yakin": 4805,
      "▁edep": 4806,
      "▁cr": 4807,
      "▁surec": 4808,
      "##cık": 4809,
      "▁ozenle": 4810,
      "▁palto": 4811,
      "▁dogal": 4812,
      "##uter": 4813,
      "▁buro": 4814,
      "##lesinde": 4815,
      "##adı": 4816,
      "▁bul": 4817,
      "▁dogum": 4818,
      "▁contin": 4819,
      "▁manzarasi": 4820,
      "▁tap": 4821,
      "▁savas": 4822,
      "▁kısaca": 4823,
      "▁host": 4824,
      "##ısım": 4825,
      "▁nar": 4826,
      "▁kapıları": 4827,
      "##9": 4828,
      "▁teh": 4829,
      "▁cleveland": 4830,
      "▁matem": 4831,
      "▁ku": 4832,
      "##ney": 4833,
      "##itik": 4834,
      "▁balıkcı": 4835,
      "▁kullanılıyor": 4836,
      "▁vermesini": 4837,
      "▁fiyatlari": 4838,
      "▁beb": 4839,
      "▁murekk": 4840,
      "##larin": 4841,
      "▁gitmisti": 4842,
      "##iniki": 4843,
      "▁25": 4844,
      "▁ayık": 4845,
      "▁sehirler": 4846,
      "▁ataturk": 4847,
      "##yalı": 4848,
      "▁kibr": 4849,
      "▁gokhan": 4850,
      "▁seh": 4851,
      "▁1500": 4852,
      "▁gecesi": 4853,
      "▁varil": 4854,
      "▁oncesinde": 4855,
      "##asıyor": 4856,
      "▁gucunu": 4857,
      "##ıklar": 4858,
      "##an'a": 4859,
      "▁islerini": 4860,
      "▁52": 4861,
      "##munications": 4862,
      "▁1.52": 4863,
      "▁husus": 4864,
      "▁87": 4865,
      "##iser": 4866,
      "##ebilirler": 4867,
      "▁fiyata": 4868,
      "▁kursu": 4869,
      "▁nice": 4870,
      "▁1,": 4871,
      "b": 4872,
      "▁hamle": 4873,
      "▁dusundum": 4874,
      "##`": 4875,
      "▁dilek": 4876,
      "▁gidelim": 4877,
      "▁herifin": 4878,
      "▁cıp": 4879,
      "▁cocuklarına": 4880,
      "##ısıyla": 4881,
      "▁gelisim": 4882,
      "▁notları": 4883,
      "▁almıstı": 4884,
      "▁numaralı": 4885,
      "▁oglum": 4886,
      "▁charlotte'ye": 4887,
      "▁olmaması": 4888,
      "▁listeleyin": 4889,
      "▁1115": 4890,
      "▁silin": 4891,
      "▁but": 4892,
      "▁kurulus": 4893,
      "▁iri": 4894,
      "▁sıra": 4895,
      "▁duzen": 4896,
      "▁oluyor": 4897,
      "▁avuk": 4898,
      "▁doları'ndan": 4899,
      "▁gıc": 4900,
      "▁olcum": 4901,
      "▁fransa'nın": 4902,
      "▁pirinc": 4903,
      "▁10.625": 4904,
      "##ucuk": 4905,
      "▁85": 4906,
      "▁atesi": 4907,
      "▁mixte": 4908,
      "▁yapıt": 4909,
      "▁gorup": 4910,
      "##uya": 4911,
      "▁fikir": 4912,
      "▁denver": 4913,
      "▁hizmeti": 4914,
      "▁yapacak": 4915,
      "▁halil": 4916,
      "▁53": 4917,
      "▁evlilig": 4918,
      "▁aksine": 4919,
      "▁brad": 4920,
      "▁manz": 4921,
      "▁pahaliydi": 4922,
      "##amm": 4923,
      "▁ucretler": 4924,
      "▁alırım": 4925,
      "▁kimyasal": 4926,
      "▁nesine": 4927,
      "▁ortada": 4928,
      "▁okul": 4929,
      "▁sabahı": 4930,
      "▁teknoloj": 4931,
      "▁ısık": 4932,
      "##gir": 4933,
      "▁adamakıllı": 4934,
      "##on'un": 4935,
      "▁donup": 4936,
      "##em": 4937,
      "▁ordek": 4938,
      "▁avut": 4939,
      "▁verilmesi": 4940,
      "▁kaymakam": 4941,
      "##luyorlar": 4942,
      "▁7.88": 4943,
      "▁koseye": 4944,
      "▁alıyor": 4945,
      "##lulugu": 4946,
      "▁and": 4947,
      "▁huzur": 4948,
      "##ole": 4949,
      "▁calisti": 4950,
      "▁dallas'ta": 4951,
      "##ine": 4952,
      "▁bankaların": 4953,
      "##lendirdi": 4954,
      "##9.9": 4955,
      "##dogu": 4956,
      "##dol": 4957,
      "▁neg": 4958,
      "##bat": 4959,
      "▁oyna": 4960,
      "▁deniyor": 4961,
      "##aj": 4962,
      "▁bakıyor": 4963,
      "##web": 4964,
      "##eliydi": 4965,
      "▁ars": 4966,
      "▁kala": 4967,
      "▁muthis": 4968,
      "▁alık": 4969,
      "▁donem": 4970,
      "▁ortalam": 4971,
      "▁etmesi": 4972,
      "▁kıpır": 4973,
      "▁etmenin": 4974,
      "▁duman": 4975,
      "▁borclu": 4976,
      "##so": 4977,
      "##9.8": 4978,
      "##ulup": 4979,
      "▁reding": 4980,
      "▁gelecekte": 4981,
      "▁baglıdır": 4982,
      "##taraf": 4983,
      "##iyat": 4984,
      "▁ayrıca": 4985,
      "▁ucusunda": 4986,
      "▁kadr": 4987,
      "▁kıvılc": 4988,
      "▁tavır": 4989,
      "▁investment": 4990,
      "##ada": 4991,
      "▁dolara": 4992,
      "##lulu": 4993,
      "##eff": 4994,
      "▁sakallı": 4995,
      "▁pet": 4996,
      "▁yuk": 4997,
      "##ıslı": 4998,
      "▁egri": 4999,
      "▁260": 5000,
      "▁almanlar": 5001,
      "▁ayrılmıs": 5002,
      "▁35587": 5003,
      "##malara": 5004,
      "▁guler": 5005,
      "▁sahis": 5006,
      "▁1960'": 5007,
      "▁elb": 5008,
      "▁kendimize": 5009,
      "▁1.6145": 5010,
      "##siz": 5011,
      "▁darbe": 5012,
      "▁1988": 5013,
      "▁fiyatlarının": 5014,
      "##oster": 5015,
      "▁fabrik": 5016,
      "▁muzaker": 5017,
      "▁katana": 5018,
      "##west": 5019,
      "▁kullanan": 5020,
      "▁trust": 5021,
      "▁gunden": 5022,
      "▁guzellik": 5023,
      "▁alanın": 5024,
      "##amiza": 5025,
      "▁corry": 5026,
      "##avar": 5027,
      "▁muda": 5028,
      "▁sirketlerin": 5029,
      "▁schw": 5030,
      "▁evde": 5031,
      "▁penc": 5032,
      "▁yuruyordu": 5033,
      "▁hotel": 5034,
      "##sal": 5035,
      "▁gune": 5036,
      "▁gozlerine": 5037,
      "▁benz": 5038,
      "##verdi": 5039,
      "▁7.8": 5040,
      "▁kampanyalar": 5041,
      "▁hur": 5042,
      "▁mevzu": 5043,
      "▁gecirme": 5044,
      "##du": 5045,
      "▁adama": 5046,
      "▁fuk": 5047,
      "##iginde": 5048,
      "▁borsası'nda": 5049,
      "▁severek": 5050,
      "▁1711": 5051,
      "▁keleb": 5052,
      "▁opsiyonu": 5053,
      "##ap": 5054,
      "▁rok": 5055,
      "##iyeleri": 5056,
      "▁insandan": 5057,
      "##cekti": 5058,
      "▁oturmus": 5059,
      "▁moda": 5060,
      "▁yuzles": 5061,
      "▁106": 5062,
      "▁ikib": 5063,
      "▁ri": 5064,
      "▁kazada": 5065,
      "▁portf": 5066,
      "##ligin": 5067,
      "▁bina": 5068,
      "##ları": 5069,
      "▁lık": 5070,
      "##duc": 5071,
      "▁sm": 5072,
      "▁digerleri": 5073,
      "▁kuzu": 5074,
      "▁universitede": 5075,
      "▁bulunmaktadır": 5076,
      "##lardir": 5077,
      "##ysa": 5078,
      "##55": 5079,
      "▁suik": 5080,
      "▁ankara": 5081,
      "▁izm": 5082,
      "▁hareketi": 5083,
      "▁ikiz": 5084,
      "▁faaliyetinde": 5085,
      "▁dikkatini": 5086,
      "▁ozgun": 5087,
      "▁kuyruk": 5088,
      "▁beton": 5089,
      "▁12.3": 5090,
      "▁gitar": 5091,
      "▁seviyor": 5092,
      "##asyonu": 5093,
      "▁kayıt": 5094,
      "▁uygulama": 5095,
      "▁dinlen": 5096,
      "##meyin": 5097,
      "##gim": 5098,
      "▁muht": 5099,
      "▁tarafını": 5100,
      "▁avans": 5101,
      "▁cumhuriyeti": 5102,
      "▁cimento": 5103,
      "▁hisseyle": 5104,
      "▁alın": 5105,
      "▁yasamadik": 5106,
      "##mıstım": 5107,
      "▁1.19": 5108,
      "▁lokanta": 5109,
      "▁kalb": 5110,
      "▁72": 5111,
      "▁odalardan": 5112,
      "##elendir": 5113,
      "▁bankacı": 5114,
      "▁'dı": 5115,
      "▁ucreti": 5116,
      "▁uygulamaları": 5117,
      "▁salınc": 5118,
      "▁gelenek": 5119,
      "▁gidip": 5120,
      "▁birimiz": 5121,
      "▁cıkıp": 5122,
      "▁kısıtlam": 5123,
      "▁nereye": 5124,
      "▁hızla": 5125,
      "##ert": 5126,
      "▁kafası": 5127,
      "▁oldug": 5128,
      "▁dediler": 5129,
      "▁cıvıl": 5130,
      "▁gordugu": 5131,
      "▁izni": 5132,
      "▁yemin": 5133,
      "##muslar": 5134,
      "##asını": 5135,
      "▁pant": 5136,
      "▁ann": 5137,
      "▁ardından": 5138,
      "▁tik": 5139,
      "▁okullar": 5140,
      "▁1997": 5141,
      "▁usx": 5142,
      "▁pentagon": 5143,
      "##memeye": 5144,
      "▁borclanma": 5145,
      "▁ebru": 5146,
      "##yle": 5147,
      "##gin": 5148,
      "▁armagan": 5149,
      "▁yana": 5150,
      "▁kapadı": 5151,
      "▁153": 5152,
      "▁buh": 5153,
      "▁gununu": 5154,
      "##ardan": 5155,
      "▁141.45": 5156,
      "▁govd": 5157,
      "▁hicbirinin": 5158,
      "▁isk": 5159,
      "▁hakem": 5160,
      "▁burus": 5161,
      "##dıgım": 5162,
      "▁sevda": 5163,
      "▁por": 5164,
      "▁meyal": 5165,
      "▁baskaldır": 5166,
      "##larınızı": 5167,
      "▁doldur": 5168,
      "▁cizgi": 5169,
      "▁faiz": 5170,
      "##sı": 5171,
      "▁halkın": 5172,
      "▁gittigi": 5173,
      "▁toronto": 5174,
      "▁4'ten": 5175,
      "##dt": 5176,
      "▁yatar": 5177,
      "▁b.": 5178,
      "▁sizi": 5179,
      "▁yak": 5180,
      "▁gozunu": 5181,
      "▁komisyonlar": 5182,
      "▁emine": 5183,
      "▁arkadaslar": 5184,
      "▁yargılan": 5185,
      "▁pufur": 5186,
      "##ort": 5187,
      "▁tibet": 5188,
      "▁22": 5189,
      "##of": 5190,
      "▁dedik": 5191,
      "▁yirmisekiz": 5192,
      "▁bankaları": 5193,
      "▁savcılar": 5194,
      "▁25.8": 5195,
      "▁surt": 5196,
      "▁fiyatlar": 5197,
      "▁kumas": 5198,
      "▁arbitraj": 5199,
      "▁ket": 5200,
      "##89": 5201,
      "▁nef": 5202,
      "##.53": 5203,
      "▁kalkıslı": 5204,
      "##izle": 5205,
      "▁bagları": 5206,
      "▁kultur": 5207,
      "##61": 5208,
      "##mar": 5209,
      "▁yukum": 5210,
      "▁guncel": 5211,
      "▁komut": 5212,
      "▁burbank": 5213,
      "##malıdır": 5214,
      "##rul": 5215,
      "▁141": 5216,
      "▁49": 5217,
      "▁dr.": 5218,
      "##ous": 5219,
      "▁michig": 5220,
      "##ırdı": 5221,
      "▁kurallar": 5222,
      "▁anlatmaya": 5223,
      "▁hafta": 5224,
      "▁mahkemesi": 5225,
      "▁2.77": 5226,
      "▁kanadı": 5227,
      "##.c": 5228,
      "▁bilinmeyen": 5229,
      "▁142": 5230,
      "▁sand": 5231,
      "▁fasul": 5232,
      "▁_": 5233,
      "▁7\\/32": 5234,
      "▁tanı": 5235,
      "▁koyuldu": 5236,
      "##cika": 5237,
      "▁mccaw": 5238,
      "▁nitelendir": 5239,
      "▁bırakıyor": 5240,
      "##dıgı": 5241,
      "##ısından": 5242,
      "▁zih": 5243,
      "▁kaydedi": 5244,
      "▁yakalandı": 5245,
      "▁donanım": 5246,
      "##iyor": 5247,
      "##'te": 5248,
      "##egimiz": 5249,
      "##oci": 5250,
      "▁halkla": 5251,
      "▁adi": 5252,
      "▁edip": 5253,
      "▁bekliyordu": 5254,
      "▁yasarken": 5255,
      "▁stone": 5256,
      "▁sen": 5257,
      "▁ız": 5258,
      "▁satısı": 5259,
      "▁ozellestirme": 5260,
      "▁mudur": 5261,
      "▁im": 5262,
      "▁ihr": 5263,
      "▁amerikalı": 5264,
      "▁1.90": 5265,
      "##gır": 5266,
      "▁kusk": 5267,
      "▁bun": 5268,
      "▁cikmadi": 5269,
      "##veti": 5270,
      "▁baslarında": 5271,
      "▁alanda": 5272,
      "▁tim": 5273,
      "##bası": 5274,
      "▁kimya": 5275,
      "▁yatırımcının": 5276,
      "▁iyisi": 5277,
      "##omb": 5278,
      "▁nokt": 5279,
      "▁baslangıcta": 5280,
      "▁oburleri": 5281,
      "▁basıma": 5282,
      "▁nis": 5283,
      "##e'nin": 5284,
      "▁edemedi": 5285,
      "▁korkuyor": 5286,
      "▁sadak": 5287,
      "▁yon": 5288,
      "▁burun": 5289,
      "▁ongoruyor": 5290,
      "▁may": 5291,
      "▁kızdır": 5292,
      "##apol": 5293,
      "##usuyla": 5294,
      "▁bilmez": 5295,
      "▁duzenlemeleri": 5296,
      "▁kap": 5297,
      "▁yuvarlak": 5298,
      "▁dost": 5299,
      "▁th": 5300,
      "▁pop": 5301,
      "▁yabancilara": 5302,
      "##alamak": 5303,
      "▁toren": 5304,
      "▁neh": 5305,
      "▁kaydedildi": 5306,
      "▁islemler": 5307,
      "##burgh": 5308,
      "##tone": 5309,
      "▁kanalı": 5310,
      "▁fer": 5311,
      "▁hor": 5312,
      "▁icti": 5313,
      "▁inerken": 5314,
      "▁duymuyor": 5315,
      "##veren": 5316,
      "▁yildi": 5317,
      "▁tacirler": 5318,
      "▁millet": 5319,
      "▁metr": 5320,
      "▁ahmet": 5321,
      "▁mcc": 5322,
      "▁diyalog": 5323,
      "▁kem": 5324,
      "##145": 5325,
      "▁iceriyordu": 5326,
      "##tıga": 5327,
      "▁muhendis": 5328,
      "▁ucusların": 5329,
      "▁louis": 5330,
      "▁kafes": 5331,
      "##elidir": 5332,
      "▁muzakere": 5333,
      "▁silik": 5334,
      "▁166.9": 5335,
      "▁bayat": 5336,
      "▁donmeye": 5337,
      "▁edirne": 5338,
      "▁yerlesti": 5339,
      "▁odenmesi": 5340,
      "3": 5341,
      "▁tesekkurler": 5342,
      "▁tavr": 5343,
      "▁tez": 5344,
      "▁tabur": 5345,
      "▁francisco'da": 5346,
      "▁end": 5347,
      "##eing": 5348,
      "##ektr": 5349,
      "▁boylece": 5350,
      "▁dedi": 5351,
      "##'ini": 5352,
      "▁neyin": 5353,
      "▁cıkmaya": 5354,
      "##lenme": 5355,
      "▁dekorasyon": 5356,
      "##ket": 5357,
      "##le": 5358,
      "▁dalmıs": 5359,
      "▁aleyhine": 5360,
      "▁altın": 5361,
      "▁bilimi": 5362,
      "▁ort": 5363,
      "▁yaptım": 5364,
      "##ure": 5365,
      "▁ustlen": 5366,
      "▁dirsek": 5367,
      "##hs": 5368,
      "▁des": 5369,
      "##eden": 5370,
      "▁adına": 5371,
      "▁sevinc": 5372,
      "▁beni": 5373,
      "##9.3": 5374,
      "##apolis": 5375,
      "▁anlattık": 5376,
      "▁sakarya": 5377,
      "▁bogazici": 5378,
      "▁bolgede": 5379,
      "▁arttır": 5380,
      "▁yuruyus": 5381,
      "▁tartısma": 5382,
      "▁boyun": 5383,
      "▁4487": 5384,
      "▁cig": 5385,
      "▁fikret": 5386,
      "`": 5387,
      "##asının": 5388,
      "▁cunku": 5389,
      "▁1982": 5390,
      "##eldi": 5391,
      "▁kaynakları": 5392,
      "▁begenmedik": 5393,
      "##masından": 5394,
      "▁beyn": 5395,
      "▁keten": 5396,
      "▁4.375": 5397,
      "▁delik": 5398,
      "▁1949": 5399,
      "##'nun": 5400,
      "▁odun": 5401,
      "▁dallas'tan": 5402,
      "▁surdu": 5403,
      "▁20.000": 5404,
      "▁cog": 5405,
      "▁oluk": 5406,
      "▁yasamaya": 5407,
      "▁istik": 5408,
      "▁merakla": 5409,
      "▁oyle": 5410,
      "▁%18": 5411,
      "▁sin": 5412,
      "▁artısla": 5413,
      "▁lutfen": 5414,
      "▁medeniyet": 5415,
      "▁alır": 5416,
      "▁bic": 5417,
      "▁kanun": 5418,
      "▁salona": 5419,
      "▁linc": 5420,
      "▁altındaki": 5421,
      "##masını": 5422,
      "##ock": 5423,
      "▁programı": 5424,
      "▁sular": 5425,
      "##ımda": 5426,
      "▁odeme": 5427,
      "▁birbir": 5428,
      "▁gecim": 5429,
      "▁alaycı": 5430,
      "▁bilim": 5431,
      "▁mizah": 5432,
      "##2:30": 5433,
      "▁kızı": 5434,
      "▁gun": 5435,
      "▁yukarıda": 5436,
      "▁lise": 5437,
      "##lardaki": 5438,
      "▁yetkisi": 5439,
      "##memis": 5440,
      "▁keske": 5441,
      "▁zul": 5442,
      "▁anda": 5443,
      "▁uydur": 5444,
      "▁gorunce": 5445,
      "▁felaket": 5446,
      "▁did": 5447,
      "▁amcam": 5448,
      "▁etmisti": 5449,
      "▁yaptıgım": 5450,
      "▁nobet": 5451,
      "▁kullandı": 5452,
      "##dıgına": 5453,
      "▁yandan": 5454,
      "▁kurdugu": 5455,
      "▁anlattım": 5456,
      "▁teknede": 5457,
      "▁cektir": 5458,
      "▁hastalık": 5459,
      "▁adım": 5460,
      "▁hediye": 5461,
      "▁sotheb": 5462,
      "▁dibinde": 5463,
      "##gelelim": 5464,
      "##ıldır": 5465,
      "▁bunları": 5466,
      "▁3.69": 5467,
      "▁hicbir": 5468,
      "▁kileri": 5469,
      "▁hın": 5470,
      "▁ydınız": 5471,
      "▁tutuldu": 5472,
      "▁deplas": 5473,
      "▁aldat": 5474,
      "##otte": 5475,
      "▁vurarak": 5476,
      "▁tutarlı": 5477,
      "▁uzat": 5478,
      "▁yaptık": 5479,
      "##4'de": 5480,
      "##tin": 5481,
      "▁avustralya": 5482,
      "##yak": 5483,
      "▁k": 5484,
      "##kat": 5485,
      "##mamak": 5486,
      "▁elli": 5487,
      "▁3.13": 5488,
      "▁jet": 5489,
      "##edeki": 5490,
      "##ıcılar": 5491,
      "▁esen": 5492,
      "▁verdigimiz": 5493,
      "▁mekaniz": 5494,
      "##inip": 5495,
      "▁2010": 5496,
      "▁kredisi": 5497,
      "▁eglenceli": 5498,
      "##ub": 5499,
      "▁buluyor": 5500,
      "▁uns": 5501,
      "▁fabrika": 5502,
      "▁noktası": 5503,
      "▁ajans": 5504,
      "▁temizlik": 5505,
      "▁gidiyor": 5506,
      "▁pencer": 5507,
      "▁muster": 5508,
      "▁olabilecegini": 5509,
      "▁derecelendir": 5510,
      "▁ogretmeni": 5511,
      "▁olusturul": 5512,
      "▁oncu": 5513,
      "##onom": 5514,
      "▁1.63": 5515,
      "▁olas": 5516,
      "▁yolları": 5517,
      "▁anlatım": 5518,
      "##lesen": 5519,
      "##att": 5520,
      "▁oburu": 5521,
      "▁tuken": 5522,
      "##gat": 5523,
      "##sagı": 5524,
      "▁ulastırma": 5525,
      "▁sert": 5526,
      "▁stand": 5527,
      "##eyerek": 5528,
      "##onik": 5529,
      "▁evren": 5530,
      "▁krem": 5531,
      "▁tramv": 5532,
      "▁900": 5533,
      "▁kık": 5534,
      "▁gununde": 5535,
      "▁yasamı": 5536,
      "▁yut": 5537,
      "▁der": 5538,
      "##'ni": 5539,
      "##bet": 5540,
      "▁diyet": 5541,
      "##laki": 5542,
      "▁0.31": 5543,
      "▁hastanın": 5544,
      "##liyordu": 5545,
      "▁huy": 5546,
      "##larımızı": 5547,
      "##ılma": 5548,
      "▁oylece": 5549,
      "##av": 5550,
      "▁yedigim": 5551,
      "##tuel": 5552,
      "▁ikisinin": 5553,
      "▁dinin": 5554,
      "▁she": 5555,
      "##00'e": 5556,
      "▁edilm": 5557,
      "▁tehdidi": 5558,
      "▁diy": 5559,
      "▁bebek": 5560,
      "▁car": 5561,
      "▁bany": 5562,
      "▁arkasına": 5563,
      "##uculuk": 5564,
      "▁animasyon": 5565,
      "##'sini": 5566,
      "▁muhaseb": 5567,
      "▁elden": 5568,
      "##/8'e": 5569,
      "▁topu": 5570,
      "▁arabası": 5571,
      "▁pent": 5572,
      "▁paya": 5573,
      "▁harman": 5574,
      "▁kadi": 5575,
      "▁inkıl": 5576,
      "▁dısındaki": 5577,
      "▁montreal": 5578,
      "▁suz": 5579,
      "▁dovus": 5580,
      "▁mahs": 5581,
      "▁fıldır": 5582,
      "▁renkleri": 5583,
      "▁sahada": 5584,
      "##'nunla": 5585,
      "▁zer": 5586,
      "▁$'a": 5587,
      "##ıs": 5588,
      "▁de": 5589,
      "▁kaynak": 5590,
      "▁bedel": 5591,
      "▁ontario": 5592,
      "▁manhattan": 5593,
      "##'lu": 5594,
      "▁hi": 5595,
      "▁saga": 5596,
      "▁viy": 5597,
      "▁ihtilal": 5598,
      "##e'ye": 5599,
      "▁kalabalık": 5600,
      "▁degerlendirmeye": 5601,
      "▁pınar": 5602,
      "##ohn": 5603,
      "▁olanaklari": 5604,
      "▁zev": 5605,
      "▁naz": 5606,
      "▁uygulan": 5607,
      "▁mit": 5608,
      "▁muhendislik": 5609,
      "▁aylardır": 5610,
      "▁tesekkur": 5611,
      "##ecegimi": 5612,
      "##liginin": 5613,
      "##furt": 5614,
      "▁ekip": 5615,
      "##digini": 5616,
      "##liligi": 5617,
      "##yim": 5618,
      "▁cikol": 5619,
      "▁gomle": 5620,
      "##masız": 5621,
      "##gan": 5622,
      "t": 5623,
      "##elerini": 5624,
      "▁abd'ye": 5625,
      "##eydi": 5626,
      "▁kirp": 5627,
      "▁buna": 5628,
      "▁kırım": 5629,
      "▁zeynep": 5630,
      "##liydi": 5631,
      "▁babasından": 5632,
      "▁mask": 5633,
      "##dıgını": 5634,
      "▁minneapolis": 5635,
      "##memisti": 5636,
      "▁1990": 5637,
      "▁saatinde": 5638,
      "▁yavasti": 5639,
      "▁kalab": 5640,
      "##mayan": 5641,
      "▁agacları": 5642,
      "▁etmeyecegini": 5643,
      "##ız": 5644,
      "▁muslum": 5645,
      "##'lik": 5646,
      "▁faturami": 5647,
      "▁yanıma": 5648,
      "▁yaglı": 5649,
      "▁alınır": 5650,
      "##ade": 5651,
      "▁anı": 5652,
      "▁erkeklerin": 5653,
      "▁ucret": 5654,
      "▁musterileri": 5655,
      "▁dikkate": 5656,
      "▁bulundugunu": 5657,
      "▁telafi": 5658,
      "▁oglan": 5659,
      "▁benimle": 5660,
      "▁siz": 5661,
      "▁1.4": 5662,
      "▁koleksiyon": 5663,
      "▁int": 5664,
      "▁kollarını": 5665,
      "##mekte": 5666,
      "▁sırtında": 5667,
      "▁yudum": 5668,
      "▁kayısı": 5669,
      "▁1.27": 5670,
      "▁emekli": 5671,
      "▁pen": 5672,
      "##lerim": 5673,
      "▁222": 5674,
      "▁acaktı": 5675,
      "▁ucmak": 5676,
      "▁yonetimin": 5677,
      "▁zafer": 5678,
      "▁51": 5679,
      "##*": 5680,
      "▁olacagı": 5681,
      "▁video": 5682,
      "▁gecirecek": 5683,
      "##bos": 5684,
      "▁ayrın": 5685,
      "▁gumruk": 5686,
      "▁analistler": 5687,
      "▁okulları": 5688,
      "##larsa": 5689,
      "##iye": 5690,
      "▁st.": 5691,
      "▁giz": 5692,
      "##apon": 5693,
      "▁daya": 5694,
      "▁onunde": 5695,
      "▁imkb": 5696,
      "▁indianapolis'e": 5697,
      "▁key": 5698,
      "▁hızını": 5699,
      "##risin": 5700,
      "▁olmamıs": 5701,
      "▁kafasını": 5702,
      "▁cir": 5703,
      "##$": 5704,
      "▁yetmi": 5705,
      "▁1977": 5706,
      "##dun": 5707,
      "▁andır": 5708,
      "▁hayattan": 5709,
      "▁u.s.": 5710,
      "▁istiyoruz": 5711,
      "▁otuz": 5712,
      "▁kalmadı": 5713,
      "▁calısmak": 5714,
      "▁yedek": 5715,
      "▁yengec": 5716,
      "▁degeri": 5717,
      "##.79": 5718,
      "▁satıcı": 5719,
      "▁apple": 5720,
      "▁direnis": 5721,
      "▁inc.,": 5722,
      "▁bush": 5723,
      "▁normaldi": 5724,
      "▁8.59": 5725,
      "▁1968": 5726,
      "▁insallah": 5727,
      "##lanta": 5728,
      "▁temizlikte": 5729,
      "▁degildir": 5730,
      "##etts": 5731,
      "▁ortalıkta": 5732,
      "##baz": 5733,
      "▁dergileri": 5734,
      "▁cos": 5735,
      "##lerden": 5736,
      "▁ceph": 5737,
      "▁2600": 5738,
      "▁cember": 5739,
      "▁gurult": 5740,
      "▁ayda": 5741,
      "▁maharet": 5742,
      "▁adnan": 5743,
      "##ezz": 5744,
      "▁toplar": 5745,
      "##ıldı": 5746,
      "▁mav": 5747,
      "▁mid": 5748,
      "▁gorunen": 5749,
      "##abilirdim": 5750,
      "▁akıyor": 5751,
      "▁fıstık": 5752,
      "##eli": 5753,
      "▁ayrım": 5754,
      "▁brown": 5755,
      "▁bahseder": 5756,
      "##ilmesine": 5757,
      "▁sanız": 5758,
      "▁kalıcı": 5759,
      "▁taklit": 5760,
      "▁mesut": 5761,
      "▁yuksekti": 5762,
      "▁yap": 5763,
      "▁tenis": 5764,
      "▁yapıyordu": 5765,
      "▁sarımsak": 5766,
      "▁kadınların": 5767,
      "▁mutlu": 5768,
      "▁tehdi": 5769,
      "▁merkezli": 5770,
      "▁planı": 5771,
      "##maların": 5772,
      "▁fakult": 5773,
      "▁istihbar": 5774,
      "##ayacak": 5775,
      "▁ayagını": 5776,
      "▁cıkarıl": 5777,
      "▁sokaktan": 5778,
      "▁yemeklerde": 5779,
      "▁nitelik": 5780,
      "▁kullanılan": 5781,
      "▁belirt": 5782,
      "▁gozden": 5783,
      "▁eminim": 5784,
      "##ime": 5785,
      "##ho": 5786,
      "▁kosulları": 5787,
      "##lasan": 5788,
      "##arken": 5789,
      "▁hac": 5790,
      "▁askı": 5791,
      "▁kabuk": 5792,
      "▁8": 5793,
      "▁aradilar": 5794,
      "##dr": 5795,
      "▁fakir": 5796,
      "▁koye": 5797,
      "▁acıklayan": 5798,
      "▁surucu": 5799,
      "▁koylu": 5800,
      "▁karsılastık": 5801,
      "▁dumduz": 5802,
      "▁olgun": 5803,
      "▁huseyin": 5804,
      "▁ozer": 5805,
      "▁serbet": 5806,
      "▁ongoru": 5807,
      "▁aylarında": 5808,
      "▁zan": 5809,
      "▁dunyası": 5810,
      "▁ven": 5811,
      "▁islemlerine": 5812,
      "▁dogrudan": 5813,
      "▁soyun": 5814,
      "▁kıl": 5815,
      "##imat": 5816,
      "▁donmek": 5817,
      "▁takımı": 5818,
      "▁arkadan": 5819,
      "▁tıpkı": 5820,
      "▁kart": 5821,
      "▁lezzetsizdi": 5822,
      "▁buhran": 5823,
      "▁yonlu": 5824,
      "▁bat": 5825,
      "▁tov": 5826,
      "▁tatili": 5827,
      "▁yardimci": 5828,
      "▁8.7": 5829,
      "##liam": 5830,
      "▁kayg": 5831,
      "▁yıgılmıs": 5832,
      "▁bakmıs": 5833,
      "▁sıgır": 5834,
      "▁yapacagını": 5835,
      "##men": 5836,
      "▁devletin": 5837,
      "▁devasa": 5838,
      "▁mul": 5839,
      "▁yaptıg": 5840,
      "▁%2": 5841,
      "▁salomon": 5842,
      "▁trilyon": 5843,
      "▁temettu": 5844,
      "##agına": 5845,
      "▁onbir": 5846,
      "▁hanimdi": 5847,
      "▁zırt": 5848,
      "▁ikibinuc": 5849,
      "▁bakalım": 5850,
      "▁sunuz": 5851,
      "▁fasulyesi": 5852,
      "▁hazret": 5853,
      "##emek": 5854,
      "▁etrafı": 5855,
      "d": 5856,
      "##ydı": 5857,
      "▁kiral": 5858,
      "▁bırakan": 5859,
      "##bire": 5860,
      "▁hizmetler": 5861,
      "▁mus": 5862,
      "▁vir": 5863,
      "▁nissan": 5864,
      "##day": 5865,
      "▁konuda": 5866,
      "▁gecin": 5867,
      "▁eksik": 5868,
      "▁camasır": 5869,
      "▁seattle'den": 5870,
      "##'u": 5871,
      "▁lezzetleri": 5872,
      "##ılması": 5873,
      "▁tasv": 5874,
      "▁yetiskin": 5875,
      "▁degismez": 5876,
      "▁bitmis": 5877,
      "##89-": 5878,
      "▁uyum": 5879,
      "▁demis": 5880,
      "▁vucud": 5881,
      "▁korudu": 5882,
      "##umlu": 5883,
      "▁cıkmıs": 5884,
      "▁yanık": 5885,
      "▁elini": 5886,
      "##ner": 5887,
      "##ebilirdi": 5888,
      "▁sinan": 5889,
      "▁surdurdu": 5890,
      "▁alcal": 5891,
      "▁hayatımız": 5892,
      "▁hane": 5893,
      "▁depremden": 5894,
      "▁benziyordu": 5895,
      "▁bekledi": 5896,
      "▁yola": 5897,
      "▁yemege": 5898,
      "##-k": 5899,
      "▁trt": 5900,
      "##vet": 5901,
      "##irleri": 5902,
      "▁hindistan'ın": 5903,
      "##etir": 5904,
      "▁niz": 5905,
      "▁deyim": 5906,
      "▁dolma": 5907,
      "▁ilham": 5908,
      "##edildi": 5909,
      "▁vardı": 5910,
      "▁aran": 5911,
      "▁gorul": 5912,
      "##ıcak": 5913,
      "▁yuregi": 5914,
      "▁eksikti": 5915,
      "##asıp": 5916,
      "▁soylemis": 5917,
      "▁idari": 5918,
      "▁eder": 5919,
      "▁stock": 5920,
      "▁geregi": 5921,
      "##'dir": 5922,
      "▁whit": 5923,
      "▁kurtulur": 5924,
      "▁fen": 5925,
      "##ilerdi": 5926,
      "▁havaliman": 5927,
      "##usuna": 5928,
      "▁102": 5929,
      "▁bilmiyordu": 5930,
      "▁getirilerinin": 5931,
      "▁hissedarlar": 5932,
      "▁ustu": 5933,
      "▁yatırım": 5934,
      "▁alısver": 5935,
      "▁seftali": 5936,
      "▁gecmeye": 5937,
      "▁ceylan": 5938,
      "▁gezi": 5939,
      "▁pemex": 5940,
      "##ınızda": 5941,
      "##eceginden": 5942,
      "▁gazetenin": 5943,
      "▁imkansız": 5944,
      "▁5000": 5945,
      "▁dalgın": 5946,
      "▁hanım'ın": 5947,
      "##da": 5948,
      "▁%6.9": 5949,
      "▁elem": 5950,
      "▁vesik": 5951,
      "▁tr": 5952,
      "##hut": 5953,
      "▁amator": 5954,
      "##eme": 5955,
      "▁fıkır": 5956,
      "▁gorev": 5957,
      "0": 5958,
      "▁dusmanı": 5959,
      "°": 5960,
      "##iliyor": 5961,
      "▁topar": 5962,
      "▁aylar": 5963,
      "▁katilmak": 5964,
      "▁cın": 5965,
      "▁bini": 5966,
      "##layarak": 5967,
      "’": 5968,
      "##lerde": 5969,
      "▁aktif": 5970,
      "##emey": 5971,
      "▁kucuk": 5972,
      "▁muhafız": 5973,
      "▁%7.875": 5974,
      "##oluk": 5975,
      "##ban": 5976,
      "##isse": 5977,
      "▁sekil": 5978,
      "##aman": 5979,
      "▁baker": 5980,
      "▁ustundeki": 5981,
      "▁rahatsızlık": 5982,
      "▁surdurmek": 5983,
      "▁numarasını": 5984,
      "▁sat": 5985,
      "▁dolasır": 5986,
      "▁olayda": 5987,
      "▁olume": 5988,
      "▁zem": 5989,
      "▁agar": 5990,
      "▁sizinle": 5991,
      "▁aldan": 5992,
      "▁teker": 5993,
      "▁fonu": 5994,
      "▁guldu": 5995,
      "▁seyleri": 5996,
      "▁7.2": 5997,
      "▁takımının": 5998,
      "▁edilmistir": 5999,
      "##larım": 6000,
      "▁eksi": 6001,
      "▁kendimden": 6002,
      "▁sessiz": 6003,
      "▁sesi": 6004,
      "▁gecit": 6005,
      "▁olc": 6006,
      "##leye": 6007,
      "▁romanı": 6008,
      "▁karları": 6009,
      "▁tahvilleri": 6010,
      "▁istifade": 6011,
      "##isiz": 6012,
      "▁hadis": 6013,
      "▁ailece": 6014,
      "▁kutuk": 6015,
      "▁bakarak": 6016,
      "##.06": 6017,
      "##tas": 6018,
      "▁hıckır": 6019,
      "▁es": 6020,
      "▁soylenen": 6021,
      "▁milyondan": 6022,
      "▁birligi": 6023,
      "▁hosgor": 6024,
      "▁hafız": 6025,
      "##arl": 6026,
      "▁paralel": 6027,
      "##unik": 6028,
      "##eliyor": 6029,
      "▁doy": 6030,
      "##diy": 6031,
      "▁yusu": 6032,
      "▁tuh": 6033,
      "▁bunu": 6034,
      "▁taleb": 6035,
      "##gulu": 6036,
      "##ug": 6037,
      "##'ya": 6038,
      "▁gunlerin": 6039,
      "▁yazıya": 6040,
      "##egen": 6041,
      "▁dısisleri": 6042,
      "▁ok": 6043,
      "▁fazl": 6044,
      "▁oldum": 6045,
      "▁kib": 6046,
      "▁louis'ten": 6047,
      "▁donen": 6048,
      "▁zamanında": 6049,
      "▁piyan": 6050,
      "▁fok": 6051,
      "▁internet": 6052,
      "##sel": 6053,
      "▁jand": 6054,
      "▁isy": 6055,
      "▁soyluyordu": 6056,
      "##elerce": 6057,
      "▁asılı": 6058,
      "▁viski": 6059,
      "▁kıran": 6060,
      "▁kıvıl": 6061,
      "▁vadesi": 6062,
      "▁azından": 6063,
      "▁kiracı": 6064,
      "##230": 6065,
      "▁miss": 6066,
      "▁hasar": 6067,
      "##ma": 6068,
      "▁kızar": 6069,
      "▁olanların": 6070,
      "▁cagdas": 6071,
      "▁badem": 6072,
      "▁efsan": 6073,
      "▁kul": 6074,
      "▁ilk": 6075,
      "▁korun": 6076,
      "▁oynayan": 6077,
      "##sık": 6078,
      "▁liradan": 6079,
      "##ularak": 6080,
      "▁ogrendi": 6081,
      "▁hey": 6082,
      "##emezler": 6083,
      "▁oldu": 6084,
      "▁yır": 6085,
      "##lbu": 6086,
      "▁yamalak": 6087,
      "▁ere": 6088,
      "##bank": 6089,
      "▁associ": 6090,
      "##iness": 6091,
      "▁anadolu'da": 6092,
      "▁atar": 6093,
      "▁haberdar": 6094,
      "▁uykuya": 6095,
      "▁havanın": 6096,
      "▁surdugu": 6097,
      "▁baklav": 6098,
      "##tu": 6099,
      "▁musait": 6100,
      "▁gelisi": 6101,
      "▁felsefe": 6102,
      "▁yonelt": 6103,
      "##amadim": 6104,
      "▁banka": 6105,
      "##cılık": 6106,
      "▁bakın": 6107,
      "▁cesaretini": 6108,
      "▁sevgili": 6109,
      "##.46": 6110,
      "▁go": 6111,
      "▁3135": 6112,
      "▁borsası": 6113,
      "▁eczacı": 6114,
      "▁davanın": 6115,
      "▁parasını": 6116,
      "▁aksamki": 6117,
      "▁olmadan": 6118,
      "▁list": 6119,
      "▁gecik": 6120,
      "▁yasadigim": 6121,
      "▁hastaneye": 6122,
      "▁dondu": 6123,
      "▁lunapark": 6124,
      "▁hasarı": 6125,
      "▁sanayi": 6126,
      "l": 6127,
      "▁kıp": 6128,
      "▁taksi": 6129,
      "▁amel": 6130,
      "▁otomobiller": 6131,
      "▁hukumete": 6132,
      "▁iyimser": 6133,
      "##50": 6134,
      "▁lond": 6135,
      "▁tarihi": 6136,
      "▁fırladı": 6137,
      "▁uzaklastır": 6138,
      "▁19.7": 6139,
      "##acagından": 6140,
      "▁ayak": 6141,
      "▁domuz": 6142,
      "##antep": 6143,
      "▁ille": 6144,
      "▁getirin": 6145,
      "##masi": 6146,
      "▁muttefik": 6147,
      "▁gorme": 6148,
      "##aat": 6149,
      "▁tarlayı": 6150,
      "##esem": 6151,
      "▁istiyor": 6152,
      "▁yalvar": 6153,
      "▁sınırlarını": 6154,
      "▁secim": 6155,
      "▁yuce": 6156,
      "##ir'in": 6157,
      "▁jose'den": 6158,
      "▁simsek": 6159,
      "▁tım": 6160,
      "##eceksin": 6161,
      "▁ikibiniki": 6162,
      "▁ulk": 6163,
      "▁musterilere": 6164,
      "▁sevdigi": 6165,
      "▁restor": 6166,
      "##o'ya": 6167,
      "▁antik": 6168,
      "▁gorusmedik": 6169,
      "▁telas": 6170,
      "##ico": 6171,
      "##eler": 6172,
      "##lamıstır": 6173,
      "▁ihtiyat": 6174,
      "▁taban": 6175,
      "##usunu": 6176,
      "▁miktarda": 6177,
      "▁columbus'a": 6178,
      "▁karaya": 6179,
      "▁garanti": 6180,
      "▁uc": 6181,
      "##adir": 6182,
      "▁cıkarmak": 6183,
      "▁degisiklik": 6184,
      "▁sut": 6185,
      "##ular": 6186,
      "▁kanser": 6187,
      "▁kalmamıstı": 6188,
      "▁alıcılar": 6189,
      "▁sınıf": 6190,
      "▁olmaktan": 6191,
      "▁kalmaya": 6192,
      "▁bildik": 6193,
      "▁gorduk": 6194,
      "▁kasabaya": 6195,
      "▁kurek": 6196,
      "▁kargo": 6197,
      "▁gecirdik": 6198,
      "▁konusmak": 6199,
      "▁silk": 6200,
      "▁abd": 6201,
      "▁mıyız": 6202,
      "▁ken": 6203,
      "▁oynar": 6204,
      "▁gormezden": 6205,
      "▁keser": 6206,
      "▁cabası": 6207,
      "▁sinek": 6208,
      "▁heves": 6209,
      "##.76": 6210,
      "##ibi": 6211,
      "##aksız": 6212,
      "▁miydik": 6213,
      "▁yılı": 6214,
      "▁hemen": 6215,
      "▁cat": 6216,
      "▁komunist": 6217,
      "##yla": 6218,
      "▁fat": 6219,
      "▁parkın": 6220,
      "▁kucums": 6221,
      "▁143": 6222,
      "▁cav": 6223,
      "▁10000": 6224,
      "▁arka": 6225,
      "▁hazırlanır": 6226,
      "▁130": 6227,
      "##sek": 6228,
      "##cisi": 6229,
      "▁2.": 6230,
      "▁olumune": 6231,
      "▁meydan": 6232,
      "▁olurdum": 6233,
      "##isleri": 6234,
      "▁yazıl": 6235,
      "▁geldim": 6236,
      "##lamıstı": 6237,
      "▁tulum": 6238,
      "▁acik": 6239,
      "▁petersburg": 6240,
      "▁bunca": 6241,
      "▁edecekti": 6242,
      "▁tın": 6243,
      "▁17.01": 6244,
      "▁istanbul'un": 6245,
      "▁getiriyor": 6246,
      "##manın": 6247,
      "▁baskanı": 6248,
      "▁donuyor": 6249,
      "▁campeau": 6250,
      "▁26": 6251,
      "##uza": 6252,
      "##ems": 6253,
      "▁...": 6254,
      "▁olcek": 6255,
      "##.23": 6256,
      "▁6.5": 6257,
      "▁bulgur": 6258,
      "▁70": 6259,
      "##sun": 6260,
      "##emi": 6261,
      "▁parca": 6262,
      "##pen": 6263,
      "▁bi": 6264,
      "▁menek": 6265,
      "##ehan": 6266,
      "▁corp.": 6267,
      "▁nok": 6268,
      "▁rady": 6269,
      "▁hekim": 6270,
      "▁cebinden": 6271,
      "▁susuz": 6272,
      "▁pik": 6273,
      "▁kurtarma": 6274,
      "▁44877": 6275,
      "▁memnuniyeti": 6276,
      "▁besik": 6277,
      "##ans": 6278,
      "▁nazaran": 6279,
      "▁kendinin": 6280,
      "▁firmalar": 6281,
      "##min": 6282,
      "##ıklı": 6283,
      "▁3640": 6284,
      "▁15000": 6285,
      "▁newark": 6286,
      "▁43.3": 6287,
      "▁reklamları": 6288,
      "▁sonra": 6289,
      "▁bulunmak": 6290,
      "▁pismis": 6291,
      "▁li": 6292,
      "##leyi": 6293,
      "▁1200": 6294,
      "▁iyilerdi": 6295,
      "▁ogrenc": 6296,
      "##burg": 6297,
      "▁fındık": 6298,
      "▁gordu": 6299,
      "▁minne": 6300,
      "▁paris'te": 6301,
      "▁fenerbah": 6302,
      "##ume": 6303,
      "▁meseleler": 6304,
      "▁alındı": 6305,
      "##9.5": 6306,
      "▁yerine": 6307,
      "▁orijinal": 6308,
      "▁'l": 6309,
      "▁tesaduf": 6310,
      "▁sıkıntısı": 6311,
      "▁maruz": 6312,
      "▁borsacılara": 6313,
      "##'nin": 6314,
      "##3.2": 6315,
      "▁kavg": 6316,
      "▁endi": 6317,
      "▁cambaz": 6318,
      "▁kahkaha": 6319,
      "▁esdeger": 6320,
      "##latan": 6321,
      "▁odada": 6322,
      "▁cevresel": 6323,
      "##eleme": 6324,
      "▁yeryuz": 6325,
      "▁county": 6326,
      "##bul": 6327,
      "▁lezzeti": 6328,
      "##anlık": 6329,
      "▁si": 6330,
      "▁sermaye": 6331,
      "▁poy": 6332,
      "▁parıl": 6333,
      "##larımı": 6334,
      "##iyer": 6335,
      "##eksiyon": 6336,
      "▁derdi": 6337,
      "▁lamb": 6338,
      "▁demokrat": 6339,
      "##aca": 6340,
      "▁dolas": 6341,
      "▁paranin": 6342,
      "▁home": 6343,
      "##delen": 6344,
      "▁sorunlarına": 6345,
      "▁verecegim": 6346,
      "▁yuksek": 6347,
      "##ab": 6348,
      "▁vergil": 6349,
      "▁milyona": 6350,
      "##0.33": 6351,
      "▁mevsim": 6352,
      "▁500'u": 6353,
      "▁basıyor": 6354,
      "▁mez": 6355,
      "▁kabak": 6356,
      "▁ucyuzyetmisbir": 6357,
      "▁plas": 6358,
      "##demir": 6359,
      "▁konusmanın": 6360,
      "▁peters": 6361,
      "▁vil": 6362,
      "▁bakıma": 6363,
      "▁halk": 6364,
      "▁deneme": 6365,
      "▁yoneten": 6366,
      "▁kutup": 6367,
      "▁cırpın": 6368,
      "▁jo": 6369,
      "▁baktıg": 6370,
      "▁297": 6371,
      "##onel": 6372,
      "▁buf": 6373,
      "▁otom": 6374,
      "##mey": 6375,
      "##kara": 6376,
      "▁modern": 6377,
      "▁newark'tan": 6378,
      "▁turb": 6379,
      "▁tatilimiz": 6380,
      "▁pisman": 6381,
      "▁zarar": 6382,
      "▁kanıt": 6383,
      "▁04": 6384,
      "▁yetki": 6385,
      "▁caf": 6386,
      "▁isciler": 6387,
      "##amıslar": 6388,
      "##gur": 6389,
      "▁kapı": 6390,
      "▁bran": 6391,
      "▁francisco'dan": 6392,
      "▁goturuyor": 6393,
      "▁yıl": 6394,
      "##ustur": 6395,
      "▁siir": 6396,
      "▁gittigim": 6397,
      "▁asfalt": 6398,
      "▁gosterg": 6399,
      "##ekk": 6400,
      "▁buldular": 6401,
      "##dıgımı": 6402,
      "[PAD]": 6403,
      "##iskin": 6404,
      "▁carsaf": 6405,
      "▁550": 6406,
      "▁sarsın": 6407,
      "##alarım": 6408,
      "##amıza": 6409,
      "##ackard": 6410,
      "▁rit": 6411,
      "▁sistemini": 6412,
      "▁ener": 6413,
      "▁evleri": 6414,
      "▁geyik": 6415,
      "▁arkadasını": 6416,
      "▁parayı": 6417,
      "▁belirsiz": 6418,
      "##.ceyrek": 6419,
      "▁mavi": 6420,
      "▁milyonlarca": 6421,
      "▁alan": 6422,
      "▁bilg": 6423,
      "▁guvertede": 6424,
      "▁1988'de": 6425,
      "▁bolgesinde": 6426,
      "▁annesi": 6427,
      "▁sız": 6428,
      "▁yaradı": 6429,
      "▁long": 6430,
      "##inden": 6431,
      "##ılıyordu": 6432,
      "▁satılık": 6433,
      "##eliyiz": 6434,
      "▁ilginc": 6435,
      "##-23": 6436,
      "▁philadelphia": 6437,
      "▁planda": 6438,
      "▁coktan": 6439,
      "▁dolandır": 6440,
      "▁yaptır": 6441,
      "##ılıgıyla": 6442,
      "##verir": 6443,
      "▁macer": 6444,
      "▁rum": 6445,
      "▁tesh": 6446,
      "▁kulub": 6447,
      "▁sectik": 6448,
      "##ılıgını": 6449,
      "▁populer": 6450,
      "▁dustuk": 6451,
      "##aktan": 6452,
      "▁imkan": 6453,
      "##taj": 6454,
      "▁pahalı": 6455,
      "▁lee": 6456,
      "▁halbu": 6457,
      "▁tamir": 6458,
      "▁munaseb": 6459,
      "▁hoca": 6460,
      "▁kil": 6461,
      "▁kabugu": 6462,
      "▁nobetci": 6463,
      "##ick": 6464,
      "##lt": 6465,
      "▁konak": 6466,
      "▁yukselirken": 6467,
      "▁cekmec": 6468,
      "▁5.94": 6469,
      "▁yoz": 6470,
      "▁bizleri": 6471,
      "▁ses": 6472,
      "▁basını": 6473,
      "▁10.3": 6474,
      "▁tep": 6475,
      "▁re": 6476,
      "▁bizimle": 6477,
      "▁salonu": 6478,
      "▁bicimi": 6479,
      "▁yurudu": 6480,
      "▁prebon": 6481,
      "##tım": 6482,
      "▁anlasmanın": 6483,
      "▁hayv": 6484,
      "▁giyim": 6485,
      "▁suresince": 6486,
      "▁disk": 6487,
      "▁'de": 6488,
      "##ıma": 6489,
      "##leme": 6490,
      "▁kalanlar": 6491,
      "▁aykırı": 6492,
      "▁mal": 6493,
      "##eb": 6494,
      "▁tutuk": 6495,
      "▁kapital": 6496,
      "▁makineler": 6497,
      "▁tucc": 6498,
      "##dıkları": 6499,
      "▁yasamını": 6500,
      "##sler": 6501,
      "▁kagıdı": 6502,
      "▁surecin": 6503,
      "▁63.52": 6504,
      "▁koprunun": 6505,
      "▁musluman": 6506,
      "▁sesler": 6507,
      "▁bazılarını": 6508,
      "##oglan": 6509,
      "▁sıngır": 6510,
      "▁divan": 6511,
      "##macılar": 6512,
      "▁l": 6513,
      "▁yonlendirdi": 6514,
      "▁kararsizim": 6515,
      "▁sayesinde": 6516,
      "▁gormus": 6517,
      "▁oynamıs": 6518,
      "▁aktiviteler": 6519,
      "▁soyleyebilir": 6520,
      "▁geliyordu": 6521,
      "▁nicin": 6522,
      "##oca": 6523,
      "▁evr": 6524,
      "▁dusunmek": 6525,
      "##maktadırlar": 6526,
      "▁mech": 6527,
      "##9.7": 6528,
      "▁dıs": 6529,
      "##agımı": 6530,
      "▁yazısı": 6531,
      "▁hayvanlar": 6532,
      "##larla": 6533,
      "##ts": 6534,
      "##ineweb": 6535,
      "▁cik": 6536,
      "##urluge": 6537,
      "▁toreni": 6538,
      "▁kısacası": 6539,
      "▁kanunu": 6540,
      "▁etmektedir": 6541,
      "▁tedbir": 6542,
      "▁haziran": 6543,
      "##bel": 6544,
      "▁yaratıcı": 6545,
      "##ina": 6546,
      "▁ucer": 6547,
      "▁tabidir": 6548,
      "▁damla": 6549,
      "▁cekic": 6550,
      "▁evine": 6551,
      "##duz": 6552,
      "▁bilgilendir": 6553,
      "##hos": 6554,
      "▁sirketlerini": 6555,
      "▁tuketici": 6556,
      "▁mec": 6557,
      "▁girince": 6558,
      "▁nesn": 6559,
      "▁olmadıgına": 6560,
      "##uye": 6561,
      "▁ucretini": 6562,
      "##ishi": 6563,
      "▁materyal": 6564,
      "▁dolasıyor": 6565,
      "▁annesine": 6566,
      "▁bagırsak": 6567,
      "▁verirler": 6568,
      "▁steph": 6569,
      "▁87.5": 6570,
      "##leyin": 6571,
      "▁dis": 6572,
      "▁butce": 6573,
      "▁anlamıyla": 6574,
      "▁usulca": 6575,
      "▁refah": 6576,
      "▁v": 6577,
      "##0.60": 6578,
      "▁kurulunun": 6579,
      "##ima": 6580,
      "▁tarife": 6581,
      "##-": 6582,
      "▁bulas": 6583,
      "▁ciddiye": 6584,
      "▁pitt": 6585,
      "##aza": 6586,
      "▁1.375": 6587,
      "##malık": 6588,
      "▁fransa'da": 6589,
      "▁australia": 6590,
      "▁oldugunuzu": 6591,
      "##ala": 6592,
      "▁deg": 6593,
      "##8.3": 6594,
      "##lardi": 6595,
      "##mıyoruz": 6596,
      "▁filan": 6597,
      "##eyman": 6598,
      "▁bolumunun": 6599,
      "▁yaklasık": 6600,
      "##io": 6601,
      "▁korku": 6602,
      "▁kimsen": 6603,
      "##acılar": 6604,
      "▁surecinde": 6605,
      "▁getirmisti": 6606,
      "##3'te": 6607,
      "▁tey": 6608,
      "▁pot": 6609,
      "##ranc": 6610,
      "▁gevset": 6611,
      "▁12.6": 6612,
      "▁sizlere": 6613,
      "##larca": 6614,
      "##-f": 6615,
      "▁cost": 6616,
      "▁a.b.d.": 6617,
      "▁acakt": 6618,
      "▁birimize": 6619,
      "▁montreal'dan": 6620,
      "▁1.8": 6621,
      "▁comert": 6622,
      "▁otomatik": 6623,
      "▁holly": 6624,
      "▁sirket": 6625,
      "▁aleyh": 6626,
      "##di": 6627,
      "▁olamaz": 6628,
      "▁personellerden": 6629,
      "▁milliyet": 6630,
      "▁tuccarlar": 6631,
      "▁tabiat": 6632,
      "▁edilmektedir": 6633,
      "▁giderim": 6634,
      "▁karsısındaki": 6635,
      "▁baskal": 6636,
      "▁yasin": 6637,
      "▁89-": 6638,
      "▁sit": 6639,
      "▁gum": 6640,
      "▁oynuyor": 6641,
      "##eciler": 6642,
      "##alas": 6643,
      "▁...\"": 6644,
      "▁teklif": 6645,
      "▁yetkilisi": 6646,
      "▁cozum": 6647,
      "▁4:30": 6648,
      "▁belirley": 6649,
      "▁kapas": 6650,
      "▁bitmisti": 6651,
      "▁gelince": 6652,
      "▁yavas": 6653,
      "▁7.9": 6654,
      "▁yitir": 6655,
      "▁turuna": 6656,
      "▁ekonomisi": 6657,
      "▁hut": 6658,
      "##elleb": 6659,
      "▁dudak": 6660,
      "▁karam": 6661,
      "▁ucmam": 6662,
      "▁dusuyor": 6663,
      "▁duyul": 6664,
      "▁kef": 6665,
      "▁quebec": 6666,
      "▁cihan": 6667,
      "▁birin": 6668,
      "▁zel": 6669,
      "▁bedi": 6670,
      "▁cevr": 6671,
      "##tıg": 6672,
      "▁curuk": 6673,
      "▁a.": 6674,
      "▁par": 6675,
      "▁gerektigine": 6676,
      "▁yukselmesine": 6677,
      "▁pis": 6678,
      "▁satıcılar": 6679,
      "▁ortalama": 6680,
      "▁sahit": 6681,
      "##.05": 6682,
      "▁kırm": 6683,
      "▁sehrinden": 6684,
      "▁cansız": 6685,
      "▁olmadigini": 6686,
      "▁zeyn": 6687,
      "##uklu": 6688,
      "▁verecektir": 6689,
      "▁zararlı": 6690,
      "##elle": 6691,
      "##p": 6692,
      "##mil": 6693,
      "▁bekleniyordu": 6694,
      "▁yumru": 6695,
      "##dal": 6696,
      "##rin": 6697,
      "##eyt": 6698,
      "▁senet": 6699,
      "▁marj": 6700,
      "##nek": 6701,
      "##akin": 6702,
      "▁city'e": 6703,
      "▁tepe": 6704,
      "▁kemik": 6705,
      "▁kapsam": 6706,
      "▁tatlı": 6707,
      "▁degerlendirmek": 6708,
      "▁arz": 6709,
      "▁fab": 6710,
      "##vey": 6711,
      "##aseb": 6712,
      "▁basta": 6713,
      "▁%2.7": 6714,
      "▁atmosfer": 6715,
      "▁gidilebilecek": 6716,
      "▁gormedi": 6717,
      "▁kopar": 6718,
      "▁celisk": 6719,
      "▁karma": 6720,
      "▁cıkarak": 6721,
      "▁ecektik": 6722,
      "▁45": 6723,
      "▁sarsıntı": 6724,
      "▁dusuruyor": 6725,
      "##lıgım": 6726,
      "##'dır": 6727,
      "▁paz": 6728,
      "▁ayrica": 6729,
      "▁yazdı": 6730,
      "▁demokratlar": 6731,
      "▁columbus": 6732,
      "##'y": 6733,
      "▁yanisira": 6734,
      "▁bonosu": 6735,
      "▁almadim": 6736,
      "▁cehenn": 6737,
      "▁atmak": 6738,
      "y": 6739,
      "##iyet": 6740,
      "▁iscilerin": 6741,
      "##gunden": 6742,
      "▁uyustur": 6743,
      "##unda": 6744,
      "▁gelmek": 6745,
      "▁gazetecilik": 6746,
      "▁tasır": 6747,
      "▁charlotte'den": 6748,
      "▁financial": 6749,
      "▁ld": 6750,
      "▁oralarda": 6751,
      "##wa": 6752,
      "▁kalkan": 6753,
      "▁hele": 6754,
      "▁tarif": 6755,
      "▁genel": 6756,
      "▁cıldır": 6757,
      "▁3/32": 6758,
      "▁pound": 6759,
      "▁sıradan": 6760,
      "▁belirlenen": 6761,
      "▁kız": 6762,
      "##larımın": 6763,
      "▁suredir": 6764,
      "##ecegini": 6765,
      "##bes": 6766,
      "▁ram": 6767,
      "▁kılıc": 6768,
      "##ınız": 6769,
      "▁saglay": 6770,
      "##nız": 6771,
      "##ler'in": 6772,
      "▁gorevlileri": 6773,
      "▁temsilcileri": 6774,
      "##ekli": 6775,
      "##eral": 6776,
      "##hard": 6777,
      "▁erbak": 6778,
      "▁ilgilenmediler": 6779,
      "##gumu": 6780,
      "##sev": 6781,
      "##ilecek": 6782,
      "▁turkiye'ye": 6783,
      "▁yaparak": 6784,
      "▁800": 6785,
      "▁kararını": 6786,
      "▁gosterdi": 6787,
      "▁makine": 6788,
      "▁hedef": 6789,
      "▁dagın": 6790,
      "▁getir": 6791,
      "▁180": 6792,
      "▁abla": 6793,
      "▁desen": 6794,
      "##80000": 6795,
      "▁minik": 6796,
      "##oeni": 6797,
      "##larımızın": 6798,
      "▁kacamak": 6799,
      "▁nush": 6800,
      "##ali": 6801,
      "▁sirk": 6802,
      "▁komun": 6803,
      "##bek": 6804,
      "▁ihtiyacını": 6805,
      "▁0.45": 6806,
      "▁sas": 6807,
      "▁degerini": 6808,
      "▁duserek": 6809,
      "▁diyorum": 6810,
      "▁%6": 6811,
      "##dalar": 6812,
      "▁gosterirler": 6813,
      "▁hayli": 6814,
      "##ilerek": 6815,
      "▁sebeb": 6816,
      "▁bakısı": 6817,
      "▁fin": 6818,
      "▁hediy": 6819,
      "▁haksızlık": 6820,
      "▁gecmeden": 6821,
      "▁kendisiyle": 6822,
      "▁bazında": 6823,
      "##lamaz": 6824,
      "▁zor": 6825,
      "▁vurguladı": 6826,
      "##isco": 6827,
      "▁ulkemiz": 6828,
      "▁serkan": 6829,
      "##usten": 6830,
      "▁r.": 6831,
      "▁surgun": 6832,
      "▁pamuk": 6833,
      "##lana": 6834,
      "##lerimizin": 6835,
      "▁izleri": 6836,
      "▁etm": 6837,
      "▁evladı": 6838,
      "▁pesin": 6839,
      "▁plani": 6840,
      "▁gelin": 6841,
      "▁oluyordu": 6842,
      "▁emr": 6843,
      "▁5.5": 6844,
      "▁sırası": 6845,
      "▁doldurdu": 6846,
      "▁kerv": 6847,
      "▁istekler": 6848,
      "▁kızart": 6849,
      "▁1.80": 6850,
      "▁donduk": 6851,
      "▁burbank'a": 6852,
      "▁cra": 6853,
      "▁halli": 6854,
      "##imis": 6855,
      "▁an": 6856,
      "▁taze": 6857,
      "##gru": 6858,
      "▁zeh": 6859,
      "##8'e": 6860,
      "▁yuf": 6861,
      "▁ilce": 6862,
      "▁bayramı": 6863,
      "▁128": 6864,
      "▁genclerin": 6865,
      "##abiliyor": 6866,
      "##ulugunu": 6867,
      "▁gelistirmek": 6868,
      "▁evlen": 6869,
      "##izdi": 6870,
      "▁satılan": 6871,
      "▁kendileri": 6872,
      "▁ayırt": 6873,
      "▁yıla": 6874,
      "##digimi": 6875,
      "##otiv": 6876,
      "▁soyledim": 6877,
      "▁burcu": 6878,
      "▁duzenley": 6879,
      "▁beyefendi": 6880,
      "▁david": 6881,
      "▁soyledikleri": 6882,
      "##ebilecek": 6883,
      "▁derhal": 6884,
      "▁dısarıdan": 6885,
      "▁3.7": 6886,
      "##3.5": 6887,
      "▁finc": 6888,
      "▁menfaat": 6889,
      "▁belki": 6890,
      "▁icerdigi": 6891,
      "▁tesisin": 6892,
      "▁heyecan": 6893,
      "▁kirlilik": 6894,
      "▁ing": 6895,
      "##ılıgı": 6896,
      "▁7'den": 6897,
      "▁kendine": 6898,
      "▁2'den": 6899,
      "▁sivri": 6900,
      "▁geldi": 6901,
      "##ınıza": 6902,
      "▁ilahi": 6903,
      "▁kartal": 6904,
      "▁haykır": 6905,
      "▁sarar": 6906,
      "▁sıcr": 6907,
      "▁tasvir": 6908,
      "▁tacoma'dan": 6909,
      "##roit": 6910,
      "▁edelim": 6911,
      "▁34": 6912,
      "▁cesi": 6913,
      "▁hikmet": 6914,
      "##amanın": 6915,
      "▁benden": 6916,
      "▁gozlerini": 6917,
      "▁2009": 6918,
      "▁aileler": 6919,
      "▁develop": 6920,
      "##eveyn": 6921,
      "##dın": 6922,
      "▁ambal": 6923,
      "▁%4": 6924,
      "▁bekley": 6925,
      "▁bardagı": 6926,
      "▁makaleye": 6927,
      "▁mosk": 6928,
      "▁destekli": 6929,
      "▁kocası": 6930,
      "##q": 6931,
      "▁1.79": 6932,
      "▁ertesi": 6933,
      "▁ist": 6934,
      "▁plat": 6935,
      "▁olabilir": 6936,
      "▁tarzı": 6937,
      "▁corba": 6938,
      "▁birilerinin": 6939,
      "▁bar": 6940,
      "▁otor": 6941,
      "▁subay": 6942,
      "▁yardımcısıydı": 6943,
      "▁bulur": 6944,
      "▁fas": 6945,
      "##adel": 6946,
      "▁faaliyetleri": 6947,
      "▁duruyorlar": 6948,
      "▁menfa": 6949,
      "▁degismis": 6950,
      "▁kuba": 6951,
      "##edef": 6952,
      "▁toronto'dan": 6953,
      "▁sonrası": 6954,
      "▁hakaret": 6955,
      "▁kon": 6956,
      "▁airlines": 6957,
      "##3'e": 6958,
      "▁halkı": 6959,
      "##use": 6960,
      "▁kazanmak": 6961,
      "▁mart": 6962,
      "▁cas": 6963,
      "▁kere": 6964,
      "▁sozune": 6965,
      "##adılar": 6966,
      "▁yavaslama": 6967,
      "▁dokul": 6968,
      "▁katkı": 6969,
      "▁1.55": 6970,
      "▁ını": 6971,
      "▁sokul": 6972,
      "▁yolc": 6973,
      "▁piyango": 6974,
      "▁sih": 6975,
      "▁varmadan": 6976,
      "▁trans": 6977,
      "▁derler": 6978,
      "▁chp": 6979,
      "▁seans": 6980,
      "▁iceriden": 6981,
      "▁cografya": 6982,
      "▁savur": 6983,
      "▁pazar": 6984,
      "▁tasf": 6985,
      "##altı": 6986,
      "▁anlasması": 6987,
      "▁piyasasının": 6988,
      "▁kaba": 6989,
      "##2.9": 6990,
      "▁one": 6991,
      "▁okurdu": 6992,
      "##ukee": 6993,
      "▁%25": 6994,
      "▁bed": 6995,
      "##ois": 6996,
      "▁basladım": 6997,
      "▁oldugunda": 6998,
      "##hire": 6999,
      "##goz": 7000,
      "▁takıldı": 7001,
      "##lass": 7002,
      "▁tamamıyla": 7003,
      "▁catısma": 7004,
      "##.15": 7005,
      "▁barut": 7006,
      "▁cekistir": 7007,
      "##isten": 7008,
      "▁kusku": 7009,
      "##46": 7010,
      "▁530": 7011,
      "▁birinden": 7012,
      "##baren": 7013,
      "▁balıgı": 7014,
      "▁bos": 7015,
      "▁oksuruk": 7016,
      "▁hu": 7017,
      "▁dogrult": 7018,
      "▁ar": 7019,
      "▁bulmus": 7020,
      "##mayın": 7021,
      "##abilecegini": 7022,
      "▁yasın": 7023,
      "▁ihtimalle": 7024,
      "▁temp": 7025,
      "▁aktarmasız": 7026,
      "▁nac": 7027,
      "▁onemi": 7028,
      "##omur": 7029,
      "##biy": 7030,
      "▁mars": 7031,
      "▁hacm": 7032,
      "▁tadima": 7033,
      "##alog": 7034,
      "##ladıklarını": 7035,
      "▁fiyatlarını": 7036,
      "▁sevk": 7037,
      "▁panama": 7038,
      "▁cektik": 7039,
      "▁parlak": 7040,
      "▁.7": 7041,
      "▁heykel": 7042,
      "▁tanıtım": 7043,
      "▁ayından": 7044,
      "##7000": 7045,
      "▁asset": 7046,
      "▁sur": 7047,
      "▁ait": 7048,
      "▁--": 7049,
      "##lamanın": 7050,
      "▁dekorasyonu": 7051,
      "▁mur": 7052,
      "▁koku": 7053,
      "▁sebek": 7054,
      "▁gayet": 7055,
      "▁muhtesem": 7056,
      "##dayan": 7057,
      "▁cicekler": 7058,
      "▁arası": 7059,
      "▁etraf": 7060,
      "▁tampa": 7061,
      "▁omr": 7062,
      "##de": 7063,
      "▁muv": 7064,
      "▁musun": 7065,
      "▁espr": 7066,
      "▁ekstra": 7067,
      "##ile": 7068,
      "▁pap": 7069,
      "▁reak": 7070,
      "▁7'de": 7071,
      "##esiydi": 7072,
      "▁kullan": 7073,
      "##875": 7074,
      "##enek": 7075,
      "▁rub": 7076,
      "▁'nin": 7077,
      "▁mudu": 7078,
      "▁senedi": 7079,
      "##iligini": 7080,
      "▁azınlık": 7081,
      "▁olsunlar": 7082,
      "▁340": 7083,
      "▁angeles": 7084,
      "▁sahtek": 7085,
      "▁yenilen": 7086,
      "##gine": 7087,
      "▁tehlikeli": 7088,
      "##irse": 7089,
      "▁beye": 7090,
      "▁eastern'in": 7091,
      "##mazdı": 7092,
      "▁yapıs": 7093,
      "▁zarf": 7094,
      "▁dinam": 7095,
      "##ity": 7096,
      "▁29.6": 7097,
      "▁girdim": 7098,
      "▁beklet": 7099,
      "▁genelde": 7100,
      "▁kelimeler": 7101,
      "▁odedigimiz": 7102,
      "##asip": 7103,
      "▁erit": 7104,
      "##diginiz": 7105,
      "▁arabalar": 7106,
      "▁harcadı": 7107,
      "▁anlat": 7108,
      "##ılık": 7109,
      "▁dre": 7110,
      "##nda": 7111,
      "▁adıyla": 7112,
      "▁ode": 7113,
      "##emeyecegi": 7114,
      "##ırak": 7115,
      "##ron": 7116,
      "▁koymus": 7117,
      "▁gunluk": 7118,
      "▁218": 7119,
      "##enen": 7120,
      "##etle": 7121,
      "▁tutam": 7122,
      "▁karsıl": 7123,
      "▁vardır": 7124,
      "▁kapagı": 7125,
      "▁pozit": 7126,
      "▁baraj": 7127,
      "▁gostermek": 7128,
      "▁ras": 7129,
      "##ere": 7130,
      "▁turkiye'nin": 7131,
      "▁frank": 7132,
      "▁birtak": 7133,
      "##don": 7134,
      "##eriya": 7135,
      "##osy": 7136,
      "▁oturdugu": 7137,
      "▁supur": 7138,
      "▁soktu": 7139,
      "##lemek": 7140,
      "▁parmak": 7141,
      "▁sabır": 7142,
      "▁1.60": 7143,
      "▁havaalanından": 7144,
      "▁darb": 7145,
      "▁yapmayı": 7146,
      "▁kilidi": 7147,
      "▁memleketin": 7148,
      "▁alısılmadık": 7149,
      "▁muzik": 7150,
      "▁sesini": 7151,
      "▁versin": 7152,
      "▁.\"": 7153,
      "▁borc": 7154,
      "▁gecelik": 7155,
      "▁kek": 7156,
      "▁sureli": 7157,
      "▁itti": 7158,
      "▁odenek": 7159,
      "##lerinde": 7160,
      "▁degisiyor": 7161,
      "##acılıgı": 7162,
      "▁kaplı": 7163,
      "▁hararet": 7164,
      "▁yapıyoruz": 7165,
      "▁mutemadiyen": 7166,
      "▁yumurta": 7167,
      "##istler": 7168,
      "▁olay": 7169,
      "▁listeleyebilir": 7170,
      "##0.": 7171,
      "##ebilen": 7172,
      "##'de": 7173,
      "##uck": 7174,
      "▁oluyorlar": 7175,
      "##115": 7176,
      "▁bildirdi": 7177,
      "▁pesine": 7178,
      "▁planlamam": 7179,
      "##bal": 7180,
      "▁alkolsuz": 7181,
      "▁laik": 7182,
      "▁yetenek": 7183,
      "▁genetik": 7184,
      "##alarında": 7185,
      "▁uzerindeki": 7186,
      "▁yazmaya": 7187,
      "▁baslayan": 7188,
      "▁%0.2": 7189,
      "▁insal": 7190,
      "##okul": 7191,
      "▁ailelerin": 7192,
      "▁rakib": 7193,
      "##amıyorum": 7194,
      "▁askeri": 7195,
      "▁ef": 7196,
      "▁sebebi": 7197,
      "▁kuyu": 7198,
      "▁irs": 7199,
      "▁1932": 7200,
      "▁almasını": 7201,
      "▁1.39": 7202,
      "▁gelsin": 7203,
      "▁0.6": 7204,
      "▁veriyorlar": 7205,
      "▁roma": 7206,
      "▁vucu": 7207,
      "▁bire": 7208,
      "##ait": 7209,
      "▁ilkbahar": 7210,
      "▁arkadasları": 7211,
      "▁for": 7212,
      "▁oldugun": 7213,
      "▁acım": 7214,
      "##4.4": 7215,
      "▁eks": 7216,
      "▁oldukca": 7217,
      "▁basla": 7218,
      "##ion": 7219,
      "▁kaynar": 7220,
      "▁1'den": 7221,
      "▁olimp": 7222,
      "▁nakit": 7223,
      "▁lit": 7224,
      "▁kusun": 7225,
      "▁miydin": 7226,
      "▁isliyor": 7227,
      "▁haftanın": 7228,
      "▁esrar": 7229,
      "▁cezalandır": 7230,
      "▁yapması": 7231,
      "▁karton": 7232,
      "##ay'ın": 7233,
      "▁dinledim": 7234,
      "▁gozalt": 7235,
      "▁fut": 7236,
      "▁burokr": 7237,
      "▁etmistir": 7238,
      "▁ahır": 7239,
      "▁alabildigine": 7240,
      "▁ter": 7241,
      "##ya'da": 7242,
      "▁mot": 7243,
      "##lam": 7244,
      "▁liber": 7245,
      "##6": 7246,
      "##vert": 7247,
      "##gide": 7248,
      "▁kaps": 7249,
      "▁825": 7250,
      "▁eur": 7251,
      "▁bahar": 7252,
      "▁kardesim": 7253,
      "▁ingiltere'de": 7254,
      "▁price": 7255,
      "▁indiana": 7256,
      "▁buz": 7257,
      "▁hareketli": 7258,
      "▁umumi": 7259,
      "▁anlasılan": 7260,
      "▁degiller": 7261,
      "▁topuk": 7262,
      "▁log": 7263,
      "##ebilir": 7264,
      "▁gazetelerde": 7265,
      "▁bulundu": 7266,
      "▁saatleri": 7267,
      "▁mukemmeldi": 7268,
      "##ledim": 7269,
      "▁yanıl": 7270,
      "##lak": 7271,
      "▁yarıs": 7272,
      "▁carpıs": 7273,
      "▁tramvay": 7274,
      "▁bileti": 7275,
      "▁boldu": 7276,
      "▁nazar": 7277,
      "▁paket": 7278,
      "##nas": 7279,
      "▁disip": 7280,
      "▁bombos": 7281,
      "▁dogran": 7282,
      "▁rıza": 7283,
      "▁freddie": 7284,
      "▁oranının": 7285,
      "##amiz": 7286,
      "##trust": 7287,
      "▁rah": 7288,
      "▁kirli": 7289,
      "##kla": 7290,
      "▁sokakta": 7291,
      "##:": 7292,
      "▁ekin": 7293,
      "▁esti": 7294,
      "▁basımıza": 7295,
      "▁gorus": 7296,
      "##tmis": 7297,
      "▁kararlastır": 7298,
      "##iyo": 7299,
      "▁dusen": 7300,
      "▁rall": 7301,
      "▁bir": 7302,
      "▁onların": 7303,
      "##tore": 7304,
      "▁tekne": 7305,
      "##57": 7306,
      "▁il": 7307,
      "▁bastır": 7308,
      "▁dusurdu": 7309,
      "▁inkar": 7310,
      "▁yasal": 7311,
      "▁huc": 7312,
      "▁sacları": 7313,
      "▁data": 7314,
      "▁california'ya": 7315,
      "##s'un": 7316,
      "▁kıymet": 7317,
      "##/16": 7318,
      "▁arayan": 7319,
      "▁kullanmadik": 7320,
      "▁gulumsedi": 7321,
      "▁icimden": 7322,
      "▁endeks": 7323,
      "▁ikram": 7324,
      "##ılırdı": 7325,
      "▁ucuyor": 7326,
      "▁koyden": 7327,
      "▁bahcıvan": 7328,
      "▁hesapları": 7329,
      "##man'ın": 7330,
      "▁havaalanı": 7331,
      "▁kaldıraclı": 7332,
      "▁eksiklik": 7333,
      "▁soz": 7334,
      "▁bakısları": 7335,
      "▁dikkat": 7336,
      "▁haluk": 7337,
      "▁bira": 7338,
      "▁icimi": 7339,
      "▁falan": 7340,
      "▁seklinde": 7341,
      "▁olanlara": 7342,
      "▁sonbahar": 7343,
      "▁jac": 7344,
      "##lılık": 7345,
      "##f": 7346,
      "##ford": 7347,
      "▁cehr": 7348,
      "▁olup": 7349,
      "▁olursa": 7350,
      "▁yılda": 7351,
      "▁kablo": 7352,
      "▁430": 7353,
      "▁duygularını": 7354,
      "▁hilmi": 7355,
      "##ood": 7356,
      "▁james": 7357,
      "##5'te": 7358,
      "##deler": 7359,
      "▁cıkarır": 7360,
      "##intex": 7361,
      "▁kesilmis": 7362,
      "▁ozurlu": 7363,
      "▁gercekte": 7364,
      "▁cene": 7365,
      "▁oranlarının": 7366,
      "▁sor": 7367,
      "▁didik": 7368,
      "▁dervis": 7369,
      "##asız": 7370,
      "▁doktor": 7371,
      "##alandır": 7372,
      "▁verme": 7373,
      "▁filozof": 7374,
      "▁yurtdısına": 7375,
      "▁gorgu": 7376,
      "##untu": 7377,
      "▁haz": 7378,
      "##13": 7379,
      "▁bayagi": 7380,
      "▁guzelligi": 7381,
      "▁noriega'nın": 7382,
      "▁dair": 7383,
      "▁kitap": 7384,
      "▁ya": 7385,
      "▁biliyorsunuz": 7386,
      "▁ruzg": 7387,
      "▁azıcık": 7388,
      "##ayip": 7389,
      "##2": 7390,
      "▁warner": 7391,
      "▁haketmiyor": 7392,
      "▁25.000": 7393,
      "▁dosy": 7394,
      "▁tatli": 7395,
      "##nik": 7396,
      "▁degil": 7397,
      "##.": 7398,
      "▁kasıgı": 7399,
      "▁rumeli": 7400,
      "▁field": 7401,
      "▁gelmez": 7402,
      "▁telgraf": 7403,
      "##essus": 7404,
      "▁sezonu": 7405,
      "▁kokulu": 7406,
      "▁boyle": 7407,
      "▁kan": 7408,
      "▁ekim": 7409,
      "▁iceriye": 7410,
      "▁faydalan": 7411,
      "▁meclisi": 7412,
      "▁neyse": 7413,
      "▁120": 7414,
      "▁birbirleriyle": 7415,
      "▁ihmal": 7416,
      "##over": 7417,
      "▁yenilik": 7418,
      "▁kayıtları": 7419,
      "##larını": 7420,
      "##ılabilir": 7421,
      "▁alb": 7422,
      "▁kodu": 7423,
      "▁kalmadik": 7424,
      "##agı": 7425,
      "▁sureg": 7426,
      "▁bilir": 7427,
      "▁5.": 7428,
      "▁kopmus": 7429,
      "▁yazının": 7430,
      "##iydi": 7431,
      "▁set": 7432,
      "▁fatur": 7433,
      "▁komik": 7434,
      "▁etti": 7435,
      "▁ahir": 7436,
      "▁sozlerine": 7437,
      "▁tasmıs": 7438,
      "▁eri": 7439,
      "▁yirmibir": 7440,
      "▁hızlı": 7441,
      "▁adamları": 7442,
      "##&g": 7443,
      "##aliydi": 7444,
      "▁olmamıstı": 7445,
      "▁sizde": 7446,
      "##cag": 7447,
      "▁nasdaq": 7448,
      "##icinin": 7449,
      "▁747": 7450,
      "▁pacific": 7451,
      "##dıgında": 7452,
      "▁muthisti": 7453,
      "▁haval": 7454,
      "##a'dan": 7455,
      "▁seneye": 7456,
      "##imizde": 7457,
      "▁guneydogu": 7458,
      "▁talep": 7459,
      "▁keci": 7460,
      "▁266": 7461,
      "▁santral": 7462,
      "▁numar": 7463,
      "▁olduk": 7464,
      "##taki": 7465,
      "▁gelmistir": 7466,
      "▁kemal'in": 7467,
      "##ayol": 7468,
      "▁sallan": 7469,
      "▁almanya'nın": 7470,
      "▁hayret": 7471,
      "▁7.4": 7472,
      "##cher": 7473,
      "▁koridor": 7474,
      "▁yasadık": 7475,
      "▁ıyla": 7476,
      "▁1985": 7477,
      "▁goldman": 7478,
      "##ıksız": 7479,
      "▁zarfında": 7480,
      "▁adeta": 7481,
      "▁destekleyen": 7482,
      "▁mevduat": 7483,
      "▁ı": 7484,
      "▁enerj": 7485,
      "▁beklent": 7486,
      "▁ata": 7487,
      "▁ikinci": 7488,
      "▁suat": 7489,
      "▁cereyan": 7490,
      "##lıydı": 7491,
      "▁polis": 7492,
      "##-sat": 7493,
      "##24": 7494,
      "▁mahrum": 7495,
      "▁gidiyorduk": 7496,
      "▁guney": 7497,
      "▁aqu": 7498,
      "▁sum": 7499,
      "▁lun": 7500,
      "▁olurum": 7501,
      "##umuz": 7502,
      "##tının": 7503,
      "##ilige": 7504,
      "▁intern": 7505,
      "▁birine": 7506,
      "▁seviyesinde": 7507,
      "▁hisselerin": 7508,
      "▁3.4": 7509,
      "▁38": 7510,
      "▁1945": 7511,
      "##(": 7512,
      "▁uste": 7513,
      "▁istegi": 7514,
      "▁doya": 7515,
      "▁phil": 7516,
      "▁yuv": 7517,
      "▁2004'te": 7518,
      "▁454": 7519,
      "▁sıcak": 7520,
      "▁bulunacak": 7521,
      "▁sayi": 7522,
      "##artman": 7523,
      "▁tuzlu": 7524,
      "▁galib": 7525,
      "##istin": 7526,
      "▁istiklal": 7527,
      "▁kazıy": 7528,
      "[MASK]": 7529,
      "▁turkiye'de": 7530,
      "▁tarihinde": 7531,
      "▁havayollarını": 7532,
      "▁char": 7533,
      "▁yanına": 7534,
      "##s'in": 7535,
      "▁suresini": 7536,
      "▁kamu": 7537,
      "▁aynen": 7538,
      "▁mahf": 7539,
      "▁karsılıgı": 7540,
      "▁gas": 7541,
      "▁vs": 7542,
      "▁ın": 7543,
      "▁kanad": 7544,
      "▁terbiy": 7545,
      "▁suruldu": 7546,
      "▁813": 7547,
      "▁vermem": 7548,
      "##way": 7549,
      "▁1'de": 7550,
      "##38": 7551,
      "▁duzenlenen": 7552,
      "▁141.70": 7553,
      "▁fokur": 7554,
      "##oll": 7555,
      "▁devlete": 7556,
      "##7'den": 7557,
      "▁parcalar": 7558,
      "▁sal": 7559,
      "▁dayalı": 7560,
      "▁qintex": 7561,
      "▁isyan": 7562,
      "▁sagduy": 7563,
      "▁nem": 7564,
      "▁day": 7565,
      "▁toplayıp": 7566,
      "▁teles": 7567,
      "▁buyuktu": 7568,
      "▁havuzlar": 7569,
      "▁gozlerim": 7570,
      "▁hakkını": 7571,
      "▁kırkaltı": 7572,
      "▁tumunu": 7573,
      "▁ydu": 7574,
      "##ılas": 7575,
      "▁odalari": 7576,
      "##abuk": 7577,
      "▁sapt": 7578,
      "##od": 7579,
      "▁35587.85": 7580,
      "▁erkek": 7581,
      "▁gunku": 7582,
      "▁fiyatını": 7583,
      "▁hollanda": 7584,
      "▁biliyor": 7585,
      "▁sahn": 7586,
      "▁dos": 7587,
      "▁ismi": 7588,
      "▁ortalaması": 7589,
      "▁sirketinin": 7590,
      "▁sasır": 7591,
      "▁krize": 7592,
      "▁limon": 7593,
      "##set": 7594,
      "▁yonunde": 7595,
      "▁per": 7596,
      "##ıstı": 7597,
      "▁onur": 7598,
      "▁desik": 7599,
      "▁dususten": 7600,
      "▁dalgalar": 7601,
      "##kaya": 7602,
      "▁geldigi": 7603,
      "##idir": 7604,
      "▁265": 7605,
      "▁tutar": 7606,
      "##cular": 7607,
      "▁kitapta": 7608,
      "▁aver": 7609,
      "▁…": 7610,
      "▁mezar": 7611,
      "▁ucsuz": 7612,
      "##fa": 7613,
      "▁vet": 7614,
      "##tra": 7615,
      "▁gelisen": 7616,
      "##alama": 7617,
      "▁yedide": 7618,
      "▁yerini": 7619,
      "▁boynun": 7620,
      "▁yahudi": 7621,
      "▁feder": 7622,
      "##gah": 7623,
      "##isiydi": 7624,
      "▁4200'e": 7625,
      "▁illa": 7626,
      "▁memur": 7627,
      "▁hissediyor": 7628,
      "▁saman": 7629,
      "▁mg": 7630,
      "##hem": 7631,
      "▁satmak": 7632,
      "▁bakanlıgı'nın": 7633,
      "▁iliskisi": 7634,
      "▁girisimci": 7635,
      "▁gelmedi": 7636,
      "▁alkol": 7637,
      "▁yasadı": 7638,
      "▁olur": 7639,
      "▁sigorta": 7640,
      "▁kendilerini": 7641,
      "▁rehberi": 7642,
      "▁dedigimiz": 7643,
      "▁barın": 7644,
      "▁aln": 7645,
      "▁kagıtları": 7646,
      "▁acacak": 7647,
      "▁cincinnati": 7648,
      "##tıgım": 7649,
      "▁lar": 7650,
      "▁maf": 7651,
      "▁harek": 7652,
      "▁cevik": 7653,
      "▁bilimsel": 7654,
      "▁otesi": 7655,
      "▁sımsık": 7656,
      "▁bilgilerin": 7657,
      "##ligi": 7658,
      "▁goruluyor": 7659,
      "##mustu": 7660,
      "▁boh": 7661,
      "▁kulak": 7662,
      "##ul": 7663,
      "▁senden": 7664,
      "##ors": 7665,
      "##pan": 7666,
      "▁anlıslanabilir": 7667,
      "▁sigort": 7668,
      "▁mintan": 7669,
      "▁sınıfları": 7670,
      "▁alım-satım": 7671,
      "▁gumus": 7672,
      "##ileri": 7673,
      "▁bost": 7674,
      "▁vermektedir": 7675,
      "▁araz": 7676,
      "▁dalgalan": 7677,
      "▁ho": 7678,
      "##kab": 7679,
      "##elerle": 7680,
      "a": 7681,
      "▁bilmem": 7682,
      "##ula": 7683,
      "▁tavırlı": 7684,
      "▁cont": 7685,
      "▁kagı": 7686,
      "##ilig": 7687,
      "▁hepsini": 7688,
      "##tıgını": 7689,
      "##an": 7690,
      "▁dagılmıs": 7691,
      "▁takım": 7692,
      "▁1992": 7693,
      "▁havada": 7694,
      "▁westinghouse": 7695,
      "▁kid": 7696,
      "▁hatt": 7697,
      "▁cır": 7698,
      "▁kıyaslanabilir": 7699,
      "▁ablam": 7700,
      "▁calkal": 7701,
      "##atin": 7702,
      "▁oteller": 7703,
      "▁campe": 7704,
      "▁27.5": 7705,
      "▁hareketler": 7706,
      "▁basrol": 7707,
      "##leb": 7708,
      "[UNK]": 7709,
      "▁uzun": 7710,
      "▁dalar": 7711,
      "##ıcısı": 7712,
      "▁duruma": 7713,
      "▁vazgecti": 7714,
      "▁ile": 7715,
      "▁kahvaltisi": 7716,
      "▁soyleniyor": 7717,
      "##9'un": 7718,
      "##ayıf": 7719,
      "▁beklemek": 7720,
      "▁kavanoz": 7721,
      "▁rakip": 7722,
      "▁olmazsa": 7723,
      "##arlar": 7724,
      "##elerden": 7725,
      "▁kupon": 7726,
      "##5'ten": 7727,
      "▁700.": 7728,
      "▁partners": 7729,
      "▁hesap": 7730,
      "▁ster": 7731,
      "▁muf": 7732,
      "##leriniz": 7733,
      "▁bog": 7734,
      "▁vur": 7735,
      "▁vatandas": 7736,
      "▁bulbul": 7737,
      "▁karsilik": 7738,
      "▁bence": 7739,
      "##digimiz": 7740,
      "▁degildim": 7741,
      "▁bahsetti": 7742,
      "▁olacagına": 7743,
      "##atmıs": 7744,
      "▁mab": 7745,
      "▁/": 7746,
      "▁guzeli": 7747,
      "▁kaya": 7748,
      "▁hastalı": 7749,
      "▁yardımı": 7750,
      "▁at&t": 7751,
      "▁parmagını": 7752,
      "▁planlanan": 7753,
      "▁kabiliyet": 7754,
      "▁yapılacak": 7755,
      "▁bulunmus": 7756,
      "##emiz": 7757,
      "▁%0": 7758,
      "▁memnunuz": 7759,
      "▁yolunu": 7760,
      "▁sicakti": 7761,
      "▁gm": 7762,
      "##'teki": 7763,
      "##ba": 7764,
      "▁gorevl": 7765,
      "##eti": 7766,
      "▁kentsel": 7767,
      "▁hepimiz": 7768,
      "▁faturamin": 7769,
      "▁sorunlarının": 7770,
      "▁boyunca": 7771,
      "▁bebegi": 7772,
      "▁kesint": 7773,
      "▁cogundan": 7774,
      "▁gelisme": 7775,
      "##ladıgını": 7776,
      "▁charles": 7777,
      "▁dyp": 7778,
      "▁ic": 7779,
      "▁anlasılmaz": 7780,
      "▁batı": 7781,
      "##musum": 7782,
      "▁bur": 7783,
      "##eginiz": 7784,
      "▁giydir": 7785,
      "▁ascı": 7786,
      "▁kapandı": 7787,
      "▁kapıl": 7788,
      "▁itibar": 7789,
      "▁aramaya": 7790,
      "▁1.835": 7791,
      "▁bahceli": 7792,
      "▁1966": 7793,
      "▁mekteb": 7794,
      "▁porcuk": 7795,
      "▁1.5": 7796,
      "▁bonoları": 7797,
      "▁turuncu": 7798,
      "▁durumuna": 7799,
      "▁nefes": 7800,
      "##mamıstır": 7801,
      "▁amerika'nın": 7802,
      "▁havayolları": 7803,
      "##asur": 7804,
      "▁ekledi": 7805,
      "##\\/32": 7806,
      "##loy": 7807,
      "▁kenarında": 7808,
      "▁carp": 7809,
      "▁met": 7810,
      "▁direkt": 7811,
      "▁evlat": 7812,
      "▁114": 7813,
      "▁57": 7814,
      "▁memnunduk": 7815,
      "▁transfer": 7816,
      "▁anlas": 7817,
      "##ber": 7818,
      "▁ail": 7819,
      "▁yapar": 7820,
      "▁terey": 7821,
      "##fun": 7822,
      "▁durusma": 7823,
      "▁vermisler": 7824,
      "▁nedense": 7825,
      "▁0.3": 7826,
      "▁kacta": 7827,
      "▁ayna": 7828,
      "▁top": 7829,
      "▁taksit": 7830,
      "▁odalar": 7831,
      "▁tahm": 7832,
      "▁malzemesi": 7833,
      "▁gorusmedim": 7834,
      "▁gelmis": 7835,
      "▁dolap": 7836,
      "▁beklentiler": 7837,
      "▁gidiyoruz": 7838,
      "▁zırh": 7839,
      "▁kum": 7840,
      "▁odası": 7841,
      "▁sıkı": 7842,
      "▁kalktım": 7843,
      "▁suları": 7844,
      "▁dunyaya": 7845,
      "▁eg": 7846,
      "##esinin": 7847,
      "▁vererek": 7848,
      "▁170": 7849,
      "▁cıkınca": 7850,
      "▁dikis": 7851,
      "▁saran": 7852,
      "##ege": 7853,
      "▁yapabil": 7854,
      "▁degerlendir": 7855,
      "▁milano": 7856,
      "▁ner": 7857,
      "##ment": 7858,
      "▁ucumuz": 7859,
      "##cakt": 7860,
      "▁115": 7861,
      "##7'de": 7862,
      "▁“": 7863,
      "##issiz": 7864,
      "##baum": 7865,
      "▁ayarlanabilir": 7866,
      "##ash": 7867,
      "▁jon": 7868,
      "▁sirketini": 7869,
      "▁0.5": 7870,
      "▁al": 7871,
      "▁cam": 7872,
      "▁yuc": 7873,
      "##ebilecegi": 7874,
      "▁parayi": 7875,
      "▁girer": 7876,
      "▁nakliye": 7877,
      "▁yorumu": 7878,
      "##ay": 7879,
      "▁konuyu": 7880,
      "▁geldiginde": 7881,
      "▁kapılar": 7882,
      "▁arpa": 7883,
      "▁sunuyor": 7884,
      "▁29": 7885,
      "▁haline": 7886,
      "▁oto": 7887,
      "▁sanslı": 7888,
      "▁anasının": 7889,
      "▁icme": 7890,
      "▁fayd": 7891,
      "▁1999": 7892,
      "▁acmıs": 7893,
      "▁yasadik": 7894,
      "▁pittsburgh'a": 7895,
      "▁yah": 7896,
      "▁kaleci": 7897,
      "▁cıkısı": 7898,
      "▁bireb": 7899,
      "▁yazdıkları": 7900,
      "##c": 7901,
      "▁zek": 7902,
      "▁cekim": 7903,
      "##iligin": 7904,
      "▁dolastı": 7905,
      "▁electr": 7906,
      "##memektedir": 7907,
      "▁padisah": 7908,
      "▁herhalde": 7909,
      "▁halka": 7910,
      "▁bunal": 7911,
      "##yetmisbes": 7912,
      "▁ret": 7913,
      "▁zum": 7914,
      "▁gule": 7915,
      "##manız": 7916,
      "▁geriledi": 7917,
      "▁sayıda": 7918,
      "▁hepsi": 7919,
      "▁ci": 7920,
      "▁yayın": 7921,
      "▁kiralama": 7922,
      "##madan": 7923,
      "##'na": 7924,
      "▁kabar": 7925,
      "▁volkan": 7926,
      "##abında": 7927,
      "▁sonuclar": 7928,
      "##adak": 7929,
      "▁ayni": 7930,
      "▁yapıldı": 7931,
      "▁denizinden": 7932,
      "▁isle": 7933,
      "▁sembol": 7934,
      "▁tasımacılıgı": 7935,
      "▁birini": 7936,
      "▁vermeyen": 7937,
      "▁degirmen": 7938,
      "▁ayagına": 7939,
      "▁46": 7940,
      "##unuz": 7941,
      "▁asla": 7942,
      "##cılı": 7943,
      "▁no": 7944,
      "▁gaf": 7945,
      "##lukla": 7946,
      "▁ureticiler": 7947,
      "▁hakik": 7948,
      "##dırlar": 7949,
      "▁zamanların": 7950,
      "##erson": 7951,
      "▁%5.4": 7952,
      "##'daki": 7953,
      "▁buyuyen": 7954,
      "▁bitti": 7955,
      "##oglu": 7956,
      "##des": 7957,
      "▁kasırg": 7958,
      "▁saclarını": 7959,
      "▁goren": 7960,
      "▁karsılıklı": 7961,
      "▁sinema": 7962,
      "▁hita": 7963,
      "▁gelirse": 7964,
      "▁atılım": 7965,
      "▁31": 7966,
      "##iriz": 7967,
      "▁lungur": 7968,
      "▁uzerindeydi": 7969,
      "▁turkiye'yi": 7970,
      "▁istekli": 7971,
      "▁dusunur": 7972,
      "▁teknik": 7973,
      "▁suyun": 7974,
      "▁bizzat": 7975,
      "##layalım": 7976,
      "▁karsılık": 7977,
      "▁listesi": 7978,
      "▁30000": 7979,
      "▁urunu": 7980,
      "▁istendi": 7981,
      "##ij": 7982,
      "▁maden": 7983,
      "▁ogut": 7984,
      "▁zira": 7985,
      "▁c": 7986,
      "##anın": 7987,
      "##2.76": 7988,
      "▁birak": 7989,
      "▁batar": 7990,
      "▁tutulan": 7991,
      "▁bagırıyordu": 7992,
      "▁sektor": 7993,
      "▁145": 7994,
      "​": 7995,
      "▁pec": 7996,
      "▁tuvalet": 7997,
      "##irmis": 7998,
      "##ydım": 7999,
      "▁tab": 8000,
      "▁guvenilir": 8001,
      "▁cur": 8002,
      "▁kıyı": 8003,
      "▁sukun": 8004,
      "▁isin": 8005,
      "▁yildiz": 8006,
      "▁utan": 8007,
      "▁1.29": 8008,
      "▁oldugundan": 8009,
      "##edecek": 8010,
      "▁olabilirdi": 8011,
      "▁ulkelerde": 8012,
      "▁kerp": 8013,
      "▁eksiksiz": 8014,
      "▁kacır": 8015,
      "▁tuccarı": 8016,
      "▁oranla": 8017,
      "▁somut": 8018,
      "▁fıs": 8019,
      "##90": 8020,
      "▁eskiydi": 8021,
      "▁kktc": 8022,
      "##endi": 8023,
      "▁dalgası": 8024,
      "▁patlat": 8025,
      "▁lak": 8026,
      "▁grubunun": 8027,
      "▁muhtesemdi": 8028,
      "▁karsı": 8029,
      "▁bari": 8030,
      "▁dilerim": 8031,
      "▁yusuf": 8032,
      "▁tunc": 8033,
      "‘": 8034,
      "##sizdi": 8035,
      "▁panik": 8036,
      "▁sorun": 8037,
      "▁nedenlerden": 8038,
      "##lag": 8039,
      "▁gorevini": 8040,
      "##ye": 8041,
      "##ulmesi": 8042,
      "▁gerekcesiyle": 8043,
      "▁yapım": 8044,
      "▁op": 8045,
      "##rahim": 8046,
      "##ekim": 8047,
      "##sim": 8048,
      "▁batır": 8049,
      "▁belirtmis": 8050,
      "##suz": 8051,
      "▁verilecek": 8052,
      "▁his": 8053,
      "▁nasda": 8054,
      "▁hot": 8055,
      "▁homur": 8056,
      "▁ikibucuk": 8057,
      "▁yone": 8058,
      "##amadik": 8059,
      "▁basladılar": 8060,
      "##usundan": 8061,
      "▁tarım": 8062,
      "▁terfi": 8063,
      "##ebil": 8064,
      "▁topunuz": 8065,
      "▁gelecekteki": 8066,
      "▁belirlen": 8067,
      "##,": 8068,
      "▁bilgili": 8069,
      "▁kıskanc": 8070,
      "▁yurtdı": 8071,
      "##urlar": 8072,
      "##ılmıstır": 8073,
      "▁tedavulde": 8074,
      "##son'un": 8075,
      "▁samimi": 8076,
      "##ıyla": 8077,
      "##arında": 8078,
      "▁ikiyuzkırk": 8079,
      "▁talih": 8080,
      "▁%14": 8081,
      "▁duzel": 8082,
      "##go": 8083,
      "##ith": 8084,
      "▁vucuda": 8085,
      "▁recel": 8086,
      "##alıklar": 8087,
      "▁tane": 8088,
      "▁diye": 8089,
      "▁yıllık": 8090,
      "##eceklerini": 8091,
      "▁biraz": 8092,
      "▁geriye": 8093,
      "▁studyo": 8094,
      "▁konustuk": 8095,
      "▁getiren": 8096,
      "▁koyu": 8097,
      "▁basladıgı": 8098,
      "▁otek": 8099,
      "##ıl": 8100,
      "▁geril": 8101,
      "##arya": 8102,
      "##iymis": 8103,
      "▁aydan": 8104,
      "▁etkisini": 8105,
      "##tiv": 8106,
      "▁far": 8107,
      "##ıh": 8108,
      "▁gecmiste": 8109,
      "▁1.875": 8110,
      "▁soy": 8111,
      "▁ihtiyacı": 8112,
      "##amazdı": 8113,
      "▁vegas'a": 8114,
      "##larindan": 8115,
      "▁gorebil": 8116,
      "##da'nın": 8117,
      "▁saglamak": 8118,
      "▁sevdik": 8119,
      "▁incelem": 8120,
      "▁40": 8121,
      "▁etmek": 8122,
      "▁alab": 8123,
      "▁okyan": 8124,
      "▁cum": 8125,
      "##?": 8126,
      "▁tahvillerin": 8127,
      "▁ayag": 8128,
      "▁!..": 8129,
      "▁bagıs": 8130,
      "▁donan": 8131,
      "▁kiz": 8132,
      "▁slog": 8133,
      "▁artık": 8134,
      "▁hanimla": 8135,
      "▁0.0108": 8136,
      "▁duy": 8137,
      "▁okur": 8138,
      "▁mass": 8139,
      "##rum": 8140,
      "▁delikanlı": 8141,
      "▁atlanta'da": 8142,
      "▁yardımc": 8143,
      "▁bizlerin": 8144,
      "##dular": 8145,
      "##aklı": 8146,
      "▁gorustuk": 8147,
      "▁3554": 8148,
      "▁yapr": 8149,
      "▁ilgisinden": 8150,
      "##mamıstı": 8151,
      "##larıyla": 8152,
      "##tigini": 8153,
      "▁bireysel": 8154,
      "▁274": 8155,
      "▁newark'a": 8156,
      "▁olmas": 8157,
      "▁odanın": 8158,
      "##ahir": 8159,
      "##lıkları": 8160,
      "▁durur": 8161,
      "▁gununden": 8162,
      "▁acıklıyor": 8163,
      "▁tahsis": 8164,
      "▁mutfaga": 8165,
      "##histi": 8166,
      "▁sıvı": 8167,
      "##ulmus": 8168,
      "##)": 8169,
      "▁haberleri": 8170,
      "▁anlıs": 8171,
      "▁sek": 8172,
      "▁ihal": 8173,
      "▁rakamları": 8174,
      "▁kırkdort": 8175,
      "▁tekstil": 8176,
      "▁isvic": 8177,
      "▁bilmedigi": 8178,
      "▁rekor": 8179,
      "▁alındıgında": 8180,
      "▁kazanclar": 8181,
      "▁cincinnati'den": 8182,
      "▁dusunmeye": 8183,
      "▁30.": 8184,
      "##aga": 8185,
      "▁yapmıs": 8186,
      "##'unu": 8187,
      "▁ital": 8188,
      "▁bakmak": 8189,
      "▁64": 8190,
      "▁haric": 8191,
      "##ant": 8192,
      "▁satın": 8193,
      "▁yasına": 8194,
      "##eley": 8195,
      "▁ecev": 8196,
      "▁hop": 8197,
      "##'dan": 8198,
      "▁belg": 8199,
      "##esidir": 8200,
      "▁ayrılmak": 8201,
      "▁aklı": 8202,
      "▁montreal'a": 8203,
      "▁federal": 8204,
      "▁bahcı": 8205,
      "##yetmis": 8206,
      "▁yapın": 8207,
      "▁iliskiler": 8208,
      "▁ipotege": 8209,
      "▁durlar": 8210,
      "▁kilis": 8211,
      "▁isaretler": 8212,
      "▁goruntu": 8213,
      "▁isabet": 8214,
      "▁karsısında": 8215,
      "▁bekar": 8216,
      "▁miktarı": 8217,
      "▁sorunun": 8218,
      "▁istim": 8219,
      "##bus": 8220,
      "▁1971": 8221,
      "▁yat": 8222,
      "▁birbirlerinden": 8223,
      "▁ziyade": 8224,
      "##lk": 8225,
      "▁sapır": 8226,
      "▁sınırları": 8227,
      "▁guleryuz": 8228,
      "▁veri": 8229,
      "▁street'in": 8230,
      "▁dus": 8231,
      "▁ahlak": 8232,
      "▁ilc": 8233,
      "▁business": 8234,
      "'": 8235,
      "▁verdi": 8236,
      "▁dusundugum": 8237,
      "▁rep": 8238,
      "▁bircogu": 8239,
      "▁425000": 8240,
      "▁ikiser": 8241,
      "##lıgını": 8242,
      "##akta": 8243,
      "▁katında": 8244,
      "▁aldigim": 8245,
      "▁solda": 8246,
      "▁arkasını": 8247,
      "▁dar": 8248,
      "▁ceker": 8249,
      "▁berek": 8250,
      "▁plan": 8251,
      "▁olusturuyor": 8252,
      "▁28": 8253,
      "▁kagıda": 8254,
      "▁ulkeye": 8255,
      "##6.1": 8256,
      "▁madem": 8257,
      "▁lek": 8258,
      "▁fiyatlarındaki": 8259,
      "▁sevincle": 8260,
      "▁yuzunu": 8261,
      "▁ucusunun": 8262,
      "▁gelmiyor": 8263,
      "▁ortalamaydi": 8264,
      "##amalar": 8265,
      "##rik": 8266,
      "▁isterseniz": 8267,
      "▁tereyagı": 8268,
      "▁calar": 8269,
      "##tırken": 8270,
      "▁ressam": 8271,
      "▁ulas": 8272,
      "▁operasyon": 8273,
      "▁yaptirmadim": 8274,
      "▁istedigini": 8275,
      "▁duvarı": 8276,
      "▁kr": 8277,
      "▁perakende": 8278,
      "▁yorgan": 8279,
      "▁yalan": 8280,
      "▁onundeki": 8281,
      "▁arastır": 8282,
      "▁puanlık": 8283,
      "▁kurulmus": 8284,
      "▁sapka": 8285,
      "▁kalabalı": 8286,
      "▁nasıl": 8287,
      "##eri": 8288,
      "##melerin": 8289,
      "▁ron": 8290,
      "##ie": 8291,
      "▁lisan": 8292,
      "▁buradan": 8293,
      "▁10.": 8294,
      "▁yasan": 8295,
      "##luk": 8296,
      "▁rehberimiz": 8297,
      "▁rakı": 8298,
      "▁yolculugun": 8299,
      "##landıgını": 8300,
      "▁suclam": 8301,
      "##sali": 8302,
      "▁so": 8303,
      "▁750000": 8304,
      "▁bayagı": 8305,
      "##ox": 8306,
      "▁liralık": 8307,
      "▁ydı": 8308,
      "##ulugun": 8309,
      "##.39": 8310,
      "##in": 8311,
      "##ell": 8312,
      "▁basarılı": 8313,
      "##isli": 8314,
      "▁jaguar": 8315,
      "▁%6.90": 8316,
      "▁alar": 8317,
      "▁ciz": 8318,
      "▁iktid": 8319,
      "▁5.2": 8320,
      "▁iletisim": 8321,
      "▁uygulanan": 8322,
      "##layan": 8323,
      "##enn": 8324,
      "▁ucuslarda": 8325,
      "▁soylemedi": 8326,
      "▁ilgilendi": 8327,
      "▁konul": 8328,
      "▁yagm": 8329,
      "▁hatırlıyorum": 8330,
      "▁zeka": 8331,
      "▁cesitliydi": 8332,
      "▁ısrar": 8333,
      "▁tedavul": 8334,
      "##lanan": 8335,
      "▁gorulur": 8336,
      "▁universit": 8337,
      "##tir": 8338,
      "▁adlandırıyor": 8339,
      "▁kerem": 8340,
      "##iste": 8341,
      "▁toparlanma": 8342,
      "▁doları": 8343,
      "▁vucut": 8344,
      "▁alana": 8345,
      "##kin": 8346,
      "▁zamanla": 8347,
      "▁tıb": 8348,
      "##inc": 8349,
      "##:11": 8350,
      "▁bufe": 8351,
      "##cut": 8352,
      "▁birlesme": 8353,
      "##macı": 8354,
      "▁kalıb": 8355,
      "▁5.8": 8356,
      "▁astr": 8357,
      "▁devrim": 8358,
      "##ıf": 8359,
      "##arn": 8360,
      "##iniz": 8361,
      "▁hareketle": 8362,
      "▁istenen": 8363,
      "▁hizmetinden": 8364,
      "▁asagı": 8365,
      "▁kare": 8366,
      "▁jersey": 8367,
      "▁ak": 8368,
      "▁anım": 8369,
      "▁yunus": 8370,
      "▁kaldırdı": 8371,
      "##5.2": 8372,
      "##gate": 8373,
      "▁oynan": 8374,
      "▁ucurt": 8375,
      "##alı": 8376,
      "▁uretim": 8377,
      "▁luks": 8378,
      "▁almamıs": 8379,
      "▁asarak": 8380,
      "▁bircogunu": 8381,
      "▁ilkeleri": 8382,
      "##bahar": 8383,
      "▁oyuncusu": 8384,
      "▁golg": 8385,
      "▁noriega": 8386,
      "##ununun": 8387,
      "##lanmasından": 8388,
      "##uldu": 8389,
      "##ekler": 8390,
      "▁kalktı": 8391,
      "▁kadav": 8392,
      "##lendigini": 8393,
      "▁uclu": 8394,
      "##ustuk": 8395,
      "▁golge": 8396,
      "▁anket": 8397,
      "##oru": 8398,
      "▁santorini": 8399,
      "▁denil": 8400,
      "▁ihtilaf": 8401,
      "▁bilemiyorum": 8402,
      "▁balık": 8403,
      "▁hal": 8404,
      "▁umum": 8405,
      "▁;": 8406,
      "##masına": 8407,
      "##acagımı": 8408,
      "▁cekirde": 8409,
      "▁hosnut": 8410,
      "▁1.200": 8411,
      "▁hile": 8412,
      "▁otuzaltı": 8413,
      "▁odullendir": 8414,
      "▁basamak": 8415,
      "##yu": 8416,
      "▁spor": 8417,
      "##ii": 8418,
      "▁icindir": 8419,
      "▁82.1": 8420,
      "▁if": 8421,
      "▁unvan": 8422,
      "▁baygın": 8423,
      "▁yasayan": 8424,
      "▁uluslar": 8425,
      "▁duyg": 8426,
      "▁misin": 8427,
      "▁kent": 8428,
      "▁piyasası": 8429,
      "▁oturu": 8430,
      "▁oc": 8431,
      "▁esp": 8432,
      "▁kume": 8433,
      "▁artısı": 8434,
      "▁2.79": 8435,
      "▁pak": 8436,
      "##fet": 8437,
      "##acıları": 8438,
      "▁cogumuz": 8439,
      "▁peynir": 8440,
      "▁onumuzde": 8441,
      "▁ispanyol": 8442,
      "▁istemiyor": 8443,
      "▁dunya'nın": 8444,
      "▁onune": 8445,
      "▁esyalarını": 8446,
      "▁babasının": 8447,
      "▁kabahat": 8448,
      "▁26.23": 8449,
      "▁dogur": 8450,
      "##leleri": 8451,
      "▁730": 8452,
      "▁kata": 8453,
      "▁derken": 8454,
      "▁elbise": 8455,
      "▁demokras": 8456,
      "▁karyol": 8457,
      "▁general": 8458,
      "▁kudret": 8459,
      "r": 8460,
      "▁kole": 8461,
      "##osuna": 8462,
      "##teydi": 8463,
      "##og": 8464,
      "▁leb": 8465,
      "▁atesten": 8466,
      "▁oldugumuz": 8467,
      "▁bolun": 8468,
      "▁tahammul": 8469,
      "##dir": 8470,
      "▁gecis": 8471,
      "##tif": 8472,
      "▁edilebilir": 8473,
      "▁hayalet": 8474,
      "▁wang": 8475,
      "▁bahtiy": 8476,
      "##su": 8477,
      "▁malzem": 8478,
      "▁bayr": 8479,
      "##.95": 8480,
      "▁ederdi": 8481,
      "▁sozun": 8482,
      "##yayı": 8483,
      "▁1.2": 8484,
      "▁dili": 8485,
      "▁kaka": 8486,
      "##lo": 8487,
      "##cilerin": 8488,
      "▁kaldır": 8489,
      "▁sagır": 8490,
      "▁gunleri": 8491,
      "▁istif": 8492,
      "##alarak": 8493,
      "▁yayınlan": 8494,
      "▁uzman": 8495,
      "▁sırtına": 8496,
      "##amadan": 8497,
      "▁450": 8498,
      "▁5'te": 8499,
      "▁fazlası": 8500,
      "▁otomobil": 8501,
      "##ral": 8502,
      "▁bakıyorlar": 8503,
      "▁imal": 8504,
      "##ge": 8505,
      "▁kokuyor": 8506,
      "▁samimiyet": 8507,
      "▁isi": 8508,
      "▁%3.43": 8509,
      "▁programın": 8510,
      "▁konusunu": 8511,
      "▁yargı": 8512,
      "##osunda": 8513,
      "▁nisp": 8514,
      "▁dagıtır": 8515,
      "##uncaya": 8516,
      "▁dal": 8517,
      "▁hort": 8518,
      "▁kredi": 8519,
      "##kun": 8520,
      "▁gerek": 8521,
      "▁bircok": 8522,
      "▁bw": 8523,
      "##.65": 8524,
      "▁sozlesmesi": 8525,
      "▁bulamıyor": 8526,
      "▁indi": 8527,
      "▁savunuyor": 8528,
      "##6.5": 8529,
      "##co": 8530,
      "▁deng": 8531,
      "▁kapının": 8532,
      "▁di": 8533,
      "▁denilen": 8534,
      "▁cocuklarını": 8535,
      "▁aklına": 8536,
      "▁kullanımı": 8537,
      "##name": 8538,
      "##iran": 8539,
      "▁yiyor": 8540,
      "##isindeki": 8541,
      "▁orası": 8542,
      "▁temyiz": 8543,
      "▁gecenin": 8544,
      "▁yerlerden": 8545,
      "##liye": 8546,
      "##yar": 8547,
      "▁mahkemede": 8548,
      "##iyeler": 8549,
      "##is": 8550,
      "▁vermis": 8551,
      "▁geceyi": 8552,
      "▁gru": 8553,
      "##besyuz": 8554,
      "▁harcama": 8555,
      "▁br": 8556,
      "▁konferans": 8557,
      "▁basketbol": 8558,
      "▁artır": 8559,
      "▁nominal": 8560,
      "▁almıyor": 8561,
      "▁hep": 8562,
      "▁post": 8563,
      "▁2683.20": 8564,
      "▁utanc": 8565,
      "▁yerlerini": 8566,
      "▁ifad": 8567,
      "▁yazarlar": 8568,
      "##en": 8569,
      "▁yanındaki": 8570,
      "##66": 8571,
      "▁3": 8572,
      "▁aklından": 8573,
      "▁civar": 8574,
      "##-c": 8575,
      "▁kimileri": 8576,
      "▁ii": 8577,
      "▁yaptı": 8578,
      "▁islam": 8579,
      "v": 8580,
      "▁vietnam": 8581,
      "▁yasamıs": 8582,
      "▁oglen": 8583,
      "▁pu": 8584,
      "▁bindokuzyuzotuz": 8585,
      "▁petrole": 8586,
      "##agını": 8587,
      "##5000": 8588,
      "##0.80": 8589,
      "▁kaldıgı": 8590,
      "##…": 8591,
      "▁tulb": 8592,
      "▁derecede": 8593,
      "##muz": 8594,
      "▁ihtim": 8595,
      "▁kactı": 8596,
      "▁2.75": 8597,
      "▁alıp": 8598,
      "▁gib": 8599,
      "##hanede": 8600,
      "▁kimsenin": 8601,
      "▁bankanın": 8602,
      "▁memnundum": 8603,
      "▁projeyi": 8604,
      "##ia": 8605,
      "▁etmeye": 8606,
      "##ektuel": 8607,
      "▁84": 8608,
      "##30'dan": 8609,
      "▁azalarak": 8610,
      "▁erik": 8611,
      "▁..": 8612,
      "▁iyice": 8613,
      "▁dinliyor": 8614,
      "▁onar": 8615,
      "##andan": 8616,
      "▁omur": 8617,
      "▁ilker": 8618,
      "##alari": 8619,
      "▁seker": 8620,
      "##ern": 8621,
      "▁gidebilir": 8622,
      "##asıyla": 8623,
      "▁yirmibes": 8624,
      "▁dondur": 8625,
      "##inize": 8626,
      "▁bugunlerde": 8627,
      "▁yetersizligi": 8628,
      "▁isleri": 8629,
      "▁filistin": 8630,
      "▁dev": 8631,
      "▁itiraf": 8632,
      "##lekli": 8633,
      "▁inan": 8634,
      "▁muh": 8635,
      "▁kuv": 8636,
      "▁abdul": 8637,
      "##gar": 8638,
      "##ank": 8639,
      "▁kategor": 8640,
      "##sızlık": 8641,
      "###": 8642,
      "▁cesur": 8643,
      "▁beklentimi": 8644,
      "▁arzu": 8645,
      "▁smith": 8646,
      "##unuyor": 8647,
      "▁butc": 8648,
      "▁kurtaj": 8649,
      "▁ornegin": 8650,
      "▁turden": 8651,
      "##yedi": 8652,
      "▁olmasın": 8653,
      "▁ucuslarının": 8654,
      "▁begendik": 8655,
      "▁ran": 8656,
      "▁gosterge": 8657,
      "▁guleryuzlulerdi": 8658,
      "▁devri": 8659,
      "▁1936": 8660,
      "▁nisan": 8661,
      "▁bunlardan": 8662,
      "##larmıs": 8663,
      "▁s&p": 8664,
      "▁animator": 8665,
      "##emeyecegim": 8666,
      "▁vaat": 8667,
      "▁guv": 8668,
      "▁basket": 8669,
      "##aten": 8670,
      "##adag": 8671,
      "##2.1": 8672,
      "▁yatırımcı": 8673,
      "▁okurlar": 8674,
      "##:5": 8675,
      "▁servisi": 8676,
      "##par": 8677,
      "##lem": 8678,
      "▁verilm": 8679,
      "▁oradaki": 8680,
      "▁dustu": 8681,
      "##ane": 8682,
      "▁yol": 8683,
      "##fer": 8684,
      "##os": 8685,
      "##'a": 8686,
      "▁basarısız": 8687,
[...]
