{
  "version": "1.0",
  "truncation": null,
  "padding": null,
  "added_tokens": [
    {
      "id": 3187,
      "content": "[PAD]",
      "single_word": false,
      "lstrip": false,
      "rstrip": false,
      "normalized": false,
      "special": true
    },
    {
      "id": 3721,
      "content": "[MASK]",
      "single_word": false,
      "lstrip": false,
      "rstrip": false,
      "normalized": false,
      "special": true
    },
    {
      "id": 3816,
      "content": "[UNK]",
      "single_word": false,
      "lstrip": false,
      "rstrip": false,
      "normalized": false,
      "special": true
    },
    {
      "id": 6367,
      "content": "[CLS]",
      "single_word": false,
      "lstrip": false,
      "rstrip": false,
      "normalized": false,
      "special": true
    },
    {
      "id": 6600,
      "content": "[SEP]",
      "single_word": false,
      "lstrip": false,
      "rstrip": false,
      "normalized": false,
      "special": true
    }
  ],
  "normalizer": {
    "type": "Sequence",
    "normalizers": [
      {
        "type": "NFD"
      },
      {
        "type": "Lowercase"
      },
      {
        "type": "StripAccents"
      }
    ]
  },
  "pre_tokenizer": {
    "type": "Sequence",
    "pretokenizers": [
      {
        "type": "Metaspace",
        "replacement": "▁",
        "prepend_scheme": "always",
        "split": true
      }
    ]
  },
  "post_processor": {
    "type": "TemplateProcessing",
    "single": [
      {
        "SpecialToken": {
          "id": "[CLS]",
          "type_id": 0
        }
      },
      {
        "Sequence": {
          "id": "A",
          "type_id": 0
        }
      },
      {
        "SpecialToken": {
          "id": "[SEP]",
          "type_id": 0
        }
      }
    ],
    "pair": [
      {
        "SpecialToken": {
          "id": "[CLS]",
          "type_id": 0
        }
      },
      {
        "Sequence": {
          "id": "A",
          "type_id": 0
        }
      },
      {
        "SpecialToken": {
          "id": "[SEP]",
          "type_id": 0
        }
      },
      {
        "Sequence": {
          "id": "B",
          "type_id": 1
        }
      },
      {
        "SpecialToken": {
          "id": "[SEP]",
          "type_id": 1
        }
      }
    ],
    "special_tokens": {
      "[CLS]": {
        "id": "[CLS]",
        "ids": [
          6367
        ],
        "tokens": [
          "[CLS]"
        ]
      },
      "[SEP]": {
        "id": "[SEP]",
        "ids": [
          6600
        ],
        "tokens": [
          "[SEP]"
        ]
      }
    }
  },
  "decoder": {
    "type": "Metaspace",
    "replacement": "▁",
    "prepend_scheme": "always",
    "split": true
  },
  "model": {
    "type": "BPE",
    "dropout": null,
    "unk_token": "[UNK]",
    "continuing_subword_prefix": null,
    "end_of_word_suffix": null,
    "fuse_unk": false,
    "byte_fallback": false,
    "ignore_merges": false,
    "vocab": {
      "iss": 0,
      "▁milyardan": 1,
      "▁agız": 2,
      "ildigi": 3,
      "▁sif": 4,
      "▁sic": 5,
      "▁alamadim": 6,
      "lerinde": 7,
      "▁hast": 8,
      "ijinal": 9,
      "40": 10,
      "▁yonel": 11,
      "evizyon": 12,
      "▁mudahal": 13,
      "icileri": 14,
      "▁sonradan": 15,
      "▁tesek": 16,
      "▁ec": 17,
      "▁ha": 18,
      "▁must": 19,
      "▁aras": 20,
      "▁miami'den": 21,
      "imiz": 22,
      "▁form": 23,
      "▁beklenen": 24,
      "ektif": 25,
      "▁ticari": 26,
      "▁gezin": 27,
      "ciler": 28,
      "anlık": 29,
      "tia": 30,
      "▁sırada": 31,
      "▁sarkı": 32,
      "▁kapıyı": 33,
      "▁ili": 34,
      "▁q": 35,
      "tıs": 36,
      "▁uzakta": 37,
      "▁olayı": 38,
      "▁%9.": 39,
      "▁esn": 40,
      "dirde": 41,
      "▁gittim": 42,
      "▁halbuki": 43,
      "▁coz": 44,
      "▁4.6": 45,
      "▁adlandır": 46,
      "▁yeniden": 47,
      "▁otelde": 48,
      "▁artıs": 49,
      "▁angeles'e": 50,
      "▁buy": 51,
      "▁iran": 52,
      "▁birlestir": 53,
      "amda": 54,
      "▁arasında": 55,
      "▁standart": 56,
      ".6": 57,
      "▁ulasımı": 58,
      "▁y": 59,
      "▁olustur": 60,
      "▁yur": 61,
      "cileri": 62,
      "ınca": 63,
      "90": 64,
      "one": 65,
      "▁carsı": 66,
      "▁heyec": 67,
      "▁gogus": 68,
      "▁aray": 69,
      "▁buc": 70,
      "hut": 71,
      "▁u": 72,
      "sem": 73,
      "alanı": 74,
      "▁yken": 75,
      "▁isteyen": 76,
      "imler": 77,
      "▁once": 78,
      "▁indian": 79,
      "ık": 80,
      "▁2017": 81,
      "▁mar": 82,
      "▁bitir": 83,
      "ımız": 84,
      "▁bilgisayar": 85,
      "esini": 86,
      "▁degerli": 87,
      "evi": 88,
      "umun": 89,
      "▁tesp": 90,
      "▁ra": 91,
      "cin": 92,
      "lerle": 93,
      "ikler": 94,
      "▁rıh": 95,
      "▁kirliydi": 96,
      "▁kaydetti": 97,
      "▁sir": 98,
      "▁adı": 99,
      "▁havalimanı": 100,
      "▁trafik": 101,
      "larım": 102,
      "isim": 103,
      "▁first": 104,
      "ımı": 105,
      "▁ameliyat": 106,
      "▁temel": 107,
      "▁kısmen": 108,
      "▁ydim": 109,
      "▁tanın": 110,
      "▁mucadele": 111,
      "▁gozler": 112,
      "dedil": 113,
      "meleri": 114,
      "▁boy": 115,
      "▁ora": 116,
      "▁tesisten": 117,
      "▁harikaydi": 118,
      "dım": 119,
      "▁demokratik": 120,
      "▁gecer": 121,
      "▁tum": 122,
      "▁indianapolis'ten": 123,
      "▁annem": 124,
      "az": 125,
      "ans": 126,
      "▁akl": 127,
      "▁hakkı": 128,
      "▁boc": 129,
      "▁bahset": 130,
      "▁yan": 131,
      "▁acıklam": 132,
      "idik": 133,
      "okr": 134,
      "▁mat": 135,
      "▁tacoma": 136,
      "▁bec": 137,
      "utur": 138,
      "menin": 139,
      "▁yukselt": 140,
      "▁kep": 141,
      "van": 142,
      "▁yetersizdi": 143,
      "▁plaj": 144,
      "▁mektup": 145,
      "eydi": 146,
      "▁yavr": 147,
      "▁madde": 148,
      "▁yapti": 149,
      "▁sivil": 150,
      "eci": 151,
      "▁pur": 152,
      "▁yuzluydu": 153,
      "▁ariz": 154,
      "id": 155,
      "▁mısın": 156,
      "taj": 157,
      "▁prot": 158,
      "▁birka": 159,
      "▁koruy": 160,
      "▁bolumu": 161,
      "ini": 162,
      "ustu": 163,
      "▁diego'ya": 164,
      "gın": 165,
      "▁kendimizi": 166,
      "▁tırman": 167,
      "▁thom": 168,
      "▁ice": 169,
      "▁siy": 170,
      "loy": 171,
      "▁yangın": 172,
      "▁verebilirim": 173,
      "ansız": 174,
      "▁taks": 175,
      "▁italyan": 176,
      "”": 177,
      "aten": 178,
      "▁bon": 179,
      "▁vak": 180,
      "▁bilmek": 181,
      "▁bildir": 182,
      "▁yukselerek": 183,
      "tiy": 184,
      "▁ceza": 185,
      "▁evden": 186,
      "▁aslında": 187,
      "▁dip": 188,
      "masından": 189,
      "onom": 190,
      "▁ortalık": 191,
      "▁alıcı": 192,
      "▁sevg": 193,
      "▁merh": 194,
      "▁chicago'dan": 195,
      "▁rap": 196,
      "▁sekiz": 197,
      "anci": 198,
      "'li": 199,
      "▁kim": 200,
      "▁saglam": 201,
      "▁yetkilileri": 202,
      "▁yalap": 203,
      "▁tut": 204,
      "▁hayal": 205,
      "▁york'tan": 206,
      "▁milletvek": 207,
      "▁sim": 208,
      "▁alısveris": 209,
      "oeni": 210,
      "▁%99": 211,
      "▁yırt": 212,
      "▁ayn": 213,
      "▁prob": 214,
      "alara": 215,
      "lanıyor": 216,
      "hane": 217,
      "▁kaybet": 218,
      "▁etmez": 219,
      "isle": 220,
      "il": 221,
      "▁bulunan": 222,
      "iya": 223,
      "▁koyun": 224,
      "▁karsılas": 225,
      "▁ask": 226,
      "▁dc'ye": 227,
      "▁verecek": 228,
      "▁calısması": 229,
      "liyor": 230,
      "▁dısına": 231,
      "▁dusuktu": 232,
      "▁yaptıgını": 233,
      "▁mc": 234,
      "▁neyi": 235,
      "ku": 236,
      "▁mood": 237,
      "gını": 238,
      "tıkları": 239,
      "▁toplantı": 240,
      "▁begenmedim": 241,
      "▁olumlu": 242,
      "▁ob": 243,
      "▁veririm": 244,
      "▁1.0": 245,
      "liler": 246,
      "▁mud": 247,
      "▁alıskan": 248,
      "▁diger": 249,
      "▁hun": 250,
      "▁birbirler": 251,
      "▁ilg": 252,
      "ısıyla": 253,
      "▁kose": 254,
      "▁almıs": 255,
      "st": 256,
      "▁genislet": 257,
      "▁korkut": 258,
      "▁delta": 259,
      "▁bah": 260,
      "▁etkin": 261,
      "▁buyume": 262,
      "▁gam": 263,
      "'s": 264,
      "▁kendiler": 265,
      "▁guver": 266,
      "▁azalt": 267,
      "uyoruz": 268,
      "▁yedi": 269,
      "▁lung": 270,
      "▁tı": 271,
      "▁n": 272,
      "▁cap": 273,
      "▁cukur": 274,
      "asyonu": 275,
      "▁tad": 276,
      "▁rop": 277,
      "lerine": 278,
      "▁yolun": 279,
      "▁yam": 280,
      "▁askın": 281,
      "lasan": 282,
      "mur": 283,
      "▁uy": 284,
      "unlu": 285,
      "▁sanki": 286,
      "ıcı": 287,
      "dıgından": 288,
      "tıyor": 289,
      "▁bulut": 290,
      "▁esi": 291,
      "▁tepk": 292,
      "▁sureci": 293,
      "'in": 294,
      "▁yasındaki": 295,
      "uste": 296,
      "▁%80": 297,
      "tik": 298,
      "▁gel": 299,
      "▁sonraki": 300,
      "▁adlı": 301,
      "▁han": 302,
      "ry": 303,
      "ph": 304,
      "arlan": 305,
      "▁sirketin": 306,
      "▁oyunun": 307,
      "▁lan": 308,
      "▁washington'a": 309,
      "▁fazlay": 310,
      "astır": 311,
      "▁kucucuk": 312,
      "▁senetlerinin": 313,
      "▁hayata": 314,
      "▁verimli": 315,
      "▁leri": 316,
      "▁gucu": 317,
      "▁yıllarda": 318,
      "▁daha": 319,
      "iydi": 320,
      "▁sav": 321,
      "..": 322,
      "▁lif": 323,
      "▁mimar": 324,
      "te": 325,
      "▁mahkum": 326,
      "ladılar": 327,
      "▁degillerdi": 328,
      "0000": 329,
      "▁insanları": 330,
      "▁eline": 331,
      "ırdı": 332,
      "38": 333,
      "▁cumartesi": 334,
      "▁faturam": 335,
      "▁hayatını": 336,
      "▁sauna": 337,
      "▁gorusuldu": 338,
      "▁eksikligi": 339,
      "ga": 340,
      "▁baltimore'ye": 341,
      "▁bekledigini": 342,
      "▁kaptan": 343,
      "▁yemegi": 344,
      "▁diyar": 345,
      "▁cd": 346,
      "▁pilot": 347,
      "▁kopr": 348,
      "▁bilinen": 349,
      "atlar": 350,
      "lil": 351,
      "▁cek": 352,
      "enz": 353,
      "▁ların": 354,
      "▁ogrenci": 355,
      "▁ki": 356,
      "ef": 357,
      "▁isine": 358,
      "▁verdim": 359,
      "▁alma": 360,
      "▁salı": 361,
      "▁serin": 362,
      "▁sars": 363,
      "egin": 364,
      "▁37": 365,
      "▁basbak": 366,
      "amanın": 367,
      "▁unit": 368,
      "lerimi": 369,
      "oh": 370,
      "yla": 371,
      "gının": 372,
      "usunda": 373,
      "▁bay": 374,
      "▁durgunluk": 375,
      "▁veto": 376,
      "▁sıf": 377,
      "amm": 378,
      "▁dusundu": 379,
      "▁idare": 380,
      "▁durdur": 381,
      "sas": 382,
      "▁muam": 383,
      "ama": 384,
      "▁deri": 385,
      "▁baslıyor": 386,
      "▁ailenin": 387,
      "rak": 388,
      "'n": 389,
      "▁co": 390,
      "▁diyorlar": 391,
      "aki": 392,
      "▁genclik": 393,
      "larımızı": 394,
      "▁gerektigini": 395,
      "sarı": 396,
      "▁verir": 397,
      "▁altı": 398,
      "▁ondan": 399,
      "▁bekleniyor": 400,
      "▁yonetici": 401,
      "▁oturuyor": 402,
      "▁tamamlan": 403,
      "▁gectigimiz": 404,
      "edim": 405,
      "uydu": 406,
      "▁hukumet": 407,
      "▁2.9": 408,
      "▁ded": 409,
      "-23": 410,
      "▁sakal": 411,
      "▁ihtiyac": 412,
      "▁ilgililerdi": 413,
      "▁gokyuz": 414,
      "▁bekleyen": 415,
      "▁saglık": 416,
      "lerdi": 417,
      "ırım": 418,
      "▁hepsine": 419,
      "meden": 420,
      "ılıgı": 421,
      "▁ce": 422,
      "fik": 423,
      "▁ger": 424,
      "▁icini": 425,
      "ılmıs": 426,
      "▁hayatta": 427,
      "▁genellikle": 428,
      "▁son": 429,
      "▁domates": 430,
      "▁mill": 431,
      "▁dunya": 432,
      "ılmıstır": 433,
      "▁parti": 434,
      "▁konuk": 435,
      "melerin": 436,
      "▁ey": 437,
      "▁mesaf": 438,
      "▁hak": 439,
      "sel": 440,
      "▁edecegim": 441,
      "▁yuz": 442,
      "▁bus": 443,
      "▁atan": 444,
      "▁cag": 445,
      "mac": 446,
      "▁devral": 447,
      "vest": 448,
      "▁dik": 449,
      "▁boston": 450,
      ".76": 451,
      "▁kalkıs": 452,
      "▁cıkıs": 453,
      "▁yapı": 454,
      "▁olmustu": 455,
      "43": 456,
      "▁dov": 457,
      "▁onsekiz": 458,
      "lenir": 459,
      "▁kitaplar": 460,
      "▁duv": 461,
      "arson": 462,
      "▁almak": 463,
      "▁zengin": 464,
      "▁kıymetler": 465,
      "asın": 466,
      "▁temizligi": 467,
      "▁kalabal": 468,
      "▁bircog": 469,
      "lig": 470,
      "▁tahvil": 471,
      "▁hab": 472,
      "▁mir": 473,
      "▁las": 474,
      "▁aydınlık": 475,
      "▁prof": 476,
      "▁canı": 477,
      "▁taraf": 478,
      "▁fark": 479,
      "dıkca": 480,
      "itt": 481,
      "▁hukumeti": 482,
      "▁tul": 483,
      "ıh": 484,
      "▁69": 485,
      "▁fr": 486,
      "▁vardi": 487,
      "amıyor": 488,
      "▁icten": 489,
      "mıstı": 490,
      "kı": 491,
      "ak": 492,
      "uk": 493,
      "obr": 494,
      "▁ilgilen": 495,
      "▁ilgilenmedi": 496,
      "▁dır": 497,
      "▁he": 498,
      "▁diken": 499,
      "▁inc.": 500,
      "▁hayır": 501,
      "unt": 502,
      "▁havlu": 503,
      "▁akr": 504,
      "▁philadelphia'ya": 505,
      "larının": 506,
      "▁guzeldi": 507,
      "▁kutu": 508,
      "▁defa": 509,
      "rahim": 510,
      "▁olm": 511,
      "▁sez": 512,
      "diginiz": 513,
      "▁koltuk": 514,
      "▁fiyatlandır": 515,
      "acagını": 516,
      "▁benim": 517,
      ".": 518,
      "▁patlı": 519,
      "inde": 520,
      "▁os": 521,
      "▁milwa": 522,
      "▁kurdu": 523,
      "▁superdi": 524,
      "▁katildim": 525,
      "sah": 526,
      "▁lutf": 527,
      "▁kral": 528,
      "▁18": 529,
      "z": 530,
      "▁birisi": 531,
      "▁?..": 532,
      "▁okudu": 533,
      "▁uzaktan": 534,
      "▁avuc": 535,
      "▁kor": 536,
      "▁bu": 537,
      "▁inti": 538,
      "▁dest": 539,
      "▁vasıtasıyla": 540,
      "▁bazıları": 541,
      "gunuz": 542,
      "▁british": 543,
      "▁biber": 544,
      "▁cagır": 545,
      "00000": 546,
      "artman": 547,
      "izik": 548,
      "▁6": 549,
      "▁kalkıyor": 550,
      "▁gonder": 551,
      "▁vic": 552,
      "▁aktar": 553,
      "▁detroit'e": 554,
      "leriyle": 555,
      "▁aktiv": 556,
      "▁temizlen": 557,
      "▁bekliyor": 558,
      "▁zaman": 559,
      "it": 560,
      "▁tasarru": 561,
      "leyin": 562,
      "innati": 563,
      "▁boyn": 564,
      "▁yontem": 565,
      "▁kendisini": 566,
      "larınız": 567,
      "▁iddi": 568,
      "edir": 569,
      "▁ruz": 570,
      "lardan": 571,
      "▁partiler": 572,
      "▁cadd": 573,
      "▁h": 574,
      "▁9.7": 575,
      "▁sozcu": 576,
      "▁tipik": 577,
      "he": 578,
      "▁miami'ye": 579,
      "▁mırıldan": 580,
      "▁ustelik": 581,
      "otuz": 582,
      "▁ulusal": 583,
      "aj": 584,
      "▁sabahın": 585,
      "▁abd'nin": 586,
      "meyecek": 587,
      "▁toront": 588,
      "cılık": 589,
      "▁ayrıl": 590,
      "ington": 591,
      "▁dey": 592,
      "▁``": 593,
      "lo": 594,
      "▁kıtır": 595,
      "▁yara": 596,
      "▁bugday": 597,
      "▁verdigi": 598,
      "nek": 599,
      "▁lok": 600,
      "▁sık": 601,
      "ımızda": 602,
      "ıcak": 603,
      "▁komp": 604,
      "▁bankası": 605,
      "▁gitmis": 606,
      "▁tug": 607,
      "larındaki": 608,
      "▁busbutun": 609,
      "▁tasar": 610,
      "▁kime": 611,
      "▁veriyor": 612,
      "miyorum": 613,
      "▁mumkun": 614,
      "lasyon": 615,
      "muyor": 616,
      "'i": 617,
      "▁107": 618,
      ",": 619,
      "▁fır": 620,
      "▁yiyecekler": 621,
      "▁tiril": 622,
      "▁cocuklu": 623,
      "▁seyler": 624,
      "tı": 625,
      "▁ets": 626,
      "▁telef": 627,
      "▁cocugu": 628,
      "▁olmayı": 629,
      "▁ettim": 630,
      "▁kacak": 631,
      "▁imalat": 632,
      "acaklar": 633,
      "▁icine": 634,
      "▁kopru": 635,
      "asındaki": 636,
      "▁ispan": 637,
      "▁hiss": 638,
      "▁gozluk": 639,
      "▁nec": 640,
      "▁sunu": 641,
      "lerindeki": 642,
      "▁%5": 643,
      "▁ilan": 644,
      "▁ellerinde": 645,
      "▁6'dan": 646,
      "▁konu": 647,
      "▁la": 648,
      "▁tatil": 649,
      "▁deh": 650,
      "▁nikah": 651,
      "▁olarak": 652,
      "cinin": 653,
      "▁krav": 654,
      "▁bıy": 655,
      "dıklarını": 656,
      "▁15": 657,
      "▁mo": 658,
      "▁perde": 659,
      "▁camur": 660,
      "lasıyor": 661,
      "▁seviy": 662,
      "▁”": 663,
      "▁yuzlerce": 664,
      "'ta": 665,
      "temiz": 666,
      "▁pazartesi": 667,
      "▁seyir": 668,
      "▁aktarmalı": 669,
      "ily": 670,
      "ames": 671,
      "-sat": 672,
      "▁edec": 673,
      "▁belir": 674,
      "▁yeg": 675,
      "▁reh": 676,
      "ilerden": 677,
      "▁un": 678,
      "▁basında": 679,
      "▁olar": 680,
      "larda": 681,
      "aber": 682,
      "▁dedigi": 683,
      "▁oda": 684,
      "▁gunes": 685,
      "▁dol": 686,
      "▁aracılıgıyla": 687,
      "irim": 688,
      "un": 689,
      "▁mayıs": 690,
      "▁ay": 691,
      "▁aldır": 692,
      "lar": 693,
      "lıklar": 694,
      "▁faal": 695,
      "u": 696,
      "▁omuz": 697,
      "▁kaf": 698,
      "▁ikti": 699,
      "▁unut": 700,
      "▁bono": 701,
      "▁francisco'ya": 702,
      "▁aga": 703,
      "misti": 704,
      "▁merkezine": 705,
      "▁hijyen": 706,
      "▁fısır": 707,
      "ayarak": 708,
      "▁balayi": 709,
      "▁kullanmadim": 710,
      "▁urk": 711,
      "▁meyv": 712,
      "▁yaptim": 713,
      "ista": 714,
      "▁500": 715,
      "▁yapan": 716,
      "▁biy": 717,
      "▁count": 718,
      "▁karsılastır": 719,
      "▁tazmin": 720,
      "▁dep": 721,
      "▁tehlik": 722,
      "ıc": 723,
      "▁duzey": 724,
      "▁istedi": 725,
      "hangi": 726,
      "▁tası": 727,
      "▁gulus": 728,
      "▁gumbur": 729,
      "▁atlan": 730,
      "▁orman": 731,
      "▁keyif": 732,
      "emb": 733,
      "▁kullanım": 734,
      "▁dorduncu": 735,
      "emiyorum": 736,
      "▁kadın": 737,
      "madi": 738,
      "▁war": 739,
      "▁ur": 740,
      "▁oakland'a": 741,
      "▁epey": 742,
      "▁munasebet": 743,
      "▁icinden": 744,
      "&": 745,
      "ograf": 746,
      "▁nuf": 747,
      "▁sub": 748,
      "▁oyuncak": 749,
      "▁hisseler": 750,
      "▁sayı": 751,
      "▁hijyenik": 752,
      "▁tır": 753,
      "▁129": 754,
      "▁oyuncu": 755,
      "▁nikkei": 756,
      "▁karsil": 757,
      "▁ucuslar": 758,
      "▁edil": 759,
      "▁baslayacak": 760,
      "▁tecrub": 761,
      "'ı": 762,
      "▁135": 763,
      "samba": 764,
      "▁=": 765,
      "ru": 766,
      "rol": 767,
      "yı": 768,
      "p": 769,
      "▁ibm": 770,
      "▁diego'dan": 771,
      "▁%12": 772,
      "▁musteri": 773,
      "▁ogrenciler": 774,
      "oloji": 775,
      "rik": 776,
      "▁vazgec": 777,
      "▁insanın": 778,
      "▁vatand": 779,
      "bs": 780,
      "▁alcak": 781,
      "▁olcude": 782,
      "▁tavuk": 783,
      "▁dokun": 784,
      "▁big": 785,
      "min": 786,
      "▁baz": 787,
      "abet": 788,
      "▁bors": 789,
      ".8": 790,
      "▁gosteren": 791,
      "▁1989": 792,
      ".55": 793,
      "▁odedigim": 794,
      "▁herhal": 795,
      "▁edilmesi": 796,
      "▁rom": 797,
      "abilecek": 798,
      "kuz": 799,
      "▁sehir": 800,
      "▁zamanda": 801,
      "▁sahibi": 802,
      "▁sapk": 803,
      "▁avantaj": 804,
      "▁kup": 805,
      "eye": 806,
      "unc": 807,
      "▁aram": 808,
      "▁bazılarının": 809,
      "yol": 810,
      "▁olus": 811,
      "▁dogan": 812,
      "uyu": 813,
      "▁degilsiniz": 814,
      "▁yolculuk": 815,
      "etti": 816,
      "ydi": 817,
      "isiyle": 818,
      "▁bakım": 819,
      "▁fi": 820,
      "malarına": 821,
      "▁profesyon": 822,
      "▁edilen": 823,
      "▁anay": 824,
      "▁201": 825,
      "▁tabak": 826,
      "▁466": 827,
      "ebilirdi": 828,
      "▁stratej": 829,
      "▁tiyatr": 830,
      "uga": 831,
      "▁mer": 832,
      "▁kenar": 833,
      "▁kaybetti": 834,
      "gılan": 835,
      "gil": 836,
      "▁denizi": 837,
      "ay": 838,
      "uler": 839,
      "▁kı": 840,
      "▁kans": 841,
      "eld": 842,
      "▁12.5": 843,
      "▁kapan": 844,
      "▁duruyor": 845,
      "ici": 846,
      "▁com": 847,
      "▁gıldır": 848,
      "▁ecz": 849,
      "cesi": 850,
      "▁south": 851,
      "oma": 852,
      "▁pas": 853,
      "▁cıplak": 854,
      "▁yararlan": 855,
      "▁okuy": 856,
      "▁bilen": 857,
      "▁continental": 858,
      "▁bunlar": 859,
      "▁kendilerine": 860,
      "▁anlama": 861,
      "eler": 862,
      "▁fırıl": 863,
      "▁gitmeyi": 864,
      "▁89": 865,
      "onu": 866,
      "0.8": 867,
      "▁birbucuk": 868,
      "▁katılım": 869,
      "▁cocukları": 870,
      "iyer": 871,
      "▁kalem": 872,
      "umda": 873,
      "▁sını": 874,
      "umuz": 875,
      "▁veya": 876,
      "ern": 877,
      "▁onunla": 878,
      "dınız": 879,
      "▁sefer": 880,
      "▁oranları": 881,
      "▁97": 882,
      "▁gitmek": 883,
      "▁gelgelelim": 884,
      "amamıs": 885,
      "▁isler": 886,
      "▁annemin": 887,
      "por": 888,
      "▁baslat": 889,
      "▁kimseye": 890,
      "▁merk": 891,
      "▁197": 892,
      "▁vol": 893,
      "▁got": 894,
      "▁cı": 895,
      "ev": 896,
      "▁poz": 897,
      "ından": 898,
      "▁ev": 899,
      "▁simdiye": 900,
      "▁altmıs": 901,
      "aturk": 902,
      "os": 903,
      "▁yazık": 904,
      "▁eglenc": 905,
      "cel": 906,
      "▁midir": 907,
      "▁sakın": 908,
      "▁meger": 909,
      "asıdır": 910,
      "ate": 911,
      "▁pro": 912,
      "▁aralık": 913,
      "▁vurgul": 914,
      "▁gerektir": 915,
      "▁dug": 916,
      "ne": 917,
      "▁fa": 918,
      "▁kararı": 919,
      "usunu": 920,
      "▁diren": 921,
      "▁tem": 922,
      "▁ozen": 923,
      "▁olusan": 924,
      "ek": 925,
      "▁komutan": 926,
      "▁tercih": 927,
      "▁mini": 928,
      "oster": 929,
      "leb": 930,
      "▁hang": 931,
      "▁`": 932,
      "▁arada": 933,
      "▁vapur": 934,
      "5": 935,
      "▁kendinizi": 936,
      "oks": 937,
      "▁zaten": 938,
      "tern": 939,
      "▁dc'den": 940,
      "▁35": 941,
      "▁hale": 942,
      "▁yakal": 943,
      "▁alımı": 944,
      "▁basın": 945,
      "▁alabil": 946,
      "endim": 947,
      "▁ilgili": 948,
      "▁mantık": 949,
      "▁yse": 950,
      "gi": 951,
      "▁sis": 952,
      "▁onlar": 953,
      "cag": 954,
      "▁iflas": 955,
      "▁pah": 956,
      "▁daima": 957,
      "vek": 958,
      "encer": 959,
      "▁suleyman": 960,
      "▁ogr": 961,
      "▁eve": 962,
      "▁masaya": 963,
      "▁piyas": 964,
      "66": 965,
      "▁agustos": 966,
      "▁muc": 967,
      "re": 968,
      "ash": 969,
      "diler": 970,
      "▁ama": 971,
      "▁doviz": 972,
      "▁aldıgı": 973,
      "▁acıkca": 974,
      "▁yetistir": 975,
      "sef": 976,
      "▁olmuyor": 977,
      "▁varan": 978,
      "▁4.9": 979,
      "▁karayolu": 980,
      "▁1961": 981,
      "memisti": 982,
      "▁gidecek": 983,
      "▁busbut": 984,
      "▁mahkeme": 985,
      "▁ticareti": 986,
      "▁olun": 987,
      "erk": 988,
      "rı": 989,
      "makta": 990,
      "▁kab": 991,
      "tım": 992,
      "ton": 993,
      "▁hikay": 994,
      "ene": 995,
      "▁dum": 996,
      "▁shearson": 997,
      "art": 998,
      "▁elleri": 999,
      "uncu": 1000,
      "▁wh": 1001,
      "▁pır": 1002,
      "▁seyrediyor": 1003,
      "agının": 1004,
      "▁dısı": 1005,
      "▁ulus": 1006,
      "den": 1007,
      "tep": 1008,
      "▁jur": 1009,
      "lin": 1010,
      "▁pıtır": 1011,
      "▁zaf": 1012,
      "▁rehber": 1013,
      "sık": 1014,
      "▁kak": 1015,
      "▁yurtdıs": 1016,
      "▁bazi": 1017,
      "▁muhtemel": 1018,
      "alap": 1019,
      "likleri": 1020,
      "ları": 1021,
      "ya'da": 1022,
      "▁sorustur": 1023,
      "▁ceviz": 1024,
      "kın": 1025,
      "▁hisseye": 1026,
      "▁pozisyon": 1027,
      "▁hem": 1028,
      "▁gonullu": 1029,
      "▁kapat": 1030,
      "▁ca": 1031,
      "ebilmek": 1032,
      "▁konforu": 1033,
      "▁oturma": 1034,
      "▁oteli": 1035,
      "▁som": 1036,
      "▁iddia": 1037,
      "▁financi": 1038,
      "'ten": 1039,
      "ari": 1040,
      "▁beyaz": 1041,
      "▁diz": 1042,
      "▁test": 1043,
      "▁duran": 1044,
      "▁subat": 1045,
      "ıyor": 1046,
      "▁kılı": 1047,
      "▁rob": 1048,
      "▁zamana": 1049,
      "▁goturdu": 1050,
      "▁hakkinda": 1051,
      "suzluk": 1052,
      "kan": 1053,
      "▁islet": 1054,
      "▁montre": 1055,
      "▁sakat": 1056,
      "%": 1057,
      "▁birbirlerini": 1058,
      "ver": 1059,
      "▁gormez": 1060,
      "ye": 1061,
      "▁houston'a": 1062,
      "fer": 1063,
      "▁kısın": 1064,
      "▁yonetim": 1065,
      "▁beraber": 1066,
      "▁me": 1067,
      "▁1.9": 1068,
      "▁bozuk": 1069,
      "▁kisiye": 1070,
      "ustum": 1071,
      "▁kıy": 1072,
      "▁id": 1073,
      "▁org": 1074,
      "alık": 1075,
      "▁aday": 1076,
      "▁detroit": 1077,
      "urken": 1078,
      "▁sozunu": 1079,
      "imser": 1080,
      "▁indianapolis": 1081,
      "esiz": 1082,
      "▁ny": 1083,
      "▁kad": 1084,
      "▁3.9": 1085,
      "85": 1086,
      "▁atlanta'dan": 1087,
      "▁sonucu": 1088,
      "▁yoldan": 1089,
      "ladıgı": 1090,
      "▁sınız": 1091,
      "▁7.6": 1092,
      "▁icim": 1093,
      "▁futbol": 1094,
      "▁sevgil": 1095,
      "▁cet": 1096,
      "dırdı": 1097,
      "▁var": 1098,
      "▁alt": 1099,
      "▁lider": 1100,
      "luydu": 1101,
      "▁dusunuyorum": 1102,
      "▁ibaret": 1103,
      "ıkır": 1104,
      "▁yansıt": 1105,
      "ayan": 1106,
      "▁ciddi": 1107,
      "ka": 1108,
      "dem": 1109,
      "▁gormedim": 1110,
      "▁saatte": 1111,
      "aseb": 1112,
      "▁aldıgını": 1113,
      "▁anladı": 1114,
      "alet": 1115,
      "▁adını": 1116,
      "▁charl": 1117,
      "▁bilet": 1118,
      "iye": 1119,
      "▁neye": 1120,
      "▁fir": 1121,
      "▁uzerine": 1122,
      "▁lazım": 1123,
      "▁biridir": 1124,
      "▁karısı": 1125,
      "giniz": 1126,
      "▁birim": 1127,
      "ach": 1128,
      "▁bocek": 1129,
      "ust": 1130,
      "undaki": 1131,
      "▁yem": 1132,
      "▁bakır": 1133,
      "iddet": 1134,
      "▁minim": 1135,
      "▁400": 1136,
      "melerini": 1137,
      "▁personel": 1138,
      "▁kisiyi": 1139,
      "▁giydi": 1140,
      "▁burn": 1141,
      "▁cinc": 1142,
      "▁kurulan": 1143,
      "▁dolar": 1144,
      "▁fransız": 1145,
      "▁mısınız": 1146,
      "▁yılın": 1147,
      "chell": 1148,
      "yle": 1149,
      "▁istedik": 1150,
      "▁basar": 1151,
      "▁oncesi": 1152,
      "▁pa": 1153,
      "▁yetkililer": 1154,
      "▁sy": 1155,
      "▁ziyaret": 1156,
      "mazlar": 1157,
      "lebilir": 1158,
      "▁hiz": 1159,
      "▁omz": 1160,
      "▁vakt": 1161,
      "usuz": 1162,
      "▁bil": 1163,
      "▁gunun": 1164,
      "▁gunler": 1165,
      "▁dolardan": 1166,
      "▁teslim": 1167,
      "▁tutarında": 1168,
      "▁yaratı": 1169,
      "▁minneapolis'e": 1170,
      "▁oakland'dan": 1171,
      "▁bakımından": 1172,
      "▁birkac": 1173,
      "▁vadeli": 1174,
      "▁tarihli": 1175,
      "▁kırık": 1176,
      "au": 1177,
      "▁makal": 1178,
      "▁kendisi": 1179,
      "lendir": 1180,
      "ese": 1181,
      "0.3": 1182,
      "▁takır": 1183,
      "▁misiniz": 1184,
      "ron": 1185,
      "▁butun": 1186,
      "▁fiyatları": 1187,
      "▁mod": 1188,
      "ilen": 1189,
      "▁pittsburgh": 1190,
      "elerin": 1191,
      "▁angel": 1192,
      "▁yal": 1193,
      "▁emre": 1194,
      "▁ıs": 1195,
      "▁mobil": 1196,
      "▁memphis'ten": 1197,
      "amız": 1198,
      "▁satısa": 1199,
      "▁petrol": 1200,
      "▁icimde": 1201,
      "▁ugras": 1202,
      "egine": 1203,
      "▁og": 1204,
      "vır": 1205,
      "▁hakkında": 1206,
      "▁cıkmıstı": 1207,
      "▁adet": 1208,
      "▁sorumluluk": 1209,
      "▁kalite": 1210,
      "dıgınız": 1211,
      "▁yolunda": 1212,
      "elerle": 1213,
      "▁yer": 1214,
      "▁klim": 1215,
      "▁kurk": 1216,
      "▁kot": 1217,
      "▁karsiligini": 1218,
      "▁oldugunu": 1219,
      "▁bilesik": 1220,
      "▁radyo": 1221,
      "▁93": 1222,
      "▁zorluk": 1223,
      "▁etmiyor": 1224,
      "ira": 1225,
      "enc": 1226,
      "▁pir": 1227,
      "▁s": 1228,
      "▁sekl": 1229,
      "▁asag": 1230,
      "▁pay": 1231,
      "▁pantolon": 1232,
      "▁allah": 1233,
      "und": 1234,
      "gimiz": 1235,
      ".43": 1236,
      "irler": 1237,
      "▁hacmi": 1238,
      "▁eti": 1239,
      "▁ihtimal": 1240,
      "tar": 1241,
      "ch": 1242,
      "▁diyor": 1243,
      "lardı": 1244,
      "▁yuklen": 1245,
      "▁2.2": 1246,
      "▁uyku": 1247,
      "▁hepsinden": 1248,
      "▁renkli": 1249,
      "dav": 1250,
      "asının": 1251,
      "▁york'ta": 1252,
      "▁dem": 1253,
      "▁ucus": 1254,
      "▁sistemi": 1255,
      "gul": 1256,
      "▁pitts": 1257,
      "▁hizmet": 1258,
      "▁suret": 1259,
      "▁ozlem": 1260,
      "▁20": 1261,
      "▁1.6": 1262,
      "▁mol": 1263,
      "▁ucretleri": 1264,
      "▁ozgurluk": 1265,
      "▁kopek": 1266,
      "▁kuvvetleri": 1267,
      "▁kalan": 1268,
      "▁dedim": 1269,
      "▁rej": 1270,
      "sek": 1271,
      "▁yakalan": 1272,
      "yo": 1273,
      "▁lez": 1274,
      "▁portakal": 1275,
      "▁vakit": 1276,
      "acı": 1277,
      "ato": 1278,
      "▁tiyat": 1279,
      "▁medya": 1280,
      "▁kotu": 1281,
      "qu": 1282,
      "1": 1283,
      "▁tamamladı": 1284,
      "▁sair": 1285,
      "ilerin": 1286,
      "ehir": 1287,
      "ock": 1288,
      "ki": 1289,
      "▁hav": 1290,
      "▁sosyal": 1291,
      "▁hizmetleri": 1292,
      "▁berbat": 1293,
      "ormal": 1294,
      "▁kendilerinin": 1295,
      "▁paranın": 1296,
      "aması": 1297,
      "og": 1298,
      "▁danıs": 1299,
      "▁celik": 1300,
      "▁destek": 1301,
      "gıl": 1302,
      "▁nashville'den": 1303,
      "af": 1304,
      "▁iht": 1305,
      "▁tanıt": 1306,
      "▁deyip": 1307,
      "▁ten": 1308,
      "▁baslık": 1309,
      "graf": 1310,
      "kır": 1311,
      "▁uzerinde": 1312,
      "▁merdi": 1313,
      "ger": 1314,
      "▁seviyede": 1315,
      "▁sisman": 1316,
      "▁oteldi": 1317,
      "▁hos": 1318,
      "▁orlando'ya": 1319,
      "▁cor": 1320,
      "▁basa": 1321,
      "▁rapor": 1322,
      "▁ben": 1323,
      "▁etmeyi": 1324,
      "▁arap": 1325,
      "▁evet": 1326,
      "west": 1327,
      "▁donemde": 1328,
      "▁dil": 1329,
      "▁mesela": 1330,
      "▁sovyetler": 1331,
      "mesiyle": 1332,
      "amet": 1333,
      "▁kırmızı": 1334,
      "▁eglence": 1335,
      "leyip": 1336,
      "▁mıdır": 1337,
      "▁ates": 1338,
      "son": 1339,
      "▁duvar": 1340,
      "42": 1341,
      "tak": 1342,
      "▁kurus": 1343,
      "▁sikayet": 1344,
      "dıgını": 1345,
      "dam": 1346,
      "▁televizyon": 1347,
      "ebilirim": 1348,
      "acak": 1349,
      "▁teskil": 1350,
      "▁dieg": 1351,
      "▁2.6": 1352,
      "▁malz": 1353,
      "amiz": 1354,
      "▁yuzme": 1355,
      "▁ide": 1356,
      "▁meyve": 1357,
      "▁haldır": 1358,
      "▁uzerinden": 1359,
      "▁yıldız": 1360,
      "▁korfez": 1361,
      "▁bilgi": 1362,
      "erdi": 1363,
      "▁amc": 1364,
      "▁63": 1365,
      "e": 1366,
      "ud": 1367,
      "▁190": 1368,
      "▁haft": 1369,
      "▁kıyas": 1370,
      "▁soylemek": 1371,
      "▁yeni": 1372,
      "▁organizasyon": 1373,
      "ila": 1374,
      "tigini": 1375,
      "ark": 1376,
      "▁davranıs": 1377,
      "▁kalkıp": 1378,
      "ili": 1379,
      "▁hadi": 1380,
      "lamalar": 1381,
      "▁vad": 1382,
      "▁gecip": 1383,
      "igini": 1384,
      "▁egz": 1385,
      "▁yıldan": 1386,
      "▁corp": 1387,
      "ano": 1388,
      "▁tesis": 1389,
      "▁nokta": 1390,
      "▁ortak": 1391,
      "eli": 1392,
      "▁her": 1393,
      "/4": 1394,
      "▁ot": 1395,
      "▁yanı": 1396,
      "eme": 1397,
      "▁aman": 1398,
      "bank": 1399,
      "▁halihazırda": 1400,
      "▁hurr": 1401,
      "leri": 1402,
      "▁dava": 1403,
      "▁lyn": 1404,
      "▁fonlar": 1405,
      "▁olanak": 1406,
      "sul": 1407,
      "▁haftada": 1408,
      "▁gozlem": 1409,
      "sar": 1410,
      "▁hit": 1411,
      "▁care": 1412,
      "▁ilet": 1413,
      "▁konumu": 1414,
      "▁insanların": 1415,
      "▁yukselen": 1416,
      "▁agır": 1417,
      "emedik": 1418,
      "▁organ": 1419,
      "zet": 1420,
      "▁eden": 1421,
      "▁agr": 1422,
      "▁mecbur": 1423,
      "▁ım": 1424,
      "▁ucusun": 1425,
      "▁300": 1426,
      "▁1991-19": 1427,
      "malarını": 1428,
      "dun": 1429,
      "▁cıktı": 1430,
      "+": 1431,
      "▁dısarıda": 1432,
      "▁sus": 1433,
      "▁hatta": 1434,
      "leyen": 1435,
      "▁katil": 1436,
      "abi": 1437,
      "▁temiz": 1438,
      "▁sup": 1439,
      "▁louis'e": 1440,
      "▁cırp": 1441,
      "▁ge": 1442,
      "▁olmasi": 1443,
      "▁giren": 1444,
      "82": 1445,
      "▁yargıc": 1446,
      "▁250000": 1447,
      "lanan": 1448,
      "▁getirdi": 1449,
      "ing": 1450,
      "▁skan": 1451,
      "ırda": 1452,
      "kal": 1453,
      "▁oper": 1454,
      "osu": 1455,
      "▁em": 1456,
      "▁twa": 1457,
      "'lik": 1458,
      "▁haftalık": 1459,
      "▁calısıyor": 1460,
      "▁israil": 1461,
      "▁hakim": 1462,
      "▁sayf": 1463,
      "▁cincinnati'ye": 1464,
      "▁sonu": 1465,
      "▁kayıp": 1466,
      "▁sanay": 1467,
      "x": 1468,
      "dis": 1469,
      "▁etkilen": 1470,
      "▁istanbul'a": 1471,
      "▁acıp": 1472,
      "'ndaki": 1473,
      "ıza": 1474,
      "▁yarım": 1475,
      "ucu": 1476,
      "▁calısmaya": 1477,
      "tr": 1478,
      "nız": 1479,
      "▁hangi": 1480,
      "▁cirkin": 1481,
      "a.": 1482,
      "▁olmadı": 1483,
      "amaya": 1484,
      "imin": 1485,
      "▁evvel": 1486,
      "▁iskont": 1487,
      "▁6.4": 1488,
      "iyor": 1489,
      "ci": 1490,
      "▁secen": 1491,
      "▁getiri": 1492,
      "▁bell": 1493,
      "▁otobus": 1494,
      "▁satır": 1495,
      "▁mim": 1496,
      "▁kısmı": 1497,
      "vıl": 1498,
      "lari": 1499,
      "lem": 1500,
      "▁oak": 1501,
      "mun": 1502,
      "▁karmasık": 1503,
      "▁hik": 1504,
      "j": 1505,
      "▁risk": 1506,
      "▁ac": 1507,
      "▁ramiz": 1508,
      "▁orada": 1509,
      "▁81": 1510,
      "▁gob": 1511,
      "▁2003": 1512,
      "isine": 1513,
      "▁klasik": 1514,
      "▁rol": 1515,
      "ur": 1516,
      "edeki": 1517,
      "▁sandal": 1518,
      "▁oranında": 1519,
      "▁kay": 1520,
      "▁bisiklet": 1521,
      "▁st": 1522,
      "▁kinden": 1523,
      "▁cocukların": 1524,
      "▁elimi": 1525,
      "▁kimin": 1526,
      "▁fl": 1527,
      "erin": 1528,
      "▁iktidar": 1529,
      "▁misafir": 1530,
      "▁yaptıgı": 1531,
      "▁obur": 1532,
      "▁ep": 1533,
      "▁milwaukee": 1534,
      "amın": 1535,
      "▁tuc": 1536,
      "▁girdi": 1537,
      "▁fık": 1538,
      "▁4.3": 1539,
      "▁tuccar": 1540,
      "▁bolum": 1541,
      "▁yanıt": 1542,
      "▁eger": 1543,
      "▁dans": 1544,
      "▁sh": 1545,
      "acaktır": 1546,
      "▁teminat": 1547,
      "#": 1548,
      "▁baslamıs": 1549,
      "▁jones": 1550,
      "▁sifir": 1551,
      "▁yiy": 1552,
      "deri": 1553,
      "▁tutan": 1554,
      "▁0.7": 1555,
      "yim": 1556,
      "▁ugra": 1557,
      "▁milli": 1558,
      "▁uzakti": 1559,
      "▁ydik": 1560,
      "▁tekrar": 1561,
      "▁toz": 1562,
      "▁asır": 1563,
      "iyeti": 1564,
      "▁acil": 1565,
      "emek": 1566,
      "▁sers": 1567,
      "isindan": 1568,
      "rek": 1569,
      "ımın": 1570,
      "▁yatırımcıları": 1571,
      "▁ici": 1572,
      "meler": 1573,
      "abz": 1574,
      "yas": 1575,
      "▁muhal": 1576,
      "▁gercekten": 1577,
      "▁olsa": 1578,
      "▁edi": 1579,
      "ıtır": 1580,
      "kırk": 1581,
      "tas": 1582,
      "▁fal": 1583,
      "▁yahut": 1584,
      "▁ani": 1585,
      "▁'": 1586,
      "▁durmadan": 1587,
      "▁rut": 1588,
      "▁nob": 1589,
      "▁olmustur": 1590,
      "'nde": 1591,
      "▁degisimi": 1592,
      "▁odamiz": 1593,
      "▁hayran": 1594,
      "lardaki": 1595,
      "▁soyluyorlar": 1596,
      "▁yasanan": 1597,
      "▁sol": 1598,
      "▁ilgisizdi": 1599,
      "▁ban": 1600,
      "▁bankalar": 1601,
      "▁ag": 1602,
      "▁ila": 1603,
      "imi": 1604,
      "▁hayatı": 1605,
      "▁itir": 1606,
      "▁gitt": 1607,
      "▁suru": 1608,
      "kiz": 1609,
      "▁ney": 1610,
      "ital": 1611,
      "▁basbakan": 1612,
      "▁sayisi": 1613,
      "inizi": 1614,
      "▁basvur": 1615,
      ".51": 1616,
      "▁600": 1617,
      "▁2004": 1618,
      "▁vi": 1619,
      "30": 1620,
      "▁mevcut": 1621,
      "ligi": 1622,
      "esine": 1623,
      "▁verin": 1624,
      "▁dusunceler": 1625,
      "▁ozgur": 1626,
      "▁%3.5": 1627,
      "▁cab": 1628,
      "▁36": 1629,
      "▁muhim": 1630,
      "▁sıkıstır": 1631,
      "▁ayrılan": 1632,
      "lılık": 1633,
      "▁kong": 1634,
      "▁ceb": 1635,
      "▁kampanya": 1636,
      "▁kez": 1637,
      "sekiz": 1638,
      "uru": 1639,
      "hos": 1640,
      "▁miras": 1641,
      "▁bakar": 1642,
      "▁soyle": 1643,
      "▁haydi": 1644,
      "▁kam": 1645,
      "isinin": 1646,
      "edil": 1647,
      "▁nedeniyle": 1648,
      "al": 1649,
      "▁dolan": 1650,
      "▁kop": 1651,
      "▁americ": 1652,
      "▁olmadıgını": 1653,
      "▁dususle": 1654,
      "▁yay": 1655,
      "▁haket": 1656,
      "▁karn": 1657,
      "▁gelirler": 1658,
      "amayan": 1659,
      "▁kendime": 1660,
      "▁dizi": 1661,
      "eg": 1662,
      "▁kalitesi": 1663,
      "▁devir": 1664,
      "▁baltimore'den": 1665,
      "▁fena": 1666,
      "cısı": 1667,
      "▁temmuz": 1668,
      "▁kosk": 1669,
      "▁olduklarını": 1670,
      "ab": 1671,
      "mini": 1672,
      "▁kızın": 1673,
      "▁alınan": 1674,
      "orth": 1675,
      "dedi": 1676,
      "tari": 1677,
      "▁aqua": 1678,
      "▁super": 1679,
      "▁bahc": 1680,
      "▁kıvr": 1681,
      "▁konusmalar": 1682,
      "ecekti": 1683,
      "▁gay": 1684,
      "biy": 1685,
      "▁iy": 1686,
      "tılar": 1687,
      "▁gold": 1688,
      "▁karsın": 1689,
      "▁5-1": 1690,
      "▁attıgı": 1691,
      "veland": 1692,
      "▁tip": 1693,
      "▁10'dan": 1694,
      "▁isci": 1695,
      "▁kendim": 1696,
      "▁tun": 1697,
      "▁nus": 1698,
      "▁havuzu": 1699,
      "▁kamyon": 1700,
      "lastı": 1701,
      "▁tampa'ya": 1702,
      "▁sesleri": 1703,
      "istir": 1704,
      "▁hepimizi": 1705,
      "aya": 1706,
      "▁duruyordu": 1707,
      "▁hazırlık": 1708,
      "▁ayakk": 1709,
      "▁vatan": 1710,
      "▁boston'dan": 1711,
      "▁satısları": 1712,
      "▁abd'de": 1713,
      "▁yonet": 1714,
      "▁fazlas": 1715,
      "▁harekete": 1716,
      "60": 1717,
      "▁yemeklerin": 1718,
      "▁miyim": 1719,
      "▁petersburg'dan": 1720,
      "ısının": 1721,
      "▁emin": 1722,
      "▁tor": 1723,
      "?": 1724,
      "▁sorunları": 1725,
      "ufur": 1726,
      "cuk": 1727,
      "▁miz": 1728,
      "▁american": 1729,
      "▁i": 1730,
      "bi": 1731,
      "▁urun": 1732,
      "meyi": 1733,
      "▁ustun": 1734,
      "eder": 1735,
      "▁umit": 1736,
      "▁universitesi": 1737,
      "_": 1738,
      "▁kar": 1739,
      "▁saglıyor": 1740,
      "▁gelmisti": 1741,
      "▁otob": 1742,
      "▁olmak": 1743,
      "▁cıkar": 1744,
      "▁isbir": 1745,
      "▁tam": 1746,
      "▁dalga": 1747,
      "▁cumhurbaskanı": 1748,
      "▁nev": 1749,
      "▁nez": 1750,
      "▁ası": 1751,
      "madik": 1752,
      "▁rezerv": 1753,
      "▁amma": 1754,
      "dir": 1755,
      "▁tiyatro": 1756,
      "▁karakter": 1757,
      "▁bıyık": 1758,
      "▁degilim": 1759,
      "▁bahsederim": 1760,
      "▁bahs": 1761,
      "▁doksan": 1762,
      "▁artan": 1763,
      "▁pac": 1764,
      "▁hakkındaki": 1765,
      "▁guleryuzlu": 1766,
      "▁gro": 1767,
      "▁ediyor": 1768,
      "sa": 1769,
      "baz": 1770,
      "abilecegini": 1771,
      "ine": 1772,
      "▁1989-8": 1773,
      "ng": 1774,
      "▁davran": 1775,
      "madıgı": 1776,
      "▁haber": 1777,
      "tiler": 1778,
      "▁altına": 1779,
      "▁44": 1780,
      "\"": 1781,
      "▁yuklu": 1782,
      "▁yalnız": 1783,
      "▁memphis'e": 1784,
      "▁memph": 1785,
      "▁oyn": 1786,
      "▁planlıyor": 1787,
      "▁ham": 1788,
      "▁okumak": 1789,
      "▁temet": 1790,
      "▁girmek": 1791,
      "▁toh": 1792,
      "▁18.": 1793,
      "gıc": 1794,
      "▁m": 1795,
      "▁gerekir": 1796,
      "uyorum": 1797,
      "▁.8": 1798,
      "▁soylen": 1799,
      "lanması": 1800,
      "▁politik": 1801,
      "▁ulasıl": 1802,
      "▁3.5": 1803,
      "▁konusunda": 1804,
      "▁ankete": 1805,
      "▁serb": 1806,
      "▁gunlerde": 1807,
      "▁ig": 1808,
      "▁ve": 1809,
      "a'nın": 1810,
      "▁yıllardır": 1811,
      "▁kasım": 1812,
      "iyim": 1813,
      "▁zır": 1814,
      "▁lezzet": 1815,
      "▁sikinti": 1816,
      "▁isini": 1817,
      "anın": 1818,
      "▁oldur": 1819,
      "▁varlık": 1820,
      "▁egitim": 1821,
      "▁yanında": 1822,
      "▁istiyorum": 1823,
      "▁oturup": 1824,
      "▁york'a": 1825,
      "▁oyk": 1826,
      "▁havayollarının": 1827,
      "▁gazetec": 1828,
      "casına": 1829,
      "▁denem": 1830,
      "▁gerekiyor": 1831,
      "▁uyandır": 1832,
      "▁ydi": 1833,
      "▁ipek": 1834,
      "▁bol": 1835,
      "▁sayın": 1836,
      "▁yunan": 1837,
      "▁ver": 1838,
      "om": 1839,
      "▁krizi": 1840,
      "▁ucan": 1841,
      "▁bin": 1842,
      "▁yav": 1843,
      "▁hangisi": 1844,
      "masın": 1845,
      "▁bilin": 1846,
      "@": 1847,
      "▁calısan": 1848,
      "▁tedarik": 1849,
      "▁sac": 1850,
      "▁ilgil": 1851,
      "ebilecegini": 1852,
      "uc": 1853,
      "▁britan": 1854,
      "▁faaliyet": 1855,
      "▁dom": 1856,
      "alım": 1857,
      "▁tasın": 1858,
      "ızı": 1859,
      "▁bod": 1860,
      "▁1984": 1861,
      "lanma": 1862,
      "▁duskun": 1863,
      "▁sp": 1864,
      "▁avrupa": 1865,
      "ece": 1866,
      "89-": 1867,
      "mamıstı": 1868,
      "▁mıyım": 1869,
      "▁asıl": 1870,
      "▁maliyeti": 1871,
      "yız": 1872,
      "▁tuhaf": 1873,
      "▁yazılım": 1874,
      "▁ucu": 1875,
      "uth": 1876,
      "▁yıg": 1877,
      "▁binbir": 1878,
      "acık": 1879,
      "▁kisi": 1880,
      "▁taz": 1881,
      "▁ikisi": 1882,
      "tek": 1883,
      "▁duydum": 1884,
      "▁geldigini": 1885,
      "n": 1886,
      "▁ticaret": 1887,
      "lıgıyla": 1888,
      "▁sarı": 1889,
      "bus": 1890,
      "iyat": 1891,
      "4.8": 1892,
      "▁edin": 1893,
      "▁cez": 1894,
      "▁kalit": 1895,
      "lamıstı": 1896,
      "memiz": 1897,
      "▁itiraz": 1898,
      "saydı": 1899,
      "▁ele": 1900,
      "▁aydın": 1901,
      "▁kade": 1902,
      "▁pırıl": 1903,
      "▁toplan": 1904,
      "▁gund": 1905,
      "etir": 1906,
      "▁kork": 1907,
      "andan": 1908,
      "▁cıktım": 1909,
      "▁yuksel": 1910,
      "▁etkil": 1911,
      "anc": 1912,
      "▁kabil": 1913,
      "larıyla": 1914,
      "▁kavram": 1915,
      "▁oturdu": 1916,
      "▁odaya": 1917,
      "arlar": 1918,
      "▁tasıyor": 1919,
      "larına": 1920,
      "▁hisse": 1921,
      "▁birbirinden": 1922,
      "▁tesisti": 1923,
      "▁veriyorum": 1924,
      "5.": 1925,
      "ıt": 1926,
      "▁cer": 1927,
      "▁kısı": 1928,
      "▁ucusunuz": 1929,
      "▁1980": 1930,
      "ag": 1931,
      "▁gazet": 1932,
      "larımı": 1933,
      "mar": 1934,
      "▁ual": 1935,
      "ts": 1936,
      "▁seyr": 1937,
      "▁kaybol": 1938,
      "▁yerlerde": 1939,
      "▁1995": 1940,
      "▁185": 1941,
      "med": 1942,
      "▁arkadasım": 1943,
      "▁bicimde": 1944,
      "▁okum": 1945,
      "akat": 1946,
      "▁baslı": 1947,
      "▁annesinin": 1948,
      "gımız": 1949,
      "▁esir": 1950,
      "▁yapildi": 1951,
      "▁orgut": 1952,
      "ukee": 1953,
      "▁baska": 1954,
      "▁176": 1955,
      "▁indirim": 1956,
      "▁gitti": 1957,
      "▁tanım": 1958,
      "▁animasyonlar": 1959,
      "▁bıc": 1960,
      "▁fedakar": 1961,
      "▁kutur": 1962,
      "▁kadar": 1963,
      "ij": 1964,
      "ginde": 1965,
      "▁vermeye": 1966,
      "asır": 1967,
      "iti": 1968,
      "masız": 1969,
      "▁on": 1970,
      "▁kahval": 1971,
      "ahi": 1972,
      "▁geciyor": 1973,
      "▁2005": 1974,
      "lamak": 1975,
      "▁kaybeden": 1976,
      "atı": 1977,
      "▁suyunu": 1978,
      "enler": 1979,
      "h": 1980,
      "lendi": 1981,
      "▁ustunden": 1982,
      "▁atlanta'ya": 1983,
      "▁ydım": 1984,
      "y's": 1985,
      "▁potansiy": 1986,
      "roit": 1987,
      "▁araya": 1988,
      "▁mis": 1989,
      "land": 1990,
      "▁miy": 1991,
      "▁bayan": 1992,
      "▁tv": 1993,
      "ung": 1994,
      "▁kaldim": 1995,
      "▁bor": 1996,
      "▁oyunu": 1997,
      "▁gok": 1998,
      "▁pembe": 1999,
      "▁port": 2000,
      "▁istiyordu": 2001,
      "▁fransa": 2002,
      "▁pr": 2003,
      "▁birkacı": 2004,
      "▁ureticisi": 2005,
      "▁ısı": 2006,
      "▁ucyuz": 2007,
      "yedi": 2008,
      "▁ad": 2009,
      "▁washington'dan": 2010,
      "▁%3.4": 2011,
      "▁tezgah": 2012,
      "▁hazırlanısı": 2013,
      "esem": 2014,
      "ildik": 2015,
      "ecegimiz": 2016,
      "gah": 2017,
      "▁1991": 2018,
      "▁unlu": 2019,
      "suz": 2020,
      "▁varıyor": 2021,
      "▁isletmeler": 2022,
      "▁agustos'ta": 2023,
      "▁dukkan": 2024,
      "▁%13": 2025,
      "▁duzelt": 2026,
      "▁turkler": 2027,
      "▁gor": 2028,
      "▁yogun": 2029,
      "▁terc": 2030,
      "▁tokyo": 2031,
      "…": 2032,
      "▁yont": 2033,
      "emez": 2034,
      "▁niyet": 2035,
      "▁ingilizce": 2036,
      "▁ayr": 2037,
      "▁edile": 2038,
      "▁siyas": 2039,
      "yuz": 2040,
      "ibe": 2041,
      "kah": 2042,
      "ess": 2043,
      "▁mor": 2044,
      "▁muduru": 2045,
      "▁samp": 2046,
      "▁degerlendiririm": 2047,
      "▁birdenbire": 2048,
      "▁indir": 2049,
      "kara": 2050,
      "▁kapasitesi": 2051,
      "▁ib": 2052,
      "▁ap": 2053,
      "▁olmaz": 2054,
      "▁konum": 2055,
      "▁gazete": 2056,
      "▁muy": 2057,
      "▁ph": 2058,
      "▁78": 2059,
      "'de": 2060,
      "ven": 2061,
      "liginden": 2062,
      "▁aldılar": 2063,
      "ester": 2064,
      "▁ka": 2065,
      "▁dow": 2066,
      "▁ekibi": 2067,
      "▁65": 2068,
      "▁milyonluk": 2069,
      "▁genc": 2070,
      "▁bunlara": 2071,
      "azı": 2072,
      "▁cleveland'a": 2073,
      "agını": 2074,
      "ısın": 2075,
      "masında": 2076,
      "▁titr": 2077,
      "▁law": 2078,
      "▁rez": 2079,
      "▁kut": 2080,
      "▁arab": 2081,
      "▁hisset": 2082,
      "▁mily": 2083,
      "▁sırasında": 2084,
      "▁alay": 2085,
      "▁birinin": 2086,
      "dılar": 2087,
      "▁fikri": 2088,
      "▁karak": 2089,
      "▁birbirinin": 2090,
      "▁ince": 2091,
      "▁avustral": 2092,
      "▁ithalat": 2093,
      "co": 2094,
      "▁yaptir": 2095,
      "▁gelis": 2096,
      "tır": 2097,
      "▁16": 2098,
      "▁hangileri": 2099,
      "▁hul": 2100,
      "▁agab": 2101,
      "▁sınır": 2102,
      "▁14": 2103,
      "ginden": 2104,
      "▁iste": 2105,
      "▁ov": 2106,
      "▁buyum": 2107,
      "▁eas": 2108,
      "–": 2109,
      "▁basarı": 2110,
      "▁denizin": 2111,
      "▁yog": 2112,
      "▁sabaha": 2113,
      "▁cogal": 2114,
      "▁kalacak": 2115,
      "ville": 2116,
      "▁tutum": 2117,
      "48": 2118,
      "▁ısıl": 2119,
      "arım": 2120,
      "▁tartısmalar": 2121,
      "▁cami": 2122,
      "▁muyuz": 2123,
      "makla": 2124,
      "▁sehr": 2125,
      "ının": 2126,
      "ustos": 2127,
      "▁dagıt": 2128,
      "▁nam": 2129,
      "▁tac": 2130,
      "▁onay": 2131,
      "▁sayet": 2132,
      "▁seyahat": 2133,
      "▁bag": 2134,
      "▁konumundan": 2135,
      "▁karsılan": 2136,
      "lemeye": 2137,
      "▁eb": 2138,
      "▁muhtemelen": 2139,
      "▁kalmıstı": 2140,
      "ayı": 2141,
      "▁in": 2142,
      "▁iki": 2143,
      "ost": 2144,
      "▁cem": 2145,
      "met": 2146,
      "▁tarafa": 2147,
      "▁yasay": 2148,
      "▁j": 2149,
      "▁cogunu": 2150,
      "4.5": 2151,
      "▁calisanlari": 2152,
      "2.1": 2153,
      "unden": 2154,
      "▁borcu": 2155,
      "akk": 2156,
      "▁pam": 2157,
      "▁bunda": 2158,
      "-6": 2159,
      "▁vergisi": 2160,
      "▁altında": 2161,
      "egas": 2162,
      "▁vasat": 2163,
      "▁nik": 2164,
      ".2": 2165,
      "▁sayısı": 2166,
      "▁kalk": 2167,
      "▁becer": 2168,
      "▁musta": 2169,
      "▁californ": 2170,
      "▁atıl": 2171,
      "▁ayında": 2172,
      "▁bununla": 2173,
      "▁ir": 2174,
      "▁jose'ye": 2175,
      "▁damak": 2176,
      "▁yoksul": 2177,
      "▁p": 2178,
      "ec": 2179,
      "▁odem": 2180,
      "▁9.8": 2181,
      "▁lu": 2182,
      "▁phoenix'e": 2183,
      "▁hasta": 2184,
      "▁musteriler": 2185,
      "▁ruy": 2186,
      "▁istedigi": 2187,
      "▁city'den": 2188,
      "di": 2189,
      "▁yasa": 2190,
      "▁seviyesine": 2191,
      "acagına": 2192,
      "▁75": 2193,
      "▁nedeni": 2194,
      "▁yetk": 2195,
      "alan": 2196,
      "▁istanbul": 2197,
      "▁united": 2198,
      "▁karsilama": 2199,
      "▁fazlasını": 2200,
      "▁sınav": 2201,
      "▁bık": 2202,
      "▁calıstır": 2203,
      "▁tahmini": 2204,
      "▁odam": 2205,
      "$": 2206,
      "raz": 2207,
      "▁yapmaktan": 2208,
      "▁olsaydı": 2209,
      "arken": 2210,
      "iran": 2211,
      "das": 2212,
      "▁bagır": 2213,
      "▁hev": 2214,
      "▁ltd.": 2215,
      "imden": 2216,
      "▁1.1": 2217,
      "yıl": 2218,
      "▁partisi": 2219,
      "eceg": 2220,
      "▁usul": 2221,
      "▁sov": 2222,
      "meni": 2223,
      "▁yasında": 2224,
      "▁103": 2225,
      "▁yuzey": 2226,
      "ums": 2227,
      "▁halihaz": 2228,
      "▁donemi": 2229,
      "▁kalır": 2230,
      "▁iceri": 2231,
      "▁av": 2232,
      "▁o": 2233,
      "▁devlet": 2234,
      "▁masal": 2235,
      "iza": 2236,
      "▁6.9": 2237,
      "▁urunleri": 2238,
      "▁mekan": 2239,
      "▁birles": 2240,
      "▁duyar": 2241,
      "▁kahraman": 2242,
      "▁acele": 2243,
      "▁demektir": 2244,
      "▁hani": 2245,
      "cagız": 2246,
      "▁oz": 2247,
      "rar": 2248,
      "ez": 2249,
      "▁sofor": 2250,
      "▁ab": 2251,
      "rin": 2252,
      "▁48": 2253,
      "ız": 2254,
      "▁sozcuk": 2255,
      "▁cit": 2256,
      "▁tit": 2257,
      "izm": 2258,
      "▁sayg": 2259,
      "aca": 2260,
      "ana": 2261,
      "elerek": 2262,
      "▁agzını": 2263,
      "▁1974": 2264,
      "▁belli": 2265,
      "▁kalitesinden": 2266,
      "▁konusuyor": 2267,
      "▁muz": 2268,
      "▁konustu": 2269,
      "▁yardımcısı": 2270,
      "▁basit": 2271,
      "▁kullanıyor": 2272,
      "alarına": 2273,
      "▁68": 2274,
      "arak": 2275,
      "ro": 2276,
      "eyn": 2277,
      "▁biri": 2278,
      "▁arkasında": 2279,
      "▁japonya'nın": 2280,
      "▁lideri": 2281,
      "▁ceyrek": 2282,
      "▁zevk": 2283,
      "▁kilit": 2284,
      "▁egem": 2285,
      "lanmıs": 2286,
      "▁iyilestir": 2287,
      "▁california": 2288,
      "▁dam": 2289,
      "▁kıbr": 2290,
      "▁iz": 2291,
      "▁kalıyor": 2292,
      "▁arac": 2293,
      "▁seksen": 2294,
      "▁sure": 2295,
      "▁soguk": 2296,
      "▁eliyle": 2297,
      "▁basarili": 2298,
      "▁uretimi": 2299,
      "▁83": 2300,
      "uya": 2301,
      "diniz": 2302,
      "▁4": 2303,
      "▁seg": 2304,
      "▁birlikte": 2305,
      "▁gonl": 2306,
      "▁azal": 2307,
      "kar": 2308,
      "▁kom": 2309,
      "unu": 2310,
      "▁charlotte": 2311,
      "▁hedefi": 2312,
      "▁yapılan": 2313,
      "▁425": 2314,
      "1-19": 2315,
      "▁icra": 2316,
      "▁bıraktı": 2317,
      "▁motor": 2318,
      "▁kacın": 2319,
      "▁hom": 2320,
      "▁simdi": 2321,
      "▁potansiyel": 2322,
      "obil": 2323,
      "cusu": 2324,
      "emedim": 2325,
      "|": 2326,
      "▁arb": 2327,
      "▁size": 2328,
      "▁kotuydu": 2329,
      "▁servet": 2330,
      "▁yakin": 2331,
      "▁cr": 2332,
      "ersiz": 2333,
      "▁surec": 2334,
      "elik": 2335,
      "▁dogal": 2336,
      "aga": 2337,
      "sal": 2338,
      "mamak": 2339,
      "▁bul": 2340,
      "▁dogum": 2341,
      "▁contin": 2342,
      "sk": 2343,
      "▁manzarasi": 2344,
      "▁tap": 2345,
      "▁savas": 2346,
      "▁nar": 2347,
      "▁teh": 2348,
      "▁cleveland": 2349,
      "▁matem": 2350,
      "▁ku": 2351,
      "▁kullanılıyor": 2352,
      "▁beb": 2353,
      "▁25": 2354,
      "▁ataturk": 2355,
      "▁seh": 2356,
      "▁1500": 2357,
      "▁gecesi": 2358,
      "erve": 2359,
      "▁islerini": 2360,
      "▁52": 2361,
      "▁husus": 2362,
      "▁87": 2363,
      "▁fiyata": 2364,
      "▁nice": 2365,
      "b": 2366,
      "▁hamle": 2367,
      "▁dusundum": 2368,
      "▁dilek": 2369,
      "▁cıp": 2370,
      "tere": 2371,
      "dıgım": 2372,
      "▁gelisim": 2373,
      "▁numaralı": 2374,
      "▁oglum": 2375,
      "▁charlotte'ye": 2376,
      "▁listeleyin": 2377,
      "'yu": 2378,
      "▁silin": 2379,
      "▁but": 2380,
      "san": 2381,
      "▁kurulus": 2382,
      "▁iri": 2383,
      "▁sıra": 2384,
      "▁duzen": 2385,
      "▁oluyor": 2386,
      "▁avuk": 2387,
      "▁doları'ndan": 2388,
      "▁pirinc": 2389,
      "▁85": 2390,
      "▁atesi": 2391,
      "35": 2392,
      "▁fikir": 2393,
      "▁denver": 2394,
      "▁hizmeti": 2395,
      "dı": 2396,
      "▁yapacak": 2397,
      "▁53": 2398,
      "▁aksine": 2399,
      "abı": 2400,
      "▁manz": 2401,
      "agın": 2402,
      "▁pahaliydi": 2403,
      "allı": 2404,
      "liyorum": 2405,
      "▁kimyasal": 2406,
      "iyorum": 2407,
      "▁ortada": 2408,
      "▁okul": 2409,
      "▁sabahı": 2410,
      "▁teknoloj": 2411,
      "▁ısık": 2412,
      "eyi": 2413,
      "▁donup": 2414,
      "▁alıyor": 2415,
      "isi": 2416,
      "▁and": 2417,
      "▁huzur": 2418,
      "ekim": 2419,
      "▁dallas'ta": 2420,
      "ard": 2421,
      "gel": 2422,
      "▁oyna": 2423,
      "▁bakıyor": 2424,
      "dikten": 2425,
      "▁muthis": 2426,
      "▁donem": 2427,
      "▁ortalam": 2428,
      "▁etmesi": 2429,
      "▁duman": 2430,
      "▁ayrıca": 2431,
      "ok": 2432,
      "▁tavır": 2433,
      "▁dolara": 2434,
      "▁pet": 2435,
      "▁yuk": 2436,
      "ecektir": 2437,
      "isleri": 2438,
      "▁guler": 2439,
      "▁elb": 2440,
      "▁kendimize": 2441,
      "emiz": 2442,
      "▁darbe": 2443,
      "▁1988": 2444,
      "ustur": 2445,
      "▁fabrik": 2446,
      "▁trust": 2447,
      "▁gunden": 2448,
      "idi": 2449,
      "medigini": 2450,
      "eyecek": 2451,
      "mma": 2452,
      "▁muda": 2453,
      "▁sirketlerin": 2454,
      "ben": 2455,
      "istik": 2456,
      "▁evde": 2457,
      "ram": 2458,
      "ilmis": 2459,
      "▁gune": 2460,
      "▁benz": 2461,
      "▁7.8": 2462,
      "▁kampanyalar": 2463,
      "▁hur": 2464,
      "▁mevzu": 2465,
      "madıgını": 2466,
      "▁adama": 2467,
      "▁borsası'nda": 2468,
      "iskin": 2469,
      "baren": 2470,
      "▁oturmus": 2471,
      "▁moda": 2472,
      "▁ikib": 2473,
      "▁portf": 2474,
      "▁bina": 2475,
      "▁lık": 2476,
      "▁sm": 2477,
      "▁digerleri": 2478,
      "▁kuzu": 2479,
      "▁bulunmaktadır": 2480,
      "▁ankara": 2481,
      "▁izm": 2482,
      "etik": 2483,
      "▁hareketi": 2484,
      "ilerine": 2485,
      "▁kayıt": 2486,
      "▁uygulama": 2487,
      "▁dinlen": 2488,
      "ıl": 2489,
      "biye": 2490,
      "▁muht": 2491,
      "ilerdi": 2492,
      "▁cumhuriyeti": 2493,
      "▁alın": 2494,
      "▁yasamadik": 2495,
      "-m": 2496,
      "▁kalb": 2497,
      "▁72": 2498,
      "77": 2499,
      "▁ucreti": 2500,
      "▁gelenek": 2501,
      "▁gidip": 2502,
      "▁birimiz": 2503,
      "inal": 2504,
      "alı": 2505,
      "▁cıkıp": 2506,
      "▁nereye": 2507,
      "▁hızla": 2508,
      "▁oldug": 2509,
      "▁dediler": 2510,
      "▁cıvıl": 2511,
      "▁gordugu": 2512,
      "▁pant": 2513,
      "▁ann": 2514,
      "▁ardından": 2515,
      "▁tik": 2516,
      "▁1997": 2517,
      "▁yana": 2518,
      "iness": 2519,
      "ustr": 2520,
      "▁buh": 2521,
      "arı": 2522,
      "▁hicbirinin": 2523,
      "▁isk": 2524,
      "▁por": 2525,
      "▁meyal": 2526,
      "indan": 2527,
      "▁doldur": 2528,
      "▁cizgi": 2529,
      "▁faiz": 2530,
      "of": 2531,
      "▁halkın": 2532,
      "▁toronto": 2533,
      "▁4'ten": 2534,
      "lıgında": 2535,
      "▁b.": 2536,
      "▁sizi": 2537,
      "▁yak": 2538,
      "▁gozunu": 2539,
      "▁komisyonlar": 2540,
      "▁arkadaslar": 2541,
      "▁pufur": 2542,
      "▁22": 2543,
      "▁dedik": 2544,
      "maya": 2545,
      "▁fiyatlar": 2546,
      "▁kumas": 2547,
      "od": 2548,
      "ırı": 2549,
      "tılı": 2550,
      "lenmis": 2551,
      "▁nef": 2552,
      "▁kalkıslı": 2553,
      "ata": 2554,
      "iliyor": 2555,
      "▁kultur": 2556,
      "dum": 2557,
      "vert": 2558,
      "▁komut": 2559,
      "▁burbank": 2560,
      "rum": 2561,
      "ustral": 2562,
      "▁141": 2563,
      "▁49": 2564,
      "▁dr.": 2565,
      "ısır": 2566,
      "▁hafta": 2567,
      "▁mahkemesi": 2568,
      "bası": 2569,
      "▁142": 2570,
      "▁fasul": 2571,
      "▁_": 2572,
      "-19": 2573,
      "▁tanı": 2574,
      "▁zih": 2575,
      "▁adi": 2576,
      "▁edip": 2577,
      "▁gere": 2578,
      "▁sen": 2579,
      "▁ız": 2580,
      "▁satısı": 2581,
      "isler": 2582,
      "▁mudur": 2583,
      "▁im": 2584,
      "ecik": 2585,
      "▁ihr": 2586,
      "maması": 2587,
      "▁amerikalı": 2588,
      "av": 2589,
      "▁kusk": 2590,
      "i'nin": 2591,
      "mayan": 2592,
      "▁bun": 2593,
      "yeni": 2594,
      "▁baslarında": 2595,
      "▁alanda": 2596,
      "ersey": 2597,
      "▁tim": 2598,
      "ilerinin": 2599,
      "▁iyisi": 2600,
      "▁nokt": 2601,
      "▁nis": 2602,
      "▁yon": 2603,
      "▁burun": 2604,
      "ilerle": 2605,
      "yım": 2606,
      "lerin": 2607,
      "ica": 2608,
      "▁may": 2609,
      "▁bilmez": 2610,
      "▁kap": 2611,
      "▁yuvarlak": 2612,
      "▁dost": 2613,
      "▁th": 2614,
      "▁pop": 2615,
      "▁toren": 2616,
      "▁neh": 2617,
      "92": 2618,
      "▁islemler": 2619,
      "▁fer": 2620,
      "▁hor": 2621,
      "masına": 2622,
      "liligi": 2623,
      "▁yildi": 2624,
      "▁millet": 2625,
      "▁metr": 2626,
      "▁ahmet": 2627,
      "▁kem": 2628,
      "▁muhendis": 2629,
      "▁ucusların": 2630,
      "▁louis": 2631,
      "▁muzakere": 2632,
      "imini": 2633,
      "ann": 2634,
      "ıcık": 2635,
      "ade": 2636,
      "3": 2637,
      "▁tesekkurler": 2638,
      "la": 2639,
      "▁tez": 2640,
      "▁tabur": 2641,
      "▁end": 2642,
      "▁boylece": 2643,
      "▁dedi": 2644,
      "▁neyin": 2645,
      "▁altın": 2646,
      "▁ort": 2647,
      "gur": 2648,
      "eligi": 2649,
      "▁ustlen": 2650,
      "▁des": 2651,
      "▁adına": 2652,
      "▁sevinc": 2653,
      "▁beni": 2654,
      "▁bolgede": 2655,
      "▁arttır": 2656,
      "▁boyun": 2657,
      "▁cig": 2658,
      "uyorlardı": 2659,
      "`": 2660,
      "▁cunku": 2661,
      "oloj": 2662,
      "medi": 2663,
      "▁delik": 2664,
      "lıgı": 2665,
      "▁odun": 2666,
      "▁dallas'tan": 2667,
      "atik": 2668,
      "▁surdu": 2669,
      "▁cog": 2670,
      "▁istik": 2671,
      "mus": 2672,
      "▁oyle": 2673,
      "ber": 2674,
      "▁sin": 2675,
      "▁artısla": 2676,
      "▁lutfen": 2677,
      "▁%18": 2678,
      "▁alır": 2679,
      "▁bic": 2680,
      "▁kanun": 2681,
      "▁altındaki": 2682,
      "▁programı": 2683,
      "▁sular": 2684,
      "▁birbir": 2685,
      "▁odeme": 2686,
      "▁bilim": 2687,
      "isti": 2688,
      "▁kızı": 2689,
      "▁gun": 2690,
      "ug": 2691,
      "unuyor": 2692,
      "amadı": 2693,
      "▁anda": 2694,
      "ısını": 2695,
      "▁uydur": 2696,
      "▁gorunce": 2697,
      "▁felaket": 2698,
      "ond": 2699,
      "▁etmisti": 2700,
      "memis": 2701,
      "▁nobet": 2702,
      "▁yandan": 2703,
      "▁hastalık": 2704,
      "▁adım": 2705,
      "▁bunları": 2706,
      "▁hicbir": 2707,
      "medim": 2708,
      "ksen": 2709,
      "lıg": 2710,
      "len": 2711,
      "▁uzat": 2712,
      "▁yaptık": 2713,
      "ırtı": 2714,
      "▁avustralya": 2715,
      "▁k": 2716,
      "yasal": 2717,
      "▁elli": 2718,
      "▁verdigimiz": 2719,
      "wa": 2720,
      "▁eglenceli": 2721,
      "tıklarını": 2722,
      "▁fabrika": 2723,
      "▁noktası": 2724,
      "▁ajans": 2725,
      "▁temizlik": 2726,
      "▁gidiyor": 2727,
      "▁pencer": 2728,
      "▁muster": 2729,
      "uklu": 2730,
      "▁olabilecegini": 2731,
      "ansiyon": 2732,
      "6.6": 2733,
      "▁olas": 2734,
      "dar": 2735,
      "sik": 2736,
      "▁oburu": 2737,
      "▁tuken": 2738,
      "▁sert": 2739,
      "▁stand": 2740,
      "▁evren": 2741,
      "▁900": 2742,
      "▁yut": 2743,
      "▁der": 2744,
      "'u": 2745,
      "▁huy": 2746,
      "▁ikisinin": 2747,
      "▁she": 2748,
      "ika": 2749,
      "ladıgını": 2750,
      "▁diy": 2751,
      "▁bebek": 2752,
      "leyici": 2753,
      "▁car": 2754,
      "▁bany": 2755,
      "▁arkasına": 2756,
      "▁animasyon": 2757,
      "▁muhaseb": 2758,
      "▁elden": 2759,
      "▁topu": 2760,
      "ektr": 2761,
      "lere": 2762,
      "▁montreal": 2763,
      "▁suz": 2764,
      "don": 2765,
      "▁fıldır": 2766,
      "▁mahs": 2767,
      "me": 2768,
      "▁$'a": 2769,
      "▁de": 2770,
      "▁kaynak": 2771,
      "▁bedel": 2772,
      "ırıl": 2773,
      "▁hi": 2774,
      "▁saga": 2775,
      "▁kalabalık": 2776,
      "▁olanaklari": 2777,
      "lıga": 2778,
      "▁zev": 2779,
      "▁naz": 2780,
      "wood": 2781,
      "▁uygulan": 2782,
      "▁mit": 2783,
      "▁tesekkur": 2784,
      "▁ekip": 2785,
      "▁gomle": 2786,
      "t": 2787,
      "▁kirp": 2788,
      "▁buna": 2789,
      "unce": 2790,
      "lama": 2791,
      "vi": 2792,
      "0.": 2793,
      "▁minneapolis": 2794,
      "▁1990": 2795,
      "tadır": 2796,
      "ım": 2797,
      "▁kalab": 2798,
      "▁muslum": 2799,
      "/8'e": 2800,
      "▁yaglı": 2801,
      "sızın": 2802,
      "▁anı": 2803,
      "vili": 2804,
      "▁ucret": 2805,
      "osy": 2806,
      "▁oglan": 2807,
      "▁benimle": 2808,
      "▁siz": 2809,
      "▁1.4": 2810,
      "ick": 2811,
      "▁yudum": 2812,
      "▁sırtında": 2813,
      "distan": 2814,
      "manı": 2815,
      "▁emekli": 2816,
      "▁acaktı": 2817,
      "▁ucmak": 2818,
      "▁zafer": 2819,
      "▁51": 2820,
      "ekul": 2821,
      "▁olacagı": 2822,
      "mayı": 2823,
      "▁analistler": 2824,
      "sak": 2825,
      "▁st.": 2826,
      "▁giz": 2827,
      "▁onunde": 2828,
      "▁indianapolis'e": 2829,
      "▁key": 2830,
      "▁olmamıs": 2831,
      "▁cir": 2832,
      "nun": 2833,
      "eyebilir": 2834,
      "▁andır": 2835,
      "▁istiyoruz": 2836,
      "age": 2837,
      "aladı": 2838,
      "▁otuz": 2839,
      "▁kalmadı": 2840,
      "▁calısmak": 2841,
      "▁yedek": 2842,
      "▁degeri": 2843,
      "unuz": 2844,
      "▁satıcı": 2845,
      "'e": 2846,
      "aklı": 2847,
      "▁bush": 2848,
      "▁normaldi": 2849,
      "▁degildir": 2850,
      "▁cos": 2851,
      "9.3": 2852,
      "ayacak": 2853,
      "▁ayda": 2854,
      "▁gurult": 2855,
      "▁mav": 2856,
      "▁mid": 2857,
      "▁gorunen": 2858,
      "▁ayrım": 2859,
      "▁bahseder": 2860,
      "elle": 2861,
      "▁sanız": 2862,
      "ahmet": 2863,
      "▁mesut": 2864,
      "isyon": 2865,
      "▁yuksekti": 2866,
      "▁yap": 2867,
      "▁kadınların": 2868,
      "▁mutlu": 2869,
      "▁tehdi": 2870,
      "▁merkezli": 2871,
      "▁planı": 2872,
      "mem": 2873,
      "▁yemeklerde": 2874,
      "▁nitelik": 2875,
      "▁kullanılan": 2876,
      "▁belirt": 2877,
      "▁gozden": 2878,
      "fet": 2879,
      "mamıs": 2880,
      "▁kosulları": 2881,
      "▁hac": 2882,
      "▁8": 2883,
      "sen": 2884,
      "▁aradilar": 2885,
      "▁fakir": 2886,
      "▁koylu": 2887,
      "le": 2888,
      "likte": 2889,
      "▁olgun": 2890,
      "▁huseyin": 2891,
      "ley": 2892,
      "▁dogrudan": 2893,
      "▁kıl": 2894,
      "▁takımı": 2895,
      "likle": 2896,
      "toru": 2897,
      "▁kart": 2898,
      "▁tıpkı": 2899,
      "isin": 2900,
      "▁bat": 2901,
      ".4": 2902,
      "▁yardimci": 2903,
      "kei": 2904,
      "ile": 2905,
      "▁yapacagını": 2906,
      "▁devletin": 2907,
      "▁mul": 2908,
      "▁%2": 2909,
      "▁trilyon": 2910,
      "▁temettu": 2911,
      "▁hanimdi": 2912,
      "▁zırt": 2913,
      "▁ikibinuc": 2914,
      "▁bakalım": 2915,
      "egini": 2916,
      "d": 2917,
      "▁mus": 2918,
      "▁vir": 2919,
      "▁konuda": 2920,
      "adar": 2921,
      "elim": 2922,
      "▁eksik": 2923,
      "▁camasır": 2924,
      "▁seattle'den": 2925,
      "▁lezzetleri": 2926,
      "enin": 2927,
      "▁uyum": 2928,
      "▁demis": 2929,
      "▁vucud": 2930,
      "▁cıkmıs": 2931,
      "▁elini": 2932,
      "ıyı": 2933,
      "▁bekledi": 2934,
      "▁yola": 2935,
      "ayi": 2936,
      "anla": 2937,
      "▁vardı": 2938,
      "▁aran": 2939,
      "▁gorul": 2940,
      "▁yuregi": 2941,
      "▁eder": 2942,
      ".05": 2943,
      "abiliyor": 2944,
      "▁fen": 2945,
      "▁havaliman": 2946,
      "▁102": 2947,
      "▁ustu": 2948,
      "▁yatırım": 2949,
      "▁alısver": 2950,
      "agım": 2951,
      "olojik": 2952,
      "▁5000": 2953,
      "▁dalgın": 2954,
      "▁%6.9": 2955,
      "▁elem": 2956,
      "▁tr": 2957,
      "ınızı": 2958,
      "likten": 2959,
      "▁fıkır": 2960,
      "▁gorev": 2961,
      "0": 2962,
      "°": 2963,
      "▁katilmak": 2964,
      "▁cın": 2965,
      "’": 2966,
      "▁aktif": 2967,
      "▁kucuk": 2968,
      "tex": 2969,
      "▁%7.875": 2970,
      "▁sekil": 2971,
      "mektedir": 2972,
      "▁baker": 2973,
      "cog": 2974,
      "iyi": 2975,
      "▁sat": 2976,
      "▁dolasır": 2977,
      "▁sizinle": 2978,
      "▁teker": 2979,
      "day": 2980,
      "tigi": 2981,
      "▁fonu": 2982,
      "▁seyleri": 2983,
      "▁7.2": 2984,
      "adi": 2985,
      "▁sessiz": 2986,
      "▁sesi": 2987,
      "▁olc": 2988,
      "▁tahvilleri": 2989,
      "lası": 2990,
      "▁bakarak": 2991,
      "▁es": 2992,
      "▁milyondan": 2993,
      "▁birligi": 2994,
      ".0": 2995,
      "mi": 2996,
      "▁doy": 2997,
      "▁yusu": 2998,
      "▁tuh": 2999,
      "▁bunu": 3000,
      "▁taleb": 3001,
      "▁ok": 3002,
      "▁oldum": 3003,
      "▁donen": 3004,
      "▁fok": 3005,
      "▁internet": 3006,
      "acagım": 3007,
      "▁azından": 3008,
      "raj": 3009,
      "▁hasar": 3010,
      "avuz": 3011,
      "▁kızar": 3012,
      "aguar": 3013,
      "▁cagdas": 3014,
      "▁efsan": 3015,
      "▁kul": 3016,
      "▁ilk": 3017,
      "▁korun": 3018,
      "▁badem": 3019,
      "▁hey": 3020,
      "▁oldu": 3021,
      "▁yamalak": 3022,
      "adir": 3023,
      "▁atar": 3024,
      "▁haberdar": 3025,
      "duk": 3026,
      "▁musait": 3027,
      "ayıp": 3028,
      "isten": 3029,
      "1.2": 3030,
      "▁banka": 3031,
      "▁bakın": 3032,
      "lesine": 3033,
      "▁borsası": 3034,
      "▁parasını": 3035,
      "'ye": 3036,
      "▁olmadan": 3037,
      "▁list": 3038,
      "▁gecik": 3039,
      "▁dondu": 3040,
      "▁sanayi": 3041,
      "l": 3042,
      "▁kıp": 3043,
      "endi": 3044,
      "▁amel": 3045,
      "▁iyimser": 3046,
      "▁lond": 3047,
      "▁tarihi": 3048,
      "▁fırladı": 3049,
      "▁ayak": 3050,
      "bar": 3051,
      "usunun": 3052,
      "cisi": 3053,
      "▁istiyor": 3054,
      "ılması": 3055,
      "▁secim": 3056,
      "▁tım": 3057,
      "▁ikibiniki": 3058,
      "▁ulk": 3059,
      "\\/32": 3060,
      "▁sevdigi": 3061,
      "▁restor": 3062,
      "▁antik": 3063,
      "to": 3064,
      "▁telas": 3065,
      "usu": 3066,
      "mis": 3067,
      "▁ihtiyat": 3068,
      "alar": 3069,
      "▁taban": 3070,
      "▁miktarda": 3071,
      "▁garanti": 3072,
      "▁uc": 3073,
      "▁degisiklik": 3074,
      "▁sut": 3075,
      "▁sınıf": 3076,
      "▁olmaktan": 3077,
      "▁kalmaya": 3078,
      "ulugun": 3079,
      "▁gorduk": 3080,
      "esif": 3081,
      "ova": 3082,
      "▁gecirdik": 3083,
      "cik": 3084,
      "anti": 3085,
      "▁abd": 3086,
      "ınıyor": 3087,
      "▁ken": 3088,
      "26": 3089,
      "iki": 3090,
      "▁heves": 3091,
      "cılı": 3092,
      "▁yılı": 3093,
      "▁hemen": 3094,
      "▁cat": 3095,
      "▁fat": 3096,
      "▁cav": 3097,
      "▁10000": 3098,
      "▁arka": 3099,
      "dıgına": 3100,
      "▁130": 3101,
      "▁2.": 3102,
      "▁meydan": 3103,
      "▁geldim": 3104,
      "▁tulum": 3105,
      "▁acik": 3106,
      "▁petersburg": 3107,
      "▁istanbul'un": 3108,
      "▁getiriyor": 3109,
      "▁baskanı": 3110,
      "▁donuyor": 3111,
      "▁26": 3112,
      "▁...": 3113,
      "▁70": 3114,
      "▁parca": 3115,
      "▁corp.": 3116,
      "▁nok": 3117,
      "▁rady": 3118,
      "ilmisti": 3119,
      "afet": 3120,
      "▁besik": 3121,
      "▁firmalar": 3122,
      "em": 3123,
      "▁newark": 3124,
      "liyordu": 3125,
      "▁sonra": 3126,
      "▁li": 3127,
      "▁gordu": 3128,
      "▁minne": 3129,
      ".625": 3130,
      "adet": 3131,
      "▁alındı": 3132,
      "▁yerine": 3133,
      "▁'l": 3134,
      "▁tesaduf": 3135,
      "▁maruz": 3136,
      "▁kavg": 3137,
      "▁endi": 3138,
      "▁odada": 3139,
      "mıyordu": 3140,
      "▁yeryuz": 3141,
      "var": 3142,
      "▁county": 3143,
      "egen": 3144,
      "▁lezzeti": 3145,
      "▁si": 3146,
      "▁sermaye": 3147,
      "▁lamb": 3148,
      "▁demokrat": 3149,
      "▁paranin": 3150,
      "▁dolas": 3151,
      "burgh": 3152,
      "▁yuksek": 3153,
      "▁milyona": 3154,
      "▁mevsim": 3155,
      "▁mez": 3156,
      "tu": 3157,
      ".49": 3158,
      "▁plas": 3159,
      "ıda": 3160,
      "uldu": 3161,
      "taki": 3162,
      "▁peters": 3163,
      "▁halk": 3164,
      "▁deneme": 3165,
      "at": 3166,
      "▁kutup": 3167,
      "▁buf": 3168,
      "▁otom": 3169,
      "▁modern": 3170,
      "adel": 3171,
      "▁newark'tan": 3172,
      "▁turb": 3173,
      "deki": 3174,
      "▁zarar": 3175,
      "▁kanıt": 3176,
      "zi": 3177,
      "▁isciler": 3178,
      "onun": 3179,
      "▁kapı": 3180,
      "▁francisco'dan": 3181,
      "unde": 3182,
      "▁yıl": 3183,
      "▁siir": 3184,
      "liginin": 3185,
      "▁gosterg": 3186,
      "[PAD]": 3187,
      "▁carsaf": 3188,
      "▁ener": 3189,
      "▁geyik": 3190,
      "▁parayı": 3191,
      "anı": 3192,
      "▁belirsiz": 3193,
      "▁mavi": 3194,
      "madım": 3195,
      "▁alan": 3196,
      "▁bilg": 3197,
      "raf": 3198,
      "▁annesi": 3199,
      "▁sız": 3200,
      "▁long": 3201,
      "asından": 3202,
      "5'e": 3203,
      "▁ilginc": 3204,
      "▁philadelphia": 3205,
      "ment": 3206,
      "▁coktan": 3207,
      "▁dolandır": 3208,
      "▁yaptır": 3209,
      "han": 3210,
      "▁rum": 3211,
      "mec": 3212,
      "▁kulub": 3213,
      "▁populer": 3214,
      "▁imkan": 3215,
      "▁pahalı": 3216,
      "▁halbu": 3217,
      "▁tamir": 3218,
      "▁munaseb": 3219,
      "▁hoca": 3220,
      "▁kil": 3221,
      "▁konak": 3222,
      "▁bizleri": 3223,
      "▁ses": 3224,
      "▁basını": 3225,
      "▁tep": 3226,
      "▁re": 3227,
      "▁bizimle": 3228,
      "▁yurudu": 3229,
      "'y": 3230,
      "▁hayv": 3231,
      "emis": 3232,
      "luyor": 3233,
      "▁'de": 3234,
      "yn": 3235,
      "esil": 3236,
      "▁aykırı": 3237,
      "▁mal": 3238,
      "▁tutuk": 3239,
      "▁tucc": 3240,
      "ut": 3241,
      "muz": 3242,
      "▁sıngır": 3243,
      "'nun": 3244,
      "irmi": 3245,
      "▁l": 3246,
      "▁kararsizim": 3247,
      "▁sayesinde": 3248,
      "▁gormus": 3249,
      "onik": 3250,
      "▁soyleyebilir": 3251,
      "▁geliyordu": 3252,
      "▁nicin": 3253,
      "lay": 3254,
      "▁dıs": 3255,
      "▁cik": 3256,
      "▁etmektedir": 3257,
      "▁tedbir": 3258,
      "▁haziran": 3259,
      "▁evine": 3260,
      "▁bilgilendir": 3261,
      "▁tuketici": 3262,
      "▁mec": 3263,
      "▁nesn": 3264,
      "sinde": 3265,
      "▁ucretini": 3266,
      "ılıyor": 3267,
      "▁dis": 3268,
      "▁butce": 3269,
      "▁v": 3270,
      "sınız": 3271,
      "▁bulas": 3272,
      "▁pitt": 3273,
      "eksiyon": 3274,
      "▁deg": 3275,
      "▁filan": 3276,
      "▁yaklasık": 3277,
      "▁korku": 3278,
      "▁kimsen": 3279,
      "▁tey": 3280,
      "lam": 3281,
      "▁sizlere": 3282,
      "▁a.b.d.": 3283,
      "▁acakt": 3284,
      "elerine": 3285,
      "▁1.8": 3286,
      "erek": 3287,
      "▁sirket": 3288,
      "▁aleyh": 3289,
      "▁olamaz": 3290,
      "▁personellerden": 3291,
      "▁milliyet": 3292,
      "▁tuccarlar": 3293,
      "5'te": 3294,
      "per": 3295,
      "ems": 3296,
      "▁89-": 3297,
      "▁sit": 3298,
      "▁gum": 3299,
      "▁oynuyor": 3300,
      "▁...\"": 3301,
      "▁teklif": 3302,
      "▁cozum": 3303,
      "▁kapas": 3304,
      "▁gelince": 3305,
      "▁yavas": 3306,
      "▁7.9": 3307,
      "▁yitir": 3308,
      "▁hut": 3309,
      "▁dudak": 3310,
      "akende": 3311,
      "▁dusuyor": 3312,
      "▁kef": 3313,
      "▁birin": 3314,
      "ik": 3315,
      "▁cevr": 3316,
      "▁curuk": 3317,
      "▁a.": 3318,
      "▁par": 3319,
      "▁pis": 3320,
      "▁ortalama": 3321,
      "deniz": 3322,
      "▁kırm": 3323,
      "isse": 3324,
      "enn": 3325,
      "▁senet": 3326,
      "▁marj": 3327,
      "▁city'e": 3328,
      "▁kemik": 3329,
      "ner": 3330,
      "▁kapsam": 3331,
      "▁tatlı": 3332,
      "▁arz": 3333,
      "▁fab": 3334,
      "▁basta": 3335,
      "▁%2.7": 3336,
      "▁kopar": 3337,
      "▁45": 3338,
      "atur": 3339,
      "▁paz": 3340,
      "ong": 3341,
      "umlu": 3342,
      "▁columbus": 3343,
      "2'den": 3344,
      "▁almadim": 3345,
      "▁atmak": 3346,
      "y": 3347,
      "▁uyustur": 3348,
      "ediye": 3349,
      "iyordu": 3350,
      "▁tasır": 3351,
      "▁charlotte'den": 3352,
      "asını": 3353,
      "▁financial": 3354,
      "▁kalkan": 3355,
      "▁hele": 3356,
      "▁tarif": 3357,
      "▁genel": 3358,
      "ımıza": 3359,
      "dokuz": 3360,
      "▁kız": 3361,
      "▁suredir": 3362,
      "▁kılıc": 3363,
      "eti": 3364,
      "or": 3365,
      "▁yaparak": 3366,
      "▁800": 3367,
      "▁gosterdi": 3368,
      "▁makine": 3369,
      "▁hedef": 3370,
      "▁dagın": 3371,
      "▁getir": 3372,
      "uldugu": 3373,
      "ati": 3374,
      "ex": 3375,
      "ısık": 3376,
      "acagı": 3377,
      "apol": 3378,
      "▁komun": 3379,
      "alt": 3380,
      "iy": 3381,
      "▁sas": 3382,
      "▁%6": 3383,
      "▁duserek": 3384,
      "▁diyorum": 3385,
      "▁hayli": 3386,
      "ediyor": 3387,
      "▁sebeb": 3388,
      "▁fin": 3389,
      "▁kendisiyle": 3390,
      "▁zor": 3391,
      "▁ulkemiz": 3392,
      "-1": 3393,
      "unca": 3394,
      "95": 3395,
      "▁pamuk": 3396,
      "osunda": 3397,
      "▁etm": 3398,
      "agına": 3399,
      "▁plani": 3400,
      "▁gelin": 3401,
      "▁oluyordu": 3402,
      ".00": 3403,
      "▁5.5": 3404,
      "bahar": 3405,
      "▁burbank'a": 3406,
      "▁an": 3407,
      "br": 3408,
      "▁taze": 3409,
      "sunuz": 3410,
      "▁evlen": 3411,
      "▁kendileri": 3412,
      "sına": 3413,
      "▁satılan": 3414,
      "▁yıla": 3415,
      "▁soyledim": 3416,
      "▁david": 3417,
      "▁derhal": 3418,
      "▁3.7": 3419,
      "lerim": 3420,
      "▁finc": 3421,
      "▁belki": 3422,
      "▁tesisin": 3423,
      "o'dan": 3424,
      "▁heyecan": 3425,
      "▁kendine": 3426,
      "▁geldi": 3427,
      "▁haykır": 3428,
      "▁34": 3429,
      "▁cesi": 3430,
      "▁benden": 3431,
      "▁gozlerini": 3432,
      "▁2009": 3433,
      "▁aileler": 3434,
      "▁%4": 3435,
      "ific": 3436,
      "▁bekley": 3437,
      "▁bardagı": 3438,
      "▁makaleye": 3439,
      "▁mosk": 3440,
      "▁destekli": 3441,
      "▁kocası": 3442,
      "▁ertesi": 3443,
      "▁ist": 3444,
      "akar": 3445,
      "▁olabilir": 3446,
      "▁corba": 3447,
      "▁bar": 3448,
      "▁subay": 3449,
      "▁bulur": 3450,
      "▁fas": 3451,
      "▁toronto'dan": 3452,
      "▁sonrası": 3453,
      "▁kon": 3454,
      "▁airlines": 3455,
      "▁halkı": 3456,
      "▁mart": 3457,
      "▁cas": 3458,
      "▁kere": 3459,
      "▁katkı": 3460,
      "▁yolc": 3461,
      "▁trans": 3462,
      "▁derler": 3463,
      "▁chp": 3464,
      "▁savur": 3465,
      "▁pazar": 3466,
      "izasyon": 3467,
      "ucuk": 3468,
      "▁kaba": 3469,
      "▁one": 3470,
      "▁%25": 3471,
      "▁bed": 3472,
      "▁basladım": 3473,
      "oc": 3474,
      "afir": 3475,
      "artesi": 3476,
      "▁birinden": 3477,
      "arik": 3478,
      "▁bos": 3479,
      "▁ar": 3480,
      "▁bulmus": 3481,
      ".25": 3482,
      "lıgın": 3483,
      "▁temp": 3484,
      "▁aktarmasız": 3485,
      "▁mars": 3486,
      "▁fiyatlarını": 3487,
      "ai": 3488,
      "▁sevk": 3489,
      "▁parlak": 3490,
      "uar": 3491,
      "▁heykel": 3492,
      "amay": 3493,
      "▁sur": 3494,
      "▁ait": 3495,
      "▁--": 3496,
      "▁mur": 3497,
      "▁koku": 3498,
      "▁gayet": 3499,
      "▁muhtesem": 3500,
      "▁arası": 3501,
      "▁etraf": 3502,
      "▁tampa": 3503,
      "▁omr": 3504,
      "▁musun": 3505,
      "istim": 3506,
      "▁pap": 3507,
      "▁kullan": 3508,
      "▁'nin": 3509,
      "eyle": 3510,
      "▁senedi": 3511,
      "▁azınlık": 3512,
      "▁angeles": 3513,
      "▁yenilen": 3514,
      "anları": 3515,
      "▁beye": 3516,
      "▁yapıs": 3517,
      "stit": 3518,
      "liydi": 3519,
      "▁zarf": 3520,
      "ekli": 3521,
      "▁genelde": 3522,
      "bucuk": 3523,
      "man": 3524,
      "gele": 3525,
      "▁arabalar": 3526,
      "▁anlat": 3527,
      "▁dre": 3528,
      "▁ode": 3529,
      "▁gunluk": 3530,
      "▁karsıl": 3531,
      "▁vardır": 3532,
      "ılma": 3533,
      "▁turkiye'nin": 3534,
      "▁frank": 3535,
      "▁birtak": 3536,
      "▁supur": 3537,
      "ret": 3538,
      "madan": 3539,
      "▁parmak": 3540,
      "ısına": 3541,
      "▁sabır": 3542,
      "▁havaalanından": 3543,
      "▁darb": 3544,
      "▁yapmayı": 3545,
      "▁muzik": 3546,
      "▁sesini": 3547,
      "▁.\"": 3548,
      "▁borc": 3549,
      "▁kek": 3550,
      "et": 3551,
      "▁yumurta": 3552,
      "▁olay": 3553,
      "▁listeleyebilir": 3554,
      "▁bildirdi": 3555,
      "ding": 3556,
      "▁uzerindeki": 3557,
      "ısı": 3558,
      "▁baslayan": 3559,
      "▁%0.2": 3560,
      "▁askeri": 3561,
      "▁ef": 3562,
      "▁sebebi": 3563,
      "▁kuyu": 3564,
      "▁gelsin": 3565,
      "▁vucu": 3566,
      "on": 3567,
      "an'ın": 3568,
      "▁for": 3569,
      "▁oldugun": 3570,
      "▁eks": 3571,
      "▁oldukca": 3572,
      "eyen": 3573,
      "▁nakit": 3574,
      "▁yapması": 3575,
      "bakır": 3576,
      "lbu": 3577,
      "iyle": 3578,
      "▁fut": 3579,
      "▁burokr": 3580,
      "▁etmistir": 3581,
      "▁ter": 3582,
      "▁mot": 3583,
      "omet": 3584,
      "▁kaps": 3585,
      "use": 3586,
      "seksen": 3587,
      "▁bahar": 3588,
      "▁kardesim": 3589,
      "▁buz": 3590,
      "▁degiller": 3591,
      "▁bulundu": 3592,
      "▁saatleri": 3593,
      "▁mukemmeldi": 3594,
      "▁yarıs": 3595,
      "▁bileti": 3596,
      "▁paket": 3597,
      "▁disip": 3598,
      "esti": 3599,
      "▁rah": 3600,
      "▁kirli": 3601,
      "▁sokakta": 3602,
      "aları": 3603,
      "▁gorus": 3604,
      "▁dusen": 3605,
      "▁bir": 3606,
      "▁onların": 3607,
      "acılıgı": 3608,
      "▁il": 3609,
      "▁bastır": 3610,
      "▁dusurdu": 3611,
      "▁yasal": 3612,
      "▁huc": 3613,
      "▁sacları": 3614,
      "▁california'ya": 3615,
      "▁kıymet": 3616,
      "▁arayan": 3617,
      "▁endeks": 3618,
      "▁ikram": 3619,
      ".85": 3620,
      "▁ucuyor": 3621,
      "75": 3622,
      "▁havaalanı": 3623,
      "▁soz": 3624,
      "▁dikkat": 3625,
      "lan": 3626,
      "▁falan": 3627,
      "▁seklinde": 3628,
      "emem": 3629,
      "ite": 3630,
      "▁sonbahar": 3631,
      "ere": 3632,
      "▁olup": 3633,
      "▁olursa": 3634,
      "▁yılda": 3635,
      "▁james": 3636,
      "lt": 3637,
      "ilmesini": 3638,
      "▁sor": 3639,
      "▁didik": 3640,
      "▁doktor": 3641,
      "▁verme": 3642,
      "▁haz": 3643,
      "▁dair": 3644,
      "▁kitap": 3645,
      "▁ya": 3646,
      "ni": 3647,
      "ılmaya": 3648,
      "▁dosy": 3649,
      "▁tatli": 3650,
      "▁degil": 3651,
      "▁kasıgı": 3652,
      "▁gelmez": 3653,
      "uston": 3654,
      "▁kokulu": 3655,
      "▁boyle": 3656,
      "▁kan": 3657,
      "▁ekim": 3658,
      "▁iceriye": 3659,
      "▁neyse": 3660,
      "▁faydalan": 3661,
      "▁120": 3662,
      "eyim": 3663,
      "▁birbirleriyle": 3664,
      "dikleri": 3665,
      "▁alb": 3666,
      "▁kodu": 3667,
      "▁kalmadik": 3668,
      "▁bilir": 3669,
      "▁fatur": 3670,
      "▁etti": 3671,
      "▁sozlerine": 3672,
      "▁hızlı": 3673,
      "oker": 3674,
      "▁adamları": 3675,
      "masıyla": 3676,
      "lor": 3677,
      "▁nasdaq": 3678,
      "▁747": 3679,
      "uv": 3680,
      "▁pacific": 3681,
      "esinin": 3682,
      "▁haval": 3683,
      "▁seneye": 3684,
      "dıktan": 3685,
      "▁talep": 3686,
      "▁numar": 3687,
      "ren": 3688,
      "▁olduk": 3689,
      "▁sallan": 3690,
      "▁hayret": 3691,
      "▁1985": 3692,
      "teb": 3693,
      "▁adeta": 3694,
      "▁mevduat": 3695,
      "▁ı": 3696,
      "▁enerj": 3697,
      "▁beklent": 3698,
      "▁ikinci": 3699,
      "yse": 3700,
      "▁polis": 3701,
      "▁guney": 3702,
      "▁aqu": 3703,
      "▁sum": 3704,
      "ima": 3705,
      "▁intern": 3706,
      "▁birine": 3707,
      "▁seviyesinde": 3708,
      "▁hisselerin": 3709,
      "▁3.4": 3710,
      "▁38": 3711,
      "▁uste": 3712,
      "yiz": 3713,
      "▁phil": 3714,
      "▁yuv": 3715,
      "▁sıcak": 3716,
      "sı": 3717,
      "1'de": 3718,
      "uklum": 3719,
      "▁galib": 3720,
      "[MASK]": 3721,
      "▁turkiye'de": 3722,
      "▁tarihinde": 3723,
      "▁havayollarını": 3724,
      "▁yanına": 3725,
      "▁kamu": 3726,
      "▁ın": 3727,
      "▁terbiy": 3728,
      "asıyor": 3729,
      "'le": 3730,
      "cakt": 3731,
      "▁duzenlenen": 3732,
      "▁fokur": 3733,
      "▁sal": 3734,
      "sun": 3735,
      "▁dayalı": 3736,
      "sin": 3737,
      "▁day": 3738,
      "irdi": 3739,
      "▁havuzlar": 3740,
      "▁gozlerim": 3741,
      "▁ydu": 3742,
      "▁odalari": 3743,
      "ilmaz": 3744,
      "▁erkek": 3745,
      "▁gunku": 3746,
      "ması": 3747,
      "▁biliyor": 3748,
      "▁sahn": 3749,
      "ri": 3750,
      "▁dos": 3751,
      "asi": 3752,
      "▁ismi": 3753,
      "iyorlar": 3754,
      "▁sasır": 3755,
      "▁sirketinin": 3756,
      "▁limon": 3757,
      "▁per": 3758,
      "▁onur": 3759,
      "▁desik": 3760,
      "alarla": 3761,
      "▁geldigi": 3762,
      "▁tutar": 3763,
      "▁…": 3764,
      "▁mezar": 3765,
      "▁vet": 3766,
      "ugu": 3767,
      "▁yerini": 3768,
      "▁boynun": 3769,
      "▁yahudi": 3770,
      "▁feder": 3771,
      "▁memur": 3772,
      "▁hissediyor": 3773,
      "▁saman": 3774,
      "oyu": 3775,
      "▁gelmedi": 3776,
      "cek": 3777,
      "▁alkol": 3778,
      "▁yasadı": 3779,
      "▁olur": 3780,
      "▁sigorta": 3781,
      "▁kendilerini": 3782,
      "▁barın": 3783,
      "▁aln": 3784,
      "▁cincinnati": 3785,
      "▁lar": 3786,
      "emiyor": 3787,
      "emi": 3788,
      "▁bilimsel": 3789,
      "ence": 3790,
      "▁kulak": 3791,
      "▁senden": 3792,
      "ert": 3793,
      "▁sigort": 3794,
      "▁alım-satım": 3795,
      "▁gumus": 3796,
      "▁bost": 3797,
      "▁araz": 3798,
      "▁dalgalan": 3799,
      "▁ho": 3800,
      "a": 3801,
      "▁bilmem": 3802,
      "▁cont": 3803,
      "▁kagı": 3804,
      "▁hepsini": 3805,
      "▁fing": 3806,
      "▁takım": 3807,
      "▁1992": 3808,
      "ısından": 3809,
      "▁havada": 3810,
      "▁kid": 3811,
      "▁cır": 3812,
      "digine": 3813,
      "▁oteller": 3814,
      "ıyla": 3815,
      "[UNK]": 3816,
      "▁uzun": 3817,
      "▁duruma": 3818,
      "▁ile": 3819,
      "▁kahvaltisi": 3820,
      "▁rakip": 3821,
      "ıldıgını": 3822,
      "▁hesap": 3823,
      "▁ster": 3824,
      "▁bence": 3825,
      "▁bog": 3826,
      "▁vur": 3827,
      "▁vatandas": 3828,
      "▁degildim": 3829,
      "▁bulbul": 3830,
      "isli": 3831,
      "abını": 3832,
      "▁/": 3833,
      "▁kaya": 3834,
      "▁hastalı": 3835,
      "▁yapılacak": 3836,
      "▁%0": 3837,
      "▁memnunuz": 3838,
      "▁yolunu": 3839,
      "▁gm": 3840,
      "▁gorevl": 3841,
      "▁hepimiz": 3842,
      "▁boyunca": 3843,
      "▁kesint": 3844,
      "gini": 3845,
      "▁ic": 3846,
      "▁batı": 3847,
      "▁bur": 3848,
      "-4": 3849,
      "ayıf": 3850,
      "pan": 3851,
      "▁kapandı": 3852,
      "▁itibar": 3853,
      "'ndan": 3854,
      "▁porcuk": 3855,
      "▁1.5": 3856,
      "▁nefes": 3857,
      "ancı": 3858,
      "▁havayolları": 3859,
      "▁ekledi": 3860,
      "ın": 3861,
      "▁met": 3862,
      "inin": 3863,
      "▁carp": 3864,
      "edef": 3865,
      "▁direkt": 3866,
      "ır": 3867,
      "▁57": 3868,
      "▁anlas": 3869,
      "▁yapar": 3870,
      "▁ail": 3871,
      "▁0.3": 3872,
      "asa": 3873,
      "▁top": 3874,
      "▁odalar": 3875,
      "▁gelmis": 3876,
      "▁dolap": 3877,
      "▁beklentiler": 3878,
      "▁gidiyoruz": 3879,
      "-p": 3880,
      "▁kum": 3881,
      "▁sıkı": 3882,
      ".39": 3883,
      "▁dunyaya": 3884,
      "▁eg": 3885,
      "rup": 3886,
      "▁vererek": 3887,
      "▁cıkınca": 3888,
      "▁yapabil": 3889,
      "▁degerlendir": 3890,
      "▁ner": 3891,
      "▁115": 3892,
      "dın": 3893,
      "▁“": 3894,
      "▁jon": 3895,
      "emmel": 3896,
      "▁al": 3897,
      "▁cam": 3898,
      "▁yuc": 3899,
      "▁girer": 3900,
      "▁konuyu": 3901,
      "phia": 3902,
      "inize": 3903,
      "▁sunuyor": 3904,
      "▁29": 3905,
      "▁haline": 3906,
      "gından": 3907,
      "3.2": 3908,
      "▁icme": 3909,
      "▁fayd": 3910,
      "▁1999": 3911,
      "▁pittsburgh'a": 3912,
      "mıyorum": 3913,
      "▁yah": 3914,
      "forman": 3915,
      "luk": 3916,
      "▁zek": 3917,
      "ical": 3918,
      "▁herhalde": 3919,
      "▁halka": 3920,
      "▁geriledi": 3921,
      "▁sayıda": 3922,
      "▁hepsi": 3923,
      "▁yayın": 3924,
      "'na": 3925,
      "▁kabar": 3926,
      "ala": 3927,
      "▁sonuclar": 3928,
      "▁ayni": 3929,
      "lulu": 3930,
      "▁yapıldı": 3931,
      "▁denizinden": 3932,
      "▁isle": 3933,
      "liye": 3934,
      "unda": 3935,
      "▁birini": 3936,
      "▁46": 3937,
      "eyip": 3938,
      "▁asla": 3939,
      "▁no": 3940,
      "▁hakik": 3941,
      "urdu": 3942,
      "azım": 3943,
      "ob": 3944,
      "▁%5.4": 3945,
      "▁bitti": 3946,
      "▁saclarını": 3947,
      "▁goren": 3948,
      "▁karsılıklı": 3949,
      "burg": 3950,
      "▁31": 3951,
      "altı": 3952,
      "▁lungur": 3953,
      "ihan": 3954,
      "▁dusunur": 3955,
      "▁teknik": 3956,
      "▁suyun": 3957,
      "pa": 3958,
      "our": 3959,
      "▁karsılık": 3960,
      "▁maden": 3961,
      "▁zira": 3962,
      "▁c": 3963,
      "mustum": 3964,
      "▁sektor": 3965,
      "asına": 3966,
      "▁145": 3967,
      "​": 3968,
      "▁tab": 3969,
      "▁guvenilir": 3970,
      "▁cur": 3971,
      "am": 3972,
      ".53": 3973,
      "▁isin": 3974,
      "▁yildiz": 3975,
      "▁utan": 3976,
      "▁oldugundan": 3977,
      "elere": 3978,
      "▁olabilirdi": 3979,
      "int": 3980,
      "▁kacır": 3981,
      "▁fıs": 3982,
      "ane": 3983,
      "▁eskiydi": 3984,
      "▁lak": 3985,
      "▁karsı": 3986,
      "▁yusuf": 3987,
      "‘": 3988,
      "19": 3989,
      "/2": 3990,
      "▁panik": 3991,
      "▁sorun": 3992,
      "▁nedenlerden": 3993,
      "eb": 3994,
      "▁yapım": 3995,
      "▁op": 3996,
      "ligin": 3997,
      "▁nasda": 3998,
      "▁homur": 3999,
      "▁hot": 4000,
      "▁basladılar": 4001,
      "▁gelecekteki": 4002,
      "uluyor": 4003,
      "▁yurtdı": 4004,
      "men": 4005,
      "▁tedavulde": 4006,
      "▁talih": 4007,
      "▁%14": 4008,
      "▁duzel": 4009,
      "igit": 4010,
      "▁tane": 4011,
      "▁diye": 4012,
      "▁yıllık": 4013,
      "▁biraz": 4014,
      "▁geriye": 4015,
      "▁getiren": 4016,
      "▁koyu": 4017,
      "▁otek": 4018,
      "alandır": 4019,
      "▁geril": 4020,
      "ilir": 4021,
      "y'nin": 4022,
      "▁far": 4023,
      "▁gecmiste": 4024,
      "▁soy": 4025,
      "▁ihtiyacı": 4026,
      "ank": 4027,
      "▁vegas'a": 4028,
      "▁saglamak": 4029,
      "▁incelem": 4030,
      "ledi": 4031,
      "▁40": 4032,
      "▁etmek": 4033,
      "▁cum": 4034,
      "fi": 4035,
      "▁!..": 4036,
      "▁bagıs": 4037,
      "▁donan": 4038,
      "▁kiz": 4039,
      "▁artık": 4040,
      "▁hanimla": 4041,
      "▁duy": 4042,
      "▁okur": 4043,
      "vet": 4044,
      "▁delikanlı": 4045,
      "▁atlanta'da": 4046,
      "▁gorustuk": 4047,
      "anlar": 4048,
      "▁bireysel": 4049,
      "▁newark'a": 4050,
      "▁olmas": 4051,
      "▁odanın": 4052,
      "▁durur": 4053,
      "ly": 4054,
      "miz": 4055,
      "▁sek": 4056,
      "▁ihal": 4057,
      "▁isvic": 4058,
      "▁rekor": 4059,
      "▁cincinnati'den": 4060,
      "▁sıng": 4061,
      "▁yapmıs": 4062,
      "▁ital": 4063,
      "vik": 4064,
      "▁64": 4065,
      "▁haric": 4066,
      "negin": 4067,
      "▁satın": 4068,
      "▁hop": 4069,
      "▁belg": 4070,
      "las": 4071,
      "sizdi": 4072,
      "▁aklı": 4073,
      "▁montreal'a": 4074,
      "▁federal": 4075,
      "abil": 4076,
      "▁yapın": 4077,
      "▁iliskiler": 4078,
      "up": 4079,
      "▁karsısında": 4080,
      "▁sorunun": 4081,
      "isk": 4082,
      "▁yat": 4083,
      "▁ziyade": 4084,
      "▁sapır": 4085,
      "▁guleryuz": 4086,
      "▁dus": 4087,
      "▁ahlak": 4088,
      "▁business": 4089,
      "'": 4090,
      "▁verdi": 4091,
      "asız": 4092,
      "▁aldigim": 4093,
      "▁dar": 4094,
      "▁ceker": 4095,
      "▁28": 4096,
      "▁plan": 4097,
      "bat": 4098,
      "and": 4099,
      "▁lek": 4100,
      "▁yuzunu": 4101,
      "▁calar": 4102,
      "madı": 4103,
      "▁ulas": 4104,
      "▁operasyon": 4105,
      "▁yaptirmadim": 4106,
      "▁istedigini": 4107,
      "▁kr": 4108,
      "▁perakende": 4109,
      "▁yalan": 4110,
      "▁arastır": 4111,
      "▁nasıl": 4112,
      "apur": 4113,
      "▁buradan": 4114,
      "ilig": 4115,
      "▁yasan": 4116,
      "▁rehberimiz": 4117,
      "▁rakı": 4118,
      "▁so": 4119,
      "▁ydı": 4120,
      "▁basarılı": 4121,
      "▁jaguar": 4122,
      "▁%6.90": 4123,
      "▁ciz": 4124,
      "▁5.2": 4125,
      "▁iletisim": 4126,
      "ig": 4127,
      "▁ilgilendi": 4128,
      "▁yagm": 4129,
      "▁ısrar": 4130,
      "kat": 4131,
      "▁tedavul": 4132,
      "enkul": 4133,
      "▁universit": 4134,
      "▁kerem": 4135,
      "arası": 4136,
      "▁doları": 4137,
      "▁vucut": 4138,
      "▁zamanla": 4139,
      "▁bufe": 4140,
      "aket": 4141,
      "ali": 4142,
      "▁devrim": 4143,
      "lıgından": 4144,
      "▁hizmetinden": 4145,
      "▁asagı": 4146,
      "▁jersey": 4147,
      "▁ak": 4148,
      "▁anım": 4149,
      "unun": 4150,
      "▁luks": 4151,
      "▁uretim": 4152,
      "ahtar": 4153,
      "ant": 4154,
      "liy": 4155,
      "▁golg": 4156,
      "amayacak": 4157,
      "ep": 4158,
      "▁kalktı": 4159,
      "ize": 4160,
      "adelphia": 4161,
      "gen": 4162,
      "mıs": 4163,
      "'taki": 4164,
      "▁golge": 4165,
      "▁anket": 4166,
      "imize": 4167,
      "duncu": 4168,
      "▁balık": 4169,
      "▁hal": 4170,
      "▁;": 4171,
      "ed": 4172,
      "ıldı": 4173,
      "dunuz": 4174,
      "ca": 4175,
      "layacak": 4176,
      "▁spor": 4177,
      "▁if": 4178,
      "teki": 4179,
      "▁yasayan": 4180,
      "▁uluslar": 4181,
      "▁duyg": 4182,
      ".36": 4183,
      "▁misin": 4184,
      "▁kent": 4185,
      "▁piyasası": 4186,
      "▁oturu": 4187,
      "▁oc": 4188,
      "macı": 4189,
      "▁artısı": 4190,
      "▁peynir": 4191,
      "▁onune": 4192,
      "erler": 4193,
      "▁babasının": 4194,
      "▁dogur": 4195,
      "▁derken": 4196,
      "▁elbise": 4197,
      "▁general": 4198,
      "r": 4199,
      "ıg": 4200,
      "lige": 4201,
      "ardan": 4202,
      "▁oldugumuz": 4203,
      "▁bolun": 4204,
      "istler": 4205,
      "▁edilebilir": 4206,
      "▁malzem": 4207,
      "▁ederdi": 4208,
      "▁1.2": 4209,
      "▁dili": 4210,
      "▁kaldır": 4211,
      "▁gunleri": 4212,
      "▁istif": 4213,
      "▁uzman": 4214,
      "mesini": 4215,
      "are": 4216,
      "▁fazlası": 4217,
      "▁otomobil": 4218,
      "▁imal": 4219,
      "▁isi": 4220,
      "▁%3.43": 4221,
      "▁yargı": 4222,
      "▁nisp": 4223,
      "lugunu": 4224,
      "uldugunu": 4225,
      "▁dal": 4226,
      "▁kredi": 4227,
      "daydı": 4228,
      "▁gerek": 4229,
      "▁bircok": 4230,
      "kanın": 4231,
      "00": 4232,
      "kin": 4233,
      "'nda": 4234,
      "▁sozlesmesi": 4235,
      "▁indi": 4236,
      "▁deng": 4237,
      "▁kapının": 4238,
      "▁di": 4239,
      "▁denilen": 4240,
      "iden": 4241,
      "▁aklına": 4242,
      "ılım": 4243,
      "er": 4244,
      "for": 4245,
      "▁gecenin": 4246,
      "asıyla": 4247,
      "▁vermis": 4248,
      "ustuk": 4249,
      "ip": 4250,
      "lek": 4251,
      "▁br": 4252,
      "▁konferans": 4253,
      "▁artır": 4254,
      "mustu": 4255,
      "▁hep": 4256,
      "uyorlar": 4257,
      "▁post": 4258,
      "isinde": 4259,
      "▁ifad": 4260,
      "ul": 4261,
      "▁3": 4262,
      "mamız": 4263,
      "▁ii": 4264,
      "acag": 4265,
      "▁yaptı": 4266,
      "v": 4267,
      "▁oglen": 4268,
      "▁pu": 4269,
      "uma": 4270,
      "ıyordu": 4271,
      "▁kaldıgı": 4272,
      "▁derecede": 4273,
      "▁ihtim": 4274,
      "ast": 4275,
      "▁kactı": 4276,
      "▁alıp": 4277,
      "▁gib": 4278,
      "bu": 4279,
      "▁kimsenin": 4280,
      "▁etmeye": 4281,
      "▁84": 4282,
      "▁..": 4283,
      "▁iyice": 4284,
      "▁dinliyor": 4285,
      "▁omur": 4286,
      "kti": 4287,
      "▁seker": 4288,
      "▁gidebilir": 4289,
      "ise": 4290,
      "▁dondur": 4291,
      "ove": 4292,
      "undeki": 4293,
      "▁isleri": 4294,
      "▁dev": 4295,
      "▁itiraf": 4296,
      "▁inan": 4297,
      "ecegini": 4298,
      "▁muh": 4299,
      "abilirdi": 4300,
      "▁kuv": 4301,
      "▁abdul": 4302,
      "eyince": 4303,
      "▁kategor": 4304,
      "▁arzu": 4305,
      "▁smith": 4306,
      "lerinden": 4307,
      "▁ornegin": 4308,
      "▁kurtaj": 4309,
      "▁ucuslarının": 4310,
      "▁begendik": 4311,
      "de": 4312,
      "▁nisan": 4313,
      "▁bunlardan": 4314,
      "▁s&p": 4315,
      "mesinden": 4316,
      "ihaz": 4317,
      "▁yatırımcı": 4318,
      "▁servisi": 4319,
      "▁verilm": 4320,
      "▁dustu": 4321,
      "▁basarısız": 4322,
      "▁yol": 4323,
      "▁uslu": 4324,
      "▁yanl": 4325,
      "▁kaybı": 4326,
      "▁kıyaslan": 4327,
      "▁uvey": 4328,
      "▁baglantılı": 4329,
      "um": 4330,
      "▁sade": 4331,
      "▁yed": 4332,
      "▁ulke": 4333,
      "▁eli": 4334,
      "inn": 4335,
      "▁yurut": 4336,
      "fı": 4337,
      "▁catlak": 4338,
      "lis": 4339,
      "▁kes": 4340,
      "▁nak": 4341,
      "ation": 4342,
      "▁harp": 4343,
      "▁yasar": 4344,
      "▁basladı": 4345,
      "udu": 4346,
      "3.9": 4347,
      "▁sorum": 4348,
      "▁250": 4349,
      "aret": 4350,
      "▁uretic": 4351,
      "▁hepsinin": 4352,
      "▁tutmak": 4353,
      "lıkları": 4354,
      "▁sultan": 4355,
      "▁gittikce": 4356,
      "▁houston": 4357,
      "ıya": 4358,
      "▁sı": 4359,
      "▁iliskileri": 4360,
      "▁asagıda": 4361,
      "▁cev": 4362,
      "▁isters": 4363,
      "▁senator": 4364,
      "▁izledi": 4365,
      "bel": 4366,
      "▁bulmak": 4367,
      "▁damar": 4368,
      "▁cub": 4369,
      "gimi": 4370,
      "'tan": 4371,
      "▁112": 4372,
      "rily": 4373,
      "iniz": 4374,
      "▁teklifini": 4375,
      "▁hırsız": 4376,
      "▁sonunda": 4377,
      "sir": 4378,
      "▁texas": 4379,
      "▁nisan'da": 4380,
      "▁kım": 4381,
      "▁buldum": 4382,
      "▁adamı": 4383,
      "▁siddet": 4384,
      "▁tarafı": 4385,
      "▁dısarıya": 4386,
      "lerde": 4387,
      "▁yagı": 4388,
      "▁birbirimizi": 4389,
      "dol": 4390,
      "▁hissedar": 4391,
      "imde": 4392,
      "▁nih": 4393,
      "'la": 4394,
      "▁bosalt": 4395,
      "▁duvarlar": 4396,
      "▁adam": 4397,
      "▁hicbirini": 4398,
      "▁yapılır": 4399,
      "▁kahvaltı": 4400,
      "▁topr": 4401,
      "▁aksamı": 4402,
      "ilmek": 4403,
      "▁isterim": 4404,
      "eyerek": 4405,
      "▁taslar": 4406,
      "gine": 4407,
      "▁750": 4408,
      "▁birincisi": 4409,
      "▁birinci": 4410,
      "▁komitesi": 4411,
      "siyon": 4412,
      "▁ihtiyar": 4413,
      "▁manc": 4414,
      "▁sil": 4415,
      "▁soylem": 4416,
      "▁etmis": 4417,
      "▁duzenli": 4418,
      "▁kuvvetli": 4419,
      "▁mısır": 4420,
      "inden": 4421,
      "▁bes": 4422,
      "▁alman": 4423,
      "▁ko": 4424,
      "▁sizleri": 4425,
      "▁aksam": 4426,
      "▁kanada": 4427,
      "▁worth'a": 4428,
      "▁ons": 4429,
      "▁mu": 4430,
      "▁spekul": 4431,
      "▁binlerce": 4432,
      "▁1/4": 4433,
      "▁dile": 4434,
      "yon": 4435,
      "▁ucuncu": 4436,
      "▁parlam": 4437,
      "▁birisine": 4438,
      "▁giriste": 4439,
      "▁yoksa": 4440,
      "▁cevre": 4441,
      "▁cop": 4442,
      "▁ogren": 4443,
      "▁kanı": 4444,
      "▁mevz": 4445,
      "▁araba": 4446,
      "▁yesil": 4447,
      "▁verim": 4448,
      "▁orta": 4449,
      "▁listele": 4450,
      "▁olduguna": 4451,
      "▁sanatcı": 4452,
      "▁ti": 4453,
      "▁salt": 4454,
      "▁dor": 4455,
      "▁senar": 4456,
      "▁kongr": 4457,
      "▁med": 4458,
      "is": 4459,
      "cal": 4460,
      "▁caresiz": 4461,
      "▁performans": 4462,
      "▁denk": 4463,
      "▁kazandı": 4464,
      "antaj": 4465,
      "▁olmalı": 4466,
      "▁gecirdi": 4467,
      "▁puanlama": 4468,
      "ladık": 4469,
      "▁3000": 4470,
      "▁tartıs": 4471,
      "▁tamamen": 4472,
      "▁kaliforniya": 4473,
      "▁men": 4474,
      "ıstı": 4475,
      "▁sahipti": 4476,
      "▁olaganustu": 4477,
      "▁toprak": 4478,
      "▁resim": 4479,
      "▁onca": 4480,
      "ahat": 4481,
      "tay": 4482,
      "▁girisim": 4483,
      "▁yolu": 4484,
      "▁33": 4485,
      "say": 4486,
      "▁cesitleri": 4487,
      "▁koy": 4488,
      "▁babam": 4489,
      "▁yalnızca": 4490,
      "ps": 4491,
      "▁mısıl": 4492,
      "hat": 4493,
      "▁verdigim": 4494,
      "▁fot": 4495,
      "▁toplantıda": 4496,
      "▁gozet": 4497,
      "▁sorumlu": 4498,
      "▁ecekti": 4499,
      "▁ilgisi": 4500,
      "agı": 4501,
      "▁rezervasyonu": 4502,
      "as": 4503,
      "ılıp": 4504,
      "▁elde": 4505,
      "▁sendik": 4506,
      "▁yarısı": 4507,
      "▁milyar": 4508,
      "▁teler": 4509,
      "▁harika": 4510,
      "mıstır": 4511,
      "ada": 4512,
      "▁rakamlar": 4513,
      "▁elinden": 4514,
      "▁musunuz": 4515,
      "▁chic": 4516,
      "gına": 4517,
      "▁ailesi": 4518,
      "▁muhafaz": 4519,
      "▁istih": 4520,
      "ten": 4521,
      "▁aramız": 4522,
      "▁ihracı": 4523,
      "▁kampan": 4524,
      "▁serg": 4525,
      "▁f": 4526,
      "ına": 4527,
      "▁paul": 4528,
      "ale": 4529,
      "▁haksız": 4530,
      "ige": 4531,
      "▁11": 4532,
      "▁acısından": 4533,
      "uy": 4534,
      "lisi": 4535,
      "▁evin": 4536,
      "▁bardak": 4537,
      "▁%1.7": 4538,
      "▁150": 4539,
      "▁airlines'in": 4540,
      "eledi": 4541,
      "adem": 4542,
      "▁olacagını": 4543,
      "▁yolcu": 4544,
      "▁suresi": 4545,
      "▁teklifi": 4546,
      "▁profesyonel": 4547,
      "imizin": 4548,
      "▁islemi": 4549,
      "▁kıbrıs": 4550,
      "ita": 4551,
      "guna": 4552,
      "▁olmadi": 4553,
      "▁aks": 4554,
      "iser": 4555,
      "▁ark": 4556,
      "pıs": 4557,
      "tre": 4558,
      "▁almanya": 4559,
      "▁merkezi": 4560,
      "▁merkez": 4561,
      "▁avrup": 4562,
      "0.1": 4563,
      "▁memnunum": 4564,
      "▁hanım": 4565,
      "▁piy": 4566,
      "▁irak": 4567,
      "▁uyusturucu": 4568,
      "50": 4569,
      "▁kumar": 4570,
      "ulen": 4571,
      "larla": 4572,
      "▁oy": 4573,
      "▁'lu": 4574,
      "▁kidder": 4575,
      "▁oranı": 4576,
      "ileri": 4577,
      "▁burada": 4578,
      "▁nelerdir": 4579,
      "▁performan": 4580,
      "▁bulun": 4581,
      "▁yuzyıl": 4582,
      "lıkla": 4583,
      "▁aldı": 4584,
      "▁sermay": 4585,
      "▁gr": 4586,
      "▁54": 4587,
      "cular": 4588,
      "▁vef": 4589,
      "▁tanrı": 4590,
      "abiliriz": 4591,
      "▁cocugun": 4592,
      "mustur": 4593,
      "▁dusuk": 4594,
      "▁soyluyor": 4595,
      "▁kuvvet": 4596,
      "▁ederim": 4597,
      "▁garson": 4598,
      "tanın": 4599,
      "▁yapılıyor": 4600,
      "▁soguktu": 4601,
      "uzel": 4602,
      "▁gal": 4603,
      "▁raporu": 4604,
      "▁ted": 4605,
      "▁yakında": 4606,
      "indeki": 4607,
      "▁jose": 4608,
      "ent": 4609,
      "▁verdigini": 4610,
      "ımları": 4611,
      "ınız": 4612,
      "▁odey": 4613,
      "▁cant": 4614,
      "▁aynı": 4615,
      ".125": 4616,
      "▁kuy": 4617,
      "asyon": 4618,
      "dini": 4619,
      "▁cık": 4620,
      "▁cıkarıp": 4621,
      "erse": 4622,
      "▁surat": 4623,
      "atını": 4624,
      "▁sendika": 4625,
      "▁se": 4626,
      "▁yerler": 4627,
      "▁225": 4628,
      "▁zamanı": 4629,
      "▁airlin": 4630,
      "▁edebiyat": 4631,
      "▁profes": 4632,
      "▁serv": 4633,
      "agon": 4634,
      "▁dah": 4635,
      "▁alti": 4636,
      "ion": 4637,
      "▁birisini": 4638,
      "▁isletme": 4639,
      "▁kızgın": 4640,
      "▁katkıda": 4641,
      "▁vah": 4642,
      "▁emeklilik": 4643,
      "gun": 4644,
      "ledik": 4645,
      "▁cumhurbaskan": 4646,
      "tıkca": 4647,
      "▁37.5": 4648,
      "▁personeli": 4649,
      "ento": 4650,
      "▁sizler": 4651,
      "ele": 4652,
      "▁1981": 4653,
      "▁hic": 4654,
      "▁bekler": 4655,
      "▁duser": 4656,
      "▁tahvili": 4657,
      "▁hır": 4658,
      "baskan": 4659,
      "▁num": 4660,
      "▁degildi": 4661,
      "▁toparlan": 4662,
      "▁zorunlu": 4663,
      "det": 4664,
      "▁tas": 4665,
      "▁bakanı": 4666,
      "▁iptal": 4667,
      "eginden": 4668,
      "89": 4669,
      "▁od": 4670,
      "▁verdiler": 4671,
      "▁ithal": 4672,
      "acılar": 4673,
      "▁fazla": 4674,
      "▁bırak": 4675,
      "▁zeytin": 4676,
      "layarak": 4677,
      "▁hat": 4678,
      "▁baglan": 4679,
      "'da": 4680,
      "▁mey": 4681,
      "▁karıstır": 4682,
      "▁vır": 4683,
      "▁elektronik": 4684,
      "▁acıdan": 4685,
      "sinin": 4686,
      "▁3\\/4": 4687,
      "ates": 4688,
      "▁demek": 4689,
      "▁muay": 4690,
      "▁takdirde": 4691,
      "▁etk": 4692,
      "▁arkadas": 4693,
      "▁bilgisay": 4694,
      "▁rahat": 4695,
      "▁icerisinde": 4696,
      "/": 4697,
      "▁kesildi": 4698,
      "arl": 4699,
      "'ler": 4700,
      "▁islem": 4701,
      "▁geri": 4702,
      "▁acıkladı": 4703,
      "ılık": 4704,
      "▁kahvalt": 4705,
      "▁dakika": 4706,
      "▁dok": 4707,
      "▁birbirine": 4708,
      "dular": 4709,
      "veren": 4710,
      "▁birbirlerine": 4711,
      "▁ogl": 4712,
      "ıpıs": 4713,
      "▁saglıklı": 4714,
      "▁3.3": 4715,
      "▁esit": 4716,
      "▁mermer": 4717,
      "larımız": 4718,
      "▁karab": 4719,
      "lesi": 4720,
      "▁aldim": 4721,
      "▁zen": 4722,
      "▁pesinde": 4723,
      "▁kit": 4724,
      "do": 4725,
      "▁oldular": 4726,
      "▁harc": 4727,
      "ligini": 4728,
      "▁kuf": 4729,
      "▁engel": 4730,
      "leket": 4731,
      "▁tasım": 4732,
      "▁ekmek": 4733,
      "▁takdir": 4734,
      "larını": 4735,
      "cıları": 4736,
      "▁ortam": 4737,
      "▁kir": 4738,
      "let": 4739,
      "▁yanak": 4740,
      "▁naci": 4741,
      "▁yurt": 4742,
      "▁fran": 4743,
      "▁125": 4744,
      "▁sozleri": 4745,
      "▁seb": 4746,
      "layan": 4747,
      "▁hayvan": 4748,
      "lul": 4749,
      "▁isken": 4750,
      "▁uzak": 4751,
      "▁palt": 4752,
      "ildi": 4753,
      "▁lynch": 4754,
      "▁%7.": 4755,
      "▁ulasım": 4756,
      "▁kok": 4757,
      "▁edilmis": 4758,
      "▁sozcusu": 4759,
      "▁kıv": 4760,
      "▁cekildi": 4761,
      "▁rakam": 4762,
      "ahh": 4763,
      "▁satıl": 4764,
      "ayet": 4765,
      "▁dusunce": 4766,
      "▁dahil": 4767,
      "▁alakaliydi": 4768,
      "▁piyasalar": 4769,
      "iyorlardı": 4770,
      "▁yetkili": 4771,
      "orta": 4772,
      "kun": 4773,
      "iste": 4774,
      "▁yaprak": 4775,
      "alarının": 4776,
      "orm": 4777,
      "▁caba": 4778,
      "▁calısır": 4779,
      "▁rey": 4780,
      "▁seviye": 4781,
      "▁olmadıgı": 4782,
      "▁degisik": 4783,
      "lık": 4784,
      "▁yaklasimi": 4785,
      "▁dık": 4786,
      "▁dırlar": 4787,
      "▁guc": 4788,
      "▁calısmalar": 4789,
      "lli": 4790,
      "▁olagan": 4791,
      "▁mik": 4792,
      "▁pus": 4793,
      "▁birbirimize": 4794,
      "▁sozler": 4795,
      "les": 4796,
      "▁cıkardı": 4797,
      "▁sene": 4798,
      "▁yim": 4799,
      "ide": 4800,
      "▁taraftan": 4801,
      "sın": 4802,
      "urt": 4803,
      "▁boyut": 4804,
      "“": 4805,
      "▁buyuy": 4806,
      "▁41": 4807,
      "▁yım": 4808,
      "▁senato": 4809,
      "urlu": 4810,
      "▁hız": 4811,
      "▁suyu": 4812,
      "▁hissesi": 4813,
      "▁ilgin": 4814,
      "kur": 4815,
      "▁bugune": 4816,
      "▁planlam": 4817,
      "▁etmem": 4818,
      "tuk": 4819,
      "▁yaralan": 4820,
      "kul": 4821,
      "▁hazırlan": 4822,
      "▁osman": 4823,
      "eyin": 4824,
      "aci": 4825,
      "ıklı": 4826,
      "lıktan": 4827,
      "▁yeterli": 4828,
      "on'un": 4829,
      "amıstı": 4830,
      "▁ediyorlar": 4831,
      "▁yapıp": 4832,
      "▁pul": 4833,
      "▁bez": 4834,
      "tık": 4835,
      "▁isim": 4836,
      "▁2": 4837,
      "▁#": 4838,
      "▁diler": 4839,
      "▁temsil": 4840,
      "▁allak": 4841,
      "▁beden": 4842,
      "▁misafirimiz": 4843,
      "▁denet": 4844,
      "▁anim": 4845,
      "▁miydi": 4846,
      "▁ceh": 4847,
      "ol": 4848,
      "▁yemis": 4849,
      "▁kagıt": 4850,
      "▁birbirlerinin": 4851,
      "▁kurtar": 4852,
      "▁grub": 4853,
      "▁dusur": 4854,
      "▁kateg": 4855,
      "▁izin": 4856,
      "luktan": 4857,
      "▁cins": 4858,
      "▁telefonla": 4859,
      "▁karsiladi": 4860,
      "▁rak": 4861,
      "▁sahneye": 4862,
      "ende": 4863,
      "▁kimisi": 4864,
      "▁harik": 4865,
      "▁ticarette": 4866,
      "▁vakıf": 4867,
      "▁gerekc": 4868,
      "▁beklen": 4869,
      "▁agzına": 4870,
      "▁fizik": 4871,
      "▁masa": 4872,
      "▁atlanta": 4873,
      "o'nun": 4874,
      "maktadır": 4875,
      "▁sın": 4876,
      "▁alem": 4877,
      "uz": 4878,
      "-2": 4879,
      "▁lisans": 4880,
      "▁yaptılar": 4881,
      "▁karısık": 4882,
      "▁eyalet": 4883,
      "▁uygundu": 4884,
      "▁biliyorum": 4885,
      "▁sent": 4886,
      "▁ekonomi": 4887,
      "▁meydana": 4888,
      "yal": 4889,
      "iligi": 4890,
      "▁lob": 4891,
      "▁gelecek": 4892,
      "▁acıklama": 4893,
      "▁basım": 4894,
      "▁etken": 4895,
      "ydı": 4896,
      "▁giden": 4897,
      "▁isten": 4898,
      "▁univers": 4899,
      "▁hij": 4900,
      "dur": 4901,
      "▁edilir": 4902,
      "▁agzı": 4903,
      "larak": 4904,
      "▁takip": 4905,
      "▁satan": 4906,
      "▁haberi": 4907,
      "adır": 4908,
      "bire": 4909,
      "▁bilgisi": 4910,
      "q": 4911,
      "▁imz": 4912,
      "▁hakk": 4913,
      "meyin": 4914,
      "adan": 4915,
      "▁yıgın": 4916,
      "▁def": 4917,
      "▁gecir": 4918,
      "▁dur": 4919,
      "▁muhalef": 4920,
      "▁bizim": 4921,
      "dek": 4922,
      "▁siyasi": 4923,
      "▁kendisin": 4924,
      "mam": 4925,
      "ıyorlar": 4926,
      "▁sad": 4927,
      "▁sevgi": 4928,
      "▁sever": 4929,
      "▁beach": 4930,
      "▁lacivert": 4931,
      "cesine": 4932,
      "▁cicek": 4933,
      "anbul": 4934,
      "gım": 4935,
      "▁tanesi": 4936,
      "ısız": 4937,
      "▁resep": 4938,
      "lesti": 4939,
      "alak": 4940,
      "▁tal": 4941,
      "▁diyarbakır": 4942,
      "▁div": 4943,
      "▁pil": 4944,
      "▁t": 4945,
      "▁bundan": 4946,
      "▁cekti": 4947,
      "2": 4948,
      "▁%51": 4949,
      "▁gecm": 4950,
      "▁ceket": 4951,
      "alama": 4952,
      "▁lir": 4953,
      "▁5.9": 4954,
      "▁bakanlıgı": 4955,
      "dy": 4956,
      "▁ust": 4957,
      "▁malzemeler": 4958,
      "▁ihtiy": 4959,
      "▁1000": 4960,
      "▁111": 4961,
      "▁pisti": 4962,
      "bak": 4963,
      "▁gotur": 4964,
      "anlı": 4965,
      "▁besin": 4966,
      "onelik": 4967,
      "▁olsun": 4968,
      "▁hen": 4969,
      "▁cumle": 4970,
      "▁kızıl": 4971,
      "▁ideal": 4972,
      "ket": 4973,
      "▁northwest": 4974,
      "▁gonul": 4975,
      "▁gormuyor": 4976,
      "▁analiz": 4977,
      "▁beyle": 4978,
      "▁bogaz": 4979,
      "▁uyuy": 4980,
      "▁caz": 4981,
      "▁alaka": 4982,
      "▁kasık": 4983,
      "▁cagr": 4984,
      "oya": 4985,
      "▁makin": 4986,
      "▁tesadu": 4987,
      "▁sarhos": 4988,
      "▁sog": 4989,
      "▁balk": 4990,
      "▁en": 4991,
      "▁buny": 4992,
      "▁saldırı": 4993,
      "▁kanat": 4994,
      "▁kosul": 4995,
      "malar": 4996,
      "▁degilmis": 4997,
      "▁91": 4998,
      "unku": 4999,
      "▁4.": 5000,
      "▁kendilerinden": 5001,
      "▁gar": 5002,
      "27": 5003,
      "▁basladık": 5004,
      "▁goc": 5005,
      "tıgını": 5006,
      "▁payı": 5007,
      "▁sakin": 5008,
      "▁esim": 5009,
      "all": 5010,
      "laka": 5011,
      "▁tabi": 5012,
      "▁muhendi": 5013,
      "▁kusursuz": 5014,
      "▁saf": 5015,
      "▁analist": 5016,
      "ugunu": 5017,
      "▁soyley": 5018,
      "▁birbiriyle": 5019,
      "▁bulmadim": 5020,
      "dan": 5021,
      "xel": 5022,
      "▁tev": 5023,
      "▁otelin": 5024,
      "▁%10": 5025,
      "▁iyi": 5026,
      "▁selam": 5027,
      "▁30": 5028,
      "▁kriz": 5029,
      "ah": 5030,
      "▁sayılır": 5031,
      "se": 5032,
      "tis": 5033,
      "yum": 5034,
      "elen": 5035,
      "▁ydık": 5036,
      "▁hepimizin": 5037,
      "▁birinde": 5038,
      "▁yeterince": 5039,
      "tim": 5040,
      "▁yorum": 5041,
      "seniz": 5042,
      "aydı": 5043,
      "▁gidec": 5044,
      "▁sof": 5045,
      "▁ters": 5046,
      "▁sans": 5047,
      "▁ogul": 5048,
      "▁secenek": 5049,
      "amıs": 5050,
      "▁ingiltere": 5051,
      "'nın": 5052,
      "▁cin": 5053,
      "▁systems": 5054,
      "▁buk": 5055,
      "▁yemeklerini": 5056,
      "▁ogleden": 5057,
      "▁olmasına": 5058,
      "▁mum": 5059,
      "▁nadir": 5060,
      "▁bit": 5061,
      "▁miami": 5062,
      "▁tık": 5063,
      "▁%7.8": 5064,
      "▁brit": 5065,
      "gan": 5066,
      "▁kapali": 5067,
      "nan": 5068,
      "elerinin": 5069,
      "cev": 5070,
      "▁%6.4": 5071,
      "▁yet": 5072,
      "▁basına": 5073,
      "▁&": 5074,
      "▁kısmını": 5075,
      "▁urunler": 5076,
      "▁istanbul'da": 5077,
      "elerde": 5078,
      "▁oner": 5079,
      "cu": 5080,
      "une": 5081,
      "▁normal": 5082,
      "▁cay": 5083,
      "ogram": 5084,
      "ımızın": 5085,
      "▁ceyr": 5086,
      "▁sorgul": 5087,
      "▁piyasaya": 5088,
      "▁restoran": 5089,
      "dok": 5090,
      "▁altıncı": 5091,
      "▁konusur": 5092,
      "▁kazanc": 5093,
      "▁pe": 5094,
      "likler": 5095,
      "▁ayakta": 5096,
      "▁%0.3": 5097,
      "▁duygusal": 5098,
      "▁350": 5099,
      "▁karsilamadi": 5100,
      "yet": 5101,
      "▁muhaf": 5102,
      "▁boru": 5103,
      "▁rev": 5104,
      "edik": 5105,
      "▁vas": 5106,
      "▁yans": 5107,
      "▁2.3": 5108,
      "▁teyz": 5109,
      "▁oldugum": 5110,
      "▁birer": 5111,
      "▁maliyetleri": 5112,
      "gmen": 5113,
      "▁varacak": 5114,
      "▁insa": 5115,
      "▁sark": 5116,
      "▁yerles": 5117,
      "▁ip": 5118,
      "gin": 5119,
      "▁ruzgar": 5120,
      "▁yahu": 5121,
      "▁personelden": 5122,
      "▁ettiler": 5123,
      "▁devr": 5124,
      "larında": 5125,
      "leniyor": 5126,
      "▁sicak": 5127,
      "▁ingiliz": 5128,
      "ega": 5129,
      "umus": 5130,
      "▁uyesi": 5131,
      "▁tanıs": 5132,
      "lıyordu": 5133,
      "▁tahviller": 5134,
      "▁avrupalı": 5135,
      "▁begendim": 5136,
      "▁ign": 5137,
      "▁istiyorlar": 5138,
      "anet": 5139,
      "▁azın": 5140,
      "▁ır": 5141,
      "▁kedi": 5142,
      "zira": 5143,
      "uye": 5144,
      "▁1.3": 5145,
      "bah": 5146,
      "▁oksur": 5147,
      "▁geldik": 5148,
      "▁almayı": 5149,
      "▁derg": 5150,
      "▁sezon": 5151,
      "▁140": 5152,
      "▁86": 5153,
      "▁komisyonu": 5154,
      ">": 5155,
      "▁2.4": 5156,
      "ba": 5157,
      "emedi": 5158,
      "miyor": 5159,
      "▁ord": 5160,
      "isinden": 5161,
      "▁anal": 5162,
      "▁finans": 5163,
      "▁asker": 5164,
      "▁houston'dan": 5165,
      "▁babası": 5166,
      "'ın": 5167,
      "▁tetik": 5168,
      "tor": 5169,
      "mayacak": 5170,
      "▁bakim": 5171,
      "ırak": 5172,
      "▁268": 5173,
      "tmis": 5174,
      "▁hakan": 5175,
      "▁amerik": 5176,
      "▁ozel": 5177,
      "▁gordugum": 5178,
      "▁'li": 5179,
      "▁bakıyordu": 5180,
      "▁pek": 5181,
      "▁kolay": 5182,
      "▁yuzde": 5183,
      "▁biz": 5184,
      "▁dolarlık": 5185,
      "▁sıfır": 5186,
      "ırt": 5187,
      "▁zamanlarda": 5188,
      "▁yoluyla": 5189,
      "▁eser": 5190,
      "▁sahib": 5191,
      "▁orlando'dan": 5192,
      "▁polon": 5193,
      "▁neden": 5194,
      "▁seniz": 5195,
      "▁gorusmeler": 5196,
      "▁ontari": 5197,
      "▁kıs": 5198,
      "▁ileri": 5199,
      "▁peyn": 5200,
      "▁yakından": 5201,
      "manın": 5202,
      "▁katıldı": 5203,
      "▁eglen": 5204,
      "▁anlamına": 5205,
      "▁giderek": 5206,
      "iyas": 5207,
      "▁zeki": 5208,
      "▁kapıdan": 5209,
      "▁huk": 5210,
      "▁denen": 5211,
      "paz": 5212,
      "▁donuk": 5213,
      "tısı": 5214,
      "▁tef": 5215,
      "▁kıyafet": 5216,
      "▁dun": 5217,
      "▁ye": 5218,
      "▁lev": 5219,
      "▁cekin": 5220,
      "▁hakları": 5221,
      "▁siparis": 5222,
      "sanız": 5223,
      "▁francisco": 5224,
      "ılmaz": 5225,
      "▁ediyoruz": 5226,
      "▁guclu": 5227,
      "ser": 5228,
      "ore": 5229,
      "▁da": 5230,
      "▁bunların": 5231,
      "▁kahr": 5232,
      "▁soyler": 5233,
      "▁telerate": 5234,
      "▁mendil": 5235,
      "▁hindistan": 5236,
      "▁ucuz": 5237,
      "▁karsısına": 5238,
      "▁ker": 5239,
      "▁bas": 5240,
      "ald": 5241,
      "▁uygul": 5242,
      "▁kendimiz": 5243,
      "▁konfer": 5244,
      "ıma": 5245,
      "▁uf": 5246,
      "edigini": 5247,
      "▁durumda": 5248,
      "ayın": 5249,
      "iber": 5250,
      "'nin": 5251,
      "▁yaklas": 5252,
      "▁%4.8": 5253,
      "▁istemedi": 5254,
      "▁garip": 5255,
      "▁havaya": 5256,
      "ılan": 5257,
      "ıstır": 5258,
      "▁sanat": 5259,
      "▁dagı": 5260,
      "▁oran": 5261,
      "▁emniyet": 5262,
      "▁egemen": 5263,
      "▁mek": 5264,
      "▁mehmet": 5265,
      "▁sok": 5266,
      "▁etkili": 5267,
      "iliyordu": 5268,
      "9": 5269,
      "▁5.1": 5270,
      "ami": 5271,
      "▁kahv": 5272,
      "▁degisim": 5273,
      "▁bagım": 5274,
      "▁recep": 5275,
      "▁pittsburgh'tan": 5276,
      "▁baktım": 5277,
      "▁ekipman": 5278,
      "▁%7.7": 5279,
      "▁ancak": 5280,
      "▁tel": 5281,
      "▁pantol": 5282,
      "▁kesin": 5283,
      "▁bilgis": 5284,
      "▁paran": 5285,
      "▁arıyor": 5286,
      "▁san": 5287,
      ".50": 5288,
      "▁morgan": 5289,
      "▁cob": 5290,
      "▁sehre": 5291,
      "▁koc": 5292,
      "▁cogunun": 5293,
      "▁alım-sat": 5294,
      "iyon": 5295,
      "▁ymıs": 5296,
      "ımızdan": 5297,
      "▁kası": 5298,
      "lulugu": 5299,
      "'deki": 5300,
      "▁ayse": 5301,
      "▁66": 5302,
      "▁kendisine": 5303,
      "▁deney": 5304,
      "▁duydu": 5305,
      "▁dalg": 5306,
      "▁kalp": 5307,
      "▁patır": 5308,
      "▁co.": 5309,
      "▁ikibin": 5310,
      "li": 5311,
      "▁yonelik": 5312,
      "▁23": 5313,
      "▁saz": 5314,
      "▁galiba": 5315,
      "ota": 5316,
      "▁8.8": 5317,
      "▁sigara": 5318,
      "▁20.": 5319,
      "▁alev": 5320,
      "▁etkisi": 5321,
      "▁cekil": 5322,
      "▁mırıl": 5323,
      "alarından": 5324,
      "▁matematik": 5325,
      "▁herkes": 5326,
      "▁giderken": 5327,
      "▁verdik": 5328,
      "▁mun": 5329,
      "▁kurum": 5330,
      "ledigi": 5331,
      "▁bitk": 5332,
      "▁kasab": 5333,
      "▁kendinden": 5334,
      "▁qu": 5335,
      "▁philadelphia'dan": 5336,
      "▁elim": 5337,
      "▁ilisk": 5338,
      "▁yi": 5339,
      "▁adina": 5340,
      "▁robert": 5341,
      "▁obu": 5342,
      "lif": 5343,
      "▁icecek": 5344,
      "▁geride": 5345,
      "▁cıg": 5346,
      "▁yansı": 5347,
      "▁istasyon": 5348,
      "▁gerceklestir": 5349,
      "▁yabancı": 5350,
      "▁kıdem": 5351,
      "'a": 5352,
      "▁goruyor": 5353,
      "eyh": 5354,
      "▁,": 5355,
      ":30": 5356,
      "▁yerde": 5357,
      "▁polit": 5358,
      "▁dek": 5359,
      "▁1/2": 5360,
      "▁geceleri": 5361,
      "iyel": 5362,
      "medik": 5363,
      "▁cesitliligi": 5364,
      "▁yuvar": 5365,
      "▁olmasını": 5366,
      "▁ortaydi": 5367,
      "▁acaba": 5368,
      "▁rad": 5369,
      "▁the": 5370,
      "▁emir": 5371,
      "▁agrı": 5372,
      "▁ortadan": 5373,
      "▁sordu": 5374,
      "20": 5375,
      "lass": 5376,
      "▁200": 5377,
      "▁gozleri": 5378,
      "'nı": 5379,
      "udum": 5380,
      "▁durak": 5381,
      "▁love": 5382,
      "lak": 5383,
      "▁coc": 5384,
      "▁rezervasyon": 5385,
      "▁kalmak": 5386,
      "esindeki": 5387,
      "▁cesitli": 5388,
      "▁sasırtıcı": 5389,
      "▁carol": 5390,
      "na": 5391,
      "▁bizi": 5392,
      "▁yuzunden": 5393,
      "ugh": 5394,
      "▁32": 5395,
      "▁ug": 5396,
      "▁yemek": 5397,
      "ebilecek": 5398,
      "▁ana": 5399,
      "gar": 5400,
      "▁baskı": 5401,
      "▁bastan": 5402,
      "▁elbet": 5403,
      "▁yardımcı": 5404,
      "▁lı": 5405,
      "dıg": 5406,
      "▁dusunmuyor": 5407,
      "▁efendi": 5408,
      "▁degismedi": 5409,
      "▁endustri": 5410,
      "▁tu": 5411,
      "▁calısıyordu": 5412,
      "dik": 5413,
      "▁konut": 5414,
      "▁maliyet": 5415,
      "—": 5416,
      "ran": 5417,
      "olog": 5418,
      "ıldıgında": 5419,
      "ers": 5420,
      "▁mev": 5421,
      "▁kongre": 5422,
      "bilir": 5423,
      "▁gemi": 5424,
      "25": 5425,
      "▁donmus": 5426,
      "▁mutlaka": 5427,
      "▁hata": 5428,
      "▁york": 5429,
      "▁res": 5430,
      "16": 5431,
      "▁edecegini": 5432,
      "▁cıkıyor": 5433,
      "▁yıllar": 5434,
      "▁direktoru": 5435,
      "▁ucagın": 5436,
      "▁ucuslarını": 5437,
      "▁kocaman": 5438,
      "▁halde": 5439,
      "▁zorlu": 5440,
      "imdi": 5441,
      "w": 5442,
      "47": 5443,
      "imleri": 5444,
      "▁sonuna": 5445,
      "▁ustune": 5446,
      "▁attı": 5447,
      "▁dert": 5448,
      "▁8.9": 5449,
      "▁sıg": 5450,
      "▁kapısını": 5451,
      "▁onda": 5452,
      "▁str": 5453,
      ".75": 5454,
      "▁12'den": 5455,
      "▁lub": 5456,
      "▁b": 5457,
      "▁sunları": 5458,
      "eten": 5459,
      "65": 5460,
      "mekten": 5461,
      "ze": 5462,
      "▁suy": 5463,
      "▁patates": 5464,
      "▁27": 5465,
      "▁kelime": 5466,
      "▁5.3": 5467,
      "▁yukarı": 5468,
      ";": 5469,
      "ael": 5470,
      "!": 5471,
      "▁wall": 5472,
      "▁suk": 5473,
      "61": 5474,
      "▁salon": 5475,
      "▁onları": 5476,
      "▁hastan": 5477,
      "▁avrupa'da": 5478,
      "▁47": 5479,
      "▁mesel": 5480,
      "▁zinc": 5481,
      "▁sap": 5482,
      "▁william": 5483,
      "▁gen": 5484,
      "▁getirmek": 5485,
      "▁komsu": 5486,
      "lıyor": 5487,
      "▁reform": 5488,
      "▁neredeyse": 5489,
      "▁tarih": 5490,
      "▁ediyorum": 5491,
      "▁terk": 5492,
      "▁olu": 5493,
      "lerden": 5494,
      "▁korumak": 5495,
      "▁olma": 5496,
      "▁firması": 5497,
      "▁tehdit": 5498,
      "▁dim": 5499,
      "▁kontrol": 5500,
      "▁gir": 5501,
      "▁olmaya": 5502,
      "▁gorunuyor": 5503,
      "elerinde": 5504,
      "▁bizden": 5505,
      "▁kadeh": 5506,
      "▁merrill": 5507,
      "iyetini": 5508,
      "▁varmıs": 5509,
      "▁cihaz": 5510,
      "amaz": 5511,
      "b.": 5512,
      "eni": 5513,
      "▁gosterir": 5514,
      "▁uyarı": 5515,
      "inip": 5516,
      "▁dul": 5517,
      "▁ayaga": 5518,
      "ıng": 5519,
      "▁fed": 5520,
      "▁bro": 5521,
      "omb": 5522,
      "ilm": 5523,
      "▁puana": 5524,
      "adılar": 5525,
      "▁dergi": 5526,
      "▁zey": 5527,
      "cilerin": 5528,
      "5000": 5529,
      "▁bek": 5530,
      "▁plaji": 5531,
      "lit": 5532,
      "▁demir": 5533,
      "▁kisinin": 5534,
      "▁cıkmak": 5535,
      "▁olacak": 5536,
      "▁herk": 5537,
      "▁(": 5538,
      "▁et": 5539,
      "ir": 5540,
      "▁sak": 5541,
      "▁sonrasında": 5542,
      "▁ed": 5543,
      "▁bulundugu": 5544,
      "atın": 5545,
      "7.2": 5546,
      "▁mutfak": 5547,
      "▁a.b.": 5548,
      "▁umuyor": 5549,
      "▁is": 5550,
      "atır": 5551,
      "▁pat": 5552,
      "▁kardesi": 5553,
      "▁cumhur": 5554,
      "▁yemekleri": 5555,
      "▁sosy": 5556,
      "lastır": 5557,
      "▁odaydi": 5558,
      "▁yasak": 5559,
      "▁vazif": 5560,
      "▁dallas'a": 5561,
      "▁:": 5562,
      "lım": 5563,
      "▁mitchell": 5564,
      "▁gey": 5565,
      "▁ufakti": 5566,
      "▁defter": 5567,
      "▁yukseltti": 5568,
      "▁yeter": 5569,
      "▁kucuktu": 5570,
      "▁finansal": 5571,
      "▁ozgu": 5572,
      "▁haf": 5573,
      "▁jour": 5574,
      "yen": 5575,
      "▁anayas": 5576,
      "▁ihracat": 5577,
      "▁1.25": 5578,
      "▁model": 5579,
      "onel": 5580,
      "▁3\\/8": 5581,
      "▁guvenli": 5582,
      "▁roportaj": 5583,
      "▁benzin": 5584,
      "▁$": 5585,
      "omur": 5586,
      "▁gaz": 5587,
      "lum": 5588,
      "▁kus": 5589,
      "umu": 5590,
      "▁tefek": 5591,
      "▁faz": 5592,
      "▁laf": 5593,
      "▁vegas": 5594,
      "eral": 5595,
      "▁kisiler": 5596,
      "▁atıyor": 5597,
      "lat": 5598,
      "adı": 5599,
      "▁teknoloji": 5600,
      "▁gi": 5601,
      "▁merak": 5602,
      "▁hayat": 5603,
      "▁olmasa": 5604,
      "▁gereken": 5605,
      "▁acıklanmadı": 5606,
      "▁lakırtı": 5607,
      "▁rot": 5608,
      "▁ayrıldı": 5609,
      "g": 5610,
      "▁kel": 5611,
      "▁sipar": 5612,
      "▁durumunda": 5613,
      "tan": 5614,
      "rem": 5615,
      "▁$'dan": 5616,
      "▁ta": 5617,
      "▁benziyor": 5618,
      "▁hong": 5619,
      "▁birimi": 5620,
      "▁gosterin": 5621,
      "esiyle": 5622,
      "▁calısma": 5623,
      "usun": 5624,
      "eri": 5625,
      "▁ufak": 5626,
      "▁merkeze": 5627,
      "▁aktivite": 5628,
      "▁fit": 5629,
      "▁muhab": 5630,
      "▁ister": 5631,
      "▁suruyor": 5632,
      "▁105": 5633,
      "▁mevdu": 5634,
      "dıgımız": 5635,
      "▁ekonomik": 5636,
      "▁oglu": 5637,
      "▁isp": 5638,
      "gileri": 5639,
      "▁mahm": 5640,
      "▁finanse": 5641,
      "▁hepsin": 5642,
      "▁rengi": 5643,
      "▁gecen": 5644,
      "alıgı": 5645,
      "est": 5646,
      "▁tuttu": 5647,
      "▁yil": 5648,
      "▁gerekti": 5649,
      "'den": 5650,
      "nik": 5651,
      "gis": 5652,
      "▁kurtul": 5653,
      "▁orland": 5654,
      "olu": 5655,
      "▁kimi": 5656,
      "▁felsef": 5657,
      "ke": 5658,
      "▁persembe": 5659,
      "▁sadece": 5660,
      "▁artarak": 5661,
      "imizi": 5662,
      "▁yılında": 5663,
      "▁orn": 5664,
      "apolis": 5665,
      "▁cey": 5666,
      "▁denver'e": 5667,
      "▁adamın": 5668,
      "istan": 5669,
      "▁yetkil": 5670,
      "mesine": 5671,
      "▁cok": 5672,
      "ası": 5673,
      "▁tec": 5674,
      "lamaya": 5675,
      "isel": 5676,
      "'ne": 5677,
      "▁ederek": 5678,
      "▁saray": 5679,
      "▁af": 5680,
      "▁r": 5681,
      "▁ettik": 5682,
      "▁mad": 5683,
      "▁ves": 5684,
      "▁haziran'da": 5685,
      "lardır": 5686,
      "▁kendisinden": 5687,
      "▁birey": 5688,
      "▁giyin": 5689,
      "▁kalkar": 5690,
      "▁cılgın": 5691,
      "'luk": 5692,
      "▁bırakıp": 5693,
      "▁suya": 5694,
      "ha": 5695,
      "▁arizona": 5696,
      "▁odasına": 5697,
      "▁dak": 5698,
      "▁sag": 5699,
      "lenen": 5700,
      "ligine": 5701,
      "▁pos": 5702,
      "▁yapmaya": 5703,
      "▁hazır": 5704,
      "▁%27": 5705,
      "ecegi": 5706,
      "bas": 5707,
      "▁kucak": 5708,
      "▁ayhan": 5709,
      "▁herhangi": 5710,
      "▁tesisi": 5711,
      "▁inc": 5712,
      "▁yıllarca": 5713,
      "▁iskonto": 5714,
      "lıgını": 5715,
      "▁arttı": 5716,
      "endigi": 5717,
      "▁muhtem": 5718,
      "▁sabah": 5719,
      "▁sam": 5720,
      "▁be": 5721,
      "▁ragmen": 5722,
      "▁beklentim": 5723,
      "▁john": 5724,
      "▁tabii": 5725,
      "ons": 5726,
      "▁cekir": 5727,
      "▁bası": 5728,
      "▁elektrik": 5729,
      "3.8": 5730,
      "▁gecici": 5731,
      "▁kol": 5732,
      "▁sebep": 5733,
      "▁hukum": 5734,
      "▁biles": 5735,
      "▁gecerli": 5736,
      "mekte": 5737,
      "4": 5738,
      "▁kayı": 5739,
      "ator": 5740,
      "▁mil": 5741,
      "▁ikimiz": 5742,
      "mada": 5743,
      "dor": 5744,
      "▁rolu": 5745,
      "▁kusur": 5746,
      "gumu": 5747,
      "▁dolu": 5748,
      "▁ilgi": 5749,
      "gru": 5750,
      "gumuz": 5751,
      "▁yen'den": 5752,
      "▁nerede": 5753,
      "▁emek": 5754,
      "▁karlı": 5755,
      "▁99": 5756,
      "▁ustunde": 5757,
      "abilmek": 5758,
      "▁gul": 5759,
      "▁kanal": 5760,
      "▁%3": 5761,
      "dim": 5762,
      "▁seye": 5763,
      "▁ogrenmek": 5764,
      "▁val": 5765,
      "▁-": 5766,
      "▁yaptirdi": 5767,
      "▁seyden": 5768,
      "imizde": 5769,
      "▁capital": 5770,
      "▁bak": 5771,
      "▁pisir": 5772,
      "▁ozet": 5773,
      "▁olacaktır": 5774,
      "▁bolg": 5775,
      "▁baltimore": 5776,
      "▁bugunku": 5777,
      "▁uzan": 5778,
      "▁gorevlisi": 5779,
      "▁gordum": 5780,
      "▁''": 5781,
      "▁servis": 5782,
      "el": 5783,
      "▁elinde": 5784,
      "i": 5785,
      "▁masraf": 5786,
      "▁les": 5787,
      "'teki": 5788,
      "▁soh": 5789,
      "▁reklam": 5790,
      "▁class": 5791,
      "▁sokaga": 5792,
      "yi": 5793,
      "iniki": 5794,
      "▁fik": 5795,
      "▁hafif": 5796,
      "▁ogle": 5797,
      "▁ucusu": 5798,
      "▁fel": 5799,
      "▁buyudu": 5800,
      "▁isvicre": 5801,
      "▁101": 5802,
      "s": 5803,
      "▁cadır": 5804,
      "but": 5805,
      "▁sekret": 5806,
      "▁mı": 5807,
      "▁cad": 5808,
      "▁ulasılamadı": 5809,
      "▁iskel": 5810,
      "▁om": 5811,
      "▁yetis": 5812,
      "ill": 5813,
      "▁street": 5814,
      "▁kahve": 5815,
      "▁1.000": 5816,
      "▁boz": 5817,
      "▁1\\/2": 5818,
      "▁seatt": 5819,
      "▁sergil": 5820,
      "▁bosal": 5821,
      "estir": 5822,
      "▁birileri": 5823,
      "9.8": 5824,
      "▁acık": 5825,
      "▁hali": 5826,
      "lıdır": 5827,
      "▁gibi": 5828,
      "▁dir": 5829,
      "ib": 5830,
      "▁155": 5831,
      "▁meslek": 5832,
      "mesi": 5833,
      "▁calıs": 5834,
      "▁koydu": 5835,
      "▁los": 5836,
      "ho": 5837,
      "iv": 5838,
      "▁hasır": 5839,
      "▁sorular": 5840,
      "ara": 5841,
      "▁amac": 5842,
      "▁sohbet": 5843,
      "▁yuzu": 5844,
      "▁fiyatina": 5845,
      "▁actı": 5846,
      "▁rec": 5847,
      "gim": 5848,
      "▁dusman": 5849,
      "▁olanakları": 5850,
      "▁calı": 5851,
      "aa": 5852,
      "▁yumurt": 5853,
      "\\/8": 5854,
      "▁tuz": 5855,
      "100": 5856,
      "▁gorulen": 5857,
      "▁59": 5858,
      "▁kendisinin": 5859,
      "▁zav": 5860,
      "▁ucrete": 5861,
      "▁sef": 5862,
      "▁cekici": 5863,
      "ıydı": 5864,
      "▁verilen": 5865,
      "▁tampa'dan": 5866,
      "▁yayım": 5867,
      "▁katlı": 5868,
      "▁metre": 5869,
      "elig": 5870,
      "▁elestir": 5871,
      "▁fiili": 5872,
      "▁cil": 5873,
      "▁olmus": 5874,
      "▁yildizli": 5875,
      "▁dunyayı": 5876,
      "6": 5877,
      "▁3.6": 5878,
      "▁cinsel": 5879,
      "▁g": 5880,
      "▁otel": 5881,
      "▁hatır": 5882,
      "▁tex": 5883,
      "▁resepsiyon": 5884,
      "▁eastern": 5885,
      "▁alıs": 5886,
      "▁salat": 5887,
      "▁yasası": 5888,
      "▁tes": 5889,
      "▁gercek": 5890,
      "'te": 5891,
      "agından": 5892,
      "▁geliri": 5893,
      "▁taraftar": 5894,
      "▁muzak": 5895,
      "▁elma": 5896,
      "▁international": 5897,
      "▁pes": 5898,
      "ulması": 5899,
      "▁oraya": 5900,
      "▁esas": 5901,
      "▁gunumuz": 5902,
      "▁geliyor": 5903,
      "▁%22": 5904,
      "lerimizi": 5905,
      "▁problem": 5906,
      "▁halen": 5907,
      "▁ara": 5908,
      "▁sezl": 5909,
      "▁kal": 5910,
      "▁giriyor": 5911,
      "▁sokak": 5912,
      "ecek": 5913,
      "▁kah": 5914,
      "▁goruyorum": 5915,
      "▁tan": 5916,
      "▁madd": 5917,
      "▁ediliyor": 5918,
      "ediy": 5919,
      "▁tamam": 5920,
      "▁new": 5921,
      "▁miktar": 5922,
      "nin": 5923,
      "▁express": 5924,
      "▁uyar": 5925,
      "▁gidi": 5926,
      "▁odan": 5927,
      "▁durus": 5928,
      "▁parcaları": 5929,
      "ar": 5930,
      "▁degerinde": 5931,
      "▁olmam": 5932,
      "ji": 5933,
      "▁uyk": 5934,
      "ınc": 5935,
      "▁yarın": 5936,
      "cilik": 5937,
      "▁nashville": 5938,
      "▁ceyrekte": 5939,
      "▁hitap": 5940,
      "▁kov": 5941,
      "▁neler": 5942,
      "▁3.": 5943,
      "▁esy": 5944,
      "▁pers": 5945,
      "▁aktivit": 5946,
      "▁7/8": 5947,
      "▁dusmus": 5948,
      "daki": 5949,
      "▁faktor": 5950,
      "▁fet": 5951,
      "lah": 5952,
      "▁amacıyla": 5953,
      "▁sahin": 5954,
      "▁ornek": 5955,
      "▁sos": 5956,
      "▁bazıların": 5957,
      "▁durumu": 5958,
      "▁sinir": 5959,
      "ulan": 5960,
      "▁istem": 5961,
      "▁yurum": 5962,
      "der": 5963,
      "▁denver'den": 5964,
      "▁columbus'tan": 5965,
      "▁karı": 5966,
      "hu": 5967,
      "▁icinde": 5968,
      "▁parcası": 5969,
      "▁sekilde": 5970,
      "▁bl": 5971,
      ".70": 5972,
      "▁resmen": 5973,
      "▁gorunuyordu": 5974,
      "▁)": 5975,
      "▁surdur": 5976,
      "▁475": 5977,
      "▁insanı": 5978,
      "ic": 5979,
      "▁politika": 5980,
      "eliydi": 5981,
      "▁vasıt": 5982,
      "▁merhaba": 5983,
      "▁gosterebilir": 5984,
      "▁sem": 5985,
      "▁kos": 5986,
      "amı": 5987,
      "▁cim": 5988,
      "▁etmey": 5989,
      "▁okun": 5990,
      "▁bilmiyor": 5991,
      "▁108": 5992,
      "▁ymis": 5993,
      "▁sms": 5994,
      "▁duyur": 5995,
      "▁kas": 5996,
      "▁zar": 5997,
      "▁senetleri": 5998,
      "▁eylul'de": 5999,
      "▁gerc": 6000,
      "▁yerlestir": 6001,
      "▁gelen": 6002,
      "c": 6003,
      "▁korum": 6004,
      "▁fev": 6005,
      "▁icecekler": 6006,
      "mamalı": 6007,
      "agan": 6008,
      "▁kurt": 6009,
      "tedir": 6010,
      ".3": 6011,
      "erv": 6012,
      "cut": 6013,
      "▁akın": 6014,
      "par": 6015,
      "▁onumuz": 6016,
      "ulmus": 6017,
      "▁ant": 6018,
      "▁bulabilir": 6019,
      "▁japon": 6020,
      "▁gittik": 6021,
      "▁yere": 6022,
      "▁oturan": 6023,
      "▁ogretmen": 6024,
      "meye": 6025,
      "▁yuks": 6026,
      ".31": 6027,
      "▁hizmete": 6028,
      "▁maz": 6029,
      "▁191": 6030,
      "▁uyan": 6031,
      "▁kuz": 6032,
      "ler": 6033,
      "▁katı": 6034,
      "▁fak": 6035,
      "000": 6036,
      "▁birlik": 6037,
      "▁degisiklikler": 6038,
      "▁hava": 6039,
      "▁red": 6040,
      "▁cesitlilik": 6041,
      "apon": 6042,
      "hur": 6043,
      "akal": 6044,
      "▁z": 6045,
      "luga": 6046,
      "▁portfoy": 6047,
      "tin": 6048,
      "▁harcam": 6049,
      "▁sahne": 6050,
      "▁kır": 6051,
      "▁hes": 6052,
      "▁%1": 6053,
      "▁calisanlar": 6054,
      "her": 6055,
      "▁kaliteliydi": 6056,
      "▁dım": 6057,
      "acılık": 6058,
      "▁ler": 6059,
      "▁cıyak": 6060,
      "▁insaat": 6061,
      "▁onde": 6062,
      "▁yı": 6063,
      "▁duygu": 6064,
      "▁kesti": 6065,
      "ersin": 6066,
      "▁yasama": 6067,
      "detti": 6068,
      "▁700": 6069,
      "▁ulastı": 6070,
      "▁yatır": 6071,
      "▁geleni": 6072,
      "▁as": 6073,
      "▁gorun": 6074,
      "▁cizg": 6075,
      "▁hasan": 6076,
      "▁\"": 6077,
      "▁lake": 6078,
      "mek": 6079,
      "▁sepet": 6080,
      "lugu": 6081,
      "ew": 6082,
      "▁ise": 6083,
      "dak": 6084,
      "▁gom": 6085,
      "▁lakin": 6086,
      "▁13": 6087,
      "▁hicbirine": 6088,
      "▁tedav": 6089,
      "▁seviyesinden": 6090,
      "lukla": 6091,
      "usuna": 6092,
      "▁yaptik": 6093,
      "▁%11": 6094,
      "▁.)": 6095,
      "▁florida": 6096,
      "andı": 6097,
      "▁tıpıs": 6098,
      "▁sıy": 6099,
      "▁cetin": 6100,
      ".15": 6101,
      "▁umur": 6102,
      "▁hug": 6103,
      "▁vaz": 6104,
      "▁etrafında": 6105,
      "▁gez": 6106,
      "▁times": 6107,
      "atin": 6108,
      "▁ipotek": 6109,
      "kırı": 6110,
      "▁dib": 6111,
      "ete": 6112,
      "▁kelim": 6113,
      "▁degilsin": 6114,
      "sam": 6115,
      "▁icecekleri": 6116,
      "mak": 6117,
      "▁bende": 6118,
      "▁%3.": 6119,
      "▁tadi": 6120,
      "dır": 6121,
      "▁hin": 6122,
      "▁tak": 6123,
      "▁10": 6124,
      "▁tasıy": 6125,
      "▁%3.1": 6126,
      "▁yerinde": 6127,
      "ih": 6128,
      "▁otele": 6129,
      "▁angeles'ten": 6130,
      "▁geleneksel": 6131,
      "▁alacak": 6132,
      "▁kaliteye": 6133,
      "▁vegas'tan": 6134,
      "▁col": 6135,
      "▁elbette": 6136,
      "▁yiz": 6137,
      "▁yaz": 6138,
      "▁saygı": 6139,
      "▁eskiden": 6140,
      ":00-22:30": 6141,
      "▁genis": 6142,
      "his": 6143,
      "▁yetersiz": 6144,
      "d.": 6145,
      "▁yapılmıs": 6146,
      "dat": 6147,
      "▁yum": 6148,
      "ılır": 6149,
      "▁2016": 6150,
      "bol": 6151,
      "▁sey": 6152,
      "▁yab": 6153,
      "gor": 6154,
      "▁yetmis": 6155,
      "lıgına": 6156,
      "37": 6157,
      "▁1989-": 6158,
      "ıs": 6159,
      "siye": 6160,
      "▁oden": 6161,
      "▁ne": 6162,
      "▁gurultu": 6163,
      "▁355": 6164,
      "▁giris": 6165,
      "▁fazlaydi": 6166,
      "mıyor": 6167,
      "fez": 6168,
      "▁yerinden": 6169,
      "▁61": 6170,
      "▁halı": 6171,
      "▁ton": 6172,
      "▁tar": 6173,
      "▁henuz": 6174,
      "▁bilgil": 6175,
      "▁5\\/8": 6176,
      "da": 6177,
      "▁kahvalti": 6178,
      "▁56": 6179,
      "▁'d": 6180,
      "larca": 6181,
      "▁yaygın": 6182,
      "▁anne": 6183,
      "wn": 6184,
      "▁girmis": 6185,
      "▁bacak": 6186,
      "anda": 6187,
      "▁kendimde": 6188,
      "▁yerel": 6189,
      "▁ifade": 6190,
      "▁durgun": 6191,
      "lasma": 6192,
      "▁onlarla": 6193,
      "eket": 6194,
      "nam": 6195,
      "▁yeten": 6196,
      "es": 6197,
      "gunu": 6198,
      "■": 6199,
      "▁deprem": 6200,
      "▁yolda": 6201,
      "▁ortal": 6202,
      "▁cift": 6203,
      "ılıgıyla": 6204,
      "▁ayı": 6205,
      "▁yanlıs": 6206,
      "digim": 6207,
      "▁tok": 6208,
      "0'": 6209,
      "4'te": 6210,
      "ıf": 6211,
      "▁enflasyon": 6212,
      "▁oldukları": 6213,
      "dut": 6214,
      "iciler": 6215,
      "▁nihayet": 6216,
      "▁kardes": 6217,
      "▁hosuma": 6218,
      "▁saskın": 6219,
      "▁cogun": 6220,
      "32": 6221,
      "▁bicim": 6222,
      "edi": 6223,
      "▁muk": 6224,
      "▁imkanlari": 6225,
      "ood": 6226,
      "▁farkında": 6227,
      "▁kitabı": 6228,
      "11": 6229,
      "▁yel": 6230,
      "ve": 6231,
      "▁iliskin": 6232,
      "ris": 6233,
      "▁ugr": 6234,
      "▁sob": 6235,
      "▁den": 6236,
      "amadik": 6237,
      "▁yarar": 6238,
      "erken": 6239,
      "▁at": 6240,
      "▁ala": 6241,
      "▁anlay": 6242,
      "ıyorsun": 6243,
      "▁yakın": 6244,
      "▁mahal": 6245,
      "▁kimden": 6246,
      "▁grev": 6247,
      "▁bize": 6248,
      "▁akıl": 6249,
      "▁titiz": 6250,
      "▁toplantıs": 6251,
      "ey": 6252,
      ".9": 6253,
      "▁derec": 6254,
      "ma": 6255,
      "uyla": 6256,
      "▁yenil": 6257,
      "tur": 6258,
      "▁aradi": 6259,
      "▁olunca": 6260,
      "▁universite": 6261,
      "▁zarif": 6262,
      "▁yemekler": 6263,
      "▁ayarlan": 6264,
      "▁ipot": 6265,
      "▁kafa": 6266,
      ":": 6267,
      "▁dogr": 6268,
      "▁ismini": 6269,
      "▁disiplin": 6270,
      "▁nere": 6271,
      "▁sogut": 6272,
      "▁petersburg'a": 6273,
      "bet": 6274,
      "emin": 6275,
      "▁w": 6276,
      "aların": 6277,
      "▁ces": 6278,
      "ltı": 6279,
      "▁resmi": 6280,
      "▁hacı": 6281,
      "▁komit": 6282,
      "▁dogu": 6283,
      "mıslar": 6284,
      "▁tıklım": 6285,
      "▁anad": 6286,
      "▁yuzune": 6287,
      "▁baskan": 6288,
      "▁dort": 6289,
      "▁vat": 6290,
      "▁rahatsız": 6291,
      "▁stu": 6292,
      "▁%15": 6293,
      "iforn": 6294,
      "▁dugun": 6295,
      "o": 6296,
      "▁tarafından": 6297,
      "▁doların": 6298,
      "▁erdi": 6299,
      "▁ciftlik": 6300,
      "esinden": 6301,
      "▁kokusu": 6302,
      "▁ik": 6303,
      "▁kestir": 6304,
      "▁idar": 6305,
      "▁kendin": 6306,
      "▁fiyat": 6307,
      "ı": 6308,
      "▁%85": 6309,
      "▁bizde": 6310,
      "▁deniz": 6311,
      "▁ders": 6312,
      "▁%": 6313,
      "▁jos": 6314,
      "saf": 6315,
      "ham": 6316,
      "egi": 6317,
      "▁zayifti": 6318,
      "▁.": 6319,
      "▁george": 6320,
      "▁baslangıc": 6321,
      "irken": 6322,
      "▁doneminde": 6323,
      "▁girip": 6324,
      "▁verildi": 6325,
      "▁tren": 6326,
      "▁tavsiye": 6327,
      "▁cocuklar": 6328,
      "aydi": 6329,
      "▁worth": 6330,
      "▁yardım": 6331,
      "nal": 6332,
      "▁beyan": 6333,
      "▁edilem": 6334,
      "lı": 6335,
      "▁peki": 6336,
      "leyerek": 6337,
      "▁100": 6338,
      "asında": 6339,
      "sil": 6340,
      "▁sise": 6341,
      "▁05.": 6342,
      "▁seri": 6343,
      "▁2.5": 6344,
      "dig": 6345,
      "▁7.5": 6346,
      "▁duzgun": 6347,
      "bac": 6348,
      "▁toplu": 6349,
      "otte": 6350,
      "▁itibariyle": 6351,
      "▁tom": 6352,
      "▁mah": 6353,
      "▁yukseldi": 6354,
      "▁varsa": 6355,
      "▁gazi": 6356,
      "▁pla": 6357,
      "▁it": 6358,
      "▁%8.2": 6359,
      "▁edici": 6360,
      "▁sıkır": 6361,
      "▁hisseleri": 6362,
      "▁orlando": 6363,
      "▁cent": 6364,
      "▁.'": 6365,
      "▁istemiyorum": 6366,
      "[CLS]": 6367,
      "▁leh": 6368,
      "▁savun": 6369,
      "alarını": 6370,
      "▁gunah": 6371,
      "▁cozul": 6372,
      "▁sar": 6373,
      "▁evi": 6374,
      "ardı": 6375,
      "▁88": 6376,
      "▁mark": 6377,
      "▁eroin": 6378,
      ".03": 6379,
      "▁calis": 6380,
      "▁fener": 6381,
      "▁degiliz": 6382,
      "▁goze": 6383,
      "▁sel": 6384,
      "▁yasam": 6385,
      "▁strate": 6386,
      "▁herif": 6387,
      "sizlik": 6388,
      "▁arastırma": 6389,
      "▁gov": 6390,
      "▁nesi": 6391,
      "▁0": 6392,
      "▁onceki": 6393,
      "▁pahali": 6394,
      "▁kursun": 6395,
      "o'ya": 6396,
      "▁onu": 6397,
      "ona": 6398,
      "▁dikkatli": 6399,
      "▁sofr": 6400,
      "▁ordu": 6401,
      "▁seninle": 6402,
      "▁kend": 6403,
      "amadan": 6404,
      "iyet": 6405,
      "▁1960": 6406,
      "▁calismas": 6407,
      "▁rıhtım": 6408,
      "▁ford": 6409,
      "▁vergi": 6410,
      "▁yoktur": 6411,
      "▁kalın": 6412,
      "▁tutul": 6413,
      "▁yirmi": 6414,
      "▁basv": 6415,
      "▁cuma": 6416,
      "▁aslan": 6417,
      "▁lab": 6418,
      "oy": 6419,
      "▁gozu": 6420,
      "▁phoenix": 6421,
      "▁2.7": 6422,
      "▁yumusak": 6423,
      "▁soyledik": 6424,
      "imli": 6425,
      "layı": 6426,
      "▁kompoz": 6427,
      "▁kars": 6428,
      "▁toplam": 6429,
      "usal": 6430,
      "▁tersine": 6431,
      "▁arasından": 6432,
      "▁fort": 6433,
      "▁fotograf": 6434,
      "▁istihdam": 6435,
      "▁yasıyor": 6436,
      "▁gerci": 6437,
      "▁yardim": 6438,
      "▁avukat": 6439,
      "ge": 6440,
      "▁pey": 6441,
      "/8": 6442,
      "▁diyen": 6443,
      "ıp": 6444,
      "▁dı": 6445,
      "▁uzum": 6446,
      "din": 6447,
      "▁listel": 6448,
      "uluk": 6449,
      "▁ettigini": 6450,
      "etin": 6451,
      "▁tir": 6452,
      "▁arkadası": 6453,
      "▁gozlu": 6454,
      "r.": 6455,
      "▁barda": 6456,
      "▁erdog": 6457,
      "madigim": 6458,
      "▁dortluk": 6459,
      "▁19": 6460,
      "▁puan": 6461,
      "sini": 6462,
      "bin": 6463,
      "▁76": 6464,
      "▁corb": 6465,
      "▁edebilir": 6466,
      "▁agacın": 6467,
      "▁olumsuz": 6468,
      "▁meh": 6469,
      "▁silah": 6470,
      "▁serp": 6471,
      "imet": 6472,
      "▁journal": 6473,
      "▁ongor": 6474,
      "▁kalabalikti": 6475,
      "▁kural": 6476,
      "tal": 6477,
      "cı": 6478,
      "▁eris": 6479,
      "0.7": 6480,
      "digimiz": 6481,
      "igi": 6482,
      "▁4.2": 6483,
      "▁bayram": 6484,
      "▁onlara": 6485,
      "line": 6486,
      "▁kaynagı": 6487,
      "▁acisindan": 6488,
      "ırlar": 6489,
      "▁stok": 6490,
      "orn": 6491,
      "▁icindeki": 6492,
      "dukları": 6493,
      "dugunu": 6494,
      "▁tahk": 6495,
      "▁saatlerde": 6496,
      "▁1983": 6497,
      "▁8.4": 6498,
      "▁tutun": 6499,
      "▁gelistir": 6500,
      "▁nefret": 6501,
      "▁bahce": 6502,
      "▁ataturk'un": 6503,
      "▁kaliteli": 6504,
      "▁park": 6505,
      "▁tekn": 6506,
      "▁siddetli": 6507,
      "▁1\\/4": 6508,
      "▁traf": 6509,
      "▁tırn": 6510,
      "▁buyut": 6511,
      "yalar": 6512,
      "iyak": 6513,
      "▁derin": 6514,
      "▁ada": 6515,
      "▁belirtti": 6516,
      "▁dinlemek": 6517,
      "rat": 6518,
      "▁gomlek": 6519,
      "▁derli": 6520,
      "▁ihtil": 6521,
      "▁arkadasim": 6522,
      "▁mac": 6523,
      "ılıgını": 6524,
      "▁sig": 6525,
      "▁yurek": 6526,
      "▁ettigi": 6527,
      "▁tahmin": 6528,
      "▁basından": 6529,
      "aliydi": 6530,
      "▁magaz": 6531,
      "▁80": 6532,
      "dık": 6533,
      "▁geor": 6534,
      "s'in": 6535,
      "▁engin": 6536,
      "ang": 6537,
      "▁derece": 6538,
      "▁say": 6539,
      "▁tıp": 6540,
      "▁gerekli": 6541,
      "▁dusus": 6542,
      "▁415": 6543,
      "▁isv": 6544,
      "▁guven": 6545,
      "▁saati": 6546,
      "▁komisyon": 6547,
      "ire": 6548,
      "▁hap": 6549,
      "▁edildi": 6550,
      "yan": 6551,
      "▁doları'na": 6552,
      "▁kisilik": 6553,
      "▁anlamda": 6554,
      "▁soyledi": 6555,
      "▁hicbiri": 6556,
      "cıların": 6557,
      "▁dahi": 6558,
      "▁umut": 6559,
      "▁gunu": 6560,
      "ebi": 6561,
      "rilyon": 6562,
      "▁yani": 6563,
      "▁yasadıgı": 6564,
      "cının": 6565,
      "▁uzere": 6566,
      "▁ihtiyacım": 6567,
      "▁carsamba": 6568,
      "▁pal": 6569,
      "▁satıs": 6570,
      "ohn": 6571,
      "▁sist": 6572,
      "in": 6573,
      "▁piyasa": 6574,
      "ell": 6575,
      "▁icer": 6576,
      "▁yapma": 6577,
      "▁degis": 6578,
      "tif": 6579,
      "▁farklılık": 6580,
      "▁girdik": 6581,
      "▁sıv": 6582,
      "▁luk": 6583,
      "▁soru": 6584,
      "▁industri": 6585,
      "▁3/4": 6586,
      "▁%8": 6587,
      "▁agırlık": 6588,
      "▁iyil": 6589,
      "▁emtia": 6590,
      "▁turkiye": 6591,
      "lilik": 6592,
      "▁birik": 6593,
      "has": 6594,
      "▁a": 6595,
      "▁tarz": 6596,
      "gec": 6597,
      "▁piyasanın": 6598,
      "▁yonetimi": 6599,
      "[SEP]": 6600,
      "▁tanık": 6601,
      "▁hayatın": 6602,
      "▁yonetic": 6603,
      "ee": 6604,
      "▁dolayi": 6605,
      "eginde": 6606,
      "*": 6607,
      "86": 6608,
      "▁kapalı": 6609,
      "▁cesit": 6610,
      "▁hucr": 6611,
      "▁elbis": 6612,
      "▁egit": 6613,
      "▁bal": 6614,
      "▁kısıt": 6615,
      "▁olabil": 6616,
      "▁turu": 6617,
      "▁lira": 6618,
      "▁vermedi": 6619,
      "▁24": 6620,
      "▁sab": 6621,
      "▁ruh": 6622,
      "▁zayif": 6623,
      ".375": 6624,
      "▁diyordu": 6625,
      "▁du": 6626,
      "amdan": 6627,
      "▁%7": 6628,
      "isini": 6629,
      "▁konus": 6630,
      "▁posta": 6631,
      "▁bel": 6632,
      "▁aile": 6633,
      "▁eh": 6634,
      "▁kıt": 6635,
      "▁kat": 6636,
      "▁soluk": 6637,
      "▁olmayan": 6638,
      "▁nesil": 6639,
      "ların": 6640,
      "▁olması": 6641,
      "ken": 6642,
      "▁tahsil": 6643,
      "▁fikr": 6644,
      "▁dav": 6645,
      "0.4": 6646,
      "▁alk": 6647,
      "▁ortaya": 6648,
      "▁plastik": 6649,
      "▁icki": 6650,
      "▁stan": 6651,
      "▁bura": 6652,
      "▁aktarma": 6653,
      "▁cekiyor": 6654,
      "ıyoruz": 6655,
      "im": 6656,
      "us": 6657,
      "chester": 6658,
      "ıldıgı": 6659,
      "▁izley": 6660,
      "▁ettir": 6661,
      "▁arkad": 6662,
      "▁karanlık": 6663,
      "▁karayol": 6664,
      "▁eki": 6665,
      "▁fon": 6666,
      "▁tur": 6667,
      "▁um": 6668,
      "▁cıtır": 6669,
      "▁seref": 6670,
      "larken": 6671,
      "▁meden": 6672,
      "▁hanim": 6673,
      "dız": 6674,
      "lestir": 6675,
      "ınıza": 6676,
      "▁donustur": 6677,
      "▁usta": 6678,
      "▁ma": 6679,
      "▁aptal": 6680,
      "▁avukatlar": 6681,
      "▁tedir": 6682,
      "▁alternatif": 6683,
      "▁biriler": 6684,
      ".45": 6685,
      "▁asık": 6686,
      "▁ikincisi": 6687,
      "▁5'ten": 6688,
      "▁aralık'ta": 6689,
      "▁not": 6690,
      "▁iken": 6691,
      "▁hurriyet": 6692,
      "▁baktı": 6693,
      "▁anlıyor": 6694,
      "▁asa": 6695,
      "▁kayık": 6696,
      "▁fiyati": 6697,
      "▁icin": 6698,
      "▁ba": 6699,
      "▁dobr": 6700,
      "▁bodrum": 6701,
      "▁ah": 6702,
      "eyman": 6703,
      "▁kazancı": 6704,
      "▁sch": 6705,
      "▁2.1": 6706,
      "arında": 6707,
      "▁boston'a": 6708,
      "▁konusu": 6709,
      "oth": 6710,
      "ult": 6711,
      "▁iceriyor": 6712,
      "▁hapis": 6713,
      "maktan": 6714,
      "malı": 6715,
      "▁dilim": 6716,
      "iyiz": 6717,
      "ever": 6718,
      "elendir": 6719,
      "lugun": 6720,
      "▁po": 6721,
      "meyen": 6722,
      "▁rekabet": 6723,
      "urlar": 6724,
      "▁8.3": 6725,
      "▁8.5": 6726,
      "▁gev": 6727,
      "▁uzay": 6728,
      "▁eski": 6729,
      "if": 6730,
      "▁giy": 6731,
      "▁patlıcan": 6732,
      "ladı": 6733,
      ".1": 6734,
      "▁ciyak": 6735,
      "▁dig": 6736,
      "▁hoc": 6737,
      "▁yar": 6738,
      "▁aracı": 6739,
      "▁gon": 6740,
      "▁dostu": 6741,
      "elerden": 6742,
      "▁fan": 6743,
      "iger": 6744,
      "▁guvenlik": 6745,
      "▁mukemmel": 6746,
      "▁otelden": 6747,
      "rli": 6748,
      "▁sirketler": 6749,
      "▁mahall": 6750,
      "▁istedigim": 6751,
      "▁cinayet": 6752,
      "▁kısm": 6753,
      "▁milwaukee'den": 6754,
      "▁gayrimenkul": 6755,
      "▁banyo": 6756,
      "▁gayrim": 6757,
      "▁buyur": 6758,
      "ıyorum": 6759,
      "▁con": 6760,
      "▁antr": 6761,
      "'un": 6762,
      "▁amer": 6763,
      "▁21:00-22:30": 6764,
      "▁tasıyan": 6765,
      "▁erk": 6766,
      "▁listesini": 6767,
      "▁cesaret": 6768,
      "▁aylık": 6769,
      "▁birtakım": 6770,
      "dort": 6771,
      "▁personeller": 6772,
      "▁git": 6773,
      "ub": 6774,
      "▁cıkart": 6775,
      "▁sonr": 6776,
      "▁sizden": 6777,
      ".52": 6778,
      "▁ekonom": 6779,
      "▁1.": 6780,
      "▁nazik": 6781,
      "▁van": 6782,
      "▁cevir": 6783,
      "▁seyin": 6784,
      "lesmis": 6785,
      "▁7": 6786,
      "▁aksamları": 6787,
      "lemis": 6788,
      "▁iyiydi": 6789,
      "▁alacaklı": 6790,
      "▁hassas": 6791,
      "▁400000": 6792,
      "ılacak": 6793,
      "▁dusunc": 6794,
      "▁masanın": 6795,
      "▁perd": 6796,
      "=": 6797,
      "▁yeteri": 6798,
      "▁zirv": 6799,
      "landı": 6800,
      "▁sec": 6801,
      "▁el": 6802,
      "▁ert": 6803,
      "▁ayrılıp": 6804,
      "▁gu": 6805,
      "▁uzer": 6806,
      "ist": 6807,
      "ori": 6808,
      "▁west": 6809,
      "▁yoksun": 6810,
      "▁duny": 6811,
      "▁yılının": 6812,
      "▁sun": 6813,
      "▁alım": 6814,
      "▁konfor": 6815,
      "amak": 6816,
      "▁ekm": 6817,
      "▁izliyor": 6818,
      "▁tic": 6819,
      "lamaları": 6820,
      "▁omer": 6821,
      "▁yakindi": 6822,
      "▁detroit'ten": 6823,
      "▁dekor": 6824,
      "▁sınıfı": 6825,
      "▁yapmak": 6826,
      "▁phoeni": 6827,
      "▁bilmiyorum": 6828,
      "▁komur": 6829,
      "▁ser": 6830,
      "ta": 6831,
      "▁sip": 6832,
      "▁guzel": 6833,
      "▁12": 6834,
      "▁netic": 6835,
      "▁dakikada": 6836,
      "istin": 6837,
      "▁1/8": 6838,
      "▁fonları": 6839,
      "ulup": 6840,
      "▁senin": 6841,
      "▁birbirimiz": 6842,
      "▁5/8": 6843,
      "iz": 6844,
      "▁toronto'ya": 6845,
      "5-1": 6846,
      "siz": 6847,
      "▁canım": 6848,
      "▁goster": 6849,
      "▁seattle": 6850,
      "▁3.8": 6851,
      "▁kesinlikle": 6852,
      "▁ucak": 6853,
      "▁sinem": 6854,
      "▁japonya": 6855,
      "▁ola": 6856,
      "▁laci": 6857,
      "▁temizdi": 6858,
      "▁zorunda": 6859,
      "▁kısk": 6860,
      "▁ikna": 6861,
      "cak": 6862,
      "▁alamadik": 6863,
      "▁yumur": 6864,
      "▁nic": 6865,
      "▁keskin": 6866,
      "▁yaslı": 6867,
      "gelelim": 6868,
      "'yı": 6869,
      "▁enerji": 6870,
      "▁rus": 6871,
      "▁onem": 6872,
      "▁kurb": 6873,
      "▁yun": 6874,
      "▁lehman": 6875,
      "▁flori": 6876,
      "▁donus": 6877,
      "▁lim": 6878,
      "ya": 6879,
      "▁musa": 6880,
      "▁mulk": 6881,
      "▁alınması": 6882,
      "▁grup": 6883,
      "▁esya": 6884,
      "▁mide": 6885,
      "▁alakali": 6886,
      "ısında": 6887,
      "su": 6888,
      "▁kard": 6889,
      "▁baslay": 6890,
      "▁yuzlu": 6891,
      "▁bunun": 6892,
      "enek": 6893,
      "▁sirketi": 6894,
      "ruk": 6895,
      "▁sırt": 6896,
      "madim": 6897,
      "▁endek": 6898,
      "▁kasım'da": 6899,
      "▁bazen": 6900,
      "▁kayb": 6901,
      "bul": 6902,
      "▁dısında": 6903,
      "▁para": 6904,
      "▁hareket": 6905,
      "▁bask": 6906,
      "▁194": 6907,
      "▁kub": 6908,
      "▁etmedi": 6909,
      "▁biriydi": 6910,
      "lik": 6911,
      "▁sistem": 6912,
      "▁kons": 6913,
      "ılabilir": 6914,
      "▁anlattı": 6915,
      "▁catıs": 6916,
      "▁sıc": 6917,
      "▁termal": 6918,
      "▁hizmetten": 6919,
      "▁bekledigim": 6920,
      "▁zay": 6921,
      "▁ederiz": 6922,
      "▁tat": 6923,
      "▁dunku": 6924,
      "▁mon": 6925,
      "▁ıcı": 6926,
      "dıkları": 6927,
      "lerimiz": 6928,
      "▁ucusa": 6929,
      "▁nori": 6930,
      "▁ittif": 6931,
      "▁milwaukee'ye": 6932,
      "▁mendi": 6933,
      "▁kendi": 6934,
      "▁koltu": 6935,
      "▁yerli": 6936,
      "miyordu": 6937,
      "ce": 6938,
      "▁ucusta": 6939,
      "▁erkenden": 6940,
      "▁havaalan": 6941,
      "▁cogu": 6942,
      "▁herkese": 6943,
      "dıgı": 6944,
      "▁kendinde": 6945,
      "▁teor": 6946,
      "▁havası": 6947,
      "▁bomb": 6948,
      "▁pasa": 6949,
      "ot": 6950,
      "rut": 6951,
      "▁birden": 6952,
      "▁mich": 6953,
      "▁kendimi": 6954,
      "▁te": 6955,
      "▁kavus": 6956,
      "▁of": 6957,
      "▁net": 6958,
      "▁yine": 6959,
      "▁endustr": 6960,
      "▁oyun": 6961,
      "▁kalmadigim": 6962,
      "▁sah": 6963,
      "▁bile": 6964,
      "▁cel": 6965,
      "mistim": 6966,
      "-200": 6967,
      "pe": 6968,
      "esin": 6969,
      "▁zavallı": 6970,
      "▁dokuz": 6971,
      "▁kızlar": 6972,
      "▁temmuz'da": 6973,
      "▁mem": 6974,
      "▁yoneticileri": 6975,
      "▁enf": 6976,
      "▁ilave": 6977,
      "▁haklı": 6978,
      "▁istifa": 6979,
      "▁yuzden": 6980,
      "▁*": 6981,
      "inci": 6982,
      "ya'nın": 6983,
      "lim": 6984,
      "▁koca": 6985,
      "▁tumu": 6986,
      "▁istedim": 6987,
      "▁edilecek": 6988,
      "melidir": 6989,
      "eet": 6990,
      "si": 6991,
      "▁kavr": 6992,
      "▁inanc": 6993,
      "▁tuk": 6994,
      "▁ozellikle": 6995,
      "▁3/": 6996,
      "▁39": 6997,
      "▁ayır": 6998,
      "▁arabayı": 6999,
      "layıp": 7000,
      "▁piyasaları": 7001,
      "eden": 7002,
      "▁itibaren": 7003,
      "enk": 7004,
      "agi": 7005,
      "gır": 7006,
      "ia": 7007,
      "▁adalet": 7008,
      ".000": 7009,
      "▁kur": 7010,
      "▁izmir": 7011,
      "▁1986": 7012,
      "▁ste": 7013,
      "▁kırk": 7014,
      "▁del": 7015,
      "▁sayılı": 7016,
      "inda": 7017,
      "▁izlen": 7018,
      "▁d": 7019,
      "▁6.25": 7020,
      "▁cif": 7021,
      "▁ediyordu": 7022,
      "▁yen'e": 7023,
      "▁yarat": 7024,
      "fur": 7025,
      ".65": 7026,
      "▁niye": 7027,
      "▁westchester": 7028,
      "▁bagımsız": 7029,
      "▁durdu": 7030,
      "▁namaz": 7031,
      "ladım": 7032,
      "▁islemlerde": 7033,
      "▁lor": 7034,
      ".7": 7035,
      "▁acent": 7036,
      "▁yasat": 7037,
      "oj": 7038,
      "▁ceken": 7039,
      "▁bulmaya": 7040,
      "▁tepki": 7041,
      "agında": 7042,
      "▁boylu": 7043,
      "▁endisel": 7044,
      "▁kararlı": 7045,
      "▁det": 7046,
      "▁istemez": 7047,
      "▁mahkem": 7048,
      "▁0.": 7049,
      "▁dunyada": 7050,
      "▁acıl": 7051,
      "▁mektu": 7052,
      "▁yit": 7053,
      "▁yapıyor": 7054,
      "-22:30": 7055,
      "▁verici": 7056,
      "▁capında": 7057,
      "ilerini": 7058,
      "▁karın": 7059,
      "yası": 7060,
      "▁dakik": 7061,
      "▁huz": 7062,
      "▁asil": 7063,
      "▁yok": 7064,
      "▁gunduz": 7065,
      "▁paraya": 7066,
      "▁paylas": 7067,
      "▁bıcak": 7068,
      "net": 7069,
      "▁kac": 7070,
      "▁olurdu": 7071,
      "▁coktu": 7072,
      "▁insanlara": 7073,
      "ayla": 7074,
      "▁kapıya": 7075,
      "▁gıda": 7076,
      "liginde": 7077,
      "▁196": 7078,
      "▁art": 7079,
      "▁kenara": 7080,
      "▁kazanan": 7081,
      "▁sanırım": 7082,
      "▁yapılandır": 7083,
      "▁7.1": 7084,
      "▁oynat": 7085,
      "▁suren": 7086,
      "▁chicago": 7087,
      "▁kara": 7088,
      "▁davası": 7089,
      "tıcı": 7090,
      "lara": 7091,
      "oz": 7092,
      "mesin": 7093,
      "▁ind": 7094,
      "▁nedir": 7095,
      "▁tutuyor": 7096,
      "▁air": 7097,
      "▁personellerin": 7098,
      "izi": 7099,
      "laması": 7100,
      "▁58": 7101,
      "k": 7102,
      "▁duk": 7103,
      "▁roman": 7104,
      "mey": 7105,
      "ort": 7106,
      "▁alak": 7107,
      "▁sayıl": 7108,
      "▁holding": 7109,
      "▁dortyuz": 7110,
      "▁kaldik": 7111,
      "ime": 7112,
      "▁olmalıydı": 7113,
      "▁egil": 7114,
      "aman": 7115,
      "iyoruz": 7116,
      "▁yapabilir": 7117,
      "▁uygulam": 7118,
      "ikti": 7119,
      "▁odak": 7120,
      "ecegine": 7121,
      "▁gormek": 7122,
      "▁ulkede": 7123,
      "▁edeb": 7124,
      "▁cumhuriyet": 7125,
      "▁cle": 7126,
      "att": 7127,
      "▁sıgın": 7128,
      "▁firma": 7129,
      "acagim": 7130,
      "▁fatih": 7131,
      "ac": 7132,
      "▁42": 7133,
      "iri": 7134,
      "ad": 7135,
      "isiz": 7136,
      "80": 7137,
      "rub": 7138,
      "▁gidiyorum": 7139,
      "▁merdiven": 7140,
      "▁1/": 7141,
      "\\/": 7142,
      "▁lik": 7143,
      "▁oyku": 7144,
      "▁eylul": 7145,
      "▁doga": 7146,
      "▁sır": 7147,
      "▁herkesin": 7148,
      "▁kav": 7149,
      "▁direk": 7150,
      "eo": 7151,
      "▁ısın": 7152,
      "▁esk": 7153,
      "▁77": 7154,
      "▁aksama": 7155,
      "ında": 7156,
      "lerce": 7157,
      "▁goz": 7158,
      "▁kontr": 7159,
      "▁gayret": 7160,
      "▁bazı": 7161,
      "denin": 7162,
      "▁nas": 7163,
      "▁olmay": 7164,
      "▁asl": 7165,
      "▁kisisel": 7166,
      "▁aksi": 7167,
      "▁lt": 7168,
      "▁ilgisiz": 7169,
      "▁bet": 7170,
      "▁yonlendir": 7171,
      "rika": 7172,
      "eh": 7173,
      "lamıs": 7174,
      "pr": 7175,
      "▁otur": 7176,
      "▁fil": 7177,
      "▁kurumsal": 7178,
      "▁ref": 7179,
      "▁can": 7180,
      "ilerek": 7181,
      "▁anayasa": 7182,
      "ındaki": 7183,
      "▁birbirini": 7184,
      "▁olcu": 7185,
      "'dan": 7186,
      "▁sik": 7187,
      "▁ibrahim": 7188,
      "▁cekip": 7189,
      "▁nereden": 7190,
      "▁market": 7191,
      "▁ez": 7192,
      "▁fay": 7193,
      "fa": 7194,
      "▁2002": 7195,
      "▁protest": 7196,
      "ledim": 7197,
      "▁ote": 7198,
      "▁anahtar": 7199,
      "▁detay": 7200,
      "elli": 7201,
      "▁cekmek": 7202,
      "▁teksas": 7203,
      ":00": 7204,
      "▁devralma": 7205,
      "▁tah": 7206,
      "▁iceren": 7207,
      "▁saglayacak": 7208,
      "acagız": 7209,
      "gunda": 7210,
      "▁afrika": 7211,
      "▁kurban": 7212,
      "10": 7213,
      "▁sirketleri": 7214,
      "oglu": 7215,
      "▁dogru": 7216,
      "▁hoslan": 7217,
      "ılı": 7218,
      "ack": 7219,
      "▁beyin": 7220,
      "ilebilir": 7221,
      "mazdı": 7222,
      "ulu": 7223,
      "▁%9": 7224,
      "▁gelir": 7225,
      "▁55": 7226,
      "can": 7227,
      "vey": 7228,
      "▁fu": 7229,
      "▁endeksi": 7230,
      "ıb": 7231,
      "▁sonucları": 7232,
      "▁sinirli": 7233,
      "▁yarı": 7234,
      "▁kahkah": 7235,
      "▁lastik": 7236,
      "'si": 7237,
      "▁anadolu": 7238,
      "digini": 7239,
      "▁0.0": 7240,
      "ina": 7241,
      "▁ayrı": 7242,
      "▁zamanlar": 7243,
      "▁onceden": 7244,
      "▁yuruy": 7245,
      "gu": 7246,
      ".19": 7247,
      "▁bolge": 7248,
      "▁17": 7249,
      "▁kadınlar": 7250,
      "▁tesvik": 7251,
      "8": 7252,
      "▁kapsamlı": 7253,
      "2.9": 7254,
      "▁cak": 7255,
      "▁%20": 7256,
      "▁piyasada": 7257,
      "ume": 7258,
      "▁cıkacak": 7259,
      "▁atese": 7260,
      "▁gozuk": 7261,
      "▁diyerek": 7262,
      "▁coban": 7263,
      "▁7\\/8": 7264,
      "▁j.": 7265,
      "'ya": 7266,
      "▁suc": 7267,
      "▁ogret": 7268,
      "adu": 7269,
      "mu": 7270,
      "mer": 7271,
      "▁alarak": 7272,
      "▁2.8": 7273,
      "▁man": 7274,
      "mayın": 7275,
      "▁43": 7276,
      "▁cocuk": 7277,
      "▁saldır": 7278,
      "▁franc": 7279,
      "▁gecti": 7280,
      "▁onumuzdeki": 7281,
      "▁mıydı": 7282,
      "ilecek": 7283,
      "▁sende": 7284,
      "▁rest": 7285,
      "▁kiler": 7286,
      "ulmaz": 7287,
      "▁chicago'ya": 7288,
      "▁yerleri": 7289,
      "▁serbest": 7290,
      "timore": 7291,
      "▁oradan": 7292,
      "▁sahipleri": 7293,
      "ısıl": 7294,
      "▁mes": 7295,
      "▁95": 7296,
      "des": 7297,
      "▁oysa": 7298,
      "op": 7299,
      "▁dag": 7300,
      "▁had": 7301,
      "▁1": 7302,
      "▁ede": 7303,
      "▁gelip": 7304,
      "▁cleveland'dan": 7305,
      "▁hol": 7306,
      "▁kitab": 7307,
      "▁cennet": 7308,
      "bes": 7309,
      "▁devam": 7310,
      "▁impar": 7311,
      "lıgının": 7312,
      "▁..\"": 7313,
      "▁yatırımcılar": 7314,
      ".38": 7315,
      "▁onun": 7316,
      "▁north": 7317,
      "ilik": 7318,
      "▁has": 7319,
      "▁sovyet": 7320,
      "▁ucaga": 7321,
      "▁endis": 7322,
      "mistir": 7323,
      "▁civarı": 7324,
      "ice": 7325,
      "▁nor": 7326,
      "▁metal": 7327,
      "▁3/8": 7328,
      "▁dolayısıyla": 7329,
      ".875": 7330,
      "▁dipl": 7331,
      "▁cıkarıyor": 7332,
      "▁diplom": 7333,
      "▁mıy": 7334,
      "lerdir": 7335,
      "ege": 7336,
      "▁baslamıstı": 7337,
      "▁zincir": 7338,
      "ow": 7339,
      "▁sonuc": 7340,
      "▁katıl": 7341,
      "▁sep": 7342,
      "▁bindokuzyuz": 7343,
      "▁4.5": 7344,
      "▁ex": 7345,
      "▁babamın": 7346,
      "ımızı": 7347,
      "▁wash": 7348,
      "sızlık": 7349,
      "dokuzyuz": 7350,
      "▁lou": 7351,
      "▁calisan": 7352,
      "▁yas": 7353,
      "▁doner": 7354,
      "▁yag": 7355,
      "▁oldugu": 7356,
      "▁cocuga": 7357,
      "▁civ": 7358,
      "akin": 7359,
      "▁soyleyen": 7360,
      "▁havayol": 7361,
      "bal": 7362,
      "rim": 7363,
      "▁cbs": 7364,
      "▁dallas": 7365,
      "▁100000": 7366,
      "eviz": 7367,
      "▁mustafa": 7368,
      "▁ol": 7369,
      "▁baba": 7370,
      "yak": 7371,
      "▁baslar": 7372,
      "▁ul": 7373,
      "▁arasındaki": 7374,
      "▁teb": 7375,
      "▁elindeki": 7376,
      "▁siyah": 7377,
      "▁mut": 7378,
      "▁tay": 7379,
      "▁tatildi": 7380,
      "lerdeki": 7381,
      "▁yorgun": 7382,
      "▁ardı": 7383,
      "▁bakkal": 7384,
      "▁bug": 7385,
      "▁yoneticisi": 7386,
      "▁din": 7387,
      "▁198": 7388,
      "▁akıllı": 7389,
      "▁dan": 7390,
      "▁mali": 7391,
      "▁saatlerinde": 7392,
      "▁sozu": 7393,
      ")": 7394,
      "may": 7395,
      "▁ziy": 7396,
      "▁gogsun": 7397,
      "▁saatlerce": 7398,
      "▁karmas": 7399,
      "▁acılan": 7400,
      "lerini": 7401,
      "dal": 7402,
      "ental": 7403,
      "▁mıs": 7404,
      "oru": 7405,
      "ıldır": 7406,
      "gı": 7407,
      "▁olum": 7408,
      "▁gosteriyor": 7409,
      "▁ofk": 7410,
      "▁kabul": 7411,
      "▁bugun": 7412,
      "▁baglı": 7413,
      "tum": 7414,
      "gum": 7415,
      "uh": 7416,
      "lanır": 7417,
      "ebil": 7418,
      "ılmıstı": 7419,
      "-": 7420,
      "▁sozles": 7421,
      "anmıs": 7422,
      "▁uluslararası": 7423,
      "▁onc": 7424,
      "set": 7425,
      "\\": 7426,
      "▁performansi": 7427,
      "vel": 7428,
      "liklerini": 7429,
      "▁kimse": 7430,
      "▁fiyatı": 7431,
      "▁vade": 7432,
      "▁meclis": 7433,
      "▁mutluluk": 7434,
      "▁ofis": 7435,
      "▁71": 7436,
      "▁cuk": 7437,
      "yetmis": 7438,
      "▁iliski": 7439,
      "▁sona": 7440,
      "▁acıklan": 7441,
      "▁uygun": 7442,
      "▁yeri": 7443,
      "▁kurul": 7444,
      "▁milyon": 7445,
      "▁sesle": 7446,
      "▁ucusunu": 7447,
      "▁ortasında": 7448,
      "▁seyret": 7449,
      "medigi": 7450,
      "▁murat": 7451,
      "▁harıl": 7452,
      "▁tacoma'ya": 7453,
      "▁yasamak": 7454,
      "▁tuy": 7455,
      "▁burası": 7456,
      "ilmesi": 7457,
      "ımda": 7458,
      "ra": 7459,
      "▁alet": 7460,
      "▁ren": 7461,
      ".08": 7462,
      "'daki": 7463,
      "amayacagını": 7464,
      "▁yumus": 7465,
      "▁kımıl": 7466,
      "▁ayakkabı": 7467,
      "mel": 7468,
      ".5": 7469,
      "landır": 7470,
      "▁ihrac": 7471,
      "ont": 7472,
      "eniz": 7473,
      "en": 7474,
      "laya": 7475,
      "▁mucadel": 7476,
      "adaki": 7477,
      "▁mas": 7478,
      "▁aralarında": 7479,
      "▁kaz": 7480,
      "▁hazin": 7481,
      "▁73": 7482,
      "▁renk": 7483,
      "masını": 7484,
      "▁yuzunde": 7485,
      "▁insan": 7486,
      "▁onunden": 7487,
      "▁?": 7488,
      "▁aldım": 7489,
      "▁olan": 7490,
      "dıgında": 7491,
      "▁ları": 7492,
      "▁67": 7493,
      "ibar": 7494,
      "▁bucuk": 7495,
      "▁asırı": 7496,
      "▁amerikan": 7497,
      "▁kims": 7498,
      "▁tohum": 7499,
      "▁odanin": 7500,
      "▁farklı": 7501,
      "ıcılık": 7502,
      "▁mi": 7503,
      "ortaj": 7504,
      "▁kaydı": 7505,
      "iski": 7506,
      "▁temin": 7507,
      "siyonu": 7508,
      "45": 7509,
      "undan": 7510,
      "▁dalı": 7511,
      "▁soyles": 7512,
      "du": 7513,
      "lattı": 7514,
      "▁kemal": 7515,
      "▁olası": 7516,
      "▁1987": 7517,
      "cok": 7518,
      "▁sozlesme": 7519,
      "▁hil": 7520,
      "4000": 7521,
      "▁arm": 7522,
      "▁psik": 7523,
      "▁corap": 7524,
      "▁gid": 7525,
      "▁lo": 7526,
      "▁gibiydi": 7527,
      "▁chicag": 7528,
      "▁dengesi": 7529,
      "2-23": 7530,
      "▁4.8": 7531,
      "▁yatırımcıların": 7532,
      "▁sikin": 7533,
      "▁acı": 7534,
      "▁herkesten": 7535,
      "▁seyi": 7536,
      "▁mecl": 7537,
      "▁cid": 7538,
      "▁acar": 7539,
      "▁hacim": 7540,
      "meli": 7541,
      "▁isra": 7542,
      "▁londra": 7543,
      "aat": 7544,
      "▁turku": 7545,
      "▁mag": 7546,
      "amam": 7547,
      "▁yerden": 7548,
      "▁colum": 7549,
      "stems": 7550,
      "▁am": 7551,
      "▁siyaset": 7552,
      "▁dog": 7553,
      "▁islemlerinde": 7554,
      "▁benzer": 7555,
      "▁cogunlukla": 7556,
      "▁bizler": 7557,
      "▁kalma": 7558,
      "▁savası": 7559,
      "▁hay": 7560,
      "▁makam": 7561,
      "▁le": 7562,
      "▁zir": 7563,
      "▁tablo": 7564,
      "▁edebil": 7565,
      "▁karg": 7566,
      "igin": 7567,
      "orp": 7568,
      "▁kaldı": 7569,
      "▁danısman": 7570,
      "▁yapmadı": 7571,
      "cık": 7572,
      "ole": 7573,
      "elikle": 7574,
      "ilmez": 7575,
      "▁gider": 7576,
      "▁inanıyor": 7577,
      "▁personelin": 7578,
      "diginde": 7579,
      "▁ugur": 7580,
      "▁%30": 7581,
      "▁havalim": 7582,
      "▁korkunc": 7583,
      "▁part": 7584,
      "▁bosluk": 7585,
      "eleriyle": 7586,
      "s.": 7587,
      "▁memphis": 7588,
      "▁altından": 7589,
      "▁erken": 7590,
      "▁ayar": 7591,
      "▁getirir": 7592,
      "▁1979": 7593,
      "vil": 7594,
      "▁amerika": 7595,
      "▁yık": 7596,
      "enen": 7597,
      "▁almaya": 7598,
      "▁sehrin": 7599,
      "ırken": 7600,
      "mas": 7601,
      "larından": 7602,
      "▁hala": 7603,
      "▁hissed": 7604,
      "▁1\\/": 7605,
      "▁insanlar": 7606,
      "▁odul": 7607,
      "▁sana": 7608,
      "▁isaret": 7609,
      "be": 7610,
      "ugun": 7611,
      "▁kalmıs": 7612,
      "▁vermek": 7613,
      "▁gunde": 7614,
      "▁klas": 7615,
      "▁konusma": 7616,
      "▁sul": 7617,
      "uyle": 7618,
      "▁cabuk": 7619,
      "muyordu": 7620,
      "▁rast": 7621,
      "▁karıs": 7622,
      "▁satım": 7623,
      "▁eylem": 7624,
      "▁cıkmaz": 7625,
      "▁0.2": 7626,
      "gunde": 7627,
      "▁konforlu": 7628,
      "m": 7629,
      "▁mail": 7630,
      "uyordu": 7631,
      "tıgım": 7632,
      "egim": 7633,
      "▁dobra": 7634,
      "▁sagladı": 7635,
      "▁don": 7636,
      "▁wil": 7637,
      "▁yeterliydi": 7638,
      "▁istek": 7639,
      "▁sa": 7640,
      "ulur": 7641,
      "/32": 7642,
      "▁sohret": 7643,
      "▁beh": 7644,
      "▁ittifak": 7645,
      "▁aj": 7646,
      "▁5": 7647,
      "endir": 7648,
      "▁erkekler": 7649,
      "▁bo": 7650,
      "▁mutf": 7651,
      "▁turk": 7652,
      "▁sampiyon": 7653,
      "▁cic": 7654,
      "▁takv": 7655,
      "▁sorunu": 7656,
      "▁fes": 7657,
      "▁ysa": 7658,
      "▁vakti": 7659,
      "lu": 7660,
      "▁sev": 7661,
      "▁est": 7662,
      "▁60": 7663,
      "22": 7664,
      "ımdan": 7665,
      "iler": 7666,
      "▁kampanyalardan": 7667,
      "▁sahiptir": 7668,
      "▁90": 7669,
      "▁deneyim": 7670,
      "▁durum": 7671,
      "2:30": 7672,
      "▁havayollarında": 7673,
      "tıgı": 7674,
      "▁phoenix'den": 7675,
      "▁bisik": 7676,
      "▁ucretin": 7677,
      "elerini": 7678,
      "gal": 7679,
      "▁beydi": 7680,
      "alarında": 7681,
      "▁sehri": 7682,
      "lilig": 7683,
      "▁suruk": 7684,
      "emey": 7685,
      "▁or": 7686,
      "duz": 7687,
      "▁manzar": 7688,
      "iyordum": 7689,
      "▁gizli": 7690,
      "▁er": 7691,
      "▁havuz": 7692,
      "▁gurur": 7693,
      "▁bakıs": 7694,
      "una": 7695,
      "▁menkul": 7696,
      "atif": 7697,
      "▁mos": 7698,
      "▁uret": 7699,
      "▁besyuz": 7700,
      "▁1\\/8": 7701,
      "▁sigar": 7702,
      "tın": 7703,
      "▁yatak": 7704,
      "gında": 7705,
      "▁kazancları": 7706,
      "▁nuk": 7707,
      "▁tasarruf": 7708,
      "niyet": 7709,
      "▁": 7710,
      "▁min": 7711,
      "▁edecek": 7712,
      "▁gerceklesti": 7713,
      "▁do": 7714,
      "▁8'den": 7715,
      "▁anlamak": 7716,
      "▁gitmem": 7717,
      "▁kurulu": 7718,
      "▁denver'de": 7719,
      "▁dolay": 7720,
      "▁kost": 7721,
      "▁muhar": 7722,
      "▁aileye": 7723,
      "amıyorum": 7724,
      "isik": 7725,
      "ap": 7726,
      "▁siv": 7727,
      "▁tespit": 7728,
      "▁yoktu": 7729,
      "▁ona": 7730,
      "▁soylediler": 7731,
      "▁gures": 7732,
      "ilere": 7733,
      "5'ten": 7734,
      "▁kısa": 7735,
      "ish": 7736,
      "sizim": 7737,
      "lamayı": 7738,
      "▁us": 7739,
      "▁seni": 7740,
      "▁hazine": 7741,
      "▁raf": 7742,
      "▁vası": 7743,
      "▁beklem": 7744,
      "▁ucretlerini": 7745,
      "▁bab": 7746,
      "▁yazar": 7747,
      "▁personelleri": 7748,
      "▁maas": 7749,
      "▁1.7": 7750,
      "▁onemli": 7751,
      "ov": 7752,
      "lal": 7753,
      "▁tuttur": 7754,
      "▁nedenle": 7755,
      "elerinden": 7756,
      "▁gide": 7757,
      "▁yız": 7758,
      "▁yen": 7759,
      "maz": 7760,
      "bur": 7761,
      "▁mesaj": 7762,
      "▁finansman": 7763,
      "▁karan": 7764,
      "▁tuket": 7765,
      "mal": 7766,
      "▁incel": 7767,
      "▁ayrıntı": 7768,
      "▁gur": 7769,
      "▁ucusları": 7770,
      "▁sım": 7771,
      "▁suph": 7772,
      "▁agac": 7773,
      "▁borsa": 7774,
      "▁sabit": 7775,
      "▁mikr": 7776,
      "▁parm": 7777,
      "mez": 7778,
      "▁karsıya": 7779,
      "▁olanaklarını": 7780,
      "▁ilac": 7781,
      "▁dunyanın": 7782,
      "dog": 7783,
      "▁gectik": 7784,
      "▁kamp": 7785,
      "▁bulan": 7786,
      "▁vurdu": 7787,
      "▁tav": 7788,
      "▁22-23": 7789,
      "▁dusun": 7790,
      "▁2008": 7791,
      "▁gidis": 7792,
      "yor": 7793,
      "agıt": 7794,
      "▁21": 7795,
      "▁alabilir": 7796,
      "▁istir": 7797,
      "▁vek": 7798,
      "▁yelpaz": 7799,
      "esi": 7800,
      "▁havuzlari": 7801,
      "alarda": 7802,
      "▁veren": 7803,
      "ını": 7804,
      "▁nur": 7805,
      "▁3.1": 7806,
      "▁altern": 7807,
      "▁baglantı": 7808,
      "hi": 7809,
      "▁gog": 7810,
      "amadim": 7811,
      "▁fingir": 7812,
      "▁vit": 7813,
      "'yi": 7814,
      "▁tek": 7815,
      "▁halinde": 7816,
      "▁minneapolis'ten": 7817,
      "▁tertemiz": 7818,
      "▁gece": 7819,
      "▁fe": 7820,
      "dern": 7821,
      "▁109": 7822,
      "▁gre": 7823,
      "embe": 7824,
      "▁secildi": 7825,
      "ince": 7826,
      "▁arıyorum": 7827,
      "▁fıkı": 7828,
      "▁gercekles": 7829,
      "▁blok": 7830,
      "ave": 7831,
      "▁0.9": 7832,
      "▁isit": 7833,
      "▁98": 7834,
      "▁cıkan": 7835,
      "▁denize": 7836,
      "(": 7837,
      ".12": 7838,
      "▁yagmur": 7839,
      "▁savunma": 7840,
      "▁s&": 7841,
      "esel": 7842,
      "▁kadının": 7843,
      "▁kadını": 7844,
      "sur": 7845,
      "amadım": 7846,
      "▁13.": 7847,
      "▁sahil": 7848,
      "▁ard": 7849,
      "▁bakan": 7850,
      "▁ulkenin": 7851,
      "▁yor": 7852,
      "▁kuzey": 7853,
      "▁3\\/": 7854,
      "▁110": 7855,
      "▁vuc": 7856,
      "▁yiyecek": 7857,
      "sim": 7858,
      "inc": 7859,
      "▁ero": 7860,
      "▁dogrusu": 7861,
      "▁gene": 7862,
      "ayol": 7863,
      "▁city": 7864,
      "▁gulums": 7865,
      "▁gem": 7866,
      "eleri": 7867,
      "bir": 7868,
      "▁zihn": 7869,
      "bil": 7870,
      "▁belediye": 7871,
      "▁0.1": 7872,
      "uf": 7873,
      "▁%17": 7874,
      "masının": 7875,
      "▁zehir": 7876,
      "▁kullanıl": 7877,
      "▁iler": 7878,
      "▁nufus": 7879,
      "▁cocuklara": 7880,
      "▁cen": 7881,
      "▁baslan": 7882,
      "▁ugram": 7883,
      "aba": 7884,
      "7": 7885,
      "▁buraya": 7886,
      "▁program": 7887,
      "▁film": 7888,
      "leme": 7889,
      "▁rek": 7890,
      "ft": 7891,
      "▁195": 7892,
      "▁arkasından": 7893,
      "▁parc": 7894,
      "▁telefon": 7895,
      "▁buldu": 7896,
      "▁kaymak": 7897,
      "▁seattle'ye": 7898,
      "▁kis": 7899,
      "▁ailelere": 7900,
      "▁fakat": 7901,
      "▁kuru": 7902,
      "▁rich": 7903,
      "▁hulya": 7904,
      "kil": 7905,
      "yalı": 7906,
      "▁cal": 7907,
      "▁elektr": 7908,
      "▁herhan": 7909,
      "▁efendim": 7910,
      "ekler": 7911,
      "▁memnun": 7912,
      "ede": 7913,
      "press": 7914,
      "▁surekli": 7915,
      "▁yıldır": 7916,
      "tra": 7917,
      "▁neresi": 7918,
      "▁tencer": 7919,
      "▁1998": 7920,
      "liam": 7921,
      "▁mahalle": 7922,
      "▁kaliforn": 7923,
      "rah": 7924,
      "▁memleket": 7925,
      "lav": 7926,
      "▁ıskarta": 7927,
      "▁olanlar": 7928,
      "▁ber": 7929,
      "▁beri": 7930,
      "sat": 7931,
      "▁azdi": 7932,
      "▁!": 7933,
      "cılar": 7934,
      "▁evinde": 7935,
      "▁dusunuyor": 7936,
      "▁agabey": 7937,
      "▁acıldı": 7938,
      "▁toplum": 7939,
      "▁bulunuyor": 7940,
      "▁bey": 7941,
      "▁buyuk": 7942,
      "▁uz": 7943,
      "▁simdilik": 7944,
      "▁proj": 7945,
      "▁zayıf": 7946,
      "▁karar": 7947,
      "▁degistir": 7948,
      "malıdır": 7949,
      "▁duvara": 7950,
      "▁ederler": 7951,
      "▁ut": 7952,
      "siy": 7953,
      "f": 7954,
      "tıktan": 7955,
      "▁tuf": 7956,
      "▁cercev": 7957,
      "ogu": 7958,
      "tel": 7959,
      "▁orani": 7960,
      "▁davet": 7961,
      "▁onlardan": 7962,
      "88": 7963,
      "▁gec": 7964,
      "▁lezzetliydi": 7965,
      "▁koz": 7966,
      "▁demokr": 7967,
      "abilir": 7968,
      "▁havayolu": 7969,
      "▁kendini": 7970,
      "▁sıkıntı": 7971,
      "▁gorur": 7972,
      "▁boya": 7973,
      "hal": 7974,
      "lemek": 7975,
      "▁gore": 7976,
      "▁guleryuzluydu": 7977,
      "misler": 7978,
      "▁mektep": 7979,
      "▁alkıs": 7980,
      "▁ıskar": 7981,
      "▁ikiye": 7982,
      "▁kapattı": 7983,
      "▁yazı": 7984,
      "tiv": 7985,
      "▁ferah": 7986,
      "▁kansas": 7987,
      "emli": 7988,
      "ational": 7989,
      "▁univ": 7990,
      "▁arasına": 7991,
      "ebilir": 7992,
      "▁dc": 7993,
      "▁begen": 7994,
      "▁sart": 7995,
      "▁tuv": 7996,
      "▁ocak": 7997,
      "amb": 7998,
      "▁zamandan": 7999,
      "▁yararlı": 8000,
      "▁yemeklerinden": 8001,
      "mesinin": 8002,
      "▁konumunu": 8003,
      "▁kazan": 8004,
      "alardan": 8005,
      "luluk": 8006,
      "▁yemeklerden": 8007,
      "▁numara": 8008,
      "▁osmanlı": 8009,
      ".23": 8010,
      "▁duz": 8011,
      "uyor": 8012,
      "ırk": 8013,
      "▁lis": 8014,
      "▁50": 8015,
      "▁hel": 8016,
      "▁bana": 8017,
      "▁veril": 8018,
      "▁cıl": 8019,
      "▁boyu": 8020,
      "maları": 8021,
      "▁gergin": 8022,
      "▁duzenlem": 8023,
      "▁hukuk": 8024,
      "▁kalmadim": 8025,
      "▁nash": 8026,
      "▁ellerini": 8027,
      "▁kayak": 8028,
      "▁sahip": 8029,
      "lasmıs": 8030,
      "ıy": 8031,
      "▁gecmis": 8032,
      "▁%7.5": 8033,
      "▁turlu": 8034,
      "▁pan": 8035,
      "▁degilse": 8036,
      "▁anlasma": 8037,
      "acagımı": 8038,
      "rill": 8039,
      "▁agz": 8040,
      "▁kibar": 8041,
      "▁az": 8042,
      "▁ikiyuz": 8043,
      "▁2000": 8044,
      "lıkta": 8045,
      "ens": 8046,
      "▁7.7": 8047,
      "▁raki": 8048,
      "▁saglayan": 8049,
      "▁kasır": 8050,
      "▁anlayıs": 8051,
      "▁ick": 8052,
      "▁hamam": 8053,
      "▁yapıl": 8054,
      "ustri": 8055,
      "▁mel": 8056,
      "▁mola": 8057,
      "▁har": 8058,
      "▁kendinize": 8059,
      "▁etme": 8060,
      "▁mak": 8061,
      "▁9": 8062,
      "▁199": 8063,
      "▁iktis": 8064,
      "eceksin": 8065,
      "ecegiz": 8066,
      "▁ch": 8067,
      "ker": 8068,
      "▁istikrar": 8069,
      "8'de": 8070,
      "▁sizin": 8071,
      "▁sattı": 8072,
      "ith": 8073,
      "cekti": 8074,
      "tansiy": 8075,
      "▁su": 8076,
      "▁yataklar": 8077,
      "▁national": 8078,
      "36": 8079,
      "▁bilinc": 8080,
      "▁dolayı": 8081,
      "▁dısarı": 8082,
      "▁kun": 8083,
      "▁yeme": 8084,
      "▁imparator": 8085,
      "▁turist": 8086,
      "▁hus": 8087,
      "▁paris": 8088,
      "siniz": 8089,
      "▁barıs": 8090,
      "ultu": 8091,
      "▁olmayacak": 8092,
      "▁pol": 8093,
      "▁satıslar": 8094,
      "esinde": 8095,
      "▁marka": 8096,
      "esi'nde": 8097,
      "▁fırsat": 8098,
      "▁ederken": 8099,
      "eki": 8100,
      "ti": 8101,
      "▁kayn": 8102,
      "▁lut": 8103,
      "▁hukumetin": 8104,
      "▁rahatti": 8105,
      "▁alıyordu": 8106,
      "▁onlem": 8107,
      "▁verg": 8108,
      "▁e": 8109,
      "▁prens": 8110,
      "▁lezzetli": 8111,
      "er'in": 8112,
      "▁sıkın": 8113,
      "▁62": 8114,
      "▁deger": 8115,
      "▁%50": 8116,
      "▁canlı": 8117,
      "ayım": 8118,
      "ani": 8119,
      "verdi": 8120,
      "▁guclendir": 8121,
      "▁oteki": 8122,
      "▁birbiri": 8123,
      "▁nit": 8124,
      "▁0.25": 8125,
      "har": 8126,
      "▁belirli": 8127,
      "▁ek": 8128,
      "▁ali": 8129,
      "▁kisilerin": 8130,
      "an": 8131,
      "▁tahta": 8132,
      "▁endise": 8133,
      "▁turkce": 8134,
      "ıntı": 8135,
      "▁oakland": 8136,
      "sız": 8137,
      "▁nes": 8138,
      "▁personellerinden": 8139,
      "unup": 8140,
      "▁dayan": 8141,
      "▁cevirdi": 8142,
      "▁cevap": 8143,
      "▁grubu": 8144,
      "▁bilgiye": 8145,
      "▁asam": 8146,
      "▁dinlem": 8147,
      "▁taht": 8148,
      "▁hisselerini": 8149,
      "▁ayın": 8150,
      "▁ilgilendiler": 8151,
      "▁idi": 8152,
      "▁kud": 8153,
      "tıg": 8154,
      "▁deli": 8155,
      "▁saat": 8156,
      "memek": 8157,
      "digi": 8158,
      "▁ilgiliydi": 8159,
      "▁kapasit": 8160,
      "▁edir": 8161,
      "lerinin": 8162,
      "▁civarında": 8163,
      "▁reddetti": 8164,
      "▁insana": 8165,
      "kel": 8166,
      "▁iti": 8167,
      "ecegim": 8168,
      "ter": 8169,
      "dugu": 8170,
      "▁ingil": 8171,
      "▁kendisinde": 8172,
      "ecekler": 8173,
      "▁ih": 8174,
      "▁washington": 8175,
      "▁anlam": 8176,
      "▁odadan": 8177,
      "57": 8178,
      "▁bank": 8179,
      "▁bulus": 8180,
      "▁birlesik": 8181,
      "▁sevin": 8182,
      "▁gol": 8183,
      "▁mahk": 8184,
      "tir": 8185,
      "ich": 8186,
      "▁cep": 8187,
      "isco": 8188,
      "▁kuc": 8189,
      "▁bayrak": 8190,
      "sine": 8191
    },
    "merges": [
      [
        "▁kars",
        "ıl"
      ],
      [
        "▁kapı",
        "dan"
      ],
      [
        "▁mi",
        "y"
      ],
      [
        "▁l",
        "ung"
      ],
      [
        "▁incel",
        "em"
      ],
      [
        "▁din",
        "lem"
      ],
      [
        "▁cog",
        "al"
      ],
      [
        "▁serb",
        "est"
      ],
      [
        "▁bu",
        "cuk"
      ],
      [
        "▁b",
        "eh"
      ],
      [
        "d",
        "i"
      ],
      [
        "▁17",
        "6"
      ],
      [
        "▁kelim",
        "e"
      ],
      [
        "▁bul",
        "un"
      ],
      [
        "▁ver",
        "digi"
      ],
      [
        "▁kosul",
        "ları"
      ],
      [
        "lem",
        "is"
      ],
      [
        "▁c",
        "iz"
      ],
      [
        "▁",
        "z"
      ],
      [
        "ih",
        "an"
      ],
      [
        "▁var",
        "sa"
      ],
      [
        "▁bil",
        "mem"
      ],
      [
        "▁mah",
        "m"
      ],
      [
        "▁",
        "leri"
      ],
      [
        "▁guleryuz",
        "lu"
      ],
      [
        "em",
        "edi"
      ],
      [
        "an",
        "ti"
      ],
      [
        "-2",
        "00"
      ],
      [
        "▁fıs",
        "ır"
      ],
      [
        "ov",
        "e"
      ],
      [
        "▁8",
        "8"
      ],
      [
        "▁on",
        "u"
      ],
      [
        "te",
        "x"
      ],
      [
        "▁gun",
        "ler"
      ],
      [
        "▁sorum",
        "luluk"
      ],
      [
        "▁%0",
        ".2"
      ],
      [
        "ist",
        "en"
      ],
      [
        "▁adam",
        "ı"
      ],
      [
        "▁ger",
        "c"
      ],
      [
        "▁bak",
        "alım"
      ],
      [
        "▁fir",
        "st"
      ],
      [
        "▁l",
        "azım"
      ],
      [
        "▁p",
        "il"
      ],
      [
        "eg",
        "a"
      ],
      [
        "▁",
        "r"
      ],
      [
        "▁0.",
        "25"
      ],
      [
        "▁a",
        "d"
      ],
      [
        ":",
        "30"
      ],
      [
        "▁bel",
        "l"
      ],
      [
        "▁duy",
        "du"
      ],
      [
        "▁fak",
        "at"
      ],
      [
        "▁count",
        "y"
      ],
      [
        "ah",
        "h"
      ],
      [
        "▁orland",
        "o'dan"
      ],
      [
        "▁yem",
        "is"
      ],
      [
        "▁h",
        "om"
      ],
      [
        "r",
        "ik"
      ],
      [
        "ic",
        "a"
      ],
      [
        "▁f",
        "at"
      ],
      [
        "▁fi",
        "ili"
      ],
      [
        "▁z",
        "or"
      ],
      [
        "▁gun",
        "un"
      ],
      [
        "▁bos",
        "alt"
      ],
      [
        "▁tı",
        "m"
      ],
      [
        "▁kam",
        "yon"
      ],
      [
        "▁cık",
        "ıp"
      ],
      [
        "▁yardım",
        "cısı"
      ],
      [
        "▁dogr",
        "usu"
      ],
      [
        "▁sag",
        "layacak"
      ],
      [
        "▁iz",
        "ledi"
      ],
      [
        "▁",
        "eh"
      ],
      [
        "▁",
        "/"
      ],
      [
        "▁deniz",
        "e"
      ],
      [
        "imiz",
        "e"
      ],
      [
        "▁munaseb",
        "et"
      ],
      [
        "ayı",
        "f"
      ],
      [
        "▁dav",
        "et"
      ],
      [
        "▁cab",
        "a"
      ],
      [
        "▁i",
        "le"
      ],
      [
        "▁kas",
        "ık"
      ],
      [
        "st",
        "it"
      ],
      [
        "ıl",
        "mıs"
      ],
      [
        "mis",
        "ler"
      ],
      [
        "cag",
        "ız"
      ],
      [
        "ıs",
        "ıl"
      ],
      [
        "ey",
        "ebilir"
      ],
      [
        "▁gel",
        "dim"
      ],
      [
        "▁d",
        "ar"
      ],
      [
        "▁el",
        "i"
      ],
      [
        "▁ic",
        "e"
      ],
      [
        "▁kıs",
        "men"
      ],
      [
        "as",
        "h"
      ],
      [
        "m",
        "ustum"
      ],
      [
        "▁g",
        "am"
      ],
      [
        "▁oy",
        "un"
      ],
      [
        "▁gel",
        "ir"
      ],
      [
        "▁west",
        "chester"
      ],
      [
        "▁gel",
        "ip"
      ],
      [
        "▁fon",
        "lar"
      ],
      [
        "▁2",
        "8"
      ],
      [
        "▁goster",
        "ir"
      ],
      [
        "lıg",
        "ına"
      ],
      [
        "▁rek",
        "or"
      ],
      [
        "▁kor",
        "ku"
      ],
      [
        "k",
        "ara"
      ],
      [
        "▁1.",
        "6"
      ],
      [
        "▁pam",
        "uk"
      ],
      [
        "▁temmuz",
        "'da"
      ],
      [
        "▁kendi",
        "si"
      ],
      [
        "▁dog",
        "u"
      ],
      [
        "▁7",
        ".7"
      ],
      [
        "▁us",
        "lu"
      ],
      [
        "▁yapıl",
        "ır"
      ],
      [
        "▁dur",
        "an"
      ],
      [
        "8",
        "0"
      ],
      [
        "▁ust",
        "une"
      ],
      [
        "▁m",
        "ı"
      ],
      [
        "▁bil",
        "im"
      ],
      [
        "▁yaklas",
        "imi"
      ],
      [
        "ı",
        "yor"
      ],
      [
        "d",
        "ı"
      ],
      [
        "▁etm",
        "em"
      ],
      [
        "▁n",
        "ev"
      ],
      [
        "▁nok",
        "t"
      ],
      [
        "▁it",
        "ibar"
      ],
      [
        "g",
        "imiz"
      ],
      [
        "▁hicbir",
        "i"
      ],
      [
        "▁kus",
        "ur"
      ],
      [
        "▁3",
        ".9"
      ],
      [
        "ti",
        "gi"
      ],
      [
        "▁muht",
        "esem"
      ],
      [
        "▁k",
        "az"
      ],
      [
        "▁5",
        "9"
      ],
      [
        "▁soy",
        "ley"
      ],
      [
        "▁yan",
        "s"
      ],
      [
        "▁ydı",
        "k"
      ],
      [
        "▁1",
        "5"
      ],
      [
        "▁sozles",
        "mesi"
      ],
      [
        "▁degil",
        "iz"
      ],
      [
        "▁kim",
        "in"
      ],
      [
        "▁",
        "li"
      ],
      [
        "▁inc",
        "."
      ],
      [
        "▁i",
        "s"
      ],
      [
        "▁or",
        "t"
      ],
      [
        "▁acık",
        "lam"
      ],
      [
        "▁anlam",
        "a"
      ],
      [
        "3",
        "7"
      ],
      [
        "t",
        "ı"
      ],
      [
        "▁istedi",
        "gi"
      ],
      [
        "b",
        "e"
      ],
      [
        "a",
        "z"
      ],
      [
        "▁cık",
        "tı"
      ],
      [
        "ver",
        "di"
      ],
      [
        "▁kir",
        "li"
      ],
      [
        "▁deg",
        "er"
      ],
      [
        "▁6",
        "9"
      ],
      [
        "▁d",
        "c"
      ],
      [
        "▁kalab",
        "alık"
      ],
      [
        "▁dır",
        "lar"
      ],
      [
        "▁em",
        "tia"
      ],
      [
        "'n",
        "de"
      ],
      [
        "ey",
        "ecek"
      ],
      [
        "▁birbirler",
        "inin"
      ],
      [
        "▁kor",
        "uy"
      ],
      [
        "▁komut",
        "an"
      ],
      [
        "▁orta",
        "da"
      ],
      [
        "▁olma",
        "sına"
      ],
      [
        "▁mek",
        "an"
      ],
      [
        "▁iz",
        "m"
      ],
      [
        "▁s",
        "ar"
      ],
      [
        "ul",
        "maz"
      ],
      [
        "y",
        "uz"
      ],
      [
        "▁kam",
        "u"
      ],
      [
        "en",
        "k"
      ],
      [
        "alar",
        "ında"
      ],
      [
        "▁n",
        "ih"
      ],
      [
        "▁tal",
        "ih"
      ],
      [
        "▁karsıl",
        "as"
      ],
      [
        "▁k",
        "en"
      ],
      [
        "▁nasda",
        "q"
      ],
      [
        "ib",
        "ar"
      ],
      [
        "g",
        "ın"
      ],
      [
        "▁is",
        "k"
      ],
      [
        "▁dedi",
        "m"
      ],
      [
        "r",
        "ak"
      ],
      [
        "▁da",
        "ir"
      ],
      [
        "▁n",
        "eler"
      ],
      [
        "▁bus",
        "h"
      ],
      [
        "▁dar",
        "b"
      ],
      [
        "▁alısver",
        "is"
      ],
      [
        "ı",
        "s"
      ],
      [
        "lu",
        "yor"
      ],
      [
        "▁urun",
        "ler"
      ],
      [
        "▁mut",
        "laka"
      ],
      [
        "▁l",
        "ok"
      ],
      [
        "h",
        "e"
      ],
      [
        "▁etm",
        "ey"
      ],
      [
        "00",
        "000"
      ],
      [
        "▁kor",
        "un"
      ],
      [
        "▁uy",
        "arı"
      ],
      [
        "▁ucus",
        "ta"
      ],
      [
        "iy",
        "le"
      ],
      [
        "▁mey",
        "v"
      ],
      [
        "▁nash",
        "ville"
      ],
      [
        "▁p",
        "la"
      ],
      [
        "l",
        "es"
      ],
      [
        "medi",
        "k"
      ],
      [
        "▁al",
        "ıs"
      ],
      [
        "▁g",
        "ok"
      ],
      [
        "▁%",
        "0"
      ],
      [
        "▁ail",
        "e"
      ],
      [
        "▁tampa",
        "'ya"
      ],
      [
        "at",
        "ur"
      ],
      [
        "mak",
        "la"
      ],
      [
        "▁om",
        "r"
      ],
      [
        "▁ic",
        "ini"
      ],
      [
        "ılı",
        "gını"
      ],
      [
        "▁plan",
        "ı"
      ],
      [
        "s",
        "ik"
      ],
      [
        "▁j",
        "apon"
      ],
      [
        "d",
        "eki"
      ],
      [
        "▁at",
        "tı"
      ],
      [
        "▁f",
        "ark"
      ],
      [
        "▁yar",
        "ın"
      ],
      [
        "es",
        "e"
      ],
      [
        "▁bur",
        "adan"
      ],
      [
        "▁9",
        "9"
      ],
      [
        "▁kimse",
        "ye"
      ],
      [
        "m",
        "ent"
      ],
      [
        "▁uyan",
        "dır"
      ],
      [
        "▁",
        "p"
      ],
      [
        "▁resep",
        "siyon"
      ],
      [
        "mey",
        "ecek"
      ],
      [
        "▁so",
        "for"
      ],
      [
        "▁en",
        "d"
      ],
      [
        "▁ikib",
        "iniki"
      ],
      [
        "▁nik",
        "kei"
      ],
      [
        "e",
        "h"
      ],
      [
        "▁d",
        "al"
      ],
      [
        "▁mak",
        "al"
      ],
      [
        "▁f",
        "ed"
      ],
      [
        "▁uy",
        "um"
      ],
      [
        "▁personel",
        "i"
      ],
      [
        "▁kir",
        "p"
      ],
      [
        "▁goz",
        "unu"
      ],
      [
        "▁olma",
        "dıgını"
      ],
      [
        "▁cag",
        "r"
      ],
      [
        "emedi",
        "m"
      ],
      [
        "▁yur",
        "ek"
      ],
      [
        "▁bod",
        "rum"
      ],
      [
        "▁sur",
        "du"
      ],
      [
        "t",
        "eki"
      ],
      [
        "▁ediyor",
        "uz"
      ],
      [
        "▁al",
        "amadim"
      ],
      [
        "▁hava",
        "alan"
      ],
      [
        "h",
        "an"
      ],
      [
        "▁kims",
        "eye"
      ],
      [
        "▁ayak",
        "k"
      ],
      [
        "▁hakk",
        "ı"
      ],
      [
        "▁tes",
        "isti"
      ],
      [
        "▁nere",
        "de"
      ],
      [
        "▁al",
        "madim"
      ],
      [
        "ad",
        "et"
      ],
      [
        "▁or",
        "man"
      ],
      [
        "▁s",
        "ok"
      ],
      [
        "▁amer",
        "ic"
      ],
      [
        "al",
        "ar"
      ],
      [
        "u",
        "fur"
      ],
      [
        "▁hav",
        "ası"
      ],
      [
        "▁akıl",
        "lı"
      ],
      [
        "▁el",
        "imi"
      ],
      [
        "▁fr",
        "ansız"
      ],
      [
        "▁duy",
        "dum"
      ],
      [
        "▁m",
        "ah"
      ],
      [
        "▁in",
        "anc"
      ],
      [
        "▁iki",
        "miz"
      ],
      [
        "ul",
        "t"
      ],
      [
        "▁1",
        "2"
      ],
      [
        "▁yap",
        "ti"
      ],
      [
        "'y",
        "e"
      ],
      [
        "▁g",
        "ev"
      ],
      [
        "ab",
        "i"
      ],
      [
        "▁kır",
        "m"
      ],
      [
        "a",
        "di"
      ],
      [
        "vel",
        "and"
      ],
      [
        "v",
        "ar"
      ],
      [
        "▁",
        ";"
      ],
      [
        "▁oda",
        "dan"
      ],
      [
        "di",
        "r"
      ],
      [
        "▁y",
        "ıl"
      ],
      [
        "▁r",
        "ez"
      ],
      [
        "▁ser",
        "in"
      ],
      [
        "i",
        "s"
      ],
      [
        "▁y",
        "alap"
      ],
      [
        "▁sen",
        "iz"
      ],
      [
        "▁b",
        "os"
      ],
      [
        "▁belir",
        "t"
      ],
      [
        "te",
        "p"
      ],
      [
        "▁uygul",
        "ama"
      ],
      [
        "▁erkek",
        "ler"
      ],
      [
        "r",
        "in"
      ],
      [
        "▁yap",
        "mak"
      ],
      [
        "x",
        "el"
      ],
      [
        "▁kas",
        "ab"
      ],
      [
        "▁ser",
        "t"
      ],
      [
        "d",
        "iniz"
      ],
      [
        "▁d",
        "ef"
      ],
      [
        "▁otel",
        "den"
      ],
      [
        "▁yen",
        "'den"
      ],
      [
        "▁ist",
        "e"
      ],
      [
        "▁meh",
        "met"
      ],
      [
        "▁c",
        "am"
      ],
      [
        "▁hav",
        "ayol"
      ],
      [
        "▁y",
        "di"
      ],
      [
        "▁ilisk",
        "in"
      ],
      [
        "▁ol",
        "ustur"
      ],
      [
        "im",
        "i"
      ],
      [
        "▁vak",
        "it"
      ],
      [
        "▁s",
        "ev"
      ],
      [
        "▁e",
        "cekti"
      ],
      [
        "c",
        "el"
      ],
      [
        "▁aktiv",
        "it"
      ],
      [
        "▁ates",
        "e"
      ],
      [
        "g",
        "ında"
      ],
      [
        "▁hazır",
        "lan"
      ],
      [
        "▁tır",
        "man"
      ],
      [
        "▁uc",
        "uncu"
      ],
      [
        "▁listel",
        "eyebilir"
      ],
      [
        "b",
        "ac"
      ],
      [
        "▁h",
        "ot"
      ],
      [
        "lar",
        "ımız"
      ],
      [
        "▁y",
        "ken"
      ],
      [
        "um",
        "us"
      ],
      [
        "s",
        "ak"
      ],
      [
        "▁uyustur",
        "ucu"
      ],
      [
        "▁kendin",
        "ize"
      ],
      [
        "▁al",
        "ay"
      ],
      [
        "g",
        "el"
      ],
      [
        "▁yasam",
        "ak"
      ],
      [
        "▁g",
        "om"
      ],
      [
        "▁h",
        "uy"
      ],
      [
        "d",
        "er"
      ],
      [
        "ladı",
        "lar"
      ],
      [
        "ab",
        "et"
      ],
      [
        "▁h",
        "op"
      ],
      [
        "▁seb",
        "ebi"
      ],
      [
        "▁ser",
        "i"
      ],
      [
        "▁dolan",
        "dır"
      ],
      [
        "▁ust",
        "elik"
      ],
      [
        "▁olm",
        "adı"
      ],
      [
        "▁dev",
        "ir"
      ],
      [
        "ir",
        "di"
      ],
      [
        "▁kurb",
        "an"
      ],
      [
        "▁haval",
        "im"
      ],
      [
        "▁seattle",
        "'den"
      ],
      [
        "ey",
        "en"
      ],
      [
        "1",
        "-19"
      ],
      [
        "▁deg",
        "eri"
      ],
      [
        "ıyor",
        "sun"
      ],
      [
        "ler",
        "in"
      ],
      [
        "ab",
        "ı"
      ],
      [
        "▁diger",
        "leri"
      ],
      [
        "s",
        "iy"
      ],
      [
        "▁sm",
        "ith"
      ],
      [
        "r",
        "i"
      ],
      [
        "ig",
        "ini"
      ],
      [
        "▁19",
        "7"
      ],
      [
        "2",
        "-23"
      ],
      [
        "a",
        "de"
      ],
      [
        "▁t",
        "a"
      ],
      [
        "▁sic",
        "ak"
      ],
      [
        "▁has",
        "tan"
      ],
      [
        "▁gitt",
        "ik"
      ],
      [
        "▁bur",
        "bank"
      ],
      [
        "▁sen",
        "edi"
      ],
      [
        "▁vak",
        "ti"
      ],
      [
        "▁kıs",
        "m"
      ],
      [
        "▁k",
        "oy"
      ],
      [
        "▁iyil",
        "estir"
      ],
      [
        "eceg",
        "ine"
      ],
      [
        "▁ail",
        "eye"
      ],
      [
        "▁l",
        "is"
      ],
      [
        "i",
        "yle"
      ],
      [
        "▁14",
        "5"
      ],
      [
        "▁1989-",
        "8"
      ],
      [
        "▁yas",
        "ama"
      ],
      [
        "▁busbut",
        "un"
      ],
      [
        "▁neden",
        "i"
      ],
      [
        "▁kar",
        "n"
      ],
      [
        "▁teklif",
        "ini"
      ],
      [
        "▁k",
        "av"
      ],
      [
        "▁k",
        "endi"
      ],
      [
        "▁kat",
        "lı"
      ],
      [
        "▁bekledi",
        "gini"
      ],
      [
        "▁boy",
        "u"
      ],
      [
        "p",
        "er"
      ],
      [
        "6",
        "0"
      ],
      [
        "▁de",
        "sik"
      ],
      [
        "b",
        "r"
      ],
      [
        "▁kar",
        "ın"
      ],
      [
        "▁ek",
        "ip"
      ],
      [
        "▁f",
        "ing"
      ],
      [
        "▁al",
        "cak"
      ],
      [
        "ust",
        "um"
      ],
      [
        "▁ol",
        "abilir"
      ],
      [
        "▁sev",
        "gil"
      ],
      [
        "▁y",
        "ut"
      ],
      [
        "▁h",
        "ele"
      ],
      [
        "amay",
        "acak"
      ],
      [
        "ye",
        "t"
      ],
      [
        "▁c",
        "ok"
      ],
      [
        "▁r",
        "ol"
      ],
      [
        "▁b",
        "ro"
      ],
      [
        ".",
        "3"
      ],
      [
        "▁kalit",
        "eli"
      ],
      [
        "▁p",
        "o"
      ],
      [
        "▁eder",
        "di"
      ],
      [
        "▁dik",
        "en"
      ],
      [
        "m",
        "ur"
      ],
      [
        "▁saat",
        "lerce"
      ],
      [
        "▁sur",
        "u"
      ],
      [
        "▁kal",
        "dır"
      ],
      [
        "▁hak",
        "k"
      ],
      [
        "▁paran",
        "in"
      ],
      [
        "▁ses",
        "siz"
      ],
      [
        "▁gercek",
        "les"
      ],
      [
        "▁gor",
        "ur"
      ],
      [
        "▁n",
        "ot"
      ],
      [
        "y",
        "ol"
      ],
      [
        "▁gir",
        "er"
      ],
      [
        "▁kateg",
        "or"
      ],
      [
        "s",
        "in"
      ],
      [
        "▁et",
        "tir"
      ],
      [
        "▁patlı",
        "can"
      ],
      [
        "▁soy",
        "leyen"
      ],
      [
        "▁biz",
        "i"
      ],
      [
        "'",
        "la"
      ],
      [
        "r",
        "et"
      ],
      [
        "/",
        "8"
      ],
      [
        "is",
        "inde"
      ],
      [
        "▁kalabal",
        "ikti"
      ],
      [
        "▁ver",
        "imli"
      ],
      [
        "▁4",
        "0"
      ],
      [
        "▁par",
        "lam"
      ],
[...]
