{
  "version": "1.0",
  "truncation": null,
  "padding": null,
  "added_tokens": [
    {
      "id": 541,
      "content": "[CLS]",
      "single_word": false,
      "lstrip": false,
      "rstrip": false,
      "normalized": false,
      "special": true
    },
    {
      "id": 960,
      "content": "[SEP]",
      "single_word": false,
      "lstrip": false,
      "rstrip": false,
      "normalized": false,
      "special": true
    },
    {
      "id": 2333,
      "content": "[PAD]",
      "single_word": false,
      "lstrip": false,
      "rstrip": false,
      "normalized": false,
      "special": true
    },
    {
      "id": 3473,
      "content": "[MASK]",
      "single_word": false,
      "lstrip": false,
      "rstrip": false,
      "normalized": false,
      "special": true
    },
    {
      "id": 3666,
      "content": "[UNK]",
      "single_word": false,
      "lstrip": false,
      "rstrip": false,
      "normalized": false,
      "special": true
    }
  ],
  "normalizer": {
    "type": "Sequence",
    "normalizers": [
      {
        "type": "NFD"
      },
      {
        "type": "Lowercase"
      },
      {
        "type": "StripAccents"
      }
    ]
  },
  "pre_tokenizer": {
    "type": "Sequence",
    "pretokenizers": [
      {
        "type": "Metaspace",
        "replacement": "▁",
        "prepend_scheme": "always",
        "split": true
      }
    ]
  },
  "post_processor": {
    "type": "TemplateProcessing",
    "single": [
      {
        "SpecialToken": {
          "id": "[CLS]",
          "type_id": 0
        }
      },
      {
        "Sequence": {
          "id": "A",
          "type_id": 0
        }
      },
      {
        "SpecialToken": {
          "id": "[SEP]",
          "type_id": 0
        }
      }
    ],
    "pair": [
      {
        "SpecialToken": {
          "id": "[CLS]",
          "type_id": 0
        }
      },
      {
        "Sequence": {
          "id": "A",
          "type_id": 0
        }
      },
      {
        "SpecialToken": {
          "id": "[SEP]",
          "type_id": 0
        }
      },
      {
        "Sequence": {
          "id": "B",
          "type_id": 1
        }
      },
      {
        "SpecialToken": {
          "id": "[SEP]",
          "type_id": 1
        }
      }
    ],
    "special_tokens": {
      "[CLS]": {
        "id": "[CLS]",
        "ids": [
          541
        ],
        "tokens": [
          "[CLS]"
        ]
      },
      "[SEP]": {
        "id": "[SEP]",
        "ids": [
          960
        ],
        "tokens": [
          "[SEP]"
        ]
      }
    }
  },
  "decoder": {
    "type": "Metaspace",
    "replacement": "▁",
    "prepend_scheme": "always",
    "split": true
  },
  "model": {
    "type": "WordPiece",
    "unk_token": "[UNK]",
    "continuing_subword_prefix": "##",
    "max_input_chars_per_word": 100,
    "vocab": {
      "▁yasama": 0,
      "▁agız": 1,
      "▁pr": 2,
      "▁40": 3,
      "▁etmek": 4,
      "▁cum": 5,
      "▁ısı": 6,
      "##?": 7,
      "##rl": 8,
      "##eci": 9,
      "▁!..": 10,
      "##2-23": 11,
      "▁as": 12,
      "▁alamadim": 13,
      "▁gorun": 14,
      "##tıyor": 15,
      "▁\"": 16,
      "▁lake": 17,
      "▁hast": 18,
      "▁artık": 19,
      "▁ad": 20,
      "▁duy": 21,
      "▁yonel": 22,
      "▁washington'dan": 23,
      "##rum": 24,
      "▁%3.4": 25,
      "##-22:30": 26,
      "##dular": 27,
      "##aklı": 28,
      "▁ise": 29,
      "▁tezgah": 30,
      "##dugunu": 31,
      "##elim": 32,
      "▁tesek": 33,
      "##larıyla": 34,
      "##tigini": 35,
      "##forman": 36,
      "▁gom": 37,
      "▁ec": 38,
      "##ici": 39,
      "▁ha": 40,
      "▁must": 41,
      "▁13": 42,
      "▁aras": 43,
      "▁tedav": 44,
      "##ulmus": 45,
      "##una": 46,
      "##)": 47,
      "##amadı": 48,
      "▁sek": 49,
      "▁ticari": 50,
      "▁%11": 51,
      "##ik": 52,
      "##alıgı": 53,
      "▁.)": 54,
      "▁dob": 55,
      "##b": 56,
      "▁sıng": 57,
      "▁sırada": 58,
      "▁tıpıs": 59,
      "##aga": 60,
      "▁dukkan": 61,
      "▁%13": 62,
      "▁ili": 63,
      "##son": 64,
      "▁gor": 65,
      "▁vaz": 66,
      "##ant": 67,
      "##ag": 68,
      "▁yogun": 69,
      "▁terc": 70,
      "▁satın": 71,
      "▁gez": 72,
      "##mistir": 73,
      "…": 74,
      "▁%9.": 75,
      "##'dan": 76,
      "▁dib": 77,
      "▁kelim": 78,
      "▁federal": 79,
      "##ına": 80,
      "▁niyet": 81,
      "##asır": 82,
      "▁karsısında": 83,
      "▁ayr": 84,
      "▁coz": 85,
      "▁%3.": 86,
      "##siyon": 87,
      "##bus": 88,
      "##ruk": 89,
      "▁yat": 90,
      "##larında": 91,
      "▁siyas": 92,
      "▁sapır": 93,
      "▁guleryuz": 94,
      "##ud": 95,
      "▁yeniden": 96,
      "▁dus": 97,
      "▁mor": 98,
      "##mustur": 99,
      "▁hin": 100,
      "'": 101,
      "▁verdi": 102,
      "▁artıs": 103,
      "▁tak": 104,
      "##lıgını": 105,
      "▁buy": 106,
      "▁10": 107,
      "##gini": 108,
      "##lasyon": 109,
      "▁birdenbire": 110,
      "##-200": 111,
      "▁%3.1": 112,
      "▁indir": 113,
      "▁dar": 114,
      "##lık": 115,
      "▁28": 116,
      "▁plan": 117,
      "##elik": 118,
      "##ısına": 119,
      "▁arasında": 120,
      "▁yerinde": 121,
      "##ılmaz": 122,
      "▁ulasımı": 123,
      "▁y": 124,
      "▁ib": 125,
      "▁olustur": 126,
      "▁yur": 127,
      "▁olmaz": 128,
      "▁ap": 129,
      "##'deki": 130,
      "▁alacak": 131,
      "##mayacak": 132,
      "##rik": 133,
      "##lıkla": 134,
      "▁konum": 135,
      "▁col": 136,
      "▁ulas": 137,
      "▁operasyon": 138,
      "▁yaptirmadim": 139,
      "▁kr": 140,
      "▁yaz": 141,
      "▁ph": 142,
      "▁heyec": 143,
      "##han": 144,
      "▁arastır": 145,
      "▁yalan": 146,
      "##mek": 147,
      "▁nasıl": 148,
      "##eri": 149,
      "▁genis": 150,
      "▁u": 151,
      "##alarda": 152,
      "▁yetersiz": 153,
      "▁yasan": 154,
      "▁ka": 155,
      "▁dow": 156,
      "##luk": 157,
      "##'nde": 158,
      "▁yum": 159,
      "▁genc": 160,
      "▁so": 161,
      "▁isteyen": 162,
      "##laka": 163,
      "▁ydı": 164,
      "▁sey": 165,
      "▁once": 166,
      "▁yab": 167,
      "▁indian": 168,
      "##in": 169,
      "▁titr": 170,
      "▁rez": 171,
      "▁kut": 172,
      "##lar": 173,
      "▁arab": 174,
      "##ell": 175,
      "##mıstır": 176,
      "▁mily": 177,
      "▁%6.90": 178,
      "▁ciz": 179,
      "▁basarılı": 180,
      "▁hisset": 181,
      "▁mar": 182,
      "##agın": 183,
      "▁1989-": 184,
      "▁bitir": 185,
      "##layan": 186,
      "##dım": 187,
      "▁ilgilendi": 188,
      "##—": 189,
      "▁yagm": 190,
      "##madı": 191,
      "▁bilgisayar": 192,
      "▁oden": 193,
      "▁ne": 194,
      "##ilik": 195,
      "▁karak": 196,
      "##gın": 197,
      "▁ince": 198,
      "▁giris": 199,
      "##iyas": 200,
      "##lanan": 201,
      "▁ra": 202,
      "##hur": 203,
      "##tir": 204,
      "▁yaptir": 205,
      "▁gelis": 206,
      "▁universit": 207,
      "##iste": 208,
      "▁16": 209,
      "▁hangileri": 210,
      "▁doları": 211,
      "▁sınır": 212,
      "▁14": 213,
      "##kin": 214,
      "▁ton": 215,
      "##inc": 216,
      "▁tar": 217,
      "▁henuz": 218,
      "##'ı": 219,
      "##cut": 220,
      "##elerek": 221,
      "##iniz": 222,
      "▁sir": 223,
      "▁iste": 224,
      "▁adı": 225,
      "▁'d": 226,
      "▁ov": 227,
      "▁asagı": 228,
      "▁ak": 229,
      "##ası": 230,
      "–": 231,
      "##alı": 232,
      "##larak": 233,
      "▁first": 234,
      "▁uretim": 235,
      "▁yog": 236,
      "▁anne": 237,
      "##'in": 238,
      "##alanı": 239,
      "##lerine": 240,
      "▁temel": 241,
      "▁ısıl": 242,
      "▁yerel": 243,
      "##lıgına": 244,
      "▁ifade": 245,
      "▁durgun": 246,
      "##samba": 247,
      "##uldu": 248,
      "##ekler": 249,
      "##un": 250,
      "##sınız": 251,
      "■": 252,
      "##imizin": 253,
      "▁deprem": 254,
      "▁sehr": 255,
      "##ustuk": 256,
      "▁anket": 257,
      "▁dagıt": 258,
      "##kuz": 259,
      "▁ortal": 260,
      "▁balık": 261,
      "▁hal": 262,
      "▁tac": 263,
      "▁boy": 264,
      "▁cift": 265,
      "▁onay": 266,
      "▁;": 267,
      "##masına": 268,
      "▁yanlıs": 269,
      "##tılar": 270,
      "▁tok": 271,
      "▁tesisten": 272,
      "##y": 273,
      "▁enflasyon": 274,
      "##se": 275,
      "▁seyahat": 276,
      "##miyor": 277,
      "▁gecer": 278,
      "▁spor": 279,
      "▁bag": 280,
      "##gil": 281,
      "▁if": 282,
      "▁kardes": 283,
      "▁tum": 284,
      "▁annem": 285,
      "▁indianapolis'ten": 286,
      "▁uluslar": 287,
      "▁duyg": 288,
      "▁misin": 289,
      "▁kent": 290,
      "▁akl": 291,
      "▁oc": 292,
      "▁bicim": 293,
      "▁in": 294,
      "▁muk": 295,
      "##meli": 296,
      "##fet": 297,
      "▁imkanlari": 298,
      "▁yel": 299,
      "▁yan": 300,
      "##lerdi": 301,
      "▁acıklam": 302,
      "▁iliskin": 303,
      "##'": 304,
      "▁iki": 305,
      "##vır": 306,
      "▁mat": 307,
      "##met": 308,
      "▁ugr": 309,
      "▁cem": 310,
      "▁den": 311,
      "##um": 312,
      "##tır": 313,
      "▁j": 314,
      "▁onune": 315,
      "##gileri": 316,
      "▁at": 317,
      "▁anlay": 318,
      "##ikti": 319,
      "##ram": 320,
      "▁general": 321,
      "▁yukselt": 322,
      "▁yetersizdi": 323,
      "r": 324,
      "▁yakın": 325,
      "##isk": 326,
      "##og": 327,
      "▁bize": 328,
      "▁akıl": 329,
      "▁altında": 330,
      "▁derec": 331,
      "##dir": 332,
      "##eyle": 333,
      "▁nik": 334,
      "##tif": 335,
      "##su": 336,
      "▁malzem": 337,
      "##ır": 338,
      "▁1.2": 339,
      "##lo": 340,
      "▁kalk": 341,
      "▁aradi": 342,
      "▁kaldır": 343,
      "##iyon": 344,
      "##|": 345,
      "▁musta": 346,
      "▁yemekler": 347,
      "▁istif": 348,
      "##ke": 349,
      "▁californ": 350,
      "##muyor": 351,
      "▁uzman": 352,
      "▁ayında": 353,
      "##uston": 354,
      "##are": 355,
      "▁mısın": 356,
      "▁bununla": 357,
      "▁ir": 358,
      "##elerde": 359,
      ":": 360,
      "##asi": 361,
      "▁otomobil": 362,
      "▁dogr": 363,
      "▁birka": 364,
      "##ge": 365,
      "▁nere": 366,
      "▁p": 367,
      "▁odem": 368,
      "▁isi": 369,
      "##unde": 370,
      "▁%3.43": 371,
      "▁w": 372,
      "▁ces": 373,
      "▁resmi": 374,
      "##'tan": 375,
      "▁lu": 376,
      "##dan": 377,
      "##ite": 378,
      "▁dal": 379,
      "▁hasta": 380,
      "##o'dan": 381,
      "▁kredi": 382,
      "##kun": 383,
      "▁dogu": 384,
      "##\"": 385,
      "▁siy": 386,
      "##lig": 387,
      "▁gerek": 388,
      "##vil": 389,
      "##yan": 390,
      "##ult": 391,
      "▁bircok": 392,
      "▁tıklım": 393,
      "▁anad": 394,
      "##esine": 395,
      "##ad": 396,
      "▁indi": 397,
      "##om": 398,
      "”": 399,
      "##co": 400,
      "▁di": 401,
      "▁bon": 402,
      "▁vak": 403,
      "▁deng": 404,
      "▁baskan": 405,
      "▁dort": 406,
      "▁bildir": 407,
      "▁vat": 408,
      "▁yasa": 409,
      "▁city'den": 410,
      "▁75": 411,
      "▁yukselerek": 412,
      "▁seviyesine": 413,
      "##iran": 414,
      "##ydi": 415,
      "▁%15": 416,
      "▁yetk": 417,
      "▁aslında": 418,
      "##gı": 419,
      "o": 420,
      "▁tarafından": 421,
      "▁istanbul": 422,
      "▁united": 423,
      "##ımıza": 424,
      "##is": 425,
      "##mer": 426,
      "▁vermis": 427,
      "##ill": 428,
      "▁ik": 429,
      "▁alıcı": 430,
      "##mesini": 431,
      "▁kendin": 432,
      "##ızı": 433,
      "▁fiyat": 434,
      "▁br": 435,
      "▁rap": 436,
      "ı": 437,
      "▁odam": 438,
      "▁artır": 439,
      "▁sekiz": 440,
      "$": 441,
      "▁hep": 442,
      "▁bizde": 443,
      "▁%85": 444,
      "▁deniz": 445,
      "▁kim": 446,
      "▁ders": 447,
      "##en": 448,
      "▁%": 449,
      "▁jos": 450,
      "▁bagır": 451,
      "▁saglam": 452,
      "▁3": 453,
      "▁yetkilileri": 454,
      "##up": 455,
      "▁.": 456,
      "##kiz": 457,
      "▁yalap": 458,
      "##uyle": 459,
      "▁tut": 460,
      "▁hayal": 461,
      "▁york'tan": 462,
      "▁yaptı": 463,
      "▁1.1": 464,
      "▁sim": 465,
      "##inin": 466,
      "v": 467,
      "▁tavsiye": 468,
      "##000": 469,
      "▁%99": 470,
      "▁cocuklar": 471,
      "##emedi": 472,
      "▁pu": 473,
      "▁worth": 474,
      "▁ayn": 475,
      "▁yardım": 476,
      "▁prob": 477,
      "##agını": 478,
      "▁sov": 479,
      "##ıstır": 480,
      "##…": 481,
      "▁yasında": 482,
      "##86": 483,
      "##muz": 484,
      "▁peki": 485,
      "▁alıp": 486,
      "▁100": 487,
      "▁kaybet": 488,
      "##ia": 489,
      "▁etmeye": 490,
      "##daki": 491,
      "▁bulunan": 492,
      "▁..": 493,
      "▁iyice": 494,
      "##'ye": 495,
      "▁iceri": 496,
      "▁av": 497,
      "▁koyun": 498,
      "▁o": 499,
      "▁seker": 500,
      "##ern": 501,
      "##asıyla": 502,
      "▁karsılas": 503,
      "▁mah": 504,
      "▁ask": 505,
      "▁yukseldi": 506,
      "▁dev": 507,
      "▁dc'ye": 508,
      "▁varsa": 509,
      "▁devlet": 510,
      "##ong": 511,
      "▁inan": 512,
      "▁muh": 513,
      "▁it": 514,
      "▁kuv": 515,
      "###": 516,
      "##gar": 517,
      "##ank": 518,
      "▁%8.2": 519,
      "##sızlık": 520,
      "##ic": 521,
      "##ven": 522,
      "▁sıkır": 523,
      "##unuyor": 524,
      "##am": 525,
      "▁hisseleri": 526,
      "##lan": 527,
      "▁ornegin": 528,
      "▁dusuktu": 529,
      "▁birles": 530,
      "##ılıyor": 531,
      "##aket": 532,
      "▁cent": 533,
      "##eet": 534,
      "▁mc": 535,
      "▁duyar": 536,
      "▁.'": 537,
      "▁istemiyorum": 538,
      "##alar": 539,
      "▁oz": 540,
      "[CLS]": 541,
      "▁nisan": 542,
      "▁bunlardan": 543,
      "▁toplantı": 544,
      "##dem": 545,
      "▁begenmedim": 546,
      "##uy": 547,
      "##aten": 548,
      "▁savun": 549,
      "▁olumlu": 550,
      "▁ab": 551,
      "▁yatırımcı": 552,
      "##asında": 553,
      "▁veririm": 554,
      "▁servisi": 555,
      "▁cit": 556,
      "▁sar": 557,
      "##iss": 558,
      "▁tit": 559,
      "##lem": 560,
      "▁evi": 561,
      "▁dustu": 562,
      "##ane": 563,
      "▁yol": 564,
      "##fer": 565,
      "##os": 566,
      "##'a": 567,
      "##-1": 568,
      "##lıyor": 569,
      "▁mark": 570,
      "▁yanl": 571,
      "##luydu": 572,
      "##ark": 573,
      "▁diger": 574,
      "▁calis": 575,
      "##ti": 576,
      "▁orne": 577,
      "▁sel": 578,
      "##iz": 579,
      "▁ilg": 580,
      "▁birbirler": 581,
      "##mayı": 582,
      "▁yasam": 583,
      "▁belli": 584,
      "##erek": 585,
      "▁almıs": 586,
      "▁strate": 587,
      "▁muz": 588,
      "▁konustu": 589,
      "▁sade": 590,
      "##.2": 591,
      "▁yardımcısı": 592,
      "▁basit": 593,
      "▁delta": 594,
      "▁bah": 595,
      "▁yurut": 596,
      "##tıs": 597,
      "##lugun": 598,
      "▁0": 599,
      "▁onceki": 600,
      "▁biri": 601,
      "▁kes": 602,
      "▁nak": 603,
      "▁kendiler": 604,
      "##ırım": 605,
      "##teki": 606,
      "▁ceyrek": 607,
      "▁zevk": 608,
      "▁onu": 609,
      "▁basladı": 610,
      "##ki": 611,
      "▁yedi": 612,
      "▁california": 613,
      "▁lung": 614,
      "▁kend": 615,
      "▁tı": 616,
      "▁dam": 617,
      "##ında": 618,
      "▁n": 619,
      "##ah": 620,
      "▁sorum": 621,
      "▁cap": 622,
      "▁vergi": 623,
      "##00": 624,
      "##yıl": 625,
      "##kar": 626,
      "▁iz": 627,
      "▁uretic": 628,
      "▁hepsinin": 629,
      "▁kalın": 630,
      "▁yirmi": 631,
      "##ational": 632,
      "▁arac": 633,
      "▁basv": 634,
      "▁cuma": 635,
      "##eder": 636,
      "▁houston": 637,
      "▁yam": 638,
      "▁sı": 639,
      "##uma": 640,
      "▁sure": 641,
      "▁soguk": 642,
      "##ustu": 643,
      "##tre": 644,
      "##l": 645,
      "▁phoenix": 646,
      "▁cev": 647,
      "##ji": 648,
      "▁4": 649,
      "▁birlikte": 650,
      "▁azal": 651,
      "▁bulmak": 652,
      "▁kars": 653,
      "▁toplam": 654,
      "##man": 655,
      "##ham": 656,
      "▁kom": 657,
      "▁uy": 658,
      "▁fort": 659,
      "▁sanki": 660,
      "##ırıl": 661,
      "▁fotograf": 662,
      "▁charlotte": 663,
      "▁yasıyor": 664,
      "▁sonunda": 665,
      "▁yardim": 666,
      "▁avukat": 667,
      "##eceg": 668,
      "▁yapılan": 669,
      "▁dı": 670,
      "##lanıyor": 671,
      "▁%80": 672,
      "▁bıraktı": 673,
      "▁gel": 674,
      "▁listel": 675,
      "▁hom": 676,
      "▁motor": 677,
      "▁kacın": 678,
      "▁ettigini": 679,
      "▁siddet": 680,
      "▁sonraki": 681,
      "▁simdi": 682,
      "▁tir": 683,
      "▁han": 684,
      "##sin": 685,
      "▁19": 686,
      "▁sirketin": 687,
      "▁puan": 688,
      "|": 689,
      "##egas": 690,
      "▁size": 691,
      "▁kotuydu": 692,
      "▁yakin": 693,
      "▁washington'a": 694,
      "▁surec": 695,
      "▁meh": 696,
      "▁nih": 697,
      "##alarının": 698,
      "▁silah": 699,
      "▁dogal": 700,
      "##alet": 701,
      "▁adam": 702,
      "▁daha": 703,
      "##lenen": 704,
      "##adı": 705,
      "▁bul": 706,
      "##ep": 707,
      "▁contin": 708,
      "▁sav": 709,
      "▁ongor": 710,
      "▁aksamı": 711,
      "▁savas": 712,
      "▁kural": 713,
      "##'le": 714,
      "##il": 715,
      "▁degillerdi": 716,
      "##9": 717,
      "##eyn": 718,
      "##ustos": 719,
      "▁bayram": 720,
      "▁teh": 721,
      "▁cleveland": 722,
      "##ledi": 723,
      "##ograf": 724,
      "▁onlara": 725,
      "##ari": 726,
      "##bar": 727,
      "##lastır": 728,
      "▁birinci": 729,
      "▁beb": 730,
      "##arası": 731,
      "▁cumartesi": 732,
      "##ım": 733,
      "▁25": 734,
      "▁ataturk": 735,
      "▁faturam": 736,
      "▁ihtiyar": 737,
      "▁acisindan": 738,
      "▁gorusuldu": 739,
      "##ı": 740,
      "▁seh": 741,
      "▁stok": 742,
      "▁baltimore'ye": 743,
      "##asıyor": 744,
      "▁sil": 745,
      "##lenmis": 746,
      "▁soylem": 747,
      "##malar": 748,
      "▁etmis": 749,
      "##dıklarını": 750,
      "▁bes": 751,
      "▁yemegi": 752,
      "▁fiyata": 753,
      "▁alman": 754,
      "##eket": 755,
      "b": 756,
      "##`": 757,
      "▁ko": 758,
      "##mal": 759,
      "##lanır": 760,
      "##ısıyla": 761,
      "▁tutun": 762,
      "▁gelistir": 763,
      "##amay": 764,
      "▁aksam": 765,
      "▁cek": 766,
      "##ildi": 767,
      "##orth": 768,
      "▁mu": 769,
      "##eyin": 770,
      "▁kaliteli": 771,
      "▁listeleyin": 772,
      "▁park": 773,
      "▁tekn": 774,
      "▁but": 775,
      "▁ki": 776,
      "▁kurulus": 777,
      "##ve": 778,
      "▁ucuncu": 779,
      "##tor": 780,
      "▁sıra": 781,
      "▁duzen": 782,
      "▁oluyor": 783,
      "▁avuk": 784,
      "##ger": 785,
      "##-2": 786,
      "##ılı": 787,
      "▁alma": 788,
      "##ucuk": 789,
      "##8": 790,
      "##.0": 791,
      "▁salı": 792,
      "▁yoksa": 793,
      "##uya": 794,
      "▁fikir": 795,
      "▁denver": 796,
      "▁hizmeti": 797,
      "▁yapacak": 798,
      "▁manz": 799,
      "▁pahaliydi": 800,
      "▁derin": 801,
      "##orta": 802,
      "▁37": 803,
      "▁unit": 804,
      "##.4": 805,
      "##ru": 806,
      "▁bay": 807,
      "##be": 808,
      "▁okul": 809,
      "##ılan": 810,
      "▁sabahı": 811,
      "▁teknoloj": 812,
      "▁belirtti": 813,
      "▁ogren": 814,
      "##ısı": 815,
      "▁ısık": 816,
      "▁derli": 817,
      "##ilmesi": 818,
      "▁kanı": 819,
      "▁mac": 820,
      "▁sig": 821,
      "##ayla": 822,
      "##em": 823,
      "▁araba": 824,
      "▁yesil": 825,
      "▁verim": 826,
      "▁ettigi": 827,
      "▁tahmin": 828,
      "▁orta": 829,
      "##uklum": 830,
      "▁listele": 831,
      "▁magaz": 832,
      "##lerin": 833,
      "##isini": 834,
      "▁alıyor": 835,
      "▁olduguna": 836,
      "##ine": 837,
      "▁co": 838,
      "▁ti": 839,
      "##rup": 840,
      "▁gerektigini": 841,
      "▁salt": 842,
      "▁dor": 843,
      "##75": 844,
      "▁derece": 845,
      "▁say": 846,
      "##ibar": 847,
      "##et": 848,
      "▁dusus": 849,
      "##aj": 850,
      "▁bakıyor": 851,
      "▁altı": 852,
      "▁verir": 853,
      "▁donem": 854,
      "▁guven": 855,
      "▁ondan": 856,
      "##may": 857,
      "▁bekleniyor": 858,
      "▁performans": 859,
      "▁komisyon": 860,
      "##ya": 861,
      "▁hap": 862,
      "##iyat": 863,
      "▁ayrıca": 864,
      "▁edildi": 865,
      "▁kazandı": 866,
      "##umus": 867,
      "▁hukumet": 868,
      "▁doları'na": 869,
      "##ada": 870,
      "▁dolara": 871,
      "▁ihtiyac": 872,
      "▁olmalı": 873,
      "##isel": 874,
      "▁pet": 875,
      "▁yuk": 876,
      "▁anlamda": 877,
      "##likte": 878,
      "▁tartıs": 879,
      "▁saglık": 880,
      "▁tamamen": 881,
      "▁soyledi": 882,
      "▁hicbiri": 883,
      "##uluk": 884,
      "▁guler": 885,
      "▁umut": 886,
      "▁gunu": 887,
      "▁elb": 888,
      "##siz": 889,
      "▁ger": 890,
      "▁1988": 891,
      "▁toprak": 892,
      "▁resim": 893,
      "##evizyon": 894,
      "##oster": 895,
      "▁yani": 896,
      "▁fabrik": 897,
      "##dı": 898,
      "##ator": 899,
      "▁girisim": 900,
      "##west": 901,
      "▁genellikle": 902,
      "▁uzere": 903,
      "▁yolu": 904,
      "▁ihtiyacım": 905,
      "▁son": 906,
      "▁carsamba": 907,
      "##gor": 908,
      "▁dunya": 909,
      "##'ın": 910,
      "##e": 911,
      "##ok": 912,
      "▁parti": 913,
      "##urt": 914,
      "##ing": 915,
      "▁koy": 916,
      "▁satıs": 917,
      "▁sist": 918,
      "##anı": 919,
      "▁babam": 920,
      "##ami": 921,
      "▁piyasa": 922,
      "▁yalnızca": 923,
      "##sal": 924,
      "▁evde": 925,
      "▁icer": 926,
      "▁mısıl": 927,
      "▁verdigim": 928,
      "▁yapma": 929,
      "▁ey": 930,
      "▁degis": 931,
      "▁benz": 932,
      "##z": 933,
      "▁fot": 934,
      "▁kampanyalar": 935,
      "▁hur": 936,
      "▁soru": 937,
      "##pıs": 938,
      "▁hak": 939,
      "▁%8": 940,
      "##du": 941,
      "##leriyle": 942,
      "▁yuz": 943,
      "▁bus": 944,
      "##lin": 945,
      "##mi": 946,
      "##ap": 947,
      "▁cag": 948,
      "▁dik": 949,
      "▁rezervasyonu": 950,
      "▁boston": 951,
      "▁turkiye": 952,
      "▁elde": 953,
      "▁kalkıs": 954,
      "▁a": 955,
      "▁ikib": 956,
      "##'ta": 957,
      "▁yapı": 958,
      "##ligin": 959,
      "[SEP]": 960,
      "##ları": 961,
      "▁milyar": 962,
      "▁sm": 963,
      "▁harika": 964,
      "▁yonetic": 965,
      "▁dov": 966,
      "▁dolayi": 967,
      "▁ankara": 968,
      "▁duv": 969,
      "▁chic": 970,
      "*": 971,
      "▁almak": 972,
      "##lamıs": 973,
      "▁zengin": 974,
      "▁kapalı": 975,
      "##oh": 976,
      "##j": 977,
      "▁kıymetler": 978,
      "##atı": 979,
      "▁temizligi": 980,
      "▁istih": 981,
      "##dum": 982,
      "##asyonu": 983,
      "▁cesit": 984,
      "▁kayıt": 985,
      "▁kampan": 986,
      "▁tahvil": 987,
      "▁f": 988,
      "##gim": 989,
      "▁muht": 990,
      "▁paul": 991,
      "▁egit": 992,
      "▁hab": 993,
      "▁mir": 994,
      "▁las": 995,
      "##van": 996,
      "##isinin": 997,
      "▁alın": 998,
      "▁bal": 999,
      "▁prof": 1000,
      "▁kısıt": 1001,
      "▁11": 1002,
      "▁olabil": 1003,
      "▁ucreti": 1004,
      "▁gidip": 1005,
      "▁taraf": 1006,
      "▁fark": 1007,
      "▁evin": 1008,
      "▁24": 1009,
      "▁sab": 1010,
      "▁hızla": 1011,
      "▁ruh": 1012,
      "▁oldug": 1013,
      "##ert": 1014,
      "▁zayif": 1015,
      "##ayı": 1016,
      "▁cıvıl": 1017,
      "▁%1.7": 1018,
      "▁du": 1019,
      "##larından": 1020,
      "##imize": 1021,
      "▁fr": 1022,
      "##asını": 1023,
      "##ch": 1024,
      "▁ann": 1025,
      "▁ardından": 1026,
      "▁%7": 1027,
      "▁vardi": 1028,
      "##yle": 1029,
      "▁olacagını": 1030,
      "##ilir": 1031,
      "##gin": 1032,
      "##te": 1033,
      "▁konus": 1034,
      "▁yana": 1035,
      "##lıga": 1036,
      "##alardan": 1037,
      "▁bel": 1038,
      "▁aile": 1039,
      "##sız": 1040,
      "##ardan": 1041,
      "▁kat": 1042,
      "▁isk": 1043,
      "▁ilgilen": 1044,
      "##dıgım": 1045,
      "▁olmayan": 1046,
      "▁por": 1047,
      "▁olması": 1048,
      "▁dır": 1049,
      "▁he": 1050,
      "▁meyal": 1051,
      "▁inc.": 1052,
      "##tan": 1053,
      "▁dav": 1054,
      "▁doldur": 1055,
      "▁olmadi": 1056,
      "▁hayır": 1057,
      "▁alk": 1058,
      "##at": 1059,
      "▁faiz": 1060,
      "▁aks": 1061,
      "##sı": 1062,
      "▁ortaya": 1063,
      "##erk": 1064,
      "▁ark": 1065,
      "##larının": 1066,
      "##bol": 1067,
      "▁stan": 1068,
      "▁philadelphia'ya": 1069,
      "▁merkezi": 1070,
      "▁guzeldi": 1071,
      "▁merkez": 1072,
      "▁avrup": 1073,
      "▁sizi": 1074,
      "▁yak": 1075,
      "▁memnunum": 1076,
      "##25": 1077,
      "▁defa": 1078,
      "▁pufur": 1079,
      "▁hanım": 1080,
      "##ort": 1081,
      "▁olm": 1082,
      "##3": 1083,
      "▁22": 1084,
      "##of": 1085,
      "▁sez": 1086,
      "##lugu": 1087,
      "▁dedik": 1088,
      "▁koltuk": 1089,
      "▁fiyatlar": 1090,
      "▁benim": 1091,
      "▁kumas": 1092,
      ".": 1093,
      "▁os": 1094,
      "▁arkad": 1095,
      "▁karanlık": 1096,
      "▁karayol": 1097,
      "##89": 1098,
      "▁nef": 1099,
      "▁oy": 1100,
      "##as": 1101,
      "##ustr": 1102,
      "▁milwa": 1103,
      "▁eki": 1104,
      "▁fon": 1105,
      "▁kultur": 1106,
      "##61": 1107,
      "##amb": 1108,
      "▁oranı": 1109,
      "▁burada": 1110,
      "▁nelerdir": 1111,
      "▁superdi": 1112,
      "##alarla": 1113,
      "##digi": 1114,
      "▁tur": 1115,
      "##leket": 1116,
      "##dılar": 1117,
      "##lerinin": 1118,
      "▁bulun": 1119,
      "▁lutf": 1120,
      "##lul": 1121,
      "▁performan": 1122,
      "▁um": 1123,
      "▁18": 1124,
      "##ırdı": 1125,
      "z": 1126,
      "▁birisi": 1127,
      "##azım": 1128,
      "▁cıtır": 1129,
      "▁?..": 1130,
      "##lige": 1131,
      "▁hafta": 1132,
      "▁avuc": 1133,
      "▁kor": 1134,
      "▁aldı": 1135,
      "##ulan": 1136,
      "▁bu": 1137,
      "▁dest": 1138,
      "▁sermay": 1139,
      "▁bazıları": 1140,
      "▁gr": 1141,
      "▁hanim": 1142,
      "##dar": 1143,
      "##isinde": 1144,
      "▁tanı": 1145,
      "▁cagır": 1146,
      "▁6": 1147,
      "##lara": 1148,
      "##ond": 1149,
      "▁ma": 1150,
      "▁kalkıyor": 1151,
      "##dıgı": 1152,
      "▁gonder": 1153,
      "##ısından": 1154,
      "▁cocugun": 1155,
      "##lek": 1156,
      "▁aktar": 1157,
      "##iyor": 1158,
      "##ın": 1159,
      "##tıgı": 1160,
      "##'te": 1161,
      "▁dusuk": 1162,
      "##elere": 1163,
      "▁adi": 1164,
      "▁soyluyor": 1165,
      "▁edip": 1166,
      "##das": 1167,
      "▁sen": 1168,
      "▁not": 1169,
      "▁aktiv": 1170,
      "▁kuvvet": 1171,
      "▁mudur": 1172,
      "▁im": 1173,
      "▁bekliyor": 1174,
      "▁ihr": 1175,
      "▁zaman": 1176,
      "▁ederim": 1177,
      "##sak": 1178,
      "##eki": 1179,
      "##makta": 1180,
      "▁gal": 1181,
      "▁bun": 1182,
      "##sen": 1183,
      "▁fiyati": 1184,
      "▁icin": 1185,
      "##o": 1186,
      "##ati": 1187,
      "▁ba": 1188,
      "▁ah": 1189,
      "▁ted": 1190,
      "▁kendisini": 1191,
      "##ecegim": 1192,
      "▁iddi": 1193,
      "##onelik": 1194,
      "##m": 1195,
      "▁nokt": 1196,
      "##orn": 1197,
      "##dim": 1198,
      "▁boston'a": 1199,
      "▁nis": 1200,
      "▁ruz": 1201,
      "▁aynı": 1202,
      "▁yon": 1203,
      "▁may": 1204,
      "▁kuy": 1205,
      "▁h": 1206,
      "##apol": 1207,
      "##al": 1208,
      "##ci": 1209,
      "##esini": 1210,
      "##ide": 1211,
      "▁kap": 1212,
      "##isine": 1213,
      "▁dost": 1214,
      "▁th": 1215,
      "▁miami'ye": 1216,
      "▁cık": 1217,
      "##ten": 1218,
      "##ıcı": 1219,
      "##burgh": 1220,
      "▁fer": 1221,
      "▁po": 1222,
      "▁ulusal": 1223,
      "##alım": 1224,
      "▁rekabet": 1225,
      "▁se": 1226,
      "▁yildi": 1227,
      "▁millet": 1228,
      "##erdi": 1229,
      "▁gev": 1230,
      "▁toront": 1231,
      "▁ayrıl": 1232,
      "##erv": 1233,
      "▁eski": 1234,
      "▁kem": 1235,
      "▁airlin": 1236,
      "▁``": 1237,
      "▁giy": 1238,
      "▁kıtır": 1239,
      "▁edebiyat": 1240,
      "▁serv": 1241,
      "▁profes": 1242,
      "▁ucusların": 1243,
      "▁verdigi": 1244,
      "▁dah": 1245,
      "▁lok": 1246,
      "▁sık": 1247,
      "▁ciyak": 1248,
      "▁dig": 1249,
      "▁louis": 1250,
      "##ore": 1251,
      "▁isletme": 1252,
      "##'un": 1253,
      "▁komp": 1254,
      "##menin": 1255,
      "▁yar": 1256,
      "##irdi": 1257,
      "▁gon": 1258,
      "##ville": 1259,
      "##ormal": 1260,
      "3": 1261,
      "##meye": 1262,
      "▁tesekkurler": 1263,
      "##us": 1264,
      "▁tez": 1265,
      "##gun": 1266,
      "▁end": 1267,
      "▁personeli": 1268,
      "▁mukemmel": 1269,
      "▁tasar": 1270,
      "▁otelden": 1271,
      "##w": 1272,
      "▁veriyor": 1273,
      "▁sirketler": 1274,
      "##‘": 1275,
      "##ektr": 1276,
      "▁dedi": 1277,
      "▁boylece": 1278,
      "▁hic": 1279,
      "##ket": 1280,
      "##ar": 1281,
      "##le": 1282,
      "▁hır": 1283,
      "▁altın": 1284,
      "▁mumkun": 1285,
      "▁ort": 1286,
      "▁kısm": 1287,
      "▁milwaukee'den": 1288,
      "##lardı": 1289,
      "##irim": 1290,
      "▁num": 1291,
      "##eden": 1292,
      "##hal": 1293,
      "##amıs": 1294,
      "▁degildi": 1295,
      "▁beni": 1296,
      "##ısında": 1297,
      "##apolis": 1298,
      "##ık": 1299,
      "##ustri": 1300,
      ",": 1301,
      "▁tas": 1302,
      "▁fır": 1303,
      "##arı": 1304,
      "##ınca": 1305,
      "`": 1306,
      "##alak": 1307,
      "##asının": 1308,
      "▁cunku": 1309,
      "▁amer": 1310,
      "▁tiril": 1311,
      "▁21:00-22:30": 1312,
      "▁erk": 1313,
      "##ni": 1314,
      "▁cocuklu": 1315,
      "▁delik": 1316,
      "▁od": 1317,
      "##ıyorum": 1318,
      "▁aylık": 1319,
      "▁ithal": 1320,
      "##'nun": 1321,
      "##lamaya": 1322,
      "▁seyler": 1323,
      "▁ets": 1324,
      "▁telef": 1325,
      "▁dallas'tan": 1326,
      "##'nın": 1327,
      "▁cog": 1328,
      "##uncu": 1329,
      "▁istik": 1330,
      "▁fazla": 1331,
      "▁bırak": 1332,
      "▁personeller": 1333,
      "▁oyle": 1334,
      "▁sin": 1335,
      "##raf": 1336,
      "▁lutfen": 1337,
      "▁artısla": 1338,
      "▁hat": 1339,
      "▁ettim": 1340,
      "▁alır": 1341,
      "##”": 1342,
      "▁baglan": 1343,
      "##ulu": 1344,
      "▁bic": 1345,
      "▁git": 1346,
      "▁mey": 1347,
      "▁vır": 1348,
      "▁kanun": 1349,
      "▁karıstır": 1350,
      "##:30": 1351,
      "##masını": 1352,
      "▁sonr": 1353,
      "▁icine": 1354,
      "▁birbir": 1355,
      "##ımda": 1356,
      "##bas": 1357,
      "▁ekonom": 1358,
      "▁bilim": 1359,
      "▁1.": 1360,
      "▁hiss": 1361,
      "▁demek": 1362,
      "##mıstı": 1363,
      "▁etk": 1364,
      "▁cevir": 1365,
      "##ırlar": 1366,
      "##2:30": 1367,
      "▁sunu": 1368,
      "▁kızı": 1369,
      "▁arkadas": 1370,
      "▁gun": 1371,
      "▁bilgisay": 1372,
      "##tern": 1373,
      "▁7": 1374,
      "▁iyiydi": 1375,
      "▁rahat": 1376,
      "##memis": 1377,
      "/": 1378,
      "##anda": 1379,
      "▁dusunc": 1380,
      "▁islem": 1381,
      "▁anda": 1382,
      "▁%5": 1383,
      "=": 1384,
      "▁ilan": 1385,
      "▁gorunce": 1386,
      "▁geri": 1387,
      "##masının": 1388,
      "▁konu": 1389,
      "▁la": 1390,
      "▁tatil": 1391,
      "▁acıkladı": 1392,
      "##ed": 1393,
      "▁sec": 1394,
      "▁dakika": 1395,
      "▁el": 1396,
      "▁dok": 1397,
      "▁yandan": 1398,
      "▁ert": 1399,
      "##■": 1400,
      "##all": 1401,
      "▁olarak": 1402,
      "▁adım": 1403,
      "▁hastalık": 1404,
      "▁gu": 1405,
      "▁uzer": 1406,
      "▁bunları": 1407,
      "##ıldır": 1408,
      "▁hicbir": 1409,
      "▁birbirine": 1410,
      "##oma": 1411,
      "▁15": 1412,
      "▁birbirlerine": 1413,
      "▁mo": 1414,
      "▁west": 1415,
      "##otte": 1416,
      "##ist": 1417,
      "▁duny": 1418,
      "▁uzat": 1419,
      "▁yaptık": 1420,
      "##iyle": 1421,
      "▁seviy": 1422,
      "##tin": 1423,
      "▁”": 1424,
      "▁sun": 1425,
      "##yak": 1426,
      "##ediyor": 1427,
      "▁alım": 1428,
      "▁konfor": 1429,
      "▁k": 1430,
      "##kat": 1431,
      "▁zen": 1432,
      "▁elli": 1433,
      "▁pazartesi": 1434,
      "▁aktarmalı": 1435,
      "▁kit": 1436,
      "##ub": 1437,
      "##ga": 1438,
      "▁tic": 1439,
      "▁edec": 1440,
      "▁belir": 1441,
      "▁harc": 1442,
      "##gis": 1443,
      "▁temizlik": 1444,
      "▁gidiyor": 1445,
      "▁pencer": 1446,
      "▁muster": 1447,
      "##apur": 1448,
      "▁engel": 1449,
      "▁reh": 1450,
      "##adan": 1451,
      "▁un": 1452,
      "▁sınıfı": 1453,
      "▁yapmak": 1454,
      "▁basında": 1455,
      "##gunu": 1456,
      "▁phoeni": 1457,
      "##miyorum": 1458,
      "▁ekmek": 1459,
      "▁olar": 1460,
      "▁bilmiyorum": 1461,
      "##onom": 1462,
      "▁ser": 1463,
      "##att": 1464,
      "▁guzel": 1465,
      "▁sip": 1466,
      "▁ortam": 1467,
      "▁12": 1468,
      "##ısır": 1469,
      "▁kir": 1470,
      "##san": 1471,
      "▁oda": 1472,
      "▁gunes": 1473,
      "##tak": 1474,
      "▁dol": 1475,
      "▁senin": 1476,
      "▁sert": 1477,
      "▁mayıs": 1478,
      "##onik": 1479,
      "▁ay": 1480,
      "##duk": 1481,
      "##!": 1482,
      "##isyon": 1483,
      "▁der": 1484,
      "▁yurt": 1485,
      "##sizlik": 1486,
      "##bet": 1487,
      "##emmel": 1488,
      "##ırk": 1489,
      "##acagım": 1490,
      "##uv": 1491,
      "▁goster": 1492,
      "▁faal": 1493,
      "##din": 1494,
      "##'ndan": 1495,
      "u": 1496,
      "▁seb": 1497,
      "▁seattle": 1498,
      "##gel": 1499,
      "##av": 1500,
      "##ılır": 1501,
      "▁kesinlikle": 1502,
      "▁ucak": 1503,
      "▁kaf": 1504,
      "▁uzak": 1505,
      "▁diy": 1506,
      "▁unut": 1507,
      "▁car": 1508,
      "▁%7.": 1509,
      "▁temizdi": 1510,
      "▁animasyon": 1511,
      "▁zorunda": 1512,
      "##lat": 1513,
      "##alık": 1514,
      "▁francisco'ya": 1515,
      "▁ulasım": 1516,
      "▁kok": 1517,
      "▁sozcusu": 1518,
      "▁merkezine": 1519,
      "▁hijyen": 1520,
      "▁kıv": 1521,
      "▁rakam": 1522,
      "▁fısır": 1523,
      "▁montreal": 1524,
      "▁suz": 1525,
      "▁yaslı": 1526,
      "▁dahil": 1527,
      "▁kullanmadim": 1528,
      "▁fıldır": 1529,
      "##imli": 1530,
      "▁rus": 1531,
      "▁onem": 1532,
      "##ıs": 1533,
      "▁de": 1534,
      "##mas": 1535,
      "▁kaynak": 1536,
      "▁yun": 1537,
      "##tuk": 1538,
      "▁olmadıgı": 1539,
      "▁hi": 1540,
      "▁donus": 1541,
      "▁degisik": 1542,
      "##mez": 1543,
      "▁lim": 1544,
      "▁500": 1545,
      "▁musa": 1546,
      "##ley": 1547,
      "▁yapan": 1548,
      "##ohn": 1549,
      "▁olanaklari": 1550,
      "##ahat": 1551,
      "▁zev": 1552,
      "##;": 1553,
      "##lama": 1554,
      "▁guc": 1555,
      "▁grup": 1556,
      "▁naz": 1557,
      "▁dep": 1558,
      "▁mit": 1559,
      "▁tehlik": 1560,
      "▁tesekkur": 1561,
      "##malı": 1562,
      "##gimiz": 1563,
      "▁ekip": 1564,
      "##digini": 1565,
      "▁duzey": 1566,
      "##fi": 1567,
      "▁istedi": 1568,
      "▁kard": 1569,
      "##masız": 1570,
      "##gan": 1571,
      "t": 1572,
      "##elerini": 1573,
      "##bi": 1574,
      "##okr": 1575,
      "##eydi": 1576,
      "▁mik": 1577,
      "▁buna": 1578,
      "##lah": 1579,
      "##liydi": 1580,
      "▁tası": 1581,
      "▁yuzlu": 1582,
      "▁bunun": 1583,
      "##dıgını": 1584,
      "▁gumbur": 1585,
      "▁atlan": 1586,
      "▁sirketi": 1587,
      "▁sırt": 1588,
      "▁sene": 1589,
      "▁cıkardı": 1590,
      "##larına": 1591,
      "##bur": 1592,
      "▁endek": 1593,
      "##dugu": 1594,
      "##ice": 1595,
      "“": 1596,
      "▁1990": 1597,
      "##ka": 1598,
      "▁kadın": 1599,
      "▁bazen": 1600,
      "▁41": 1601,
      "▁kayb": 1602,
      "##ırı": 1603,
      "▁dısında": 1604,
      "▁para": 1605,
      "##dikleri": 1606,
      "▁kalab": 1607,
      "##mayan": 1608,
      "▁ur": 1609,
      "▁oakland'a": 1610,
      "##ız": 1611,
      "▁hareket": 1612,
      "▁bask": 1613,
      "▁hız": 1614,
      "▁suyu": 1615,
      "&": 1616,
      "##ade": 1617,
      "▁havaalan": 1618,
      "##ligini": 1619,
      "▁sistem": 1620,
      "▁ucret": 1621,
      "▁kons": 1622,
      "▁sub": 1623,
      "▁etmem": 1624,
      "▁siz": 1625,
      "▁benimle": 1626,
      "▁zay": 1627,
      "▁sayı": 1628,
      "▁tat": 1629,
      "▁osman": 1630,
      "▁tır": 1631,
      "▁ederiz": 1632,
      "▁mon": 1633,
      "▁oyuncu": 1634,
      "##lerim": 1635,
      "▁ucusa": 1636,
      "##lu": 1637,
      "##ek": 1638,
      "##ini": 1639,
      "##larımız": 1640,
      "▁karsil": 1641,
      "▁ucmak": 1642,
      "▁yeterli": 1643,
      "##ums": 1644,
      "▁51": 1645,
      "▁ucuslar": 1646,
      "##*": 1647,
      "▁milwaukee'ye": 1648,
      "▁edil": 1649,
      "##yo": 1650,
      "▁analistler": 1651,
      "▁kendi": 1652,
      "▁isim": 1653,
      "##iye": 1654,
      "##>": 1655,
      "▁st.": 1656,
      "▁giz": 1657,
      "##apon": 1658,
      "▁2": 1659,
      "▁cogu": 1660,
      "▁onunde": 1661,
      "▁temsil": 1662,
      "▁herkese": 1663,
      "▁#": 1664,
      "▁allak": 1665,
      "▁=": 1666,
      "▁key": 1667,
      "▁pasa": 1668,
      "▁misafirimiz": 1669,
      "##can": 1670,
      "##ington": 1671,
      "p": 1672,
      "▁birden": 1673,
      "▁cir": 1674,
      "▁anim": 1675,
      "##$": 1676,
      "▁miydi": 1677,
      "##dun": 1678,
      "▁kendimi": 1679,
      "▁te": 1680,
      "▁otuz": 1681,
      "##92": 1682,
      "##osu": 1683,
      "▁%12": 1684,
      "▁musteri": 1685,
      "##ugun": 1686,
      "▁kagıt": 1687,
      "##emez": 1688,
      "▁of": 1689,
      "##mıyor": 1690,
      "▁net": 1691,
      "##a'nın": 1692,
      "▁kurtar": 1693,
      "▁yine": 1694,
      "##veland": 1695,
      "▁grub": 1696,
      "▁dusur": 1697,
      "▁endustr": 1698,
      "##elen": 1699,
      "##lerce": 1700,
      "▁oyun": 1701,
      "▁bush": 1702,
      "▁normaldi": 1703,
      "▁sah": 1704,
      "▁vazgec": 1705,
      "▁insanın": 1706,
      "▁degildir": 1707,
      "##mem": 1708,
      "▁bile": 1709,
      "▁cel": 1710,
      "##artesi": 1711,
      "▁izin": 1712,
      "##lerden": 1713,
      "▁olcude": 1714,
      "##esil": 1715,
      "##ıldı": 1716,
      "##sunuz": 1717,
      "▁mav": 1718,
      "▁dokuz": 1719,
      "▁rak": 1720,
      "▁dokun": 1721,
      "▁telefonla": 1722,
      "▁baz": 1723,
      "▁mem": 1724,
      "##'n": 1725,
      "##egi": 1726,
      "##lamak": 1727,
      "##eli": 1728,
      "▁harik": 1729,
      "▁bors": 1730,
      "▁enf": 1731,
      "▁1989": 1732,
      "##istim": 1733,
      "▁odedigim": 1734,
      "▁beklen": 1735,
      "▁yuksekti": 1736,
      "▁yuzden": 1737,
      "▁yap": 1738,
      "##atif": 1739,
      "▁rom": 1740,
      "##iyeti": 1741,
      "▁atlanta": 1742,
      "▁*": 1743,
      "▁sehir": 1744,
      "▁zamanda": 1745,
      "▁mutlu": 1746,
      "▁sın": 1747,
      "##ayacak": 1748,
      "▁sahibi": 1749,
      "##uyorlar": 1750,
      "▁koca": 1751,
      "▁belirt": 1752,
      "▁kup": 1753,
      "▁sent": 1754,
      "##undeki": 1755,
      "▁ekonomi": 1756,
      "##rol": 1757,
      "##ime": 1758,
      "##er": 1759,
      "▁tuk": 1760,
      "▁ozellikle": 1761,
      "▁olus": 1762,
      "▁3/": 1763,
      "##lum": 1764,
      "##luyor": 1765,
      "▁39": 1766,
      "##arken": 1767,
      "▁hac": 1768,
      "▁ayır": 1769,
      "▁gelecek": 1770,
      "▁8": 1771,
      "##:00": 1772,
      "##ustum": 1773,
      "▁itibaren": 1774,
      "▁giden": 1775,
      "▁isten": 1776,
      "##uluyor": 1777,
      "▁bakım": 1778,
      "▁univers": 1779,
      "▁fi": 1780,
      "##sat": 1781,
      "▁hij": 1782,
      "##unden": 1783,
      "##medik": 1784,
      "▁dogrudan": 1785,
      "▁takip": 1786,
      "▁kıl": 1787,
      "▁edilen": 1788,
      "##bah": 1789,
      "▁201": 1790,
      "q": 1791,
      "▁imz": 1792,
      "▁hakk": 1793,
      "▁bat": 1794,
      "▁kur": 1795,
      "##ilere": 1796,
      "▁yardimci": 1797,
      "▁def": 1798,
      "##ımız": 1799,
      "▁gecir": 1800,
      "▁dur": 1801,
      "▁kırk": 1802,
      "##men": 1803,
      "▁stratej": 1804,
      "▁mul": 1805,
      "▁%2": 1806,
      "▁mer": 1807,
      "▁bizim": 1808,
      "##estir": 1809,
      "▁del": 1810,
      "##agan": 1811,
      "▁hanimdi": 1812,
      "▁zırt": 1813,
      "▁kendisin": 1814,
      "##agına": 1815,
      "▁kenar": 1816,
      "▁siyasi": 1817,
      "##lere": 1818,
      "▁denizi": 1819,
      "##emek": 1820,
      "d": 1821,
      "##ydı": 1822,
      "##uar": 1823,
      "▁d": 1824,
      "▁cif": 1825,
      "▁kı": 1826,
      "##bire": 1827,
      "▁ediyordu": 1828,
      "▁kans": 1829,
      "▁mus": 1830,
      "##eyim": 1831,
      "##esinde": 1832,
      "##si": 1833,
      "▁kapan": 1834,
      "##day": 1835,
      "▁derl": 1836,
      "▁cicek": 1837,
      "▁konuda": 1838,
      "▁duruyor": 1839,
      "▁yarat": 1840,
      "▁tal": 1841,
      "▁com": 1842,
      "##cısı": 1843,
      "▁gıldır": 1844,
      "##maya": 1845,
      "▁eksik": 1846,
      "##imi": 1847,
      "▁pil": 1848,
      "▁t": 1849,
      "##'u": 1850,
      "##ılması": 1851,
      "##vel": 1852,
      "##larda": 1853,
      "▁bundan": 1854,
      "##89-": 1855,
      "▁cekti": 1856,
      "▁uyum": 1857,
      "2": 1858,
      "▁%51": 1859,
      "##esi": 1860,
      "▁pas": 1861,
      "▁cıkmıs": 1862,
      "##cusu": 1863,
      "▁lir": 1864,
      "##ken": 1865,
      "##ıtır": 1866,
      "▁okuy": 1867,
      "##egini": 1868,
      "▁continental": 1869,
      "##1": 1870,
      "▁bunlar": 1871,
      "▁bekledi": 1872,
      "▁kendilerine": 1873,
      "▁yola": 1874,
      "▁fırıl": 1875,
      "##izm": 1876,
      "▁ust": 1877,
      "##vet": 1878,
      "▁ihtiy": 1879,
      "▁det": 1880,
      "##etir": 1881,
      "▁mahkem": 1882,
      "▁0.": 1883,
      "▁vardı": 1884,
      "##&": 1885,
      "▁gorul": 1886,
      "▁acıl": 1887,
      "▁eder": 1888,
      "##aret": 1889,
      "▁gotur": 1890,
      "▁sını": 1891,
      "##amak": 1892,
      "▁fen": 1893,
      "▁mektu": 1894,
      "##innati": 1895,
      "▁veya": 1896,
      "##urken": 1897,
      "##_": 1898,
      "▁yapıyor": 1899,
      "▁onunla": 1900,
      "▁sefer": 1901,
      "▁ustu": 1902,
      "##eni": 1903,
      "▁yatırım": 1904,
      "▁olsun": 1905,
      "##if": 1906,
      "▁hen": 1907,
      "##.6": 1908,
      "▁gitmek": 1909,
      "▁ideal": 1910,
      "##irler": 1911,
      "▁isler": 1912,
      "##uzel": 1913,
      "##kı": 1914,
      "▁%6.9": 1915,
      "##da": 1916,
      "▁gonul": 1917,
      "▁tr": 1918,
      "▁huz": 1919,
      "▁beyle": 1920,
      "##hut": 1921,
      "##ısın": 1922,
      "##ra": 1923,
      "▁yok": 1924,
      "▁merk": 1925,
      "##eme": 1926,
      "##ancı": 1927,
      "▁fıkır": 1928,
      "▁197": 1929,
      "▁gorev": 1930,
      "##\\/8": 1931,
      "0": 1932,
      "°": 1933,
      "##gum": 1934,
      "▁got": 1935,
      "##0'": 1936,
      "▁makin": 1937,
      "▁cı": 1938,
      "##iliyor": 1939,
      "▁poz": 1940,
      "▁kac": 1941,
      "##ecek": 1942,
      "▁ev": 1943,
      "▁sog": 1944,
      "##layarak": 1945,
      "’": 1946,
      "##lerde": 1947,
      "▁aktif": 1948,
      "##emey": 1949,
      "▁en": 1950,
      "▁kucuk": 1951,
      "▁196": 1952,
      "##ilm": 1953,
      "▁simdiye": 1954,
      "▁art": 1955,
      "▁kosul": 1956,
      "##\\": 1957,
      "▁%7.875": 1958,
      "▁sekil": 1959,
      "##aman": 1960,
      "▁gar": 1961,
      "▁sat": 1962,
      "##der": 1963,
      "##ens": 1964,
      "##ta": 1965,
      "▁kara": 1966,
      "##ımızı": 1967,
      "##yalar": 1968,
      "##let": 1969,
      "▁aralık": 1970,
      "##larım": 1971,
      "##atik": 1972,
      "▁sessiz": 1973,
      "▁sesi": 1974,
      "▁olc": 1975,
      "▁nedir": 1976,
      "▁sakin": 1977,
      "##li": 1978,
      "▁fa": 1979,
      "▁tabi": 1980,
      "##isiz": 1981,
      "▁air": 1982,
      "▁saf": 1983,
      "##tas": 1984,
      "▁analist": 1985,
      "▁es": 1986,
      "▁soyley": 1987,
      "k": 1988,
      "▁milyondan": 1989,
      "▁duk": 1990,
      "##arl": 1991,
      "▁roman": 1992,
      "##ce": 1993,
      "▁doy": 1994,
      "▁tem": 1995,
      "##el": 1996,
      "▁bunu": 1997,
      "▁alak": 1998,
      "##erler": 1999,
      "##ug": 2000,
      "##'ya": 2001,
      "##1-": 2002,
      "##egen": 2003,
      "▁tercih": 2004,
      "▁ok": 2005,
      "▁oldum": 2006,
      "▁kaldik": 2007,
      "▁fok": 2008,
      "##sel": 2009,
      "##leri": 2010,
      "▁otelin": 2011,
      "##unku": 2012,
      "##kın": 2013,
      "▁egil": 2014,
      "▁azından": 2015,
      "▁`": 2016,
      "▁arada": 2017,
      "5": 2018,
      "##amaya": 2019,
      "▁%10": 2020,
      "▁iyi": 2021,
      "▁zaten": 2022,
      "▁gormek": 2023,
      "▁35": 2024,
      "##ma": 2025,
      "##ısık": 2026,
      "▁kul": 2027,
      "▁ilk": 2028,
      "▁edeb": 2029,
      "▁30": 2030,
      "▁cumhuriyet": 2031,
      "▁cle": 2032,
      "▁hale": 2033,
      "▁hey": 2034,
      "▁oldu": 2035,
      "▁yamalak": 2036,
      "##bank": 2037,
      "▁ilgili": 2038,
      "▁sis": 2039,
      "##lastı": 2040,
      "▁onlar": 2041,
      "▁42": 2042,
      "##tu": 2043,
      "##ard": 2044,
      "▁musait": 2045,
      "▁pah": 2046,
      "##aların": 2047,
      "##amadim": 2048,
      "▁banka": 2049,
      "▁birinde": 2050,
      "▁eve": 2051,
      "▁piyas": 2052,
      "▁borsası": 2053,
      "▁1/": 2054,
      "##rar": 2055,
      "##acagını": 2056,
      "##ıyor": 2057,
      "▁eylul": 2058,
      "▁agustos": 2059,
      "▁muc": 2060,
      "##mus": 2061,
      "▁ama": 2062,
      "##imdi": 2063,
      "▁list": 2064,
      "▁yorum": 2065,
      "▁gecik": 2066,
      "▁dondu": 2067,
      "▁sır": 2068,
      "▁sof": 2069,
      "▁aldıgı": 2070,
      "▁ters": 2071,
      "##laması": 2072,
      "l": 2073,
      "##mamıs": 2074,
      "▁sans": 2075,
      "##dıg": 2076,
      "##aya": 2077,
      "##imden": 2078,
      "▁kav": 2079,
      "▁varan": 2080,
      "▁direk": 2081,
      "▁karayolu": 2082,
      "▁tarihi": 2083,
      "▁ayak": 2084,
      "▁esk": 2085,
      "##45": 2086,
      "##ayım": 2087,
      "▁goz": 2088,
      "▁istiyor": 2089,
      "##esem": 2090,
      "##ciler": 2091,
      "▁kontr": 2092,
      "##aat": 2093,
      "▁guvenlik": 2094,
      "▁bazı": 2095,
      "▁secim": 2096,
      "##emiyor": 2097,
      "▁kab": 2098,
      "▁nas": 2099,
      "▁asl": 2100,
      "▁kisisel": 2101,
      "##timore": 2102,
      "▁tım": 2103,
      "▁hikay": 2104,
      "▁cin": 2105,
      "▁ulk": 2106,
      "▁ogleden": 2107,
      "##ate": 2108,
      "▁dum": 2109,
      "##imde": 2110,
      "▁mum": 2111,
      "▁bit": 2112,
      "##30": 2113,
      "▁miami": 2114,
      "▁tık": 2115,
      "##re": 2116,
      "▁%7.8": 2117,
      "##o'ya": 2118,
      "##abilir": 2119,
      "▁pır": 2120,
      "##eler": 2121,
      "▁otur": 2122,
      "▁fil": 2123,
      "▁kurumsal": 2124,
      "##usunu": 2125,
      "▁dısı": 2126,
      "▁%6.4": 2127,
      "▁uc": 2128,
      "▁can": 2129,
      "▁ulus": 2130,
      "##uyla": 2131,
      "▁yet": 2132,
      "▁sut": 2133,
      "▁degisiklik": 2134,
      "▁ref": 2135,
      "▁basına": 2136,
      "▁sınıf": 2137,
      "▁&": 2138,
      "##siniz": 2139,
      "##aydı": 2140,
      "▁pıtır": 2141,
      "▁rehber": 2142,
      "▁olcu": 2143,
      "##ugu": 2144,
      "▁sik": 2145,
      "##ese": 2146,
      "##ayet": 2147,
      "▁oner": 2148,
      "▁abd": 2149,
      "▁bazi": 2150,
      "▁ez": 2151,
      "▁ken": 2152,
      "▁normal": 2153,
      "##iv": 2154,
      "▁cay": 2155,
      "▁fay": 2156,
      "##sas": 2157,
      "##aber": 2158,
      "##alt": 2159,
      "▁yılı": 2160,
      "▁hemen": 2161,
      "▁cat": 2162,
      "##aki": 2163,
      "##yla": 2164,
      "▁hem": 2165,
      "##lay": 2166,
      "▁kapat": 2167,
      "##izi": 2168,
      "##ika": 2169,
      "▁ca": 2170,
      "##ecektir": 2171,
      "▁arka": 2172,
      "▁tah": 2173,
      "▁kazanc": 2174,
      "▁oteli": 2175,
      "##cisi": 2176,
      "▁meydan": 2177,
      "▁iddia": 2178,
      "##isleri": 2179,
      "##uyordu": 2180,
      "##dis": 2181,
      "##lendi": 2182,
      "▁%0.3": 2183,
      "▁petersburg": 2184,
      "▁dogru": 2185,
      "▁beyaz": 2186,
      "##manın": 2187,
      "▁diz": 2188,
      "▁baskanı": 2189,
      "▁26": 2190,
      "##undan": 2191,
      "▁test": 2192,
      "▁yans": 2193,
      "▁...": 2194,
      "##aba": 2195,
      "▁oldugum": 2196,
      "▁%9": 2197,
      "▁birer": 2198,
      "▁gelir": 2199,
      "##ot": 2200,
      "##sun": 2201,
      "##gıc": 2202,
      "##emi": 2203,
      "##indan": 2204,
      "▁insa": 2205,
      "▁endeksi": 2206,
      "▁sark": 2207,
      "▁parca": 2208,
      "##lerini": 2209,
      "▁nok": 2210,
      "▁corp.": 2211,
      "▁yerles": 2212,
      "##bir": 2213,
      "▁ip": 2214,
      "▁ruzgar": 2215,
      "##ans": 2216,
      "##iyi": 2217,
      "##ıyorlar": 2218,
      "##min": 2219,
      "##esinden": 2220,
      "▁islet": 2221,
      "▁yarı": 2222,
      "%": 2223,
      "▁devr": 2224,
      "##aları": 2225,
      "##sil": 2226,
      "▁newark": 2227,
      "▁montre": 2228,
      "▁ettiler": 2229,
      "▁sonra": 2230,
      "##ung": 2231,
      "##acak": 2232,
      "▁yonetim": 2233,
      "▁li": 2234,
      "▁anadolu": 2235,
      "▁ingiliz": 2236,
      "##per": 2237,
      "▁beraber": 2238,
      "##burg": 2239,
      "##rek": 2240,
      "##amaz": 2241,
      "▁ayrı": 2242,
      "▁gordu": 2243,
      "▁zamanlar": 2244,
      "▁kıy": 2245,
      "▁id": 2246,
      "▁org": 2247,
      "##cılar": 2248,
      "##ume": 2249,
      "##ecegi": 2250,
      "▁onceden": 2251,
      "##ro": 2252,
      "▁tahviller": 2253,
      "▁yuruy": 2254,
      "▁yerine": 2255,
      "▁17": 2256,
      "▁detroit": 2257,
      "##eyi": 2258,
      "▁begendim": 2259,
      "##agıt": 2260,
      "##'nin": 2261,
      "▁kadınlar": 2262,
      "8": 2263,
      "▁rec": 2264,
      "▁indianapolis": 2265,
      "##landır": 2266,
      "##bul": 2267,
      "▁lezzeti": 2268,
      "▁kad": 2269,
      "##anlık": 2270,
      "▁si": 2271,
      "▁sermaye": 2272,
      "▁cak": 2273,
      "▁%20": 2274,
      "▁atlanta'dan": 2275,
      "▁1.3": 2276,
      "##aca": 2277,
      "▁dolas": 2278,
      "▁yuksek": 2279,
      "##ab": 2280,
      "##alarını": 2281,
      "##inda": 2282,
      "##orm": 2283,
      "▁derg": 2284,
      "▁mez": 2285,
      "##-6": 2286,
      "▁futbol": 2287,
      "▁suc": 2288,
      "▁peters": 2289,
      "▁sevgil": 2290,
      "▁halk": 2291,
      "##embe": 2292,
      ">": 2293,
      "▁ogret": 2294,
      "▁var": 2295,
      "▁alt": 2296,
      "##onel": 2297,
      "▁otom": 2298,
      "##mey": 2299,
      "##kara": 2300,
      "▁man": 2301,
      "▁anal": 2302,
      "##enin": 2303,
      "##meler": 2304,
      "▁finans": 2305,
      "##ess": 2306,
      "▁cocuk": 2307,
      "▁asker": 2308,
      "▁zarar": 2309,
      "▁saldır": 2310,
      "▁franc": 2311,
      "▁gecti": 2312,
      "##ayan": 2313,
      "▁onumuzdeki": 2314,
      "▁ciddi": 2315,
      "##uyor": 2316,
      "##ihaz": 2317,
      "▁mıydı": 2318,
      "▁rest": 2319,
      "##uydu": 2320,
      "##ey": 2321,
      "▁charl": 2322,
      "##gur": 2323,
      "▁kapı": 2324,
      "▁francisco'dan": 2325,
      "▁yıl": 2326,
      "##ustur": 2327,
      "▁bilet": 2328,
      "▁siir": 2329,
      "▁amerik": 2330,
      "▁fir": 2331,
      "▁ozel": 2332,
      "[PAD]": 2333,
      "▁mes": 2334,
      "▁uzerine": 2335,
      "▁lazım": 2336,
      "▁pek": 2337,
      "##ecik": 2338,
      "▁kolay": 2339,
      "▁ener": 2340,
      "▁yuzde": 2341,
      "▁dag": 2342,
      "▁biz": 2343,
      "▁dolarlık": 2344,
      "▁1": 2345,
      "▁birim": 2346,
      "▁ede": 2347,
      "▁mavi": 2348,
      "▁gelip": 2349,
      "▁hol": 2350,
      "▁alan": 2351,
      "▁yem": 2352,
      "▁bilg": 2353,
      "▁eser": 2354,
      "▁sahib": 2355,
      "▁personel": 2356,
      "▁devam": 2357,
      "##inden": 2358,
      "▁neden": 2359,
      "##sem": 2360,
      "##ol": 2361,
      "▁..\"": 2362,
      "▁yatırımcılar": 2363,
      "##-23": 2364,
      "▁kıs": 2365,
      "##alan": 2366,
      "▁philadelphia": 2367,
      "▁ileri": 2368,
      "▁cinc": 2369,
      "▁dolar": 2370,
      "▁onun": 2371,
      "▁peyn": 2372,
      "##ut": 2373,
      "##afir": 2374,
      "▁fransız": 2375,
      "▁yılın": 2376,
      "▁has": 2377,
      "##ılım": 2378,
      "▁sovyet": 2379,
      "▁basar": 2380,
      "▁eglen": 2381,
      "▁pa": 2382,
      "##rem": 2383,
      "##lerle": 2384,
      "▁imkan": 2385,
      "##taj": 2386,
      "##istir": 2387,
      "##eh": 2388,
      "▁ziyaret": 2389,
      "##acag": 2390,
      "##elerin": 2391,
      "##g": 2392,
      "▁kil": 2393,
      "▁huk": 2394,
      "▁hiz": 2395,
      "▁mıy": 2396,
      "##lt": 2397,
      "▁bil": 2398,
      "##atır": 2399,
      "▁konak": 2400,
      "▁tef": 2401,
      "##tık": 2402,
      "##ılmıs": 2403,
      "▁dolardan": 2404,
      "##acagız": 2405,
      "▁dun": 2406,
      "▁ye": 2407,
      "▁oakland'dan": 2408,
      "▁birkac": 2409,
      "▁ses": 2410,
      "▁sonuc": 2411,
      "▁vadeli": 2412,
      "▁katıl": 2413,
      "▁basını": 2414,
      "▁tep": 2415,
      "▁re": 2416,
      "▁bizimle": 2417,
      "▁kırık": 2418,
      "▁makal": 2419,
      "##tım": 2420,
      "▁francisco": 2421,
      "▁kendisi": 2422,
      "##indeki": 2423,
      "▁'de": 2424,
      "##1-19": 2425,
      "▁ediyoruz": 2426,
      "##ıma": 2427,
      "▁guclu": 2428,
      "##leme": 2429,
      "▁misiniz": 2430,
      "▁takır": 2431,
      "▁mal": 2432,
      "##eb": 2433,
      "▁butun": 2434,
      "▁fiyatları": 2435,
      "##cak": 2436,
      "##mektedir": 2437,
      "##lestir": 2438,
      "##dıkları": 2439,
      "▁pittsburgh": 2440,
      "▁wash": 2441,
      "▁da": 2442,
      "##ri": 2443,
      "▁angel": 2444,
      "▁bunların": 2445,
      "▁lou": 2446,
      "▁yal": 2447,
      "▁soyler": 2448,
      "▁ıs": 2449,
      "▁yas": 2450,
      "▁petrol": 2451,
      "▁ucuz": 2452,
      "##arlan": 2453,
      "▁yag": 2454,
      "▁sıngır": 2455,
      "▁og": 2456,
      "▁oldugu": 2457,
      "▁bas": 2458,
      "##isi": 2459,
      "▁ker": 2460,
      "##abı": 2461,
      "▁uygul": 2462,
      "▁hakkında": 2463,
      "▁l": 2464,
      "▁adet": 2465,
      "▁civ": 2466,
      "▁kalite": 2467,
      "▁uf": 2468,
      "▁havayol": 2469,
      "▁durumda": 2470,
      "##x": 2471,
      "##gını": 2472,
      "▁%4.8": 2473,
      "▁yer": 2474,
      "▁yaklas": 2475,
      "▁dallas": 2476,
      "##lı": 2477,
      "##lli": 2478,
      "▁kot": 2479,
      "##ret": 2480,
      "▁mustafa": 2481,
      "▁dıs": 2482,
      "▁ol": 2483,
      "##hangi": 2484,
      "▁oldugunu": 2485,
      "▁karsiligini": 2486,
      "▁baba": 2487,
      "##larla": 2488,
      "▁sanat": 2489,
      "▁ul": 2490,
      "▁arasındaki": 2491,
      "▁cik": 2492,
      "##irmi": 2493,
      "▁s": 2494,
      "##edi": 2495,
      "▁oran": 2496,
      "▁pay": 2497,
      "##lerinden": 2498,
      "▁mek": 2499,
      "▁siyah": 2500,
      "##aturk": 2501,
      "▁allah": 2502,
      "▁mut": 2503,
      "▁haziran": 2504,
      "▁tay": 2505,
      "##ina": 2506,
      "▁sok": 2507,
      "▁mehmet": 2508,
      "9": 2509,
      "##ich": 2510,
      "▁yorgun": 2511,
      "▁kahv": 2512,
      "##enkul": 2513,
      "##kal": 2514,
      "▁diyor": 2515,
      "▁mec": 2516,
      "▁bagım": 2517,
      "▁pittsburgh'tan": 2518,
      "##ers": 2519,
      "▁din": 2520,
      "##\\/": 2521,
      "##las": 2522,
      "▁dis": 2523,
      "▁%7.7": 2524,
      "▁ancak": 2525,
      "▁tel": 2526,
      "▁198": 2527,
      "▁v": 2528,
      "▁kesin": 2529,
      "##ima": 2530,
      "##-": 2531,
      "▁pitt": 2532,
      "▁dan": 2533,
      "##lendir": 2534,
      "▁mali": 2535,
      "▁dem": 2536,
      "▁ucus": 2537,
      "##enk": 2538,
      "▁bilgis": 2539,
      "##ala": 2540,
      "▁san": 2541,
      ")": 2542,
      "##adi": 2543,
      "▁deg": 2544,
      "##det": 2545,
      "▁pitts": 2546,
      "▁hizmet": 2547,
      "##rub": 2548,
      "##dav": 2549,
      "▁20": 2550,
      "▁mol": 2551,
      "▁yaklasık": 2552,
      "▁kopek": 2553,
      "▁ziy": 2554,
      "##acılar": 2555,
      "▁kalan": 2556,
      "##im": 2557,
      "▁dedim": 2558,
      "▁koc": 2559,
      "##ıp": 2560,
      "##qu": 2561,
      "##iligi": 2562,
      "##0000": 2563,
      "▁mıs": 2564,
      "▁1.8": 2565,
      "▁kası": 2566,
      "▁sirket": 2567,
      "##ımı": 2568,
      "##di": 2569,
      "▁olum": 2570,
      "▁gosteriyor": 2571,
      "▁kendisine": 2572,
      "##ost": 2573,
      "▁kabul": 2574,
      "▁bugun": 2575,
      "▁baglı": 2576,
      "##ayi": 2577,
      "▁gum": 2578,
      "▁89-": 2579,
      "##.5": 2580,
      "##d": 2581,
      "▁lez": 2582,
      "▁...\"": 2583,
      "▁teklif": 2584,
      "##ıc": 2585,
      "▁kapas": 2586,
      "▁vakit": 2587,
      "##op": 2588,
      "##ha": 2589,
      "▁deney": 2590,
      "##ip": 2591,
      "-": 2592,
      "▁sozles": 2593,
      "▁yavas": 2594,
      "▁dalg": 2595,
      "▁onc": 2596,
      "##uh": 2597,
      "▁uluslararası": 2598,
      "▁tiyat": 2599,
      "##atur": 2600,
      "▁kalp": 2601,
      "##uk": 2602,
      "\\": 2603,
      "▁kotu": 2604,
      "▁patır": 2605,
      "##'nda": 2606,
      "▁co.": 2607,
      "▁yonelik": 2608,
      "▁kimse": 2609,
      "▁23": 2610,
      "▁fiyatı": 2611,
      "1": 2612,
      "##lım": 2613,
      "##’": 2614,
      "##ac": 2615,
      "▁birin": 2616,
      "▁cevr": 2617,
      "##tıg": 2618,
      "▁a.": 2619,
      "▁par": 2620,
      "##ince": 2621,
      "▁sona": 2622,
      "▁acıklan": 2623,
      "▁pis": 2624,
      "##ng": 2625,
      "▁ortalama": 2626,
      "##ak": 2627,
      "▁uygun": 2628,
      "▁kırm": 2629,
      "##af": 2630,
      "▁hav": 2631,
      "▁sosyal": 2632,
      "▁kurul": 2633,
      "##mak": 2634,
      "##une": 2635,
      "##p": 2636,
      "▁hizmetleri": 2637,
      "▁milyon": 2638,
      "▁herkes": 2639,
      "##dal": 2640,
      "##–": 2641,
      "▁senet": 2642,
      "▁danıs": 2643,
      "##nek": 2644,
      "▁destek": 2645,
      "▁city'e": 2646,
      "▁mun": 2647,
      "▁harıl": 2648,
      "▁kurum": 2649,
      "▁kapsam": 2650,
      "▁tatlı": 2651,
      "##edir": 2652,
      "▁iht": 2653,
      "▁arz": 2654,
      "▁fab": 2655,
      "##ya'nın": 2656,
      "▁philadelphia'dan": 2657,
      "▁%2.7": 2658,
      "##ton": 2659,
      "▁ten": 2660,
      "##ından": 2661,
      "##esel": 2662,
      "▁45": 2663,
      "▁ilisk": 2664,
      "▁yi": 2665,
      "▁uzerinde": 2666,
      "##.9": 2667,
      "▁ren": 2668,
      "▁merdi": 2669,
      "▁paz": 2670,
      "##me": 2671,
      "##alarına": 2672,
      "▁yumus": 2673,
      "▁icecek": 2674,
      "▁oteldi": 2675,
      "##'y": 2676,
      "##ogram": 2677,
      "y": 2678,
      "##iyet": 2679,
      "▁ihrac": 2680,
      "##meyi": 2681,
      "▁hos": 2682,
      "▁cor": 2683,
      "▁orlando'ya": 2684,
      "##unda": 2685,
      "##ıy": 2686,
      "▁gerceklestir": 2687,
      "▁yabancı": 2688,
      "▁rapor": 2689,
      "▁ben": 2690,
      "##wa": 2691,
      "▁kalkan": 2692,
      "▁mucadel": 2693,
      "▁goruyor": 2694,
      "▁hele": 2695,
      "▁tarif": 2696,
      "▁genel": 2697,
      "▁mas": 2698,
      "##dız": 2699,
      "▁,": 2700,
      "▁kız": 2701,
      "▁yerde": 2702,
      "▁kaz": 2703,
      "##oc": 2704,
      "▁evet": 2705,
      "##ecegini": 2706,
      "▁polit": 2707,
      "▁renk": 2708,
      "##ınız": 2709,
      "▁dek": 2710,
      "##nız": 2711,
      "▁1/2": 2712,
      "##egin": 2713,
      "▁dil": 2714,
      "##ekli": 2715,
      "##isim": 2716,
      "##eral": 2717,
      "▁insan": 2718,
      "##aması": 2719,
      "▁?": 2720,
      "##ilecek": 2721,
      "##ması": 2722,
      "##urlu": 2723,
      "##elerinin": 2724,
      "▁kırmızı": 2725,
      "▁olan": 2726,
      "▁ates": 2727,
      "▁gosterdi": 2728,
      "▁duvar": 2729,
      "▁hedef": 2730,
      "▁getir": 2731,
      "##asından": 2732,
      "▁sikayet": 2733,
      "##cilik": 2734,
      "▁asırı": 2735,
      "##oeni": 2736,
      "▁rad": 2737,
      "▁amerikan": 2738,
      "##inde": 2739,
      "▁kims": 2740,
      "▁televizyon": 2741,
      "▁sordu": 2742,
      "##ali": 2743,
      "##misti": 2744,
      "▁200": 2745,
      "##iyorum": 2746,
      "▁gozleri": 2747,
      "▁dieg": 2748,
      "▁sas": 2749,
      "▁farklı": 2750,
      "▁duserek": 2751,
      "▁%6": 2752,
      "▁mi": 2753,
      "▁malz": 2754,
      "##mıs": 2755,
      "▁coc": 2756,
      "▁rezervasyon": 2757,
      "▁yuzme": 2758,
      "▁ide": 2759,
      "▁fin": 2760,
      "▁cesitli": 2761,
      "##ısız": 2762,
      "▁zor": 2763,
      "##nun": 2764,
      "##ran": 2765,
      "##isco": 2766,
      "▁bizi": 2767,
      "▁haldır": 2768,
      "##ardı": 2769,
      "▁uzerinden": 2770,
      "▁yuzunden": 2771,
      "##ire": 2772,
      "▁ug": 2773,
      "##uyorum": 2774,
      "▁yıldız": 2775,
      "▁etm": 2776,
      "▁yemek": 2777,
      "▁ana": 2778,
      "▁baskı": 2779,
      "▁elbet": 2780,
      "▁kemal": 2781,
      "▁yardımcı": 2782,
      "▁1987": 2783,
      "▁lı": 2784,
      "▁bilgi": 2785,
      "##elerinde": 2786,
      "e": 2787,
      "▁gid": 2788,
      "▁efendi": 2789,
      "▁lo": 2790,
      "▁haft": 2791,
      "▁kıyas": 2792,
      "▁chicag": 2793,
      "▁tu": 2794,
      "##diler": 2795,
      "▁yeni": 2796,
      "▁konut": 2797,
      "##ındaki": 2798,
      "▁an": 2799,
      "▁maliyet": 2800,
      "—": 2801,
      "##gru": 2802,
      "▁kalkıp": 2803,
      "##ib": 2804,
      "##ırt": 2805,
      "▁hadi": 2806,
      "##a": 2807,
      "##rak": 2808,
      "##on": 2809,
      "▁mev": 2810,
      "▁kendileri": 2811,
      "▁vad": 2812,
      "▁sikin": 2813,
      "▁kongre": 2814,
      "##'da": 2815,
      "▁acı": 2816,
      "▁seyi": 2817,
      "##ıkır": 2818,
      "##'e": 2819,
      "##iya": 2820,
      "▁mecl": 2821,
      "##ene": 2822,
      "##dık": 2823,
      "##dıktan": 2824,
      "▁cid": 2825,
      "##​": 2826,
      "▁york": 2827,
      "▁belki": 2828,
      "▁res": 2829,
      "▁tesisin": 2830,
      "▁corp": 2831,
      "▁heyecan": 2832,
      "##sk": 2833,
      "##ama": 2834,
      "##dog": 2835,
      "▁tesis": 2836,
      "##ılıgı": 2837,
      "▁kendine": 2838,
      "▁yıllar": 2839,
      "▁nokta": 2840,
      "▁geldi": 2841,
      "▁ortak": 2842,
      "▁her": 2843,
      "▁mag": 2844,
      "▁ucuslarını": 2845,
      "##unc": 2846,
      "▁ot": 2847,
      "▁yanı": 2848,
      "▁34": 2849,
      "##roit": 2850,
      "▁am": 2851,
      "▁halde": 2852,
      "▁benden": 2853,
      "▁gozlerini": 2854,
      "▁aileler": 2855,
      "##ee": 2856,
      "##tılı": 2857,
      "##dın": 2858,
      "▁dava": 2859,
      "##ede": 2860,
      "▁%4": 2861,
      "w": 2862,
      "##net": 2863,
      "##art": 2864,
      "▁dog": 2865,
      "▁olanak": 2866,
      "##q": 2867,
      "▁ist": 2868,
      "▁ustune": 2869,
      "▁olabilir": 2870,
      "▁attı": 2871,
      "▁benzer": 2872,
      "▁bar": 2873,
      "##esiyle": 2874,
      "▁ilet": 2875,
      "▁konumu": 2876,
      "##tim": 2877,
      "▁insanların": 2878,
      "▁fas": 2879,
      "##adel": 2880,
      "▁str": 2881,
      "▁kalma": 2882,
      "##lıgın": 2883,
      "▁agır": 2884,
      "##edef": 2885,
      "##emem": 2886,
      "▁kon": 2887,
      "▁airlines": 2888,
      "##+": 2889,
      "##ıg": 2890,
      "▁organ": 2891,
      "▁mart": 2892,
      "▁b": 2893,
      "▁kere": 2894,
      "##nin": 2895,
      "▁hay": 2896,
      "▁eden": 2897,
      "##umu": 2898,
      "▁le": 2899,
      "▁katkı": 2900,
      "▁yolc": 2901,
      "▁suy": 2902,
      "▁300": 2903,
      "▁pazar": 2904,
      "##yet": 2905,
      "##anbul": 2906,
      "▁1991-19": 2907,
      "▁27": 2908,
      "##ont": 2909,
      "▁cıktı": 2910,
      "##ukee": 2911,
      "+": 2912,
      ";": 2913,
      "▁%25": 2914,
      "▁yukarı": 2915,
      "!": 2916,
      "▁bed": 2917,
      "▁sus": 2918,
      "▁hatta": 2919,
      "▁wall": 2920,
      "▁kaldı": 2921,
      "▁katil": 2922,
      "##%": 2923,
      "▁temiz": 2924,
      "▁sup": 2925,
      "▁salon": 2926,
      "##lass": 2927,
      "▁onları": 2928,
      "▁ge": 2929,
      "▁hastan": 2930,
      "▁olmasi": 2931,
      "##isten": 2932,
      "##tur": 2933,
      "##lardan": 2934,
      "▁mesel": 2935,
      "##digim": 2936,
      "##baren": 2937,
      "▁gider": 2938,
      "▁bos": 2939,
      "▁%30": 2940,
      "▁ar": 2941,
      "▁sap": 2942,
      "##mis": 2943,
      "▁oper": 2944,
      "▁gen": 2945,
      "▁havalim": 2946,
      "##ent": 2947,
      "##ef": 2948,
      "▁em": 2949,
      "##sik": 2950,
      "##abilecek": 2951,
      "▁part": 2952,
      "▁aktarmasız": 2953,
      "▁neredeyse": 2954,
      "▁memphis": 2955,
      "##.3": 2956,
      "▁erken": 2957,
      "##etin": 2958,
      "▁tarih": 2959,
      "▁ediyorum": 2960,
      "▁calısıyor": 2961,
      "▁amerika": 2962,
      "▁sur": 2963,
      "##itt": 2964,
      "▁yık": 2965,
      "▁ait": 2966,
      "▁--": 2967,
      "x": 2968,
      "▁mur": 2969,
      "▁kayıp": 2970,
      "##isler": 2971,
      "▁olma": 2972,
      "▁gayet": 2973,
      "▁muhtesem": 2974,
      "▁kontrol": 2975,
      "▁hala": 2976,
      "▁gir": 2977,
      "▁arası": 2978,
      "▁etraf": 2979,
      "▁gorunuyor": 2980,
      "▁yarım": 2981,
      "▁1\\/": 2982,
      "▁insanlar": 2983,
      "▁tampa": 2984,
      "##de": 2985,
      "##dak": 2986,
      "▁musun": 2987,
      "▁sana": 2988,
      "##ile": 2989,
      "▁isaret": 2990,
      "▁kalmıs": 2991,
      "##u": 2992,
      "▁kullan": 2993,
      "▁vermek": 2994,
      "▁hangi": 2995,
      "##.8": 2996,
      "##enek": 2997,
      "▁'nin": 2998,
      "▁sul": 2999,
      "▁senedi": 3000,
      "##ende": 3001,
      "▁rast": 3002,
      "▁karıs": 3003,
      "##alap": 3004,
      "##imiz": 3005,
      "▁satım": 3006,
      "▁angeles": 3007,
      "##meleri": 3008,
      "▁eylem": 3009,
      "▁evvel": 3010,
      "##gu": 3011,
      "##asa": 3012,
      "▁beye": 3013,
      "##eleri": 3014,
      "##liyor": 3015,
      "m": 3016,
      "▁bek": 3017,
      "##ılık": 3018,
      "▁anlat": 3019,
      "▁dobra": 3020,
      "▁ode": 3021,
      "▁don": 3022,
      "##ırak": 3023,
      "▁gunluk": 3024,
      "▁oak": 3025,
      "▁karsıl": 3026,
      "▁sa": 3027,
      "▁vardır": 3028,
      "##maları": 3029,
      "▁bogaz": 3030,
      "▁demir": 3031,
      "##ere": 3032,
      "▁hik": 3033,
      "▁aj": 3034,
      "j": 3035,
      "▁5": 3036,
      "▁olacak": 3037,
      "▁ac": 3038,
      "##aydi": 3039,
      "▁herk": 3040,
      "##osy": 3041,
      "##'s": 3042,
      "▁orada": 3043,
      "▁risk": 3044,
      "▁bo": 3045,
      "##ayıp": 3046,
      "##lemek": 3047,
      "▁et": 3048,
      "▁parmak": 3049,
      "▁(": 3050,
      "▁sak": 3051,
      "▁rol": 3052,
      "▁turk": 3053,
      "##'i": 3054,
      "##unun": 3055,
      "##ize": 3056,
      "▁ed": 3057,
      "▁cic": 3058,
      "##ec": 3059,
      "▁sorunu": 3060,
      "##urdu": 3061,
      "▁muzik": 3062,
      "▁is": 3063,
      "▁.\"": 3064,
      "▁borc": 3065,
      "▁sev": 3066,
      "▁kay": 3067,
      "▁st": 3068,
      "▁60": 3069,
      "##lerinde": 3070,
      "##ladık": 3071,
      "##mel": 3072,
      "▁pat": 3073,
      "##mıslar": 3074,
      "##gi": 3075,
      "▁cumhur": 3076,
      "▁durum": 3077,
      "▁yemekleri": 3078,
      "▁olay": 3079,
      "▁sosy": 3080,
      "##0.": 3081,
      "##ebi": 3082,
      "▁odaydi": 3083,
      "▁yasak": 3084,
      "##ılacak": 3085,
      "##'de": 3086,
      "▁dallas'a": 3087,
      "##ısıl": 3088,
      "##and": 3089,
      "▁bildirdi": 3090,
      "##ını": 3091,
      "##mesi": 3092,
      "▁beydi": 3093,
      "▁:": 3094,
      "##id": 3095,
      "##alarında": 3096,
      "▁uzerindeki": 3097,
      "##dur": 3098,
      "▁or": 3099,
      "▁%0.2": 3100,
      "▁misafir": 3101,
      "▁yaptıgı": 3102,
      "▁er": 3103,
      "##yen": 3104,
      "▁gizli": 3105,
      "▁havuz": 3106,
      "##.7": 3107,
      "##4": 3108,
      "##ne": 3109,
      "▁ef": 3110,
      "▁askeri": 3111,
      "▁ep": 3112,
      "▁milwaukee": 3113,
      "▁bakıs": 3114,
      "##imin": 3115,
      "▁yeter": 3116,
      "▁menkul": 3117,
      "▁kucuktu": 3118,
      "▁girdi": 3119,
      "▁tuc": 3120,
      "▁fık": 3121,
      "▁%18": 3122,
      "▁vucu": 3123,
      "▁uret": 3124,
      "▁haf": 3125,
      "##unca": 3126,
      "▁bolum": 3127,
      "▁oldugun": 3128,
      "▁for": 3129,
      "▁eks": 3130,
      "▁yatak": 3131,
      "▁oldukca": 3132,
      "##for": 3133,
      "▁eger": 3134,
      "▁nakit": 3135,
      "▁": 3136,
      "▁sh": 3137,
      "▁min": 3138,
      "▁edecek": 3139,
      "#": 3140,
      "▁do": 3141,
      "##:00-22:30": 3142,
      "▁baslamıs": 3143,
      "▁jones": 3144,
      "##eg": 3145,
      "▁yiy": 3146,
      "▁kurulu": 3147,
      "▁fut": 3148,
      "▁$": 3149,
      "##igini": 3150,
      "▁dolay": 3151,
      "▁gaz": 3152,
      "▁ter": 3153,
      "##abil": 3154,
      "▁kost": 3155,
      "##ya'da": 3156,
      "▁mot": 3157,
      "##lam": 3158,
      "##6": 3159,
      "##istan": 3160,
      "▁kus": 3161,
      "▁tefek": 3162,
      "▁faz": 3163,
      "▁buz": 3164,
      "▁vegas": 3165,
      "▁degiller": 3166,
      "▁laf": 3167,
      "▁yoktu": 3168,
      "▁ona": 3169,
      "##ebilir": 3170,
      "##.25": 3171,
      "▁milli": 3172,
      "▁gi": 3173,
      "▁merak": 3174,
      "▁bulundu": 3175,
      "▁mukemmeldi": 3176,
      "▁hayat": 3177,
      "##lak": 3178,
      "##den": 3179,
      "▁gereken": 3180,
      "▁kısa": 3181,
      "##ver": 3182,
      "##i": 3183,
      "▁tekrar": 3184,
      "##medim": 3185,
      "##ların": 3186,
      "##uz": 3187,
      "g": 3188,
      "##..": 3189,
      "▁kel": 3190,
      "▁us": 3191,
      "▁seni": 3192,
      "▁sipar": 3193,
      "##lıgı": 3194,
      "##:": 3195,
      "▁hazine": 3196,
      "▁ici": 3197,
      "▁ta": 3198,
      "##obil": 3199,
      "▁gorus": 3200,
      "##tere": 3201,
      "##ıng": 3202,
      "▁gosterin": 3203,
      "▁calısma": 3204,
      "##'ten": 3205,
      "▁beklem": 3206,
      "##amız": 3207,
      "▁bab": 3208,
      "▁bir": 3209,
      "▁gercekten": 3210,
      "▁ufak": 3211,
      "▁onların": 3212,
      "▁olsa": 3213,
      "##kur": 3214,
      "##v": 3215,
      "▁edi": 3216,
      "##sam": 3217,
      "▁personelleri": 3218,
      "▁il": 3219,
      "▁yazar": 3220,
      "▁onemli": 3221,
      "##rim": 3222,
      "##tadır": 3223,
      "##ih": 3224,
      "▁ister": 3225,
      "▁yahut": 3226,
      "##enler": 3227,
      "##usu": 3228,
      "##ation": 3229,
      "▁kıymet": 3230,
      "▁'": 3231,
      "##dır": 3232,
      "▁gide": 3233,
      "▁ekonomik": 3234,
      "##leyen": 3235,
      "▁yen": 3236,
      "##utur": 3237,
      "##ilmis": 3238,
      "▁tuket": 3239,
      "▁endeks": 3240,
      "##imizi": 3241,
      "▁incel": 3242,
      "▁puf": 3243,
      "▁gur": 3244,
      "▁ucusları": 3245,
      "##lilik": 3246,
      "▁ucuyor": 3247,
      "▁hepsin": 3248,
      "##19": 3249,
      "▁gecen": 3250,
      "▁agac": 3251,
      "▁borsa": 3252,
      "▁sabit": 3253,
      "▁odamiz": 3254,
      "▁havaalanı": 3255,
      "▁tuttu": 3256,
      "▁soz": 3257,
      "##ph": 3258,
      "▁kurtul": 3259,
      "▁ilac": 3260,
      "▁orland": 3261,
      "▁sol": 3262,
      "▁dikkat": 3263,
      "▁dunyanın": 3264,
      "▁kimi": 3265,
      "▁ban": 3266,
      "▁persembe": 3267,
      "▁ag": 3268,
      "▁tav": 3269,
      "##'yi": 3270,
      "▁22-23": 3271,
      "##meden": 3272,
      "▁sadece": 3273,
      "▁dusun": 3274,
      "▁artarak": 3275,
      "▁ila": 3276,
      "##lılık": 3277,
      "##f": 3278,
      "▁yılında": 3279,
      "##10": 3280,
      "▁olup": 3281,
      "▁gidis": 3282,
      "##ates": 3283,
      "▁olursa": 3284,
      "▁yılda": 3285,
      "▁itir": 3286,
      "##detti": 3287,
      "▁gitt": 3288,
      "▁21": 3289,
      "▁cey": 3290,
      "▁alabilir": 3291,
      "▁ney": 3292,
      "▁denver'e": 3293,
      "▁yetkil": 3294,
      "▁veren": 3295,
      "▁cok": 3296,
      "##sın": 3297,
      "##unu": 3298,
      "##encer": 3299,
      "▁tec": 3300,
      "▁sor": 3301,
      "▁mevcut": 3302,
      "▁didik": 3303,
      "##iyak": 3304,
      "##/": 3305,
      "▁ederek": 3306,
      "##asız": 3307,
      "▁gog": 3308,
      "▁saray": 3309,
      "##lası": 3310,
      "▁ozgur": 3311,
      "▁doktor": 3312,
      "▁fingir": 3313,
      "▁%3.5": 3314,
      "▁af": 3315,
      "▁r": 3316,
      "▁tek": 3317,
      "▁mad": 3318,
      "▁cab": 3319,
      "▁haz": 3320,
      "▁halinde": 3321,
      "▁ettik": 3322,
      "▁36": 3323,
      "▁dair": 3324,
      "##kır": 3325,
      "▁kitap": 3326,
      "##ediye": 3327,
      "▁ya": 3328,
      "▁kong": 3329,
      "▁ceb": 3330,
      "##cileri": 3331,
      "▁gece": 3332,
      "##2": 3333,
      "##tik": 3334,
      "▁kez": 3335,
      "##n": 3336,
      "##zet": 3337,
      "##siy": 3338,
      "▁degil": 3339,
      "##.": 3340,
      "##est": 3341,
      "##istik": 3342,
      "▁soyle": 3343,
      "##luluk": 3344,
      "▁fıkı": 3345,
      "▁kam": 3346,
      "▁gercekles": 3347,
      "▁boyle": 3348,
      "▁kan": 3349,
      "▁ekim": 3350,
      "▁dak": 3351,
      "▁sag": 3352,
      "##land": 3353,
      "▁cıkan": 3354,
      "▁nedeniyle": 3355,
      "▁hazır": 3356,
      "(": 3357,
      "##5": 3358,
      "▁denize": 3359,
      "▁%27": 3360,
      "##endir": 3361,
      "##larını": 3362,
      "▁yagmur": 3363,
      "▁kop": 3364,
      "▁americ": 3365,
      "##agı": 3366,
      "▁olmadıgını": 3367,
      "▁bilir": 3368,
      "##iydi": 3369,
      "▁yay": 3370,
      "▁herhangi": 3371,
      "##ir": 3372,
      "▁fatur": 3373,
      "▁etti": 3374,
      "▁ard": 3375,
      "##eviz": 3376,
      "▁inc": 3377,
      "▁bakan": 3378,
      "▁hızlı": 3379,
      "##gec": 3380,
      "##aliydi": 3381,
      "##32": 3382,
      "▁kendime": 3383,
      "▁yor": 3384,
      "▁kalitesi": 3385,
      "▁baltimore'den": 3386,
      "▁fena": 3387,
      "▁arttı": 3388,
      "##-4": 3389,
      "▁kuzey": 3390,
      "▁temmuz": 3391,
      "##dıgında": 3392,
      "##maz": 3393,
      "▁muhtem": 3394,
      "##ev": 3395,
      "▁haval": 3396,
      "▁sabah": 3397,
      "▁yiyecek": 3398,
      "▁sam": 3399,
      "▁be": 3400,
      "##iski": 3401,
      "▁talep": 3402,
      "▁ragmen": 3403,
      "##iddet": 3404,
      "▁numar": 3405,
      "▁olduk": 3406,
      "▁tabii": 3407,
      "▁city": 3408,
      "▁gene": 3409,
      "##taki": 3410,
      "##=": 3411,
      "##ayol": 3412,
      "▁gem": 3413,
      "##ladı": 3414,
      "▁bası": 3415,
      "▁elektrik": 3416,
      "##cu": 3417,
      "▁kol": 3418,
      "##7": 3419,
      "▁adeta": 3420,
      "▁sebep": 3421,
      "▁hukum": 3422,
      "▁biles": 3423,
      "##rı": 3424,
      "##'yı": 3425,
      "▁super": 3426,
      "##ly": 3427,
      "##ilerini": 3428,
      "4": 3429,
      "▁%17": 3430,
      "▁kayı": 3431,
      "##h": 3432,
      "##inci": 3433,
      "▁ikinci": 3434,
      "▁bahc": 3435,
      "▁mil": 3436,
      "▁gay": 3437,
      "##erken": 3438,
      "▁iy": 3439,
      "▁guney": 3440,
      "▁iler": 3441,
      "▁karsın": 3442,
      "##umuz": 3443,
      "▁cen": 3444,
      "▁5-1": 3445,
      "▁baslan": 3446,
      "▁intern": 3447,
      "▁kusur": 3448,
      "##anlar": 3449,
      "7": 3450,
      "▁dolu": 3451,
      "▁program": 3452,
      "▁film": 3453,
      "##(": 3454,
      "▁tip": 3455,
      "▁ilgi": 3456,
      "▁phil": 3457,
      "▁yuv": 3458,
      "▁kendim": 3459,
      "▁havuzu": 3460,
      "##lim": 3461,
      "##inn": 3462,
      "▁rek": 3463,
      "▁sıcak": 3464,
      "##onu": 3465,
      "▁nerede": 3466,
      "▁parc": 3467,
      "▁telefon": 3468,
      "▁emek": 3469,
      "##amıyor": 3470,
      "▁galib": 3471,
      "##mini": 3472,
      "[MASK]": 3473,
      "▁ayakk": 3474,
      "▁seattle'ye": 3475,
      "##ob": 3476,
      "▁ustunde": 3477,
      "##ental": 3478,
      "▁kis": 3479,
      "▁ailelere": 3480,
      "▁fakat": 3481,
      "▁gul": 3482,
      "▁boston'dan": 3483,
      "▁kamu": 3484,
      "▁%3": 3485,
      "▁yonet": 3486,
      "▁-": 3487,
      "▁cal": 3488,
      "▁elektr": 3489,
      "▁yaptirdi": 3490,
      "▁seyden": 3491,
      "▁bak": 3492,
      "##udu": 3493,
      "▁miyim": 3494,
      "▁bolg": 3495,
      "▁baltimore": 3496,
      "▁memnun": 3497,
      "▁fokur": 3498,
      "▁uzan": 3499,
      "##alara": 3500,
      "▁emin": 3501,
      "##gul": 3502,
      "▁tor": 3503,
      "?": 3504,
      "▁surekli": 3505,
      "▁gordum": 3506,
      "▁''": 3507,
      "▁sal": 3508,
      "##medi": 3509,
      "▁servis": 3510,
      "▁elinde": 3511,
      "▁day": 3512,
      "i": 3513,
      "▁i": 3514,
      "▁american": 3515,
      "##ısının": 3516,
      "##ren": 3517,
      "▁soh": 3518,
      "▁ydu": 3519,
      "▁urun": 3520,
      "▁reklam": 3521,
      "##ter": 3522,
      "##iforn": 3523,
      "▁class": 3524,
      "##od": 3525,
      "▁erkek": 3526,
      "▁gunku": 3527,
      "▁kaliforn": 3528,
      "▁biliyor": 3529,
      "##tr": 3530,
      "##ast": 3531,
      "▁memleket": 3532,
      "▁sahn": 3533,
      "▁dos": 3534,
      "▁sasır": 3535,
      "▁ber": 3536,
      "▁beri": 3537,
      "▁fik": 3538,
      "▁azdi": 3539,
      "▁hafif": 3540,
      "##az": 3541,
      "▁per": 3542,
      "▁ogle": 3543,
      "▁ucusu": 3544,
      "_": 3545,
      "▁kar": 3546,
      "▁fel": 3547,
      "▁desik": 3548,
      "##meyen": 3549,
      "s": 3550,
      "▁olmak": 3551,
      "▁!": 3552,
      "▁tutar": 3553,
      "▁cıkar": 3554,
      "▁dusunuyor": 3555,
      "▁mı": 3556,
      "▁…": 3557,
      "▁om": 3558,
      "##ez": 3559,
      "▁toplum": 3560,
      "##arak": 3561,
      "▁bulunuyor": 3562,
      "##gında": 3563,
      "##fa": 3564,
      "▁bey": 3565,
      "▁buyuk": 3566,
      "▁uz": 3567,
      "▁tam": 3568,
      "▁street": 3569,
      "##ig": 3570,
      "▁proj": 3571,
      "▁kahve": 3572,
      "▁zayıf": 3573,
      "▁boz": 3574,
      "▁karar": 3575,
      "▁1\\/2": 3576,
      "▁degistir": 3577,
      "▁feder": 3578,
      "##gah": 3579,
      "▁seatt": 3580,
      "▁rezerv": 3581,
      "▁memur": 3582,
      "f": 3583,
      "▁degilim": 3584,
      "▁bahs": 3585,
      "▁acık": 3586,
      "▁olur": 3587,
      "▁kendilerini": 3588,
      "##tar": 3589,
      "▁sigorta": 3590,
      "▁pac": 3591,
      "▁gibi": 3592,
      "▁guleryuzlu": 3593,
      "▁dir": 3594,
      "##madim": 3595,
      "▁ediyor": 3596,
      "##oy": 3597,
      "▁cincinnati": 3598,
      "▁davet": 3599,
      "▁lar": 3600,
      "▁gec": 3601,
      "##idik": 3602,
      "▁calıs": 3603,
      "##abet": 3604,
      "▁los": 3605,
      "▁1989-8": 3606,
      "##ligi": 3607,
      "▁demokr": 3608,
      "▁davran": 3609,
      "##mustu": 3610,
      "▁hasır": 3611,
      "▁haber": 3612,
      "▁kulak": 3613,
      "##ul": 3614,
      "##maktadır": 3615,
      "##pan": 3616,
      "##ısını": 3617,
      "▁kendini": 3618,
      "▁havayolu": 3619,
      "▁amac": 3620,
      "▁sigort": 3621,
      "##eyen": 3622,
      "▁altına": 3623,
      "▁yuzu": 3624,
      "▁44": 3625,
      "##ileri": 3626,
      "▁gorur": 3627,
      "▁bost": 3628,
      "▁actı": 3629,
      "\"": 3630,
      "▁ho": 3631,
      "▁yalnız": 3632,
      "##na": 3633,
      "▁memph": 3634,
      "a": 3635,
      "##pa": 3636,
      "##ata": 3637,
      "▁oyn": 3638,
      "▁gore": 3639,
      "##ler": 3640,
      "▁cont": 3641,
      "##siye": 3642,
      "▁ham": 3643,
      "▁hepsini": 3644,
      "▁fing": 3645,
      "##an": 3646,
      "▁guleryuzluydu": 3647,
      "▁takım": 3648,
      "##ilig": 3649,
      "##uyu": 3650,
      "##tıgını": 3651,
      "##elerine": 3652,
      "▁dusman": 3653,
      "##gmen": 3654,
      "▁ilgisiz": 3655,
      "▁m": 3656,
      "##o'nun": 3657,
      "▁cır": 3658,
      "##“": 3659,
      "▁tuz": 3660,
      "##lıg": 3661,
      "##yon": 3662,
      "##lari": 3663,
      "▁soylen": 3664,
      "##lanmıs": 3665,
      "[UNK]": 3666,
      "▁uzun": 3667,
      "▁politik": 3668,
      "▁yazı": 3669,
      "##leb": 3670,
      "▁konusunda": 3671,
      "▁ile": 3672,
      "##he": 3673,
      "##ayıf": 3674,
      "▁kansas": 3675,
      "##kel": 3676,
      "##adar": 3677,
      "##arlar": 3678,
      "##elerden": 3679,
      "##ori": 3680,
      "▁ucrete": 3681,
      "▁sef": 3682,
      "##cok": 3683,
      "▁univ": 3684,
      "▁ig": 3685,
      "▁verilen": 3686,
      "▁dc": 3687,
      "▁ve": 3688,
      "▁hesap": 3689,
      "▁begen": 3690,
      "▁bence": 3691,
      "▁bog": 3692,
      "▁vur": 3693,
      "▁sart": 3694,
      "##digimiz": 3695,
      "▁kasım": 3696,
      "##mesine": 3697,
      "▁elestir": 3698,
      "▁ocak": 3699,
      "▁cil": 3700,
      "##iyordu": 3701,
      "▁olmus": 3702,
      "▁lezzet": 3703,
      "##ise": 3704,
      "▁/": 3705,
      "▁yemeklerinden": 3706,
      "▁kazan": 3707,
      "6": 3708,
      "▁yapılacak": 3709,
      "▁oldur": 3710,
      "##emiz": 3711,
      "▁varlık": 3712,
      "▁egitim": 3713,
      "##ının": 3714,
      "▁%0": 3715,
      "▁g": 3716,
      "▁otel": 3717,
      "##or": 3718,
      "▁hatır": 3719,
      "▁duz": 3720,
      "##ba": 3721,
      "##asına": 3722,
      "##asyon": 3723,
      "▁alıs": 3724,
      "##eti": 3725,
      "▁yanında": 3726,
      "##bu": 3727,
      "##iler": 3728,
      "▁hepimiz": 3729,
      "▁tes": 3730,
      "▁lis": 3731,
      "##len": 3732,
      "▁istiyorum": 3733,
      "##yuz": 3734,
      "▁50": 3735,
      "##medigini": 3736,
      "▁gercek": 3737,
      "▁bana": 3738,
      "▁boyunca": 3739,
      "▁cıl": 3740,
      "##iri": 3741,
      "##.1": 3742,
      "##anlı": 3743,
      "##landı": 3744,
      "##ladım": 3745,
      "▁ic": 3746,
      "##gumuz": 3747,
      "##enc": 3748,
      "▁batı": 3749,
      "▁bur": 3750,
      "▁hukuk": 3751,
      "▁kapandı": 3752,
      "▁gerekiyor": 3753,
      "▁kalmadim": 3754,
      "▁nash": 3755,
      "▁ydi": 3756,
      "▁itibar": 3757,
      "▁bol": 3758,
      "▁sahip": 3759,
      "▁%7.5": 3760,
      "▁gecmis": 3761,
      "##tiler": 3762,
      "▁turlu": 3763,
      "▁porcuk": 3764,
      "##la": 3765,
      "▁pan": 3766,
      "▁1.5": 3767,
      "▁anlasma": 3768,
      "▁ver": 3769,
      "##adelphia": 3770,
      "▁havayolları": 3771,
      "##iyorlar": 3772,
      "##oj": 3773,
      "▁agz": 3774,
      "▁geliyor": 3775,
      "▁%22": 3776,
      "▁ekledi": 3777,
      "▁carp": 3778,
      "▁met": 3779,
      "##°": 3780,
      "▁bin": 3781,
      "▁problem": 3782,
      "▁yav": 3783,
      "▁ara": 3784,
      "▁57": 3785,
      "▁halen": 3786,
      "▁hangisi": 3787,
      "##eye": 3788,
      "▁az": 3789,
      "▁anlas": 3790,
      "##ur": 3791,
      "▁ail": 3792,
      "##ber": 3793,
      "▁yapar": 3794,
      "▁bilin": 3795,
      "@": 3796,
      "▁calısan": 3797,
      "▁kal": 3798,
      "▁sac": 3799,
      "▁sokak": 3800,
      "▁ilgil": 3801,
      "▁top": 3802,
      "▁kah": 3803,
      "▁odalar": 3804,
      "##isti": 3805,
      "▁tan": 3806,
      "##evi": 3807,
      "##emin": 3808,
      "▁gelmis": 3809,
      "##pr": 3810,
      "▁madd": 3811,
      "▁tamam": 3812,
      "▁faaliyet": 3813,
      "##layıp": 3814,
      "▁dom": 3815,
      "▁yapıl": 3816,
      "▁kum": 3817,
      "▁new": 3818,
      "▁sıkı": 3819,
      "▁miktar": 3820,
      "▁hamam": 3821,
      "▁har": 3822,
      "##iy": 3823,
      "▁gidi": 3824,
      "##yor": 3825,
      "▁eg": 3826,
      "##dig": 3827,
      "##esinin": 3828,
      "▁sp": 3829,
      "▁avrupa": 3830,
      "##ege": 3831,
      "▁degerlendir": 3832,
      "▁ner": 3833,
      "▁etme": 3834,
      "▁mak": 3835,
      "▁9": 3836,
      "▁199": 3837,
      "▁“": 3838,
      "##es": 3839,
      "##esiz": 3840,
      "##cuk": 3841,
      "▁yarın": 3842,
      "##ash": 3843,
      "▁ch": 3844,
      "▁jon": 3845,
      "▁nashville": 3846,
      "##lik": 3847,
      "▁al": 3848,
      "▁asıl": 3849,
      "##adaki": 3850,
      "▁cam": 3851,
      "▁sizin": 3852,
      "##ilerin": 3853,
      "##k": 3854,
      "##ay": 3855,
      "▁su": 3856,
      "▁kov": 3857,
      "▁29": 3858,
      "##kan": 3859,
      "▁neler": 3860,
      "▁haline": 3861,
      "▁3.": 3862,
      "##oz": 3863,
      "▁dolayı": 3864,
      "▁pers": 3865,
      "##ara": 3866,
      "▁fayd": 3867,
      "##dek": 3868,
      "▁dısarı": 3869,
      "▁pittsburgh'a": 3870,
      "##sa": 3871,
      "##ıt": 3872,
      "##cog": 3873,
      "##phia": 3874,
      "▁kisi": 3875,
      "##ili": 3876,
      "▁taz": 3877,
      "##ana": 3878,
      "▁hus": 3879,
      "▁ornek": 3880,
      "##c": 3881,
      "##ıpıs": 3882,
      "n": 3883,
      "▁ticaret": 3884,
      "▁durumu": 3885,
      "▁pol": 3886,
      "▁sarı": 3887,
      "▁sinir": 3888,
      "▁satıslar": 3889,
      "▁istem": 3890,
      "▁hepsi": 3891,
      "▁denver'den": 3892,
      "##vıl": 3893,
      "▁yayın": 3894,
      "##uf": 3895,
      "##madan": 3896,
      "##'na": 3897,
      "▁edin": 3898,
      "▁cez": 3899,
      "▁icinde": 3900,
      "▁kalit": 3901,
      "##ucu": 3902,
      "▁sekilde": 3903,
      "▁bl": 3904,
      "▁ayni": 3905,
      "##'den": 3906,
      "##tı": 3907,
      "▁ele": 3908,
      "▁aydın": 3909,
      "▁birini": 3910,
      "##ach": 3911,
      "▁pırıl": 3912,
      "##ilen": 3913,
      "▁toplan": 3914,
      "▁gund": 3915,
      "##ansız": 3916,
      "▁surdur": 3917,
      "##unuz": 3918,
      "▁)": 3919,
      "##r": 3920,
      "▁asla": 3921,
      "▁kork": 3922,
      "##oloj": 3923,
      "▁yuksel": 3924,
      "▁etkil": 3925,
      "▁kayn": 3926,
      "▁lut": 3927,
      "##'daki": 3928,
      "▁sem": 3929,
      "▁%5.4": 3930,
      "▁kos": 3931,
      "##oglu": 3932,
      "##ele": 3933,
      "##uru": 3934,
      "##deki": 3935,
      "▁e": 3936,
      "▁lezzetli": 3937,
      "##ıyordu": 3938,
      "##ku": 3939,
      "▁31": 3940,
      "##esin": 3941,
      "▁hisse": 3942,
      "▁deger": 3943,
      "▁lungur": 3944,
      "▁%50": 3945,
      "##dik": 3946,
      "▁tesisti": 3947,
      "▁veriyorum": 3948,
      "▁nit": 3949,
      "▁cer": 3950,
      "##cek": 3951,
      "▁kas": 3952,
      "▁karsılık": 3953,
      "##ital": 3954,
      "▁zar": 3955,
      "##ij": 3956,
      "▁ek": 3957,
      "##isindan": 3958,
      "##0": 3959,
      "▁c": 3960,
      "##anın": 3961,
      "▁kısı": 3962,
      "▁ali": 3963,
      "##ov": 3964,
      "##lif": 3965,
      "▁sektor": 3966,
      "​": 3967,
      "##yse": 3968,
      "##ca": 3969,
      "▁tab": 3970,
      "▁gazet": 3971,
      "▁gelen": 3972,
      "▁oakland": 3973,
      "c": 3974,
      "▁cur": 3975,
      "▁seyr": 3976,
      "##ersiz": 3977,
      "▁nes": 3978,
      "▁isin": 3979,
      "▁yildiz": 3980,
      "▁utan": 3981,
      "##ınc": 3982,
      "##olu": 3983,
      "▁kurt": 3984,
      "▁dayan": 3985,
      "##les": 3986,
      "##yn": 3987,
      "▁cevap": 3988,
      "▁olabilirdi": 3989,
      "▁okum": 3990,
      "##tal": 3991,
      "▁fıs": 3992,
      "▁eskiydi": 3993,
      "##endi": 3994,
      "##ıyı": 3995,
      "▁onumuz": 3996,
      "▁lak": 3997,
      "##acık": 3998,
      "▁baska": 3999,
      "▁ilgilendiler": 4000,
      "##layacak": 4001,
      "▁idi": 4002,
      "##@": 4003,
      "▁karsı": 4004,
      "##s": 4005,
      "▁japon": 4006,
      "▁gittik": 4007,
      "▁yere": 4008,
      "▁ogretmen": 4009,
      "▁yuks": 4010,
      "##cı": 4011,
      "‘": 4012,
      "##acı": 4013,
      "▁gitti": 4014,
      "##bak": 4015,
      "▁tanım": 4016,
      "##manı": 4017,
      "▁saat": 4018,
      "▁sorun": 4019,
      "##sizdi": 4020,
      "▁kutur": 4021,
      "##ye": 4022,
      "▁uyan": 4023,
      "▁kuz": 4024,
      "▁kadar": 4025,
      "▁op": 4026,
      "▁ilgiliydi": 4027,
      "##acagı": 4028,
      "##sim": 4029,
      "##ilerine": 4030,
      "##suz": 4031,
      "▁fak": 4032,
      "▁birlik": 4033,
      "▁homur": 4034,
      "##it": 4035,
      "▁kahval": 4036,
      "▁on": 4037,
      "▁hava": 4038,
      "▁red": 4039,
      "##ebil": 4040,
      "▁geciyor": 4041,
      "▁reddetti": 4042,
      "##,": 4043,
      "##t": 4044,
      "▁iti": 4045,
      "▁ingil": 4046,
      "▁ih": 4047,
      "##maktan": 4048,
      "▁washington": 4049,
      "##ıyla": 4050,
      "##arında": 4051,
      "▁z": 4052,
      "##tedir": 4053,
      "▁anlam": 4054,
      "▁%14": 4055,
      "▁duzel": 4056,
      "##likle": 4057,
      "##tigi": 4058,
      "h": 4059,
      "▁bank": 4060,
      "▁atlanta'ya": 4061,
      "▁diye": 4062,
      "▁kır": 4063,
      "▁yıllık": 4064,
      "▁tane": 4065,
      "▁biraz": 4066,
      "▁hes": 4067,
      "##ust": 4068,
      "▁%1": 4069,
      "▁mis": 4070,
      "##ıl": 4071,
      "▁calisanlar": 4072,
      "▁miy": 4073,
      "▁geril": 4074,
      "▁bayan": 4075,
      "▁gol": 4076,
      "▁mahk": 4077,
      "▁kaldim": 4078,
      "▁bor": 4079,
      "##anc": 4080,
      "▁gok": 4081,
      "##uc": 4082,
      "##ıntı": 4083,
      "##tiv": 4084,
      "▁ler": 4085,
      "▁port": 4086,
      "▁cıyak": 4087,
      "▁soy": 4088,
      "##st": 4089,
      "▁cep": 4090,
      "▁kuc": 4091,
      "▁insaat": 4092,
      "##mam": 4093,
      "▁vegas'a": 4094,
      "▁duygu": 4095
    }
  }
}