{
  "version": "1.0",
  "truncation": null,
  "padding": null,
  "added_tokens": [
    {
      "id": 8074,
      "content": "[UNK]",
      "single_word": false,
      "lstrip": false,
      "rstrip": false,
      "normalized": false,
      "special": true
    },
    {
      "id": 8909,
      "content": "[CLS]",
      "single_word": false,
      "lstrip": false,
      "rstrip": false,
      "normalized": false,
      "special": true
    },
    {
      "id": 9207,
      "content": "[SEP]",
      "single_word": false,
      "lstrip": false,
      "rstrip": false,
      "normalized": false,
      "special": true
    },
    {
      "id": 13804,
      "content": "[MASK]",
      "single_word": false,
      "lstrip": false,
      "rstrip": false,
      "normalized": false,
      "special": true
    },
    {
      "id": 16067,
      "content": "[PAD]",
      "single_word": false,
      "lstrip": false,
      "rstrip": false,
      "normalized": false,
      "special": true
    }
  ],
  "normalizer": {
    "type": "Sequence",
    "normalizers": [
      {
        "type": "NFD"
      },
      {
        "type": "Lowercase"
      },
      {
        "type": "StripAccents"
      }
    ]
  },
  "pre_tokenizer": {
    "type": "Sequence",
    "pretokenizers": [
      {
        "type": "Metaspace",
        "replacement": "▁",
        "prepend_scheme": "always",
        "split": true
      }
    ]
  },
  "post_processor": {
    "type": "TemplateProcessing",
    "single": [
      {
        "SpecialToken": {
          "id": "[CLS]",
          "type_id": 0
        }
      },
      {
        "Sequence": {
          "id": "A",
          "type_id": 0
        }
      },
      {
        "SpecialToken": {
          "id": "[SEP]",
          "type_id": 0
        }
      }
    ],
    "pair": [
      {
        "SpecialToken": {
          "id": "[CLS]",
          "type_id": 0
        }
      },
      {
        "Sequence": {
          "id": "A",
          "type_id": 0
        }
      },
      {
        "SpecialToken": {
          "id": "[SEP]",
          "type_id": 0
        }
      },
      {
        "Sequence": {
          "id": "B",
          "type_id": 1
        }
      },
      {
        "SpecialToken": {
          "id": "[SEP]",
          "type_id": 1
        }
      }
    ],
    "special_tokens": {
      "[CLS]": {
        "id": "[CLS]",
        "ids": [
          8909
        ],
        "tokens": [
          "[CLS]"
        ]
      },
      "[SEP]": {
        "id": "[SEP]",
        "ids": [
          9207
        ],
        "tokens": [
          "[SEP]"
        ]
      }
    }
  },
  "decoder": {
    "type": "Metaspace",
    "replacement": "▁",
    "prepend_scheme": "always",
    "split": true
  },
  "model": {
    "type": "Unigram",
    "unk_id": 8074,
    "vocab": [
      [
        "▁acılıyor",
        -10.564957792740628
      ],
      [
        "▁kıp",
        -11.387954033728018
      ],
      [
        "▁kaska",
        -11.253000550878692
      ],
      [
        "▁oturmus",
        -9.598011349198682
      ],
      [
        "▁icra",
        -9.821059373201784
      ],
      [
        "▁destek",
        -9.146945583397658
      ],
      [
        "▁zararı",
        -10.77475859698475
      ],
      [
        "▁gonc",
        -11.561407214675551
      ],
      [
        "▁nesi",
        -9.847091115213182
      ],
      [
        "▁butun",
        -7.1201460171067605
      ],
      [
        "▁bilmez",
        -10.160595154008185
      ],
      [
        "▁haketmiyor",
        -10.649676262091347
      ],
      [
        "▁sonuc",
        -8.71384066526463
      ],
      [
        "siniz",
        -8.521756178789772
      ],
      [
        "▁en",
        -5.8611504249659125
      ],
      [
        "▁alanlar",
        -10.527351040607083
      ],
      [
        "anı",
        -10.808690440604535
      ],
      [
        "1.60",
        -11.602363478330531
      ],
      [
        "▁ala",
        -9.311841281303764
      ],
      [
        "▁editoru",
        -10.950552161148545
      ],
      [
        "▁bilincli",
        -10.869302098599368
      ],
      [
        "▁kaptır",
        -11.06304341863056
      ],
      [
        "▁yemis",
        -9.640909208737558
      ],
      [
        "do",
        -9.47227397432171
      ],
      [
        "▁boy",
        -9.382386474927383
      ],
      [
        "▁detaylar",
        -11.011225313051643
      ],
      [
        "▁ucu",
        -9.239929097601554
      ],
      [
        "▁demokrasi",
        -9.879106185541032
      ],
      [
        "lasmıstı",
        -10.696110393588166
      ],
      [
        "ydu",
        -10.970623744144195
      ],
      [
        "▁kofte",
        -10.99311789945417
      ],
      [
        "▁burbank'",
        -10.255265036326275
      ],
      [
        "▁darman",
        -11.379556056314957
      ],
      [
        "▁gecirebil",
        -11.842187167157107
      ],
      [
        "▁almaya",
        -9.700180779329264
      ],
      [
        "▁bekar",
        -10.473212562340708
      ],
      [
        "▁1.11",
        -11.030416758926021
      ],
      [
        "▁beygir",
        -11.201180975148286
      ],
      [
        "▁%2.",
        -13.027118981959273
      ],
      [
        "▁kur'an",
        -11.250161576043228
      ],
      [
        "▁yerlerinde",
        -10.707541137416035
      ],
      [
        "▁seriat",
        -11.696927445339385
      ],
      [
        "▁sekeri",
        -10.862220650366833
      ],
      [
        "ymıs",
        -10.736864695384593
      ],
      [
        "▁kaydet",
        -11.852924000794038
      ],
      [
        "▁yemin",
        -10.606536350017452
      ],
      [
        "▁etmek",
        -7.972011777844301
      ],
      [
        "madım",
        -10.416774518896556
      ],
      [
        "|",
        -12.809526790838989
      ],
      [
        "▁baslangıcında",
        -11.546665111294857
      ],
      [
        "▁56",
        -10.807443123191756
      ],
      [
        "▁kapsa",
        -10.332494224597106
      ],
      [
        "▁22.6",
        -10.90718659032892
      ],
      [
        "i",
        -9.483528417945884
      ],
      [
        "▁akzo",
        -11.518553481838115
      ],
      [
        "▁alımı",
        -9.991831748036464
      ],
      [
        "▁stein",
        -10.717977181023457
      ],
      [
        "benim",
        -9.504691513740548
      ],
      [
        "▁tele",
        -9.504160229472195
      ],
      [
        "▁uzerim",
        -10.738564010696233
      ],
      [
        "▁buyuklugu",
        -10.80890243236524
      ],
      [
        "▁190",
        -9.816531335646127
      ],
      [
        "malıyı",
        -9.923547187215236
      ],
      [
        "ard",
        -10.883043407839319
      ],
      [
        "▁yeryuzu",
        -11.362562851871116
      ],
      [
        "▁konuldu",
        -11.686075439736614
      ],
      [
        "▁dama",
        -10.24884142041292
      ],
      [
        "▁gelismis",
        -10.420879199604197
      ],
      [
        "▁sonunda",
        -8.025683149779606
      ],
      [
        "▁geldiginde",
        -10.660513506818925
      ],
      [
        "▁lutfu",
        -11.517904551141257
      ],
      [
        "▁hani",
        -10.00151123112762
      ],
      [
        "▁gozlerini",
        -8.81149796389688
      ],
      [
        "▁yasta",
        -10.5814232437442
      ],
      [
        "▁yargıc",
        -10.165380668248035
      ],
      [
        "▁serkan",
        -10.948520969631431
      ],
      [
        "yorlar",
        -10.537856859121193
      ],
      [
        "▁odemeleri",
        -10.55886393930898
      ],
      [
        "birlikte",
        -10.864049484981738
      ],
      [
        "93",
        -10.036132247687437
      ],
      [
        "▁titre",
        -10.4512400592851
      ],
      [
        "▁suclar",
        -11.09165047688021
      ],
      [
        "7.87",
        -11.172231739087099
      ],
      [
        "▁sansı",
        -10.20817562317243
      ],
      [
        "meyecegini",
        -10.20862643515214
      ],
      [
        "▁bah",
        -11.568985189237132
      ],
      [
        "▁ikimiz",
        -10.895119833536404
      ],
      [
        "▁gostermek",
        -10.566775477712348
      ],
      [
        "▁icecekleri",
        -9.969601501231294
      ],
      [
        "▁yargıtay",
        -11.250054243571421
      ],
      [
        "▁ols",
        -9.308168117671995
      ],
      [
        "▁76",
        -9.96810367299896
      ],
      [
        "▁yuzeyinde",
        -11.689453444914554
      ],
      [
        "▁diri",
        -10.257026388947892
      ],
      [
        "anlar",
        -10.81624928071104
      ],
      [
        "▁kucumse",
        -11.008569803442137
      ],
      [
        "dikleri",
        -9.98920500656886
      ],
      [
        "▁cehennem",
        -10.420164754179869
      ],
      [
        "▁yatı",
        -10.223053771988091
      ],
      [
        "yse",
        -9.214875685776768
      ],
      [
        "▁sat",
        -9.241885288030325
      ],
      [
        "▁protokol",
        -10.472796333631022
      ],
      [
        "▁cagırma",
        -11.105077919363001
      ],
      [
        "▁carpıyor",
        -11.267109201889
      ],
      [
        "▁bindokuzyuzotuz",
        -11.43561429256585
      ],
      [
        "▁giysi",
        -10.536011610359097
      ],
      [
        "▁planı",
        -9.511907291577904
      ],
      [
        "▁sezginler",
        -11.015658719067646
      ],
      [
        "▁yarısında",
        -10.548945609620155
      ],
      [
        "▁hu",
        -9.988206168308508
      ],
      [
        "▁kafası",
        -10.449132232449436
      ],
      [
        "▁hangisi",
        -7.842202844556418
      ],
      [
        "▁18.7",
        -10.655048398053445
      ],
      [
        "▁dikkatimi",
        -11.502522094538268
      ],
      [
        "▁azalttı",
        -11.565200381507214
      ],
      [
        "▁bende",
        -7.864745660393515
      ],
      [
        "▁poor's",
        -11.884571185055588
      ],
      [
        "▁bindi",
        -10.584616182082499
      ],
      [
        "▁dondurma",
        -11.14017072629746
      ],
      [
        "▁mel",
        -11.22539218310716
      ],
      [
        "▁bakma",
        -9.79358234818923
      ],
      [
        "▁113",
        -12.569735476590743
      ],
      [
        "▁gelecekler",
        -11.018438505720166
      ],
      [
        "▁tesri",
        -11.685371130989598
      ],
      [
        "▁gene",
        -8.946608115374755
      ],
      [
        "▁phoenix",
        -10.055909170148425
      ],
      [
        "baslı",
        -11.524784174932444
      ],
      [
        "▁tumu",
        -12.034112333521115
      ],
      [
        "lenecek",
        -10.828490969633252
      ],
      [
        "▁secil",
        -11.369926608963583
      ],
      [
        "▁gar",
        -10.048643680742089
      ],
      [
        "▁pismis",
        -11.200228088043586
      ],
      [
        "▁azaltma",
        -10.622881055933334
      ],
      [
        "▁karaciger",
        -11.884573126780012
      ],
      [
        "▁turunu",
        -11.289192387872717
      ],
      [
        "▁azamet",
        -11.518247927831041
      ],
      [
        "▁cevrede",
        -11.114014370904187
      ],
      [
        "▁commerzbank",
        -11.884571077951822
      ],
      [
        "▁web",
        -11.687359177043845
      ],
      [
        "▁sise",
        -9.548620094634625
      ],
      [
        "▁verdigim",
        -8.83855576050206
      ],
      [
        "▁makineler",
        -10.739868772896333
      ],
      [
        "iniz",
        -10.108904679601515
      ],
      [
        "▁ag",
        -8.814033814938117
      ],
      [
        "▁an",
        -7.349697230620575
      ],
      [
        "▁hafta",
        -7.560530721894872
      ],
      [
        "▁arayacak",
        -11.688353507564768
      ],
      [
        "▁bus",
        -9.695316749011083
      ],
      [
        "00'u",
        -11.480246240272656
      ],
      [
        "lardaki",
        -10.093999979225687
      ],
      [
        "▁11.",
        -10.27761151482784
      ],
      [
        "▁yurutuyor",
        -10.94820061659374
      ],
      [
        "mus",
        -9.456633748399645
      ],
      [
        "▁370.",
        -11.107559291801957
      ],
      [
        "▁cimri",
        -11.51862885109586
      ],
      [
        "▁geldi",
        -7.1836233442115365
      ],
      [
        "▁baslattıgı",
        -11.866086463954993
      ],
      [
        "▁yaralar",
        -11.296123204786245
      ],
      [
        "ıyor",
        -7.925979794033475
      ],
      [
        "▁yazılmıs",
        -10.6391475335672
      ],
      [
        "▁nu",
        -10.992992609370448
      ],
      [
        "▁naci",
        -10.042185318972153
      ],
      [
        "▁alevi",
        -11.082403402252169
      ],
      [
        "▁geldigin",
        -11.320909158213837
      ],
      [
        "▁muhalif",
        -10.83543443446763
      ],
      [
        "▁dondu",
        -8.795567627225058
      ],
      [
        "▁isletme",
        -8.824888465715272
      ],
      [
        "▁bildir",
        -10.267252606223385
      ],
      [
        "▁kazanmaya",
        -11.266396603595675
      ],
      [
        "▁bomb",
        -11.011598271787966
      ],
      [
        ".51",
        -13.771211881027579
      ],
      [
        "▁ulasiri",
        -10.972813307982587
      ],
      [
        "▁korur",
        -11.347452423456716
      ],
      [
        "ruh",
        -11.550674384290838
      ],
      [
        "▁tutumlu",
        -11.520691678398231
      ],
      [
        "▁yerleri",
        -9.892871637346948
      ],
      [
        "▁house",
        -10.86470588799898
      ],
      [
        "▁hita",
        -9.941458146660489
      ],
      [
        "▁ızdırap",
        -11.375047272101206
      ],
      [
        "▁iskele",
        -9.740008482147658
      ],
      [
        "▁kaldırı",
        -11.612336621829433
      ],
      [
        "4.35",
        -11.037132191298365
      ],
      [
        "▁tehlikeli",
        -10.417482497808294
      ],
      [
        "▁fırsatı",
        -10.536108435583094
      ],
      [
        "ncı",
        -10.353289485808999
      ],
      [
        "3\\/",
        -12.903345149637568
      ],
      [
        "ymis",
        -10.68951195105023
      ],
      [
        "▁surecek",
        -10.494311988025558
      ],
      [
        "▁batak",
        -11.518641765277687
      ],
      [
        "▁havaalanı'n",
        -11.304347346347773
      ],
      [
        "▁seyreden",
        -11.519471828791431
      ],
      [
        "▁severi",
        -10.887838453428888
      ],
      [
        "▁paul",
        -9.972462617211841
      ],
      [
        "▁gelisti",
        -10.769242459324058
      ],
      [
        "83.2",
        -12.864986187558697
      ],
      [
        "▁zırh",
        -11.515932873466035
      ],
      [
        ".12",
        -11.760615357082099
      ],
      [
        "▁hatırladı",
        -11.700107325888256
      ],
      [
        "▁1106",
        -11.82715243537927
      ],
      [
        "sak",
        -9.914315494545589
      ],
      [
        "tu",
        -8.091550118487543
      ],
      [
        "873",
        -12.981854295562337
      ],
      [
        "▁bencil",
        -11.485918938611247
      ],
      [
        "▁topla",
        -9.823127623520914
      ],
      [
        "▁deneyimli",
        -11.16780453263352
      ],
      [
        "▁guclu",
        -8.418967694256985
      ],
      [
        "▁gordugumuz",
        -11.25448513986885
      ],
      [
        "▁taslagı",
        -11.68820287635085
      ],
      [
        "▁evlilik",
        -10.424361794420022
      ],
      [
        "▁verdigimiz",
        -10.012901961216869
      ],
      [
        "▁calısmıyor",
        -11.040702792926535
      ],
      [
        "icin",
        -7.2082679688354006
      ],
      [
        "00'de",
        -10.298349476631696
      ],
      [
        "▁federasyonu",
        -11.520263941428162
      ],
      [
        "20",
        -8.933298701372465
      ],
      [
        "▁brook",
        -10.528756770694566
      ],
      [
        "▁yardımcılıgın",
        -11.69460416564401
      ],
      [
        "▁dun",
        -7.723400918697454
      ],
      [
        "▁dinliyor",
        -10.537730735158949
      ],
      [
        "▁kalktı",
        -9.25837310721895
      ],
      [
        "▁isteyenler",
        -10.87364423249303
      ],
      [
        "▁sınıfta",
        -10.314259893674823
      ],
      [
        "ımızda",
        -9.988748506528793
      ],
      [
        "▁yapılmasın",
        -11.506792470553073
      ],
      [
        "▁onerisi",
        -10.995197760170592
      ],
      [
        "kendini",
        -10.382347996438028
      ],
      [
        "▁ogrenme",
        -10.439799999405981
      ],
      [
        "▁gormus",
        -9.671814646026958
      ],
      [
        "▁tuketiciler",
        -10.591252375399048
      ],
      [
        "▁dortluk",
        -11.045012184111634
      ],
      [
        "▁yaratıcı",
        -10.319867635132105
      ],
      [
        "▁merkezleri",
        -11.099138468181124
      ],
      [
        "ustu",
        -9.377600205915188
      ],
      [
        "▁kararlar",
        -11.030779647376102
      ],
      [
        "▁yemeye",
        -11.29235466194381
      ],
      [
        "▁130.",
        -10.87765496259595
      ],
      [
        "79.3",
        -12.402191102969788
      ],
      [
        "▁mesrutiyet",
        -11.684573396681872
      ],
      [
        "▁salep",
        -11.685163456677882
      ],
      [
        "▁alaka",
        -9.249494752574329
      ],
      [
        "▁yası",
        -10.245052781290978
      ],
      [
        "▁fabrikasını",
        -11.551114824884419
      ],
      [
        "7",
        -6.877042668686723
      ],
      [
        "▁sutu",
        -10.678107438771772
      ],
      [
        "▁cozulmus",
        -11.710968442888728
      ],
      [
        "▁durumunda",
        -9.803831824882888
      ],
      [
        "▁eren",
        -10.285686547967977
      ],
      [
        "eden",
        -8.921348628135153
      ],
      [
        "kendim",
        -11.97302899507227
      ],
      [
        "395",
        -12.0098283577703
      ],
      [
        "▁ofisin",
        -11.568609556879865
      ],
      [
        "▁trafik",
        -10.076447660788107
      ],
      [
        "▁ah",
        -9.412667863882072
      ],
      [
        "▁dava",
        -8.26633376375548
      ],
      [
        "▁belirtti",
        -9.173740998481808
      ],
      [
        "▁hırpala",
        -11.139594648382836
      ],
      [
        "▁anımsa",
        -11.265075485173103
      ],
      [
        "▁toplantıda",
        -10.008899361598655
      ],
      [
        "▁duser",
        -9.581400862354167
      ],
      [
        "▁musli",
        -11.139257732983904
      ],
      [
        "270",
        -10.442777589670378
      ],
      [
        "▁noktada",
        -10.217643132240172
      ],
      [
        "13000",
        -13.655266989805929
      ],
      [
        "▁manzara",
        -9.37827118914809
      ],
      [
        "▁sırtı",
        -11.09756502814932
      ],
      [
        "▁calisti",
        -11.141771082283
      ],
      [
        "▁alacaklı",
        -11.07033803597804
      ],
      [
        "▁13/",
        -11.42291689203845
      ],
      [
        "▁oranlar",
        -10.401530979947722
      ],
      [
        "▁kale",
        -9.524813701606554
      ],
      [
        "▁sonu",
        -9.316892010694431
      ],
      [
        "▁gosterdi",
        -8.768958904249487
      ],
      [
        "▁21.8",
        -11.511536345338534
      ],
      [
        "tim",
        -9.607730434773973
      ],
      [
        "▁beach'",
        -9.951204206480305
      ],
      [
        "▁abla",
        -10.2870337414666
      ],
      [
        "▁dostluk",
        -10.529913581253247
      ],
      [
        "▁tak",
        -10.208637830224543
      ],
      [
        "▁ilgili",
        -7.090276019556182
      ],
      [
        "▁hay",
        -9.577091278108389
      ],
      [
        "243",
        -12.452563763449762
      ],
      [
        "▁mahvol",
        -11.684571681791017
      ],
      [
        "▁20-2",
        -11.921801021663061
      ],
      [
        "▁ingilizce",
        -9.744774797704858
      ],
      [
        "▁par",
        -9.69827063034115
      ],
      [
        "▁taban",
        -9.928379946525908
      ],
      [
        "▁dogrulugunu",
        -11.689540632798911
      ],
      [
        "▁karı",
        -9.060328820717302
      ],
      [
        "▁bildik",
        -11.023882269992818
      ],
      [
        "▁obur",
        -9.53005915109374
      ],
      [
        "▁site",
        -10.319960782628833
      ],
      [
        "▁dairesin",
        -11.15215472514323
      ],
      [
        "kendin",
        -11.193663348597468
      ],
      [
        "▁gulumsedi",
        -10.86469634193933
      ],
      [
        "▁planimi",
        -11.247641373786347
      ],
      [
        "veriyor",
        -11.530312246624387
      ],
      [
        "▁tow",
        -11.082638999910507
      ],
      [
        "▁sogudu",
        -11.580482527427352
      ],
      [
        "17.7",
        -11.896929791194836
      ],
      [
        "▁yalan",
        -9.151952713100794
      ],
      [
        "▁sokakta",
        -9.947771343828187
      ],
      [
        "▁dusecek",
        -11.22958860841269
      ],
      [
        "▁kaza",
        -9.250157527987415
      ],
      [
        "tepe",
        -11.37506125108585
      ],
      [
        ".38",
        -10.174863679830818
      ],
      [
        "▁bizle",
        -10.762624733378612
      ],
      [
        "▁mufettis",
        -10.587175426935678
      ],
      [
        "▁sarma",
        -11.578507474520713
      ],
      [
        "▁teksaslı",
        -11.524711318904988
      ],
      [
        "▁bilgileri",
        -10.21684018480344
      ],
      [
        "▁biliyordu",
        -10.286336236671314
      ],
      [
        "▁komisyonları",
        -10.630065454322704
      ],
      [
        "▁bilinmeyen",
        -11.250325501193734
      ],
      [
        "▁girmeye",
        -11.395599031915879
      ],
      [
        "▁satıcıları",
        -11.430906183632574
      ],
      [
        "▁savur",
        -10.255628219536835
      ],
      [
        "▁papaz",
        -11.250162130838046
      ],
      [
        "▁macın",
        -10.59988676626546
      ],
      [
        "▁israil",
        -9.885262867656612
      ],
      [
        "▁rica",
        -10.23601955764847
      ],
      [
        "▁yapamaz",
        -10.587967232681144
      ],
      [
        "▁baltimore'de",
        -8.322975211257562
      ],
      [
        "▁tepe",
        -9.419283836621476
      ],
      [
        "▁devralma",
        -9.71538564204032
      ],
      [
        "▁turkiye'de",
        -9.242044308513425
      ],
      [
        "lıkları",
        -10.047562007224043
      ],
      [
        "77",
        -11.270219132232402
      ],
      [
        "▁gibiydi",
        -9.595644868721921
      ],
      [
        "▁dikme",
        -11.063991282515333
      ],
      [
        "▁gulmey",
        -11.207844998418823
      ],
      [
        "▁edeli",
        -10.70682236013423
      ],
      [
        "▁odulu",
        -11.072294140051516
      ],
      [
        "ip",
        -7.755020000545454
      ],
      [
        "▁brad",
        -11.2507727849914
      ],
      [
        "▁gerceklesmesi",
        -11.57748831611586
      ],
      [
        "▁alındıgında",
        -10.948682956584829
      ],
      [
        "▁aquaparki",
        -11.375049990364204
      ],
      [
        "▁kemal",
        -9.053225384931384
      ],
      [
        "▁yi",
        -9.990655862087861
      ],
      [
        "▁saadet",
        -10.420180640758481
      ],
      [
        "▁farklı",
        -8.428747369936215
      ],
      [
        "▁istismar",
        -11.8845711692136
      ],
      [
        "▁cho",
        -11.520008638427248
      ],
      [
        "yo",
        -11.65058019635061
      ],
      [
        "▁cene",
        -9.879033807461946
      ],
      [
        "▁nusha",
        -10.948151852064868
      ],
      [
        "ısı",
        -11.051820260445027
      ],
      [
        "▁senin",
        -6.975285892300653
      ],
      [
        "▁gevset",
        -11.065898028160225
      ],
      [
        "▁hoyrat",
        -11.517904419051026
      ],
      [
        "▁a.",
        -9.574530179311715
      ],
      [
        "▁goc",
        -9.597238672222094
      ],
      [
        "iliski",
        -10.882621173052643
      ],
      [
        "▁neresi",
        -9.4401415114116
      ],
      [
        "▁gececek",
        -10.8510036269695
      ],
      [
        "▁rumeli",
        -10.906812142986581
      ],
      [
        "▁benziyor",
        -9.72078483069343
      ],
      [
        "▁asmıs",
        -11.26745521836168
      ],
      [
        "mustu",
        -8.810970788928802
      ],
      [
        "▁kullanılması",
        -11.757265336112038
      ],
      [
        "▁bolumun",
        -11.08519055618159
      ],
      [
        "6.5",
        -11.106438196357022
      ],
      [
        "lama",
        -8.545560629359088
      ],
      [
        "▁ortalıkta",
        -10.868650436356962
      ],
      [
        "▁borek",
        -10.859476823162918
      ],
      [
        "▁kalın",
        -9.132607219214762
      ],
      [
        "▁degisiklik",
        -9.810978875746411
      ],
      [
        "950",
        -10.998314967311511
      ],
      [
        "▁olurdu",
        -9.408892811007716
      ],
      [
        "lı",
        -5.937558692004409
      ],
      [
        "▁hazırlık",
        -9.9990486356649
      ],
      [
        "▁donmek",
        -10.620741628010077
      ],
      [
        "▁cat",
        -9.484359406527771
      ],
      [
        "▁kis",
        -10.407344579106002
      ],
      [
        "▁havası",
        -10.058181099955195
      ],
      [
        "▁giri",
        -9.80974334292231
      ],
      [
        "▁dısındaki",
        -11.072367411972863
      ],
      [
        "rur",
        -10.923426499116909
      ],
      [
        "▁pisman",
        -10.370790378434208
      ],
      [
        "▁ugrastı",
        -10.90399137083
      ],
      [
        "▁deprem",
        -9.145751707705081
      ],
      [
        "▁nufuz",
        -10.787771263787153
      ],
      [
        "▁cicekli",
        -10.903669772800452
      ],
      [
        "digimiz",
        -10.644932726682107
      ],
      [
        "15",
        -9.045844818969567
      ],
      [
        "▁los",
        -8.560728690525249
      ],
      [
        "▁olmamıs",
        -10.632025609792942
      ],
      [
        "▁insanı",
        -9.4446260693535
      ],
      [
        "▁47",
        -9.610585568959918
      ],
      [
        "▁spekulatorler",
        -11.884571079161544
      ],
      [
        "▁anahtarı",
        -11.321432713318105
      ],
      [
        "▁7000",
        -13.23367364030026
      ],
      [
        "ktor",
        -10.999466327855403
      ],
      [
        "▁sinmis",
        -11.368519531985193
      ],
      [
        "▁aylık",
        -8.731533055082457
      ],
      [
        "▁anti",
        -10.178463354068382
      ],
      [
        "▁gormustu",
        -10.408005564480687
      ],
      [
        "▁dedik",
        -10.870797749347297
      ],
      [
        "▁basma",
        -10.378790183171308
      ],
      [
        "▁projeler",
        -10.622859426243014
      ],
      [
        "▁donu",
        -9.765781094378497
      ],
      [
        "▁cu",
        -10.459574842397805
      ],
      [
        "▁kamu",
        -8.947613522348469
      ],
      [
        "▁ilave",
        -9.449093047757327
      ],
      [
        "▁amcam",
        -10.745729731055093
      ],
      [
        "▁tanı",
        -9.775523540641293
      ],
      [
        "▁vapurun",
        -10.949971340482266
      ],
      [
        "▁kocakarı",
        -11.684612455822098
      ],
      [
        "▁ardı",
        -9.771784336041982
      ],
      [
        "▁biricik",
        -11.376923882987727
      ],
      [
        "▁nihal'i",
        -11.719762776762929
      ],
      [
        "▁mahkemeler",
        -10.780436858267553
      ],
      [
        "▁chivas",
        -11.884572146392935
      ],
      [
        ".61",
        -13.61469673427371
      ],
      [
        "▁sektorde",
        -11.34048246969947
      ],
      [
        "▁turkler",
        -9.889987573163882
      ],
      [
        "ucu",
        -9.522373099117019
      ],
      [
        "▁yavas",
        -8.180968411798695
      ],
      [
        "▁orlando'",
        -9.050821726593938
      ],
      [
        "▁sabahları",
        -10.68493177903869
      ],
      [
        "16.4",
        -11.665549289618383
      ],
      [
        "▁hatırlıyor",
        -10.59081473109757
      ],
      [
        "▁dusus",
        -8.761253369837675
      ],
      [
        "▁burhan",
        -11.376453260579499
      ],
      [
        "▁44.",
        -11.348005628996898
      ],
      [
        "▁hesapladı",
        -11.711463516101519
      ],
      [
        "▁endustrileri",
        -11.482851167832843
      ],
      [
        "▁dortyuzotuz",
        -10.889027647211869
      ],
      [
        "▁yorma",
        -11.042200547985534
      ],
      [
        "▁cevrilme",
        -11.648464400742258
      ],
      [
        "▁bulunmakta",
        -10.459738752118717
      ],
      [
        "▁cıkarılması",
        -11.058493509647695
      ],
      [
        "▁maruz",
        -10.116359747535023
      ],
      [
        "2.45",
        -11.184758747746221
      ],
      [
        "birisi",
        -11.365803544329124
      ],
      [
        "ken",
        -7.033118669553917
      ],
      [
        "▁sozlerini",
        -10.310610891278989
      ],
      [
        "ma",
        -12.810082874936368
      ],
      [
        "▁hatları",
        -10.858017812832335
      ],
      [
        "▁kadınları",
        -10.593051275918175
      ],
      [
        "▁ayaklarında",
        -11.496332695933695
      ],
      [
        "▁boykot",
        -11.517933377357629
      ],
      [
        "▁odeme",
        -9.114067312832475
      ],
      [
        "▁bastan",
        -10.221853862682913
      ],
      [
        "▁katkı",
        -8.896497965626871
      ],
      [
        "▁vatandaslar",
        -11.282796619372936
      ],
      [
        "▁peki",
        -9.227525015614564
      ],
      [
        "▁acı",
        -7.928254700439278
      ],
      [
        "▁gokce",
        -11.39420527777082
      ],
      [
        "▁ulasım",
        -8.78671763864444
      ],
      [
        "%5",
        -12.369826670084198
      ],
      [
        "▁donemin",
        -10.254226328672686
      ],
      [
        "▁ekledi",
        -8.982078850130247
      ],
      [
        "▁yapacagi",
        -11.044409095078965
      ],
      [
        "▁yavrusu",
        -11.034302569744797
      ],
      [
        "▁meseleler",
        -10.88309655365161
      ],
      [
        "dir",
        -6.051096502687699
      ],
      [
        "▁gececegi",
        -11.377331952523576
      ],
      [
        ".59",
        -11.122353206492841
      ],
      [
        "▁il",
        -7.476214463926909
      ],
      [
        "▁vurgu",
        -9.988612828678155
      ],
      [
        "▁il",
        -9.469080769848343
      ],
      [
        "3.95",
        -12.422629627950675
      ],
      [
        "▁teshir",
        -11.517905917873046
      ],
      [
        "▁fırlayı",
        -11.5182512536758
      ],
      [
        "▁caz",
        -10.71705667984173
      ],
      [
        "▁alacakları",
        -11.452019182618141
      ],
      [
        "▁doları'nda",
        -9.759473973600558
      ],
      [
        "...",
        -11.387678393768834
      ],
      [
        "▁piyasalarında",
        -11.426054827031152
      ],
      [
        "▁oldugunu",
        -8.734847030904774
      ],
      [
        "▁yurdun",
        -10.638724302949155
      ],
      [
        "▁yaratıl",
        -11.276266120916013
      ],
      [
        "▁eksikligi",
        -9.907700039222304
      ],
      [
        "▁ampul",
        -11.517909496259946
      ],
      [
        "▁agacın",
        -10.140444964176755
      ],
      [
        "7/",
        -9.640234913681336
      ],
      [
        "▁baska",
        -7.4286571398986005
      ],
      [
        "▁dusme",
        -10.101337777048501
      ],
      [
        "▁bakır",
        -9.788956137243774
      ],
      [
        "▁anlamında",
        -11.258730900105807
      ],
      [
        "▁12.4",
        -11.589675876449444
      ],
      [
        "ak",
        -7.804092858450923
      ],
      [
        "▁mevduat",
        -9.879106593630263
      ],
      [
        "▁kesilmisti",
        -11.578455449195966
      ],
      [
        "▁paris",
        -10.732720520409213
      ],
      [
        "▁besyuz",
        -10.033674272505372
      ],
      [
        "▁kur",
        -9.001782569133084
      ],
      [
        "▁kez",
        -8.042000169474555
      ],
      [
        "▁alırdı",
        -11.272856235745039
      ],
      [
        "▁civi",
        -10.11945994401442
      ],
      [
        "▁moskova",
        -11.363148277735332
      ],
      [
        "▁1400",
        -12.660599974370802
      ],
      [
        "▁seyreder",
        -10.851740034879885
      ],
      [
        "▁bakar",
        -9.634032017076818
      ],
      [
        "▁kıvılcım",
        -10.528352569805689
      ],
      [
        "tmisti",
        -10.830758166526447
      ],
      [
        "bas",
        -10.321070028999975
      ],
      [
        "▁iltifat",
        -11.038936264603903
      ],
      [
        "▁yapılacagın",
        -11.334521154304289
      ],
      [
        "▁yalnızlık",
        -10.484419606723883
      ],
      [
        "▁kopur",
        -10.96005167882625
      ],
      [
        "▁ortami",
        -11.200239473303
      ],
      [
        "▁prestij",
        -11.884571094100806
      ],
      [
        "▁penceresinde",
        -10.950560490611494
      ],
      [
        "▁esnek",
        -11.138544134010955
      ],
      [
        "▁86",
        -10.833266039124373
      ],
      [
        "▁kırıcı",
        -11.397535712680451
      ],
      [
        "▁dostlar",
        -10.899309919045528
      ],
      [
        "▁nakliyat",
        -11.684571106953328
      ],
      [
        "▁kalması",
        -10.686892939106984
      ],
      [
        "▁suslenmis",
        -11.376328052721217
      ],
      [
        "▁calısmaları",
        -10.296698802765626
      ],
      [
        "▁solucan",
        -11.684677500723662
      ],
      [
        "▁resit",
        -11.685034704114646
      ],
      [
        "▁yedek",
        -10.370130795890894
      ],
      [
        "▁1200",
        -11.403560904840074
      ],
      [
        "▁umut",
        -9.452225635115763
      ],
      [
        "▁hava",
        -7.828994419271714
      ],
      [
        "▁bura",
        -9.543867932243387
      ],
      [
        "▁kuralları",
        -10.667855977499984
      ],
      [
        "▁yegeni",
        -11.20900522602772
      ],
      [
        "▁unite",
        -11.139245765476954
      ],
      [
        "▁olmam",
        -10.87168545940772
      ],
      [
        "amm",
        -10.642140787928728
      ],
      [
        "▁kosesin",
        -10.771283492924047
      ],
      [
        "▁kendisin",
        -7.170173991469403
      ],
      [
        "▁konuy",
        -10.004419484465549
      ],
      [
        "▁ilacı",
        -10.89564106325028
      ],
      [
        "▁ayrılı",
        -9.453635628907492
      ],
      [
        "▁cekili",
        -11.347473277525388
      ],
      [
        "▁algıla",
        -10.92948976604827
      ],
      [
        "▁gorulmeye",
        -11.52605515539189
      ],
      [
        "▁gelme",
        -9.525860090678172
      ],
      [
        "▁0.7",
        -9.986632216122116
      ],
      [
        "▁stateswest",
        -11.517904549496139
      ],
      [
        "▁7.2",
        -10.324098996964956
      ],
      [
        "▁kulag",
        -10.69514604950244
      ],
      [
        "▁47.",
        -11.411958020934012
      ],
      [
        "▁grubun",
        -10.137199524636978
      ],
      [
        "▁tutan",
        -10.117213291531215
      ],
      [
        "▁ayrıntı",
        -10.143248364685414
      ],
      [
        "▁karıstıgı",
        -11.856268215032165
      ],
      [
        "▁orgutu",
        -10.517850586038541
      ],
      [
        "▁reddediyor",
        -11.138936250271723
      ],
      [
        "d",
        -9.78181740642139
      ],
      [
        "stein",
        -11.682765212775344
      ],
      [
        "▁edil",
        -10.027548693011077
      ],
      [
        "▁cıkarıyor",
        -10.108093846941003
      ],
      [
        "ucu",
        -9.809140848536815
      ],
      [
        "▁yapıs",
        -10.920233418765388
      ],
      [
        "▁denktas'ı",
        -11.387984326476428
      ],
      [
        "de",
        -10.03163979978559
      ],
      [
        "▁bayramı",
        -10.855217008679704
      ],
      [
        "▁eksikti",
        -10.548624676757976
      ],
      [
        "▁mı",
        -11.773248092011569
      ],
      [
        "▁imalat",
        -10.52832653611088
      ],
      [
        "vermis",
        -10.973250990602809
      ],
      [
        "▁aktarıyor",
        -11.853371255385278
      ],
      [
        "▁uyusturucu",
        -9.488699075735209
      ],
      [
        "▁doldurur",
        -11.039621285308932
      ],
      [
        "▁dortyuzo",
        -13.655170690300428
      ],
      [
        "sını",
        -12.323238153390264
      ],
      [
        "▁vurgulaya",
        -11.261436969436554
      ],
      [
        "▁kuruluslarında",
        -10.90088262651013
      ],
      [
        "soy",
        -11.151181443428428
      ],
      [
        "▁mitchell",
        -10.00625061667315
      ],
      [
        "▁hain",
        -11.092123686281752
      ],
      [
        "▁gorunur",
        -10.428753728093383
      ],
      [
        "▁raporunu",
        -11.291467240359115
      ],
      [
        "tum",
        -8.604569100470624
      ],
      [
        "▁yoneticiler",
        -10.307417061565987
      ],
      [
        "▁dans",
        -9.820183708632547
      ],
      [
        "▁kapısında",
        -9.875778995351128
      ],
      [
        "▁tamamladı",
        -10.012480403396035
      ],
      [
        "is",
        -8.763725095918936
      ],
      [
        "▁ldp",
        -11.517914621533258
      ],
      [
        "▁atom",
        -11.518236404564915
      ],
      [
        "▁kavramı",
        -11.02872088093556
      ],
      [
        "▁hizmetleri",
        -9.122522790029912
      ],
      [
        "dayı",
        -12.564778232345232
      ],
      [
        "▁boston'",
        -7.873650102602169
      ],
      [
        "▁yıkan",
        -10.55790170632567
      ],
      [
        "▁anlatacagım",
        -10.865174668909269
      ],
      [
        "▁sahibi",
        -8.709128740178876
      ],
      [
        "▁elini",
        -9.057305931437142
      ],
      [
        "▁akp",
        -11.081126369765919
      ],
      [
        "▁2.0",
        -12.818266538644114
      ],
      [
        "▁istiyorsa",
        -11.127936923024475
      ],
      [
        "▁izlene",
        -11.384185217532686
      ],
      [
        "20000",
        -11.109934816965165
      ],
      [
        "arı",
        -10.559993367184255
      ],
      [
        "▁kosulları",
        -9.684029658187331
      ],
      [
        "▁girince",
        -10.587986569230416
      ],
      [
        "▁esref",
        -11.684571627695437
      ],
      [
        "▁fayda",
        -9.8461121725536
      ],
      [
        "▁okunan",
        -11.686818976172937
      ],
      [
        "▁inanma",
        -10.388953309440014
      ],
      [
        "▁oldugunda",
        -9.568559639276337
      ],
      [
        "▁agırlıgı",
        -10.855659092667342
      ],
      [
        "0.6",
        -11.62887718812314
      ],
      [
        "▁bilinmiyor",
        -11.517921435790779
      ],
      [
        "▁kardesleri",
        -10.718080283137962
      ],
      [
        "▁deplasman",
        -10.864693903803813
      ],
      [
        "▁bursa'",
        -11.427333331768494
      ],
      [
        "▁tatbikat",
        -11.684994502634565
      ],
      [
        "▁okulu",
        -10.367813010310151
      ],
      [
        "▁cenaze",
        -10.370165026987214
      ],
      [
        "▁mezun",
        -10.586142427507596
      ],
      [
        "▁one",
        -9.628634653838162
      ],
      [
        "▁sablon",
        -11.884571101601358
      ],
      [
        "indeki",
        -10.30058017249231
      ],
      [
        "7.12",
        -12.459173103687746
      ],
      [
        "▁olasılıkla",
        -11.245387641617304
      ],
      [
        "▁kaynaklı",
        -11.250051704416924
      ],
      [
        "dini",
        -13.240926266836528
      ],
      [
        "▁rahatlama",
        -11.15883880048477
      ],
      [
        "▁edilecegi",
        -11.16096848836817
      ],
      [
        "▁cevre",
        -8.731569628076397
      ],
      [
        "▁borclu",
        -10.655446301555518
      ],
      [
        "▁sabunlu",
        -11.795565483869797
      ],
      [
        "▁tarhana",
        -11.684581052499855
      ],
      [
        "▁166",
        -13.267281064694547
      ],
      [
        "▁indir",
        -10.316693767568093
      ],
      [
        "mam",
        -10.03160728207994
      ],
      [
        "▁arkamda",
        -10.478575430497086
      ],
      [
        "▁kullanımı",
        -10.728988871658837
      ],
      [
        "▁doktorlar",
        -10.396717505989452
      ],
      [
        "▁alabiliyor",
        -11.377314317340518
      ],
      [
        "▁anlatım",
        -10.745266715635028
      ],
      [
        "1'de",
        -9.807721456774896
      ],
      [
        "▁giristi",
        -11.388231060977972
      ],
      [
        "▁ol",
        -5.796443599085493
      ],
      [
        "▁annemi",
        -9.887443102838619
      ],
      [
        "▁halayık",
        -11.685158788347767
      ],
      [
        "470",
        -12.39723961644995
      ],
      [
        "▁tecessus",
        -11.375047270368075
      ],
      [
        "▁ıssız",
        -11.144142004279459
      ],
      [
        "▁duserse",
        -11.380287119274147
      ],
      [
        "▁olcut",
        -11.195124177476135
      ],
      [
        "▁halat",
        -10.514838416408864
      ],
      [
        "▁168",
        -11.419398737217387
      ],
      [
        "▁takdim",
        -11.519331438512092
      ],
      [
        "▁albert",
        -11.684784793072604
      ],
      [
        "▁yayılma",
        -11.061580579590375
      ],
      [
        "▁kufur",
        -10.948696544824742
      ],
      [
        "▁semsiye",
        -10.787771216656804
      ],
      [
        "▁koymustu",
        -11.28389576990417
      ],
      [
        "▁america",
        -10.914720492108502
      ],
      [
        "▁uy",
        -10.51201726317132
      ],
      [
        "▁uzaklıkta",
        -11.686100176798817
      ],
      [
        "▁bomba",
        -10.336655865045909
      ],
      [
        "7.00",
        -12.626952273367126
      ],
      [
        "▁tesvik",
        -9.410994395058854
      ],
      [
        "her",
        -7.935548295472399
      ],
      [
        "▁cocukların",
        -9.611684877932493
      ],
      [
        "▁bogdu",
        -11.426888293332118
      ],
      [
        "▁olusa",
        -9.86804171901737
      ],
      [
        "▁stili",
        -11.687369754150268
      ],
      [
        "▁cesitlilik",
        -10.010848237246094
      ],
      [
        "▁145",
        -10.904143579182826
      ],
      [
        "▁miami",
        -10.526715362176912
      ],
      [
        "▁hanim",
        -7.397252266069936
      ],
      [
        "▁alısı",
        -10.81667896657846
      ],
      [
        "▁kollu",
        -11.28764783649488
      ],
      [
        "▁ser",
        -9.107705822502552
      ],
      [
        "▁oylama",
        -10.0901006343209
      ],
      [
        "▁gulus",
        -10.551964607154682
      ],
      [
        "▁vurul",
        -11.201609670956003
      ],
      [
        "▁bitis",
        -11.676007923246454
      ],
      [
        "▁mon",
        -10.094230509261246
      ],
      [
        "▁omuz",
        -10.006217350955172
      ],
      [
        "▁ideal",
        -9.304648419227409
      ],
      [
        "▁hayatımı",
        -11.250610508715248
      ],
      [
        "▁29",
        -8.31141521590659
      ],
      [
        "▁verdi",
        -7.757267715701256
      ],
      [
        "▁pompa",
        -11.168858770052262
      ],
      [
        "▁kinde",
        -10.031918237920724
      ],
      [
        "gah",
        -11.13747182677847
      ],
      [
        "▁mudafaa",
        -11.884571193291851
      ],
      [
        "▁akdeniz'",
        -11.375059148457384
      ],
      [
        "▁700.",
        -10.888247410819082
      ],
      [
        "▁harca",
        -10.224516114604942
      ],
      [
        "iye",
        -6.892607271260933
      ],
      [
        "86",
        -12.153008031101203
      ],
      [
        "zo",
        -10.79700607681989
      ],
      [
        "▁gercekles",
        -10.913976655041182
      ],
      [
        "▁kirec",
        -10.649685977249238
      ],
      [
        "▁corry",
        -11.139163085802773
      ],
      [
        "▁femin",
        -11.519242971617507
      ],
      [
        "▁edecegini",
        -9.826280012219744
      ],
      [
        "▁dinlenme",
        -10.396209330541797
      ],
      [
        "▁tri",
        -10.776729121853004
      ],
      [
        "7.8",
        -10.507545661971692
      ],
      [
        "▁rezervler",
        -11.586953153479035
      ],
      [
        "▁kebabistan",
        -11.884571077969099
      ],
      [
        "8.2",
        -11.189793536830912
      ],
      [
        "▁paylasıyor",
        -11.691413087013537
      ],
      [
        "▁1983",
        -10.347090297617484
      ],
      [
        "▁ihtiyarı",
        -11.325187410738963
      ],
      [
        "▁ayrımın",
        -11.648515259747665
      ],
      [
        "sem",
        -9.698597497268405
      ],
      [
        "▁cleveland'",
        -8.966790025573786
      ],
      [
        "▁spa",
        -10.638520995747143
      ],
      [
        "▁gozukuyor",
        -11.040995028150585
      ],
      [
        "▁goren",
        -9.19290337760041
      ],
      [
        "▁fha",
        -11.687102498756374
      ],
      [
        "▁kuf",
        -10.129532148566232
      ],
      [
        "▁incir",
        -10.955654211180967
      ],
      [
        "▁kas",
        -9.295619045961358
      ],
      [
        "▁power",
        -11.038993541235508
      ],
      [
        "▁getirisi",
        -10.462151342221809
      ],
      [
        "▁nashville",
        -11.516223069650659
      ],
      [
        "▁sıcrama",
        -10.95686465679372
      ],
      [
        "&",
        -11.138934498877273
      ],
      [
        "▁distributor",
        -11.517904495307326
      ],
      [
        "▁bicim",
        -10.058788109632612
      ],
      [
        "▁opti",
        -11.064403766910653
      ],
      [
        "▁depreminde",
        -11.779106901729902
      ],
      [
        "▁ilgiliydi",
        -7.611046721106702
      ],
      [
        "▁aratmadi",
        -11.684571197824505
      ],
      [
        "3.",
        -10.847898938441242
      ],
      [
        "▁etmem",
        -8.595566976592899
      ],
      [
        "▁endustriyel",
        -10.370173906994056
      ],
      [
        "▁panig",
        -11.040039001739524
      ],
      [
        "▁kibrit",
        -11.56737683649318
      ],
      [
        "▁yaptıgını",
        -9.750844677186638
      ],
      [
        "▁etmemek",
        -11.728673735423822
      ],
      [
        "▁ilac",
        -8.990137044444403
      ],
      [
        "▁179.",
        -12.377486565022162
      ],
      [
        "▁0.9",
        -9.814412234819317
      ],
      [
        "▁king",
        -11.688159816987126
      ],
      [
        "26",
        -10.035845426624126
      ],
      [
        "ga",
        -8.284018601281236
      ],
      [
        "▁mallar",
        -10.71924365174901
      ],
      [
        "▁%8.2",
        -11.920938577525046
      ],
      [
        "▁yozlas",
        -11.518725607014998
      ],
      [
        "▁verilen",
        -8.990808182190559
      ],
      [
        "▁yogunlas",
        -10.905682500547773
      ],
      [
        "▁inanmıyor",
        -11.370894980692547
      ],
      [
        "ince",
        -8.584025241125088
      ],
      [
        "▁tum",
        -5.009593977490714
      ],
      [
        "lerdi",
        -8.343737212587138
      ],
      [
        "mazsa",
        -10.132200264074147
      ],
      [
        "69",
        -10.562274752466745
      ],
      [
        "▁hekim",
        -10.076452168200898
      ],
      [
        "▁cifte",
        -10.533379365249262
      ],
      [
        "▁aldı",
        -7.5480480865397475
      ],
      [
        "▁kusku",
        -9.662904078710456
      ],
      [
        "▁kuyrug",
        -10.649676922424863
      ],
      [
        "▁83",
        -10.689982403369488
      ],
      [
        "▁1.14",
        -11.650920468368614
      ],
      [
        "▁okuyan",
        -10.195093932619027
      ],
      [
        "/200",
        -12.83374725978908
      ],
      [
        "▁sedef",
        -11.375056714333287
      ],
      [
        "▁fikrini",
        -11.068977035669677
      ],
      [
        "▁gonlumu",
        -11.23267228893288
      ],
      [
        "▁oranlarında",
        -11.526297883279335
      ],
      [
        "▁izmir",
        -10.681714728195598
      ],
      [
        "▁ikisi",
        -9.392721718283836
      ],
      [
        "▁cim",
        -10.40427207316296
      ],
      [
        "▁2.1",
        -10.319519851547797
      ],
      [
        "▁yerinde",
        -8.735977518935112
      ],
      [
        "▁korktu",
        -11.038491168707555
      ],
      [
        "▁arke",
        -11.687501105703767
      ],
      [
        "ledigi",
        -10.317805748099804
      ],
      [
        "▁sırtında",
        -9.788489690894806
      ],
      [
        "▁lokanta",
        -10.693593357658788
      ],
      [
        "▁duzenleme",
        -9.653127932560643
      ],
      [
        "▁tutuklu",
        -11.25481079154549
      ],
      [
        "birimiz",
        -13.46756610360152
      ],
      [
        "▁isgal",
        -10.114361169053021
      ],
      [
        "▁ekonomisi",
        -10.654139254037023
      ],
      [
        "▁gorgu",
        -10.529771406591966
      ],
      [
        "▁acıldı",
        -9.314950561435303
      ],
      [
        "▁lunapark",
        -10.94802707183072
      ],
      [
        "▁canlandırdı",
        -11.860364777578194
      ],
      [
        "▁imkanlari",
        -8.885381844093423
      ],
      [
        "leyecek",
        -10.69362671553774
      ],
      [
        "▁gu",
        -9.6255953466796
      ],
      [
        "▁bukl",
        -11.04323879338186
      ],
      [
        "▁hazırlıyor",
        -11.543259676082299
      ],
      [
        "▁yay",
        -10.266879754083005
      ],
      [
        "▁ceviz",
        -10.233616242276051
      ],
      [
        "▁padisah",
        -10.787770670713634
      ],
      [
        "▁kulagımda",
        -11.667793698205813
      ],
      [
        "▁batı",
        -8.515505847966462
      ],
      [
        "▁mor",
        -9.643565000934133
      ],
      [
        "▁eksiksiz",
        -10.95020694838002
      ],
      [
        "▁feslegen",
        -11.51790456500244
      ],
      [
        "enim",
        -12.478180361784972
      ],
      [
        "nızı",
        -9.716173269005711
      ],
      [
        "▁6.6",
        -10.9094710982956
      ],
      [
        "▁dusunen",
        -10.801908721745958
      ],
      [
        "▁istikrarlı",
        -11.257587509948936
      ],
      [
        "▁basta",
        -9.613330148740578
      ],
      [
        "▁",
        -0.7142778471973976
      ],
      [
        "▁sauna",
        -9.714788005846879
      ],
      [
        "▁tutacak",
        -10.66301989566811
      ],
      [
        "▁268.",
        -11.209186645446291
      ],
      [
        "ları",
        -6.040669792535758
      ],
      [
        "▁aklımız",
        -11.689208617728086
      ],
      [
        "▁sak",
        -9.207539794145411
      ],
      [
        "▁bitmeye",
        -11.057433613023463
      ],
      [
        "▁burosunda",
        -11.044525252045913
      ],
      [
        "▁piskin",
        -11.039600470691095
      ],
      [
        "▁len",
        -10.714756319584296
      ],
      [
        "▁ulasmak",
        -10.708676508453133
      ],
      [
        "▁sirketlerinde",
        -11.669060140969204
      ],
      [
        "▁etraf",
        -10.304792255234037
      ],
      [
        "▁basvur",
        -10.349085263097203
      ],
      [
        "▁pilav",
        -11.3188965489739
      ],
      [
        "80",
        -9.685891330032074
      ],
      [
        "▁belirttigim",
        -10.440243256662335
      ],
      [
        "sunuz",
        -8.49082700497901
      ],
      [
        "▁wcrs",
        -11.375047294344617
      ],
      [
        "▁anlattigim",
        -11.88457364319233
      ],
      [
        "▁puskurt",
        -11.884571106147419
      ],
      [
        "▁hayır",
        -9.040594463232036
      ],
      [
        "▁konak",
        -10.545641195510875
      ],
      [
        "▁yuvarlak",
        -10.158658453736981
      ],
      [
        "▁hakikate",
        -10.830048512398308
      ],
      [
        "▁moral",
        -10.792455853730658
      ],
      [
        "▁kovul",
        -10.864709155773905
      ],
      [
        "▁yansıma",
        -11.23774018947556
      ],
      [
        "bası",
        -9.679953482643137
      ],
      [
        "60'ı",
        -11.790250767647834
      ],
      [
        "▁donduru",
        -11.731289744919279
      ],
      [
        "▁turku",
        -9.590758683824028
      ],
      [
        "▁tesisi",
        -9.394130310365703
      ],
      [
        "▁193",
        -11.381810699096764
      ],
      [
        "▁kalmazdı",
        -11.689375280562022
      ],
      [
        "▁yeldirme",
        -11.684634596584157
      ],
      [
        "sa",
        -9.687890704303967
      ],
      [
        "▁toplumun",
        -10.335554848899605
      ],
      [
        "▁sistemini",
        -10.634265138992097
      ],
      [
        "▁seneler",
        -10.804236651349342
      ],
      [
        "▁memur",
        -9.825699123019195
      ],
      [
        "5'te",
        -10.373458805165285
      ],
      [
        "▁bitirir",
        -11.523066193084224
      ],
      [
        "▁nufusu",
        -11.14466644556344
      ],
      [
        "▁dort",
        -6.461747336534862
      ],
      [
        "▁13.1",
        -11.217391647934386
      ],
      [
        "▁golge",
        -9.190197555324179
      ],
      [
        "▁koyar",
        -10.395817502183844
      ],
      [
        "▁sı",
        -13.077029596797782
      ],
      [
        "▁kar",
        -8.004086389494052
      ],
      [
        "▁idi",
        -9.041726308454793
      ],
      [
        "▁birlestirme",
        -11.62770017844395
      ],
      [
        "▁tap",
        -10.205725260978713
      ],
      [
        "▁yazdıgı",
        -10.475602164731544
      ],
      [
        "▁atil",
        -11.411841261959445
      ],
      [
        "▁lazım",
        -8.975856817118947
      ],
      [
        "▁kusagı",
        -10.47356476066547
      ],
      [
        "lar",
        -7.961244385437585
      ],
      [
        "▁dolduraca",
        -11.231672131590425
      ],
      [
        "▁politikası",
        -10.509879709450804
      ],
      [
        "▁haziran",
        -9.175889947264395
      ],
      [
        "mesini",
        -9.18045318304669
      ],
      [
        "▁kafes",
        -10.350838125788798
      ],
      [
        "▁olcul",
        -10.823600764224874
      ],
      [
        "im",
        -8.415921563447386
      ],
      [
        "▁diger",
        -7.344171951291494
      ],
      [
        "▁539",
        -11.65005122487141
      ],
      [
        "▁kılıc",
        -9.909306411665435
      ],
      [
        "iyordu",
        -8.73540571575907
      ],
      [
        "▁california'da",
        -10.630513939548798
      ],
      [
        "▁yemekler",
        -7.54033858372997
      ],
      [
        "▁saman",
        -10.278957281357005
      ],
      [
        "asyonu",
        -11.271121195848018
      ],
      [
        "yetmisaltı",
        -11.405833585033108
      ],
      [
        "▁yasar",
        -9.510357590287299
      ],
      [
        "▁calisanlar",
        -9.143985563168021
      ],
      [
        "▁olun",
        -9.717411742112539
      ],
      [
        "ung",
        -11.13557200714879
      ],
      [
        "▁manası",
        -11.275191768844433
      ],
      [
        "▁tutulan",
        -10.950122903842887
      ],
      [
        "▁olan",
        -8.129043926954479
      ],
      [
        "▁0.1",
        -9.205788647950405
      ],
      [
        "▁dordu",
        -8.829957619883997
      ],
      [
        "▁uzmanlar",
        -10.507740121979822
      ],
      [
        "▁hisseler",
        -9.40918509985373
      ],
      [
        "▁kongre",
        -9.082532362792168
      ],
      [
        "li",
        -5.893382737603808
      ],
      [
        "▁maas",
        -9.881409703548428
      ],
      [
        "▁saldırıyor",
        -11.597432725459363
      ],
      [
        "▁betimleme",
        -11.687251595514875
      ],
      [
        "▁klise",
        -11.684645912695737
      ],
      [
        "▁black",
        -11.68457651984716
      ],
      [
        "▁iliskilerini",
        -11.440899960096024
      ],
      [
        "▁dengesiz",
        -10.702661294807768
      ],
      [
        "cogu",
        -10.753595314611992
      ],
      [
        "▁okurdu",
        -10.724219985584032
      ],
      [
        "▁recep",
        -10.21058387104058
      ],
      [
        "▁varlıkların",
        -11.243439289515877
      ],
      [
        "41.8",
        -12.478800494380696
      ],
      [
        "▁baslıca",
        -10.529859372958922
      ],
      [
        "▁silk",
        -10.733892145229868
      ],
      [
        "▁iletti",
        -11.145365592266305
      ],
      [
        "▁karsılıgı",
        -10.825006459519196
      ],
      [
        "▁duzenli",
        -9.627757754789954
      ],
      [
        "m",
        -5.017397402025318
      ],
      [
        "kleri",
        -9.36979990924788
      ],
      [
        "▁elma",
        -9.598696576539217
      ],
      [
        "▁mıs",
        -8.221270484658733
      ],
      [
        "▁harr",
        -11.479438094261539
      ],
      [
        "▁op",
        -10.468557496062312
      ],
      [
        "▁ayrım",
        -10.930468337100807
      ],
      [
        "▁zabit",
        -11.038970541540786
      ],
      [
        "▁savunuyor",
        -11.139030304029312
      ],
      [
        "▁18.6",
        -10.657807412583528
      ],
      [
        "▁gamze",
        -11.250465535629381
      ],
      [
        "▁10.3",
        -11.440492606942682
      ],
      [
        "348",
        -12.177273486253034
      ],
      [
        "liginde",
        -9.695244107958068
      ],
      [
        "97",
        -10.419706791220547
      ],
      [
        "▁teskil",
        -10.647956505405254
      ],
      [
        "3.4",
        -11.20270998558295
      ],
      [
        "▁zumrut",
        -11.517904411672125
      ],
      [
        "▁cek",
        -8.93433044290984
      ],
      [
        "▁kaldırır",
        -11.524353680627005
      ],
      [
        ".48",
        -11.06258410472345
      ],
      [
        "▁konsolidasyon",
        -11.88457108327603
      ],
      [
        "dıgını",
        -8.506133611343238
      ],
      [
        "▁basla",
        -10.534329127257559
      ],
      [
        "▁alman",
        -9.439461797631097
      ],
      [
        "▁sanatcı",
        -10.190866506278732
      ],
      [
        "▁anlıyor",
        -10.414532728239614
      ],
      [
        "▁organ",
        -10.732373223527867
      ],
      [
        "▁havayollarında",
        -9.829788730406523
      ],
      [
        "▁rezalet",
        -11.03893687823972
      ],
      [
        "▁ya",
        -8.744701719877106
      ],
      [
        "verdi",
        -9.576179590876844
      ],
      [
        "▁varmıs",
        -10.15288453471713
      ],
      [
        "▁genisletil",
        -11.21967822827649
      ],
      [
        "ay",
        -9.256230120737431
      ],
      [
        "1.5",
        -10.363340149990353
      ],
      [
        "bon",
        -10.332740130546219
      ],
      [
        "▁uygulan",
        -10.600617654912627
      ],
      [
        "▁selim",
        -10.531417464198576
      ],
      [
        "▁karmasık",
        -10.076474979444937
      ],
      [
        "9.6",
        -10.556319638405284
      ],
      [
        "▁surada",
        -10.888683670775977
      ],
      [
        "▁cubug",
        -11.684633003248662
      ],
      [
        "▁mevsimsel",
        -10.948940437902529
      ],
      [
        "▁tutul",
        -10.721507307582053
      ],
      [
        "ington",
        -10.791016708484467
      ],
      [
        "lugunde",
        -11.05133585877057
      ],
      [
        "▁gosterecek",
        -11.062039993826847
      ],
      [
        "▁kambiyo",
        -11.138936157690152
      ],
      [
        "▁unutulmaz",
        -11.519980058053967
      ],
      [
        "▁halde",
        -8.407260989224852
      ],
      [
        "▁denetleme",
        -11.375144411353787
      ],
      [
        "▁onerdigi",
        -11.309458593240382
      ],
      [
        "▁yeteri",
        -9.895426810435636
      ],
      [
        "▁efsane",
        -10.501957149832569
      ],
      [
        "▁etkiledi",
        -11.501329523000505
      ],
      [
        "▁ucgen",
        -11.139885105563708
      ],
      [
        "▁chrysler",
        -11.68457107800124
      ],
      [
        "gim",
        -9.429126514870406
      ],
      [
        "▁genelkurmay",
        -10.78777065631906
      ],
      [
        "▁zayıflık",
        -11.298236106060205
      ],
      [
        "▁yanıyor",
        -10.280808613752495
      ],
      [
        "▁dubl",
        -11.684674118602217
      ],
      [
        "▁edecek",
        -8.696881489776255
      ],
      [
        "og",
        -11.431965419903591
      ],
      [
        "200",
        -13.183875010531716
      ],
      [
        "▁tesekkurler",
        -9.044122398602692
      ],
      [
        "▁gosterdigi",
        -10.466025861152744
      ],
      [
        "▁yetiyor",
        -11.81163055815663
      ],
      [
        "▁dolu",
        -8.29955098742727
      ],
      [
        "1.25",
        -12.158710416381524
      ],
      [
        "▁asık",
        -9.418607021730335
      ],
      [
        "▁ulasımını",
        -10.36878517268422
      ],
      [
        "yip",
        -9.367804818750756
      ],
      [
        "▁k",
        -9.253332953015757
      ],
      [
        "217",
        -12.147418399151817
      ],
      [
        "▁field'",
        -10.800027189987171
      ],
      [
        "▁projesi",
        -10.613265922630772
      ],
      [
        "▁kere",
        -8.69131137649713
      ],
      [
        "▁60000",
        -11.506607993420237
      ],
      [
        "▁13'",
        -11.453687899609614
      ],
      [
        "▁partiler",
        -10.862258572119893
      ],
      [
        "▁refakat",
        -11.68457108622312
      ],
      [
        "▁oldukları",
        -10.080603502367463
      ],
      [
        "6.2",
        -13.167912485841406
      ],
      [
        "▁h",
        -8.715339026266378
      ],
      [
        "▁rev",
        -10.63099786451102
      ],
      [
        "▁ge",
        -9.492693423679263
      ],
      [
        "▁bosuna",
        -10.717559797241018
      ],
      [
        "▁kullanılma",
        -10.686390911968536
      ],
      [
        "▁muhata",
        -11.25010689787325
      ],
      [
        "▁yol",
        -7.71943130202202
      ],
      [
        "▁eti",
        -9.850909366091845
      ],
      [
        "lendirdi",
        -10.939222652384666
      ],
      [
        "▁4.2",
        -9.925145185427215
      ],
      [
        "40.1",
        -13.059810858100795
      ],
      [
        "▁mae",
        -10.770397586611839
      ],
      [
        "▁denetimi",
        -10.97761925022785
      ],
      [
        "▁5/",
        -9.813935803487151
      ],
      [
        ".31",
        -11.727578523640371
      ],
      [
        "▁kirpikleri",
        -10.592716350259241
      ],
      [
        "▁breeden",
        -11.25009996085609
      ],
      [
        "▁koylu",
        -9.771842610879782
      ],
      [
        "▁niteligi",
        -11.518484756413358
      ],
      [
        "▁kavusma",
        -11.517970782910622
      ],
      [
        "'u",
        -9.403353884658426
      ],
      [
        "▁icten",
        -10.354307632752128
      ],
      [
        "▁ikibinbir",
        -12.659395839339917
      ],
      [
        "▁sa",
        -8.497671756793931
      ],
      [
        "▁makinesi",
        -10.162716842761753
      ],
      [
        "▁haklar",
        -10.512819412159395
      ],
      [
        "▁west",
        -10.59307525044651
      ],
      [
        "▁olu",
        -10.523711559048557
      ],
      [
        "▁kararı",
        -9.119304408404581
      ],
      [
        "▁gemini",
        -11.284021419048912
      ],
      [
        "▁koltuk",
        -9.867915796398737
      ],
      [
        "▁lapa",
        -11.375957977769062
      ],
      [
        "usunu",
        -10.844484957415292
      ],
      [
        "▁yonetimi",
        -9.596114219503008
      ],
      [
        "▁taraftar",
        -10.718886124702015
      ],
      [
        "▁herkesi",
        -8.862982706804999
      ],
      [
        "▁ihracı",
        -9.869268602936327
      ],
      [
        "▁149",
        -12.48967126205143
      ],
      [
        "▁kitapcı",
        -11.278100728369711
      ],
      [
        "▁konaklama",
        -10.277905022731492
      ],
      [
        "▁237",
        -11.646589207515516
      ],
      [
        "▁sarkıcı",
        -10.982197326794843
      ],
      [
        "▁ibret",
        -11.518210904138344
      ],
      [
        "▁satıyor",
        -10.24489984025175
      ],
      [
        "▁talip",
        -10.948630072926454
      ],
      [
        "▁organiz",
        -11.145086893579242
      ],
      [
        "▁bey",
        -6.582597475203279
      ],
      [
        "▁enistemiz",
        -11.25135767299651
      ],
      [
        "▁234",
        -12.415293115848229
      ],
      [
        "▁izlemek",
        -10.910404045239856
      ],
      [
        "▁sigortacılar",
        -11.052452646886206
      ],
      [
        "▁degerinde",
        -9.865188453287399
      ],
      [
        "▁katında",
        -10.320568381651167
      ],
      [
        "▁macta",
        -10.896981775667038
      ],
      [
        "▁hav",
        -10.457182187399422
      ],
      [
        "▁savunan",
        -11.376728033079935
      ],
      [
        "▁demokrat",
        -10.55385133655623
      ],
      [
        "▁hafiye",
        -11.684571283181725
      ],
      [
        "imdik",
        -11.096780404927198
      ],
      [
        "▁havayollarını",
        -9.242552080359086
      ],
      [
        "▁anayasa",
        -9.46798693967747
      ],
      [
        "▁kara",
        -7.9308019705978605
      ],
      [
        "3",
        -6.917042067206594
      ],
      [
        "▁inanan",
        -11.38840499749634
      ],
      [
        "▁terliklerin",
        -11.455477947763175
      ],
      [
        "▁olcumu",
        -11.602862705363274
      ],
      [
        "▁karavan",
        -11.684783804115751
      ],
      [
        "sun",
        -7.91083339315504
      ],
      [
        "▁1.40",
        -12.288556649068209
      ],
      [
        "▁metropol",
        -11.884576757929565
      ],
      [
        "▁hıckır",
        -11.884471803247225
      ],
      [
        "▁80.",
        -12.38768181802914
      ],
      [
        "▁istiyoru",
        -6.67290747604633
      ],
      [
        "▁numara",
        -8.65731478467341
      ],
      [
        "▁agız",
        -9.536639786941954
      ],
      [
        "▁2681.",
        -11.39091228448631
      ],
      [
        "▁anlasmasını",
        -11.541449793933625
      ],
      [
        "▁501",
        -12.148382784984145
      ],
      [
        "▁10.5",
        -12.51719262686773
      ],
      [
        "▁kızımı",
        -11.437638946964922
      ],
      [
        "uzel",
        -11.401373444412632
      ],
      [
        "▁isi",
        -8.211540176268358
      ],
      [
        "▁tırıs",
        -11.884576670693418
      ],
      [
        "▁anlasılıyor",
        -10.660256738354775
      ],
      [
        "etinle",
        -11.434434047415325
      ],
      [
        "▁dover",
        -11.554225132222411
      ],
      [
        "▁evlat",
        -10.787904927579067
      ],
      [
        "▁halihazırda",
        -9.714361372335457
      ],
      [
        "▁roberts",
        -11.195504744295976
      ],
      [
        "▁verildi",
        -9.513575819811317
      ],
      [
        "▁merkezlerini",
        -11.500060216115932
      ],
      [
        "▁holdings",
        -11.568244100187776
      ],
      [
        "▁kodu",
        -9.413769703595097
      ],
      [
        "▁tanıkları",
        -11.393684621173628
      ],
      [
        "▁ort",
        -10.312838903817445
      ],
      [
        "▁oynadıgı",
        -10.994262986997374
      ],
      [
        "▁%5.",
        -13.23714746142396
      ],
      [
        "▁dortlu",
        -11.510420925069134
      ],
      [
        "mıslar",
        -9.889753266159381
      ],
      [
        "▁kala",
        -10.380254636935419
      ],
      [
        "▁saldırı",
        -9.590532728750578
      ],
      [
        "▁borsası'nda",
        -9.714517882623188
      ],
      [
        "▁birlesme",
        -9.88248338067164
      ],
      [
        "▁cekiyordu",
        -10.593479089749993
      ],
      [
        "▁t",
        -9.943348871082272
      ],
      [
        "6'",
        -10.066810503907313
      ],
      [
        "▁alacagını",
        -11.058937731674014
      ],
      [
        "▁ortalamasında",
        -11.342664158146786
      ],
      [
        "▁210",
        -11.44021013998717
      ],
      [
        "▁cıkıslı",
        -11.391290863523636
      ],
      [
        "▁ne",
        -5.424833690440229
      ],
      [
        "▁karsımız",
        -11.366584382449291
      ],
      [
        "▁tı",
        -6.478728049308052
      ],
      [
        "sunlar",
        -13.189466135893024
      ],
      [
        "▁avcı",
        -10.759760741425946
      ],
      [
        "▁ocak'ta",
        -11.039675937996972
      ],
      [
        "▁potansiyel",
        -9.740002398207956
      ],
      [
        "▁geri",
        -7.4563143688012765
      ],
      [
        "17",
        -9.744783539347635
      ],
      [
        "▁green",
        -10.588569099961894
      ],
      [
        "▁carpan",
        -10.865606654054977
      ],
      [
        "▁makası",
        -11.560121940604228
      ],
      [
        "▁edilecek",
        -10.489612780069175
      ],
      [
        "53",
        -10.073599951881592
      ],
      [
        "▁surecte",
        -11.38757601053178
      ],
      [
        "▁vucutta",
        -11.73480692340195
      ],
      [
        "▁minibus",
        -11.68515442397666
      ],
      [
        "▁devam",
        -7.569375101952747
      ],
      [
        "▁haram",
        -11.140188478685651
      ],
      [
        ",",
        -8.939206149754476
      ],
      [
        "▁cincinnati'",
        -10.183495780457859
      ],
      [
        "▁kacındı",
        -10.256081420869332
      ],
      [
        "▁minder",
        -10.649706859502976
      ],
      [
        "▁19",
        -7.590840352627738
      ],
      [
        "▁walt",
        -11.139792620407233
      ],
      [
        "▁louis'",
        -9.904989002121884
      ],
      [
        "▁takviye",
        -11.375050762987563
      ],
      [
        "▁terbiye",
        -10.050998553238637
      ],
      [
        "pır",
        -10.285936051152301
      ],
      [
        "misi",
        -10.59608199260895
      ],
      [
        "▁soyleyecegi",
        -11.751634307443778
      ],
      [
        "▁1100",
        -10.565896809000884
      ],
      [
        "▁trelleborg",
        -11.250047268417255
      ],
      [
        "▁yan",
        -10.954538163854123
      ],
      [
        "▁yasadık",
        -11.100510485894953
      ],
      [
        "▁desteklen",
        -10.36329599083854
      ],
      [
        "t",
        -8.962720578188764
      ],
      [
        "opo",
        -11.875584439524985
      ],
      [
        "▁mahvetti",
        -11.884571446155547
      ],
      [
        "vansiyon",
        -10.948032627128885
      ],
      [
        "urası",
        -10.812561105408253
      ],
      [
        "▁disiplin",
        -10.076448237447492
      ],
      [
        "di",
        -5.6426804457314645
      ],
      [
        "'su",
        -11.143930306243709
      ],
      [
        "▁yogun",
        -9.231754585971816
      ],
      [
        "▁giyinmis",
        -10.788085866845252
      ],
      [
        "▁askerleri",
        -10.891979204075755
      ],
      [
        "▁198",
        -13.999596592358095
      ],
      [
        "▁burokrat",
        -10.151946380396387
      ],
      [
        "▁cizdi",
        -11.190325135264397
      ],
      [
        "▁kapanısın",
        -10.983569900047259
      ],
      [
        "▁gitmisti",
        -10.442979699209474
      ],
      [
        "▁cıkacak",
        -9.767126887436138
      ],
      [
        "▁cılgınlıgı",
        -11.261172383589347
      ],
      [
        "▁135",
        -10.524816484443363
      ],
      [
        "▁ulusu",
        -10.700507669852135
      ],
      [
        "▁kesimini",
        -11.855798499143313
      ],
      [
        "▁yasak",
        -9.511377247152515
      ],
      [
        "▁trt'",
        -11.250551214654372
      ],
      [
        "▁ulke",
        -11.403829799918654
      ],
      [
        "ı'nda",
        -10.828794797751145
      ],
      [
        "▁edin",
        -9.258808349004504
      ],
      [
        "▁cilingir",
        -11.684571193423553
      ],
      [
        "imizde",
        -10.960033955062332
      ],
      [
        "kac",
        -10.958567112876992
      ],
      [
        "▁boluk",
        -10.791303242985736
      ],
      [
        "▁mcdonough",
        -11.6845710792709
      ],
      [
        "▁marjin",
        -11.523561628411345
      ],
      [
        "de",
        -5.950856761464086
      ],
      [
        "▁ters",
        -9.527583517071982
      ],
      [
        "▁kiracı",
        -10.799421288476575
      ],
      [
        "▁harris",
        -11.519071775870488
      ],
      [
        "▁oksuruk",
        -10.948120472837417
      ],
      [
        "dum",
        -10.559202719587336
      ],
      [
        "▁196",
        -9.219426224782298
      ],
      [
        "64",
        -12.023490716401648
      ],
      [
        "▁tur",
        -7.6477957709449305
      ],
      [
        "▁kabahat",
        -10.864900473880734
      ],
      [
        "▁melod",
        -11.68551636217035
      ],
      [
        "1.20",
        -11.307531958959766
      ],
      [
        "▁%9",
        -9.782451238871037
      ],
      [
        "▁kariyer",
        -10.233614653211811
      ],
      [
        "▁8.5",
        -10.09862692703964
      ],
      [
        "▁orijinal",
        -10.37016475423878
      ],
      [
        "▁hatır",
        -10.041649141374954
      ],
      [
        "▁sears",
        -11.138947075211366
      ],
      [
        "▁katilma",
        -9.824758537001152
      ],
      [
        "▁kenarda",
        -11.2419116679946
      ],
      [
        "▁dısı",
        -9.141787489341628
      ],
      [
        "▁tacoma'da",
        -10.89264952971418
      ],
      [
        "▁sessizligi",
        -11.568788061071917
      ],
      [
        "or",
        -11.285911387029632
      ],
      [
        "▁yapımı",
        -11.356466294500283
      ],
      [
        "00",
        -10.760742305048167
      ],
      [
        "▁kaynaklanıyor",
        -10.948711492560056
      ],
      [
        "▁yetisir",
        -11.718851910862407
      ],
      [
        "▁mutlulugu",
        -10.774834228054841
      ],
      [
        "▁oynar",
        -9.935039084517566
      ],
      [
        "nu",
        -11.551857311570275
      ],
      [
        "▁surdurdu",
        -10.650342139870919
      ],
      [
        "206",
        -13.376557543868925
      ],
      [
        "ha",
        -12.616830099444922
      ],
      [
        "▁duzeltme",
        -10.166750042496528
      ],
      [
        "▁sinirlendi",
        -11.026337006710499
      ],
      [
        "▁sakatlıgı",
        -11.632532341388963
      ],
      [
        "3.3",
        -11.030306671131804
      ],
      [
        "▁kaldırma",
        -9.94428518713813
      ],
      [
        "▁genisletti",
        -11.522077901172997
      ],
      [
        "▁bizleri",
        -9.582690225371444
      ],
      [
        "▁mazhar",
        -11.68473851811171
      ],
      [
        "▁aitti",
        -11.357951910180596
      ],
      [
        "▁avantaj",
        -10.322545706861444
      ],
      [
        "▁tutku",
        -10.044245749522812
      ],
      [
        "▁basların",
        -11.123180362501717
      ],
      [
        "▁istediginde",
        -11.787665557552423
      ],
      [
        "▁ib",
        -9.896885294661494
      ],
      [
        "▁cozum",
        -9.605728495666122
      ],
      [
        "▁hepimizi",
        -9.081385122939912
      ],
      [
        "ından",
        -8.229452972012137
      ],
      [
        "▁sayısı",
        -9.45762233178651
      ],
      [
        "▁49.",
        -12.422199688533125
      ],
      [
        "▁yardımı",
        -10.190083693302029
      ],
      [
        "▁bulusu",
        -10.901107440635773
      ],
      [
        "idi",
        -11.816793851847512
      ],
      [
        "▁art",
        -7.980058210753071
      ],
      [
        "▁cesaret",
        -10.059968642336749
      ],
      [
        "▁bakımından",
        -9.573420957471441
      ],
      [
        "▁olabilir",
        -7.445960610412508
      ],
      [
        "▁kuracak",
        -11.690563403087015
      ],
      [
        "▁duzenlemeleri",
        -10.486337891515035
      ],
      [
        "▁taskın",
        -11.684845208424255
      ],
      [
        "▁oturak",
        -11.699125044052344
      ],
      [
        "▁show",
        -10.717104597511625
      ],
      [
        "▁hatun",
        -10.698816599098736
      ],
      [
        "▁ilim",
        -10.800755104420116
      ],
      [
        "▁falso",
        -11.518029802590858
      ],
      [
        "▁gec",
        -8.06676110474272
      ],
      [
        "▁yuzyılda",
        -11.013858144776957
      ],
      [
        "ro",
        -9.094030809012978
      ],
      [
        "▁yuva",
        -10.363493339570129
      ],
      [
        "▁departmanı",
        -11.036925986718797
      ],
      [
        "▁otellerde",
        -11.03206975982918
      ],
      [
        "37",
        -10.573098755786937
      ],
      [
        "▁kurtul",
        -10.185521366940474
      ],
      [
        "eger",
        -6.87329914079828
      ],
      [
        "▁bicimli",
        -11.424358543625706
      ],
      [
        "▁varsova",
        -11.884574780336884
      ],
      [
        "▁icap",
        -10.948917640829915
      ],
      [
        "▁21.",
        -10.44672806397608
      ],
      [
        "81",
        -11.083349936407382
      ],
      [
        "▁mekanizma",
        -11.5901515957649
      ],
      [
        "▁aleyhin",
        -10.637778905881682
      ],
      [
        "▁aslan",
        -9.965662616179658
      ],
      [
        "▁tazminat",
        -10.427437690835191
      ],
      [
        "kendisi",
        -10.614145787993138
      ],
      [
        "▁kemal'i",
        -10.865134946714896
      ],
      [
        "acaktı",
        -12.56003253610318
      ],
      [
        "h",
        -7.700124458784982
      ],
      [
        "▁ice",
        -9.994689225429317
      ],
      [
        "▁iade",
        -10.583148643889125
      ],
      [
        "▁inziva",
        -11.884571522743602
      ],
      [
        "▁buyudu",
        -10.134756670541773
      ],
      [
        "i'ni",
        -9.96503043494749
      ],
      [
        "▁sahipti",
        -10.056036338383572
      ],
      [
        "▁buyudugunu",
        -11.375771699788702
      ],
      [
        "▁hilton",
        -11.250048371297048
      ],
      [
        "sizi",
        -11.26895487979869
      ],
      [
        "▁bashekim",
        -11.517904428769132
      ],
      [
        "▁yahu",
        -10.472108198878715
      ],
      [
        "gide",
        -10.842106958864056
      ],
      [
        "▁'t",
        -13.005121334547928
      ],
      [
        "uyordu",
        -9.302344088210196
      ],
      [
        "▁alacaklılar",
        -10.934060538046488
      ],
      [
        "▁destekli",
        -9.66514642253874
      ],
      [
        "sek",
        -9.92236385513032
      ],
      [
        "▁organları",
        -11.027355728561211
      ],
      [
        "tmek",
        -10.56969651093135
      ],
      [
        "▁kostum",
        -11.07812838758422
      ],
      [
        "▁olcude",
        -8.812349726451606
      ],
      [
        "▁kızcagız",
        -11.140609517512491
      ],
      [
        "▁1988'",
        -11.666918795263014
      ],
      [
        "▁umar",
        -10.872840655138962
      ],
      [
        "▁opuyor",
        -11.582973987617844
      ],
      [
        "▁54",
        -9.863656872981549
      ],
      [
        "▁cekti",
        -8.695066505552493
      ],
      [
        "▁bacakları",
        -11.20607769973705
      ],
      [
        "▁suphesiz",
        -10.717644639791338
      ],
      [
        "▁yapılan",
        -8.216562167310276
      ],
      [
        "▁takan",
        -11.694232839840145
      ],
      [
        "▁arabulucu",
        -11.684571138031073
      ],
      [
        "nack",
        -11.761540632910224
      ],
      [
        "▁yuregini",
        -11.049601979638435
      ],
      [
        "▁matematik",
        -10.040733372813747
      ],
      [
        "▁gizleme",
        -11.211916213025559
      ],
      [
        "▁5000",
        -11.291482966706926
      ],
      [
        "▁cıkarma",
        -9.612656645184277
      ],
      [
        "▁mesaj",
        -9.78283031682801
      ],
      [
        "▁denk",
        -9.882458874885756
      ],
      [
        "▁265",
        -10.460843441290223
      ],
      [
        "gunu",
        -8.836484530579899
      ],
      [
        "▁birik",
        -10.297460241139019
      ],
      [
        "nız",
        -8.842661102518875
      ],
      [
        "▁burbank'ta",
        -10.399261132737614
      ],
      [
        "▁stone",
        -11.375198184094867
      ],
      [
        "▁50",
        -7.6484607958406485
      ],
      [
        "▁mort",
        -10.939344456987481
      ],
      [
        "▁vasıta",
        -10.918760356500162
      ],
      [
        "▁anlasıldı",
        -10.787771192611174
      ],
      [
        "▁sakalı",
        -10.866140729595076
      ],
      [
        "▁hol",
        -10.887919939970223
      ],
      [
        "▁kolu",
        -10.230034292257443
      ],
      [
        "▁teblig",
        -11.038936162713508
      ],
      [
        "▁sıkma",
        -11.249571837136534
      ],
      [
        "5.16",
        -11.764211844483834
      ],
      [
        "▁kepce",
        -11.517972384122901
      ],
      [
        "▁382",
        -11.685374660862344
      ],
      [
        "▁patates",
        -9.793346018396877
      ],
      [
        "▁siirde",
        -11.045618511090291
      ],
      [
        "29.2",
        -11.478666981838087
      ],
      [
        "▁karsilama",
        -9.618057203190014
      ],
      [
        "▁farkında",
        -9.623550397110701
      ],
      [
        "▁yukseltil",
        -11.735601136039097
      ],
      [
        "▁pey",
        -11.169846254511455
      ],
      [
        "▁gorursun",
        -11.382970083369635
      ],
      [
        "▁sogut",
        -10.591517896965835
      ],
      [
        "4.87",
        -13.718375994870044
      ],
      [
        "▁nynex",
        -11.684573035687881
      ],
      [
        "▁varıyor",
        -9.988967645823262
      ],
      [
        "▁1600",
        -12.423094884313896
      ],
      [
        "▁muallim",
        -11.138936362013538
      ],
      [
        "▁at&t",
        -11.138936930897753
      ],
      [
        "▁odada",
        -9.198873647624787
      ],
      [
        "tzer",
        -11.68637608817872
      ],
      [
        "91",
        -11.229206499736948
      ],
      [
        "▁cit",
        -10.691760169411447
      ],
      [
        "—",
        -12.809526790838989
      ],
      [
        "▁olamadıgı",
        -11.790861488837656
      ],
      [
        "!",
        -5.681525786294376
      ],
      [
        "sunun",
        -10.278334437930418
      ],
      [
        "▁yetisiyor",
        -11.271721798139854
      ],
      [
        "▁baglı",
        -8.571104889910396
      ],
      [
        "▁bitim",
        -11.267226358013543
      ],
      [
        "▁uzme",
        -11.536255633895024
      ],
      [
        "leyecegi",
        -10.712863947021148
      ],
      [
        "▁bond",
        -10.788339018173602
      ],
      [
        "▁%27",
        -11.811170483524602
      ],
      [
        "▁atlama",
        -11.739069807709425
      ],
      [
        "▁hisseder",
        -11.008897555386085
      ],
      [
        "▁cocuk",
        -7.616548963622539
      ],
      [
        "▁oranlarını",
        -10.488757830957166
      ],
      [
        "▁kalabalıgı",
        -10.920544417761718
      ],
      [
        "dıgınızda",
        -11.797846259692756
      ],
      [
        "▁kırbac",
        -11.684573699043025
      ],
      [
        "▁izin",
        -8.81066012569487
      ],
      [
        "▁kolon",
        -11.515226302482331
      ],
      [
        "▁boru",
        -10.050749958494947
      ],
      [
        "▁tuttugu",
        -10.339426471754344
      ],
      [
        "uc",
        -10.765349137976266
      ],
      [
        "167",
        -12.417366141619368
      ],
      [
        "▁nagme",
        -11.138996975014061
      ],
      [
        "▁kontr",
        -11.532304726833342
      ],
      [
        "▁!",
        -9.510406401262049
      ],
      [
        "▁rivayet",
        -11.375047362119012
      ],
      [
        "▁fredd",
        -10.716739112265326
      ],
      [
        "▁yaz",
        -8.24828386248926
      ],
      [
        "▁britanya",
        -10.522971696447982
      ],
      [
        "▁sarılıyor",
        -11.692315001741488
      ],
      [
        "▁love",
        -10.233829750436728
      ],
      [
        "▁paketi",
        -10.690474303578698
      ],
      [
        "▁sin",
        -10.058775056398641
      ],
      [
        "▁enerji",
        -9.066553642193902
      ],
      [
        "▁yatakta",
        -10.76922919617172
      ],
      [
        "▁tarih",
        -8.656675597820726
      ],
      [
        "▁katip",
        -11.260136136221526
      ],
      [
        "irse",
        -10.971606535182431
      ],
      [
        "▁nine",
        -10.28553239403826
      ],
      [
        "▁urkek",
        -10.948157130719778
      ],
      [
        "579",
        -12.440483147230122
      ],
      [
        "▁oper",
        -10.650413477116208
      ],
      [
        "k",
        -4.773591637368394
      ],
      [
        "hangi",
        -8.231689543087441
      ],
      [
        "▁kestane",
        -11.517967265215239
      ],
      [
        "▁kaldırımın",
        -11.725727967419342
      ],
      [
        "▁fizigin",
        -11.684582561077287
      ],
      [
        "▁kanama",
        -10.969414098802215
      ],
      [
        "▁anlayama",
        -11.55649251844667
      ],
      [
        "▁gideyi",
        -11.412417517417603
      ],
      [
        "▁onayın",
        -10.375561414090559
      ],
      [
        "▁dusunmuyor",
        -9.489173761291227
      ],
      [
        "▁yorgunlugun",
        -11.597424579090518
      ],
      [
        "▁fev",
        -10.974390689444924
      ],
      [
        "30.1",
        -11.017175497580483
      ],
      [
        "▁ciddiye",
        -10.77300161302586
      ],
      [
        "71",
        -10.766396853589342
      ],
      [
        "▁goturur",
        -11.147805066616506
      ],
      [
        "▁108",
        -10.94888692485328
      ],
      [
        "▁vuruldu",
        -11.487639279619325
      ],
      [
        "▁utule",
        -11.414689143614575
      ],
      [
        "▁agacta",
        -11.261643600159545
      ],
      [
        "▁kanı",
        -10.221153247572262
      ],
      [
        "▁taksi",
        -9.936070036839688
      ],
      [
        "▁huzun",
        -10.420179621433068
      ],
      [
        "▁bitirme",
        -10.563386235857356
      ],
      [
        "▁sebze",
        -10.07652400475353
      ],
      [
        "▁cesedi",
        -11.250060183511778
      ],
      [
        "▁dagılma",
        -11.042206200188872
      ],
      [
        "mızda",
        -9.901649209714657
      ],
      [
        "▁nec",
        -10.396581066968684
      ],
      [
        "▁avuc",
        -9.532851738011736
      ],
      [
        "▁secimlerde",
        -11.190880591936752
      ],
      [
        "▁ederse",
        -10.74604258030021
      ],
      [
        "▁yapay",
        -11.163680520239087
      ],
      [
        "▁kaldırım",
        -9.908436023263404
      ],
      [
        "65",
        -9.675037765306437
      ],
      [
        "▁aziz",
        -10.651676779624585
      ],
      [
        "▁1.27",
        -11.418254428855464
      ],
      [
        "▁yetistirme",
        -10.864763169205101
      ],
      [
        "▁adet",
        -8.065680670951943
      ],
      [
        "▁gorunuyordu",
        -9.988230267721834
      ],
      [
        "▁askeri",
        -9.067402551551353
      ],
      [
        "▁goz",
        -7.845909168605718
      ],
      [
        "▁sozlerin",
        -10.328384357625941
      ],
      [
        "▁kalırdı",
        -10.958260472062507
      ],
      [
        "▁kalite",
        -8.201481372134062
      ],
      [
        "▁yuzsuz",
        -11.690544884251796
      ],
      [
        "▁pohpoh",
        -11.684571077953663
      ],
      [
        "▁sıg",
        -10.319042595258862
      ],
      [
        "▁aglayan",
        -11.378112976932282
      ],
      [
        "▁nikaragua",
        -11.375047268581588
      ],
      [
        "▁kusursuz",
        -10.17268960558798
      ],
      [
        "▁katılan",
        -10.473885559026801
      ],
      [
        "▁charlotte",
        -10.074789147947037
      ],
      [
        "▁gebe",
        -10.732425981876316
      ],
      [
        "bb",
        -10.669084605792547
      ],
      [
        "dolay",
        -9.872246450338713
      ],
      [
        "▁aslın",
        -8.504549801007329
      ],
      [
        "▁maddeler",
        -10.702919630098354
      ],
      [
        "▁atıyordu",
        -10.874596955828661
      ],
      [
        "erson",
        -11.163232046257557
      ],
      [
        "▁okuyor",
        -10.228013051985855
      ],
      [
        "▁ugrasıyordu",
        -11.690269120028931
      ],
      [
        "oo",
        -10.870965853137061
      ],
      [
        "▁burnunu",
        -11.152169148435224
      ],
      [
        "▁dusunce",
        -9.575608520877818
      ],
      [
        "▁acılmasını",
        -11.170362467843937
      ],
      [
        "▁etkinlik",
        -10.679119588046714
      ],
      [
        "▁fıstık",
        -10.7877741469839
      ],
      [
        "▁secmek",
        -11.087437638302312
      ],
      [
        "▁,",
        -11.223407222073448
      ],
      [
        "▁korkar",
        -10.953790014782486
      ],
      [
        "▁borcunu",
        -10.655024691499559
      ],
      [
        "ho",
        -9.812970908969017
      ],
      [
        "▁kendini",
        -6.832826224031009
      ],
      [
        "▁1.2",
        -8.718415128083837
      ],
      [
        "▁hassasiyeti",
        -11.51814003580553
      ],
      [
        "unde",
        -10.472168070904392
      ],
      [
        "lamaz",
        -10.698443065123978
      ],
      [
        "▁yanın",
        -9.562326652232368
      ],
      [
        "▁kapasite",
        -10.089741806082174
      ],
      [
        "▁gomlek",
        -9.879106522413393
      ],
      [
        "▁defterini",
        -11.585929721350734
      ],
      [
        "▁arastırmaları",
        -11.159691802156292
      ],
      [
        "▁zemin",
        -10.113490421535055
      ],
      [
        "▁reklamı",
        -11.304555261053483
      ],
      [
        "▁degmis",
        -11.252134833049563
      ],
      [
        "▁bezi",
        -10.895324550331633
      ],
      [
        "▁edebiyat",
        -9.55121922744047
      ],
      [
        "▁tampa'",
        -10.193906458469241
      ],
      [
        "▁portfoyunu",
        -11.698475244995377
      ],
      [
        "▁beklenmedi",
        -10.511255346895553
      ],
      [
        "▁422",
        -12.407585147410188
      ],
      [
        "▁kok",
        -9.225125229643947
      ],
      [
        "▁memlekette",
        -10.65840491180619
      ],
      [
        "▁yemeni",
        -11.00192363376417
      ],
      [
        "▁motivasyon",
        -11.375444969914797
      ],
      [
        "▁las",
        -8.53789364664667
      ],
      [
        "▁riayet",
        -11.684587872092925
      ],
      [
        "▁kıraathane",
        -11.374978591393601
      ],
      [
        "ger",
        -12.052612229920268
      ],
      [
        "▁arkadaslarımız",
        -11.79383569463008
      ],
      [
        "6000",
        -11.892218358765273
      ],
      [
        "▁anlasma",
        -8.36951680798784
      ],
      [
        "▁olacagın",
        -10.52903875591388
      ],
      [
        "▁taksit",
        -10.636592053804804
      ],
      [
        "z",
        -14.190853728377773
      ],
      [
        "▁bagımsızlık",
        -11.531565479748014
      ],
      [
        "▁degismez",
        -10.954793867440307
      ],
      [
        "▁dert",
        -9.801907087062265
      ],
      [
        "▁detay",
        -10.293071141318453
      ],
      [
        "▁brothers",
        -10.649675423483322
      ],
      [
        "▁carl",
        -11.268498253706873
      ],
      [
        "▁335",
        -11.257124413751885
      ],
      [
        "ell",
        -9.878541780516374
      ],
      [
        "▁tut",
        -9.174583136949328
      ],
      [
        "▁f",
        -8.738307176877415
      ],
      [
        "▁izledi",
        -10.058428383925278
      ],
      [
        "▁gelsin",
        -10.153770616499965
      ],
      [
        "▁ote",
        -10.408931703369262
      ],
      [
        "▁alf",
        -11.431951663229558
      ],
      [
        "▁1.60",
        -11.018883638092944
      ],
      [
        "▁koy",
        -8.240814463609174
      ],
      [
        "▁siney",
        -11.849610453931362
      ],
      [
        "▁paranın",
        -10.02673822786462
      ],
      [
        "▁u",
        -10.369907386165725
      ],
      [
        "▁kırmızıbiber",
        -11.884571334124633
      ],
      [
        "▁carte",
        -10.539103244055116
      ],
      [
        "▁kurnaz",
        -11.25006239888522
      ],
      [
        "cıya",
        -10.708760542006083
      ],
      [
        "▁uzattı",
        -10.380252802669048
      ],
      [
        "▁bursa",
        -10.919505909879357
      ],
      [
        "▁gorunmeye",
        -11.547406962521682
      ],
      [
        "▁j",
        -9.676912247758253
      ],
      [
        "▁may",
        -10.927864103567797
      ],
      [
        "▁kucuktu",
        -8.39924683221766
      ],
      [
        "▁arada",
        -8.332365088008299
      ],
      [
        "▁dolduruyor",
        -10.987837841252666
      ],
      [
        "▁suriye",
        -11.691143910656765
      ],
      [
        "▁firma",
        -9.058212655128916
      ],
      [
        "▁kosullar",
        -10.317284449441575
      ],
      [
        "▁kazanc",
        -8.622233000927853
      ],
      [
        "▁yayma",
        -11.235799115174752
      ],
      [
        "▁buyuyu",
        -11.376808263567675
      ],
      [
        "tefe",
        -10.98931158454865
      ],
      [
        "▁kurus",
        -9.844148638067653
      ],
      [
        "▁kardesi",
        -9.860466496469982
      ],
      [
        "▁okuma",
        -9.209737167939185
      ],
      [
        "▁firması",
        -9.57357838509252
      ],
      [
        "▁gundem",
        -10.1175630549711
      ],
      [
        "▁bulamıyor",
        -11.134462884654619
      ],
      [
        "▁gelismeler",
        -10.408079934214346
      ],
      [
        "▁ic",
        -8.166984252966557
      ],
      [
        "▁sinyal",
        -10.650655714197493
      ],
      [
        "▁tanıdık",
        -10.929945503617548
      ],
      [
        "▁dorde",
        -11.685289615625743
      ],
      [
        "ı",
        -11.30808334001589
      ],
      [
        "▁sehri",
        -9.943465539786494
      ],
      [
        "▁ne",
        -6.281447316085971
      ],
      [
        "▁belirsizligin",
        -11.834386843940555
      ],
      [
        "▁sarıldı",
        -10.581766474773747
      ],
      [
        "▁katta",
        -10.91524295336293
      ],
      [
        "▁cor",
        -10.187678819946491
      ],
      [
        "▁ceset",
        -11.375061698637285
      ],
      [
        "▁sulfur",
        -11.884571092274925
      ],
      [
        "▁gorunme",
        -10.702617049067124
      ],
      [
        "▁nisan'da",
        -10.235313007904253
      ],
      [
        "▁world",
        -11.304021605515654
      ],
      [
        "▁testi",
        -10.92837025370772
      ],
      [
        "▁laboratuar",
        -11.684571077953269
      ],
      [
        "▁sınav",
        -10.264898369087021
      ],
      [
        "▁domuz",
        -10.729070167973749
      ],
      [
        "▁am",
        -8.351838422124183
      ],
      [
        "3.",
        -10.513810258441914
      ],
      [
        "▁uyandırma",
        -11.679427078838804
      ],
      [
        "ebilecegimiz",
        -11.327820831205967
      ],
      [
        "▁havuc",
        -11.256583346592242
      ],
      [
        "▁fujitsu",
        -11.51790525613673
      ],
      [
        "▁baslattı",
        -10.800121252014138
      ],
      [
        "▁lang",
        -10.589644414505134
      ],
      [
        "▁he",
        -6.007693112883406
      ],
      [
        "▁acıkcası",
        -11.499713958274945
      ],
      [
        "▁ekol",
        -11.687723087577224
      ],
      [
        "▁bildigi",
        -10.013604286603176
      ],
      [
        "▁350",
        -9.62531107349585
      ],
      [
        "29.4",
        -12.40158587484446
      ],
      [
        "▁%4.",
        -12.580596872868544
      ],
      [
        "▁tasarruf",
        -9.488129940187148
      ],
      [
        "▁ihbar",
        -11.884571079052597
      ],
      [
        "▁mektep",
        -10.514473562695612
      ],
      [
        "egi",
        -8.722547943385237
      ],
      [
        "▁is",
        -10.349556061841136
      ],
      [
        "▁cumbus",
        -11.884574394172216
      ],
      [
        "▁planlarını",
        -10.50004108688283
      ],
      [
        "▁misi",
        -11.75121553250029
      ],
      [
        "▁oranını",
        -10.512642862745565
      ],
      [
        "▁201",
        -9.176385403819815
      ],
      [
        "▁komplo",
        -11.250047289859353
      ],
      [
        "▁kalkan",
        -7.652657243107468
      ],
      [
        "▁yılmaz",
        -10.852201755848027
      ],
      [
        "▁odam",
        -9.80843186811251
      ],
      [
        "zat",
        -10.38435397387838
      ],
      [
        "▁bakmayı",
        -10.956017900077597
      ],
      [
        "▁katolik",
        -11.250067057126563
      ],
      [
        "▁aqua",
        -10.11348392876659
      ],
      [
        "kuru",
        -11.218603282021835
      ],
      [
        "▁cogunluk",
        -11.250697005245277
      ],
      [
        "▁tuttu",
        -9.083997546374128
      ],
      [
        "7.1",
        -11.020553119748977
      ],
      [
        "▁ekrem",
        -11.684585906290163
      ],
      [
        "tu",
        -9.158395043648547
      ],
      [
        "kan",
        -9.53683400427117
      ],
      [
        "▁zo",
        -11.26556412049969
      ],
      [
        "▁mecliste",
        -11.086273989315547
      ],
      [
        "▁andırır",
        -11.386334780101969
      ],
      [
        "▁guzelligini",
        -11.386606059692953
      ],
      [
        "▁gezen",
        -11.5179803026418
      ],
      [
        "lerin",
        -10.512831345665763
      ],
      [
        "▁cezbed",
        -11.723000098100275
      ],
      [
        "▁societ",
        -11.884574369897752
      ],
      [
        "▁hisselerin",
        -10.287712958783823
      ],
      [
        "dum",
        -9.156293291224284
      ],
      [
        "▁olmasin",
        -10.960245542088577
      ],
      [
        "▁zamanlama",
        -10.74125604903818
      ],
      [
        "▁5'te",
        -9.359972122081379
      ],
      [
        "▁yazısı",
        -10.961089222630951
      ],
      [
        "▁kırlangıc",
        -11.250047271159762
      ],
      [
        "▁gunlerini",
        -10.72040801650324
      ],
      [
        "▁calısıyordu",
        -9.830817947082156
      ],
      [
        "▁kurmay",
        -10.485552432602383
      ],
      [
        "maktaydı",
        -11.235675649607082
      ],
      [
        "▁urkut",
        -11.077377621982247
      ],
      [
        "▁sun",
        -11.661185466512986
      ],
      [
        "▁bakanlar",
        -10.791800910589245
      ],
      [
        "rey",
        -11.0142647261105
      ],
      [
        "▁degi",
        -12.306691144836835
      ],
      [
        "reasur",
        -10.864999782687514
      ],
      [
        "▁7.6",
        -10.134633392216099
      ],
      [
        "▁beste",
        -10.878935504813994
      ],
      [
        "▁ustelik",
        -9.596229529225203
      ],
      [
        "▁9.3",
        -13.669847646344671
      ],
      [
        "▁teksas",
        -10.646771640065461
      ],
      [
        "una",
        -9.04331637951565
      ],
      [
        "r",
        -8.240384993611011
      ],
      [
        "▁yapıskan",
        -11.684761172891346
      ],
      [
        "▁supheci",
        -11.729017928176145
      ],
      [
        "cı",
        -9.105755383544302
      ],
      [
        "▁teyzem",
        -10.972750229982816
      ],
      [
        "▁508",
        -11.778184929197698
      ],
      [
        "▁bes",
        -10.086037492820541
      ],
      [
        "▁edilmeli",
        -10.890036510516733
      ],
      [
        "▁yarata",
        -11.436509731834011
      ],
      [
        "mız",
        -8.209919665993896
      ],
      [
        "▁baglan",
        -10.324855521225583
      ],
      [
        "-",
        -5.2246448626679545
      ],
      [
        "▁gezegen",
        -10.528351938102775
      ],
      [
        "▁ohio'",
        -11.574176769589048
      ],
      [
        "6.9",
        -10.490354933540225
      ],
      [
        "▁hatırlama",
        -11.259370808899702
      ],
      [
        "▁diktator",
        -10.86469948586592
      ],
      [
        "▁mesafe",
        -9.766321816160835
      ],
      [
        "▁acmıs",
        -10.603390759250871
      ],
      [
        "▁duymuyor",
        -11.25168311698485
      ],
      [
        "▁gelistirilmesi",
        -11.375147542804505
      ],
      [
        "nı",
        -12.196686068679357
      ],
      [
        "▁onyedi",
        -10.921018666201677
      ],
      [
        "▁oykuler",
        -11.265546385899489
      ],
      [
        "▁sonuclar",
        -9.733066128974983
      ],
      [
        "▁resepsiyon",
        -10.785706974567287
      ],
      [
        "▁ab'",
        -10.807040084056457
      ],
      [
        "▁dedigi",
        -9.954012490020641
      ],
      [
        "▁mirası",
        -11.467745295924075
      ],
      [
        "▁dinamik",
        -11.684572522468175
      ],
      [
        "▁cıkan",
        -8.885775440263629
      ],
      [
        "▁japonlar",
        -10.762968662600377
      ],
      [
        "fer",
        -10.26087502946557
      ],
      [
        "▁imkan",
        -9.93069336715408
      ],
      [
        "▁122.",
        -12.306585786724714
      ],
      [
        "▁cıldır",
        -11.040553906511029
      ],
      [
        "▁sev",
        -9.231853749842205
      ],
      [
        "▁keman",
        -10.60231862370858
      ],
      [
        "▁orası",
        -10.898531472404645
      ],
      [
        "▁beklentimizi",
        -11.519141937222015
      ],
      [
        "▁kutuphane",
        -10.787771632724295
      ],
      [
        "▁uyeleri",
        -10.066693008903618
      ],
      [
        "2'y",
        -12.511473267206998
      ],
      [
        "aki",
        -13.122725153401502
      ],
      [
        "▁kolej",
        -11.520973217251242
      ],
      [
        "02'y",
        -12.634820134476351
      ],
      [
        "▁yasıyor",
        -9.431516705970182
      ],
      [
        "▁baslarında",
        -10.125926410086977
      ],
      [
        "35.6",
        -12.253979231264818
      ],
      [
        "▁yanlısı",
        -10.748075923849967
      ],
      [
        "▁475000",
        -11.00794604535869
      ],
      [
        "▁steel",
        -11.684998057679675
      ],
      [
        "▁ziyareti",
        -10.94642785607911
      ],
      [
        "▁titiz",
        -10.661515810392974
      ],
      [
        "▁bıraka",
        -10.807519737760579
      ],
      [
        "▁suzuyor",
        -11.567627281509058
      ],
      [
        "▁azalma",
        -10.749731277335453
      ],
      [
        "▁vermis",
        -9.27275437490931
      ],
      [
        "▁kaynaya",
        -11.403122588510058
      ],
      [
        "▁cizgisini",
        -11.529960839644977
      ],
      [
        "lan",
        -8.352687160670566
      ],
      [
        "▁2.5",
        -9.228150996259867
      ],
      [
        "▁ruzgarı",
        -10.885281500412072
      ],
      [
        "'ın",
        -11.605840980532436
      ],
      [
        "1400",
        -12.557030460407402
      ],
      [
        "▁istene",
        -11.33055154589852
      ],
      [
        "▁edilmekte",
        -11.088693575151602
      ],
      [
        "87",
        -11.566550520542979
      ],
      [
        "▁promosyon",
        -11.674155753620532
      ],
      [
        "▁yakin",
        -8.966396523332715
      ],
      [
        "'i",
        -12.16584339331838
      ],
      [
        "▁ugrayacaklar",
        -11.380385687526934
      ],
      [
        "▁kaldi",
        -6.810458755007214
      ],
      [
        "▁981.",
        -11.602400666508135
      ],
      [
        "▁krema",
        -11.16236732856655
      ],
      [
        "▁painewebber",
        -10.71634208470838
      ],
      [
        "▁fransa'",
        -10.238551225885928
      ],
      [
        "▁gelecekte",
        -9.639441508683195
      ],
      [
        "royal",
        -11.388170138942654
      ],
      [
        "▁guvertede",
        -11.049896670536798
      ],
      [
        "▁surdurecek",
        -11.375269385829895
      ],
      [
        "▁kaybetme",
        -10.192585760951898
      ],
      [
        "oniki",
        -11.219828824875846
      ],
      [
        "▁airlines",
        -8.776677723144342
      ],
      [
        "▁onder",
        -10.8828942315171
      ],
      [
        "▁%4",
        -11.325500474965988
      ],
      [
        "▁oba",
        -11.521644951840594
      ],
      [
        "ılmaya",
        -11.226546632081204
      ],
      [
        "▁merkezli",
        -9.45642380304696
      ],
      [
        "▁durumda",
        -8.601125325736724
      ],
      [
        "▁texas",
        -10.076447684453763
      ],
      [
        "▁kokusu",
        -9.641538418966661
      ],
      [
        "guzel",
        -11.247383249888566
      ],
      [
        "▁piyasaları",
        -9.958042461102352
      ],
      [
        "▁tunel",
        -11.039518797894997
      ],
      [
        "▁kurkcu",
        -11.685451335696383
      ],
      [
        "▁bahceleri",
        -11.044265173471171
      ],
      [
        "ris",
        -10.61840660684702
      ],
      [
        "▁kitabın",
        -10.860290808290186
      ],
      [
        "it",
        -8.904866363425128
      ],
      [
        "▁hakediyor",
        -11.138938356085937
      ],
      [
        "▁yazlık",
        -11.360242200338266
      ],
      [
        "▁137.20",
        -11.396375485700323
      ],
      [
        "▁gelmislerdi",
        -11.532766142495152
      ],
      [
        "▁dostlugu",
        -11.10061719137465
      ],
      [
        "▁eski",
        -7.11688907177662
      ],
      [
        "120",
        -11.81473100606605
      ],
      [
        "▁acıyor",
        -10.183927389773112
      ],
      [
        "30'da",
        -10.469393232497609
      ],
      [
        "▁belirlenme",
        -11.349367418336104
      ],
      [
        "▁bicimde",
        -9.59841744830225
      ],
      [
        "680",
        -12.50723548878292
      ],
      [
        "▁utanc",
        -10.422067668399412
      ],
      [
        "▁zamanki",
        -10.3736157651679
      ],
      [
        "thi",
        -11.21506588034437
      ],
      [
        "▁donunc",
        -11.310646721777632
      ],
      [
        "▁'y",
        -12.499910982439719
      ],
      [
        "▁korka",
        -11.595735973099188
      ],
      [
        "▁tekrarlana",
        -11.603367867870787
      ],
      [
        "▁strateji",
        -9.283414267300762
      ],
      [
        "▁temsilci",
        -10.064233445716319
      ],
      [
        "▁oneri",
        -10.355716406777221
      ],
      [
        "nci",
        -10.67824377903572
      ],
      [
        "▁sasır",
        -10.598076418645139
      ],
      [
        "▁biyo",
        -11.68457306890084
      ],
      [
        "▁parmagında",
        -11.699327593895703
      ],
      [
        "▁ufak",
        -8.616562373952352
      ],
      [
        "▁derecede",
        -9.664792624555329
      ],
      [
        "-4",
        -11.354791702071255
      ],
      [
        "▁doları'n",
        -9.074626229861735
      ],
      [
        "▁dc",
        -9.648527878014463
      ],
      [
        "▁olumsuzluklarda",
        -11.517946684174834
      ],
      [
        "▁kızlar",
        -9.771419295198118
      ],
      [
        "▁amacla",
        -10.42151489016142
      ],
      [
        "▁1954'",
        -11.740229328633967
      ],
      [
        "▁avucunu",
        -11.265456366211763
      ],
      [
        "▁filmlerde",
        -11.566783412190489
      ],
      [
        "▁36.1",
        -11.549427421891494
      ],
      [
        "▁gordu",
        -8.017591944388993
      ],
      [
        "▁kaybettigi",
        -11.015797589088818
      ],
      [
        "▁ettiginiz",
        -11.160870228734568
      ],
      [
        "▁aglay",
        -11.173879391616246
      ],
      [
        "▁vucut",
        -10.03129752468245
      ],
      [
        "▁ilcesinde",
        -11.270135080085055
      ],
      [
        "rugu",
        -11.363649014994543
      ],
      [
        "mazlar",
        -10.803113207839367
      ],
      [
        "▁rehberimiz",
        -9.689805112017694
      ],
      [
        "▁figur",
        -11.139162853841036
      ],
      [
        "▁patronu",
        -10.874699803623066
      ],
      [
        "▁351",
        -12.345432925279345
      ],
      [
        "▁ucretleri",
        -9.333704865218984
      ],
      [
        "▁yayın",
        -8.96153012360572
      ],
      [
        "▁duvarların",
        -10.95064423274269
      ],
      [
        "▁ot",
        -9.098942384816844
      ],
      [
        "▁makale",
        -9.748986040444475
      ],
      [
        "▁bir",
        -2.2851356391202717
      ],
      [
        "▁ideoloji",
        -10.113590617065023
      ],
      [
        "▁mutlak",
        -9.304701112773483
      ],
      [
        "▁1990'",
        -11.651064248725003
      ],
      [
        "▁kumsali",
        -10.967971823732965
      ],
      [
        "▁edebilecegini",
        -11.417588515605956
      ],
      [
        "▁pı",
        -11.055086030260906
      ],
      [
        "▁100'",
        -10.52849939619793
      ],
      [
        "▁birlese",
        -11.848728568487433
      ],
      [
        "▁edilecekti",
        -11.645959833456073
      ],
      [
        "▁ortak",
        -8.759796793895834
      ],
      [
        "▁soy",
        -9.712560815143156
      ],
      [
        "▁gerek",
        -9.094802343360127
      ],
      [
        "▁yorumlar",
        -10.628857830650176
      ],
      [
        "▁degisiklikler",
        -9.701965882044046
      ],
      [
        "▁sonun",
        -9.572935323292114
      ],
      [
        "▁elim",
        -10.071131107128352
      ],
      [
        "1'",
        -10.408566909208208
      ],
      [
        "▁durtu",
        -11.257909985310189
      ],
      [
        "▁muhtemel",
        -8.977884334705227
      ],
      [
        "▁planlıyor",
        -9.746491516383273
      ],
      [
        "7.50",
        -11.014001245584971
      ],
      [
        "▁sorusturması",
        -11.557650087220933
      ],
      [
        "▁diger",
        -11.34924436711297
      ],
      [
        "▁76.",
        -13.457652824143684
      ],
      [
        "▁sesli",
        -10.696902239554884
      ],
      [
        "▁lastik",
        -10.323319113145466
      ],
      [
        "▁olduruldu",
        -11.338550970571982
      ],
      [
        "▁isporta",
        -11.375091739036655
      ],
      [
        "landırıyor",
        -10.873846527757342
      ],
      [
        "fak",
        -9.968882319280924
      ],
      [
        "ben",
        -8.122680783913847
      ],
      [
        "02.0",
        -12.395323515668846
      ],
      [
        "dokuz",
        -9.67779568828804
      ],
      [
        "▁sabırla",
        -11.522365002290995
      ],
      [
        "▁yukselen",
        -9.94679750447137
      ],
      [
        "▁mello",
        -11.685457285859602
      ],
      [
        "▁getiren",
        -10.240279423394345
      ],
      [
        "ten",
        -7.160860136996011
      ],
      [
        "▁tamamlanması",
        -10.854568893780218
      ],
      [
        "▁filipin",
        -11.517928980040816
      ],
      [
        "▁asırı",
        -9.016052131090479
      ],
      [
        ".81",
        -11.599414968033244
      ],
      [
        "▁bellsouth",
        -11.884571077985152
      ],
      [
        "▁giyiyor",
        -11.419847859323927
      ],
      [
        "▁arabistan",
        -11.884571402556613
      ],
      [
        "▁bekci",
        -11.037274768785455
      ],
      [
        "▁kadri",
        -11.51912444352369
      ],
      [
        "▁1150",
        -12.149073756967047
      ],
      [
        "7.",
        -12.583418245522925
      ],
      [
        "▁yayınladı",
        -10.628732472411896
      ],
      [
        "▁kıya",
        -10.924027351791729
      ],
      [
        "▁sokagın",
        -11.004915427577423
      ],
      [
        "▁senedi",
        -8.199266788285676
      ],
      [
        "▁batma",
        -10.905025176709529
      ],
      [
        "466",
        -9.938814116125917
      ],
      [
        "7.56",
        -11.800064372649688
      ],
      [
        "▁ocagında",
        -11.567106382704406
      ],
      [
        "▁kullanılmıs",
        -10.850417537075653
      ],
      [
        "uzere",
        -10.204615232942093
      ],
      [
        "▁vegas",
        -10.500543851953509
      ],
      [
        "▁destekley",
        -11.05594706271101
      ],
      [
        "▁cesitli",
        -8.804383147676532
      ],
      [
        "▁engellemek",
        -11.139120547895265
      ],
      [
        "ra",
        -5.994280594177726
      ],
      [
        "▁ogretmen",
        -9.680259994812138
      ],
      [
        "▁imkansız",
        -10.949455099315074
      ],
      [
        "▁bitmisti",
        -11.038770488872938
      ],
      [
        "▁ozetliyor",
        -11.68458750513277
      ],
      [
        "▁ingiltere",
        -10.583619101069203
      ],
      [
        "▁varsa",
        -9.172300762926143
      ],
      [
        "▁basladıgı",
        -10.03597320326661
      ],
      [
        "▁132.",
        -11.881455844087107
      ],
      [
        "ecegi",
        -9.330916059509981
      ],
      [
        "▁bahsede",
        -10.999410583919808
      ],
      [
        "▁430",
        -11.184075660628196
      ],
      [
        "▁kayna",
        -9.769144786197813
      ],
      [
        "▁ikimiz",
        -10.076274568637228
      ],
      [
        "koy",
        -11.00270570435118
      ],
      [
        "ayım",
        -9.411377780525962
      ],
      [
        "▁edilmesi",
        -9.683050550563364
      ],
      [
        "▁egilim",
        -11.008579015970149
      ],
      [
        "▁veremeyecegi",
        -11.251936136312665
      ],
      [
        "▁konusuyordu",
        -11.26742472146935
      ],
      [
        "▁sıkıntılı",
        -10.723027145988091
      ],
      [
        "v",
        -5.244896794061084
      ],
      [
        "lerindeki",
        -9.9599723302144
      ],
      [
        "▁ulu",
        -10.207046903862803
      ],
      [
        "▁siparisini",
        -10.8713645725872
      ],
      [
        "▁sırrı",
        -10.590697186788582
      ],
      [
        "▁yaramadı",
        -11.843921851419804
      ],
      [
        "▁dudaklarında",
        -11.718608125190661
      ],
      [
        "▁sizin",
        -7.488609617365101
      ],
      [
        "▁kaydetme",
        -11.710397761899284
      ],
      [
        "▁pazarını",
        -11.288091677416043
      ],
      [
        "▁duzenlene",
        -10.2133313001159
      ],
      [
        "▁altın",
        -9.842088831753905
      ],
      [
        "▁uzeri",
        -10.257790522261685
      ],
      [
        "▁stratejisi",
        -11.005131627696574
      ],
      [
        "▁ruhunda",
        -11.546432695901554
      ],
      [
        "▁sahi",
        -9.577592477676015
      ],
      [
        "▁pittsburgh",
        -8.600583583341571
      ],
      [
        "▁kadına",
        -10.853615459135874
      ],
      [
        "▁%3.8",
        -12.2298689641572
      ],
      [
        "▁z",
        -11.475475111137184
      ],
      [
        "▁donen",
        -9.945034924112154
      ],
      [
        "▁rahatsiz",
        -11.262526471994764
      ],
      [
        "▁karsılık",
        -9.089987094072079
      ],
      [
        "cu",
        -11.312055730562165
      ],
      [
        "55.8",
        -11.69810632237733
      ],
      [
        "dayım",
        -10.980827476764794
      ],
      [
        "erdal",
        -11.555688459296476
      ],
      [
        "▁ait",
        -11.39737209385353
      ],
      [
        "▁istifa",
        -9.241089439528979
      ],
      [
        "▁niyeti",
        -10.515390155697915
      ],
      [
        "▁yasadik",
        -11.140824933532409
      ],
      [
        "▁gerceklesti",
        -9.599449065272921
      ],
      [
        "▁ilha",
        -11.390390254310104
      ],
      [
        "ine",
        -7.233083727470008
      ],
      [
        "▁geldikleri",
        -11.204632738096327
      ],
      [
        "▁nite",
        -10.776360469158561
      ],
      [
        "▁mizac",
        -11.250177467024885
      ],
      [
        "▁bilimsel",
        -9.509765597849675
      ],
      [
        "ren",
        -8.672080989529746
      ],
      [
        "▁bırakmak",
        -10.697342865673022
      ],
      [
        "▁dedigini",
        -11.385626848351919
      ],
      [
        "198",
        -10.731416531976514
      ],
      [
        "sal",
        -8.546132272182271
      ],
      [
        "▁okudu",
        -9.643296034941574
      ],
      [
        "▁ogreti",
        -10.404178143903012
      ],
      [
        "m",
        -4.192372604459225
      ],
      [
        "▁sozcuk",
        -10.700000077409292
      ],
      [
        "▁munasebetsizlik",
        -11.526055859079953
      ],
      [
        "▁tersine",
        -10.11844068061046
      ],
      [
        "▁esi",
        -9.576362302150475
      ],
      [
        "766",
        -12.202757145998484
      ],
      [
        "▁sitesi",
        -11.537449019949426
      ],
      [
        "▁kesintiler",
        -10.816106301204636
      ],
      [
        "▁kaybolu",
        -11.216048169058393
      ],
      [
        "▁galon",
        -11.684606166852666
      ],
      [
        "▁cikar",
        -11.142256705305279
      ],
      [
        "▁ydı",
        -7.2089507199542044
      ],
      [
        "bizim",
        -9.761518336533253
      ],
      [
        "▁gormeye",
        -10.18290865506127
      ],
      [
        "hi",
        -9.224586605584243
      ],
      [
        "kin",
        -10.756068444976854
      ],
      [
        "▁mıydı",
        -8.489729860708078
      ],
      [
        "▁kopekler",
        -11.063271856141963
      ],
      [
        "33",
        -10.603264245695037
      ],
      [
        "▁ucma",
        -10.137633171960848
      ],
      [
        "▁olabilecek",
        -10.593434586108103
      ],
      [
        "▁bilisi",
        -11.68558651432199
      ],
      [
        "▁belir",
        -9.736562541564574
      ],
      [
        "▁celim",
        -11.6988356219707
      ],
      [
        "▁tokyo'da",
        -10.129292055006404
      ],
      [
        "▁oyunlarını",
        -11.584671581382999
      ],
      [
        "▁twa",
        -9.849853956437798
      ],
      [
        "nızda",
        -10.312866111375204
      ],
      [
        "▁1955",
        -11.199035351622815
      ],
      [
        "▁gergin",
        -10.074701562078346
      ],
      [
        "▁emniyet",
        -10.040791354759257
      ],
      [
        "▁capa",
        -10.930707057434004
      ],
      [
        "▁talihin",
        -11.41623980167994
      ],
      [
        "▁kayalar",
        -11.084387247568602
      ],
      [
        "▁rum",
        -9.957542833005123
      ],
      [
        "▁sebeplerini",
        -11.27049687536104
      ],
      [
        "▁yumru",
        -11.338481031537576
      ],
      [
        "abet",
        -11.313395733426546
      ],
      [
        "▁bildirdi",
        -9.088593339318821
      ],
      [
        "▁inekler",
        -11.660345463359034
      ],
      [
        "▁isitme",
        -11.175611990684082
      ],
      [
        "▁samet",
        -11.139431128895314
      ],
      [
        "▁sunnet",
        -11.375166088811989
      ],
      [
        "atmısbes",
        -12.37624537445749
      ],
      [
        "▁soracak",
        -11.523218299784258
      ],
      [
        "▁sokaklarda",
        -10.611397418325682
      ],
      [
        "▁raporları",
        -10.368553704416492
      ],
      [
        "▁seni",
        -10.346771982758574
      ],
      [
        ".75",
        -9.547328211014653
      ],
      [
        "▁prosedurleri",
        -11.53882960031191
      ],
      [
        "▁maliye",
        -10.648088421428142
      ],
      [
        "▁bodrum",
        -10.033748138399666
      ],
      [
        "▁sm",
        -10.019271539684375
      ],
      [
        "▁4.3",
        -10.313143091053458
      ],
      [
        "1.23",
        -12.783758445147392
      ],
      [
        "oysa",
        -10.817249728677709
      ],
      [
        "▁arkadaslarını",
        -10.829160447771342
      ],
      [
        "inle",
        -13.689984259981207
      ],
      [
        "ertesi",
        -9.763314430869304
      ],
      [
        "▁arkasın",
        -9.975300257882514
      ],
      [
        "▁otobusu",
        -11.449259986114585
      ],
      [
        "▁burun",
        -9.511043582361891
      ],
      [
        "▁oto",
        -10.243057845333801
      ],
      [
        "▁zeytinyagı",
        -10.58814807395886
      ],
      [
        "aj",
        -9.8878633012433
      ],
      [
        "▁frankfurt",
        -11.038831137085499
      ],
      [
        "▁duz",
        -9.3420168821069
      ],
      [
        "▁bıcakla",
        -11.188252478851009
      ],
      [
        "▁sınırlandırma",
        -11.517904779203679
      ],
      [
        "▁istifade",
        -10.727114565169192
      ],
      [
        "▁istasyon",
        -10.619468640423584
      ],
      [
        "▁denen",
        -10.323746820987632
      ],
      [
        "▁yayla",
        -10.153021707642282
      ],
      [
        "altmıs",
        -11.664742409412352
      ],
      [
        "▁okulun",
        -10.420943134994536
      ],
      [
        "▁guverte",
        -11.359914368686878
      ],
      [
        "▁zemberek",
        -11.6845710782267
      ],
      [
        "▁domin",
        -11.377797354393525
      ],
      [
        "▁street'te",
        -11.519033849424577
      ],
      [
        "▁olanaklari",
        -8.896488614542601
      ],
      [
        "▁begenmedi",
        -8.608705616181421
      ],
      [
        "▁inani",
        -10.273373064103758
      ],
      [
        "#",
        -10.35952679083899
      ],
      [
        "▁bitkiler",
        -11.036048613669488
      ],
      [
        "▁uza",
        -11.046374938085247
      ],
      [
        "▁cadde",
        -9.527437088563088
      ],
      [
        "malısın",
        -11.557749522288622
      ],
      [
        "▁51.",
        -13.17962318313379
      ],
      [
        "▁girmesi",
        -10.679112041873879
      ],
      [
        "▁halleri",
        -10.850427896046751
      ],
      [
        "▁savasta",
        -11.070906142090443
      ],
      [
        "▁sundugu",
        -11.131132017696768
      ],
      [
        "▁uganda",
        -11.68457255223525
      ],
      [
        "▁kayboldu",
        -10.857040940998694
      ],
      [
        "lanınca",
        -11.17960759695467
      ],
      [
        "▁kadar",
        -8.842343326288187
      ],
      [
        "▁derisi",
        -11.550400077337706
      ],
      [
        "▁insanların",
        -8.796446737378213
      ],
      [
        "▁gununu",
        -10.140295041348857
      ],
      [
        "▁levha",
        -11.40269779668292
      ],
      [
        "▁esen",
        -10.971935060909932
      ],
      [
        "▁altmıs",
        -9.585953801299627
      ],
      [
        "▁tatbik",
        -11.884060576502486
      ],
      [
        "▁uzakt",
        -10.187256977896062
      ],
      [
        "▁darbuka",
        -10.863254680975826
      ],
      [
        "▁bırakmadı",
        -10.82527773710644
      ],
      [
        "don",
        -10.850633810099483
      ],
      [
        "'y",
        -13.484117758051067
      ],
      [
        "▁degerlendirir",
        -9.536462512635033
      ],
      [
        "liydi",
        -8.790946073730272
      ],
      [
        "▁beter",
        -11.139826992585729
      ],
      [
        "▁docent",
        -11.51790665193653
      ],
      [
        "▁ltd.",
        -10.366736167076994
      ],
      [
        "▁etkilerini",
        -11.430226929434518
      ],
      [
        "64.1",
        -11.837707103465513
      ],
      [
        "▁norma",
        -11.715206710556991
      ],
      [
        "▁gunlerde",
        -9.32188816332516
      ],
      [
        "▁verme",
        -8.782726578321967
      ],
      [
        "▁duvarları",
        -11.006759426290614
      ],
      [
        "suzlugun",
        -11.149644438126566
      ],
      [
        "▁mesgul",
        -10.457882025358092
      ],
      [
        "▁biber",
        -10.006299226585295
      ],
      [
        "▁tabaka",
        -11.090229111096106
      ],
      [
        "▁uyuz",
        -11.260297494503309
      ],
      [
        "1.4",
        -10.425505891963725
      ],
      [
        "▁demiyor",
        -11.126925264299786
      ],
      [
        "▁maddeleri",
        -10.665756264768598
      ],
      [
        "▁138",
        -11.332186852222645
      ],
      [
        "▁oranında",
        -9.719481739228613
      ],
      [
        "▁dunyası",
        -10.502505117779188
      ],
      [
        "lanmıstır",
        -10.659585762560312
      ],
      [
        "▁goruslerini",
        -11.220752985638214
      ],
      [
        "▁sahsi",
        -11.411557828279062
      ],
      [
        "▁gerektiriyor",
        -10.590235936995168
      ],
      [
        "▁gures",
        -10.235267628181093
      ],
      [
        "▁vermesini",
        -11.056345507524004
      ],
      [
        "▁olmadi",
        -8.547439343102656
      ],
      [
        "▁imkanı",
        -10.470553404307088
      ],
      [
        "▁buyutu",
        -11.469396132937828
      ],
      [
        "▁kesfetti",
        -11.684571161720726
      ],
      [
        "▁esnaf",
        -10.790293178499752
      ],
      [
        "sindeki",
        -10.383247285359403
      ],
      [
        "▁levazım",
        -11.684571101432244
      ],
      [
        "▁duygusu",
        -10.470360097885532
      ],
      [
        "▁dersin",
        -10.99113646586257
      ],
      [
        "▁union",
        -10.948259446527423
      ],
      [
        "isler",
        -13.183041658312312
      ],
      [
        "▁zur",
        -11.37464240255969
      ],
      [
        "▁kahır",
        -11.88457562135474
      ],
      [
        "▁koyluler",
        -10.545363104904997
      ],
      [
        "▁baskaları",
        -10.469959958855757
      ],
      [
        "▁kaldıgı",
        -9.625860780723876
      ],
      [
        "eri",
        -9.81203136517703
      ],
      [
        "▁gereginde",
        -11.41831820823229
      ],
      [
        "▁buralarda",
        -11.387710995305943
      ],
      [
        "▁teklifleri",
        -10.77120081172376
      ],
      [
        "▁141.",
        -10.135400630749881
      ],
      [
        "▁camekan",
        -11.375068172854116
      ],
      [
        ".85",
        -10.359348053024465
      ],
      [
        "▁portre",
        -11.250113675104815
      ],
      [
        "▁feri",
        -11.207408714934443
      ],
      [
        "▁dusmanları",
        -10.981732109684813
      ],
      [
        "▁toprak",
        -9.21759492324237
      ],
      [
        "▁pittsburgh'",
        -8.05867875150939
      ],
      [
        "▁sıhhat",
        -11.139048969411025
      ],
      [
        "▁mute",
        -10.051230674652947
      ],
      [
        "▁elverisli",
        -11.250050911419805
      ],
      [
        "▁cezası",
        -10.357470349684146
      ],
      [
        "▁kamıs",
        -11.531791002306983
      ],
      [
        "tar",
        -9.794544854629521
      ],
      [
        "▁nargile",
        -11.375048985642078
      ],
      [
        "▁evvel",
        -9.762867154105976
      ],
      [
        "▁seftali",
        -10.716343466697452
      ],
      [
        "▁boren",
        -11.523800031583301
      ],
      [
        "▁sevme",
        -10.722742345291593
      ],
      [
        "▁ısık",
        -9.170066167959806
      ],
      [
        "if",
        -10.043686217728325
      ],
      [
        "▁sayılma",
        -11.469071546001542
      ],
      [
        "▁digeri",
        -11.439265308443712
      ],
      [
        "▁olamayacak",
        -11.51848252955542
      ],
      [
        "▁uzuntu",
        -10.343427453649593
      ],
      [
        "▁rezervasyon",
        -9.07849944311863
      ],
      [
        "ovan",
        -11.727811108239402
      ],
      [
        "▁meslek",
        -10.07650440030132
      ],
      [
        "▁ayrica",
        -10.421255006599566
      ],
      [
        "▁ucuslarınız",
        -10.918444473361966
      ],
      [
        "▁markets",
        -11.70589622695577
      ],
      [
        "▁bulacak",
        -10.849338494808936
      ],
      [
        "▁cogal",
        -10.848489278171982
      ],
      [
        "▁mektebi",
        -11.114261079578137
      ],
      [
        "▁newark'ta",
        -9.534229138554807
      ],
      [
        "▁19.5",
        -11.496185594316152
      ],
      [
        "▁vuran",
        -11.381612583705566
      ],
      [
        "▁'yd",
        -10.140773474257456
      ],
      [
        "▁kalorifer",
        -11.517919111948366
      ],
      [
        "▁kepenk",
        -11.624897428917993
      ],
      [
        "▁elektrig",
        -11.684571085298197
      ],
      [
        "▁kad",
        -11.05164085331433
      ],
      [
        "▁derin",
        -8.411702563425159
      ],
      [
        "▁gidiyoru",
        -10.700191257078998
      ],
      [
        "▁ıskarta",
        -10.11348540130783
      ],
      [
        "▁kızardı",
        -11.47009054921555
      ],
      [
        "▁olasılıklar",
        -11.415755505466201
      ],
      [
        "▁bildiriyor",
        -11.633286652592519
      ],
      [
        "▁makineleri",
        -11.307773157910768
      ],
      [
        "▁gercekte",
        -8.310801961613539
      ],
      [
        "▁lake",
        -8.66796235331033
      ],
      [
        "▁pro",
        -10.153654443118567
      ],
      [
        "▁elimizde",
        -10.887636504219104
      ],
      [
        "▁haberleri",
        -10.240977960667681
      ],
      [
        "▁yazıhane",
        -11.376479968895277
      ],
      [
        "▁sozlesme",
        -9.308460096867723
      ],
      [
        "▁degmez",
        -11.258486276916916
      ],
      [
        "96",
        -10.048646118105914
      ],
      [
        "▁23.2",
        -11.869086677489854
      ],
      [
        "▁dalkavuk",
        -11.038956472037391
      ],
      [
        "▁kavradı",
        -11.430013078237405
      ],
      [
        "▁burbank",
        -11.864942637471636
      ],
      [
        "▁ekonomistler",
        -10.793514199812844
      ],
      [
        "▁baskısı",
        -10.409802463593662
      ],
      [
        "▁apartmanı",
        -11.184856672009325
      ],
      [
        "landırılması",
        -11.637770684257184
      ],
      [
        "▁yonetile",
        -11.518926292200355
      ],
      [
        "▁cevirdi",
        -9.70647398181945
      ],
      [
        "▁kurulusu",
        -10.020584053549278
      ],
      [
        "▁gorul",
        -10.448582367455879
      ],
      [
        "75.",
        -13.158156586327362
      ],
      [
        "▁olayın",
        -10.297429110732562
      ],
      [
        "duz",
        -10.443964435920128
      ],
      [
        "▁sonucu",
        -9.556845764570252
      ],
      [
        "▁mezarlıg",
        -10.71538760430995
      ],
      [
        "cun",
        -6.71166408540965
      ],
      [
        "▁kacır",
        -10.246928450530405
      ],
      [
        "42.7",
        -12.507945580748045
      ],
      [
        "▁esek",
        -11.259056720740883
      ],
      [
        "▁odenecek",
        -10.972193308040223
      ],
      [
        "▁inanılma",
        -10.390775858655665
      ],
      [
        "▁varacak",
        -9.523118196298158
      ],
      [
        "▁ogrendi",
        -10.31518681012039
      ],
      [
        "ledi",
        -8.817522831228906
      ],
      [
        "▁tahkim",
        -11.250173072587195
      ],
      [
        "▁cıkmıstı",
        -9.901110902357948
      ],
      [
        "▁favori",
        -11.517904470924615
      ],
      [
        "/2",
        -9.276631499715991
      ],
      [
        "▁ihtiyatlı",
        -10.589408563676187
      ],
      [
        "▁kulac",
        -11.518433402148531
      ],
      [
        "nla",
        -9.58078058821545
      ],
      [
        "▁salonu",
        -10.57126837127028
      ],
      [
        "▁ogrenince",
        -11.68598073424934
      ],
      [
        "▁3.3",
        -9.971517416991915
      ],
      [
        "▁anketi",
        -10.544743505718545
      ],
      [
        "▁microsoft",
        -11.517904415994465
      ],
      [
        "245",
        -13.198943162767211
      ],
      [
        "abilecek",
        -9.907614022441752
      ],
      [
        "▁erol",
        -10.788800989620068
      ],
      [
        "▁kardes",
        -9.53857343295533
      ],
      [
        "▁kilo",
        -10.233624228035447
      ],
      [
        "'",
        -4.8924320266455865
      ],
      [
        "4",
        -9.705186155589438
      ],
      [
        "▁tom",
        -11.081064621354741
      ],
      [
        "▁olusturdugu",
        -11.067559923700358
      ],
      [
        "7:",
        -11.038605376344176
      ],
      [
        "▁atları",
        -10.821230195243603
      ],
      [
        "▁cop",
        -9.653008318129208
      ],
      [
        "▁atlattı",
        -11.519869213238447
      ],
      [
        "▁daire",
        -9.898702755161882
      ],
      [
        "kendimi",
        -11.423963787029603
      ],
      [
        "▁ları",
        -10.238796932443249
      ],
      [
        "yuzdoksan",
        -11.621060918207393
      ],
      [
        "▁cerceve",
        -10.062922460684312
      ],
      [
        "▁belirlenmis",
        -11.376934479214544
      ],
      [
        "▁olmus",
        -10.889392255293137
      ],
      [
        "▁vitrin",
        -11.448689657281502
      ],
      [
        "▁meth",
        -11.456120841119672
      ],
      [
        "▁omer",
        -9.855310923478896
      ],
      [
        "▁dikkatle",
        -10.434928932230676
      ],
      [
        "▁boyun",
        -9.222102217298193
      ],
      [
        "▁hindistan'da",
        -11.376372274328771
      ],
      [
        "▁cin",
        -9.02773653200072
      ],
      [
        "bu",
        -10.475098792750922
      ],
      [
        "▁odedigim",
        -8.537147497354777
      ],
      [
        "727",
        -11.433653443827886
      ],
      [
        "7500",
        -12.508376441766945
      ],
      [
        "h",
        -12.699415987488301
      ],
      [
        "▁pisirme",
        -11.5941572144158
      ],
      [
        "▁bari",
        -10.15671448457083
      ],
      [
        "▁45",
        -11.56991958847549
      ],
      [
        "▁heyeti",
        -10.298355264219774
      ],
      [
        "▁duygularını",
        -10.308772250013124
      ],
      [
        "4'",
        -9.808462497195904
      ],
      [
        "▁belirt",
        -10.13637710368599
      ],
      [
        "▁nitelendir",
        -11.163584660194353
      ],
      [
        "▁cirit",
        -11.37504912381259
      ],
      [
        "1.61",
        -12.214220546169376
      ],
      [
        "▁sever",
        -9.935698543241175
      ],
      [
        "▁ettigi",
        -9.082960377669632
      ],
      [
        "▁bulus",
        -10.228816465797252
      ],
      [
        "yers",
        -11.59963173058613
      ],
      [
        "▁verirdi",
        -10.508203789482502
      ],
      [
        "▁basımı",
        -10.551243246441079
      ],
      [
        "▁duymus",
        -11.122689413192546
      ],
      [
        "▁cagır",
        -10.005433451914788
      ],
      [
        "fa",
        -12.63957351523187
      ],
      [
        "▁emini",
        -11.270022743607713
      ],
      [
        "▁oksur",
        -10.920625839652525
      ],
      [
        "tur",
        -7.886228925077593
      ],
      [
        "7000",
        -12.422336868896807
      ],
      [
        "▁provigo",
        -11.684571149720274
      ],
      [
        "▁emek",
        -10.09868208822884
      ],
      [
        "▁kıbrıs",
        -10.308329904538493
      ],
      [
        "▁hafif",
        -8.327784872089783
      ],
      [
        "▁mehtap",
        -11.375047281570556
      ],
      [
        "▁vadesi",
        -10.16985974056332
      ],
      [
        "▁6.5",
        -10.575469817737618
      ],
      [
        "▁pano",
        -11.435151365419792
      ],
      [
        "▁kemp",
        -11.685126376871228
      ],
      [
        "▁yaptıgı",
        -8.753718245825358
      ],
      [
        "▁plastik",
        -10.23361295714529
      ],
      [
        "835",
        -11.346806732306263
      ],
      [
        "▁duvar",
        -9.123051729316131
      ],
      [
        "▁bosalma",
        -11.533373590256423
      ],
      [
        "▁tarz",
        -10.269249024360612
      ],
      [
        "▁58",
        -10.166226496023125
      ],
      [
        "▁zamanlar",
        -8.991997993502512
      ],
      [
        "▁kıvrandı",
        -11.69376415760552
      ],
      [
        "▁edilen",
        -8.325266913092435
      ],
      [
        "▁gucleri",
        -11.039013988087222
      ],
      [
        "▁karyola",
        -11.123380870189443
      ],
      [
        "▁gitmek",
        -8.868970758119431
      ],
      [
        "▁ert",
        -11.12393274992743
      ],
      [
        "▁filiz",
        -11.189570059357107
      ],
      [
        "diginde",
        -10.431126764878876
      ],
      [
        "▁soylu",
        -10.94707473274211
      ],
      [
        "▁liderleri",
        -10.60065449376292
      ],
      [
        "b",
        -8.413514485962198
      ],
      [
        "▁yasını",
        -11.075280268462505
      ],
      [
        "▁puskul",
        -11.684581223800542
      ],
      [
        "▁mer",
        -9.619432593956521
      ],
      [
        "▁whitt",
        -11.405915863275546
      ],
      [
        "▁prof",
        -10.473518289957854
      ],
      [
        "▁konforu",
        -9.857202187573545
      ],
      [
        "▁lloyd",
        -11.541597938878184
      ],
      [
        "▁zi",
        -10.040577464558556
      ],
      [
        "▁lor",
        -10.911767485678162
      ],
      [
        "▁yılların",
        -10.48384375307268
      ],
      [
        "▁rakipler",
        -11.019902661079751
      ],
      [
        "▁aksa",
        -11.033924925193476
      ],
      [
        "'y",
        -8.222670853758384
      ],
      [
        "▁355",
        -11.37083562926572
      ],
      [
        "ul",
        -8.639209289567983
      ],
      [
        "▁dinlemeye",
        -11.364154935000592
      ],
      [
        "▁parla",
        -10.432345646249713
      ],
      [
        "▁kalkma",
        -10.332186446366338
      ],
      [
        "▁bastır",
        -10.170571172826772
      ],
      [
        "ının",
        -8.424701463243155
      ],
      [
        "▁corba",
        -9.374662861652798
      ],
      [
        "▁uluslararası",
        -9.224016060789257
      ],
      [
        "▁calis",
        -10.609842388853144
      ],
      [
        "▁harbi",
        -10.932047038926983
      ],
      [
        "▁kendiniz",
        -9.659975854683289
      ],
      [
        "▁girdik",
        -10.201621522300208
      ],
      [
        "5.66",
        -13.327264737983791
      ],
      [
        "lendirilmis",
        -11.70975697842274
      ],
      [
        "▁mar",
        -9.308678169430593
      ],
      [
        "▁calıyor",
        -10.30147289968766
      ],
      [
        "▁kısaltması",
        -11.039270496553442
      ],
      [
        "▁sıkıstı",
        -11.492566544836242
      ],
      [
        "▁ydu",
        -8.242796498591797
      ],
      [
        "▁ici",
        -9.295252486345682
      ],
      [
        "▁kaynak",
        -9.05461099307822
      ],
      [
        "▁cilt",
        -10.719952488435654
      ],
      [
        "▁karakter",
        -9.972910906613498
      ],
      [
        "▁bahce",
        -8.819260766667654
      ],
      [
        "▁pratik",
        -10.864694054720603
      ],
      [
        "▁tar",
        -10.370500581440737
      ],
      [
        "th",
        -9.671474088604013
      ],
      [
        "▁listele",
        -7.921337550421093
      ],
      [
        "▁secimlerin",
        -11.049388121122005
      ],
      [
        "▁abartıl",
        -11.391851712007592
      ],
      [
        "▁umutlu",
        -11.607819037096071
      ],
      [
        "▁mimar",
        -10.307076509609907
      ],
      [
        "▁illuminating",
        -11.884571077950172
      ],
      [
        "t",
        -5.927116015707416
      ],
      [
        "▁cember",
        -11.039153656928093
      ],
      [
        "▁oruc",
        -11.594151131545281
      ],
      [
        "▁isin",
        -8.773240426711865
      ],
      [
        "60000",
        -11.542858205391934
      ],
      [
        "▁kanıtlan",
        -11.849917305644814
      ],
      [
        "▁bık",
        -11.340389096711702
      ],
      [
        "▁edildigi",
        -10.7016751368798
      ],
      [
        "▁tahvili",
        -10.066579892686468
      ],
      [
        "▁surec",
        -9.960494321614025
      ],
      [
        "so",
        -10.342793020794831
      ],
      [
        "▁1968",
        -11.07303410677848
      ],
      [
        "643.",
        -12.993422383084797
      ],
      [
        "▁jack",
        -11.374896399360766
      ],
      [
        "▁ayrılık",
        -11.036311829511364
      ],
      [
        "4.9",
        -10.769308090752189
      ],
      [
        "▁goreceli",
        -11.404067729684229
      ],
      [
        "▁bakın",
        -9.441904974323624
      ],
      [
        "▁sıfır",
        -10.774889895020369
      ],
      [
        "ısı",
        -12.217115776656739
      ],
      [
        "▁anlamıyla",
        -10.720183432571583
      ],
      [
        "▁olacak",
        -7.744744566066482
      ],
      [
        "▁parkın",
        -10.874456117653219
      ],
      [
        "▁120",
        -9.324473717669948
      ],
      [
        "▁1995",
        -10.41751969051543
      ],
      [
        "▁golgesi",
        -10.806853862721475
      ],
      [
        "▁gerdan",
        -10.593838529661905
      ],
      [
        "▁devredil",
        -10.71641480403244
      ],
      [
        "▁uretti",
        -11.51092254028641
      ],
      [
        "▁temin",
        -10.717384132770043
      ],
      [
        "▁sagduyu",
        -10.948039066611823
      ],
      [
        "▁antalya",
        -10.895302652024734
      ],
      [
        "▁satmak",
        -10.584286486182823
      ],
      [
        "▁belirleme",
        -10.662354801426691
      ],
      [
        "▁fo",
        -10.208732247266854
      ],
      [
        "▁cıkarı",
        -10.12393294580164
      ],
      [
        "ojen",
        -11.780328064801427
      ],
      [
        "▁sogan",
        -9.902274236571037
      ],
      [
        "▁hayran",
        -10.632959595071801
      ],
      [
        ".70",
        -12.006531725261098
      ],
      [
        "▁analistleri",
        -10.982930691752506
      ],
      [
        "▁isbirligini",
        -11.677817570848974
      ],
      [
        "▁tane",
        -8.694854393291838
      ],
      [
        "▁fikret",
        -11.250049018106074
      ],
      [
        "▁namus",
        -10.97356774608674
      ],
      [
        "▁marjları",
        -11.352600253328633
      ],
      [
        "▁cihaz",
        -11.307117671510833
      ],
      [
        "▁suc",
        -9.314220903815537
      ],
      [
        "mek",
        -8.469474904687889
      ],
      [
        "lu",
        -6.993292191461655
      ],
      [
        "▁b",
        -8.446533621932119
      ],
      [
        "▁elbisesi",
        -11.359373688238598
      ],
      [
        "▁toplanma",
        -11.06691253903582
      ],
      [
        "▁koltugu",
        -11.402377705157049
      ],
      [
        "go",
        -9.264785690704901
      ],
      [
        "74",
        -11.591349392987082
      ],
      [
        "▁beyan",
        -10.10829598759446
      ],
      [
        "fi",
        -11.229099422050213
      ],
      [
        "irin",
        -13.276564249096703
      ],
      [
        "▁bulutu",
        -11.274620586524737
      ],
      [
        "▁yazılımı",
        -11.57816911008268
      ],
      [
        "▁baslangıcta",
        -10.238072101909683
      ],
      [
        "▁sent",
        -9.002532056455884
      ],
      [
        "yacagını",
        -10.88807801105941
      ],
      [
        "▁da",
        -4.365731738433244
      ],
      [
        "▁fotograf",
        -9.529808970222366
      ],
      [
        "▁birikimi",
        -11.241796738466178
      ],
      [
        "▁gozyasları",
        -11.038999361044494
      ],
      [
        "▁modeller",
        -11.223682480989506
      ],
      [
        "▁edilebilir",
        -10.076981354410947
      ],
      [
        "▁19.",
        -10.17752749623879
      ],
      [
        "▁515",
        -10.997139819900937
      ],
      [
        "▁yenilikler",
        -11.808986670349153
      ],
      [
        "▁imparatorluk",
        -11.518756112725033
      ],
      [
        "▁ncnb",
        -11.884571121958137
      ],
      [
        "▁seridi",
        -11.276698195584675
      ],
      [
        "▁ajans",
        -10.262670514225308
      ],
      [
        "▁surece",
        -10.98998850170523
      ],
      [
        "▁koklu",
        -11.492511827931676
      ],
      [
        "▁8.9",
        -10.558512057576548
      ],
      [
        "▁etkisi",
        -9.423763659554407
      ],
      [
        "errill",
        -9.689381568745574
      ],
      [
        "▁%51",
        -11.429958966910018
      ],
      [
        "▁okur",
        -9.823992016301464
      ],
      [
        "▁ucsuz",
        -11.37753890350048
      ],
      [
        "▁kukre",
        -11.684693990841307
      ],
      [
        "▁hissesini",
        -10.475260276497266
      ],
      [
        "urdu",
        -10.539751665172826
      ],
      [
        "▁esvap",
        -11.138942772856776
      ],
      [
        "▁varmak",
        -10.469472841741489
      ],
      [
        "▁fonları",
        -10.005128148543506
      ],
      [
        "▁gotur",
        -9.733868403075444
      ],
      [
        "▁onda",
        -10.584338104853344
      ],
      [
        "▁tasarım",
        -10.752773011240077
      ],
      [
        "▁sekil",
        -10.019911882220315
      ],
      [
        "▁dost",
        -9.542360787115724
      ],
      [
        "▁sade",
        -7.21445726210315
      ],
      [
        "h",
        -7.638165062307059
      ],
      [
        "lestirilmis",
        -11.013145107179238
      ],
      [
        "▁tartıs",
        -11.021508991109144
      ],
      [
        "▁turev",
        -11.684760172943198
      ],
      [
        "▁vaziyeti",
        -11.289799132076768
      ],
      [
        "▁3/8'",
        -11.884571119914943
      ],
      [
        "▁kuyumcu",
        -11.375075147305072
      ],
      [
        "▁milliyet'",
        -11.486103263637792
      ],
      [
        "▁band",
        -10.960996765977928
      ],
      [
        "lenen",
        -9.439548004387122
      ],
      [
        "madı",
        -9.586755952837445
      ],
      [
        "▁ucusunuz",
        -9.916079352156766
      ],
      [
        "▁benzin",
        -10.04138706163911
      ],
      [
        "▁vekili",
        -10.972196837161075
      ],
      [
        "▁nashville'",
        -10.287043407090396
      ],
      [
        "▁salim",
        -11.528056181849045
      ],
      [
        "▁celis",
        -11.374177077808966
      ],
      [
        "mizde",
        -9.703986387436128
      ],
      [
        "▁bez",
        -9.737245054255887
      ],
      [
        "dur",
        -7.642014626188319
      ],
      [
        "▁fiyatını",
        -10.44726602050944
      ],
      [
        "▁dinliyordu",
        -11.046503714453102
      ],
      [
        "▁'",
        -9.107607116574506
      ],
      [
        "▁tıpkı",
        -9.849709896457647
      ],
      [
        "▁kesik",
        -10.97318577153317
      ],
      [
        "▁tasa",
        -10.102863172765968
      ],
      [
        "▁cesitleri",
        -9.676427627200589
      ],
      [
        "▁kitab",
        -11.328639039170465
      ],
      [
        "▁yukseliste",
        -11.51997951394324
      ],
      [
        "▁yapmaya",
        -9.160924906461364
      ],
      [
        "▁98",
        -10.400090347572162
      ],
      [
        "▁15.",
        -10.281601801171426
      ],
      [
        "▁alıcılar",
        -10.412463325942213
      ],
      [
        "▁bre",
        -11.371993130563293
      ],
      [
        "ya",
        -8.492646272106997
      ],
      [
        "▁w",
        -9.206348930169888
      ],
      [
        "fa",
        -9.740444492919071
      ],
      [
        "▁yirmibir",
        -12.117713959587826
      ],
      [
        "▁gokte",
        -11.672348171771084
      ],
      [
        "▁isteklerini",
        -11.388120589904446
      ],
      [
        "▁binası",
        -11.081172751858453
      ],
      [
        "▁viski",
        -10.420183655776981
      ],
      [
        "▁uretici",
        -11.037795805588576
      ],
      [
        "▁inandıgım",
        -11.597101840495222
      ],
      [
        "▁rol",
        -9.492070876343096
      ],
      [
        "▁gorusmedi",
        -10.028566390063943
      ],
      [
        "ti",
        -6.825716317986393
      ],
      [
        "▁iktisa",
        -10.787757156694907
      ],
      [
        "▁kacamak",
        -11.139064027410459
      ],
      [
        "▁13.7",
        -11.716212067501807
      ],
      [
        "park",
        -11.692483515898433
      ],
      [
        "▁elinde",
        -8.154604684339162
      ],
      [
        "▁kisileri",
        -10.99507664664065
      ],
      [
        "75",
        -8.267419933820554
      ],
      [
        "▁500.",
        -11.858626020851482
      ],
      [
        "▁rıhtımın",
        -11.816890545654108
      ],
      [
        "▁gitti",
        -8.149762139158746
      ],
      [
        "▁kelimesini",
        -11.362362851301327
      ],
      [
        "▁kilisesi",
        -11.181614219261514
      ],
      [
        "▁degisti",
        -10.191230504592268
      ],
      [
        "▁romantik",
        -10.865306999991427
      ],
      [
        "▁giyim",
        -10.602155316387162
      ],
      [
        "▁boston",
        -7.970261043015642
      ],
      [
        "▁kıskanclık",
        -11.138936159597746
      ],
      [
        "mesi",
        -8.479596708079995
      ],
      [
        "▁detroit'",
        -10.186937373620749
      ],
      [
        "▁cıkarıldı",
        -11.225774290608385
      ],
      [
        "57",
        -10.530160411456025
      ],
      [
        "burada",
        -11.787109173364625
      ],
      [
        "▁husus",
        -10.170031101662445
      ],
      [
        "▁dum",
        -10.697030885887182
      ],
      [
        "▁kravatı",
        -11.17396160522894
      ],
      [
        "0.37",
        -13.773315221647577
      ],
      [
        "▁degismedi",
        -10.185606542431877
      ],
      [
        "▁yıkıl",
        -10.578046625248248
      ],
      [
        "▁hissediyordu",
        -11.152571854158307
      ],
      [
        "▁ite",
        -10.615094729161957
      ],
      [
        "▁tugla",
        -10.950184001647928
      ],
      [
        "▁grand",
        -11.250091193140513
      ],
      [
        "emezler",
        -11.295409240337694
      ],
      [
        "▁mudur",
        -10.569581647065483
      ],
      [
        "▁for",
        -10.089996870028944
      ],
      [
        "▁poyraz",
        -11.375047272369478
      ],
      [
        "▁dogu",
        -8.666635619296759
      ],
      [
        "▁azgın",
        -11.363225334476272
      ],
      [
        "yekun",
        -11.655450656677557
      ],
      [
        "▁daha",
        -5.641591108617404
      ],
      [
        "▁dile",
        -11.904045144036441
      ],
      [
        "▁ozenl",
        -11.456437231244987
      ],
      [
        "▁derken",
        -9.743353522636921
      ],
      [
        "▁erdi",
        -9.897797555578542
      ],
      [
        "▁oksadı",
        -11.321270714777821
      ],
      [
        "▁biyoloji",
        -11.375047352384401
      ],
      [
        "▁veremem",
        -10.528186867032955
      ],
      [
        "▁kesilme",
        -10.595088261981697
      ],
      [
        "▁surgun",
        -11.039418699475794
      ],
      [
        "▁travma",
        -11.259037832889554
      ],
      [
        "iz",
        -7.724972496175176
      ],
      [
        "▁sporcu",
        -11.041346232318972
      ],
      [
        "▁dede",
        -9.946472768715877
      ],
      [
        "▁aka",
        -10.140736209283233
      ],
      [
        "▁yapayalnız",
        -11.68457158933887
      ],
      [
        "▁70000",
        -12.718227584747915
      ],
      [
        "▁alaca",
        -10.81006472621393
      ],
      [
        "▁dugmesin",
        -11.434823406797406
      ],
      [
        "▁acılı",
        -10.262563519187282
      ],
      [
        "▁benim",
        -9.064644121710101
      ],
      [
        "▁elbise",
        -9.273574338546975
      ],
      [
        "▁yıla",
        -9.811404421877183
      ],
      [
        "inizi",
        -10.111213349025366
      ],
      [
        "▁oyu",
        -10.847415902066313
      ],
      [
        "▁etmemisti",
        -11.517462287094604
      ],
      [
        "▁bavul",
        -11.517905139781387
      ],
      [
        "▁tekrar",
        -8.019566268819776
      ],
      [
        "▁kılık",
        -11.251940745613155
      ],
      [
        "▁tanıma",
        -10.232267569654171
      ],
      [
        "▁buldugu",
        -10.765728691493543
      ],
      [
        "4.12",
        -12.42407253364093
      ],
      [
        "19",
        -9.653955124169919
      ],
      [
        "▁ocagı",
        -10.301881389605073
      ],
      [
        "▁olacag",
        -11.806168326637895
      ],
      [
        "▁bale",
        -11.12552821897814
      ],
      [
        "▁televizyonda",
        -10.955634824020649
      ],
      [
        "▁miting",
        -10.528465751901633
      ],
      [
        "▁ik",
        -10.108787904356568
      ],
      [
        "▁county",
        -11.232923912250765
      ],
      [
        "▁taksim",
        -10.905436311840184
      ],
      [
        "▁yukseltiyor",
        -11.530547764760875
      ],
      [
        "▁mart'ta",
        -10.865320073266622
      ],
      [
        "▁manevra",
        -10.716342089356143
      ],
      [
        "▁yardimci",
        -8.703935084051032
      ],
      [
        "▁baslık",
        -10.203849048128713
      ],
      [
        "▁insanoglu",
        -11.03346142946309
      ],
      [
        "▁tuccarları",
        -11.215965032659424
      ],
      [
        "▁yururlukte",
        -11.250059590532159
      ],
      [
        "▁dokunuyor",
        -11.519258017418089
      ],
      [
        "▁buzdolabı",
        -11.104396843317712
      ],
      [
        "▁sahiptir",
        -9.600425143139937
      ],
      [
        "▁sorar",
        -10.529285187501724
      ],
      [
        "▁macera",
        -10.864833456847837
      ],
      [
        "▁mur",
        -10.131730702428928
      ],
      [
        "▁175",
        -12.85087765341837
      ],
      [
        "▁field'de",
        -11.85147677610621
      ],
      [
        "gun",
        -9.435753687034296
      ],
      [
        "▁buray",
        -9.65671640994794
      ],
      [
        "▁kaptı",
        -11.026759736991071
      ],
      [
        "▁zarar",
        -8.678305155549381
      ],
      [
        "▁his",
        -10.288174138686399
      ],
      [
        "▁kapatılma",
        -11.33859741449129
      ],
      [
        "▁5.8",
        -11.059386819234478
      ],
      [
        "▁isteyebilir",
        -11.518346323819973
      ],
      [
        "▁kısım",
        -10.371609610145779
      ],
      [
        "▁cabalarını",
        -11.312083421521903
      ],
      [
        "▁ikimizi",
        -11.59654109894694
      ],
      [
        "▁329",
        -10.882759451661837
      ],
      [
        "▁karsısındaki",
        -10.558858564714496
      ],
      [
        "▁county'",
        -11.288324606541995
      ],
      [
        "▁yazma",
        -9.784757224114244
      ],
      [
        "▁ayaklı",
        -10.974254643442574
      ],
      [
        "▁birbirin",
        -7.401829453096356
      ],
      [
        "▁barometresi",
        -11.884573016161495
      ],
      [
        "▁yetkililerin",
        -10.834847877797753
      ],
      [
        "▁hisseleri",
        -8.539630680445935
      ],
      [
        "▁kimligini",
        -11.17356498032834
      ],
      [
        "▁anlasıla",
        -10.370265787575178
      ],
      [
        "▁kıymetli",
        -11.258346628962528
      ],
      [
        "▁o'",
        -11.08937037454847
      ],
      [
        "▁suresini",
        -11.15309771946593
      ],
      [
        "▁kurtulus",
        -10.483131836497332
      ],
      [
        "▁dortyuzkırk",
        -11.410782591618243
      ],
      [
        "▁soyluyorlar",
        -10.300753765490622
      ],
      [
        "▁ayva",
        -10.59069222737513
      ],
      [
        "▁hırs",
        -10.48585759964252
      ],
      [
        "dogu'da",
        -11.872189223428473
      ],
      [
        "▁itibari",
        -11.060828847744148
      ],
      [
        "▁aklım",
        -9.822232297495638
      ],
      [
        "▁onculuk",
        -11.251512882057376
      ],
      [
        "▁kumru",
        -11.517989361090926
      ],
      [
        "▁eserini",
        -11.45269982514867
      ],
      [
        "▁bastıgı",
        -11.207703293572367
      ],
      [
        "▁istendi",
        -11.115863282901756
      ],
      [
        "966",
        -12.303212211211898
      ],
      [
        "▁hasret",
        -10.52857558676838
      ],
      [
        "43.6",
        -11.120049473258547
      ],
      [
        "▁giant",
        -11.517907164280018
      ],
      [
        "▁kor",
        -9.127751336985689
      ],
      [
        "▁gunduz",
        -9.374740026024778
      ],
      [
        "▁rehin",
        -11.041243116296464
      ],
      [
        "▁213",
        -11.232049432849644
      ],
      [
        "▁olmadigin",
        -11.529003422528222
      ],
      [
        "▁chemical",
        -11.138936157861538
      ],
      [
        "▁gundemin",
        -11.5258430016841
      ],
      [
        "▁vazgecilmez",
        -11.685364674660448
      ],
      [
        "▁konma",
        -11.445216115365188
      ],
      [
        "▁konumu",
        -7.237801386358401
      ],
      [
        "cik",
        -9.522214610087769
      ],
      [
        "▁santaj",
        -11.250229236943127
      ],
      [
        "▁grev",
        -10.32287903016479
      ],
      [
        "▁oynamıstı",
        -11.639717769389788
      ],
      [
        "▁calıstıgı",
        -9.975126150862105
      ],
      [
        "▁acısı",
        -10.380198076219216
      ],
      [
        "▁kırık",
        -9.915941618877318
      ],
      [
        "▁uyudu",
        -10.951972064471775
      ],
      [
        "▁ulastıgı",
        -11.403292960582963
      ],
      [
        "▁8.2",
        -10.806822678311871
      ],
      [
        "sever",
        -10.58658574979049
      ],
      [
        "larl",
        -12.87714533730555
      ],
      [
        "▁8.7",
        -11.170035841775467
      ],
      [
        "m",
        -9.715460917580963
      ],
      [
        "▁adres",
        -11.667429726934687
      ],
      [
        "▁yarıyor",
        -11.38196304168315
      ],
      [
        "▁sınırlar",
        -11.232310327186953
      ],
      [
        "▁yurdumuz",
        -11.714257751455204
      ],
      [
        "▁buzlu",
        -11.039431759829885
      ],
      [
        "▁islemi",
        -10.05545393101201
      ],
      [
        "▁yukseltti",
        -10.089027525783159
      ],
      [
        "▁degistiriyor",
        -10.50735464977572
      ],
      [
        "▁1.3",
        -8.686349043806366
      ],
      [
        "▁olmuyor",
        -9.821694703223942
      ],
      [
        "▁is",
        -7.051853106174244
      ],
      [
        "▁kaz",
        -10.284251434124712
      ],
      [
        "▁park",
        -9.43084579835329
      ],
      [
        "▁versi",
        -11.02723046689173
      ],
      [
        "▁okuyabil",
        -11.49403094769078
      ],
      [
        "▁telefonum",
        -11.205496309114011
      ],
      [
        "▁pri",
        -11.03397578856933
      ],
      [
        "▁ihmal",
        -10.587175440250915
      ],
      [
        "▁pozisyonları",
        -11.086607522503346
      ],
      [
        "▁merhale",
        -11.51791330761276
      ],
      [
        "nc",
        -8.861003512036103
      ],
      [
        "lesecek",
        -11.318227074469762
      ],
      [
        "▁ayse",
        -9.688837062690197
      ],
      [
        "▁sogugu",
        -11.251423906421637
      ],
      [
        "▁paris'te",
        -10.651639885376062
      ],
      [
        "▁direnis",
        -10.432595205235035
      ],
      [
        "▁5.9",
        -10.066471804320791
      ],
      [
        "madan",
        -9.213751060664343
      ],
      [
        "▁arıyoru",
        -10.141447077453908
      ],
      [
        "▁kalmayı",
        -10.810640366562982
      ],
      [
        "▁nerde",
        -10.135576152353247
      ],
      [
        "ta",
        -7.825751804999858
      ],
      [
        "▁sahiplerini",
        -11.587312279215782
      ],
      [
        "▁diego'",
        -9.236680859906603
      ],
      [
        "▁etkileye",
        -11.09281574168894
      ],
      [
        "▁kabul",
        -7.708725868237481
      ],
      [
        "▁birilerini",
        -9.970179398692402
      ],
      [
        "▁darbukasını",
        -11.6878440943512
      ],
      [
        "▁memurları",
        -11.239829119285137
      ],
      [
        "te",
        -12.812262232465853
      ],
      [
        "▁lord",
        -11.485271016129738
      ],
      [
        "▁gelmez",
        -9.985469955742637
      ],
      [
        "▁devral",
        -10.862448406116762
      ],
      [
        "du",
        -9.107384677214492
      ],
      [
        "ize",
        -9.868258201399502
      ],
      [
        "lasan",
        -10.105946540299296
      ],
      [
        "▁75000",
        -11.160029376756585
      ],
      [
        "▁unutulmus",
        -11.518035629426674
      ],
      [
        "▁uye",
        -9.714560909146506
      ],
      [
        "▁ramiz",
        -10.450958556090088
      ],
      [
        "▁lisan",
        -10.649024608063163
      ],
      [
        "▁ordusu",
        -10.59989006657285
      ],
      [
        "nuz",
        -9.592449687501576
      ],
      [
        "▁tarafın",
        -10.319761541780775
      ],
      [
        "▁0.2",
        -9.200581725524952
      ],
      [
        "▁beklenti",
        -10.125961066310028
      ],
      [
        "▁kırk",
        -10.430421267619122
      ],
      [
        "▁pc",
        -11.255652951495433
      ],
      [
        "▁251.",
        -13.355947119493491
      ],
      [
        "pati",
        -11.480416664085414
      ],
      [
        "▁jacobs",
        -11.517904412869136
      ],
      [
        "▁muhabir",
        -11.362732338373082
      ],
      [
        "▁ihtiyacım",
        -8.121698408018446
      ],
      [
        "▁dikkatli",
        -10.127421208710253
      ],
      [
        "▁fonların",
        -10.389332886501702
      ],
      [
        "▁olagan",
        -10.64986660896758
      ],
      [
        "▁yavan",
        -11.250108496192428
      ],
      [
        "▁at",
        -8.192494403478179
      ],
      [
        "▁cumle",
        -9.591801163061174
      ],
      [
        "▁piyasada",
        -9.352103347823363
      ],
      [
        "▁avukat",
        -9.540995834751442
      ],
      [
        "▁metal",
        -10.328256293858113
      ],
      [
        "▁turun",
        -10.386426525565973
      ],
      [
        "larından",
        -8.10511228511404
      ],
      [
        "▁kıvır",
        -11.138766036985729
      ],
      [
        "%3",
        -12.572089405969253
      ],
      [
        "▁yansıtma",
        -11.632647174162342
      ],
      [
        "▁d",
        -6.165377115707738
      ],
      [
        "84'",
        -12.522802640641878
      ],
      [
        "▁kuru",
        -8.545801730137946
      ],
      [
        "▁tencere",
        -10.729116738610703
      ],
      [
        "imis",
        -12.54917241599001
      ],
      [
        "▁bacaklarında",
        -11.538268588520378
      ],
      [
        "▁bitir",
        -10.00679419247885
      ],
      [
        "▁yıllarında",
        -10.771306986321557
      ],
      [
        "▁karadeniz",
        -11.250129547758489
      ],
      [
        "abildigi",
        -10.966227399979873
      ],
      [
        "▁yak",
        -10.138863833834318
      ],
      [
        "▁hususi",
        -11.387243243612366
      ],
      [
        "▁anlayis",
        -10.788275777342772
      ],
      [
        "▁ucak",
        -8.233477510155305
      ],
      [
        "▁otel",
        -7.274545378878256
      ],
      [
        "▁r.",
        -10.865028571096131
      ],
      [
        "▁ucyuzatmıs",
        -10.89093260026778
      ],
      [
        "▁kalıyordu",
        -11.050651921242324
      ],
      [
        "enc",
        -11.02235575751815
      ],
      [
        "▁toparla",
        -10.816064731631197
      ],
      [
        "9.1",
        -11.67436686352823
      ],
      [
        "▁kabus",
        -11.139146976936818
      ],
      [
        "▁big",
        -10.156117388352735
      ],
      [
        "▁teklifin",
        -10.62647648867323
      ],
      [
        "▁garip",
        -9.339112063228619
      ],
      [
        "▁kına",
        -10.23806794454373
      ],
      [
        "▁getirdigi",
        -10.314641886393737
      ],
      [
        "▁25",
        -7.6585169186170114
      ],
      [
        "▁sanatcılar",
        -10.68892009966465
      ],
      [
        "el",
        -8.104511975606275
      ],
      [
        "ebilen",
        -10.744650301535055
      ],
      [
        "▁dolandırıcı",
        -11.248376168711953
      ],
      [
        "▁basketbol",
        -11.250047270072876
      ],
      [
        "▁112",
        -10.140776630495758
      ],
      [
        "▁suruyor",
        -9.679243304848892
      ],
      [
        "yı",
        -10.870253784654494
      ],
      [
        "▁amsterdam",
        -11.6845710831142
      ],
      [
        "▁menf",
        -11.88087766896392
      ],
      [
        "▁kırıldı",
        -11.331070736203445
      ],
      [
        "▁gormedigim",
        -11.80728638837406
      ],
      [
        "ker",
        -10.68574823561349
      ],
      [
        "▁guber",
        -11.139227100683938
      ],
      [
        "56",
        -12.773792116744088
      ],
      [
        "▁yunan",
        -10.473849648994053
      ],
      [
        "▁oralarda",
        -11.047729237171687
      ],
      [
        "▁street'i",
        -11.093457400837
      ],
      [
        "▁fukara",
        -11.250052207557033
      ],
      [
        "▁ifade",
        -8.210505191591864
      ],
      [
        "▁mis",
        -10.01318207318766
      ],
      [
        "masından",
        -10.504088879604168
      ],
      [
        "▁sansını",
        -11.143338147708295
      ],
      [
        "▁yasanan",
        -9.87927328459506
      ],
      [
        "▁durdur",
        -10.858246549990927
      ],
      [
        "▁saksı",
        -11.383228355914556
      ],
      [
        "▁yapmayı",
        -9.274802201017202
      ],
      [
        "y",
        -7.050804997876933
      ],
      [
        "▁ukala",
        -11.684573778448883
      ],
      [
        "▁tampa'da",
        -9.971662224916377
      ],
      [
        "▁anlatılma",
        -11.701341772662733
      ],
      [
        "▁332",
        -12.046173863642828
      ],
      [
        "▁ekmek",
        -8.823541251498682
      ],
      [
        "'de",
        -7.8520022368243305
      ],
      [
        "sıyla",
        -8.802843184715647
      ],
      [
        "▁anlatmaya",
        -10.517669774647707
      ],
      [
        "▁gosterebilir",
        -10.209162558474981
      ],
      [
        "▁yatar",
        -10.539769325417302
      ],
      [
        "▁fiyatlarında",
        -10.77759948266366
      ],
      [
        "▁pervane",
        -10.78862942236734
      ],
      [
        "evi'n",
        -11.411382116754318
      ],
      [
        "▁315.",
        -12.050683664052887
      ],
      [
        "▁kızları",
        -10.294905622667391
      ],
      [
        "▁burusuk",
        -11.51806587048528
      ],
      [
        "▁secenekleri",
        -10.505397512555929
      ],
      [
        "▁pi",
        -9.307604595675267
      ],
      [
        "▁kıdeml",
        -10.96372416601136
      ],
      [
        "▁kurtulu",
        -11.599643157318175
      ],
      [
        "▁biz",
        -8.874177230313654
      ],
      [
        "▁31",
        -7.811440546527198
      ],
      [
        "medigi",
        -9.996539969255648
      ],
      [
        "200",
        -10.739024706647761
      ],
      [
        "▁sehirleri",
        -11.121006405037425
      ],
      [
        "▁de",
        -9.29558926803189
      ],
      [
        "▁gordugunde",
        -11.712704653983037
      ],
      [
        "▁5.5",
        -9.572967278095836
      ],
      [
        "▁yigit",
        -11.127031560699606
      ],
      [
        "▁calısan",
        -8.930004734310774
      ],
      [
        "▁makine",
        -9.389896826697823
      ],
      [
        "▁soylemek",
        -9.82675844148471
      ],
      [
        "▁basvuru",
        -10.392918482113227
      ],
      [
        "▁kılavuz",
        -10.47279634852819
      ],
      [
        "44.9",
        -12.634094068592963
      ],
      [
        "▁diploma",
        -11.698446216786007
      ],
      [
        "▁parası",
        -10.445897221451501
      ],
      [
        "▁raf",
        -9.911078805365035
      ],
      [
        "▁ceylan",
        -11.250290371422158
      ],
      [
        "▁olimpiyat",
        -11.172672629613068
      ],
      [
        "▁dovul",
        -11.37508688601261
      ],
      [
        "▁bra",
        -10.727860987399257
      ],
      [
        "▁'di",
        -10.329890750168904
      ],
      [
        "▁27.5",
        -11.224527615163908
      ],
      [
        "dimiz",
        -13.725980290425275
      ],
      [
        "▁gorurdu",
        -11.40885361753449
      ],
      [
        "▁yansıtıyor",
        -10.447319425244427
      ],
      [
        "▁edebiliyor",
        -11.685804581153867
      ],
      [
        "▁tanınmıs",
        -10.99187566165023
      ],
      [
        "▁beraberinde",
        -11.392209373797458
      ],
      [
        "▁celebi",
        -10.716346950764692
      ],
      [
        "▁fevkalade",
        -10.587175418631483
      ],
      [
        "▁islam",
        -10.794341623549712
      ],
      [
        "tı",
        -8.324715511985309
      ],
      [
        "▁icli",
        -10.881034028476142
      ],
      [
        "▁av",
        -9.237292719736011
      ],
      [
        "gimi",
        -10.152874319988847
      ],
      [
        "▁atlantic",
        -11.684571083758211
      ],
      [
        "2.7",
        -10.202973943298872
      ],
      [
        "▁aldıgım",
        -10.635502743038465
      ],
      [
        "▁hale",
        -8.139075467979886
      ],
      [
        "▁5.0",
        -11.297107706535359
      ],
      [
        "▁kardesini",
        -10.563029593612214
      ],
      [
        "▁citicorp",
        -10.716342085139352
      ],
      [
        "▁karmasası",
        -11.250426054411946
      ],
      [
        "▁yetisti",
        -11.238419300483265
      ],
      [
        "▁dusen",
        -9.346893070725622
      ],
      [
        "▁sigortası",
        -10.315003661377565
      ],
      [
        "▁diller",
        -11.235392050881584
      ],
      [
        "▁1.582",
        -11.119840713212811
      ],
      [
        "▁istekleri",
        -11.415858749346116
      ],
      [
        "▁zevkin",
        -11.478234399448585
      ],
      [
        "▁sansasyon",
        -11.684648842757257
      ],
      [
        "▁yorgun",
        -9.539297183967909
      ],
      [
        "▁ap",
        -9.67670467332203
      ],
      [
        "▁bicil",
        -11.115141810243628
      ],
      [
        "▁sakınca",
        -10.868782643442053
      ],
      [
        "▁yuksek",
        -7.402324369782373
      ],
      [
        "▁gucsuz",
        -10.922633059052252
      ],
      [
        "”",
        -9.789649445909063
      ],
      [
        "▁kaymakam",
        -10.528469941690712
      ],
      [
        "▁nuran",
        -11.710935803345683
      ],
      [
        "▁mezarların",
        -11.584366162920798
      ],
      [
        "▁sekiz",
        -7.532759790075625
      ],
      [
        "▁yoklugunda",
        -11.684925575443426
      ],
      [
        "▁aldat",
        -11.153589593604488
      ],
      [
        "▁maksat",
        -11.375047662244137
      ],
      [
        "▁hata",
        -9.518099081262335
      ],
      [
        "▁283.",
        -11.187175624606244
      ],
      [
        "▁kazanacak",
        -11.384219253892196
      ],
      [
        "▁40.1",
        -11.018623284439725
      ],
      [
        "▁muy",
        -12.823714356021418
      ],
      [
        "3",
        -9.610721383390596
      ],
      [
        "▁munasebetsiz",
        -11.368790015917961
      ],
      [
        "▁tahri",
        -11.242233581143292
      ],
      [
        "▁niteliginde",
        -11.250348470238755
      ],
      [
        "▁pizza",
        -11.517905978624306
      ],
      [
        "▁aksam",
        -7.2455872333726195
      ],
      [
        "▁tanıyordu",
        -11.56885850732224
      ],
      [
        "▁getirebilir",
        -10.652747098206838
      ],
      [
        "▁asistanı",
        -11.14595803988166
      ],
      [
        "arı",
        -9.182295171636294
      ],
      [
        "▁sıcagı",
        -11.340041635947411
      ],
      [
        "▁aglar",
        -11.346123007102214
      ],
      [
        "▁muhendislik",
        -11.052107265509745
      ],
      [
        "▁masası",
        -11.17339533407301
      ],
      [
        "▁bacaklarını",
        -11.416176863642214
      ],
      [
        "▁sp",
        -9.821574972343747
      ],
      [
        "▁sakın",
        -9.973125377835489
      ],
      [
        "▁tereyagı",
        -11.038936911236037
      ],
      [
        "▁ajanları",
        -11.884571955749372
      ],
      [
        "▁ilerleme",
        -10.135253734101253
      ],
      [
        "▁koltugun",
        -10.631108343064055
      ],
      [
        "▁koylerinde",
        -11.597803027379962
      ],
      [
        "▁gorebiliyordu",
        -11.884575049774837
      ],
      [
        "▁getirmisler",
        -11.426981567681725
      ],
      [
        "▁kacar",
        -10.868497199303022
      ],
      [
        "▁alıstı",
        -11.61627480628287
      ],
      [
        "30",
        -12.083484989621075
      ],
      [
        "bildigi",
        -11.183294325288141
      ],
      [
        "▁faslı",
        -11.38645458909566
      ],
      [
        "▁bilir",
        -9.008609348046354
      ],
      [
        "▁wolf",
        -11.519472614627627
      ],
      [
        "▁schwarz",
        -11.884571081247746
      ],
      [
        "▁isık",
        -11.141417791007935
      ],
      [
        "▁gonlunde",
        -11.694587200888309
      ],
      [
        "▁tez",
        -10.778763052665589
      ],
      [
        "▁dibe",
        -11.140052781133681
      ],
      [
        "▁duzlem",
        -11.872228838682727
      ],
      [
        "tacak",
        -10.634422607258283
      ],
      [
        "▁toplama",
        -10.708526385450787
      ],
      [
        "▁tası",
        -9.346676677356704
      ],
      [
        "▁yakalama",
        -11.24253759615414
      ],
      [
        "▁ilgi",
        -8.128062290134295
      ],
      [
        "▁secme",
        -10.314559337670678
      ],
      [
        "▁gitme",
        -10.026689837281971
      ],
      [
        "▁hukmu",
        -10.526009683778735
      ],
      [
        "▁goru",
        -10.76169494089218
      ],
      [
        "zul",
        -10.795265725531106
      ],
      [
        "sin",
        -10.559756008826753
      ],
      [
        "▁128",
        -11.051998722835574
      ],
      [
        "▁ilet",
        -10.685732702907035
      ],
      [
        "▁olabilecegi",
        -11.007758328938069
      ],
      [
        "▁getirile",
        -10.841796538715581
      ],
      [
        "▁yurekli",
        -11.145518031419833
      ],
      [
        "▁konserve",
        -11.250350543412022
      ],
      [
        "▁bulvar",
        -11.37563212594588
      ],
      [
        "ici",
        -8.941773355617075
      ],
      [
        "▁kahvalti",
        -9.301852812853138
      ],
      [
        "▁kaybedece",
        -11.57963537655664
      ],
      [
        "▁uslubu",
        -11.684696797679948
      ],
      [
        "▁ulke",
        -8.85440078917505
      ],
      [
        "▁tampa",
        -11.686684768191956
      ],
      [
        "▁125",
        -11.890204414845119
      ],
      [
        "▁teslimat",
        -11.046033411294722
      ],
      [
        "145",
        -11.195436616308838
      ],
      [
        "▁dusunmus",
        -11.25241629741507
      ],
      [
        "▁meger",
        -9.113731181418167
      ],
      [
        "▁ayrıldıgı",
        -11.269542725411382
      ],
      [
        "▁siirt'te",
        -11.884575273758308
      ],
      [
        "▁son",
        -6.750330523782255
      ],
      [
        "▁kalbi",
        -10.157860591533305
      ],
      [
        "▁alısmıs",
        -11.252913970260616
      ],
      [
        "▁aydınlanma",
        -11.707958145980921
      ],
      [
        "▁eden",
        -7.796070770643326
      ],
      [
        "▁bakıs",
        -9.122078272477856
      ],
      [
        "▁herkesi",
        -10.81386242032496
      ],
      [
        "▁kalkacak",
        -11.253105501205043
      ],
      [
        "▁kızım",
        -10.423058065959122
      ],
      [
        "▁asılı",
        -10.738224202359104
      ],
      [
        "▁pasta",
        -10.791318965293284
      ],
      [
        "▁alısılmadık",
        -11.138936203627853
      ],
      [
        "▁acenta",
        -10.52837239630518
      ],
      [
        "▁bozma",
        -11.135905657736034
      ],
      [
        "▁onemsiz",
        -10.422758680396878
      ],
      [
        "3/",
        -10.921871214404954
      ],
      [
        "▁tehlike",
        -9.475047864482093
      ],
      [
        "▁giuliani",
        -11.51790441149283
      ],
      [
        "9.9",
        -12.63279147968558
      ],
      [
        "▁musa",
        -10.320530697622093
      ],
      [
        "▁rota",
        -10.37312873329191
      ],
      [
        "mıyorlar",
        -10.908683173443645
      ],
      [
        "▁gerekmez",
        -11.548936292590346
      ],
      [
        "meyi",
        -9.471514167600802
      ],
      [
        "▁cakıl",
        -10.551610338488182
      ],
      [
        "▁chevrolet",
        -11.684601136459158
      ],
      [
        "▁kaldırıl",
        -10.415013730221455
      ],
      [
        "▁diz",
        -9.678087615260559
      ],
      [
        "▁814",
        -13.729043068958585
      ],
      [
        "▁asagıda",
        -9.594647021021828
      ],
      [
        "▁universiteler",
        -11.434395488659852
      ],
      [
        "▁oranları",
        -9.529389235346937
      ],
      [
        "▁bulunuyor",
        -9.319346550047658
      ],
      [
        "▁%25",
        -11.449662882313852
      ],
      [
        "▁sosyete",
        -11.51791687298124
      ],
      [
        "▁gunlerinde",
        -10.801883397435397
      ],
      [
        "▁dovdu",
        -11.250107459817624
      ],
      [
        "▁karasu",
        -11.393080132069864
      ],
      [
        "▁bakim",
        -11.164851079742522
      ],
      [
        "60'",
        -12.421662312718029
      ],
      [
        "klerini",
        -9.920820815130337
      ],
      [
        "▁ettiginde",
        -10.893262290178487
      ],
      [
        "▁dusunmuyoru",
        -11.68118252655915
      ],
      [
        "▁genel",
        -6.967532588512092
      ],
      [
        "▁lif",
        -10.278005817650307
      ],
      [
        "▁memleket",
        -9.813983814316753
      ],
      [
        "▁gozle",
        -10.24676603264661
      ],
      [
        "▁teshis",
        -10.948047644677516
      ],
      [
        "▁etrafın",
        -10.8046400813883
      ],
      [
        "▁hud",
        -10.8235748063899
      ],
      [
        "▁7.7",
        -10.263454444519812
      ],
      [
        "▁acıklama",
        -9.593243681446616
      ],
      [
        "▁indirim",
        -9.834277016534571
      ],
      [
        "uldugunu",
        -11.27651930605395
      ],
      [
        "▁mark",
        -9.969844993259791
      ],
      [
        "▁suregel",
        -11.147315694961787
      ],
      [
        "▁eglendi",
        -11.257280863190234
      ],
      [
        "▁milyar",
        -9.170872449899475
      ],
      [
        "▁birisi",
        -7.911313708072836
      ],
      [
        "▁duruyor",
        -8.976556461987531
      ],
      [
        "▁rakibi",
        -11.130057710388362
      ],
      [
        "▁yankı",
        -11.156181291011695
      ],
      [
        "▁yasandıgı",
        -11.4567870671075
      ],
      [
        "▁direktor",
        -10.773992648084699
      ],
      [
        "▁cev",
        -11.253081409577366
      ],
      [
        "▁mekan",
        -9.595327061360033
      ],
      [
        "▁efendim",
        -10.255355590021495
      ],
      [
        "▁avlu",
        -10.423403410216714
      ],
      [
        "▁derya",
        -10.917151623345896
      ],
      [
        "▁eksiklik",
        -11.224482389720507
      ],
      [
        "▁uc",
        -5.602242368294277
      ],
      [
        "▁sube",
        -10.302372960142218
      ],
      [
        "▁baslı",
        -10.600398219197453
      ],
      [
        "6.",
        -13.033090522450511
      ],
      [
        "▁ederdi",
        -9.850838070106171
      ],
      [
        "▁tabi",
        -9.208788713958857
      ],
      [
        ".39",
        -9.939713617690423
      ],
      [
        "▁etmesini",
        -10.708443582412624
      ],
      [
        "625",
        -9.9510386817464
      ],
      [
        "▁ferah",
        -10.233648935973305
      ],
      [
        "▁sagla",
        -10.4132334874419
      ],
      [
        "▁verilir",
        -10.65478798155634
      ],
      [
        "▁gorustu",
        -9.395678242659091
      ],
      [
        "▁ayag",
        -10.071462373013231
      ],
      [
        "▁yaparı",
        -10.892003036296916
      ],
      [
        "▁katın",
        -10.991362537290147
      ],
      [
        "▁merci",
        -11.104145378128399
      ],
      [
        "▁87",
        -11.447479691159176
      ],
      [
        "▁geleceg",
        -11.789301920236184
      ],
      [
        "▁ihale",
        -9.820910305607436
      ],
      [
        "▁konusuyorlar",
        -11.21031255109508
      ],
      [
        "▁bocegi",
        -11.68579967813502
      ],
      [
        "▁1.62",
        -11.770595066060817
      ],
      [
        "▁so",
        -10.07810263952628
      ],
      [
        "▁yalı",
        -10.153130256613057
      ],
      [
        "▁kalacak",
        -9.450661430516387
      ],
      [
        "▁etmeliyi",
        -11.29226565286589
      ],
      [
        "▁kurtarı",
        -11.569715322337865
      ],
      [
        "▁yolun",
        -9.625636610787376
      ],
      [
        "▁ucagını",
        -11.226507023187008
      ],
      [
        "▁toplayan",
        -11.39479566227766
      ],
      [
        "▁kendi",
        -5.6647228416722895
      ],
      [
        "▁tablosu",
        -11.41693668281693
      ],
      [
        "▁461",
        -11.041523720373016
      ],
      [
        "▁yalcın",
        -11.884571526276293
      ],
      [
        "▁olursa",
        -8.71652327299097
      ],
      [
        "▁sehit",
        -11.13893832120727
      ],
      [
        "▁edebilir",
        -9.49594295277789
      ],
      [
        "24",
        -10.284742277300092
      ],
      [
        "▁yaklası",
        -7.7314736913250215
      ],
      [
        "lıdır",
        -10.096384377942893
      ],
      [
        "▁ipotek",
        -9.664971144671314
      ],
      [
        "▁sogukkanlı",
        -11.038937962908904
      ],
      [
        "▁atmak",
        -10.200849568509181
      ],
      [
        "▁d.",
        -11.146330080896844
      ],
      [
        "▁tutun",
        -9.181926535695094
      ],
      [
        "▁siz",
        -6.276467912461138
      ],
      [
        "▁0.0",
        -10.15660429689194
      ],
      [
        "▁gidilir",
        -11.04149144700975
      ],
      [
        "▁zirve",
        -10.472288396173202
      ],
      [
        "▁dolabı",
        -11.37651939726161
      ],
      [
        "▁1998",
        -10.071219928032773
      ],
      [
        "▁354",
        -12.570213313067013
      ],
      [
        "▁jose'",
        -10.074953564852871
      ],
      [
        "▁gidisat",
        -10.979492437185687
      ],
      [
        "▁izlenimleri",
        -11.700608301847351
      ],
      [
        "▁hakan",
        -10.092627303566196
      ],
      [
        "▁hissedarlar",
        -10.808340038712346
      ],
      [
        "▁sıkısmıs",
        -11.689027819223696
      ],
      [
        "▁nakit",
        -9.288057645803296
      ],
      [
        "▁organı",
        -11.122117811794897
      ],
      [
        "▁birkacın",
        -11.424525397940405
      ],
      [
        "▁238",
        -12.28526640491322
      ],
      [
        "▁erbakan'",
        -11.590283763443846
      ],
      [
        "▁tarif",
        -10.063426903023773
      ],
      [
        "▁pazarda",
        -10.762148258590598
      ],
      [
        "tulmus",
        -11.351447136987135
      ],
      [
        "▁masum",
        -10.789425252860665
      ],
      [
        "▁borclanma",
        -10.53134732914828
      ],
      [
        "▁rus",
        -9.69763375096323
      ],
      [
        "▁toplumu",
        -11.201313748453874
      ],
      [
        "▁34",
        -9.06955530779975
      ],
      [
        "▁kisiler",
        -9.434946230048626
      ],
      [
        "bilir",
        -8.843035650136997
      ],
      [
        "den",
        -5.438069272143263
      ],
      [
        "▁new",
        -7.3568397100267315
      ],
      [
        "▁hasar",
        -9.715578603870812
      ],
      [
        "▁kirk",
        -11.331660978193117
      ],
      [
        "▁ortamda",
        -10.804134613307758
      ],
      [
        "▁kırgın",
        -11.518064405095284
      ],
      [
        "▁diledigi",
        -11.824945528069026
      ],
      [
        "▁fırın",
        -9.996584881978938
      ],
      [
        "▁sebepler",
        -10.382549350642336
      ],
      [
        "▁adamdı",
        -10.519809017281245
      ],
      [
        "▁%7.5",
        -11.120962033768349
      ],
      [
        "▁hususunda",
        -11.253604953542446
      ],
      [
        "▁atmosfer",
        -11.138936158683137
      ],
      [
        "▁liste",
        -10.45292412790861
      ],
      [
        "▁kopegi",
        -10.370466484639856
      ],
      [
        "▁azalır",
        -11.689589017810778
      ],
      [
        "86.3",
        -11.632919849516048
      ],
      [
        "▁kurmus",
        -10.576783439112821
      ],
      [
        "mekte",
        -9.779334949364197
      ],
      [
        "▁farz",
        -11.146961109962417
      ],
      [
        "▁balayi",
        -9.97301044775309
      ],
      [
        "▁eriti",
        -11.502773564867114
      ],
      [
        "▁giris",
        -9.21509761012648
      ],
      [
        "vi",
        -8.812562268300665
      ],
      [
        "▁hasta",
        -8.690538820828817
      ],
      [
        "▁iri",
        -9.339001747577573
      ],
      [
        "▁frankl",
        -11.252464952816549
      ],
      [
        "▁hayvanı",
        -10.786348725450953
      ],
      [
        "▁uzaklasıyor",
        -11.377293927265171
      ],
      [
        "agı",
        -9.992656147959854
      ],
      [
        "▁bolunme",
        -10.511915984256246
      ],
      [
        "▁omuzlarını",
        -11.051515951142374
      ],
      [
        "▁asag",
        -10.96295525636977
      ],
      [
        "▁6'da",
        -9.595648218830735
      ],
      [
        "▁durak",
        -10.353931118515808
      ],
      [
        "▁hazırlanıyor",
        -11.005617613867143
      ],
      [
        "liyor",
        -9.168258382742291
      ],
      [
        "▁kredisi",
        -11.230878012205807
      ],
      [
        "▁ani",
        -9.572898648169739
      ],
      [
        "▁salatası",
        -11.250741965688484
      ],
      [
        "▁subvansiyon",
        -11.517904883469509
      ],
      [
        "▁olmadıgı",
        -8.957904994579483
      ],
      [
        "▁biri",
        -8.452702566973066
      ],
      [
        "y",
        -7.084033683983759
      ],
      [
        "rdı",
        -9.67370960565502
      ],
      [
        "▁rahatsız",
        -9.572770931892894
      ],
      [
        "▁yetenegi",
        -10.6375553536618
      ],
      [
        "▁korunması",
        -11.69231201959598
      ],
      [
        "▁7.8",
        -10.09782097110945
      ],
      [
        "▁ziyaret",
        -9.17883734991177
      ],
      [
        "▁bilmiyordu",
        -10.654840255112875
      ],
      [
        "▁251",
        -12.604806390027871
      ],
      [
        "▁ekmegini",
        -11.063689606521057
      ],
      [
        "▁tak",
        -9.824173499572499
      ],
      [
        "▁kisiligi",
        -10.713845730693645
      ],
      [
        "▁sozun",
        -10.700204069540316
      ],
      [
        "▁hos",
        -8.886158496000213
      ],
      [
        "▁ofisi",
        -10.313673752954122
      ],
      [
        "▁ozgu",
        -10.076182109350658
      ],
      [
        "▁vermeye",
        -9.809083150334601
      ],
      [
        "▁yemeginde",
        -11.326723847022667
      ],
      [
        "▁biraz",
        -6.840422343174125
      ],
      [
        "▁muhasebe",
        -10.574517786683103
      ],
      [
        "4.4",
        -11.158859754486857
      ],
      [
        "2:3",
        -12.38718615058697
      ],
      [
        "▁olimpiyatlar",
        -11.628945589345012
      ],
      [
        "landıgını",
        -10.381067679924618
      ],
      [
        "▁kefe",
        -11.139019181514445
      ],
      [
        "▁sektorunde",
        -10.33938702970195
      ],
      [
        "▁orgut",
        -10.384363799883033
      ],
      [
        "▁durumunu",
        -10.5646317541928
      ],
      [
        "▁kolaylıkla",
        -10.91227177278807
      ],
      [
        "▁isten",
        -9.77225862794587
      ],
      [
        "▁buyur",
        -10.15638426722705
      ],
      [
        "▁110",
        -9.85359950354846
      ],
      [
        "▁715",
        -12.41032435722673
      ],
      [
        "▁1991-199",
        -11.945824767265378
      ],
      [
        "▁step",
        -11.519460170977458
      ],
      [
        "▁utu",
        -10.69883187738252
      ],
      [
        "▁yumusak",
        -9.644083705229761
      ],
      [
        "0-hisse",
        -11.038936157736025
      ],
      [
        "▁paca",
        -10.956167026032725
      ],
      [
        "▁tekel",
        -10.814691428995728
      ],
      [
        "▁tarafta",
        -9.717053120637743
      ],
      [
        "▁visne",
        -11.684609904160034
      ],
      [
        "▁cıkmıs",
        -8.928848403383203
      ],
      [
        "▁antre",
        -11.684727993307979
      ],
      [
        "▁polemi",
[...]
