{
  "version": "1.0",
  "truncation": null,
  "padding": null,
  "added_tokens": [
    {
      "id": 6463,
      "content": "[PAD]",
      "single_word": false,
      "lstrip": false,
      "rstrip": false,
      "normalized": false,
      "special": true
    },
    {
      "id": 7566,
      "content": "[MASK]",
      "single_word": false,
      "lstrip": false,
      "rstrip": false,
      "normalized": false,
      "special": true
    },
    {
      "id": 7747,
      "content": "[UNK]",
      "single_word": false,
      "lstrip": false,
      "rstrip": false,
      "normalized": false,
      "special": true
    },
    {
      "id": 12800,
      "content": "[CLS]",
      "single_word": false,
      "lstrip": false,
      "rstrip": false,
      "normalized": false,
      "special": true
    },
    {
      "id": 13257,
      "content": "[SEP]",
      "single_word": false,
      "lstrip": false,
      "rstrip": false,
      "normalized": false,
      "special": true
    }
  ],
  "normalizer": {
    "type": "Sequence",
    "normalizers": [
      {
        "type": "NFD"
      },
      {
        "type": "Lowercase"
      },
      {
        "type": "StripAccents"
      }
    ]
  },
  "pre_tokenizer": {
    "type": "Sequence",
    "pretokenizers": [
      {
        "type": "Metaspace",
        "replacement": "▁",
        "prepend_scheme": "always",
        "split": true
      }
    ]
  },
  "post_processor": {
    "type": "TemplateProcessing",
    "single": [
      {
        "SpecialToken": {
          "id": "[CLS]",
          "type_id": 0
        }
      },
      {
        "Sequence": {
          "id": "A",
          "type_id": 0
        }
      },
      {
        "SpecialToken": {
          "id": "[SEP]",
          "type_id": 0
        }
      }
    ],
    "pair": [
      {
        "SpecialToken": {
          "id": "[CLS]",
          "type_id": 0
        }
      },
      {
        "Sequence": {
          "id": "A",
          "type_id": 0
        }
      },
      {
        "SpecialToken": {
          "id": "[SEP]",
          "type_id": 0
        }
      },
      {
        "Sequence": {
          "id": "B",
          "type_id": 1
        }
      },
      {
        "SpecialToken": {
          "id": "[SEP]",
          "type_id": 1
        }
      }
    ],
    "special_tokens": {
      "[CLS]": {
        "id": "[CLS]",
        "ids": [
          12800
        ],
        "tokens": [
          "[CLS]"
        ]
      },
      "[SEP]": {
        "id": "[SEP]",
        "ids": [
          13257
        ],
        "tokens": [
          "[SEP]"
        ]
      }
    }
  },
  "decoder": {
    "type": "Metaspace",
    "replacement": "▁",
    "prepend_scheme": "always",
    "split": true
  },
  "model": {
    "type": "BPE",
    "dropout": null,
    "unk_token": "[UNK]",
    "continuing_subword_prefix": null,
    "end_of_word_suffix": null,
    "fuse_unk": false,
    "byte_fallback": false,
    "ignore_merges": false,
    "vocab": {
      "iss": 0,
      "▁milyardan": 1,
      "▁agız": 2,
      "ildigi": 3,
      "▁kahvenin": 4,
      "▁ilim": 5,
      "▁dilin": 6,
      "▁vesil": 7,
      "▁yuzyılın": 8,
      "▁sif": 9,
      "▁pekmez": 10,
      "▁sic": 11,
      "▁141.90": 12,
      "▁chat": 13,
      "▁alamadim": 14,
      "yip": 15,
      "▁cozumu": 16,
      "lerinde": 17,
      "▁hast": 18,
      "ijinal": 19,
      "▁ettigimiz": 20,
      "ayıcı": 21,
      "▁yonel": 22,
      "40": 23,
      "evizyon": 24,
      "▁mudahal": 25,
      "▁7.65": 26,
      "emezdi": 27,
      "icileri": 28,
      "▁sonradan": 29,
      "▁basındaki": 30,
      "▁tesek": 31,
      "▁oynamaya": 32,
      "▁onbes": 33,
      "▁ec": 34,
      "ilya": 35,
      "▁ha": 36,
      "▁must": 37,
      "▁reddet": 38,
      "▁aras": 39,
      "▁herkesi": 40,
      "▁bakma": 41,
      "▁ucretle": 42,
      "▁miami'den": 43,
      "imiz": 44,
      "▁form": 45,
      "▁sakınc": 46,
      "▁beklenen": 47,
      "▁jr.": 48,
      "▁savr": 49,
      "ektif": 50,
      ".c": 51,
      "▁uzeri": 52,
      "▁ticari": 53,
      "▁cekerek": 54,
      "▁gezin": 55,
      "▁temerrut": 56,
      "ciler": 57,
      "▁kazandır": 58,
      "anlık": 59,
      "tia": 60,
      "▁sırada": 61,
      "▁sarkı": 62,
      "▁ebeveyn": 63,
      "ılıgın": 64,
      "▁thomas": 65,
      "▁tahamm": 66,
      "▁topragı": 67,
      "▁kapıyı": 68,
      "▁ili": 69,
      "▁q": 70,
      "▁9.625": 71,
      "▁elimizde": 72,
      "tıs": 73,
      "▁toplamak": 74,
      "▁uzakta": 75,
      "tey": 76,
      "▁olayı": 77,
      "▁fedakarlık": 78,
      "▁%9.": 79,
      "aktadır": 80,
      "▁birimizin": 81,
      "▁kanep": 82,
      "▁zorla": 83,
      "▁esn": 84,
      "dirde": 85,
      "▁burnu": 86,
      "ınıp": 87,
      "▁gittim": 88,
      "▁alakasi": 89,
      "▁halbuki": 90,
      "▁coz": 91,
      "▁4.6": 92,
      "▁cerey": 93,
      "▁adlandır": 94,
      "▁dinledi": 95,
      "▁pesinden": 96,
      "▁memuriyet": 97,
      "▁yeniden": 98,
      "▁otelde": 99,
      "▁hangisini": 100,
      "▁benims": 101,
      "▁gecmisi": 102,
      "▁nay": 103,
      "▁artıs": 104,
      "▁angeles'e": 105,
      "▁0.05": 106,
      "▁salın": 107,
      "▁buy": 108,
      "▁iran": 109,
      "▁well": 110,
      "▁birlestir": 111,
      "amda": 112,
      "▁ifsa": 113,
      "▁arasında": 114,
      "▁durmus": 115,
      "▁standart": 116,
      ".6": 117,
      "▁krenz": 118,
      "▁yazarı": 119,
      "▁ulasımı": 120,
      "▁y": 121,
      "▁ozellikleri": 122,
      "▁calısıyorlar": 123,
      "▁olustur": 124,
      "▁yur": 125,
      "▁severim": 126,
      "cileri": 127,
      "ınca": 128,
      "90": 129,
      "liligini": 130,
      "▁dong": 131,
      "▁1953": 132,
      "one": 133,
      "▁carsı": 134,
      "▁oturt": 135,
      "adıgını": 136,
      "▁heyec": 137,
      "▁manevra": 138,
      "▁gogus": 139,
      "▁aray": 140,
      "▁buc": 141,
      "▁ilgilendir": 142,
      "▁hilton": 143,
      "▁sorusturma": 144,
      "hut": 145,
      "▁u": 146,
      "▁azar": 147,
      "eksu": 148,
      "sem": 149,
      "alanı": 150,
      "eis": 151,
      "▁kolombiya": 152,
      "▁gezdim": 153,
      "▁fig": 154,
      "▁yken": 155,
      "▁carl": 156,
      "▁isteyen": 157,
      "imler": 158,
      "▁1.37": 159,
      "▁once": 160,
      "▁indian": 161,
      "ık": 162,
      "▁2017": 163,
      "▁yılına": 164,
      "▁mar": 165,
      "e'ye": 166,
      "▁bitir": 167,
      "8.6": 168,
      "▁ucuslarla": 169,
      "ımız": 170,
      "▁edemez": 171,
      "▁sunan": 172,
      "▁bilgisayar": 173,
      "esini": 174,
      "▁dudakları": 175,
      "▁degerli": 176,
      "▁hisseyi": 177,
      "evi": 178,
      "umun": 179,
      "▁tesp": 180,
      "▁saatlik": 181,
      "y.": 182,
      "▁ra": 183,
      "cin": 184,
      "lerle": 185,
      "▁baslam": 186,
      "▁katılıyor": 187,
      "▁karara": 188,
      "ikler": 189,
      "▁soylemeye": 190,
      "▁rıh": 191,
      "▁spons": 192,
      "▁kirliydi": 193,
      "▁pencereden": 194,
      "▁yururken": 195,
      ",3": 196,
      "▁marif": 197,
      "▁kaydetti": 198,
      "▁sir": 199,
      "rne": 200,
      "▁adı": 201,
      "▁cıkarılan": 202,
      "▁havalimanı": 203,
      "▁trafik": 204,
      "▁temizlikten": 205,
      "▁sonucların": 206,
      "larım": 207,
      "▁unsuru": 208,
      "isim": 209,
      "▁first": 210,
      "▁futbolcu": 211,
      "ımı": 212,
      "▁karabiber": 213,
      "▁kokuyordu": 214,
      "▁ameliyat": 215,
      "▁aldıktan": 216,
      "▁anlatmak": 217,
      "▁hazine'nin": 218,
      "▁temel": 219,
      "lılar": 220,
      "▁kısmen": 221,
      "▁ydim": 222,
      "▁mih": 223,
      "▁geldigim": 224,
      "▁tanın": 225,
      "▁patlıc": 226,
      "ecekleri": 227,
      "▁mucadele": 228,
      "o'yu": 229,
      "▁aramay": 230,
      "ektuel": 231,
      "▁traj": 232,
      "lugunda": 233,
      "▁gozler": 234,
      "dedil": 235,
      "▁perdesi": 236,
      "meleri": 237,
      "▁kritik": 238,
      "▁reserve": 239,
      "▁boy": 240,
      "▁sanıyorum": 241,
      "▁irf": 242,
      "▁iplik": 243,
      "▁etmisler": 244,
      "▁yasin": 245,
      "▁ora": 246,
      "▁parkta": 247,
      "▁tesisten": 248,
      "▁esiyor": 249,
      "▁harikaydi": 250,
      "dım": 251,
      "▁demokratik": 252,
      "▁kenarları": 253,
      "▁kirpik": 254,
      "▁gecer": 255,
      "▁macı": 256,
      "▁dusunmus": 257,
      "▁tum": 258,
      "▁yonetiminin": 259,
      "▁kasırga": 260,
      "▁indianapolis'ten": 261,
      "▁annem": 262,
      "▁duygusu": 263,
      "▁guzelim": 264,
      "lamadan": 265,
      "▁dc'de": 266,
      "az": 267,
      "ans": 268,
      "▁akl": 269,
      "▁nut": 270,
      "▁hakkı": 271,
      "▁farkına": 272,
      "▁kahveci": 273,
      "▁burnun": 274,
      "▁boc": 275,
      "▁bahset": 276,
      "▁yan": 277,
      "▁acıklam": 278,
      "idik": 279,
      "▁eriyor": 280,
      "▁sarmas": 281,
      "e'nin": 282,
      "okr": 283,
      "▁mat": 284,
      "▁baksana": 285,
      "▁kaynaklan": 286,
      "▁ayının": 287,
      "▁baskanlıgı": 288,
      "▁control": 289,
      "▁tacoma": 290,
      "▁bec": 291,
      "▁hersey": 292,
      "▁saniye": 293,
      "utur": 294,
      "emden": 295,
      "▁mani": 296,
      "menin": 297,
      "daydi": 298,
      "▁yukselt": 299,
      "▁kep": 300,
      "van": 301,
      "▁yetersizdi": 302,
      "▁plaj": 303,
      "▁mektup": 304,
      "odal": 305,
      "▁turk'un": 306,
      "dadı": 307,
      "eydi": 308,
      "ings": 309,
      "▁yavr": 310,
      "lamalı": 311,
      "▁degistiriyor": 312,
      "▁odeyecek": 313,
      "▁konusmaya": 314,
      "▁madde": 315,
      "▁yapti": 316,
      "▁olabilecegi": 317,
      "▁sivil": 318,
      "▁boyl": 319,
      "▁limuz": 320,
      "▁dolardır": 321,
      "▁ray": 322,
      "▁samet": 323,
      "sagı": 324,
      "eci": 325,
      "▁pur": 326,
      "▁planını": 327,
      "▁yuzluydu": 328,
      "▁ariz": 329,
      "▁deligi": 330,
      "id": 331,
      "▁mısın": 332,
      "▁mesle": 333,
      "▁kendimle": 334,
      "taj": 335,
      "▁sapan": 336,
      "▁herkesle": 337,
      "▁inceleme": 338,
      "end": 339,
      "55": 340,
      "▁dolduran": 341,
      "▁prot": 342,
      "▁birka": 343,
      "▁kilerin": 344,
      "tıp": 345,
      "▁dusmanca": 346,
      "▁adında": 347,
      "▁0.24": 348,
      "▁koruy": 349,
      "▁bolumu": 350,
      "manız": 351,
      "ini": 352,
      "ustu": 353,
      "▁diego'ya": 354,
      "gın": 355,
      "ix": 356,
      "▁kendimizi": 357,
      "mayalım": 358,
      "▁evrenin": 359,
      "▁tırman": 360,
      "▁senem": 361,
      "uvar": 362,
      "▁mademki": 363,
      "▁thom": 364,
      "▁iyidir": 365,
      "▁ice": 366,
      "▁siy": 367,
      "▁rafin": 368,
      "loy": 369,
      "▁yangın": 370,
      "▁verebilirim": 371,
      "▁teras": 372,
      "iyetle": 373,
      "▁kulag": 374,
      "heim": 375,
      "ansız": 376,
      "▁1.06": 377,
      "▁taks": 378,
      "▁italyan": 379,
      "”": 380,
      "aten": 381,
      "▁demisti": 382,
      "▁bon": 383,
      "▁vak": 384,
      "▁skandal": 385,
      "▁bilmek": 386,
      "▁abi": 387,
      "▁bildir": 388,
      "▁yukselerek": 389,
      "emizin": 390,
      "tiy": 391,
      "▁koltuklar": 392,
      "▁dususu": 393,
      "▁endustrisi": 394,
      "-hisse": 395,
      "▁dua": 396,
      "▁ceza": 397,
      "▁insanlardan": 398,
      "▁evden": 399,
      "▁aslında": 400,
      "▁dip": 401,
      "▁islemciler": 402,
      "▁kumsal": 403,
      "masından": 404,
      "▁pazarlık": 405,
      "onom": 406,
      "▁fid": 407,
      "▁bulasık": 408,
      "▁ortalık": 409,
      "▁alıcı": 410,
      "▁gelistirme": 411,
      "▁sevg": 412,
      "▁merh": 413,
      "▁chicago'dan": 414,
      "▁rap": 415,
      "▁sekiz": 416,
      "anci": 417,
      "'li": 418,
      "▁hayatımda": 419,
      "dıran": 420,
      "▁dostları": 421,
      "▁dururdu": 422,
      "▁zıp": 423,
      "▁kim": 424,
      "▁goruyoruz": 425,
      "▁saglam": 426,
      "izdi": 427,
      "▁ugrasıyor": 428,
      "▁yetkilileri": 429,
      "▁yalap": 430,
      "▁kaynaklanıyor": 431,
      "▁tut": 432,
      "ası'nda": 433,
      "▁hayal": 434,
      "▁dondum": 435,
      "▁york'tan": 436,
      "▁hesaba": 437,
      "▁yıcı": 438,
      "▁milletvek": 439,
      "▁duygular": 440,
      "▁sim": 441,
      "▁rend": 442,
      "▁veyahut": 443,
      "lendim": 444,
      "▁uretimin": 445,
      "▁alısveris": 446,
      "abilmesi": 447,
      "▁tahminleri": 448,
      "duy": 449,
      "cher": 450,
      "oeni": 451,
      "▁%99": 452,
      "▁yırt": 453,
      "▁ayn": 454,
      "▁prob": 455,
      "▁reviz": 456,
      "alara": 457,
      "lanıyor": 458,
      "▁gunlerden": 459,
      "▁soyledigi": 460,
      "'sı": 461,
      "▁ihtiras": 462,
      "hane": 463,
      "▁kaybet": 464,
      "▁oldugumuzu": 465,
      "▁itibari": 466,
      "▁gelmeden": 467,
      "▁etmez": 468,
      "▁yaparlar": 469,
      "▁kk": 470,
      "isle": 471,
      "amızı": 472,
      "il": 473,
      "▁bulunan": 474,
      "mayacagı": 475,
      "iya": 476,
      "▁koyun": 477,
      "▁kulturu": 478,
      "▁edinmek": 479,
      "▁karsılas": 480,
      "▁ask": 481,
      "▁muamel": 482,
      "▁hain": 483,
      "▁tanr": 484,
      "▁pazarlama": 485,
      "▁gonzal": 486,
      "▁dc'ye": 487,
      "▁verecek": 488,
      "▁calısması": 489,
      "liyor": 490,
      "▁miydim": 491,
      "ucak": 492,
      "▁boeing": 493,
      "▁dısına": 494,
      "▁dusuktu": 495,
      "▁read": 496,
      "▁anlasılıyor": 497,
      "▁yaptıgını": 498,
      "anız": 499,
      "▁mc": 500,
      "ulmesi": 501,
      "▁neyi": 502,
      "▁eriy": 503,
      "▁eserleri": 504,
      "ku": 505,
      "▁12.9": 506,
      "▁seyh": 507,
      "▁mikrop": 508,
      "▁esyaları": 509,
      "▁mood": 510,
      "▁saatler": 511,
      "gını": 512,
      "tıkları": 513,
      "mustuk": 514,
      "meme": 515,
      "▁alaska": 516,
      "▁uctu": 517,
      "▁toplantı": 518,
      "▁begenmedim": 519,
      "▁olumlu": 520,
      "▁ob": 521,
      "▁istinaden": 522,
      "▁lazımdır": 523,
      "▁veririm": 524,
      "▁1.0": 525,
      "▁w.": 526,
      "▁secer": 527,
      "latan": 528,
      "liler": 529,
      "▁babaları": 530,
      "▁lawson": 531,
      "▁1950": 532,
      "▁mud": 533,
      "otiv": 534,
      "▁alıskan": 535,
      "▁zamanlama": 536,
      "▁diger": 537,
      "▁hun": 538,
      "▁aklıma": 539,
      "▁hollywood": 540,
      "▁kavga": 541,
      "kk": 542,
      "▁ilg": 543,
      "ısıyla": 544,
      "▁kose": 545,
      "▁fırtın": 546,
      "▁harcamaları": 547,
      "▁birbirler": 548,
      "▁almıs": 549,
      "25000": 550,
      "▁evrensel": 551,
      "st": 552,
      "▁genislet": 553,
      "▁korkut": 554,
      "▁kog": 555,
      "ladıklarını": 556,
      "▁delta": 557,
      "▁bah": 558,
      "▁durmak": 559,
      "▁amex": 560,
      "▁etkin": 561,
      "▁buyume": 562,
      "▁laborat": 563,
      "▁gam": 564,
      "lag": 565,
      "'s": 566,
      "▁1963": 567,
      "▁guver": 568,
      "▁kendiler": 569,
      "▁zeytiny": 570,
      "▁icli": 571,
      "▁almanya'da": 572,
      "▁azalt": 573,
      "uyoruz": 574,
      "▁yedi": 575,
      "▁ugradı": 576,
      "▁kostur": 577,
      "▁pittsburgh'ta": 578,
      "▁lung": 579,
      "▁tı": 580,
      "itraj": 581,
      "▁gecmez": 582,
      "▁parcacık": 583,
      "▁n": 584,
      "▁cap": 585,
      "▁cukur": 586,
      "▁almadan": 587,
      "edildi": 588,
      "asyonu": 589,
      "▁aniden": 590,
      "▁tad": 591,
      "▁doktorlar": 592,
      "▁1100": 593,
      "▁rop": 594,
      "▁duduk": 595,
      "▁acente": 596,
      "lerine": 597,
      "▁yolun": 598,
      "▁yam": 599,
      "▁dr": 600,
      "▁malzemeleri": 601,
      "▁askın": 602,
      "▁parib": 603,
      "hen": 604,
      "lasan": 605,
      "▁mubarek": 606,
      "▁turunu": 607,
      "▁guber": 608,
      "▁merksamer": 609,
      "ay'ın": 610,
      "▁adinaydi": 611,
      "mur": 612,
      "▁ayrılık": 613,
      "▁besi": 614,
      "▁uy": 615,
      "▁sınıfa": 616,
      "unlu": 617,
      "▁sanki": 618,
      "ıcı": 619,
      "dıgından": 620,
      "▁sanatın": 621,
      "▁feryat": 622,
      "tıyor": 623,
      "▁ankara'ya": 624,
      "▁secici": 625,
      "▁bulut": 626,
      "▁esi": 627,
      "▁tepk": 628,
      "▁sureci": 629,
      "'in": 630,
      "▁yasındaki": 631,
      "▁5.7": 632,
      "uste": 633,
      "eceklerini": 634,
      "tik": 635,
      "▁%80": 636,
      "▁gel": 637,
      "▁yıllarında": 638,
      "▁ekonominin": 639,
      "▁edilmisti": 640,
      "▁evli": 641,
      "▁bot": 642,
      "▁konusurken": 643,
      "▁sonraki": 644,
      "etts": 645,
      "▁toplulugun": 646,
      "▁adlı": 647,
      "▁han": 648,
      "zo": 649,
      "▁zinciri": 650,
      "ry": 651,
      "▁faaliyete": 652,
      "ph": 653,
      "arlan": 654,
      "▁muddet": 655,
      "▁sirketin": 656,
      "▁oyunun": 657,
      "▁ima": 658,
      "▁degildiler": 659,
      "▁lan": 660,
      "▁suyuna": 661,
      "▁96": 662,
      "▁hıc": 663,
      "▁washington'a": 664,
      "▁fazlay": 665,
      "astır": 666,
      "▁kucucuk": 667,
      "▁senetlerinin": 668,
      "▁mcca": 669,
      "▁hayata": 670,
      "▁verimli": 671,
      "▁ehemm": 672,
      "▁6.7": 673,
      "▁leri": 674,
      "▁gucu": 675,
      "▁yıllarda": 676,
      "▁bitki": 677,
      "▁iyiden": 678,
      "▁40.4": 679,
      "▁daha": 680,
      "▁uykusuz": 681,
      "iydi": 682,
      "▁sav": 683,
      "▁lif": 684,
      "..": 685,
      "pen": 686,
      "▁duyduk": 687,
      "▁mimar": 688,
      "▁elimize": 689,
      "▁1648": 690,
      "▁duyuyordu": 691,
      "te": 692,
      "inizde": 693,
      "▁mahkum": 694,
      "▁chase": 695,
      "ladılar": 696,
      "▁degillerdi": 697,
      "0000": 698,
      "▁toplamda": 699,
      "▁insanları": 700,
      "fk": 701,
      "▁eline": 702,
      "ırdı": 703,
      "▁tesiste": 704,
      "38": 705,
      "▁samim": 706,
      "▁cumartesi": 707,
      "▁sikint": 708,
      "▁katilmadim": 709,
      "▁ahenk": 710,
      "▁faturam": 711,
      "▁e.": 712,
      "▁oylesine": 713,
      "▁hayatını": 714,
      "▁sauna": 715,
      "▁gorusuldu": 716,
      "▁eksikligi": 717,
      "ga": 718,
      "▁romat": 719,
      "▁baltimore'ye": 720,
      "▁sınıflandır": 721,
      "▁baslarını": 722,
      "▁bekledigini": 723,
      "▁kaptan": 724,
      "▁gunlerini": 725,
      "▁yemegi": 726,
      "ned": 727,
      "▁diyar": 728,
      "▁cd": 729,
      "▁cia": 730,
      "▁cekerdi": 731,
      "▁ism": 732,
      "eciler": 733,
      "▁pilot": 734,
      "▁kopr": 735,
      "▁bilinen": 736,
      "▁kazanıyor": 737,
      "▁oranlar": 738,
      "atlar": 739,
      "lil": 740,
      "▁sayfa": 741,
      "▁saime": 742,
      "▁koyan": 743,
      "macılar": 744,
      "▁cek": 745,
      "▁sokacak": 746,
      "enz": 747,
      "▁ogrenci": 748,
      "▁ların": 749,
      "▁ki": 750,
      "▁kazanclarını": 751,
      "ef": 752,
      "▁katılan": 753,
      "▁isine": 754,
      "▁g.": 755,
      "▁verdim": 756,
      "▁fiyatlı": 757,
      "▁dinley": 758,
      "▁doları'nda": 759,
      "▁borcunu": 760,
      "▁alma": 761,
      "▁ucyuzyetmis": 762,
      "▁sezginler": 763,
      "▁yukumluluk": 764,
      "▁salı": 765,
      "▁serin": 766,
      "▁sahte": 767,
      "baska": 768,
      "fun": 769,
      "▁sars": 770,
      "▁yapil": 771,
      "egin": 772,
      "▁37": 773,
      "▁basbak": 774,
      "amanın": 775,
      "▁unit": 776,
      "acılara": 777,
      "lerimi": 778,
      "oh": 779,
      "yla": 780,
      "gının": 781,
      "usunda": 782,
      "▁bay": 783,
      "▁durgunluk": 784,
      "▁veto": 785,
      "▁sıf": 786,
      "amm": 787,
      "▁ohi": 788,
      "teydi": 789,
      "835": 790,
      "iymis": 791,
      "▁dusundu": 792,
      "▁idare": 793,
      "▁acıklaması": 794,
      "▁durdur": 795,
      "▁okut": 796,
      "hard": 797,
      "sas": 798,
      "▁muam": 799,
      "▁alas": 800,
      "ama": 801,
      "▁deri": 802,
      "▁baslıyor": 803,
      "▁kine": 804,
      "▁ailenin": 805,
      "▁muvaff": 806,
      "▁kurumlar": 807,
      "rak": 808,
      "▁carc": 809,
      "'n": 810,
      "▁utangac": 811,
      "▁denizden": 812,
      "▁co": 813,
      "▁diyorlar": 814,
      "▁girerken": 815,
      "aki": 816,
      "▁genclik": 817,
      "larımızı": 818,
      "▁gerektigini": 819,
      "▁meydanı": 820,
      "▁elimde": 821,
      "sarı": 822,
      "▁rustu": 823,
      "▁verir": 824,
      "▁altı": 825,
      "▁ocak'ta": 826,
      "▁cekilmis": 827,
      "▁hazırlamıs": 828,
      "▁gazel": 829,
      "▁ondan": 830,
      "▁kesmis": 831,
      "▁bekleniyor": 832,
      "▁gerekiyordu": 833,
      "▁yonetici": 834,
      "▁oturuyor": 835,
      ".04": 836,
      "▁tamamlan": 837,
      "▁gectigimiz": 838,
      "▁onder": 839,
      "▁dokundu": 840,
      "▁konustular": 841,
      "edim": 842,
      "▁hanımı": 843,
      "▁haberim": 844,
      "uydu": 845,
      "▁listesine": 846,
      "▁hukumet": 847,
      "▁2.9": 848,
      "▁ded": 849,
      "▁sakal": 850,
      "-23": 851,
      "▁ihtiyac": 852,
      "▁ilgililerdi": 853,
      "▁gokyuz": 854,
      "ınar": 855,
      "zal": 856,
      "▁bekleyen": 857,
      "▁avukatları": 858,
      "lanarak": 859,
      "▁315": 860,
      "▁ezber": 861,
      "▁yapıstır": 862,
      "▁iltif": 863,
      "▁acabilir": 864,
      "▁saglık": 865,
      "lerdi": 866,
      "ırım": 867,
      "▁macın": 868,
      "▁otop": 869,
      "▁hepsine": 870,
      "▁ikibinuc'te": 871,
      "meden": 872,
      "ılıgı": 873,
      "▁baskalarına": 874,
      "▁ce": 875,
      "fik": 876,
      "▁ger": 877,
      "▁icini": 878,
      "ılmıs": 879,
      "▁yemegin": 880,
      "▁tanıklık": 881,
      "▁hayatta": 882,
      "▁genellikle": 883,
      "dra": 884,
      "▁bıraktım": 885,
      "▁son": 886,
      "▁domates": 887,
      "▁mill": 888,
      "▁dunya": 889,
      "▁hatice": 890,
      "ılmıstır": 891,
      "▁derginin": 892,
      "▁parti": 893,
      "▁maddeler": 894,
      "oyla": 895,
      "▁konuk": 896,
      "melerin": 897,
      "▁arabacı": 898,
      "▁ondokuz": 899,
      "▁iseniz": 900,
      "▁bakimsizdi": 901,
      "▁dustugu": 902,
      "▁ey": 903,
      "▁mesaf": 904,
      "▁moskova": 905,
      "▁oturacak": 906,
      "▁ydin": 907,
      "▁hak": 908,
      "sel": 909,
      "▁insanlık": 910,
      "▁yurdum": 911,
      "▁sahiden": 912,
      "▁edecegim": 913,
      "▁yuz": 914,
      "▁bus": 915,
      "▁atan": 916,
      "▁itib": 917,
      "20000": 918,
      "▁niyetinde": 919,
      "asıp": 920,
      "▁cag": 921,
      "▁belediy": 922,
      "mac": 923,
      "▁devral": 924,
      "vest": 925,
      "▁dik": 926,
      "▁yerlere": 927,
      "▁boston": 928,
      ".76": 929,
      "▁mantıksız": 930,
      "▁kırmız": 931,
      "▁kalkıs": 932,
      "▁dokuluyor": 933,
      "▁cıkıs": 934,
      "▁vermeden": 935,
      "▁sigortacılar": 936,
      "▁yapı": 937,
      "▁olmustu": 938,
      "43": 939,
      "▁dusunmuyorum": 940,
      "▁dov": 941,
      "▁gitmeye": 942,
      "▁onsekiz": 943,
      "lenir": 944,
      "▁tepeden": 945,
      "▁kitaplar": 946,
      "▁duv": 947,
      "▁hastalıgı": 948,
      "▁bahan": 949,
      "▁beyi": 950,
      "arson": 951,
      "▁almak": 952,
      "▁zengin": 953,
      "adın": 954,
      "▁tadını": 955,
      "▁kıymetler": 956,
      "asın": 957,
      "▁temizligi": 958,
      "▁inmis": 959,
      "▁45000": 960,
      "▁kalabal": 961,
      "▁yuzyılda": 962,
      "▁bircog": 963,
      "lig": 964,
      "▁tahvil": 965,
      "▁buyumeye": 966,
      "tug": 967,
      "▁bayılmıs": 968,
      "▁esmer": 969,
      "▁hab": 970,
      "▁mir": 971,
      "▁las": 972,
      "▁aydınlık": 973,
      "▁esliginde": 974,
      "▁prof": 975,
      "▁birkacının": 976,
      "▁acmaz": 977,
      "▁canı": 978,
      "▁ucusla": 979,
      "▁rastlan": 980,
      "▁ekib": 981,
      "▁tasıt": 982,
      "▁taraf": 983,
      "▁fark": 984,
      "dıkca": 985,
      "itt": 986,
      "▁hukumeti": 987,
      "▁tul": 988,
      "▁tarihini": 989,
      "▁yayıldı": 990,
      "▁kelimeyle": 991,
      "▁6.6": 992,
      ".97": 993,
      "▁burbank'tan": 994,
      "▁islerinin": 995,
      "ıh": 996,
      "▁69": 997,
      "▁ekran": 998,
      "▁tehlikeye": 999,
      "▁ytl": 1000,
      "▁capraz": 1001,
      "▁fr": 1002,
      "▁gorusemedik": 1003,
      "▁1.22": 1004,
      "▁varır": 1005,
      "▁vardi": 1006,
      "amıyor": 1007,
      "▁icten": 1008,
      "mıstı": 1009,
      "▁s.": 1010,
      "▁calisanlardan": 1011,
      "▁yatan": 1012,
      "▁boynuna": 1013,
      "kı": 1014,
      "ak": 1015,
      "osuna": 1016,
      "▁1945'te": 1017,
      "▁weis": 1018,
      "uk": 1019,
      "▁yadig": 1020,
      "▁yerlesik": 1021,
      "▁isvec": 1022,
      "obr": 1023,
      "▁ilgilen": 1024,
      "lanıp": 1025,
      "▁ilgilenmedi": 1026,
      "▁duyarlı": 1027,
      "▁gran": 1028,
      "▁diken": 1029,
      "▁he": 1030,
      "▁dır": 1031,
      "▁inc.": 1032,
      "▁hayır": 1033,
      "▁kesme": 1034,
      "ullah": 1035,
      "unt": 1036,
      "▁havlu": 1037,
      "eyecegini": 1038,
      "▁akr": 1039,
      "▁philadelphia'ya": 1040,
      "▁ihsan": 1041,
      "larının": 1042,
      "▁guzeldi": 1043,
      "▁kutu": 1044,
      "▁karsilas": 1045,
      "▁isgucu": 1046,
      "▁ozur": 1047,
      "2'de": 1048,
      "▁defa": 1049,
      "rahim": 1050,
      "▁canak": 1051,
      "▁antal": 1052,
      "▁ovun": 1053,
      "▁kusu": 1054,
      "▁danısmanlık": 1055,
      "▁secti": 1056,
      "▁olm": 1057,
      "▁bilimleri": 1058,
      "▁gerisi": 1059,
      "▁sez": 1060,
      "diginiz": 1061,
      "▁koltuk": 1062,
      "▁yuzume": 1063,
      "▁fiyatlandır": 1064,
      "▁betim": 1065,
      "▁gorunmek": 1066,
      "acagını": 1067,
      "▁benim": 1068,
      ".": 1069,
      "▁patlı": 1070,
      "inde": 1071,
      "▁milliyetci": 1072,
      "▁os": 1073,
      "▁etkinlik": 1074,
      "▁uyeleri": 1075,
      "▁milwa": 1076,
      "▁verebilir": 1077,
      "▁kurdu": 1078,
      "▁superdi": 1079,
      "▁katildim": 1080,
      "sah": 1081,
      "▁karsılıgını": 1082,
      "bap": 1083,
      "▁cakmak": 1084,
      "▁lutf": 1085,
      "▁worth'dan": 1086,
      "▁925": 1087,
      "▁kral": 1088,
      "▁uzaktan": 1089,
      "z": 1090,
      "▁18": 1091,
      "▁zur": 1092,
      "▁okudu": 1093,
      "▁birisi": 1094,
      "▁?..": 1095,
      "▁erzurum": 1096,
      "▁avuc": 1097,
      "layıcı": 1098,
      "▁kariyer": 1099,
      "▁kor": 1100,
      "▁baskent": 1101,
      "▁bu": 1102,
      "▁inti": 1103,
      "▁yarısını": 1104,
      "▁dest": 1105,
      "▁vasıtasıyla": 1106,
      "▁british": 1107,
      "gunuz": 1108,
      "▁gazetesi": 1109,
      "▁biber": 1110,
      "▁yukselisle": 1111,
      "▁akar": 1112,
      "▁bazıları": 1113,
      "▁cagır": 1114,
      "▁500000": 1115,
      "▁ydiler": 1116,
      "▁uyuz": 1117,
      "artman": 1118,
      "▁hissettim": 1119,
      "00000": 1120,
      "izik": 1121,
      "▁6": 1122,
      "▁kalkıyor": 1123,
      "▁ustesinden": 1124,
      "▁gonder": 1125,
      "▁denizci": 1126,
      "anların": 1127,
      "▁vic": 1128,
      "iter": 1129,
      "▁sayan": 1130,
      "▁aktar": 1131,
      "▁merve": 1132,
      "▁attım": 1133,
      "▁detroit'e": 1134,
      "yat": 1135,
      "▁cenaz": 1136,
      "▁ucakla": 1137,
      "leriyle": 1138,
      "▁aktiv": 1139,
      "▁temizlen": 1140,
      "▁bekliyor": 1141,
      "▁376": 1142,
      "▁zaman": 1143,
      "it": 1144,
      "▁tasarru": 1145,
      "leyin": 1146,
      "innati": 1147,
      "▁bolgenin": 1148,
      "▁dukkanı": 1149,
      "▁armut": 1150,
      "▁boyn": 1151,
      "▁ozdemir": 1152,
      "▁oyuncuları": 1153,
      "dalı": 1154,
      "▁yontem": 1155,
      "▁75000": 1156,
      "▁kendisini": 1157,
      "larınız": 1158,
      "▁iceride": 1159,
      "▁iddi": 1160,
      "edir": 1161,
      "▁kıyasla": 1162,
      "▁frenk": 1163,
      "▁seyrediyordu": 1164,
      "▁ruz": 1165,
      "lardan": 1166,
      "▁partiler": 1167,
      "▁kabin": 1168,
      "▁cadd": 1169,
      "▁bagladı": 1170,
      "▁kulagına": 1171,
      "▁anlayislari": 1172,
      "▁mektubu": 1173,
      "▁tif": 1174,
      "▁h": 1175,
      "▁9.7": 1176,
      "▁yılki": 1177,
      "emezler": 1178,
      "▁kentte": 1179,
      "▁sozcu": 1180,
      "▁tipik": 1181,
      "▁ocagın": 1182,
      "he": 1183,
      "▁santor": 1184,
      "▁505": 1185,
      "▁miami'ye": 1186,
      "ilerde": 1187,
      "▁mırıldan": 1188,
      "▁ustelik": 1189,
      "▁402": 1190,
      "otuz": 1191,
      "▁cocukluk": 1192,
      "▁70'e": 1193,
      "'dir": 1194,
      "▁ulusal": 1195,
      "▁yuruyen": 1196,
      "▁177": 1197,
      "▁gonderdi": 1198,
      "aj": 1199,
      "▁sabahın": 1200,
      "▁abd'nin": 1201,
      "▁kurdular": 1202,
      "meyecek": 1203,
      "▁toront": 1204,
      "cılık": 1205,
      "▁ayrıl": 1206,
      "ington": 1207,
      "▁dey": 1208,
      "▁huv": 1209,
      "▁uyur": 1210,
      "▁kına": 1211,
      "▁sayısını": 1212,
      "▁``": 1213,
      "lo": 1214,
      "▁otekini": 1215,
      "▁kıtır": 1216,
      "▁yara": 1217,
      "▁saatlerdeki": 1218,
      "▁bugday": 1219,
      "▁verdigi": 1220,
      "nek": 1221,
      "▁lok": 1222,
      "▁sık": 1223,
      "ımızda": 1224,
      "▁gorunt": 1225,
      "▁fiziksel": 1226,
      "ıcak": 1227,
      "iha": 1228,
      "▁cans": 1229,
      "tain": 1230,
      "▁komp": 1231,
      "▁bankası": 1232,
      "▁dusmesi": 1233,
      "▁269": 1234,
      ".88": 1235,
      "▁istedigimiz": 1236,
      "amıyordu": 1237,
      "▁agaclar": 1238,
      "▁gitmis": 1239,
      "▁gectiler": 1240,
      "▁daml": 1241,
      "abildigi": 1242,
      "▁kelimesi": 1243,
      "▁tug": 1244,
      "▁isciyi": 1245,
      "larındaki": 1246,
      "▁busbutun": 1247,
      "eceksiniz": 1248,
      "▁tasar": 1249,
      "▁kime": 1250,
      "▁veriyor": 1251,
      "▁omrunde": 1252,
      "▁etmiyorum": 1253,
      "miyorum": 1254,
      "▁azaltmak": 1255,
      "▁mumkun": 1256,
      "▁gosterilen": 1257,
      "lasyon": 1258,
      "ilige": 1259,
      "muyor": 1260,
      "'i": 1261,
      "▁ortamda": 1262,
      "▁ilerleme": 1263,
      ",": 1264,
      "▁107": 1265,
      "▁fır": 1266,
      "atap": 1267,
      "▁sahs": 1268,
      "▁yiyecekler": 1269,
      "▁tiril": 1270,
      "▁kimseyi": 1271,
      "▁ayagında": 1272,
      "irmis": 1273,
      "▁cocuklu": 1274,
      "dıgının": 1275,
      "▁japonya'da": 1276,
      "▁ens": 1277,
      "▁milyarlar": 1278,
      "▁ayrılır": 1279,
      "▁seyler": 1280,
      "▁uzandı": 1281,
      "tı": 1282,
      "▁ets": 1283,
      "▁telef": 1284,
      "▁cocugu": 1285,
      "▁isgal": 1286,
      "▁inip": 1287,
      "▁olmayı": 1288,
      "▁gelismis": 1289,
      "▁zap": 1290,
      "▁ettim": 1291,
      "son'un": 1292,
      "▁vars": 1293,
      "▁giderler": 1294,
      "▁kacak": 1295,
      "▁kasa": 1296,
      "▁ellerine": 1297,
      "▁imalat": 1298,
      "acaklar": 1299,
      "▁icine": 1300,
      "▁kopru": 1301,
      "asındaki": 1302,
      "▁ispan": 1303,
      "▁harit": 1304,
      "▁seydi": 1305,
      "▁planın": 1306,
      "▁muamele": 1307,
      "▁hiss": 1308,
      "▁sirketlerinin": 1309,
      "▁gozluk": 1310,
      "▁oldugunun": 1311,
      "▁viraj": 1312,
      "▁health": 1313,
      "▁sehit": 1314,
      "▁nec": 1315,
      "ydım": 1316,
      "▁sunu": 1317,
      "▁bahis": 1318,
      "▁cenaze": 1319,
      "▁28.": 1320,
      "▁kopuk": 1321,
      "ununun": 1322,
      "▁salih": 1323,
      "lerindeki": 1324,
      "▁adamdı": 1325,
      "▁%5": 1326,
      "▁ilan": 1327,
      "▁ellerinde": 1328,
      "8'e": 1329,
      "▁6'dan": 1330,
      "▁viz": 1331,
      "▁konu": 1332,
      "▁franklin": 1333,
      "▁kullanabil": 1334,
      "▁seyinden": 1335,
      "▁la": 1336,
      "▁tatil": 1337,
      "▁deh": 1338,
      "▁345": 1339,
      "▁nikah": 1340,
      "▁kalması": 1341,
      "▁geliyorlar": 1342,
      "▁siyasal": 1343,
      "▁olarak": 1344,
      "cinin": 1345,
      "▁krav": 1346,
      "▁alması": 1347,
      "▁agı": 1348,
      "▁ogleye": 1349,
      "▁coluk": 1350,
      "taz": 1351,
      "▁bıy": 1352,
      "dıklarını": 1353,
      "▁15": 1354,
      "▁21.6": 1355,
      "▁mo": 1356,
      "▁apartman": 1357,
      "▁arazi": 1358,
      "▁doneme": 1359,
      "▁perde": 1360,
      "▁yunanistan": 1361,
      "▁camur": 1362,
      "lasıyor": 1363,
      "▁seviy": 1364,
      "▁”": 1365,
      "▁yuzlerce": 1366,
      "'ta": 1367,
      "temiz": 1368,
      "▁pazartesi": 1369,
      "▁seyir": 1370,
      "▁firmaları": 1371,
      "▁fre": 1372,
      "▁gozum": 1373,
      "▁aktarmalı": 1374,
      "ily": 1375,
      "ames": 1376,
      "▁degistirmek": 1377,
      "-sat": 1378,
      "▁hayr": 1379,
      "▁edec": 1380,
      "▁belir": 1381,
      "alarım": 1382,
      "▁andıran": 1383,
      "▁cagırdı": 1384,
      "▁yeg": 1385,
      "▁reh": 1386,
      "▁.1": 1387,
      "ilerden": 1388,
      "istiy": 1389,
      "▁un": 1390,
      "▁bitirdi": 1391,
      "▁basında": 1392,
      "▁olar": 1393,
      "larda": 1394,
      "umuza": 1395,
      "▁okuma": 1396,
      "▁gercegi": 1397,
      "aber": 1398,
      "▁dedigi": 1399,
      "ıla": 1400,
      "▁ihale": 1401,
      "▁revize": 1402,
      "▁urunlerin": 1403,
      "▁oda": 1404,
      "▁gunes": 1405,
      "▁baktılar": 1406,
      "▁dol": 1407,
      "▁aracılıgıyla": 1408,
      "irim": 1409,
      "▁sanatı": 1410,
      "lasarak": 1411,
      "▁noktasına": 1412,
      "un": 1413,
      "▁mayıs": 1414,
      "▁bekliyorlar": 1415,
      "attan": 1416,
      "▁ay": 1417,
      "▁aldır": 1418,
      "letti": 1419,
      "lar": 1420,
      "lıklar": 1421,
      "▁sk": 1422,
      "▁medeni": 1423,
      "▁faal": 1424,
      "▁7.52": 1425,
      "edilen": 1426,
      "u": 1427,
      "▁acan": 1428,
      "▁omuz": 1429,
      "▁kalitesine": 1430,
      "▁aradı": 1431,
      "▁yalancı": 1432,
      "▁kaf": 1433,
      "▁erecek": 1434,
      "▁ikti": 1435,
      "▁unut": 1436,
      "▁isleyen": 1437,
      "laki": 1438,
      "▁bono": 1439,
      "▁davaya": 1440,
      "▁gucsuz": 1441,
      "▁actıgı": 1442,
      "▁francisco'ya": 1443,
      "▁olacaktı": 1444,
      "▁aga": 1445,
      "▁pazarlam": 1446,
      "▁sacma": 1447,
      "misti": 1448,
      "olf": 1449,
      "omu": 1450,
      "▁tapın": 1451,
      "▁merkezine": 1452,
      "▁hijyen": 1453,
      "▁1761": 1454,
      "▁fısır": 1455,
      "ayarak": 1456,
      "ısmıs": 1457,
      "▁balayi": 1458,
      "▁olduktan": 1459,
      "▁hatalı": 1460,
      "▁yavuz": 1461,
      "▁kullanmadim": 1462,
      "▁urk": 1463,
      "▁kasabada": 1464,
      "▁ureten": 1465,
      "▁.3": 1466,
      "▁yuzon": 1467,
      "lamasına": 1468,
      "▁meyv": 1469,
      "▁yaptim": 1470,
      "trol": 1471,
      "▁nbc": 1472,
      "▁calıyor": 1473,
      "ista": 1474,
      "▁kalmıstır": 1475,
      "▁500": 1476,
      "▁cagrı": 1477,
      "▁suna": 1478,
      "▁yapan": 1479,
      "▁biy": 1480,
      "▁count": 1481,
      "▁karsılastır": 1482,
      "▁hızlıca": 1483,
      "▁tazmin": 1484,
      "eman": 1485,
      "▁kesiyor": 1486,
      "▁dep": 1487,
      "▁yakıs": 1488,
      "▁tehlik": 1489,
      "▁atlat": 1490,
      "radı": 1491,
      "ıc": 1492,
      "▁duzey": 1493,
      "▁istedi": 1494,
      "▁etrafta": 1495,
      "hangi": 1496,
      "▁yapmıstı": 1497,
      "▁tası": 1498,
      "▁gulus": 1499,
      "▁analizciler": 1500,
      "▁uzattı": 1501,
      "▁karagoz": 1502,
      "▁gumbur": 1503,
      "▁teori": 1504,
      "▁329": 1505,
      "▁atlan": 1506,
      "▁real": 1507,
      "▁orman": 1508,
      "▁keyif": 1509,
      "▁pratik": 1510,
      "emb": 1511,
      "▁kuskusuz": 1512,
      "▁kullanım": 1513,
      "▁dorduncu": 1514,
      "▁tahminlerinin": 1515,
      "emiyorum": 1516,
      "▁kadın": 1517,
      "madi": 1518,
      "▁tabir": 1519,
      "▁war": 1520,
      "▁evini": 1521,
      "leriniz": 1522,
      "lamanın": 1523,
      "▁rock": 1524,
      "▁161.5": 1525,
      "▁ur": 1526,
      "▁oakland'a": 1527,
      "▁epey": 1528,
      "▁munasebet": 1529,
      "▁guardi": 1530,
      "▁yapayım": 1531,
      "▁muhalleb": 1532,
      "▁icinden": 1533,
      "▁mesele": 1534,
      "&": 1535,
      "ineweb": 1536,
      "▁kravat": 1537,
      "▁pel": 1538,
      "ograf": 1539,
      "▁secur": 1540,
      "▁nuf": 1541,
      "mislerdir": 1542,
      "▁duzlem": 1543,
      "▁sub": 1544,
      "▁oyuncak": 1545,
      "▁hisseler": 1546,
      "15": 1547,
      "▁yolsuz": 1548,
      "▁sayı": 1549,
      "amiza": 1550,
      "▁hijyenik": 1551,
      "▁tır": 1552,
      "▁129": 1553,
      "▁istanbul'dan": 1554,
      "▁118": 1555,
      "▁sened": 1556,
      "▁oyuncu": 1557,
      "▁yanas": 1558,
      "sm": 1559,
      "▁nikkei": 1560,
      "▁dursun": 1561,
      "▁1.36": 1562,
      "▁dikilmis": 1563,
      "▁gosterecek": 1564,
      "▁karsil": 1565,
      "▁ucuslar": 1566,
      "▁edil": 1567,
      "▁faydası": 1568,
      "ois": 1569,
      "▁kuram": 1570,
      "▁baslayacak": 1571,
      "▁trabzonspor": 1572,
      "▁sehrine": 1573,
      "▁sektorunde": 1574,
      "▁tecrub": 1575,
      "tırken": 1576,
      "▁iyisini": 1577,
      "▁meraklı": 1578,
      "'ı": 1579,
      "▁135": 1580,
      "samba": 1581,
      "▁=": 1582,
      "ru": 1583,
      "rol": 1584,
      "▁ziyan": 1585,
      "yı": 1586,
      "▁hazırlanan": 1587,
      "p": 1588,
      "▁ibm": 1589,
      "▁cuv": 1590,
      "▁bugunun": 1591,
      "▁527": 1592,
      "▁tugla": 1593,
      "▁world": 1594,
      "▁diego'dan": 1595,
      "▁217": 1596,
      "▁cıkaracak": 1597,
      "▁%12": 1598,
      "▁musteri": 1599,
      "▁ogrenciler": 1600,
      "▁esv": 1601,
      "▁adan": 1602,
      "▁gizem": 1603,
      "▁nese": 1604,
      "larindan": 1605,
      "▁aki": 1606,
      "▁zannet": 1607,
      "▁star": 1608,
      "elerce": 1609,
      "▁dusecek": 1610,
      "▁etrafa": 1611,
      "oloji": 1612,
      "▁ezbere": 1613,
      "▁kasten": 1614,
      "rik": 1615,
      "▁vazgec": 1616,
      "▁insanın": 1617,
      "▁vatand": 1618,
      "▁dagdan": 1619,
      "bs": 1620,
      "▁alcak": 1621,
      "▁segment": 1622,
      "▁olcude": 1623,
      "▁tavuk": 1624,
      "▁konusup": 1625,
      "▁ekonomistler": 1626,
      "▁odemis": 1627,
      "▁bitiyor": 1628,
      "▁doc": 1629,
      "▁prop": 1630,
      "▁dokun": 1631,
      "▁dama": 1632,
      "▁big": 1633,
      "min": 1634,
      "▁baz": 1635,
      "abet": 1636,
      "ansiy": 1637,
      "▁1.500": 1638,
      "hin": 1639,
      "▁bors": 1640,
      ".8": 1641,
      "▁1.91": 1642,
      "▁odalarin": 1643,
      "▁gosteren": 1644,
      "▁haberler": 1645,
      "▁1989": 1646,
      "▁odedigim": 1647,
      ".55": 1648,
      "▁1975": 1649,
      "▁hatları": 1650,
      "trust": 1651,
      "▁dustum": 1652,
      "▁birinc": 1653,
      "▁herhal": 1654,
      "▁olmaları": 1655,
      "▁iltifat": 1656,
      "▁edilmesi": 1657,
      "▁rom": 1658,
      "abilecek": 1659,
      "kuz": 1660,
      "▁aglayan": 1661,
      "▁sehir": 1662,
      "▁zamanda": 1663,
      "▁57.5": 1664,
      "▁sahibi": 1665,
      "6.5": 1666,
      "▁sapk": 1667,
      "▁avantaj": 1668,
      "▁kıvır": 1669,
      "▁imkanı": 1670,
      "▁kup": 1671,
      "eye": 1672,
      "unc": 1673,
      "▁aram": 1674,
      "'su": 1675,
      "▁bulgu": 1676,
      "▁bazılarının": 1677,
      "▁kalkın": 1678,
      "yol": 1679,
      "▁olus": 1680,
      "▁dogan": 1681,
      "uyu": 1682,
      "▁vide": 1683,
      "▁degilsiniz": 1684,
      "▁yolculuk": 1685,
      "▁sekizoniki": 1686,
      "▁intik": 1687,
      "▁acıklay": 1688,
      "etti": 1689,
      "ydi": 1690,
      "▁iade": 1691,
      "isiyle": 1692,
      "▁bakım": 1693,
      "▁elestiri": 1694,
      "sey": 1695,
      "6.2": 1696,
      "▁fi": 1697,
      "▁donunce": 1698,
      "▁anlamıs": 1699,
      "malarına": 1700,
      "▁imis": 1701,
      "▁tasavv": 1702,
      "▁geciriyor": 1703,
      "▁alalım": 1704,
      "▁profesyon": 1705,
      "▁edilen": 1706,
      "▁maliye": 1707,
      "▁cuzdan": 1708,
      "azlıgı": 1709,
      "▁anay": 1710,
      "▁hamur": 1711,
      "▁201": 1712,
      "▁9.81": 1713,
      "▁derd": 1714,
      "▁f.": 1715,
      "▁besyuzelli": 1716,
      "▁gosterileri": 1717,
      "▁sınırlı": 1718,
      "▁painewebber": 1719,
      "▁tabak": 1720,
      "▁466": 1721,
      "ebilirdi": 1722,
      "▁tuttugu": 1723,
      "▁phillips": 1724,
      "▁zorlan": 1725,
      "▁stratej": 1726,
      "▁canan": 1727,
      "▁tiyatr": 1728,
      "uga": 1729,
      "etnam": 1730,
      "▁mer": 1731,
      "amayacagim": 1732,
      "▁akgun": 1733,
      "▁alanında": 1734,
      "▁tutmus": 1735,
      "▁kenar": 1736,
      "▁goruldu": 1737,
      "▁kaybetti": 1738,
      "gılan": 1739,
      "gil": 1740,
      "▁denizi": 1741,
      "-packard": 1742,
      "ay": 1743,
      "uler": 1744,
      "▁kı": 1745,
      "▁sımsıkı": 1746,
      "▁isimler": 1747,
      "aklar": 1748,
      "▁olmek": 1749,
      "▁kans": 1750,
      "eld": 1751,
      "▁yapay": 1752,
      "▁loc": 1753,
      "▁12.5": 1754,
      "▁katk": 1755,
      "▁kapan": 1756,
      "▁cifti": 1757,
      "▁duruyor": 1758,
      "ici": 1759,
      "▁com": 1760,
      "▁gıldır": 1761,
      "▁iskele": 1762,
      "cunun": 1763,
      "▁ecz": 1764,
      "▁kahveren": 1765,
      "cesi": 1766,
      "▁kalkarak": 1767,
      "▁south": 1768,
      "▁uzlasma": 1769,
      "imizle": 1770,
      "▁imkanlarindan": 1771,
      "oma": 1772,
      "▁aban": 1773,
      "▁gerisinde": 1774,
      "▁pas": 1775,
      "▁atın": 1776,
      "▁cıplak": 1777,
      "▁suda": 1778,
      "▁yaklasıyor": 1779,
      "▁yararlan": 1780,
      "▁til": 1781,
      "▁chan": 1782,
      "▁kambiy": 1783,
      "▁basları": 1784,
      "▁okuy": 1785,
      "▁bilen": 1786,
      "▁continental": 1787,
      "▁bunlar": 1788,
      "▁kendilerine": 1789,
      "▁anlama": 1790,
      "▁ekonomist": 1791,
      "▁ertug": 1792,
      "eler": 1793,
      "▁gitmeyi": 1794,
      "▁19.9": 1795,
      "▁89": 1796,
      "onu": 1797,
      "▁fırıl": 1798,
      "▁ilerledi": 1799,
      "0.8": 1800,
      "▁laz": 1801,
      "▁birbucuk": 1802,
      "▁katılım": 1803,
      "▁rezalet": 1804,
      "▁cocukları": 1805,
      "▁sachs": 1806,
      "▁yakısıklı": 1807,
      "▁degistiren": 1808,
      "▁kalemi": 1809,
      "iyer": 1810,
      "▁12:": 1811,
      "▁fırtına": 1812,
      "▁gunese": 1813,
      "▁kalem": 1814,
      "umda": 1815,
      "▁sını": 1816,
      "▁gri": 1817,
      "umuz": 1818,
      "▁veya": 1819,
      "▁gorunmuyor": 1820,
      "ern": 1821,
      "▁onunla": 1822,
      "dınız": 1823,
      "▁sefer": 1824,
      "ıver": 1825,
      "▁oranları": 1826,
      "▁0.01": 1827,
      "▁lodos": 1828,
      "▁97": 1829,
      "▁gosterdigini": 1830,
      "▁gitmek": 1831,
      "▁gelgelelim": 1832,
      "▁saldırgan": 1833,
      "▁genelinde": 1834,
      "amamıs": 1835,
      "▁isler": 1836,
      "▁akrab": 1837,
      "▁annemin": 1838,
      "▁haram": 1839,
      "▁minimum": 1840,
      "por": 1841,
      "▁muhafaza": 1842,
      "▁baslat": 1843,
      "▁kimseye": 1844,
      "▁adil": 1845,
      "▁merk": 1846,
      "bia": 1847,
      "▁bakanlar": 1848,
      "▁ertugrul": 1849,
      "▁197": 1850,
      "▁840.8": 1851,
      "▁mute": 1852,
      "▁vol": 1853,
      "▁ready": 1854,
      "▁got": 1855,
      "▁cı": 1856,
      "▁2662.91": 1857,
      "▁575000": 1858,
      "ev": 1859,
      "▁poz": 1860,
      "▁katib": 1861,
      "ından": 1862,
      "▁ev": 1863,
      "▁cıv": 1864,
      "▁dersiniz": 1865,
      "▁simdiye": 1866,
      "▁eng": 1867,
      "erleri": 1868,
      "ecegin": 1869,
      "▁altmıs": 1870,
      "▁micr": 1871,
      "aturk": 1872,
      "▁gaziantep": 1873,
      "▁koruyan": 1874,
      ".90": 1875,
      "▁secimde": 1876,
      "ekom": 1877,
      "os": 1878,
      "07": 1879,
      "▁yazık": 1880,
      "▁kitabın": 1881,
      "▁eglenc": 1882,
      "cel": 1883,
      "▁amacı": 1884,
      "▁koyup": 1885,
      "▁ideolojik": 1886,
      "▁midir": 1887,
      "▁sakın": 1888,
      "▁meger": 1889,
      "asıdır": 1890,
      "▁otede": 1891,
      "ate": 1892,
      "▁astı": 1893,
      "▁pro": 1894,
      "▁ink": 1895,
      "▁telefonu": 1896,
      "▁aralık": 1897,
      "▁vurgul": 1898,
      "▁gerektir": 1899,
      "▁dug": 1900,
      "▁fazlasıyla": 1901,
      "▁burokrat": 1902,
      "ne": 1903,
      "▁pilotlar": 1904,
      "▁fa": 1905,
      "edigi": 1906,
      "▁geldikleri": 1907,
      "▁4145": 1908,
      "▁kararı": 1909,
      "usunu": 1910,
      "lendirmek": 1911,
      "▁fidan": 1912,
      "▁ydılar": 1913,
      "▁diren": 1914,
      "▁n.": 1915,
      "▁tem": 1916,
      "▁ozen": 1917,
      "▁tavana": 1918,
      "▁olusan": 1919,
      "ek": 1920,
      "▁komutan": 1921,
      "▁galatas": 1922,
      "▁tercih": 1923,
      "▁altust": 1924,
      "▁adımı": 1925,
      "▁mini": 1926,
      "lidir": 1927,
      "oster": 1928,
      "▁gerekecek": 1929,
      "leb": 1930,
      "▁hang": 1931,
      "▁`": 1932,
      "▁muayene": 1933,
      "▁arada": 1934,
      "▁vapur": 1935,
      "▁cıkarıldı": 1936,
      "5": 1937,
      "▁kendinizi": 1938,
      "oks": 1939,
      "▁past": 1940,
      "▁zaten": 1941,
      "▁cevresi": 1942,
      "▁otomotiv": 1943,
      "tern": 1944,
      "▁dc'den": 1945,
      "▁shar": 1946,
      "▁35": 1947,
      "▁168": 1948,
      "▁hale": 1949,
      "▁yakal": 1950,
      "▁alımı": 1951,
      "▁basın": 1952,
      "▁alabil": 1953,
      "▁kıraathan": 1954,
      "endim": 1955,
      "▁ilgili": 1956,
      "▁mantık": 1957,
      "▁dolgun": 1958,
      "gi": 1959,
      "▁yse": 1960,
      "▁sis": 1961,
      "▁03:25": 1962,
      "umuzde": 1963,
      "ors": 1964,
      "▁onlar": 1965,
      "cag": 1966,
      "▁atarak": 1967,
      "▁473.9": 1968,
      "▁iflas": 1969,
      "▁pah": 1970,
      "▁daima": 1971,
      "uter": 1972,
      "vek": 1973,
      "encer": 1974,
      "▁telekom": 1975,
      "▁ceo": 1976,
      "goz": 1977,
      "▁suleyman": 1978,
      "▁refer": 1979,
      "▁sonsuz": 1980,
      "▁atmos": 1981,
      "▁ogr": 1982,
      "alarıyla": 1983,
      "▁eve": 1984,
      "▁masaya": 1985,
      "▁piyas": 1986,
      "46": 1987,
      "▁yılından": 1988,
      "subishi": 1989,
      "▁polisler": 1990,
      "66": 1991,
      "▁18.7": 1992,
      "▁achenbaum": 1993,
      "▁minnet": 1994,
      "▁agustos": 1995,
      "▁muc": 1996,
      "re": 1997,
      "ash": 1998,
      "▁yılını": 1999,
      "▁eller": 2000,
      "diler": 2001,
      "▁ama": 2002,
      "▁degerleri": 2003,
      "ir'in": 2004,
      ".ceyrek": 2005,
      "▁yazıyor": 2006,
      "▁pasif": 2007,
      "▁doviz": 2008,
      "▁aldıgı": 2009,
      "▁yorg": 2010,
      "6'da": 2011,
      "&t": 2012,
      "▁acıkca": 2013,
      "▁sait": 2014,
      "▁yetistir": 2015,
      "▁sadakat": 2016,
      "▁universitesi'nde": 2017,
      "sef": 2018,
      "▁olmuyor": 2019,
      "▁akım": 2020,
      "▁07": 2021,
      "▁varan": 2022,
      "▁farkı": 2023,
      "▁4.9": 2024,
      "sira": 2025,
      "▁karayolu": 2026,
      "▁ruzgarı": 2027,
      "▁anlar": 2028,
      "memisti": 2029,
      "▁1961": 2030,
      "▁rakibini": 2031,
      "▁gidecek": 2032,
      "▁olabilirler": 2033,
      "▁busbut": 2034,
      "▁mahkeme": 2035,
      "▁ticareti": 2036,
      "▁olun": 2037,
      "erk": 2038,
      "ody": 2039,
      "▁yiyecekleri": 2040,
      "rı": 2041,
      "makta": 2042,
      "▁kab": 2043,
      "tım": 2044,
      "ton": 2045,
      "▁hikay": 2046,
      "▁kle": 2047,
      "ene": 2048,
      "▁azalan": 2049,
      "▁dum": 2050,
      "▁shearson": 2051,
      "▁fabrikası": 2052,
      "art": 2053,
      "▁elleri": 2054,
      "uncu": 2055,
      "▁wh": 2056,
      "▁pır": 2057,
      "▁johnson": 2058,
      "8.4": 2059,
      "▁seyrediyor": 2060,
      "agının": 2061,
      "▁dısı": 2062,
      "▁ulus": 2063,
      "▁mız": 2064,
      "den": 2065,
      "tep": 2066,
      "▁jur": 2067,
      "lin": 2068,
      "▁yetin": 2069,
      "▁pıtır": 2070,
      "▁zaf": 2071,
      "▁uyanık": 2072,
      "▁rehber": 2073,
      "▁gunune": 2074,
      "sık": 2075,
      ".60": 2076,
      "▁kak": 2077,
      "▁yurtdıs": 2078,
      "▁kayseri": 2079,
      "▁yigit": 2080,
      "▁muhtemel": 2081,
      "▁bazi": 2082,
      "▁.65": 2083,
      "▁lam": 2084,
      "▁yavrum": 2085,
      "likleri": 2086,
      "alap": 2087,
      "ları": 2088,
      "ya'da": 2089,
      "▁sofraya": 2090,
      "▁insaf": 2091,
      "▁sorustur": 2092,
      "▁ceviz": 2093,
      "kın": 2094,
      "▁muydu": 2095,
      "▁hisseye": 2096,
      "▁pozisyon": 2097,
      "▁hem": 2098,
      "▁gonullu": 2099,
      "▁sozlerini": 2100,
      "▁kapat": 2101,
      "eceginden": 2102,
      "eliyor": 2103,
      "memesi": 2104,
      "▁kırıklıgına": 2105,
      "untu": 2106,
      "▁ca": 2107,
      "ebilmek": 2108,
      "▁nihat": 2109,
      "▁cıkma": 2110,
      "▁meb": 2111,
      "▁calıstıgını": 2112,
      "▁konforu": 2113,
      "enlerin": 2114,
      "▁oturma": 2115,
      "▁oteli": 2116,
      "▁yureginde": 2117,
      "▁ceng": 2118,
      "▁som": 2119,
      "▁iddia": 2120,
      "▁ettikleri": 2121,
      "▁financi": 2122,
      "▁tabl": 2123,
      "▁aclıktan": 2124,
      "taraf": 2125,
      "'ten": 2126,
      "ari": 2127,
      "▁sta": 2128,
      "▁0.00": 2129,
      "▁konular": 2130,
      "▁beyaz": 2131,
      "▁diz": 2132,
      "▁42.9": 2133,
      "yirmi": 2134,
      "▁nimet": 2135,
      "▁test": 2136,
      "▁duran": 2137,
      "▁kızının": 2138,
      "▁ceyreginde": 2139,
      "▁cari": 2140,
      "viz": 2141,
      "▁guldur": 2142,
      "▁subat": 2143,
      "▁dram": 2144,
      "▁salonun": 2145,
      "▁paylar": 2146,
      "▁asli": 2147,
      "ıyor": 2148,
      "▁kılı": 2149,
      "▁alanlarda": 2150,
      "▁getirdim": 2151,
      "▁rob": 2152,
      "▁zamana": 2153,
      "▁goturdu": 2154,
      "▁garaj": 2155,
      "▁hakkinda": 2156,
      "▁edilmedi": 2157,
      "suzluk": 2158,
      ".24": 2159,
      "▁baslardı": 2160,
      "▁hatırlam": 2161,
      "▁harca": 2162,
      "kan": 2163,
      "▁etkileyici": 2164,
      "▁islet": 2165,
      "▁montre": 2166,
      "▁sakat": 2167,
      "%": 2168,
      "▁birbirlerini": 2169,
      "emex": 2170,
      "ver": 2171,
      "▁gormez": 2172,
      "ye": 2173,
      "▁01": 2174,
      "ısım": 2175,
      "▁katrilyon": 2176,
      "▁houston'a": 2177,
      "▁evvelki": 2178,
      "fer": 2179,
      "▁kısın": 2180,
      "▁damg": 2181,
      "▁yonetim": 2182,
      "▁beraber": 2183,
      "▁degerlendirme": 2184,
      "▁me": 2185,
      "▁kurmaya": 2186,
      "▁1.9": 2187,
      "▁bozuk": 2188,
      "▁kisiye": 2189,
      "▁nadiren": 2190,
      "ustum": 2191,
      "▁kıy": 2192,
      "▁id": 2193,
      "▁org": 2194,
      "▁tesise": 2195,
      "▁hakediyor": 2196,
      "alık": 2197,
      "▁aday": 2198,
      "▁kasvet": 2199,
      "▁detroit": 2200,
      "▁adımlarla": 2201,
      "▁hasıl": 2202,
      "urken": 2203,
      "▁dahilinde": 2204,
      "sanın": 2205,
      "▁sozunu": 2206,
      "lasır": 2207,
      "imser": 2208,
      "▁belirten": 2209,
      "▁havalimanı'nda": 2210,
      "alandı": 2211,
      "▁indianapolis": 2212,
      "esiz": 2213,
      "▁ny": 2214,
      "▁ısıklar": 2215,
      "▁kad": 2216,
      "93": 2217,
      "▁3.9": 2218,
      "▁arkaya": 2219,
      "mektir": 2220,
      "85": 2221,
      "▁atlanta'dan": 2222,
      "▁sonucu": 2223,
      "▁yoldan": 2224,
      "▁esek": 2225,
      "ladıgı": 2226,
      "115": 2227,
      "▁stokları": 2228,
      "▁southern": 2229,
      "▁iktisat": 2230,
      "▁reddediyor": 2231,
      "▁turlerini": 2232,
      "▁fonların": 2233,
      "▁fos": 2234,
      "▁sınız": 2235,
      "▁1.300": 2236,
      "▁18.65": 2237,
      "▁7.6": 2238,
      "▁calısarak": 2239,
      "▁icim": 2240,
      "▁gozuyle": 2241,
      "0.000": 2242,
      "▁planlı": 2243,
      "▁futbol": 2244,
      "▁sevgil": 2245,
      "▁lirayı": 2246,
      "emki": 2247,
      "emle": 2248,
      "▁cet": 2249,
      "▁bear": 2250,
      "dırdı": 2251,
      "▁var": 2252,
      "▁evlerin": 2253,
      "▁olumsuzluk": 2254,
      "▁milyara": 2255,
      "▁essiz": 2256,
      "▁alt": 2257,
      "▁104": 2258,
      "▁lider": 2259,
      "luydu": 2260,
      "▁dusunuyorum": 2261,
      "▁sorar": 2262,
      "▁sofra": 2263,
      "▁tenha": 2264,
      "▁etmeden": 2265,
      "▁ibaret": 2266,
      "ield": 2267,
      "▁donemin": 2268,
      "ıkır": 2269,
      "▁yansıt": 2270,
      "adım": 2271,
      "▁kacındı": 2272,
      "▁balo": 2273,
      "▁derde": 2274,
      "ayan": 2275,
      "▁ciddi": 2276,
      "ka": 2277,
      "dem": 2278,
      "▁gormedim": 2279,
      "▁saatte": 2280,
      "aseb": 2281,
      "▁aldıgını": 2282,
      "▁tukur": 2283,
      "▁breeden": 2284,
      "▁anladı": 2285,
      "alet": 2286,
      "▁adını": 2287,
      "▁charl": 2288,
      "▁kalmaz": 2289,
      "▁bulunmayan": 2290,
      "▁bilet": 2291,
      "▁acıyor": 2292,
      "iye": 2293,
      "▁bill": 2294,
      "▁neye": 2295,
      "▁birisiyle": 2296,
      "▁fir": 2297,
      "▁dibine": 2298,
      "▁depremin": 2299,
      "▁tıras": 2300,
      "▁toplumun": 2301,
      "▁basmak": 2302,
      "▁uzerine": 2303,
      "▁icermektedir": 2304,
      "▁lazım": 2305,
      "▁tatmin": 2306,
      "▁kod": 2307,
      "▁biridir": 2308,
      "gate": 2309,
      "▁karısı": 2310,
      "▁amerikalılar": 2311,
      "giniz": 2312,
      "▁1967": 2313,
      "▁sezlong": 2314,
      "ogramı": 2315,
      "▁giyinmis": 2316,
      "▁yumuk": 2317,
      "ck": 2318,
      "▁birim": 2319,
      "ach": 2320,
      "▁bocek": 2321,
      "3'te": 2322,
      "ust": 2323,
      "▁kadıkoy": 2324,
      "▁540": 2325,
      "▁gecmisti": 2326,
      "▁kola": 2327,
      "undaki": 2328,
      "▁yem": 2329,
      "▁bakır": 2330,
      "▁malı": 2331,
      "iddet": 2332,
      "hansa": 2333,
      "▁minim": 2334,
      "▁400": 2335,
      "melerini": 2336,
      "yu": 2337,
      "▁personel": 2338,
      "emm": 2339,
      "▁gecmiyor": 2340,
      "etler": 2341,
      "▁kisiyi": 2342,
      "▁giydi": 2343,
      "▁burn": 2344,
      "▁egitimli": 2345,
      "▁cinc": 2346,
      "▁kurulan": 2347,
      "▁dolar": 2348,
      "▁yos": 2349,
      "▁ortulu": 2350,
      "▁fransız": 2351,
      "etleri": 2352,
      "▁mısınız": 2353,
      "▁biliyorlar": 2354,
      "▁yılın": 2355,
      "iller": 2356,
      "chell": 2357,
      "▁istedik": 2358,
      "yle": 2359,
      "ibi": 2360,
      "▁basar": 2361,
      "▁oncesi": 2362,
      "▁pa": 2363,
      "ısma": 2364,
      "▁kolon": 2365,
      "▁160": 2366,
      "▁yetkililer": 2367,
      "▁olacag": 2368,
      "▁philadelphia'daki": 2369,
      "▁bagırarak": 2370,
      "▁agzından": 2371,
      "▁sy": 2372,
      "▁ziyaret": 2373,
      "▁kavur": 2374,
      "mazlar": 2375,
      "lebilir": 2376,
      "▁hiz": 2377,
      "▁omz": 2378,
      "▁utah": 2379,
      "▁vakt": 2380,
      "▁lerle": 2381,
      "usuz": 2382,
      "▁bil": 2383,
      "▁gunun": 2384,
      "▁gunler": 2385,
      "▁sahibinin": 2386,
      "▁alcal": 2387,
      "▁dolardan": 2388,
      "▁teslim": 2389,
      "▁tutarında": 2390,
      "▁yaratı": 2391,
      "▁minneapolis'e": 2392,
      "kik": 2393,
      "▁binanın": 2394,
      "▁oakland'dan": 2395,
      "▁bakımından": 2396,
      "▁olusturmak": 2397,
      "▁10'": 2398,
      "▁birkac": 2399,
      "▁vadeli": 2400,
      "▁tarihli": 2401,
      "▁kırık": 2402,
      "au": 2403,
      "▁makal": 2404,
      "▁cocuktu": 2405,
      "▁dusmek": 2406,
      "▁kendisi": 2407,
      "lendir": 2408,
      "▁uzaklas": 2409,
      "▁nab": 2410,
      "ese": 2411,
      "0.3": 2412,
      "▁telefonda": 2413,
      "ememis": 2414,
      "▁misiniz": 2415,
      "▁takır": 2416,
      "ron": 2417,
      "▁butun": 2418,
      "▁kira": 2419,
      "▁fiyatları": 2420,
      "▁mod": 2421,
      "▁13.8": 2422,
      "ilen": 2423,
      "▁pittsburgh": 2424,
      "▁ayaklarını": 2425,
      "elerin": 2426,
      "▁angel": 2427,
      "▁yal": 2428,
      "▁askıya": 2429,
      "▁emre": 2430,
      "▁ıs": 2431,
      "▁mobil": 2432,
      "▁memphis'ten": 2433,
      "amız": 2434,
      "▁satısa": 2435,
      "▁petrol": 2436,
      "▁icimde": 2437,
      "▁isg": 2438,
      "▁daldır": 2439,
      "▁dedigim": 2440,
      "▁ugras": 2441,
      "egine": 2442,
      "▁vermez": 2443,
      "▁og": 2444,
      "dayan": 2445,
      "▁dolasıp": 2446,
      "▁fers": 2447,
      "oll": 2448,
      "▁etrafını": 2449,
      "vır": 2450,
      "▁hakkında": 2451,
      "▁cıkmıstı": 2452,
      "▁adet": 2453,
      "▁ortalıgı": 2454,
      "▁sorumluluk": 2455,
      "▁kalite": 2456,
      "dıgınız": 2457,
      "▁kimimiz": 2458,
      "fon": 2459,
      "asyona": 2460,
      "▁philadelphia'da": 2461,
      "▁kesip": 2462,
      "▁yolunda": 2463,
      "▁satar": 2464,
      "elerle": 2465,
      "▁giymis": 2466,
      "▁sigortası": 2467,
      "▁yer": 2468,
      "▁verdikleri": 2469,
      "▁klim": 2470,
      "▁kurk": 2471,
      "▁cıkıyordu": 2472,
      "▁kot": 2473,
      "igine": 2474,
      "▁halini": 2475,
      "▁karsiligini": 2476,
      "▁oldugunu": 2477,
      "▁bilesik": 2478,
      "▁radyo": 2479,
      "▁93": 2480,
      "▁406": 2481,
      "▁donmesi": 2482,
      "layalım": 2483,
      "▁zorluk": 2484,
      "▁etmiyor": 2485,
      "ira": 2486,
      "enc": 2487,
      "▁pir": 2488,
      "▁s": 2489,
      "▁sekl": 2490,
      "▁asag": 2491,
      "▁pay": 2492,
      "▁varmak": 2493,
      "▁disi": 2494,
      "▁mam": 2495,
      "▁pantolon": 2496,
      "▁allah": 2497,
      "und": 2498,
      "▁vali": 2499,
      "▁belirtmek": 2500,
      "gimiz": 2501,
      ".43": 2502,
      "irler": 2503,
      "▁hacmi": 2504,
      "▁eti": 2505,
      "▁ihtimal": 2506,
      "▁birisinin": 2507,
      "▁1.71": 2508,
      "▁bakınız": 2509,
      "tar": 2510,
      "▁1.5753": 2511,
      "▁atti": 2512,
      "▁kurut": 2513,
      "▁625": 2514,
      "ch": 2515,
      "5'": 2516,
      "▁diyor": 2517,
      "▁zab": 2518,
      "▁havuzun": 2519,
      "lardı": 2520,
      "abody": 2521,
      "▁yuklen": 2522,
      "bek": 2523,
      "lının": 2524,
      "▁yollarını": 2525,
      "▁2.2": 2526,
      "▁uyku": 2527,
      "▁hepsinden": 2528,
      "▁renkli": 2529,
      "dav": 2530,
      "▁jul": 2531,
      "▁kazancların": 2532,
      "▁evvela": 2533,
      "▁geciren": 2534,
      "asının": 2535,
      "▁ettiginde": 2536,
      "▁york'ta": 2537,
      "▁dem": 2538,
      "▁ucus": 2539,
      "▁sistemi": 2540,
      "gul": 2541,
      "▁allianz": 2542,
      "▁baykal": 2543,
      "▁zat": 2544,
      "▁iyilik": 2545,
      "▁karamsar": 2546,
      "▁pitts": 2547,
      "▁hizmet": 2548,
      "▁suret": 2549,
      "▁ozlem": 2550,
      "▁ozgurluk": 2551,
      "▁kuvvetleri": 2552,
      "▁mol": 2553,
      "▁ucretleri": 2554,
      "estr": 2555,
      "▁kopek": 2556,
      "▁teseb": 2557,
      "▁20": 2558,
      "▁1.6": 2559,
      "▁88.12": 2560,
      "▁donald": 2561,
      "▁kalan": 2562,
      "luy": 2563,
      "▁kurtardı": 2564,
      "▁dedim": 2565,
      "▁duyulan": 2566,
      "▁mayıs'ta": 2567,
      "▁zorluyor": 2568,
      "▁farz": 2569,
      "▁kaliforniy": 2570,
      "▁muham": 2571,
      "▁ro": 2572,
      "▁rej": 2573,
      "▁karsıladı": 2574,
      "sek": 2575,
      "▁tech": 2576,
      "▁surum": 2577,
      "▁yakalan": 2578,
      "▁yazdıgı": 2579,
      "yo": 2580,
      "▁nedenini": 2581,
      "os'un": 2582,
      "▁lez": 2583,
      "▁konaklama": 2584,
      "▁hatırlattı": 2585,
      "malık": 2586,
      "▁portakal": 2587,
      "▁vakit": 2588,
      "▁carptı": 2589,
      "▁pros": 2590,
      "▁elektrikli": 2591,
      "usetts": 2592,
      "▁575": 2593,
      "▁koyarak": 2594,
      "▁tanınmıs": 2595,
      "acı": 2596,
      "ato": 2597,
      "▁talip": 2598,
      "▁tiyat": 2599,
      "▁medya": 2600,
      "▁kotu": 2601,
      "gesi": 2602,
      "▁agresif": 2603,
      "qu": 2604,
      "▁insanoglu": 2605,
      "▁denver'deki": 2606,
      "1": 2607,
      "▁tamamladı": 2608,
      "▁sair": 2609,
      "▁milyarlarca": 2610,
      "▁'lik": 2611,
      "▁kalenin": 2612,
      "▁tetkik": 2613,
      "▁hafifce": 2614,
      "▁vakfı": 2615,
      "emizi": 2616,
      "▁faizli": 2617,
      "4'ten": 2618,
      "ilerin": 2619,
      "ehir": 2620,
      "ock": 2621,
      "▁hisselerinin": 2622,
      "▁akla": 2623,
      "ki": 2624,
      "▁uzmanları": 2625,
      "▁yapacagım": 2626,
      "▁hakikaten": 2627,
      "▁secime": 2628,
      "▁kemer": 2629,
      "▁etsin": 2630,
      "▁isareti": 2631,
      "▁elmas": 2632,
      "▁hav": 2633,
      "▁sosyal": 2634,
      "▁hizmetleri": 2635,
      "▁tarafindan": 2636,
      "▁berbat": 2637,
      "▁sarısın": 2638,
      "ormal": 2639,
      "▁kendilerinin": 2640,
      "▁102.06": 2641,
      "▁paranın": 2642,
      "▁gectikten": 2643,
      "aması": 2644,
      "og": 2645,
      "▁danıs": 2646,
      "▁celik": 2647,
      "▁cekiliyor": 2648,
      "▁destek": 2649,
      "gıl": 2650,
      "▁dinc": 2651,
      "▁alatur": 2652,
      "▁nashville'den": 2653,
      "af": 2654,
      "▁iht": 2655,
      "▁temer": 2656,
      "▁haftaya": 2657,
      "▁tanıt": 2658,
      "irse": 2659,
      "▁sehrinde": 2660,
      "▁224070000": 2661,
      "▁vız": 2662,
      "▁otellerin": 2663,
      "▁deyip": 2664,
      "▁ten": 2665,
      "▁kondur": 2666,
      "▁baslık": 2667,
      "eller": 2668,
      "graf": 2669,
      "kır": 2670,
      "▁asistan": 2671,
      "▁uzerinde": 2672,
      "▁bush'un": 2673,
      "▁206": 2674,
      "iyenin": 2675,
      "▁merdi": 2676,
      "ger": 2677,
      "▁yazılı": 2678,
      "▁19.51": 2679,
      "▁seviyede": 2680,
      "▁gozlerinin": 2681,
      "▁kullanılır": 2682,
      "▁cektim": 2683,
      "▁sisman": 2684,
      "▁oteldi": 2685,
      "era": 2686,
      "▁kuyum": 2687,
      "▁deyince": 2688,
      "▁serhat": 2689,
      "iyeli": 2690,
      "▁gram": 2691,
      "▁yahya": 2692,
      "▁hos": 2693,
      "▁orlando'ya": 2694,
      "▁cor": 2695,
      "▁sertif": 2696,
      "▁basa": 2697,
      "▁cahil": 2698,
      "▁nukleer": 2699,
      "▁rapor": 2700,
      "▁diyebilirim": 2701,
      "▁ben": 2702,
      "▁etmeyi": 2703,
      "▁arap": 2704,
      "▁evet": 2705,
      "▁ihracları": 2706,
      "west": 2707,
      "▁donemde": 2708,
      "'nden": 2709,
      "▁elif": 2710,
      "▁meyhan": 2711,
      "▁inis": 2712,
      "0'den": 2713,
      "▁dil": 2714,
      "▁geminin": 2715,
      "▁mesela": 2716,
      "▁ailesinin": 2717,
      "▁misk": 2718,
      "▁kapıda": 2719,
      "▁sovyetler": 2720,
      "mesiyle": 2721,
      "amet": 2722,
      "▁kırmızı": 2723,
      "▁eglence": 2724,
      "leyip": 2725,
      "ındır": 2726,
      "▁mıdır": 2727,
      "▁ates": 2728,
      "▁yerdi": 2729,
      "▁8.50": 2730,
      "itler": 2731,
      "son": 2732,
      "▁duvar": 2733,
      "▁kurus": 2734,
      "tak": 2735,
      "yanın": 2736,
      "▁sikayet": 2737,
      "▁industrial": 2738,
      "▁odayı": 2739,
      "42": 2740,
      "aza": 2741,
      "dıgını": 2742,
      "▁acıktı": 2743,
      "▁secilmis": 2744,
      "dam": 2745,
      "▁televizyon": 2746,
      "▁limuzin": 2747,
      "▁bulmustu": 2748,
      "▁bom": 2749,
      "▁dogrul": 2750,
      "▁grupları": 2751,
      "ebilirim": 2752,
      "acak": 2753,
      "▁teskil": 2754,
      "▁bedeli": 2755,
      "▁masasının": 2756,
      "▁yla": 2757,
      "▁dieg": 2758,
      "▁actılar": 2759,
      "▁katır": 2760,
      "▁2.6": 2761,
      "▁muyum": 2762,
      "▁malz": 2763,
      "unik": 2764,
      "▁tasliydi": 2765,
      "amiz": 2766,
      "▁biter": 2767,
      "▁muaf": 2768,
      "▁masada": 2769,
      "▁yuzme": 2770,
      "▁ide": 2771,
      "▁176100000": 2772,
      "▁meyve": 2773,
      "▁15.6": 2774,
      "▁haldır": 2775,
      "▁uzerinden": 2776,
      "▁ulu": 2777,
      "▁acılıyor": 2778,
      "▁tarafında": 2779,
      "▁yıldız": 2780,
      "▁cicekleri": 2781,
      "▁gunesin": 2782,
      "▁kosesinde": 2783,
      "▁baglamıs": 2784,
      "▁sondaj": 2785,
      "▁korfez": 2786,
      "▁bilgi": 2787,
      "erdi": 2788,
      "▁amc": 2789,
      "▁63": 2790,
      "e": 2791,
      "ud": 2792,
      "▁190": 2793,
      "▁baglilik": 2794,
      "▁kullanarak": 2795,
      "▁haft": 2796,
      "▁kıyas": 2797,
      "▁sersem": 2798,
      "▁maddi": 2799,
      "▁soylemek": 2800,
      "▁haberin": 2801,
      "▁dinkins": 2802,
      "▁bakısı": 2803,
      "▁yeni": 2804,
      "▁organizasyon": 2805,
      "▁cadde": 2806,
      "ila": 2807,
      "olk": 2808,
      "▁doluydu": 2809,
      "▁yonden": 2810,
      "tigini": 2811,
      "onk": 2812,
      "ark": 2813,
      "▁ilaclar": 2814,
      "▁davranıs": 2815,
      "▁malum": 2816,
      "▁alıyorlar": 2817,
      "▁tutup": 2818,
      "▁kalkıp": 2819,
      "▁204": 2820,
      "ili": 2821,
      "▁genelkur": 2822,
      "▁tutsak": 2823,
      "▁hadi": 2824,
      "lamalar": 2825,
      "▁mufett": 2826,
      "▁doyur": 2827,
      "▁ayaklarının": 2828,
      "▁olmayabilir": 2829,
      "▁vad": 2830,
      "-f": 2831,
      "▁gecip": 2832,
      "igini": 2833,
      "▁bilek": 2834,
      "▁egz": 2835,
      "▁tereddut": 2836,
      "▁yazmak": 2837,
      "▁tahkik": 2838,
      "▁dagınık": 2839,
      "▁gitgide": 2840,
      "aden": 2841,
      "▁gozlerinde": 2842,
      "▁yatagı": 2843,
      "▁kullanisli": 2844,
      "▁cikiyordu": 2845,
      "▁duracak": 2846,
      "▁yıldan": 2847,
      "▁343": 2848,
      "▁masalı": 2849,
      "▁corp": 2850,
      "ano": 2851,
      "azi": 2852,
      "▁tesis": 2853,
      "▁bilgileri": 2854,
      "▁tarafın": 2855,
      "▁nokta": 2856,
      "▁ortak": 2857,
      "eli": 2858,
      "▁her": 2859,
      "/4": 2860,
      "▁hikaye": 2861,
      "▁ilgiliydiler": 2862,
      "▁gorduler": 2863,
      "larim": 2864,
      "▁beklenenden": 2865,
      "▁ideoloj": 2866,
      "▁ot": 2867,
      "▁yanı": 2868,
      "▁sekizyuz": 2869,
      "eme": 2870,
      "▁kag": 2871,
      "▁aman": 2872,
      "bank": 2873,
      "▁mustesar": 2874,
      "▁karsilayan": 2875,
      "▁sorunların": 2876,
      "▁halihazırda": 2877,
      "▁hurr": 2878,
      "leri": 2879,
      "▁oncesine": 2880,
      "▁sartları": 2881,
      "▁govde": 2882,
      "▁dava": 2883,
      "▁oyu": 2884,
      "▁hardal": 2885,
      "▁lyn": 2886,
      "▁1.847": 2887,
      "▁fonlar": 2888,
      "▁olanak": 2889,
      "deler": 2890,
      "sul": 2891,
      "▁haftada": 2892,
      "▁kisiden": 2893,
      "▁indirimi": 2894,
      "▁dolarına": 2895,
      "eley": 2896,
      "▁calgı": 2897,
      "▁gozlem": 2898,
      "sar": 2899,
      "▁hit": 2900,
      "▁care": 2901,
      "▁kadındı": 2902,
      "▁ilet": 2903,
      "▁konumu": 2904,
      "▁kızım": 2905,
      "▁insanların": 2906,
      "▁santaj": 2907,
      "▁yukselen": 2908,
      "▁agır": 2909,
      "▁komplek": 2910,
      "▁yatıyor": 2911,
      "▁cozmek": 2912,
      "emedik": 2913,
      "▁organ": 2914,
      "▁lill": 2915,
      "▁cah": 2916,
      "zet": 2917,
      "▁eden": 2918,
      "▁agr": 2919,
      "▁mecbur": 2920,
      "▁ım": 2921,
      "▁topcu": 2922,
      "▁danısmanı": 2923,
      "▁conn": 2924,
      "▁ogrencilerin": 2925,
      "▁securities": 2926,
      "▁hewlett": 2927,
      "▁ucusun": 2928,
      "▁gazeteci": 2929,
      "▁300": 2930,
      "▁yaslarında": 2931,
      "▁1991-19": 2932,
      "▁sponsor": 2933,
      "malarını": 2934,
      "▁1993": 2935,
      "eco": 2936,
      "dun": 2937,
      "▁cıktı": 2938,
      "+": 2939,
      "▁ileride": 2940,
      "▁chemical": 2941,
      "▁cıktıgı": 2942,
      "▁dısarıda": 2943,
      "▁izah": 2944,
      "▁sus": 2945,
      "▁hatta": 2946,
      "leyen": 2947,
      "▁katil": 2948,
      "abi": 2949,
      "▁temiz": 2950,
      "▁sup": 2951,
      "▁louis'e": 2952,
      "▁anladım": 2953,
      "▁23.5": 2954,
      "▁insanlarla": 2955,
      "▁geldigimiz": 2956,
      "▁cocugum": 2957,
      "▁cırp": 2958,
      "▁ge": 2959,
      "▁olmasi": 2960,
      "▁giren": 2961,
      "82": 2962,
      "▁babacan": 2963,
      "▁karadeniz": 2964,
      "▁yargıc": 2965,
      "▁250000": 2966,
      "lanan": 2967,
      "▁getirdi": 2968,
      "ing": 2969,
      "▁skan": 2970,
      "ırda": 2971,
      "▁ucmanın": 2972,
      "▁hınc": 2973,
      "▁air'in": 2974,
      "▁adamla": 2975,
      "▁cılız": 2976,
      "▁olurlar": 2977,
      "kal": 2978,
      "▁oper": 2979,
      "▁kadına": 2980,
      "▁ucuza": 2981,
      "▁pab": 2982,
      "osu": 2983,
      "▁em": 2984,
      "▁yurd": 2985,
      "▁namus": 2986,
      "▁twa": 2987,
      "▁ızdır": 2988,
      "▁almıyor": 2989,
      "▁olmamakla": 2990,
      "'lik": 2991,
      "▁haftalık": 2992,
      "▁koltugun": 2993,
      "▁calısıyor": 2994,
      "▁israil": 2995,
      "▁ilgisizlerdi": 2996,
      "▁emper": 2997,
      "▁hakim": 2998,
      "▁sayf": 2999,
      "▁cincinnati'ye": 3000,
      "▁sonu": 3001,
      "▁kayıp": 3002,
      "▁sanay": 3003,
      "x": 3004,
      "dis": 3005,
      "▁etkilen": 3006,
      "ace": 3007,
      "▁istanbul'a": 3008,
      "▁acıp": 3009,
      "'ndaki": 3010,
      "ıza": 3011,
      "lumu": 3012,
      "▁koruk": 3013,
      "▁yarım": 3014,
      "ucu": 3015,
      "▁calısmaya": 3016,
      "▁baskaları": 3017,
      "▁fırın": 3018,
      "▁sotheby's": 3019,
      "▁yurttas": 3020,
      "tr": 3021,
      "nız": 3022,
      "▁bitmeyen": 3023,
      "▁hangi": 3024,
      "▁balta": 3025,
      "▁cirkin": 3026,
      "▁13.3": 3027,
      "▁makul": 3028,
      "▁dilber": 3029,
      "a.": 3030,
      "dikal": 3031,
      "▁yarattı": 3032,
      "▁nek": 3033,
      "▁sardı": 3034,
      "▁olmadı": 3035,
      "amaya": 3036,
      "imin": 3037,
      "▁yaradılıs": 3038,
      "▁evvel": 3039,
      "▁koru": 3040,
      "▁iskont": 3041,
      "▁temizliginden": 3042,
      "▁6.4": 3043,
      "iyor": 3044,
      "▁ekim'de": 3045,
      "▁istah": 3046,
      "▁mezun": 3047,
      "ci": 3048,
      "▁tevfik": 3049,
      "▁secen": 3050,
      "▁ekliyor": 3051,
      "atla": 3052,
      "▁getiri": 3053,
      "▁atesli": 3054,
      "▁bell": 3055,
      "▁olacagım": 3056,
      "▁otobus": 3057,
      "▁ugrayan": 3058,
      "▁satır": 3059,
      "▁iciyor": 3060,
      "▁fuz": 3061,
      "▁protesto": 3062,
      "▁dogu'da": 3063,
      "▁mim": 3064,
      "▁kısmı": 3065,
      "▁states": 3066,
      "▁huzun": 3067,
      "▁temelinde": 3068,
      "▁padi": 3069,
      "lari": 3070,
      "ity": 3071,
      "▁motiv": 3072,
      "vıl": 3073,
      "▁gelecegi": 3074,
      "lem": 3075,
      "mos": 3076,
      "▁oturur": 3077,
      "▁oak": 3078,
      "mun": 3079,
      "▁karmasık": 3080,
      "sizce": 3081,
      "▁hik": 3082,
      "cet": 3083,
      "▁oyunc": 3084,
      "j": 3085,
      "▁kalmıyor": 3086,
      "▁risk": 3087,
      "▁ac": 3088,
      "▁ramiz": 3089,
      "▁orada": 3090,
      "▁dern": 3091,
      "▁fis": 3092,
      "▁tartısmaya": 3093,
      "▁81": 3094,
      ".01": 3095,
      "▁gob": 3096,
      "▁2003": 3097,
      "▁konumda": 3098,
      "▁alacagını": 3099,
      "ındaydı": 3100,
      "isine": 3101,
      "▁klasik": 3102,
      "▁magdur": 3103,
      "▁bulacak": 3104,
      "▁calisirim": 3105,
      "▁rol": 3106,
      "row": 3107,
      "▁taylor": 3108,
      "▁donustu": 3109,
      "▁gostergeleri": 3110,
      "▁kalkacak": 3111,
      "ur": 3112,
      "edeki": 3113,
      "▁sandal": 3114,
      "▁oranında": 3115,
      "▁paul'a": 3116,
      "▁basak": 3117,
      "▁fac": 3118,
      "▁kay": 3119,
      "▁bisiklet": 3120,
      "▁st": 3121,
      "▁oyunlar": 3122,
      "▁avaz": 3123,
      "agıyla": 3124,
      "lamada": 3125,
      "▁malzeme": 3126,
      "▁kinden": 3127,
      "▁sınıfta": 3128,
      "▁belle": 3129,
      "▁cocukların": 3130,
      "▁alıkoy": 3131,
      "▁buklum": 3132,
      "▁atmıs": 3133,
      "▁cıkararak": 3134,
      "▁torp": 3135,
      "▁elimi": 3136,
      "▁kimin": 3137,
      "▁tufek": 3138,
      "digince": 3139,
      "▁fl": 3140,
      "erin": 3141,
      "▁duvarın": 3142,
      "▁etnik": 3143,
      "mes": 3144,
      "▁iktidar": 3145,
      "▁misafir": 3146,
      "▁yaptıgı": 3147,
      "▁raporları": 3148,
      "▁obur": 3149,
      "▁ep": 3150,
      "▁milwaukee": 3151,
      "amın": 3152,
      "▁idim": 3153,
      "▁tuc": 3154,
      "▁girdi": 3155,
      "▁sola": 3156,
      "▁fık": 3157,
      "▁dostluk": 3158,
      "gia": 3159,
      "▁sozlesmeler": 3160,
      "▁diri": 3161,
      "▁usa": 3162,
      "▁tutacak": 3163,
      "▁dergisi": 3164,
      "▁prosed": 3165,
      "▁tuccar": 3166,
      "▁varlıklar": 3167,
      "▁4.3": 3168,
      "▁bolum": 3169,
      "▁yanıt": 3170,
      "▁bagırdı": 3171,
      "▁eger": 3172,
      "▁koptu": 3173,
      "▁gozune": 3174,
      "kam": 3175,
      "▁ayrılıyor": 3176,
      "culer": 3177,
      "▁cokus": 3178,
      "▁dans": 3179,
      "ehan": 3180,
      "▁sh": 3181,
      "▁ciro": 3182,
      "acaktır": 3183,
      "▁fevkal": 3184,
      "▁teminat": 3185,
      "#": 3186,
      "▁luft": 3187,
      "▁baslamıs": 3188,
      "▁jones": 3189,
      "▁senetlerine": 3190,
      "▁sifir": 3191,
      "▁hum": 3192,
      "▁taktik": 3193,
      "▁koken": 3194,
      "▁dinkin": 3195,
      "▁yiy": 3196,
      "agoz": 3197,
      "deri": 3198,
      "▁salata": 3199,
      "▁dizginleri": 3200,
      "▁tutan": 3201,
      "agu": 3202,
      "▁komisyonları": 3203,
      "▁acel": 3204,
      "▁lezizdi": 3205,
      "▁0.7": 3206,
      "yim": 3207,
      "▁dusuncelerini": 3208,
      "tic": 3209,
      "▁gecenlerde": 3210,
      "▁deb": 3211,
      "▁yurur": 3212,
      "▁ugra": 3213,
      "▁baskasın": 3214,
      "▁sinyal": 3215,
      "esyon": 3216,
      "▁milli": 3217,
      "▁uzakti": 3218,
      "▁mecmu": 3219,
      "▁gayri": 3220,
      "▁ydik": 3221,
      "▁tekrar": 3222,
      "▁pansiyon": 3223,
      "▁yayınladı": 3224,
      "▁toz": 3225,
      "▁asır": 3226,
      "▁kaldırılması": 3227,
      "iyeti": 3228,
      "▁lufthansa": 3229,
      "▁acil": 3230,
      "▁konforluydu": 3231,
      "emek": 3232,
      "dayım": 3233,
      "▁bırakıl": 3234,
      "▁verimlilik": 3235,
      "▁1.5920": 3236,
      "▁yakalı": 3237,
      "▁sers": 3238,
      "isindan": 3239,
      "rek": 3240,
      "ımın": 3241,
      "▁yatırımcıları": 3242,
      "▁rezerve": 3243,
      "▁ici": 3244,
      "▁emlak": 3245,
      "▁300000": 3246,
      "▁algılan": 3247,
      "meler": 3248,
      "abz": 3249,
      "▁resour": 3250,
      "▁filmin": 3251,
      "▁gelisti": 3252,
      "▁degistirdi": 3253,
      "yas": 3254,
      "▁cekilmesi": 3255,
      "▁muhal": 3256,
      "▁stratejik": 3257,
      "ii": 3258,
      "▁1.85": 3259,
      "▁gercekten": 3260,
      "▁olsa": 3261,
      "▁edi": 3262,
      "▁edince": 3263,
      "ıtır": 3264,
      "▁hissesinin": 3265,
      "▁toptan": 3266,
      "kırk": 3267,
      "▁hukuki": 3268,
      "tas": 3269,
      "▁fal": 3270,
      "▁yahut": 3271,
      "▁ani": 3272,
      "▁kamuoy": 3273,
      "▁122": 3274,
      "▁karısmıs": 3275,
      "▁kur'an": 3276,
      "▁'": 3277,
      "▁durmadan": 3278,
      "▁kısalt": 3279,
      "▁canadi": 3280,
      "rib": 3281,
      "▁kalbi": 3282,
      "▁rut": 3283,
      "▁nob": 3284,
      "▁arayip": 3285,
      "▁yardımıyla": 3286,
      "▁olmustur": 3287,
      "'nde": 3288,
      "uel": 3289,
      "▁puf": 3290,
      "▁soba": 3291,
      "▁oykusu": 3292,
      "▁boyunda": 3293,
      "▁degisimi": 3294,
      "▁odamiz": 3295,
      "▁hayran": 3296,
      "lardaki": 3297,
      "ediler": 3298,
      "ford": 3299,
      "▁1.625": 3300,
      "▁kullanıldı": 3301,
      "▁vahsi": 3302,
      "▁soyluyorlar": 3303,
      "▁gorebilir": 3304,
      "▁karasu": 3305,
      "▁yasanan": 3306,
      "▁sol": 3307,
      "▁ilgisizdi": 3308,
      "4.9": 3309,
      "▁dengeli": 3310,
      "▁ban": 3311,
      "▁bankalar": 3312,
      "▁ag": 3313,
      "▁paralarını": 3314,
      "asinda": 3315,
      "▁opec": 3316,
      "ster": 3317,
      ".46": 3318,
      "▁basınc": 3319,
      "▁toyota": 3320,
      "▁dayanısma": 3321,
      "▁ila": 3322,
      "▁layık": 3323,
      "▁tastan": 3324,
      "-k": 3325,
      "imi": 3326,
      "▁hayatı": 3327,
      "▁itir": 3328,
      "▁gitt": 3329,
      "▁suru": 3330,
      "kiz": 3331,
      "▁cark": 3332,
      "▁ney": 3333,
      "ital": 3334,
      "▁basbakan": 3335,
      "▁inen": 3336,
      "▁mesgul": 3337,
      "▁sayisi": 3338,
      "▁cezası": 3339,
      "▁acarak": 3340,
      "▁parası": 3341,
      "▁gunumuzde": 3342,
      "▁kristal": 3343,
      "▁aydır": 3344,
      "inizi": 3345,
      "▁basvur": 3346,
      ".51": 3347,
      "▁austral": 3348,
      "▁600": 3349,
      "▁2004": 3350,
      "yaz": 3351,
      "▁vi": 3352,
      "▁hikayeler": 3353,
      "30": 3354,
      "▁odenmemis": 3355,
      "▁mevcut": 3356,
      "▁gelmesi": 3357,
      "▁tatsız": 3358,
      "ligi": 3359,
      "esine": 3360,
      "▁verin": 3361,
      "medikce": 3362,
      "▁oniki": 3363,
      "▁dusunceler": 3364,
      "▁ozgur": 3365,
      "▁konuları": 3366,
      "▁%3.5": 3367,
      "▁hakikat": 3368,
      "▁binmis": 3369,
      "▁turgut": 3370,
      "dediyor": 3371,
      "▁cab": 3372,
      "▁veremem": 3373,
      "▁kader": 3374,
      "▁36": 3375,
      "▁muhim": 3376,
      "▁cıkarmaya": 3377,
      "▁gunlerinde": 3378,
      "▁1.125": 3379,
      "▁sıkıstır": 3380,
      "▁ayrılan": 3381,
      "▁2.625": 3382,
      "▁bekliyorum": 3383,
      "lılık": 3384,
      "▁kong": 3385,
      "▁ceb": 3386,
      "tının": 3387,
      "▁ustunu": 3388,
      "▁edward": 3389,
      "▁kampanya": 3390,
      "▁yiyen": 3391,
      "▁kambiyo": 3392,
      "▁kez": 3393,
      "▁yapacagı": 3394,
      "sekiz": 3395,
      "▁devleti": 3396,
      "eceginiz": 3397,
      "▁alısılma": 3398,
      "uru": 3399,
      "▁1250": 3400,
      "▁street'in": 3401,
      "hos": 3402,
      "▁hamil": 3403,
      "ilmeye": 3404,
      "▁miras": 3405,
      "▁kullanmaya": 3406,
      "▁bakar": 3407,
      "▁soyle": 3408,
      "▁elinin": 3409,
      "▁zengindi": 3410,
      "▁haydi": 3411,
      "▁kam": 3412,
      "isinin": 3413,
      "lesen": 3414,
      "▁sebz": 3415,
      "edil": 3416,
      "▁nedeniyle": 3417,
      "▁italya": 3418,
      "lanmıstır": 3419,
      "al": 3420,
      "▁dolan": 3421,
      "▁yavrusu": 3422,
      "▁olasılıkla": 3423,
      "▁kadif": 3424,
      "▁alabilirdim": 3425,
      "▁kop": 3426,
      "▁americ": 3427,
      "▁olmadıgını": 3428,
      "▁dususle": 3429,
      "▁senaryo": 3430,
      "▁yay": 3431,
      "▁haket": 3432,
      "▁koydular": 3433,
      "▁kimseyle": 3434,
      "▁colorad": 3435,
      "▁kampanyası": 3436,
      "▁karn": 3437,
      "▁gelirler": 3438,
      "▁sesli": 3439,
      "amayan": 3440,
      "▁kendime": 3441,
      "▁dizi": 3442,
      "eg": 3443,
      "▁mıydık": 3444,
      "▁ersin": 3445,
      "▁kalitesi": 3446,
      "▁bembeyaz": 3447,
      "▁devir": 3448,
      "menler": 3449,
      "▁baltimore'den": 3450,
      "▁fena": 3451,
      "cısı": 3452,
      "▁dede": 3453,
      "▁temmuz": 3454,
      "▁artıyor": 3455,
      "▁kosk": 3456,
      "lusu": 3457,
      "▁bob": 3458,
      "▁1/4'e": 3459,
      "▁olduklarını": 3460,
      "▁uysal": 3461,
      "ab": 3462,
      "mini": 3463,
      "▁kızın": 3464,
      "▁rahatlat": 3465,
      "▁devi": 3466,
      "▁alınan": 3467,
      "▁dosya": 3468,
      "▁alamaz": 3469,
      "▁1.6030": 3470,
      "orth": 3471,
      "▁muhabiri": 3472,
      "dedi": 3473,
      "tari": 3474,
      "▁hewlett-packard": 3475,
      "▁aqua": 3476,
      "▁super": 3477,
      "▁calmaya": 3478,
      "▁bayıl": 3479,
      "▁283.8": 3480,
      "▁psil": 3481,
      "▁hepimize": 3482,
      "▁7.25": 3483,
      "▁bahc": 3484,
      "▁kıvr": 3485,
      "▁konusmalar": 3486,
      "▁teblig": 3487,
      "ecekti": 3488,
      "▁ormanın": 3489,
      "▁yukselmistir": 3490,
      "▁gay": 3491,
      "biy": 3492,
      "▁iy": 3493,
      "tılar": 3494,
      "▁ufacık": 3495,
      "gusu": 3496,
      "▁gold": 3497,
      "▁tarl": 3498,
      "▁sf": 3499,
      "▁karsın": 3500,
      "▁katmer": 3501,
      "▁5-1": 3502,
      "▁attıgı": 3503,
      "veland": 3504,
      "▁biniki": 3505,
      "▁ysan": 3506,
      "▁tip": 3507,
      "▁10'dan": 3508,
      "▁isci": 3509,
      "▁okulu": 3510,
      "▁invest": 3511,
      "▁gecme": 3512,
      "▁nus": 3513,
      "▁tun": 3514,
      "▁buhar": 3515,
      "▁dl": 3516,
      "▁havuzu": 3517,
      "▁kamyon": 3518,
      "lastı": 3519,
      "▁tampa'ya": 3520,
      "▁kendim": 3521,
      "▁fikirleri": 3522,
      "larıma": 3523,
      "▁jr": 3524,
      "▁fikrini": 3525,
      "▁destan": 3526,
      "▁sıt": 3527,
      "▁sesleri": 3528,
      "istir": 3529,
      "web": 3530,
      "▁hepimizi": 3531,
      "aya": 3532,
      "▁duruyordu": 3533,
      "▁hazırlık": 3534,
      "▁balik": 3535,
      "▁topladı": 3536,
      "▁ayakk": 3537,
      "▁ydın": 3538,
      "▁vatan": 3539,
      "▁perisan": 3540,
      "▁kirk": 3541,
      "▁sacak": 3542,
      "▁verilmis": 3543,
      "sında": 3544,
      "▁boston'dan": 3545,
      "▁satısları": 3546,
      "▁getirisi": 3547,
      "▁abd'de": 3548,
      "▁azami": 3549,
      "▁maymun": 3550,
      "▁1990'da": 3551,
      "▁yonet": 3552,
      "ular": 3553,
      "▁fevkalade": 3554,
      "▁fazlas": 3555,
      "▁harekete": 3556,
      "60": 3557,
      "▁marks": 3558,
      "▁yemeklerin": 3559,
      "▁paul'dan": 3560,
      "▁heyeti": 3561,
      "▁gibidir": 3562,
      "▁miyim": 3563,
      "▁topal": 3564,
      "▁petersburg'dan": 3565,
      "ısının": 3566,
      "▁emin": 3567,
      "▁tor": 3568,
      "▁takiben": 3569,
      "?": 3570,
      "cayı": 3571,
      "▁sorunları": 3572,
      "ufur": 3573,
      "▁konvansiyonel": 3574,
      "▁yuzlulerdi": 3575,
      "cuk": 3576,
      "ildim": 3577,
      "▁miz": 3578,
      "th": 3579,
      "▁lilly": 3580,
      "▁american": 3581,
      "▁i": 3582,
      "bi": 3583,
      "▁urun": 3584,
      "▁ekleyerek": 3585,
      "dagı": 3586,
      "meyi": 3587,
      "▁onayladı": 3588,
      "▁ustun": 3589,
      "▁mirkelam": 3590,
      "▁muazz": 3591,
      "eder": 3592,
      "▁umit": 3593,
      "▁universitesi": 3594,
      "▁ılık": 3595,
      "_": 3596,
      "▁kar": 3597,
      "▁temas": 3598,
      "memeye": 3599,
      "▁saglıyor": 3600,
      "▁gelmisti": 3601,
      "▁bagdas": 3602,
      "▁kırıl": 3603,
      "▁yiyip": 3604,
      "▁otob": 3605,
      "▁gonlum": 3606,
      "▁olmak": 3607,
      "▁dolmus": 3608,
      "▁olusturan": 3609,
      "▁cıkar": 3610,
      "▁belirgin": 3611,
      "▁isbir": 3612,
      "inaydi": 3613,
      "bre": 3614,
      "▁onyedi": 3615,
      "▁okan": 3616,
      "▁demec": 3617,
      "▁tam": 3618,
      "▁sanayicileri": 3619,
      "▁dalga": 3620,
      "▁veda": 3621,
      "▁cumhurbaskanı": 3622,
      "▁nev": 3623,
      "▁riski": 3624,
      "▁o'": 3625,
      "▁nez": 3626,
      "▁basan": 3627,
      "▁ası": 3628,
      "madik": 3629,
      "▁rezerv": 3630,
      "▁amma": 3631,
      "▁683": 3632,
      "dir": 3633,
      "▁mcdon": 3634,
      "▁tiyatro": 3635,
      "▁karakter": 3636,
      "▁tecavuz": 3637,
      "▁bıyık": 3638,
      "▁degilim": 3639,
      "▁bahsederim": 3640,
      "▁bahs": 3641,
      "▁yıpran": 3642,
      "▁olmanın": 3643,
      "▁sual": 3644,
      "▁doksan": 3645,
      "▁sahnede": 3646,
      "▁artan": 3647,
      "▁pac": 3648,
      "▁varlıgını": 3649,
      "p.": 3650,
      "▁hakkındaki": 3651,
      "▁guleryuzlu": 3652,
      "▁gro": 3653,
      "▁ediyor": 3654,
      "▁dusundur": 3655,
      "uslar": 3656,
      "▁allah'a": 3657,
      "gs": 3658,
      "sa": 3659,
      "▁gelirdi": 3660,
      "baz": 3661,
      "abilecegini": 3662,
      "▁derim": 3663,
      "ine": 3664,
      "▁1989-8": 3665,
      "ng": 3666,
      "▁davran": 3667,
      "madıgı": 3668,
      "▁klor": 3669,
      "▁haber": 3670,
      "tiler": 3671,
      "▁asama": 3672,
      "▁3.000": 3673,
      "▁acayip": 3674,
      "▁altına": 3675,
      "▁yaramaz": 3676,
      "▁44": 3677,
      "▁saffet": 3678,
      "▁havayı": 3679,
      "\"": 3680,
      "▁yuklu": 3681,
      "▁yalnız": 3682,
      "▁memphis'e": 3683,
      "▁memph": 3684,
      "▁endiselen": 3685,
      "▁belirlemek": 3686,
      "▁intikam": 3687,
      "▁oyn": 3688,
      "▁kentin": 3689,
      "▁planlıyor": 3690,
      "▁ham": 3691,
      "▁duru": 3692,
      "▁okumak": 3693,
      "feld": 3694,
      "▁hurmet": 3695,
      "▁temet": 3696,
      "▁girmek": 3697,
      "▁toh": 3698,
      "▁18.": 3699,
      "gıc": 3700,
      "▁tavan": 3701,
      "▁m": 3702,
      "▁gerekir": 3703,
      "▁kapasitesine": 3704,
      "▁onlarda": 3705,
      "uyorum": 3706,
      "▁resesyon": 3707,
      "▁.8": 3708,
      "▁soylen": 3709,
      "▁niss": 3710,
      "lanması": 3711,
      "▁politik": 3712,
      "▁ulasıl": 3713,
      "▁verileri": 3714,
      "▁3.5": 3715,
      "▁konusunda": 3716,
      "▁temkin": 3717,
      "▁ankete": 3718,
      "lamıstır": 3719,
      "▁show": 3720,
      "▁onlemek": 3721,
      "▁serb": 3722,
      "▁gunlerde": 3723,
      "▁ig": 3724,
      "▁ve": 3725,
      ",000": 3726,
      "▁aglamaya": 3727,
      "▁power": 3728,
      "a'nın": 3729,
      "▁yıllardır": 3730,
      "▁kasım": 3731,
      "▁isley": 3732,
      "iyim": 3733,
      "▁zır": 3734,
      "▁kuralları": 3735,
      "▁lezzet": 3736,
      "▁82": 3737,
      "▁sikinti": 3738,
      "lm": 3739,
      "▁kabl": 3740,
      "8'in": 3741,
      "▁isini": 3742,
      "▁lokant": 3743,
      "anın": 3744,
      "▁oldur": 3745,
      "▁surece": 3746,
      "▁getirileri": 3747,
      "▁varlık": 3748,
      "▁egitim": 3749,
      "▁sukur": 3750,
      "▁zapt": 3751,
      "▁inanmak": 3752,
      "tıga": 3753,
      "▁yanında": 3754,
      "▁sırrı": 3755,
      "▁yururluge": 3756,
      "▁istiyorum": 3757,
      "▁oturup": 3758,
      "▁konsep": 3759,
      "▁york'a": 3760,
      "▁oyk": 3761,
      "▁communications": 3762,
      "▁havayollarının": 3763,
      "▁gazetec": 3764,
      "▁haiz": 3765,
      "▁yalnızlık": 3766,
      "▁eren": 3767,
      "▁delikan": 3768,
      "casına": 3769,
      "▁denem": 3770,
      "▁budak": 3771,
      "▁elleriyle": 3772,
      "▁gerekiyor": 3773,
      "▁edenler": 3774,
      "▁uyandır": 3775,
      "▁salkım": 3776,
      "▁ydi": 3777,
      "▁ipek": 3778,
      "▁bol": 3779,
      "▁sayın": 3780,
      "▁aldıgımız": 3781,
      "icorp": 3782,
      "▁anlayan": 3783,
      "▁yunan": 3784,
      "▁ver": 3785,
      "▁incecik": 3786,
      "ındık": 3787,
      "om": 3788,
      "▁krizi": 3789,
      "▁ucan": 3790,
      "▁yatkın": 3791,
      "▁bin": 3792,
      "▁cesitler": 3793,
      "▁ceren": 3794,
      "▁yav": 3795,
      "▁1.59": 3796,
      "▁selim": 3797,
      "▁odalı": 3798,
      "▁hangisi": 3799,
      "▁gucuyle": 3800,
      "▁olmaktadır": 3801,
      "masın": 3802,
      "▁cıkardık": 3803,
      "▁gobek": 3804,
      "▁bilin": 3805,
      "aray": 3806,
      "elin": 3807,
      "▁ailesini": 3808,
      "@": 3809,
      "▁calısan": 3810,
      "▁tedarik": 3811,
      "▁sac": 3812,
      "larımın": 3813,
      "▁atılan": 3814,
      "▁ilgil": 3815,
      "ebilecegini": 3816,
      "▁andan": 3817,
      "uc": 3818,
      "▁acmayı": 3819,
      "▁ikibindort": 3820,
      "▁britan": 3821,
      "▁faaliyet": 3822,
      "▁dom": 3823,
      "alım": 3824,
      "▁tasın": 3825,
      "ızı": 3826,
      "▁bod": 3827,
      "▁surecek": 3828,
      "▁1984": 3829,
      "▁hikayesi": 3830,
      "▁mukelle": 3831,
      "lanma": 3832,
      "tıgımız": 3833,
      "▁duskun": 3834,
      "▁anlatır": 3835,
      "▁ciftciler": 3836,
      "▁sp": 3837,
      "▁avrupa": 3838,
      "9.4": 3839,
      "acıkta": 3840,
      "▁bok": 3841,
      "▁sarılmıs": 3842,
      "ece": 3843,
      "89-": 3844,
      "mamıstı": 3845,
      "▁yıllardan": 3846,
      "▁mıyım": 3847,
      "ico": 3848,
      "1'e": 3849,
      "▁ayrildik": 3850,
      "▁onyedi.": 3851,
      "▁koydugu": 3852,
      "▁burjuv": 3853,
      "▁asıl": 3854,
      "▁bilincli": 3855,
      "▁vurmak": 3856,
      "▁maliyeti": 3857,
      "yız": 3858,
      "lub": 3859,
      "▁gectigi": 3860,
      "▁istis": 3861,
      "▁oyunları": 3862,
      "▁tuhaf": 3863,
      "dası": 3864,
      "▁berkeley": 3865,
      "▁yazılım": 3866,
      ".78": 3867,
      "▁liraya": 3868,
      "▁helal": 3869,
      "▁gelirlerinin": 3870,
      "▁ucu": 3871,
      "▁dere": 3872,
      "▁rezervasyonlar": 3873,
      "▁eczan": 3874,
      "▁ydum": 3875,
      "▁sozune": 3876,
      "uth": 3877,
      "ase": 3878,
      "▁yıg": 3879,
      "▁dinlenmek": 3880,
      "▁uykudan": 3881,
      "▁onemsiz": 3882,
      "▁binbir": 3883,
      "acık": 3884,
      "▁philip": 3885,
      "▁harry": 3886,
      "▁him": 3887,
      "▁yollu": 3888,
      "▁kisi": 3889,
      "▁beyz": 3890,
      "▁gorusme": 3891,
      "▁taz": 3892,
      "▁buldugu": 3893,
      "▁pin": 3894,
      "▁ikisi": 3895,
      "tek": 3896,
      "▁duydum": 3897,
      "▁leblebi": 3898,
      "▁rutin": 3899,
      "▁donemli": 3900,
      "▁geldigini": 3901,
      "n": 3902,
      "▁ticaret": 3903,
      "▁tutk": 3904,
      "▁ahbap": 3905,
      "lıgıyla": 3906,
      "▁cih": 3907,
      "▁toplumsal": 3908,
      "▁sarı": 3909,
      "bus": 3910,
      "▁talim": 3911,
      "iyat": 3912,
      "▁harf": 3913,
      "▁kalabalıgı": 3914,
      "▁kesif": 3915,
      "▁237": 3916,
      "4.8": 3917,
      "▁baban": 3918,
      "▁edin": 3919,
      "▁karsıt": 3920,
      "▁cez": 3921,
      "uyordum": 3922,
      "▁kalit": 3923,
      "azz": 3924,
      "lamıstı": 3925,
      "memiz": 3926,
      "▁kıymetleri": 3927,
      "▁ikinc": 3928,
      "▁itiraz": 3929,
      "saydı": 3930,
      "▁ele": 3931,
      "▁aydın": 3932,
      "▁kade": 3933,
      "▁pırıl": 3934,
      "▁toplan": 3935,
      "▁parmaklarını": 3936,
      "▁gund": 3937,
      "▁mens": 3938,
      "▁1987'de": 3939,
      "▁analistleri": 3940,
      "etir": 3941,
      "▁kork": 3942,
      "andan": 3943,
      "▁cıktım": 3944,
      "▁baglar": 3945,
      "▁olmalıdır": 3946,
      "▁muhtar": 3947,
      "'lık": 3948,
      "▁yuksel": 3949,
      "▁etkil": 3950,
      "anc": 3951,
      "▁milyarını": 3952,
      "▁kabil": 3953,
      "▁seylerin": 3954,
      "larıyla": 3955,
      "▁kavram": 3956,
      "▁bankalarındaki": 3957,
      "▁oturdu": 3958,
      "▁mıymıs": 3959,
      "▁odaya": 3960,
      "▁gorunuse": 3961,
      "▁seslerini": 3962,
      "arlar": 3963,
      "▁anımsam": 3964,
      "▁tasıyor": 3965,
      "▁getirmis": 3966,
      "larına": 3967,
      "▁hisse": 3968,
      "▁sanal": 3969,
      "▁birbirinden": 3970,
      "▁calısanların": 3971,
      "▁tesisti": 3972,
      "▁veriyorum": 3973,
      "▁actım": 3974,
      "▁sırf": 3975,
      "leye": 3976,
      "5.": 3977,
      "achusetts": 3978,
      "▁okumaya": 3979,
      "ıt": 3980,
      "▁cer": 3981,
      "▁nasihat": 3982,
      "▁engelken": 3983,
      "▁4.75": 3984,
      "▁kısı": 3985,
      "▁ucusunuz": 3986,
      "▁odenecek": 3987,
      "▁1980": 3988,
      "▁atıp": 3989,
      "▁ihtiyatlı": 3990,
      "ag": 3991,
      "▁tımar": 3992,
      "▁oynamak": 3993,
      "▁gazet": 3994,
      "larımı": 3995,
      "▁bankacılık": 3996,
      "▁soyleyecek": 3997,
      "mar": 3998,
      "▁ual": 3999,
      "ts": 4000,
      "▁seyr": 4001,
      "▁tarafına": 4002,
      "▁kaybol": 4003,
      "▁yerlerde": 4004,
      "▁1995": 4005,
      "▁esvap": 4006,
      "▁aklını": 4007,
      "▁185": 4008,
      "▁acın": 4009,
      "▁yayını": 4010,
      "med": 4011,
      "▁arkadasım": 4012,
      "▁bagı": 4013,
      "langıc": 4014,
      "▁bicimde": 4015,
      "▁okum": 4016,
      "akat": 4017,
      "▁ekmegini": 4018,
      "▁baslı": 4019,
      "▁annesinin": 4020,
      "▁bolumunde": 4021,
      "gımız": 4022,
      "▁unifor": 4023,
      "▁esir": 4024,
      "▁yapildi": 4025,
      "▁orgut": 4026,
      "▁otekine": 4027,
      "▁brooks": 4028,
      "ukee": 4029,
      "▁kurnaz": 4030,
      "demir": 4031,
      "▁baska": 4032,
      "▁yapamam": 4033,
      "▁devrimci": 4034,
      "▁astım": 4035,
      "▁1.5795": 4036,
      "▁176": 4037,
      "▁indirim": 4038,
      "▁gitti": 4039,
      "▁tanım": 4040,
      "▁animasyonlar": 4041,
      "▁aer": 4042,
      "▁kurtulus": 4043,
      "▁bıc": 4044,
      "▁fedakar": 4045,
      "▁kemir": 4046,
      "▁kutur": 4047,
      "ras": 4048,
      "cr": 4049,
      "▁olcut": 4050,
      "▁kadar": 4051,
      "ij": 4052,
      "ginde": 4053,
      "▁vermeye": 4054,
      "asır": 4055,
      "iti": 4056,
      "▁sivr": 4057,
      "masız": 4058,
      "▁on": 4059,
      "▁kahval": 4060,
      "ahi": 4061,
      "▁cars": 4062,
      "▁kategorisi": 4063,
      "▁geciyor": 4064,
      "▁2005": 4065,
      "▁mesrut": 4066,
      "lamak": 4067,
      "▁acılması": 4068,
      "▁eserler": 4069,
      "▁ulasan": 4070,
      "▁kaybeden": 4071,
      "▁belirttigim": 4072,
      "▁yt": 4073,
      "atı": 4074,
      "▁suyunu": 4075,
      "enler": 4076,
      "h": 4077,
      "lendi": 4078,
      "▁ustunden": 4079,
      "▁1994": 4080,
      "▁atlanta'ya": 4081,
      "▁ydım": 4082,
      "y's": 4083,
      "▁potansiy": 4084,
      "▁139": 4085,
      "▁bizle": 4086,
      "roit": 4087,
      "▁araya": 4088,
      "▁sokup": 4089,
      "▁mis": 4090,
      "land": 4091,
      "p'nin": 4092,
      "▁miy": 4093,
      "▁buyumesini": 4094,
      "▁kule": 4095,
      "▁bayan": 4096,
      "▁tv": 4097,
      "▁sehirde": 4098,
      "ung": 4099,
      "▁kaldim": 4100,
      "▁beyler": 4101,
      "▁bor": 4102,
      "▁oyunu": 4103,
      "▁edersin": 4104,
      "▁gok": 4105,
      "▁pembe": 4106,
      "▁dahili": 4107,
      "▁port": 4108,
      "▁time": 4109,
      "▁istiyordu": 4110,
      "▁iyiye": 4111,
      "▁fransa": 4112,
      "▁ardına": 4113,
      "ekte": 4114,
      "▁2.46": 4115,
      "▁pr": 4116,
      "amin": 4117,
      "▁yokusu": 4118,
      "▁birkacı": 4119,
      "▁piyano": 4120,
      "▁0.10": 4121,
      "▁istemeye": 4122,
      "▁ureticisi": 4123,
      "▁sanıyor": 4124,
      "▁ısı": 4125,
      "▁ucyuz": 4126,
      "▁ardında": 4127,
      "yedi": 4128,
      "▁uzlas": 4129,
      "▁america": 4130,
      "▁denli": 4131,
      "▁kitapları": 4132,
      "malara": 4133,
      "▁sandıgı": 4134,
      "▁145.45": 4135,
      "ray": 4136,
      "▁gruba": 4137,
      "▁ad": 4138,
      "▁ash": 4139,
      "▁washington'dan": 4140,
      "▁%3.4": 4141,
      "eligini": 4142,
      "▁dokum": 4143,
      "▁dolastır": 4144,
      "▁prensip": 4145,
      "▁karnı": 4146,
      "▁isletiyor": 4147,
      "▁tezgah": 4148,
      "▁sunlar": 4149,
      "▁sokaklarda": 4150,
      "▁hazırlanısı": 4151,
      "▁itaat": 4152,
      "▁50000": 4153,
      "▁calısanları": 4154,
      "esem": 4155,
      "▁juri": 4156,
      "▁pav": 4157,
      "▁prenses": 4158,
      "▁cemil": 4159,
      "dogu": 4160,
      "ildik": 4161,
      "ecegimiz": 4162,
      "gah": 4163,
      "▁cogunlugu": 4164,
      "▁lah": 4165,
      "▁1991": 4166,
      "▁unlu": 4167,
      "▁raporlar": 4168,
      "7000": 4169,
      "suz": 4170,
      "▁islev": 4171,
      "▁yavasca": 4172,
      "▁varıyor": 4173,
      "▁350000": 4174,
      "▁isletmeler": 4175,
      "▁puanlarim": 4176,
      "485": 4177,
      "▁agustos'ta": 4178,
      "▁gectikce": 4179,
      "▁mesru": 4180,
      "▁dukkan": 4181,
      "▁%13": 4182,
      "▁fuar": 4183,
      "▁boston'da": 4184,
      "▁koyluler": 4185,
      "gıcı": 4186,
      "▁kolaylastır": 4187,
      "▁duzelt": 4188,
      "layınca": 4189,
      "▁bilgisayarlar": 4190,
      "▁turkler": 4191,
      "▁gor": 4192,
      "▁nereler": 4193,
      "▁yapacagız": 4194,
      "'unu": 4195,
      "▁sokagın": 4196,
      "▁yogun": 4197,
      "▁terc": 4198,
      "9.9": 4199,
      "lerimizin": 4200,
      "▁tokyo": 4201,
      "▁protok": 4202,
      "…": 4203,
      "▁kızarmıs": 4204,
      "▁yont": 4205,
      "▁geldiler": 4206,
      "▁cıkarma": 4207,
      "▁meseleyi": 4208,
      "▁direnc": 4209,
      "▁artırmak": 4210,
      "emez": 4211,
      "▁denizini": 4212,
      "▁kast": 4213,
      "▁niyet": 4214,
      "▁ingilizce": 4215,
      "▁ayr": 4216,
      "tip": 4217,
      "▁edile": 4218,
      "▁tarihleri": 4219,
      "▁siyas": 4220,
      "yuz": 4221,
      "ibe": 4222,
      "▁bahceye": 4223,
      "▁duzeyinde": 4224,
      "kah": 4225,
      "ess": 4226,
      "▁mor": 4227,
      "▁757": 4228,
      "▁muduru": 4229,
      "▁samp": 4230,
      "▁yanlis": 4231,
      "▁kalmamıs": 4232,
      "▁anlasmayı": 4233,
      "▁degerlendiririm": 4234,
      "▁orgu": 4235,
      "▁birdenbire": 4236,
      "▁tiksin": 4237,
      "▁indir": 4238,
      "mayla": 4239,
      "kara": 4240,
      "▁kapasitesi": 4241,
      "▁tanıdık": 4242,
      "▁ib": 4243,
      "▁ap": 4244,
      "▁olmaz": 4245,
      "▁pom": 4246,
      "▁konum": 4247,
      "▁gazete": 4248,
      "▁saclı": 4249,
      "▁hamuru": 4250,
      "▁muy": 4251,
      "▁0.13": 4252,
      "▁ph": 4253,
      "icisi": 4254,
      "▁kadro": 4255,
      "▁78": 4256,
      "'de": 4257,
      "▁sevis": 4258,
      "ven": 4259,
      "liginden": 4260,
      "▁aldılar": 4261,
      "▁ongordu": 4262,
      "▁olmayacagını": 4263,
      "ester": 4264,
      "▁ka": 4265,
      "imle": 4266,
      "▁dow": 4267,
      "▁ekibi": 4268,
      "▁ucusuna": 4269,
      "▁milyonluk": 4270,
      "▁egzersiz": 4271,
      "▁65": 4272,
      "▁yuregini": 4273,
      "▁genc": 4274,
      "▁luzum": 4275,
      "▁bunlara": 4276,
      "pus": 4277,
      "azı": 4278,
      "▁cleveland'a": 4279,
      "agını": 4280,
      "ısın": 4281,
      "masında": 4282,
      "▁titr": 4283,
      "▁law": 4284,
      "▁kalıp": 4285,
      "▁rez": 4286,
      "▁kut": 4287,
      "▁dedikodu": 4288,
      "▁arab": 4289,
      "▁hisset": 4290,
      "▁mily": 4291,
      "▁sırasında": 4292,
      "▁muzigi": 4293,
      "▁burosunda": 4294,
      "▁ısmar": 4295,
      "▁alay": 4296,
      "▁birinin": 4297,
      "cum": 4298,
      "dını": 4299,
      "maca": 4300,
      "dılar": 4301,
      "▁fikri": 4302,
      "▁simdiki": 4303,
      "unla": 4304,
      "▁nihal": 4305,
      "▁donmustu": 4306,
      "memektedir": 4307,
      "▁karak": 4308,
      "▁birbirinin": 4309,
      "▁idaresi": 4310,
      "▁arastırmacı": 4311,
      "▁ince": 4312,
      "▁kapısına": 4313,
      "▁avustral": 4314,
      "▁ithalat": 4315,
      "co": 4316,
      "▁yaptir": 4317,
      "▁gelis": 4318,
      "tır": 4319,
      "▁16": 4320,
      "ginden": 4321,
      "▁hul": 4322,
      "▁agab": 4323,
      "▁sınır": 4324,
      "▁14": 4325,
      "▁sc": 4326,
      "cika": 4327,
      "▁kullandim": 4328,
      "▁mıydım": 4329,
      "▁iste": 4330,
      "▁hill": 4331,
      "▁ov": 4332,
      "▁buyum": 4333,
      "▁olayları": 4334,
      "▁ozver": 4335,
      "▁eas": 4336,
      "▁tasıdı": 4337,
      "–": 4338,
      "▁basarı": 4339,
      "▁denizin": 4340,
      "▁kayıplar": 4341,
      "▁1150000": 4342,
      "▁yog": 4343,
      "▁sabaha": 4344,
      "▁cogal": 4345,
      "▁imtiyaz": 4346,
      "▁kalacak": 4347,
      "ville": 4348,
      "▁yurtdi": 4349,
      "fil": 4350,
      "▁durust": 4351,
      "▁tutum": 4352,
      "▁ısıl": 4353,
      "48": 4354,
      "arım": 4355,
      "▁tartısmalar": 4356,
      "▁degisiklikleri": 4357,
      "▁olmayacaktır": 4358,
      "▁yakinlarima": 4359,
      "▁bolgesel": 4360,
      "lanmasından": 4361,
      "▁anlasmaz": 4362,
      "▁kolu": 4363,
      "▁cami": 4364,
      "▁tasları": 4365,
      "▁muyuz": 4366,
      "makla": 4367,
      "▁huner": 4368,
      "▁newport": 4369,
      "▁sehr": 4370,
      "▁piskin": 4371,
      "▁onlarca": 4372,
      "▁doz": 4373,
      "ının": 4374,
      "ustos": 4375,
      "▁dagıt": 4376,
      "▁baskalarının": 4377,
      "▁nam": 4378,
      "▁tac": 4379,
      "▁onay": 4380,
      "▁saglar": 4381,
      "▁atıs": 4382,
      "▁fiz": 4383,
      "▁rab": 4384,
      "▁sayet": 4385,
      "▁seyahat": 4386,
      "tigim": 4387,
      "▁verimsiz": 4388,
      "▁bag": 4389,
      "▁mater": 4390,
      "▁konumundan": 4391,
      "▁murekkep": 4392,
      "▁odama": 4393,
      "▁sekreter": 4394,
      "▁karsılan": 4395,
      "lemeye": 4396,
      "▁camı": 4397,
      "▁eb": 4398,
      "▁muhtemelen": 4399,
      "▁kalmıstı": 4400,
      "▁ismail": 4401,
      "▁gelirin": 4402,
      "▁kundur": 4403,
      "ayı": 4404,
      "▁in": 4405,
      "▁1955": 4406,
      "▁boncuk": 4407,
      "▁bilmeyen": 4408,
      "▁kepenk": 4409,
      "▁garsonlar": 4410,
      "▁iki": 4411,
      "ost": 4412,
      "▁cem": 4413,
      "met": 4414,
      "▁tarafa": 4415,
      "▁yasay": 4416,
      "▁j": 4417,
      "▁paralar": 4418,
      "▁cogunu": 4419,
      "4.5": 4420,
      "▁calisanlari": 4421,
      "2.1": 4422,
      "▁2005'e": 4423,
      "unden": 4424,
      "▁caddenin": 4425,
      "▁borcu": 4426,
      "▁giysiler": 4427,
      "▁verecegini": 4428,
      "field": 4429,
      "▁seylere": 4430,
      "akk": 4431,
      "▁levh": 4432,
      "▁pam": 4433,
      "▁vergisi": 4434,
      "▁kaygı": 4435,
      "▁bunda": 4436,
      "-6": 4437,
      "▁hijyenikti": 4438,
      "▁altında": 4439,
      "egas": 4440,
      "▁konularda": 4441,
      "'an": 4442,
      "▁maksim": 4443,
      "▁vasat": 4444,
      "▁fatma": 4445,
      "▁nik": 4446,
      ".2": 4447,
      ":11": 4448,
      "larmıs": 4449,
      "▁istemis": 4450,
      "▁kapısından": 4451,
      "ısıydı": 4452,
      "in'in": 4453,
      "▁sayısı": 4454,
      "▁kırdı": 4455,
      "▁goruyordu": 4456,
      "▁nin": 4457,
      "▁adamlarının": 4458,
      "▁kirec": 4459,
      "▁atıstır": 4460,
      "▁yaratır": 4461,
      "▁kalk": 4462,
      "▁avut": 4463,
      "▁yurtdisin": 4464,
      "lugunun": 4465,
      "▁elver": 4466,
      "▁becer": 4467,
      "ilme": 4468,
      "▁musta": 4469,
      "▁yene": 4470,
      "▁erede": 4471,
      "▁californ": 4472,
      "'ım": 4473,
      "▁atıl": 4474,
      "▁bekledik": 4475,
      "▁ayında": 4476,
      "▁geb": 4477,
      "▁bununla": 4478,
      "▁kayda": 4479,
      "▁ir": 4480,
      "▁jose'ye": 4481,
      "▁seytan": 4482,
      "▁damak": 4483,
      "▁yoksul": 4484,
      "▁gorunum": 4485,
      "▁p": 4486,
      "ec": 4487,
      "▁odem": 4488,
      "▁9.8": 4489,
      "▁5.6": 4490,
      "▁trav": 4491,
      "▁mercan": 4492,
      "▁istedigimi": 4493,
      "▁agacların": 4494,
      "▁lu": 4495,
      "▁kelep": 4496,
      "▁fırlat": 4497,
      "▁olimpiyat": 4498,
      "▁nerelere": 4499,
      "▁yasından": 4500,
      "▁phoenix'e": 4501,
      "▁hasta": 4502,
      "▁gunesi": 4503,
      "▁peynirleri": 4504,
      "bih": 4505,
      "▁kasaba": 4506,
      "▁kotums": 4507,
      "▁bolgesi": 4508,
      "cil": 4509,
      "▁musteriler": 4510,
      "▁yılların": 4511,
      "▁nav": 4512,
      "▁taahhut": 4513,
      "▁ruy": 4514,
      "▁istedigi": 4515,
      "▁kanlı": 4516,
      "▁city'den": 4517,
      "di": 4518,
      "▁yasa": 4519,
      "▁seviyesine": 4520,
      "acagına": 4521,
      "▁75": 4522,
      "▁inek": 4523,
      "▁nedeni": 4524,
      "▁yetk": 4525,
      "▁rahmet": 4526,
      "alan": 4527,
      "▁onayına": 4528,
      "▁istanbul": 4529,
      "▁varlıgı": 4530,
      "▁united": 4531,
      "islari": 4532,
      "▁karsilama": 4533,
      "▁onalt": 4534,
      "▁esyalar": 4535,
      "▁fazlasını": 4536,
      "▁11.5": 4537,
      "▁sınav": 4538,
      "▁bık": 4539,
      "afeti": 4540,
      "▁icindeydi": 4541,
      "leer": 4542,
      "▁delta'nın": 4543,
      "▁calıstır": 4544,
      "▁tahmini": 4545,
      "▁hok": 4546,
      "▁odam": 4547,
      "$": 4548,
      "raz": 4549,
      "▁yapmaktan": 4550,
      "▁olsaydı": 4551,
      "▁1.72": 4552,
      "arken": 4553,
      "▁haps": 4554,
      "iran": 4555,
      "das": 4556,
      "▁bagır": 4557,
      "▁asagıdaki": 4558,
      "▁azdı": 4559,
      "▁balkan": 4560,
      "▁hev": 4561,
      "▁ltd.": 4562,
      "▁surup": 4563,
      "imden": 4564,
      "cılıgı": 4565,
      "▁sarmıs": 4566,
      "▁parayla": 4567,
      "▁havaalanı'nda": 4568,
      "▁570": 4569,
      "375": 4570,
      "▁1.1": 4571,
      "▁bankacılar": 4572,
      "▁hizmetlerini": 4573,
      "yıl": 4574,
      "▁gemiydi": 4575,
      "▁partisi": 4576,
      "eceg": 4577,
      "▁durup": 4578,
      "▁gokyuzunu": 4579,
      "▁usul": 4580,
      "▁kin": 4581,
      "7'de": 4582,
      "▁olusturdugu": 4583,
      "▁sov": 4584,
      "meni": 4585,
      "▁kapsamında": 4586,
      "lanabilir": 4587,
      "▁yasında": 4588,
      "▁vilayet": 4589,
      "▁103": 4590,
      "▁yuzey": 4591,
      "▁622": 4592,
      "▁catır": 4593,
      "ums": 4594,
      "▁halihaz": 4595,
      "▁donemi": 4596,
      "▁aylarda": 4597,
      "▁yasıyorum": 4598,
      "▁kalır": 4599,
      "▁kredileri": 4600,
      "▁turlar": 4601,
      "▁iceri": 4602,
      "▁av": 4603,
      "▁cıkardıgı": 4604,
      "▁975": 4605,
      "iyetin": 4606,
      "▁o": 4607,
      "▁oranda": 4608,
      "▁odamdan": 4609,
      "muslar": 4610,
      "▁devlet": 4611,
      "▁magar": 4612,
      "abında": 4613,
      "▁masal": 4614,
      "▁sundugu": 4615,
      "▁jandar": 4616,
      "▁tatlilar": 4617,
      "iza": 4618,
      "▁kalıyordu": 4619,
      "▁kademeli": 4620,
      "▁sandaly": 4621,
      "▁mitsubishi": 4622,
      "▁hatir": 4623,
      "▁urunleri": 4624,
      "▁mekan": 4625,
      "▁6.9": 4626,
      "▁hemsir": 4627,
      "▁birles": 4628,
      "▁duyar": 4629,
      "▁kahraman": 4630,
      "▁acele": 4631,
      "▁demektir": 4632,
      "▁kırlangıc": 4633,
      "osunun": 4634,
      "▁hani": 4635,
      "cagız": 4636,
      "▁etmediler": 4637,
      "▁laub": 4638,
      "▁oz": 4639,
      "rar": 4640,
      "ez": 4641,
      "▁sofor": 4642,
      "▁average": 4643,
      "▁ab": 4644,
      "rin": 4645,
      "▁48": 4646,
      "ız": 4647,
      "▁sozcuk": 4648,
      "▁cit": 4649,
      "▁tit": 4650,
      "izm": 4651,
      "▁sayg": 4652,
      "▁terbiye": 4653,
      "▁destekliyor": 4654,
      "▁gıy": 4655,
      "30000": 4656,
      "▁sears": 4657,
      "aca": 4658,
      "ana": 4659,
      "elerek": 4660,
      "▁hazırladı": 4661,
      "▁cagın": 4662,
      "▁agzını": 4663,
      "▁nom": 4664,
      "▁kosu": 4665,
      "▁yegen": 4666,
      "▁1974": 4667,
      "▁urkek": 4668,
      "▁huzursuz": 4669,
      "▁belli": 4670,
      "▁kalitesinden": 4671,
      "▁konusuyor": 4672,
      "▁meshur": 4673,
      "▁muz": 4674,
      "▁konustu": 4675,
      "▁8.32": 4676,
      "▁duyan": 4677,
      "allah": 4678,
      "▁olusturmaktadır": 4679,
      "▁yardımcısı": 4680,
      "▁basit": 4681,
      "▁verip": 4682,
      "▁sabahtan": 4683,
      "▁kullanıyor": 4684,
      "▁uygunsuz": 4685,
      "▁527.39": 4686,
      "▁99.1": 4687,
      "alarına": 4688,
      "▁homurdan": 4689,
      "▁68": 4690,
      "arak": 4691,
      "ro": 4692,
      "eyn": 4693,
      "▁biri": 4694,
      "▁arkasında": 4695,
      "▁japonya'nın": 4696,
      "▁ucuslarınız": 4697,
      "▁109.85": 4698,
      "▁teklifleri": 4699,
      "▁lideri": 4700,
      "▁oburunu": 4701,
      "▁ceyrek": 4702,
      "▁zevk": 4703,
      "▁sıp": 4704,
      "▁kilit": 4705,
      "▁egem": 4706,
      "▁acılıs": 4707,
      "lanmıs": 4708,
      "▁arastir": 4709,
      "▁iyilestir": 4710,
      "▁california": 4711,
      "▁mantıklı": 4712,
      "▁yazıyorum": 4713,
      "▁dam": 4714,
      "▁asılmıs": 4715,
      "▁kıyıya": 4716,
      "▁bm": 4717,
      "▁kıbr": 4718,
      "▁iz": 4719,
      "▁izler": 4720,
      "▁kalıyor": 4721,
      "▁babama": 4722,
      "▁unsur": 4723,
      "▁arac": 4724,
      "▁seksen": 4725,
      "▁kacınılmaz": 4726,
      "▁sure": 4727,
      "▁soguk": 4728,
      "▁eliyle": 4729,
      "▁basarili": 4730,
      "▁uretimi": 4731,
      "▁83": 4732,
      "emeyecegim": 4733,
      "uya": 4734,
      "diniz": 4735,
      "▁4": 4736,
      "▁yaratan": 4737,
      "▁seg": 4738,
      "▁birlikte": 4739,
      "▁gonl": 4740,
      "▁azal": 4741,
      "▁ciftci": 4742,
      "kar": 4743,
      "▁470.80": 4744,
      "▁memlekette": 4745,
      "▁kom": 4746,
      "▁mesg": 4747,
      "▁demeye": 4748,
      "pi": 4749,
      "oseksu": 4750,
      "unu": 4751,
      "tcı": 4752,
      "▁hizmetlerinden": 4753,
      "▁kaldırım": 4754,
      "▁yedinci": 4755,
      "▁charlotte": 4756,
      "▁olanagı": 4757,
      "▁dokulen": 4758,
      "malıydı": 4759,
      "▁aff": 4760,
      "▁filiz": 4761,
      "▁hedefi": 4762,
      "▁gordugumuz": 4763,
      ".68": 4764,
      "▁yapılan": 4765,
      "▁425": 4766,
      "1-19": 4767,
      "▁icra": 4768,
      "▁mahluk": 4769,
      "▁bıraktı": 4770,
      "▁motor": 4771,
      "▁kacın": 4772,
      "▁hom": 4773,
      "▁zil": 4774,
      "▁hip": 4775,
      "▁kusuru": 4776,
      "▁hah": 4777,
      "▁ergen": 4778,
      "▁simdi": 4779,
      "▁potansiyel": 4780,
      "obil": 4781,
      "cusu": 4782,
      "▁trelleborg": 4783,
      "▁urunlerinin": 4784,
      "emedim": 4785,
      "meyle": 4786,
      "▁arb": 4787,
      "|": 4788,
      "▁size": 4789,
      "▁kotuydu": 4790,
      "▁servet": 4791,
      "▁sorumlulugunu": 4792,
      "▁tembel": 4793,
      "▁yakin": 4794,
      "▁edep": 4795,
      "▁cr": 4796,
      "sizin": 4797,
      "ersiz": 4798,
      "▁surec": 4799,
      "elik": 4800,
      "▁palto": 4801,
      "▁ozenle": 4802,
      "▁dogal": 4803,
      "aga": 4804,
      "▁buro": 4805,
      "sal": 4806,
      "mamak": 4807,
      "▁bul": 4808,
      "▁dogum": 4809,
      "▁contin": 4810,
      "sk": 4811,
      "a'da": 4812,
      "▁manzarasi": 4813,
      "▁tap": 4814,
      "▁savas": 4815,
      "▁kısaca": 4816,
      "▁host": 4817,
      "▁nar": 4818,
      "▁kapıları": 4819,
      "▁teh": 4820,
      "5.3": 4821,
      "▁cleveland": 4822,
      "▁matem": 4823,
      "▁ku": 4824,
      "▁vermesini": 4825,
      "▁balıkcı": 4826,
      "▁kullanılıyor": 4827,
      "▁fiyatlari": 4828,
      "▁beb": 4829,
      "▁murekk": 4830,
      "▁gitmisti": 4831,
      "▁25": 4832,
      "▁ayık": 4833,
      "▁sehirler": 4834,
      "▁ataturk": 4835,
      "deger": 4836,
      "▁kibr": 4837,
      "▁gokhan": 4838,
      "▁seh": 4839,
      "▁1500": 4840,
      "▁gecesi": 4841,
      "▁varil": 4842,
      "▁oncesinde": 4843,
      "j.": 4844,
      "erve": 4845,
      "▁gucunu": 4846,
      "▁islerini": 4847,
      "▁52": 4848,
      "vir": 4849,
      "▁1.52": 4850,
      "▁husus": 4851,
      "▁87": 4852,
      "▁1,": 4853,
      "▁fiyata": 4854,
      "e'de": 4855,
      "▁nice": 4856,
      "▁kursu": 4857,
      "b": 4858,
      "▁hamle": 4859,
      "▁dusundum": 4860,
      "▁dilek": 4861,
      "▁gidelim": 4862,
      "▁herifin": 4863,
      "▁cıp": 4864,
      "▁cocuklarına": 4865,
      "lanmaya": 4866,
      "tere": 4867,
      "dıgım": 4868,
      "▁gelisim": 4869,
      "▁notları": 4870,
      "▁almıstı": 4871,
      "▁numaralı": 4872,
      "▁oglum": 4873,
      "▁charlotte'ye": 4874,
      "umuzun": 4875,
      "▁olmaması": 4876,
      "▁listeleyin": 4877,
      "'yu": 4878,
      "▁1115": 4879,
      "▁silin": 4880,
      "▁but": 4881,
      "san": 4882,
      "▁kurulus": 4883,
      "▁iri": 4884,
      "isindeki": 4885,
      "ıslı": 4886,
      "▁sıra": 4887,
      "▁duzen": 4888,
      "▁oluyor": 4889,
      "▁avuk": 4890,
      "▁doları'ndan": 4891,
      "▁gıc": 4892,
      "▁olcum": 4893,
      "▁fransa'nın": 4894,
      "▁pirinc": 4895,
      "inizin": 4896,
      "▁85": 4897,
      "▁10.625": 4898,
      "▁atesi": 4899,
      "▁mixte": 4900,
      "▁yapıt": 4901,
      "35": 4902,
      "▁gorup": 4903,
      "ds": 4904,
      "▁fikir": 4905,
      "▁denver": 4906,
      "▁hizmeti": 4907,
      "dı": 4908,
      "▁yapacak": 4909,
      "▁halil": 4910,
      "▁53": 4911,
      "▁aksine": 4912,
      "▁evlilig": 4913,
      "abı": 4914,
      "▁brad": 4915,
      "▁manz": 4916,
      "agın": 4917,
      "▁pahaliydi": 4918,
      "▁ucretler": 4919,
      "allı": 4920,
      "liyorum": 4921,
      "mezdi": 4922,
      "▁alırım": 4923,
      "▁kimyasal": 4924,
      "ebilirler": 4925,
      "▁nesine": 4926,
      "5$": 4927,
      "iyorum": 4928,
      "▁ortada": 4929,
      "▁okul": 4930,
      "▁sabahı": 4931,
      "▁teknoloj": 4932,
      "▁ısık": 4933,
      "▁adamakıllı": 4934,
      "eyi": 4935,
      "▁donup": 4936,
      "▁ordek": 4937,
      "▁verilmesi": 4938,
      "▁kaymakam": 4939,
      "▁7.88": 4940,
      "▁koseye": 4941,
      "▁alıyor": 4942,
      "isi": 4943,
      "▁and": 4944,
      "▁huzur": 4945,
      "ekim": 4946,
      "▁calisti": 4947,
      "▁dallas'ta": 4948,
      "ard": 4949,
      "▁bankaların": 4950,
      "gel": 4951,
      "▁neg": 4952,
      "'d": 4953,
      "▁oyna": 4954,
      "▁deniyor": 4955,
      "▁bakıyor": 4956,
      "dikten": 4957,
      "▁kala": 4958,
      "▁muthis": 4959,
      "▁alık": 4960,
      "▁donem": 4961,
      "▁ortalam": 4962,
      "▁etmesi": 4963,
      "▁kıpır": 4964,
      "▁etmenin": 4965,
      "▁duman": 4966,
      "▁borclu": 4967,
      "▁baskasına": 4968,
      "▁reding": 4969,
      "▁ars": 4970,
      "▁gelecekte": 4971,
      "▁baglıdır": 4972,
      "▁ayrıca": 4973,
      "▁ucusunda": 4974,
      "▁kadr": 4975,
      "ok": 4976,
      "▁tavır": 4977,
      "▁kıvılc": 4978,
      "ain": 4979,
      "▁investment": 4980,
      "▁dolara": 4981,
      "enince": 4982,
      "▁sakallı": 4983,
      "▁pet": 4984,
      "▁yuk": 4985,
      "ecektir": 4986,
      "kaya": 4987,
      "isleri": 4988,
      "▁egri": 4989,
      "▁260": 4990,
      "▁almanlar": 4991,
      "▁ayrılmıs": 4992,
      "▁35587": 4993,
      "lanmamıs": 4994,
      "▁guler": 4995,
      "▁sahis": 4996,
      "ıcının": 4997,
      "▁elb": 4998,
      "▁kendimize": 4999,
      "emiz": 5000,
      "▁1960'": 5001,
      "▁1.6145": 5002,
      "▁darbe": 5003,
      "ight": 5004,
      "▁1988": 5005,
      ".02": 5006,
      "ustur": 5007,
      "▁fiyatlarının": 5008,
      "▁fabrik": 5009,
      "▁muzaker": 5010,
      "▁katana": 5011,
      "▁kullanan": 5012,
      "▁trust": 5013,
      "▁gunden": 5014,
      "leleri": 5015,
      "▁guzellik": 5016,
      "▁alanın": 5017,
      "idi": 5018,
      "medigini": 5019,
      "▁corry": 5020,
      "eyecek": 5021,
      "mma": 5022,
      "▁muda": 5023,
      "▁sirketlerin": 5024,
      "ben": 5025,
      "▁schw": 5026,
      "istik": 5027,
      "▁evde": 5028,
      "▁penc": 5029,
      "▁yuruyordu": 5030,
      "▁hotel": 5031,
      "ram": 5032,
      "ilmis": 5033,
      "acısı": 5034,
      "▁gune": 5035,
      "▁gozlerine": 5036,
      "ginin": 5037,
      "▁benz": 5038,
      "▁7.8": 5039,
      "▁kampanyalar": 5040,
      "▁hur": 5041,
      "▁mevzu": 5042,
      "▁gecirme": 5043,
      "madıgını": 5044,
      "▁adama": 5045,
      "▁fuk": 5046,
      "▁borsası'nda": 5047,
      "ligiyle": 5048,
      "▁severek": 5049,
      "▁1711": 5050,
      "▁keleb": 5051,
      "▁opsiyonu": 5052,
      "iskin": 5053,
      "▁rok": 5054,
      "▁insandan": 5055,
      "baren": 5056,
      "stil": 5057,
      "▁yuzles": 5058,
      "▁oturmus": 5059,
      "▁moda": 5060,
      "▁106": 5061,
      "▁ikib": 5062,
      "▁ri": 5063,
      "▁kazada": 5064,
      "▁portf": 5065,
      "▁bina": 5066,
      "▁lık": 5067,
      "▁universitede": 5068,
      "ler'in": 5069,
      "▁sm": 5070,
      "▁digerleri": 5071,
      "▁kuzu": 5072,
      "go": 5073,
      "▁bulunmaktadır": 5074,
      "▁suik": 5075,
      "▁ankara": 5076,
      "▁izm": 5077,
      "etik": 5078,
      "▁hareketi": 5079,
      "▁ikiz": 5080,
      "▁faaliyetinde": 5081,
      "▁dikkatini": 5082,
      "▁ozgun": 5083,
      "▁kuyruk": 5084,
      "ilerine": 5085,
      "▁12.3": 5086,
      "ciden": 5087,
      "▁seviyor": 5088,
      "▁beton": 5089,
      "ure": 5090,
      "kop": 5091,
      "▁gitar": 5092,
      "▁kırıldı": 5093,
      "▁kayıt": 5094,
      "▁uygulama": 5095,
      "▁dinlen": 5096,
      "ıl": 5097,
      "biye": 5098,
      "▁muht": 5099,
      "▁tarafını": 5100,
      "▁avans": 5101,
      "ilerdi": 5102,
      "▁cumhuriyeti": 5103,
      "▁cimento": 5104,
      "ys": 5105,
      "▁hisseyle": 5106,
      "▁alın": 5107,
      "▁yasamadik": 5108,
      "-m": 5109,
      "▁1.19": 5110,
      "▁lokanta": 5111,
      "▁kalb": 5112,
      "▁72": 5113,
      "▁odalardan": 5114,
      "77": 5115,
      "▁bankacı": 5116,
      "▁'dı": 5117,
      "▁ucreti": 5118,
      "▁uygulamaları": 5119,
      "▁salınc": 5120,
      "▁gelenek": 5121,
      "▁gidip": 5122,
      "▁birimiz": 5123,
      "aleti": 5124,
      "lesinde": 5125,
      "inal": 5126,
      "alı": 5127,
      "▁cıkıp": 5128,
      "▁kısıtlam": 5129,
      "▁nereye": 5130,
      "▁hızla": 5131,
      "▁oldug": 5132,
      "▁kafası": 5133,
      "ebilirsiniz": 5134,
      "▁dediler": 5135,
      "▁cıvıl": 5136,
      "▁gordugu": 5137,
      "▁izni": 5138,
      "▁yemin": 5139,
      "▁pant": 5140,
      "▁ann": 5141,
      "▁ardından": 5142,
      "▁tik": 5143,
      "▁okullar": 5144,
      "▁1997": 5145,
      "▁usx": 5146,
      "▁pentagon": 5147,
      "▁ebru": 5148,
      "▁borclanma": 5149,
      "▁armagan": 5150,
      "▁yana": 5151,
      "▁kapadı": 5152,
      "iness": 5153,
      "▁153": 5154,
      "ustr": 5155,
      "▁buh": 5156,
      "▁gununu": 5157,
      "arı": 5158,
      "▁141.45": 5159,
      "▁govd": 5160,
      "▁hicbirinin": 5161,
      "▁isk": 5162,
      "▁hakem": 5163,
      "▁burus": 5164,
      "▁sevda": 5165,
      "▁por": 5166,
      "yuzotuzdort": 5167,
      "▁meyal": 5168,
      "▁baskaldır": 5169,
      "indan": 5170,
      "▁doldur": 5171,
      "▁cizgi": 5172,
      "▁piyasasını": 5173,
      "▁faiz": 5174,
      "of": 5175,
      "23": 5176,
      "▁halkın": 5177,
      "▁gittigi": 5178,
      "▁toronto": 5179,
      "▁4'ten": 5180,
      "lıgında": 5181,
      "▁yatar": 5182,
      "▁b.": 5183,
      "icilerin": 5184,
      "▁sizi": 5185,
      "▁yak": 5186,
      "▁gozunu": 5187,
      "▁komisyonlar": 5188,
      "▁emine": 5189,
      "▁arkadaslar": 5190,
      "▁yargılan": 5191,
      "lk": 5192,
      "7.6": 5193,
      "▁pufur": 5194,
      "▁tibet": 5195,
      "▁22": 5196,
      "▁dedik": 5197,
      "▁yirmisekiz": 5198,
      "▁bankaları": 5199,
      "▁savcılar": 5200,
      "▁25.8": 5201,
      "▁surt": 5202,
      "maya": 5203,
      "lerimin": 5204,
      "▁fiyatlar": 5205,
      "▁kumas": 5206,
      "od": 5207,
      "ırı": 5208,
      "▁arbitraj": 5209,
      "▁ket": 5210,
      "tılı": 5211,
      "lenmis": 5212,
      "▁nef": 5213,
      "adag": 5214,
      "▁kalkıslı": 5215,
      "ata": 5216,
      "iliyor": 5217,
      "▁bagları": 5218,
      "▁kultur": 5219,
      "dum": 5220,
      "▁yukum": 5221,
      "vert": 5222,
      "▁guncel": 5223,
      "▁komut": 5224,
      "▁burbank": 5225,
      "rum": 5226,
      "ustral": 5227,
      "▁141": 5228,
      "▁49": 5229,
      "▁dr.": 5230,
      "▁michig": 5231,
      "▁kurallar": 5232,
      "▁anlatmaya": 5233,
      "ısır": 5234,
      "▁hafta": 5235,
      "▁mahkemesi": 5236,
      "tali": 5237,
      "▁2.77": 5238,
      "▁kanadı": 5239,
      "▁bilinmeyen": 5240,
      "bası": 5241,
      "▁142": 5242,
      "▁sand": 5243,
      "▁fasul": 5244,
      "▁_": 5245,
      "-19": 5246,
      "lıgımı": 5247,
      "▁tanı": 5248,
      "▁koyuldu": 5249,
      "▁7\\/32": 5250,
      "▁mccaw": 5251,
      "▁nitelendir": 5252,
      "▁bırakıyor": 5253,
      "resi": 5254,
      "▁zih": 5255,
      "▁kaydedi": 5256,
      "▁yakalandı": 5257,
      "▁donanım": 5258,
      "▁halkla": 5259,
      "▁adi": 5260,
      "▁edip": 5261,
      "▁bekliyordu": 5262,
      "▁gere": 5263,
      "▁yasarken": 5264,
      "▁stone": 5265,
      "▁sen": 5266,
      "▁ız": 5267,
      "▁satısı": 5268,
      "isler": 5269,
      "▁ozellestirme": 5270,
      "▁mudur": 5271,
      "▁im": 5272,
      "ecik": 5273,
      "▁ihr": 5274,
      "maması": 5275,
      "ord": 5276,
      "▁amerikalı": 5277,
      "▁1.90": 5278,
      "av": 5279,
      "▁kusk": 5280,
      "i'nin": 5281,
      "mayan": 5282,
      "▁bun": 5283,
      "yeni": 5284,
      "▁baslarında": 5285,
      "▁cikmadi": 5286,
      "▁alanda": 5287,
      "ersey": 5288,
      "▁tim": 5289,
      "▁kimya": 5290,
      "▁yatırımcının": 5291,
      "ilerinin": 5292,
      "▁iyisi": 5293,
      "▁nokt": 5294,
      "▁baslangıcta": 5295,
      "▁oburleri": 5296,
      "▁basıma": 5297,
      "▁nis": 5298,
      "▁edemedi": 5299,
      "▁korkuyor": 5300,
      "▁sadak": 5301,
      "▁yon": 5302,
      "▁burun": 5303,
      "ilerle": 5304,
      "yım": 5305,
      "lerin": 5306,
      "ica": 5307,
      "▁ongoruyor": 5308,
      "70000": 5309,
      "▁may": 5310,
      "vansiy": 5311,
      "abilirdim": 5312,
      "▁kızdır": 5313,
      "▁bilmez": 5314,
      "▁duzenlemeleri": 5315,
      "dikce": 5316,
      "▁kap": 5317,
      "▁yuvarlak": 5318,
      "▁dost": 5319,
      "▁th": 5320,
      "▁pop": 5321,
      "▁yabancilara": 5322,
      "▁kaydedildi": 5323,
      "▁toren": 5324,
      "▁neh": 5325,
      "92": 5326,
      "▁islemler": 5327,
      "▁kanalı": 5328,
      "▁fer": 5329,
      "▁hor": 5330,
      "masına": 5331,
      "▁icti": 5332,
      "▁inerken": 5333,
      "▁duymuyor": 5334,
      "ilmedi": 5335,
      "win": 5336,
      "liligi": 5337,
      "▁yildi": 5338,
      "▁tacirler": 5339,
      "▁millet": 5340,
      "▁metr": 5341,
      "▁ahmet": 5342,
      "▁mcc": 5343,
      "▁diyalog": 5344,
      "▁kem": 5345,
      "▁iceriyordu": 5346,
      "▁muhendis": 5347,
      "▁ucusların": 5348,
      "▁louis": 5349,
      "▁kafes": 5350,
      "▁muzakere": 5351,
      "▁silik": 5352,
      "▁166.9": 5353,
      "▁bayat": 5354,
      "▁donmeye": 5355,
      "▁edirne": 5356,
      "imini": 5357,
      "ann": 5358,
      "emize": 5359,
      "▁yerlesti": 5360,
      "▁odenmesi": 5361,
      "ıcık": 5362,
      "ade": 5363,
      "ledil": 5364,
      "3": 5365,
      "▁tesekkurler": 5366,
      "ski": 5367,
      "la": 5368,
      "▁tavr": 5369,
      "▁tez": 5370,
      "▁tabur": 5371,
      "▁francisco'da": 5372,
      "▁end": 5373,
      "▁boylece": 5374,
      "▁dedi": 5375,
      "▁neyin": 5376,
      "▁dekorasyon": 5377,
      "▁cıkmaya": 5378,
      "▁dalmıs": 5379,
      "▁aleyhine": 5380,
      "▁altın": 5381,
      "▁bilimi": 5382,
      "▁ort": 5383,
      "gur": 5384,
      "▁yaptım": 5385,
      "eligi": 5386,
      "▁ustlen": 5387,
      "▁dirsek": 5388,
      "▁des": 5389,
      "▁adına": 5390,
      "▁sevinc": 5391,
      "▁beni": 5392,
      "▁anlattık": 5393,
      "▁sakarya": 5394,
      "▁bogazici": 5395,
      "▁bolgede": 5396,
      "▁arttır": 5397,
      "▁yuruyus": 5398,
      "▁tartısma": 5399,
      "▁boyun": 5400,
      "▁fikret": 5401,
      "▁cig": 5402,
      "uyorlardı": 5403,
      "`": 5404,
      "&g": 5405,
      "▁cunku": 5406,
      "▁1982": 5407,
      "oloj": 5408,
      "▁kaynakları": 5409,
      "ectr": 5410,
      "▁begenmedik": 5411,
      "▁keten": 5412,
      "▁beyn": 5413,
      "medi": 5414,
      "emiyordu": 5415,
      "▁4.375": 5416,
      "cide": 5417,
      "▁delik": 5418,
      "▁1949": 5419,
      "lıgı": 5420,
      "▁odun": 5421,
      "▁dallas'tan": 5422,
      "atik": 5423,
      "▁surdu": 5424,
      "▁cog": 5425,
      "▁20.000": 5426,
      "▁yasamaya": 5427,
      "▁oluk": 5428,
      "▁istik": 5429,
      "▁merakla": 5430,
      "mus": 5431,
      "▁oyle": 5432,
      "ber": 5433,
      "▁sin": 5434,
      "▁artısla": 5435,
      "▁lutfen": 5436,
      "▁medeniyet": 5437,
      "71": 5438,
      "▁%18": 5439,
      "▁alır": 5440,
      "▁bic": 5441,
      "alanmıs": 5442,
      "▁kanun": 5443,
      "▁salona": 5444,
      "▁linc": 5445,
      "▁altındaki": 5446,
      "▁programı": 5447,
      "▁sular": 5448,
      "▁birbir": 5449,
      "▁odeme": 5450,
      "▁gecim": 5451,
      "▁alaycı": 5452,
      "▁bilim": 5453,
      "isti": 5454,
      "▁mizah": 5455,
      "▁kızı": 5456,
      "▁gun": 5457,
      "ug": 5458,
      "▁yukarıda": 5459,
      "▁lise": 5460,
      "▁yetkisi": 5461,
      "unuyor": 5462,
      "▁keske": 5463,
      "▁zul": 5464,
      "amadı": 5465,
      "▁anda": 5466,
      "ısını": 5467,
      "▁uydur": 5468,
      "▁gorunce": 5469,
      "▁felaket": 5470,
      "▁did": 5471,
      "▁amcam": 5472,
      "ond": 5473,
      "▁etmisti": 5474,
      "sap": 5475,
      "▁yaptıgım": 5476,
      "memis": 5477,
      "▁nobet": 5478,
      "▁kullandı": 5479,
      "▁yandan": 5480,
      "▁kurdugu": 5481,
      "▁anlattım": 5482,
      "▁teknede": 5483,
      "▁cektir": 5484,
      "▁hastalık": 5485,
      "▁adım": 5486,
      "sis": 5487,
      "▁hediye": 5488,
      "▁sotheb": 5489,
      "▁dibinde": 5490,
      "▁hın": 5491,
      "▁bunları": 5492,
      "▁3.69": 5493,
      "▁hicbir": 5494,
      "▁kileri": 5495,
      "medim": 5496,
      "▁ydınız": 5497,
      "▁tutuldu": 5498,
      "▁deplas": 5499,
      "▁aldat": 5500,
      "ksen": 5501,
      "lıg": 5502,
      "len": 5503,
      "dr": 5504,
      "▁vurarak": 5505,
      "▁tutarlı": 5506,
      "▁uzat": 5507,
      "▁yaptık": 5508,
      "ırtı": 5509,
      "▁avustralya": 5510,
      "1.7": 5511,
      "▁k": 5512,
      "yasal": 5513,
      "▁elli": 5514,
      "▁3.13": 5515,
      "24": 5516,
      "▁jet": 5517,
      "bon": 5518,
      "▁esen": 5519,
      "▁verdigimiz": 5520,
      "▁mekaniz": 5521,
      "▁isleminin": 5522,
      "▁2010": 5523,
      "▁kredisi": 5524,
      "wa": 5525,
      "▁eglenceli": 5526,
      "▁uns": 5527,
      "▁buluyor": 5528,
      "danoz": 5529,
      "tıklarını": 5530,
      "▁fabrika": 5531,
      "▁noktası": 5532,
      "▁ajans": 5533,
      "▁temizlik": 5534,
      "▁gidiyor": 5535,
      "▁pencer": 5536,
      "▁muster": 5537,
      "uklu": 5538,
      "▁olabilecegini": 5539,
      "▁derecelendir": 5540,
      "▁ogretmeni": 5541,
      "▁olusturul": 5542,
      "▁oncu": 5543,
      "ansiyon": 5544,
      "6.6": 5545,
      "▁1.63": 5546,
      "▁olas": 5547,
      "▁yolları": 5548,
      "▁anlatım": 5549,
      "dar": 5550,
      "livan": 5551,
      "sik": 5552,
      "▁oburu": 5553,
      "▁tuken": 5554,
      "▁ulastırma": 5555,
      "▁sert": 5556,
      "▁stand": 5557,
      "▁evren": 5558,
      "▁kık": 5559,
      "▁krem": 5560,
      "▁900": 5561,
      "▁tramv": 5562,
      "▁gununde": 5563,
      "▁yasamı": 5564,
      "▁yut": 5565,
      "▁der": 5566,
      "▁diyet": 5567,
      "▁0.31": 5568,
      "'u": 5569,
      "▁hastanın": 5570,
      "▁huy": 5571,
      "▁oylece": 5572,
      "▁yedigim": 5573,
      "cuya": 5574,
      "▁ikisinin": 5575,
      "▁dinin": 5576,
      "▁she": 5577,
      "▁tehdidi": 5578,
      "ika": 5579,
      "ladıgını": 5580,
      "▁edilm": 5581,
      "▁diy": 5582,
      "acaktı": 5583,
      "▁bebek": 5584,
      "leyici": 5585,
      "▁car": 5586,
      "▁bany": 5587,
      "▁arkasına": 5588,
      "▁animasyon": 5589,
      "▁muhaseb": 5590,
      "▁elden": 5591,
      "▁topu": 5592,
      "ektr": 5593,
      "▁arabası": 5594,
      "▁pent": 5595,
      "mız": 5596,
      "▁paya": 5597,
      "lere": 5598,
      "▁harman": 5599,
      "▁kadi": 5600,
      "▁inkıl": 5601,
      "▁dısındaki": 5602,
      "▁montreal": 5603,
      "▁suz": 5604,
      "▁dovus": 5605,
      "don": 5606,
      "▁mahs": 5607,
      "▁fıldır": 5608,
      "▁renkleri": 5609,
      "▁sahada": 5610,
      "▁zer": 5611,
      "me": 5612,
      "▁$'a": 5613,
      "▁de": 5614,
      "▁kaynak": 5615,
      "▁bedel": 5616,
      "▁ontario": 5617,
      "▁manhattan": 5618,
      "ırıl": 5619,
      "▁saga": 5620,
      "▁hi": 5621,
      "▁viy": 5622,
      "lılıgı": 5623,
      "▁ihtilal": 5624,
      "▁kalabalık": 5625,
      "▁degerlendirmeye": 5626,
      "▁pınar": 5627,
      "▁olanaklari": 5628,
      "lıga": 5629,
      "▁zev": 5630,
      "▁naz": 5631,
      "wood": 5632,
      "▁uygulan": 5633,
      "▁mit": 5634,
      "tone": 5635,
      "▁muhendislik": 5636,
      "▁aylardır": 5637,
      "▁tesekkur": 5638,
      "▁ekip": 5639,
      "▁cikol": 5640,
      "▁gomle": 5641,
      "▁abd'ye": 5642,
      "t": 5643,
      "nak": 5644,
      "▁kirp": 5645,
      "▁buna": 5646,
      "▁kırım": 5647,
      "▁zeynep": 5648,
      "▁babasından": 5649,
      "unce": 5650,
      "▁mask": 5651,
      "lama": 5652,
      "beri": 5653,
      "vi": 5654,
      "0.": 5655,
      "▁minneapolis": 5656,
      "▁1990": 5657,
      "eliler": 5658,
      "tadır": 5659,
      "▁saatinde": 5660,
      "anco": 5661,
      "ucunun": 5662,
      "ım": 5663,
      "▁yavasti": 5664,
      "▁kalab": 5665,
      "▁agacları": 5666,
      "▁etmeyecegini": 5667,
      "▁muslum": 5668,
      "/8'e": 5669,
      "▁faturami": 5670,
      "▁yanıma": 5671,
      "▁yaglı": 5672,
      "sızın": 5673,
      "mail": 5674,
      "abildi": 5675,
      "▁alınır": 5676,
      "▁anı": 5677,
      "▁erkeklerin": 5678,
      "vili": 5679,
      "▁ucret": 5680,
      "▁musterileri": 5681,
      "▁dikkate": 5682,
      "▁bulundugunu": 5683,
      "araj": 5684,
      "osy": 5685,
      "▁telafi": 5686,
      "▁oglan": 5687,
      "▁benimle": 5688,
      "▁siz": 5689,
      "▁1.4": 5690,
      "▁koleksiyon": 5691,
      "ick": 5692,
      "so": 5693,
      "▁int": 5694,
      "▁kollarını": 5695,
      "▁yudum": 5696,
      "▁sırtında": 5697,
      "▁kayısı": 5698,
      "distan": 5699,
      "▁1.27": 5700,
      "manı": 5701,
      "▁emekli": 5702,
      "▁pen": 5703,
      "eveyn": 5704,
      "acagından": 5705,
      "▁deme": 5706,
      "▁222": 5707,
      "▁acaktı": 5708,
      "▁ucmak": 5709,
      "▁yonetimin": 5710,
      "▁zafer": 5711,
      "ekul": 5712,
      "▁51": 5713,
      "▁olacagı": 5714,
      "▁video": 5715,
      "▁gecirecek": 5716,
      "mayı": 5717,
      "▁ayrın": 5718,
      "▁gumruk": 5719,
      "▁analistler": 5720,
      "sak": 5721,
      "▁okulları": 5722,
      "▁st.": 5723,
      "▁giz": 5724,
      "▁daya": 5725,
      "▁konuma": 5726,
      "▁onunde": 5727,
      "▁imkb": 5728,
      "al'ın": 5729,
      "▁indianapolis'e": 5730,
      "▁key": 5731,
      "▁hızını": 5732,
      "▁olmamıs": 5733,
      "▁kafasını": 5734,
      "▁cir": 5735,
      "nun": 5736,
      "eyebilir": 5737,
      "▁yetmi": 5738,
      "▁1977": 5739,
      "▁andır": 5740,
      "▁hayattan": 5741,
      "▁u.s.": 5742,
      "▁istiyoruz": 5743,
      "age": 5744,
      "aladı": 5745,
      "▁otuz": 5746,
      "▁kalmadı": 5747,
      "▁calısmak": 5748,
      "▁yedek": 5749,
      "▁yengec": 5750,
      "▁degeri": 5751,
      "unuz": 5752,
      "▁satıcı": 5753,
      "▁apple": 5754,
      "'e": 5755,
      "salar": 5756,
      "aklı": 5757,
      "▁inc.,": 5758,
      "▁bush": 5759,
      "▁direnis": 5760,
      "▁normaldi": 5761,
      "▁8.59": 5762,
      "▁1968": 5763,
      "▁insallah": 5764,
      "▁temizlikte": 5765,
      "▁degildir": 5766,
      "▁ortalıkta": 5767,
      "▁dergileri": 5768,
      "▁cos": 5769,
      "▁ceph": 5770,
      "▁2600": 5771,
      "▁cember": 5772,
      "9.3": 5773,
      "ayacak": 5774,
      "▁ayda": 5775,
      "▁gurult": 5776,
      "tc": 5777,
      "▁maharet": 5778,
      "▁adnan": 5779,
      "▁toplar": 5780,
      "▁mav": 5781,
      "▁mid": 5782,
      ".73": 5783,
      "▁belirtir": 5784,
      "iyorlardi": 5785,
      "▁gorunen": 5786,
      "▁fıstık": 5787,
      "▁akıyor": 5788,
      "▁ayrım": 5789,
      "▁brown": 5790,
      "▁bahseder": 5791,
      "elle": 5792,
      "▁kalıcı": 5793,
      "▁sanız": 5794,
      "▁taklit": 5795,
      "ahmet": 5796,
      "▁mesut": 5797,
      "isyon": 5798,
      "▁yuksekti": 5799,
      "▁yap": 5800,
      "▁tenis": 5801,
      "▁yapıyordu": 5802,
      "▁sarımsak": 5803,
      "▁kadınların": 5804,
      "▁mutlu": 5805,
      "▁tehdi": 5806,
      "▁merkezli": 5807,
      "▁planı": 5808,
      "▁fakult": 5809,
      "▁istihbar": 5810,
      "▁ayagını": 5811,
      "▁len": 5812,
      "▁cıkarıl": 5813,
      "▁birimidir": 5814,
      "mem": 5815,
      "▁sokaktan": 5816,
      "▁yemeklerde": 5817,
      "zin": 5818,
      "▁nitelik": 5819,
      "▁kullanılan": 5820,
      "▁belirt": 5821,
      "▁gozden": 5822,
      "fet": 5823,
      "mamıs": 5824,
      "▁eminim": 5825,
      "▁kosulları": 5826,
      "amadık": 5827,
      "▁hac": 5828,
      "▁askı": 5829,
      "▁kabuk": 5830,
      "▁8": 5831,
      "sen": 5832,
      "▁aradilar": 5833,
      "▁fakir": 5834,
      "▁koye": 5835,
      "▁acıklayan": 5836,
      "▁surucu": 5837,
      "▁koylu": 5838,
      "▁karsılastık": 5839,
      "le": 5840,
      "likte": 5841,
      "lasın": 5842,
      "▁olgun": 5843,
      "▁huseyin": 5844,
      "4.1": 5845,
      "umde": 5846,
      "▁ozer": 5847,
      "▁serbet": 5848,
      "▁dumduz": 5849,
      "ley": 5850,
      "▁ongoru": 5851,
      "▁zan": 5852,
      "▁aylarında": 5853,
      "▁dunyası": 5854,
      "gune": 5855,
      "▁ven": 5856,
      "▁islemlerine": 5857,
      "▁dogrudan": 5858,
      "▁soyun": 5859,
      "▁kıl": 5860,
      "mik": 5861,
      "▁donmek": 5862,
      "▁takımı": 5863,
      "▁arkadan": 5864,
      "likle": 5865,
      "toru": 5866,
      "▁kart": 5867,
      "▁tıpkı": 5868,
      "isin": 5869,
      "▁lezzetsizdi": 5870,
      "▁yonlu": 5871,
      "▁buhran": 5872,
      "▁bat": 5873,
      ".4": 5874,
      "besyuz": 5875,
      "▁tov": 5876,
      "▁tatili": 5877,
      "▁yardimci": 5878,
      "▁8.7": 5879,
      "▁kayg": 5880,
      "▁yıgılmıs": 5881,
      "▁bakmıs": 5882,
      "kei": 5883,
      "ile": 5884,
      "sever": 5885,
      "▁sıgır": 5886,
      "▁yapacagını": 5887,
      "ıllı": 5888,
      "▁devletin": 5889,
      "▁devasa": 5890,
      "▁mul": 5891,
      "▁yaptıg": 5892,
      "▁%2": 5893,
      "▁salomon": 5894,
      "▁trilyon": 5895,
      "▁temettu": 5896,
      "▁onbir": 5897,
      "▁hanimdi": 5898,
      "▁zırt": 5899,
      "▁ikibinuc": 5900,
      "▁bakalım": 5901,
      "egini": 5902,
      "▁sunuz": 5903,
      "▁fasulyesi": 5904,
      "▁hazret": 5905,
      "▁kiral": 5906,
      "▁etrafı": 5907,
      "d": 5908,
      "▁bırakan": 5909,
      "▁hizmetler": 5910,
      "▁mus": 5911,
      "▁vir": 5912,
      "▁nissan": 5913,
      "▁konuda": 5914,
      "▁gecin": 5915,
      "adar": 5916,
      "elim": 5917,
      "▁eksik": 5918,
      "▁camasır": 5919,
      "▁seattle'den": 5920,
      "▁lezzetleri": 5921,
      "▁yetiskin": 5922,
      "▁tasv": 5923,
      "▁degismez": 5924,
      "layın": 5925,
      "▁bitmis": 5926,
      "enin": 5927,
      "▁uyum": 5928,
      "▁demis": 5929,
      "▁vucud": 5930,
      "▁korudu": 5931,
      "▁cıkmıs": 5932,
      "▁yanık": 5933,
      "▁elini": 5934,
      "▁sinan": 5935,
      "▁surdurdu": 5936,
      "▁hayatımız": 5937,
      "lop": 5938,
      "▁hane": 5939,
      "▁depremden": 5940,
      "ıyı": 5941,
      "▁benziyordu": 5942,
      "▁bekledi": 5943,
      "▁yola": 5944,
      "▁yemege": 5945,
      "▁trt": 5946,
      "ayi": 5947,
      "eginin": 5948,
      "▁hindistan'ın": 5949,
      "▁niz": 5950,
      "▁deyim": 5951,
      "▁dolma": 5952,
      "▁ilham": 5953,
      "anla": 5954,
      "eyici": 5955,
      "▁vardı": 5956,
      "▁aran": 5957,
      "▁gorul": 5958,
      "▁yuregi": 5959,
      "▁eksikti": 5960,
      "▁soylemis": 5961,
      "▁idari": 5962,
      "▁stock": 5963,
      "▁karal": 5964,
      "▁eder": 5965,
      "abiliyor": 5966,
      "▁geregi": 5967,
      ".05": 5968,
      "▁whit": 5969,
      "▁kurtulur": 5970,
      "▁fen": 5971,
      "▁bilmiyordu": 5972,
      "▁havaliman": 5973,
      "▁102": 5974,
      "▁getirilerinin": 5975,
      "▁hissedarlar": 5976,
      "▁ustu": 5977,
      "▁yatırım": 5978,
      "umuzu": 5979,
      "▁alısver": 5980,
      "▁seftali": 5981,
      "▁gecmeye": 5982,
      "▁ceylan": 5983,
      "elidir": 5984,
      "agım": 5985,
      "▁gezi": 5986,
      "cın": 5987,
      "▁pemex": 5988,
      "▁gazetenin": 5989,
      "olojik": 5990,
      "▁imkansız": 5991,
      "▁5000": 5992,
      "▁dalgın": 5993,
      "antep": 5994,
      "▁hanım'ın": 5995,
      "1.3": 5996,
      "▁%6.9": 5997,
      "▁elem": 5998,
      "▁vesik": 5999,
      "▁tr": 6000,
      "ınızı": 6001,
      "▁koskun": 6002,
      "likten": 6003,
      "▁amator": 6004,
      "▁fıkır": 6005,
      "▁gorev": 6006,
      "0": 6007,
      "▁dusmanı": 6008,
      "°": 6009,
      "▁topar": 6010,
      "▁aylar": 6011,
      "▁katilmak": 6012,
      "▁cın": 6013,
      "▁bini": 6014,
      "’": 6015,
      "▁aktif": 6016,
      "▁kucuk": 6017,
      "▁muhafız": 6018,
      "tex": 6019,
      "▁%7.875": 6020,
      "▁sekil": 6021,
      "mektedir": 6022,
      "▁baker": 6023,
      "▁ustundeki": 6024,
      "cog": 6025,
      "▁rahatsızlık": 6026,
      "iyi": 6027,
      "▁surdurmek": 6028,
      "▁numarasını": 6029,
      "▁sat": 6030,
      "▁dolasır": 6031,
      "▁olayda": 6032,
      "▁olume": 6033,
      "▁zem": 6034,
      "abilecegi": 6035,
      "▁agar": 6036,
      "▁sizinle": 6037,
      "▁teker": 6038,
      "▁aldan": 6039,
      "day": 6040,
      "tigi": 6041,
      "▁fonu": 6042,
      "▁seyleri": 6043,
      "▁guldu": 6044,
      "▁7.2": 6045,
      "▁takımının": 6046,
      "adi": 6047,
      "▁eksi": 6048,
      "▁edilmistir": 6049,
      "▁kendimden": 6050,
      "▁sessiz": 6051,
      "elleb": 6052,
      "▁sesi": 6053,
      "▁gecit": 6054,
      "▁olc": 6055,
      "▁romanı": 6056,
      "▁karları": 6057,
      "▁tahvilleri": 6058,
      "▁istifade": 6059,
      "▁hadis": 6060,
      "▁ailece": 6061,
      "lası": 6062,
      "▁kutuk": 6063,
      "▁bakarak": 6064,
      "▁hıckır": 6065,
      "▁es": 6066,
      "▁soylenen": 6067,
      "▁milyondan": 6068,
      "▁birligi": 6069,
      "▁hosgor": 6070,
      ".0": 6071,
      "mi": 6072,
      "▁hafız": 6073,
      "▁paralel": 6074,
      "▁doy": 6075,
      "▁yusu": 6076,
      "▁tuh": 6077,
      "▁bunu": 6078,
      "▁taleb": 6079,
      "▁gunlerin": 6080,
      "▁yazıya": 6081,
      "▁dısisleri": 6082,
      "▁kib": 6083,
      "▁ok": 6084,
      "▁fazl": 6085,
      "▁oldum": 6086,
      "attı": 6087,
      "▁louis'ten": 6088,
      "▁donen": 6089,
      "▁zamanında": 6090,
      "▁piyan": 6091,
      "▁fok": 6092,
      "usa": 6093,
      "▁internet": 6094,
      "▁isy": 6095,
      "▁jand": 6096,
      "acagım": 6097,
      "▁soyluyordu": 6098,
      "ıldım": 6099,
      "▁asılı": 6100,
      "▁viski": 6101,
      "▁kıran": 6102,
      "▁kıvıl": 6103,
      "▁vadesi": 6104,
      "▁azından": 6105,
      "raj": 6106,
      "▁miss": 6107,
      "▁hasar": 6108,
      "avuz": 6109,
      "▁kızar": 6110,
      "▁olanların": 6111,
      "aguar": 6112,
      "▁cagdas": 6113,
      "▁efsan": 6114,
      "▁kul": 6115,
      "▁ilk": 6116,
      "▁korun": 6117,
      "▁badem": 6118,
      ".09": 6119,
      "▁liradan": 6120,
      "▁ogrendi": 6121,
      "▁hey": 6122,
      "▁ayaz": 6123,
      "▁oldu": 6124,
      "▁yır": 6125,
      "▁yamalak": 6126,
      "igim": 6127,
      "▁ere": 6128,
      "▁associ": 6129,
      "\\/8'e": 6130,
      "▁anadolu'da": 6131,
      "adir": 6132,
      "▁atar": 6133,
      "▁haberdar": 6134,
      "▁uykuya": 6135,
      "▁havanın": 6136,
      "ligim": 6137,
      "▁surdugu": 6138,
      "▁baklav": 6139,
      "-t": 6140,
      "duk": 6141,
      "▁musait": 6142,
      "▁gelisi": 6143,
      "ayıp": 6144,
      "▁yonelt": 6145,
      "▁felsefe": 6146,
      "isten": 6147,
      "1.2": 6148,
      "▁banka": 6149,
      "▁bakın": 6150,
      "▁cesaretini": 6151,
      "lesine": 6152,
      "▁sevgili": 6153,
      "▁go": 6154,
      "diven": 6155,
      "▁3135": 6156,
      "▁borsası": 6157,
      "▁eczacı": 6158,
      "30'dan": 6159,
      "▁davanın": 6160,
      "▁parasını": 6161,
      "cuları": 6162,
      "'ye": 6163,
      "▁aksamki": 6164,
      "▁olmadan": 6165,
      "▁list": 6166,
      "▁gecik": 6167,
      "▁yasadigim": 6168,
      "▁hastaneye": 6169,
      "▁dondu": 6170,
      "▁lunapark": 6171,
      "▁hasarı": 6172,
      "▁sanayi": 6173,
      "l": 6174,
      "▁kıp": 6175,
      "endi": 6176,
      "▁taksi": 6177,
      "▁amel": 6178,
      "▁otomobiller": 6179,
      "▁hukumete": 6180,
      "▁iyimser": 6181,
      "inson": 6182,
      "▁lond": 6183,
      "▁tarihi": 6184,
      "▁fırladı": 6185,
      "leyi": 6186,
      "▁uzaklastır": 6187,
      "▁19.7": 6188,
      "▁ayak": 6189,
      "▁domuz": 6190,
      "bar": 6191,
      "▁ille": 6192,
      "usunun": 6193,
      "▁getirin": 6194,
      "▁muttefik": 6195,
      "▁gorme": 6196,
      "cisi": 6197,
      "▁tarlayı": 6198,
      "▁istiyor": 6199,
      "▁yalvar": 6200,
      "▁sınırlarını": 6201,
      "ılması": 6202,
      "▁secim": 6203,
      "54": 6204,
      "▁jose'den": 6205,
      "▁yuce": 6206,
      "▁simsek": 6207,
      "▁tım": 6208,
      ".66": 6209,
      "▁ikibiniki": 6210,
      "▁ulk": 6211,
      "lamasını": 6212,
      "\\/32": 6213,
      "▁188": 6214,
      "▁musterilere": 6215,
      "▁sevdigi": 6216,
      "▁restor": 6217,
      "▁antik": 6218,
      "▁gorusmedik": 6219,
      "to": 6220,
      "▁telas": 6221,
      "usu": 6222,
      "mis": 6223,
      "▁ihtiyat": 6224,
      "alar": 6225,
      "▁taban": 6226,
      "▁miktarda": 6227,
      "esi'nin": 6228,
      "▁columbus'a": 6229,
      "▁karaya": 6230,
      "▁garanti": 6231,
      "▁uc": 6232,
      "▁kalmamıstı": 6233,
      "▁cıkarmak": 6234,
      "▁degisiklik": 6235,
      "▁sut": 6236,
      "▁kanser": 6237,
      "▁alıcılar": 6238,
      "▁sınıf": 6239,
      "▁olmaktan": 6240,
      "▁kalmaya": 6241,
      "ulugun": 6242,
      "▁bildik": 6243,
      "▁gorduk": 6244,
      "esif": 6245,
      "▁kasabaya": 6246,
      "▁kurek": 6247,
      ".06": 6248,
      "▁kargo": 6249,
      "ova": 6250,
      "▁gecirdik": 6251,
      "cik": 6252,
      "anti": 6253,
      "▁konusmak": 6254,
      "▁silk": 6255,
      "▁abd": 6256,
      "ınıyor": 6257,
      "taydı": 6258,
      "▁ken": 6259,
      "eph": 6260,
      "▁oynar": 6261,
      "26": 6262,
      "iki": 6263,
      "▁mıyız": 6264,
      "▁gormezden": 6265,
      "▁keser": 6266,
      "▁cabası": 6267,
      "▁sinek": 6268,
      "▁heves": 6269,
      "▁miydik": 6270,
      "cılı": 6271,
      "nu": 6272,
      "▁yılı": 6273,
      "▁hemen": 6274,
      "▁cat": 6275,
      "▁komunist": 6276,
      "▁kucums": 6277,
      "▁fat": 6278,
      "▁parkın": 6279,
      "▁143": 6280,
      "9:": 6281,
      "▁cav": 6282,
      "▁10000": 6283,
      "▁arka": 6284,
      "dıgına": 6285,
      "▁hazırlanır": 6286,
      "▁130": 6287,
      "▁2.": 6288,
      "▁olumune": 6289,
      "▁meydan": 6290,
      "▁olurdum": 6291,
      "▁yazıl": 6292,
      "▁geldim": 6293,
      "gage": 6294,
      "▁tulum": 6295,
      "▁acik": 6296,
      "▁petersburg": 6297,
      "▁bunca": 6298,
      "▁edecekti": 6299,
      "▁tın": 6300,
      "▁17.01": 6301,
      "▁istanbul'un": 6302,
      "▁getiriyor": 6303,
      "▁baskanı": 6304,
      "▁donuyor": 6305,
      "va": 6306,
      "▁campeau": 6307,
      "▁26": 6308,
      "▁...": 6309,
      "▁olcek": 6310,
      "▁6.5": 6311,
      "mislerdi": 6312,
      "▁bulgur": 6313,
      "lemesine": 6314,
      "▁70": 6315,
      "▁parca": 6316,
      "▁bi": 6317,
      "maktadırlar": 6318,
      "▁menek": 6319,
      "▁corp.": 6320,
      "▁nok": 6321,
      "▁rady": 6322,
      "ilmisti": 6323,
      "▁hekim": 6324,
      "▁cebinden": 6325,
      "▁susuz": 6326,
      "▁pik": 6327,
      "▁kurtarma": 6328,
      "99": 6329,
      "afet": 6330,
      "▁memnuniyeti": 6331,
      "▁besik": 6332,
      "▁nazaran": 6333,
      "ente": 6334,
      "▁kendinin": 6335,
      "akları": 6336,
      "▁firmalar": 6337,
      "em": 6338,
      "▁3640": 6339,
      "eligine": 6340,
      "▁15000": 6341,
      "▁newark": 6342,
      "liyordu": 6343,
      "▁43.3": 6344,
      "▁sonra": 6345,
      "▁bulunmak": 6346,
      "▁reklamları": 6347,
      "▁pismis": 6348,
      "▁li": 6349,
      "▁1200": 6350,
      "▁iyilerdi": 6351,
      "▁ogrenc": 6352,
      "▁fındık": 6353,
      "▁gordu": 6354,
      "▁minne": 6355,
      "▁paris'te": 6356,
      ".625": 6357,
      "▁fenerbah": 6358,
      "▁meseleler": 6359,
      "adet": 6360,
      "▁alındı": 6361,
      "▁yerine": 6362,
      "▁orijinal": 6363,
      "▁'l": 6364,
      "▁tesaduf": 6365,
      "▁sıkıntısı": 6366,
      "▁maruz": 6367,
      "▁borsacılara": 6368,
      "▁kavg": 6369,
      "▁endi": 6370,
      "▁cambaz": 6371,
      "▁kahkaha": 6372,
      "▁esdeger": 6373,
      "▁odada": 6374,
      "mıyordu": 6375,
      "▁cevresel": 6376,
      "▁yeryuz": 6377,
      "var": 6378,
      "▁county": 6379,
      "egen": 6380,
      "▁lezzeti": 6381,
      "▁si": 6382,
      "▁sermaye": 6383,
      "▁poy": 6384,
      "▁parıl": 6385,
      "▁derdi": 6386,
      "▁lamb": 6387,
      "▁demokrat": 6388,
      "▁paranin": 6389,
      "▁dolas": 6390,
      "▁home": 6391,
      "8.2": 6392,
      "▁sorunlarına": 6393,
      "etini": 6394,
      "burgh": 6395,
      "▁yuksek": 6396,
      "▁verecegim": 6397,
      "▁vergil": 6398,
      "▁milyona": 6399,
      "0.5": 6400,
      "▁mevsim": 6401,
      "▁500'u": 6402,
      "▁basıyor": 6403,
      "▁mez": 6404,
      "▁kabak": 6405,
      "tu": 6406,
      "▁ucyuzyetmisbir": 6407,
      ".49": 6408,
      "▁plas": 6409,
      "ıda": 6410,
      "rını": 6411,
      "uldu": 6412,
      "▁konusmanın": 6413,
      "isiniz": 6414,
      "taki": 6415,
      "▁peters": 6416,
      "▁vil": 6417,
      "▁halk": 6418,
      "▁bakıma": 6419,
      "▁deneme": 6420,
      "caktır": 6421,
      "at": 6422,
      "▁yoneten": 6423,
      "▁kutup": 6424,
      "▁cırpın": 6425,
      "▁jo": 6426,
      "▁baktıg": 6427,
      "▁297": 6428,
      "6'ya": 6429,
      "▁buf": 6430,
      "▁otom": 6431,
      "▁modern": 6432,
      "adel": 6433,
      "▁newark'tan": 6434,
      "▁turb": 6435,
      "▁tatilimiz": 6436,
      "deki": 6437,
      "▁pisman": 6438,
      "rken": 6439,
      "▁zarar": 6440,
      "▁kanıt": 6441,
      "▁04": 6442,
      "9.5": 6443,
      "zi": 6444,
      "▁yetki": 6445,
      "▁caf": 6446,
      "▁isciler": 6447,
      "onun": 6448,
      "▁kapı": 6449,
      "▁bran": 6450,
      "▁francisco'dan": 6451,
      "▁goturuyor": 6452,
      "unde": 6453,
      "▁yıl": 6454,
      "▁siir": 6455,
      "▁gittigim": 6456,
      "mann": 6457,
      "ino": 6458,
      "▁asfalt": 6459,
      "liginin": 6460,
      "▁gosterg": 6461,
      "▁buldular": 6462,
      "[PAD]": 6463,
      "ales": 6464,
      "▁carsaf": 6465,
      "▁550": 6466,
      "▁sarsın": 6467,
      "▁rit": 6468,
      "▁sistemini": 6469,
      "▁ener": 6470,
      "▁evleri": 6471,
      "▁geyik": 6472,
      "▁arkadasını": 6473,
      "▁parayı": 6474,
      "3.5": 6475,
      "anı": 6476,
      "▁belirsiz": 6477,
      "▁mavi": 6478,
      "madım": 6479,
      "▁milyonlarca": 6480,
      "▁alan": 6481,
      "▁bilg": 6482,
      "raf": 6483,
      "▁1988'de": 6484,
      "▁guvertede": 6485,
      "ekk": 6486,
      "▁bolgesinde": 6487,
      "▁annesi": 6488,
      "▁sız": 6489,
      "▁yaradı": 6490,
      "▁long": 6491,
      "asından": 6492,
      "5'e": 6493,
      "▁satılık": 6494,
      "▁ilginc": 6495,
      "tibat": 6496,
      "▁philadelphia": 6497,
      "bay": 6498,
      "▁planda": 6499,
      "ment": 6500,
      "▁coktan": 6501,
      "▁dolandır": 6502,
      "▁yaptır": 6503,
      "▁macer": 6504,
      "han": 6505,
      "▁rum": 6506,
      "mec": 6507,
      "▁tesh": 6508,
      "ilmesine": 6509,
      "▁kulub": 6510,
      "145": 6511,
      "▁sectik": 6512,
      "▁populer": 6513,
      "▁dustuk": 6514,
      "▁imkan": 6515,
      "▁pahalı": 6516,
      "ikli": 6517,
      "▁lee": 6518,
      "▁halbu": 6519,
      "▁tamir": 6520,
      "▁munaseb": 6521,
      "▁hoca": 6522,
      "▁kil": 6523,
      "▁kabugu": 6524,
      "▁nobetci": 6525,
      "▁konak": 6526,
      "▁yukselirken": 6527,
      "abilirsiniz": 6528,
      "▁cekmec": 6529,
      "▁5.94": 6530,
      "▁yoz": 6531,
      "▁bizleri": 6532,
      "▁ses": 6533,
      "▁basını": 6534,
      "▁10.3": 6535,
      "▁tep": 6536,
      "▁re": 6537,
      "▁bizimle": 6538,
      "▁salonu": 6539,
      "▁bicimi": 6540,
      "▁yurudu": 6541,
      "▁prebon": 6542,
      "'y": 6543,
      "▁anlasmanın": 6544,
      "▁hayv": 6545,
      "emis": 6546,
      "▁giyim": 6547,
      "▁suresince": 6548,
      "luyor": 6549,
      "▁disk": 6550,
      "▁'de": 6551,
      "yn": 6552,
      "esil": 6553,
      "▁kalanlar": 6554,
      "▁aykırı": 6555,
      "▁mal": 6556,
      "▁tutuk": 6557,
      "▁yasamını": 6558,
      "▁kapital": 6559,
      "▁makineler": 6560,
      "▁tucc": 6561,
      "ut": 6562,
      "ederek": 6563,
      "▁kagıdı": 6564,
      "▁surecin": 6565,
      "▁63.52": 6566,
      "alıyor": 6567,
      "▁koprunun": 6568,
      "▁musluman": 6569,
      "muz": 6570,
      "▁sesler": 6571,
      "▁bazılarını": 6572,
      "▁sıngır": 6573,
      "'nun": 6574,
      "▁divan": 6575,
      "irmi": 6576,
      "▁l": 6577,
      "▁yonlendirdi": 6578,
      "▁kararsizim": 6579,
      "▁sayesinde": 6580,
      "lanın": 6581,
      "▁gormus": 6582,
      "onik": 6583,
      "▁oynamıs": 6584,
      "▁aktiviteler": 6585,
      "▁soyleyebilir": 6586,
      ".30": 6587,
      "▁geliyordu": 6588,
      "▁nicin": 6589,
      "▁evr": 6590,
      "▁dusunmek": 6591,
      "lay": 6592,
      "▁mech": 6593,
      "▁dıs": 6594,
      "▁yazısı": 6595,
      "▁hayvanlar": 6596,
      "▁cik": 6597,
      "▁toreni": 6598,
      "osa": 6599,
      "▁kısacası": 6600,
      "▁kanunu": 6601,
      "▁etmektedir": 6602,
      "▁tedbir": 6603,
      "▁haziran": 6604,
      "▁ucer": 6605,
      "▁yaratıcı": 6606,
      "▁tabidir": 6607,
      "▁damla": 6608,
      "▁cekic": 6609,
      "▁evine": 6610,
      "▁bilgilendir": 6611,
      "▁sirketlerini": 6612,
      "▁tuketici": 6613,
      "▁mec": 6614,
      "▁girince": 6615,
      "▁nesn": 6616,
      "sinde": 6617,
      "▁olmadıgına": 6618,
      "▁ucretini": 6619,
      "arda": 6620,
      "▁materyal": 6621,
      "▁arsız": 6622,
      "▁dolasıyor": 6623,
      "▁annesine": 6624,
      "▁bagırsak": 6625,
      "ılıyor": 6626,
      "ackard": 6627,
      "▁steph": 6628,
      "▁87.5": 6629,
      "▁verirler": 6630,
      "▁dis": 6631,
      "▁butce": 6632,
      "▁anlamıyla": 6633,
      "▁usulca": 6634,
      "▁refah": 6635,
      "▁v": 6636,
      "sınız": 6637,
      "▁kurulunun": 6638,
      "▁tarife": 6639,
      "▁bulas": 6640,
      "▁ciddiye": 6641,
      "▁pitt": 6642,
      "▁1.375": 6643,
      "▁fransa'da": 6644,
      "emizde": 6645,
      "▁australia": 6646,
      "▁oldugunuzu": 6647,
      "eksiyon": 6648,
      "▁deg": 6649,
      "kelam": 6650,
      "▁filan": 6651,
      "▁bolumunun": 6652,
      "▁yaklasık": 6653,
      "▁korku": 6654,
      "▁kimsen": 6655,
      "▁surecinde": 6656,
      "▁getirmisti": 6657,
      "▁tey": 6658,
      "▁pot": 6659,
      "lam": 6660,
      "enmis": 6661,
      "apark": 6662,
      "▁gevset": 6663,
      "▁12.6": 6664,
      "▁sizlere": 6665,
      "▁cost": 6666,
      "▁a.b.d.": 6667,
      "▁acakt": 6668,
      "▁birimize": 6669,
      "elerine": 6670,
      "▁montreal'dan": 6671,
      "▁1.8": 6672,
      "erek": 6673,
      "▁comert": 6674,
      "▁otomatik": 6675,
      "▁holly": 6676,
      "▁sirket": 6677,
      "▁aleyh": 6678,
      "▁vadesiz": 6679,
      "▁olamaz": 6680,
      "▁personellerden": 6681,
      "▁milliyet": 6682,
      "▁tuccarlar": 6683,
      "▁tabiat": 6684,
      "5'te": 6685,
      "▁giderim": 6686,
      "▁edilmektedir": 6687,
      "▁karsısındaki": 6688,
      "per": 6689,
      "ems": 6690,
      "▁89-": 6691,
      "▁sit": 6692,
      "▁gum": 6693,
      "▁oynuyor": 6694,
      ".81": 6695,
      "▁...\"": 6696,
      "▁teklif": 6697,
      "▁yetkilisi": 6698,
      "▁cozum": 6699,
      "▁bencil": 6700,
      "▁4:30": 6701,
      "▁belirley": 6702,
      "▁kapas": 6703,
      "▁bitmisti": 6704,
      "▁gelince": 6705,
      "▁yavas": 6706,
      "▁7.9": 6707,
      "▁yitir": 6708,
      "▁turuna": 6709,
      "▁ekonomisi": 6710,
      "▁hut": 6711,
      "▁dudak": 6712,
      "akende": 6713,
      "▁karam": 6714,
      "▁ucmam": 6715,
      "▁dusuyor": 6716,
      "▁duyul": 6717,
      "ıksız": 6718,
      "▁kef": 6719,
      "▁quebec": 6720,
      "▁cihan": 6721,
      "▁birin": 6722,
      "mistik": 6723,
      "▁zel": 6724,
      "ik": 6725,
      "▁cevr": 6726,
      "▁curuk": 6727,
      "▁a.": 6728,
      "▁par": 6729,
      "▁gerektigine": 6730,
      "▁bedi": 6731,
      "▁yukselmesine": 6732,
      "▁pis": 6733,
      "▁satıcılar": 6734,
      "▁ortalama": 6735,
      "▁sahit": 6736,
      "deniz": 6737,
      "▁kırm": 6738,
      "▁sehrinden": 6739,
      "▁cansız": 6740,
      "▁olmadigini": 6741,
      "▁zeyn": 6742,
      "▁verecektir": 6743,
      "▁zararlı": 6744,
      "isse": 6745,
      "▁bekleniyordu": 6746,
      "▁yumru": 6747,
      "▁tepe": 6748,
      "enn": 6749,
      "▁senet": 6750,
      "▁marj": 6751,
      "▁city'e": 6752,
      "itik": 6753,
      "▁kemik": 6754,
      "ner": 6755,
      "▁kapsam": 6756,
      "▁tatlı": 6757,
      "▁degerlendirmek": 6758,
      "▁arz": 6759,
      "▁fab": 6760,
      "idge": 6761,
      "▁basta": 6762,
      "▁%2.7": 6763,
      "▁atmosfer": 6764,
      "▁gidilebilecek": 6765,
      "▁gormedi": 6766,
      "▁kopar": 6767,
      "▁celisk": 6768,
      "▁karma": 6769,
      "▁cıkarak": 6770,
      "batı": 6771,
      "▁ecektik": 6772,
      "▁45": 6773,
      "elop": 6774,
      "▁sarsıntı": 6775,
      "atur": 6776,
      "tore": 6777,
      "▁dusuruyor": 6778,
      "▁paz": 6779,
      "ong": 6780,
      "▁yazdı": 6781,
      "▁ayrica": 6782,
      "▁demokratlar": 6783,
      "umlu": 6784,
      "▁columbus": 6785,
      "2'den": 6786,
      "▁yanisira": 6787,
      "▁bonosu": 6788,
      "▁almadim": 6789,
      "▁cehenn": 6790,
      "▁atmak": 6791,
      "y": 6792,
      "▁iscilerin": 6793,
      "ulmamıs": 6794,
      "▁uyustur": 6795,
      "tz": 6796,
      "ediye": 6797,
      "nol": 6798,
      "▁gelmek": 6799,
      "iyordu": 6800,
      "▁gazetecilik": 6801,
      "▁tasır": 6802,
      "▁charlotte'den": 6803,
      "asını": 6804,
      "▁financial": 6805,
      "▁ld": 6806,
      "▁kalkan": 6807,
      "▁hele": 6808,
      "▁tarif": 6809,
      "▁genel": 6810,
      "▁cıldır": 6811,
      "ımıza": 6812,
      "▁3/32": 6813,
      "dokuz": 6814,
      "▁pound": 6815,
      "▁sıradan": 6816,
      "▁belirlenen": 6817,
      "▁kız": 6818,
      "▁suredir": 6819,
      "igh": 6820,
      "▁ram": 6821,
      "▁kılıc": 6822,
      "▁saglay": 6823,
      "eti": 6824,
      "▁gorevlileri": 6825,
      "▁temsilcileri": 6826,
      "▁erbak": 6827,
      "or": 6828,
      "▁ilgilenmediler": 6829,
      "ilmeli": 6830,
      "ude": 6831,
      "vari": 6832,
      "▁turkiye'ye": 6833,
      "1.1": 6834,
      "▁yaparak": 6835,
      "▁800": 6836,
      "▁kararını": 6837,
      "▁gosterdi": 6838,
      "▁makine": 6839,
      "▁hedef": 6840,
      "unuyordu": 6841,
      "▁dagın": 6842,
      "▁getir": 6843,
      "▁180": 6844,
      "▁abla": 6845,
      "▁desen": 6846,
      "uldugu": 6847,
      "ati": 6848,
      "▁minik": 6849,
      "ex": 6850,
      "ısık": 6851,
      "acagı": 6852,
      "apol": 6853,
      "▁kacamak": 6854,
      "▁nush": 6855,
      "▁sirk": 6856,
      "▁komun": 6857,
      "alt": 6858,
      "iy": 6859,
      "▁ihtiyacını": 6860,
      "asmıs": 6861,
      "▁sas": 6862,
      "▁0.45": 6863,
      "▁degerini": 6864,
      "▁duserek": 6865,
      "▁diyorum": 6866,
      "▁%6": 6867,
      "▁gosterirler": 6868,
      "izma": 6869,
      "▁hayli": 6870,
      "ediyor": 6871,
      "▁sebeb": 6872,
      "▁fin": 6873,
      "▁hediy": 6874,
      "daj": 6875,
      "▁gecmeden": 6876,
      "▁kendisiyle": 6877,
      "▁bazında": 6878,
      "▁haksızlık": 6879,
      "▁zor": 6880,
      "▁vurguladı": 6881,
      "▁ulkemiz": 6882,
      "▁serkan": 6883,
      "-1": 6884,
      "unca": 6885,
      "▁r.": 6886,
      "95": 6887,
      "▁surgun": 6888,
      "▁pamuk": 6889,
      "osunda": 6890,
      "▁izleri": 6891,
      "▁etm": 6892,
      "agına": 6893,
      "▁evladı": 6894,
      "▁pesin": 6895,
      "▁plani": 6896,
      "▁gelin": 6897,
      "▁oluyordu": 6898,
      ".00": 6899,
      "▁emr": 6900,
      "▁5.5": 6901,
      "▁sırası": 6902,
      "▁doldurdu": 6903,
      "▁kerv": 6904,
      "▁istekler": 6905,
      "bahar": 6906,
      "▁kızart": 6907,
      "▁1.80": 6908,
      "▁aksamustu": 6909,
      "▁donduk": 6910,
      "▁burbank'a": 6911,
      "▁cra": 6912,
      "▁halli": 6913,
      "▁an": 6914,
      "br": 6915,
      "▁taze": 6916,
      "arlık": 6917,
      "▁zeh": 6918,
      "▁yuf": 6919,
      "sunuz": 6920,
      "▁ilce": 6921,
      "▁bayramı": 6922,
      "▁128": 6923,
      "▁genclerin": 6924,
      "▁gelistirmek": 6925,
      "▁evlen": 6926,
      "▁satılan": 6927,
      "▁kendileri": 6928,
      "sına": 6929,
      "▁ayırt": 6930,
      "▁yıla": 6931,
      "▁soyledim": 6932,
      "▁burcu": 6933,
      "▁duzenley": 6934,
      "▁beyefendi": 6935,
      "cul": 6936,
      "▁david": 6937,
      "▁soyledikleri": 6938,
      "▁dısarıdan": 6939,
      "▁derhal": 6940,
      "maların": 6941,
      "▁3.7": 6942,
      "lerim": 6943,
      "▁finc": 6944,
      "▁menfaat": 6945,
      "▁belki": 6946,
      "▁icerdigi": 6947,
      "▁tesisin": 6948,
      "o'dan": 6949,
      "▁heyecan": 6950,
      "eliyiz": 6951,
      "▁kirlilik": 6952,
      "▁7'den": 6953,
      "▁kendine": 6954,
      "▁2'den": 6955,
      "▁sivri": 6956,
      "▁geldi": 6957,
      "▁ilahi": 6958,
      "res": 6959,
      "▁kartal": 6960,
      "▁haykır": 6961,
      "▁sarar": 6962,
      "▁sıcr": 6963,
      "▁tasvir": 6964,
      "▁tacoma'dan": 6965,
      "▁edelim": 6966,
      "▁34": 6967,
      "▁cesi": 6968,
      "▁hikmet": 6969,
      "▁benden": 6970,
      "iginde": 6971,
      "▁gozlerini": 6972,
      "▁2009": 6973,
      "▁aileler": 6974,
      "▁develop": 6975,
      "urcuk": 6976,
      "▁ambal": 6977,
      "▁%4": 6978,
      "ific": 6979,
      "▁bekley": 6980,
      "▁bardagı": 6981,
      "▁makaleye": 6982,
      "▁mosk": 6983,
      "▁destekli": 6984,
      "▁kocası": 6985,
      "▁1.79": 6986,
      "▁ertesi": 6987,
      "▁ist": 6988,
      "akar": 6989,
      "▁olabilir": 6990,
      "▁plat": 6991,
      "▁corba": 6992,
      "▁tarzı": 6993,
      "▁birilerinin": 6994,
      "▁bar": 6995,
      "▁otor": 6996,
      "dah": 6997,
      "▁subay": 6998,
      "▁yardımcısıydı": 6999,
      "▁bulur": 7000,
      "▁fas": 7001,
      "▁faaliyetleri": 7002,
      "▁duruyorlar": 7003,
      "▁menfa": 7004,
      "▁degismis": 7005,
      "odos": 7006,
      "▁kuba": 7007,
      "▁toronto'dan": 7008,
      "▁sonrası": 7009,
      "▁hakaret": 7010,
      "▁kon": 7011,
      "▁airlines": 7012,
      "ogret": 7013,
      "▁halkı": 7014,
      "amazdı": 7015,
      "likti": 7016,
      "▁kazanmak": 7017,
      "▁mart": 7018,
      "▁cas": 7019,
      "▁kere": 7020,
      "▁yavaslama": 7021,
      "▁dokul": 7022,
      "▁katkı": 7023,
      "▁1.55": 7024,
      "9'da": 7025,
      "▁sokul": 7026,
      "▁yolc": 7027,
      "▁ını": 7028,
      "▁piyango": 7029,
      "▁sih": 7030,
      "▁trans": 7031,
      "▁varmadan": 7032,
      "▁derler": 7033,
      "▁chp": 7034,
      "dıgımı": 7035,
      "▁seans": 7036,
      "▁iceriden": 7037,
      "▁savur": 7038,
      "▁cografya": 7039,
      "▁pazar": 7040,
      "izasyon": 7041,
      "▁tasf": 7042,
      "ucuk": 7043,
      "▁anlasması": 7044,
      "▁piyasasının": 7045,
      "▁kaba": 7046,
      "▁okurdu": 7047,
      "▁one": 7048,
      "▁%25": 7049,
      "▁bed": 7050,
      "▁basladım": 7051,
      "oc": 7052,
      "▁oldugunda": 7053,
      "sana": 7054,
      "▁takıldı": 7055,
      "▁catısma": 7056,
      "▁tamamıyla": 7057,
      "▁barut": 7058,
      "afir": 7059,
      "▁cekistir": 7060,
      "▁kusku": 7061,
      "▁530": 7062,
      "artesi": 7063,
      "mediler": 7064,
      "▁birinden": 7065,
      "arik": 7066,
      "▁balıgı": 7067,
      "▁bos": 7068,
      "▁oksuruk": 7069,
      "▁hu": 7070,
      "▁dogrult": 7071,
      "▁ar": 7072,
      "▁bulmus": 7073,
      ".25": 7074,
      "lıgın": 7075,
      "▁yasın": 7076,
      "▁ihtimalle": 7077,
      "▁temp": 7078,
      "▁aktarmasız": 7079,
      "▁nac": 7080,
      "▁onemi": 7081,
      "dil": 7082,
      "▁mars": 7083,
      "▁hacm": 7084,
      "▁tadima": 7085,
      "▁fiyatlarını": 7086,
      "ai": 7087,
      "▁sevk": 7088,
      "▁panama": 7089,
      "hasır": 7090,
      "▁cektik": 7091,
      "▁parlak": 7092,
      "▁.7": 7093,
      "uar": 7094,
      "▁heykel": 7095,
      "amay": 7096,
      "▁tanıtım": 7097,
      "▁ayından": 7098,
      "▁asset": 7099,
      "▁sur": 7100,
      "▁ait": 7101,
      "▁--": 7102,
      "▁dekorasyonu": 7103,
      "▁mur": 7104,
      "▁koku": 7105,
      "▁sebek": 7106,
      "▁gayet": 7107,
      "▁muhtesem": 7108,
      "▁cicekler": 7109,
      "▁arası": 7110,
      "▁etraf": 7111,
      "▁tampa": 7112,
      "▁omr": 7113,
      "▁muv": 7114,
      "▁musun": 7115,
      "▁espr": 7116,
      "istim": 7117,
      "▁ekstra": 7118,
      "▁pap": 7119,
      "▁reak": 7120,
      "▁7'de": 7121,
      "▁kullan": 7122,
      "▁rub": 7123,
      "▁'nin": 7124,
      "▁mudu": 7125,
      "eyle": 7126,
      "▁senedi": 7127,
      "▁azınlık": 7128,
      "▁olsunlar": 7129,
      "house": 7130,
      "▁340": 7131,
      "▁angeles": 7132,
      "▁sahtek": 7133,
      "▁yenilen": 7134,
      "▁tehlikeli": 7135,
      "anları": 7136,
      "▁beye": 7137,
      "▁eastern'in": 7138,
      "▁yapıs": 7139,
      "name": 7140,
      "stit": 7141,
      "liydi": 7142,
      "▁zarf": 7143,
      "▁dinam": 7144,
      "▁29.6": 7145,
      "▁girdim": 7146,
      "ekli": 7147,
      "▁genelde": 7148,
      "▁beklet": 7149,
      "▁kelimeler": 7150,
      "bucuk": 7151,
      "man": 7152,
      "gele": 7153,
      "▁erit": 7154,
      "▁odedigimiz": 7155,
      "▁harcadı": 7156,
      "▁arabalar": 7157,
      "elerim": 7158,
      "▁anlat": 7159,
      "▁dre": 7160,
      "▁adıyla": 7161,
      "▁ode": 7162,
      "▁koymus": 7163,
      "▁218": 7164,
      "▁gunluk": 7165,
      "▁tutam": 7166,
      "▁karsıl": 7167,
      "▁vardır": 7168,
      "▁kapagı": 7169,
      "▁pozit": 7170,
      "ılma": 7171,
      "▁baraj": 7172,
      "▁gostermek": 7173,
      "▁ras": 7174,
      "▁turkiye'nin": 7175,
      "▁frank": 7176,
      "▁birtak": 7177,
      "arki": 7178,
      "▁oturdugu": 7179,
      "▁supur": 7180,
      "ret": 7181,
      "madan": 7182,
      "▁soktu": 7183,
      "▁parmak": 7184,
      "ısına": 7185,
      "▁sabır": 7186,
      "▁1.60": 7187,
      "▁havaalanından": 7188,
      "▁darb": 7189,
      "▁yapmayı": 7190,
      "▁kilidi": 7191,
      "▁memleketin": 7192,
      "▁alısılmadık": 7193,
      "▁muzik": 7194,
      "▁sesini": 7195,
      "▁versin": 7196,
      "▁.\"": 7197,
      "▁borc": 7198,
      "▁gecelik": 7199,
      "▁kek": 7200,
      "▁sureli": 7201,
      "▁itti": 7202,
      "70": 7203,
      "▁odenek": 7204,
      "et": 7205,
      "▁degisiyor": 7206,
      "▁kaplı": 7207,
      "▁hararet": 7208,
      "▁yapıyoruz": 7209,
      "▁mutemadiyen": 7210,
      "▁yumurta": 7211,
      "▁olay": 7212,
      "eledigi": 7213,
      "▁listeleyebilir": 7214,
      "acaksın": 7215,
      "▁oluyorlar": 7216,
      "▁pesine": 7217,
      "▁bildirdi": 7218,
      "ding": 7219,
      "▁planlamam": 7220,
      "▁alkolsuz": 7221,
      "▁laik": 7222,
      "▁yetenek": 7223,
      "▁genetik": 7224,
      "▁uzerindeki": 7225,
      "▁yazmaya": 7226,
      "ısı": 7227,
      "▁baslayan": 7228,
      "▁%0.2": 7229,
      "eleyen": 7230,
      "▁insal": 7231,
      "▁ailelerin": 7232,
      "▁rakib": 7233,
      "▁askeri": 7234,
      "300": 7235,
      "▁ef": 7236,
      "▁sebebi": 7237,
      "▁kuyu": 7238,
      "▁irs": 7239,
      "ms": 7240,
      "▁1932": 7241,
      "▁almasını": 7242,
      "▁1.39": 7243,
      "▁gelsin": 7244,
      "▁0.6": 7245,
      "▁veriyorlar": 7246,
      "▁roma": 7247,
      "▁vucu": 7248,
      "▁bire": 7249,
      "▁ilkbahar": 7250,
      "on": 7251,
      "▁arkadasları": 7252,
      "an'ın": 7253,
      "▁for": 7254,
      "▁oldugun": 7255,
      "▁acım": 7256,
      "▁eks": 7257,
      "▁oldukca": 7258,
      "alıga": 7259,
      "▁basla": 7260,
      "eyen": 7261,
      "▁kaynar": 7262,
      "▁olimp": 7263,
      "▁1'den": 7264,
      "▁nakit": 7265,
      "▁lit": 7266,
      "▁kusun": 7267,
      "▁miydin": 7268,
      "▁isliyor": 7269,
      "▁haftanın": 7270,
      "▁esrar": 7271,
      "▁cezalandır": 7272,
      "▁yapması": 7273,
      "bakır": 7274,
      "▁karton": 7275,
      "lbu": 7276,
      "iyle": 7277,
      "▁dinledim": 7278,
      "egimiz": 7279,
      "▁gozalt": 7280,
      "▁fut": 7281,
      "▁burokr": 7282,
      "ilmemis": 7283,
      "▁etmistir": 7284,
      "▁ahır": 7285,
      "▁alabildigine": 7286,
      "▁ter": 7287,
      "▁mot": 7288,
      "omet": 7289,
      "▁liber": 7290,
      "▁kaps": 7291,
      "▁825": 7292,
      "use": 7293,
      "▁eur": 7294,
      "seksen": 7295,
      "▁bahar": 7296,
      "▁kardesim": 7297,
      "▁ingiltere'de": 7298,
      "▁price": 7299,
      "▁indiana": 7300,
      "▁buz": 7301,
      "▁hareketli": 7302,
      "ersiniz": 7303,
      "▁anlasılan": 7304,
      "▁umumi": 7305,
      "▁degiller": 7306,
      "▁topuk": 7307,
      "▁log": 7308,
      "▁gazetelerde": 7309,
      "▁bulundu": 7310,
      "▁saatleri": 7311,
      "▁mukemmeldi": 7312,
      "▁yanıl": 7313,
      "▁carpıs": 7314,
      "▁yarıs": 7315,
      "▁tramvay": 7316,
      "▁nazar": 7317,
      "▁bileti": 7318,
      "▁boldu": 7319,
      "▁paket": 7320,
      "▁disip": 7321,
      "▁bombos": 7322,
      "▁dogran": 7323,
      "▁rıza": 7324,
      "▁freddie": 7325,
      "▁oranının": 7326,
      "esti": 7327,
      "▁rah": 7328,
      "tugu": 7329,
      "▁kirli": 7330,
      "▁sokakta": 7331,
      "▁ekin": 7332,
      "▁esti": 7333,
      "aları": 7334,
      "▁basımıza": 7335,
      "▁gorus": 7336,
      "▁kararlastır": 7337,
      "▁dusen": 7338,
      "▁rall": 7339,
      "▁bir": 7340,
      "acılıgı": 7341,
      "▁onların": 7342,
      "▁tekne": 7343,
      "luguna": 7344,
      "▁il": 7345,
      "▁bastır": 7346,
      "▁dusurdu": 7347,
      "▁inkar": 7348,
      "▁yasal": 7349,
      "▁huc": 7350,
      "▁sacları": 7351,
      "▁data": 7352,
      "▁california'ya": 7353,
      "umuze": 7354,
      "▁kıymet": 7355,
      "gam": 7356,
      "▁arayan": 7357,
      "▁kullanmadik": 7358,
      "0.9": 7359,
      "▁gulumsedi": 7360,
      "/4'e": 7361,
      "▁icimden": 7362,
      "▁endeks": 7363,
      "▁ikram": 7364,
      ".85": 7365,
      "mafi": 7366,
      "▁ucuyor": 7367,
      "▁koyden": 7368,
      "▁bahcıvan": 7369,
      "75": 7370,
      "▁hesapları": 7371,
      "liyat": 7372,
      "▁havaalanı": 7373,
      "▁kaldıraclı": 7374,
      "▁eksiklik": 7375,
      "▁soz": 7376,
      "▁bakısları": 7377,
      "▁dikkat": 7378,
      "ikten": 7379,
      "▁haluk": 7380,
      "▁bira": 7381,
      "▁icimi": 7382,
      "lan": 7383,
      "▁falan": 7384,
      "▁seklinde": 7385,
      "▁olanlara": 7386,
      "emem": 7387,
      "ite": 7388,
      "▁sonbahar": 7389,
      "adak": 7390,
      "▁jac": 7391,
      "▁cehr": 7392,
      "ere": 7393,
      "▁olup": 7394,
      "▁olursa": 7395,
      "▁yılda": 7396,
      "▁kablo": 7397,
      "▁430": 7398,
      "▁duygularını": 7399,
      "▁hilmi": 7400,
      "▁james": 7401,
      "lt": 7402,
      "▁cıkarır": 7403,
      "▁kesilmis": 7404,
      "▁ozurlu": 7405,
      "7.8": 7406,
      "▁gercekte": 7407,
      "▁cene": 7408,
      "▁oranlarının": 7409,
      "ilmesini": 7410,
      "▁sor": 7411,
      "▁didik": 7412,
      "▁dervis": 7413,
      "▁doktor": 7414,
      "▁verme": 7415,
      "▁filozof": 7416,
      "▁yurtdısına": 7417,
      "▁gorgu": 7418,
      "0'e": 7419,
      "▁haz": 7420,
      "▁bayagi": 7421,
      "▁guzelligi": 7422,
      "▁noriega'nın": 7423,
      "▁dair": 7424,
      "▁kitap": 7425,
      "▁ya": 7426,
      "▁biliyorsunuz": 7427,
      "▁ruzg": 7428,
      "▁azıcık": 7429,
      "▁warner": 7430,
      "ni": 7431,
      "ılmaya": 7432,
      "▁haketmiyor": 7433,
      "▁25.000": 7434,
      "ladıkları": 7435,
      "▁dosy": 7436,
      "abıyla": 7437,
      "▁tatli": 7438,
      "▁degil": 7439,
      "▁rumeli": 7440,
      "▁kasıgı": 7441,
      "▁field": 7442,
      "▁gelmez": 7443,
      "▁telgraf": 7444,
      "▁sezonu": 7445,
      "uston": 7446,
      "▁kokulu": 7447,
      "▁boyle": 7448,
      "abilmis": 7449,
      "▁kan": 7450,
      "▁ekim": 7451,
      "▁iceriye": 7452,
      "▁faydalan": 7453,
      "▁meclisi": 7454,
      "▁neyse": 7455,
      "▁120": 7456,
      "eyim": 7457,
      "▁birbirleriyle": 7458,
      "▁ihmal": 7459,
      "dikleri": 7460,
      "▁yenilik": 7461,
      "▁kayıtları": 7462,
      "▁alb": 7463,
      "ergah": 7464,
      "▁kodu": 7465,
      "▁kalmadik": 7466,
      "▁sureg": 7467,
      "▁bilir": 7468,
      "▁5.": 7469,
      "▁kopmus": 7470,
      "▁yazının": 7471,
      "▁set": 7472,
      "▁fatur": 7473,
      "▁komik": 7474,
      "▁etti": 7475,
      "▁ahir": 7476,
      "▁sozlerine": 7477,
      "▁tasmıs": 7478,
      "▁eri": 7479,
      "▁yirmibir": 7480,
      "▁hızlı": 7481,
      "jr": 7482,
      "oker": 7483,
      "▁adamları": 7484,
      "masıyla": 7485,
      "▁olmamıstı": 7486,
      "▁sizde": 7487,
      "lor": 7488,
      "▁nasdaq": 7489,
      "▁747": 7490,
      "uv": 7491,
      "▁pacific": 7492,
      "esinin": 7493,
      "▁muthisti": 7494,
      "hanede": 7495,
      "▁haval": 7496,
      "▁seneye": 7497,
      "dıktan": 7498,
      "▁talep": 7499,
      "▁keci": 7500,
      "▁guneydogu": 7501,
      "▁266": 7502,
      "▁santral": 7503,
      "▁numar": 7504,
      "ren": 7505,
      "▁olduk": 7506,
      "▁gelmistir": 7507,
      "▁kemal'in": 7508,
      "▁sallan": 7509,
      "▁almanya'nın": 7510,
      "▁hayret": 7511,
      "▁7.4": 7512,
      "▁ıyla": 7513,
      "▁koridor": 7514,
      "▁yasadık": 7515,
      "▁1985": 7516,
      "teb": 7517,
      "▁goldman": 7518,
      "▁zarfında": 7519,
      "▁adeta": 7520,
      "▁destekleyen": 7521,
      "▁mevduat": 7522,
      "▁ı": 7523,
      "▁enerj": 7524,
      "▁beklent": 7525,
      "▁ata": 7526,
      "▁ikinci": 7527,
      "▁suat": 7528,
      "▁cereyan": 7529,
      "yse": 7530,
      "▁polis": 7531,
      "bos": 7532,
      "▁mahrum": 7533,
      "▁gidiyorduk": 7534,
      "▁guney": 7535,
      "▁aqu": 7536,
      "▁sum": 7537,
      "▁lun": 7538,
      "ima": 7539,
      "▁olurum": 7540,
      "▁intern": 7541,
      "▁birine": 7542,
      "▁seviyesinde": 7543,
      "▁hisselerin": 7544,
      "▁3.4": 7545,
      "▁38": 7546,
      "▁1945": 7547,
      "▁uste": 7548,
      "▁istegi": 7549,
      "yiz": 7550,
      "▁doya": 7551,
      "▁phil": 7552,
      "▁yuv": 7553,
      "▁2004'te": 7554,
      "▁454": 7555,
      "▁sıcak": 7556,
      "sı": 7557,
      "▁bulunacak": 7558,
      "▁sayi": 7559,
      "1'de": 7560,
      "▁tuzlu": 7561,
      "uklum": 7562,
      "▁galib": 7563,
      "▁istiklal": 7564,
      "▁kazıy": 7565,
      "[MASK]": 7566,
      "▁turkiye'de": 7567,
      "▁tarihinde": 7568,
      "▁havayollarını": 7569,
      "▁char": 7570,
      "▁yanına": 7571,
      "▁suresini": 7572,
      "▁kamu": 7573,
      "▁aynen": 7574,
      "▁mahf": 7575,
      "▁karsılıgı": 7576,
      "▁gas": 7577,
      "▁vs": 7578,
      "▁ın": 7579,
      "▁kanad": 7580,
      "▁terbiy": 7581,
      "▁suruldu": 7582,
      "asıyor": 7583,
      "▁813": 7584,
      "'le": 7585,
      "▁vermem": 7586,
      "▁1'de": 7587,
      "cakt": 7588,
      "▁duzenlenen": 7589,
      "▁141.70": 7590,
      "▁fokur": 7591,
      "▁devlete": 7592,
      "▁parcalar": 7593,
      "▁sal": 7594,
      "sun": 7595,
      "▁dayalı": 7596,
      "sin": 7597,
      "▁isyan": 7598,
      "▁qintex": 7599,
      "▁sagduy": 7600,
      "▁nem": 7601,
      "▁day": 7602,
      "▁toplayıp": 7603,
      "▁teles": 7604,
      "▁buyuktu": 7605,
      "irdi": 7606,
      "▁havuzlar": 7607,
      "▁gozlerim": 7608,
      "▁hakkını": 7609,
      "▁kırkaltı": 7610,
      "▁tumunu": 7611,
      "▁ydu": 7612,
      "▁odalari": 7613,
      "▁sapt": 7614,
      "ilmaz": 7615,
      "▁35587.85": 7616,
      "▁erkek": 7617,
      "▁gunku": 7618,
      "ebiliyor": 7619,
      "ması": 7620,
      "ozof": 7621,
      "▁fiyatını": 7622,
      "▁hollanda": 7623,
      "▁biliyor": 7624,
      "▁sahn": 7625,
      "ri": 7626,
      "▁dos": 7627,
      "asi": 7628,
      "▁ismi": 7629,
      "iyorlar": 7630,
      "▁sasır": 7631,
      "▁sirketinin": 7632,
      "▁ortalaması": 7633,
      "amazlar": 7634,
      "▁krize": 7635,
      "▁limon": 7636,
      "▁yonunde": 7637,
      "▁per": 7638,
      "▁onur": 7639,
      "▁desik": 7640,
      "ayabilir": 7641,
      "alarla": 7642,
      "96": 7643,
      "▁dususten": 7644,
      "▁dalgalar": 7645,
      "▁geldigi": 7646,
      "▁tutar": 7647,
      "▁kitapta": 7648,
      "▁aver": 7649,
      "▁…": 7650,
      "▁mezar": 7651,
      "'lı": 7652,
      "▁ucsuz": 7653,
      "▁vet": 7654,
      "▁gelisen": 7655,
      "▁yedide": 7656,
      "ugu": 7657,
      "▁yerini": 7658,
      "▁boynun": 7659,
      "▁yahudi": 7660,
      "▁feder": 7661,
      "memistir": 7662,
      "▁4200'e": 7663,
      "▁illa": 7664,
      "▁memur": 7665,
      "▁hissediyor": 7666,
      "▁saman": 7667,
      "▁mg": 7668,
      "▁satmak": 7669,
      "▁bakanlıgı'nın": 7670,
      "oyu": 7671,
      "▁iliskisi": 7672,
      "▁girisimci": 7673,
      "▁gelmedi": 7674,
      "cek": 7675,
      "▁alkol": 7676,
      "▁yasadı": 7677,
      "▁olur": 7678,
      "▁sigorta": 7679,
      "▁kendilerini": 7680,
      "▁rehberi": 7681,
      "▁dedigimiz": 7682,
      "▁barın": 7683,
      "▁aln": 7684,
      "▁kagıtları": 7685,
      "▁acacak": 7686,
      "▁cincinnati": 7687,
      "▁lar": 7688,
      "diki": 7689,
      "emiyor": 7690,
      "▁maf": 7691,
      "▁harek": 7692,
      "emi": 7693,
      "▁cevik": 7694,
      "▁bilimsel": 7695,
      "▁otesi": 7696,
      "▁sımsık": 7697,
      "▁bilgilerin": 7698,
      "▁goruluyor": 7699,
      "ence": 7700,
      "▁boh": 7701,
      "▁kulak": 7702,
      "▁senden": 7703,
      "▁anlıslanabilir": 7704,
      "ert": 7705,
      "▁sigort": 7706,
      "▁mintan": 7707,
      "▁sınıfları": 7708,
      "▁alım-satım": 7709,
      "▁gumus": 7710,
      "▁bost": 7711,
      "▁vermektedir": 7712,
      "▁araz": 7713,
      "▁dalgalan": 7714,
      "▁ho": 7715,
      "4'de": 7716,
      "a": 7717,
      "▁bilmem": 7718,
      "▁tavırlı": 7719,
      "▁cont": 7720,
      "▁kagı": 7721,
      "▁hepsini": 7722,
      "▁fing": 7723,
      "▁dagılmıs": 7724,
      "▁takım": 7725,
      "yuzotuz": 7726,
      "▁1992": 7727,
      "ısından": 7728,
      "▁havada": 7729,
      "▁kid": 7730,
      "875": 7731,
      "▁hatt": 7732,
      "▁westinghouse": 7733,
      "▁cır": 7734,
      "▁kıyaslanabilir": 7735,
      "▁ablam": 7736,
      "▁calkal": 7737,
      "digine": 7738,
      "▁oteller": 7739,
      "▁campe": 7740,
      "ıyla": 7741,
      "▁27.5": 7742,
      "omosyon": 7743,
      "00'den": 7744,
      "▁hareketler": 7745,
      "▁basrol": 7746,
      "[UNK]": 7747,
      "▁uzun": 7748,
      "▁dalar": 7749,
      "▁duruma": 7750,
      "▁vazgecti": 7751,
      "▁ile": 7752,
      "▁kahvaltisi": 7753,
      "▁soyleniyor": 7754,
      "▁beklemek": 7755,
      "▁kavanoz": 7756,
      "▁rakip": 7757,
      "▁olmazsa": 7758,
      "'nu": 7759,
      "▁kupon": 7760,
      "▁700.": 7761,
      "ıldıgını": 7762,
      "▁partners": 7763,
      "▁hesap": 7764,
      "▁ster": 7765,
      "▁bence": 7766,
      "▁bog": 7767,
      "▁vur": 7768,
      "▁vatandas": 7769,
      "▁bulbul": 7770,
      "▁karsilik": 7771,
      "▁degildim": 7772,
      "007": 7773,
      "▁mab": 7774,
      "isli": 7775,
      "▁bahsetti": 7776,
      "abını": 7777,
      "▁olacagına": 7778,
      "▁/": 7779,
      "▁guzeli": 7780,
      "▁kaya": 7781,
      "▁hastalı": 7782,
      "▁yardımı": 7783,
      "▁at&t": 7784,
      "▁parmagını": 7785,
      "▁planlanan": 7786,
      "▁kabiliyet": 7787,
      "▁yapılacak": 7788,
      "▁bulunmus": 7789,
      "▁%0": 7790,
      "▁memnunuz": 7791,
      "▁yolunu": 7792,
      "▁sicakti": 7793,
      "▁gm": 7794,
      "▁gorevl": 7795,
      "▁kentsel": 7796,
      "▁hepimiz": 7797,
      "▁faturamin": 7798,
      "▁sorunlarının": 7799,
      "▁boyunca": 7800,
      "▁bebegi": 7801,
      "▁kesint": 7802,
      "gini": 7803,
      "▁cogundan": 7804,
      "▁gelisme": 7805,
      "▁dyp": 7806,
      "▁charles": 7807,
      "▁ic": 7808,
      "▁anlasılmaz": 7809,
      "▁batı": 7810,
      "▁bur": 7811,
      "-4": 7812,
      "bab": 7813,
      "ayıf": 7814,
      "▁giydir": 7815,
      "pan": 7816,
      "▁kapandı": 7817,
      "▁ascı": 7818,
      "erson": 7819,
      "▁kapıl": 7820,
      "▁itibar": 7821,
      "▁aramaya": 7822,
      "▁1.835": 7823,
      "▁bahceli": 7824,
      "sh": 7825,
      "'ndan": 7826,
      "▁1966": 7827,
      "▁mekteb": 7828,
      "▁porcuk": 7829,
      "▁1.5": 7830,
      "▁bonoları": 7831,
      "▁turuncu": 7832,
      "▁durumuna": 7833,
      "▁nefes": 7834,
      "ancı": 7835,
      "▁amerika'nın": 7836,
      "▁havayolları": 7837,
      "0.80": 7838,
      "▁ekledi": 7839,
      "▁kenarında": 7840,
      "ın": 7841,
      "▁met": 7842,
      "inin": 7843,
      "▁carp": 7844,
      "edef": 7845,
      "▁direkt": 7846,
      "▁evlat": 7847,
      "▁114": 7848,
      "ır": 7849,
      "▁57": 7850,
      "acaklarını": 7851,
      "▁memnunduk": 7852,
      "▁transfer": 7853,
      "▁anlas": 7854,
      "▁yapar": 7855,
      "▁ail": 7856,
      "▁durusma": 7857,
      "▁terey": 7858,
      "▁vermisler": 7859,
      "▁nedense": 7860,
      "asa": 7861,
      "▁0.3": 7862,
      "▁ayna": 7863,
      "▁kacta": 7864,
      "▁top": 7865,
      "▁taksit": 7866,
      "▁odalar": 7867,
      "▁tahm": 7868,
      "▁malzemesi": 7869,
      "▁gorusmedim": 7870,
      "suzdu": 7871,
      "▁gelmis": 7872,
      "▁dolap": 7873,
      "▁beklentiler": 7874,
      "esco": 7875,
      "▁gidiyoruz": 7876,
      "-p": 7877,
      "▁zırh": 7878,
      "▁kum": 7879,
      "▁odası": 7880,
      "▁sıkı": 7881,
      ".39": 7882,
      "▁kalktım": 7883,
      "lg": 7884,
      "▁suları": 7885,
      "ations": 7886,
      "▁dunyaya": 7887,
      "▁eg": 7888,
      "rup": 7889,
      "▁vererek": 7890,
      "▁170": 7891,
      "▁cıkınca": 7892,
      "calı": 7893,
      "▁dikis": 7894,
      "▁yapabil": 7895,
      "▁milano": 7896,
      "▁degerlendir": 7897,
      "▁saran": 7898,
      "▁ner": 7899,
      "▁ucumuz": 7900,
      "▁115": 7901,
      "dın": 7902,
      "▁“": 7903,
      "▁ayarlanabilir": 7904,
      "▁jon": 7905,
      "emmel": 7906,
      "▁sirketini": 7907,
      "▁0.5": 7908,
      "▁al": 7909,
      "aye": 7910,
      "▁cam": 7911,
      "▁yuc": 7912,
      "▁parayi": 7913,
      "▁girer": 7914,
      "▁nakliye": 7915,
      "▁yorumu": 7916,
      "▁kapılar": 7917,
      "▁konuyu": 7918,
      "phia": 7919,
      "▁geldiginde": 7920,
      "inize": 7921,
      "essus": 7922,
      "▁arpa": 7923,
      "▁sunuyor": 7924,
      "▁29": 7925,
      "▁haline": 7926,
      "gından": 7927,
      "▁oto": 7928,
      "▁sanslı": 7929,
      "▁anasının": 7930,
      "3.2": 7931,
      "▁icme": 7932,
      "▁fayd": 7933,
      "▁1999": 7934,
      "▁acmıs": 7935,
      "▁yasadik": 7936,
      "▁pittsburgh'a": 7937,
      "mıyorum": 7938,
      "▁yah": 7939,
      "▁kaleci": 7940,
      "forman": 7941,
      "luk": 7942,
      "guzel": 7943,
      "▁cıkısı": 7944,
      ".98": 7945,
      "▁bireb": 7946,
      "▁yazdıkları": 7947,
      "▁zek": 7948,
      "▁cekim": 7949,
      "▁dolastı": 7950,
      "▁electr": 7951,
      "ical": 7952,
      "▁padisah": 7953,
      "▁herhalde": 7954,
      "▁halka": 7955,
      "▁bunal": 7956,
      "▁ret": 7957,
      "▁zum": 7958,
      "▁gule": 7959,
      "▁ci": 7960,
      "▁geriledi": 7961,
      "▁sayıda": 7962,
      "uzu": 7963,
      "▁hepsi": 7964,
      "▁yayın": 7965,
      "▁kiralama": 7966,
      "'na": 7967,
      "▁kabar": 7968,
      "▁volkan": 7969,
      "ala": 7970,
      "▁sonuclar": 7971,
      "▁ayni": 7972,
      "lulu": 7973,
      "dev": 7974,
      "▁yapıldı": 7975,
      "▁denizinden": 7976,
      "▁isle": 7977,
      "liye": 7978,
      "▁sembol": 7979,
      "unda": 7980,
      "▁birini": 7981,
      "▁tasımacılıgı": 7982,
      "▁vermeyen": 7983,
      "▁degirmen": 7984,
      "▁ayagına": 7985,
      "▁46": 7986,
      "eyip": 7987,
      "▁asla": 7988,
      "▁gaf": 7989,
      "▁no": 7990,
      "kların": 7991,
      "6.1": 7992,
      "▁ureticiler": 7993,
      "▁hakik": 7994,
      "urdu": 7995,
      "▁zamanların": 7996,
      "iyorsun": 7997,
      "azım": 7998,
      "ob": 7999,
      "▁buyuyen": 8000,
      "▁%5.4": 8001,
      "▁bitti": 8002,
      "▁manyet": 8003,
      "▁kasırg": 8004,
      "▁saclarını": 8005,
      "▁goren": 8006,
      "▁karsılıklı": 8007,
      "▁sinema": 8008,
      "▁hita": 8009,
      "▁gelirse": 8010,
      "burg": 8011,
      "▁atılım": 8012,
      "▁31": 8013,
      "altı": 8014,
      "▁lungur": 8015,
      "▁uzerindeydi": 8016,
      "▁44877": 8017,
      "efendi": 8018,
      "ihan": 8019,
      "is'in": 8020,
      "▁turkiye'yi": 8021,
      "▁istekli": 8022,
      "▁dusunur": 8023,
      "▁teknik": 8024,
      "▁suyun": 8025,
      "pa": 8026,
      "▁bizzat": 8027,
      "our": 8028,
      "▁karsılık": 8029,
      "▁listesi": 8030,
      "▁30000": 8031,
      "▁urunu": 8032,
      "▁istendi": 8033,
      "▁birak": 8034,
      "▁maden": 8035,
      "▁ogut": 8036,
      "▁zira": 8037,
      "▁c": 8038,
      "▁batar": 8039,
      "mustum": 8040,
      "▁tutulan": 8041,
      "▁bagırıyordu": 8042,
      "▁sektor": 8043,
      "asına": 8044,
      "▁145": 8045,
      "​": 8046,
      "▁pec": 8047,
      "▁tuvalet": 8048,
      "ulugunu": 8049,
      "▁tab": 8050,
      "▁guvenilir": 8051,
      "▁cur": 8052,
      "am": 8053,
      "▁kıyı": 8054,
      ".53": 8055,
      "lanmıstı": 8056,
      "▁sukun": 8057,
      "▁isin": 8058,
      "▁yildiz": 8059,
      "▁utan": 8060,
      "▁1.29": 8061,
      "▁oldugundan": 8062,
      "elere": 8063,
      "▁olabilirdi": 8064,
      "▁ulkelerde": 8065,
      "int": 8066,
      "▁kerp": 8067,
      "▁kacır": 8068,
      "▁eksiksiz": 8069,
      "▁tuccarı": 8070,
      "▁oranla": 8071,
      "▁somut": 8072,
      "▁fıs": 8073,
      "ane": 8074,
      "lerime": 8075,
      "▁eskiydi": 8076,
      "kinden": 8077,
      "▁kktc": 8078,
      "▁dalgası": 8079,
      "▁patlat": 8080,
      "▁lak": 8081,
      "lenme": 8082,
      "▁muhtesemdi": 8083,
      "▁grubunun": 8084,
      "▁karsı": 8085,
      "▁bari": 8086,
      "▁dilerim": 8087,
      "▁yusuf": 8088,
      "▁tunc": 8089,
      "‘": 8090,
      "19": 8091,
      "/2": 8092,
      "▁panik": 8093,
      "▁sorun": 8094,
      "▁nedenlerden": 8095,
      "usuyla": 8096,
      "▁gorevini": 8097,
      "imindan": 8098,
      "eb": 8099,
      "▁gerekcesiyle": 8100,
      "▁yapım": 8101,
      "▁op": 8102,
      "'sini": 8103,
      "▁belirtmis": 8104,
      "ligin": 8105,
      "▁verilecek": 8106,
      "▁his": 8107,
      "▁nasda": 8108,
      "2'ye": 8109,
      "▁hot": 8110,
      "▁homur": 8111,
      "▁batır": 8112,
      "▁ikibucuk": 8113,
      "▁yone": 8114,
      "▁basladılar": 8115,
      "▁tarım": 8116,
      "▁terfi": 8117,
      "▁topunuz": 8118,
      "▁gelecekteki": 8119,
      "uluyor": 8120,
      "▁belirlen": 8121,
      "▁bilgili": 8122,
      "▁kıskanc": 8123,
      "▁yurtdı": 8124,
      "ney": 8125,
      "aksız": 8126,
      "men": 8127,
      "ıcısı": 8128,
      "▁tedavulde": 8129,
      "▁samimi": 8130,
      "▁ikiyuzkırk": 8131,
      "▁talih": 8132,
      "▁%14": 8133,
      "▁duzel": 8134,
      "▁vucuda": 8135,
      "▁recel": 8136,
      "igit": 8137,
      "▁tane": 8138,
      "▁diye": 8139,
      "▁yıllık": 8140,
      "▁biraz": 8141,
      "▁geriye": 8142,
      "▁studyo": 8143,
      "▁konustuk": 8144,
      "▁getiren": 8145,
      "▁koyu": 8146,
      "▁basladıgı": 8147,
      "▁otek": 8148,
      "alandır": 8149,
      "▁geril": 8150,
      "yayı": 8151,
      "ilir": 8152,
      "y'nin": 8153,
      "▁aydan": 8154,
      "▁etkisini": 8155,
      "▁far": 8156,
      "▁gecmiste": 8157,
      "lebilecek": 8158,
      "▁1.875": 8159,
      "▁soy": 8160,
      "▁ihtiyacı": 8161,
      "ank": 8162,
      "▁vegas'a": 8163,
      "▁gorebil": 8164,
      "▁saglamak": 8165,
      "▁sevdik": 8166,
      "▁incelem": 8167,
      "ledi": 8168,
      "▁40": 8169,
      "▁etmek": 8170,
      "tıgına": 8171,
      "▁alab": 8172,
      "▁okyan": 8173,
      "▁cum": 8174,
      "fi": 8175,
      "▁tahvillerin": 8176,
      "▁ayag": 8177,
      "▁!..": 8178,
      "▁bagıs": 8179,
      "▁donan": 8180,
      "▁kiz": 8181,
      "▁slog": 8182,
      "▁artık": 8183,
      "▁hanimla": 8184,
      "▁0.0108": 8185,
      "▁duy": 8186,
      "▁okur": 8187,
      "vet": 8188,
      "gac": 8189,
      "▁delikanlı": 8190,
      "▁atlanta'da": 8191,
      "▁yardımc": 8192,
      "▁mass": 8193,
      "▁bizlerin": 8194,
      "▁gorustuk": 8195,
      "▁3554": 8196,
      "▁yapr": 8197,
      "▁ilgisinden": 8198,
      "anlar": 8199,
      "sler": 8200,
      "▁bireysel": 8201,
      "▁274": 8202,
      "▁newark'a": 8203,
      "▁olmas": 8204,
      "▁odanın": 8205,
      "▁durur": 8206,
      "▁gununden": 8207,
      "▁acıklıyor": 8208,
      "▁tahsis": 8209,
      "ly": 8210,
      "miz": 8211,
      "▁mutfaga": 8212,
      "lip": 8213,
      "▁sıvı": 8214,
      "3.4": 8215,
      "▁haberleri": 8216,
      "▁anlıs": 8217,
      "▁kırkdort": 8218,
      "▁sek": 8219,
      "▁ihal": 8220,
      "▁rakamları": 8221,
      "▁tekstil": 8222,
      "▁isvic": 8223,
      "▁bilmedigi": 8224,
      "▁rekor": 8225,
      "▁alındıgında": 8226,
      "▁kazanclar": 8227,
      "▁cincinnati'den": 8228,
      "▁sıng": 8229,
      "▁dusunmeye": 8230,
      "▁30.": 8231,
      "▁yapmıs": 8232,
      "▁ital": 8233,
      "dilar": 8234,
      "organ": 8235,
      "▁bakmak": 8236,
      "vik": 8237,
      "▁64": 8238,
      "▁haric": 8239,
      "lup": 8240,
      "0.33": 8241,
      "negin": 8242,
      "▁satın": 8243,
      "▁yasına": 8244,
      "berg": 8245,
      "▁ecev": 8246,
      "▁hop": 8247,
      "▁belg": 8248,
      "las": 8249,
      "sizdi": 8250,
      "lamiyorum": 8251,
      "▁ayrılmak": 8252,
      "▁aklı": 8253,
      "▁montreal'a": 8254,
      "▁federal": 8255,
      "abil": 8256,
      "▁bahcı": 8257,
      "▁yapın": 8258,
      "▁iliskiler": 8259,
      "▁ipotege": 8260,
      "▁durlar": 8261,
      "▁kilis": 8262,
      "▁isaretler": 8263,
      "up": 8264,
      "▁goruntu": 8265,
      "▁isabet": 8266,
      "▁karsısında": 8267,
      "▁bekar": 8268,
      "▁miktarı": 8269,
      "▁sorunun": 8270,
      "▁istim": 8271,
      "isk": 8272,
      "▁1971": 8273,
      "▁yat": 8274,
      "▁birbirlerinden": 8275,
      "▁ziyade": 8276,
      "boy": 8277,
      "▁sapır": 8278,
      "▁sınırları": 8279,
      "▁guleryuz": 8280,
      "ucusu": 8281,
      "▁veri": 8282,
      "▁dus": 8283,
      "▁ahlak": 8284,
      "▁ilc": 8285,
      "▁business": 8286,
      "'": 8287,
      "▁verdi": 8288,
      "▁dusundugum": 8289,
      "otu": 8290,
      "▁rep": 8291,
      "▁bircogu": 8292,
      "▁ikiser": 8293,
      "▁katında": 8294,
      "asız": 8295,
      "▁aldigim": 8296,
      "▁solda": 8297,
      "▁arkasını": 8298,
      "▁dar": 8299,
      "▁ceker": 8300,
      "▁berek": 8301,
      "▁plan": 8302,
      "bat": 8303,
      "▁olusturuyor": 8304,
      "▁28": 8305,
      "▁kagıda": 8306,
      "▁ulkeye": 8307,
      "▁madem": 8308,
      "and": 8309,
      "▁lek": 8310,
      "▁fiyatlarındaki": 8311,
      "▁sevincle": 8312,
      "▁yuzunu": 8313,
      "▁ucusunun": 8314,
      "▁gelmiyor": 8315,
      "▁ortalamaydi": 8316,
      "▁isterseniz": 8317,
      "▁tereyagı": 8318,
      "▁calar": 8319,
      "madı": 8320,
      "▁ressam": 8321,
      "▁ulas": 8322,
      "▁operasyon": 8323,
      "▁yaptirmadim": 8324,
      "▁istedigini": 8325,
      "▁duvarı": 8326,
      "▁kr": 8327,
      "▁perakende": 8328,
      "▁yorgan": 8329,
      "ass": 8330,
      "▁yalan": 8331,
      "▁onundeki": 8332,
      "▁arastır": 8333,
      "▁puanlık": 8334,
      "▁kurulmus": 8335,
      "▁sapka": 8336,
      "▁kalabalı": 8337,
      "▁nasıl": 8338,
      "▁ron": 8339,
      "▁lisan": 8340,
      "apur": 8341,
      "▁buradan": 8342,
      "▁10.": 8343,
      "ilig": 8344,
      "▁yasan": 8345,
      "▁rehberimiz": 8346,
      "▁rakı": 8347,
      "▁yolculugun": 8348,
      "▁suclam": 8349,
      "ılsın": 8350,
      "▁so": 8351,
      "▁750000": 8352,
      "▁bayagı": 8353,
      "▁liralık": 8354,
      "▁ydı": 8355,
      "▁basarılı": 8356,
      "▁alar": 8357,
      "▁jaguar": 8358,
      "▁%6.90": 8359,
      "▁ciz": 8360,
      "▁iktid": 8361,
      "▁5.2": 8362,
      "▁iletisim": 8363,
      "▁uygulanan": 8364,
      "▁ucuslarda": 8365,
      "ig": 8366,
      "▁soylemedi": 8367,
      "▁ilgilendi": 8368,
      "▁konul": 8369,
      "▁yagm": 8370,
      "▁hatırlıyorum": 8371,
      "▁zeka": 8372,
      "▁cesitliydi": 8373,
      "▁ısrar": 8374,
      "kat": 8375,
      "▁tedavul": 8376,
      "enkul": 8377,
      "▁gorulur": 8378,
      "▁universit": 8379,
      "▁adlandırıyor": 8380,
      "an'a": 8381,
      "▁kerem": 8382,
      "▁belirsizlik": 8383,
      "lesme": 8384,
      "▁toparlanma": 8385,
      "arası": 8386,
      "▁doları": 8387,
      "▁vucut": 8388,
      "▁alana": 8389,
      "▁zamanla": 8390,
      "▁tıb": 8391,
      "▁bufe": 8392,
      "▁birlesme": 8393,
      "▁5.8": 8394,
      "aket": 8395,
      "▁kalıb": 8396,
      "ali": 8397,
      "▁astr": 8398,
      "▁devrim": 8399,
      "▁hareketle": 8400,
      "▁istenen": 8401,
      "lıgından": 8402,
      "▁hizmetinden": 8403,
      "▁asagı": 8404,
      "▁kare": 8405,
      "▁jersey": 8406,
      "▁ak": 8407,
      "▁anım": 8408,
      "▁yunus": 8409,
      "ardi": 8410,
      "▁kaldırdı": 8411,
      "▁oynan": 8412,
      "unun": 8413,
      "▁luks": 8414,
      "▁uretim": 8415,
      "▁ucurt": 8416,
      "ahtar": 8417,
      "▁almamıs": 8418,
      "▁asarak": 8419,
      "ant": 8420,
      "liy": 8421,
      "▁bircogunu": 8422,
      "▁ilkeleri": 8423,
      "▁oyuncusu": 8424,
      "▁golg": 8425,
      "▁noriega": 8426,
      "mıyoruz": 8427,
      "alas": 8428,
      "amayacak": 8429,
      "ep": 8430,
      "▁kalktı": 8431,
      "▁kadav": 8432,
      "ize": 8433,
      "adelphia": 8434,
      "gen": 8435,
      "acasına": 8436,
      "mıs": 8437,
      "'taki": 8438,
      "▁golge": 8439,
      "▁uclu": 8440,
      "ingir": 8441,
      "▁anket": 8442,
      "imize": 8443,
      "▁santorini": 8444,
      "▁ihtilaf": 8445,
      "duncu": 8446,
      "▁bilemiyorum": 8447,
      "▁denil": 8448,
      "▁balık": 8449,
      "▁hal": 8450,
      "▁umum": 8451,
      "▁;": 8452,
      "▁cekirde": 8453,
      "ed": 8454,
      "ıldı": 8455,
      "dunuz": 8456,
      "▁hosnut": 8457,
      "▁1.200": 8458,
      "▁hile": 8459,
      "▁otuzaltı": 8460,
      "▁odullendir": 8461,
      "▁basamak": 8462,
      "ca": 8463,
      "layacak": 8464,
      "▁spor": 8465,
      "▁icindir": 8466,
      "▁82.1": 8467,
      "▁if": 8468,
      "teki": 8469,
      "▁unvan": 8470,
      "▁baygın": 8471,
      "iyorsunuz": 8472,
      "▁yasayan": 8473,
      "▁uluslar": 8474,
      "▁duyg": 8475,
      "eyman": 8476,
      "▁misin": 8477,
      "▁kent": 8478,
      "▁piyasası": 8479,
      "▁oturu": 8480,
      "▁oc": 8481,
      "macı": 8482,
      ".36": 8483,
      "▁esp": 8484,
      "▁kume": 8485,
      "▁artısı": 8486,
      "▁2.79": 8487,
      "▁pak": 8488,
      "▁cogumuz": 8489,
      "▁peynir": 8490,
      "▁onumuzde": 8491,
      "▁ispanyol": 8492,
      "▁istemiyor": 8493,
      "▁dunya'nın": 8494,
      "▁onune": 8495,
      "▁esyalarını": 8496,
      "erler": 8497,
      "▁babasının": 8498,
      "▁kabahat": 8499,
      "▁26.23": 8500,
      "▁dogur": 8501,
      "▁730": 8502,
      "▁kata": 8503,
      "▁derken": 8504,
      "▁elbise": 8505,
      "▁demokras": 8506,
      "▁karyol": 8507,
      "▁general": 8508,
      "▁kudret": 8509,
      "r": 8510,
      "ıg": 8511,
      "lige": 8512,
      "▁kole": 8513,
      "▁leb": 8514,
      "▁atesten": 8515,
      "ardan": 8516,
      "▁oldugumuz": 8517,
      "▁bolun": 8518,
      "▁tahammul": 8519,
      "istler": 8520,
      "▁gecis": 8521,
      "▁edilebilir": 8522,
      "▁hayalet": 8523,
      "▁wang": 8524,
      "ıncı": 8525,
      "▁bahtiy": 8526,
      "▁malzem": 8527,
      "▁bayr": 8528,
      "▁ederdi": 8529,
      "▁sozun": 8530,
      "▁1.2": 8531,
      "ciligi": 8532,
      "▁dili": 8533,
      "ces": 8534,
      "▁kaka": 8535,
      "▁kaldır": 8536,
      "▁sagır": 8537,
      "▁savcılık": 8538,
      "▁gunleri": 8539,
      "▁istif": 8540,
      "▁yayınlan": 8541,
      "▁tele": 8542,
      "▁uzman": 8543,
      "mesini": 8544,
      "▁sırtına": 8545,
      "▁450": 8546,
      "acagınız": 8547,
      "are": 8548,
      "tt": 8549,
      "▁5'te": 8550,
      "mama": 8551,
      "▁fazlası": 8552,
      "▁otomobil": 8553,
      "▁bakıyorlar": 8554,
      "▁imal": 8555,
      "▁kokuyor": 8556,
      "▁samimiyet": 8557,
      "▁isi": 8558,
      "▁%3.43": 8559,
      "▁programın": 8560,
      "▁konusunu": 8561,
      "▁yargı": 8562,
      "▁nisp": 8563,
      "dirdi": 8564,
      "lugunu": 8565,
      "uldugunu": 8566,
      "▁dagıtır": 8567,
      "▁dal": 8568,
      "▁hort": 8569,
      "▁kredi": 8570,
      "daydı": 8571,
      "▁gerek": 8572,
      "kanın": 8573,
      "▁bircok": 8574,
      "▁bw": 8575,
      "00": 8576,
      "sizligi": 8577,
      "erkez": 8578,
      "kin": 8579,
      "'nda": 8580,
      "▁sozlesmesi": 8581,
      "▁bulamıyor": 8582,
      "▁indi": 8583,
      "▁savunuyor": 8584,
      "▁deng": 8585,
      "▁kapının": 8586,
      "▁di": 8587,
      "▁denilen": 8588,
      "iden": 8589,
      "▁cocuklarını": 8590,
      "▁aklına": 8591,
      "ılım": 8592,
      "▁kullanımı": 8593,
      "er": 8594,
      "▁yiyor": 8595,
      "▁orası": 8596,
      "for": 8597,
      "▁temyiz": 8598,
      "▁gecenin": 8599,
      "▁yerlerden": 8600,
      "▁mahkemede": 8601,
      "asıyla": 8602,
      "acası": 8603,
      "▁vermis": 8604,
      "ustuk": 8605,
      "2.91": 8606,
      "▁geceyi": 8607,
      "▁gru": 8608,
      "ip": 8609,
      "lek": 8610,
      "▁harcama": 8611,
      "▁br": 8612,
      "▁konferans": 8613,
      "▁basketbol": 8614,
      "▁artır": 8615,
      "mustu": 8616,
      "▁nominal": 8617,
      "▁hep": 8618,
      "uyorlar": 8619,
      "▁post": 8620,
      "irleri": 8621,
      "isinde": 8622,
      "▁ifad": 8623,
      "▁utanc": 8624,
      "▁2683.20": 8625,
      "▁yazarlar": 8626,
      "▁yerlerini": 8627,
      "▁yanındaki": 8628,
      "ul": 8629,
      "▁3": 8630,
      "mamız": 8631,
      "▁aklından": 8632,
      "vah": 8633,
      "▁civar": 8634,
      "▁kimileri": 8635,
      "▁ii": 8636,
      "acag": 8637,
      "▁yaptı": 8638,
      "lıgım": 8639,
      "▁islam": 8640,
      "eyaz": 8641,
      "otik": 8642,
      "v": 8643,
      "▁vietnam": 8644,
      "▁yasamıs": 8645,
      "▁oglen": 8646,
      "▁pu": 8647,
      "uma": 8648,
      "▁bindokuzyuzotuz": 8649,
      "▁petrole": 8650,
      "ıyordu": 8651,
      "▁kaldıgı": 8652,
      "▁tulb": 8653,
      "▁derecede": 8654,
      "▁ihtim": 8655,
      "ast": 8656,
      "▁kactı": 8657,
      "▁2.75": 8658,
      "▁alıp": 8659,
      "▁gib": 8660,
      "gulu": 8661,
      "bu": 8662,
      "▁memnundum": 8663,
      "▁kimsenin": 8664,
      "▁bankanın": 8665,
      "▁projeyi": 8666,
      "▁etmeye": 8667,
      "▁84": 8668,
      "▁azalarak": 8669,
      "▁erik": 8670,
      "▁..": 8671,
      "▁iyice": 8672,
      "▁dinliyor": 8673,
      "▁onar": 8674,
      "▁omur": 8675,
      "▁ilker": 8676,
      "kti": 8677,
      "▁seker": 8678,
      "▁gidebilir": 8679,
      "ikat": 8680,
      "ise": 8681,
      "▁yirmibes": 8682,
      "▁dondur": 8683,
      "ove": 8684,
      "▁bugunlerde": 8685,
      "▁yetersizligi": 8686,
      "undeki": 8687,
      "▁isleri": 8688,
      "▁filistin": 8689,
      "▁dev": 8690,
      "▁itiraf": 8691,
      "▁inan": 8692,
      "ecegini": 8693,
      "alay": 8694,
      "▁muh": 8695,
      "abilirdi": 8696,
      "▁kuv": 8697,
      "▁abdul": 8698,
      "eyince": 8699,
      "▁kategor": 8700,
      "▁okuldan": 8701,
      "▁beklentimi": 8702,
      "▁cesur": 8703,
      "▁arzu": 8704,
      "▁smith": 8705,
      "lerinden": 8706,
      "▁butc": 8707,
      "▁kurtaj": 8708,
      "▁ornegin": 8709,
      "▁turden": 8710,
      "▁olmasın": 8711,
      "▁ucuslarının": 8712,
      "▁begendik": 8713,
      "▁ran": 8714,
      "de": 8715,
      "▁gosterge": 8716,
      "▁guleryuzlulerdi": 8717,
      "▁devri": 8718,
      "▁1936": 8719,
      "▁nisan": 8720,
      "▁bunlardan": 8721,
      "▁s&p": 8722,
      "▁animator": 8723,
      "mesinden": 8724,
      "▁vaat": 8725,
      "▁guv": 8726,
      "▁basket": 8727,
      "ihaz": 8728,
      "▁yatırımcı": 8729,
      "▁okurlar": 8730,
      "▁servisi": 8731,
      "▁verilm": 8732,
      "tiniz": 8733,
      "dukca": 8734,
      "▁dustu": 8735,
      "▁basarısız": 8736,
      "▁yol": 8737,
      "▁oradaki": 8738,
      "▁cevrili": 8739,
      "▁almıstım": 8740,
      "▁uslu": 8741,
      "▁sıyır": 8742,
      "▁yanl": 8743,
      "▁ılımlı": 8744,
      "▁kaybı": 8745,
      "▁sınırlandır": 8746,
      "▁noel": 8747,
      "▁yollara": 8748,
      "▁kıyaslan": 8749,
      "▁ayındaki": 8750,
      "▁uvey": 8751,
      "▁tanz": 8752,
      "tırdı": 8753,
      "▁baglantılı": 8754,
      "▁iliskimiz": 8755,
      "um": 8756,
      "▁sade": 8757,
      "▁yed": 8758,
      "▁zordur": 8759,
      "▁ulke": 8760,
      "▁eli": 8761,
      "▁hedefleri": 8762,
      "s'un": 8763,
      "inn": 8764,
      "▁yurut": 8765,
      "fı": 8766,
      "▁catlak": 8767,
      "ılırsa": 8768,
      "▁uzul": 8769,
      "lis": 8770,
      "▁toy": 8771,
      "▁asf": 8772,
      "▁kes": 8773,
      "▁nak": 8774,
      "ation": 8775,
      "ayık": 8776,
      "▁inandır": 8777,
      "▁harp": 8778,
      "▁yasar": 8779,
      "▁basladı": 8780,
      "udu": 8781,
      "▁tayin": 8782,
      "3.9": 8783,
      "▁22.": 8784,
      "▁yaslar": 8785,
      "▁'y": 8786,
      "▁karsıtı": 8787,
      "▁yayımlanan": 8788,
      "▁yıkıldı": 8789,
      "▁sorum": 8790,
      "▁250": 8791,
      "aret": 8792,
      "▁1.23": 8793,
      "▁mahkemeye": 8794,
      "▁avsar": 8795,
      "▁masum": 8796,
      "▁havlular": 8797,
      "▁uretic": 8798,
      "▁hepsinin": 8799,
      "▁tutmak": 8800,
      "▁ford'un": 8801,
      "ater": 8802,
      "lıkları": 8803,
      "▁sultan": 8804,
      "▁gittikce": 8805,
      "▁odedi": 8806,
      "▁houston": 8807,
      "▁arkasındaki": 8808,
      "ıya": 8809,
      "▁sı": 8810,
      "▁336": 8811,
      "▁iliskileri": 8812,
      "▁kalitesini": 8813,
      "▁asagıda": 8814,
      "▁cev": 8815,
      "▁isters": 8816,
      "▁senator": 8817,
      "▁izledi": 8818,
      "▁9'dan": 8819,
      "▁arastırmalar": 8820,
      "▁vazo": 8821,
      "bel": 8822,
      "▁bulmak": 8823,
      "iles": 8824,
      "▁damar": 8825,
      "▁cub": 8826,
      "gimi": 8827,
      "'tan": 8828,
      "▁kolunu": 8829,
      "emeli": 8830,
      "▁112": 8831,
      "rily": 8832,
      "▁26000": 8833,
      "iniz": 8834,
      "▁politikası": 8835,
      "▁teklifini": 8836,
      "▁hırsız": 8837,
      "▁sonunda": 8838,
      "▁yonde": 8839,
      "sir": 8840,
      "▁gozyas": 8841,
      "▁yuku": 8842,
      "▁yorul": 8843,
      "▁texas": 8844,
      "zat": 8845,
      "▁nisan'da": 8846,
      "▁semt": 8847,
      "▁kım": 8848,
      "▁6.31": 8849,
      "▁buldum": 8850,
      "▁adamı": 8851,
      "▁siddet": 8852,
[...]
