{
  "version": "1.0",
  "truncation": null,
  "padding": null,
  "added_tokens": [
    {
      "id": 4073,
      "content": "[UNK]",
      "single_word": false,
      "lstrip": false,
      "rstrip": false,
      "normalized": false,
      "special": true
    },
    {
      "id": 4476,
      "content": "[CLS]",
      "single_word": false,
      "lstrip": false,
      "rstrip": false,
      "normalized": false,
      "special": true
    },
    {
      "id": 4644,
      "content": "[SEP]",
      "single_word": false,
      "lstrip": false,
      "rstrip": false,
      "normalized": false,
      "special": true
    },
    {
      "id": 6954,
      "content": "[MASK]",
      "single_word": false,
      "lstrip": false,
      "rstrip": false,
      "normalized": false,
      "special": true
    },
    {
      "id": 8049,
      "content": "[PAD]",
      "single_word": false,
      "lstrip": false,
      "rstrip": false,
      "normalized": false,
      "special": true
    }
  ],
  "normalizer": {
    "type": "Sequence",
    "normalizers": [
      {
        "type": "NFD"
      },
      {
        "type": "Lowercase"
      },
      {
        "type": "StripAccents"
      }
    ]
  },
  "pre_tokenizer": {
    "type": "Sequence",
    "pretokenizers": [
      {
        "type": "Metaspace",
        "replacement": "▁",
        "prepend_scheme": "always",
        "split": true
      }
    ]
  },
  "post_processor": {
    "type": "TemplateProcessing",
    "single": [
      {
        "SpecialToken": {
          "id": "[CLS]",
          "type_id": 0
        }
      },
      {
        "Sequence": {
          "id": "A",
          "type_id": 0
        }
      },
      {
        "SpecialToken": {
          "id": "[SEP]",
          "type_id": 0
        }
      }
    ],
    "pair": [
      {
        "SpecialToken": {
          "id": "[CLS]",
          "type_id": 0
        }
      },
      {
        "Sequence": {
          "id": "A",
          "type_id": 0
        }
      },
      {
        "SpecialToken": {
          "id": "[SEP]",
          "type_id": 0
        }
      },
      {
        "Sequence": {
          "id": "B",
          "type_id": 1
        }
      },
      {
        "SpecialToken": {
          "id": "[SEP]",
          "type_id": 1
        }
      }
    ],
    "special_tokens": {
      "[CLS]": {
        "id": "[CLS]",
        "ids": [
          4476
        ],
        "tokens": [
          "[CLS]"
        ]
      },
      "[SEP]": {
        "id": "[SEP]",
        "ids": [
          4644
        ],
        "tokens": [
          "[SEP]"
        ]
      }
    }
  },
  "decoder": {
    "type": "Metaspace",
    "replacement": "▁",
    "prepend_scheme": "always",
    "split": true
  },
  "model": {
    "type": "Unigram",
    "unk_id": 4073,
    "vocab": [
      [
        "acak",
        -7.2130870487004835
      ],
      [
        "▁kampanyalarda",
        -10.180435727374286
      ],
      [
        "▁getirilme",
        -10.561970847091526
      ],
      [
        "▁nesi",
        -9.847091115213182
      ],
      [
        "liyordu",
        -9.965181137403302
      ],
      [
        "▁yoneticiler",
        -10.360852170072572
      ],
      [
        "anı",
        -10.808690440604535
      ],
      [
        "▁chicago'da",
        -9.398818107098288
      ],
      [
        "▁basbakan",
        -9.457764084070142
      ],
      [
        "▁sergi",
        -9.252458136607387
      ],
      [
        "▁yuru",
        -8.808899994608929
      ],
      [
        "▁makam",
        -10.090781842048559
      ],
      [
        "▁ucu",
        -9.239929097601554
      ],
      [
        "▁yıldırım",
        -10.822943637390514
      ],
      [
        "▁yararlanmadi",
        -10.68852891534435
      ],
      [
        "ydu",
        -10.970623744144195
      ],
      [
        "▁ahır",
        -10.69283367539893
      ],
      [
        "▁boyun",
        -9.197555483758903
      ],
      [
        "▁besiktas",
        -10.471493933444059
      ],
      [
        "▁%2.",
        -13.027118981959273
      ],
      [
        "▁guney",
        -9.090019751241172
      ],
      [
        "▁meyve",
        -9.51232245649513
      ],
      [
        "ymıs",
        -10.736864695384593
      ],
      [
        "▁meyhane",
        -10.471502051195703
      ],
      [
        "gar",
        -9.66681941282811
      ],
      [
        "▁firması",
        -9.557393491447066
      ],
      [
        "|",
        -12.809526790838989
      ],
      [
        "▁56",
        -10.807443123191756
      ],
      [
        "▁nine",
        -10.391512809970473
      ],
      [
        "▁22.6",
        -10.90718659032892
      ],
      [
        "▁sabah",
        -7.350887620378297
      ],
      [
        "i",
        -9.483528417945884
      ],
      [
        "▁evini",
        -10.606082670026517
      ],
      [
        "benim",
        -9.504691513740548
      ],
      [
        "▁bulunuyor",
        -9.42101400018856
      ],
      [
        "▁kaydedil",
        -10.436274632395982
      ],
      [
        "▁havayolunu",
        -10.875122903312539
      ],
      [
        "lendirme",
        -9.35327397114617
      ],
      [
        "▁190",
        -9.816531335646127
      ],
      [
        "▁yuku",
        -10.218474162736936
      ],
      [
        "▁musteriler",
        -9.73155343585614
      ],
      [
        "▁yaratıcı",
        -10.178102178128066
      ],
      [
        "▁3'te",
        -10.755429168375228
      ],
      [
        "liklerini",
        -10.240989789555416
      ],
      [
        "birlikte",
        -10.864049484981738
      ],
      [
        "▁perakende",
        -9.933143297996779
      ],
      [
        "93",
        -10.036132247687437
      ],
      [
        "▁sorunun",
        -10.198375472632254
      ],
      [
        "▁algı",
        -9.684363799399208
      ],
      [
        "▁atlanta'da",
        -7.885822903654595
      ],
      [
        "▁merhaba",
        -10.33494196741597
      ],
      [
        "▁yemekleri",
        -7.774273359430887
      ],
      [
        "▁76",
        -9.96810367299896
      ],
      [
        "▁ols",
        -9.308168117671995
      ],
      [
        "▁a.b.d",
        -10.68761879975462
      ],
      [
        "▁italya",
        -10.329521036232975
      ],
      [
        "▁genelkurmay",
        -10.88909898688363
      ],
      [
        "▁korkuyor",
        -10.32513053772814
      ],
      [
        "▁hakkin",
        -9.424026800740425
      ],
      [
        "▁merkezinde",
        -10.148349339905915
      ],
      [
        "▁deniz",
        -7.382472481215862
      ],
      [
        "▁fena",
        -8.753054765384086
      ],
      [
        "▁uzum",
        -10.087896044198597
      ],
      [
        "▁video",
        -10.629757887538606
      ],
      [
        "▁prens",
        -10.043720286122443
      ],
      [
        "▁hangisi",
        -7.842202844556418
      ],
      [
        "▁18.7",
        -10.655048398053445
      ],
      [
        "▁bende",
        -7.864745660393515
      ],
      [
        "▁yıkan",
        -10.425549847884206
      ],
      [
        "▁tufek",
        -10.889100488715268
      ],
      [
        "▁bitisi",
        -10.751659134741603
      ],
      [
        "▁gorevli",
        -10.321301443527362
      ],
      [
        "▁yaptıgını",
        -9.85911195633048
      ],
      [
        "▁ekmegi",
        -9.894731728233081
      ],
      [
        "▁yalan",
        -9.121459265724235
      ],
      [
        "▁safha",
        -10.630682000346418
      ],
      [
        "▁karısma",
        -10.5718148191434
      ],
      [
        "▁makul",
        -10.379955470427626
      ],
      [
        "▁profesyonel",
        -9.980434515402658
      ],
      [
        "▁haklı",
        -9.756570762582564
      ],
      [
        "▁tipi",
        -9.391884688237077
      ],
      [
        "▁an",
        -7.349697230620575
      ],
      [
        "▁sokma",
        -10.64496220247342
      ],
      [
        "▁odalar",
        -8.772501561569268
      ],
      [
        "▁ortam",
        -9.309345020034055
      ],
      [
        "▁lima",
        -9.795402431130462
      ],
      [
        "▁11.",
        -10.27761151482784
      ],
      [
        "▁personelleri",
        -7.856832124525141
      ],
      [
        "▁yonlendirdi",
        -10.253719363495877
      ],
      [
        "▁kose",
        -9.051697612999849
      ],
      [
        "▁aylar",
        -10.014718993059926
      ],
      [
        "▁listesini",
        -9.720861725371675
      ],
      [
        "▁cigne",
        -10.695714319483791
      ],
      [
        "x",
        -8.401334689086998
      ],
      [
        "▁eren",
        -10.402076125712567
      ],
      [
        "▁gorunum",
        -10.56349330481595
      ],
      [
        "▁buyur",
        -10.269638342735458
      ],
      [
        "ncı",
        -10.353289485808999
      ],
      [
        "ymis",
        -10.68951195105023
      ],
      [
        "▁kotu",
        -7.773783751827367
      ],
      [
        "▁gorevini",
        -10.493941195768542
      ],
      [
        "▁dua",
        -9.940902442048017
      ],
      [
        "icin",
        -7.2082679688354006
      ],
      [
        "▁arizona",
        -10.177776021665364
      ],
      [
        "▁edebilecegi",
        -10.503383604027336
      ],
      [
        "▁basımız",
        -10.749154594025494
      ],
      [
        "▁sıra",
        -8.01871663600955
      ],
      [
        "▁dukkan",
        -9.461304308729595
      ],
      [
        "▁demokratik",
        -10.074810130896466
      ],
      [
        "▁130.",
        -10.87765496259595
      ],
      [
        "▁karar",
        -7.873344736235835
      ],
      [
        "▁bolgesinde",
        -10.669109249621421
      ],
      [
        "▁hissesini",
        -10.64656934528012
      ],
      [
        "▁ucusun",
        -9.71990021734492
      ],
      [
        "▁romancı",
        -10.604965557427823
      ],
      [
        "▁fakir",
        -9.841385796922793
      ],
      [
        "lenir",
        -9.437248915751546
      ],
      [
        "▁vazife",
        -10.423874081833798
      ],
      [
        "▁washington'",
        -8.877618808970523
      ],
      [
        "▁dayanısma",
        -10.817672107491253
      ],
      [
        "▁ant",
        -9.883528186228911
      ],
      [
        "v",
        -7.60658556772975
      ],
      [
        "▁gorusme",
        -9.337917779702853
      ],
      [
        "dıgı",
        -8.022580511601854
      ],
      [
        "▁bell",
        -10.160180261418715
      ],
      [
        "▁ec",
        -10.285056378831984
      ],
      [
        "7",
        -6.877042668686723
      ],
      [
        "▁rıhtım",
        -10.378419491107515
      ],
      [
        "▁evin",
        -8.73226191327022
      ],
      [
        "eden",
        -8.921348628135153
      ],
      [
        "▁isi",
        -8.248272358505172
      ],
      [
        "▁niyeti",
        -10.508182833922048
      ],
      [
        "lerin",
        -6.508766478987896
      ],
      [
        "▁aslın",
        -8.606880240905216
      ],
      [
        "▁bilinc",
        -9.590842987789275
      ],
      [
        "▁yonu",
        -10.00164948939422
      ],
      [
        "▁faaliyetleri",
        -10.025744659045111
      ],
      [
        "▁okuyor",
        -10.340971564326098
      ],
      [
        "▁kaliforniya",
        -9.372968885548953
      ],
      [
        "▁meslek",
        -10.177912514985007
      ],
      [
        "270",
        -10.442777589670378
      ],
      [
        "▁meksika",
        -10.521493471264254
      ],
      [
        "▁isgal",
        -10.216285406819772
      ],
      [
        "▁senaryo",
        -10.293274633665792
      ],
      [
        "▁ugrama",
        -10.839049722630719
      ],
      [
        "▁arkadaslar",
        -9.384522433081298
      ],
      [
        "▁tez",
        -10.167022585455104
      ],
      [
        "▁pasta",
        -10.3411326740699
      ],
      [
        "▁ureticileri",
        -9.922503388446263
      ],
      [
        "▁kop",
        -10.09943343422973
      ],
      [
        "▁vegas'ta",
        -9.842727158641079
      ],
      [
        "▁aracılıgı",
        -9.895800460374398
      ],
      [
        "▁20-2",
        -11.921801021663061
      ],
      [
        "maktadır",
        -8.086821747910417
      ],
      [
        "▁inani",
        -10.416247113452288
      ],
      [
        "▁yogun",
        -9.227802281743664
      ],
      [
        "▁tertemiz",
        -10.423877665851183
      ],
      [
        "▁konya",
        -10.411479371163761
      ],
      [
        "▁telas",
        -10.022669583534611
      ],
      [
        "▁gulus",
        -10.121414532921692
      ],
      [
        "▁bizle",
        -10.762624733378612
      ],
      [
        "▁ulasımı",
        -8.909717354131885
      ],
      [
        "▁uzun",
        -7.378282097083596
      ],
      [
        "manın",
        -9.559319113053485
      ],
      [
        "▁otele",
        -9.756491544301078
      ],
      [
        "▁dugme",
        -9.894746602015031
      ],
      [
        "▁gokyuzu",
        -10.332634554474332
      ],
      [
        "▁sonuclarını",
        -10.54005367997078
      ],
      [
        "▁yi",
        -9.990655862087861
      ],
      [
        "▁adım",
        -8.45871418574487
      ],
      [
        "▁ayva",
        -10.697824162710338
      ],
      [
        "ısı",
        -11.051820260445027
      ],
      [
        "▁egitim",
        -8.605464871059318
      ],
      [
        "▁begendik",
        -10.054647125793185
      ],
      [
        "▁dusun",
        -8.909215177610076
      ],
      [
        "▁yolda",
        -9.051518806004383
      ],
      [
        "▁senin",
        -6.975285892300653
      ],
      [
        "▁tarihi",
        -9.123389010229443
      ],
      [
        "▁kokusu",
        -9.687372167819015
      ],
      [
        "▁olabilecegini",
        -9.929018536590394
      ],
      [
        "iliski",
        -10.882621173052643
      ],
      [
        "▁neresi",
        -9.4401415114116
      ],
      [
        "▁hacim",
        -9.373405976308835
      ],
      [
        "▁varan",
        -8.280295315999265
      ],
      [
        "▁bildirdi",
        -9.194887155439556
      ],
      [
        "▁aktarma",
        -9.542790844075162
      ],
      [
        "▁davet",
        -9.494032192960484
      ],
      [
        "▁capında",
        -9.895514274910626
      ],
      [
        "▁yollar",
        -10.163101998902938
      ],
      [
        "950",
        -10.998314967311511
      ],
      [
        "▁baglı",
        -8.591616895606606
      ],
      [
        "▁kalite",
        -8.283401714577899
      ],
      [
        "▁journal",
        -10.142061719494142
      ],
      [
        "▁olanakları",
        -9.919112317039945
      ],
      [
        "▁yabanci",
        -10.690035313122324
      ],
      [
        "▁gen",
        -10.24356977556676
      ],
      [
        "ris",
        -9.427260181237214
      ],
      [
        "▁temizlikte",
        -10.3839006612981
      ],
      [
        "▁bo",
        -8.649780038573343
      ],
      [
        "15",
        -9.045844818969567
      ],
      [
        "▁yaygın",
        -9.910279578661251
      ],
      [
        "▁gorunus",
        -10.057792281200399
      ],
      [
        "▁artır",
        -9.552223993987033
      ],
      [
        "▁aktiviteler",
        -10.253650557190026
      ],
      [
        "▁47",
        -9.610585568959918
      ],
      [
        "▁gri",
        -10.257301448399955
      ],
      [
        "▁ana",
        -7.9174094265844595
      ],
      [
        "id",
        -9.31941720878529
      ],
      [
        "▁irak'",
        -10.42492247294506
      ],
      [
        "▁balayi",
        -10.074625185229383
      ],
      [
        "e",
        -4.410994530981025
      ],
      [
        "▁komisyonlar",
        -10.256768703375762
      ],
      [
        "▁rahatsız",
        -9.480264065656275
      ],
      [
        "amaz",
        -9.01581716719382
      ],
      [
        "▁recep",
        -9.980474030684316
      ],
      [
        "▁agzında",
        -10.047366497044958
      ],
      [
        ".61",
        -13.61469673427371
      ],
      [
        "▁sorun",
        -8.140900240699484
      ],
      [
        "▁koydugu",
        -10.607740893887895
      ],
      [
        "ucu",
        -9.522373099117019
      ],
      [
        "▁duru",
        -9.88843838073626
      ],
      [
        "▁osmanlı",
        -9.552469384062924
      ],
      [
        "▁74",
        -10.261691646216736
      ],
      [
        "▁kurulusu",
        -10.064060349927681
      ],
      [
        "▁kurdu",
        -9.42802267239471
      ],
      [
        "▁bitti",
        -9.751900498219129
      ],
      [
        "▁sular",
        -9.790409828762776
      ],
      [
        "▁yaptırdı",
        -10.584104949451353
      ],
      [
        "▁dortyuzotuz",
        -10.889027647211869
      ],
      [
        "▁tutku",
        -10.1450337999751
      ],
      [
        "▁eylul",
        -8.795553781762528
      ],
      [
        "▁muhtac",
        -10.521506399338955
      ],
      [
        "▁heyeti",
        -10.378511145544149
      ],
      [
        "▁bası",
        -8.724964103803755
      ],
      [
        "▁somur",
        -10.574487503257718
      ],
      [
        "ma",
        -12.810082874936368
      ],
      [
        "▁sınıfı",
        -8.94900196463377
      ],
      [
        "▁rezervasyon",
        -9.168077983007727
      ],
      [
        "lesen",
        -9.979476942633136
      ],
      [
        "%5",
        -12.369826670084198
      ],
      [
        "ran",
        -8.282028455631897
      ],
      [
        "▁degisimi",
        -9.982065489384466
      ],
      [
        "▁guldu",
        -10.133428792820666
      ],
      [
        "▁baltimore'de",
        -8.417301400796534
      ],
      [
        "▁il",
        -7.476214463926909
      ],
      [
        "▁hatırlıyor",
        -10.703164232398004
      ],
      [
        "▁asil",
        -10.230188175187243
      ],
      [
        "▁oldugunu",
        -8.734847030904774
      ],
      [
        "duz",
        -10.388405869855779
      ],
      [
        "7/",
        -9.640234913681336
      ],
      [
        "▁kılavuz",
        -10.57412473037471
      ],
      [
        "ak",
        -7.804092858450923
      ],
      [
        "▁besyuz",
        -10.033674272505372
      ],
      [
        "▁kanadı",
        -10.522056304214644
      ],
      [
        "lenme",
        -8.542883970635284
      ],
      [
        "▁muhafazakar",
        -10.335100521049227
      ],
      [
        "▁bolunme",
        -10.574203692393166
      ],
      [
        "▁bodrum",
        -9.980434538207414
      ],
      [
        "▁guler",
        -8.186717627250845
      ],
      [
        "▁biri",
        -8.511387516938147
      ],
      [
        "▁george",
        -10.010737994794905
      ],
      [
        "▁umumi",
        -10.757420415099196
      ],
      [
        "▁yayın",
        -8.604731810067186
      ],
      [
        "▁abd'de",
        -9.908896846140225
      ],
      [
        "▁donem",
        -9.095364253145213
      ],
      [
        "▁denver'de",
        -7.593590646626524
      ],
      [
        "▁86",
        -10.833266039124373
      ],
      [
        "▁gonderme",
        -10.599137880028113
      ],
      [
        "▁nuk",
        -10.122356335960394
      ],
      [
        "▁nesil",
        -10.338629373462988
      ],
      [
        "▁david",
        -10.378421821706997
      ],
      [
        "▁aralarında",
        -9.807455283530937
      ],
      [
        "▁degismis",
        -10.860489227107458
      ],
      [
        "▁nesne",
        -10.648006535992275
      ],
      [
        "▁kitap",
        -8.83778065783115
      ],
      [
        "▁gosteriyor",
        -9.034095944266793
      ],
      [
        "▁cirkin",
        -9.980436890355037
      ],
      [
        "2'de",
        -10.170361897591329
      ],
      [
        "▁olmam",
        -10.87168545940772
      ],
      [
        "▁birimleri",
        -10.533953316594491
      ],
      [
        "▁bur",
        -8.350448928901471
      ],
      [
        "amm",
        -10.642140787928728
      ],
      [
        "▁attı",
        -8.852101860512192
      ],
      [
        "▁niyet",
        -10.048317566779282
      ],
      [
        "▁cabuk",
        -9.475620917313151
      ],
      [
        "▁kopya",
        -10.584783842626534
      ],
      [
        "▁kenar",
        -9.397472382092069
      ],
      [
        "▁dil",
        -8.35406534237037
      ],
      [
        "▁tanrı'",
        -10.40060406264804
      ],
      [
        "▁havayolları",
        -8.184392636049028
      ],
      [
        "▁kendisin",
        -7.170173991469403
      ],
      [
        "▁vardi",
        -7.968382493571335
      ],
      [
        "▁oy",
        -8.647471597192121
      ],
      [
        "▁tren",
        -9.312569105616664
      ],
      [
        "▁belirtildi",
        -10.751666569086723
      ],
      [
        "▁gecerli",
        -9.84826168723846
      ],
      [
        "▁0.7",
        -9.986632216122116
      ],
      [
        "▁mustafa",
        -9.067164505691792
      ],
      [
        "▁delta",
        -8.751446600849297
      ],
      [
        "▁7.2",
        -10.324098996964956
      ],
      [
        "ttı",
        -8.851524135947205
      ],
      [
        "▁alanı",
        -10.13667478408903
      ],
      [
        "▁noktası",
        -9.989750933176387
      ],
      [
        "▁maske",
        -10.751325319345892
      ],
      [
        "de",
        -10.03163979978559
      ],
      [
        "▁h",
        -11.551346784897673
      ],
      [
        "▁1991'de",
        -10.889098986609586
      ],
      [
        "▁yuzluydu",
        -9.63181232550754
      ],
      [
        "▁kaldırım",
        -9.845483327737744
      ],
      [
        "▁goruluyor",
        -10.33214545601994
      ],
      [
        "▁geli",
        -9.311929641552165
      ],
      [
        "tum",
        -8.604569100470624
      ],
      [
        "▁hucum",
        -10.57418297550662
      ],
      [
        "▁dini",
        -10.407762898151155
      ],
      [
        "▁vasıtası",
        -9.98016373878562
      ],
      [
        "▁kural",
        -10.172185091222477
      ],
      [
        "iz",
        -7.532188226968462
      ],
      [
        "▁katildi",
        -9.913050761950933
      ],
      [
        "▁cevresinde",
        -10.483576740398465
      ],
      [
        "▁yasamı",
        -10.178123317314796
      ],
      [
        "▁his",
        -9.906495620865922
      ],
      [
        "▁arasında",
        -6.703675543688807
      ],
      [
        "▁cogunlugu",
        -10.53345277299504
      ],
      [
        "▁ata",
        -9.183354449307148
      ],
      [
        "miyor",
        -8.289664006051613
      ],
      [
        "▁ustu",
        -8.768271821147327
      ],
      [
        "▁oglu",
        -9.744160570798302
      ],
      [
        "-",
        -7.637388072532559
      ],
      [
        "▁konut",
        -9.406111897412245
      ],
      [
        "ti",
        -8.056066862996996
      ],
      [
        "▁bel",
        -9.316573588576984
      ],
      [
        "▁gidere",
        -10.15678629031916
      ],
      [
        "▁fiyatlarını",
        -9.24538521909923
      ],
      [
        "▁lacivert",
        -10.334941241658452
      ],
      [
        "▁hamal",
        -10.437363755110553
      ],
      [
        "lasan",
        -10.050095006058786
      ],
      [
        "1'de",
        -9.807721456774896
      ],
      [
        "▁kisilerin",
        -10.44469826284996
      ],
      [
        "▁basamak",
        -10.718501114929335
      ],
      [
        "▁elestiri",
        -9.595283460452633
      ],
      [
        "▁kalmıstı",
        -9.824523016848975
      ],
      [
        "▁eklen",
        -10.297905306728815
      ],
      [
        "▁sok",
        -8.939135169417433
      ],
      [
        "▁cesaret",
        -10.163441158532098
      ],
      [
        "▁gitti",
        -8.22618241737927
      ],
      [
        "▁kuvvet",
        -9.186650477087738
      ],
      [
        "ar",
        -7.284579014773857
      ],
      [
        "▁fu",
        -9.527131004629723
      ],
      [
        "▁denile",
        -9.737372234837867
      ],
      [
        "ttigi",
        -10.262792510350913
      ],
      [
        "her",
        -7.935548295472399
      ],
      [
        "▁yılında",
        -8.570616454790331
      ],
      [
        "let",
        -8.949439147705776
      ],
      [
        "▁145",
        -10.904143579182826
      ],
      [
        "▁abd'",
        -9.472527038001779
      ],
      [
        "▁cıplak",
        -10.041988792225816
      ],
      [
        "▁paranın",
        -10.126711831773193
      ],
      [
        "▁hayatını",
        -9.935583699139073
      ],
      [
        "▁guardia",
        -10.751006547989988
      ],
      [
        "▁surpriz",
        -10.889099136737888
      ],
      [
        "▁fon",
        -9.298409875449146
      ],
      [
        "▁mesru",
        -10.521530683547306
      ],
      [
        "▁sirketlerin",
        -9.922208676589294
      ],
      [
        "▁nese",
        -9.672157400037008
      ],
      [
        "▁29",
        -8.31141521590659
      ],
      [
        "▁kinde",
        -10.031918237920724
      ],
      [
        "▁sorular",
        -10.193778188059477
      ],
      [
        "▁cıkıyor",
        -9.141097125816547
      ],
      [
        "▁suruklen",
        -10.69331317310117
      ],
      [
        "▁saldırı",
        -9.541227306568693
      ],
      [
        "▁ardı",
        -9.451458198429824
      ],
      [
        "iye",
        -6.892607271260933
      ],
      [
        "▁700.",
        -10.888247410819082
      ],
      [
        "7.8",
        -10.507545661971692
      ],
      [
        "▁havaalanı'nda",
        -10.177957967553755
      ],
      [
        "▁kampanyalar",
        -9.729557279098112
      ],
      [
        "▁1983",
        -10.347090297617484
      ],
      [
        "▁siyah",
        -8.620657091374836
      ],
      [
        "▁uyku",
        -9.288287758459706
      ],
      [
        "▁kalmaya",
        -10.069022618555355
      ],
      [
        "▁col",
        -9.862291427009412
      ],
      [
        "▁itiraz",
        -9.71923591789442
      ],
      [
        "▁tanesi",
        -10.193160579843223
      ],
      [
        "▁kurek",
        -10.633336185768526
      ],
      [
        "▁aktar",
        -9.358861161567358
      ],
      [
        "larda",
        -7.428870809801358
      ],
      [
        "▁yayımlan",
        -10.608023741657256
      ],
      [
        "▁0.9",
        -9.814412234819317
      ],
      [
        "26",
        -10.035845426624126
      ],
      [
        "dikleri",
        -9.381924822050026
      ],
      [
        "▁zehir",
        -10.156590437697023
      ],
      [
        "▁pentagon",
        -10.817670418051453
      ],
      [
        "▁diger",
        -7.392545940170629
      ],
      [
        "meyecegi",
        -9.548666706195917
      ],
      [
        "▁harcama",
        -9.471095586646852
      ],
      [
        "▁resme",
        -10.010769971554852
      ],
      [
        "▁tum",
        -5.009593977490714
      ],
      [
        "69",
        -10.562274752466745
      ],
      [
        "▁alaka",
        -9.200589091068736
      ],
      [
        "▁tırmanı",
        -10.521508523098081
      ],
      [
        "yor",
        -7.921136094037258
      ],
      [
        "▁olmasa",
        -9.635410247627672
      ],
      [
        "▁83",
        -10.689982403369488
      ],
      [
        "▁rezervasyonlar",
        -10.69546197960971
      ],
      [
        "▁senato",
        -9.811073773194241
      ],
      [
        "▁perisan",
        -10.818080301894273
      ],
      [
        "▁2.1",
        -10.319519851547797
      ],
      [
        "▁bilmez",
        -10.265564819593807
      ],
      [
        "▁araba",
        -8.08824198209259
      ],
      [
        "▁olmayı",
        -9.80416415340401
      ],
      [
        "▁dalgın",
        -10.3350800808391
      ],
      [
        "▁pencerede",
        -10.701641551651761
      ],
      [
        "▁yama",
        -10.129211902272521
      ],
      [
        "▁agırlık",
        -10.358862708421354
      ],
      [
        "▁sahip",
        -7.877811172311883
      ],
      [
        "▁sayısı",
        -9.502763733659682
      ],
      [
        "▁6.6",
        -10.9094710982956
      ],
      [
        "▁hedef",
        -9.296299211539097
      ],
      [
        "▁payı",
        -9.818271871122992
      ],
      [
        "▁acar",
        -9.771212409159427
      ],
      [
        "▁yasam",
        -9.030003523345226
      ],
      [
        "▁",
        -0.7142778471973976
      ],
      [
        "▁endeks",
        -9.188423078810619
      ],
      [
        "▁sak",
        -9.207539794145411
      ],
      [
        "▁panik",
        -10.42409455279897
      ],
      [
        "sun",
        -7.723350706797373
      ],
      [
        "cik",
        -9.557210653151559
      ],
      [
        "▁olumu",
        -9.876727586368336
      ],
      [
        "80",
        -9.685891330032074
      ],
      [
        "▁idare",
        -9.162506613518358
      ],
      [
        "▁sut",
        -9.01353210423662
      ],
      [
        "▁sıfır",
        -10.334941514174693
      ],
      [
        "▁pur",
        -10.299547689904038
      ],
      [
        "▁olgu",
        -9.648678895414585
      ],
      [
        "▁kullanma",
        -9.878194797112242
      ],
      [
        "▁baska",
        -7.370951733912165
      ],
      [
        "▁istegi",
        -10.221836035113702
      ],
      [
        "▁bankacı",
        -10.02515788813906
      ],
      [
        "▁sokaklarda",
        -10.70237922706975
      ],
      [
        "▁kıl",
        -8.893885248570301
      ],
      [
        "▁gorev",
        -8.573804851928985
      ],
      [
        "▁oakland'da",
        -9.365191324221826
      ],
      [
        "malıyı",
        -9.833061568630848
      ],
      [
        "▁mendil",
        -9.951103153900014
      ],
      [
        "nun",
        -8.07222719056628
      ],
      [
        "▁gelecegi",
        -9.866933778827912
      ],
      [
        "sa",
        -9.687890704303967
      ],
      [
        "minal",
        -10.426863141536657
      ],
      [
        "▁der",
        -8.43471961232163
      ],
      [
        "▁atmak",
        -10.328020352784726
      ],
      [
        "▁hukumet",
        -8.523530177945005
      ],
      [
        "cekli",
        -10.751261042845606
      ],
      [
        "▁dose",
        -10.10418815824281
      ],
      [
        "una",
        -8.648437351262054
      ],
      [
        "▁dort",
        -6.461747336534862
      ],
      [
        "▁sı",
        -13.077029596797782
      ],
      [
        "▁tukenme",
        -10.824064722214787
      ],
      [
        "sında",
        -7.578648854023125
      ],
      [
        "▁umutsuz",
        -10.690302679025574
      ],
      [
        "lar",
        -7.961244385437585
      ],
      [
        "▁seans",
        -10.81985366006688
      ],
      [
        "▁angeles",
        -10.072923360712705
      ],
      [
        "▁yesil",
        -8.71716293030342
      ],
      [
        "im",
        -8.415921563447386
      ],
      [
        "▁uzakta",
        -9.592576060953288
      ],
      [
        "▁hu",
        -9.07063413931585
      ],
      [
        "▁gecirdik",
        -10.163197072801786
      ],
      [
        "▁peynir",
        -9.569293018721593
      ],
      [
        "▁ideoloji",
        -10.21481309470826
      ],
      [
        "▁cocukları",
        -9.419174915749128
      ],
      [
        "▁olan",
        -8.129043926954479
      ],
      [
        "▁istedigimi",
        -10.610228298766032
      ],
      [
        "▁dordu",
        -8.829957619883997
      ],
      [
        "▁yakı",
        -10.55450028167607
      ],
      [
        "▁ekonomistler",
        -10.818214488766834
      ],
      [
        "▁ani",
        -9.709414503947896
      ],
      [
        "▁fa",
        -9.063505116176476
      ],
      [
        "▁turk",
        -7.69167811427743
      ],
      [
        "▁oturuyor",
        -10.123079839964703
      ],
      [
        "▁gelismis",
        -10.522596010264376
      ],
      [
        "cogu",
        -10.753595314611992
      ],
      [
        "▁kitapta",
        -10.52570772225927
      ],
      [
        "▁inter",
        -10.524509400444892
      ],
      [
        "▁philadelphia'",
        -8.051030299046827
      ],
      [
        "▁gorur",
        -9.332534650460108
      ],
      [
        "▁calisanlar",
        -9.241054249761126
      ],
      [
        "m",
        -5.017397402025318
      ],
      [
        "▁mıs",
        -8.221270484658733
      ],
      [
        "▁tanıstı",
        -10.52187527361132
      ],
      [
        "▁yemis",
        -9.5976336112993
      ],
      [
        "▁yorgunluk",
        -10.524455980579486
      ],
      [
        "▁kalır",
        -9.448678998531518
      ],
      [
        "▁18.6",
        -10.657807412583528
      ],
      [
        "97",
        -10.419706791220547
      ],
      [
        "▁istiyordu",
        -9.880962049285728
      ],
      [
        "▁ardında",
        -8.822285082411025
      ],
      [
        "▁oldurdu",
        -10.867519125400138
      ],
      [
        "▁lokma",
        -10.178304533081542
      ],
      [
        "▁j",
        -9.262677194622775
      ],
      [
        "▁cekilme",
        -9.93663916960401
      ],
      [
        "9.6",
        -10.556319638405284
      ],
      [
        "▁burnu",
        -10.107843196185502
      ],
      [
        "1.5",
        -10.363340149990353
      ],
      [
        "▁oglum",
        -9.624209445679094
      ],
      [
        "▁surada",
        -10.888683670775977
      ],
      [
        "▁iceri",
        -8.542080710063061
      ],
      [
        "▁sos",
        -10.282245598550276
      ],
      [
        "s'in",
        -9.83518714930327
      ],
      [
        "200",
        -13.183875010531716
      ],
      [
        "▁houston",
        -10.232326509120979
      ],
      [
        "▁k",
        -9.253332953015757
      ],
      [
        "▁geregi",
        -9.951598904038239
      ],
      [
        "▁tor",
        -9.572257480505092
      ],
      [
        "▁4.2",
        -9.925145185427215
      ],
      [
        "▁city'",
        -8.758399207044867
      ],
      [
        "▁ceken",
        -9.905069552184518
      ],
      [
        "▁kızar",
        -9.537301252831522
      ],
      [
        "▁5/",
        -9.813935803487151
      ],
      [
        "▁icindeki",
        -10.082723047029681
      ],
      [
        "▁koruma",
        -9.884479395242817
      ],
      [
        "sı",
        -6.088644918240215
      ],
      [
        "▁uzaklas",
        -10.188499067563537
      ],
      [
        "▁home",
        -10.690083431844045
      ],
      [
        "▁hukum",
        -9.549629911703533
      ],
      [
        "▁olu",
        -10.523711559048557
      ],
      [
        "▁tayf",
        -10.889158456166227
      ],
      [
        "▁deger",
        -8.293520125200297
      ],
      [
        "▁kap",
        -8.325349301488432
      ],
      [
        "▁ulasma",
        -9.839099687240648
      ],
      [
        "▁zarar",
        -8.65984336577294
      ],
      [
        "▁emtia",
        -10.293411635080416
      ],
      [
        "▁bonoları",
        -10.548811240603467
      ],
      [
        "▁bagımlı",
        -9.790733892974226
      ],
      [
        "▁nasdaq",
        -10.21481302684553
      ],
      [
        "▁yelpaze",
        -10.423874070937382
      ],
      [
        "▁erkek",
        -8.52378179548634
      ],
      [
        "▁yer",
        -7.344073582516507
      ],
      [
        "▁gorebilir",
        -10.691278094119102
      ],
      [
        "bas",
        -9.755236305084432
      ],
      [
        "▁katil",
        -9.799372381655973
      ],
      [
        "ell",
        -9.308821838640654
      ],
      [
        "ıyordu",
        -8.053457337080324
      ],
      [
        "▁simdi",
        -7.140572371169526
      ],
      [
        "▁tedavi",
        -9.841336084931534
      ],
      [
        "▁b.",
        -10.640520674321765
      ],
      [
        "▁zorunlu",
        -9.867666172617522
      ],
      [
        "▁edilmesi",
        -9.648406840583174
      ],
      [
        "▁cıkarma",
        -9.281868096923356
      ],
      [
        "▁teskil",
        -10.214881145994859
      ],
      [
        "▁aktif",
        -9.195064616585446
      ],
      [
        "ji",
        -9.458398678633785
      ],
      [
        "8",
        -9.465744679121462
      ],
      [
        "8'de",
        -10.276984901970474
      ],
      [
        "yse",
        -9.073660167339824
      ],
      [
        "▁les",
        -10.241292619129892
      ],
      [
        "▁gidiyordu",
        -9.963985756548723
      ],
      [
        "▁mektup",
        -9.40602923949265
      ],
      [
        "▁yıllar",
        -8.581705756809004
      ],
      [
        "▁girme",
        -9.122297378080663
      ],
      [
        "▁neler",
        -8.364139622478628
      ],
      [
        "▁moda",
        -9.960203953058183
      ],
      [
        "▁tuz",
        -8.84807103716447
      ],
      [
        "▁kos",
        -8.777721072170579
      ],
      [
        "imiz",
        -8.544494370514176
      ],
      [
        "▁ayrılma",
        -9.827017951128218
      ],
      [
        "▁not",
        -9.15377508076072
      ],
      [
        "▁yola",
        -9.296420302023852
      ],
      [
        "▁dayan",
        -8.953513989300827
      ],
      [
        "▁ti",
        -9.481672577664659
      ],
      [
        "▁cikiyor",
        -10.830822733405556
      ],
      [
        "oyu",
        -10.825250138469524
      ],
      [
        "▁%5.",
        -13.23714746142396
      ],
      [
        "▁kala",
        -10.380254636935419
      ],
      [
        "▁mekan",
        -9.697333863151053
      ],
      [
        "▁bakır",
        -9.74173117577839
      ],
      [
        "▁t",
        -9.943348871082272
      ],
      [
        "▁ayhan",
        -10.077392848639988
      ],
      [
        "▁ne",
        -5.424833690440229
      ],
      [
        "▁tı",
        -6.478728049308052
      ],
      [
        "17",
        -9.744783539347635
      ],
      [
        "53",
        -10.073599951881592
      ],
      [
        "▁turkiye'de",
        -9.345182994029965
      ],
      [
        "▁19",
        -7.590840352627738
      ],
      [
        "pır",
        -10.285936051152301
      ],
      [
        "misi",
        -10.59608199260895
      ],
      [
        "▁1100",
        -10.565896809000884
      ],
      [
        "▁ima",
        -9.664257072680245
      ],
      [
        "▁giydi",
        -10.617453642570593
      ],
      [
        "t",
        -8.962720578188764
      ],
      [
        "▁dusunuyoru",
        -9.623147717822057
      ],
      [
        "▁oper",
        -10.42727540396028
      ],
      [
        "urası",
        -10.812561105408253
      ],
      [
        "▁samimi",
        -10.47196703273193
      ],
      [
        "u",
        -5.8309235632964285
      ],
      [
        "▁soru",
        -8.721494587904822
      ],
      [
        "▁bayrak",
        -10.081774048058996
      ],
      [
        "▁rakam",
        -9.799406720837787
      ],
      [
        "▁asker",
        -9.306200382175561
      ],
      [
        "▁oldurme",
        -10.384732778679545
      ],
      [
        "▁adamı",
        -9.373397236299887
      ],
      [
        "ey",
        -9.034179521616508
      ],
      [
        "▁198",
        -13.999596592358095
      ],
      [
        "▁gerektigi",
        -10.7666534365934
      ],
      [
        "▁istedi",
        -9.087258944201817
      ],
      [
        "▁eylem",
        -9.186174231178352
      ],
      [
        "▁135",
        -10.524816484443363
      ],
      [
        "▁duzeyde",
        -10.639363551347717
      ],
      [
        "'de",
        -7.590951463286687
      ],
      [
        "▁yoktu",
        -7.133277900650745
      ],
      [
        "▁sevda",
        -10.195734623229773
      ],
      [
        "kac",
        -10.958567112876992
      ],
      [
        "▁biten",
        -10.26405376195078
      ],
      [
        "▁charlotte'",
        -9.784643236532078
      ],
      [
        "▁sutu",
        -10.257088368719659
      ],
      [
        "▁mutluluk",
        -10.296424300906587
      ],
      [
        "▁aralık",
        -8.84433665267485
      ],
      [
        "de",
        -5.950856761464086
      ],
      [
        "dum",
        -10.559202719587336
      ],
      [
        "▁196",
        -9.219426224782298
      ],
      [
        "▁sirketi",
        -8.60618703448695
      ],
      [
        "▁ellerinde",
        -9.502788420232609
      ],
      [
        "lardı",
        -7.643584755172196
      ],
      [
        "▁eastern",
        -9.980441745355408
      ],
      [
        "▁edilir",
        -9.896784572977362
      ],
      [
        "▁%9",
        -9.782451238871037
      ],
      [
        "▁anlasılma",
        -10.423904828021083
      ],
      [
        "▁8.5",
        -10.09862692703964
      ],
      [
        "▁international'",
        -10.566444100016906
      ],
      [
        "▁yururlug",
        -10.629814027272484
      ],
      [
        "or",
        -11.285911387029632
      ],
      [
        "▁nihayet",
        -9.457787693876421
      ],
      [
        "▁piyasası",
        -9.378997081135992
      ],
      [
        "▁kadar",
        -8.944260445479616
      ],
      [
        "nu",
        -11.551857311570275
      ],
      [
        "▁burası",
        -9.884453531477517
      ],
      [
        "▁robert",
        -9.894683119149052
      ],
      [
        "▁bizleri",
        -9.582690225371444
      ],
      [
        "▁sirke",
        -10.566750513316578
      ],
      [
        "▁iade",
        -10.334975851410466
      ],
      [
        "▁ulasım",
        -8.884334372697914
      ],
      [
        "▁kapandı",
        -8.244242436213796
      ],
      [
        "abı",
        -9.268145227149795
      ],
      [
        "▁yapıstır",
        -10.664336778638656
      ],
      [
        "▁bazı",
        -8.97899948416725
      ],
      [
        "▁kosulları",
        -9.533382839685292
      ],
      [
        "▁gozle",
        -10.28050720142354
      ],
      [
        "▁go",
        -9.069405944628908
      ],
      [
        "▁bekledi",
        -9.913866498311352
      ],
      [
        "▁as",
        -7.744324459543808
      ],
      [
        "eger",
        -6.87329914079828
      ],
      [
        "43",
        -10.07950835514623
      ],
      [
        "▁francisco'",
        -7.255288254347213
      ],
      [
        "▁21.",
        -10.44672806397608
      ],
      [
        "'e",
        -8.084843082147824
      ],
      [
        "▁okudu",
        -9.730880148462997
      ],
      [
        "▁yarın",
        -8.590247534985837
      ],
      [
        "h",
        -7.700124458784982
      ],
      [
        "▁karton",
        -10.762625880207509
      ],
      [
        "▁yazma",
        -9.61315556263236
      ],
      [
        "▁yeterli",
        -8.432425245418546
      ],
      [
        "▁tamamlanması",
        -10.524427016917558
      ],
      [
        "▁gorustu",
        -9.495769878240559
      ],
      [
        "▁trafik",
        -10.177776008001272
      ],
      [
        "sunu",
        -8.837985416896863
      ],
      [
        "▁faktor",
        -10.074312648661744
      ],
      [
        "▁8'de",
        -9.769124279801412
      ],
      [
        "▁sabun",
        -10.574214424262642
      ],
      [
        "▁sektor",
        -9.195093705558254
      ],
      [
        "▁getirir",
        -9.891430076943177
      ],
      [
        "▁tık",
        -9.434374813701297
      ],
      [
        "▁yana",
        -8.215723626907115
      ],
      [
        "▁hur",
        -9.94292742528334
      ],
      [
        "▁ucak",
        -8.11932503654803
      ],
      [
        "▁yarısı",
        -9.924809070064459
      ],
      [
        "▁aqua",
        -10.214813028593895
      ],
      [
        "▁54",
        -9.863656872981549
      ],
      [
        "▁cumhuriyetci",
        -10.48175025355568
      ],
      [
        "▁sıg",
        -9.840342015063072
      ],
      [
        "▁bulmustu",
        -10.589882650383219
      ],
      [
        "▁ne",
        -6.285015399419242
      ],
      [
        "medigi",
        -9.94393328715676
      ],
      [
        "▁yeter",
        -8.942514740773792
      ],
      [
        "▁temsilcisi",
        -10.730259861175192
      ],
      [
        "▁hikmet",
        -10.751004165015914
      ],
      [
        "▁265",
        -10.460843441290223
      ],
      [
        "▁gozu",
        -8.772318232696295
      ],
      [
        "▁atina",
        -10.690970238925122
      ],
      [
        "▁50",
        -7.6484607958406485
      ],
      [
        "lamıs",
        -9.196559783919772
      ],
      [
        "▁tacoma'",
        -10.133143444245952
      ],
      [
        "▁tarla",
        -9.197179620332939
      ],
      [
        "▁marka",
        -9.369655209451214
      ],
      [
        "▁jandarma",
        -10.751003752606403
      ],
      [
        "▁kasıgı",
        -9.458048296190785
      ],
      [
        "▁ulasılama",
        -9.631332144487205
      ],
      [
        "—",
        -12.809526790838989
      ],
      [
        "!",
        -5.681525786294376
      ],
      [
        "▁devam",
        -7.635577385255431
      ],
      [
        "▁aracı",
        -9.361706220100213
      ],
      [
        "▁kurmus",
        -10.569405525753224
      ],
      [
        "▁tahsis",
        -10.57437897848343
      ],
      [
        "▁serseri",
        -10.629699200695157
      ],
      [
        "▁%27",
        -11.811170483524602
      ],
      [
        "▁girdi",
        -8.65418605878775
      ],
      [
        "▁ipoteg",
        -10.75100413147009
      ],
      [
        "▁aldı",
        -7.542386556335737
      ],
      [
        "ime",
        -9.403102174667204
      ],
      [
        "20'",
        -10.395066349686372
      ],
      [
        "▁dogdu",
        -10.378754128516146
      ],
      [
        "▁sezer",
        -10.692605815348738
      ],
      [
        "▁dallas",
        -8.411677136015097
      ],
      [
        "▁gercek",
        -8.136759230517583
      ],
      [
        "▁!",
        -9.510406401262049
      ],
      [
        "▁inanılma",
        -10.473522587121883
      ],
      [
        "▁hikaye",
        -9.031867986093049
      ],
      [
        "stro",
        -10.264351420267193
      ],
      [
        "▁belirleme",
        -10.465160271099814
      ],
      [
        "▁kusku",
        -9.576050471245269
      ],
      [
        "▁fas",
        -9.887860958725186
      ],
      [
        "▁kurumlar",
        -10.286078678069446
      ],
      [
        "▁tabir",
        -10.465194559159581
      ],
      [
        "▁donanma",
        -10.629689969866506
      ],
      [
        "▁sacı",
        -10.634963070004197
      ],
      [
        "▁orta",
        -7.238160332771041
      ],
      [
        "mıstı",
        -7.907590150509617
      ],
      [
        "▁politik",
        -9.93220526690681
      ],
      [
        "▁oturdugu",
        -10.192336141282578
      ],
      [
        "▁ag",
        -8.322336736361617
      ],
      [
        "sız",
        -7.346480778437887
      ],
      [
        "ecektir",
        -9.66594686173596
      ],
      [
        "▁sahili",
        -10.542135588206921
      ],
      [
        "▁sorumlu",
        -9.405545899177653
      ],
      [
        "30.1",
        -11.017175497580483
      ],
      [
        "71",
        -10.766396853589342
      ],
      [
        "▁gunes",
        -8.500909090332016
      ],
      [
        "▁108",
        -10.94888692485328
      ],
      [
        "▁gezme",
        -10.574248153461633
      ],
      [
        "▁ses",
        -8.521102397145029
      ],
      [
        "▁gerektiren",
        -10.817683971752107
      ],
      [
        "▁kuyu",
        -9.92442788061993
      ],
      [
        "▁kayboldu",
        -10.75100390539925
      ],
      [
        "▁eyalet",
        -9.42298208357267
      ],
      [
        "▁carte",
        -10.660830832526129
      ],
      [
        "▁uzan",
        -9.493618674816485
      ],
      [
        "▁kesim",
        -9.935017169725874
      ],
      [
        "klarını",
        -8.796624005031015
      ],
      [
        "▁borsacılar",
        -10.589138527667476
      ],
      [
        "▁celebi",
        -10.817692834633952
      ],
      [
        "▁sekli",
        -10.385086321534269
      ],
      [
        "▁burcu",
        -10.338690433510905
      ],
      [
        "▁yu",
        -9.195380628082543
      ],
      [
        "▁alındı",
        -9.907062196923563
      ],
      [
        "▁gecirmis",
        -10.545703986004472
      ],
      [
        "▁of",
        -9.899289348618371
      ],
      [
        "dolay",
        -9.872246450338713
      ],
      [
        "▁oluyordu",
        -9.625146228603365
      ],
      [
        "▁calar",
        -10.262598564242571
      ],
      [
        "▁duzeltme",
        -10.28820196984197
      ],
      [
        "▁ihtimal",
        -9.631304717382827
      ],
      [
        "▁etmez",
        -9.669292575286892
      ],
      [
        "▁ederdi",
        -9.964030930201936
      ],
      [
        "▁gordugunu",
        -10.74686385849859
      ],
      [
        "▁oya",
        -9.886432280746579
      ],
      [
        "▁1.2",
        -8.718415128083837
      ],
      [
        "▁kendini",
        -6.832826224031009
      ],
      [
        "▁vermedi",
        -9.919690656347914
      ],
      [
        "▁atıl",
        -9.724392937589352
      ],
      [
        "▁muhabbet",
        -10.629680220979822
      ],
      [
        "▁karsımda",
        -10.7724946307223
      ],
      [
        "▁yemeklerini",
        -10.37053380335622
      ],
      [
        "ın",
        -6.547622493002224
      ],
      [
        "▁subat",
        -10.177836860265584
      ],
      [
        "▁karlı",
        -10.056609449517616
      ],
      [
        "▁verecegi",
        -10.118232924180438
      ],
      [
        "▁kırıklıgı",
        -10.146227124762156
      ],
      [
        "an'ın",
        -9.846706222218087
      ],
      [
        "▁ahmet",
        -9.69652420245044
      ],
      [
        "ib",
        -10.084708845340394
      ],
      [
        "▁ozgu",
        -9.873220434222974
      ],
      [
        "▁selim",
        -10.634848000921924
      ],
      [
        "▁ote",
        -10.408931703369262
      ],
      [
        "▁koca",
        -8.63177509205703
      ],
      [
        "▁1.60",
        -11.018883638092944
      ],
      [
        "▁ilgisi",
        -9.21930280328067
      ],
      [
        "▁kaza",
        -8.828034320404488
      ],
      [
        "▁muhamme",
        -10.751010552476084
      ],
      [
        "▁sansur",
        -10.818289390575664
      ],
      [
        "▁etmek",
        -8.068499622896585
      ],
      [
        "▁faiz",
        -8.191467534537658
      ],
      [
        "lerinde",
        -7.815706081002199
      ],
      [
        "muz",
        -9.393994017389765
      ],
      [
        "▁ceyrekte",
        -9.333140471265551
      ],
      [
        "▁gormemis",
        -10.299650179161535
      ],
      [
        "tefe",
        -10.98931158454865
      ],
      [
        "▁kacırdı",
        -10.312372821059133
      ],
      [
        "▁saman",
        -10.383155185835179
      ],
      [
        "▁alev",
        -9.729627456208865
      ],
      [
        "▁koptu",
        -10.819279817476524
      ],
      [
        "ı",
        -11.30808334001589
      ],
      [
        "▁iki",
        -8.928103951949264
      ],
      [
        "▁girecek",
        -10.46823160728742
      ],
      [
        "▁toronto'da",
        -9.489844833112869
      ],
      [
        "art",
        -9.961010725909588
      ],
      [
        "▁zeka",
        -9.951030418592309
      ],
      [
        "▁olmuyor",
        -9.77997361042585
      ],
      [
        "▁borcu",
        -9.862054739344002
      ],
      [
        "▁lutfe",
        -7.712817571283246
      ],
      [
        "▁aradı",
        -10.340605964340195
      ],
      [
        "▁oturdu",
        -9.534334374475456
      ],
      [
        "▁cıkı",
        -9.305386909913253
      ],
      [
        "▁am",
        -8.351838422124183
      ],
      [
        "3.",
        -10.513810258441914
      ],
      [
        "▁citicorp",
        -10.817670414605093
      ],
      [
        "▁ku",
        -8.550656417725616
      ],
      [
        "▁atıldı",
        -10.552421562788147
      ],
      [
        "▁olsa",
        -8.368437622571143
      ],
      [
        "▁he",
        -6.007693112883406
      ],
      [
        "▁350",
        -9.62531107349585
      ],
      [
        "▁%4.",
        -12.580596872868544
      ],
      [
        "egi",
        -8.722547943385237
      ],
      [
        "▁is",
        -10.349556061841136
      ],
      [
        "▁yarattı",
        -9.903995880697028
      ],
      [
        "▁201",
        -9.176385403819815
      ],
      [
        "▁surucu",
        -10.348855968828932
      ],
      [
        "7.1",
        -11.020553119748977
      ],
      [
        "▁gorus",
        -8.705978234661963
      ],
      [
        "tu",
        -9.158395043648547
      ],
      [
        "▁soyle",
        -7.7346051787395185
      ],
      [
        "un",
        -6.857825540526536
      ],
      [
        "▁cuma",
        -8.052197242658567
      ],
      [
        "lerin",
        -10.512831345665763
      ],
      [
        "yorlar",
        -9.577084733621096
      ],
      [
        "▁um",
        -9.795441578913426
      ],
      [
        "ecekti",
        -9.956415596604085
      ],
      [
        "▁sordu",
        -8.847382658038043
      ],
      [
        "▁adamın",
        -9.398106958738694
      ],
      [
        "▁tanıtım",
        -10.472246009582234
      ],
      [
        "▁gazeteciler",
        -10.887982236772162
      ],
      [
        "▁bitki",
        -9.65867885118443
      ],
      [
        "kar",
        -8.503418524289769
      ],
      [
        "▁7.6",
        -10.134633392216099
      ],
      [
        "▁edin",
        -8.940727028787585
      ],
      [
        "▁piyasalar",
        -10.157573687196074
      ],
      [
        "▁oturum",
        -10.2872046972689
      ],
      [
        "r",
        -8.240384993611011
      ],
      [
        "cı",
        -9.105755383544302
      ],
      [
        "▁memuru",
        -10.613400430148817
      ],
      [
        "▁acente",
        -9.951048128377616
      ],
      [
        "▁obur",
        -10.87925738598775
      ],
      [
        "▁teklif",
        -8.272987394236718
      ],
      [
        "▁tarih",
        -8.639695258064329
      ],
      [
        "-",
        -5.2246448626679545
      ],
      [
        "▁sap",
        -8.825802250013542
      ],
      [
        "6.9",
        -10.490354933540225
      ],
      [
        "▁uzag",
        -10.818422196404928
      ],
      [
        "▁onyedi",
        -10.921018666201677
      ],
      [
        "▁eksi",
        -9.826218927254041
      ],
      [
        "▁azı",
        -10.022490512512896
      ],
      [
        "▁durma",
        -9.180947967649194
      ],
      [
        "▁iran",
        -10.742123174274557
      ],
      [
        "▁st",
        -7.637369072750257
      ],
      [
        "▁spekulasyon",
        -10.471493084252286
      ],
      [
        "▁pro",
        -9.510477363128748
      ],
      [
        "▁475000",
        -11.00794604535869
      ],
      [
        "▁dergi",
        -8.950190369939364
      ],
      [
        "▁sirketini",
        -10.626496852967534
      ],
      [
        "▁cuval",
        -10.521637911647097
      ],
      [
        "▁kaldı",
        -8.34472827461364
      ],
      [
        "▁gibiydi",
        -9.696937920818975
      ],
      [
        "▁tac",
        -10.237905997418775
      ],
      [
        "liginde",
        -9.459761097777399
      ],
      [
        "▁mevzuat",
        -10.29411109790748
      ],
      [
        "▁baslamıstı",
        -9.677702926970937
      ],
      [
        "▁houston'da",
        -9.821939590980211
      ],
      [
        "▁degisiyor",
        -10.6319589918713
      ],
      [
        "▁uyum",
        -9.948593713256455
      ],
      [
        "87",
        -11.566550520542979
      ],
      [
        "▁elini",
        -9.102965542093251
      ],
      [
        "▁hac",
        -10.38912123116122
      ],
      [
        "▁indir",
        -9.932453100413596
      ],
      [
        "▁temettu",
        -10.177776035133263
      ],
      [
        "unun",
        -8.330675715180526
      ],
      [
        "▁esya",
        -8.96933383787663
      ],
      [
        "▁kıdem",
        -10.522884734851615
      ],
      [
        "di",
        -5.588519822715628
      ],
      [
        "▁basit",
        -9.374977210979122
      ],
      [
        "▁olur",
        -7.698335748401222
      ],
      [
        "▁kemer",
        -10.293614480309087
      ],
      [
        "▁soylenir",
        -10.821278263249923
      ],
      [
        "▁edecegini",
        -9.927876721749636
      ],
      [
        "▁'y",
        -12.499910982439719
      ],
      [
        "▁bakıyor",
        -9.151591553603284
      ],
      [
        "nci",
        -10.67824377903572
      ],
      [
        "▁kızlar",
        -9.85955218201232
      ],
      [
        "▁dolu",
        -8.372847081525233
      ],
      [
        "▁se",
        -8.252651414677715
      ],
      [
        "-4",
        -11.354791702071255
      ],
      [
        "▁oturma",
        -9.506945590917317
      ],
      [
        "▁cor",
        -9.858463268927222
      ],
      [
        "▁cocuk",
        -7.594528352867494
      ],
      [
        "▁doktor",
        -8.777423484441917
      ],
      [
        "▁taraf",
        -8.55127361161181
      ],
      [
        "▁geciril",
        -10.753618718671454
      ],
      [
        "▁gecirdi",
        -9.17425308421561
      ],
      [
        "▁uzmanları",
        -10.268704047578264
      ],
      [
        "▁ici",
        -8.48352496777274
      ],
      [
        "▁kısme",
        -9.928154470953993
      ],
      [
        "▁bir",
        -2.2851356391202717
      ],
      [
        "▁bulmus",
        -10.291987159832793
      ],
      [
        "▁je",
        -9.740515598941647
      ],
      [
        "▁begenmedi",
        -8.708697964145554
      ],
      [
        "▁bıcagı",
        -10.817679981125773
      ],
      [
        "▁pı",
        -11.055086030260906
      ],
      [
        "▁sanıyoru",
        -10.83036604982277
      ],
      [
        "▁duygusal",
        -10.293960893182563
      ],
      [
        "▁yaklas",
        -10.009612221763133
      ],
      [
        "▁gerek",
        -9.094802343360127
      ],
      [
        "▁gelistirme",
        -9.532081725761376
      ],
      [
        "lan",
        -7.455518538219055
      ],
      [
        "7.50",
        -11.014001245584971
      ],
      [
        "▁akademi",
        -10.521505827594765
      ],
      [
        "▁planı",
        -9.397366236252369
      ],
      [
        "▁gebe",
        -10.850181735365945
      ],
      [
        "▁dibinde",
        -10.286188072073731
      ],
      [
        "ben",
        -8.122680783913847
      ],
      [
        "dokuz",
        -9.67779568828804
      ],
      [
        "▁veremem",
        -10.621133214413609
      ],
      [
        "▁soku",
        -9.709393517397846
      ],
      [
        "▁shearson",
        -10.041987549541993
      ],
      [
        "t",
        -5.435336423985136
      ],
      [
        "▁hızla",
        -9.029846043338399
      ],
      [
        "▁gerekli",
        -9.402985152208586
      ],
      [
        "▁tav",
        -9.659974888518779
      ],
      [
        "▁rumeli",
        -10.81804029036435
      ],
      [
        "▁aklım",
        -9.666031731502576
      ],
      [
        "466",
        -9.938814116125917
      ],
      [
        "▁konusu",
        -8.858288025660915
      ],
      [
        "uzere",
        -10.204615232942093
      ],
      [
        "▁ocak",
        -8.97620279041422
      ],
      [
        "ra",
        -5.994280594177726
      ],
      [
        "▁etmis",
        -8.775006200145345
      ],
      [
        "▁reis",
        -10.567193806890094
      ],
      [
        "▁kapısında",
        -10.000873819286962
      ],
      [
        "▁2",
        -9.099035651577374
      ],
      [
        "▁bozul",
        -10.419792493637773
      ],
      [
        "▁ikimiz",
        -10.076274568637228
      ],
      [
        "v",
        -5.244896794061084
      ],
      [
        "▁kactı",
        -9.901508961994772
      ],
      [
        "▁bilgilendirilme",
        -10.688579469791106
      ],
      [
        "▁sizin",
        -7.488609617365101
      ],
      [
        "▁bar",
        -8.702636981137445
      ],
      [
        "▁altın",
        -9.842088831753905
      ],
      [
        "▁yanımda",
        -10.21760847087497
      ],
      [
        "▁%3.8",
        -12.2298689641572
      ],
      [
        "▁z",
        -11.475475111137184
      ],
      [
        "▁cesme",
        -10.178124993081246
      ],
      [
        "▁kova",
        -9.782313986127514
      ],
      [
        "▁boncuk",
        -10.817693880800764
      ],
      [
        "cu",
        -11.312055730562165
      ],
      [
        "▁curu",
        -10.199987910919916
      ],
      [
        "sunuz",
        -8.571917383166053
      ],
      [
        "▁iz",
        -8.71656708719254
      ],
      [
        "▁yuz",
        -8.109225963786423
      ],
      [
        "▁seftali",
        -10.817670478264855
      ],
      [
        "▁ingiltere'de",
        -10.70707159796644
      ],
      [
        "ren",
        -8.672080989529746
      ],
      [
        "▁rende",
        -10.633732148769582
      ],
      [
        "▁para",
        -6.986214088524685
      ],
      [
        "198",
        -10.731416531976514
      ],
      [
        "▁merkezin",
        -9.52837288980589
      ],
      [
        "▁gibi",
        -10.886178225453097
      ],
      [
        "▁memnundu",
        -10.290950263545557
      ],
      [
        "▁verdik",
        -9.802868885713815
      ],
      [
        "▁potansiyel",
        -9.841330728491325
      ],
      [
        "▁ydı",
        -7.2089507199542044
      ],
      [
        "▁sınır",
        -8.8923762040333
      ],
      [
        "bizim",
        -9.761518336533253
      ],
      [
        "▁sak",
        -9.018013708079366
      ],
      [
        "▁suzu",
        -10.1565361695543
      ],
      [
        "▁corp",
        -10.000855968773907
      ],
      [
        "▁mıydı",
        -8.489729860708078
      ],
      [
        "33",
        -10.603264245695037
      ],
      [
        "kin",
        -10.756068444976854
      ],
      [
        "▁opsiyon",
        -10.142145921624996
      ],
      [
        "▁arayı",
        -9.953049614845039
      ],
      [
        "gine",
        -9.265712169495476
      ],
      [
        "▁hita",
        -10.044912033097013
      ],
      [
        "▁tesis",
        -7.284876718979913
      ],
      [
        "▁beraber",
        -8.975675134427995
      ],
      [
        "▁mukemmeldi",
        -9.208325390709518
      ],
      [
        "▁hemen",
        -7.704033281165175
      ],
      [
        "▁yılmaz",
        -10.637991631361896
      ],
      [
        "▁muhalif",
        -10.471493530149607
      ],
      [
        "▁tanıdı",
        -10.007316586149727
      ],
      [
        "▁herif",
        -9.653121085323196
      ],
      [
        ".75",
        -9.547328211014653
      ],
      [
        "tas",
        -10.057363016908527
      ],
      [
        "▁4.3",
        -10.313143091053458
      ],
      [
        "▁tat",
        -10.33464225108144
      ],
      [
        "▁kahve",
        -8.28526612606829
      ],
      [
        "▁resmi",
        -8.912179447313296
      ],
      [
        "▁karsıya",
        -9.90799742578657
      ],
      [
        "▁fredd",
        -10.819136379630656
      ],
      [
        "'un",
        -7.738456324949431
      ],
      [
        "▁va",
        -8.62192309213144
      ],
      [
        "▁dc'",
        -9.182530752669205
      ],
      [
        "▁mektubu",
        -10.29327459701475
      ],
      [
        "#",
        -10.35952679083899
      ],
      [
        "▁satım",
        -8.866417018735614
      ],
      [
        "▁odalari",
        -9.38014867796546
      ],
      [
        "▁biter",
        -10.698242705417469
      ],
      [
        "▁kent",
        -9.021721601195072
      ],
      [
        "▁razı",
        -10.423944135834516
      ],
      [
        "▁ille",
        -10.556951441740917
      ],
      [
        "▁sponsor",
        -10.751003755971006
      ],
      [
        "bo",
        -8.688794204068145
      ],
      [
        "▁amerikalı",
        -9.443380904380263
      ],
      [
        "▁kısmını",
        -9.97041828056439
      ],
      [
        "▁indianapolis",
        -10.4951431135622
      ],
      [
        "▁altmıs",
        -9.585953801299627
      ],
      [
        "▁4'te",
        -10.215506337053732
      ],
      [
        "ilmis",
        -9.03465198706554
      ],
      [
        "▁arbitraj",
        -10.751003747904168
      ],
      [
        "▁biraz",
        -6.941773608567416
      ],
      [
        "1.4",
        -10.425505891963725
      ],
      [
        "▁cent",
        -8.864544991519532
      ],
      [
        "▁ucretleri",
        -9.44083715686303
      ],
      [
        "▁evlerin",
        -9.91509696286716
      ],
      [
        "▁temyiz",
        -10.688528382211029
      ],
      [
        "▁sir",
        -9.288563409388757
      ],
      [
        "▁taksi",
        -9.706446815750548
      ],
      [
        "lendirdi",
        -10.159561818366432
      ],
      [
        "ra",
        -7.626872258142168
      ],
      [
        "▁ayna",
        -9.254702489024567
      ],
      [
        "▁zincir",
        -9.493802717985115
      ],
      [
        "▁hukuk",
        -9.020376297179045
      ],
      [
        "▁ellerini",
        -9.667601177731104
      ],
      [
        "▁141.",
        -10.135400630749881
      ],
      [
        "▁kazancları",
        -9.766079533856436
      ],
      [
        ".85",
        -10.359348053024465
      ],
      [
        "▁zamanlarda",
        -9.425880557532125
      ],
      [
        "▁pal",
        -10.056090834744223
      ],
      [
        "▁korumak",
        -10.23295290144962
      ],
      [
        "▁cop",
        -9.761080645009354
      ],
      [
        "▁namaz",
        -10.1438636075837
      ],
      [
        "▁ucusunu",
        -9.84949035356518
      ],
      [
        "▁seyi",
        -8.663923776891188
      ],
      [
        "▁yazıyor",
        -10.32669823734709
      ],
      [
        "▁damga",
        -10.629800434486333
      ],
      [
        "▁li",
        -7.775344169606042
      ],
      [
        "kaya",
        -10.436958962555947
      ],
      [
        "▁saniye",
        -10.338916831739635
      ],
      [
        "▁oner",
        -9.021962272854509
      ],
      [
        "▁anlattı",
        -9.078199515070505
      ],
      [
        "▁batı",
        -8.447971905378715
      ],
      [
        "▁lezzetli",
        -8.421223796641424
      ],
      [
        "▁'yd",
        -10.140773474257456
      ],
      [
        "▁kilise",
        -10.21569374603164
      ],
      [
        "▁kavram",
        -9.599048505847957
      ],
      [
        "▁hayvanlar",
        -10.365196406753459
      ],
      [
        "▁klima",
        -10.47163767260387
      ],
      [
        "▁gitmedi",
        -10.450432034122873
      ],
      [
        "▁emre",
        -10.109404375365184
      ],
      [
        "▁toplam",
        -8.554934339752762
      ],
      [
        "▁kocaman",
        -9.532016904116528
      ],
      [
        "▁calısır",
        -9.705683414141571
      ],
      [
        "96",
        -10.048646118105914
      ],
      [
        "larımız",
        -9.020294738849586
      ],
      [
        "yu",
        -8.087035996061687
      ],
      [
        "▁tasıma",
        -10.149192202764404
      ],
      [
        "▁seviyesin",
        -9.186170296441407
      ],
      [
        "mustu",
        -8.484919017961232
      ],
      [
        "nız",
        -8.635564710733671
      ],
      [
        "▁egri",
        -10.314533994798364
      ],
      [
        "▁damla",
        -9.885178192495982
      ],
      [
        "cun",
        -6.71166408540965
      ],
      [
        "▁bakın",
        -9.591348455598043
      ],
      [
        "ta",
        -6.727399479239596
      ],
      [
        "▁itaat",
        -10.889156861775236
      ],
      [
        "▁arttı",
        -8.861492183634809
      ],
      [
        "▁ırk",
        -10.68972109814998
      ],
      [
        "▁otorite",
        -10.889111235762563
      ],
      [
        "▁luzum",
        -10.574136344395672
      ],
      [
        "▁ilkeleri",
        -10.552245062080395
      ],
      [
        "nla",
        -9.58078058821545
      ],
      [
        "▁gazino",
        -10.629758052192958
      ],
      [
        "▁3.3",
        -9.971517416991915
      ],
      [
        "en",
        -6.273166400330583
      ],
      [
        "▁baslangıcta",
        -10.340959413516684
      ],
      [
        "▁hafif",
        -8.429934681377908
      ],
      [
        "'",
        -4.8924320266455865
      ],
      [
        "▁hayat",
        -8.402161546244686
      ],
      [
        "▁hoca",
        -8.797220573947609
      ],
      [
        "▁ları",
        -10.238796932443249
      ],
      [
        "▁olmus",
        -10.889392255293137
      ],
      [
        "▁yumruk",
        -10.532133770652464
      ],
      [
        "▁gayri",
        -10.423879762022784
      ],
      [
        "bu",
        -10.475098792750922
      ],
      [
        "h",
        -12.699415987488301
      ],
      [
        "▁tesisi",
        -9.511205235797169
      ],
      [
        "▁yukseliyor",
        -10.610030208749437
      ],
      [
        "▁konu",
        -7.997758690877329
      ],
      [
        "▁mutlak",
        -9.406031191349102
      ],
      [
        "▁degerinde",
        -9.97698122255279
      ],
      [
        "▁muazzam",
        -10.81767041535469
      ],
      [
        "▁harc",
        -9.974960248835366
      ],
      [
        "▁urun",
        -9.383472611517261
      ],
      [
        "▁hayalet",
        -10.382583901190129
      ],
      [
        "▁cıkardı",
        -8.922693274900691
      ],
      [
        "▁itfa",
        -10.818389198542889
      ],
      [
        "▁curuk",
        -10.310046000685487
      ],
      [
        "▁soyleme",
        -9.855001235780323
      ],
      [
        "▁sozlesme",
        -9.03117662867184
      ],
      [
        "tur",
        -7.886228925077593
      ],
      [
        "▁si",
        -8.672083505214713
      ],
      [
        "▁belirt",
        -9.85735771145453
      ],
      [
        "▁tiyatrosu",
        -10.441292652144547
      ],
      [
        "▁istanbul'",
        -9.708211703432415
      ],
      [
        "▁yolculuk",
        -9.743522578239505
      ],
      [
        "▁holding",
        -9.69650685182459
      ],
      [
        "▁6.5",
        -10.575469817737618
      ],
      [
        "▁kimligi",
        -10.47753474277268
      ],
      [
        "▁tam",
        -7.575890364815526
      ],
      [
        "▁ufak",
        -8.717194975884354
      ],
      [
        "ik",
        -7.880937854500999
      ],
      [
        "▁yararlan",
        -9.965439522212659
      ],
      [
        "▁duyarlı",
        -10.197471974781836
      ],
      [
        "▁58",
        -10.166226496023125
      ],
      [
        "▁serbet",
        -10.817915207743965
      ],
      [
        "▁tazminat",
        -10.253274565137994
      ],
      [
        "▁eseri",
        -10.149858073180695
      ],
      [
        "▁tezgah",
        -9.294805980974083
      ],
      [
        "madık",
        -10.276113832410193
      ],
      [
        "▁oyunları",
        -10.607413415775792
      ],
      [
        "▁yıldır",
        -9.835799418353396
      ],
      [
        "▁sigara",
        -9.079215372639588
      ],
      [
        "▁kendiniz",
        -9.659975854683289
      ],
      [
        "▁sozunu",
        -10.126220890319479
      ],
      [
        "▁basın",
        -7.790793447510286
      ],
      [
        "▁ydu",
        -8.242796498591797
      ],
      [
        "▁ici",
        -9.295252486345682
      ],
      [
        "▁kafes",
        -10.468959512437094
      ],
      [
        "▁arzu",
        -9.567035404640166
      ],
      [
        "6",
        -6.952477388401525
      ],
      [
        "▁canta",
        -9.824978580980046
      ],
      [
        "▁suyun",
        -9.890511583851032
      ],
      [
        "▁arastırmacılar",
        -10.700910612414667
      ],
      [
        "▁yosun",
        -10.81927959891645
      ],
      [
        "▁seviyede",
        -10.21467680827131
      ],
      [
        "▁coluk",
        -10.431750979342134
      ],
      [
        "▁uc",
        -8.523173369708696
      ],
      [
        "4.9",
        -10.769308090752189
      ],
      [
        "▁halat",
        -10.423201886847915
      ],
      [
        "ne",
        -6.394105493560109
      ],
      [
        "▁adalet",
        -9.790959015078027
      ],
      [
        "▁120",
        -9.324473717669948
      ],
      [
        "▁1995",
        -10.41751969051543
      ],
      [
        "▁lira",
        -8.65181933382009
      ],
      [
        "▁soyleyebilir",
        -9.868034645740668
      ],
      [
        "▁topla",
        -9.225968827354361
      ],
      [
        "▁gittigi",
        -9.564643082849962
      ],
      [
        "▁met",
        -9.410710102272
      ],
      [
        "▁olusturuyor",
        -10.688581650835419
      ],
      [
        "\\/",
        -10.29328416901717
      ],
      [
        "▁bayan",
        -8.6895749865072
      ],
      [
        "▁koyma",
        -10.779429963018634
      ],
      [
        "akıllı",
        -10.877061766686435
      ],
      [
        "▁dik",
        -8.84133786820156
      ],
      [
        "▁surdu",
        -9.646675967911131
      ],
      [
        "▁amerikan",
        -7.562769141721597
      ],
      [
        "▁dedi",
        -6.753349145424188
      ],
      [
        "ye",
        -5.532206613247484
      ],
      [
        "▁degil",
        -10.35291813192068
      ],
      [
        "madım",
        -10.248207080835234
      ],
      [
        "▁cu",
        -9.419480212378659
      ],
      [
        "▁ayrılı",
        -9.10626722055059
      ],
      [
        "▁zeytinyagı",
        -10.689826244622045
      ],
      [
        "▁tavrı",
        -10.339296273854304
      ],
      [
        "rek",
        -9.200730105097179
      ],
      [
        "▁cinayet",
        -10.142073748692379
      ],
      [
        "▁da",
        -4.365731738433244
      ],
      [
        "▁heves",
        -10.01074162099305
      ],
      [
        "▁19.",
        -10.17752749623879
      ],
      [
        "▁515",
        -10.997139819900937
      ],
      [
        "▁kırı",
        -9.56511931758606
      ],
      [
        "▁duzenli",
        -9.694942078599299
      ],
      [
        "yiz",
        -9.365375925409326
      ],
      [
        "▁8.9",
        -10.558512057576548
      ],
      [
        "▁%51",
        -11.429958966910018
      ],
      [
        "▁sis",
        -9.222960276730749
      ],
      [
        "▁islemlerde",
        -10.10811476118387
      ],
      [
        "▁anlayıs",
        -9.868398305015086
      ],
      [
        "▁saglayacak",
        -10.167046397910541
      ],
      [
        "▁mayıs'ta",
        -10.630207018912637
      ],
      [
        "▁actı",
        -8.56896487394787
      ],
      [
        "▁kotuy",
        -8.377229709969178
      ],
      [
        "▁pek",
        -7.458171528806968
      ],
      [
        "▁esmer",
        -10.574726468527524
      ],
      [
        "▁yoksun",
        -10.192114281947237
      ],
      [
        "▁ton",
        -9.221300712712317
      ],
      [
        "▁kaybı",
        -9.696876768618719
      ],
      [
        "▁'",
        -9.107607116574506
      ],
      [
        "▁diyordu",
        -10.176130968675512
      ],
      [
        "▁98",
        -10.400090347572162
      ],
      [
        "▁15.",
        -10.281601801171426
      ],
      [
        "▁arkadasları",
        -9.648693210113246
      ],
      [
        "▁icti",
        -9.650459971939519
      ],
      [
        "ya",
        -8.492646272106997
      ],
      [
        "gimi",
        -9.771268478360168
      ],
      [
        "▁lisan",
        -10.746541108190552
      ],
      [
        "▁sermaye",
        -8.842827726174754
      ],
      [
        "▁hediye",
        -10.142062722774227
      ],
      [
        "▁saglaya",
        -9.92135802409604
      ],
      [
        "▁yen",
        -8.86459227799386
      ],
      [
        "lamak",
        -9.061610030534087
      ],
      [
        "75",
        -8.267419933820554
      ],
      [
        "▁bulunma",
        -9.286012059685653
      ],
      [
        "mıslar",
        -9.281692973231864
      ],
      [
        "▁abd",
        -7.983024044838902
      ],
      [
        "57",
        -10.530160411456025
      ],
      [
        "▁so",
        -8.855116676889185
      ],
      [
        "▁camur",
        -9.953191690922418
      ],
      [
        "▁ceki",
        -9.33598492451205
      ],
      [
        "▁kımılda",
        -10.293274723212232
      ],
      [
        "▁anda",
        -8.058954089642068
      ],
      [
        "▁mudur",
        -10.569581647065483
      ],
      [
        "▁odamiz",
        -9.233065142622129
      ],
      [
        "▁ba",
        -7.7968675414969395
      ],
      [
        "▁tadın",
        -10.299852697187296
      ],
      [
        "▁sarı",
        -8.343853504272627
      ],
      [
        "▁y",
        -9.842775890777641
      ],
      [
        "▁geliri",
        -9.629748977383425
      ],
      [
        "stırma",
        -10.060391819451763
      ],
      [
        "▁u.s.",
        -10.889098987225735
      ],
      [
        "dım",
        -8.727289002243714
      ],
      [
        "▁louis'te",
        -10.281580973330303
      ],
      [
        "▁dehset",
        -10.68850463420857
      ],
      [
        "▁girmis",
        -10.073084313660514
      ],
      [
        "▁isbirligi",
        -10.17781015003272
      ],
      [
        "▁karısmıs",
        -10.784806954312874
      ],
      [
        "▁bırakı",
        -9.500122214572292
      ],
      [
        "19",
        -9.653955124169919
      ],
      [
        "▁gunah",
        -9.697018135860727
      ],
      [
        "▁ik",
        -10.108787904356568
      ],
      [
        "▁tutmak",
        -10.234187984197128
      ],
      [
        "▁doviz",
        -9.867651823705854
      ],
      [
        "▁vurdu",
        -9.347790668773566
      ],
      [
        "▁tutan",
        -10.22266491415294
      ],
      [
        "▁haykır",
        -10.253455134911334
      ],
      [
        "▁sabahı",
        -8.2640034243705
      ],
      [
        "da",
        -5.604304682747239
      ],
      [
        "▁agır",
        -8.150490418750712
      ],
      [
        "▁uzu",
        -10.247797506631452
      ],
      [
        "▁dolastı",
        -9.845477263149817
      ],
      [
        "▁uste",
        -9.798390019246927
      ],
      [
        "▁canlandır",
        -10.617564790991791
      ],
      [
        "▁sıcak",
        -8.611010828119735
      ],
      [
        "▁kosede",
        -10.220132024427514
      ],
      [
        "▁sozcu",
        -8.461183747940598
      ],
      [
        "▁bana",
        -9.327560699522497
      ],
      [
        "▁sahibi",
        -8.812072201102461
      ],
      [
        "kuru",
        -10.771693790698938
      ],
      [
        "▁dogmus",
        -10.62989662555653
      ],
      [
        "▁bolum",
        -9.200070459549064
      ],
      [
        "▁agustos'ta",
        -9.406320243568532
      ],
      [
        "▁big",
        -10.26392929260089
      ],
      [
        "▁329",
        -10.882759451661837
      ],
      [
        "▁siddet",
        -9.195988040490542
      ],
      [
        "madan",
        -8.89087944065512
      ],
      [
        "siniz",
        -8.521756178789774
      ],
      [
        "▁eksiklikler",
        -10.536683503102697
      ],
      [
        "▁sahit",
        -10.590114010722237
      ],
      [
        "▁cocukların",
        -9.73247696236555
      ],
      [
        "este",
        -10.216797740935352
      ],
      [
        "▁destekleme",
        -10.447706379706
      ],
      [
        "▁birbirin",
        -7.401829453096356
      ],
      [
        "▁hatun",
        -10.81587491015582
      ],
      [
        "▁oz",
        -8.384043584965701
      ],
      [
        "sal",
        -8.408145306154037
      ],
      [
        "▁ruh",
        -9.284510374777291
      ],
      [
        "▁maka",
        -10.126085889453542
      ],
      [
        "▁kariyer",
        -10.334947470998076
      ],
      [
        "▁mani",
        -9.703075886160345
      ],
      [
        "▁evren",
        -9.841246052968136
      ],
      [
        "▁garson",
        -10.48050208314003
      ],
      [
        "▁boru",
        -9.808880079416458
      ],
      [
        "▁almıstı",
        -10.009443237233269
      ],
      [
        "▁vegas'",
        -9.24242744738961
      ],
      [
        "▁rock",
        -10.472406200083395
      ],
      [
        "sından",
        -8.429725451622136
      ],
      [
        "▁risk",
        -8.943689613286423
      ],
      [
        "▁dusunur",
        -9.687031387913255
      ],
      [
        "▁asagıda",
        -9.697002263865155
      ],
      [
        "▁tabi",
        -9.312545653488943
      ],
      [
        "ında",
        -7.869586970723039
      ],
      [
        "▁israil",
        -9.982898053660088
      ],
      [
        "▁8.2",
        -10.806822678311871
      ],
      [
        "▁suruyor",
        -9.799307338310534
      ],
      [
        "m",
        -9.715460917580963
      ],
      [
        "w",
        -8.230882191920596
      ],
      [
        "▁faturam",
        -9.054197879896352
      ],
      [
        "▁jones",
        -9.128918909805758
      ],
      [
        "▁acıg",
        -10.880964474746827
      ],
      [
        "▁kim",
        -9.46208256852926
      ],
      [
        "▁1.3",
        -8.686349043806366
      ],
      [
        "▁mudahale",
        -10.177776038739436
      ],
      [
        "▁acı",
        -7.896338858521729
      ],
      [
        "▁kesfed",
        -10.889107380058759
      ],
      [
        "▁gelmisti",
        -9.763084602377521
      ],
      [
        "▁saban",
        -10.751302569172523
      ],
      [
        "▁bulun",
        -8.355433502188315
      ],
      [
        "▁servisi",
        -8.91933631638846
      ],
      [
        "▁gulu",
        -10.491167708417777
      ],
      [
        "▁duzenlene",
        -10.414629439673742
      ],
      [
        "▁tesiste",
        -9.26418094071046
      ],
      [
        "▁kadınlar",
        -8.783563107225259
      ],
      [
        "nc",
        -8.861003512036103
      ],
      [
        "▁belir",
        -9.142106258892198
      ],
      [
        "▁surdurdu",
        -10.75293689514454
      ],
      [
        "▁5.9",
        -10.066471804320791
      ],
      [
        "▁cıkma",
        -9.066464085869006
      ],
      [
        "▁el",
        -7.639737539517759
      ],
      [
        "'nun",
        -8.227926315128013
      ],
      [
        "▁nerde",
        -10.135576152353247
      ],
      [
        "ta",
        -7.825751804999858
      ],
      [
        "▁anlat",
        -8.634746584992072
      ],
      [
        "▁aglama",
        -9.9122881567047
      ],
      [
        "▁hassas",
        -9.922563858118771
      ],
      [
        "▁transfer",
        -10.574159561963215
      ],
      [
        "▁borsası'nda",
        -9.815934073827352
      ],
      [
        "▁birilerini",
        -9.970179398692402
      ],
      [
        "te",
        -12.812262232465853
      ],
      [
        "▁yaklası",
        -7.751527077944113
      ],
      [
        "du",
        -9.107384677214492
      ],
      [
        "▁orgutu",
        -10.641721297622496
      ],
      [
        "▁0.2",
        -9.200581725524952
      ],
      [
        "▁ettigi",
        -8.850465665004887
      ],
      [
        "▁savcı",
        -9.597849017509605
      ],
      [
        "▁cevabı",
        -10.214813844035234
      ],
      [
        "▁fazlasını",
        -10.297818629614438
      ],
      [
        "▁dısarı",
        -9.10799117227372
      ],
      [
        "▁express",
        -9.951022750677215
      ],
      [
        "▁oncelikle",
        -10.533062112551999
      ],
      [
        "▁baglama",
        -10.526690348254188
      ],
      [
        "▁d",
        -6.165377115707738
      ],
      [
        "lanıyor",
        -9.084761280330925
      ],
      [
        "▁memur",
        -9.284244250347577
      ],
      [
        "▁dedigi",
        -9.697655224051058
      ],
      [
        "▁ucyuzatmıs",
        -10.89093260026778
      ],
      [
        "▁kuslar",
        -10.219260147153824
      ],
      [
        "▁25",
        -7.6585169186170114
      ],
      [
        "▁continental",
        -8.912160315216788
      ],
      [
        "▁alternatif",
        -10.107578943902633
      ],
      [
        "▁durdurma",
        -10.75665735007213
      ],
      [
        "▁cincinnati'",
        -10.290128680391245
      ],
      [
        "▁112",
        -10.140776630495758
      ],
      [
        "yı",
        -10.870253784654494
      ],
      [
        "▁milli",
        -8.762751657393864
      ],
      [
        "▁sogan",
        -9.816134402530995
      ],
      [
        "▁oyma",
        -10.829264966490335
      ],
      [
        "▁cekim",
        -10.362102526499617
      ],
      [
        "▁sonunda",
        -8.12745490129637
      ],
      [
        "▁gitmisti",
        -10.545330877155031
      ],
      [
        "▁bakanlıgı",
        -9.777191067926644
      ],
      [
        "▁etek",
        -10.21656358415151
      ],
      [
        "y",
        -7.050804997876933
      ],
      [
        "▁annesini",
        -10.147323585549795
      ],
      [
        "at",
        -6.734542760195388
      ],
      [
        "▁ortaklıgı",
        -10.66527991837847
      ],
      [
        "▁sayılır",
        -10.374659598834864
      ],
      [
        "lemek",
        -9.32182269544881
      ],
      [
        "▁italyan",
        -10.340399790053274
      ],
      [
        "▁cbs",
        -10.378448199232192
      ],
      [
        "madı",
        -8.882315141522712
      ],
      [
        "▁kopu",
        -9.441453125842475
      ],
      [
        "▁31",
        -7.811440546527198
      ],
      [
        "▁de",
        -9.29558926803189
      ],
      [
        "▁faaliyet",
        -8.971711314591722
      ],
      [
        "▁5.5",
        -9.572967278095836
      ],
      [
        "▁cezası",
        -10.394126210774353
      ],
      [
        "▁halinde",
        -8.922503723471644
      ],
      [
        "▁doner",
        -9.652276403089209
      ],
      [
        "▁satıslar",
        -8.614269294000898
      ],
      [
        "▁kompozit",
        -10.471493083991396
      ],
      [
        "▁te",
        -8.025518519876726
      ],
      [
        "▁ihtiyatlı",
        -10.691300006805342
      ],
      [
        "▁gunde",
        -9.024126552997767
      ],
      [
        "▁oglunu",
        -10.275687780698528
      ],
      [
        "▁'di",
        -10.329890750168904
      ],
      [
        "▁sıcra",
        -10.722864521678618
      ],
      [
        "▁istanbul",
        -9.173459040666376
      ],
      [
        "▁gitme",
        -9.417013666657944
      ],
      [
        "urdu",
        -9.717606266186603
      ],
      [
        "▁delik",
        -10.135150454493198
      ],
      [
        "tı",
        -8.324715511985309
      ],
      [
        "▁analistler",
        -8.975309294778027
      ],
      [
        "▁denver'",
        -7.7624886800322415
      ],
      [
        "2.7",
        -10.202973943298872
      ],
      [
        "▁toprak",
        -8.971178958501387
      ],
      [
        "▁oldugumuz",
        -9.90073024968017
      ],
      [
        "▁atıyor",
        -9.918809662008753
      ],
      [
        "ac",
        -8.948265840803215
      ],
      [
        "▁tacirler",
        -10.214977738513925
      ],
      [
        "gında",
        -9.37374958028246
      ],
      [
        "▁cereyan",
        -10.75100455834308
      ],
      [
        "ford",
        -10.518553861029552
      ],
      [
        "”",
        -9.789649445909063
      ],
      [
        "▁firma",
        -8.945068607856141
      ],
      [
        "▁sovyetler",
        -10.323773919680445
      ],
      [
        "▁soyledi",
        -6.736133350445195
      ],
      [
        "▁siparis",
        -9.34096688598571
      ],
      [
        "▁seattle'",
        -9.166418298085208
      ],
      [
        "errill",
        -9.791074596331585
      ],
      [
        "▁sekiz",
        -7.532759790075625
      ],
      [
        "▁f",
        -10.863911410280291
      ],
      [
        "▁fiyat",
        -7.297052674454783
      ],
      [
        "▁gurultu",
        -9.475620837261555
      ],
      [
        "▁40.1",
        -11.018623284439725
      ],
      [
        "▁psikoloji",
        -10.889099008293186
      ],
      [
        "▁sekil",
        -9.739903777052936
      ],
      [
        "▁kes",
        -9.383828370092132
      ],
      [
        "▁gosterin",
        -7.919799605845557
      ],
      [
        "▁mide",
        -9.856065108222976
      ],
      [
        "▁arz",
        -9.45361070562554
      ],
      [
        "arı",
        -9.182295171636294
      ],
      [
        "esef",
        -10.769004335588235
      ],
      [
        "▁akıllı",
        -10.153857579488399
      ],
      [
        "▁gozunu",
        -9.82297394270015
      ],
      [
        "▁yerlesti",
        -9.691720277654522
      ],
      [
        "30",
        -12.083484989621075
      ],
      [
        "▁sosyalist",
        -10.630311601433593
      ],
      [
        "yım",
        -10.416383586297304
      ],
      [
        "▁parlamento",
        -10.42387413106705
      ],
      [
        "▁ısın",
        -10.05599839489689
      ],
      [
        "▁aktarmalı",
        -9.058469516423294
      ],
      [
        "▁grupları",
        -10.40422749113254
      ],
      [
        "▁borsa",
        -8.889167642259935
      ],
      [
        "sin",
        -10.559756008826753
      ],
      [
        "▁ifade",
        -8.263584741395128
      ],
      [
        "▁baslangıcı",
        -10.496482177195135
      ],
      [
        "▁meger",
        -9.113731181418167
      ],
      [
        "▁satıs",
        -8.20655743059423
      ],
      [
        "▁2.3",
        -9.999738725484404
      ],
      [
        "▁gucunu",
        -10.37652336743049
      ],
      [
        "▁fort",
        -9.119306679294407
      ],
      [
        "▁gazete",
        -8.496686574667939
      ],
      [
        "3/",
        -10.921871214404954
      ],
      [
        "▁isleyen",
        -10.822151502860178
      ],
      [
        "▁alıskanlık",
        -10.889104159793604
      ],
      [
        "▁domuz",
        -10.84471690075965
      ],
      [
        "▁kardesim",
        -9.714052530863839
      ],
      [
        "▁televizyon",
        -9.14173220297877
      ],
      [
        "▁yıldız",
        -9.706286637125494
      ],
      [
        "▁kahvalti",
        -9.400825440841146
      ],
      [
        "▁bro",
        -9.95280155766581
      ],
      [
        "▁erkan",
        -10.631619959113545
      ],
      [
        "▁ru",
        -9.990242028489483
      ],
      [
        "▁dagıtıl",
        -10.845435863351522
      ],
      [
        "wa",
        -9.957796473651573
      ],
      [
        "mıyordu",
        -9.648468523297165
      ],
      [
        "▁toplumun",
        -10.213207651287412
      ],
      [
        "▁odedi",
        -10.240751895307234
      ],
      [
        "▁kamp",
        -10.142685552388294
      ],
      [
        "▁ilgilen",
        -10.39970824256989
      ],
      [
        "▁miktar",
        -10.210539574483992
      ],
      [
        "▁7.7",
        -10.263454444519812
      ],
      [
        "▁mantıklı",
        -10.527886426875982
      ],
      [
        "▁gucu",
        -9.284371309373766
      ],
      [
        "▁verir",
        -9.059889139186126
      ],
      [
        "▁yarar",
        -9.919637958740918
      ],
      [
        "▁gormez",
        -10.185295709081387
      ],
      [
        "▁cenaze",
        -10.471494477215254
      ],
      [
        "▁twa",
        -9.719384118764127
      ],
      [
        "▁surme",
        -10.011215127702782
      ],
      [
        "▁sozlerini",
        -10.422047786328767
      ],
      [
        "▁sorar",
        -10.632581375100504
      ],
      [
        "▁basa",
        -9.078745194056566
      ],
      [
        "▁uc",
        -5.602242368294277
      ],
      [
        "▁sonbahar",
        -10.041988541584194
      ],
      [
        ".39",
        -9.939713617690423
      ],
      [
        "▁darbuka",
        -10.574125619551252
      ],
      [
        "▁menkul",
        -8.176350205374868
      ],
      [
        "▁yuruyus",
        -10.177914941268499
      ],
      [
        "▁tedavulde",
        -9.590027402930343
      ],
      [
        "▁diego'da",
        -10.25576448471261
      ],
      [
        "▁uzerindeki",
        -9.241041403712506
      ],
      [
        "625",
        -9.9510386817464
      ],
      [
        "▁cephe",
        -10.10760624643836
      ],
      [
        "▁is",
        -6.993170349575007
      ],
      [
        "▁nar",
        -10.29652156920416
      ],
      [
        "▁gidi",
        -8.922651670042672
      ],
      [
        "▁kira",
        -9.149063254655854
      ],
      [
        "▁aksama",
        -9.736658950437876
      ],
      [
        "▁titre",
        -9.752920342466687
      ],
      [
        "cagız",
        -9.181760665440848
      ],
      [
        "ıldı",
        -8.354696879914187
      ],
      [
        "sinde",
        -7.540175040644524
      ],
      [
        "im",
        -6.902083910411553
      ],
      [
        "▁kendi",
        -5.6647228416722895
      ],
      [
        "▁bat",
        -9.656275521625805
      ],
      [
        "▁fiyatı",
        -8.925955047850596
      ],
      [
        "24",
        -10.284742277300092
      ],
      [
        "▁ahsap",
        -10.817690927110265
      ],
      [
        "▁sallanıyor",
        -10.752427005585746
      ],
      [
        "▁guluyor",
        -10.426395998657888
      ],
      [
        "▁getirdi",
        -9.167631897010597
      ],
      [
        "▁siz",
        -6.276467912461138
      ],
      [
        "▁kalmadigim",
        -10.255452355683563
      ],
      [
        "▁1998",
        -10.071219928032773
      ],
      [
        "▁0.0",
        -10.15660429689194
      ],
      [
        "▁gelis",
        -10.353067989830793
      ],
      [
        "▁park",
        -9.093793282792756
      ],
      [
        "▁muhendis",
        -9.742490800762608
      ],
      [
        "▁34",
        -9.06955530779975
      ],
      [
        "▁edinme",
        -10.598659443049371
      ],
      [
        "▁national",
        -9.92245156405064
      ],
      [
        "▁pembe",
        -9.951047121633405
      ],
      [
        "malıydı",
        -9.793013522346856
      ],
      [
        "▁uzerinde",
        -7.36591317876124
      ],
      [
        "▁uzatma",
        -10.781935150958587
      ],
      [
        "▁destekli",
        -9.768755716084161
      ],
      [
        "▁kursu",
        -10.652574647803188
      ],
      [
        "▁seviye",
        -9.311048487703228
      ],
      [
        "▁dususle",
        -9.470998601610518
      ],
      [
        "layabilir",
        -10.24663829210254
      ],
      [
        "▁konusunda",
        -8.022827493569924
      ],
      [
        "▁acayip",
        -10.817720598443932
      ],
      [
        "▁no",
        -9.471283081887762
      ],
      [
        "▁zemin",
        -10.214830712148224
      ],
      [
        "▁kaba",
        -9.043638452846503
      ],
      [
        "▁memlekette",
        -10.762387909010766
      ],
      [
        "▁%7.5",
        -11.120962033768349
      ],
      [
        "▁atladı",
        -10.547778742899558
      ],
      [
        "▁minneapolis'",
        -10.40403322430302
      ],
      [
        "sa",
        -7.057262485085761
      ],
      [
        "▁washington",
        -8.1771070013679
      ],
      [
        "▁gr",
        -9.811345795403295
      ],
      [
        "▁tencere",
        -10.041987637712467
      ],
      [
        "▁listele",
        -8.001693679123601
      ],
      [
        "agı",
        -9.992656147959854
      ],
      [
        "▁bagladı",
        -9.967758952938215
      ],
      [
        "▁ısı",
        -9.22525358177365
      ],
      [
        "▁apartman",
        -10.107579717583226
      ],
      [
        "▁7.8",
        -10.09782097110945
      ],
      [
        "▁haberleri",
        -10.359128556442618
      ],
      [
        "emiyor",
        -9.517180279612953
      ],
      [
        "%6",
        -11.974395327795516
      ],
      [
        "▁cık",
        -8.665034104599595
      ],
      [
        "▁gun",
        -6.835240945056745
      ],
      [
        "▁protesto",
        -10.33494124513413
      ],
      [
        "▁eylul'de",
        -10.109573933023754
      ],
      [
        "▁bol",
        -8.513596798391319
      ],
      [
        "▁anca",
        -7.684326379094092
      ],
      [
        "▁azaltma",
        -10.184067470992659
      ],
      [
        "▁sehrin",
        -9.47963531004413
      ],
      [
        "▁110",
        -9.85359950354846
      ],
      [
        "▁1991-199",
        -11.945824767265378
      ],
      [
        "▁ediyorlar",
        -9.515562304525512
      ],
      [
        "▁kucumse",
        -10.75118161728847
      ],
      [
        "▁parlak",
        -9.773300469165749
      ],
      [
        "▁borc",
        -8.657321759206422
      ],
      [
        "▁yattı",
        -10.25885995545002
      ],
      [
        "▁ucret",
        -7.327625554721027
      ],
      [
        "▁govde",
        -10.041994525878808
      ],
      [
        "▁anlay",
        -9.781098253688853
      ],
      [
        "anlıslanabilirli",
        -10.887677854341668
      ],
      [
        "▁yiy",
        -9.922121705214863
      ],
      [
        "▁ucretini",
        -10.261187541062117
      ],
      [
        "▁icerisinde",
        -9.42638300084348
      ],
      [
        "b",
        -4.751618902518526
      ],
      [
        "▁bilir",
        -8.739223447860972
      ],
      [
        "▁bakma",
        -9.76995591431664
      ],
      [
        "▁mecbur",
        -10.010737943647786
      ],
      [
        "▁seda",
        -10.221420653614048
      ],
      [
        "▁yurume",
        -10.341954151366021
      ],
      [
        "sen",
        -8.906673460936581
      ],
      [
        "▁painewebber",
        -10.817670414560327
      ],
      [
        "▁varıyor",
        -10.115748771742302
      ],
      [
        "sini",
        -7.094163112955829
      ],
      [
        "▁gerektigin",
        -8.99519644236233
      ],
      [
        "▁ihtiyacı",
        -9.74756244854092
      ],
      [
        "ogr",
        -6.481195157006846
      ],
      [
        "▁yonetici",
        -9.641891441856636
      ],
      [
        "▁musteri",
        -8.884109450164958
      ],
      [
        "▁bolumunde",
        -10.429442471374564
      ],
      [
        "▁gercegi",
        -10.084480063739164
      ],
      [
        "az",
        -9.950871010174431
      ],
      [
        "▁sosyal",
        -9.103526959966437
      ],
      [
        "▁uretimi",
        -9.568202515804217
      ],
      [
        "▁alem",
        -9.645552180712016
      ],
      [
        "▁mutsuz",
        -10.88913187939168
      ],
      [
        "▁kararı",
        -9.077993538453217
      ],
      [
        "▁unuttu",
        -10.277281150551865
      ],
      [
        "▁yitir",
        -9.818782550603443
      ],
      [
        "▁mu",
        -8.087440077312545
      ],
      [
        "▁columbia",
        -10.889099063895362
      ],
      [
        "▁karıstır",
        -9.90100501152786
      ],
      [
        "▁sah",
        -9.525941946567098
      ],
      [
        "degili",
        -11.009634623297783
      ],
      [
        "bircok",
        -9.673910155888947
      ],
      [
        "▁degerlendiril",
        -10.492673289361463
      ],
      [
        "▁49",
        -9.026902738767859
      ],
      [
        "▁cografya",
        -10.751008444143276
      ],
      [
        "sekiz",
        -8.816713050654165
      ],
      [
        "▁kacın",
        -10.068845839598078
      ],
      [
        "▁trilyon",
        -8.923424663261219
      ],
      [
        "▁buyuye",
        -10.340000919502648
      ],
      [
        "▁turkiye'y",
        -10.703487232779144
      ],
      [
        "▁okul",
        -8.717265263496254
      ],
      [
        "▁'li",
        -9.48474627959969
      ],
      [
        "lanır",
        -9.073427631672661
      ],
      [
        "▁yudum",
        -10.215316115597576
      ],
      [
        "o",
        -10.72563065157985
      ],
      [
        "▁eksikti",
        -10.655512360291896
      ],
      [
        "▁magdur",
        -10.751488605644658
      ],
      [
        "so",
        -9.25986668613642
      ],
      [
        "▁istasyon",
        -10.29921466651611
      ],
      [
        "▁karyola",
        -10.88911698527686
      ],
      [
        "rken",
        -8.20171219772828
      ],
      [
        "▁kredi",
        -8.226849888196142
      ],
      [
        "▁vergi",
        -8.348989694513588
      ],
      [
        "▁gıda",
        -10.042244863516784
      ],
      [
        "meleri",
        -10.145955588781076
      ],
      [
        "▁4.8",
        -10.58612821686715
      ],
      [
        "▁kızıl",
        -10.009122462737775
      ],
      [
        "▁gittikc",
        -10.355028070762847
      ],
      [
        "▁han",
        -9.49276689201952
      ],
      [
        "▁sh",
        -9.374574970032478
      ],
      [
        "▁kalmak",
        -10.144827370191427
      ],
      [
        "▁ajansı",
        -10.40109939247971
      ],
      [
        "▁bolumunu",
        -10.356858828521633
      ],
      [
        "▁depremin",
        -10.48981663642478
      ],
      [
        "▁oysa",
        -8.598002639171483
      ],
      [
        "cu",
        -8.943905749479217
      ],
      [
        "oru",
        -10.203952345947865
      ],
      [
        "▁ovu",
        -10.425524614847644
      ],
      [
        "▁kuvvetleri",
        -10.11870346292676
      ],
      [
        "▁getirisi",
        -10.508635050371568
      ],
      [
        "▁calısması",
        -10.346846606648294
      ],
      [
        "▁gidilebil",
        -10.633458903387151
      ],
      [
        "▁yoneticisi",
        -9.871217700719848
      ],
      [
        "▁uygun",
        -7.60025833824393
      ],
      [
        "▁sadakat",
        -10.293275133790532
      ],
      [
        "▁bıcak",
        -9.766302303877879
      ],
      [
        "▁kızım",
        -10.282964123854969
      ],
      [
        "▁yasama",
        -9.178060433589454
      ],
      [
        "▁isyan",
        -10.06095284203676
      ],
      [
        "▁tehdit",
        -10.010737876411332
      ],
      [
        "▁biz",
        -8.642476297928784
      ],
      [
        "▁uygulama",
        -9.225240366327618
      ],
      [
        "▁yonetim",
        -8.366874817943568
      ],
      [
        "▁inanıyor",
        -9.600924725803615
      ],
      [
        "▁etmeyecegi",
        -10.825725644310264
      ],
      [
        "▁cırpı",
        -9.929511529812686
      ],
      [
        "▁1961",
        -10.308696760475211
      ],
      [
        "lanmaya",
        -10.135471328179788
      ],
      [
        "▁kavra",
        -10.204658235123322
      ],
      [
        "▁bırak",
        -8.349811373411988
      ],
      [
        "▁yaklastı",
        -10.240737446863324
      ],
      [
        "▁gelecegini",
        -10.527597778008145
      ],
      [
        "▁gosterdi",
        -8.866109010566063
      ],
      [
        "▁guverte",
        -10.574130129912113
      ],
      [
        "▁tehlike",
        -9.400290741931798
      ],
      [
        "▁olamaz",
        -9.879539789735894
      ],
      [
        "▁dortyuz",
        -10.328547290058722
      ],
      [
        "▁onem",
        -8.836000378409379
      ],
      [
        "▁nadir",
        -9.935226998478875
      ],
      [
        "▁dolayısıyla",
        -9.980435180093345
      ],
      [
        "ans",
        -9.765393024041215
      ],
      [
        "'",
        -7.224945890679831
      ],
      [
        "▁aksam",
        -7.343020411205421
      ],
      [
        "▁britanya",
        -10.621207838805324
      ],
      [
        "ı",
        -6.612256086080283
      ],
      [
        "▁kart",
        -9.324144333577117
      ],
      [
        "▁un",
        -9.227054490661004
      ],
      [
        "▁sevk",
        -9.715057945211417
      ],
      [
        "▁yuklu",
        -10.346979147919363
      ],
      [
        "▁ebeveyn",
        -10.574124685615992
      ],
      [
        "▁elli",
        -8.16695250231819
      ],
      [
        "▁kuvvetli",
        -9.98850911812744
      ],
      [
        "▁diy",
        -9.0653246558342
      ],
      [
        "▁duygusu",
        -10.343324220331608
      ],
      [
        "niz",
        -10.482459069296329
      ],
      [
        "▁mi",
        -8.36941878191682
      ],
      [
        "▁105",
        -10.292322863134915
      ],
      [
        "▁1980",
        -9.541001181325427
      ],
      [
        "▁ist",
        -9.750205657333563
      ],
      [
        "2",
        -9.343103933683576
      ],
      [
        "2-",
        -11.482629028872132
      ],
      [
        "▁bosuna",
        -10.819666833062703
      ],
      [
        "kları",
        -8.839156400266816
      ],
      [
        "ay",
        -8.742453052088642
      ],
      [
        "ciler",
        -8.905582585661538
      ],
      [
        "▁imkan",
        -9.559128611877647
      ],
      [
        "▁meclisi",
        -10.300894839605649
      ],
      [
        "▁daim",
        -9.388545972035962
      ],
      [
        "▁yahu",
        -10.569882108408109
      ],
      [
        "▁yapılanma",
        -10.471059630661728
      ],
      [
        "k",
        -4.566483634496878
      ],
      [
        "kl",
        -10.728123182460942
      ],
      [
        "unu",
        -7.628669655166712
      ],
      [
        "▁am",
        -9.401108724093437
      ],
      [
        "t",
        -6.307256664581648
      ],
      [
        "▁plani",
        -9.645932103356213
      ],
      [
        "▁yok",
        -6.800579191886873
      ],
      [
        "ster",
        -10.10353786224146
      ],
      [
        "▁dusmustu",
        -10.488596985568941
      ],
      [
        "▁american",
        -8.467193330494528
      ],
      [
        "▁kaybeden",
        -10.428583722856365
      ],
      [
        "▁sohret",
        -10.378420018229521
      ],
      [
        "ikti",
        -10.450215035631732
      ],
      [
        "/",
        -5.95097924957408
      ],
      [
        "▁ayrica",
        -10.521515656449147
      ],
      [
        "▁gormeye",
        -10.299864691089006
      ],
      [
        "▁tenha",
        -10.629815751887683
      ],
      [
        "▁yılı",
        -9.15995130274974
      ],
      [
        "▁varacak",
        -9.639549289033711
      ],
      [
        "▁paul'",
        -9.813102822175036
      ],
      [
        "▁istasyonu",
        -10.679776345408364
      ],
      [
        "▁mc",
        -9.337514172349522
      ],
      [
        "▁kalan",
        -8.600638989255724
      ],
      [
        "▁ets",
        -9.227510924271202
      ],
      [
        "▁devasa",
        -10.57461557532017
      ],
      [
        "▁kisiler",
        -9.505416220354244
      ],
      [
        "nizi",
        -9.673548805952013
      ],
      [
        "▁acılıyor",
        -10.708200106720415
      ],
      [
        "▁domates",
        -9.894673624271674
      ],
      [
        "▁cocugu",
        -9.137552047457184
      ],
      [
        "yum",
        -9.975111768299772
      ],
      [
        "var",
        -9.37672767410205
      ],
      [
        "▁baca",
        -10.430152966252491
      ],
      [
        "▁soyleyen",
        -10.259837190662273
      ],
      [
        "▁yanakları",
        -10.396713447241458
      ],
      [
        "▁basladı",
        -7.556185619463424
      ],
      [
        "▁agzın",
        -9.990101593167935
      ],
      [
        "el",
        -10.64194359725727
      ],
      [
        "amıyoru",
        -10.341658109428026
      ],
      [
        "▁bıraktı",
        -8.94459439118248
      ],
      [
        "da",
        -10.957139774156504
      ],
      [
        "▁noriega",
        -10.856710693969616
      ],
      [
        "z",
        -6.575855094575472
      ],
      [
        "▁ihmal",
        -10.688503828354305
      ],
      [
        "▁babam",
        -8.76665185154858
      ],
      [
        "▁diye",
        -10.048915892086761
      ],
      [
        "▁60",
        -8.47541441656007
      ],
      [
        "▁vergisi",
        -10.24962521602294
      ],
      [
        "to",
        -8.499170550452924
      ],
      [
        "▁makale",
        -9.799531770112393
      ],
      [
        "▁beach'",
        -10.052808639417139
      ],
      [
        "▁ılımlı",
        -10.88909917142341
      ],
      [
        "▁etkili",
        -10.14311961284851
      ],
      [
        "dik",
        -8.427473749620827
      ],
      [
        "▁tarzı",
        -10.530401399549811
      ],
      [
        "▁8.0",
        -11.013800640243012
      ],
      [
        "ur",
        -7.472478974679347
      ],
      [
        "▁sisman",
        -10.254247962592249
      ],
      [
        "▁mutlu",
        -8.997835038609068
      ],
      [
        "▁emek",
        -10.069295528560717
      ],
      [
        "▁v",
        -8.1118888222484
      ],
      [
        "▁korfez",
        -10.42387462916615
      ],
      [
        "incisi",
        -9.637134642514823
      ],
      [
        "iy",
        -10.27317174977751
      ],
      [
        "▁gelmesi",
        -10.226335882919548
      ],
      [
        "ci",
        -11.309728575382351
      ],
      [
        "▁ogrenciler",
        -10.138941004137916
      ],
      [
        "▁asama",
        -9.710779101253946
      ],
      [
        "bazı",
        -9.354229368387426
      ],
      [
        "▁becer",
        -10.44392994055466
      ],
      [
        "▁kıvra",
        -10.521493443979978
      ],
      [
        "▁bahseder",
        -9.475791040454048
      ],
      [
        "▁tesekkurler",
        -9.147127993126317
      ],
      [
        "▁baglar",
        -10.373111112156451
      ],
      [
        "▁hukumeti",
        -9.949564073081254
      ],
      [
        "▁sahi",
        -9.333803283932122
      ],
      [
        "su",
        -8.88001573295357
      ],
      [
        "▁tokat",
        -10.690904245870005
      ],
      [
        "▁rapor",
        -8.936479499053158
      ],
      [
        "▁yapmıstı",
        -10.32699498578767
      ],
      [
        "▁planlıyor",
        -9.85334194732961
      ],
      [
        "▁hop",
        -10.388673736145662
      ],
      [
        "▁m",
        -10.419482374058749
      ],
      [
        "▁istikrar",
        -10.214813242133904
      ],
      [
        "▁dakika",
        -8.698144314667653
      ],
      [
        "▁zi",
        -9.749058550494292
      ],
      [
        "▁bekleniyor",
        -9.176738230581744
      ],
      [
        "▁geldigini",
        -10.030610023599962
      ],
      [
        "▁gorevlisi",
        -10.171142733338735
      ],
      [
        "▁palto",
        -10.253625611996265
      ],
      [
        "ington",
        -10.52312826869816
      ],
      [
        "▁sırf",
        -10.693111392638398
      ],
      [
        "▁siir",
        -8.989751407536517
      ],
      [
        "▁dusunuyordu",
        -10.307365870901023
      ],
      [
        "▁hacmi",
        -9.142623965888966
      ],
      [
        "▁yurek",
        -10.042238325305874
      ],
      [
        "▁iskonto",
        -10.3784195442243
      ],
      [
        "▁0.1",
        -9.205788647950406
      ],
      [
        "▁milliyetci",
        -10.709417578633417
      ],
      [
        "▁yansıtıyor",
        -10.60382129676412
      ],
      [
        "▁tarafta",
        -9.849298114746839
      ],
      [
        "0",
        -9.329708899782709
      ],
      [
        "gimiz",
        -8.765037967170969
      ],
      [
        "▁fre",
        -9.571362690393599
      ],
      [
        "▁konum",
        -8.382811567193482
      ],
      [
        "▁icin",
        -3.695592988678742
      ],
      [
        "▁tara",
        -9.546493510053107
      ],
      [
        "▁parla",
        -10.23917024628958
      ],
      [
        "▁yeri",
        -9.184272603602274
      ],
      [
        "▁olu",
        -9.465845653525228
      ],
      [
        ".",
        -9.216358711206778
      ],
      [
        "▁129.",
        -10.196656814001443
      ],
      [
        "90",
        -11.082983173234592
      ],
      [
        "▁miami'de",
        -9.90524597578456
      ],
      [
        "▁dusurul",
        -10.736741549803469
      ],
      [
        "▁bagırıyor",
        -10.388703169203858
      ],
      [
        "▁hicbiri",
        -8.42647037794809
      ],
      [
        "▁olimpiyat",
        -10.751003760874077
      ],
      [
        "uz",
        -8.872095029722393
      ],
      [
        "▁gu",
        -11.453395732365175
      ],
      [
        "▁ilgisizdi",
        -10.015333995335295
      ],
      [
        "▁pacific",
        -10.107578943572662
      ],
      [
        "▁tanısma",
        -10.822337911489658
      ],
      [
        "lesti",
        -8.955120118386892
      ],
      [
        "mont",
        -10.793871410804048
      ],
      [
        "acagı",
        -8.749171142176774
      ],
      [
        "▁vurmus",
        -10.652291954431535
      ],
      [
        "vo",
        -10.29653538466908
      ],
      [
        "▁416",
        -10.64648875495439
      ],
      [
        "▁polonya",
        -10.526968984033973
      ],
      [
        "▁olmus",
        -8.31791156892898
      ],
      [
        ".6",
        -9.813883379647569
      ],
      [
        "▁bastı",
        -10.119108276748586
      ],
      [
        "▁katında",
        -10.416865420347536
      ],
      [
        "▁89-1",
        -12.22749613507643
      ],
      [
        "▁akıs",
        -10.316147246068592
      ],
      [
        "▁william",
        -10.378420616887237
      ],
      [
        "▁25.8",
        -10.559813350085005
      ],
      [
        "▁aydınlat",
        -10.631512412456726
      ],
      [
        "▁etmekte",
        -9.467509361271151
      ],
      [
        "▁almanya'da",
        -10.416750735898978
      ],
      [
        "re",
        -8.455478699837244
      ],
      [
        "once",
        -9.511381666878972
      ],
      [
        "unuz",
        -10.49995309909144
      ],
      [
        "▁5",
        -9.726990897745424
      ],
      [
        "▁basladıgı",
        -10.028185337792276
      ],
      [
        "▁hazırlana",
        -10.570685338006312
      ],
      [
        "▁agacın",
        -10.197932262875625
      ],
      [
        "▁kopek",
        -9.23648856272914
      ],
      [
        "▁it",
        -8.72662537277547
      ],
      [
        "▁dile",
        -9.032542665912427
      ],
      [
        "k",
        -8.180812786693188
      ],
      [
        "▁havlu",
        -10.012120861331303
      ],
      [
        "▁yazılmıs",
        -10.489592715868067
      ],
      [
        "▁oldugum",
        -10.9668647300527
      ],
      [
        "▁141.4",
        -10.621363232131625
      ],
      [
        "▁agladı",
        -10.709766742386414
      ],
      [
        "▁arastırma",
        -8.747177360936744
      ],
      [
        "▁reddetti",
        -8.99777880961688
      ],
      [
        "▁lubnan",
        -10.334941244606867
      ],
      [
        "▁esit",
        -9.557885683440237
      ],
      [
        "amadım",
        -10.147860558245064
      ],
      [
        "▁6.7",
        -10.380704618024017
      ],
      [
        "▁onde",
        -9.638513546920246
      ],
      [
        "▁dolay",
        -6.325603172551561
      ],
      [
        "ıvı",
        -11.887579079084775
      ],
      [
        "▁felaket",
        -9.67428493513026
      ],
      [
        "▁ulkeleri",
        -10.390589389248156
      ],
      [
        "▁hicbir",
        -5.961517491993648
      ],
      [
        "▁sus",
        -8.722844399802234
      ],
      [
        "▁patron",
        -10.378584768638312
      ],
      [
        "▁goster",
        -6.660718044491787
      ],
      [
        "1-19",
        -12.809528646007319
      ],
      [
        "▁bık",
        -10.869589310226075
      ],
      [
        "▁menfaat",
        -10.574124727918742
      ],
      [
        "▁donemde",
        -9.328542255936217
      ],
      [
        "▁rahmet",
        -10.629680319847115
      ],
      [
        "▁s",
        -7.442766271790305
      ],
      [
        "▁bireysel",
        -10.215141577697151
      ],
      [
        "▁miting",
        -10.62970692950358
      ],
      [
        "▁oturan",
        -9.954610433183879
      ],
      [
        "▁edecek",
        -8.806606393927595
      ],
      [
        "▁gercekles",
        -9.419393135568615
      ],
      [
        "nde",
        -8.0267601006287
      ],
      [
        "▁tepe",
        -9.147367953436568
      ],
      [
        "▁100",
        -7.323281198345844
      ],
      [
        "▁bolgede",
        -10.01035014844293
      ],
      [
        "▁cesitliligi",
        -10.067425472937297
      ],
      [
        "▁eklem",
        -10.585005366345634
      ],
      [
        "▁soguk",
        -8.931577650302625
      ],
      [
        "▁delikanlı",
        -9.340968533676849
      ],
      [
        "asyon",
        -9.217489551453376
      ],
      [
        "▁266",
        -10.779969139240297
      ],
      [
        "▁maliyetleri",
        -9.884391362427934
      ],
      [
        "sin",
        -7.740172193961439
      ],
      [
        "▁birbirlerini",
        -8.697935612590925
      ],
      [
        "▁acenta",
        -10.62973548634677
      ],
      [
        "▁gecikme",
        -9.868096573372432
      ],
      [
        "▁manevi",
        -10.689020851029287
      ],
      [
        "▁tutuldu",
        -10.858446076254417
      ],
      [
        "▁cıkan",
        -8.987417379895543
      ],
      [
        "11",
        -9.219857971516147
      ],
      [
        "▁hersey",
        -10.471992445472655
      ],
      [
        "▁bunun",
        -6.1361933051979545
      ],
      [
        "ndaki",
        -9.058445995714266
      ],
      [
        "▁gok",
        -9.065576621505183
      ],
      [
        "▁fonlar",
        -9.761212066301841
      ],
      [
        "inin",
        -7.92095891312098
      ],
      [
        "▁alkol",
        -9.767547482322547
      ],
      [
        "▁muzakere",
        -9.841330730263527
      ],
      [
        "▁calma",
        -10.435977365850482
      ],
      [
        "▁cincinnati",
        -10.886794596347087
      ],
      [
        "tir",
        -7.588558434058938
      ],
      [
        "mıs",
        -10.117204076031388
      ],
      [
        "ri",
        -7.655377361207012
      ],
      [
        "▁celal",
        -10.472768214694081
      ],
      [
        "▁148",
        -10.41264142958399
      ],
      [
        "▁sogut",
        -10.443632705642216
      ],
      [
        "▁terzi",
        -10.691401776073581
      ],
      [
        "▁icini",
        -10.23525312097263
      ],
      [
        "▁yun",
        -9.993083304682338
      ],
      [
        "▁bulasık",
        -10.889122420832992
      ],
      [
        "'yi",
        -9.299550392701168
      ],
      [
        "lly",
        -10.574380167817027
      ],
      [
        "daki",
        -8.06277461708427
      ],
      [
        "lesiyor",
        -10.167242895842302
      ],
      [
        "▁olmalıdır",
        -10.481260726726013
      ],
      [
        "▁cana",
        -9.262605198984414
      ],
      [
        "▁ticareti",
        -10.064146848409457
      ],
      [
        "▁bos",
        -8.554638528384764
      ],
      [
        "▁bugun",
        -7.6417465559080435
      ],
      [
        "▁londra",
        -9.917357478745062
      ],
      [
        "▁bozulma",
        -10.878401939779657
      ],
      [
        "▁louis",
        -10.547654466930233
      ],
      [
        "layıcı",
        -9.824595796139167
      ],
      [
        "49",
        -10.344966050819037
      ],
      [
        "ers",
        -9.755714109721191
      ],
      [
        "▁260",
        -10.758500857706528
      ],
      [
        "▁bolumu",
        -9.63615132408492
      ],
      [
        "iz",
        -7.724972496175177
      ],
      [
        "▁kitaplar",
        -9.80689149453169
      ],
      [
        "▁aslan",
        -9.939576273290752
      ],
      [
        "▁onlar",
        -6.033271387593335
      ],
      [
        "▁bekci",
        -10.575662768704653
      ],
      [
        "▁pisiri",
        -9.930566805749637
      ],
      [
        "▁fı",
        -10.30638076063471
      ],
      [
        "son",
        -8.573686909090888
      ],
      [
        "ist",
        -8.987402041407357
      ],
      [
        "▁sın",
        -10.210587429212714
      ],
      [
        "▁keman",
        -10.731903084340207
      ],
      [
        "▁odeyecek",
        -10.751039513776972
      ],
      [
        "▁11",
        -10.52321463444259
      ],
      [
        "mıstır",
        -8.589233154169829
      ],
      [
        "▁bayragı",
        -10.696045591391012
      ],
      [
        "▁proje",
        -8.912161567001268
      ],
      [
        "▁tiyatro",
        -9.162971041738778
      ],
      [
        "▁hepimizi",
        -9.081385122939913
      ],
      [
        "▁alım-satım",
        -10.142061702507853
      ],
      [
        "▁10.",
        -10.142417948451719
      ],
      [
        "▁kilit",
        -9.870539986694556
      ],
      [
        "▁roma",
        -10.532882572059524
      ],
      [
        "▁kulak",
        -9.182431248284
      ],
      [
        "▁icat",
        -10.533507208219078
      ],
      [
        "▁tartısma",
        -9.109870579422633
      ],
      [
        "▁yuksel",
        -8.358763224387788
      ],
      [
        "▁soyleyecek",
        -10.720580859178831
      ],
      [
        "▁devredil",
        -10.817778970428577
      ],
      [
        "▁deg",
        -9.881293347768754
      ],
      [
        "▁tarihinde",
        -9.530834607923225
      ],
      [
        "▁carpı",
        -9.36169259239404
      ],
      [
        "▁buray",
        -9.100176258701712
      ],
      [
        "bu",
        -6.521250950590649
      ],
      [
        "▁ihlal",
        -10.817670933999121
      ],
      [
        "▁yeme",
        -8.773224175611773
      ],
      [
        "sh",
        -9.669736018094312
      ],
      [
        "ra",
        -11.810406533935817
      ],
      [
        "▁oglan",
        -9.895876759111054
      ],
      [
        "▁milyon",
        -5.185931877072128
      ],
      [
        "▁ke",
        -8.315167873563922
      ],
      [
        "▁defter",
        -9.406030066767496
      ],
      [
        "▁muamele",
        -10.253274674011717
      ],
      [
        "▁guvenlik",
        -9.35572223558346
      ],
      [
        "▁1991",
        -8.737957349104708
      ],
      [
        "▁yolları",
        -10.34561147879699
      ],
      [
        "▁ispanya",
        -10.688504168255234
      ],
      [
        "asyonu",
        -10.212487660643832
      ],
      [
        "400",
        -10.878937736978402
      ],
      [
        "▁utu",
        -10.381173549662318
      ],
      [
        "▁satar",
        -10.524724442944985
      ],
      [
        "▁tatsız",
        -10.635190919551134
      ],
      [
        "ydi",
        -6.578628275021044
      ],
      [
        "▁gitmeyi",
        -10.181073123153059
      ],
      [
        "▁okuyu",
        -10.525922126942776
      ],
      [
        "▁ordusu",
        -10.447695680414578
      ],
      [
        "▁kopmus",
        -10.837893138824802
      ],
      [
        "ko",
        -8.571311392246667
      ],
      [
        "▁havaalanı",
        -9.554758690824542
      ],
      [
        "deydi",
        -10.796855536520312
      ],
      [
        "▁saray",
        -9.23760772075649
      ],
      [
        "dıklarını",
        -9.734938298738149
      ],
      [
        "▁bit",
        -9.005605536631515
      ],
      [
        "▁kusagı",
        -10.575815112007042
      ],
      [
        "00-",
        -11.772156729223715
      ],
      [
        "▁g",
        -11.181084115905492
      ],
      [
        "▁ihsan",
        -10.62968040574615
      ],
      [
        "butun",
        -10.250260120426047
      ],
      [
        "▁ikibiniki",
        -9.484213962934435
      ],
      [
        "▁bulmak",
        -9.245236484383508
      ],
      [
        "▁actıgı",
        -10.557335641966603
      ],
      [
        "▁kalkı",
        -9.352249201387664
      ],
      [
        "▁aklın",
        -9.66175043727021
      ],
      [
        "▁yapmıyor",
        -10.740200881004228
      ],
      [
        "▁42",
        -8.71427175632828
      ],
      [
        "▁avuc",
        -9.375541187825792
      ],
      [
        "▁odam",
        -9.504773593838996
      ],
      [
        "▁ucreti",
        -8.32856114653678
      ],
      [
        "'daki",
        -8.938342569756317
      ],
      [
        "▁bindokuzyuz",
        -10.47787773262471
      ],
      [
        "▁gormedi",
        -8.820943366454536
      ],
      [
        "ane",
        -10.112659403639148
      ],
      [
        "▁telefonu",
        -10.129268276707757
      ],
      [
        "'nda",
        -9.515871116441007
      ],
      [
        "▁oldugun",
        -10.612065443969167
      ],
      [
        "▁zeki",
        -9.951075922426341
      ],
      [
        "▁oldugunda",
        -10.897012445503336
      ],
      [
        "u",
        -11.808339418053768
      ],
      [
        "▁dinle",
        -9.534509982818744
      ],
      [
        "4.3",
        -11.006952375134116
      ],
      [
        "▁umidi",
        -10.751192744396842
      ],
      [
        "67",
        -10.80552323928053
      ],
      [
        "0-1",
        -13.27225999513051
      ],
      [
        "▁gorusmedi",
        -10.145329491205509
      ],
      [
        "▁ilgilendi",
        -7.565385447792866
      ],
      [
        "dı",
        -11.064690274314689
      ],
      [
        "▁yakinlarim",
        -10.689334021707905
      ],
      [
        "izim",
        -10.10999845894959
      ],
      [
        "▁vermeye",
        -9.901958021543058
      ],
      [
        "▁calısan",
        -8.813393442314304
      ],
      [
        "▁carsamba",
        -7.834278063241532
      ],
      [
        "▁vatandas",
        -9.674717736386395
      ],
      [
        "▁kabil",
        -9.869743558678028
      ],
      [
        "▁ayakta",
        -9.526881768158656
      ],
      [
        "▁mor",
        -9.254979685240937
      ],
      [
        "▁yazılı",
        -10.46391039673506
      ],
      [
        "▁kaldi",
        -6.904965810078327
      ],
      [
        "▁gecirir",
        -10.497833863111035
      ],
      [
        ".5'",
        -10.422330684955421
      ],
      [
        "▁bulma",
        -9.737677579245362
      ],
      [
        "▁en",
        -5.927240539710785
      ],
      [
        "▁yatır",
        -9.97290869193885
      ],
      [
        "▁populer",
        -10.423896158380444
      ],
      [
        "▁talih",
        -10.10762830545269
      ],
      [
        "▁yan",
        -7.648486210138145
      ],
      [
        "▁allah",
        -9.369040220352641
      ],
      [
        "▁yapacak",
        -8.914242893739308
      ],
      [
        "ırdı",
        -9.606562413526525
      ],
      [
        "▁fırca",
        -10.524843553805638
      ],
      [
        "▁isvec",
        -10.688513503069125
      ],
      [
        "▁masal",
        -9.977449036072514
      ],
      [
        "▁koltuk",
        -9.643710868325039
      ],
      [
        "▁bayram",
        -9.129047330627184
      ],
      [
        "takım",
        -10.051440007595929
      ],
      [
        "▁vaziyet",
        -10.629769824611566
      ],
      [
        "ti",
        -13.256482449366915
      ],
      [
        "▁sehre",
        -10.334941681418496
      ],
      [
        "▁23.",
        -10.550791494771145
      ],
      [
        "▁havuz",
        -8.305497712908295
      ],
      [
        "▁ucus",
        -6.809929421191381
      ],
      [
        "▁egilimi",
        -10.819276709750135
      ],
      [
        "▁hali",
        -8.63843589910979
      ],
      [
        "▁cıkarı",
        -9.673817128909674
      ],
      [
        "yi",
        -6.640022799222128
      ],
      [
        "ılmaya",
        -10.65181092951927
      ],
      [
        "et",
        -7.7245950682048266
      ],
      [
        "▁degisik",
        -10.107995781855069
      ],
      [
        "▁bakım",
        -9.239599371957704
      ],
      [
        "larımızı",
        -9.153370460235159
      ],
      [
        "nca",
        -8.871592476248708
      ],
      [
        "▁sembol",
        -10.574142738125309
      ],
      [
        "▁kalmamıs",
        -10.498701356782636
      ],
      [
        "▁boston'",
        -7.9786966140060605
      ],
      [
        "▁88",
        -10.644781627017936
      ],
      [
        "ıyla",
        -8.230585959435993
      ],
      [
        "▁kocası",
        -10.089637694024809
      ],
      [
        "55",
        -9.92364904046065
      ],
      [
        "▁kızları",
        -10.370735487399969
      ],
      [
        "▁bulama",
        -9.377108561388749
      ],
      [
        "▁sıva",
        -10.471582959415546
      ],
      [
        "▁duyar",
        -9.603814060438882
      ],
      [
        "mez",
        -8.300674518152785
      ],
      [
        "z",
        -14.190853728377775
      ],
      [
        "▁keyifli",
        -10.406281502226218
      ],
      [
        "nce",
        -9.771726990507076
      ],
      [
        "▁ev",
        -7.444681482760649
      ],
      [
        "▁nispet",
        -10.214813143287135
      ],
      [
        "▁%1",
        -10.278719016848093
      ],
      [
        "▁odeye",
        -10.563860735233805
      ],
      [
        "▁kıya",
        -10.523471404526875
      ],
      [
        "▁halihazırda",
        -9.815689702196696
      ],
      [
        "▁duya",
        -10.449865510088612
      ],
      [
        "▁onlarda",
        -8.606170649037105
      ],
      [
        "▁1.5",
        -8.706118280921128
      ],
      [
        "ten",
        -7.034740247172006
      ],
      [
        ".03",
        -10.426964764726293
      ],
      [
        "▁sahil",
        -10.139925319846723
      ],
      [
        "ku",
        -7.404675337709749
      ],
      [
        "▁buluyor",
        -10.507578650869823
      ],
      [
        "▁tesvik",
        -9.512325377166233
      ],
      [
        "▁keci",
        -10.75784133422695
      ],
      [
        "▁bicim",
        -9.56799933410191
      ],
      [
        "1",
        -9.729838450046953
      ],
      [
        "layan",
        -8.482094556633179
      ],
      [
        "▁fi",
        -9.092872102471476
      ],
      [
        "▁biliyor",
        -9.31071786771754
      ],
      [
        "▁neyi",
        -8.422012106070966
      ],
      [
        "▁duzenleyici",
        -10.521766574247303
      ],
      [
        "▁etmem",
        -8.673576754802705
      ],
      [
        "▁olması",
        -10.279507072818573
      ],
      [
        "▁pantolon",
        -9.790689703217692
      ],
      [
        "▁degerlendirir",
        -9.6540300976364
      ],
      [
        "▁tabiat",
        -10.180548729692882
      ],
      [
        "▁kapatma",
        -10.481989879501022
      ],
      [
        ".25",
        -9.611101879508695
      ],
      [
        "▁edici",
        -10.254281800918417
      ],
      [
        "abilmesi",
        -10.124680926863341
      ],
      [
        "▁ithalat",
        -9.611215366451534
      ],
      [
        "▁elleri",
        -9.158888050913102
      ],
      [
        "▁sebepler",
        -10.529813258826136
      ],
      [
        "▁teyze",
        -10.107582111653146
      ],
      [
        "siyon",
        -9.808098280596917
      ],
      [
        "lanma",
        -8.534962582287223
      ],
      [
        "eci",
        -11.809606674317426
      ],
      [
        "▁sam",
        -9.296344944262952
      ],
      [
        "2.1",
        -10.060658786717287
      ],
      [
        "▁derler",
        -9.892834438505513
      ],
      [
        "▁yayım",
        -10.360768890028101
      ],
      [
        "▁yapılması",
        -10.456714751393852
      ],
      [
        "▁tasarı",
        -10.481128139194267
      ],
      [
        "▁85",
        -10.185528823684125
      ],
      [
        "▁kurtul",
        -9.85389827401038
      ],
      [
        "▁sp",
        -9.415372051541251
      ],
      [
        "▁tecrube",
        -10.107578943576684
      ],
      [
        "▁benzin",
        -9.951653936387416
      ],
      [
        "▁mimar",
        -10.405419549398673
      ],
      [
        "▁karars",
        -10.213490956191071
      ],
      [
        "▁pu",
        -11.408164597291648
      ],
      [
        "▁cok",
        -5.04793555809858
      ],
      [
        "▁ala",
        -8.813288713791309
      ],
      [
        "▁kupe",
        -10.437406448478715
      ],
      [
        "▁uyar",
        -9.454552648838815
      ],
      [
        "▁superdi",
        -9.377990935056525
      ],
      [
        "▁10'da",
        -9.752058823119507
      ],
      [
        "▁man",
        -8.93490334203306
      ],
      [
        "▁gomlek",
        -9.980435943340574
      ],
      [
        "elik",
        -6.520822795879047
      ],
      [
        "▁%3.4",
        -11.443083918441491
      ],
      [
        "ları",
        -5.610103224622934
      ],
      [
        "▁hey",
        -9.896551820200994
      ],
      [
        "▁dum",
        -7.613297299305508
      ],
      [
        "imi",
        -8.541077320338545
      ],
      [
        "▁kola",
        -10.032058342950016
      ],
      [
        "▁yansıt",
        -9.679420261562422
      ],
      [
        "▁155",
        -10.621880712506266
      ],
      [
        "4",
        -9.5754158912283
      ],
      [
        "▁dusunu",
        -10.636733319200289
      ],
      [
        "▁merkezi",
        -8.334314932263478
      ],
      [
        "▁dunyada",
        -9.29593818115158
      ],
      [
        "▁benim",
        -5.9820268329993915
      ],
      [
        "13",
        -12.652351546617641
      ],
      [
        "▁merkezli",
        -9.561635731728469
      ],
      [
        "▁bildir",
        -10.00045882346258
      ],
      [
        "sıdır",
        -9.635721266732824
      ],
      [
        "attin",
        -10.869760678150286
      ],
      [
        "▁cekiyordu",
        -10.696659484635981
      ],
      [
        "diginde",
        -9.907196848543704
      ],
      [
        "yı",
        -6.4555593149982675
      ],
      [
        "lendiriyor",
        -10.298145928707736
      ],
      [
        "▁yonunde",
        -10.427431652909902
      ],
      [
        "▁%3.7",
        -11.920921912011625
      ],
      [
        "/",
        -10.692275068936809
      ],
      [
        "▁yıkıl",
        -9.751935260822492
      ],
      [
        "▁kondu",
        -10.195455862130734
      ],
      [
        "▁hakkı",
        -9.073813922202902
      ],
      [
        "▁35",
        -8.676949231489617
      ],
      [
        "▁et",
        -8.122474839755366
      ],
      [
        "▁hafıza",
        -10.574124704347508
      ],
      [
        "▁sm",
        -9.994316538891976
      ],
      [
        "▁toronto'",
        -9.665913887891254
      ],
      [
        "▁seni",
        -7.053578087856503
      ],
      [
        "▁me",
        -8.00239315754073
      ],
      [
        "lı",
        -9.894766648982408
      ],
      [
        "▁pahalı",
        -9.653750375487967
      ],
      [
        "▁yakın",
        -7.915526209286005
      ],
      [
        "▁dusuncelerini",
        -10.52166826826334
      ],
      [
        "▁1.4",
        -8.80854670130023
      ],
      [
        "us",
        -7.905366774980363
      ],
      [
        "▁bul",
        -7.970692714516275
      ],
      [
        "rate",
        -10.047948446593583
      ],
      [
        "yet",
        -10.787492098028698
      ],
      [
        "▁artırdı",
        -10.584752101757717
      ],
      [
        "▁newark'ta",
        -9.63982172993768
      ],
      [
        "▁moskova",
        -10.378419492245648
      ],
      [
        "▁verebilir",
        -10.519139705624173
      ],
      [
        "▁kosullar",
        -9.948416328774051
      ],
      [
        "/3",
        -9.631786581367232
      ],
      [
        "▁danısmanı",
        -10.446920096162655
      ],
      [
        "3",
        -9.345899583452661
      ],
      [
        "▁inceleme",
        -9.600486984490946
      ],
      [
        "▁derece",
        -8.323828921824372
      ],
      [
        "▁aranma",
        -10.559690572720955
      ],
      [
        "▁dustugunu",
        -10.757181390822984
      ],
      [
        "▁benzer",
        -8.515035103254636
      ],
      [
        "▁sen",
        -9.301930603177881
      ],
      [
        "ya",
        -10.81879747130811
      ],
      [
        "▁kazı",
        -9.850436849635194
      ],
      [
        "mazsa",
        -10.074055953987413
      ],
      [
        "ı'nda",
        -9.842375543710912
      ],
      [
        "▁ua",
        -10.4756273117146
      ],
      [
        "mus",
        -7.420619994540677
      ],
      [
        "▁gonderil",
        -9.849266666805482
      ],
      [
        "▁kullanılıyor",
        -10.353024832942388
      ],
      [
        "▁%7.8",
        -10.683931952813355
      ],
      [
        "▁0.6",
        -10.96494361702419
      ],
      [
        "▁divan",
        -10.471721782783547
      ],
      [
        "abet",
        -10.878411470113907
      ],
      [
        "▁3.5",
        -8.92963682318138
      ],
      [
        "▁kor",
        -8.605214339275513
      ],
      [
        "▁gordugum",
        -10.008304685714926
      ],
      [
        "▁kalkar",
        -10.375504817942282
      ],
      [
        "▁anlıyor",
        -10.2688217513934
      ],
      [
        "▁bahis",
        -10.751017778810425
      ],
      [
        "▁miami'",
        -9.17660139851873
      ],
      [
        "▁sezonu",
        -10.74683573970022
      ],
      [
        "▁mahkemesi",
        -9.898534136072037
      ],
      [
        "▁kaldırma",
        -10.146346832453894
      ],
      [
        "▁yerleri",
        -10.005664978524576
      ],
      [
        "▁tefe",
        -9.162034969752785
      ],
      [
        "▁caz",
        -10.523407413289496
      ],
      [
        "▁gene",
        -9.00127904400318
      ],
      [
        "▁gaz",
        -9.068689217958674
      ],
      [
        "▁sokakta",
        -9.829158274924959
      ],
      [
        "▁ihrac",
        -9.854701328564667
      ],
      [
        "▁1.58",
        -10.735946295945059
      ],
      [
        "▁cincinnati'de",
        -9.870540276144707
      ],
      [
        "▁personellerin",
        -9.33382482390607
      ],
      [
        "▁degisiklik",
        -9.865486535130223
      ],
      [
        "▁sev",
        -8.659129875871589
      ],
      [
        "▁aykırı",
        -10.253275154102331
      ],
      [
        "▁onemli",
        -7.896864615531707
      ],
      [
        "▁davran",
        -9.12223385487769
      ],
      [
        "▁disinda",
        -10.575538722966826
      ],
      [
        "▁kalkan",
        -7.754098524481259
      ],
      [
        "ize",
        -10.825365656243921
      ],
      [
        "▁da",
        -8.07797416663135
      ],
      [
        "▁zahmet",
        -10.574124738869065
      ],
      [
        "gen",
        -9.097197721849259
      ],
      [
        "▁avukatlar",
        -10.15336280129909
      ],
      [
        "▁101",
        -10.684815153978903
      ],
      [
        "▁plan",
        -8.334484840943766
      ],
      [
        "ecegini",
        -8.916333382410148
      ],
      [
        "sever",
        -10.217242204704228
      ],
      [
        "▁tereddut",
        -10.688503762176964
      ],
      [
        "▁yerel",
        -9.17542927407035
      ],
      [
        "maları",
        -9.787354021078256
      ],
      [
        "▁aynı",
        -7.510145428198727
      ],
      [
        "▁farkında",
        -9.720457082427199
      ],
      [
        "▁abi",
        -9.90595112487733
      ],
      [
        "▁kutu",
        -9.392406119399702
      ],
      [
        "▁isin",
        -8.904255942704706
      ],
      [
        "▁kayıp",
        -9.54360947251431
      ],
      [
        "▁savur",
        -9.996884130717943
      ],
      [
        "▁hepimiz",
        -8.170111195120999
      ],
      [
        "▁nizam",
        -10.52150939566481
      ],
      [
        "▁33",
        -9.6303224326292
      ],
      [
        "▁ayrılmıs",
        -10.690125249029995
      ],
      [
        "▁sent",
        -9.025788965226312
      ],
      [
        "▁dogru",
        -7.8009563349696505
      ],
      [
        "▁vasat",
        -10.37862005300899
      ],
      [
        "▁baslarında",
        -10.230394982645748
      ],
      [
        "▁dususu",
        -9.998371926689856
      ],
      [
        "▁sey",
        -6.478438447907615
      ],
      [
        "▁ikna",
        -10.334965055749926
      ],
      [
        "ılması",
        -9.093026629478128
      ],
      [
        "▁varlıklar",
        -10.061990981227206
      ],
      [
        "▁ziya",
        -10.260041602478617
      ],
      [
        "▁stok",
        -9.908005054215836
      ],
      [
        "▁getirdigi",
        -10.261815962189903
      ],
      [
        "lemeye",
        -10.098210829040228
      ],
      [
        "▁rıza",
        -10.253279357190898
      ],
      [
        "▁kayıplar",
        -10.124076839692929
      ],
      [
        "▁futbol",
        -9.504951951866248
      ],
      [
        "▁al",
        -7.025279934648983
      ],
      [
        "▁francisco",
        -8.277894368976867
      ],
      [
        "▁huseyin",
        -10.142061825431906
      ],
      [
        "2",
        -9.228689807849747
      ],
      [
        "▁saglık",
        -9.045742778286627
      ],
      [
        "▁kayık",
        -10.379313464118859
      ],
      [
        "▁evde",
        -8.68746445075951
      ],
      [
        "▁verim",
        -9.605587064701869
      ],
      [
        "lanacak",
        -9.990723319922578
      ],
      [
        "▁5.",
        -10.465060953483375
      ],
      [
        "▁saskın",
        -9.922554263378874
      ],
      [
        "▁gorulur",
        -10.834475374342407
      ],
      [
        "luga",
        -9.599017668245196
      ],
      [
        "▁tekne",
        -9.393574912401553
      ],
      [
        "▁cekisme",
        -10.818093530302768
      ],
      [
        "▁worth'da",
        -9.944127578245439
      ],
      [
        "▁her",
        -4.351819211849485
      ],
      [
        "▁kıbrıs",
        -10.107578943536808
      ],
      [
        "▁ittifak",
        -10.423874128662582
      ],
      [
        "▁flor",
        -10.751097521004546
      ],
      [
        "▁teknoloji",
        -8.98667040747774
      ],
      [
        "ebilecegini",
        -9.772761016864964
      ],
      [
        "▁bekledigim",
        -9.85794361781388
      ],
      [
        "▁cemal",
        -10.81965334244655
      ],
      [
        "▁arta",
        -9.455345945424874
      ],
      [
        "▁ol",
        -10.376470309614627
      ],
      [
        "▁cam",
        -8.656332330405121
      ],
      [
        "▁hızlandır",
        -10.774248402323023
      ],
      [
        "▁eksikligi",
        -10.025337444103702
      ],
      [
        "▁40",
        -7.973724781961952
      ],
      [
        "▁vermis",
        -9.207478939080882
      ],
      [
        "▁dairesi",
        -10.456537387278695
      ],
      [
        "▁makaley",
        -10.366623633217095
      ],
      [
        "▁hakim",
        -9.464363714335512
      ],
      [
        "▁har",
        -8.760220637932443
      ],
      [
        "ıldıgını",
        -9.958065747749375
      ],
      [
        "▁oncesi",
        -10.057419361648785
      ],
      [
        "▁oyle",
        -7.746581563579124
      ],
      [
        "▁bilim",
        -8.615830754905872
      ],
      [
        "▁baglan",
        -9.757014404908798
      ],
      [
        "▁yemekte",
        -10.65285975755058
      ],
      [
        "▁yaktı",
        -10.279200017097898
      ],
      [
        "▁padisah",
        -10.889099117218429
      ],
      [
        "▁yasına",
        -10.48973473730136
      ],
      [
        "▁katılan",
        -10.576473342575525
      ],
      [
        "▁hatır",
        -9.15493606240933
      ],
      [
        "▁sars",
        -9.860116580465338
      ],
      [
        "▁agac",
        -8.96293733464711
      ],
      [
        "▁bucuk",
        -10.293974072941978
      ],
      [
        "▁etkinlik",
        -10.108538372314126
      ],
      [
        "▁gobek",
        -10.751026997522395
      ],
      [
        "▁sarap",
        -10.688970194144941
      ],
      [
        "▁carp",
        -10.236795541527822
      ],
      [
        "▁may",
        -10.394007433792467
      ],
      [
        "▁alkıs",
        -10.335001391005953
      ],
      [
        "▁karısı",
        -9.464333590728575
      ],
      [
        "▁yırtı",
        -10.107696355724416
      ],
      [
        "▁rastladı",
        -10.872902717877766
      ],
      [
        "▁koy",
        -7.9864260115054
      ],
      [
        "ici",
        -8.810588874178183
      ],
      [
        "▁tatlilar",
        -10.34358197808919
      ],
      [
        "▁192",
        -10.885941306851485
      ],
      [
        "▁hastalıgı",
        -9.823860865035405
      ],
      [
        "▁intel",
        -10.752257439999152
      ],
      [
        "▁toplantıda",
        -10.124235562978487
      ],
      [
        "▁dal",
        -8.527155357063886
      ],
      [
        "▁fatura",
        -9.679715932414096
      ],
      [
        "▁ger",
        -10.119515278619001
      ],
      [
        "▁cennet",
        -9.841343217816616
      ],
      [
        "▁ulu",
        -10.428521248226838
      ],
      [
        "▁fak",
        -6.308009083831862
      ],
      [
        "▁kurulmus",
        -10.698892860939768
      ],
      [
        "▁cay",
        -8.877127901649066
      ],
      [
        "▁tenis",
        -10.818012556499813
      ],
      [
        "▁eglenceli",
        -10.189163830235119
      ],
      [
        "▁arap",
        -9.81676499578348
      ],
      [
        "▁cogunu",
        -8.76036576942584
      ],
      [
        "▁artıs",
        -8.744108654622641
      ],
      [
        "▁partisi",
        -10.046361467681757
      ],
      [
        "▁jose'",
        -10.180368808324712
      ],
      [
        "▁ikisini",
        -10.856435161678526
      ],
      [
        "▁gerektiriyor",
        -10.688551252300446
      ],
      [
        "▁etmeyi",
        -9.850311968081009
      ],
      [
        "▁sez",
        -9.52536722368228
      ],
      [
        "▁ankara",
        -9.64944066948248
      ],
      [
        "▁bu",
        -3.220688816836356
      ],
      [
        "▁oyun",
        -8.670854883900706
      ],
      [
        "ni",
        -6.816293175499579
      ],
      [
        "▁sınıfta",
        -10.426202603606656
      ],
      [
        "▁turlari",
        -10.52828837218223
      ],
      [
        "▁oturur",
        -10.10135183617859
      ],
      [
        "memisti",
        -9.957087979263278
      ],
      [
        "▁gelin",
        -9.366733288044074
      ],
      [
        "▁deneyim",
        -9.65799772001771
      ],
      [
        "51",
        -10.981441885772222
      ],
      [
        "▁ihracı",
        -9.8596189056836
      ],
      [
        "▁evi",
        -8.939772239427192
      ],
      [
        "▁yonet",
        -9.458534412672076
      ],
      [
        "▁omru",
        -9.791075351362032
      ],
      [
        "▁sorumluluk",
        -10.043285220251297
      ],
      [
        "▁malzemeleri",
        -10.420737120824322
      ],
      [
        "▁sınav",
        -9.841399987129444
      ],
      [
        "▁goruyordu",
        -10.482211174573903
      ],
      [
        "▁1997",
        -10.225323920146403
      ],
      [
        "▁3.9",
        -10.791841722125609
      ],
      [
        "▁gerekir",
        -9.301543465695904
      ],
      [
        "▁gelen",
        -7.765014329493674
      ],
      [
        "▁korkusu",
        -10.255444477271684
      ],
      [
        "▁canlı",
        -9.342525527174425
      ],
      [
        "▁olusturul",
        -10.29331196031317
      ],
      [
        "▁puan",
        -6.88214740950924
      ],
      [
        "▁ların",
        -10.358136211971258
      ],
      [
        "▁mali",
        -8.625844991628487
      ],
      [
        "cak",
        -9.130272443037247
      ],
      [
        "bası",
        -9.290120709733777
      ],
      [
        "▁tampa'",
        -10.29762502289061
      ],
      [
        "▁ucmak",
        -8.542201837184876
      ],
      [
        "▁bi",
        -9.713648286226768
      ],
      [
        "▁karsı",
        -6.409335831396301
      ],
      [
        "▁kaz",
        -10.149650317293492
      ],
      [
        "▁prosedur",
        -10.751005331593525
      ],
      [
        "▁oranlarını",
        -10.594493209829814
      ],
      [
        "▁kapan",
        -9.569597861481112
      ],
      [
        "/2",
        -9.276631499715993
      ],
      [
        "▁hatirlam",
        -10.817681647049952
      ],
      [
        "▁yerles",
        -9.604068630305415
      ],
      [
        "▁imparator",
        -10.846650895034106
      ],
      [
        "berg",
        -10.459366881708963
      ],
      [
        "▁saatler",
        -9.609956083224418
      ],
      [
        "▁nu",
        -9.741558200759126
      ],
      [
        "▁tuhaf",
        -9.867647410360581
      ],
      [
        "▁sattı",
        -9.800754598914663
      ],
      [
        "▁bush'u",
        -10.609564232817617
      ],
      [
        "▁koltugun",
        -10.217109313795296
      ],
      [
        "▁car",
        -8.754915892920472
      ],
      [
        "▁dogan",
        -9.698828227677193
      ],
      [
        "▁asagı",
        -8.75935248765628
      ],
      [
        "▁%8",
        -9.680844401386137
      ],
      [
        "▁gozlerinde",
        -10.449582611004164
      ],
      [
        "▁01:",
        -10.887699327039211
      ],
      [
        "▁kadını",
        -9.736640078274355
      ],
      [
        "▁cesur",
        -10.47155682149918
      ],
      [
        "▁bilgisayar",
        -8.301840635904924
      ],
      [
        "▁toronto",
        -10.163286828532504
      ],
      [
        "▁huy",
        -10.017799591358266
      ],
      [
        "▁ayıp",
        -10.612100406203105
      ],
      [
        "▁milyar",
        -5.740472206460095
      ],
      [
        "▁olusturma",
        -10.424677433708142
      ],
      [
        "▁borcunu",
        -10.718357386207547
      ],
      [
        "▁olmama",
        -10.52755213331103
      ],
      [
        "▁teneke",
        -10.629684091259666
      ],
      [
        "▁3",
        -9.467192472601775
      ],
      [
        "▁anlasma",
        -8.357326388165964
      ],
      [
        "sen",
        -9.21652649494202
      ],
      [
        "▁beri",
        -9.08902147961673
      ],
      [
        "▁1946",
        -10.893969732266738
      ],
      [
        "ck",
        -8.817119571849831
      ],
      [
        "-200",
        -11.812779528872541
      ],
      [
        "▁sinirli",
        -10.096218377006174
      ],
      [
        "▁dirsek",
        -10.889138153825707
      ],
      [
        "▁islev",
        -10.727229981445126
      ],
      [
        "▁kendisini",
        -7.291834468436704
      ],
      [
        "▁olaylar",
        -9.71007097015891
      ],
      [
        "▁it",
        -9.328053709760933
      ],
      [
        "▁dag",
        -8.908481372573643
      ],
      [
        "▁rakı",
        -9.653529603467677
      ],
      [
        "sidir",
        -9.877446609991534
      ],
      [
        "▁frank",
        -9.951056329665654
      ],
      [
        "▁duskun",
        -10.07580836995393
      ],
      [
        "▁birini",
        -10.004943597635808
      ],
      [
        "▁burbank'ta",
        -10.505657451107886
      ],
      [
        "▁tırmandı",
        -10.817672418359862
      ],
      [
        "▁yirmisekiz",
        -10.89497697531016
      ],
      [
        "▁ucusları",
        -6.369933874846423
      ],
      [
        "▁boynunda",
        -10.746144496713027
      ],
      [
        "▁banyosu",
        -10.346746556462811
      ],
      [
        "dık",
        -9.726813630253403
      ],
      [
        "▁zavallı",
        -9.696507055073225
      ],
      [
        "▁yiyecekler",
        -9.203478054672193
      ],
      [
        "▁seklinde",
        -9.71947625254723
      ],
      [
        "▁yası",
        -10.128152077554164
      ],
      [
        "▁board",
        -10.629684502944038
      ],
      [
        "▁personeli",
        -8.90866580423913
      ],
      [
        "▁darbe",
        -9.458750714741026
      ],
      [
        "▁pas",
        -9.394632498307008
      ],
      [
        "▁karsila",
        -10.777129186352228
      ],
      [
        "▁tesir",
        -10.254773636603982
      ],
      [
        "▁iyiydi",
        -6.435192016104289
      ],
      [
        "▁garip",
        -9.440745476469512
      ],
      [
        "▁l",
        -9.096608954223981
      ],
      [
        "▁kurus",
        -9.963119973573217
      ],
      [
        "▁on",
        -6.257864441783672
      ],
      [
        "▁gizli",
        -8.954056292840178
      ],
      [
        "doksan",
        -10.280845400016329
      ],
      [
        "▁olmasın",
        -9.630985017940583
      ],
      [
        "▁pis",
        -8.909170788429613
      ],
      [
        "▁ayagı",
        -9.466427589395519
      ],
      [
        "▁soyu",
        -9.834143021048591
      ],
      [
        "▁kutusu",
        -10.813676697475351
      ],
      [
        "▁dokme",
        -10.505354520589071
      ],
      [
        "▁lisans",
        -10.525166503479294
      ],
      [
        "▁havuzlar",
        -9.556950393242742
      ],
      [
        "▁sci",
        -10.698403994697085
      ],
      [
        "▁gelsin",
        -10.25669190267668
      ],
      [
        "▁bun",
        -7.028846573070746
      ],
      [
        "▁muzigi",
        -10.107969134291832
      ],
      [
        "▁kazancı",
        -9.94666052019492
      ],
      [
        "▁cekildi",
        -9.926826102533475
      ],
      [
        "▁fabrikası",
        -10.55148326807284
      ],
      [
        "▁ucusların",
        -9.264626586058682
      ],
      [
        "▁kis",
        -9.793300662325091
      ],
      [
        "▁rota",
        -10.137719178353294
      ],
      [
        "▁gunu",
        -7.036545758133444
      ],
      [
        "▁nereler",
        -10.327109737456745
      ],
      [
        "▁hemsire",
        -10.68850464218512
      ],
      [
        "▁gencler",
        -10.249373669344896
      ],
      [
        "▁eris",
        -9.929470444938062
      ],
      [
        "▁kolu",
        -9.997416947811347
      ],
      [
        "▁ruzgar",
        -9.043495087980787
      ],
      [
        "▁tuketici",
        -9.236450630331257
      ],
      [
        "▁for",
        -10.033708255945465
      ],
      [
        "▁kalem",
        -9.17205051177282
      ],
      [
        "▁yatma",
        -10.733545450877257
      ],
      [
        "▁9.5",
        -10.984718836568199
      ],
      [
        "▁biliyordu",
        -10.392225235692823
      ],
      [
        "onlar",
        -9.411444122687692
      ],
      [
        "▁7",
        -7.1735568469883
      ],
      [
        "▁baslayacak",
        -9.924494816000124
      ],
      [
        "▁oniki",
        -10.803909119484079
      ],
      [
        "▁krenz",
        -10.75100430655326
      ],
      [
        "▁maden",
        -9.761503839453257
      ],
      [
        "da",
        -5.580688330948141
      ],
      [
        "▁yayla",
        -10.303753849203732
      ],
      [
        "mizi",
        -8.736981238319057
      ],
      [
        "▁kapsam",
        -9.608249747493398
      ],
      [
        "▁cıktı",
        -7.654100516646221
      ],
      [
        "▁mucadele",
        -9.067164505596256
      ],
      [
        "▁bob",
        -10.564887035537373
      ],
      [
        "sar",
        -9.521658945173073
      ],
      [
        "▁saglama",
        -10.234434300499494
      ],
      [
        "tı",
        -9.880362748676855
      ],
      [
        "▁ferah",
        -10.25361840151969
      ],
      [
        "▁gelisen",
        -10.633334912343061
      ],
      [
        "▁ulastı",
        -9.046000359099498
      ],
      [
        "▁havayolu",
        -9.144189159825457
      ],
      [
        "▁ucuz",
        -7.7424704962659385
      ],
      [
        "besyuz",
        -10.872440776529666
      ],
      [
        "▁cep",
        -9.364810683512692
      ],
      [
        "▁suren",
        -9.74308294125482
      ],
      [
        "▁tane",
        -8.764369691714045
      ],
      [
        "▁duyuru",
        -10.22315406922657
      ],
      [
        "▁dudak",
        -10.655754482771368
      ],
      [
        "▁degisikligi",
        -10.461791018160994
      ],
      [
        "▁rev",
        -10.241825289492539
      ],
      [
        "▁isteyen",
        -9.373651763207896
      ],
      [
        "▁once",
        -7.263909973176916
      ],
      [
        "▁yuzunde",
        -8.640897136033953
      ],
      [
        "▁kulag",
        -10.773402089337164
      ],
      [
        "os",
        -8.681273802500353
      ],
      [
        "▁girince",
        -10.689615584728047
      ],
      [
        "▁ilet",
        -9.665522907996994
      ],
      [
        "▁halı",
        -10.236797677564917
      ],
      [
        "▁sekilde",
        -7.577520250795854
      ],
      [
        "▁mitchell",
        -10.107578944064073
      ],
      [
        "▁olay",
        -9.135052108834717
      ],
      [
        "▁taslar",
        -10.19008125190139
      ],
      [
        "agı",
        -8.89668902515843
      ],
      [
        "▁nerede",
        -7.982980169462512
      ],
      [
        "0.7",
        -10.735277861111916
      ],
      [
        "▁the",
        -9.868895467144338
      ],
      [
        "▁agacı",
        -10.342310692432351
      ],
      [
        "▁fa",
        -8.906900049197075
      ],
      [
        "telif",
        -10.844892613048907
      ],
      [
        "▁baslama",
        -9.801600013437517
      ],
      [
        "▁hizmetci",
        -10.455894312446329
      ],
      [
        "▁personel",
        -7.293491105750211
      ],
      [
        "si'nde",
        -10.26274197896316
      ],
      [
        "▁t",
        -13.020326944763564
      ],
      [
        "▁gide",
        -9.975990310059084
      ],
      [
        "▁jersey",
        -10.378419577569089
      ],
      [
        "ndan",
        -7.876327612924001
      ],
      [
        "▁turun",
        -10.231635701695302
      ],
      [
        "▁pencere",
        -8.821858771539045
      ],
      [
        "ut",
        -10.419403069519229
      ],
      [
        "▁yiyor",
        -10.274839400487728
      ],
      [
        "▁likidite",
        -10.817670429917303
      ],
      [
        "▁sandalye",
        -10.30497808142296
      ],
      [
        "▁kostu",
        -9.732141148420013
      ],
      [
        "lestirdi",
        -10.096513327252405
      ],
      [
        "memis",
        -9.627691622270566
      ],
      [
        "▁konumunda",
        -10.284744973911236
      ],
      [
        "▁lakırtı",
        -10.142061775079998
      ],
      [
        "▁basım",
        -9.558068966022633
      ],
      [
        "▁pazartesi",
        -8.06927595790828
      ],
      [
        "▁onu",
        -5.86245400157231
      ],
      [
        "▁sun",
        -8.80510930751134
      ],
      [
        "▁61",
        -9.652728695045726
      ],
      [
        "▁oakland",
        -9.32127092210493
      ],
      [
        "▁olmakta",
        -10.109797613195536
      ],
      [
        "▁esas",
        -9.539209387960655
      ],
      [
        "▁368.",
        -10.788154927449593
      ],
      [
        "▁fincan",
        -10.142175516660863
      ],
      [
        "▁tavsiye",
        -7.353211762338145
      ],
      [
        "▁89",
        -9.66064125857968
      ],
      [
        "▁2016",
        -9.308874043928322
      ],
      [
        "'te",
        -8.749663191370402
      ],
      [
        "▁2004",
        -10.069273962779134
      ],
      [
        "▁1981",
        -10.539457901189763
      ],
      [
        "▁2001",
        -10.541663483046875
      ],
      [
        "▁yuzyıl",
        -9.440372610186031
      ],
      [
        "▁data",
        -10.48682960942685
      ],
      [
        "ow",
        -9.783081177892686
      ],
      [
        "▁aileler",
        -8.05861373732693
      ],
      [
        "▁digital",
        -10.629680388812922
      ],
      [
        "▁uret",
        -8.90910024584688
      ],
      [
        "▁des",
        -9.840147409703238
      ],
      [
        "▁bulundu",
        -8.929894270968742
      ],
      [
        "▁matematik",
        -10.142061704643567
      ],
      [
        "▁kapanma",
        -10.87506315938343
      ],
      [
        "▁baska",
        -7.489745087433294
      ],
      [
        "▁gerceklestiril",
        -10.452957997589
      ],
      [
        "▁elim",
        -10.11179661231979
      ],
      [
        "▁istedigini",
        -9.90379601493036
      ],
      [
        "mıslardı",
        -10.106575348375163
      ],
      [
        "▁0.5",
        -10.29822109188428
      ],
      [
        "▁isini",
        -9.595384058001459
      ],
      [
        "▁prof",
        -10.577050759417649
      ],
      [
        "0.3",
        -10.737493457701596
      ],
      [
        "▁fikri",
        -9.340997560737907
      ],
      [
        "fı",
        -12.849601984454036
      ],
      [
        "▁ettik",
        -9.355496064341482
      ],
      [
        "▁gazeteci",
        -9.964846711475397
      ],
      [
        "▁bunları",
        -6.675178153881778
      ],
      [
        "lardan",
        -7.707889657614044
      ],
      [
        "bin",
        -9.513672347460165
      ],
      [
        "▁seven",
        -10.58920649545201
      ],
      [
        "ma",
        -8.868442509925302
      ],
      [
        "▁dedikleri",
        -10.484343352405768
      ],
      [
        "▁direktoru",
        -10.117491710876436
      ],
      [
        "%10",
        -13.63797741196559
      ],
      [
        "▁320",
        -10.898935602942371
      ],
      [
        "▁",
        -2.091718453959686
      ],
      [
        "▁170",
        -10.563909366801646
      ],
      [
        "ktor",
        -10.695187800248904
      ],
      [
        "mı",
        -8.374096378826032
      ],
      [
        "▁omuz",
        -9.611259399288592
      ],
      [
        "▁bekar",
        -10.576242343581313
      ],
      [
        "▁mah",
        -9.07935768735598
      ],
      [
        "▁uy",
        -9.824278608781686
      ],
      [
        "▁gerc",
        -10.554326824375337
      ],
      [
        "▁oksur",
        -10.750976196127597
      ],
      [
        "▁odada",
        -9.319190510517103
      ],
      [
        "it",
        -8.269578992253802
      ],
      [
        "8.5",
        -10.883958863170694
      ],
      [
        "kat",
        -9.921952246620714
      ],
      [
        "▁elbise",
        -9.250687179688255
      ],
      [
        "▁peri",
        -10.167845235760149
      ],
      [
        "▁yuksek",
        -7.504656461179853
      ],
      [
        "▁tanık",
        -9.773333157360073
      ],
      [
        "▁sirketler",
        -9.147900765402358
      ],
      [
        "▁sat",
        -8.846822828072298
      ],
      [
        "▁mayıs",
        -9.440724152469613
      ],
      [
        "▁sefer",
        -8.870888739738186
      ],
      [
        "▁havada",
        -9.690713325216255
      ],
      [
        "▁hazine",
        -8.808808857215908
      ],
      [
        "ler",
        -8.561113245009482
      ],
      [
        ",",
        -10.833088600912504
      ],
      [
        "▁dinlenme",
        -10.476645382158434
      ],
      [
        "▁uzman",
        -9.304058978937167
      ],
      [
        "abilmek",
        -9.75583795540748
      ],
      [
        "▁tasıya",
        -9.702027508357848
      ],
      [
        "▁kapanıs",
        -10.385763441075683
      ],
      [
        "▁parmagı",
        -10.507999392570323
      ],
      [
        "▁sırrı",
        -10.698920463724763
      ],
      [
        "▁ye",
        -8.879197343066261
      ],
      [
        "▁uzuntu",
        -10.226550961712237
      ],
      [
        "▁temsilci",
        -10.158411737049956
      ],
      [
        "▁acılmıs",
        -10.508273018778178
      ],
      [
        "▁hollanda",
        -10.688503795010497
      ],
      [
        "▁yapmaya",
        -9.269453981577513
      ],
      [
        "▁ogretmeni",
        -9.9347939310525
      ],
      [
        "▁doldur",
        -9.207943870314892
      ],
      [
        "%3",
        -12.572089405969255
      ],
      [
        "▁yapti",
        -9.203946515754069
      ],
      [
        "▁hosnut",
        -10.817712559426049
      ],
      [
        "or",
        -7.910572170892431
      ],
      [
        "▁japonya'da",
        -10.179755128951914
      ],
      [
        "▁ankara'da",
        -10.383735561765404
      ],
      [
        "▁milliyet",
        -10.50451888760546
      ],
      [
        "▁tuy",
        -9.948209413529359
      ],
      [
        "▁angeles'",
        -9.74078601239532
      ],
      [
        "▁tablo",
        -9.841445297983942
      ],
      [
        "▁koyar",
        -10.487595839766144
      ],
      [
        "▁calısıyor",
        -8.767074014474229
      ],
      [
        "▁kurul",
        -9.449451825335782
      ],
      [
        "▁biz",
        -5.694005228019038
      ],
      [
        "sına",
        -7.105923140220759
      ],
      [
        "▁green",
        -10.574184739223075
      ],
      [
        "▁memnun",
        -6.422501566831746
      ],
      [
        "lar",
        -4.917116846305175
      ],
      [
        "bilecek",
        -10.268718911108405
      ],
      [
        "ligini",
        -8.401102830131101
      ],
      [
        "▁kidder",
        -10.33494152766565
      ],
      [
        "▁toz",
        -9.480005276662219
      ],
      [
        "▁kacındı",
        -10.375632207217361
      ],
      [
        "▁hill",
        -10.889130416362704
      ],
      [
        "▁cal",
        -8.947290096899268
      ],
      [
        "▁esna",
        -9.952972793890764
      ],
      [
        "▁ac",
        -7.700227612167609
      ],
      [
        "▁cehennem",
        -10.521493084582064
      ],
      [
        "▁kurulu",
        -8.559675680269132
      ],
      [
        "▁cocuklarını",
        -10.538392232044918
      ],
      [
        "▁incecik",
        -10.631055944487477
      ],
      [
        "▁ugra",
        -9.030309344495032
      ],
      [
        "abilirdi",
        -9.64316221808862
      ],
      [
        "▁insanlar",
        -8.016344653199969
      ],
      [
        "▁namus",
        -10.299163857106752
      ],
      [
        "▁edilen",
        -8.426927080965296
      ],
      [
        "abilecek",
        -9.54922890663122
      ],
      [
        "▁ilce",
        -9.847131625118784
      ],
      [
        "larımı",
        -9.43553821051421
      ],
      [
        "▁herkesi",
        -8.862982706804996
      ],
      [
        "▁resim",
        -9.055370581841869
      ],
      [
        "▁depremde",
        -10.655959363577523
      ],
      [
        "▁maksim",
        -10.81768424339198
      ],
      [
        "▁tek",
        -7.085450548040491
      ],
      [
        "▁ıslak",
        -10.818071481544377
      ],
      [
        "▁od",
        -9.96511974480468
      ],
      [
        "▁tef",
        -10.163445976690737
      ],
      [
        "▁bulus",
        -9.649402351538852
      ],
      [
        "▁tarz",
        -10.258257499827348
      ],
      [
        "▁sogu",
        -9.994314075661912
      ],
      [
        "▁seyin",
        -9.706052200162384
      ],
      [
        "▁mahmut",
        -10.69087268709836
      ],
      [
        "▁muh",
        -9.508197964277853
      ],
      [
        "▁rol",
        -9.480527091612444
      ],
      [
        "▁ısıgında",
        -10.760021009251343
      ],
      [
        "▁dolar",
        -6.82505899517938
      ],
      [
        "▁oyuncular",
        -10.114788603181687
      ],
      [
        "▁hisse",
        -6.8635708227044105
      ],
      [
        "▁turkiye",
        -8.695942301703797
      ],
      [
        "▁muhtesem",
        -9.250681782686595
      ],
      [
        "▁tesaduf",
        -10.041987585232498
      ],
      [
        "▁araya",
        -9.535256759695972
      ],
      [
        "▁kayna",
        -9.13125071060282
      ],
      [
        "▁kopar",
        -9.765886865859935
      ],
      [
        "▁talebi",
        -9.79069503824276
      ],
      [
        "▁gorunuyordu",
        -10.08730313407611
      ],
      [
        "▁kısa",
        -8.035388123401397
      ],
      [
        "▁iktisa",
        -10.334944650119564
      ],
      [
        "▁gorece",
        -10.308668010685818
      ],
      [
        "▁kredileri",
        -10.214002310724448
      ],
      [
        "▁dr.",
        -10.425327142272113
      ],
      [
        "%2",
        -11.706131327571025
      ],
      [
        "▁orgu",
        -10.628950461644568
      ],
      [
        "▁program",
        -8.722615497809315
      ],
      [
        "▁gevse",
        -9.790692782588794
      ],
      [
        "▁islemlerinde",
        -9.78146142615333
      ],
      [
        "rah",
        -10.032067365267801
      ],
      [
        "▁degismedi",
        -10.301442842048779
      ],
      [
        "▁fırladı",
        -10.078832446656842
      ],
      [
        "▁yogurt",
        -10.574124693511589
      ],
      [
        "▁ederler",
        -10.0661982157702
      ],
      [
        "▁alıyordu",
        -10.397157346796032
      ],
      [
        "▁senator",
        -10.300880822719089
      ],
      [
        "▁corap",
        -10.424003763098185
      ],
      [
        "ter",
        -8.696835432461155
      ],
      [
        "▁13",
        -8.043983628244806
      ],
      [
        "ginde",
        -9.563831621277277
      ],
      [
        "▁baygın",
        -10.81948768365016
      ],
      [
        "▁felsefe",
        -10.074245610347877
      ],
      [
        "▁anımsa",
        -10.142171997931218
      ],
      [
        "▁sevin",
        -9.864532959069543
      ],
      [
        "▁gorusmelerin",
        -10.72481773236635
      ],
      [
        "▁ucag",
        -9.490915662112327
      ],
      [
        ".08",
        -10.306965715622484
      ],
      [
        "lanmıs",
        -8.601101863132625
      ],
      [
        "▁tuccarlar",
        -10.025351362486775
      ],
      [
        "▁gorunur",
        -10.54014173579108
      ],
      [
        "▁intihar",
        -10.471494412312707
      ],
      [
        "▁onbes",
        -10.616644868922243
      ],
      [
        "▁field'",
        -10.574183053447703
      ],
      [
        "▁set",
        -10.508005306710583
      ],
      [
        "▁gelmeye",
        -10.445840567692962
      ],
      [
        "▁ikincisin",
        -10.991639462621036
      ],
      [
        "▁has",
        -8.833741744446874
      ],
      [
        "'in",
        -6.970793796090429
      ],
      [
        "c",
        -12.52551320592358
      ],
      [
        "▁otur",
        -8.92636792797753
      ],
      [
        "▁burada",
        -7.918770060234484
      ],
      [
        "▁musluman",
        -10.041987578516448
      ],
      [
        "▁bari",
        -9.986386386824517
      ],
      [
        "▁arif",
        -10.752482582390709
      ],
      [
        "gibi",
        -7.880345455995306
      ],
      [
        "▁havalimanı'nda",
        -10.629789944177507
      ],
      [
        "he",
        -9.642327013437182
      ],
      [
        "▁teklifini",
        -10.137926021945754
      ],
      [
        "▁yap",
        -7.935552583685139
      ],
      [
        "▁lar",
        -9.208435305133122
      ],
      [
        "inden",
        -8.042508643419621
      ],
      [
        "▁yapmaktan",
        -10.344847991924599
      ],
      [
        "3.8",
        -10.390181989109365
      ],
      [
        "▁kacak",
        -10.489657415426612
      ],
      [
        "▁yasamını",
        -10.551753517764908
      ],
      [
        "▁aldat",
        -10.346399913268623
      ],
      [
        "▁kısıt",
        -10.470789572539072
      ],
      [
        "▁calisanlari",
        -10.1973282144948
      ],
      [
        "▁%11",
        -11.430310812463777
      ],
      [
        "▁omzun",
        -10.629718119823114
      ],
      [
        "▁profesor",
        -10.253275531518062
      ],
      [
        "▁duruyordu",
        -9.90108509765522
      ],
      [
        "▁mırıldan",
        -10.10757894442001
      ],
      [
        "▁guzel",
        -6.479588680678067
      ],
      [
        "▁koz",
        -10.442200576156939
      ],
      [
        "▁ho",
        -9.238355166857804
      ],
      [
        "▁sevil",
        -10.368875806095664
      ],
      [
        "▁10.6",
        -10.963275517375004
      ],
      [
        "lo",
        -8.759439707935933
      ],
      [
        "trik",
        -10.311769426179024
      ],
      [
        "▁listeley",
        -7.854470764665369
      ],
      [
        "▁ilan",
        -9.155789358256778
      ],
      [
        "▁yılda",
        -8.991614166543542
      ],
      [
        "▁fis",
        -10.304956502095047
      ],
      [
        "▁sagladı",
        -10.20923717233622
      ],
      [
        "▁cim",
        -10.10212274765496
      ],
      [
        "▁1990",
        -8.286578179816033
      ],
      [
        "▁sana",
        -7.031446902661547
      ],
      [
        "▁maliyetli",
        -10.582040073549003
      ],
      [
        "▁m",
        -12.81292342695711
      ],
      [
        "▁aklını",
        -10.467317044917772
      ],
      [
        "▁torba",
        -10.300924365098556
      ],
      [
        "▁olacak",
        -10.653978238680095
      ],
      [
        "▁550",
        -10.58675290347122
      ],
      [
        "▁tava",
        -10.359664415539878
      ],
      [
        "▁edecegim",
        -10.353995229658567
      ],
      [
        "▁konforu",
        -9.956604487071683
      ],
      [
        "meden",
        -9.656994212586437
      ],
      [
        "▁yolculugun",
        -10.807021913468093
      ],
      [
        "▁fir",
        -10.051478231144406
      ],
      [
        "▁dusunmuyor",
        -9.475902813227172
      ],
      [
        "11",
        -12.812006644751337
      ],
      [
        "▁fener",
        -10.07466143311028
      ],
      [
        "▁gozleri",
        -8.405770310489931
      ],
      [
        "▁4",
        -6.935914569979488
      ],
      [
        "l",
        -6.2230128212023486
      ],
      [
        "▁sin",
        -9.242927260521476
      ],
      [
        "▁oyunu",
        -9.790210306775627
      ],
      [
        "▁kokuyor",
        -10.360637321615403
      ],
      [
        "▁sacları",
        -9.340443041487669
      ],
      [
        "on",
        -6.971099666334458
      ],
      [
        "▁2.",
        -8.831592292554625
      ],
      [
        "il",
        -7.519181067223513
      ],
      [
        "▁esir",
        -10.09647547187507
      ],
      [
        "klerini",
        -9.531209545724362
      ],
      [
        "▁soz",
        -7.994409705606608
      ],
      [
        "▁derken",
        -9.847173635357322
      ],
      [
        "▁niye",
        -9.921560836932418
      ],
      [
        "▁ameliyat",
        -10.293274709268092
      ],
      [
        "▁basta",
        -9.72322171952117
      ],
      [
        "sın",
        -7.892692676534142
      ],
      [
        "lasıyor",
        -9.993365497441872
      ],
      [
        "▁ga",
        -8.508523962810399
      ],
      [
        "▁gomul",
        -10.297180711487961
      ],
      [
        "ucu",
        -8.877184593688174
      ],
      [
        "▁istemeye",
        -10.60329692814933
      ],
      [
        "▁telefonla",
        -9.28211281389747
      ],
      [
        "'te",
        -9.34698740237014
      ],
      [
        "▁omur",
        -9.951112438604659
      ],
      [
        "▁op",
        -9.770503383765503
      ],
      [
        "ev",
        -11.809602426827798
      ],
      [
        "▁iceride",
        -10.304839305601226
      ],
      [
        "▁bulgur",
        -10.751048865895799
      ],
      [
        "▁cocuklar",
        -8.125245180682764
      ],
      [
        "▁'dı",
        -10.576092024699758
      ],
      [
        "▁yuksekti",
        -9.140010024825166
      ],
      [
        "lerini",
        -6.748887220649363
      ],
      [
        "▁mektep",
        -10.214832887427463
      ],
      [
        "▁lider",
        -9.841104780905312
      ],
      [
        "▁vakıf",
        -10.423874313832975
      ],
      [
        "▁pat",
        -9.194816376360077
      ],
      [
        "▁kontrolu",
        -10.459483779641346
      ],
      [
        "▁west",
        -10.299647388645893
      ],
      [
        "medi",
        -8.81430712127396
      ],
      [
        "▁yapmıs",
        -9.576680339886424
      ],
      [
        "▁soyleniyor",
        -10.707945483804387
      ],
      [
        "lara",
        -7.17694958944284
      ],
      [
        "▁soluk",
        -9.727165267188322
      ],
      [
        "▁acma",
        -9.974347556791763
      ],
      [
        "▁suclama",
        -9.745095257471615
      ],
      [
        "▁kıta",
        -10.471574438826051
      ],
      [
        "▁ettir",
        -9.744791396747054
      ],
      [
        "▁bereket",
        -10.62969738688719
      ],
      [
        "▁alay",
        -9.605199337418842
      ],
      [
        "▁500",
        -8.369384007022514
      ],
      [
        "▁show",
        -10.574313810050871
      ],
      [
        "▁l.",
        -10.475262463114278
      ],
      [
        "▁sandıgı",
        -10.233957394406042
      ],
      [
        "meyecegini",
        -10.15262871165649
      ],
      [
        "▁jose'de",
        -10.886860041979714
      ],
      [
        "inci",
        -9.37785935291702
      ],
      [
        "9.7",
        -10.820567425992959
      ],
      [
        "onları",
        -9.763222161918772
      ],
      [
        "▁goruntu",
        -9.817596073645387
      ],
      [
        "▁kalitesinde",
        -10.283576312213222
      ],
      [
        "▁oldugun",
        -9.129150618245564
      ],
      [
        "▁bas",
        -7.517688026538114
      ],
      [
        "▁rum",
        -10.065987798570351
      ],
      [
        "▁yigit",
        -10.817671180152827
      ],
      [
        "▁kazanma",
        -9.748159102132114
      ],
      [
        "▁pır",
        -9.196406829614833
      ],
      [
        "▁etrafında",
        -9.636257194434604
      ],
      [
        "▁onunde",
        -8.302014371246225
      ],
      [
        "i",
        -4.718025866868599
      ],
      [
        "▁dayana",
        -10.13073135793937
      ],
      [
        "▁yuzum",
        -10.054721795709064
      ],
      [
        "ıs",
        -11.17825507212835
      ],
      [
        "▁guleryuzluydu",
        -9.155162602161628
      ],
      [
        "▁manzara",
        -9.10375492704617
      ],
      [
        "▁%3.",
        -11.182099154216548
      ],
      [
        "▁portfoy",
        -9.841330731002394
      ],
      [
        "labilir",
        -10.43509528384356
      ],
      [
        "▁ediyor",
        -7.052697784021138
      ],
      [
        "▁sinema",
        -9.476975607724338
      ],
      [
        "na",
        -8.3687963349486
      ],
      [
        "▁misafirimiz",
        -9.091665469775911
      ],
      [
        "▁sim",
        -9.703203401351598
      ],
      [
        "▁hayatın",
        -9.397614226592012
      ],
      [
        "er",
        -10.612058390640838
      ],
      [
        "▁mısır",
        -9.570072578232137
      ],
      [
        "▁giren",
        -9.954825605691852
      ],
      [
        "sını",
        -7.197320490390266
      ],
      [
        "▁istemedi",
        -10.447796731520183
      ],
      [
        "▁tadin",
        -10.821487830989692
      ],
      [
        "▁1.19",
        -10.761712764325301
      ],
      [
        "▁nokta",
        -8.681120617588949
      ],
      [
        "1.1",
        -10.777775562792534
      ],
      [
        "▁getirmek",
        -10.294679591797873
      ],
      [
        "▁ihtiyacları",
        -10.309629693531459
      ],
      [
        "▁iste",
        -7.7334779137805425
      ],
      [
        "▁elma",
        -9.748590288647591
      ],
      [
        "▁geyik",
        -9.92250087088107
      ],
      [
        "▁za",
        -11.938950486359479
      ],
      [
        "▁cumhurbaskanı",
        -9.951022805236114
      ],
      [
        "▁38",
        -9.239513639875167
      ],
      [
        "rildik",
        -10.75519863236396
      ],
      [
        "▁lang",
        -10.69025682539533
      ],
      [
        "▁nite",
        -9.90259573274948
      ],
      [
        "▁brown",
        -10.574140029450394
      ],
      [
        "100",
        -9.795625293758011
      ],
      [
        "▁mark",
        -9.823706932609575
      ],
      [
        "▁tesekkur",
        -8.38052758347661
      ],
      [
        "▁21",
        -8.036347926270897
      ],
      [
        "▁koymus",
        -10.517566188249846
      ],
      [
        "▁itiraf",
        -10.041988422926735
      ],
      [
        "▁tehlikeli",
        -10.539205136091216
      ],
      [
        "▁sasırtıcı",
        -10.334945260841517
      ],
      [
        "▁inan",
        -8.764807775438525
      ],
      [
        "▁tutmus",
        -10.56890829186273
      ],
      [
        "▁bileti",
        -9.524939875434423
      ],
      [
        "gumu",
        -10.362635642426326
      ],
      [
        "▁hasta",
        -8.475713216976555
      ],
      [
        "▁hele",
        -10.042198059360931
      ],
      [
        "▁bush",
        -9.683398945532353
      ],
      [
        "▁baslattı",
        -10.585673322181556
      ],
      [
        "▁direnis",
        -10.54188062701348
      ],
      [
        "▁yurudu",
        -9.740992317729686
      ],
      [
        "▁daral",
        -10.177190893278743
      ],
      [
        "▁eniste",
        -10.378670804738217
      ],
      [
        "1'",
        -9.874741197774705
      ],
      [
        "▁olmak",
        -7.8947653113846235
      ],
      [
        "or",
        -5.55378119379344
      ],
      [
        "▁ceyreginde",
        -10.379179900836553
      ],
      [
        "▁havuzu",
        -8.221836546305024
      ],
      [
        "▁insanların",
        -8.898950022553798
      ],
      [
        "ladık",
        -9.803090070847729
      ],
      [
        "▁basvuru",
        -10.09475604176293
      ],
      [
        "me",
        -10.00146619084744
      ],
      [
        "▁olma",
        -8.248146990054208
      ],
      [
        "ol",
        -8.338294193914068
      ],
      [
        "▁haziran",
        -9.276247691921887
      ],
      [
        "▁415",
        -10.282268113923852
      ],
      [
        "▁129",
        -10.694688246814783
      ],
      [
        "▁hanim",
        -7.4981611549188205
      ],
      [
        "ikinci",
        -10.400159785533214
      ],
      [
        "▁gul",
        -8.21699785261342
      ],
      [
        "▁temin",
        -10.822018602385873
      ],
      [
        "▁musterileri",
        -9.929478883392898
      ],
      [
        "▁cır",
        -9.99990476512504
      ],
      [
        "▁ecekti",
        -9.815637890076928
      ],
      [
        "▁sahne",
        -8.892951975147465
      ],
      [
        "▁titrey",
        -10.723032352933862
      ],
      [
        "▁degis",
        -9.349403642185507
      ],
      [
        "▁fıstık",
        -10.88909899116756
      ],
      [
        "▁bardak",
        -9.552712182710714
      ],
      [
        "▁havayollarını",
        -9.339525466773859
      ],
      [
        "▁merkez",
        -8.469360679668435
      ],
      [
        "▁hicbirin",
        -10.472486812302424
      ],
      [
        "▁ortak",
        -8.87084154342686
      ],
      [
        "▁muze",
        -9.945899644371185
      ],
      [
        "▁yse",
        -8.979056288198866
      ],
      [
        "▁oray",
        -9.971739109756703
      ],
      [
        "▁konuy",
        -10.087994279712202
      ],
      [
        "▁cıkardıgı",
        -10.409436273284355
      ],
      [
        "▁hicbirisi",
        -10.97774982045429
      ],
      [
        "bank",
        -10.143489193590131
      ],
      [
        "▁uzere",
        -6.627559624279684
      ],
      [
        "▁37",
        -9.086485923493704
      ],
      [
        "▁borek",
        -10.630934053674657
      ],
      [
        "800",
        -10.755244719420281
      ],
      [
        "ecek",
        -7.592353467940873
      ],
      [
        "▁ayakkabı",
        -9.356841840680072
      ],
      [
        "▁international",
        -9.794218508564065
      ],
      [
        "▁saga",
        -10.192850516940434
      ],
      [
        "rak",
        -6.450553508797672
      ],
      [
        "▁bekleyen",
        -10.217685562017907
      ],
      [
        ".5",
        -9.430731754711667
      ],
      [
        "▁iliski",
        -7.241096103232949
      ],
      [
        "▁0.",
        -10.22058846643642
      ],
      [
        "▁surdugu",
        -10.668686023943636
      ],
      [
        "▁diyen",
        -9.983923280052421
      ],
      [
        "▁82",
        -10.693075209000714
      ],
      [
        "yla",
        -6.818437337461876
      ],
      [
        "▁4.",
        -9.203855788183088
      ],
      [
        "▁ibaret",
        -10.042002215983098
      ],
      [
        "▁sebze",
        -10.177776927924905
      ],
      [
        "▁kurtaj",
        -9.894821825500678
      ],
      [
        "ıyorsun",
        -9.952232824201113
      ],
      [
        "▁uzak",
        -8.507809429920549
      ],
      [
        "▁cevril",
        -9.867647619525098
      ],
      [
        "▁alınması",
        -9.94399247834847
      ],
      [
        "▁suna",
        -10.226932259071747
      ],
      [
        "▁ucuslarını",
        -7.789999309236502
      ],
      [
        "▁raporları",
        -10.50817986088545
      ],
      [
        "▁duser",
        -9.502957719060367
      ],
      [
        "ja",
        -9.889172854626228
      ],
      [
        "▁kayded",
        -10.521261369238394
      ],
      [
        "▁alıcılar",
        -10.350297822306345
      ],
      [
        "▁ailece",
        -10.482014089050606
      ],
      [
        "dı",
        -8.385939154810046
      ],
      [
        "500",
        -9.4657306178989
      ],
      [
        "▁450",
        -10.817535937463706
      ],
      [
        "▁sahipti",
        -10.165434574733963
      ],
      [
        "▁kapalı",
        -9.067336979905201
      ],
      [
        "▁kullanılma",
        -10.853458100345861
      ],
      [
        "▁teker",
        -10.106307989330787
      ],
      [
        "▁edemez",
        -10.475966913724509
      ],
      [
        "unları",
        -10.14889697635057
      ],
      [
        "▁25.",
        -10.104505488178415
      ],
      [
        "▁yavru",
        -9.85408461350785
      ],
      [
        "▁kaynagı",
        -10.184069463328022
      ],
      [
        "▁suphesiz",
        -10.820675945268542
      ],
      [
        "▁temizlik",
        -8.374401425483848
      ],
      [
        "▁5'te",
        -9.460024370129446
      ],
      [
        "00",
        -8.310518358353914
      ],
      [
        "▁annemi",
        -10.074388006821604
      ],
      [
        "7.4",
        -10.58917267964815
      ],
      [
        "▁elestir",
        -10.015621032643539
      ],
      [
        "▁kalmadı",
        -9.738404972205998
      ],
      [
        "mezse",
        -10.267923122423364
      ],
      [
        "▁1989",
        -7.7880954400216265
      ],
      [
        "ı",
        -5.44737418507448
      ],
      [
        "▁ben",
        -4.922539844232007
      ],
      [
        "▁detay",
        -9.98211846409962
      ],
      [
        "▁kemal",
        -9.024812576087424
      ],
      [
        "▁yukselisle",
        -10.687913007505616
      ],
      [
        "▁ustunde",
        -8.312544960929632
      ],
      [
        "▁calıstı",
        -9.043795802600325
      ],
      [
        "▁koyu",
        -9.073068380739901
      ],
      [
        "▁komisyoncu",
        -10.712110030152346
      ],
      [
        "▁kalabalik",
        -9.696506927256898
      ],
      [
        "▁cakı",
        -9.916660519477373
      ],
      [
        "ba",
        -7.496485207792672
      ],
      [
        "ish",
        -10.215277701785038
      ],
      [
        "▁belediye",
        -9.406032878249182
      ],
      [
        "6.25",
        -9.773362979470317
      ],
      [
        "4000",
        -10.33227685369215
      ],
      [
        "5.5",
        -10.323972910652362
      ],
      [
        "▁acil",
        -10.2140429825434
      ],
      [
        "10",
        -8.671631989924691
      ],
      [
        "lugunu",
        -9.145209917538182
      ],
      [
        "▁umut",
        -9.325006681532535
      ],
      [
        "▁di",
        -8.648081907744194
      ],
      [
        "▁bosal",
        -9.707683699954686
      ],
      [
        "▁catal",
        -10.63500081854502
      ],
      [
        "ini",
        -6.954540940287098
      ],
      [
        "$",
        -7.518283183533239
      ],
      [
        "▁hen",
        -8.228989002454686
      ],
      [
        "▁gosterdigi",
        -10.490506162729773
      ],
      [
        "▁dislerini",
        -10.660081245794093
      ],
      [
        "veya",
        -8.908097765809462
      ],
      [
        "▁camasır",
        -9.674661922026335
      ],
      [
        "▁bildiril",
        -10.615543985762134
      ],
      [
        "▁memleket",
        -9.89038227358536
      ],
      [
        "lasmıs",
        -9.54888716404381
      ],
      [
        "▁demir",
        -8.4199930287933
      ],
      [
        "▁anlama",
        -8.887248777955403
      ],
      [
        "▁us",
        -8.08624754668505
      ],
      [
        "▁netice",
        -10.010959120882013
      ],
      [
        "▁c",
        -7.512524467940102
      ],
      [
        "▁gelecekte",
        -9.757411318555
      ],
      [
        "▁22.",
        -9.951591424162933
      ],
      [
        "seni",
        -10.08042601038092
      ],
      [
        "▁acıldı",
        -9.392586353756851
      ],
      [
        "▁hata",
        -9.199989073598326
      ],
      [
        "▁anadolu'da",
        -10.830890730202444
      ],
      [
        "▁hır",
        -10.023388817809268
      ],
      [
        "▁bogul",
        -10.682195477409612
      ],
      [
        "▁ayda",
        -10.01045466488932
      ],
      [
        "▁sustu",
        -10.643723188583143
      ],
      [
        "▁verilen",
        -9.093542605142936
      ],
      [
        "▁mur",
        -9.939528927763098
      ],
      [
        "▁yay",
        -9.042249915242653
      ],
      [
        "▁kalmıs",
        -9.310206332674579
      ],
      [
        "li",
        -5.633429719442701
      ],
      [
        "▁balıkcı",
        -9.788525125028139
      ],
      [
        "▁ikinci",
        -7.3457044762511785
      ],
      [
        "▁pence",
        -10.522627669925598
      ],
      [
        "▁dusundu",
        -9.084162619697482
      ],
      [
        "halde",
        -9.74303330583309
      ],
      [
        "▁ilac",
        -8.82431276477252
      ],
      [
        "▁giri",
        -9.823379518844465
      ],
      [
        "▁sozleri",
        -9.808154942697337
      ],
      [
        "▁istedigi",
        -9.311123407084684
      ],
      [
        "▁ontario",
        -10.745633599891708
      ],
      [
        "▁sakın",
        -9.763092617659156
      ],
      [
        "▁kaldırdı",
        -10.309350105601617
      ],
      [
        "de",
        -5.900984094940702
      ],
      [
        "▁41",
        -9.259593764400314
      ],
      [
        "▁acıkladı",
        -9.043149888468566
      ],
      [
        "ment",
        -10.1979208307279
      ],
      [
        "ag",
        -9.544881160949332
      ],
      [
        "▁maruz",
        -10.220320507403212
      ],
      [
        "▁oldugunu",
        -7.027662086168486
      ],
      [
        "%9",
        -12.047781401844519
      ],
      [
        "▁piyasasında",
        -10.048191618266937
      ],
      [
        "▁verdigini",
        -10.048968169532795
      ],
      [
        "▁yonetimi",
        -9.538118993048801
      ],
      [
        "▁noel",
        -10.819612522370202
      ],
      [
        "▁alısveris",
        -9.440219914039089
      ],
      [
        "▁kuzu",
        -10.012118422618252
      ],
      [
        "▁saadet",
        -10.52153341242547
      ],
      [
        "▁dir",
        -7.302651398842159
      ],
      [
        "▁fiyatlar",
        -8.995206428544131
      ],
      [
        "▁bitirdi",
        -10.47188782377552
      ],
      [
        "▁sakat",
        -10.22522695361922
      ],
      [
        "▁acıklama",
        -8.798300271104129
      ],
      [
        "▁edeli",
        -10.826806672774884
      ],
      [
        "'u",
        -9.159138694245568
      ],
      [
        "▁avantaj",
        -10.423874038254013
      ],
      [
        "▁ymıs",
        -9.626106262333561
      ],
      [
        "▁icere",
        -9.940535742019472
      ],
      [
        "▁po",
        -8.85550896645185
      ],
      [
        "▁ker",
        -9.633615516669101
      ],
      [
        "▁mar",
        -8.816241934093703
      ],
      [
        "ne",
        -7.927966661887857
      ],
      [
        "izm",
        -9.416770415692755
      ],
      [
        "sana",
        -10.379928442631538
      ],
      [
        "▁piyasa",
        -7.846222840166742
      ],
      [
        "▁sivri",
        -10.334976551711241
      ],
      [
        "▁icme",
        -9.169324724680473
      ],
      [
        "▁cumartesi",
        -8.491430254050163
      ],
      [
        "▁city",
        -10.019482205529389
      ],
      [
        "▁edildi",
        -8.707235681175202
      ],
      [
        "▁18.",
        -9.72340881564127
      ],
      [
        "▁satan",
        -10.082181311214152
      ],
      [
        "▁gosterge",
        -9.801249589049231
      ],
      [
        "sinin",
        -7.97988090300116
      ],
      [
        "▁bagı",
        -10.165490475059308
      ],
      [
        "▁konusuyor",
        -9.397632518442673
      ],
      [
        "▁1.59",
[...]
