{
  "version": "1.0",
  "truncation": null,
  "padding": null,
  "added_tokens": [
    {
      "id": 3154,
      "content": "[PAD]",
      "single_word": false,
      "lstrip": false,
      "rstrip": false,
      "normalized": false,
      "special": true
    },
    {
      "id": 3685,
      "content": "[MASK]",
      "single_word": false,
      "lstrip": false,
      "rstrip": false,
      "normalized": false,
      "special": true
    },
    {
      "id": 3779,
      "content": "[UNK]",
      "single_word": false,
      "lstrip": false,
      "rstrip": false,
      "normalized": false,
      "special": true
    },
    {
      "id": 6349,
      "content": "[CLS]",
      "single_word": false,
      "lstrip": false,
      "rstrip": false,
      "normalized": false,
      "special": true
    },
    {
      "id": 6576,
      "content": "[SEP]",
      "single_word": false,
      "lstrip": false,
      "rstrip": false,
      "normalized": false,
      "special": true
    }
  ],
  "normalizer": {
    "type": "Sequence",
    "normalizers": [
      {
        "type": "NFD"
      },
      {
        "type": "Lowercase"
      },
      {
        "type": "StripAccents"
      }
    ]
  },
  "pre_tokenizer": {
    "type": "Sequence",
    "pretokenizers": [
      {
        "type": "Metaspace",
        "replacement": "▁",
        "prepend_scheme": "always",
        "split": true
      }
    ]
  },
  "post_processor": {
    "type": "TemplateProcessing",
    "single": [
      {
        "SpecialToken": {
          "id": "[CLS]",
          "type_id": 0
        }
      },
      {
        "Sequence": {
          "id": "A",
          "type_id": 0
        }
      },
      {
        "SpecialToken": {
          "id": "[SEP]",
          "type_id": 0
        }
      }
    ],
    "pair": [
      {
        "SpecialToken": {
          "id": "[CLS]",
          "type_id": 0
        }
      },
      {
        "Sequence": {
          "id": "A",
          "type_id": 0
        }
      },
      {
        "SpecialToken": {
          "id": "[SEP]",
          "type_id": 0
        }
      },
      {
        "Sequence": {
          "id": "B",
          "type_id": 1
        }
      },
      {
        "SpecialToken": {
          "id": "[SEP]",
          "type_id": 1
        }
      }
    ],
    "special_tokens": {
      "[CLS]": {
        "id": "[CLS]",
        "ids": [
          6349
        ],
        "tokens": [
          "[CLS]"
        ]
      },
      "[SEP]": {
        "id": "[SEP]",
        "ids": [
          6576
        ],
        "tokens": [
          "[SEP]"
        ]
      }
    }
  },
  "decoder": {
    "type": "Metaspace",
    "replacement": "▁",
    "prepend_scheme": "always",
    "split": true
  },
  "model": {
    "type": "WordPiece",
    "unk_token": "[UNK]",
    "continuing_subword_prefix": "##",
    "max_input_chars_per_word": 100,
    "vocab": {
      "▁milyardan": 0,
      "▁agız": 1,
      "▁sif": 2,
      "▁sic": 3,
      "##to": 4,
      "▁alamadim": 5,
      "▁hast": 6,
      "▁yonel": 7,
      "▁mudahal": 8,
      "▁sonradan": 9,
      "##dugunu": 10,
      "##elim": 11,
      "▁tesek": 12,
      "▁ec": 13,
      "▁ha": 14,
      "▁must": 15,
      "▁aras": 16,
      "▁miami'den": 17,
      "▁form": 18,
      "▁beklenen": 19,
      "##una": 20,
      "▁ticari": 21,
      "▁gezin": 22,
      "##erse": 23,
      "▁sırada": 24,
      "▁sarkı": 25,
      "▁kapıyı": 26,
      "▁ili": 27,
      "##'ler": 28,
      "##son": 29,
      "▁q": 30,
      "▁uzakta": 31,
      "▁olayı": 32,
      "▁%9.": 33,
      "▁esn": 34,
      "▁gittim": 35,
      "##asır": 36,
      "▁halbuki": 37,
      "▁coz": 38,
      "▁4.6": 39,
      "▁adlandır": 40,
      "▁yeniden": 41,
      "▁otelde": 42,
      "▁artıs": 43,
      "▁angeles'e": 44,
      "▁buy": 45,
      "##lasyon": 46,
      "▁iran": 47,
      "▁birlestir": 48,
      "##lık": 49,
      "##an'ın": 50,
      "▁arasında": 51,
      "▁standart": 52,
      "▁ulasımı": 53,
      "▁y": 54,
      "##-p": 55,
      "▁olustur": 56,
      "▁yur": 57,
      "▁carsı": 58,
      "▁heyec": 59,
      "##han": 60,
      "▁gogus": 61,
      "▁aray": 62,
      "▁buc": 63,
      "▁u": 64,
      "##alarda": 65,
      "##'nde": 66,
      "▁yken": 67,
      "▁isteyen": 68,
      "##laka": 69,
      "▁once": 70,
      "▁indian": 71,
      "▁2017": 72,
      "##mıstır": 73,
      "▁mar": 74,
      "▁bitir": 75,
      "▁bilgisayar": 76,
      "▁degerli": 77,
      "▁tesp": 78,
      "▁ra": 79,
      "##hur": 80,
      "##'ı": 81,
      "▁rıh": 82,
      "▁kirliydi": 83,
      "##elerek": 84,
      "▁kaydetti": 85,
      "▁sir": 86,
      "▁adı": 87,
      "▁havalimanı": 88,
      "▁trafik": 89,
      "▁first": 90,
      "##uldugunu": 91,
      "▁ameliyat": 92,
      "##alanı": 93,
      "▁temel": 94,
      "▁kısmen": 95,
      "▁ydim": 96,
      "▁tanın": 97,
      "##un": 98,
      "▁mucadele": 99,
      "##ladılar": 100,
      "##imizin": 101,
      "▁gozler": 102,
      "##kuz": 103,
      "▁boy": 104,
      "##tılar": 105,
      "▁ora": 106,
      "▁tesisten": 107,
      "▁harikaydi": 108,
      "##elikle": 109,
      "##se": 110,
      "▁demokratik": 111,
      "▁gecer": 112,
      "▁tum": 113,
      "▁indianapolis'ten": 114,
      "▁annem": 115,
      "##yeni": 116,
      "▁akl": 117,
      "▁hakkı": 118,
      "##meli": 119,
      "##isinden": 120,
      "▁boc": 121,
      "▁bahset": 122,
      "▁yan": 123,
      "##lerdi": 124,
      "▁acıklam": 125,
      "##vır": 126,
      "▁mat": 127,
      "##y'nin": 128,
      "##tır": 129,
      "▁tacoma": 130,
      "▁bec": 131,
      "##1'de": 132,
      "##distan": 133,
      "▁yukselt": 134,
      "▁kep": 135,
      "▁yetersizdi": 136,
      "▁plaj": 137,
      "##isk": 138,
      "▁mektup": 139,
      "##'ne": 140,
      "▁yavr": 141,
      "▁madde": 142,
      "##8'de": 143,
      "▁yapti": 144,
      "▁sivil": 145,
      "▁pur": 146,
      "▁yuzluydu": 147,
      "▁ariz": 148,
      "##ke": 149,
      "##muyor": 150,
      "▁mısın": 151,
      "##elerde": 152,
      "▁prot": 153,
      "▁birka": 154,
      "##rli": 155,
      "##lilig": 156,
      "▁koruy": 157,
      "▁bolumu": 158,
      "▁diego'ya": 159,
      "##'tan": 160,
      "##dan": 161,
      "##bin": 162,
      "▁kendimizi": 163,
      "▁tırman": 164,
      "##o'dan": 165,
      "▁thom": 166,
      "▁ice": 167,
      "▁siy": 168,
      "##yan": 169,
      "▁yangın": 170,
      "▁verebilirim": 171,
      "##ad": 172,
      "▁taks": 173,
      "▁italyan": 174,
      "”": 175,
      "▁bon": 176,
      "▁vak": 177,
      "▁bilmek": 178,
      "▁bildir": 179,
      "▁yukselerek": 180,
      "##ydi": 181,
      "##lal": 182,
      "▁ceza": 183,
      "▁evden": 184,
      "▁aslında": 185,
      "▁dip": 186,
      "##gı": 187,
      "##ill": 188,
      "▁alıcı": 189,
      "▁ortalık": 190,
      "▁sevg": 191,
      "▁merh": 192,
      "##ızı": 193,
      "▁chicago'dan": 194,
      "##mesinin": 195,
      "▁rap": 196,
      "▁sekiz": 197,
      "##cıları": 198,
      "▁kim": 199,
      "▁saglam": 200,
      "▁yetkilileri": 201,
      "▁yalap": 202,
      "##amdan": 203,
      "▁tut": 204,
      "▁hayal": 205,
      "▁york'tan": 206,
      "▁milletvek": 207,
      "▁sim": 208,
      "▁alısveris": 209,
      "▁%99": 210,
      "▁yırt": 211,
      "▁ayn": 212,
      "▁prob": 213,
      "##gunuz": 214,
      "##amda": 215,
      "▁kaybet": 216,
      "▁etmez": 217,
      "##daki": 218,
      "▁bulunan": 219,
      "##'ye": 220,
      "##ırda": 221,
      "▁koyun": 222,
      "▁karsılas": 223,
      "▁ask": 224,
      "▁dc'ye": 225,
      "▁verecek": 226,
      "##ong": 227,
      "▁calısması": 228,
      "▁dısına": 229,
      "##'luk": 230,
      "▁dusuktu": 231,
      "▁yaptıgını": 232,
      "▁mc": 233,
      "▁neyi": 234,
      "▁mood": 235,
      "##eyecek": 236,
      "▁toplantı": 237,
      "##dem": 238,
      "▁begenmedim": 239,
      "##uy": 240,
      "▁olumlu": 241,
      "▁ob": 242,
      "##-m": 243,
      "▁veririm": 244,
      "▁1.0": 245,
      "##iss": 246,
      "##saydı": 247,
      "▁mud": 248,
      "▁alıskan": 249,
      "▁diger": 250,
      "▁hun": 251,
      "##ti": 252,
      "##uyorlardı": 253,
      "▁birbirler": 254,
      "▁ilg": 255,
      "▁kose": 256,
      "##bil": 257,
      "▁almıs": 258,
      "##oth": 259,
      "##lasmıs": 260,
      "▁genislet": 261,
      "▁korkut": 262,
      "▁delta": 263,
      "▁bah": 264,
      "##ato": 265,
      "##oker": 266,
      "##tıs": 267,
      "▁etkin": 268,
      "▁buyume": 269,
      "▁gam": 270,
      "▁kendiler": 271,
      "▁guver": 272,
      "▁azalt": 273,
      "▁yedi": 274,
      "▁tı": 275,
      "▁n": 276,
      "▁cap": 277,
      "▁cukur": 278,
      "▁tad": 279,
      "▁rop": 280,
      "##izasyon": 281,
      "##adem": 282,
      "▁yolun": 283,
      "▁yam": 284,
      "▁askın": 285,
      "##memek": 286,
      "##tre": 287,
      "##l": 288,
      "▁uy": 289,
      "▁sanki": 290,
      "##ırıl": 291,
      "▁bulut": 292,
      "▁esi": 293,
      "▁tepk": 294,
      "▁sureci": 295,
      "▁yasındaki": 296,
      "##lanıyor": 297,
      "▁%80": 298,
      "▁gel": 299,
      "▁sonraki": 300,
      "▁adlı": 301,
      "▁han": 302,
      "▁sirketin": 303,
      "▁oyunun": 304,
      "##egas": 305,
      "▁lan": 306,
      "##aa": 307,
      "▁washington'a": 308,
      "▁fazlay": 309,
      "▁kucucuk": 310,
      "▁senetlerinin": 311,
      "▁hayata": 312,
      "##teb": 313,
      "▁verimli": 314,
      "▁leri": 315,
      "▁gucu": 316,
      "▁yıllarda": 317,
      "##alet": 318,
      "▁daha": 319,
      "##ep": 320,
      "▁sav": 321,
      "▁lif": 322,
      "▁mimar": 323,
      "##rat": 324,
      "▁mahkum": 325,
      "▁degillerdi": 326,
      "##bar": 327,
      "▁insanları": 328,
      "##ograf": 329,
      "##ave": 330,
      "##ebilirim": 331,
      "▁eline": 332,
      "##arası": 333,
      "▁cumartesi": 334,
      "##ım": 335,
      "▁faturam": 336,
      "##ilebilir": 337,
      "▁hayatını": 338,
      "▁sauna": 339,
      "▁gorusuldu": 340,
      "##ı": 341,
      "▁eksikligi": 342,
      "▁baltimore'ye": 343,
      "##iki": 344,
      "##lesmis": 345,
      "##malar": 346,
      "▁bekledigini": 347,
      "▁kaptan": 348,
      "▁yemegi": 349,
      "▁diyar": 350,
      "▁cd": 351,
      "▁pilot": 352,
      "▁kopr": 353,
      "▁bilinen": 354,
      "▁cek": 355,
      "##eyin": 356,
      "▁ların": 357,
      "▁ogrenci": 358,
      "▁ki": 359,
      "▁isine": 360,
      "▁verdim": 361,
      "##ger": 362,
      "▁alma": 363,
      "##-2": 364,
      "▁salı": 365,
      "▁serin": 366,
      "▁sars": 367,
      "##uldugu": 368,
      "▁37": 369,
      "▁basbak": 370,
      "##abz": 371,
      "▁unit": 372,
      "##avuz": 373,
      "▁bay": 374,
      "##be": 375,
      "▁durgunluk": 376,
      "▁sıf": 377,
      "▁veto": 378,
      "▁dusundu": 379,
      "▁idare": 380,
      "##lıgıyla": 381,
      "▁durdur": 382,
      "▁muam": 383,
      "▁deri": 384,
      "▁baslıyor": 385,
      "▁ailenin": 386,
      "##lerin": 387,
      "▁co": 388,
      "▁diyorlar": 389,
      "##ilerinin": 390,
      "▁genclik": 391,
      "▁gerektigini": 392,
      "▁verir": 393,
      "▁altı": 394,
      "##mu": 395,
      "▁ondan": 396,
      "##may": 397,
      "▁bekleniyor": 398,
      "▁yonetici": 399,
      "▁oturuyor": 400,
      "▁tamamlan": 401,
      "▁gectigimiz": 402,
      "##umus": 403,
      "▁hukumet": 404,
      "▁2.9": 405,
      "##sekiz": 406,
      "▁ded": 407,
      "▁sakal": 408,
      "▁ihtiyac": 409,
      "▁ilgililerdi": 410,
      "▁gokyuz": 411,
      "▁bekleyen": 412,
      "##dıgımız": 413,
      "##isel": 414,
      "##likte": 415,
      "▁saglık": 416,
      "##uluk": 417,
      "▁hepsine": 418,
      "▁ce": 419,
      "▁ger": 420,
      "▁icini": 421,
      "##evizyon": 422,
      "▁hayatta": 423,
      "##dı": 424,
      "##ator": 425,
      "▁genellikle": 426,
      "▁son": 427,
      "▁domates": 428,
      "▁mill": 429,
      "▁dunya": 430,
      "##gal": 431,
      "##e": 432,
      "▁parti": 433,
      "##urt": 434,
      "▁konuk": 435,
      "##ing": 436,
      "▁ey": 437,
      "▁mesaf": 438,
      "▁hak": 439,
      "▁edecegim": 440,
      "▁yuz": 441,
      "▁bus": 442,
      "▁atan": 443,
      "##lin": 444,
      "##.52": 445,
      "##mi": 446,
      "▁cag": 447,
      "▁devral": 448,
      "##leyip": 449,
      "▁dik": 450,
      "▁boston": 451,
      "▁kalkıs": 452,
      "▁cıkıs": 453,
      "##'ta": 454,
      "▁yapı": 455,
      "▁olmustu": 456,
      "##eyebilir": 457,
      "▁dov": 458,
      "▁onsekiz": 459,
      "▁kitaplar": 460,
      "▁duv": 461,
      "▁almak": 462,
      "▁zengin": 463,
      "▁kıymetler": 464,
      "▁temizligi": 465,
      "##dum": 466,
      "▁kalabal": 467,
      "▁bircog": 468,
      "▁tahvil": 469,
      "▁hab": 470,
      "▁mir": 471,
      "▁las": 472,
      "▁aydınlık": 473,
      "▁prof": 474,
      "▁canı": 475,
      "▁taraf": 476,
      "▁fark": 477,
      "▁hukumeti": 478,
      "▁tul": 479,
      "▁69": 480,
      "##larından": 481,
      "##imize": 482,
      "▁fr": 483,
      "##otuz": 484,
      "▁vardi": 485,
      "▁icten": 486,
      "##lıga": 487,
      "##lamayı": 488,
      "▁ilgilen": 489,
      "▁ilgilenmedi": 490,
      "▁dır": 491,
      "▁he": 492,
      "▁diken": 493,
      "▁inc.": 494,
      "##iliyordu": 495,
      "▁hayır": 496,
      "##at": 497,
      "▁havlu": 498,
      "##larının": 499,
      "▁akr": 500,
      "▁philadelphia'ya": 501,
      "▁guzeldi": 502,
      "▁kutu": 503,
      "▁defa": 504,
      "▁olm": 505,
      "▁sez": 506,
      "▁koltuk": 507,
      "▁fiyatlandır": 508,
      "##26": 509,
      "##larınız": 510,
      "##ıldıgında": 511,
      "▁benim": 512,
      ".": 513,
      "▁patlı": 514,
      "▁os": 515,
      "##asın": 516,
      "▁milwa": 517,
      "▁kurdu": 518,
      "▁superdi": 519,
      "##alarla": 520,
      "▁katildim": 521,
      "▁lutf": 522,
      "▁kral": 523,
      "▁18": 524,
      "z": 525,
      "▁birisi": 526,
      "▁?..": 527,
      "##lige": 528,
      "▁okudu": 529,
      "▁uzaktan": 530,
      "▁avuc": 531,
      "▁kor": 532,
      "##ulan": 533,
      "▁bu": 534,
      "▁inti": 535,
      "▁dest": 536,
      "▁vasıtasıyla": 537,
      "▁bazıları": 538,
      "▁british": 539,
      "▁biber": 540,
      "▁cagır": 541,
      "##niyet": 542,
      "▁6": 543,
      "##lara": 544,
      "▁kalkıyor": 545,
      "▁gonder": 546,
      "▁vic": 547,
      "▁aktar": 548,
      "##ega": 549,
      "##elere": 550,
      "▁detroit'e": 551,
      "▁aktiv": 552,
      "▁temizlen": 553,
      "##ical": 554,
      "▁bekliyor": 555,
      "▁zaman": 556,
      "##sak": 557,
      "▁tasarru": 558,
      "##makta": 559,
      "▁boyn": 560,
      "##o": 561,
      "▁yontem": 562,
      "▁kendisini": 563,
      "##ecegim": 564,
      "▁iddi": 565,
      "##m": 566,
      "##dim": 567,
      "▁ruz": 568,
      "▁partiler": 569,
      "▁cadd": 570,
      "##lıktan": 571,
      "▁h": 572,
      "##ci": 573,
      "▁sozcu": 574,
      "▁tipik": 575,
      "##isine": 576,
      "##mesin": 577,
      "▁miami'ye": 578,
      "▁mırıldan": 579,
      "▁ustelik": 580,
      "▁ulusal": 581,
      "▁sabahın": 582,
      "▁abd'nin": 583,
      "##erdi": 584,
      "▁toront": 585,
      "▁ayrıl": 586,
      "##ove": 587,
      "▁``": 588,
      "▁kıtır": 589,
      "▁yara": 590,
      "▁bugday": 591,
      "▁verdigi": 592,
      "▁lok": 593,
      "▁sık": 594,
      "##'un": 595,
      "▁komp": 596,
      "▁bankası": 597,
      "▁gitmis": 598,
      "##meye": 599,
      "▁tug": 600,
      "##us": 601,
      "▁busbutun": 602,
      "##gun": 603,
      "▁tasar": 604,
      "▁kime": 605,
      "▁veriyor": 606,
      "##‘": 607,
      "##ar": 608,
      "▁mumkun": 609,
      "##hal": 610,
      "##ık": 611,
      "▁107": 612,
      ",": 613,
      "▁fır": 614,
      "##ımın": 615,
      "▁yiyecekler": 616,
      "##mada": 617,
      "▁tiril": 618,
      "##ni": 619,
      "▁cocuklu": 620,
      "##lamaya": 621,
      "▁seyler": 622,
      "▁ets": 623,
      "▁telef": 624,
      "▁cocugu": 625,
      "##'nın": 626,
      "▁olmayı": 627,
      "##raf": 628,
      "▁ettim": 629,
      "▁kacak": 630,
      "▁imalat": 631,
      "##:30": 632,
      "▁icine": 633,
      "▁kopru": 634,
      "▁ispan": 635,
      "▁hiss": 636,
      "▁gozluk": 637,
      "##mıstı": 638,
      "▁nec": 639,
      "▁sunu": 640,
      "##tern": 641,
      "▁%5": 642,
      "▁ilan": 643,
      "##ıya": 644,
      "▁ellerinde": 645,
      "▁6'dan": 646,
      "▁konu": 647,
      "▁la": 648,
      "▁tatil": 649,
      "▁deh": 650,
      "▁nikah": 651,
      "##tıkca": 652,
      "##all": 653,
      "▁olarak": 654,
      "▁krav": 655,
      "▁bıy": 656,
      "▁15": 657,
      "▁mo": 658,
      "##arım": 659,
      "##ist": 660,
      "▁perde": 661,
      "▁camur": 662,
      "▁seviy": 663,
      "▁”": 664,
      "▁yuzlerce": 665,
      "▁pazartesi": 666,
      "▁seyir": 667,
      "▁aktarmalı": 668,
      "##sur": 669,
      "▁edec": 670,
      "▁belir": 671,
      "▁yeg": 672,
      "▁reh": 673,
      "▁un": 674,
      "▁basında": 675,
      "##gunu": 676,
      "▁olar": 677,
      "▁dedigi": 678,
      "##ısır": 679,
      "▁oda": 680,
      "▁gunes": 681,
      "▁dol": 682,
      "▁aracılıgıyla": 683,
      "##ulmaz": 684,
      "▁mayıs": 685,
      "▁ay": 686,
      "▁aldır": 687,
      "##isyon": 688,
      "##ırk": 689,
      "▁faal": 690,
      "u": 691,
      "▁omuz": 692,
      "##ıda": 693,
      "##ang": 694,
      "▁kaf": 695,
      "▁ikti": 696,
      "▁unut": 697,
      "▁bono": 698,
      "▁francisco'ya": 699,
      "▁aga": 700,
      "##lardır": 701,
      "▁merkezine": 702,
      "▁hijyen": 703,
      "▁fısır": 704,
      "▁balayi": 705,
      "▁kullanmadim": 706,
      "▁urk": 707,
      "##tuk": 708,
      "▁meyv": 709,
      "▁yaptim": 710,
      "▁500": 711,
      "##.00": 712,
      "▁yapan": 713,
      "▁biy": 714,
      "##ahat": 715,
      "▁count": 716,
      "▁karsılastır": 717,
      "##;": 718,
      "▁tazmin": 719,
      "▁dep": 720,
      "▁tehlik": 721,
      "##malı": 722,
      "##gimiz": 723,
      "▁duzey": 724,
      "##agında": 725,
      "▁istedi": 726,
      "##bi": 727,
      "##okr": 728,
      "▁tası": 729,
      "▁gulus": 730,
      "##ota": 731,
      "▁gumbur": 732,
      "▁atlan": 733,
      "▁orman": 734,
      "##bur": 735,
      "▁keyif": 736,
      "▁kullanım": 737,
      "##ice": 738,
      "▁dorduncu": 739,
      "▁kadın": 740,
      "▁war": 741,
      "##ırı": 742,
      "##ow": 743,
      "▁ur": 744,
      "▁oakland'a": 745,
      "▁epey": 746,
      "▁munasebet": 747,
      "##tep": 748,
      "▁icinden": 749,
      "&": 750,
      "##ligini": 751,
      "▁nuf": 752,
      "▁sub": 753,
      "▁oyuncak": 754,
      "▁hisseler": 755,
      "▁sayı": 756,
      "▁hijyenik": 757,
      "▁tır": 758,
      "▁129": 759,
      "##dıkca": 760,
      "▁oyuncu": 761,
      "▁nikkei": 762,
      "##ini": 763,
      "▁karsil": 764,
      "▁ucuslar": 765,
      "▁edil": 766,
      "▁baslayacak": 767,
      "▁tecrub": 768,
      "##.125": 769,
      "▁135": 770,
      "▁=": 771,
      "##can": 772,
      "p": 773,
      "▁ibm": 774,
      "▁diego'dan": 775,
      "##92": 776,
      "▁%12": 777,
      "▁musteri": 778,
      "▁ogrenciler": 779,
      "##a'nın": 780,
      "##veland": 781,
      "##elen": 782,
      "##lerce": 783,
      "▁vazgec": 784,
      "▁insanın": 785,
      "▁vatand": 786,
      "▁alcak": 787,
      "▁olcude": 788,
      "▁tavuk": 789,
      "##press": 790,
      "##anet": 791,
      "##esil": 792,
      "▁dokun": 793,
      "▁big": 794,
      "▁baz": 795,
      "##lamak": 796,
      "▁bors": 797,
      "▁gosteren": 798,
      "▁1989": 799,
      "▁odedigim": 800,
      "▁herhal": 801,
      "▁edilmesi": 802,
      "##etti": 803,
      "▁rom": 804,
      "##iyeti": 805,
      "▁sehir": 806,
      "▁zamanda": 807,
      "▁sahibi": 808,
      "▁sapk": 809,
      "▁avantaj": 810,
      "▁kup": 811,
      "##undeki": 812,
      "▁aram": 813,
      "▁bazılarının": 814,
      "▁olus": 815,
      "▁dogan": 816,
      "##luyor": 817,
      "##ustum": 818,
      "##miyordu": 819,
      "▁degilsiniz": 820,
      "▁yolculuk": 821,
      "▁bakım": 822,
      "▁fi": 823,
      "##gım": 824,
      "▁profesyon": 825,
      "▁edilen": 826,
      "▁anay": 827,
      "▁201": 828,
      "##br": 829,
      "##dern": 830,
      "##tel": 831,
      "▁tabak": 832,
      "##sına": 833,
      "▁466": 834,
      "▁stratej": 835,
      "▁tiyatr": 836,
      "▁mer": 837,
      "##acaktır": 838,
      "##bac": 839,
      "▁kenar": 840,
      "##ledigi": 841,
      "▁kaybetti": 842,
      "##27": 843,
      "▁denizi": 844,
      "▁kı": 845,
      "▁kans": 846,
      "▁12.5": 847,
      "##esinde": 848,
      "▁kapan": 849,
      "▁duruyor": 850,
      "▁com": 851,
      "▁gıldır": 852,
      "##maya": 853,
      "##imi": 854,
      "▁ecz": 855,
      "##2'den": 856,
      "▁south": 857,
      "##mamalı": 858,
      "▁pas": 859,
      "▁cıplak": 860,
      "▁yararlan": 861,
      "##ken": 862,
      "▁okuy": 863,
      "▁bilen": 864,
      "##egini": 865,
      "▁continental": 866,
      "▁bunlar": 867,
      "▁anlama": 868,
      "▁kendilerine": 869,
      "▁fırıl": 870,
      "▁gitmeyi": 871,
      "▁89": 872,
      "##edim": 873,
      "▁birbucuk": 874,
      "▁katılım": 875,
      "▁cocukları": 876,
      "##&": 877,
      "▁kalem": 878,
      "▁sını": 879,
      "▁veya": 880,
      "▁onunla": 881,
      "▁sefer": 882,
      "▁oranları": 883,
      "▁97": 884,
      "▁gitmek": 885,
      "▁gelgelelim": 886,
      "▁isler": 887,
      "▁annemin": 888,
      "▁baslat": 889,
      "▁kimseye": 890,
      "##ra": 891,
      "▁merk": 892,
      "▁197": 893,
      "▁vol": 894,
      "##\\/8": 895,
      "▁got": 896,
      "##0'": 897,
      "▁cı": 898,
      "▁poz": 899,
      "##ecek": 900,
      "##sinin": 901,
      "##yas": 902,
      "▁ev": 903,
      "▁simdiye": 904,
      "▁altmıs": 905,
      "▁yazık": 906,
      "▁eglenc": 907,
      "▁midir": 908,
      "▁sakın": 909,
      "▁meger": 910,
      "▁pro": 911,
      "##yalar": 912,
      "##let": 913,
      "▁aralık": 914,
      "##atik": 915,
      "▁vurgul": 916,
      "▁gerektir": 917,
      "▁dug": 918,
      "▁fa": 919,
      "▁kararı": 920,
      "##lanma": 921,
      "##ece": 922,
      "▁diren": 923,
      "##ce": 924,
      "▁tem": 925,
      "##el": 926,
      "▁ozen": 927,
      "▁olusan": 928,
      "▁komutan": 929,
      "▁tercih": 930,
      "▁mini": 931,
      "##ıyorsun": 932,
      "##leri": 933,
      "##unku": 934,
      "▁hang": 935,
      "##amayan": 936,
      "▁`": 937,
      "▁arada": 938,
      "▁vapur": 939,
      "5": 940,
      "▁kendinizi": 941,
      "▁zaten": 942,
      "▁dc'den": 943,
      "▁35": 944,
      "##ikler": 945,
      "▁hale": 946,
      "▁yakal": 947,
      "▁alımı": 948,
      "▁basın": 949,
      "▁alabil": 950,
      "▁ilgili": 951,
      "▁mantık": 952,
      "▁yse": 953,
      "▁sis": 954,
      "▁onlar": 955,
      "▁iflas": 956,
      "▁pah": 957,
      "▁daima": 958,
      "##aların": 959,
      "##gimi": 960,
      "▁suleyman": 961,
      "▁ogr": 962,
      "▁eve": 963,
      "▁masaya": 964,
      "▁piyas": 965,
      "##acagını": 966,
      "##ıyor": 967,
      "▁agustos": 968,
      "▁muc": 969,
      "▁ama": 970,
      "▁doviz": 971,
      "▁aldıgı": 972,
      "▁acıkca": 973,
      "##laması": 974,
      "▁yetistir": 975,
      "##dıg": 976,
      "##imden": 977,
      "▁olmuyor": 978,
      "▁varan": 979,
      "▁4.9": 980,
      "▁karayolu": 981,
      "▁1961": 982,
      "▁gidecek": 983,
      "▁busbut": 984,
      "▁mahkeme": 985,
      "▁ticareti": 986,
      "##ayım": 987,
      "▁olun": 988,
      "##ciler": 989,
      "##emiyor": 990,
      "▁kab": 991,
      "##timore": 992,
      "▁hikay": 993,
      "▁dum": 994,
      "##30": 995,
      "▁shearson": 996,
      "▁elleri": 997,
      "▁wh": 998,
      "▁pır": 999,
      "▁seyrediyor": 1000,
      "▁dısı": 1001,
      "▁ulus": 1002,
      "##uyla": 1003,
      "▁jur": 1004,
      "##ecegimiz": 1005,
      "▁pıtır": 1006,
      "▁zaf": 1007,
      "▁rehber": 1008,
      "▁kak": 1009,
      "▁yurtdıs": 1010,
      "▁bazi": 1011,
      "▁muhtemel": 1012,
      "##sas": 1013,
      "##aber": 1014,
      "▁sorustur": 1015,
      "▁ceviz": 1016,
      "▁hisseye": 1017,
      "▁pozisyon": 1018,
      "▁hem": 1019,
      "▁gonullu": 1020,
      "▁kapat": 1021,
      "▁ca": 1022,
      "##meyecek": 1023,
      "▁konforu": 1024,
      "▁oturma": 1025,
      "▁oteli": 1026,
      "▁som": 1027,
      "▁iddia": 1028,
      "▁financi": 1029,
      "##uyordu": 1030,
      "▁beyaz": 1031,
      "▁diz": 1032,
      "##undan": 1033,
      "▁test": 1034,
      "▁duran": 1035,
      "▁subat": 1036,
      "##ot": 1037,
      "▁kılı": 1038,
      "▁rob": 1039,
      "▁zamana": 1040,
      "▁goturdu": 1041,
      "▁hakkinda": 1042,
      "##umun": 1043,
      "##dy": 1044,
      "##iyi": 1045,
      "##ıyorlar": 1046,
      "▁islet": 1047,
      "▁montre": 1048,
      "▁sakat": 1049,
      "%": 1050,
      "▁birbirlerini": 1051,
      "▁gormez": 1052,
      "▁houston'a": 1053,
      "▁kısın": 1054,
      "▁yonetim": 1055,
      "##47": 1056,
      "▁beraber": 1057,
      "▁me": 1058,
      "▁1.9": 1059,
      "▁bozuk": 1060,
      "▁kisiye": 1061,
      "▁kıy": 1062,
      "▁id": 1063,
      "▁org": 1064,
      "##ecegi": 1065,
      "##ro": 1066,
      "▁aday": 1067,
      "▁detroit": 1068,
      "##agıt": 1069,
      "▁sozunu": 1070,
      "▁indianapolis": 1071,
      "▁ny": 1072,
      "##landır": 1073,
      "▁kad": 1074,
      "▁3.9": 1075,
      "##acılık": 1076,
      "▁atlanta'dan": 1077,
      "▁sonucu": 1078,
      "▁yoldan": 1079,
      "##gından": 1080,
      "▁sınız": 1081,
      "▁icim": 1082,
      "▁futbol": 1083,
      "▁sevgil": 1084,
      "▁cet": 1085,
      "▁var": 1086,
      "▁alt": 1087,
      "▁lider": 1088,
      "▁dusunuyorum": 1089,
      "▁ibaret": 1090,
      "▁yansıt": 1091,
      "##udum": 1092,
      "##ayan": 1093,
      "▁ciddi": 1094,
      "##ınıyor": 1095,
      "▁gormedim": 1096,
      "▁saatte": 1097,
      "▁aldıgını": 1098,
      "▁anladı": 1099,
      "##uydu": 1100,
      "▁adını": 1101,
      "##ey": 1102,
      "▁charl": 1103,
      "##nal": 1104,
      "▁bilet": 1105,
      "▁neye": 1106,
      "▁fir": 1107,
      "▁uzerine": 1108,
      "▁lazım": 1109,
      "▁biridir": 1110,
      "▁karısı": 1111,
      "▁birim": 1112,
      "▁bocek": 1113,
      "▁yem": 1114,
      "▁bakır": 1115,
      "▁minim": 1116,
      "▁400": 1117,
      "▁personel": 1118,
      "▁kisiyi": 1119,
      "▁giydi": 1120,
      "▁burn": 1121,
      "▁cinc": 1122,
      "▁kurulan": 1123,
      "▁dolar": 1124,
      "##afir": 1125,
      "▁fransız": 1126,
      "▁mısınız": 1127,
      "▁yılın": 1128,
      "▁istedik": 1129,
      "##tia": 1130,
      "▁basar": 1131,
      "▁oncesi": 1132,
      "▁pa": 1133,
      "##rem": 1134,
      "▁yetkililer": 1135,
      "▁sy": 1136,
      "▁ziyaret": 1137,
      "##acag": 1138,
      "##elerin": 1139,
      "▁hiz": 1140,
      "▁omz": 1141,
      "▁vakt": 1142,
      "▁gunun": 1143,
      "▁bil": 1144,
      "▁gunler": 1145,
      "##atır": 1146,
      "▁dolardan": 1147,
      "▁teslim": 1148,
      "▁tutarında": 1149,
      "▁yaratı": 1150,
      "▁minneapolis'e": 1151,
      "▁oakland'dan": 1152,
      "▁bakımından": 1153,
      "▁birkac": 1154,
      "▁vadeli": 1155,
      "▁tarihli": 1156,
      "▁kırık": 1157,
      "▁makal": 1158,
      "▁kendisi": 1159,
      "▁takır": 1160,
      "▁misiniz": 1161,
      "▁butun": 1162,
      "##mektedir": 1163,
      "▁fiyatları": 1164,
      "▁mod": 1165,
      "##lestir": 1166,
      "##acaklar": 1167,
      "▁pittsburgh": 1168,
      "▁angel": 1169,
      "▁yal": 1170,
      "▁emre": 1171,
      "▁ıs": 1172,
      "▁mobil": 1173,
      "▁memphis'ten": 1174,
      "▁satısa": 1175,
      "▁petrol": 1176,
      "▁icimde": 1177,
      "▁ugras": 1178,
      "▁og": 1179,
      "▁hakkında": 1180,
      "▁cıkmıstı": 1181,
      "▁adet": 1182,
      "▁sorumluluk": 1183,
      "▁kalite": 1184,
      "▁yolunda": 1185,
      "##x": 1186,
      "▁yer": 1187,
      "##lı": 1188,
      "▁kurk": 1189,
      "▁kot": 1190,
      "▁karsiligini": 1191,
      "▁oldugunu": 1192,
      "▁bilesik": 1193,
      "▁radyo": 1194,
      "▁zorluk": 1195,
      "▁etmiyor": 1196,
      "▁pir": 1197,
      "##ltı": 1198,
      "▁s": 1199,
      "▁sekl": 1200,
      "▁asag": 1201,
      "▁pay": 1202,
      "##lerinden": 1203,
      "▁pantolon": 1204,
      "▁allah": 1205,
      "▁hacmi": 1206,
      "▁eti": 1207,
      "▁ihtimal": 1208,
      "##tıktan": 1209,
      "##ich": 1210,
      "##.875": 1211,
      "##enkul": 1212,
      "▁diyor": 1213,
      "##ecegiz": 1214,
      "##mazlar": 1215,
      "▁yuklen": 1216,
      "##11": 1217,
      "##ers": 1218,
      "▁2.2": 1219,
      "▁uyku": 1220,
      "▁hepsinden": 1221,
      "▁renkli": 1222,
      "##tex": 1223,
      "▁york'ta": 1224,
      "▁dem": 1225,
      "▁ucus": 1226,
      "▁sistemi": 1227,
      "##det": 1228,
      "▁pitts": 1229,
      "▁hizmet": 1230,
      "##lanması": 1231,
      "##rub": 1232,
      "▁ozlem": 1233,
      "▁20": 1234,
      "▁mol": 1235,
      "▁ucretleri": 1236,
      "▁1.6": 1237,
      "▁kopek": 1238,
      "▁ozgurluk": 1239,
      "▁kalan": 1240,
      "▁dedim": 1241,
      "##iligi": 1242,
      "##0000": 1243,
      "▁rej": 1244,
      "##usunda": 1245,
      "▁yakalan": 1246,
      "##tis": 1247,
      "##ayi": 1248,
      "##.5": 1249,
      "▁lez": 1250,
      "##ıc": 1251,
      "▁portakal": 1252,
      "▁vakit": 1253,
      "##rika": 1254,
      "##uh": 1255,
      "▁tiyat": 1256,
      "▁medya": 1257,
      "▁kotu": 1258,
      "##'nda": 1259,
      "1": 1260,
      "##mamız": 1261,
      "▁sair": 1262,
      "▁tamamladı": 1263,
      "##ince": 1264,
      "##anti": 1265,
      "##af": 1266,
      "##raz": 1267,
      "▁hav": 1268,
      "▁sosyal": 1269,
      "▁hizmetleri": 1270,
      "##mak": 1271,
      "▁berbat": 1272,
      "▁kendilerinin": 1273,
      "▁paranın": 1274,
      "##ry": 1275,
      "▁celik": 1276,
      "▁danıs": 1277,
      "▁destek": 1278,
      "▁nashville'den": 1279,
      "▁iht": 1280,
      "##ıldıgı": 1281,
      "▁tanıt": 1282,
      "##ton": 1283,
      "▁ten": 1284,
      "▁baslık": 1285,
      "##esel": 1286,
      "▁uzerinde": 1287,
      "##.9": 1288,
      "▁merdi": 1289,
      "▁seviyede": 1290,
      "▁sisman": 1291,
      "▁oteldi": 1292,
      "##meyi": 1293,
      "▁hos": 1294,
      "▁cor": 1295,
      "▁orlando'ya": 1296,
      "▁basa": 1297,
      "▁rapor": 1298,
      "▁ben": 1299,
      "##gına": 1300,
      "##lemis": 1301,
      "▁etmeyi": 1302,
      "▁arap": 1303,
      "▁evet": 1304,
      "▁donemde": 1305,
      "##egin": 1306,
      "▁dil": 1307,
      "##isim": 1308,
      "▁mesela": 1309,
      "▁sovyetler": 1310,
      "##aması": 1311,
      "##ması": 1312,
      "##urlu": 1313,
      "##elerinin": 1314,
      "▁kırmızı": 1315,
      "▁eglence": 1316,
      "▁mıdır": 1317,
      "▁ates": 1318,
      "▁kurus": 1319,
      "▁duvar": 1320,
      "▁sikayet": 1321,
      "▁televizyon": 1322,
      "##s.": 1323,
      "▁teskil": 1324,
      "▁dieg": 1325,
      "▁2.6": 1326,
      "▁malz": 1327,
      "##mıs": 1328,
      "▁yuzme": 1329,
      "▁ide": 1330,
      "##ultu": 1331,
      "▁meyve": 1332,
      "▁haldır": 1333,
      "▁uzerinden": 1334,
      "▁yıldız": 1335,
      "▁korfez": 1336,
      "▁bilgi": 1337,
      "▁amc": 1338,
      "##elerinde": 1339,
      "▁63": 1340,
      "e": 1341,
      "▁190": 1342,
      "▁haft": 1343,
      "▁kıyas": 1344,
      "▁soylemek": 1345,
      "▁yeni": 1346,
      "▁organizasyon": 1347,
      "▁davranıs": 1348,
      "▁kalkıp": 1349,
      "##ib": 1350,
      "##ırt": 1351,
      "▁hadi": 1352,
      "##rak": 1353,
      "▁vad": 1354,
      "▁gecip": 1355,
      "##'da": 1356,
      "▁egz": 1357,
      "##dık": 1358,
      "##her": 1359,
      "▁yıldan": 1360,
      "▁corp": 1361,
      "##dog": 1362,
      "▁tesis": 1363,
      "▁nokta": 1364,
      "▁ortak": 1365,
      "▁her": 1366,
      "##unc": 1367,
      "▁ot": 1368,
      "▁yanı": 1369,
      "▁aman": 1370,
      "▁halihazırda": 1371,
      "▁hurr": 1372,
      "##tılı": 1373,
      "▁dava": 1374,
      "▁lyn": 1375,
      "▁fonlar": 1376,
      "▁olanak": 1377,
      "##stit": 1378,
      "##ben": 1379,
      "▁haftada": 1380,
      "▁gozlem": 1381,
      "▁hit": 1382,
      "▁care": 1383,
      "▁ilet": 1384,
      "▁konumu": 1385,
      "▁insanların": 1386,
      "##lıgın": 1387,
      "##lit": 1388,
      "▁yukselen": 1389,
      "▁agır": 1390,
      "##emem": 1391,
      "##+": 1392,
      "##vili": 1393,
      "▁organ": 1394,
      "▁eden": 1395,
      "▁agr": 1396,
      "##idi": 1397,
      "▁mecbur": 1398,
      "▁ım": 1399,
      "▁ucusun": 1400,
      "▁300": 1401,
      "##yet": 1402,
      "▁1991-19": 1403,
      "##ont": 1404,
      "▁cıktı": 1405,
      "+": 1406,
      "▁dısarıda": 1407,
      "▁sus": 1408,
      "▁hatta": 1409,
      "▁katil": 1410,
      "##%": 1411,
      "▁temiz": 1412,
      "▁sup": 1413,
      "▁louis'e": 1414,
      "▁cırp": 1415,
      "▁ge": 1416,
      "▁olmasi": 1417,
      "▁giren": 1418,
      "▁yargıc": 1419,
      "▁250000": 1420,
      "▁getirdi": 1421,
      "▁skan": 1422,
      "##mis": 1423,
      "▁oper": 1424,
      "▁em": 1425,
      "##abilecek": 1426,
      "▁twa": 1427,
      "▁haftalık": 1428,
      "##etin": 1429,
      "▁calısıyor": 1430,
      "▁israil": 1431,
      "▁hakim": 1432,
      "##giniz": 1433,
      "▁sayf": 1434,
      "▁cincinnati'ye": 1435,
      "##itt": 1436,
      "▁kayıp": 1437,
      "▁sonu": 1438,
      "▁sanay": 1439,
      "x": 1440,
      "▁etkilen": 1441,
      "##ker": 1442,
      "▁istanbul'a": 1443,
      "▁acıp": 1444,
      "▁yarım": 1445,
      "▁calısmaya": 1446,
      "##ediy": 1447,
      "▁hangi": 1448,
      "▁cirkin": 1449,
      "##ende": 1450,
      "▁olmadı": 1451,
      "▁evvel": 1452,
      "##asa": 1453,
      "▁iskont": 1454,
      "▁6.4": 1455,
      "▁secen": 1456,
      "▁getiri": 1457,
      "▁bell": 1458,
      "▁otobus": 1459,
      "▁satır": 1460,
      "##lıgının": 1461,
      "▁mim": 1462,
      "##4.8": 1463,
      "▁kısmı": 1464,
      "▁oak": 1465,
      "▁karmasık": 1466,
      "▁hik": 1467,
      "##eyh": 1468,
      "j": 1469,
      "▁risk": 1470,
      "▁ac": 1471,
      "##'s": 1472,
      "▁ramiz": 1473,
      "▁orada": 1474,
      "▁81": 1475,
      "▁gob": 1476,
      "▁2003": 1477,
      "##ayıp": 1478,
      "▁klasik": 1479,
      "▁rol": 1480,
      "##ize": 1481,
      "##unun": 1482,
      "##ec": 1483,
      "▁sandal": 1484,
      "##urdu": 1485,
      "▁oranında": 1486,
      "##ulur": 1487,
      "▁kay": 1488,
      "▁bisiklet": 1489,
      "▁st": 1490,
      "##ladık": 1491,
      "##mel": 1492,
      "##lerimiz": 1493,
      "▁cocukların": 1494,
      "##ısıl": 1495,
      "##and": 1496,
      "##ını": 1497,
      "##yi": 1498,
      "▁elimi": 1499,
      "##id": 1500,
      "▁kimin": 1501,
      "▁fl": 1502,
      "##sine": 1503,
      "▁iktidar": 1504,
      "▁misafir": 1505,
      "▁yaptıgı": 1506,
      "##yen": 1507,
      "##.7": 1508,
      "##4": 1509,
      "▁obur": 1510,
      "▁ep": 1511,
      "▁milwaukee": 1512,
      "##imin": 1513,
      "▁tuc": 1514,
      "▁girdi": 1515,
      "▁fık": 1516,
      "▁4.3": 1517,
      "▁tuccar": 1518,
      "▁bolum": 1519,
      "▁yanıt": 1520,
      "▁eger": 1521,
      "▁dans": 1522,
      "##ilerle": 1523,
      "▁sh": 1524,
      "##sinde": 1525,
      "▁teminat": 1526,
      "#": 1527,
      "▁baslamıs": 1528,
      "▁jones": 1529,
      "▁sifir": 1530,
      "▁yiy": 1531,
      "##ris": 1532,
      "▁tutan": 1533,
      "##.51": 1534,
      "##abil": 1535,
      "##istan": 1536,
      "▁0.7": 1537,
      "▁ugra": 1538,
      "▁milli": 1539,
      "▁uzakti": 1540,
      "▁ydik": 1541,
      "▁tekrar": 1542,
      "##i": 1543,
      "▁toz": 1544,
      "▁asır": 1545,
      "##uz": 1546,
      "▁acil": 1547,
      "▁sers": 1548,
      "▁yatırımcıları": 1549,
      "##iden": 1550,
      "▁ici": 1551,
      "##obil": 1552,
      "##tere": 1553,
      "▁muhal": 1554,
      "▁gercekten": 1555,
      "▁olsa": 1556,
      "##kur": 1557,
      "##v": 1558,
      "▁edi": 1559,
      "▁fal": 1560,
      "▁yahut": 1561,
      "##enler": 1562,
      "▁ani": 1563,
      "▁'": 1564,
      "▁durmadan": 1565,
      "##leyen": 1566,
      "##utur": 1567,
      "▁rut": 1568,
      "▁nob": 1569,
      "##imizi": 1570,
      "▁olmustur": 1571,
      "▁puf": 1572,
      "##unt": 1573,
      "▁degisimi": 1574,
      "▁odamiz": 1575,
      "▁hayran": 1576,
      "▁soyluyorlar": 1577,
      "▁yasanan": 1578,
      "▁sol": 1579,
      "▁ilgisizdi": 1580,
      "▁ban": 1581,
      "##tanın": 1582,
      "▁bankalar": 1583,
      "▁ag": 1584,
      "▁ila": 1585,
      "▁hayatı": 1586,
      "▁itir": 1587,
      "▁gitt": 1588,
      "▁suru": 1589,
      "▁ney": 1590,
      "▁basbakan": 1591,
      "▁sayisi": 1592,
      "▁basvur": 1593,
      "▁600": 1594,
      "▁2004": 1595,
      "▁vi": 1596,
      "##dor": 1597,
      "▁mevcut": 1598,
      "▁verin": 1599,
      "▁dusunceler": 1600,
      "▁ozgur": 1601,
      "▁%3.5": 1602,
      "▁cab": 1603,
      "▁36": 1604,
      "▁muhim": 1605,
      "▁sıkıstır": 1606,
      "▁ayrılan": 1607,
      "▁kong": 1608,
      "▁ceb": 1609,
      "▁kampanya": 1610,
      "##tik": 1611,
      "▁kez": 1612,
      "##zet": 1613,
      "▁miras": 1614,
      "##istik": 1615,
      "▁bakar": 1616,
      "▁soyle": 1617,
      "##luluk": 1618,
      "▁haydi": 1619,
      "▁kam": 1620,
      "▁nedeniyle": 1621,
      "▁dolan": 1622,
      "##85": 1623,
      "##cıların": 1624,
      "▁kop": 1625,
      "▁americ": 1626,
      "▁olmadıgını": 1627,
      "▁dususle": 1628,
      "▁yay": 1629,
      "▁haket": 1630,
      "##gec": 1631,
      "▁karn": 1632,
      "▁gelirler": 1633,
      "##32": 1634,
      "▁kendime": 1635,
      "▁dizi": 1636,
      "##larken": 1637,
      "▁kalitesi": 1638,
      "##48": 1639,
      "▁devir": 1640,
      "▁baltimore'den": 1641,
      "▁fena": 1642,
      "▁temmuz": 1643,
      "##ev": 1644,
      "▁kosk": 1645,
      "##iski": 1646,
      "▁olduklarını": 1647,
      "##iddet": 1648,
      "##kei": 1649,
      "▁kızın": 1650,
      "##ladı": 1651,
      "##medigi": 1652,
      "▁alınan": 1653,
      "##cu": 1654,
      "▁aqua": 1655,
      "▁super": 1656,
      "▁bahc": 1657,
      "▁kıvr": 1658,
      "▁konusmalar": 1659,
      "##vik": 1660,
      "▁gay": 1661,
      "▁iy": 1662,
      "▁gold": 1663,
      "▁karsın": 1664,
      "▁5-1": 1665,
      "▁attıgı": 1666,
      "▁tip": 1667,
      "▁10'dan": 1668,
      "▁isci": 1669,
      "▁kendim": 1670,
      "▁tun": 1671,
      "▁nus": 1672,
      "▁havuzu": 1673,
      "▁kamyon": 1674,
      "▁tampa'ya": 1675,
      "▁sesleri": 1676,
      "▁hepimizi": 1677,
      "▁duruyordu": 1678,
      "▁hazırlık": 1679,
      "▁ayakk": 1680,
      "##ob": 1681,
      "▁vatan": 1682,
      "##dam": 1683,
      "▁boston'dan": 1684,
      "▁satısları": 1685,
      "▁abd'de": 1686,
      "##lebilir": 1687,
      "▁yonet": 1688,
      "▁fazlas": 1689,
      "▁harekete": 1690,
      "▁yemeklerin": 1691,
      "▁miyim": 1692,
      "##gılan": 1693,
      "▁petersburg'dan": 1694,
      "▁emin": 1695,
      "##gul": 1696,
      "▁tor": 1697,
      "?": 1698,
      "▁sorunları": 1699,
      "▁miz": 1700,
      "▁american": 1701,
      "▁i": 1702,
      "##madıgı": 1703,
      "▁urun": 1704,
      "▁ustun": 1705,
      "##amıstı": 1706,
      "▁umit": 1707,
      "▁universitesi": 1708,
      "_": 1709,
      "▁kar": 1710,
      "▁saglıyor": 1711,
      "▁gelmisti": 1712,
      "▁otob": 1713,
      "▁olmak": 1714,
      "▁cıkar": 1715,
      "▁isbir": 1716,
      "##ez": 1717,
      "##arak": 1718,
      "##cel": 1719,
      "##lasma": 1720,
      "▁tam": 1721,
      "##ig": 1722,
      "▁dalga": 1723,
      "##ulen": 1724,
      "▁cumhurbaskanı": 1725,
      "▁nev": 1726,
      "▁nez": 1727,
      "▁ası": 1728,
      "▁amma": 1729,
      "▁rezerv": 1730,
      "##iyetini": 1731,
      "▁tiyatro": 1732,
      "▁karakter": 1733,
      "▁bıyık": 1734,
      "▁degilim": 1735,
      "▁bahsederim": 1736,
      "▁bahs": 1737,
      "▁doksan": 1738,
      "▁artan": 1739,
      "▁pac": 1740,
      "##dini": 1741,
      "▁hakkındaki": 1742,
      "▁guleryuzlu": 1743,
      "▁gro": 1744,
      "▁ediyor": 1745,
      "##emis": 1746,
      "##idik": 1747,
      "▁1989-8": 1748,
      "▁davran": 1749,
      "▁haber": 1750,
      "##maktadır": 1751,
      "##ısını": 1752,
      "▁altına": 1753,
      "▁44": 1754,
      "##erin": 1755,
      "\"": 1756,
      "▁yuklu": 1757,
      "▁yalnız": 1758,
      "▁memphis'e": 1759,
      "▁memph": 1760,
      "##ata": 1761,
      "▁oyn": 1762,
      "▁planlıyor": 1763,
      "▁ham": 1764,
      "▁okumak": 1765,
      "▁temet": 1766,
      "##uyu": 1767,
      "▁girmek": 1768,
      "##elerine": 1769,
      "▁toh": 1770,
      "▁18.": 1771,
      "▁m": 1772,
      "##o'nun": 1773,
      "▁gerekir": 1774,
      "##dırdı": 1775,
      "##lıg": 1776,
      "##/4": 1777,
      "▁soylen": 1778,
      "▁.8": 1779,
      "▁politik": 1780,
      "▁ulasıl": 1781,
      "▁3.5": 1782,
      "▁konusunda": 1783,
      "##asındaki": 1784,
      "▁ankete": 1785,
      "##he": 1786,
      "▁serb": 1787,
      "▁gunlerde": 1788,
      "▁ig": 1789,
      "▁ve": 1790,
      "▁yıllardır": 1791,
      "▁kasım": 1792,
      "▁zır": 1793,
      "▁lezzet": 1794,
      "##60": 1795,
      "##atlar": 1796,
      "▁sikinti": 1797,
      "▁isini": 1798,
      "▁oldur": 1799,
      "##acagim": 1800,
      "▁varlık": 1801,
      "▁egitim": 1802,
      "##ının": 1803,
      "##ew": 1804,
      "##or": 1805,
      "##bu": 1806,
      "▁yanında": 1807,
      "▁istiyorum": 1808,
      "▁oturup": 1809,
      "##iri": 1810,
      "▁york'a": 1811,
      "▁oyk": 1812,
      "##.1": 1813,
      "▁havayollarının": 1814,
      "▁gazetec": 1815,
      "##gumuz": 1816,
      "##enc": 1817,
      "▁denem": 1818,
      "##elig": 1819,
      "▁gerekiyor": 1820,
      "▁uyandır": 1821,
      "▁ydi": 1822,
      "▁ipek": 1823,
      "▁bol": 1824,
      "##ale": 1825,
      "▁sayın": 1826,
      "##la": 1827,
      "▁yunan": 1828,
      "##0.3": 1829,
      "##inal": 1830,
      "▁ver": 1831,
      "▁krizi": 1832,
      "▁ucan": 1833,
      "##°": 1834,
      "▁bin": 1835,
      "▁yav": 1836,
      "▁hangisi": 1837,
      "▁bilin": 1838,
      "@": 1839,
      "▁calısan": 1840,
      "▁tedarik": 1841,
      "▁sac": 1842,
      "▁ilgil": 1843,
      "##emin": 1844,
      "##isti": 1845,
      "▁britan": 1846,
      "▁faaliyet": 1847,
      "▁dom": 1848,
      "▁tasın": 1849,
      "▁bod": 1850,
      "##iy": 1851,
      "▁duskun": 1852,
      "▁sp": 1853,
      "▁avrupa": 1854,
      "##lesine": 1855,
      "##mma": 1856,
      "▁mıyım": 1857,
      "##anla": 1858,
      "▁asıl": 1859,
      "##usal": 1860,
      "▁maliyeti": 1861,
      "##ilerin": 1862,
      "##ıb": 1863,
      "▁tuhaf": 1864,
      "##uste": 1865,
      "▁yazılım": 1866,
      "##kan": 1867,
      "▁ucu": 1868,
      "##var": 1869,
      "##dek": 1870,
      "▁yıg": 1871,
      "▁binbir": 1872,
      "##cog": 1873,
      "▁kisi": 1874,
      "▁taz": 1875,
      "▁ikisi": 1876,
      "▁duydum": 1877,
      "▁geldigini": 1878,
      "##leyerek": 1879,
      "n": 1880,
      "▁ticaret": 1881,
      "▁sarı": 1882,
      "▁edin": 1883,
      "▁cez": 1884,
      "▁kalit": 1885,
      "##ucu": 1886,
      "##ani": 1887,
      "▁itiraz": 1888,
      "▁ele": 1889,
      "▁aydın": 1890,
      "▁kade": 1891,
      "▁pırıl": 1892,
      "▁toplan": 1893,
      "▁gund": 1894,
      "▁kork": 1895,
      "▁cıktım": 1896,
      "▁yuksel": 1897,
      "▁etkil": 1898,
      "▁kabil": 1899,
      "▁kavram": 1900,
      "##uru": 1901,
      "▁oturdu": 1902,
      "##anları": 1903,
      "▁odaya": 1904,
      "▁tasıyor": 1905,
      "##esin": 1906,
      "▁hisse": 1907,
      "##4.5": 1908,
      "▁birbirinden": 1909,
      "##dik": 1910,
      "▁tesisti": 1911,
      "▁veriyorum": 1912,
      "▁cer": 1913,
      "▁kısı": 1914,
      "▁ucusunuz": 1915,
      "##lif": 1916,
      "▁1980": 1917,
      "##yse": 1918,
      "##ca": 1919,
      "▁gazet": 1920,
      "▁ual": 1921,
      "▁seyr": 1922,
      "##ersiz": 1923,
      "▁kaybol": 1924,
      "▁yerlerde": 1925,
      "▁1995": 1926,
      "▁185": 1927,
      "##ınc": 1928,
      "##yn": 1929,
      "##les": 1930,
      "▁arkadasım": 1931,
      "▁bicimde": 1932,
      "▁okum": 1933,
      "▁baslı": 1934,
      "▁annesinin": 1935,
      "##tal": 1936,
      "▁esir": 1937,
      "▁yapildi": 1938,
      "▁orgut": 1939,
      "##acagına": 1940,
      "▁baska": 1941,
      "##s": 1942,
      "##4'te": 1943,
      "▁176": 1944,
      "##bak": 1945,
      "▁gitti": 1946,
      "▁indirim": 1947,
      "▁tanım": 1948,
      "▁animasyonlar": 1949,
      "▁bıc": 1950,
      "▁fedakar": 1951,
      "▁kutur": 1952,
      "▁kadar": 1953,
      "##ilerine": 1954,
      "▁vermeye": 1955,
      "##erve": 1956,
      "▁kahval": 1957,
      "▁on": 1958,
      "▁geciyor": 1959,
      "▁2005": 1960,
      "##t": 1961,
      "▁kaybeden": 1962,
      "▁suyunu": 1963,
      "##lerdeki": 1964,
      "▁ustunden": 1965,
      "h": 1966,
      "▁atlanta'ya": 1967,
      "▁ydım": 1968,
      "▁potansiy": 1969,
      "▁araya": 1970,
      "##his": 1971,
      "▁mis": 1972,
      "▁miy": 1973,
      "▁bayan": 1974,
      "▁tv": 1975,
      "▁kaldim": 1976,
      "▁bor": 1977,
      "▁oyunu": 1978,
      "##ırtı": 1979,
      "##anc": 1980,
      "▁gok": 1981,
      "##ıntı": 1982,
      "▁pembe": 1983,
      "▁port": 1984,
      "##st": 1985,
      "▁istiyordu": 1986,
      "▁fransa": 1987,
      "▁pr": 1988,
      "▁birkacı": 1989,
      "▁ureticisi": 1990,
      "▁ısı": 1991,
      "▁ucyuz": 1992,
      "##eci": 1993,
      "##2-23": 1994,
      "▁ad": 1995,
      "▁washington'dan": 1996,
      "▁%3.4": 1997,
      "##-22:30": 1998,
      "▁tezgah": 1999,
      "▁hazırlanısı": 2000,
      "##ici": 2001,
      "##sanız": 2002,
      "▁1991": 2003,
      "▁unlu": 2004,
      "▁varıyor": 2005,
      "▁isletmeler": 2006,
      "▁agustos'ta": 2007,
      "##gen": 2008,
      "##alıgı": 2009,
      "▁dob": 2010,
      "▁dukkan": 2011,
      "▁%13": 2012,
      "##ekul": 2013,
      "▁duzelt": 2014,
      "▁turkler": 2015,
      "▁gor": 2016,
      "##ag": 2017,
      "##pe": 2018,
      "▁yogun": 2019,
      "▁terc": 2020,
      "▁tokyo": 2021,
      "…": 2022,
      "▁yont": 2023,
      "▁niyet": 2024,
      "▁ingilizce": 2025,
      "▁ayr": 2026,
      "##siyon": 2027,
      "##uga": 2028,
      "▁edile": 2029,
      "##larında": 2030,
      "▁siyas": 2031,
      "##ud": 2032,
      "▁mor": 2033,
      "▁muduru": 2034,
      "▁samp": 2035,
      "##gini": 2036,
      "▁degerlendiririm": 2037,
      "▁birdenbire": 2038,
      "##yiz": 2039,
      "▁indir": 2040,
      "##elik": 2041,
      "▁kapasitesi": 2042,
      "##ılmaz": 2043,
      "▁ib": 2044,
      "▁ap": 2045,
      "▁olmaz": 2046,
      "##lıkla": 2047,
      "▁konum": 2048,
      "▁gazete": 2049,
      "##lıgından": 2050,
      "▁muy": 2051,
      "▁ph": 2052,
      "▁78": 2053,
      "##gunde": 2054,
      "##ıydı": 2055,
      "##mek": 2056,
      "▁aldılar": 2057,
      "##ıldıgını": 2058,
      "▁ka": 2059,
      "▁dow": 2060,
      "▁ekibi": 2061,
      "##ahi": 2062,
      "▁65": 2063,
      "▁milyonluk": 2064,
      "▁genc": 2065,
      "##agon": 2066,
      "▁bunlara": 2067,
      "▁cleveland'a": 2068,
      "▁law": 2069,
      "▁titr": 2070,
      "▁rez": 2071,
      "▁kut": 2072,
      "##lar": 2073,
      "▁arab": 2074,
      "▁hisset": 2075,
      "▁mily": 2076,
      "▁sırasında": 2077,
      "##ayın": 2078,
      "##sızın": 2079,
      "▁alay": 2080,
      "▁birinin": 2081,
      "##agın": 2082,
      "##nan": 2083,
      "▁fikri": 2084,
      "##dım": 2085,
      "▁karak": 2086,
      "▁birbirinin": 2087,
      "##emb": 2088,
      "▁ince": 2089,
      "##iyas": 2090,
      "▁avustral": 2091,
      "▁ithalat": 2092,
      "▁hangileri": 2093,
      "▁yaptir": 2094,
      "▁gelis": 2095,
      "▁16": 2096,
      "▁gere": 2097,
      "▁hul": 2098,
      "▁agab": 2099,
      "▁sınır": 2100,
      "▁14": 2101,
      "##yal": 2102,
      "▁iste": 2103,
      "▁ov": 2104,
      "▁buyum": 2105,
      "▁eas": 2106,
      "–": 2107,
      "▁basarı": 2108,
      "▁denizin": 2109,
      "▁yog": 2110,
      "▁sabaha": 2111,
      "▁cogal": 2112,
      "▁kalacak": 2113,
      "##lerine": 2114,
      "▁tutum": 2115,
      "▁ısıl": 2116,
      "▁tartısmalar": 2117,
      "##samba": 2118,
      "▁cami": 2119,
      "▁sehr": 2120,
      "▁dagıt": 2121,
      "##emli": 2122,
      "▁nam": 2123,
      "▁tac": 2124,
      "▁onay": 2125,
      "##y": 2126,
      "▁seyahat": 2127,
      "▁bag": 2128,
      "▁konumundan": 2129,
      "▁karsılan": 2130,
      "▁eb": 2131,
      "▁muhtemelen": 2132,
      "▁kalmıstı": 2133,
      "▁in": 2134,
      "▁iki": 2135,
      "##met": 2136,
      "▁cem": 2137,
      "▁tarafa": 2138,
      "##lesti": 2139,
      "▁yasay": 2140,
      "##um": 2141,
      "▁j": 2142,
      "▁cogunu": 2143,
      "##5.": 2144,
      "▁calisanlari": 2145,
      "##gileri": 2146,
      "▁borcu": 2147,
      "##ikti": 2148,
      "##ram": 2149,
      "▁pam": 2150,
      "##ksen": 2151,
      "▁bunda": 2152,
      "▁vergisi": 2153,
      "▁altında": 2154,
      "▁vasat": 2155,
      "▁nik": 2156,
      "▁sayısı": 2157,
      "▁kalk": 2158,
      "##iyon": 2159,
      "▁becer": 2160,
      "##|": 2161,
      "▁musta": 2162,
      "▁californ": 2163,
      "▁atıl": 2164,
      "▁ayında": 2165,
      "##are": 2166,
      "▁bununla": 2167,
      "▁ir": 2168,
      "▁jose'ye": 2169,
      "▁damak": 2170,
      "▁yoksul": 2171,
      "▁p": 2172,
      "▁odem": 2173,
      "▁9.8": 2174,
      "▁lu": 2175,
      "##ite": 2176,
      "##chester": 2177,
      "▁phoenix'e": 2178,
      "▁hasta": 2179,
      "##meni": 2180,
      "##lig": 2181,
      "##vil": 2182,
      "##esine": 2183,
      "▁musteriler": 2184,
      "▁ruy": 2185,
      "▁istedigi": 2186,
      "▁city'den": 2187,
      "▁yasa": 2188,
      "▁seviyesine": 2189,
      "▁75": 2190,
      "▁nedeni": 2191,
      "▁yetk": 2192,
      "▁istanbul": 2193,
      "▁united": 2194,
      "##endim": 2195,
      "▁karsilama": 2196,
      "▁fazlasını": 2197,
      "##mesini": 2198,
      "▁sınav": 2199,
      "##eligi": 2200,
      "▁bık": 2201,
      "▁calıstır": 2202,
      "▁tahmini": 2203,
      "▁odam": 2204,
      "$": 2205,
      "▁yapmaktan": 2206,
      "▁olsaydı": 2207,
      "▁bagır": 2208,
      "▁hev": 2209,
      "##up": 2210,
      "▁ltd.": 2211,
      "##kiz": 2212,
      "▁1.1": 2213,
      "##sah": 2214,
      "##inin": 2215,
      "▁partisi": 2216,
      "##000": 2217,
      "▁usul": 2218,
      "##emedi": 2219,
      "##kırk": 2220,
      "▁sov": 2221,
      "##ıstır": 2222,
      "▁yasında": 2223,
      "##yası": 2224,
      "##86": 2225,
      "▁103": 2226,
      "##temiz": 2227,
      "▁yuzey": 2228,
      "##lıdır": 2229,
      "▁halihaz": 2230,
      "▁donemi": 2231,
      "▁kalır": 2232,
      "▁iceri": 2233,
      "▁av": 2234,
      "▁o": 2235,
      "##rill": 2236,
      "▁devlet": 2237,
      "▁masal": 2238,
      "##ic": 2239,
      "##ven": 2240,
      "▁6.9": 2241,
      "##am": 2242,
      "▁urunleri": 2243,
      "##lan": 2244,
      "▁mekan": 2245,
      "▁birles": 2246,
      "▁duyar": 2247,
      "▁kahraman": 2248,
      "▁acele": 2249,
      "▁demektir": 2250,
      "▁hani": 2251,
      "##alar": 2252,
      "▁oz": 2253,
      "▁sofor": 2254,
      "▁ab": 2255,
      "##ald": 2256,
      "##liklerini": 2257,
      "##asında": 2258,
      "▁48": 2259,
      "▁sozcuk": 2260,
      "▁cit": 2261,
      "▁tit": 2262,
      "##ze": 2263,
      "▁sayg": 2264,
      "##-1": 2265,
      "▁agzını": 2266,
      "▁orne": 2267,
      "▁1974": 2268,
      "##iz": 2269,
      "##ecekti": 2270,
      "▁belli": 2271,
      "▁kalitesinden": 2272,
      "▁konusuyor": 2273,
      "##'la": 2274,
      "▁muz": 2275,
      "▁konustu": 2276,
      "##dunuz": 2277,
      "##undaki": 2278,
      "▁yardımcısı": 2279,
      "▁basit": 2280,
      "##deniz": 2281,
      "##liyorum": 2282,
      "▁kullanıyor": 2283,
      "▁68": 2284,
      "▁arkasında": 2285,
      "▁japonya'nın": 2286,
      "▁biri": 2287,
      "▁lideri": 2288,
      "##teki": 2289,
      "▁ceyrek": 2290,
      "▁zevk": 2291,
      "▁kilit": 2292,
      "▁egem": 2293,
      "##ki": 2294,
      "▁iyilestir": 2295,
      "▁california": 2296,
      "##.50": 2297,
      "##'si": 2298,
      "##amam": 2299,
      "▁dam": 2300,
      "##edik": 2301,
      "##yıl": 2302,
      "▁kıbr": 2303,
      "▁iz": 2304,
      "▁kalıyor": 2305,
      "##ational": 2306,
      "▁arac": 2307,
      "▁seksen": 2308,
      "▁sure": 2309,
      "▁soguk": 2310,
      "▁eliyle": 2311,
      "▁basarili": 2312,
      "▁uretimi": 2313,
      "▁83": 2314,
      "▁4": 2315,
      "▁seg": 2316,
      "▁birlikte": 2317,
      "▁gonl": 2318,
      "▁azal": 2319,
      "▁kom": 2320,
      "▁charlotte": 2321,
      "▁hedefi": 2322,
      "##eceg": 2323,
      "▁yapılan": 2324,
      "▁425": 2325,
      "▁icra": 2326,
      "##sarı": 2327,
      "▁bıraktı": 2328,
      "▁motor": 2329,
      "▁kacın": 2330,
      "▁hom": 2331,
      "▁simdi": 2332,
      "##olog": 2333,
      "▁potansiyel": 2334,
      "|": 2335,
      "▁arb": 2336,
      "▁size": 2337,
      "▁kotuydu": 2338,
      "▁servet": 2339,
      "▁yakin": 2340,
      "▁cr": 2341,
      "▁surec": 2342,
      "##cık": 2343,
      "▁dogal": 2344,
      "##adı": 2345,
      "▁bul": 2346,
      "▁dogum": 2347,
      "▁contin": 2348,
      "▁manzarasi": 2349,
      "▁tap": 2350,
      "▁savas": 2351,
      "▁nar": 2352,
      "##9": 2353,
      "▁teh": 2354,
      "▁cleveland": 2355,
      "▁matem": 2356,
      "▁ku": 2357,
      "▁kullanılıyor": 2358,
      "▁beb": 2359,
      "##iniki": 2360,
      "▁25": 2361,
      "▁ataturk": 2362,
      "##yalı": 2363,
      "▁seh": 2364,
      "▁1500": 2365,
      "▁gecesi": 2366,
      "##asıyor": 2367,
      "▁islerini": 2368,
      "▁52": 2369,
      "▁husus": 2370,
      "▁87": 2371,
      "##iser": 2372,
      "▁fiyata": 2373,
      "▁nice": 2374,
      "b": 2375,
      "▁hamle": 2376,
      "▁dusundum": 2377,
      "##`": 2378,
      "▁dilek": 2379,
      "▁cıp": 2380,
      "##ısıyla": 2381,
      "▁gelisim": 2382,
      "▁numaralı": 2383,
      "▁oglum": 2384,
      "▁charlotte'ye": 2385,
      "▁listeleyin": 2386,
      "▁silin": 2387,
      "▁but": 2388,
      "▁kurulus": 2389,
      "▁iri": 2390,
      "▁sıra": 2391,
      "▁duzen": 2392,
      "▁oluyor": 2393,
      "▁avuk": 2394,
      "▁doları'ndan": 2395,
      "▁pirinc": 2396,
      "##ucuk": 2397,
      "▁85": 2398,
      "▁atesi": 2399,
      "##uya": 2400,
      "▁fikir": 2401,
      "▁denver": 2402,
      "▁hizmeti": 2403,
      "▁yapacak": 2404,
      "▁53": 2405,
      "▁aksine": 2406,
      "▁manz": 2407,
      "▁pahaliydi": 2408,
      "##amm": 2409,
      "▁kimyasal": 2410,
      "▁ortada": 2411,
      "▁okul": 2412,
      "▁sabahı": 2413,
      "▁teknoloj": 2414,
      "▁ısık": 2415,
      "##gir": 2416,
      "##on'un": 2417,
      "▁donup": 2418,
      "##em": 2419,
      "▁alıyor": 2420,
      "##lulugu": 2421,
      "▁and": 2422,
      "▁huzur": 2423,
      "##ole": 2424,
      "▁dallas'ta": 2425,
      "##ine": 2426,
      "##dol": 2427,
      "##bat": 2428,
      "▁oyna": 2429,
      "##aj": 2430,
      "▁bakıyor": 2431,
      "##eliydi": 2432,
      "▁muthis": 2433,
      "▁donem": 2434,
      "▁ortalam": 2435,
      "▁etmesi": 2436,
      "▁duman": 2437,
      "##ulup": 2438,
      "##iyat": 2439,
      "▁ayrıca": 2440,
      "▁tavır": 2441,
      "##ada": 2442,
      "▁dolara": 2443,
      "##lulu": 2444,
      "▁pet": 2445,
      "▁yuk": 2446,
      "▁guler": 2447,
      "▁elb": 2448,
      "▁kendimize": 2449,
      "##siz": 2450,
      "▁darbe": 2451,
      "▁1988": 2452,
      "##oster": 2453,
      "▁fabrik": 2454,
      "##west": 2455,
      "▁trust": 2456,
      "▁gunden": 2457,
      "▁muda": 2458,
      "▁sirketlerin": 2459,
      "▁evde": 2460,
      "##sal": 2461,
      "▁gune": 2462,
      "▁benz": 2463,
      "##verdi": 2464,
      "▁7.8": 2465,
      "▁kampanyalar": 2466,
      "▁hur": 2467,
      "▁mevzu": 2468,
      "##du": 2469,
      "▁adama": 2470,
      "▁borsası'nda": 2471,
      "##ap": 2472,
      "##cekti": 2473,
      "▁oturmus": 2474,
      "▁moda": 2475,
      "▁ikib": 2476,
      "▁portf": 2477,
      "##ligin": 2478,
      "▁bina": 2479,
      "##ları": 2480,
      "▁lık": 2481,
      "▁sm": 2482,
      "▁digerleri": 2483,
      "▁kuzu": 2484,
      "▁bulunmaktadır": 2485,
      "▁ankara": 2486,
      "▁izm": 2487,
      "▁hareketi": 2488,
      "##asyonu": 2489,
      "▁kayıt": 2490,
      "▁uygulama": 2491,
      "▁dinlen": 2492,
      "##meyin": 2493,
      "##gim": 2494,
      "▁muht": 2495,
      "▁cumhuriyeti": 2496,
      "▁alın": 2497,
      "▁yasamadik": 2498,
      "▁kalb": 2499,
      "▁72": 2500,
      "##elendir": 2501,
      "▁ucreti": 2502,
      "▁gelenek": 2503,
      "▁gidip": 2504,
      "▁birimiz": 2505,
      "▁cıkıp": 2506,
      "▁nereye": 2507,
      "▁hızla": 2508,
      "##ert": 2509,
      "▁oldug": 2510,
      "▁dediler": 2511,
      "▁cıvıl": 2512,
      "▁gordugu": 2513,
      "##asını": 2514,
      "▁pant": 2515,
      "▁ann": 2516,
      "▁ardından": 2517,
      "▁tik": 2518,
      "▁1997": 2519,
      "##yle": 2520,
      "##gin": 2521,
      "▁yana": 2522,
      "▁buh": 2523,
      "##ardan": 2524,
      "▁hicbirinin": 2525,
      "▁isk": 2526,
      "##dıgım": 2527,
      "▁por": 2528,
      "▁meyal": 2529,
      "▁doldur": 2530,
      "▁cizgi": 2531,
      "▁faiz": 2532,
      "##sı": 2533,
      "▁halkın": 2534,
      "▁toronto": 2535,
      "▁4'ten": 2536,
      "▁b.": 2537,
      "▁sizi": 2538,
      "▁yak": 2539,
      "▁gozunu": 2540,
      "▁komisyonlar": 2541,
      "▁arkadaslar": 2542,
      "▁pufur": 2543,
      "##ort": 2544,
      "▁22": 2545,
      "##of": 2546,
      "▁dedik": 2547,
      "▁fiyatlar": 2548,
      "▁kumas": 2549,
      "▁nef": 2550,
      "▁kalkıslı": 2551,
      "▁kultur": 2552,
      "##61": 2553,
      "##mar": 2554,
      "▁komut": 2555,
      "▁burbank": 2556,
      "##malıdır": 2557,
      "▁141": 2558,
      "▁49": 2559,
      "▁dr.": 2560,
      "##ırdı": 2561,
      "▁hafta": 2562,
      "▁mahkemesi": 2563,
      "▁fasul": 2564,
      "▁_": 2565,
      "▁tanı": 2566,
      "##dıgı": 2567,
      "##ısından": 2568,
      "▁zih": 2569,
      "##iyor": 2570,
      "##'te": 2571,
      "▁adi": 2572,
      "▁edip": 2573,
      "▁sen": 2574,
      "▁ız": 2575,
      "▁satısı": 2576,
      "▁mudur": 2577,
      "▁im": 2578,
      "▁ihr": 2579,
      "▁amerikalı": 2580,
      "##gır": 2581,
      "▁kusk": 2582,
      "▁bun": 2583,
      "▁baslarında": 2584,
      "▁alanda": 2585,
      "▁tim": 2586,
      "##bası": 2587,
      "▁iyisi": 2588,
      "##omb": 2589,
      "▁nokt": 2590,
      "▁nis": 2591,
      "▁yon": 2592,
      "▁burun": 2593,
      "▁may": 2594,
      "##apol": 2595,
      "▁bilmez": 2596,
      "▁kap": 2597,
      "▁yuvarlak": 2598,
      "▁dost": 2599,
      "▁th": 2600,
      "▁pop": 2601,
      "▁toren": 2602,
      "▁neh": 2603,
      "▁islemler": 2604,
      "##burgh": 2605,
      "▁fer": 2606,
      "▁hor": 2607,
      "##veren": 2608,
      "▁yildi": 2609,
      "▁millet": 2610,
      "▁metr": 2611,
      "▁ahmet": 2612,
      "▁kem": 2613,
      "▁muhendis": 2614,
      "▁ucusların": 2615,
      "▁louis": 2616,
      "▁muzakere": 2617,
      "3": 2618,
      "▁tesekkurler": 2619,
      "▁tez": 2620,
      "▁tabur": 2621,
      "▁end": 2622,
      "##ektr": 2623,
      "▁boylece": 2624,
      "▁dedi": 2625,
      "▁neyin": 2626,
      "##ket": 2627,
      "##le": 2628,
      "▁altın": 2629,
      "▁ort": 2630,
      "▁ustlen": 2631,
      "▁des": 2632,
      "##eden": 2633,
      "▁adına": 2634,
      "▁sevinc": 2635,
      "▁beni": 2636,
      "##9.3": 2637,
      "##apolis": 2638,
      "▁bolgede": 2639,
      "▁arttır": 2640,
      "▁boyun": 2641,
      "▁cig": 2642,
      "`": 2643,
      "##asının": 2644,
      "▁cunku": 2645,
      "##masından": 2646,
      "▁delik": 2647,
      "##'nun": 2648,
      "▁odun": 2649,
      "▁dallas'tan": 2650,
      "▁surdu": 2651,
      "▁cog": 2652,
      "▁istik": 2653,
      "▁oyle": 2654,
      "▁%18": 2655,
      "▁sin": 2656,
      "▁artısla": 2657,
      "▁lutfen": 2658,
      "▁alır": 2659,
      "▁bic": 2660,
      "▁kanun": 2661,
      "▁altındaki": 2662,
      "##masını": 2663,
      "##ock": 2664,
      "▁programı": 2665,
      "▁sular": 2666,
      "##ımda": 2667,
      "▁odeme": 2668,
      "▁birbir": 2669,
      "▁bilim": 2670,
      "##2:30": 2671,
      "▁kızı": 2672,
      "▁gun": 2673,
      "##memis": 2674,
      "▁anda": 2675,
      "▁uydur": 2676,
      "▁gorunce": 2677,
      "▁felaket": 2678,
      "▁etmisti": 2679,
      "▁nobet": 2680,
      "##dıgına": 2681,
      "▁yandan": 2682,
      "▁hastalık": 2683,
      "▁adım": 2684,
      "##gelelim": 2685,
      "##ıldır": 2686,
      "▁bunları": 2687,
      "▁hicbir": 2688,
      "##otte": 2689,
      "▁uzat": 2690,
      "▁yaptık": 2691,
      "##tin": 2692,
      "##yak": 2693,
      "▁avustralya": 2694,
      "▁k": 2695,
      "##kat": 2696,
      "##mamak": 2697,
      "▁elli": 2698,
      "##edeki": 2699,
      "▁verdigimiz": 2700,
      "##inip": 2701,
      "▁eglenceli": 2702,
      "##ub": 2703,
      "▁fabrika": 2704,
      "▁noktası": 2705,
      "▁ajans": 2706,
      "▁temizlik": 2707,
      "▁gidiyor": 2708,
      "▁pencer": 2709,
      "▁muster": 2710,
      "▁olabilecegini": 2711,
      "##onom": 2712,
      "▁olas": 2713,
      "##att": 2714,
      "▁oburu": 2715,
      "▁tuken": 2716,
      "▁sert": 2717,
      "▁stand": 2718,
      "##eyerek": 2719,
      "##onik": 2720,
      "▁evren": 2721,
      "▁900": 2722,
      "▁yut": 2723,
      "▁der": 2724,
      "##bet": 2725,
      "##liyordu": 2726,
      "▁huy": 2727,
      "##larımızı": 2728,
      "##ılma": 2729,
      "##av": 2730,
      "▁ikisinin": 2731,
      "▁she": 2732,
      "▁diy": 2733,
      "▁bebek": 2734,
      "▁car": 2735,
      "▁bany": 2736,
      "▁arkasına": 2737,
      "▁animasyon": 2738,
      "▁muhaseb": 2739,
      "▁elden": 2740,
      "##/8'e": 2741,
      "▁topu": 2742,
      "▁montreal": 2743,
      "▁suz": 2744,
      "▁fıldır": 2745,
      "▁mahs": 2746,
      "▁$'a": 2747,
      "##ıs": 2748,
      "▁de": 2749,
      "▁kaynak": 2750,
      "▁bedel": 2751,
      "▁hi": 2752,
      "▁saga": 2753,
      "▁kalabalık": 2754,
      "##ohn": 2755,
      "▁olanaklari": 2756,
      "▁zev": 2757,
      "▁naz": 2758,
      "▁uygulan": 2759,
      "▁mit": 2760,
      "▁tesekkur": 2761,
      "##liginin": 2762,
      "▁ekip": 2763,
      "##digini": 2764,
      "##liligi": 2765,
      "##yim": 2766,
      "▁gomle": 2767,
      "##masız": 2768,
      "##gan": 2769,
      "t": 2770,
      "##elerini": 2771,
      "##eydi": 2772,
      "▁kirp": 2773,
      "▁buna": 2774,
      "##liydi": 2775,
      "##dıgını": 2776,
      "▁minneapolis": 2777,
      "##memisti": 2778,
      "▁1990": 2779,
      "▁kalab": 2780,
      "##mayan": 2781,
      "##ız": 2782,
      "▁muslum": 2783,
      "##'lik": 2784,
      "▁yaglı": 2785,
      "##ade": 2786,
      "▁anı": 2787,
      "▁ucret": 2788,
      "▁oglan": 2789,
      "▁benimle": 2790,
      "▁siz": 2791,
      "▁1.4": 2792,
      "##mekte": 2793,
      "▁sırtında": 2794,
      "▁yudum": 2795,
      "▁emekli": 2796,
      "##lerim": 2797,
      "▁acaktı": 2798,
      "▁ucmak": 2799,
      "▁51": 2800,
      "▁zafer": 2801,
      "##*": 2802,
      "▁olacagı": 2803,
      "▁analistler": 2804,
      "##iye": 2805,
      "▁st.": 2806,
      "▁giz": 2807,
      "##apon": 2808,
      "▁onunde": 2809,
      "▁indianapolis'e": 2810,
      "▁key": 2811,
      "▁olmamıs": 2812,
      "▁cir": 2813,
      "##$": 2814,
      "##dun": 2815,
      "▁andır": 2816,
      "▁istiyoruz": 2817,
      "▁otuz": 2818,
      "▁kalmadı": 2819,
      "▁calısmak": 2820,
      "▁yedek": 2821,
      "▁degeri": 2822,
      "▁satıcı": 2823,
      "▁bush": 2824,
      "▁normaldi": 2825,
      "▁degildir": 2826,
      "##baz": 2827,
      "▁cos": 2828,
      "##lerden": 2829,
      "▁gurult": 2830,
      "▁ayda": 2831,
      "##ıldı": 2832,
      "▁mav": 2833,
      "▁mid": 2834,
      "▁gorunen": 2835,
      "##eli": 2836,
      "▁ayrım": 2837,
      "▁bahseder": 2838,
      "▁sanız": 2839,
      "▁mesut": 2840,
      "▁yuksekti": 2841,
      "▁yap": 2842,
      "▁kadınların": 2843,
      "▁mutlu": 2844,
      "▁tehdi": 2845,
      "▁merkezli": 2846,
      "▁planı": 2847,
      "##ayacak": 2848,
      "▁yemeklerde": 2849,
      "▁nitelik": 2850,
      "▁kullanılan": 2851,
      "▁belirt": 2852,
      "▁gozden": 2853,
      "##ime": 2854,
      "##ho": 2855,
      "▁kosulları": 2856,
      "##lasan": 2857,
      "##arken": 2858,
      "▁hac": 2859,
      "▁8": 2860,
      "▁aradilar": 2861,
      "▁fakir": 2862,
      "▁koylu": 2863,
      "▁olgun": 2864,
      "▁huseyin": 2865,
      "▁dogrudan": 2866,
      "▁kıl": 2867,
      "▁takımı": 2868,
      "▁tıpkı": 2869,
      "▁kart": 2870,
      "▁bat": 2871,
      "▁yardimci": 2872,
      "##liam": 2873,
      "▁yapacagını": 2874,
      "##men": 2875,
      "▁devletin": 2876,
      "▁mul": 2877,
      "▁%2": 2878,
      "▁trilyon": 2879,
      "▁temettu": 2880,
      "##agına": 2881,
      "▁hanimdi": 2882,
      "▁zırt": 2883,
      "▁ikibinuc": 2884,
      "▁bakalım": 2885,
      "##emek": 2886,
      "d": 2887,
      "##ydı": 2888,
      "##bire": 2889,
      "▁mus": 2890,
      "▁vir": 2891,
      "##day": 2892,
      "▁konuda": 2893,
      "▁eksik": 2894,
      "▁camasır": 2895,
      "▁seattle'den": 2896,
      "##'u": 2897,
      "▁lezzetleri": 2898,
      "##ılması": 2899,
      "##89-": 2900,
      "▁uyum": 2901,
      "▁demis": 2902,
      "▁vucud": 2903,
      "##umlu": 2904,
      "▁cıkmıs": 2905,
      "▁elini": 2906,
      "##ner": 2907,
      "##ebilirdi": 2908,
      "▁bekledi": 2909,
      "▁yola": 2910,
      "##vet": 2911,
      "##etir": 2912,
      "▁vardı": 2913,
      "▁aran": 2914,
      "▁gorul": 2915,
      "##ıcak": 2916,
      "▁yuregi": 2917,
      "▁eder": 2918,
      "▁fen": 2919,
      "##ilerdi": 2920,
      "▁havaliman": 2921,
      "▁102": 2922,
      "##usuna": 2923,
      "▁ustu": 2924,
      "▁yatırım": 2925,
      "▁alısver": 2926,
      "▁dalgın": 2927,
      "▁%6.9": 2928,
      "##da": 2929,
      "▁elem": 2930,
      "▁tr": 2931,
      "##hut": 2932,
      "##eme": 2933,
      "▁fıkır": 2934,
      "▁gorev": 2935,
      "0": 2936,
      "°": 2937,
      "##iliyor": 2938,
      "▁katilmak": 2939,
      "▁cın": 2940,
      "##layarak": 2941,
      "’": 2942,
      "##lerde": 2943,
      "▁aktif": 2944,
      "##emey": 2945,
      "▁kucuk": 2946,
      "▁%7.875": 2947,
      "##isse": 2948,
      "▁sekil": 2949,
      "##aman": 2950,
      "▁baker": 2951,
      "▁sat": 2952,
      "▁dolasır": 2953,
      "▁sizinle": 2954,
      "▁teker": 2955,
      "▁fonu": 2956,
      "▁seyleri": 2957,
      "##larım": 2958,
      "▁sessiz": 2959,
      "▁sesi": 2960,
      "▁olc": 2961,
      "▁tahvilleri": 2962,
      "##isiz": 2963,
      "▁bakarak": 2964,
      "##tas": 2965,
      "▁es": 2966,
      "▁milyondan": 2967,
      "▁birligi": 2968,
      "##arl": 2969,
      "▁doy": 2970,
      "▁yusu": 2971,
      "▁tuh": 2972,
      "▁bunu": 2973,
      "▁taleb": 2974,
      "##ug": 2975,
      "##'ya": 2976,
      "##1-": 2977,
      "##egen": 2978,
      "▁ok": 2979,
      "▁oldum": 2980,
      "▁donen": 2981,
      "▁fok": 2982,
      "▁internet": 2983,
      "##sel": 2984,
      "▁azından": 2985,
      "▁hasar": 2986,
      "##ma": 2987,
      "▁kızar": 2988,
      "▁cagdas": 2989,
      "▁efsan": 2990,
      "▁kul": 2991,
      "▁ilk": 2992,
      "▁korun": 2993,
      "##sık": 2994,
      "▁hey": 2995,
      "▁oldu": 2996,
      "##lbu": 2997,
      "▁yamalak": 2998,
      "##bank": 2999,
      "##iness": 3000,
      "▁atar": 3001,
      "▁haberdar": 3002,
      "##tu": 3003,
      "▁musait": 3004,
      "##amadim": 3005,
      "▁banka": 3006,
      "##cılık": 3007,
      "▁bakın": 3008,
      "▁borsası": 3009,
      "▁parasını": 3010,
      "▁olmadan": 3011,
      "▁list": 3012,
      "▁gecik": 3013,
      "▁dondu": 3014,
      "▁sanayi": 3015,
      "l": 3016,
      "▁kıp": 3017,
      "▁amel": 3018,
      "▁iyimser": 3019,
      "##50": 3020,
      "▁lond": 3021,
      "▁tarihi": 3022,
      "▁fırladı": 3023,
      "▁ayak": 3024,
      "##aat": 3025,
      "##esem": 3026,
      "▁istiyor": 3027,
      "▁secim": 3028,
      "▁tım": 3029,
      "##eceksin": 3030,
      "▁ikibiniki": 3031,
      "▁ulk": 3032,
      "▁sevdigi": 3033,
      "▁restor": 3034,
      "##o'ya": 3035,
      "▁antik": 3036,
      "▁telas": 3037,
      "##eler": 3038,
      "▁ihtiyat": 3039,
      "▁taban": 3040,
      "##usunu": 3041,
      "▁miktarda": 3042,
      "▁garanti": 3043,
      "▁uc": 3044,
      "##adir": 3045,
      "▁degisiklik": 3046,
      "▁sut": 3047,
      "▁sınıf": 3048,
      "▁olmaktan": 3049,
      "▁kalmaya": 3050,
      "▁gorduk": 3051,
      "▁gecirdik": 3052,
      "▁abd": 3053,
      "▁ken": 3054,
      "##.76": 3055,
      "▁heves": 3056,
      "▁yılı": 3057,
      "▁hemen": 3058,
      "▁cat": 3059,
      "##yla": 3060,
      "▁fat": 3061,
      "▁10000": 3062,
      "▁arka": 3063,
      "▁130": 3064,
      "##sek": 3065,
      "##cisi": 3066,
      "▁2.": 3067,
      "▁meydan": 3068,
      "##isleri": 3069,
      "▁geldim": 3070,
      "##lamıstı": 3071,
      "▁tulum": 3072,
      "▁acik": 3073,
      "▁petersburg": 3074,
      "▁istanbul'un": 3075,
      "▁getiriyor": 3076,
      "##manın": 3077,
      "▁baskanı": 3078,
      "▁donuyor": 3079,
      "▁26": 3080,
      "##ems": 3081,
      "▁...": 3082,
      "##.23": 3083,
      "▁70": 3084,
      "##sun": 3085,
      "##emi": 3086,
      "▁parca": 3087,
      "▁corp.": 3088,
      "▁nok": 3089,
      "▁rady": 3090,
      "▁besik": 3091,
      "##ans": 3092,
      "▁firmalar": 3093,
      "##min": 3094,
      "##ıklı": 3095,
      "▁newark": 3096,
      "▁sonra": 3097,
      "▁li": 3098,
      "##burg": 3099,
      "▁gordu": 3100,
      "▁minne": 3101,
      "##ume": 3102,
      "▁alındı": 3103,
      "▁yerine": 3104,
      "▁'l": 3105,
      "▁tesaduf": 3106,
      "▁maruz": 3107,
      "##'nin": 3108,
      "##3.2": 3109,
      "▁kavg": 3110,
      "▁endi": 3111,
      "▁odada": 3112,
      "▁yeryuz": 3113,
      "▁county": 3114,
      "##bul": 3115,
      "▁lezzeti": 3116,
      "##anlık": 3117,
      "▁si": 3118,
      "▁sermaye": 3119,
      "##larımı": 3120,
      "##iyer": 3121,
      "▁lamb": 3122,
      "▁demokrat": 3123,
      "##aca": 3124,
      "▁dolas": 3125,
      "▁paranin": 3126,
      "▁yuksek": 3127,
      "##ab": 3128,
      "▁mevsim": 3129,
      "▁mez": 3130,
      "▁plas": 3131,
      "▁peters": 3132,
      "▁halk": 3133,
      "▁deneme": 3134,
      "▁kutup": 3135,
      "##onel": 3136,
      "▁buf": 3137,
      "▁otom": 3138,
      "##mey": 3139,
      "##kara": 3140,
      "▁modern": 3141,
      "▁newark'tan": 3142,
      "▁turb": 3143,
      "▁zarar": 3144,
      "▁kanıt": 3145,
      "▁isciler": 3146,
      "##gur": 3147,
      "▁kapı": 3148,
      "▁francisco'dan": 3149,
      "▁yıl": 3150,
      "##ustur": 3151,
      "▁siir": 3152,
      "▁gosterg": 3153,
      "[PAD]": 3154,
      "##iskin": 3155,
      "▁carsaf": 3156,
      "▁ener": 3157,
      "▁geyik": 3158,
      "▁parayı": 3159,
      "▁belirsiz": 3160,
      "▁mavi": 3161,
      "▁alan": 3162,
      "▁bilg": 3163,
      "▁annesi": 3164,
      "▁sız": 3165,
      "▁long": 3166,
      "##inden": 3167,
      "▁ilginc": 3168,
      "##-23": 3169,
      "▁philadelphia": 3170,
      "▁coktan": 3171,
      "▁dolandır": 3172,
      "▁yaptır": 3173,
      "##ılıgıyla": 3174,
      "▁rum": 3175,
      "▁kulub": 3176,
      "##ılıgını": 3177,
      "▁populer": 3178,
      "▁imkan": 3179,
      "##taj": 3180,
      "▁pahalı": 3181,
      "▁halbu": 3182,
      "▁tamir": 3183,
      "▁munaseb": 3184,
      "▁hoca": 3185,
      "▁kil": 3186,
      "##ick": 3187,
      "##lt": 3188,
      "▁konak": 3189,
      "▁bizleri": 3190,
      "▁ses": 3191,
      "▁basını": 3192,
      "▁tep": 3193,
      "▁re": 3194,
      "▁bizimle": 3195,
      "▁yurudu": 3196,
      "##tım": 3197,
      "▁hayv": 3198,
      "▁'de": 3199,
      "##ıma": 3200,
      "##leme": 3201,
      "▁aykırı": 3202,
      "▁mal": 3203,
      "##eb": 3204,
      "▁tutuk": 3205,
      "▁tucc": 3206,
      "##dıkları": 3207,
      "▁sıngır": 3208,
      "▁l": 3209,
      "▁kararsizim": 3210,
      "▁sayesinde": 3211,
      "▁gormus": 3212,
      "▁soyleyebilir": 3213,
      "▁geliyordu": 3214,
      "▁nicin": 3215,
      "▁dıs": 3216,
      "##larla": 3217,
      "##ts": 3218,
      "▁cik": 3219,
      "▁etmektedir": 3220,
      "▁tedbir": 3221,
      "▁haziran": 3222,
      "##bel": 3223,
      "##ina": 3224,
      "▁evine": 3225,
      "##duz": 3226,
      "▁bilgilendir": 3227,
      "##hos": 3228,
      "▁tuketici": 3229,
      "▁mec": 3230,
      "▁nesn": 3231,
      "##uye": 3232,
      "▁ucretini": 3233,
      "##leyin": 3234,
      "▁dis": 3235,
      "▁butce": 3236,
      "▁v": 3237,
      "##ima": 3238,
      "##-": 3239,
      "▁bulas": 3240,
      "▁pitt": 3241,
      "##ala": 3242,
      "▁deg": 3243,
      "▁filan": 3244,
      "##eyman": 3245,
      "▁yaklasık": 3246,
      "▁korku": 3247,
      "▁kimsen": 3248,
      "##acılar": 3249,
      "▁tey": 3250,
      "▁sizlere": 3251,
      "##larca": 3252,
      "▁a.b.d.": 3253,
      "▁acakt": 3254,
      "▁1.8": 3255,
      "▁sirket": 3256,
      "▁aleyh": 3257,
      "##di": 3258,
      "▁olamaz": 3259,
      "▁personellerden": 3260,
      "▁milliyet": 3261,
      "▁tuccarlar": 3262,
      "▁89-": 3263,
      "▁sit": 3264,
      "▁gum": 3265,
      "▁oynuyor": 3266,
      "▁...\"": 3267,
      "▁teklif": 3268,
      "▁cozum": 3269,
      "▁kapas": 3270,
      "▁gelince": 3271,
      "▁yavas": 3272,
      "▁7.9": 3273,
      "▁yitir": 3274,
      "▁hut": 3275,
      "▁dudak": 3276,
      "▁dusuyor": 3277,
      "▁birin": 3278,
      "▁cevr": 3279,
      "##tıg": 3280,
      "▁curuk": 3281,
      "▁a.": 3282,
      "▁par": 3283,
      "▁pis": 3284,
      "▁ortalama": 3285,
      "##.05": 3286,
      "▁kırm": 3287,
      "##uklu": 3288,
      "##elle": 3289,
      "##p": 3290,
      "##dal": 3291,
      "##rin": 3292,
      "▁senet": 3293,
      "▁marj": 3294,
      "##nek": 3295,
      "##akin": 3296,
      "▁city'e": 3297,
      "▁kemik": 3298,
      "▁kapsam": 3299,
      "▁tatlı": 3300,
      "▁arz": 3301,
      "▁fab": 3302,
      "##vey": 3303,
      "##aseb": 3304,
      "▁basta": 3305,
      "▁%2.7": 3306,
      "▁kopar": 3307,
      "▁45": 3308,
      "▁paz": 3309,
      "▁columbus": 3310,
      "##'y": 3311,
      "▁almadim": 3312,
      "▁atmak": 3313,
      "y": 3314,
      "##iyet": 3315,
      "▁uyustur": 3316,
      "##unda": 3317,
      "▁tasır": 3318,
      "▁charlotte'den": 3319,
      "▁financial": 3320,
      "##wa": 3321,
      "▁kalkan": 3322,
      "▁hele": 3323,
      "▁tarif": 3324,
      "▁genel": 3325,
      "▁kız": 3326,
      "▁suredir": 3327,
      "##ecegini": 3328,
      "##bes": 3329,
      "▁kılıc": 3330,
      "##ınız": 3331,
      "##nız": 3332,
      "##ekli": 3333,
      "##eral": 3334,
      "##gumu": 3335,
      "##ilecek": 3336,
      "▁yaparak": 3337,
      "▁800": 3338,
      "▁gosterdi": 3339,
      "▁makine": 3340,
      "▁hedef": 3341,
      "▁dagın": 3342,
      "▁getir": 3343,
      "##oeni": 3344,
      "##ali": 3345,
      "▁komun": 3346,
      "▁sas": 3347,
      "▁%6": 3348,
      "▁duserek": 3349,
      "▁diyorum": 3350,
      "▁hayli": 3351,
      "##ilerek": 3352,
      "▁sebeb": 3353,
      "▁fin": 3354,
      "▁kendisiyle": 3355,
      "▁zor": 3356,
      "##isco": 3357,
      "▁ulkemiz": 3358,
      "▁pamuk": 3359,
      "▁etm": 3360,
      "▁plani": 3361,
      "▁gelin": 3362,
      "▁oluyordu": 3363,
      "▁5.5": 3364,
      "▁burbank'a": 3365,
      "▁an": 3366,
      "▁taze": 3367,
      "##gru": 3368,
      "##8'e": 3369,
      "##abiliyor": 3370,
      "▁evlen": 3371,
      "▁kendileri": 3372,
      "▁satılan": 3373,
      "▁yıla": 3374,
      "▁soyledim": 3375,
      "▁david": 3376,
      "##ebilecek": 3377,
      "▁derhal": 3378,
      "▁3.7": 3379,
      "▁finc": 3380,
      "▁belki": 3381,
      "▁tesisin": 3382,
      "▁heyecan": 3383,
      "##ılıgı": 3384,
      "▁kendine": 3385,
      "▁geldi": 3386,
      "##ınıza": 3387,
      "▁haykır": 3388,
      "##roit": 3389,
      "▁34": 3390,
      "▁cesi": 3391,
      "▁benden": 3392,
      "##amanın": 3393,
      "▁gozlerini": 3394,
      "▁2009": 3395,
      "▁aileler": 3396,
      "##dın": 3397,
      "▁%4": 3398,
      "▁bekley": 3399,
      "▁bardagı": 3400,
      "▁makaleye": 3401,
      "▁mosk": 3402,
      "▁destekli": 3403,
      "▁kocası": 3404,
      "##q": 3405,
      "▁ertesi": 3406,
      "▁ist": 3407,
      "▁olabilir": 3408,
      "▁corba": 3409,
      "▁bar": 3410,
      "▁subay": 3411,
      "▁bulur": 3412,
      "▁fas": 3413,
      "##adel": 3414,
      "##edef": 3415,
      "▁toronto'dan": 3416,
      "▁sonrası": 3417,
      "▁kon": 3418,
      "▁airlines": 3419,
      "▁halkı": 3420,
      "##use": 3421,
      "▁mart": 3422,
      "▁cas": 3423,
      "▁kere": 3424,
      "##adılar": 3425,
      "▁katkı": 3426,
      "▁yolc": 3427,
      "▁trans": 3428,
      "▁derler": 3429,
      "▁chp": 3430,
      "▁savur": 3431,
      "▁pazar": 3432,
      "##altı": 3433,
      "▁kaba": 3434,
      "##2.9": 3435,
      "▁one": 3436,
      "##ukee": 3437,
      "▁%25": 3438,
      "▁bed": 3439,
      "▁basladım": 3440,
      "##lass": 3441,
      "##isten": 3442,
      "▁birinden": 3443,
      "##baren": 3444,
      "▁bos": 3445,
      "▁ar": 3446,
      "▁bulmus": 3447,
      "##mayın": 3448,
      "##abilecegini": 3449,
      "▁temp": 3450,
      "▁aktarmasız": 3451,
      "##biy": 3452,
      "▁mars": 3453,
      "▁fiyatlarını": 3454,
      "▁sevk": 3455,
      "▁parlak": 3456,
      "▁heykel": 3457,
      "▁sur": 3458,
      "▁ait": 3459,
      "▁--": 3460,
      "▁mur": 3461,
      "▁koku": 3462,
      "▁gayet": 3463,
      "▁muhtesem": 3464,
      "▁arası": 3465,
      "▁etraf": 3466,
      "▁tampa": 3467,
      "▁omr": 3468,
      "##de": 3469,
      "▁musun": 3470,
      "##ile": 3471,
      "▁pap": 3472,
      "▁kullan": 3473,
      "##enek": 3474,
      "▁'nin": 3475,
      "▁senedi": 3476,
      "▁azınlık": 3477,
      "▁angeles": 3478,
      "▁yenilen": 3479,
      "##gine": 3480,
      "▁beye": 3481,
      "##mazdı": 3482,
      "▁yapıs": 3483,
      "▁zarf": 3484,
      "▁genelde": 3485,
      "##diginiz": 3486,
      "▁arabalar": 3487,
      "▁anlat": 3488,
      "##ılık": 3489,
      "▁ode": 3490,
      "##ırak": 3491,
      "##ron": 3492,
      "▁gunluk": 3493,
      "##enen": 3494,
      "▁karsıl": 3495,
      "▁vardır": 3496,
      "##ere": 3497,
      "▁turkiye'nin": 3498,
      "▁frank": 3499,
      "▁birtak": 3500,
      "##don": 3501,
      "##osy": 3502,
      "▁supur": 3503,
      "##lemek": 3504,
      "▁parmak": 3505,
      "▁sabır": 3506,
      "▁havaalanından": 3507,
      "▁darb": 3508,
      "▁yapmayı": 3509,
      "▁muzik": 3510,
      "▁sesini": 3511,
      "▁.\"": 3512,
      "▁borc": 3513,
      "▁kek": 3514,
      "##lerinde": 3515,
      "##acılıgı": 3516,
      "▁yumurta": 3517,
      "##istler": 3518,
      "▁olay": 3519,
      "▁listeleyebilir": 3520,
      "##0.": 3521,
      "##'de": 3522,
      "▁bildirdi": 3523,
      "##bal": 3524,
      "##alarında": 3525,
      "▁uzerindeki": 3526,
      "▁baslayan": 3527,
      "▁%0.2": 3528,
      "##amıyorum": 3529,
      "▁askeri": 3530,
      "▁ef": 3531,
      "▁sebebi": 3532,
      "▁gelsin": 3533,
      "▁vucu": 3534,
      "▁for": 3535,
      "▁oldugun": 3536,
      "▁eks": 3537,
      "▁oldukca": 3538,
      "##ion": 3539,
      "▁nakit": 3540,
      "▁yapması": 3541,
      "▁fut": 3542,
      "▁burokr": 3543,
      "▁etmistir": 3544,
      "▁ter": 3545,
      "##ya'da": 3546,
      "▁mot": 3547,
      "##lam": 3548,
      "##6": 3549,
      "##vert": 3550,
      "▁kaps": 3551,
      "▁bahar": 3552,
      "▁kardesim": 3553,
      "▁buz": 3554,
      "▁degiller": 3555,
      "##ebilir": 3556,
      "▁bulundu": 3557,
      "▁saatleri": 3558,
      "▁mukemmeldi": 3559,
      "##ledim": 3560,
      "##lak": 3561,
      "▁yarıs": 3562,
      "▁bileti": 3563,
      "▁paket": 3564,
      "▁disip": 3565,
      "##amiz": 3566,
      "▁rah": 3567,
      "▁kirli": 3568,
      "▁sokakta": 3569,
      "##:": 3570,
      "▁gorus": 3571,
      "##tmis": 3572,
      "▁dusen": 3573,
      "▁bir": 3574,
      "▁onların": 3575,
      "##57": 3576,
      "▁il": 3577,
      "▁bastır": 3578,
      "▁dusurdu": 3579,
      "▁yasal": 3580,
      "▁huc": 3581,
      "▁sacları": 3582,
      "▁california'ya": 3583,
      "▁kıymet": 3584,
      "▁arayan": 3585,
      "▁endeks": 3586,
      "▁ikram": 3587,
      "▁ucuyor": 3588,
      "▁havaalanı": 3589,
      "▁soz": 3590,
      "▁dikkat": 3591,
      "▁falan": 3592,
      "▁seklinde": 3593,
      "▁sonbahar": 3594,
      "##lılık": 3595,
      "##f": 3596,
      "▁olup": 3597,
      "▁olursa": 3598,
      "▁yılda": 3599,
      "##ood": 3600,
      "▁james": 3601,
      "▁sor": 3602,
      "▁didik": 3603,
      "##asız": 3604,
      "▁doktor": 3605,
      "##alandır": 3606,
      "▁verme": 3607,
      "▁haz": 3608,
      "▁dair": 3609,
      "▁kitap": 3610,
      "▁ya": 3611,
      "##2": 3612,
      "▁dosy": 3613,
      "▁tatli": 3614,
      "▁degil": 3615,
      "##nik": 3616,
      "##.": 3617,
      "▁kasıgı": 3618,
      "▁gelmez": 3619,
      "▁kokulu": 3620,
      "▁boyle": 3621,
      "▁kan": 3622,
      "▁ekim": 3623,
      "▁iceriye": 3624,
      "▁neyse": 3625,
      "▁faydalan": 3626,
      "▁120": 3627,
      "▁birbirleriyle": 3628,
      "##larını": 3629,
      "##ılabilir": 3630,
      "▁alb": 3631,
      "▁kodu": 3632,
      "▁kalmadik": 3633,
      "##agı": 3634,
      "▁bilir": 3635,
      "##iydi": 3636,
      "▁fatur": 3637,
      "▁etti": 3638,
      "▁sozlerine": 3639,
      "▁hızlı": 3640,
      "▁adamları": 3641,
      "##aliydi": 3642,
      "##cag": 3643,
      "▁nasdaq": 3644,
      "▁747": 3645,
      "▁pacific": 3646,
      "##dıgında": 3647,
      "▁haval": 3648,
      "▁seneye": 3649,
      "##imizde": 3650,
      "▁talep": 3651,
      "▁numar": 3652,
      "▁olduk": 3653,
      "##taki": 3654,
      "##ayol": 3655,
      "▁sallan": 3656,
      "▁hayret": 3657,
      "▁1985": 3658,
      "▁adeta": 3659,
      "▁mevduat": 3660,
      "▁ı": 3661,
      "▁enerj": 3662,
      "▁beklent": 3663,
      "▁ikinci": 3664,
      "▁polis": 3665,
      "##-sat": 3666,
      "▁guney": 3667,
      "▁aqu": 3668,
      "▁sum": 3669,
      "##umuz": 3670,
      "▁intern": 3671,
      "▁birine": 3672,
      "▁seviyesinde": 3673,
      "▁hisselerin": 3674,
      "▁3.4": 3675,
      "▁38": 3676,
      "##(": 3677,
      "▁uste": 3678,
      "▁phil": 3679,
      "▁yuv": 3680,
      "▁sıcak": 3681,
      "##artman": 3682,
      "▁galib": 3683,
      "##istin": 3684,
      "[MASK]": 3685,
      "▁turkiye'de": 3686,
      "▁tarihinde": 3687,
      "▁havayollarını": 3688,
      "▁yanına": 3689,
      "##s'in": 3690,
      "▁kamu": 3691,
      "▁ın": 3692,
      "▁terbiy": 3693,
      "##38": 3694,
      "▁duzenlenen": 3695,
      "▁fokur": 3696,
      "▁sal": 3697,
      "▁dayalı": 3698,
      "▁day": 3699,
      "▁havuzlar": 3700,
      "▁gozlerim": 3701,
      "▁ydu": 3702,
      "▁odalari": 3703,
      "##od": 3704,
      "▁erkek": 3705,
      "▁gunku": 3706,
      "▁biliyor": 3707,
      "▁sahn": 3708,
      "▁dos": 3709,
      "▁ismi": 3710,
      "▁sirketinin": 3711,
      "▁sasır": 3712,
      "▁limon": 3713,
      "##set": 3714,
      "▁per": 3715,
      "##ıstı": 3716,
      "▁onur": 3717,
      "▁desik": 3718,
      "▁geldigi": 3719,
      "▁tutar": 3720,
      "##cular": 3721,
      "▁…": 3722,
      "▁mezar": 3723,
      "##fa": 3724,
      "▁vet": 3725,
      "##tra": 3726,
      "##alama": 3727,
      "▁yerini": 3728,
      "▁boynun": 3729,
      "▁yahudi": 3730,
      "▁feder": 3731,
      "##gah": 3732,
      "▁memur": 3733,
      "▁hissediyor": 3734,
      "▁saman": 3735,
      "▁gelmedi": 3736,
      "▁alkol": 3737,
      "▁yasadı": 3738,
      "▁olur": 3739,
      "▁sigorta": 3740,
      "▁kendilerini": 3741,
      "▁barın": 3742,
      "▁aln": 3743,
      "▁cincinnati": 3744,
      "##tıgım": 3745,
      "▁lar": 3746,
      "▁bilimsel": 3747,
      "##ligi": 3748,
      "##mustu": 3749,
      "▁kulak": 3750,
      "##ul": 3751,
      "▁senden": 3752,
      "##pan": 3753,
      "▁sigort": 3754,
      "▁alım-satım": 3755,
      "▁gumus": 3756,
      "##ileri": 3757,
      "▁bost": 3758,
      "▁araz": 3759,
      "▁dalgalan": 3760,
      "▁ho": 3761,
      "##elerle": 3762,
      "a": 3763,
      "▁bilmem": 3764,
      "▁cont": 3765,
      "▁kagı": 3766,
      "##ilig": 3767,
      "▁hepsini": 3768,
      "##tıgını": 3769,
      "##an": 3770,
      "▁takım": 3771,
      "▁1992": 3772,
      "▁havada": 3773,
      "▁kid": 3774,
      "▁cır": 3775,
      "##atin": 3776,
      "▁oteller": 3777,
      "##leb": 3778,
      "[UNK]": 3779,
      "▁uzun": 3780,
      "▁duruma": 3781,
      "▁ile": 3782,
      "▁kahvaltisi": 3783,
      "##ayıf": 3784,
      "▁rakip": 3785,
      "##arlar": 3786,
      "##elerden": 3787,
      "##5'ten": 3788,
      "▁hesap": 3789,
      "▁ster": 3790,
      "▁bence": 3791,
      "▁bog": 3792,
      "▁vur": 3793,
      "▁vatandas": 3794,
      "▁degildim": 3795,
      "▁bulbul": 3796,
      "##digimiz": 3797,
      "▁/": 3798,
      "▁kaya": 3799,
      "▁hastalı": 3800,
      "▁yapılacak": 3801,
      "##emiz": 3802,
      "▁%0": 3803,
      "▁memnunuz": 3804,
      "▁yolunu": 3805,
      "▁gm": 3806,
      "##'teki": 3807,
      "##ba": 3808,
      "▁gorevl": 3809,
      "##eti": 3810,
      "▁hepimiz": 3811,
      "▁boyunca": 3812,
      "▁kesint": 3813,
      "##ladıgını": 3814,
      "▁ic": 3815,
      "▁batı": 3816,
      "▁bur": 3817,
      "▁kapandı": 3818,
      "▁itibar": 3819,
      "▁porcuk": 3820,
      "▁1.5": 3821,
      "▁nefes": 3822,
      "▁havayolları": 3823,
      "▁ekledi": 3824,
      "##\\/32": 3825,
      "##loy": 3826,
      "▁carp": 3827,
      "▁met": 3828,
      "▁direkt": 3829,
      "▁57": 3830,
      "▁anlas": 3831,
      "##ber": 3832,
      "▁ail": 3833,
      "▁yapar": 3834,
      "▁0.3": 3835,
      "▁top": 3836,
      "▁odalar": 3837,
      "▁gelmis": 3838,
      "▁dolap": 3839,
      "▁beklentiler": 3840,
      "▁gidiyoruz": 3841,
      "▁kum": 3842,
      "▁sıkı": 3843,
      "▁dunyaya": 3844,
      "▁eg": 3845,
      "##esinin": 3846,
      "▁vererek": 3847,
      "▁cıkınca": 3848,
      "##ege": 3849,
      "▁yapabil": 3850,
      "▁degerlendir": 3851,
      "▁ner": 3852,
      "##ment": 3853,
      "##cakt": 3854,
      "▁115": 3855,
      "▁“": 3856,
      "##ash": 3857,
      "▁jon": 3858,
      "▁al": 3859,
      "▁cam": 3860,
      "▁yuc": 3861,
      "▁girer": 3862,
      "##ay": 3863,
      "▁konuyu": 3864,
      "▁sunuyor": 3865,
      "▁29": 3866,
      "▁haline": 3867,
      "▁icme": 3868,
      "▁fayd": 3869,
      "▁1999": 3870,
      "▁pittsburgh'a": 3871,
      "▁yah": 3872,
      "##c": 3873,
      "▁zek": 3874,
      "▁herhalde": 3875,
      "▁halka": 3876,
      "▁geriledi": 3877,
      "▁sayıda": 3878,
      "▁hepsi": 3879,
      "▁yayın": 3880,
      "##madan": 3881,
      "##'na": 3882,
      "▁kabar": 3883,
      "▁sonuclar": 3884,
      "▁ayni": 3885,
      "▁yapıldı": 3886,
      "▁denizinden": 3887,
      "▁isle": 3888,
      "▁birini": 3889,
      "▁46": 3890,
      "##unuz": 3891,
      "▁asla": 3892,
      "##cılı": 3893,
      "▁no": 3894,
      "##lukla": 3895,
      "▁hakik": 3896,
      "▁%5.4": 3897,
      "##'daki": 3898,
      "▁bitti": 3899,
      "##oglu": 3900,
      "##des": 3901,
      "▁saclarını": 3902,
      "▁goren": 3903,
      "▁karsılıklı": 3904,
      "▁31": 3905,
      "▁lungur": 3906,
      "▁dusunur": 3907,
      "▁teknik": 3908,
      "▁suyun": 3909,
      "▁karsılık": 3910,
      "##ij": 3911,
      "▁maden": 3912,
      "▁zira": 3913,
      "▁c": 3914,
      "##anın": 3915,
      "▁sektor": 3916,
      "▁145": 3917,
      "​": 3918,
      "▁tab": 3919,
      "▁guvenilir": 3920,
      "▁cur": 3921,
      "▁isin": 3922,
      "▁yildiz": 3923,
      "▁utan": 3924,
      "▁oldugundan": 3925,
      "▁olabilirdi": 3926,
      "▁kacır": 3927,
      "▁fıs": 3928,
      "▁eskiydi": 3929,
      "##endi": 3930,
      "▁lak": 3931,
      "▁karsı": 3932,
      "▁yusuf": 3933,
      "‘": 3934,
      "##sizdi": 3935,
      "▁panik": 3936,
      "▁sorun": 3937,
      "▁nedenlerden": 3938,
      "##ye": 3939,
      "▁yapım": 3940,
      "▁op": 3941,
      "##rahim": 3942,
      "##ekim": 3943,
      "##sim": 3944,
      "##suz": 3945,
      "▁nasda": 3946,
      "▁homur": 3947,
      "▁hot": 3948,
      "##amadik": 3949,
      "▁basladılar": 3950,
      "##ebil": 3951,
      "▁gelecekteki": 3952,
      "##,": 3953,
      "▁yurtdı": 3954,
      "##urlar": 3955,
      "##ılmıstır": 3956,
      "▁tedavulde": 3957,
      "##ıyla": 3958,
      "##arında": 3959,
      "▁talih": 3960,
      "▁%14": 3961,
      "▁duzel": 3962,
      "##ith": 3963,
      "▁tane": 3964,
      "▁diye": 3965,
      "▁yıllık": 3966,
      "▁biraz": 3967,
      "▁geriye": 3968,
      "▁getiren": 3969,
      "▁koyu": 3970,
      "▁otek": 3971,
      "##ıl": 3972,
      "▁geril": 3973,
      "##tiv": 3974,
      "▁far": 3975,
      "##ıh": 3976,
      "▁gecmiste": 3977,
      "▁soy": 3978,
      "▁ihtiyacı": 3979,
      "▁vegas'a": 3980,
      "▁saglamak": 3981,
      "▁incelem": 3982,
      "▁40": 3983,
      "▁etmek": 3984,
      "▁cum": 3985,
      "##?": 3986,
      "▁!..": 3987,
      "▁bagıs": 3988,
      "▁donan": 3989,
      "▁kiz": 3990,
      "▁artık": 3991,
      "▁hanimla": 3992,
      "▁duy": 3993,
      "▁okur": 3994,
      "##rum": 3995,
      "▁delikanlı": 3996,
      "▁atlanta'da": 3997,
      "##dular": 3998,
      "##aklı": 3999,
      "▁gorustuk": 4000,
      "##mamıstı": 4001,
      "##larıyla": 4002,
      "##tigini": 4003,
      "▁bireysel": 4004,
      "▁newark'a": 4005,
      "▁olmas": 4006,
      "▁odanın": 4007,
      "##lıkları": 4008,
      "▁durur": 4009,
      "##ulmus": 4010,
      "##)": 4011,
      "▁sek": 4012,
      "▁ihal": 4013,
      "▁isvic": 4014,
      "▁rekor": 4015,
      "▁cincinnati'den": 4016,
      "##aga": 4017,
      "▁yapmıs": 4018,
      "▁ital": 4019,
      "▁64": 4020,
      "▁haric": 4021,
      "##ant": 4022,
      "▁satın": 4023,
      "▁hop": 4024,
      "##'dan": 4025,
      "▁belg": 4026,
      "▁aklı": 4027,
      "▁montreal'a": 4028,
      "▁federal": 4029,
      "▁yapın": 4030,
      "▁iliskiler": 4031,
      "▁karsısında": 4032,
      "▁sorunun": 4033,
      "##bus": 4034,
      "▁yat": 4035,
      "▁ziyade": 4036,
      "▁sapır": 4037,
      "▁guleryuz": 4038,
      "▁dus": 4039,
      "▁ahlak": 4040,
      "▁business": 4041,
      "'": 4042,
      "▁verdi": 4043,
      "##lıgını": 4044,
      "▁aldigim": 4045,
      "▁dar": 4046,
      "▁ceker": 4047,
      "▁28": 4048,
      "▁plan": 4049,
      "▁lek": 4050,
      "▁yuzunu": 4051,
      "##rik": 4052,
      "▁calar": 4053,
      "▁ulas": 4054,
      "▁operasyon": 4055,
      "▁yaptirmadim": 4056,
      "▁istedigini": 4057,
      "▁kr": 4058,
      "▁perakende": 4059,
      "▁yalan": 4060,
      "▁arastır": 4061,
      "▁nasıl": 4062,
      "##eri": 4063,
      "##melerin": 4064,
      "▁buradan": 4065,
      "▁yasan": 4066,
      "##luk": 4067,
      "▁rehberimiz": 4068,
      "▁rakı": 4069,
      "▁so": 4070,
      "▁ydı": 4071,
      "##ulugun": 4072,
      "##in": 4073,
      "##ell": 4074,
      "▁basarılı": 4075,
      "##isli": 4076,
      "▁jaguar": 4077,
      "▁%6.90": 4078,
      "▁ciz": 4079,
      "▁5.2": 4080,
      "▁iletisim": 4081,
      "##layan": 4082,
      "##enn": 4083,
      "▁ilgilendi": 4084,
      "▁yagm": 4085,
      "▁ısrar": 4086,
      "▁tedavul": 4087,
      "##lanan": 4088,
      "▁universit": 4089,
      "##tir": 4090,
      "▁kerem": 4091,
      "##iste": 4092,
      "▁doları": 4093,
      "▁vucut": 4094,
      "##kin": 4095,
      "▁zamanla": 4096,
      "##inc": 4097,
      "▁bufe": 4098,
      "##cut": 4099,
      "##macı": 4100,
      "▁devrim": 4101,
      "##ıf": 4102,
      "##iniz": 4103,
      "▁hizmetinden": 4104,
      "▁asagı": 4105,
      "▁jersey": 4106,
      "▁ak": 4107,
      "▁anım": 4108,
      "##alı": 4109,
      "▁uretim": 4110,
      "▁luks": 4111,
      "##bahar": 4112,
      "▁golg": 4113,
      "##uldu": 4114,
      "##ekler": 4115,
      "▁kalktı": 4116,
      "##ustuk": 4117,
      "▁golge": 4118,
      "▁anket": 4119,
      "##oru": 4120,
      "▁balık": 4121,
      "▁hal": 4122,
      "▁;": 4123,
      "##masına": 4124,
      "##acagımı": 4125,
      "▁spor": 4126,
      "▁if": 4127,
      "▁yasayan": 4128,
      "▁uluslar": 4129,
      "▁duyg": 4130,
      "▁misin": 4131,
      "▁kent": 4132,
      "▁piyasası": 4133,
      "▁oturu": 4134,
      "▁oc": 4135,
      "▁artısı": 4136,
      "##fet": 4137,
      "▁peynir": 4138,
      "▁onune": 4139,
      "▁babasının": 4140,
      "▁dogur": 4141,
      "▁derken": 4142,
      "▁elbise": 4143,
      "▁general": 4144,
      "r": 4145,
      "##og": 4146,
      "▁oldugumuz": 4147,
      "▁bolun": 4148,
      "##dir": 4149,
      "##tif": 4150,
      "▁edilebilir": 4151,
      "##su": 4152,
      "▁malzem": 4153,
      "▁ederdi": 4154,
      "▁1.2": 4155,
      "▁dili": 4156,
      "##lo": 4157,
      "##cilerin": 4158,
      "▁kaldır": 4159,
      "▁gunleri": 4160,
      "▁istif": 4161,
      "▁uzman": 4162,
      "##amadan": 4163,
      "▁fazlası": 4164,
      "▁otomobil": 4165,
      "▁imal": 4166,
      "##ge": 4167,
      "▁isi": 4168,
      "▁%3.43": 4169,
      "▁yargı": 4170,
      "##osunda": 4171,
      "▁nisp": 4172,
      "▁dal": 4173,
      "▁kredi": 4174,
      "##kun": 4175,
      "▁gerek": 4176,
      "▁bircok": 4177,
      "##.65": 4178,
      "▁sozlesmesi": 4179,
      "▁indi": 4180,
      "##co": 4181,
      "▁deng": 4182,
      "▁kapının": 4183,
      "▁di": 4184,
      "▁denilen": 4185,
      "▁aklına": 4186,
      "##iran": 4187,
      "▁gecenin": 4188,
      "##liye": 4189,
      "##is": 4190,
      "▁vermis": 4191,
      "▁br": 4192,
      "▁konferans": 4193,
      "▁artır": 4194,
      "▁hep": 4195,
      "▁post": 4196,
      "▁ifad": 4197,
      "##en": 4198,
      "##66": 4199,
      "▁3": 4200,
      "▁ii": 4201,
      "▁yaptı": 4202,
      "v": 4203,
      "▁oglen": 4204,
      "▁pu": 4205,
      "##agını": 4206,
      "##5000": 4207,
      "##…": 4208,
      "▁kaldıgı": 4209,
      "▁derecede": 4210,
      "##muz": 4211,
      "▁ihtim": 4212,
      "▁kactı": 4213,
      "▁alıp": 4214,
      "▁gib": 4215,
      "▁kimsenin": 4216,
      "##ia": 4217,
      "▁etmeye": 4218,
      "▁84": 4219,
      "▁..": 4220,
      "▁iyice": 4221,
      "▁dinliyor": 4222,
      "##andan": 4223,
      "▁omur": 4224,
      "▁seker": 4225,
      "##ern": 4226,
      "▁gidebilir": 4227,
      "##asıyla": 4228,
      "▁dondur": 4229,
      "##inize": 4230,
      "▁isleri": 4231,
      "▁dev": 4232,
      "▁itiraf": 4233,
      "▁inan": 4234,
      "▁muh": 4235,
      "▁kuv": 4236,
      "###": 4237,
      "##gar": 4238,
      "##ank": 4239,
      "▁abdul": 4240,
      "##sızlık": 4241,
      "▁kategor": 4242,
      "▁arzu": 4243,
      "▁smith": 4244,
      "##unuyor": 4245,
      "▁ornegin": 4246,
      "▁kurtaj": 4247,
      "##yedi": 4248,
      "▁ucuslarının": 4249,
      "▁begendik": 4250,
      "▁nisan": 4251,
      "▁bunlardan": 4252,
      "▁s&p": 4253,
      "##aten": 4254,
      "##2.1": 4255,
      "▁yatırımcı": 4256,
      "▁servisi": 4257,
      "##par": 4258,
      "##lem": 4259,
      "▁verilm": 4260,
      "▁dustu": 4261,
      "##ane": 4262,
      "▁yol": 4263,
      "##fer": 4264,
      "##os": 4265,
      "##'a": 4266,
      "▁basarısız": 4267,
      "▁uslu": 4268,
      "▁yanl": 4269,
      "##ark": 4270,
      "▁kaybı": 4271,
      "▁kıyaslan": 4272,
      "▁uvey": 4273,
      "▁baglantılı": 4274,
      "▁sade": 4275,
      "▁yed": 4276,
      "▁ulke": 4277,
      "▁eli": 4278,
      "▁yurut": 4279,
      "##ecekler": 4280,
      "##lugun": 4281,
      "▁catlak": 4282,
      "▁kes": 4283,
      "▁nak": 4284,
      "▁harp": 4285,
      "▁yasar": 4286,
      "▁basladı": 4287,
      "##ugunu": 4288,
      "##ında": 4289,
      "##ah": 4290,
      "▁sorum": 4291,
      "##00": 4292,
      "▁250": 4293,
      "▁uretic": 4294,
      "##r.": 4295,
      "▁hepsinin": 4296,
      "▁tutmak": 4297,
      "▁gittikce": 4298,
      "▁sultan": 4299,
      "##eder": 4300,
      "▁houston": 4301,
      "▁sı": 4302,
      "▁iliskileri": 4303,
      "▁asagıda": 4304,
      "▁cev": 4305,
      "##ji": 4306,
      "▁isters": 4307,
      "▁senator": 4308,
      "▁izledi": 4309,
      "##ona": 4310,
      "▁bulmak": 4311,
      "▁damar": 4312,
      "##man": 4313,
      "##ham": 4314,
      "▁cub": 4315,
      "▁teklifini": 4316,
      "▁hırsız": 4317,
      "▁sonunda": 4318,
      "##ira": 4319,
      "▁texas": 4320,
      "▁nisan'da": 4321,
      "▁kım": 4322,
      "##baskan": 4323,
      "▁buldum": 4324,
      "▁adamı": 4325,
      "▁siddet": 4326,
      "▁tarafı": 4327,
      "▁dısarıya": 4328,
      "▁birbirimizi": 4329,
      "▁hissedar": 4330,
      "▁nih": 4331,
      "▁bosalt": 4332,
      "##nam": 4333,
      "▁duvarlar": 4334,
      "▁adam": 4335,
      "▁hicbirini": 4336,
      "▁yapılır": 4337,
      "##lenen": 4338,
      "▁kahvaltı": 4339,
      "▁topr": 4340,
      "▁aksamı": 4341,
      "▁isterim": 4342,
      "##'le": 4343,
      "##il": 4344,
      "▁taslar": 4345,
      "##ustos": 4346,
      "▁750": 4347,
      "▁birincisi": 4348,
      "##ari": 4349,
      "▁birinci": 4350,
      "##ft": 4351,
      "▁komitesi": 4352,
      "▁ihtiyar": 4353,
      "▁manc": 4354,
      "▁sil": 4355,
      "▁soylem": 4356,
      "▁etmis": 4357,
      "▁duzenli": 4358,
      "▁kuvvetli": 4359,
      "▁mısır": 4360,
      "##dıklarını": 4361,
      "▁bes": 4362,
      "▁alman": 4363,
      "##eket": 4364,
      "▁ko": 4365,
      "##amay": 4366,
      "▁aksam": 4367,
      "##ildi": 4368,
      "▁kanada": 4369,
      "▁worth'a": 4370,
      "▁ons": 4371,
      "▁mu": 4372,
      "▁spekul": 4373,
      "▁binlerce": 4374,
      "▁1/4": 4375,
      "▁dile": 4376,
      "##ve": 4377,
      "▁ucuncu": 4378,
      "##tor": 4379,
      "##lesi": 4380,
      "▁parlam": 4381,
      "##ılı": 4382,
      "▁giriste": 4383,
      "##8": 4384,
      "▁yoksa": 4385,
      "##orta": 4386,
      "##.4": 4387,
      "▁cevre": 4388,
      "##ru": 4389,
      "▁cop": 4390,
      "▁ogren": 4391,
      "##unup": 4392,
      "##esindeki": 4393,
      "##ilmesi": 4394,
      "▁kanı": 4395,
      "##ayla": 4396,
      "▁mevz": 4397,
      "▁araba": 4398,
      "▁yesil": 4399,
      "▁verim": 4400,
      "▁orta": 4401,
      "##luga": 4402,
      "▁listele": 4403,
      "##isini": 4404,
      "▁olduguna": 4405,
      "▁sanatcı": 4406,
      "▁ti": 4407,
      "▁salt": 4408,
      "▁dor": 4409,
      "##75": 4410,
      "▁senar": 4411,
      "▁kongr": 4412,
      "▁med": 4413,
      "▁caresiz": 4414,
      "▁performans": 4415,
      "▁denk": 4416,
      "##3.8": 4417,
      "▁kazandı": 4418,
      "▁olmalı": 4419,
      "##iyim": 4420,
      "▁gecirdi": 4421,
      "▁puanlama": 4422,
      "##cının": 4423,
      "▁tartıs": 4424,
      "▁tamamen": 4425,
      "▁kaliforniya": 4426,
      "▁men": 4427,
      "▁sahipti": 4428,
      "▁olaganustu": 4429,
      "▁toprak": 4430,
      "▁resim": 4431,
      "▁onca": 4432,
      "▁girisim": 4433,
      "▁yolu": 4434,
      "##gor": 4435,
      "##'ın": 4436,
      "##ok": 4437,
      "▁33": 4438,
      "▁cesitleri": 4439,
      "▁koy": 4440,
      "##.08": 4441,
      "##anı": 4442,
      "▁babam": 4443,
      "▁yalnızca": 4444,
      "▁mısıl": 4445,
      "▁verdigim": 4446,
      "▁fot": 4447,
      "##akende": 4448,
      "▁toplantıda": 4449,
      "▁gozet": 4450,
      "▁sorumlu": 4451,
      "##ahtar": 4452,
      "▁ecekti": 4453,
      "▁ilgisi": 4454,
      "▁rezervasyonu": 4455,
      "▁elde": 4456,
      "▁sendik": 4457,
      "▁yarısı": 4458,
      "##gımız": 4459,
      "▁milyar": 4460,
      "▁teler": 4461,
      "▁harika": 4462,
      "▁rakamlar": 4463,
      "▁elinden": 4464,
      "▁musunuz": 4465,
      "▁chic": 4466,
      "##lamıs": 4467,
      "▁ailesi": 4468,
      "##j": 4469,
      "▁muhafaz": 4470,
      "##atı": 4471,
      "▁istih": 4472,
      "##ligine": 4473,
      "▁aramız": 4474,
      "▁ihracı": 4475,
      "▁kampan": 4476,
      "▁serg": 4477,
      "##ektif": 4478,
      "##eyip": 4479,
      "▁f": 4480,
      "▁paul": 4481,
      "▁haksız": 4482,
      "##isinin": 4483,
      "▁11": 4484,
      "▁acısından": 4485,
      "▁evin": 4486,
      "▁bardak": 4487,
      "##ayı": 4488,
      "▁%1.7": 4489,
      "▁150": 4490,
      "##igi": 4491,
      "▁airlines'in": 4492,
      "▁olacagını": 4493,
      "▁yolcu": 4494,
      "##te": 4495,
      "▁teklifi": 4496,
      "▁suresi": 4497,
      "##alardan": 4498,
      "##esti": 4499,
      "▁profesyonel": 4500,
      "▁islemi": 4501,
      "▁kıbrıs": 4502,
      "▁olmadi": 4503,
      "▁aks": 4504,
      "▁ark": 4505,
      "##azı": 4506,
      "▁almanya": 4507,
      "▁merkezi": 4508,
      "▁merkez": 4509,
      "▁avrup": 4510,
      "▁memnunum": 4511,
      "##25": 4512,
      "##tıkları": 4513,
      "▁hanım": 4514,
      "▁piy": 4515,
      "##3": 4516,
      "▁irak": 4517,
      "▁uyusturucu": 4518,
      "##uler": 4519,
      "##ılmaya": 4520,
      "▁kumar": 4521,
      "▁oy": 4522,
      "##ustr": 4523,
      "▁'lu": 4524,
      "##ano": 4525,
      "▁kidder": 4526,
      "##amb": 4527,
      "▁oranı": 4528,
      "▁burada": 4529,
      "▁nelerdir": 4530,
      "##digi": 4531,
      "##lul": 4532,
      "▁bulun": 4533,
      "▁performan": 4534,
      "▁yuzyıl": 4535,
      "##izik": 4536,
      "▁aldı": 4537,
      "▁sermay": 4538,
      "▁gr": 4539,
      "▁54": 4540,
      "##isinde": 4541,
      "▁vef": 4542,
      "▁tanrı": 4543,
      "##lıyordu": 4544,
      "▁cocugun": 4545,
      "##lek": 4546,
      "##ın": 4547,
      "##das": 4548,
      "▁dusuk": 4549,
      "▁soyluyor": 4550,
      "▁kuvvet": 4551,
      "▁ederim": 4552,
      "▁garson": 4553,
      "##melerini": 4554,
      "▁yapılıyor": 4555,
      "##eki": 4556,
      "▁soguktu": 4557,
      "▁gal": 4558,
      "##sen": 4559,
      "▁ted": 4560,
      "▁raporu": 4561,
      "▁yakında": 4562,
      "▁jose": 4563,
      "▁verdigini": 4564,
      "##onelik": 4565,
      "▁odey": 4566,
      "▁cant": 4567,
      "##orn": 4568,
      "▁aynı": 4569,
      "##agından": 4570,
      "##ific": 4571,
      "▁kuy": 4572,
      "##siyonu": 4573,
      "##al": 4574,
      "##ehir": 4575,
      "▁cık": 4576,
      "▁cıkarıp": 4577,
      "##ten": 4578,
      "▁surat": 4579,
      "##9-": 4580,
      "▁se": 4581,
      "▁sendika": 4582,
      "▁yerler": 4583,
      "▁225": 4584,
      "▁zamanı": 4585,
      "▁airlin": 4586,
      "▁edebiyat": 4587,
      "▁profes": 4588,
      "▁serv": 4589,
      "▁dah": 4590,
      "▁birisini": 4591,
      "▁isletme": 4592,
      "##ore": 4593,
      "▁kızgın": 4594,
      "▁katkıda": 4595,
      "▁vah": 4596,
      "##menin": 4597,
      "▁emeklilik": 4598,
      "▁cumhurbaskan": 4599,
      "▁37.5": 4600,
      "▁personeli": 4601,
      "▁sizler": 4602,
      "##w": 4603,
      "▁1981": 4604,
      "▁hic": 4605,
      "▁bekler": 4606,
      "▁duser": 4607,
      "▁tahvili": 4608,
      "▁hır": 4609,
      "##vest": 4610,
      "▁num": 4611,
      "##amıs": 4612,
      "▁degildi": 4613,
      "▁toparlan": 4614,
      "▁zorunlu": 4615,
      "##asıdır": 4616,
      "▁tas": 4617,
      "▁bakanı": 4618,
      "##arı": 4619,
      "▁iptal": 4620,
      "##ınca": 4621,
      "##alak": 4622,
      "▁od": 4623,
      "▁verdiler": 4624,
      "▁ithal": 4625,
      "▁fazla": 4626,
      "▁bırak": 4627,
      "▁zeytin": 4628,
      "▁hat": 4629,
      "▁baglan": 4630,
      "##ever": 4631,
      "▁mey": 4632,
      "▁karıstır": 4633,
      "▁vır": 4634,
      "▁elektronik": 4635,
      "▁acıdan": 4636,
      "▁3\\/4": 4637,
      "▁demek": 4638,
      "▁muay": 4639,
      "▁takdirde": 4640,
      "▁etk": 4641,
      "##ırlar": 4642,
      "##wn": 4643,
      "▁arkadas": 4644,
      "▁bilgisay": 4645,
      "▁rahat": 4646,
      "▁icerisinde": 4647,
      "/": 4648,
      "▁kesildi": 4649,
      "▁islem": 4650,
      "▁geri": 4651,
      "▁acıkladı": 4652,
      "##ortaj": 4653,
      "▁kahvalt": 4654,
      "##ed": 4655,
      "▁dakika": 4656,
      "▁dok": 4657,
      "▁birbirine": 4658,
      "▁birbirlerine": 4659,
      "▁ogl": 4660,
      "##enz": 4661,
      "▁saglıklı": 4662,
      "##zi": 4663,
      "▁3.3": 4664,
      "▁esit": 4665,
      "▁mermer": 4666,
      "▁karab": 4667,
      "##ahh": 4668,
      "##ediyor": 4669,
      "▁aldim": 4670,
      "▁zen": 4671,
      "▁pesinde": 4672,
      "▁kit": 4673,
      "##ga": 4674,
      "▁oldular": 4675,
      "##apur": 4676,
      "▁harc": 4677,
      "▁kuf": 4678,
      "▁engel": 4679,
      "▁tasım": 4680,
      "##ack": 4681,
      "##miyorum": 4682,
      "▁ekmek": 4683,
      "▁takdir": 4684,
      "▁ortam": 4685,
      "▁kir": 4686,
      "##!": 4687,
      "▁yanak": 4688,
      "▁naci": 4689,
      "▁yurt": 4690,
      "##din": 4691,
      "▁fran": 4692,
      "##madi": 4693,
      "▁125": 4694,
      "▁sozleri": 4695,
      "▁seb": 4696,
      "▁hayvan": 4697,
      "▁isken": 4698,
      "##tısı": 4699,
      "▁uzak": 4700,
      "▁palt": 4701,
      "▁lynch": 4702,
      "▁%7.": 4703,
      "##lat": 4704,
      "▁ulasım": 4705,
      "▁kok": 4706,
      "▁edilmis": 4707,
      "▁sozcusu": 4708,
      "▁kıv": 4709,
      "▁cekildi": 4710,
      "▁rakam": 4711,
      "##mesinden": 4712,
      "▁satıl": 4713,
      "##madigim": 4714,
      "▁dusunce": 4715,
      "▁alakaliydi": 4716,
      "▁dahil": 4717,
      "▁piyasalar": 4718,
      "▁yetkili": 4719,
      "##sini": 4720,
      "##amın": 4721,
      "▁caba": 4722,
      "▁yaprak": 4723,
      "##emedim": 4724,
      "▁calısır": 4725,
      "##mas": 4726,
      "▁rey": 4727,
      "▁seviye": 4728,
      "##dirde": 4729,
      "▁olmadıgı": 4730,
      "▁degisik": 4731,
      "##ita": 4732,
      "▁yaklasimi": 4733,
      "▁dık": 4734,
      "▁guc": 4735,
      "▁calısmalar": 4736,
      "##fi": 4737,
      "▁olagan": 4738,
      "▁mik": 4739,
      "▁pus": 4740,
      "▁birbirimize": 4741,
      "▁sozler": 4742,
      "##ila": 4743,
      "▁cıkardı": 4744,
      "▁sene": 4745,
      "##sar": 4746,
      "▁yim": 4747,
      "▁taraftan": 4748,
      "##dedil": 4749,
      "##ulması": 4750,
      "##dugu": 4751,
      "▁boyut": 4752,
      "“": 4753,
      "▁buyuy": 4754,
      "##ka": 4755,
      "▁41": 4756,
      "▁yım": 4757,
      "##100": 4758,
      "##dikleri": 4759,
      "▁senato": 4760,
      "##igit": 4761,
      "▁hız": 4762,
      "▁suyu": 4763,
      "▁hissesi": 4764,
      "▁ilgin": 4765,
      "▁bugune": 4766,
      "##ons": 4767,
      "▁planlam": 4768,
      "▁etmem": 4769,
      "▁yaralan": 4770,
      "▁hazırlan": 4771,
      "▁osman": 4772,
      "##larımız": 4773,
      "##ek": 4774,
      "▁yeterli": 4775,
      "##ahmet": 4776,
      "▁ediyorlar": 4777,
      "##yo": 4778,
      "▁yapıp": 4779,
      "▁pul": 4780,
      "▁bez": 4781,
      "▁isim": 4782,
      "▁2": 4783,
      "▁#": 4784,
      "▁diler": 4785,
      "▁temsil": 4786,
      "▁allak": 4787,
      "▁beden": 4788,
      "▁misafirimiz": 4789,
      "##ington": 4790,
      "▁denet": 4791,
      "▁anim": 4792,
      "##ebilmek": 4793,
      "▁miydi": 4794,
      "▁ceh": 4795,
      "##osu": 4796,
      "▁yemis": 4797,
      "##ugun": 4798,
      "▁kagıt": 4799,
      "##emez": 4800,
      "▁birbirlerinin": 4801,
      "▁kurtar": 4802,
      "▁grub": 4803,
      "▁dusur": 4804,
      "▁kateg": 4805,
      "##artesi": 4806,
      "▁izin": 4807,
      "▁cins": 4808,
      "▁telefonla": 4809,
      "▁karsiladi": 4810,
      "▁rak": 4811,
      "▁sahneye": 4812,
      "##ence": 4813,
      "##'n": 4814,
      "▁kimisi": 4815,
      "▁harik": 4816,
      "▁ticarette": 4817,
      "▁vakıf": 4818,
      "▁gerekc": 4819,
      "##istim": 4820,
      "##ıcılık": 4821,
      "▁beklen": 4822,
      "▁agzına": 4823,
      "##1.2": 4824,
      "▁fizik": 4825,
      "▁masa": 4826,
      "▁atlanta": 4827,
      "▁alem": 4828,
      "▁sın": 4829,
      "▁lisans": 4830,
      "▁yaptılar": 4831,
      "▁karısık": 4832,
      "▁eyalet": 4833,
      "▁uygundu": 4834,
      "▁biliyorum": 4835,
      "▁sent": 4836,
      "▁ekonomi": 4837,
      "▁meydana": 4838,
      "##rol": 4839,
      "##ova": 4840,
      "##er": 4841,
      "##lum": 4842,
      "▁lob": 4843,
      "▁gelecek": 4844,
      "##:00": 4845,
      "▁acıklama": 4846,
      "▁basım": 4847,
      "▁etken": 4848,
      "▁giden": 4849,
      "▁isten": 4850,
      "##.75": 4851,
      "##uluyor": 4852,
      "▁univers": 4853,
      "##sat": 4854,
      "▁hij": 4855,
      "▁edilir": 4856,
      "▁agzı": 4857,
      "▁takip": 4858,
      "▁satan": 4859,
      "▁haberi": 4860,
      "##bah": 4861,
      "##kti": 4862,
      "▁bilgisi": 4863,
      "q": 4864,
      "▁imz": 4865,
      "▁hakk": 4866,
      "▁yıgın": 4867,
      "▁def": 4868,
      "▁gecir": 4869,
      "▁dur": 4870,
      "▁muhalef": 4871,
      "▁bizim": 4872,
      "##estir": 4873,
      "▁siyasi": 4874,
      "▁kendisin": 4875,
      "##lere": 4876,
      "▁sad": 4877,
      "▁sevgi": 4878,
      "##uar": 4879,
      "▁sever": 4880,
      "▁beach": 4881,
      "##82": 4882,
      "▁lacivert": 4883,
      "##bakır": 4884,
      "▁cicek": 4885,
      "##si": 4886,
      "▁tanesi": 4887,
      "▁resep": 4888,
      "▁tal": 4889,
      "▁diyarbakır": 4890,
      "▁div": 4891,
      "▁pil": 4892,
      "▁t": 4893,
      "▁bundan": 4894,
      "▁cekti": 4895,
      "2": 4896,
      "▁%51": 4897,
      "▁gecm": 4898,
      "▁ceket": 4899,
      "##cusu": 4900,
      "▁lir": 4901,
      "▁5.9": 4902,
      "▁bakanlıgı": 4903,
      "##izm": 4904,
      "▁ust": 4905,
      "▁malzemeler": 4906,
      "▁ihtiy": 4907,
      "▁1000": 4908,
      "▁111": 4909,
      "##likler": 4910,
      "▁pisti": 4911,
      "##aret": 4912,
      "▁gotur": 4913,
      "##amak": 4914,
      "##eni": 4915,
      "▁olsun": 4916,
      "▁hen": 4917,
      "##if": 4918,
      "##.6": 4919,
      "▁cumle": 4920,
      "▁kızıl": 4921,
      "▁ideal": 4922,
      "##kı": 4923,
      "##muyordu": 4924,
      "▁northwest": 4925,
      "##akat": 4926,
      "▁gonul": 4927,
      "▁gormuyor": 4928,
      "▁analiz": 4929,
      "▁beyle": 4930,
      "##ısın": 4931,
      "▁bogaz": 4932,
      "▁caz": 4933,
      "▁uyuy": 4934,
      "▁alaka": 4935,
      "▁kasık": 4936,
      "▁cagr": 4937,
      "##gum": 4938,
      "▁makin": 4939,
      "##lerimi": 4940,
      "▁tesadu": 4941,
      "▁sarhos": 4942,
      "▁sog": 4943,
      "▁balk": 4944,
      "▁en": 4945,
      "▁buny": 4946,
      "▁saldırı": 4947,
      "▁kanat": 4948,
      "▁kosul": 4949,
      "▁degilmis": 4950,
      "▁4.": 4951,
      "▁kendilerinden": 4952,
      "▁gar": 4953,
      "##ens": 4954,
      "##ta": 4955,
      "##ımızı": 4956,
      "▁basladık": 4957,
      "▁goc": 4958,
      "##eginde": 4959,
      "▁payı": 4960,
      "▁sakin": 4961,
      "▁esim": 4962,
      "▁kusursuz": 4963,
      "▁tabi": 4964,
      "▁muhendi": 4965,
      "▁saf": 4966,
      "▁analist": 4967,
      "▁soyley": 4968,
      "##yum": 4969,
      "▁birbiriyle": 4970,
      "▁bulmadim": 4971,
      "##erler": 4972,
      "▁tev": 4973,
      "▁otelin": 4974,
      "##amaya": 4975,
      "▁%10": 4976,
      "▁iyi": 4977,
      "▁selam": 4978,
      "##ısık": 4979,
      "▁30": 4980,
      "▁kriz": 4981,
      "▁sayılır": 4982,
      "##lastı": 4983,
      "##abi": 4984,
      "##ard": 4985,
      "##dokuzyuz": 4986,
      "▁ydık": 4987,
      "▁hepimizin": 4988,
      "▁birinde": 4989,
      "▁yeterince": 4990,
      "##arik": 4991,
      "##mus": 4992,
      "##imdi": 4993,
      "▁yorum": 4994,
      "▁gidec": 4995,
      "▁sof": 4996,
      "▁ters": 4997,
      "▁sans": 4998,
      "▁ogul": 4999,
      "▁secenek": 5000,
      "##ibe": 5001,
      "▁ingiltere": 5002,
      "▁cin": 5003,
      "▁systems": 5004,
      "▁buk": 5005,
      "▁yemeklerini": 5006,
      "▁ogleden": 5007,
      "##ate": 5008,
      "▁olmasına": 5009,
      "##imde": 5010,
      "▁mum": 5011,
      "▁bit": 5012,
      "▁nadir": 5013,
      "▁miami": 5014,
      "▁tık": 5015,
      "▁%7.8": 5016,
      "##abilir": 5017,
      "▁brit": 5018,
      "▁kapali": 5019,
      "##95": 5020,
      "▁%6.4": 5021,
      "▁yet": 5022,
      "▁basına": 5023,
      "▁&": 5024,
      "##layı": 5025,
      "##siniz": 5026,
      "##aydı": 5027,
      "▁kısmını": 5028,
      "▁urunler": 5029,
      "▁istanbul'da": 5030,
      "##ugu": 5031,
      "##ese": 5032,
      "▁oner": 5033,
      "##akal": 5034,
      "▁normal": 5035,
      "▁cay": 5036,
      "##agının": 5037,
      "▁ceyr": 5038,
      "▁sorgul": 5039,
      "▁piyasaya": 5040,
      "##aki": 5041,
      "▁restoran": 5042,
      "##lay": 5043,
      "##ecektir": 5044,
      "▁altıncı": 5045,
      "▁konusur": 5046,
      "▁kazanc": 5047,
      "▁pe": 5048,
      "▁ayakta": 5049,
      "##fı": 5050,
      "▁%0.3": 5051,
      "▁duygusal": 5052,
      "▁350": 5053,
      "▁karsilamadi": 5054,
      "▁muhaf": 5055,
      "▁boru": 5056,
      "▁rev": 5057,
      "▁vas": 5058,
      "▁yans": 5059,
      "▁2.3": 5060,
      "▁teyz": 5061,
      "##aba": 5062,
      "▁oldugum": 5063,
      "##.85": 5064,
      "▁birer": 5065,
      "▁maliyetleri": 5066,
      "##indan": 5067,
      "▁insa": 5068,
      "▁sark": 5069,
      "▁varacak": 5070,
      "▁yerles": 5071,
      "##bir": 5072,
      "▁ip": 5073,
      "▁ruzgar": 5074,
      "▁yahu": 5075,
      "▁personelden": 5076,
      "##esinden": 5077,
      "▁ettiler": 5078,
      "▁devr": 5079,
      "##sil": 5080,
      "##acak": 5081,
      "▁sicak": 5082,
      "▁ingiliz": 5083,
      "##rek": 5084,
      "▁uyesi": 5085,
      "##leniyor": 5086,
      "▁tanıs": 5087,
      "▁tahviller": 5088,
      "▁avrupalı": 5089,
      "##eyi": 5090,
      "▁begendim": 5091,
      "▁ign": 5092,
      "##madım": 5093,
      "▁istiyorlar": 5094,
      "▁azın": 5095,
      "▁ır": 5096,
      "▁kedi": 5097,
      "▁1.3": 5098,
      "▁oksur": 5099,
      "▁geldik": 5100,
      "##inda": 5101,
      "▁almayı": 5102,
      "##has": 5103,
      "▁derg": 5104,
      "▁sezon": 5105,
      "▁140": 5106,
      "▁86": 5107,
      "▁komisyonu": 5108,
      "##embe": 5109,
      ">": 5110,
      "▁2.4": 5111,
      "▁ord": 5112,
      "▁anal": 5113,
      "##enin": 5114,
      "##meler": 5115,
      "▁finans": 5116,
      "##ess": 5117,
      "▁asker": 5118,
      "##ser": 5119,
      "▁houston'dan": 5120,
      "▁babası": 5121,
      "##uyor": 5122,
      "##isiyle": 5123,
      "##.31": 5124,
      "▁bakim": 5125,
      "▁268": 5126,
      "▁hakan": 5127,
      "▁amerik": 5128,
      "##sul": 5129,
      "▁ozel": 5130,
      "▁gordugum": 5131,
      "▁'li": 5132,
      "▁bakıyordu": 5133,
      "▁pek": 5134,
      "##abını": 5135,
      "▁kolay": 5136,
      "##ester": 5137,
      "▁yuzde": 5138,
      "▁biz": 5139,
      "▁dolarlık": 5140,
      "▁sıfır": 5141,
      "▁zamanlarda": 5142,
      "▁yoluyla": 5143,
      "▁eser": 5144,
      "▁sahib": 5145,
      "##saf": 5146,
      "▁orlando'dan": 5147,
      "▁polon": 5148,
      "▁neden": 5149,
      "##oya": 5150,
      "▁seniz": 5151,
      "##sem": 5152,
      "##ol": 5153,
      "▁gorusmeler": 5154,
      "▁ontari": 5155,
      "▁kıs": 5156,
      "▁ileri": 5157,
      "##usunun": 5158,
      "▁peyn": 5159,
      "##iyorlardı": 5160,
      "##ut": 5161,
      "##ılım": 5162,
      "▁yakından": 5163,
      "▁katıldı": 5164,
      "▁eglen": 5165,
      "▁anlamına": 5166,
      "▁giderek": 5167,
      "▁zeki": 5168,
      "##istir": 5169,
      "##eh": 5170,
      "##g": 5171,
      "▁kapıdan": 5172,
      "▁huk": 5173,
      "▁denen": 5174,
      "▁donuk": 5175,
      "▁tef": 5176,
      "##liy": 5177,
      "▁kıyafet": 5178,
      "▁dun": 5179,
      "▁ye": 5180,
      "▁lev": 5181,
      "##uth": 5182,
      "▁cekin": 5183,
      "▁hakları": 5184,
      "▁siparis": 5185,
      "##tek": 5186,
      "##tari": 5187,
      "▁francisco": 5188,
      "##indeki": 5189,
      "##1-19": 5190,
      "▁ediyoruz": 5191,
      "▁guclu": 5192,
      "##okuz": 5193,
      "##cak": 5194,
      "▁da": 5195,
      "▁bunların": 5196,
      "##imet": 5197,
      "▁kahr": 5198,
      "▁soyler": 5199,
      "▁telerate": 5200,
      "▁mendil": 5201,
      "▁hindistan": 5202,
      "##diginde": 5203,
      "▁ucuz": 5204,
      "▁karsısına": 5205,
      "▁ker": 5206,
      "▁bas": 5207,
      "##abı": 5208,
      "▁uygul": 5209,
      "▁kendimiz": 5210,
      "▁konfer": 5211,
      "##mıyordu": 5212,
      "▁uf": 5213,
      "##usun": 5214,
      "##ihan": 5215,
      "▁durumda": 5216,
      "▁%4.8": 5217,
      "▁yaklas": 5218,
      "▁istemedi": 5219,
      "##lli": 5220,
      "##ret": 5221,
      "▁garip": 5222,
      "▁havaya": 5223,
      "##hangi": 5224,
      "▁sanat": 5225,
      "▁dagı": 5226,
      "##edi": 5227,
      "▁oran": 5228,
      "▁emniyet": 5229,
      "▁egemen": 5230,
      "▁mek": 5231,
      "▁mehmet": 5232,
      "▁sok": 5233,
      "▁etkili": 5234,
      "9": 5235,
      "▁5.1": 5236,
      "▁kahv": 5237,
      "▁degisim": 5238,
      "▁bagım": 5239,
      "##astır": 5240,
      "▁pittsburgh'tan": 5241,
      "▁recep": 5242,
      "##\\/": 5243,
      "▁baktım": 5244,
      "▁ekipman": 5245,
      "##las": 5246,
      "▁%7.7": 5247,
      "##paz": 5248,
      "▁ancak": 5249,
      "▁tel": 5250,
      "▁pantol": 5251,
      "▁kesin": 5252,
      "##seksen": 5253,
      "##enk": 5254,
      "▁bilgis": 5255,
      "▁paran": 5256,
      "▁arıyor": 5257,
      "▁san": 5258,
      "##adi": 5259,
      "##oyu": 5260,
      "▁morgan": 5261,
      "##dav": 5262,
      "##atın": 5263,
      "▁cob": 5264,
      "##42": 5265,
      "▁sehre": 5266,
      "▁koc": 5267,
      "##ıp": 5268,
      "▁cogunun": 5269,
      "▁alım-sat": 5270,
      "▁ymıs": 5271,
      "▁kası": 5272,
      "▁66": 5273,
      "▁ayse": 5274,
      "##suzluk": 5275,
      "▁kendisine": 5276,
      "##d": 5277,
      "##sir": 5278,
      "##ildik": 5279,
      "##op": 5280,
      "##ha": 5281,
      "▁deney": 5282,
      "▁duydu": 5283,
      "##ip": 5284,
      "▁dalg": 5285,
      "▁kalp": 5286,
      "##atur": 5287,
      "▁patır": 5288,
      "▁co.": 5289,
      "▁ikibin": 5290,
      "▁yonelik": 5291,
      "▁23": 5292,
      "##lım": 5293,
      "▁saz": 5294,
      "##’": 5295,
      "▁galiba": 5296,
      "##ac": 5297,
      "▁8.8": 5298,
      "##ak": 5299,
      "▁sigara": 5300,
      "▁20.": 5301,
      "▁alev": 5302,
      "▁etkisi": 5303,
      "▁cekil": 5304,
      "##0.7": 5305,
      "▁mırıl": 5306,
      "▁matematik": 5307,
      "▁herkes": 5308,
      "▁giderken": 5309,
      "##–": 5310,
      "▁verdik": 5311,
      "▁mun": 5312,
      "▁kurum": 5313,
      "##edir": 5314,
      "▁bitk": 5315,
      "▁kasab": 5316,
      "▁kendinden": 5317,
      "▁qu": 5318,
      "▁philadelphia'dan": 5319,
      "##lis": 5320,
      "▁elim": 5321,
      "▁ilisk": 5322,
      "##ily": 5323,
      "▁yi": 5324,
      "▁adina": 5325,
      "▁robert": 5326,
      "▁obu": 5327,
      "##me": 5328,
      "##alarına": 5329,
      "▁icecek": 5330,
      "▁geride": 5331,
      "▁cıg": 5332,
      "##raj": 5333,
      "##afet": 5334,
      "▁yansı": 5335,
      "▁istasyon": 5336,
      "##lıklar": 5337,
      "▁gerceklestir": 5338,
      "▁yabancı": 5339,
      "▁kıdem": 5340,
      "▁goruyor": 5341,
      "##alarından": 5342,
      "▁,": 5343,
      "▁yerde": 5344,
      "##oc": 5345,
      "▁polit": 5346,
      "▁dek": 5347,
      "▁1/2": 5348,
      "▁geceleri": 5349,
      "##.55": 5350,
      "##hane": 5351,
      "▁cesitliligi": 5352,
      "▁yuvar": 5353,
      "▁olmasını": 5354,
      "##/8": 5355,
      "▁ortaydi": 5356,
      "##cilik": 5357,
      "▁acaba": 5358,
      "▁rad": 5359,
      "▁the": 5360,
      "▁emir": 5361,
      "▁agrı": 5362,
      "▁ortadan": 5363,
      "▁sordu": 5364,
      "▁200": 5365,
      "▁gozleri": 5366,
      "▁durak": 5367,
      "▁love": 5368,
      "▁coc": 5369,
      "▁rezervasyon": 5370,
      "▁kalmak": 5371,
      "##ames": 5372,
      "▁cesitli": 5373,
      "##ısız": 5374,
      "▁sasırtıcı": 5375,
      "▁carol": 5376,
      "▁bizi": 5377,
      "##ardı": 5378,
      "▁yuzunden": 5379,
      "▁32": 5380,
      "▁ug": 5381,
      "##uyorum": 5382,
      "▁yemek": 5383,
      "▁ana": 5384,
      "▁baskı": 5385,
      "▁bastan": 5386,
      "▁elbet": 5387,
      "▁yardımcı": 5388,
      "▁lı": 5389,
      "▁dusunmuyor": 5390,
      "▁efendi": 5391,
      "▁degismedi": 5392,
      "▁endustri": 5393,
      "▁tu": 5394,
      "##diler": 5395,
      "▁calısıyordu": 5396,
      "▁konut": 5397,
      "##ındaki": 5398,
      "▁maliyet": 5399,
      "—": 5400,
      "##ebilecegini": 5401,
      "##a": 5402,
      "##on": 5403,
      "▁mev": 5404,
      "▁kongre": 5405,
      "▁gemi": 5406,
      "##ıkır": 5407,
      "▁donmus": 5408,
      "##luktan": 5409,
      "▁mutlaka": 5410,
      "##dıktan": 5411,
      "##​": 5412,
      "▁york": 5413,
      "▁hata": 5414,
      "▁res": 5415,
      "##esif": 5416,
      "##sk": 5417,
      "##ama": 5418,
      "▁edecegini": 5419,
      "▁cıkıyor": 5420,
      "▁yıllar": 5421,
      "▁direktoru": 5422,
      "▁ucagın": 5423,
      "▁ucuslarını": 5424,
      "▁kocaman": 5425,
      "▁halde": 5426,
      "##ee": 5427,
      "▁zorlu": 5428,
      "w": 5429,
      "▁sonuna": 5430,
      "▁ustune": 5431,
      "▁attı": 5432,
      "▁dert": 5433,
      "▁sıg": 5434,
      "▁kapısını": 5435,
      "▁onda": 5436,
      "##tim": 5437,
      "▁str": 5438,
      "##ıg": 5439,
      "▁12'den": 5440,
      "▁lub": 5441,
      "▁b": 5442,
      "##nin": 5443,
      "▁sunları": 5444,
      "##umu": 5445,
      "▁suy": 5446,
      "▁patates": 5447,
      "▁27": 5448,
      "▁kelime": 5449,
      "▁5.3": 5450,
      "▁yukarı": 5451,
      "##87": 5452,
      ";": 5453,
      "!": 5454,
      "▁wall": 5455,
      "▁suk": 5456,
      "▁salon": 5457,
      "▁onları": 5458,
      "▁hastan": 5459,
      "▁avrupa'da": 5460,
      "##ete": 5461,
      "▁47": 5462,
      "##tur": 5463,
      "▁mesel": 5464,
      "##digim": 5465,
      "▁zinc": 5466,
      "##lerimizi": 5467,
      "▁sap": 5468,
      "▁william": 5469,
      "▁gen": 5470,
      "##ef": 5471,
      "▁getirmek": 5472,
      "▁komsu": 5473,
      "▁reform": 5474,
      "▁neredeyse": 5475,
      "##casına": 5476,
      "▁tarih": 5477,
      "▁ediyorum": 5478,
      "▁terk": 5479,
      "▁olu": 5480,
      "##isler": 5481,
      "▁korumak": 5482,
      "▁olma": 5483,
      "▁firması": 5484,
      "▁tehdit": 5485,
      "▁dim": 5486,
      "▁kontrol": 5487,
      "▁gir": 5488,
      "▁gorunuyor": 5489,
      "▁olmaya": 5490,
      "▁bizden": 5491,
      "▁kadeh": 5492,
      "▁merrill": 5493,
      "##dak": 5494,
      "▁varmıs": 5495,
      "##u": 5496,
      "##.8": 5497,
      "▁cihaz": 5498,
      "▁uyarı": 5499,
      "▁gosterir": 5500,
      "▁dul": 5501,
      "▁ayaga": 5502,
      "##ilmaz": 5503,
      "▁fed": 5504,
      "##alap": 5505,
      "##.03": 5506,
      "##gu": 5507,
      "##eleri": 5508,
      "▁bro": 5509,
      "▁puana": 5510,
      "##rah": 5511,
      "▁dergi": 5512,
      "▁zey": 5513,
      "▁bek": 5514,
      "▁plaji": 5515,
      "##iger": 5516,
      "##maları": 5517,
      "▁demir": 5518,
      "▁kisinin": 5519,
      "▁cıkmak": 5520,
      "##endigi": 5521,
      "▁olacak": 5522,
      "▁herk": 5523,
      "▁(": 5524,
      "▁et": 5525,
      "▁sak": 5526,
      "▁sonrasında": 5527,
      "##cagız": 5528,
      "▁ed": 5529,
      "▁bulundugu": 5530,
      "▁mutfak": 5531,
      "▁a.b.": 5532,
      "▁umuyor": 5533,
      "▁is": 5534,
      "##amet": 5535,
      "##d.": 5536,
      "▁pat": 5537,
      "##mıslar": 5538,
      "##gi": 5539,
      "▁cumhur": 5540,
      "##ebi": 5541,
      "▁yemekleri": 5542,
      "▁sosy": 5543,
      "▁kardesi": 5544,
      "▁odaydi": 5545,
      "▁yasak": 5546,
      "▁vazif": 5547,
      "##ılacak": 5548,
      "##kah": 5549,
      "▁dallas'a": 5550,
      "##mesi": 5551,
      "▁:": 5552,
      "##masıyla": 5553,
      "##dur": 5554,
      "▁mitchell": 5555,
      "▁gey": 5556,
      "▁ufakti": 5557,
      "▁defter": 5558,
      "▁yukseltti": 5559,
      "▁yeter": 5560,
      "▁kucuktu": 5561,
      "▁finansal": 5562,
      "▁ozgu": 5563,
      "##eten": 5564,
      "▁haf": 5565,
      "▁jour": 5566,
      "▁anayas": 5567,
      "▁ihracat": 5568,
      "▁1.25": 5569,
      "▁model": 5570,
      "▁3\\/8": 5571,
      "▁guvenli": 5572,
      "▁roportaj": 5573,
      "▁benzin": 5574,
      "▁$": 5575,
      "##igini": 5576,
      "▁gaz": 5577,
      "▁kus": 5578,
      "▁tefek": 5579,
      "▁faz": 5580,
      "▁laf": 5581,
      "▁vegas": 5582,
      "▁kisiler": 5583,
      "▁atıyor": 5584,
      "▁teknoloji": 5585,
      "▁gi": 5586,
      "▁merak": 5587,
      "▁hayat": 5588,
      "▁olmasa": 5589,
      "##den": 5590,
      "▁gereken": 5591,
      "▁acıklanmadı": 5592,
      "▁lakırtı": 5593,
      "##ver": 5594,
      "▁rot": 5595,
      "##ların": 5596,
      "▁ayrıldı": 5597,
      "g": 5598,
      "▁kel": 5599,
      "##liler": 5600,
      "##daydı": 5601,
      "▁sipar": 5602,
      "▁durumunda": 5603,
      "▁$'dan": 5604,
      "▁ta": 5605,
      "##igin": 5606,
      "▁hong": 5607,
      "▁birimi": 5608,
      "▁gosterin": 5609,
      "▁benziyor": 5610,
      "▁calısma": 5611,
      "##'ten": 5612,
      "▁ufak": 5613,
      "▁merkeze": 5614,
      "▁aktivite": 5615,
      "▁fit": 5616,
      "##tadır": 5617,
      "▁muhab": 5618,
      "##ih": 5619,
      "▁ister": 5620,
      "##usu": 5621,
      "▁suruyor": 5622,
      "▁105": 5623,
      "▁mevdu": 5624,
      "▁ekonomik": 5625,
      "▁oglu": 5626,
      "▁isp": 5627,
      "▁mahm": 5628,
      "▁finanse": 5629,
      "##ilmis": 5630,
      "▁hepsin": 5631,
      "▁rengi": 5632,
      "▁gecen": 5633,
      "▁tuttu": 5634,
      "▁yil": 5635,
      "▁gerekti": 5636,
      "##ph": 5637,
      "▁kurtul": 5638,
      "##aci": 5639,
      "▁orland": 5640,
      "▁kimi": 5641,
      "▁felsef": 5642,
      "▁persembe": 5643,
      "##'yi": 5644,
      "##meden": 5645,
      "▁sadece": 5646,
      "▁artarak": 5647,
      "##eo": 5648,
      "▁yılında": 5649,
      "▁orn": 5650,
      "▁cey": 5651,
      "▁denver'e": 5652,
      "▁adamın": 5653,
      "▁yetkil": 5654,
      "▁cok": 5655,
      "▁tec": 5656,
      "##/": 5657,
      "▁ederek": 5658,
      "##kanın": 5659,
      "▁saray": 5660,
      "▁af": 5661,
      "▁r": 5662,
      "▁ettik": 5663,
      "▁mad": 5664,
      "▁ves": 5665,
      "▁haziran'da": 5666,
      "##ediye": 5667,
      "##cileri": 5668,
      "▁kendisinden": 5669,
      "▁birey": 5670,
      "▁giyin": 5671,
      "▁kalkar": 5672,
      "▁cılgın": 5673,
      "▁bırakıp": 5674,
      "▁suya": 5675,
      "##est": 5676,
      "▁arizona": 5677,
      "▁odasına": 5678,
      "##'nı": 5679,
      "▁dak": 5680,
      "▁sag": 5681,
      "##inizi": 5682,
      "▁pos": 5683,
      "▁yapmaya": 5684,
      "▁hazır": 5685,
      "▁%27": 5686,
      "▁kucak": 5687,
      "▁ayhan": 5688,
      "▁herhangi": 5689,
      "▁tesisi": 5690,
      "##eviz": 5691,
      "▁inc": 5692,
      "▁yıllarca": 5693,
      "▁iskonto": 5694,
      "▁arttı": 5695,
      "##-4": 5696,
      "##maz": 5697,
      "▁muhtem": 5698,
      "▁sabah": 5699,
      "▁sam": 5700,
      "▁be": 5701,
      "▁ragmen": 5702,
      "▁beklentim": 5703,
      "▁john": 5704,
      "▁tabii": 5705,
      "▁cekir": 5706,
      "##=": 5707,
      "▁bası": 5708,
      "##har": 5709,
      "▁elektrik": 5710,
      "▁gecici": 5711,
      "▁kol": 5712,
      "##7": 5713,
      "▁sebep": 5714,
      "▁hukum": 5715,
      "▁biles": 5716,
      "▁gecerli": 5717,
      "##ly": 5718,
      "4": 5719,
      "▁kayı": 5720,
      "##h": 5721,
      "▁mil": 5722,
      "▁ikimiz": 5723,
      "▁rolu": 5724,
      "▁kusur": 5725,
      "▁dolu": 5726,
      "▁ilgi": 5727,
      "##lim": 5728,
      "▁yen'den": 5729,
      "##inn": 5730,
      "▁nerede": 5731,
      "▁emek": 5732,
      "##amıyor": 5733,
      "▁karlı": 5734,
      "##mini": 5735,
      "▁99": 5736,
      "##ental": 5737,
      "▁ustunde": 5738,
      "▁gul": 5739,
      "▁kanal": 5740,
      "▁%3": 5741,
      "▁seye": 5742,
      "▁ogrenmek": 5743,
      "▁val": 5744,
      "▁-": 5745,
      "##usuz": 5746,
      "▁yaptirdi": 5747,
      "▁seyden": 5748,
      "▁capital": 5749,
      "▁ozet": 5750,
      "▁bak": 5751,
      "▁pisir": 5752,
      "▁olacaktır": 5753,
      "▁bolg": 5754,
      "▁baltimore": 5755,
      "▁bugunku": 5756,
      "▁uzan": 5757,
      "▁gorevlisi": 5758,
      "▁gordum": 5759,
      "▁''": 5760,
      "##medi": 5761,
      "▁servis": 5762,
      "▁elinde": 5763,
      "i": 5764,
      "▁masraf": 5765,
      "▁les": 5766,
      "▁soh": 5767,
      "▁reklam": 5768,
      "##iforn": 5769,
      "▁class": 5770,
      "▁sokaga": 5771,
      "##tr": 5772,
      "##ast": 5773,
      "##andı": 5774,
      "▁fik": 5775,
      "▁hafif": 5776,
      "▁ogle": 5777,
      "▁ucusu": 5778,
      "▁fel": 5779,
      "▁buyudu": 5780,
      "▁isvicre": 5781,
      "▁101": 5782,
      "##meyen": 5783,
      "s": 5784,
      "▁cadır": 5785,
      "##16": 5786,
      "▁sekret": 5787,
      "▁mı": 5788,
      "▁cad": 5789,
      "▁ulasılamadı": 5790,
      "##etik": 5791,
      "▁iskel": 5792,
      "▁om": 5793,
      "##eginden": 5794,
      "▁yetis": 5795,
      "##22": 5796,
      "▁street": 5797,
      "▁kahve": 5798,
      "▁1.000": 5799,
      "▁boz": 5800,
      "▁1\\/2": 5801,
      "▁seatt": 5802,
      "▁sergil": 5803,
      "▁bosal": 5804,
      "##hat": 5805,
      "▁birileri": 5806,
      "▁acık": 5807,
      "▁hali": 5808,
      "##tar": 5809,
      "▁gibi": 5810,
      "▁dir": 5811,
      "▁155": 5812,
      "##oy": 5813,
      "▁meslek": 5814,
      "▁calıs": 5815,
      "▁koydu": 5816,
      "▁los": 5817,
      "▁sorular": 5818,
      "▁hasır": 5819,
      "▁amac": 5820,
      "▁sohbet": 5821,
      "▁yuzu": 5822,
      "##malarını": 5823,
      "##ledik": 5824,
      "▁fiyatina": 5825,
      "▁actı": 5826,
      "##mec": 5827,
      "##na": 5828,
      "##ilmesini": 5829,
      "▁rec": 5830,
      "##lasıyor": 5831,
      "▁dusman": 5832,
      "▁olanakları": 5833,
      "##gmen": 5834,
      "▁calı": 5835,
      "##cin": 5836,
      "▁yumurt": 5837,
      "##agım": 5838,
      "##“": 5839,
      "▁tuz": 5840,
      "##lari": 5841,
      "▁gorulen": 5842,
      "▁59": 5843,
      "▁kendisinin": 5844,
      "▁zav": 5845,
      "##kel": 5846,
      "▁ucrete": 5847,
      "▁sef": 5848,
      "##cok": 5849,
      "▁cekici": 5850,
      "▁verilen": 5851,
      "▁tampa'dan": 5852,
      "▁yayım": 5853,
      "▁katlı": 5854,
      "▁metre": 5855,
      "▁elestir": 5856,
      "▁fiili": 5857,
      "▁cil": 5858,
      "##iyordu": 5859,
      "##one": 5860,
      "▁olmus": 5861,
      "▁yildizli": 5862,
      "▁dunyayı": 5863,
      "6": 5864,
      "▁3.6": 5865,
      "##isle": 5866,
      "▁cinsel": 5867,
      "▁g": 5868,
      "▁otel": 5869,
      "▁hatır": 5870,
      "▁tex": 5871,
      "▁resepsiyon": 5872,
      "▁eastern": 5873,
      "▁alıs": 5874,
      "▁salat": 5875,
      "##iler": 5876,
      "▁yasası": 5877,
      "▁tes": 5878,
      "##yuz": 5879,
      "##medigini": 5880,
      "▁gercek": 5881,
      "▁geliri": 5882,
      "▁taraftar": 5883,
      "▁muzak": 5884,
      "▁elma": 5885,
      "▁international": 5886,
      "▁pes": 5887,
      "##tiler": 5888,
      "##imini": 5889,
      "▁oraya": 5890,
      "▁esas": 5891,
      "##lor": 5892,
      "##laya": 5893,
      "▁gunumuz": 5894,
      "▁geliyor": 5895,
      "▁%22": 5896,
      "##gıl": 5897,
      "##int": 5898,
      "▁problem": 5899,
      "▁halen": 5900,
      "▁ara": 5901,
      "##eye": 5902,
      "▁sezl": 5903,
      "▁kal": 5904,
      "▁giriyor": 5905,
      "▁sokak": 5906,
      "▁kah": 5907,
      "▁goruyorum": 5908,
      "▁tan": 5909,
      "▁madd": 5910,
      "▁ediliyor": 5911,
      "▁tamam": 5912,
      "▁new": 5913,
      "▁miktar": 5914,
      "▁express": 5915,
      "▁uyar": 5916,
      "▁gidi": 5917,
      "##yor": 5918,
      "▁odan": 5919,
      "▁durus": 5920,
      "##tın": 5921,
      "▁parcaları": 5922,
      "▁degerinde": 5923,
      "▁olmam": 5924,
      "▁uyk": 5925,
      "##es": 5926,
      "▁yarın": 5927,
      "▁nashville": 5928,
      "##.000": 5929,
      "##adaki": 5930,
      "##k": 5931,
      "▁ceyrekte": 5932,
      "▁hitap": 5933,
      "▁kov": 5934,
      "▁neler": 5935,
      "▁3.": 5936,
      "▁esy": 5937,
      "▁pers": 5938,
      "##er'in": 5939,
      "▁aktivit": 5940,
      "▁7/8": 5941,
      "▁dusmus": 5942,
      "##sa": 5943,
      "▁faktor": 5944,
      "##phia": 5945,
      "▁fet": 5946,
      "##ili": 5947,
      "▁amacıyla": 5948,
      "▁sahin": 5949,
      "##ana": 5950,
      "▁ornek": 5951,
      "▁sos": 5952,
      "▁bazıların": 5953,
      "▁durumu": 5954,
      "▁sinir": 5955,
      "▁istem": 5956,
      "▁yurum": 5957,
      "▁denver'den": 5958,
      "##ılıp": 5959,
      "▁columbus'tan": 5960,
      "▁karı": 5961,
      "▁icinde": 5962,
      "▁parcası": 5963,
      "▁sekilde": 5964,
      "▁bl": 5965,
      "▁resmen": 5966,
      "##dort": 5967,
      "##tı": 5968,
      "▁gorunuyordu": 5969,
      "##ach": 5970,
      "##ilen": 5971,
      "▁)": 5972,
      "▁surdur": 5973,
      "##r": 5974,
      "▁475": 5975,
      "▁insanı": 5976,
      "▁politika": 5977,
      "▁merhaba": 5978,
      "▁vasıt": 5979,
      "▁gosterebilir": 5980,
      "▁sem": 5981,
      "▁kos": 5982,
      "##ele": 5983,
      "▁cim": 5984,
      "##unce": 5985,
      "##deki": 5986,
      "▁etmey": 5987,
      "##onun": 5988,
      "▁okun": 5989,
      "▁bilmiyor": 5990,
      "##ku": 5991,
      "▁108": 5992,
      "▁ymis": 5993,
      "▁sms": 5994,
      "▁duyur": 5995,
      "##orp": 5996,
      "##ılmıstı": 5997,
      "▁kas": 5998,
      "##ital": 5999,
      "▁zar": 6000,
      "▁senetleri": 6001,
      "##isindan": 6002,
      "##0": 6003,
      "▁eylul'de": 6004,
      "▁gerc": 6005,
      "▁yerlestir": 6006,
      "▁gelen": 6007,
      "c": 6008,
      "▁korum": 6009,
      "▁fev": 6010,
      "▁icecekler": 6011,
      "##olu": 6012,
      "▁kurt": 6013,
      "▁akın": 6014,
      "##ıyı": 6015,
      "▁onumuz": 6016,
      "▁ant": 6017,
      "▁bulabilir": 6018,
      "▁japon": 6019,
      "▁gittik": 6020,
      "▁yere": 6021,
      "▁oturan": 6022,
      "▁ogretmen": 6023,
      "▁yuks": 6024,
      "##cı": 6025,
      "▁hizmete": 6026,
      "▁maz": 6027,
      "▁191": 6028,
      "▁uyan": 6029,
      "▁kuz": 6030,
      "▁katı": 6031,
      "▁fak": 6032,
      "▁birlik": 6033,
      "▁degisiklikler": 6034,
      "##graf": 6035,
      "▁hava": 6036,
      "▁red": 6037,
      "##denin": 6038,
      "▁cesitlilik": 6039,
      "▁z": 6040,
      "▁portfoy": 6041,
      "##ıza": 6042,
      "▁harcam": 6043,
      "##tigi": 6044,
      "▁sahne": 6045,
      "▁kır": 6046,
      "▁hes": 6047,
      "##ust": 6048,
      "▁%1": 6049,
      "▁calisanlar": 6050,
      "##dedi": 6051,
      "▁kaliteliydi": 6052,
      "▁dım": 6053,
      "##uc": 6054,
      "▁ler": 6055,
      "##b.": 6056,
      "▁cıyak": 6057,
      "▁insaat": 6058,
      "##mam": 6059,
      "▁yı": 6060,
      "▁onde": 6061,
      "▁duygu": 6062,
      "▁kesti": 6063,
      "▁yasama": 6064,
      "▁700": 6065,
      "##duncu": 6066,
      "▁ulastı": 6067,
      "▁yatır": 6068,
      "▁geleni": 6069,
      "▁as": 6070,
      "##tıyor": 6071,
      "▁gorun": 6072,
      "▁cizg": 6073,
      "▁hasan": 6074,
      "▁\"": 6075,
      "▁lake": 6076,
      "▁sepet": 6077,
      "##eniz": 6078,
      "##eld": 6079,
      "▁ise": 6080,
      "##yasal": 6081,
      "##forman": 6082,
      "▁gom": 6083,
      "##ımdan": 6084,
      "▁lakin": 6085,
      "▁13": 6086,
      "##tay": 6087,
      "▁tedav": 6088,
      "##amadı": 6089,
      "##ding": 6090,
      "▁seviyesinden": 6091,
      "▁yaptik": 6092,
      "▁%11": 6093,
      "##ik": 6094,
      "▁.)": 6095,
      "##b": 6096,
      "▁florida": 6097,
      "▁tıpıs": 6098,
      "▁sıy": 6099,
      "▁cetin": 6100,
      "▁umur": 6101,
      "▁hug": 6102,
      "▁vaz": 6103,
      "▁etrafında": 6104,
      "▁gez": 6105,
      "▁times": 6106,
      "##mistir": 6107,
      "▁ipotek": 6108,
      "▁dib": 6109,
      "▁kelim": 6110,
      "▁degilsin": 6111,
      "##likleri": 6112,
      "▁icecekleri": 6113,
      "##ına": 6114,
      "▁bende": 6115,
      "▁%3.": 6116,
      "▁tadi": 6117,
      "##ruk": 6118,
      "▁hin": 6119,
      "##mustur": 6120,
      "▁tak": 6121,
      "▁10": 6122,
      "▁tasıy": 6123,
      "##-200": 6124,
      "▁%3.1": 6125,
      "##ısına": 6126,
      "▁yerinde": 6127,
      "▁otele": 6128,
      "▁angeles'ten": 6129,
      "##'deki": 6130,
      "▁geleneksel": 6131,
      "▁alacak": 6132,
      "##mayacak": 6133,
      "▁kaliteye": 6134,
      "##0.1": 6135,
      "##ginden": 6136,
      "▁vegas'tan": 6137,
      "▁col": 6138,
      "▁elbette": 6139,
      "▁yaz": 6140,
      "▁saygı": 6141,
      "▁eskiden": 6142,
      "▁genis": 6143,
      "▁yetersiz": 6144,
      "▁yapılmıs": 6145,
      "▁yum": 6146,
      "▁2016": 6147,
      "▁sey": 6148,
      "▁yab": 6149,
      "▁yetmis": 6150,
      "##leyici": 6151,
      "▁1989-": 6152,
      "##—": 6153,
      "##madı": 6154,
      "▁oden": 6155,
      "▁ne": 6156,
      "##ilik": 6157,
      "▁gurultu": 6158,
      "##gın": 6159,
      "▁355": 6160,
      "▁giris": 6161,
      "▁fazlaydi": 6162,
      "▁yerinden": 6163,
      "▁61": 6164,
      "▁halı": 6165,
      "▁ton": 6166,
      "▁tar": 6167,
      "▁henuz": 6168,
      "▁bilgil": 6169,
      "▁5\\/8": 6170,
      "▁kahvalti": 6171,
      "▁56": 6172,
      "▁'d": 6173,
      "##ası": 6174,
      "▁yaygın": 6175,
      "##larak": 6176,
      "▁anne": 6177,
      "##'in": 6178,
      "▁girmis": 6179,
      "▁bacak": 6180,
      "▁kendimde": 6181,
      "▁yerel": 6182,
      "##lıgına": 6183,
      "▁ifade": 6184,
      "▁durgun": 6185,
      "▁onlarla": 6186,
      "##sınız": 6187,
      "##dikten": 6188,
      "▁yeten": 6189,
      "##y's": 6190,
      "##mıyorum": 6191,
      "■": 6192,
      "▁deprem": 6193,
      "▁yolda": 6194,
      "▁ortal": 6195,
      "▁cift": 6196,
      "▁ayı": 6197,
      "▁yanlıs": 6198,
      "▁tok": 6199,
      "▁enflasyon": 6200,
      "▁oldukları": 6201,
      "##miyor": 6202,
      "▁nihayet": 6203,
      "##gil": 6204,
      "▁kardes": 6205,
      "▁hosuma": 6206,
      "▁saskın": 6207,
      "▁cogun": 6208,
      "▁bicim": 6209,
      "▁muk": 6210,
      "▁imkanlari": 6211,
      "▁farkında": 6212,
      "▁kitabı": 6213,
      "▁yel": 6214,
      "▁iliskin": 6215,
      "##'": 6216,
      "▁ugr": 6217,
      "▁sob": 6218,
      "▁den": 6219,
      "▁yarar": 6220,
      "▁at": 6221,
      "▁ala": 6222,
      "▁anlay": 6223,
      "##lemeye": 6224,
      "▁yakın": 6225,
      "▁mahal": 6226,
      "▁kimden": 6227,
      "▁grev": 6228,
      "##egine": 6229,
      "▁akıl": 6230,
      "▁bize": 6231,
      "##dut": 6232,
      "▁titiz": 6233,
      "▁toplantıs": 6234,
      "▁derec": 6235,
      "##eyle": 6236,
      "##ır": 6237,
      "▁yenil": 6238,
      "▁aradi": 6239,
      "▁olunca": 6240,
      "▁universite": 6241,
      "##80": 6242,
      "▁zarif": 6243,
      "▁yemekler": 6244,
      "▁ayarlan": 6245,
      "##uston": 6246,
      "▁ipot": 6247,
      "▁kafa": 6248,
      ":": 6249,
      "##asi": 6250,
      "▁dogr": 6251,
      "▁ismini": 6252,
      "▁disiplin": 6253,
      "▁nere": 6254,
      "▁sogut": 6255,
      "▁petersburg'a": 6256,
      "##ınızı": 6257,
      "##unde": 6258,
      "▁w": 6259,
      "▁ces": 6260,
      "▁resmi": 6261,
      "▁hacı": 6262,
      "▁komit": 6263,
      "▁dogu": 6264,
      "##\"": 6265,
      "##ult": 6266,
      "▁tıklım": 6267,
      "▁anad": 6268,
      "▁yuzune": 6269,
      "##om": 6270,
      "##memiz": 6271,
      "▁baskan": 6272,
      "▁dort": 6273,
      "▁vat": 6274,
      "▁rahatsız": 6275,
      "▁stu": 6276,
      "▁%15": 6277,
      "▁dugun": 6278,
      "##ımıza": 6279,
      "o": 6280,
      "▁tarafından": 6281,
      "▁doların": 6282,
      "▁erdi": 6283,
      "▁ciftlik": 6284,
      "##mer": 6285,
      "▁kokusu": 6286,
      "▁ik": 6287,
      "▁kestir": 6288,
      "▁idar": 6289,
      "▁kendin": 6290,
      "▁fiyat": 6291,
      "ı": 6292,
      "▁%85": 6293,
      "▁bizde": 6294,
      "▁deniz": 6295,
      "▁ders": 6296,
      "##egim": 6297,
      "▁%": 6298,
      "▁jos": 6299,
      "▁.": 6300,
      "▁zayifti": 6301,
      "##uyle": 6302,
      "▁george": 6303,
      "▁baslangıc": 6304,
      "▁girip": 6305,
      "▁doneminde": 6306,
      "▁verildi": 6307,
      "##allı": 6308,
      "▁tavsiye": 6309,
      "▁tren": 6310,
      "▁cocuklar": 6311,
      "▁beyan": 6312,
      "▁worth": 6313,
      "▁yardım": 6314,
      "▁edilem": 6315,
      "▁peki": 6316,
      "▁100": 6317,
      "▁sise": 6318,
      "▁05.": 6319,
      "▁seri": 6320,
      "▁2.5": 6321,
      "▁7.5": 6322,
      "▁duzgun": 6323,
      "▁toplu": 6324,
      "##cinin": 6325,
      "▁tom": 6326,
      "▁itibariyle": 6327,
      "▁mah": 6328,
      "▁yukseldi": 6329,
      "▁varsa": 6330,
      "▁gazi": 6331,
      "▁pla": 6332,
      "▁it": 6333,
      "▁%8.2": 6334,
      "▁edici": 6335,
      "▁sıkır": 6336,
      "▁hisseleri": 6337,
      "##4000": 6338,
      "##ılıyor": 6339,
      "##aket": 6340,
      "▁cent": 6341,
      "##eet": 6342,
      "▁suret": 6343,
      "▁orlando": 6344,
      "▁.'": 6345,
      "▁istemiyorum": 6346,
      "##6.6": 6347,
      "##ilmisti": 6348,
      "[CLS]": 6349,
      "##und": 6350,
      "▁leh": 6351,
      "▁savun": 6352,
      "▁gunah": 6353,
      "##masında": 6354,
      "▁cozul": 6355,
      "▁sar": 6356,
      "▁evi": 6357,
      "▁88": 6358,
      "##lıyor": 6359,
      "▁mark": 6360,
      "##luydu": 6361,
      "▁eroin": 6362,
      "▁calis": 6363,
      "▁fener": 6364,
      "▁degiliz": 6365,
      "▁goze": 6366,
      "▁sel": 6367,
      "##mayı": 6368,
      "▁yasam": 6369,
      "▁strate": 6370,
      "##erek": 6371,
      "▁herif": 6372,
      "▁arastırma": 6373,
      "##.2": 6374,
      "▁gov": 6375,
      "▁nesi": 6376,
      "▁0": 6377,
      "▁onceki": 6378,
      "▁pahali": 6379,
      "##mistim": 6380,
      "▁kursun": 6381,
      "##ırım": 6382,
      "▁onu": 6383,
      "▁dikkatli": 6384,
      "▁sofr": 6385,
      "▁ordu": 6386,
      "▁seninle": 6387,
      "▁kend": 6388,
      "▁1960": 6389,
      "▁calismas": 6390,
      "▁rıhtım": 6391,
      "▁ford": 6392,
      "##a.": 6393,
      "▁vergi": 6394,
      "▁yoktur": 6395,
      "##kar": 6396,
      "▁kalın": 6397,
      "▁tutul": 6398,
      "▁yirmi": 6399,
      "▁basv": 6400,
      "▁cuma": 6401,
      "##uma": 6402,
      "▁aslan": 6403,
      "▁lab": 6404,
      "▁gozu": 6405,
      "##ustu": 6406,
      "▁phoenix": 6407,
      "▁2.7": 6408,
      "▁yumusak": 6409,
      "▁soyledik": 6410,
      "▁kompoz": 6411,
      "▁kars": 6412,
      "▁toplam": 6413,
      "##ai": 6414,
      "▁tersine": 6415,
      "▁arasından": 6416,
      "▁fort": 6417,
      "▁fotograf": 6418,
      "▁istihdam": 6419,
      "▁yasıyor": 6420,
      "▁gerci": 6421,
      "▁yardim": 6422,
      "▁avukat": 6423,
      "▁pey": 6424,
      "▁diyen": 6425,
      "▁dı": 6426,
      "▁uzum": 6427,
      "▁ettigini": 6428,
      "▁listel": 6429,
      "▁tir": 6430,
      "▁arkadası": 6431,
      "▁gozlu": 6432,
      "##iyel": 6433,
      "▁barda": 6434,
      "##sin": 6435,
      "▁erdog": 6436,
      "▁dortluk": 6437,
      "▁19": 6438,
      "▁puan": 6439,
      "▁76": 6440,
      "▁corb": 6441,
      "▁edebilir": 6442,
      "##sef": 6443,
      "##say": 6444,
      "▁olumsuz": 6445,
      "▁agacın": 6446,
      "▁meh": 6447,
      "##ustral": 6448,
      "##iti": 6449,
      "##alarının": 6450,
      "▁silah": 6451,
      "##cal": 6452,
      "▁serp": 6453,
      "▁journal": 6454,
      "##irken": 6455,
      "▁ongor": 6456,
      "▁kalabalikti": 6457,
      "▁kural": 6458,
      "▁eris": 6459,
      "▁4.2": 6460,
      "##eyn": 6461,
      "▁bayram": 6462,
      "##ledi": 6463,
      "▁onlara": 6464,
      "##lastır": 6465,
      "▁kaynagı": 6466,
      "▁acisindan": 6467,
      "▁stok": 6468,
      "##lenmis": 6469,
      "##toru": 6470,
      "▁icindeki": 6471,
      "▁tahk": 6472,
      "##mal": 6473,
      "▁saatlerde": 6474,
      "##lanır": 6475,
      "##35": 6476,
      "▁8.4": 6477,
      "##biye": 6478,
      "▁tutun": 6479,
      "▁gelistir": 6480,
      "▁nefret": 6481,
      "▁bahce": 6482,
      "##orth": 6483,
      "▁ataturk'un": 6484,
      "▁kaliteli": 6485,
      "▁park": 6486,
      "▁tekn": 6487,
      "▁siddetli": 6488,
      "▁1\\/4": 6489,
      "▁traf": 6490,
      "▁tırn": 6491,
      "▁buyut": 6492,
      "##.0": 6493,
      "▁derin": 6494,
      "▁ada": 6495,
      "▁belirtti": 6496,
      "##yım": 6497,
      "▁dinlemek": 6498,
      "##ılan": 6499,
      "##ısı": 6500,
      "▁gomlek": 6501,
      "▁derli": 6502,
      "▁ihtil": 6503,
      "▁arkadasim": 6504,
      "▁mac": 6505,
      "▁yurek": 6506,
      "▁sig": 6507,
      "##emedik": 6508,
      "▁ettigi": 6509,
      "▁tahmin": 6510,
      "▁basından": 6511,
      "##uklum": 6512,
      "▁magaz": 6513,
      "▁80": 6514,
      "##rup": 6515,
      "▁geor": 6516,
      "▁engin": 6517,
      "▁derece": 6518,
      "▁say": 6519,
      "##ibar": 6520,
      "▁tıp": 6521,
      "##et": 6522,
      "▁dusus": 6523,
      "▁gerekli": 6524,
      "▁415": 6525,
      "▁isv": 6526,
      "▁guven": 6527,
      "▁saati": 6528,
      "▁komisyon": 6529,
      "##ya": 6530,
      "▁hap": 6531,
      "▁edildi": 6532,
      "▁doları'na": 6533,
      "▁kisilik": 6534,
      "##ica": 6535,
      "▁anlamda": 6536,
      "▁soyledi": 6537,
      "▁hicbiri": 6538,
      "▁dahi": 6539,
      "▁umut": 6540,
      "▁gunu": 6541,
      "▁yani": 6542,
      "▁yasadıgı": 6543,
      "▁uzere": 6544,
      "▁ihtiyacım": 6545,
      "▁carsamba": 6546,
      "▁pal": 6547,
      "▁satıs": 6548,
      "▁sist": 6549,
      "##ami": 6550,
      "▁piyasa": 6551,
      "▁icer": 6552,
      "▁yapma": 6553,
      "▁degis": 6554,
      "##z": 6555,
      "▁farklılık": 6556,
      "▁girdik": 6557,
      "▁sıv": 6558,
      "▁luk": 6559,
      "▁soru": 6560,
      "▁industri": 6561,
      "▁3/4": 6562,
      "▁%8": 6563,
      "##melidir": 6564,
      "▁agırlık": 6565,
      "##leriyle": 6566,
      "▁iyil": 6567,
      "▁emtia": 6568,
      "▁turkiye": 6569,
      "▁birik": 6570,
      "##chell": 6571,
      "▁a": 6572,
      "▁tarz": 6573,
      "▁piyasanın": 6574,
      "▁yonetimi": 6575,
      "[SEP]": 6576,
      "▁tanık": 6577,
      "▁hayatın": 6578,
      "▁yonetic": 6579,
      "▁dolayi": 6580,
      "##lugunu": 6581,
      "*": 6582,
      "▁kapalı": 6583,
      "##oh": 6584,
      "▁cesit": 6585,
      "▁hucr": 6586,
      "▁elbis": 6587,
      "▁egit": 6588,
      "##van": 6589,
      "▁bal": 6590,
      "▁kısıt": 6591,
      "▁olabil": 6592,
      "▁turu": 6593,
      "▁lira": 6594,
      "▁vermedi": 6595,
      "▁24": 6596,
      "▁sab": 6597,
      "▁ruh": 6598,
      "▁zayif": 6599,
      "▁diyordu": 6600,
      "##iyordum": 6601,
      "▁du": 6602,
      "##ch": 6603,
      "##'taki": 6604,
      "▁%7": 6605,
      "##ilir": 6606,
      "▁konus": 6607,
      "▁posta": 6608,
      "▁bel": 6609,
      "▁aile": 6610,
      "##sız": 6611,
      "▁eh": 6612,
      "▁kıt": 6613,
      "▁kat": 6614,
      "▁soluk": 6615,
      "##ijinal": 6616,
      "▁olmayan": 6617,
      "▁nesil": 6618,
      "##adu": 6619,
      "▁olması": 6620,
      "▁tahsil": 6621,
      "##tan": 6622,
      "▁dav": 6623,
      "▁fikr": 6624,
      "▁alk": 6625,
      "▁ortaya": 6626,
      "▁plastik": 6627,
      "##erk": 6628,
      "▁icki": 6629,
      "##bol": 6630,
      "▁stan": 6631,
      "▁bura": 6632,
      "▁aktarma": 6633,
      "▁cekiyor": 6634,
      "##lugu": 6635,
      "▁izley": 6636,
      "##isik": 6637,
      "▁ettir": 6638,
      "▁arkad": 6639,
      "▁karanlık": 6640,
      "▁karayol": 6641,
      "##as": 6642,
      "▁eki": 6643,
      "▁fon": 6644,
      "▁tur": 6645,
      "##leket": 6646,
      "##dılar": 6647,
      "##lerinin": 6648,
      "▁um": 6649,
      "##azım": 6650,
      "▁cıtır": 6651,
      "▁seref": 6652,
      "▁meden": 6653,
      "▁hanim": 6654,
      "##dar": 6655,
      "▁donustur": 6656,
      "##ond": 6657,
      "▁usta": 6658,
      "▁ma": 6659,
      "▁aptal": 6660,
      "▁avukatlar": 6661,
      "▁alternatif": 6662,
      "▁biriler": 6663,
      "▁asık": 6664,
      "##tıgı": 6665,
      "▁5'ten": 6666,
      "▁ikincisi": 6667,
      "▁aralık'ta": 6668,
      "▁not": 6669,
      "▁iken": 6670,
      "▁hurriyet": 6671,
      "▁baktı": 6672,
      "##vi": 6673,
      "▁anlıyor": 6674,
      "▁asa": 6675,
      "▁kayık": 6676,
      "▁fiyati": 6677,
      "▁icin": 6678,
      "▁ba": 6679,
      "##ati": 6680,
      "▁bodrum": 6681,
      "▁ah": 6682,
      "##liginden": 6683,
      "▁kazancı": 6684,
      "▁sch": 6685,
      "▁2.1": 6686,
      "▁boston'a": 6687,
      "▁konusu": 6688,
      "##anmıs": 6689,
      "##med": 6690,
      "▁iceriyor": 6691,
      "▁hapis": 6692,
      "▁dilim": 6693,
      "##esini": 6694,
      "##ide": 6695,
      "##ıcı": 6696,
      "▁po": 6697,
      "##alım": 6698,
      "▁rekabet": 6699,
      "▁8.3": 6700,
      "▁gev": 6701,
      "▁uzay": 6702,
      "##erv": 6703,
      "▁eski": 6704,
      "▁giy": 6705,
      "▁patlıcan": 6706,
      "##cesi": 6707,
      "▁ciyak": 6708,
      "▁dig": 6709,
      "▁hoc": 6710,
      "▁yar": 6711,
      "▁aracı": 6712,
      "##irdi": 6713,
      "▁gon": 6714,
      "##ville": 6715,
      "▁dostu": 6716,
      "##ormal": 6717,
      "##ırken": 6718,
      "▁fan": 6719,
      "##eledi": 6720,
      "##sizim": 6721,
      "▁guvenlik": 6722,
      "▁mukemmel": 6723,
      "▁otelden": 6724,
      "▁sirketler": 6725,
      "▁mahall": 6726,
      "▁istedigim": 6727,
      "▁cinayet": 6728,
      "▁kısm": 6729,
      "▁milwaukee'den": 6730,
      "▁gayrimenkul": 6731,
      "##lardı": 6732,
      "##irim": 6733,
      "▁banyo": 6734,
      "##ısında": 6735,
      "##ustri": 6736,
      "▁gayrim": 6737,
      "▁buyur": 6738,
      "▁con": 6739,
      "▁antr": 6740,
      "##20": 6741,
      "▁amer": 6742,
      "▁21:00-22:30": 6743,
      "▁tasıyan": 6744,
      "▁erk": 6745,
      "▁listesini": 6746,
      "▁cesaret": 6747,
      "##ıyorum": 6748,
      "##iyoruz": 6749,
      "▁aylık": 6750,
      "▁birtakım": 6751,
      "##abiliriz": 6752,
      "##uncu": 6753,
      "▁personeller": 6754,
      "##'li": 6755,
      "##”": 6756,
      "##ulu": 6757,
      "▁git": 6758,
      "##rily": 6759,
      "▁cıkart": 6760,
      "▁sonr": 6761,
      "##bas": 6762,
      "▁sizden": 6763,
      "▁ekonom": 6764,
      "▁1.": 6765,
      "##ersey": 6766,
      "▁nazik": 6767,
      "##gele": 6768,
      "▁van": 6769,
      "▁cevir": 6770,
      "▁seyin": 6771,
      "▁7": 6772,
      "##.38": 6773,
      "▁aksamları": 6774,
      "▁alacaklı": 6775,
      "▁iyiydi": 6776,
      "##abilirdi": 6777,
      "▁hassas": 6778,
      "▁400000": 6779,
      "##anda": 6780,
      "▁dusunc": 6781,
      "▁masanın": 6782,
      "▁perd": 6783,
      "=": 6784,
      "##lav": 6785,
      "##masının": 6786,
      "▁yeteri": 6787,
      "▁zirv": 6788,
      "▁sec": 6789,
      "▁el": 6790,
      "▁ert": 6791,
      "##■": 6792,
      "▁ayrılıp": 6793,
      "▁gu": 6794,
      "▁uzer": 6795,
      "##oma": 6796,
      "▁west": 6797,
      "▁yoksun": 6798,
      "▁duny": 6799,
      "▁yılının": 6800,
      "##aladı": 6801,
      "##iyle": 6802,
      "▁sun": 6803,
      "▁alım": 6804,
      "▁konfor": 6805,
      "▁ekm": 6806,
      "▁izliyor": 6807,
      "▁tic": 6808,
      "##gis": 6809,
      "▁omer": 6810,
      "▁yakindi": 6811,
      "▁detroit'ten": 6812,
      "##adan": 6813,
      "▁dekor": 6814,
      "▁sınıfı": 6815,
      "▁yapmak": 6816,
      "▁phoeni": 6817,
      "▁bilmiyorum": 6818,
      "▁komur": 6819,
      "▁ser": 6820,
      "▁sip": 6821,
      "▁guzel": 6822,
      "##fik": 6823,
      "▁12": 6824,
      "▁netic": 6825,
      "▁dakikada": 6826,
      "##san": 6827,
      "##tak": 6828,
      "▁1/8": 6829,
      "▁fonları": 6830,
      "▁senin": 6831,
      "##antaj": 6832,
      "▁birbirimiz": 6833,
      "##duk": 6834,
      "##rilyon": 6835,
      "▁5/8": 6836,
      "▁toronto'ya": 6837,
      "##sizlik": 6838,
      "##emmel": 6839,
      "##'ndan": 6840,
      "##acagım": 6841,
      "##uv": 6842,
      "▁goster": 6843,
      "▁canım": 6844,
      "##ımları": 6845,
      "▁seattle": 6846,
      "##gel": 6847,
      "##ılır": 6848,
      "▁3.8": 6849,
      "▁kesinlikle": 6850,
      "▁ucak": 6851,
      "▁sinem": 6852,
      "▁japonya": 6853,
      "▁ola": 6854,
      "▁laci": 6855,
      "##tum": 6856,
      "▁temizdi": 6857,
      "▁zorunda": 6858,
      "##rut": 6859,
      "##alık": 6860,
      "##.19": 6861,
      "▁kısk": 6862,
      "▁ikna": 6863,
      "▁alamadik": 6864,
      "▁yumur": 6865,
      "▁nic": 6866,
      "▁keskin": 6867,
      "▁yaslı": 6868,
      "##imli": 6869,
      "▁rus": 6870,
      "▁enerji": 6871,
      "▁onem": 6872,
      "▁kurb": 6873,
      "▁yun": 6874,
      "▁lehman": 6875,
      "▁flori": 6876,
      "▁donus": 6877,
      "##mez": 6878,
      "▁lim": 6879,
      "▁musa": 6880,
      "##ley": 6881,
      "▁mulk": 6882,
      "##masın": 6883,
      "▁alınması": 6884,
      "##lama": 6885,
      "▁grup": 6886,
      "▁esya": 6887,
      "▁mide": 6888,
      "##43": 6889,
      "▁alakali": 6890,
      "▁kard": 6891,
      "▁baslay": 6892,
      "##lah": 6893,
      "▁yuzlu": 6894,
      "▁bunun": 6895,
      "▁sirketi": 6896,
      "▁sırt": 6897,
      "##larına": 6898,
      "▁endek": 6899,
      "▁kasım'da": 6900,
      "▁bazen": 6901,
      "▁kayb": 6902,
      "▁dısında": 6903,
      "▁para": 6904,
      "▁hareket": 6905,
      "▁bask": 6906,
      "▁194": 6907,
      "##madıgını": 6908,
      "▁etmedi": 6909,
      "▁kub": 6910,
      "▁biriydi": 6911,
      "▁anlattı": 6912,
      "▁sistem": 6913,
      "▁kons": 6914,
      "##88": 6915,
      "▁catıs": 6916,
      "▁sıc": 6917,
      "▁termal": 6918,
      "▁hizmetten": 6919,
      "▁bekledigim": 6920,
      "▁zay": 6921,
      "▁ederiz": 6922,
      "▁tat": 6923,
      "▁dunku": 6924,
      "▁mon": 6925,
      "▁ıcı": 6926,
      "▁ucusa": 6927,
      "▁nori": 6928,
      "##lu": 6929,
      "##ums": 6930,
      "▁ittif": 6931,
      "▁milwaukee'ye": 6932,
      "##amayacagını": 6933,
      "▁mendi": 6934,
      "##oks": 6935,
      "▁kendi": 6936,
      "▁koltu": 6937,
      "▁yerli": 6938,
      "▁ucusta": 6939,
      "▁erkenden": 6940,
      "##>": 6941,
      "▁havaalan": 6942,
      "▁cogu": 6943,
      "▁herkese": 6944,
      "▁kendinde": 6945,
      "▁teor": 6946,
      "▁havası": 6947,
      "▁bomb": 6948,
      "▁pasa": 6949,
      "▁birden": 6950,
      "▁mich": 6951,
      "▁kendimi": 6952,
      "▁te": 6953,
      "▁kavus": 6954,
      "▁of": 6955,
      "##mıyor": 6956,
      "▁net": 6957,
      "##ish": 6958,
      "▁yine": 6959,
      "##wood": 6960,
      "▁endustr": 6961,
      "▁oyun": 6962,
      "▁kalmadigim": 6963,
      "▁sah": 6964,
      "##mem": 6965,
      "▁bile": 6966,
      "##yol": 6967,
      "▁cel": 6968,
      "##emiyorum": 6969,
      "▁zavallı": 6970,
      "##sunuz": 6971,
      "▁dokuz": 6972,
      "▁kızlar": 6973,
      "▁temmuz'da": 6974,
      "▁mem": 6975,
      "##egi": 6976,
      "##ıyoruz": 6977,
      "▁yoneticileri": 6978,
      "▁enf": 6979,
      "▁ilave": 6980,
      "▁haklı": 6981,
      "▁istifa": 6982,
      "▁yuzden": 6983,
      "##adet": 6984,
      "##atif": 6985,
      "▁*": 6986,
      "##uyorlar": 6987,
      "##eleriyle": 6988,
      "▁koca": 6989,
      "▁tumu": 6990,
      "▁istedim": 6991,
      "##elli": 6992,
      "▁edilecek": 6993,
      "▁kavr": 6994,
      "▁inanc": 6995,
      "▁tuk": 6996,
      "▁ozellikle": 6997,
      "▁3/": 6998,
      "▁39": 6999,
      "▁ayır": 7000,
      "▁arabayı": 7001,
      "##ıcık": 7002,
      "▁piyasaları": 7003,
      "▁itibaren": 7004,
      "##unden": 7005,
      "##medik": 7006,
      "▁adalet": 7007,
      "##0.4": 7008,
      "▁kur": 7009,
      "##ilere": 7010,
      "▁izmir": 7011,
      "##ımız": 7012,
      "▁ste": 7013,
      "▁1986": 7014,
      "▁kırk": 7015,
      "##agan": 7016,
      "▁del": 7017,
      "##ista": 7018,
      "▁sayılı": 7019,
      "▁izlen": 7020,
      "▁d": 7021,
      "▁6.25": 7022,
      "▁cif": 7023,
      "##larındaki": 7024,
      "▁ediyordu": 7025,
      "##amı": 7026,
      "##eyim": 7027,
      "▁yen'e": 7028,
      "▁yarat": 7029,
      "##cısı": 7030,
      "▁niye": 7031,
      "▁westchester": 7032,
      "▁bagımsız": 7033,
      "##vel": 7034,
      "##larda": 7035,
      "▁durdu": 7036,
      "▁namaz": 7037,
      "▁islemlerde": 7038,
      "▁lor": 7039,
      "##esi": 7040,
      "##36": 7041,
      "▁acent": 7042,
      "▁yasat": 7043,
      "▁ceken": 7044,
      "##ıtır": 7045,
      "▁bulmaya": 7046,
      "##1": 7047,
      "▁tepki": 7048,
      "##diniz": 7049,
      "▁boylu": 7050,
      "▁endisel": 7051,
      "▁kararlı": 7052,
      "▁det": 7053,
      "▁istemez": 7054,
      "▁mahkem": 7055,
      "▁0.": 7056,
      "▁dunyada": 7057,
      "▁acıl": 7058,
      "##innati": 7059,
      "▁mektu": 7060,
      "##urken": 7061,
      "##ps": 7062,
      "▁yit": 7063,
      "##_": 7064,
      "▁yapıyor": 7065,
      "▁verici": 7066,
      "▁capında": 7067,
      "##irler": 7068,
      "▁karın": 7069,
      "##uzel": 7070,
      "▁dakik": 7071,
      "▁huz": 7072,
      "▁asil": 7073,
      "▁yok": 7074,
      "##ancı": 7075,
      "▁gunduz": 7076,
      "▁paraya": 7077,
      "##digine": 7078,
      "▁paylas": 7079,
      "##dınız": 7080,
      "▁bıcak": 7081,
      "▁kac": 7082,
      "▁olurdu": 7083,
      "▁coktu": 7084,
      "▁insanlara": 7085,
      "▁kapıya": 7086,
      "▁gıda": 7087,
      "▁196": 7088,
      "##ilm": 7089,
      "▁art": 7090,
      "▁kenara": 7091,
      "##\\": 7092,
      "▁kazanan": 7093,
      "▁sanırım": 7094,
      "▁yapılandır": 7095,
      "##cik": 7096,
      "##der": 7097,
      "▁oynat": 7098,
      "▁7.1": 7099,
      "▁suren": 7100,
      "▁chicago": 7101,
      "▁kara": 7102,
      "▁davası": 7103,
      "▁ind": 7104,
      "▁nedir": 7105,
      "##li": 7106,
      "▁tutuyor": 7107,
      "▁air": 7108,
      "▁personellerin": 7109,
      "▁58": 7110,
      "k": 7111,
      "▁duk": 7112,
      "▁roman": 7113,
      "▁alak": 7114,
      "▁sayıl": 7115,
      "▁holding": 7116,
      "▁dortyuz": 7117,
      "▁kaldik": 7118,
      "▁olmalıydı": 7119,
      "##kın": 7120,
      "▁egil": 7121,
      "▁yapabilir": 7122,
      "▁uygulam": 7123,
      "▁odak": 7124,
      "▁gormek": 7125,
      "▁ulkede": 7126,
      "▁edeb": 7127,
      "▁cumhuriyet": 7128,
      "▁cle": 7129,
      "▁sıgın": 7130,
      "▁firma": 7131,
      "▁fatih": 7132,
      "▁42": 7133,
      "##makla": 7134,
      "##lattı": 7135,
      "##65": 7136,
      "##akk": 7137,
      "▁gidiyorum": 7138,
      "▁merdiven": 7139,
      "##.375": 7140,
      "▁1/": 7141,
      "##eyince": 7142,
      "##rar": 7143,
      "▁lik": 7144,
      "▁oyku": 7145,
      "▁eylul": 7146,
      "▁doga": 7147,
      "##lıgında": 7148,
      "▁sır": 7149,
      "▁herkesin": 7150,
      "##mamıs": 7151,
      "##aya": 7152,
      "▁kav": 7153,
      "▁direk": 7154,
      "▁ısın": 7155,
      "▁esk": 7156,
      "▁77": 7157,
      "▁aksama": 7158,
      "##ilerden": 7159,
      "##45": 7160,
      "▁goz": 7161,
      "▁kontr": 7162,
      "▁gayret": 7163,
      "▁bazı": 7164,
      "▁nas": 7165,
      "▁olmay": 7166,
      "▁asl": 7167,
      "▁kisisel": 7168,
      "▁aksi": 7169,
      "▁lt": 7170,
      "▁ilgisiz": 7171,
      "▁bet": 7172,
      "▁yonlendir": 7173,
      "##re": 7174,
      "##ilmez": 7175,
      "▁otur": 7176,
      "▁fil": 7177,
      "▁kurumsal": 7178,
      "##ladıgı": 7179,
      "##/32": 7180,
      "▁ref": 7181,
      "▁can": 7182,
      "##imleri": 7183,
      "▁anayasa": 7184,
      "##ige": 7185,
      "▁birbirini": 7186,
      "▁olcu": 7187,
      "▁sik": 7188,
      "##imser": 7189,
      "##ayet": 7190,
      "▁ibrahim": 7191,
      "##ogu": 7192,
      "▁cekip": 7193,
      "▁nereden": 7194,
      "▁market": 7195,
      "▁ez": 7196,
      "##iv": 7197,
      "▁fay": 7198,
      "▁2002": 7199,
      "▁protest": 7200,
      "##alt": 7201,
      "▁ote": 7202,
      "▁anahtar": 7203,
      "##izi": 7204,
      "##umda": 7205,
      "▁detay": 7206,
      "##ika": 7207,
      "▁cekmek": 7208,
      "▁teksas": 7209,
      "▁devralma": 7210,
      "▁tah": 7211,
      "▁iceren": 7212,
      "▁saglayacak": 7213,
      "▁afrika": 7214,
      "▁kurban": 7215,
      "##dis": 7216,
      "##lendi": 7217,
      "▁sirketleri": 7218,
      "##.70": 7219,
      "▁dogru": 7220,
      "▁hoslan": 7221,
      "▁beyin": 7222,
      "▁%9": 7223,
      "▁gelir": 7224,
      "▁55": 7225,
      "##gıc": 7226,
      "▁fu": 7227,
      "▁endeksi": 7228,
      "##mun": 7229,
      "##lerini": 7230,
      "▁sonucları": 7231,
      "▁sinirli": 7232,
      "▁yarı": 7233,
      "▁kahkah": 7234,
      "▁lastik": 7235,
      "##aları": 7236,
      "▁anadolu": 7237,
      "##per": 7238,
      "##anci": 7239,
      "▁0.0": 7240,
      "##amaz": 7241,
      "▁ayrı": 7242,
      "▁zamanlar": 7243,
      "##cılar": 7244,
      "▁onceden": 7245,
      "▁yuruy": 7246,
      "▁bolge": 7247,
      "▁17": 7248,
      "▁kadınlar": 7249,
      "##lenir": 7250,
      "▁tesvik": 7251,
      "8": 7252,
      "▁kapsamlı": 7253,
      "▁cak": 7254,
      "▁%20": 7255,
      "▁piyasada": 7256,
      "##ildigi": 7257,
      "▁cıkacak": 7258,
      "▁atese": 7259,
      "##alarını": 7260,
      "##bilir": 7261,
      "▁gozuk": 7262,
      "##orm": 7263,
      "▁diyerek": 7264,
      "▁coban": 7265,
      "▁7\\/8": 7266,
      "▁j.": 7267,
      "##-6": 7268,
      "▁suc": 7269,
      "##oloji": 7270,
      "▁ogret": 7271,
      "▁alarak": 7272,
      "▁2.8": 7273,
      "▁man": 7274,
      "▁43": 7275,
      "▁cocuk": 7276,
      "##00000": 7277,
      "▁saldır": 7278,
      "▁franc": 7279,
      "▁gecti": 7280,
      "▁onumuzdeki": 7281,
      "##ihaz": 7282,
      "▁mıydı": 7283,
      "▁sende": 7284,
      "▁rest": 7285,
      "▁kiler": 7286,
      "▁chicago'ya": 7287,
      "▁yerleri": 7288,
      "▁serbest": 7289,
      "▁oradan": 7290,
      "▁sahipleri": 7291,
      "▁mes": 7292,
      "▁95": 7293,
      "##ecik": 7294,
      "▁oysa": 7295,
      "▁dag": 7296,
      "▁had": 7297,
      "▁1": 7298,
      "▁ede": 7299,
      "##3.9": 7300,
      "▁gelip": 7301,
      "▁cleveland'dan": 7302,
      "▁hol": 7303,
      "▁kitab": 7304,
      "▁cennet": 7305,
      "▁devam": 7306,
      "▁impar": 7307,
      "▁..\"": 7308,
      "▁yatırımcılar": 7309,
      "##alan": 7310,
      "▁onun": 7311,
      "▁north": 7312,
      "##line": 7313,
      "▁has": 7314,
      "▁sovyet": 7315,
      "▁ucaga": 7316,
      "##lerle": 7317,
      "▁endis": 7318,
      "▁civarı": 7319,
      "▁nor": 7320,
      "▁metal": 7321,
      "▁3/8": 7322,
      "##amayacak": 7323,
      "▁dolayısıyla": 7324,
      "▁dipl": 7325,
      "▁cıkarıyor": 7326,
      "▁diplom": 7327,
      "▁mıy": 7328,
      "##tık": 7329,
      "##ılmıs": 7330,
      "##acagız": 7331,
      "▁baslamıstı": 7332,
      "▁zincir": 7333,
      "##lıkta": 7334,
      "##arson": 7335,
      "▁sonuc": 7336,
      "##iber": 7337,
      "▁katıl": 7338,
      "▁sep": 7339,
      "▁bindokuzyuz": 7340,
      "▁4.5": 7341,
      "▁ex": 7342,
      "▁babamın": 7343,
      "▁wash": 7344,
      "##ri": 7345,
      "▁lou": 7346,
      "▁calisan": 7347,
      "▁yas": 7348,
      "▁doner": 7349,
      "##arlan": 7350,
      "▁yag": 7351,
      "▁oldugu": 7352,
      "##isi": 7353,
      "▁cocuga": 7354,
      "▁civ": 7355,
      "▁soyleyen": 7356,
      "▁havayol": 7357,
      "##bucuk": 7358,
      "##gını": 7359,
      "▁cbs": 7360,
      "▁dallas": 7361,
      "▁100000": 7362,
      "▁mustafa": 7363,
      "##kırı": 7364,
      "▁ol": 7365,
      "##ecegine": 7366,
      "▁baba": 7367,
      "▁baslar": 7368,
      "▁ul": 7369,
      "▁arasındaki": 7370,
      "▁teb": 7371,
      "▁elindeki": 7372,
      "##irmi": 7373,
      "▁siyah": 7374,
      "##aturk": 7375,
      "▁mut": 7376,
      "▁tay": 7377,
      "##miz": 7378,
      "▁tatildi": 7379,
      "▁yorgun": 7380,
      "##kal": 7381,
      "▁ardı": 7382,
      "▁bakkal": 7383,
      "▁bug": 7384,
      "▁yoneticisi": 7385,
      "▁din": 7386,
      "##ımızın": 7387,
      "▁198": 7388,
      "▁akıllı": 7389,
      "▁dan": 7390,
      "##lendir": 7391,
      "▁mali": 7392,
      "▁saatlerinde": 7393,
      "▁sozu": 7394,
      ")": 7395,
      "▁ziy": 7396,
      "##im": 7397,
      "▁gogsun": 7398,
      "▁saatlerce": 7399,
      "##qu": 7400,
      "▁karmas": 7401,
      "▁acılan": 7402,
      "▁mıs": 7403,
      "▁kuvvetleri": 7404,
      "##ımı": 7405,
      "▁olum": 7406,
      "▁gosteriyor": 7407,
      "▁ofk": 7408,
      "##ost": 7409,
      "▁kabul": 7410,
      "▁bugun": 7411,
      "▁baglı": 7412,
      "##ael": 7413,
      "-": 7414,
      "▁sozles": 7415,
      "▁uluslararası": 7416,
      "▁onc": 7417,
      "##lamalar": 7418,
      "##uk": 7419,
      "\\": 7420,
      "##lerdir": 7421,
      "▁performansi": 7422,
      "▁kimse": 7423,
      "▁fiyatı": 7424,
      "▁vade": 7425,
      "▁meclis": 7426,
      "▁mutluluk": 7427,
      "▁ofis": 7428,
      "▁71": 7429,
      "▁cuk": 7430,
      "▁iliski": 7431,
      "▁sona": 7432,
      "▁acıklan": 7433,
      "##'ndaki": 7434,
      "▁uygun": 7435,
      "##our": 7436,
      "▁yeri": 7437,
      "▁kurul": 7438,
      "##une": 7439,
      "▁milyon": 7440,
      "▁sesle": 7441,
      "▁ucusunu": 7442,
      "▁ortasında": 7443,
      "▁seyret": 7444,
      "▁murat": 7445,
      "▁harıl": 7446,
      "▁tacoma'ya": 7447,
      "▁yasamak": 7448,
      "▁tuy": 7449,
      "##ya'nın": 7450,
      "▁burası": 7451,
      "##ından": 7452,
      "▁alet": 7453,
      "▁ren": 7454,
      "▁yumus": 7455,
      "▁kımıl": 7456,
      "##ansiyon": 7457,
      "##ogram": 7458,
      "▁ayakkabı": 7459,
      "▁ihrac": 7460,
      "##ıy": 7461,
      "▁mucadel": 7462,
      "▁mas": 7463,
      "##dız": 7464,
      "▁aralarında": 7465,
      "##maması": 7466,
      "▁kaz": 7467,
      "▁hazin": 7468,
      "▁73": 7469,
      "▁renk": 7470,
      "▁yuzunde": 7471,
      "▁insan": 7472,
      "▁onunden": 7473,
      "▁?": 7474,
      "▁aldım": 7475,
      "▁olan": 7476,
      "▁ları": 7477,
      "##asından": 7478,
      "▁67": 7479,
      "##ımızdan": 7480,
      "▁bucuk": 7481,
      "▁asırı": 7482,
      "▁amerikan": 7483,
      "##inde": 7484,
      "▁kims": 7485,
      "##misti": 7486,
      "##malarına": 7487,
      "▁tohum": 7488,
      "##iyorum": 7489,
      "▁odanin": 7490,
      "▁farklı": 7491,
      "▁mi": 7492,
      "▁kaydı": 7493,
      "▁temin": 7494,
      "##nun": 7495,
      "##ran": 7496,
      "##kul": 7497,
      "##ire": 7498,
      "▁soyles": 7499,
      "▁kemal": 7500,
      "▁olası": 7501,
      "▁1987": 7502,
      "▁sozlesme": 7503,
      "▁hil": 7504,
      "▁arm": 7505,
      "▁psik": 7506,
      "▁corap": 7507,
      "▁gid": 7508,
      "▁lo": 7509,
      "▁gibiydi": 7510,
      "##unlu": 7511,
      "▁chicag": 7512,
      "▁dengesi": 7513,
      "▁4.8": 7514,
      "##.625": 7515,
      "##lerindeki": 7516,
      "▁yatırımcıların": 7517,
      "##ginde": 7518,
      "▁sikin": 7519,
      "▁acı": 7520,
      "▁herkesten": 7521,
      "▁seyi": 7522,
      "##'e": 7523,
      "##iya": 7524,
      "▁mecl": 7525,
      "##ene": 7526,
      "▁cid": 7527,
      "▁acar": 7528,
      "▁hacim": 7529,
      "▁isra": 7530,
      "▁londra": 7531,
      "▁turku": 7532,
      "▁mag": 7533,
      "▁yerden": 7534,
      "▁colum": 7535,
      "##tansiy": 7536,
      "▁am": 7537,
      "▁siyaset": 7538,
      "##ede": 7539,
      "##net": 7540,
      "##lil": 7541,
      "##art": 7542,
      "▁dog": 7543,
      "▁islemlerinde": 7544,
      "##cev": 7545,
      "▁benzer": 7546,
      "##esiyle": 7547,
      "▁cogunlukla": 7548,
      "▁bizler": 7549,
      "##40": 7550,
      "▁kalma": 7551,
      "▁savası": 7552,
      "##gunda": 7553,
      "##uyoruz": 7554,
      "▁hay": 7555,
      "▁makam": 7556,
      "▁le": 7557,
      "▁zir": 7558,
      "▁tablo": 7559,
      "▁edebil": 7560,
      "##anbul": 7561,
      "▁karg": 7562,
      "▁kaldı": 7563,
      "▁danısman": 7564,
      "▁yapmadı": 7565,
      "##lardan": 7566,
      "▁gider": 7567,
      "▁inanıyor": 7568,
      "▁personelin": 7569,
      "##.45": 7570,
      "▁ugur": 7571,
      "▁%30": 7572,
      "▁havalim": 7573,
      "##hi": 7574,
      "##ent": 7575,
      "▁korkunc": 7576,
      "##sik": 7577,
      "▁part": 7578,
      "▁bosluk": 7579,
      "▁memphis": 7580,
      "▁altından": 7581,
      "▁erken": 7582,
      "##.3": 7583,
      "▁ayar": 7584,
      "▁getirir": 7585,
      "▁1979": 7586,
      "▁amerika": 7587,
      "▁yık": 7588,
      "##tiy": 7589,
      "▁almaya": 7590,
      "▁sehrin": 7591,
      "▁hala": 7592,
      "▁hissed": 7593,
      "▁1\\/": 7594,
      "▁insanlar": 7595,
      "▁odul": 7596,
      "▁sana": 7597,
      "##agi": 7598,
      "##dokuz": 7599,
      "▁isaret": 7600,
      "▁kalmıs": 7601,
      "▁klas": 7602,
      "▁vermek": 7603,
      "▁gunde": 7604,
      "##ex": 7605,
      "▁konusma": 7606,
      "▁sul": 7607,
      "▁cabuk": 7608,
      "▁rast": 7609,
      "▁karıs": 7610,
      "##imiz": 7611,
      "▁satım": 7612,
      "##meleri": 7613,
      "▁eylem": 7614,
      "▁cıkmaz": 7615,
      "▁0.2": 7616,
      "##liyor": 7617,
      "▁konforlu": 7618,
      "m": 7619,
      "##dıgınız": 7620,
      "▁mail": 7621,
      "▁dobra": 7622,
      "▁sagladı": 7623,
      "▁don": 7624,
      "▁wil": 7625,
      "▁yeterliydi": 7626,
      "▁istek": 7627,
      "▁sa": 7628,
      "##icileri": 7629,
      "▁sohret": 7630,
      "##por": 7631,
      "##iyiz": 7632,
      "▁beh": 7633,
      "▁ittifak": 7634,
      "▁aj": 7635,
      "▁5": 7636,
      "##aydi": 7637,
      "▁erkekler": 7638,
      "▁bo": 7639,
      "▁mutf": 7640,
      "▁turk": 7641,
      "##'i": 7642,
      "▁sampiyon": 7643,
      "▁cic": 7644,
      "##guna": 7645,
      "▁takv": 7646,
      "▁sorunu": 7647,
      "▁fes": 7648,
      "▁vakti": 7649,
      "▁sev": 7650,
      "▁est": 7651,
      "▁60": 7652,
      "▁kampanyalardan": 7653,
      "▁sahiptir": 7654,
      "▁90": 7655,
      "▁deneyim": 7656,
      "▁durum": 7657,
      "▁havayollarında": 7658,
      "##mustum": 7659,
      "▁phoenix'den": 7660,
      "▁bisik": 7661,
      "▁ucretin": 7662,
      "▁beydi": 7663,
      "▁sehri": 7664,
      "▁suruk": 7665,
      "▁or": 7666,
      "▁manzar": 7667,
      "▁gizli": 7668,
      "▁er": 7669,
      "▁havuz": 7670,
      "##ne": 7671,
      "▁gurur": 7672,
      "▁bakıs": 7673,
      "##ersin": 7674,
      "▁menkul": 7675,
      "▁besyuz": 7676,
      "▁mos": 7677,
      "▁uret": 7678,
      "▁1\\/8": 7679,
      "##unca": 7680,
      "▁sigar": 7681,
      "▁yatak": 7682,
      "▁kazancları": 7683,
      "##for": 7684,
      "▁nuk": 7685,
      "▁tasarruf": 7686,
      "▁": 7687,
      "▁min": 7688,
      "▁edecek": 7689,
      "##but": 7690,
      "▁gerceklesti": 7691,
      "##:00-22:30": 7692,
      "▁do": 7693,
      "##dat": 7694,
      "▁8'den": 7695,
      "##eg": 7696,
      "##ugh": 7697,
      "▁anlamak": 7698,
      "▁gitmem": 7699,
      "▁kurulu": 7700,
      "▁denver'de": 7701,
      "▁dolay": 7702,
      "▁kost": 7703,
      "##fez": 7704,
      "▁muhar": 7705,
      "▁aileye": 7706,
      "##lamaları": 7707,
      "▁siv": 7708,
      "##stems": 7709,
      "▁tespit": 7710,
      "▁yoktu": 7711,
      "▁ona": 7712,
      "##.25": 7713,
      "▁soylediler": 7714,
      "▁gures": 7715,
      "##i'nin": 7716,
      "▁kısa": 7717,
      "##medim": 7718,
      "##..": 7719,
      "▁us": 7720,
      "▁seni": 7721,
      "##lıgı": 7722,
      "##isin": 7723,
      "▁hazine": 7724,
      "▁raf": 7725,
      "▁vası": 7726,
      "▁beklem": 7727,
      "##amız": 7728,
      "▁ucretlerini": 7729,
      "▁bab": 7730,
      "##sam": 7731,
      "▁yazar": 7732,
      "▁personelleri": 7733,
      "▁maas": 7734,
      "##rim": 7735,
      "▁onemli": 7736,
      "##age": 7737,
      "▁1.7": 7738,
      "##dukları": 7739,
      "▁tuttur": 7740,
      "▁nedenle": 7741,
      "##ation": 7742,
      "##dır": 7743,
      "▁gide": 7744,
      "▁yız": 7745,
      "▁yen": 7746,
      "▁mesaj": 7747,
      "▁finansman": 7748,
      "▁karan": 7749,
      "▁tuket": 7750,
      "▁incel": 7751,
      "▁ayrıntı": 7752,
      "▁gur": 7753,
      "▁ucusları": 7754,
      "##lilik": 7755,
      "▁sım": 7756,
      "##19": 7757,
      "▁suph": 7758,
      "▁agac": 7759,
      "▁borsa": 7760,
      "▁sabit": 7761,
      "▁mikr": 7762,
      "▁parm": 7763,
      "▁karsıya": 7764,
      "▁olanaklarını": 7765,
      "▁ilac": 7766,
      "▁dunyanın": 7767,
      "▁gectik": 7768,
      "▁kamp": 7769,
      "▁bulan": 7770,
      "▁vurdu": 7771,
      "▁tav": 7772,
      "▁22-23": 7773,
      "▁dusun": 7774,
      "▁2008": 7775,
      "##10": 7776,
      "▁gidis": 7777,
      "##ates": 7778,
      "##detti": 7779,
      "##yız": 7780,
      "▁21": 7781,
      "▁alabilir": 7782,
      "▁istir": 7783,
      "▁vek": 7784,
      "▁yelpaz": 7785,
      "▁havuzlari": 7786,
      "▁veren": 7787,
      "##sın": 7788,
      "▁nur": 7789,
      "▁3.1": 7790,
      "##unu": 7791,
      "##encer": 7792,
      "▁altern": 7793,
      "▁baglantı": 7794,
      "##iyak": 7795,
      "##lası": 7796,
      "▁gog": 7797,
      "▁fingir": 7798,
      "▁vit": 7799,
      "▁tek": 7800,
      "▁halinde": 7801,
      "▁minneapolis'ten": 7802,
      "▁tertemiz": 7803,
      "##kır": 7804,
      "##aguar": 7805,
      "▁gece": 7806,
      "##deri": 7807,
      "▁fe": 7808,
      "▁109": 7809,
      "▁gre": 7810,
      "▁secildi": 7811,
      "##n": 7812,
      "##siy": 7813,
      "##tıklarını": 7814,
      "▁arıyorum": 7815,
      "▁fıkı": 7816,
      "▁gercekles": 7817,
      "▁blok": 7818,
      "##esi'nde": 7819,
      "##land": 7820,
      "▁0.9": 7821,
      "▁isit": 7822,
      "▁98": 7823,
      "▁cıkan": 7824,
      "▁denize": 7825,
      "(": 7826,
      "##5": 7827,
      "##endir": 7828,
      "▁yagmur": 7829,
      "▁savunma": 7830,
      "▁s&": 7831,
      "▁kadının": 7832,
      "▁kadını": 7833,
      "##ir": 7834,
      "▁13.": 7835,
      "▁sahil": 7836,
      "▁ard": 7837,
      "▁bakan": 7838,
      "▁ulkenin": 7839,
      "▁yor": 7840,
      "▁kuzey": 7841,
      "▁3\\/": 7842,
      "▁110": 7843,
      "▁vuc": 7844,
      "▁yiyecek": 7845,
      "##gının": 7846,
      "▁ero": 7847,
      "▁dogrusu": 7848,
      "▁gene": 7849,
      "▁city": 7850,
      "▁gulums": 7851,
      "▁gem": 7852,
      "▁zihn": 7853,
      "##rı": 7854,
      "##'yı": 7855,
      "▁0.1": 7856,
      "▁belediye": 7857,
      "##ilerini": 7858,
      "▁%17": 7859,
      "##inci": 7860,
      "##edil": 7861,
      "##erken": 7862,
      "▁zehir": 7863,
      "##mekten": 7864,
      "▁kullanıl": 7865,
      "▁iler": 7866,
      "▁nufus": 7867,
      "▁cocuklara": 7868,
      "▁cen": 7869,
      "▁baslan": 7870,
      "##akar": 7871,
      "▁ugram": 7872,
      "##anlar": 7873,
      "7": 7874,
      "▁buraya": 7875,
      "▁program": 7876,
      "▁film": 7877,
      "##kil": 7878,
      "▁rek": 7879,
      "▁195": 7880,
      "▁arkasından": 7881,
      "##onu": 7882,
      "##olojik": 7883,
      "▁parc": 7884,
      "▁telefon": 7885,
      "▁buldu": 7886,
      "##abilmek": 7887,
      "▁seattle'ye": 7888,
      "▁kaymak": 7889,
      "▁kis": 7890,
      "▁ailelere": 7891,
      "##ungur": 7892,
      "##bs": 7893,
      "▁fakat": 7894,
      "▁kuru": 7895,
      "▁rich": 7896,
      "▁hulya": 7897,
      "▁cal": 7898,
      "▁elektr": 7899,
      "##udu": 7900,
      "▁herhan": 7901,
      "▁efendim": 7902,
      "▁memnun": 7903,
      "##alara": 7904,
      "▁surekli": 7905,
      "▁yıldır": 7906,
      "##edigini": 7907,
      "▁neresi": 7908,
      "▁tencer": 7909,
      "▁1998": 7910,
      "##ısının": 7911,
      "##ren": 7912,
      "##ter": 7913,
      "▁mahalle": 7914,
      "▁kaliforn": 7915,
      "▁ıskarta": 7916,
      "▁memleket": 7917,
      "▁olanlar": 7918,
      "▁ber": 7919,
      "▁beri": 7920,
      "▁azdi": 7921,
      "##az": 7922,
      "##8'den": 7923,
      "▁!": 7924,
      "▁evinde": 7925,
      "▁dusunuyor": 7926,
      "▁agabey": 7927,
      "▁acıldı": 7928,
      "▁toplum": 7929,
      "▁bulunuyor": 7930,
      "##gında": 7931,
      "▁bey": 7932,
      "▁buyuk": 7933,
      "▁uz": 7934,
      "▁simdilik": 7935,
      "▁proj": 7936,
      "▁zayıf": 7937,
      "▁karar": 7938,
      "▁degistir": 7939,
      "▁duvara": 7940,
      "▁ederler": 7941,
      "▁ut": 7942,
      "f": 7943,
      "##mac": 7944,
      "▁tuf": 7945,
      "▁cercev": 7946,
      "▁orani": 7947,
      "##madim": 7948,
      "##mesiyle": 7949,
      "▁davet": 7950,
      "▁onlardan": 7951,
      "▁gec": 7952,
      "▁lezzetliydi": 7953,
      "##abet": 7954,
      "▁koz": 7955,
      "▁demokr": 7956,
      "▁havayolu": 7957,
      "##likten": 7958,
      "▁kendini": 7959,
      "##eyen": 7960,
      "##'yu": 7961,
      "▁sıkıntı": 7962,
      "▁gorur": 7963,
      "▁boya": 7964,
      "##pa": 7965,
      "▁gore": 7966,
      "##ler": 7967,
      "##siye": 7968,
      "▁guleryuzluydu": 7969,
      "▁mektep": 7970,
      "▁alkıs": 7971,
      "▁ıskar": 7972,
      "▁ikiye": 7973,
      "##yon": 7974,
      "▁kapattı": 7975,
      "##lanmıs": 7976,
      "▁yazı": 7977,
      "▁ferah": 7978,
      "▁kansas": 7979,
      "##adar": 7980,
      "##ori": 7981,
      "▁univ": 7982,
      "▁arasına": 7983,
      "▁dc": 7984,
      "▁begen": 7985,
      "▁sart": 7986,
      "▁tuv": 7987,
      "##mesine": 7988,
      "▁ocak": 7989,
      "▁zamandan": 7990,
      "▁yararlı": 7991,
      "##ise": 7992,
      "▁yemeklerinden": 7993,
      "##lisi": 7994,
      "▁konumunu": 7995,
      "▁kazan": 7996,
      "▁yemeklerden": 7997,
      "##cesine": 7998,
      "▁numara": 7999,
      "▁osmanlı": 8000,
      "▁duz": 8001,
      "##ımızda": 8002,
      "##asına": 8003,
      "##asyon": 8004,
      "▁lis": 8005,
      "##len": 8006,
      "▁50": 8007,
      "▁hel": 8008,
      "▁bana": 8009,
      "▁veril": 8010,
      "▁cıl": 8011,
      "▁boyu": 8012,
      "##anlı": 8013,
      "▁gergin": 8014,
      "##landı": 8015,
      "##ladım": 8016,
      "▁duzenlem": 8017,
      "##amadım": 8018,
      "▁hukuk": 8019,
      "▁kalmadim": 8020,
      "▁nash": 8021,
      "▁ellerini": 8022,
      "▁kayak": 8023,
      "▁sahip": 8024,
      "▁%7.5": 8025,
      "▁gecmis": 8026,
      "▁turlu": 8027,
      "▁pan": 8028,
      "▁degilse": 8029,
      "▁anlasma": 8030,
      "##amamıs": 8031,
      "##adelphia": 8032,
      "##iyorlar": 8033,
      "##oj": 8034,
      "▁agz": 8035,
      "▁kibar": 8036,
      "##yı": 8037,
      "▁az": 8038,
      "##ur": 8039,
      "##tıcı": 8040,
      "▁ikiyuz": 8041,
      "▁2000": 8042,
      "##seniz": 8043,
      "▁7.7": 8044,
      "▁raki": 8045,
      "##evi": 8046,
      "▁saglayan": 8047,
      "##pr": 8048,
      "▁kasır": 8049,
      "▁anlayıs": 8050,
      "##layıp": 8051,
      "▁hamam": 8052,
      "▁yapıl": 8053,
      "▁ick": 8054,
      "▁mel": 8055,
      "▁mola": 8056,
      "▁har": 8057,
      "##dig": 8058,
      "▁kendinize": 8059,
      "▁etme": 8060,
      "##iza": 8061,
      "▁mak": 8062,
      "##37": 8063,
      "▁9": 8064,
      "▁199": 8065,
      "▁iktis": 8066,
      "##cuk": 8067,
      "##esiz": 8068,
      "▁ch": 8069,
      "▁istikrar": 8070,
      "##lik": 8071,
      "▁sizin": 8072,
      "▁sattı": 8073,
      "▁su": 8074,
      "▁yataklar": 8075,
      "▁national": 8076,
      "##oz": 8077,
      "▁bilinc": 8078,
      "##ara": 8079,
      "▁dolayı": 8080,
      "##ann": 8081,
      "▁dısarı": 8082,
      "▁kun": 8083,
      "##dıgından": 8084,
      "▁yeme": 8085,
      "##ıt": 8086,
      "▁imparator": 8087,
      "▁turist": 8088,
      "▁hus": 8089,
      "▁paris": 8090,
      "▁barıs": 8091,
      "▁olmayacak": 8092,
      "▁pol": 8093,
      "▁satıslar": 8094,
      "##vıl": 8095,
      "##uf": 8096,
      "▁marka": 8097,
      "##'den": 8098,
      "▁fırsat": 8099,
      "▁ederken": 8100,
      "##ansız": 8101,
      "##au": 8102,
      "##oloj": 8103,
      "##iciler": 8104,
      "▁kayn": 8105,
      "▁lut": 8106,
      "▁hukumetin": 8107,
      "▁rahatti": 8108,
      "##.43": 8109,
      "▁alıyordu": 8110,
      "▁onlem": 8111,
      "##ayarak": 8112,
      "▁verg": 8113,
      "▁e": 8114,
      "▁prens": 8115,
      "##madik": 8116,
      "▁lezzetli": 8117,
      "##ıyordu": 8118,
      "▁sıkın": 8119,
      "▁62": 8120,
      "▁deger": 8121,
      "▁%50": 8122,
      "▁canlı": 8123,
      "▁guclendir": 8124,
      "▁oteki": 8125,
      "▁birbiri": 8126,
      "▁nit": 8127,
      "▁0.25": 8128,
      "##cek": 8129,
      "▁belirli": 8130,
      "▁ek": 8131,
      "##liginde": 8132,
      "▁ali": 8133,
      "##ov": 8134,
      "▁kisilerin": 8135,
      "▁tahta": 8136,
      "▁endise": 8137,
      "▁turkce": 8138,
      "▁oakland": 8139,
      "▁nes": 8140,
      "▁personellerinden": 8141,
      "▁dayan": 8142,
      "▁cevirdi": 8143,
      "▁cevap": 8144,
      "▁grubu": 8145,
      "##omet": 8146,
      "▁bilgiye": 8147,
      "▁asam": 8148,
      "▁dinlem": 8149,
      "▁taht": 8150,
      "▁hisselerini": 8151,
      "▁ayın": 8152,
      "▁ilgilendiler": 8153,
      "##acık": 8154,
      "▁idi": 8155,
      "##layacak": 8156,
      "##@": 8157,
      "##ento": 8158,
      "##acı": 8159,
      "▁deli": 8160,
      "##manı": 8161,
      "▁saat": 8162,
      "##elerinden": 8163,
      "▁ilgiliydi": 8164,
      "▁kapasit": 8165,
      "##acagı": 8166,
      "##vek": 8167,
      "▁edir": 8168,
      "##it": 8169,
      "▁civarında": 8170,
      "▁reddetti": 8171,
      "▁insana": 8172,
      "▁iti": 8173,
      "▁ingil": 8174,
      "▁ih": 8175,
      "##maktan": 8176,
      "▁washington": 8177,
      "##tedir": 8178,
      "▁anlam": 8179,
      "##likle": 8180,
      "▁odadan": 8181,
      "▁bank": 8182,
      "▁bulus": 8183,
      "▁birlesik": 8184,
      "▁sevin": 8185,
      "▁gol": 8186,
      "▁mahk": 8187,
      "##misler": 8188,
      "▁cep": 8189,
      "▁kuc": 8190,
      "▁bayrak": 8191
    }
  }
}