{
  "version": "1.0",
  "truncation": null,
  "padding": null,
  "added_tokens": [
    {
      "id": 560,
      "content": "[CLS]",
      "single_word": false,
      "lstrip": false,
      "rstrip": false,
      "normalized": false,
      "special": true
    },
    {
      "id": 983,
      "content": "[SEP]",
      "single_word": false,
      "lstrip": false,
      "rstrip": false,
      "normalized": false,
      "special": true
    },
    {
      "id": 2353,
      "content": "[PAD]",
      "single_word": false,
      "lstrip": false,
      "rstrip": false,
      "normalized": false,
      "special": true
    },
    {
      "id": 3491,
      "content": "[MASK]",
      "single_word": false,
      "lstrip": false,
      "rstrip": false,
      "normalized": false,
      "special": true
    },
    {
      "id": 3685,
      "content": "[UNK]",
      "single_word": false,
      "lstrip": false,
      "rstrip": false,
      "normalized": false,
      "special": true
    }
  ],
  "normalizer": {
    "type": "Sequence",
    "normalizers": [
      {
        "type": "NFD"
      },
      {
        "type": "Lowercase"
      },
      {
        "type": "StripAccents"
      }
    ]
  },
  "pre_tokenizer": {
    "type": "Sequence",
    "pretokenizers": [
      {
        "type": "Metaspace",
        "replacement": "▁",
        "prepend_scheme": "always",
        "split": true
      }
    ]
  },
  "post_processor": {
    "type": "TemplateProcessing",
    "single": [
      {
        "SpecialToken": {
          "id": "[CLS]",
          "type_id": 0
        }
      },
      {
        "Sequence": {
          "id": "A",
          "type_id": 0
        }
      },
      {
        "SpecialToken": {
          "id": "[SEP]",
          "type_id": 0
        }
      }
    ],
    "pair": [
      {
        "SpecialToken": {
          "id": "[CLS]",
          "type_id": 0
        }
      },
      {
        "Sequence": {
          "id": "A",
          "type_id": 0
        }
      },
      {
        "SpecialToken": {
          "id": "[SEP]",
          "type_id": 0
        }
      },
      {
        "Sequence": {
          "id": "B",
          "type_id": 1
        }
      },
      {
        "SpecialToken": {
          "id": "[SEP]",
          "type_id": 1
        }
      }
    ],
    "special_tokens": {
      "[CLS]": {
        "id": "[CLS]",
        "ids": [
          560
        ],
        "tokens": [
          "[CLS]"
        ]
      },
      "[SEP]": {
        "id": "[SEP]",
        "ids": [
          983
        ],
        "tokens": [
          "[SEP]"
        ]
      }
    }
  },
  "decoder": {
    "type": "Metaspace",
    "replacement": "▁",
    "prepend_scheme": "always",
    "split": true
  },
  "model": {
    "type": "BPE",
    "dropout": null,
    "unk_token": "[UNK]",
    "continuing_subword_prefix": null,
    "end_of_word_suffix": null,
    "fuse_unk": false,
    "byte_fallback": false,
    "ignore_merges": false,
    "vocab": {
      "iss": 0,
      "▁yasama": 1,
      "▁agız": 2,
      "ledi": 3,
      "▁pr": 4,
      "detti": 5,
      "▁etmek": 6,
      "▁40": 7,
      "▁cum": 8,
      "▁ısı": 9,
      "fi": 10,
      "▁!..": 11,
      "▁as": 12,
      "▁alamadim": 13,
      "▁gorun": 14,
      "▁\"": 15,
      "▁lake": 16,
      "mek": 17,
      "▁artık": 18,
      "▁ad": 19,
      "lerinde": 20,
      "▁duy": 21,
      "▁hast": 22,
      "vet": 23,
      "▁washington'dan": 24,
      "evizyon": 25,
      "lugu": 26,
      "▁%3.4": 27,
      "▁yonel": 28,
      "▁ise": 29,
      "▁tezgah": 30,
      "anlar": 31,
      "▁tesek": 32,
      "dak": 33,
      "▁gom": 34,
      "esem": 35,
      "▁ec": 36,
      "▁ha": 37,
      "▁must": 38,
      "▁13": 39,
      "▁aras": 40,
      "gah": 41,
      "imiz": 42,
      "ly": 43,
      "▁tedav": 44,
      "suz": 45,
      "▁sek": 46,
      "▁ticari": 47,
      "ciler": 48,
      "▁%11": 49,
      "anlık": 50,
      "▁.)": 51,
      "▁sıng": 52,
      "▁sırada": 53,
      "▁tıpıs": 54,
      "▁dukkan": 55,
      "▁%13": 56,
      "▁ili": 57,
      "▁gor": 58,
      "▁vaz": 59,
      "negin": 60,
      "tıs": 61,
      "▁yogun": 62,
      "▁terc": 63,
      "▁satın": 64,
      "▁gez": 65,
      "…": 66,
      "▁%9.": 67,
      "▁dib": 68,
      "las": 69,
      "▁kelim": 70,
      "sizdi": 71,
      "sam": 72,
      "▁federal": 73,
      "abil": 74,
      "emez": 75,
      "up": 76,
      "▁niyet": 77,
      "▁karsısında": 78,
      "mak": 79,
      "▁ayr": 80,
      "▁coz": 81,
      "▁bende": 82,
      "▁%3.": 83,
      "isk": 84,
      "▁yat": 85,
      "▁siyas": 86,
      "yuz": 87,
      "▁sapır": 88,
      "dır": 89,
      "▁guleryuz": 90,
      "▁hin": 91,
      "▁yeniden": 92,
      "▁dus": 93,
      "ess": 94,
      "▁mor": 95,
      "'": 96,
      "▁verdi": 97,
      "▁artıs": 98,
      "▁tak": 99,
      "▁buy": 100,
      "asız": 101,
      "▁10": 102,
      "▁birdenbire": 103,
      "▁%3.1": 104,
      "▁indir": 105,
      "▁dar": 106,
      "▁28": 107,
      "▁plan": 108,
      "kara": 109,
      "▁arasında": 110,
      "▁yerinde": 111,
      "and": 112,
      ".6": 113,
      "ih": 114,
      "▁ulasımı": 115,
      "▁y": 116,
      "▁ib": 117,
      "▁olustur": 118,
      "▁yur": 119,
      "▁olmaz": 120,
      "▁ap": 121,
      "ınca": 122,
      "cileri": 123,
      "▁alacak": 124,
      "▁konum": 125,
      "▁col": 126,
      "madı": 127,
      "▁ulas": 128,
      "▁operasyon": 129,
      "▁yaptirmadim": 130,
      "▁kr": 131,
      "▁yaz": 132,
      "▁ph": 133,
      "▁heyec": 134,
      "▁yalan": 135,
      "▁arastır": 136,
      "'de": 137,
      ":00-22:30": 138,
      "▁nasıl": 139,
      "ven": 140,
      "▁genis": 141,
      "hut": 142,
      "▁u": 143,
      "apur": 144,
      "▁yetersiz": 145,
      "▁yasan": 146,
      "▁ka": 147,
      "ilig": 148,
      "▁dow": 149,
      "sem": 150,
      "alanı": 151,
      "▁yum": 152,
      "▁genc": 153,
      "▁so": 154,
      "ılır": 155,
      "▁isteyen": 156,
      "bol": 157,
      "▁ydı": 158,
      "▁sey": 159,
      "▁once": 160,
      "ık": 161,
      "▁yab": 162,
      "▁indian": 163,
      "agını": 164,
      "▁rez": 165,
      "▁kut": 166,
      "ısın": 167,
      "▁arab": 168,
      "gor": 169,
      "▁mily": 170,
      "▁%6.90": 171,
      "lıgına": 172,
      "▁ciz": 173,
      "▁basarılı": 174,
      "▁hisset": 175,
      "▁birinin": 176,
      "▁mar": 177,
      "ıs": 178,
      "▁1989-": 179,
      "▁bitir": 180,
      "dılar": 181,
      "ig": 182,
      "ımız": 183,
      "▁ilgilendi": 184,
      "▁yagm": 185,
      "siye": 186,
      "▁bilgisayar": 187,
      "▁oden": 188,
      "▁ne": 189,
      "kat": 190,
      "esini": 191,
      "▁karak": 192,
      "evi": 193,
      "▁ince": 194,
      "▁giris": 195,
      "mıyor": 196,
      "enkul": 197,
      "▁ra": 198,
      "▁universit": 199,
      "co": 200,
      "▁yaptir": 201,
      "▁gelis": 202,
      "tır": 203,
      "▁16": 204,
      "▁hangileri": 205,
      "arası": 206,
      "▁doları": 207,
      "lerle": 208,
      "▁sınır": 209,
      "▁14": 210,
      "▁ton": 211,
      "▁tar": 212,
      "▁henuz": 213,
      "aket": 214,
      "ali": 215,
      "da": 216,
      "▁iste": 217,
      "▁sir": 218,
      "▁adı": 219,
      "▁'d": 220,
      "▁ov": 221,
      "▁asagı": 222,
      "▁ak": 223,
      "larım": 224,
      "–": 225,
      "unun": 226,
      "isim": 227,
      "▁first": 228,
      "▁uretim": 229,
      "▁yog": 230,
      "ımı": 231,
      "▁anne": 232,
      "ant": 233,
      "ville": 234,
      "▁temel": 235,
      "▁ısıl": 236,
      "anda": 237,
      "▁yerel": 238,
      "▁ifade": 239,
      "▁durgun": 240,
      "eket": 241,
      "ep": 242,
      "ize": 243,
      "es": 244,
      "gunu": 245,
      "adelphia": 246,
      "■": 247,
      "mıs": 248,
      "▁deprem": 249,
      "▁sehr": 250,
      "▁anket": 251,
      "ının": 252,
      "ustos": 253,
      "imize": 254,
      "▁dagıt": 255,
      "duncu": 256,
      "▁ortal": 257,
      "▁balık": 258,
      "▁hal": 259,
      "▁tac": 260,
      "▁boy": 261,
      "▁cift": 262,
      "▁onay": 263,
      "▁;": 264,
      "meleri": 265,
      "▁yanlıs": 266,
      "ed": 267,
      "digim": 268,
      "ıldı": 269,
      "isler": 270,
      "▁ayı": 271,
      "▁tok": 272,
      "0'": 273,
      "▁tesisten": 274,
      "▁enflasyon": 275,
      "dım": 276,
      "▁seyahat": 277,
      "ca": 278,
      "layacak": 279,
      "▁gecer": 280,
      "▁bag": 281,
      "▁tum": 282,
      "▁if": 283,
      "▁kardes": 284,
      "teki": 285,
      "▁annem": 286,
      "▁spor": 287,
      "▁indianapolis'ten": 288,
      "▁uluslar": 289,
      "▁duyg": 290,
      "az": 291,
      "ans": 292,
      "▁akl": 293,
      "▁kent": 294,
      "▁misin": 295,
      "32": 296,
      "▁oc": 297,
      "▁cogun": 298,
      "ayı": 299,
      "▁bicim": 300,
      "edi": 301,
      "▁in": 302,
      "▁muk": 303,
      "▁imkanlari": 304,
      "▁yel": 305,
      "ve": 306,
      "▁yan": 307,
      "▁acıklam": 308,
      "idik": 309,
      "▁iliskin": 310,
      "▁iki": 311,
      "ost": 312,
      "okr": 313,
      "▁cem": 314,
      "▁ugr": 315,
      "met": 316,
      "▁mat": 317,
      "▁den": 318,
      "▁j": 319,
      "▁onune": 320,
      "utur": 321,
      "erken": 322,
      "erler": 323,
      "unden": 324,
      "▁at": 325,
      "▁anlay": 326,
      "menin": 327,
      "▁general": 328,
      "▁yukselt": 329,
      "van": 330,
      "▁yetersizdi": 331,
      "r": 332,
      "▁yakın": 333,
      "ıg": 334,
      "lige": 335,
      "▁mektup": 336,
      "-6": 337,
      "▁bize": 338,
      "▁akıl": 339,
      "ardan": 340,
      "▁altında": 341,
      "egas": 342,
      "eydi": 343,
      "ey": 344,
      ".9": 345,
      "▁derec": 346,
      "▁nik": 347,
      ".2": 348,
      "▁malzem": 349,
      "ma": 350,
      "uyla": 351,
      "▁1.2": 352,
      "eci": 353,
      "▁kalk": 354,
      "tur": 355,
      "▁aradi": 356,
      "▁kaldır": 357,
      "▁musta": 358,
      "▁yemekler": 359,
      "▁gunleri": 360,
      "▁istif": 361,
      "id": 362,
      "▁californ": 363,
      "▁uzman": 364,
      "▁ayında": 365,
      "▁mısın": 366,
      "mesini": 367,
      "▁bununla": 368,
      "taj": 369,
      "are": 370,
      "▁ir": 371,
      ":": 372,
      "▁otomobil": 373,
      "▁dogr": 374,
      "▁birka": 375,
      "▁nere": 376,
      "▁p": 377,
      "ec": 378,
      "▁odem": 379,
      "▁isi": 380,
      "▁%3.43": 381,
      "bet": 382,
      "emin": 383,
      "▁w": 384,
      "aların": 385,
      "▁ces": 386,
      "ini": 387,
      "ustu": 388,
      "▁resmi": 389,
      "▁lu": 390,
      "gın": 391,
      "▁dal": 392,
      "▁hasta": 393,
      "▁kredi": 394,
      "▁dogu": 395,
      "▁siy": 396,
      "mıslar": 397,
      "▁gerek": 398,
      "▁bircok": 399,
      "▁tıklım": 400,
      "▁anad": 401,
      "00": 402,
      "kin": 403,
      "'nda": 404,
      "ansız": 405,
      "▁indi": 406,
      "”": 407,
      "aten": 408,
      "▁di": 409,
      "▁bon": 410,
      "▁vak": 411,
      "▁deng": 412,
      "▁baskan": 413,
      "▁dort": 414,
      "▁bildir": 415,
      "▁vat": 416,
      "di": 417,
      "▁yasa": 418,
      "▁city'den": 419,
      "▁75": 420,
      "▁yukselerek": 421,
      "er": 422,
      "▁seviyesine": 423,
      "ılım": 424,
      "▁%15": 425,
      "for": 426,
      "▁yetk": 427,
      "iforn": 428,
      "alan": 429,
      "▁aslında": 430,
      "▁istanbul": 431,
      "o": 432,
      "▁tarafından": 433,
      "▁united": 434,
      "onom": 435,
      "asıyla": 436,
      "esinden": 437,
      "▁vermis": 438,
      "ustuk": 439,
      "▁ik": 440,
      "▁alıcı": 441,
      "ip": 442,
      "lek": 443,
      "▁kendin": 444,
      "▁chicago'dan": 445,
      "▁fiyat": 446,
      "▁br": 447,
      "▁rap": 448,
      "ı": 449,
      "▁odam": 450,
      "mustu": 451,
      "▁artır": 452,
      "$": 453,
      "▁hep": 454,
      "uyorlar": 455,
      "▁sekiz": 456,
      "▁deniz": 457,
      "isinde": 458,
      "▁bizde": 459,
      "arken": 460,
      "▁kim": 461,
      "▁ders": 462,
      "iran": 463,
      "▁%": 464,
      "▁jos": 465,
      "▁bagır": 466,
      "▁saglam": 467,
      "das": 468,
      "ul": 469,
      "▁3": 470,
      "▁yetkilileri": 471,
      "egi": 472,
      "▁.": 473,
      "▁yalap": 474,
      "imden": 475,
      "ham": 476,
      "▁tut": 477,
      "▁hayal": 478,
      "▁york'tan": 479,
      "acag": 480,
      "▁yaptı": 481,
      "▁1.1": 482,
      "▁sim": 483,
      "yıl": 484,
      "eceg": 485,
      "v": 486,
      "▁tavsiye": 487,
      "oeni": 488,
      "▁cocuklar": 489,
      "▁%99": 490,
      "▁pu": 491,
      "uma": 492,
      "aydi": 493,
      "▁worth": 494,
      "▁ayn": 495,
      "▁yardım": 496,
      "▁prob": 497,
      "ıyordu": 498,
      "▁sov": 499,
      "alara": 500,
      "lanıyor": 501,
      "▁yasında": 502,
      "lı": 503,
      "ast": 504,
      "▁peki": 505,
      "▁alıp": 506,
      "ums": 507,
      "▁100": 508,
      "asında": 509,
      "sil": 510,
      "▁kaybet": 511,
      "bu": 512,
      "▁etmeye": 513,
      "il": 514,
      "▁bulunan": 515,
      "▁..": 516,
      "▁iyice": 517,
      "dig": 518,
      "▁iceri": 519,
      "▁av": 520,
      "iya": 521,
      "▁koyun": 522,
      "▁o": 523,
      "▁seker": 524,
      "ise": 525,
      "otte": 526,
      "▁karsılas": 527,
      "▁mah": 528,
      "▁ask": 529,
      "undeki": 530,
      "▁yukseldi": 531,
      "▁dev": 532,
      "▁dc'ye": 533,
      "▁varsa": 534,
      "▁devlet": 535,
      "▁inan": 536,
      "ecegini": 537,
      "liyor": 538,
      "▁muh": 539,
      "▁it": 540,
      "▁kuv": 541,
      "▁%8.2": 542,
      "▁sıkır": 543,
      "lerinden": 544,
      "▁hisseleri": 545,
      "▁ornegin": 546,
      "▁dusuktu": 547,
      "▁birles": 548,
      "▁cent": 549,
      "▁mc": 550,
      "▁duyar": 551,
      "ku": 552,
      "▁.'": 553,
      "▁istemiyorum": 554,
      "de": 555,
      "▁%85": 556,
      "gını": 557,
      "▁nisan": 558,
      "▁oz": 559,
      "[CLS]": 560,
      "rar": 561,
      "▁bunlardan": 562,
      "▁toplantı": 563,
      "ez": 564,
      "▁begenmedim": 565,
      "ihaz": 566,
      "▁olumlu": 567,
      "▁savun": 568,
      "alarını": 569,
      "▁ab": 570,
      "▁yatırımcı": 571,
      "▁48": 572,
      "ız": 573,
      "▁veririm": 574,
      "▁servisi": 575,
      "▁cit": 576,
      "▁sar": 577,
      "▁tit": 578,
      "izm": 579,
      "▁evi": 580,
      "▁dustu": 581,
      "▁yol": 582,
      "ardı": 583,
      "aca": 584,
      "▁istik": 585,
      "▁mark": 586,
      "▁yanl": 587,
      "▁diger": 588,
      "ana": 589,
      "elerek": 590,
      "▁calis": 591,
      "▁sel": 592,
      "▁ilg": 593,
      "▁birbirler": 594,
      "ısıyla": 595,
      "▁yasam": 596,
      "▁belli": 597,
      "▁almıs": 598,
      "▁strate": 599,
      "sizlik": 600,
      "um": 601,
      "▁muz": 602,
      "▁konustu": 603,
      "st": 604,
      "▁sade": 605,
      "▁yardımcısı": 606,
      "▁basit": 607,
      "▁delta": 608,
      "▁bah": 609,
      "inn": 610,
      "▁yurut": 611,
      "alarına": 612,
      "▁0": 613,
      "▁onceki": 614,
      "arak": 615,
      "ro": 616,
      "eyn": 617,
      "▁biri": 618,
      "'s": 619,
      "▁kes": 620,
      "▁nak": 621,
      "ation": 622,
      "▁kendiler": 623,
      "o'ya": 624,
      "▁ceyrek": 625,
      "▁zevk": 626,
      "▁onu": 627,
      "▁azalt": 628,
      "▁basladı": 629,
      "udu": 630,
      "lanmıs": 631,
      "▁yedi": 632,
      "▁california": 633,
      "▁lung": 634,
      "▁kend": 635,
      "▁tı": 636,
      "iyet": 637,
      "▁dam": 638,
      "▁n": 639,
      "▁sorum": 640,
      "aret": 641,
      "▁cap": 642,
      "▁vergi": 643,
      "asyonu": 644,
      "▁iz": 645,
      "▁uretic": 646,
      "▁hepsinin": 647,
      "▁kalın": 648,
      "▁yirmi": 649,
      "lerine": 650,
      "▁arac": 651,
      "▁basv": 652,
      "▁cuma": 653,
      "▁houston": 654,
      "▁yam": 655,
      "▁sı": 656,
      "▁sure": 657,
      "▁soguk": 658,
      "oy": 659,
      "▁phoenix": 660,
      "▁cev": 661,
      "uya": 662,
      "▁2.7": 663,
      "▁4": 664,
      "▁birlikte": 665,
      "mur": 666,
      "imli": 667,
      "▁azal": 668,
      "▁bulmak": 669,
      "▁kars": 670,
      "▁toplam": 671,
      "kar": 672,
      "▁kom": 673,
      "'tan": 674,
      "▁uy": 675,
      "unu": 676,
      "▁fort": 677,
      "▁sanki": 678,
      "ıcı": 679,
      "rily": 680,
      "iniz": 681,
      "▁fotograf": 682,
      "▁charlotte": 683,
      "tıyor": 684,
      "▁yasıyor": 685,
      "▁sonunda": 686,
      "▁yardim": 687,
      "▁avukat": 688,
      "ge": 689,
      "'in": 690,
      "▁yapılan": 691,
      "ıp": 692,
      "1-19": 693,
      "▁dı": 694,
      "▁%80": 695,
      "tik": 696,
      "▁bıraktı": 697,
      "▁gel": 698,
      "▁listel": 699,
      "uluk": 700,
      "din": 701,
      "▁motor": 702,
      "▁kacın": 703,
      "▁siddet": 704,
      "▁sonraki": 705,
      "▁simdi": 706,
      "▁tir": 707,
      "etin": 708,
      "▁han": 709,
      "obil": 710,
      "cusu": 711,
      "▁19": 712,
      "ph": 713,
      "lerde": 714,
      "arlan": 715,
      "▁sirketin": 716,
      "▁puan": 717,
      "|": 718,
      "▁size": 719,
      "▁kotuydu": 720,
      "▁yakin": 721,
      "▁washington'a": 722,
      "ersiz": 723,
      "imde": 724,
      "▁meh": 725,
      "▁surec": 726,
      "▁nih": 727,
      "elik": 728,
      "▁silah": 729,
      "▁dogal": 730,
      "▁adam": 731,
      "aga": 732,
      "▁daha": 733,
      "sal": 734,
      "▁bul": 735,
      "iydi": 736,
      "▁sav": 737,
      "▁contin": 738,
      "sk": 739,
      "..": 740,
      "▁ongor": 741,
      "▁aksamı": 742,
      "▁savas": 743,
      "te": 744,
      "▁kural": 745,
      "tal": 746,
      "cı": 747,
      "digimiz": 748,
      "▁degillerdi": 749,
      "0000": 750,
      "▁bayram": 751,
      "▁teh": 752,
      "▁cleveland": 753,
      "▁insanları": 754,
      "▁onlara": 755,
      "ırdı": 756,
      "▁birinci": 757,
      "▁beb": 758,
      "▁cumartesi": 759,
      "▁25": 760,
      "siyon": 761,
      "▁faturam": 762,
      "▁ataturk": 763,
      "▁ihtiyar": 764,
      "▁acisindan": 765,
      "ırlar": 766,
      "▁gorusuldu": 767,
      "▁seh": 768,
      "ga": 769,
      "▁stok": 770,
      "▁baltimore'ye": 771,
      "orn": 772,
      "▁sil": 773,
      "▁soylem": 774,
      "▁etmis": 775,
      "dugunu": 776,
      "▁52": 777,
      "inden": 778,
      "▁bes": 779,
      "▁yemegi": 780,
      "▁fiyata": 781,
      "▁alman": 782,
      "b": 783,
      "▁pilot": 784,
      "▁ko": 785,
      "▁tutun": 786,
      "tere": 787,
      "▁gelistir": 788,
      "▁aksam": 789,
      "▁cek": 790,
      "dıgım": 791,
      "▁mu": 792,
      "▁kaliteli": 793,
      "▁listeleyin": 794,
      "▁1/4": 795,
      "▁tekn": 796,
      "▁park": 797,
      "▁but": 798,
      "san": 799,
      "▁ki": 800,
      "ef": 801,
      "▁kurulus": 802,
      "yon": 803,
      "▁ucuncu": 804,
      "▁sıra": 805,
      "▁duzen": 806,
      "▁oluyor": 807,
      "▁avuk": 808,
      "▁alma": 809,
      "yalar": 810,
      "▁salı": 811,
      "▁yoksa": 812,
      "▁fikir": 813,
      "▁denver": 814,
      "▁hizmeti": 815,
      "dı": 816,
      "▁yapacak": 817,
      "abı": 818,
      "iyak": 819,
      "▁manz": 820,
      "agın": 821,
      "▁derin": 822,
      "▁pahaliydi": 823,
      "egin": 824,
      "▁37": 825,
      "▁unit": 826,
      "oh": 827,
      "yla": 828,
      "iyorum": 829,
      "▁bay": 830,
      "▁belirtti": 831,
      "▁okul": 832,
      "▁sabahı": 833,
      "▁teknoloj": 834,
      "▁ogren": 835,
      "▁durdur": 836,
      "▁ısık": 837,
      "▁derli": 838,
      "sas": 839,
      "▁kanı": 840,
      "▁mac": 841,
      "eyi": 842,
      "ama": 843,
      "▁sig": 844,
      "▁araba": 845,
      "▁yesil": 846,
      "▁verim": 847,
      "▁ettigi": 848,
      "▁tahmin": 849,
      "▁orta": 850,
      "aliydi": 851,
      "▁baslıyor": 852,
      "▁listele": 853,
      "rak": 854,
      "▁magaz": 855,
      "▁alıyor": 856,
      "isi": 857,
      "▁olduguna": 858,
      "'n": 859,
      "dık": 860,
      "ard": 861,
      "▁co": 862,
      "▁ti": 863,
      "aki": 864,
      "gel": 865,
      "▁gerektigini": 866,
      "▁salt": 867,
      "▁dor": 868,
      "▁derece": 869,
      "▁say": 870,
      "▁dusus": 871,
      "▁bakıyor": 872,
      "▁altı": 873,
      "▁verir": 874,
      "is": 875,
      "▁donem": 876,
      "▁guven": 877,
      "▁ondan": 878,
      "▁bekleniyor": 879,
      "▁performans": 880,
      "▁komisyon": 881,
      "ire": 882,
      "▁hap": 883,
      "▁ayrıca": 884,
      "ok": 885,
      "▁edildi": 886,
      "uydu": 887,
      "▁kazandı": 888,
      "▁hukumet": 889,
      "yan": 890,
      "▁doları'na": 891,
      "-23": 892,
      "▁dolara": 893,
      "▁ihtiyac": 894,
      "▁olmalı": 895,
      "▁pet": 896,
      "▁yuk": 897,
      "▁anlamda": 898,
      "ecektir": 899,
      "isleri": 900,
      "ladık": 901,
      "▁tartıs": 902,
      "▁saglık": 903,
      "lerdi": 904,
      "▁soyledi": 905,
      "ırım": 906,
      "▁tamamen": 907,
      "▁hicbiri": 908,
      "▁guler": 909,
      "▁dahi": 910,
      "▁umut": 911,
      "▁gunu": 912,
      "meden": 913,
      "emiz": 914,
      "ılıgı": 915,
      "▁ce": 916,
      "ebi": 917,
      "▁elb": 918,
      "▁ger": 919,
      "▁1988": 920,
      "ılmıs": 921,
      "▁toprak": 922,
      "▁resim": 923,
      "ustur": 924,
      "ahat": 925,
      "▁yani": 926,
      "▁fabrik": 927,
      "▁girisim": 928,
      "▁genellikle": 929,
      "▁uzere": 930,
      "▁yolu": 931,
      "▁ihtiyacım": 932,
      "▁son": 933,
      "▁carsamba": 934,
      "▁dunya": 935,
      "medigini": 936,
      "▁parti": 937,
      "▁koy": 938,
      "▁satıs": 939,
      "istik": 940,
      "ohn": 941,
      "▁sist": 942,
      "in": 943,
      "▁babam": 944,
      "▁evde": 945,
      "▁piyasa": 946,
      "▁yalnızca": 947,
      "ram": 948,
      "ell": 949,
      "▁icer": 950,
      "ilmis": 951,
      "▁verdigim": 952,
      "▁mısıl": 953,
      "▁ey": 954,
      "▁yapma": 955,
      "▁degis": 956,
      "▁benz": 957,
      "tif": 958,
      "▁fot": 959,
      "▁kampanyalar": 960,
      "▁hur": 961,
      "▁soru": 962,
      "▁hak": 963,
      "sel": 964,
      "▁%8": 965,
      "▁yuz": 966,
      "▁bus": 967,
      "▁cag": 968,
      "agı": 969,
      "baren": 970,
      "▁dik": 971,
      "as": 972,
      "▁boston": 973,
      "▁turkiye": 974,
      "lilik": 975,
      "▁elde": 976,
      "▁rezervasyonu": 977,
      "▁kalkıs": 978,
      "▁a": 979,
      "▁ikib": 980,
      "gec": 981,
      "▁yapı": 982,
      "[SEP]": 983,
      "▁milyar": 984,
      "▁sm": 985,
      "▁harika": 986,
      "mıstır": 987,
      "ada": 988,
      "▁yonetic": 989,
      "ee": 990,
      "▁dov": 991,
      "▁dolayi": 992,
      "▁ankara": 993,
      "▁duv": 994,
      "▁chic": 995,
      "*": 996,
      "86": 997,
      "▁almak": 998,
      "▁zengin": 999,
      "▁kapalı": 1000,
      "▁kıymetler": 1001,
      "ilerine": 1002,
      "▁temizligi": 1003,
      "▁istih": 1004,
      "ten": 1005,
      "▁cesit": 1006,
      "▁kayıt": 1007,
      "lig": 1008,
      "▁tahvil": 1009,
      "▁kampan": 1010,
      "ıl": 1011,
      "▁f": 1012,
      "▁muht": 1013,
      "ına": 1014,
      "▁paul": 1015,
      "▁egit": 1016,
      "▁hab": 1017,
      "▁mir": 1018,
      "▁las": 1019,
      "ilerdi": 1020,
      "▁alın": 1021,
      "▁bal": 1022,
      "▁prof": 1023,
      "▁kısıt": 1024,
      "▁11": 1025,
      "▁olabil": 1026,
      "▁ucreti": 1027,
      "uy": 1028,
      "▁gidip": 1029,
      "▁taraf": 1030,
      "▁fark": 1031,
      "▁evin": 1032,
      "alı": 1033,
      "▁sab": 1034,
      "▁24": 1035,
      "itt": 1036,
      "▁hızla": 1037,
      "▁ruh": 1038,
      "▁oldug": 1039,
      "▁zayif": 1040,
      "▁cıvıl": 1041,
      "▁%1.7": 1042,
      "▁du": 1043,
      "▁fr": 1044,
      "▁ann": 1045,
      "▁ardından": 1046,
      "▁%7": 1047,
      "▁vardi": 1048,
      "amıyor": 1049,
      "mıstı": 1050,
      "▁olacagını": 1051,
      "isini": 1052,
      "▁konus": 1053,
      "kı": 1054,
      "▁yana": 1055,
      "▁bel": 1056,
      "▁aile": 1057,
      "ak": 1058,
      "ustr": 1059,
      "uk": 1060,
      "arı": 1061,
      "imizin": 1062,
      "▁kat": 1063,
      "▁isk": 1064,
      "▁ilgilen": 1065,
      "obr": 1066,
      "▁olmayan": 1067,
      "▁por": 1068,
      "ların": 1069,
      "▁olması": 1070,
      "ken": 1071,
      "▁he": 1072,
      "indan": 1073,
      "▁inc.": 1074,
      "▁dır": 1075,
      "▁meyal": 1076,
      "▁dav": 1077,
      "▁doldur": 1078,
      "▁olmadi": 1079,
      "▁hayır": 1080,
      "▁alk": 1081,
      "▁faiz": 1082,
      "of": 1083,
      "▁aks": 1084,
      "▁ortaya": 1085,
      "▁ark": 1086,
      "pıs": 1087,
      "tre": 1088,
      "▁stan": 1089,
      "▁philadelphia'ya": 1090,
      "larının": 1091,
      "▁merkezi": 1092,
      "▁guzeldi": 1093,
      "▁merkez": 1094,
      "▁avrup": 1095,
      "▁sizi": 1096,
      "▁yak": 1097,
      "▁memnunum": 1098,
      "▁defa": 1099,
      "▁pufur": 1100,
      "▁hanım": 1101,
      "▁olm": 1102,
      "im": 1103,
      "us": 1104,
      "▁22": 1105,
      "▁sez": 1106,
      "▁dedik": 1107,
      "▁koltuk": 1108,
      "maya": 1109,
      "acagını": 1110,
      "▁fiyatlar": 1111,
      "▁benim": 1112,
      "▁kumas": 1113,
      "od": 1114,
      "ırı": 1115,
      ".": 1116,
      "inde": 1117,
      "▁os": 1118,
      "▁arkad": 1119,
      "tılı": 1120,
      "▁karayol": 1121,
      "▁karanlık": 1122,
      "lenmis": 1123,
      "larla": 1124,
      "▁oy": 1125,
      "▁nef": 1126,
      "ata": 1127,
      "iliyor": 1128,
      "▁milwa": 1129,
      "▁eki": 1130,
      "▁fon": 1131,
      "▁kultur": 1132,
      "dum": 1133,
      "▁oranı": 1134,
      "ileri": 1135,
      "▁burada": 1136,
      "▁nelerdir": 1137,
      "▁superdi": 1138,
      "▁tur": 1139,
      "rum": 1140,
      "▁49": 1141,
      "▁performan": 1142,
      "▁bulun": 1143,
      "▁lutf": 1144,
      "▁um": 1145,
      "▁18": 1146,
      "z": 1147,
      "▁birisi": 1148,
      "▁?..": 1149,
      "▁cıtır": 1150,
      "ısır": 1151,
      "lıkla": 1152,
      "▁hafta": 1153,
      "▁avuc": 1154,
      "▁kor": 1155,
      "▁aldı": 1156,
      "▁bu": 1157,
      "▁dest": 1158,
      "▁sermay": 1159,
      "▁bazıları": 1160,
      "▁gr": 1161,
      "▁hanim": 1162,
      "dız": 1163,
      "-19": 1164,
      "▁tanı": 1165,
      "▁cagır": 1166,
      "lestir": 1167,
      "▁6": 1168,
      "▁kalkıyor": 1169,
      "▁ma": 1170,
      "▁gonder": 1171,
      "▁cocugun": 1172,
      "▁aktar": 1173,
      "mustur": 1174,
      "▁dusuk": 1175,
      "▁adi": 1176,
      "▁soyluyor": 1177,
      "▁edip": 1178,
      "leriyle": 1179,
      "▁sen": 1180,
      "▁not": 1181,
      "▁aktiv": 1182,
      "▁kuvvet": 1183,
      "▁mudur": 1184,
      "▁im": 1185,
      "▁bekliyor": 1186,
      "▁ihr": 1187,
      "▁zaman": 1188,
      "▁ederim": 1189,
      "ecik": 1190,
      "it": 1191,
      "innati": 1192,
      "av": 1193,
      "uzel": 1194,
      "▁gal": 1195,
      "mayan": 1196,
      "▁bun": 1197,
      "▁fiyati": 1198,
      "▁icin": 1199,
      "▁ba": 1200,
      "▁dobr": 1201,
      "▁ted": 1202,
      "▁ah": 1203,
      "indeki": 1204,
      "▁kendisini": 1205,
      "▁tim": 1206,
      "ent": 1207,
      "▁iddi": 1208,
      "edir": 1209,
      "ınız": 1210,
      "▁nokt": 1211,
      "arında": 1212,
      "▁boston'a": 1213,
      "▁nis": 1214,
      "▁ruz": 1215,
      "lardan": 1216,
      "▁aynı": 1217,
      "▁yon": 1218,
      "lerin": 1219,
      "ult": 1220,
      "▁may": 1221,
      "maktan": 1222,
      "▁kuy": 1223,
      "▁h": 1224,
      "malı": 1225,
      "asyon": 1226,
      "▁kap": 1227,
      "he": 1228,
      "▁dost": 1229,
      "▁th": 1230,
      "▁miami'ye": 1231,
      "▁cık": 1232,
      "92": 1233,
      "▁fer": 1234,
      "masına": 1235,
      "lugun": 1236,
      "▁ulusal": 1237,
      "▁po": 1238,
      "meyen": 1239,
      "aj": 1240,
      "▁rekabet": 1241,
      "▁se": 1242,
      "▁yildi": 1243,
      "▁millet": 1244,
      "▁gev": 1245,
      "▁toront": 1246,
      "▁ayrıl": 1247,
      "ington": 1248,
      "▁kem": 1249,
      "▁eski": 1250,
      "if": 1251,
      "▁airlin": 1252,
      "▁``": 1253,
      "▁giy": 1254,
      "▁kıtır": 1255,
      "▁edebiyat": 1256,
      "▁serv": 1257,
      "lo": 1258,
      "ladı": 1259,
      "▁ucusların": 1260,
      "▁verdigi": 1261,
      "▁dah": 1262,
      "nek": 1263,
      "▁sık": 1264,
      "▁lok": 1265,
      "▁dig": 1266,
      ".1": 1267,
      "▁ciyak": 1268,
      "▁louis": 1269,
      "▁isletme": 1270,
      "▁komp": 1271,
      "▁yar": 1272,
      "▁gon": 1273,
      "gun": 1274,
      "elerden": 1275,
      "ade": 1276,
      "3": 1277,
      "▁tesekkurler": 1278,
      "la": 1279,
      "▁tez": 1280,
      "▁personeli": 1281,
      "▁end": 1282,
      "▁guvenlik": 1283,
      "▁mukemmel": 1284,
      "▁tasar": 1285,
      "▁sizler": 1286,
      "▁veriyor": 1287,
      "rli": 1288,
      "▁otelden": 1289,
      "▁sirketler": 1290,
      "ele": 1291,
      "▁dedi": 1292,
      "▁boylece": 1293,
      "▁hic": 1294,
      "miyorum": 1295,
      "▁hır": 1296,
      "▁altın": 1297,
      "▁mumkun": 1298,
      "▁ort": 1299,
      "▁kısm": 1300,
      "gur": 1301,
      "▁milwaukee'den": 1302,
      "lasyon": 1303,
      "muyor": 1304,
      "'i": 1305,
      "▁num": 1306,
      "▁degildi": 1307,
      "▁beni": 1308,
      "det": 1309,
      ",": 1310,
      "▁tas": 1311,
      "ıyorum": 1312,
      "▁fır": 1313,
      "`": 1314,
      "'un": 1315,
      "▁cunku": 1316,
      "▁amer": 1317,
      "oloj": 1318,
      "▁tiril": 1319,
      "89": 1320,
      "▁21:00-22:30": 1321,
      "▁erk": 1322,
      "medi": 1323,
      "▁cocuklu": 1324,
      "▁delik": 1325,
      "▁od": 1326,
      "▁aylık": 1327,
      "▁ithal": 1328,
      "▁seyler": 1329,
      "tı": 1330,
      "lıgı": 1331,
      "▁ets": 1332,
      "▁telef": 1333,
      "▁dallas'tan": 1334,
      "atik": 1335,
      "▁cog": 1336,
      "acılar": 1337,
      "▁fazla": 1338,
      "mus": 1339,
      "▁bırak": 1340,
      "▁personeller": 1341,
      "▁oyle": 1342,
      "▁sin": 1343,
      "ber": 1344,
      "▁lutfen": 1345,
      "▁artısla": 1346,
      "▁hat": 1347,
      "▁ettim": 1348,
      "▁alır": 1349,
      "▁baglan": 1350,
      "▁%18": 1351,
      "'da": 1352,
      "▁bic": 1353,
      "▁git": 1354,
      "▁mey": 1355,
      "ub": 1356,
      "▁vır": 1357,
      "▁kanun": 1358,
      "▁karıstır": 1359,
      "▁sonr": 1360,
      "▁icine": 1361,
      "▁birbir": 1362,
      "ates": 1363,
      "▁ekonom": 1364,
      "▁bilim": 1365,
      "isti": 1366,
      "▁hiss": 1367,
      "▁demek": 1368,
      "▁1.": 1369,
      "▁etk": 1370,
      "▁cevir": 1371,
      "▁sunu": 1372,
      "▁kızı": 1373,
      "▁arkadas": 1374,
      "▁gun": 1375,
      "ug": 1376,
      "▁bilgisay": 1377,
      "▁7": 1378,
      "▁iyiydi": 1379,
      "▁rahat": 1380,
      "ılacak": 1381,
      "unuyor": 1382,
      "/": 1383,
      "arl": 1384,
      "▁dusunc": 1385,
      "▁islem": 1386,
      "amadı": 1387,
      "▁anda": 1388,
      "ısını": 1389,
      "▁%5": 1390,
      "=": 1391,
      "▁ilan": 1392,
      "▁gorunce": 1393,
      "▁geri": 1394,
      "▁konu": 1395,
      "ond": 1396,
      "▁la": 1397,
      "ılık": 1398,
      "▁tatil": 1399,
      "landı": 1400,
      "memis": 1401,
      "▁sec": 1402,
      "▁dakika": 1403,
      "▁yandan": 1404,
      "▁el": 1405,
      "▁dok": 1406,
      "▁ert": 1407,
      "▁hastalık": 1408,
      "▁olarak": 1409,
      "▁adım": 1410,
      "▁gu": 1411,
      "▁uzer": 1412,
      "ist": 1413,
      "▁bunları": 1414,
      "▁hicbir": 1415,
      "▁birbirine": 1416,
      "medim": 1417,
      "dular": 1418,
      "ori": 1419,
      "▁15": 1420,
      "dıklarını": 1421,
      "▁birbirlerine": 1422,
      "▁mo": 1423,
      "▁west": 1424,
      "lıg": 1425,
      "len": 1426,
      "ıpıs": 1427,
      "▁duny": 1428,
      "▁uzat": 1429,
      "▁yaptık": 1430,
      "▁seviy": 1431,
      "▁”": 1432,
      "▁sun": 1433,
      "larımız": 1434,
      "▁alım": 1435,
      "▁konfor": 1436,
      "▁k": 1437,
      "▁zen": 1438,
      "▁elli": 1439,
      "'ta": 1440,
      "▁pazartesi": 1441,
      "amak": 1442,
      "▁aktarmalı": 1443,
      "ily": 1444,
      "▁kit": 1445,
      "wa": 1446,
      "▁tic": 1447,
      "▁edec": 1448,
      "▁belir": 1449,
      "▁harc": 1450,
      "ligini": 1451,
      "▁temizlik": 1452,
      "▁gidiyor": 1453,
      "▁pencer": 1454,
      "▁muster": 1455,
      "▁engel": 1456,
      "▁reh": 1457,
      "▁un": 1458,
      "leket": 1459,
      "▁yapmak": 1460,
      "▁basında": 1461,
      "▁phoeni": 1462,
      "▁olar": 1463,
      "▁ekmek": 1464,
      "▁bilmiyorum": 1465,
      "larda": 1466,
      "▁sınıfı": 1467,
      "larını": 1468,
      "▁ser": 1469,
      "aber": 1470,
      "ta": 1471,
      "▁sip": 1472,
      "▁guzel": 1473,
      "▁ortam": 1474,
      "▁12": 1475,
      "▁kir": 1476,
      "▁oda": 1477,
      "dar": 1478,
      "▁gunes": 1479,
      "let": 1480,
      "▁dol": 1481,
      "sik": 1482,
      "irim": 1483,
      "▁senin": 1484,
      "un": 1485,
      "▁sert": 1486,
      "▁mayıs": 1487,
      "▁stand": 1488,
      "▁ay": 1489,
      "iz": 1490,
      "lar": 1491,
      "▁der": 1492,
      "▁yurt": 1493,
      "5-1": 1494,
      "siz": 1495,
      "'u": 1496,
      "▁faal": 1497,
      "▁goster": 1498,
      "u": 1499,
      "▁seb": 1500,
      "layan": 1501,
      "▁seattle": 1502,
      "lul": 1503,
      "▁hayvan": 1504,
      "▁kesinlikle": 1505,
      "▁ucak": 1506,
      "▁kaf": 1507,
      "ika": 1508,
      "▁uzak": 1509,
      "▁diy": 1510,
      "▁unut": 1511,
      "ildi": 1512,
      "▁car": 1513,
      "▁%7.": 1514,
      "▁temizdi": 1515,
      "▁animasyon": 1516,
      "▁zorunda": 1517,
      "▁francisco'ya": 1518,
      "ektr": 1519,
      "▁ulasım": 1520,
      "▁kok": 1521,
      "cak": 1522,
      "misti": 1523,
      "▁sozcusu": 1524,
      "lere": 1525,
      "▁merkezine": 1526,
      "▁kıv": 1527,
      "▁hijyen": 1528,
      "▁rakam": 1529,
      "▁fısır": 1530,
      "▁montreal": 1531,
      "▁suz": 1532,
      "ayet": 1533,
      "▁yaslı": 1534,
      "▁dahil": 1535,
      "▁kullanmadim": 1536,
      "▁fıldır": 1537,
      "'yı": 1538,
      "orta": 1539,
      "▁rus": 1540,
      "▁onem": 1541,
      "kun": 1542,
      "iste": 1543,
      "me": 1544,
      "orm": 1545,
      "alarının": 1546,
      "▁de": 1547,
      "▁kaynak": 1548,
      "▁yun": 1549,
      "▁olmadıgı": 1550,
      "▁hi": 1551,
      "ırıl": 1552,
      "▁donus": 1553,
      "▁degisik": 1554,
      "▁lim": 1555,
      "ya": 1556,
      "▁musa": 1557,
      "▁500": 1558,
      "lık": 1559,
      "▁yapan": 1560,
      "▁olanaklari": 1561,
      "lıga": 1562,
      "▁zev": 1563,
      "▁grup": 1564,
      "▁guc": 1565,
      "▁naz": 1566,
      "▁dep": 1567,
      "▁mit": 1568,
      "▁tehlik": 1569,
      "▁tesekkur": 1570,
      "lli": 1571,
      "ıc": 1572,
      "▁ekip": 1573,
      "▁duzey": 1574,
      "ısında": 1575,
      "su": 1576,
      "▁istedi": 1577,
      "▁kard": 1578,
      "t": 1579,
      "hangi": 1580,
      "▁mik": 1581,
      "▁buna": 1582,
      "▁yuzlu": 1583,
      "▁bunun": 1584,
      "▁tası": 1585,
      "lama": 1586,
      "▁gumbur": 1587,
      "enek": 1588,
      "les": 1589,
      "▁atlan": 1590,
      "▁sirketi": 1591,
      "ruk": 1592,
      "▁sırt": 1593,
      "▁sene": 1594,
      "▁cıkardı": 1595,
      "ide": 1596,
      "0.": 1597,
      "madim": 1598,
      "▁endek": 1599,
      "sın": 1600,
      "urt": 1601,
      "▁1990": 1602,
      "“": 1603,
      "▁kadın": 1604,
      "tadır": 1605,
      "▁bazen": 1606,
      "▁41": 1607,
      "▁kayb": 1608,
      "▁yım": 1609,
      "bul": 1610,
      "ım": 1611,
      "▁para": 1612,
      "▁dısında": 1613,
      "▁kalab": 1614,
      "▁ur": 1615,
      "▁oakland'a": 1616,
      "▁hareket": 1617,
      "▁bask": 1618,
      "urlu": 1619,
      "▁hız": 1620,
      "▁suyu": 1621,
      "&": 1622,
      "lik": 1623,
      "kur": 1624,
      "▁ucret": 1625,
      "▁sistem": 1626,
      "▁kons": 1627,
      "ograf": 1628,
      "osy": 1629,
      "▁sub": 1630,
      "▁etmem": 1631,
      "tuk": 1632,
      "▁siz": 1633,
      "▁benimle": 1634,
      "▁zay": 1635,
      "▁hisseler": 1636,
      "▁sayı": 1637,
      "▁tat": 1638,
      "▁osman": 1639,
      "▁tır": 1640,
      "▁ederiz": 1641,
      "▁mon": 1642,
      "eyin": 1643,
      "dıkları": 1644,
      "manı": 1645,
      "▁oyuncu": 1646,
      "▁ucusa": 1647,
      "▁ucmak": 1648,
      "▁yeterli": 1649,
      "▁karsil": 1650,
      "▁51": 1651,
      "▁milwaukee'ye": 1652,
      "▁ucuslar": 1653,
      "▁edil": 1654,
      "mayı": 1655,
      "▁analistler": 1656,
      "▁kendi": 1657,
      "sak": 1658,
      "tık": 1659,
      "▁isim": 1660,
      "ce": 1661,
      "▁st.": 1662,
      "▁giz": 1663,
      "▁2": 1664,
      "▁cogu": 1665,
      "▁herkese": 1666,
      "▁#": 1667,
      "dıgı": 1668,
      "▁onunde": 1669,
      "▁temsil": 1670,
      "'ı": 1671,
      "▁allak": 1672,
      "▁havaalan": 1673,
      "samba": 1674,
      "▁=": 1675,
      "ru": 1676,
      "▁key": 1677,
      "rol": 1678,
      "ot": 1679,
      "▁misafirimiz": 1680,
      "▁pasa": 1681,
      "p": 1682,
      "▁birden": 1683,
      "nun": 1684,
      "▁cir": 1685,
      "▁anim": 1686,
      "▁miydi": 1687,
      "▁kendimi": 1688,
      "▁te": 1689,
      "▁otuz": 1690,
      "ol": 1691,
      "▁%12": 1692,
      "▁musteri": 1693,
      "▁kagıt": 1694,
      "▁of": 1695,
      "unuz": 1696,
      "▁net": 1697,
      "▁kurtar": 1698,
      "'e": 1699,
      "▁yine": 1700,
      "▁grub": 1701,
      "▁dusur": 1702,
      "▁endustr": 1703,
      "aklı": 1704,
      "▁bush": 1705,
      "▁oyun": 1706,
      "▁normaldi": 1707,
      "rik": 1708,
      "▁sah": 1709,
      "▁vazgec": 1710,
      "▁insanın": 1711,
      "▁degildir": 1712,
      "▁bile": 1713,
      "▁cel": 1714,
      "▁izin": 1715,
      "▁olcude": 1716,
      "-200": 1717,
      "ayacak": 1718,
      "esin": 1719,
      "▁dokuz": 1720,
      "▁telefonla": 1721,
      "▁mav": 1722,
      "▁dokun": 1723,
      "▁rak": 1724,
      "min": 1725,
      "▁baz": 1726,
      "▁mem": 1727,
      "abet": 1728,
      "ende": 1729,
      "▁harik": 1730,
      "▁bors": 1731,
      "▁enf": 1732,
      ".8": 1733,
      "▁1989": 1734,
      "▁odedigim": 1735,
      "isyon": 1736,
      "▁beklen": 1737,
      "▁yuksekti": 1738,
      "▁yuzden": 1739,
      "▁yap": 1740,
      "▁rom": 1741,
      "inci": 1742,
      "▁atlanta": 1743,
      "kuz": 1744,
      "▁sehir": 1745,
      "▁zamanda": 1746,
      "▁mutlu": 1747,
      "maktadır": 1748,
      "▁sın": 1749,
      "lim": 1750,
      "uz": 1751,
      "-2": 1752,
      "ya'nın": 1753,
      "▁sahibi": 1754,
      "o'nun": 1755,
      "mem": 1756,
      "▁koca": 1757,
      "▁belirt": 1758,
      "▁kup": 1759,
      "▁sent": 1760,
      "eye": 1761,
      "unc": 1762,
      "▁ekonomi": 1763,
      "fet": 1764,
      "iligi": 1765,
      "mamıs": 1766,
      "eet": 1767,
      "si": 1768,
      "▁tuk": 1769,
      "▁ozellikle": 1770,
      "▁olus": 1771,
      "▁3/": 1772,
      "uyu": 1773,
      "▁39": 1774,
      "▁ayır": 1775,
      "▁hac": 1776,
      "▁gelecek": 1777,
      "▁8": 1778,
      "sen": 1779,
      "layarak": 1780,
      "layıp": 1781,
      "eden": 1782,
      "ydı": 1783,
      "▁giden": 1784,
      "ydi": 1785,
      "le": 1786,
      "▁itibaren": 1787,
      "▁isten": 1788,
      "▁bakım": 1789,
      "likte": 1790,
      "▁univers": 1791,
      "▁fi": 1792,
      "▁hij": 1793,
      "ley": 1794,
      "dur": 1795,
      "enk": 1796,
      "▁dogrudan": 1797,
      "larak": 1798,
      "▁takip": 1799,
      "▁kıl": 1800,
      "▁edilen": 1801,
      "ia": 1802,
      "likle": 1803,
      "▁201": 1804,
      "bire": 1805,
      "q": 1806,
      "▁imz": 1807,
      "▁hakk": 1808,
      "▁bat": 1809,
      "▁kur": 1810,
      "adan": 1811,
      ".4": 1812,
      ".000": 1813,
      "▁yardimci": 1814,
      "▁def": 1815,
      "ile": 1816,
      "▁gecir": 1817,
      "▁dur": 1818,
      "▁kırk": 1819,
      "▁stratej": 1820,
      "▁mul": 1821,
      "▁%2": 1822,
      "▁mer": 1823,
      "▁bizim": 1824,
      "dek": 1825,
      "▁del": 1826,
      "▁siyasi": 1827,
      "▁hanimdi": 1828,
      "▁zırt": 1829,
      "▁kendisin": 1830,
      "mam": 1831,
      "ıyorlar": 1832,
      "▁kenar": 1833,
      "egini": 1834,
      "gil": 1835,
      "inda": 1836,
      "▁denizi": 1837,
      "d": 1838,
      "▁d": 1839,
      "ay": 1840,
      "▁cif": 1841,
      "▁kı": 1842,
      "▁ediyordu": 1843,
      "▁kans": 1844,
      "▁mus": 1845,
      "▁kapan": 1846,
      "anbul": 1847,
      "▁cicek": 1848,
      "ısız": 1849,
      "▁konuda": 1850,
      "alak": 1851,
      "adar": 1852,
      "ici": 1853,
      "▁tal": 1854,
      "▁yarat": 1855,
      "▁com": 1856,
      "elim": 1857,
      "fur": 1858,
      "▁duruyor": 1859,
      "▁gıldır": 1860,
      "▁eksik": 1861,
      "▁pil": 1862,
      "▁t": 1863,
      "▁bundan": 1864,
      "▁cekti": 1865,
      "ladım": 1866,
      "enin": 1867,
      "2": 1868,
      "▁%51": 1869,
      "▁uyum": 1870,
      "oma": 1871,
      "▁pas": 1872,
      "▁cıkmıs": 1873,
      ".7": 1874,
      "▁lir": 1875,
      "oj": 1876,
      "▁okuy": 1877,
      "ıyı": 1878,
      "▁continental": 1879,
      "▁bunlar": 1880,
      "▁kendilerine": 1881,
      "▁bekledi": 1882,
      "▁yola": 1883,
      "eler": 1884,
      "▁fırıl": 1885,
      "onu": 1886,
      "▁ust": 1887,
      "ayi": 1888,
      "▁ihtiy": 1889,
      "▁det": 1890,
      "▁mahkem": 1891,
      "▁0.": 1892,
      "▁vardı": 1893,
      "▁gorul": 1894,
      "▁acıl": 1895,
      "bak": 1896,
      "▁eder": 1897,
      "▁gotur": 1898,
      "▁sını": 1899,
      "▁fen": 1900,
      "▁mektu": 1901,
      "umuz": 1902,
      "▁veya": 1903,
      "anlı": 1904,
      "▁yapıyor": 1905,
      "▁onunla": 1906,
      "ern": 1907,
      "▁sefer": 1908,
      "-22:30": 1909,
      "▁yatırım": 1910,
      "▁olsun": 1911,
      "▁hen": 1912,
      "onelik": 1913,
      "▁ustu": 1914,
      "▁gitmek": 1915,
      "▁ideal": 1916,
      "ilerini": 1917,
      "▁isler": 1918,
      "ket": 1919,
      "▁%6.9": 1920,
      "▁gonul": 1921,
      "▁tr": 1922,
      "▁huz": 1923,
      "▁beyle": 1924,
      "▁bogaz": 1925,
      "▁merk": 1926,
      "▁yok": 1927,
      "▁fıkır": 1928,
      "▁197": 1929,
      "▁gorev": 1930,
      "0": 1931,
      "°": 1932,
      "▁got": 1933,
      "▁cı": 1934,
      "▁makin": 1935,
      "ev": 1936,
      "▁poz": 1937,
      "net": 1938,
      "▁kac": 1939,
      "ından": 1940,
      "▁ev": 1941,
      "ayla": 1942,
      "▁sog": 1943,
      "’": 1944,
      "▁aktif": 1945,
      "▁en": 1946,
      "▁kucuk": 1947,
      "▁196": 1948,
      "▁simdiye": 1949,
      "▁art": 1950,
      "malar": 1951,
      "▁kosul": 1952,
      "aturk": 1953,
      "unku": 1954,
      "▁%7.875": 1955,
      "▁sekil": 1956,
      "os": 1957,
      "mektedir": 1958,
      "cog": 1959,
      "▁gar": 1960,
      "iyi": 1961,
      "▁sat": 1962,
      "day": 1963,
      "▁kara": 1964,
      "tigi": 1965,
      "ate": 1966,
      "lara": 1967,
      "oz": 1968,
      "adi": 1969,
      "▁aralık": 1970,
      "tıgını": 1971,
      "▁sessiz": 1972,
      "▁sesi": 1973,
      "▁olc": 1974,
      "▁nedir": 1975,
      "▁sakin": 1976,
      "ne": 1977,
      "all": 1978,
      "▁fa": 1979,
      "▁tabi": 1980,
      "laka": 1981,
      "lası": 1982,
      "▁air": 1983,
      "▁saf": 1984,
      "▁acıkladı": 1985,
      "usunu": 1986,
      "izi": 1987,
      "▁analist": 1988,
      "laması": 1989,
      "▁es": 1990,
      "▁soyley": 1991,
      "k": 1992,
      "▁milyondan": 1993,
      ".0": 1994,
      "mi": 1995,
      "▁duk": 1996,
      "▁roman": 1997,
      "▁doy": 1998,
      "▁tem": 1999,
      "mey": 2000,
      "ort": 2001,
      "▁bunu": 2002,
      "▁alak": 2003,
      "ek": 2004,
      "dan": 2005,
      "▁tercih": 2006,
      "▁ok": 2007,
      "▁oldum": 2008,
      "▁kaldik": 2009,
      "▁fok": 2010,
      "ime": 2011,
      "▁otelin": 2012,
      "acagım": 2013,
      "oster": 2014,
      "aman": 2015,
      "▁egil": 2016,
      "leb": 2017,
      "▁azından": 2018,
      "▁`": 2019,
      "▁arada": 2020,
      "5": 2021,
      "▁%10": 2022,
      "▁iyi": 2023,
      "▁zaten": 2024,
      "ikti": 2025,
      "tern": 2026,
      "▁gormek": 2027,
      "▁35": 2028,
      "▁kul": 2029,
      "▁ilk": 2030,
      "▁edeb": 2031,
      "▁30": 2032,
      "▁cumhuriyet": 2033,
      "▁cle": 2034,
      "▁hale": 2035,
      "▁hey": 2036,
      "att": 2037,
      "▁oldu": 2038,
      "ah": 2039,
      "▁yamalak": 2040,
      "ac": 2041,
      "se": 2042,
      "▁ilgili": 2043,
      "gi": 2044,
      "▁sis": 2045,
      "▁onlar": 2046,
      "▁42": 2047,
      "iri": 2048,
      "duk": 2049,
      "▁musait": 2050,
      "ad": 2051,
      "▁pah": 2052,
      "ayıp": 2053,
      "encer": 2054,
      "isiz": 2055,
      "isten": 2056,
      "rub": 2057,
      "▁banka": 2058,
      "elen": 2059,
      "▁birinde": 2060,
      "▁eve": 2061,
      "▁piyas": 2062,
      "tim": 2063,
      "▁borsası": 2064,
      "▁1/": 2065,
      "\\/": 2066,
      "▁eylul": 2067,
      "▁agustos": 2068,
      "'ye": 2069,
      "re": 2070,
      "ash": 2071,
      "▁muc": 2072,
      "▁ama": 2073,
      "diler": 2074,
      "▁list": 2075,
      "▁gecik": 2076,
      "▁yorum": 2077,
      "▁dondu": 2078,
      "aydı": 2079,
      "▁sır": 2080,
      "▁sof": 2081,
      "▁aldıgı": 2082,
      "▁ters": 2083,
      "l": 2084,
      "▁sans": 2085,
      "endi": 2086,
      "▁kav": 2087,
      "▁varan": 2088,
      "▁direk": 2089,
      "▁karayolu": 2090,
      "▁tarihi": 2091,
      "▁lond": 2092,
      "▁ayak": 2093,
      "▁esk": 2094,
      "amıs": 2095,
      "bar": 2096,
      "ında": 2097,
      "lerce": 2098,
      "cisi": 2099,
      "▁goz": 2100,
      "erk": 2101,
      "▁istiyor": 2102,
      "▁kontr": 2103,
      "rı": 2104,
      "ılması": 2105,
      "'nın": 2106,
      "makta": 2107,
      "▁secim": 2108,
      "▁kab": 2109,
      "▁nas": 2110,
      "▁asl": 2111,
      "▁bazı": 2112,
      "▁kisisel": 2113,
      "tım": 2114,
      "ton": 2115,
      "▁hikay": 2116,
      "▁tım": 2117,
      "▁cin": 2118,
      "ene": 2119,
      "▁ulk": 2120,
      "▁ogleden": 2121,
      "▁dum": 2122,
      "▁ilgisiz": 2123,
      "▁mum": 2124,
      "▁bit": 2125,
      "art": 2126,
      "▁miami": 2127,
      "▁tık": 2128,
      "▁%7.8": 2129,
      "uncu": 2130,
      "eh": 2131,
      "lamıs": 2132,
      "pr": 2133,
      "▁pır": 2134,
      "usu": 2135,
      "mis": 2136,
      "▁otur": 2137,
      "▁fil": 2138,
      "gan": 2139,
      "▁kurumsal": 2140,
      "alar": 2141,
      "▁dısı": 2142,
      "elerinin": 2143,
      "▁%6.4": 2144,
      "▁uc": 2145,
      "▁can": 2146,
      "▁ulus": 2147,
      "▁degisiklik": 2148,
      "▁yet": 2149,
      "den": 2150,
      "▁sut": 2151,
      "▁ref": 2152,
      "▁basına": 2153,
      "▁sınıf": 2154,
      "▁&": 2155,
      "lin": 2156,
      "▁pıtır": 2157,
      "ındaki": 2158,
      "▁rehber": 2159,
      "▁olcu": 2160,
      "'dan": 2161,
      "▁sik": 2162,
      "elerde": 2163,
      "▁oner": 2164,
      "cu": 2165,
      "▁abd": 2166,
      "▁bazi": 2167,
      "▁nereden": 2168,
      "alap": 2169,
      "▁ez": 2170,
      "▁ken": 2171,
      "une": 2172,
      "▁normal": 2173,
      "ları": 2174,
      "▁cay": 2175,
      "▁fay": 2176,
      "fa": 2177,
      "ya'da": 2178,
      "ogram": 2179,
      "▁yılı": 2180,
      "kın": 2181,
      "▁hemen": 2182,
      "▁cat": 2183,
      "▁hem": 2184,
      "▁kapat": 2185,
      "▁ca": 2186,
      ":00": 2187,
      "▁arka": 2188,
      "▁tah": 2189,
      "▁kazanc": 2190,
      "▁oteli": 2191,
      "acagız": 2192,
      "▁meydan": 2193,
      "▁iddia": 2194,
      "'ten": 2195,
      "10": 2196,
      "▁%0.3": 2197,
      "▁petersburg": 2198,
      "ari": 2199,
      "oglu": 2200,
      "▁dogru": 2201,
      "yet": 2202,
      "▁beyaz": 2203,
      "▁baskanı": 2204,
      "▁diz": 2205,
      "▁26": 2206,
      "▁test": 2207,
      "ılı": 2208,
      "▁...": 2209,
      "▁yans": 2210,
      "▁oldugum": 2211,
      "ulu": 2212,
      "▁%9": 2213,
      "▁birer": 2214,
      "▁gelir": 2215,
      "ıyor": 2216,
      "▁55": 2217,
      "▁70": 2218,
      "can": 2219,
      "gmen": 2220,
      "▁endeksi": 2221,
      "▁insa": 2222,
      "▁sark": 2223,
      "▁parca": 2224,
      "▁corp.": 2225,
      "▁nok": 2226,
      "▁yerles": 2227,
      "▁ip": 2228,
      "gin": 2229,
      "▁ruzgar": 2230,
      "kan": 2231,
      "em": 2232,
      "▁islet": 2233,
      "▁yarı": 2234,
      "▁montre": 2235,
      "%": 2236,
      "▁devr": 2237,
      "▁ettiler": 2238,
      "ver": 2239,
      "▁newark": 2240,
      "ye": 2241,
      "▁sonra": 2242,
      "larında": 2243,
      "fer": 2244,
      "▁li": 2245,
      "▁yonetim": 2246,
      "▁anadolu": 2247,
      "▁ingiliz": 2248,
      "digini": 2249,
      "▁beraber": 2250,
      "umus": 2251,
      "ina": 2252,
      "▁ayrı": 2253,
      "▁gordu": 2254,
      "▁zamanlar": 2255,
      "▁kıy": 2256,
      "▁id": 2257,
      "ustum": 2258,
      "▁minne": 2259,
      "▁org": 2260,
      "▁onceden": 2261,
      "▁tahviller": 2262,
      "▁yuruy": 2263,
      "gu": 2264,
      "alık": 2265,
      "▁yerine": 2266,
      "▁17": 2267,
      "▁detroit": 2268,
      "▁begendim": 2269,
      "urken": 2270,
      "▁kadınlar": 2271,
      "8": 2272,
      "▁indianapolis": 2273,
      "esiz": 2274,
      "egen": 2275,
      "▁lezzeti": 2276,
      "▁kad": 2277,
      "▁si": 2278,
      "▁*": 2279,
      "▁sermaye": 2280,
      "▁cak": 2281,
      "▁%20": 2282,
      "▁atlanta'dan": 2283,
      "▁1.3": 2284,
      "ume": 2285,
      "bah": 2286,
      "▁dolas": 2287,
      "burgh": 2288,
      "▁yuksek": 2289,
      "▁derg": 2290,
      "▁mez": 2291,
      "tu": 2292,
      "'ya": 2293,
      "uldu": 2294,
      "▁futbol": 2295,
      "▁suc": 2296,
      "taki": 2297,
      "▁peters": 2298,
      "▁halk": 2299,
      "▁sevgil": 2300,
      ">": 2301,
      "at": 2302,
      "▁ogret": 2303,
      "▁var": 2304,
      "ba": 2305,
      "emedi": 2306,
      "mer": 2307,
      "▁alt": 2308,
      "miyor": 2309,
      "▁lider": 2310,
      "luydu": 2311,
      "▁otom": 2312,
      "adel": 2313,
      "▁man": 2314,
      "▁anal": 2315,
      "deki": 2316,
      "▁43": 2317,
      "ıkır": 2318,
      "▁finans": 2319,
      "▁cocuk": 2320,
      "▁asker": 2321,
      "▁zarar": 2322,
      "▁saldır": 2323,
      "▁franc": 2324,
      "ayan": 2325,
      "▁gecti": 2326,
      "▁onumuzdeki": 2327,
      "ka": 2328,
      "▁ciddi": 2329,
      "dem": 2330,
      "▁gormedim": 2331,
      "'ın": 2332,
      "▁mıydı": 2333,
      "ilecek": 2334,
      "▁rest": 2335,
      "alet": 2336,
      "▁charl": 2337,
      "▁kapı": 2338,
      "tor": 2339,
      "mayacak": 2340,
      "ırak": 2341,
      "▁francisco'dan": 2342,
      "unde": 2343,
      "▁yıl": 2344,
      "timore": 2345,
      "▁bilet": 2346,
      "▁siir": 2347,
      "iye": 2348,
      "▁amerik": 2349,
      "▁fir": 2350,
      "▁ozel": 2351,
      "ısıl": 2352,
      "[PAD]": 2353,
      "▁mes": 2354,
      "▁uzerine": 2355,
      "▁lazım": 2356,
      "▁pek": 2357,
      "▁oysa": 2358,
      "▁kolay": 2359,
      "▁ener": 2360,
      "op": 2361,
      "▁yuzde": 2362,
      "▁dag": 2363,
      "▁biz": 2364,
      "▁dolarlık": 2365,
      "anı": 2366,
      "▁1": 2367,
      "▁ede": 2368,
      "▁birim": 2369,
      "ach": 2370,
      "▁mavi": 2371,
      "ust": 2372,
      "▁gelip": 2373,
      "▁hol": 2374,
      "ırt": 2375,
      "▁alan": 2376,
      "▁yem": 2377,
      "▁bilg": 2378,
      "raf": 2379,
      "iddet": 2380,
      "▁eser": 2381,
      "▁sahib": 2382,
      "bes": 2383,
      "▁personel": 2384,
      "▁devam": 2385,
      "▁neden": 2386,
      "asından": 2387,
      "▁..\"": 2388,
      "▁yatırımcılar": 2389,
      "▁cinc": 2390,
      "▁kıs": 2391,
      "abilecek": 2392,
      "▁philadelphia": 2393,
      "▁ileri": 2394,
      "▁dolar": 2395,
      "▁onun": 2396,
      "▁peyn": 2397,
      "ilik": 2398,
      "▁fransız": 2399,
      "han": 2400,
      "▁yılın": 2401,
      "▁has": 2402,
      "manın": 2403,
      "yle": 2404,
      "▁sovyet": 2405,
      "▁basar": 2406,
      "▁eglen": 2407,
      "▁pa": 2408,
      "iyas": 2409,
      "mistir": 2410,
      "ice": 2411,
      "▁imkan": 2412,
      "▁ziyaret": 2413,
      "▁kil": 2414,
      "▁huk": 2415,
      "▁hiz": 2416,
      "▁mıy": 2417,
      "▁bil": 2418,
      "▁konak": 2419,
      "▁tef": 2420,
      "▁dolardan": 2421,
      "ege": 2422,
      "▁teslim": 2423,
      "▁dun": 2424,
      "▁ye": 2425,
      "▁oakland'dan": 2426,
      "▁birkac": 2427,
      "▁ses": 2428,
      "▁sonuc": 2429,
      "▁vadeli": 2430,
      "▁katıl": 2431,
      "▁basını": 2432,
      "▁tep": 2433,
      "▁re": 2434,
      "▁bizimle": 2435,
      "▁kırık": 2436,
      "▁makal": 2437,
      "'y": 2438,
      "▁francisco": 2439,
      "ılmaz": 2440,
      "▁kendisi": 2441,
      "lendir": 2442,
      "luyor": 2443,
      "▁'de": 2444,
      "yn": 2445,
      "▁ediyoruz": 2446,
      "▁guclu": 2447,
      "▁takır": 2448,
      "esil": 2449,
      "▁misiniz": 2450,
      "ese": 2451,
      "ore": 2452,
      "▁mal": 2453,
      "▁butun": 2454,
      "▁fiyatları": 2455,
      "ımızı": 2456,
      "ut": 2457,
      "ilen": 2458,
      "▁pittsburgh": 2459,
      "▁wash": 2460,
      "elerin": 2461,
      "▁da": 2462,
      "▁angel": 2463,
      "▁bunların": 2464,
      "sızlık": 2465,
      "▁lou": 2466,
      "▁yal": 2467,
      "▁soyler": 2468,
      "▁ıs": 2469,
      "▁yas": 2470,
      "amız": 2471,
      "▁petrol": 2472,
      "muz": 2473,
      "▁ucuz": 2474,
      "▁yag": 2475,
      "▁sıngır": 2476,
      "'nun": 2477,
      "▁og": 2478,
      "▁oldugu": 2479,
      "▁bas": 2480,
      "▁ker": 2481,
      "irmi": 2482,
      "▁uygul": 2483,
      "vır": 2484,
      "▁hakkında": 2485,
      "▁l": 2486,
      "▁adet": 2487,
      "▁civ": 2488,
      "ıma": 2489,
      "▁kalite": 2490,
      "▁uf": 2491,
      "onik": 2492,
      "▁havayol": 2493,
      "▁durumda": 2494,
      "rim": 2495,
      "▁%4.8": 2496,
      "▁yer": 2497,
      "'nin": 2498,
      "▁dallas": 2499,
      "▁yaklas": 2500,
      "▁kot": 2501,
      "lay": 2502,
      "eviz": 2503,
      "▁mustafa": 2504,
      "ılan": 2505,
      "▁ol": 2506,
      "▁dıs": 2507,
      "▁oldugunu": 2508,
      "▁karsiligini": 2509,
      "ıstır": 2510,
      "▁baba": 2511,
      "▁sanat": 2512,
      "yak": 2513,
      "▁ul": 2514,
      "▁arasındaki": 2515,
      "▁cik": 2516,
      "enc": 2517,
      "▁s": 2518,
      "▁oran": 2519,
      "▁pay": 2520,
      "▁mek": 2521,
      "▁siyah": 2522,
      "▁allah": 2523,
      "▁mut": 2524,
      "▁haziran": 2525,
      "▁tay": 2526,
      "▁mehmet": 2527,
      "▁sok": 2528,
      "gimiz": 2529,
      "irler": 2530,
      "tar": 2531,
      "9": 2532,
      "ami": 2533,
      "▁yorgun": 2534,
      "▁kahv": 2535,
      "ch": 2536,
      "▁diyor": 2537,
      "▁mec": 2538,
      "lardı": 2539,
      "▁bagım": 2540,
      "▁pittsburgh'tan": 2541,
      "ılıyor": 2542,
      "▁din": 2543,
      "▁dis": 2544,
      "▁%7.7": 2545,
      "▁ancak": 2546,
      "▁tel": 2547,
      "▁198": 2548,
      "▁v": 2549,
      "▁kesin": 2550,
      "sınız": 2551,
      "dav": 2552,
      "▁pitt": 2553,
      "asının": 2554,
      "▁dan": 2555,
      "▁mali": 2556,
      "▁dem": 2557,
      "▁ucus": 2558,
      "▁titr": 2559,
      "gul": 2560,
      "▁bilgis": 2561,
      "▁san": 2562,
      ")": 2563,
      "▁deg": 2564,
      ".50": 2565,
      "▁pitts": 2566,
      "▁hizmet": 2567,
      "▁20": 2568,
      "▁1.6": 2569,
      "▁mol": 2570,
      "may": 2571,
      "▁yaklasık": 2572,
      "▁kopek": 2573,
      "▁ziy": 2574,
      "▁kalan": 2575,
      "▁dedim": 2576,
      "▁koc": 2577,
      "lam": 2578,
      "lerini": 2579,
      "dal": 2580,
      "ental": 2581,
      "iyon": 2582,
      "▁mıs": 2583,
      "elerine": 2584,
      "▁1.8": 2585,
      "ıldır": 2586,
      "gı": 2587,
      "erek": 2588,
      "▁kası": 2589,
      "▁sirket": 2590,
      "▁olum": 2591,
      "▁gosteriyor": 2592,
      "'deki": 2593,
      "▁kendisine": 2594,
      "per": 2595,
      "▁kabul": 2596,
      "▁bugun": 2597,
      "yo": 2598,
      "▁baglı": 2599,
      "▁gum": 2600,
      "▁89-": 2601,
      "▁buldum": 2602,
      "▁lez": 2603,
      "▁...\"": 2604,
      "▁teklif": 2605,
      "gum": 2606,
      "uh": 2607,
      "lanır": 2608,
      "ebil": 2609,
      "▁vakit": 2610,
      "▁kapas": 2611,
      "▁deney": 2612,
      "-": 2613,
      "▁sozles": 2614,
      "▁yavas": 2615,
      "▁dalg": 2616,
      "▁onc": 2617,
      "acı": 2618,
      "▁uluslararası": 2619,
      "▁tiyat": 2620,
      "▁kalp": 2621,
      "\\": 2622,
      "▁kotu": 2623,
      "▁patır": 2624,
      "▁co.": 2625,
      "vel": 2626,
      "li": 2627,
      "qu": 2628,
      "▁yonelik": 2629,
      "▁fiyatı": 2630,
      "▁kimse": 2631,
      "1": 2632,
      "▁23": 2633,
      "▁birin": 2634,
      "ik": 2635,
      "▁cevr": 2636,
      "▁a.": 2637,
      "▁par": 2638,
      "ilerin": 2639,
      "▁sona": 2640,
      "▁acıklan": 2641,
      "▁pis": 2642,
      "▁ortalama": 2643,
      "ki": 2644,
      "▁uygun": 2645,
      "▁kırm": 2646,
      "▁hav": 2647,
      "▁sosyal": 2648,
      "▁kurul": 2649,
      "▁hizmetleri": 2650,
      "▁milyon": 2651,
      "▁herkes": 2652,
      "ormal": 2653,
      "aması": 2654,
      "og": 2655,
      "▁senet": 2656,
      "▁danıs": 2657,
      "▁destek": 2658,
      "▁city'e": 2659,
      "▁mun": 2660,
      "▁harıl": 2661,
      "▁kurum": 2662,
      "▁kapsam": 2663,
      "▁tatlı": 2664,
      "af": 2665,
      "▁iht": 2666,
      "▁arz": 2667,
      "▁fab": 2668,
      "▁philadelphia'dan": 2669,
      "▁%2.7": 2670,
      "ilmesi": 2671,
      "ımda": 2672,
      "▁ten": 2673,
      "ra": 2674,
      "▁45": 2675,
      "▁ilisk": 2676,
      "kır": 2677,
      "▁yi": 2678,
      "atur": 2679,
      "▁uzerinde": 2680,
      "▁ren": 2681,
      "▁obu": 2682,
      "▁merdi": 2683,
      "ger": 2684,
      "▁paz": 2685,
      "'daki": 2686,
      "lif": 2687,
      "ong": 2688,
      "▁yumus": 2689,
      "▁icecek": 2690,
      "▁oteldi": 2691,
      "mel": 2692,
      ".5": 2693,
      "y": 2694,
      "landır": 2695,
      "▁ihrac": 2696,
      "ont": 2697,
      "▁hos": 2698,
      "▁cor": 2699,
      "▁orlando'ya": 2700,
      "ediye": 2701,
      "en": 2702,
      "iyordu": 2703,
      "▁gerceklestir": 2704,
      "▁yabancı": 2705,
      "▁rapor": 2706,
      "'a": 2707,
      "▁ben": 2708,
      "asını": 2709,
      "▁kalkan": 2710,
      "▁mucadel": 2711,
      "adaki": 2712,
      "▁hele": 2713,
      "▁tarif": 2714,
      "▁genel": 2715,
      "▁goruyor": 2716,
      "▁mas": 2717,
      "ımıza": 2718,
      "▁,": 2719,
      "▁kız": 2720,
      ":30": 2721,
      "▁yerde": 2722,
      "▁kaz": 2723,
      "▁evet": 2724,
      "west": 2725,
      "▁polit": 2726,
      "▁renk": 2727,
      "▁dek": 2728,
      "eti": 2729,
      "masını": 2730,
      "▁1/2": 2731,
      "▁dil": 2732,
      "▁ettigini": 2733,
      "or": 2734,
      "▁insan": 2735,
      "medik": 2736,
      "▁?": 2737,
      "▁kırmızı": 2738,
      "▁olan": 2739,
      "▁ates": 2740,
      "▁gosterdi": 2741,
      "son": 2742,
      "▁duvar": 2743,
      "▁hedef": 2744,
      "tak": 2745,
      "▁getir": 2746,
      "dıgında": 2747,
      "▁sikayet": 2748,
      "dıgını": 2749,
      "ibar": 2750,
      "ati": 2751,
      "▁asırı": 2752,
      "▁rad": 2753,
      "▁amerikan": 2754,
      "ısık": 2755,
      "acagı": 2756,
      "apol": 2757,
      "▁kims": 2758,
      "▁televizyon": 2759,
      "▁sordu": 2760,
      "lass": 2761,
      "acak": 2762,
      "▁200": 2763,
      "▁gozleri": 2764,
      "alt": 2765,
      "iy": 2766,
      "▁dieg": 2767,
      "▁sas": 2768,
      "▁farklı": 2769,
      "▁duserek": 2770,
      "▁%6": 2771,
      "▁mi": 2772,
      "▁malz": 2773,
      "lak": 2774,
      "ediyor": 2775,
      "▁coc": 2776,
      "▁rezervasyon": 2777,
      "iski": 2778,
      "▁yuzme": 2779,
      "▁ide": 2780,
      "▁fin": 2781,
      "▁cesitli": 2782,
      "▁zor": 2783,
      "45": 2784,
      "na": 2785,
      "▁bizi": 2786,
      "▁haldır": 2787,
      "▁yuzunden": 2788,
      "▁uzerinden": 2789,
      "unca": 2790,
      "-1": 2791,
      "▁32": 2792,
      "▁ug": 2793,
      "undan": 2794,
      "▁yıldız": 2795,
      "▁etm": 2796,
      "▁yemek": 2797,
      "agına": 2798,
      "▁ana": 2799,
      "du": 2800,
      "gar": 2801,
      "▁baskı": 2802,
      "▁elbet": 2803,
      "▁kemal": 2804,
      "▁yardımcı": 2805,
      "▁1987": 2806,
      "cok": 2807,
      "▁lı": 2808,
      "dıg": 2809,
      "▁bilgi": 2810,
      "erdi": 2811,
      "e": 2812,
      "ud": 2813,
      "▁gid": 2814,
      "▁efendi": 2815,
      "▁lo": 2816,
      "▁haft": 2817,
      "▁kıyas": 2818,
      "▁chicag": 2819,
      "▁tu": 2820,
      "▁yeni": 2821,
      "2-23": 2822,
      "dik": 2823,
      "▁konut": 2824,
      "tigini": 2825,
      "▁an": 2826,
      "ark": 2827,
      "▁maliyet": 2828,
      "—": 2829,
      "br": 2830,
      "ran": 2831,
      "▁kalkıp": 2832,
      "ili": 2833,
      "sunuz": 2834,
      "▁hadi": 2835,
      "ers": 2836,
      "▁mev": 2837,
      "▁kendileri": 2838,
      "▁vad": 2839,
      "▁sikin": 2840,
      "▁kongre": 2841,
      "▁acı": 2842,
      "igini": 2843,
      "▁seyi": 2844,
      "25": 2845,
      "▁mecl": 2846,
      "▁cid": 2847,
      "▁york": 2848,
      "lerim": 2849,
      "▁belki": 2850,
      "▁res": 2851,
      "▁tesisin": 2852,
      "o'dan": 2853,
      "▁corp": 2854,
      "▁heyecan": 2855,
      "▁tesis": 2856,
      "meli": 2857,
      "▁kendine": 2858,
      "▁yıllar": 2859,
      "▁nokta": 2860,
      "▁geldi": 2861,
      "aat": 2862,
      "▁ortak": 2863,
      "eli": 2864,
      "▁her": 2865,
      "▁mag": 2866,
      "▁ucuslarını": 2867,
      "▁ot": 2868,
      "▁yanı": 2869,
      "▁34": 2870,
      "eme": 2871,
      "▁am": 2872,
      "▁halde": 2873,
      "▁benden": 2874,
      "bank": 2875,
      "▁gozlerini": 2876,
      "▁aileler": 2877,
      "leri": 2878,
      "▁dava": 2879,
      "▁%4": 2880,
      "imdi": 2881,
      "w": 2882,
      "▁dog": 2883,
      "▁olanak": 2884,
      "▁ist": 2885,
      "▁ustune": 2886,
      "▁olabilir": 2887,
      "▁attı": 2888,
      "▁benzer": 2889,
      "▁bar": 2890,
      "▁ilet": 2891,
      "▁konumu": 2892,
      "▁insanların": 2893,
      "▁bizler": 2894,
      "▁fas": 2895,
      "▁str": 2896,
      "▁kalma": 2897,
      "▁agır": 2898,
      "▁kon": 2899,
      "▁airlines": 2900,
      "▁organ": 2901,
      "▁mart": 2902,
      "▁b": 2903,
      "▁kere": 2904,
      "zet": 2905,
      "▁hay": 2906,
      "▁sunları": 2907,
      "▁eden": 2908,
      "▁le": 2909,
      "▁katkı": 2910,
      "▁yolc": 2911,
      "▁suy": 2912,
      "▁300": 2913,
      "▁pazar": 2914,
      "▁1991-19": 2915,
      "▁27": 2916,
      "ucuk": 2917,
      "dun": 2918,
      "▁cıktı": 2919,
      "+": 2920,
      ";": 2921,
      "▁%25": 2922,
      "▁yukarı": 2923,
      "!": 2924,
      "▁bed": 2925,
      "▁sus": 2926,
      "▁hatta": 2927,
      "leyen": 2928,
      "▁wall": 2929,
      "▁kaldı": 2930,
      "▁katil": 2931,
      "oc": 2932,
      "▁temiz": 2933,
      "▁sup": 2934,
      "61": 2935,
      "▁salon": 2936,
      "▁onları": 2937,
      "▁ge": 2938,
      "▁hastan": 2939,
      "afir": 2940,
      "▁olmasi": 2941,
      "artesi": 2942,
      "lanan": 2943,
      "▁mesel": 2944,
      "ing": 2945,
      "▁gider": 2946,
      "▁bos": 2947,
      "▁%30": 2948,
      "▁ar": 2949,
      "▁sap": 2950,
      "kal": 2951,
      "▁oper": 2952,
      "▁gen": 2953,
      "▁havalim": 2954,
      "osu": 2955,
      "▁em": 2956,
      "lıgın": 2957,
      ".25": 2958,
      "▁part": 2959,
      "▁aktarmasız": 2960,
      "lıyor": 2961,
      "▁neredeyse": 2962,
      "▁memphis": 2963,
      "▁erken": 2964,
      "▁tarih": 2965,
      "▁ediyorum": 2966,
      "▁calısıyor": 2967,
      "vil": 2968,
      "uar": 2969,
      "amay": 2970,
      "lerden": 2971,
      "▁amerika": 2972,
      "▁sur": 2973,
      "▁yık": 2974,
      "▁ait": 2975,
      "▁--": 2976,
      "▁kayıp": 2977,
      "x": 2978,
      "dis": 2979,
      "▁mur": 2980,
      "▁olma": 2981,
      "▁dim": 2982,
      "▁gayet": 2983,
      "▁muhtesem": 2984,
      "mas": 2985,
      "larından": 2986,
      "▁hala": 2987,
      "▁gir": 2988,
      "▁arası": 2989,
      "▁etraf": 2990,
      "▁gorunuyor": 2991,
      "▁kontrol": 2992,
      "▁yarım": 2993,
      "ucu": 2994,
      "▁insanlar": 2995,
      "▁1\\/": 2996,
      "▁bizden": 2997,
      "elerinde": 2998,
      "▁tampa": 2999,
      "▁musun": 3000,
      "istim": 3001,
      "▁sana": 3002,
      "tr": 3003,
      "nız": 3004,
      "ugun": 3005,
      "▁kullan": 3006,
      "be": 3007,
      "▁hangi": 3008,
      "▁vermek": 3009,
      "▁isaret": 3010,
      "▁kalmıs": 3011,
      "amaz": 3012,
      "▁'nin": 3013,
      "eni": 3014,
      "▁sul": 3015,
      "eyle": 3016,
      "▁senedi": 3017,
      "uyle": 3018,
      "ıng": 3019,
      "▁rast": 3020,
      "▁karıs": 3021,
      "▁satım": 3022,
      "▁angeles": 3023,
      "amaya": 3024,
      "▁eylem": 3025,
      "imin": 3026,
      "▁evvel": 3027,
      "▁beye": 3028,
      "iyor": 3029,
      "m": 3030,
      "ci": 3031,
      "liydi": 3032,
      "ilm": 3033,
      "ekli": 3034,
      "man": 3035,
      "uyordu": 3036,
      "▁bek": 3037,
      "▁anlat": 3038,
      "lari": 3039,
      "vıl": 3040,
      "▁dobra": 3041,
      "▁ode": 3042,
      "lem": 3043,
      "▁don": 3044,
      "▁gunluk": 3045,
      "▁oak": 3046,
      "▁karsıl": 3047,
      "▁sa": 3048,
      "▁vardır": 3049,
      "▁demir": 3050,
      "▁hik": 3051,
      "▁aj": 3052,
      "j": 3053,
      "▁5": 3054,
      "▁olacak": 3055,
      "▁ac": 3056,
      "▁herk": 3057,
      "▁risk": 3058,
      "▁orada": 3059,
      "endir": 3060,
      "▁bo": 3061,
      "ret": 3062,
      "madan": 3063,
      "isine": 3064,
      "▁parmak": 3065,
      "▁et": 3066,
      "ısına": 3067,
      "▁(": 3068,
      "ir": 3069,
      "▁sak": 3070,
      "▁turk": 3071,
      "▁rol": 3072,
      "▁ed": 3073,
      "▁cic": 3074,
      "ur": 3075,
      "▁sorunu": 3076,
      "▁muzik": 3077,
      "▁is": 3078,
      "▁.\"": 3079,
      "lu": 3080,
      "▁borc": 3081,
      "▁sev": 3082,
      "▁kay": 3083,
      "▁st": 3084,
      "▁60": 3085,
      "iler": 3086,
      "et": 3087,
      "atır": 3088,
      "▁pat": 3089,
      "▁cumhur": 3090,
      "▁durum": 3091,
      "▁yemekleri": 3092,
      "▁olay": 3093,
      "▁sosy": 3094,
      "2:30": 3095,
      "tıgı": 3096,
      "lastır": 3097,
      "▁odaydi": 3098,
      "▁yasak": 3099,
      "▁ucretin": 3100,
      "▁dallas'a": 3101,
      "▁bildirdi": 3102,
      "elerini": 3103,
      "▁beydi": 3104,
      "▁:": 3105,
      "alarında": 3106,
      "▁uzerindeki": 3107,
      "lım": 3108,
      "ısı": 3109,
      "emey": 3110,
      "▁%0.2": 3111,
      "▁or": 3112,
      "▁misafir": 3113,
      "▁yaptıgı": 3114,
      "▁er": 3115,
      "▁gizli": 3116,
      "▁askeri": 3117,
      "▁havuz": 3118,
      "▁ef": 3119,
      "▁ep": 3120,
      "▁milwaukee": 3121,
      "▁bakıs": 3122,
      "una": 3123,
      "▁yeter": 3124,
      "▁menkul": 3125,
      "▁kucuktu": 3126,
      "▁girdi": 3127,
      "▁tuc": 3128,
      "▁fık": 3129,
      "▁vucu": 3130,
      "atif": 3131,
      "▁uret": 3132,
      "▁haf": 3133,
      "on": 3134,
      "yen": 3135,
      "▁bolum": 3136,
      "▁oldugun": 3137,
      "▁for": 3138,
      "▁eks": 3139,
      "▁yatak": 3140,
      "▁oldukca": 3141,
      "▁eger": 3142,
      "gında": 3143,
      "eyen": 3144,
      "▁nakit": 3145,
      "▁": 3146,
      "▁sh": 3147,
      "▁min": 3148,
      "▁edecek": 3149,
      "onel": 3150,
      "▁do": 3151,
      "#": 3152,
      "▁baslamıs": 3153,
      "▁jones": 3154,
      "iyle": 3155,
      "▁yiy": 3156,
      "▁kurulu": 3157,
      "▁fut": 3158,
      "▁$": 3159,
      "▁dolay": 3160,
      "▁gaz": 3161,
      "▁ter": 3162,
      "omur": 3163,
      "▁kost": 3164,
      "▁mot": 3165,
      "lum": 3166,
      "▁kus": 3167,
      "ap": 3168,
      "umu": 3169,
      "▁tefek": 3170,
      "▁faz": 3171,
      "▁buz": 3172,
      "▁vegas": 3173,
      "eral": 3174,
      "▁degiller": 3175,
      "▁laf": 3176,
      "lat": 3177,
      "adı": 3178,
      "▁yoktu": 3179,
      "▁ona": 3180,
      "▁milli": 3181,
      "▁gi": 3182,
      "▁merak": 3183,
      "▁bulundu": 3184,
      "▁mukemmeldi": 3185,
      "ilere": 3186,
      "▁hayat": 3187,
      "▁gereken": 3188,
      "▁kısa": 3189,
      "▁tekrar": 3190,
      "iyeti": 3191,
      "g": 3192,
      "▁kel": 3193,
      "emek": 3194,
      "▁us": 3195,
      "▁seni": 3196,
      "▁sipar": 3197,
      "isindan": 3198,
      "rek": 3199,
      "▁ici": 3200,
      "tan": 3201,
      "rem": 3202,
      "▁hazine": 3203,
      "meler": 3204,
      "aları": 3205,
      "▁ta": 3206,
      "▁gorus": 3207,
      "▁gosterin": 3208,
      "esiyle": 3209,
      "▁calısma": 3210,
      "▁beklem": 3211,
      "▁bab": 3212,
      "▁bir": 3213,
      "eri": 3214,
      "▁gercekten": 3215,
      "▁ufak": 3216,
      "▁olsa": 3217,
      "▁onların": 3218,
      "▁edi": 3219,
      "▁yazar": 3220,
      "▁personelleri": 3221,
      "▁il": 3222,
      "ıtır": 3223,
      "▁onemli": 3224,
      "ov": 3225,
      "tas": 3226,
      "▁ister": 3227,
      "▁yahut": 3228,
      "▁kıymet": 3229,
      "▁'": 3230,
      "▁ekonomik": 3231,
      "▁gide": 3232,
      "gileri": 3233,
      "▁yen": 3234,
      "maz": 3235,
      "bur": 3236,
      "▁tuket": 3237,
      "▁endeks": 3238,
      "'nde": 3239,
      "▁incel": 3240,
      "mal": 3241,
      "▁gur": 3242,
      "▁ucusları": 3243,
      "▁ucuyor": 3244,
      "▁hepsin": 3245,
      "75": 3246,
      "▁gecen": 3247,
      "▁agac": 3248,
      "▁borsa": 3249,
      "alıgı": 3250,
      "▁sabit": 3251,
      "▁odamiz": 3252,
      "▁havaalanı": 3253,
      "est": 3254,
      "▁tuttu": 3255,
      "'den": 3256,
      "mez": 3257,
      "▁soz": 3258,
      "gis": 3259,
      "▁kurtul": 3260,
      "▁ilac": 3261,
      "▁orland": 3262,
      "▁sol": 3263,
      "▁dikkat": 3264,
      "▁dunyanın": 3265,
      "dog": 3266,
      "olu": 3267,
      "▁kimi": 3268,
      "▁ban": 3269,
      "lan": 3270,
      "ke": 3271,
      "▁persembe": 3272,
      "▁ag": 3273,
      "▁tav": 3274,
      "▁22-23": 3275,
      "emem": 3276,
      "ite": 3277,
      "▁sadece": 3278,
      "▁dusun": 3279,
      "▁artarak": 3280,
      "▁ila": 3281,
      "imizi": 3282,
      "▁yılında": 3283,
      "ere": 3284,
      "▁olup": 3285,
      "▁gidis": 3286,
      "yor": 3287,
      "imi": 3288,
      "▁olursa": 3289,
      "▁yılda": 3290,
      "apolis": 3291,
      "▁gitt": 3292,
      "agıt": 3293,
      "kiz": 3294,
      "▁cey": 3295,
      "▁21": 3296,
      "▁itir": 3297,
      "▁ney": 3298,
      "▁denver'e": 3299,
      "▁alabilir": 3300,
      "ital": 3301,
      "esi": 3302,
      "lt": 3303,
      "alarda": 3304,
      "istan": 3305,
      "▁yetkil": 3306,
      "▁veren": 3307,
      "mesine": 3308,
      "▁cok": 3309,
      "ını": 3310,
      "ası": 3311,
      "▁tec": 3312,
      "lamaya": 3313,
      "▁sor": 3314,
      "hi": 3315,
      "30": 3316,
      "▁mevcut": 3317,
      "▁didik": 3318,
      "isel": 3319,
      "ligi": 3320,
      "esine": 3321,
      "▁ederek": 3322,
      "▁gog": 3323,
      "▁saray": 3324,
      "amadim": 3325,
      "▁ozgur": 3326,
      "▁doktor": 3327,
      "▁fingir": 3328,
      "▁%3.5": 3329,
      "▁af": 3330,
      "'yi": 3331,
      "▁r": 3332,
      "▁tek": 3333,
      "▁mad": 3334,
      "▁cab": 3335,
      "▁haz": 3336,
      "▁halinde": 3337,
      "▁ettik": 3338,
      "▁36": 3339,
      "▁dair": 3340,
      "▁kitap": 3341,
      "▁ya": 3342,
      "lılık": 3343,
      "▁kong": 3344,
      "▁ceb": 3345,
      "▁gece": 3346,
      "ni": 3347,
      "▁kez": 3348,
      "embe": 3349,
      "sekiz": 3350,
      "uru": 3351,
      "▁degil": 3352,
      "ha": 3353,
      "ince": 3354,
      "▁soyle": 3355,
      "▁fıkı": 3356,
      "uston": 3357,
      "▁kam": 3358,
      "isinin": 3359,
      "▁gercekles": 3360,
      "▁boyle": 3361,
      "▁kan": 3362,
      "▁ekim": 3363,
      "▁dak": 3364,
      "▁sag": 3365,
      "lenen": 3366,
      "eyim": 3367,
      "▁cıkan": 3368,
      "▁nedeniyle": 3369,
      "▁hazır": 3370,
      "(": 3371,
      "al": 3372,
      "▁denize": 3373,
      "▁%27": 3374,
      "dikleri": 3375,
      "▁yapmaya": 3376,
      "▁yagmur": 3377,
      "▁savunma": 3378,
      "ecegi": 3379,
      "▁kop": 3380,
      "▁americ": 3381,
      "▁olmadıgını": 3382,
      "esel": 3383,
      "bas": 3384,
      "▁bilir": 3385,
      "▁yay": 3386,
      "▁herhangi": 3387,
      "▁fatur": 3388,
      "▁etti": 3389,
      "▁ard": 3390,
      "▁inc": 3391,
      "▁bakan": 3392,
      "▁hızlı": 3393,
      "▁kendime": 3394,
      "eg": 3395,
      "▁yor": 3396,
      "lıgını": 3397,
      "▁kalitesi": 3398,
      "uv": 3399,
      "▁baltimore'den": 3400,
      "▁fena": 3401,
      "▁arttı": 3402,
      "cısı": 3403,
      "▁kuzey": 3404,
      "esinin": 3405,
      "▁temmuz": 3406,
      "▁muhtem": 3407,
      "▁haval": 3408,
      "▁sabah": 3409,
      "▁yiyecek": 3410,
      "▁sam": 3411,
      "▁be": 3412,
      "inc": 3413,
      "sim": 3414,
      "dıktan": 3415,
      "▁talep": 3416,
      "ab": 3417,
      "▁ragmen": 3418,
      "mini": 3419,
      "▁john": 3420,
      "▁numar": 3421,
      "ren": 3422,
      "▁olduk": 3423,
      "ayol": 3424,
      "▁city": 3425,
      "▁tabii": 3426,
      "▁gene": 3427,
      "▁gem": 3428,
      "▁bası": 3429,
      "▁elektrik": 3430,
      "eleri": 3431,
      "bir": 3432,
      "▁kol": 3433,
      "▁adeta": 3434,
      "▁sebep": 3435,
      "▁hukum": 3436,
      "orth": 3437,
      "▁biles": 3438,
      "▁super": 3439,
      "4": 3440,
      "uf": 3441,
      "▁%17": 3442,
      "▁kayı": 3443,
      "▁ikinci": 3444,
      "▁bahc": 3445,
      "ator": 3446,
      "▁mil": 3447,
      "yse": 3448,
      "▁gay": 3449,
      "masının": 3450,
      "▁iy": 3451,
      "tılar": 3452,
      "▁guney": 3453,
      "▁iler": 3454,
      "ima": 3455,
      "▁karsın": 3456,
      "▁cen": 3457,
      "▁5-1": 3458,
      "▁baslan": 3459,
      "veland": 3460,
      "▁intern": 3461,
      "▁birine": 3462,
      "aba": 3463,
      "▁kusur": 3464,
      "7": 3465,
      "▁dolu": 3466,
      "▁program": 3467,
      "▁film": 3468,
      "▁tip": 3469,
      "▁38": 3470,
      "▁ilgi": 3471,
      "gru": 3472,
      "▁phil": 3473,
      "leme": 3474,
      "gumuz": 3475,
      "▁yuv": 3476,
      "▁kendim": 3477,
      "▁havuzu": 3478,
      "lastı": 3479,
      "▁rek": 3480,
      "▁sıcak": 3481,
      "sı": 3482,
      "istir": 3483,
      "▁nerede": 3484,
      "aya": 3485,
      "▁parc": 3486,
      "▁telefon": 3487,
      "uklum": 3488,
      "▁emek": 3489,
      "▁galib": 3490,
      "[MASK]": 3491,
      "▁ayakk": 3492,
      "▁seattle'ye": 3493,
      "▁ustunde": 3494,
      "▁kis": 3495,
      "▁ailelere": 3496,
      "▁fakat": 3497,
      "▁gul": 3498,
      "▁boston'dan": 3499,
      "▁kamu": 3500,
      "▁%3": 3501,
      "dim": 3502,
      "▁yonet": 3503,
      "▁-": 3504,
      "▁cal": 3505,
      "asıyor": 3506,
      "▁elektr": 3507,
      "'le": 3508,
      "▁yaptirdi": 3509,
      "▁seyden": 3510,
      "▁bak": 3511,
      "▁olacaktır": 3512,
      "▁miyim": 3513,
      "▁bolg": 3514,
      "▁baltimore": 3515,
      "ekler": 3516,
      "▁memnun": 3517,
      "ede": 3518,
      "▁fokur": 3519,
      "▁uzan": 3520,
      "ısının": 3521,
      "▁emin": 3522,
      "▁tor": 3523,
      "▁surekli": 3524,
      "?": 3525,
      "ufur": 3526,
      "▁gordum": 3527,
      "▁''": 3528,
      "▁sal": 3529,
      "cuk": 3530,
      "sun": 3531,
      "sin": 3532,
      "▁servis": 3533,
      "el": 3534,
      "▁elinde": 3535,
      "▁day": 3536,
      "i": 3537,
      "▁i": 3538,
      "irdi": 3539,
      "bi": 3540,
      "▁american": 3541,
      "▁soh": 3542,
      "▁ydu": 3543,
      "▁urun": 3544,
      "▁reklam": 3545,
      "▁class": 3546,
      "meyi": 3547,
      "▁erkek": 3548,
      "▁gunku": 3549,
      "ması": 3550,
      "▁kaliforn": 3551,
      "▁biliyor": 3552,
      "▁memleket": 3553,
      "ri": 3554,
      "▁sahn": 3555,
      "asi": 3556,
      "▁dos": 3557,
      "iyorlar": 3558,
      "▁sasır": 3559,
      "▁ber": 3560,
      "▁beri": 3561,
      "eder": 3562,
      "▁fik": 3563,
      "▁azdi": 3564,
      "▁hafif": 3565,
      "▁ogle": 3566,
      "▁per": 3567,
      "▁ucusu": 3568,
      "sat": 3569,
      "_": 3570,
      "▁kar": 3571,
      "▁fel": 3572,
      "▁desik": 3573,
      "alarla": 3574,
      "s": 3575,
      "▁olmak": 3576,
      "▁!": 3577,
      "▁tutar": 3578,
      "▁cıkar": 3579,
      "cılar": 3580,
      "▁dusunuyor": 3581,
      "▁mı": 3582,
      "▁…": 3583,
      "▁om": 3584,
      "▁yetis": 3585,
      "▁toplum": 3586,
      "▁bulunuyor": 3587,
      "▁bey": 3588,
      "▁buyuk": 3589,
      "▁uz": 3590,
      "▁tam": 3591,
      "ill": 3592,
      "▁kahve": 3593,
      "▁proj": 3594,
      "▁street": 3595,
      "▁zayıf": 3596,
      "▁boz": 3597,
      "▁karar": 3598,
      "▁1\\/2": 3599,
      "▁degistir": 3600,
      "ugu": 3601,
      "▁feder": 3602,
      "▁seatt": 3603,
      "▁rezerv": 3604,
      "▁memur": 3605,
      "dir": 3606,
      "estir": 3607,
      "siy": 3608,
      "f": 3609,
      "▁degilim": 3610,
      "▁bahs": 3611,
      "cek": 3612,
      "▁acık": 3613,
      "▁olur": 3614,
      "▁kendilerini": 3615,
      "▁sigorta": 3616,
      "▁pac": 3617,
      "▁gibi": 3618,
      "▁guleryuzlu": 3619,
      "▁dir": 3620,
      "ib": 3621,
      "▁ediyor": 3622,
      "▁onlardan": 3623,
      "▁cincinnati": 3624,
      "▁davet": 3625,
      "sa": 3626,
      "▁lar": 3627,
      "▁gec": 3628,
      "emiyor": 3629,
      "mesi": 3630,
      "emi": 3631,
      "▁calıs": 3632,
      "ine": 3633,
      "▁los": 3634,
      "iv": 3635,
      "▁demokr": 3636,
      "▁davran": 3637,
      "ng": 3638,
      "▁1989-8": 3639,
      "▁hasır": 3640,
      "abilir": 3641,
      "▁haber": 3642,
      "▁kulak": 3643,
      "tiler": 3644,
      "ert": 3645,
      "▁kendini": 3646,
      "▁havayolu": 3647,
      "ara": 3648,
      "▁amac": 3649,
      "▁sigort": 3650,
      "▁altına": 3651,
      "▁yuzu": 3652,
      "▁44": 3653,
      "▁gorur": 3654,
      "▁bost": 3655,
      "▁actı": 3656,
      "\"": 3657,
      "▁ho": 3658,
      "▁yalnız": 3659,
      "hal": 3660,
      "▁memph": 3661,
      "a": 3662,
      "lemek": 3663,
      "▁oyn": 3664,
      "▁gore": 3665,
      "▁rec": 3666,
      "▁cont": 3667,
      "▁guleryuzluydu": 3668,
      "▁ham": 3669,
      "gim": 3670,
      "▁hepsini": 3671,
      "▁fing": 3672,
      "misler": 3673,
      "▁takım": 3674,
      "▁dusman": 3675,
      "ısından": 3676,
      "gıc": 3677,
      "▁m": 3678,
      "▁cır": 3679,
      "\\/8": 3680,
      "▁tuz": 3681,
      "ıyla": 3682,
      "uyorum": 3683,
      "▁soylen": 3684,
      "[UNK]": 3685,
      "▁uzun": 3686,
      "▁politik": 3687,
      "▁yazı": 3688,
      "▁konusunda": 3689,
      "▁ile": 3690,
      "tiv": 3691,
      "▁kansas": 3692,
      "ational": 3693,
      "▁ucrete": 3694,
      "▁sef": 3695,
      "▁univ": 3696,
      "▁ig": 3697,
      "▁verilen": 3698,
      "ebilir": 3699,
      "▁dc": 3700,
      "▁hesap": 3701,
      "▁begen": 3702,
      "▁ve": 3703,
      "▁bence": 3704,
      "▁bog": 3705,
      "▁vur": 3706,
      "a'nın": 3707,
      "▁sart": 3708,
      "▁kasım": 3709,
      "▁elestir": 3710,
      "▁ocak": 3711,
      "amb": 3712,
      "▁cil": 3713,
      "▁olmus": 3714,
      "▁lezzet": 3715,
      "▁/": 3716,
      "▁yemeklerinden": 3717,
      "▁sikinti": 3718,
      "▁kazan": 3719,
      "6": 3720,
      "luluk": 3721,
      "alardan": 3722,
      "▁yapılacak": 3723,
      "anın": 3724,
      "▁oldur": 3725,
      "▁varlık": 3726,
      "▁egitim": 3727,
      "▁%0": 3728,
      "▁g": 3729,
      "▁otel": 3730,
      "▁hatır": 3731,
      "▁duz": 3732,
      "uyor": 3733,
      "▁alıs": 3734,
      "ırk": 3735,
      "▁yanında": 3736,
      "▁lis": 3737,
      "▁hepimiz": 3738,
      "▁tes": 3739,
      "▁istiyorum": 3740,
      "▁50": 3741,
      "▁gercek": 3742,
      "▁bana": 3743,
      "▁boyunca": 3744,
      "▁cıl": 3745,
      "'te": 3746,
      "gini": 3747,
      "maları": 3748,
      "▁ic": 3749,
      "▁batı": 3750,
      "▁bur": 3751,
      "▁hukuk": 3752,
      "-4": 3753,
      "ayıf": 3754,
      "pan": 3755,
      "▁kapandı": 3756,
      "▁gerekiyor": 3757,
      "▁kalmadim": 3758,
      "▁nash": 3759,
      "▁international": 3760,
      "▁ydi": 3761,
      "▁itibar": 3762,
      "▁bol": 3763,
      "▁sahip": 3764,
      "'ndan": 3765,
      "ıy": 3766,
      "▁gecmis": 3767,
      "▁%7.5": 3768,
      "▁turlu": 3769,
      "▁porcuk": 3770,
      "▁pan": 3771,
      "▁1.5": 3772,
      "▁degilse": 3773,
      "▁anlasma": 3774,
      "▁ver": 3775,
      "ancı": 3776,
      "▁havayolları": 3777,
      "om": 3778,
      "▁agz": 3779,
      "▁geliyor": 3780,
      "▁%22": 3781,
      "▁ekledi": 3782,
      "ın": 3783,
      "▁met": 3784,
      "inin": 3785,
      "▁carp": 3786,
      "▁bin": 3787,
      "edef": 3788,
      "▁problem": 3789,
      "▁yav": 3790,
      "ır": 3791,
      "▁ara": 3792,
      "▁57": 3793,
      "▁hangisi": 3794,
      "▁halen": 3795,
      "▁az": 3796,
      "▁anlas": 3797,
      "▁yapar": 3798,
      "▁ail": 3799,
      "▁bilin": 3800,
      "@": 3801,
      "▁calısan": 3802,
      "▁kal": 3803,
      "▁sac": 3804,
      "asa": 3805,
      "▁sokak": 3806,
      "ecek": 3807,
      "▁ilgil": 3808,
      "▁top": 3809,
      "▁kah": 3810,
      "▁odalar": 3811,
      "▁tan": 3812,
      "ens": 3813,
      "uc": 3814,
      "▁gelmis": 3815,
      "▁madd": 3816,
      "▁tamam": 3817,
      "▁faaliyet": 3818,
      "▁dom": 3819,
      "▁hamam": 3820,
      "▁yapıl": 3821,
      "▁kum": 3822,
      "▁new": 3823,
      "alım": 3824,
      "▁sıkı": 3825,
      "ızı": 3826,
      "nin": 3827,
      "▁miktar": 3828,
      "ustri": 3829,
      "▁har": 3830,
      "▁gidi": 3831,
      "▁eg": 3832,
      "rup": 3833,
      "▁sp": 3834,
      "▁avrupa": 3835,
      "▁degerlendir": 3836,
      "ar": 3837,
      "▁ner": 3838,
      "▁mak": 3839,
      "89-": 3840,
      "▁9": 3841,
      "dın": 3842,
      "▁etme": 3843,
      "ji": 3844,
      "▁199": 3845,
      "▁“": 3846,
      "ınc": 3847,
      "▁yarın": 3848,
      "▁jon": 3849,
      "▁ch": 3850,
      "emmel": 3851,
      "▁nashville": 3852,
      "cilik": 3853,
      "▁al": 3854,
      "▁asıl": 3855,
      "▁sizin": 3856,
      "▁cam": 3857,
      "▁su": 3858,
      "phia": 3859,
      "▁profes": 3860,
      "▁kov": 3861,
      "▁29": 3862,
      "▁haline": 3863,
      "▁neler": 3864,
      "▁3.": 3865,
      "▁dolayı": 3866,
      "▁pers": 3867,
      "▁fayd": 3868,
      "▁dısarı": 3869,
      "▁pittsburgh'a": 3870,
      "acık": 3871,
      "daki": 3872,
      "forman": 3873,
      "luk": 3874,
      "▁kisi": 3875,
      "▁taz": 3876,
      "lah": 3877,
      "▁hus": 3878,
      "siniz": 3879,
      "▁ornek": 3880,
      "n": 3881,
      "▁ticaret": 3882,
      "▁durumu": 3883,
      "▁pol": 3884,
      "▁sarı": 3885,
      "bus": 3886,
      "▁sinir": 3887,
      "iyat": 3888,
      "▁satıslar": 3889,
      "ulan": 3890,
      "▁istem": 3891,
      "▁hepsi": 3892,
      "der": 3893,
      "esinde": 3894,
      "▁denver'den": 3895,
      "▁yayın": 3896,
      "'na": 3897,
      "▁edin": 3898,
      "▁cez": 3899,
      "ala": 3900,
      "hu": 3901,
      "▁icinde": 3902,
      "▁kalit": 3903,
      "▁ayni": 3904,
      "▁sekilde": 3905,
      "▁bl": 3906,
      "▁ele": 3907,
      "▁aydın": 3908,
      "unda": 3909,
      "▁birini": 3910,
      "▁pırıl": 3911,
      "▁toplan": 3912,
      "eki": 3913,
      "▁gund": 3914,
      "▁46": 3915,
      "▁surdur": 3916,
      "▁)": 3917,
      "▁asla": 3918,
      "ti": 3919,
      "ic": 3920,
      "etir": 3921,
      "▁kork": 3922,
      "urdu": 3923,
      "▁yuksel": 3924,
      "▁etkil": 3925,
      "anc": 3926,
      "▁kayn": 3927,
      "▁lut": 3928,
      "ob": 3929,
      "▁sem": 3930,
      "azım": 3931,
      "▁%5.4": 3932,
      "▁kos": 3933,
      "larıyla": 3934,
      "▁e": 3935,
      "▁lezzetli": 3936,
      "burg": 3937,
      "arlar": 3938,
      "▁31": 3939,
      "larına": 3940,
      "▁hisse": 3941,
      "▁deger": 3942,
      "▁lungur": 3943,
      "▁%50": 3944,
      "▁tesisti": 3945,
      "▁veriyorum": 3946,
      "ayım": 3947,
      "▁birbiri": 3948,
      "ıt": 3949,
      "▁nit": 3950,
      "pa": 3951,
      "▁cer": 3952,
      "▁kas": 3953,
      "▁karsılık": 3954,
      "▁zar": 3955,
      "▁ek": 3956,
      "▁c": 3957,
      "▁kısı": 3958,
      "▁ali": 3959,
      "an": 3960,
      "▁sektor": 3961,
      "asına": 3962,
      "​": 3963,
      "ag": 3964,
      "▁tab": 3965,
      "▁gazet": 3966,
      "ıntı": 3967,
      "▁gelen": 3968,
      "▁oakland": 3969,
      "c": 3970,
      "▁cur": 3971,
      "▁seyr": 3972,
      "am": 3973,
      "sız": 3974,
      "▁nes": 3975,
      "▁isin": 3976,
      "▁yildiz": 3977,
      "▁utan": 3978,
      "agan": 3979,
      "▁kurt": 3980,
      "▁dayan": 3981,
      "elere": 3982,
      "tedir": 3983,
      "▁cevap": 3984,
      "▁olabilirdi": 3985,
      "▁okum": 3986,
      ".3": 3987,
      "erv": 3988,
      "cut": 3989,
      "▁fıs": 3990,
      "ane": 3991,
      "▁eskiydi": 3992,
      "ukee": 3993,
      "▁onumuz": 3994,
      "▁lak": 3995,
      "ulmus": 3996,
      "▁baska": 3997,
      "▁ilgilendiler": 3998,
      "▁idi": 3999,
      "▁karsı": 4000,
      "▁japon": 4001,
      "▁gittik": 4002,
      "▁yere": 4003,
      "▁ogretmen": 4004,
      "meye": 4005,
      "▁yuks": 4006,
      "‘": 4007,
      "▁gitti": 4008,
      "tıg": 4009,
      "19": 4010,
      "▁tanım": 4011,
      "▁saat": 4012,
      "▁sorun": 4013,
      "eb": 4014,
      "▁kutur": 4015,
      "▁uyan": 4016,
      "▁kuz": 4017,
      "digi": 4018,
      "▁kadar": 4019,
      "▁op": 4020,
      "▁ilgiliydi": 4021,
      "ij": 4022,
      "ler": 4023,
      "▁fak": 4024,
      "000": 4025,
      "▁birlik": 4026,
      "ligin": 4027,
      "asır": 4028,
      "▁homur": 4029,
      "lerinin": 4030,
      "masız": 4031,
      "▁on": 4032,
      "▁hava": 4033,
      "▁kahval": 4034,
      "▁red": 4035,
      "▁geciyor": 4036,
      "▁reddetti": 4037,
      "uluyor": 4038,
      "apon": 4039,
      "hur": 4040,
      "lamak": 4041,
      "▁iti": 4042,
      "ecegim": 4043,
      "ter": 4044,
      "dugu": 4045,
      "▁ingil": 4046,
      "kel": 4047,
      "▁ih": 4048,
      "men": 4049,
      "▁washington": 4050,
      "▁z": 4051,
      "▁anlam": 4052,
      "▁%14": 4053,
      "tin": 4054,
      "▁duzel": 4055,
      "atı": 4056,
      "enler": 4057,
      "h": 4058,
      "lendi": 4059,
      "▁bank": 4060,
      "▁atlanta'ya": 4061,
      "▁tane": 4062,
      "▁kır": 4063,
      "▁yıllık": 4064,
      "▁diye": 4065,
      "▁biraz": 4066,
      "roit": 4067,
      "▁hes": 4068,
      "▁%1": 4069,
      "▁mis": 4070,
      "▁calisanlar": 4071,
      "land": 4072,
      "▁miy": 4073,
      "▁geril": 4074,
      "▁bayan": 4075,
      "▁gol": 4076,
      "ilir": 4077,
      "▁kaldim": 4078,
      "tir": 4079,
      "▁mahk": 4080,
      "ung": 4081,
      "▁bor": 4082,
      "ich": 4083,
      "▁gok": 4084,
      "▁ler": 4085,
      "▁port": 4086,
      "▁cıyak": 4087,
      "▁soy": 4088,
      "▁cep": 4089,
      "isco": 4090,
      "▁kuc": 4091,
      "▁insaat": 4092,
      "ank": 4093,
      "▁vegas'a": 4094,
      "▁duygu": 4095
    },
    "merges": [
      [
        "an",
        "lar"
      ],
      [
        "▁a",
        "it"
      ],
      [
        "▁o",
        "l"
      ],
      [
        "▁kar",
        "ak"
      ],
      [
        "▁kars",
        "ıl"
      ],
      [
        "▁sikin",
        "ti"
      ],
      [
        "▁mi",
        "y"
      ],
      [
        "ar",
        "ı"
      ],
      [
        "▁l",
        "ung"
      ],
      [
        "▁ak",
        "ıl"
      ],
      [
        "▁dallas",
        "'a"
      ],
      [
        "▁",
        "19"
      ],
      [
        "▁duny",
        "anın"
      ],
      [
        "len",
        "di"
      ],
      [
        "▁as",
        "ırı"
      ],
      [
        "▁",
        "m"
      ],
      [
        "b",
        "ul"
      ],
      [
        "▁bul",
        "dum"
      ],
      [
        "▁s",
        "av"
      ],
      [
        "▁n",
        "um"
      ],
      [
        "▁v",
        "egas"
      ],
      [
        "▁sig",
        "orta"
      ],
      [
        "t",
        "ıs"
      ],
      [
        "▁h",
        "ab"
      ],
      [
        "6",
        "1"
      ],
      [
        "▁c",
        "es"
      ],
      [
        "▁s",
        "i"
      ],
      [
        "p",
        "a"
      ],
      [
        "d",
        "i"
      ],
      [
        "▁t",
        "ab"
      ],
      [
        "▁al",
        "ır"
      ],
      [
        "an",
        "d"
      ],
      [
        "▁son",
        "a"
      ],
      [
        "▁sp",
        "or"
      ],
      [
        "▁p",
        "ufur"
      ],
      [
        "o",
        "s"
      ],
      [
        "▁d",
        "et"
      ],
      [
        "em",
        "ez"
      ],
      [
        "is",
        "ini"
      ],
      [
        "▁..",
        "."
      ],
      [
        "▁bul",
        "un"
      ],
      [
        "lıg",
        "ını"
      ],
      [
        "▁ol",
        "um"
      ],
      [
        "▁ver",
        "digi"
      ],
      [
        "▁ol",
        "uyor"
      ],
      [
        "▁f",
        "ut"
      ],
      [
        "'",
        "tan"
      ],
      [
        "▁h",
        "er"
      ],
      [
        "▁in",
        "dir"
      ],
      [
        "▁dur",
        "um"
      ],
      [
        "▁i",
        "di"
      ],
      [
        "▁c",
        "iz"
      ],
      [
        "eg",
        "in"
      ],
      [
        "▁",
        "z"
      ],
      [
        "▁it",
        "hal"
      ],
      [
        "▁baltimore",
        "'den"
      ],
      [
        "▁%2",
        "2"
      ],
      [
        "▁var",
        "sa"
      ],
      [
        "▁a",
        "y"
      ],
      [
        "▁gec",
        "en"
      ],
      [
        "▁guleryuz",
        "lu"
      ],
      [
        "▁cocuk",
        "lu"
      ],
      [
        "em",
        "edi"
      ],
      [
        "-2",
        "00"
      ],
      [
        "▁b",
        "uz"
      ],
      [
        "▁fıs",
        "ır"
      ],
      [
        "▁y",
        "er"
      ],
      [
        "▁on",
        "u"
      ],
      [
        "▁k",
        "el"
      ],
      [
        "▁lezzet",
        "li"
      ],
      [
        "▁hal",
        "ine"
      ],
      [
        "p",
        "ıs"
      ],
      [
        "▁k",
        "om"
      ],
      [
        "▁%0",
        ".2"
      ],
      [
        "ist",
        "en"
      ],
      [
        "▁n",
        "e"
      ],
      [
        "▁on",
        "a"
      ],
      [
        "▁1/",
        "4"
      ],
      [
        "lan",
        "an"
      ],
      [
        "▁2",
        "3"
      ],
      [
        "▁denver",
        "'e"
      ],
      [
        "▁fir",
        "st"
      ],
      [
        "c",
        "ı"
      ],
      [
        "ay",
        "et"
      ],
      [
        "▁p",
        "il"
      ],
      [
        "k",
        "et"
      ],
      [
        "▁l",
        "azım"
      ],
      [
        "▁",
        "r"
      ],
      [
        "▁",
        "la"
      ],
      [
        "▁kan",
        "un"
      ],
      [
        "▁a",
        "d"
      ],
      [
        "▁misin",
        "iz"
      ],
      [
        ":",
        "30"
      ],
      [
        "▁kahv",
        "e"
      ],
      [
        "al",
        "t"
      ],
      [
        "▁l",
        "ı"
      ],
      [
        "▁bu",
        "n"
      ],
      [
        "▁t",
        "ip"
      ],
      [
        "▁pittsburgh",
        "'tan"
      ],
      [
        "▁d",
        "uzel"
      ],
      [
        "li",
        "gini"
      ],
      [
        "▁fak",
        "at"
      ],
      [
        "ey",
        "n"
      ],
      [
        "▁gel",
        "mis"
      ],
      [
        "▁i",
        "h"
      ],
      [
        "▁yas",
        "ak"
      ],
      [
        "b",
        "ar"
      ],
      [
        "▁on",
        "un"
      ],
      [
        "▁en",
        "gel"
      ],
      [
        "▁pa",
        "ul"
      ],
      [
        "▁b",
        "ur"
      ],
      [
        "▁y",
        "ana"
      ],
      [
        "g",
        "ı"
      ],
      [
        "▁4",
        "1"
      ],
      [
        "▁t",
        "el"
      ],
      [
        "ul",
        "du"
      ],
      [
        "r",
        "ik"
      ],
      [
        "▁o",
        "larak"
      ],
      [
        "▁mıy",
        "dı"
      ],
      [
        "▁f",
        "ıldır"
      ],
      [
        "ler",
        "den"
      ],
      [
        "▁el",
        "de"
      ],
      [
        "▁bunlar",
        "ın"
      ],
      [
        "▁def",
        "a"
      ],
      [
        "▁a",
        "ir"
      ],
      [
        "▁n",
        "ere"
      ],
      [
        "▁z",
        "or"
      ],
      [
        "▁kos",
        "ul"
      ],
      [
        "e",
        "z"
      ],
      [
        "▁biz",
        "den"
      ],
      [
        "▁b",
        "oz"
      ],
      [
        "▁s",
        "ov"
      ],
      [
        "▁tı",
        "m"
      ],
      [
        "s",
        "iniz"
      ],
      [
        "▁yardım",
        "cısı"
      ],
      [
        "apol",
        "is"
      ],
      [
        "▁sık",
        "ı"
      ],
      [
        "r",
        "up"
      ],
      [
        "▁du",
        "k"
      ],
      [
        "in",
        "deki"
      ],
      [
        "▁",
        "/"
      ],
      [
        "▁deniz",
        "e"
      ],
      [
        "▁o",
        "ak"
      ],
      [
        "▁begen",
        "medim"
      ],
      [
        "▁al",
        "acak"
      ],
      [
        "imiz",
        "e"
      ],
      [
        "ayı",
        "f"
      ],
      [
        "▁performan",
        "s"
      ],
      [
        "▁gerek",
        "iyor"
      ],
      [
        "▁ar",
        "ada"
      ],
      [
        "▁dav",
        "et"
      ],
      [
        "▁doları",
        "'na"
      ],
      [
        "▁i",
        "le"
      ],
      [
        "ıl",
        "mıs"
      ],
      [
        "▁francisco",
        "'dan"
      ],
      [
        "▁sor",
        "um"
      ],
      [
        "iz",
        "m"
      ],
      [
        "mis",
        "ler"
      ],
      [
        "▁ev",
        "vel"
      ],
      [
        "▁sig",
        "ort"
      ],
      [
        "ıs",
        "ıl"
      ],
      [
        "m",
        "e"
      ],
      [
        "▁d",
        "ar"
      ],
      [
        "▁3",
        "9"
      ],
      [
        "as",
        "h"
      ],
      [
        "▁fen",
        "a"
      ],
      [
        "▁dok",
        "un"
      ],
      [
        "▁fa",
        "al"
      ],
      [
        "▁%3",
        ".4"
      ],
      [
        "▁oy",
        "un"
      ],
      [
        "▁gel",
        "ir"
      ],
      [
        "▁bir",
        "az"
      ],
      [
        "in",
        "ce"
      ],
      [
        "▁ozel",
        "likle"
      ],
      [
        "▁k",
        "is"
      ],
      [
        "▁...",
        "\""
      ],
      [
        "▁gel",
        "ip"
      ],
      [
        "▁kal",
        "ab"
      ],
      [
        "acag",
        "ım"
      ],
      [
        "▁2",
        "8"
      ],
      [
        "eg",
        "i"
      ],
      [
        "▁ag",
        "ız"
      ],
      [
        "▁fr",
        "anc"
      ],
      [
        "lıg",
        "ına"
      ],
      [
        "▁washington",
        "'a"
      ],
      [
        "▁tan",
        "ım"
      ],
      [
        "k",
        "ara"
      ],
      [
        "▁yar",
        "ı"
      ],
      [
        "▁1.",
        "6"
      ],
      [
        "▁k",
        "utur"
      ],
      [
        "▁kendi",
        "si"
      ],
      [
        "▁kalk",
        "ıs"
      ],
      [
        "▁dog",
        "u"
      ],
      [
        "▁simdi",
        "ye"
      ],
      [
        "9",
        "2"
      ],
      [
        "▁sat",
        "ın"
      ],
      [
        "▁ust",
        "une"
      ],
      [
        "▁sahib",
        "i"
      ],
      [
        "▁c",
        "in"
      ],
      [
        "▁m",
        "ı"
      ],
      [
        "▁bil",
        "im"
      ],
      [
        "▁on",
        "une"
      ],
      [
        "▁tı",
        "r"
      ],
      [
        "ı",
        "yor"
      ],
      [
        "d",
        "ı"
      ],
      [
        "▁etm",
        "em"
      ],
      [
        "▁sef",
        "er"
      ],
      [
        "▁v",
        "ad"
      ],
      [
        "lu",
        "gu"
      ],
      [
        "▁nok",
        "t"
      ],
      [
        "▁gec",
        "iyor"
      ],
      [
        "▁boy",
        "unca"
      ],
      [
        "▁it",
        "ibar"
      ],
      [
        "ın",
        "ın"
      ],
      [
        "▁mem",
        "nun"
      ],
      [
        "orm",
        "al"
      ],
      [
        "il",
        "di"
      ],
      [
        "g",
        "imiz"
      ],
      [
        "▁dal",
        "g"
      ],
      [
        "▁uy",
        "gun"
      ],
      [
        "▁hicbir",
        "i"
      ],
      [
        "lı",
        "g"
      ],
      [
        "▁ur",
        "et"
      ],
      [
        "y",
        "la"
      ],
      [
        "alar",
        "ını"
      ],
      [
        "▁el",
        "inde"
      ],
      [
        "k",
        "ar"
      ],
      [
        "ic",
        "i"
      ],
      [
        "ad",
        "a"
      ],
      [
        "um",
        "uz"
      ],
      [
        "▁kus",
        "ur"
      ],
      [
        "▁yagm",
        "ur"
      ],
      [
        "-2",
        "2:30"
      ],
      [
        "is",
        "ine"
      ],
      [
        "▁mukemmel",
        "di"
      ],
      [
        "▁p",
        "ac"
      ],
      [
        "ası",
        "yor"
      ],
      [
        "ti",
        "gi"
      ],
      [
        "▁muht",
        "esem"
      ],
      [
        "el",
        "ik"
      ],
      [
        "▁in",
        "tern"
      ],
      [
        "lan",
        "d"
      ],
      [
        "▁i",
        "de"
      ],
      [
        "▁",
        "ur"
      ],
      [
        "▁var",
        "dır"
      ],
      [
        "▁alt",
        "ına"
      ],
      [
        "▁k",
        "az"
      ],
      [
        "▁kal",
        "dim"
      ],
      [
        "▁s",
        "ap"
      ],
      [
        "▁soy",
        "ley"
      ],
      [
        "▁ay",
        "lık"
      ],
      [
        "▁yan",
        "s"
      ],
      [
        "▁den",
        "ey"
      ],
      [
        "l",
        "emek"
      ],
      [
        "▁1",
        "5"
      ],
      [
        "▁?",
        ".."
      ],
      [
        "▁c",
        "a"
      ],
      [
        "▁",
        "li"
      ],
      [
        "▁inc",
        "."
      ],
      [
        "▁og",
        "le"
      ],
      [
        "▁g",
        "em"
      ],
      [
        "▁kend",
        "ini"
      ],
      [
        "▁mey",
        "dan"
      ],
      [
        "▁ist",
        "eyen"
      ],
      [
        "▁i",
        "s"
      ],
      [
        "▁or",
        "t"
      ],
      [
        "▁malz",
        "em"
      ],
      [
        "▁",
        "89-"
      ],
      [
        "▁acık",
        "lam"
      ],
      [
        "▁gorus",
        "uldu"
      ],
      [
        "▁erk",
        "en"
      ],
      [
        "▁duy",
        "gu"
      ],
      [
        "▁g",
        "uc"
      ],
      [
        "t",
        "ı"
      ],
      [
        "▁c",
        "unku"
      ],
      [
        "▁kar",
        "a"
      ],
      [
        "b",
        "e"
      ],
      [
        "ık",
        "ır"
      ],
      [
        "m",
        "an"
      ],
      [
        "▁n",
        "er"
      ],
      [
        "a",
        "z"
      ],
      [
        "iy",
        "di"
      ],
      [
        "▁m",
        "ad"
      ],
      [
        "▁cık",
        "tı"
      ],
      [
        "e",
        "sin"
      ],
      [
        "▁deg",
        "er"
      ],
      [
        "at",
        "en"
      ],
      [
        "ter",
        "e"
      ],
      [
        "▁d",
        "c"
      ],
      [
        "▁sade",
        "ce"
      ],
      [
        "t",
        "ık"
      ],
      [
        "▁a",
        "f"
      ],
      [
        "ust",
        "u"
      ],
      [
        "▁d",
        "eg"
      ],
      [
        "ıy",
        "la"
      ],
      [
        "ı",
        "t"
      ],
      [
        "▁k",
        "agıt"
      ],
      [
        ".",
        "5"
      ],
      [
        "▁%9",
        "9"
      ],
      [
        "'n",
        "de"
      ],
      [
        "▁sah",
        "ip"
      ],
      [
        "▁h",
        "az"
      ],
      [
        "▁ot",
        "eli"
      ],
      [
        "m",
        "al"
      ],
      [
        "▁har",
        "ıl"
      ],
      [
        "▁yum",
        "us"
      ],
      [
        "ok",
        "r"
      ],
      [
        "▁kad",
        "ar"
      ],
      [
        "ec",
        "ik"
      ],
      [
        "s",
        "el"
      ],
      [
        "▁bil",
        "e"
      ],
      [
        "▁as",
        "ıl"
      ],
      [
        ".2",
        "5"
      ],
      [
        "im",
        "iz"
      ],
      [
        "▁se",
        "k"
      ],
      [
        "▁l",
        "as"
      ],
      [
        "▁det",
        "roit"
      ],
      [
        "▁tabi",
        "i"
      ],
      [
        "lam",
        "aya"
      ],
      [
        "▁personel",
        "ler"
      ],
      [
        "ar",
        "dı"
      ],
      [
        "▁s",
        "ar"
      ],
      [
        "y",
        "uz"
      ],
      [
        "▁do",
        "k"
      ],
      [
        "g",
        "um"
      ],
      [
        "▁an",
        "lay"
      ],
      [
        "en",
        "dir"
      ],
      [
        "ması",
        "z"
      ],
      [
        "en",
        "k"
      ],
      [
        "▁kam",
        "u"
      ],
      [
        "▁gor",
        "ev"
      ],
      [
        "▁g",
        "um"
      ],
      [
        "alar",
        "ında"
      ],
      [
        "▁d",
        "e"
      ],
      [
        "▁yapıl",
        "acak"
      ],
      [
        "▁yap",
        "an"
      ],
      [
        "on",
        "d"
      ],
      [
        "▁n",
        "ih"
      ],
      [
        "dı",
        "z"
      ],
      [
        "o",
        "k"
      ],
      [
        "▁yeni",
        "den"
      ],
      [
        "lul",
        "uk"
      ],
      [
        "▁karsıl",
        "as"
      ],
      [
        "▁m",
        "em"
      ],
      [
        "▁k",
        "en"
      ],
      [
        "▁ger",
        "il"
      ],
      [
        "ib",
        "ar"
      ],
      [
        "▁1",
        "1"
      ],
      [
        "▁on",
        "dan"
      ],
      [
        "g",
        "ın"
      ],
      [
        "▁s",
        "em"
      ],
      [
        "▁is",
        "k"
      ],
      [
        "r",
        "ak"
      ],
      [
        "▁dedi",
        "m"
      ],
      [
        "d",
        "em"
      ],
      [
        "▁s",
        "arı"
      ],
      [
        "▁3",
        "6"
      ],
      [
        "k",
        "ın"
      ],
      [
        "▁da",
        "ir"
      ],
      [
        "▁m",
        "uc"
      ],
      [
        "ır",
        "k"
      ],
      [
        "▁b",
        "on"
      ],
      [
        "l",
        "ak"
      ],
      [
        "▁1.",
        "1"
      ],
      [
        "▁s",
        "uc"
      ],
      [
        "▁n",
        "eler"
      ],
      [
        "▁bus",
        "h"
      ],
      [
        "▁kim",
        "s"
      ],
      [
        "ı",
        "s"
      ],
      [
        "▁",
        "h"
      ],
      [
        "lu",
        "yor"
      ],
      [
        "▁kol",
        "ay"
      ],
      [
        "▁l",
        "ok"
      ],
      [
        "▁edi",
        "yor"
      ],
      [
        "s",
        "ınız"
      ],
      [
        "h",
        "e"
      ],
      [
        "▁bas",
        "lan"
      ],
      [
        "▁ik",
        "i"
      ],
      [
        "▁",
        "ısıl"
      ],
      [
        "iy",
        "le"
      ],
      [
        "as",
        "ının"
      ],
      [
        "mas",
        "ının"
      ],
      [
        "▁h",
        "en"
      ],
      [
        "▁tek",
        "rar"
      ],
      [
        "▁d",
        "ısı"
      ],
      [
        "e",
        "di"
      ],
      [
        "▁uc",
        "us"
      ],
      [
        "▁p",
        "r"
      ],
      [
        "▁nash",
        "ville"
      ],
      [
        "ar",
        "lan"
      ],
      [
        "▁hangi",
        "si"
      ],
      [
        "l",
        "es"
      ],
      [
        "medi",
        "k"
      ],
      [
        "el",
        "en"
      ],
      [
        "▁indi",
        "an"
      ],
      [
        "▁d",
        "or"
      ],
      [
        "▁al",
        "ıs"
      ],
      [
        "▁g",
        "ok"
      ],
      [
        "▁ihtiy",
        "ar"
      ],
      [
        "▁%",
        "0"
      ],
      [
        "▁ail",
        "e"
      ],
      [
        "▁dok",
        "tor"
      ],
      [
        "▁",
        "ust"
      ],
      [
        "▁han",
        "ım"
      ],
      [
        "▁b",
        "o"
      ],
      [
        "▁y",
        "en"
      ],
      [
        "at",
        "ur"
      ],
      [
        "▁degil",
        "ler"
      ],
      [
        "▁yıl",
        "da"
      ],
      [
        "m",
        "ini"
      ],
      [
        "▁an",
        "kara"
      ],
      [
        "g",
        "ah"
      ],
      [
        "▁tic",
        "ari"
      ],
      [
        "s",
        "ik"
      ],
      [
        "ab",
        "a"
      ],
      [
        "▁j",
        "apon"
      ],
      [
        "▁og",
        "ret"
      ],
      [
        "d",
        "eki"
      ],
      [
        "▁m",
        "as"
      ],
      [
        "▁",
        "le"
      ],
      [
        "▁gi",
        "di"
      ],
      [
        "▁f",
        "ark"
      ],
      [
        "▁heyec",
        "an"
      ],
      [
        "▁telef",
        "on"
      ],
      [
        "▁ac",
        "ı"
      ],
      [
        "▁odam",
        "iz"
      ],
      [
        "▁yar",
        "ın"
      ],
      [
        "es",
        "e"
      ],
      [
        "▁yan",
        "dan"
      ],
      [
        "li",
        "gi"
      ],
      [
        "▁d",
        "an"
      ],
      [
        "▁tesekkur",
        "ler"
      ],
      [
        "▁",
        "p"
      ],
      [
        "s",
        "iye"
      ],
      [
        "▁temiz",
        "di"
      ],
      [
        "▁sov",
        "yet"
      ],
      [
        "▁r",
        "est"
      ],
      [
        "▁s",
        "ın"
      ],
      [
        "▁washington",
        "'dan"
      ],
      [
        "d",
        "ın"
      ],
      [
        "▁",
        "g"
      ],
      [
        "▁oldu",
        "g"
      ],
      [
        "▁ac",
        "ık"
      ],
      [
        "▁en",
        "d"
      ],
      [
        "y",
        "di"
      ],
      [
        "▁ka",
        "l"
      ],
      [
        "lig",
        "e"
      ],
      [
        "▁rom",
        "an"
      ],
      [
        "▁",
        "0"
      ],
      [
        "e",
        "h"
      ],
      [
        "▁d",
        "al"
      ],
      [
        "▁mak",
        "al"
      ],
      [
        "▁kah",
        "v"
      ],
      [
        "▁kend",
        "ine"
      ],
      [
        "▁uy",
        "um"
      ],
      [
        "▁personel",
        "i"
      ],
      [
        "▁t",
        "ak"
      ],
      [
        "▁olma",
        "dıgını"
      ],
      [
        "▁son",
        "uc"
      ],
      [
        "o",
        "c"
      ],
      [
        "▁b",
        "us"
      ],
      [
        "▁r",
        "enk"
      ],
      [
        "▁kon",
        "g"
      ],
      [
        "▁k",
        "ıl"
      ],
      [
        "▁yok",
        "sa"
      ],
      [
        "t",
        "eki"
      ],
      [
        "▁b",
        "at"
      ],
      [
        "i",
        "t"
      ],
      [
        "▁ediyor",
        "uz"
      ],
      [
        "▁al",
        "amadim"
      ],
      [
        "▁hava",
        "alan"
      ],
      [
        "▁deg",
        "is"
      ],
      [
        "▁s",
        "e"
      ],
      [
        "h",
        "an"
      ],
      [
        "▁im",
        "kan"
      ],
      [
        "t",
        "as"
      ],
      [
        "g",
        "ru"
      ],
      [
        "▁rek",
        "abet"
      ],
      [
        "▁ayak",
        "k"
      ],
      [
        "▁y",
        "uz"
      ],
      [
        "▁tes",
        "isti"
      ],
      [
        "▁hey",
        "ec"
      ],
      [
        "▁pah",
        "aliydi"
      ],
      [
        "▁nere",
        "de"
      ],
      [
        "▁s",
        "ok"
      ],
      [
        "▁amer",
        "ic"
      ],
      [
        "ru",
        "b"
      ],
      [
        "▁%3.",
        "5"
      ],
      [
        "▁yemek",
        "ler"
      ],
      [
        "▁199",
        "1-19"
      ],
      [
        "al",
        "ar"
      ],
      [
        "us",
        "unu"
      ],
      [
        "▁n",
        "iyet"
      ],
      [
        "▁a",
        "ma"
      ],
      [
        "u",
        "fur"
      ],
      [
        "▁t",
        "es"
      ],
      [
        "h",
        "al"
      ],
      [
        "▁dol",
        "u"
      ],
      [
        "▁m",
        "enkul"
      ],
      [
        "▁fr",
        "ansız"
      ],
      [
        "c",
        "ileri"
      ],
      [
        "tı",
        "lar"
      ],
      [
        "▁3",
        "1"
      ],
      [
        "▁on",
        "em"
      ],
      [
        "▁m",
        "ey"
      ],
      [
        "▁miy",
        "im"
      ],
      [
        "im",
        "a"
      ],
      [
        "▁m",
        "ah"
      ],
      [
        "siz",
        "di"
      ],
      [
        "▁s",
        "ah"
      ],
      [
        "em",
        "em"
      ],
      [
        "▁mal",
        "iyet"
      ],
      [
        "ar",
        "ında"
      ],
      [
        "▁muk",
        "emmel"
      ],
      [
        "m",
        "eye"
      ],
      [
        "ul",
        "t"
      ],
      [
        "ans",
        "ız"
      ],
      [
        "ıl",
        "an"
      ],
      [
        "▁%",
        "4"
      ],
      [
        "is",
        "yon"
      ],
      [
        "is",
        "iz"
      ],
      [
        "▁1",
        "2"
      ],
      [
        "▁d",
        "uv"
      ],
      [
        "▁is",
        "e"
      ],
      [
        "▁n",
        "edir"
      ],
      [
        "▁kas",
        "ım"
      ],
      [
        "▁%3",
        "."
      ],
      [
        "'y",
        "e"
      ],
      [
        "▁g",
        "ev"
      ],
      [
        "▁m",
        "ek"
      ],
      [
        "▁kır",
        "m"
      ],
      [
        "▁yav",
        "as"
      ],
      [
        "▁mot",
        "or"
      ],
      [
        "len",
        "dir"
      ],
      [
        "▁b",
        "ugun"
      ],
      [
        "▁s",
        "ek"
      ],
      [
        "▁hiss",
        "et"
      ],
      [
        "d",
        "ek"
      ],
      [
        "a",
        "di"
      ],
      [
        "▁",
        "o"
      ],
      [
        "▁dak",
        "ika"
      ],
      [
        "vel",
        "and"
      ],
      [
        "▁tez",
        "gah"
      ],
      [
        "i",
        "de"
      ],
      [
        "▁",
        ";"
      ],
      [
        "▁un",
        "ut"
      ],
      [
        "▁y",
        "ur"
      ],
      [
        "di",
        "r"
      ],
      [
        "▁y",
        "ıl"
      ],
      [
        "▁r",
        "ez"
      ],
      [
        "▁c",
        "ı"
      ],
      [
        "▁cag",
        "ır"
      ],
      [
        "▁h",
        "omur"
      ],
      [
        "▁d",
        "il"
      ],
      [
        "▁s",
        "or"
      ],
      [
        "eceg",
        "ini"
      ],
      [
        "▁",
        "&"
      ],
      [
        "il",
        "ig"
      ],
      [
        "i",
        "s"
      ],
      [
        "y",
        "le"
      ],
      [
        "▁sabah",
        "ı"
      ],
      [
        "▁y",
        "alap"
      ],
      [
        ".",
        "2"
      ],
      [
        "▁",
        "4"
      ],
      [
        "▁i",
        "k"
      ],
      [
        "▁c",
        "ık"
      ],
      [
        "iy",
        "at"
      ],
      [
        "▁p",
        "oz"
      ],
      [
        "▁car",
        "p"
      ],
      [
        "▁kum",
        "as"
      ],
      [
        "▁b",
        "os"
      ],
      [
        "▁belir",
        "t"
      ],
      [
        "▁c",
        "ap"
      ],
      [
        "▁yap",
        "mak"
      ],
      [
        "▁mal",
        "z"
      ],
      [
        "▁yay",
        "ın"
      ],
      [
        "g",
        "er"
      ],
      [
        "▁ol",
        "du"
      ],
      [
        "▁de",
        "n"
      ],
      [
        "▁g",
        "er"
      ],
      [
        "▁sist",
        "em"
      ],
      [
        "▁ser",
        "t"
      ],
      [
        "lan",
        "ır"
      ],
      [
        "▁d",
        "ef"
      ],
      [
        "e",
        "de"
      ],
      [
        "▁otel",
        "den"
      ],
      [
        "▁duz",
        "en"
      ],
      [
        "▁tut",
        "tu"
      ],
      [
        "a",
        "h"
      ],
      [
        "▁",
        "us"
      ],
      [
        "▁ist",
        "e"
      ],
      [
        "▁meh",
        "met"
      ],
      [
        "▁iy",
        "ice"
      ],
      [
        "▁",
        "*"
      ],
      [
        "r",
        "u"
      ],
      [
        "▁bil",
        "miyorum"
      ],
      [
        "▁bil",
        "ir"
      ],
      [
        "▁",
        "at"
      ],
      [
        "▁p",
        "ıtır"
      ],
      [
        "▁olduk",
        "ca"
      ],
      [
        "▁c",
        "am"
      ],
      [
        "e",
        "s"
      ],
      [
        "▁k",
        "elim"
      ],
      [
        "▁dus",
        "uk"
      ],
      [
        "▁al",
        "mıs"
      ],
      [
        "▁b",
        "ol"
      ],
      [
        "▁%5",
        "1"
      ],
      [
        "▁hav",
        "ayol"
      ],
      [
        "lı",
        "k"
      ],
      [
        "da",
        "v"
      ],
      [
        "▁y",
        "di"
      ],
      [
        "▁ilisk",
        "in"
      ],
      [
        "▁ben",
        "den"
      ],
      [
        "▁ol",
        "ustur"
      ],
      [
        "r",
        "a"
      ],
      [
        "im",
        "i"
      ],
      [
        "▁vak",
        "it"
      ],
      [
        "▁s",
        "ev"
      ],
      [
        "y",
        "on"
      ],
      [
        "▁ic",
        "ine"
      ],
      [
        "▁reh",
        "ber"
      ],
      [
        "▁gi",
        "de"
      ],
      [
        "▁k",
        "uy"
      ],
      [
        "▁uy",
        "an"
      ],
      [
        "▁s",
        "ını"
      ],
      [
        "▁kon",
        "us"
      ],
      [
        "▁tur",
        "lu"
      ],
      [
        "am",
        "ız"
      ],
      [
        "▁av",
        "rup"
      ],
      [
        "l",
        "a"
      ],
      [
        "▁dolar",
        "dan"
      ],
      [
        "▁fut",
        "bol"
      ],
      [
        "▁el",
        "e"
      ],
      [
        "g",
        "ında"
      ],
      [
        "▁k",
        "op"
      ],
      [
        "▁gaz",
        "et"
      ],
      [
        "ad",
        "ar"
      ],
      [
        "▁uc",
        "uncu"
      ],
      [
        "un",
        "de"
      ],
      [
        "eler",
        "de"
      ],
      [
        "▁yer",
        "de"
      ],
      [
        "▁oldug",
        "u"
      ],
      [
        "lar",
        "ımız"
      ],
      [
        "▁kur",
        "t"
      ],
      [
        "um",
        "us"
      ],
      [
        "s",
        "ak"
      ],
      [
        "es",
        "il"
      ],
      [
        "▁en",
        "f"
      ],
      [
        "▁kap",
        "sam"
      ],
      [
        "▁uz",
        "ak"
      ],
      [
        "eg",
        "e"
      ],
      [
        "t",
        "ım"
      ],
      [
        "g",
        "el"
      ],
      [
        "▁cesit",
        "li"
      ],
      [
        "▁sag",
        "lık"
      ],
      [
        "▁",
        "ep"
      ],
      [
        "▁anlam",
        "da"
      ],
      [
        "▁g",
        "el"
      ],
      [
        "▁w",
        "all"
      ],
      [
        "b",
        "ank"
      ],
      [
        "▁g",
        "om"
      ],
      [
        "▁sek",
        "tor"
      ],
      [
        "▁b",
        "ay"
      ],
      [
        "▁g",
        "etir"
      ],
      [
        "▁kar",
        "ar"
      ],
      [
        "▁kapan",
        "dı"
      ],
      [
        "y",
        "o"
      ],
      [
        "▁y",
        "onelik"
      ],
      [
        "▁p",
        "h"
      ],
      [
        "▁.",
        "'"
      ],
      [
        "▁s",
        "er"
      ],
      [
        "ı",
        "k"
      ],
      [
        "d",
        "er"
      ],
      [
        "▁c",
        "em"
      ],
      [
        "em",
        "ey"
      ],
      [
        "ab",
        "et"
      ],
      [
        "▁h",
        "in"
      ],
      [
        "is",
        "ler"
      ],
      [
        "▁oldug",
        "un"
      ],
      [
        "di",
        "gi"
      ],
      [
        "▁huk",
        "uk"
      ],
      [
        "▁or",
        "ada"
      ],
      [
        "▁mı",
        "y"
      ],
      [
        "▁edil",
        "di"
      ],
      [
        "▁r",
        "us"
      ],
      [
        "▁s",
        "il"
      ],
      [
        "1",
        "9"
      ],
      [
        "▁kon",
        "ustu"
      ],
      [
        "▁gun",
        "ey"
      ],
      [
        "▁han",
        "imdi"
      ],
      [
        "v",
        "e"
      ],
      [
        "▁ol",
        "acagını"
      ],
      [
        "is",
        "co"
      ],
      [
        "ir",
        "di"
      ],
      [
        "▁d",
        "obr"
      ],
      [
        "em",
        "ek"
      ],
      [
        "▁c",
        "iv"
      ],
      [
        "▁haval",
        "im"
      ],
      [
        "▁chic",
        "ag"
      ],
      [
        "▁wash",
        "ington"
      ],
      [
        "s",
        "iz"
      ],
      [
        "▁onun",
        "la"
      ],
      [
        "ey",
        "en"
      ],
      [
        "▁cum",
        "a"
      ],
      [
        "1",
        "-19"
      ],
      [
        "am",
        "ıs"
      ],
      [
        "lu",
        "gun"
      ],
      [
        "▁t",
        "u"
      ],
      [
        "▁hal",
        "inde"
      ],
      [
        "ler",
        "in"
      ],
      [
        "ab",
        "ı"
      ],
      [
        "▁ch",
        "arl"
      ],
      [
        "s",
        "iy"
      ],
      [
        "▁mily",
        "on"
      ],
      [
        "▁san",
        "at"
      ],
      [
        "r",
        "i"
      ],
      [
        "▁peters",
        "burg"
      ],
      [
        "▁m",
        "ag"
      ],
      [
        "iyor",
        "lar"
      ],
      [
        "ig",
        "ini"
      ],
      [
        "▁19",
        "7"
      ],
      [
        "▁biz",
        "ler"
      ],
      [
        "2",
        "-23"
      ],
      [
        "▁univ",
        "ers"
      ],
      [
        "a",
        "de"
      ],
      [
        "▁t",
        "a"
      ],
      [
        "▁s",
        "ana"
      ],
      [
        "▁yas",
        "am"
      ],
      [
        "▁has",
        "tan"
      ],
      [
        "l",
        "i"
      ],
      [
        "▁s",
        "ec"
      ],
      [
        "h",
        "a"
      ],
      [
        "▁gitt",
        "ik"
      ],
      [
        "in",
        "g"
      ],
      [
        "▁yal",
        "an"
      ],
      [
        "▁sen",
        "edi"
      ],
      [
        "▁fatur",
        "am"
      ],
      [
        "▁kıs",
        "m"
      ],
      [
        "▁memnun",
        "um"
      ],
      [
        "▁su",
        "b"
      ],
      [
        "a",
        "s"
      ],
      [
        "▁k",
        "oy"
      ],
      [
        "▁ol",
        "sa"
      ],
      [
        "erk",
        "en"
      ],
      [
        "▁c",
        "um"
      ],
      [
        "▁bırak",
        "tı"
      ],
      [
        "i",
        "yle"
      ],
      [
        "▁il",
        "isk"
      ],
      [
        "▁l",
        "is"
      ],
      [
        "in",
        "ci"
      ],
      [
        "ya",
        "'da"
      ],
      [
        "▁1989-",
        "8"
      ],
      [
        "ot",
        "te"
      ],
      [
        "al",
        "an"
      ],
      [
        "▁yuz",
        "den"
      ],
      [
        "▁hizmet",
        "leri"
      ],
      [
        "▁yas",
        "ama"
      ],
      [
        "u",
        "v"
      ],
      [
        "▁1/",
        "2"
      ],
      [
        "▁cıkar",
        "dı"
      ],
      [
        "▁ar",
        "z"
      ],
      [
        "▁k",
        "av"
      ],
      [
        "o",
        "d"
      ],
      [
        "g",
        "is"
      ],
      [
        "▁yetersiz",
        "di"
      ],
      [
        "▁kat",
        "il"
      ],
      [
        "p",
        "er"
      ],
      [
        "▁",
        ","
      ],
      [
        "▁kıymet",
        "ler"
      ],
      [
        "ımız",
        "a"
      ],
      [
        "▁city",
        "'e"
      ],
      [
        "▁cık",
        "ar"
      ],
      [
        "▁1",
        "3"
      ],
      [
        "▁ortal",
        "ama"
      ],
      [
        "▁de",
        "sik"
      ],
      [
        "▁mev",
        "cut"
      ],
      [
        "▁",
        "ay"
      ],
      [
        "▁dah",
        "a"
      ],
      [
        "b",
        "r"
      ],
      [
        "▁art",
        "arak"
      ],
      [
        "v",
        "an"
      ],
      [
        "▁ek",
        "ip"
      ],
      [
        "▁f",
        "ing"
      ],
      [
        "▁el",
        "estir"
      ],
      [
        "ı",
        "c"
      ],
      [
        "ust",
        "um"
      ],
      [
        "▁ol",
        "abilir"
      ],
      [
        "▁o",
        "da"
      ],
      [
        "▁sev",
        "gil"
      ],
      [
        "▁o",
        "v"
      ],
      [
        "ler",
        "de"
      ],
      [
        "er",
        "ler"
      ],
      [
        "▁havuz",
        "u"
      ],
      [
        "m",
        "esi"
      ],
      [
        "▁siz",
        "in"
      ],
      [
        "▁h",
        "av"
      ],
      [
        "▁sik",
        "ayet"
      ],
      [
        "unc",
        "u"
      ],
      [
        "▁f",
        "ir"
      ],
      [
        "▁ko",
        "tu"
      ],
      [
        "▁c",
        "ok"
      ],
      [
        "a",
        "at"
      ],
      [
        "ye",
        "t"
      ],
      [
        "las",
        "yon"
      ],
      [
        "is",
        "i"
      ],
      [
        "▁yıl",
        "ında"
      ],
      [
        "un",
        "cu"
      ],
      [
        "▁r",
        "ol"
      ],
      [
        ".",
        "3"
      ],
      [
        "▁dolay",
        "i"
      ],
      [
        "▁yuksek",
        "ti"
      ],
      [
        "▁kendi",
        "ler"
      ],
      [
        "▁t",
        "i"
      ],
      [
        "el",
        "i"
      ],
      [
        "▁g",
        "az"
      ],
      [
        "c",
        "iler"
      ],
      [
        "▁on",
        "er"
      ],
      [
        "▁got",
        "ur"
      ],
      [
        "▁bek",
        "liyor"
      ],
      [
        "▁kalit",
        "eli"
      ],
      [
        "unc",
        "a"
      ],
      [
        "▁p",
        "o"
      ],
      [
        "▁c",
        "ey"
      ],
      [
        "▁du",
        "r"
      ],
      [
        "m",
        "ur"
      ],
      [
        "▁",
        "0."
      ],
      [
        "▁2",
        "9"
      ],
      [
        "▁k",
        "ası"
      ],
      [
        "▁ham",
        "am"
      ],
      [
        "er",
        "t"
      ],
      [
        "▁kal",
        "dır"
      ],
      [
        "▁u",
        "c"
      ],
      [
        "▁gen",
        "el"
      ],
      [
        "▁hak",
        "k"
      ],
      [
        "▁og",
        "ren"
      ],
      [
        "▁m",
        "ik"
      ],
      [
        "i",
        "k"
      ],
      [
        "▁ses",
        "siz"
      ],
      [
        "▁gercek",
        "les"
      ],
      [
        "▁c",
        "ek"
      ],
      [
        "▁gor",
        "ur"
      ],
      [
        "d",
        "ik"
      ],
      [
        "▁yaz",
        "ar"
      ],
      [
        "▁m",
        "is"
      ],
      [
        "▁bag",
        "lı"
      ],
      [
        "▁n",
        "ot"
      ],
      [
        "▁yaptı",
        "gı"
      ],
      [
        "s",
        "in"
      ],
      [
        "▁biz",
        "i"
      ],
      [
        "u",
        "n"
      ],
      [
        "▁s",
        "art"
      ],
      [
        "r",
        "et"
      ],
      [
        "ist",
        "im"
      ],
      [
        "▁dog",
        "ru"
      ],
      [
        "▁merkez",
        "i"
      ],
      [
        "▁elektr",
        "ik"
      ],
      [
        "▁h",
        "at"
      ],
      [
        "is",
        "inde"
      ],
      [
        "ecek",
        "tir"
      ],
      [
        "▁b",
        "as"
      ],
      [
        "▁4",
        "0"
      ],
      [
        "▁kars",
        "ısında"
      ],
      [
        "▁as",
        "k"
      ],
      [
        "▁bic",
        "im"
      ],
      [
        "▁pet",
        "rol"
      ],
      [
        "▁ask",
        "eri"
      ],
      [
        "▁ve",
        "ya"
      ],
      [
        "m",
        "isti"
      ],
      [
        "s",
        "u"
      ],
      [
        "▁hava",
        "alanı"
      ],
      [
        "▁duy",
        "ar"
      ],
      [
        "▁fık",
        "ır"
      ],
      [
        "di",
        "g"
      ],
      [
        "▁str",
        "eet"
      ],
      [
        "▁1",
        "8"
      ],
      [
        "▁konu",
        "da"
      ],
      [
        "▁y",
        "at"
      ],
      [
        "▁pır",
        "ıl"
      ],
      [
        "ey",
        "di"
      ],
      [
        "▁p",
        "at"
      ],
      [
        "▁kendisin",
        "e"
      ],
      [
        "s",
        "t"
      ],
      [
        "▁t",
        "ası"
      ],
      [
        "s",
        "a"
      ],
      [
        "▁se",
        "kiz"
      ],
      [
        "▁",
        "im"
      ],
      [
        "medi",
        "gini"
      ],
      [
        "e",
        "k"
      ],
      [
        "v",
        "il"
      ],
      [
        "▁kul",
        "tur"
      ],
      [
        "▁o",
        "n"
      ],
      [
        "t",
        "ik"
      ],
      [
        "▁calis",
        "anlar"
      ],
      [
        "▁or",
        "an"
      ],
      [
        "l",
        "ı"
      ],
      [
        "las",
        "tı"
      ],
      [
        "▁an",
        "im"
      ],
      [
        "▁oz",
        "gur"
      ],
      [
        "▁dev",
        "r"
      ],
      [
        "ler",
        "iyle"
      ],
      [
        "iler",
        "e"
      ],
      [
        "len",
        "mis"
      ],
      [
        "dı",
        "gı"
      ],
      [
        "▁se",
        "m"
      ],
      [
        "▁h",
        "ep"
      ],
      [
        "▁g",
        "en"
      ],
      [
        "k",
        "en"
      ],
      [
        "dıg",
        "ını"
      ],
      [
        "▁har",
        "c"
      ],
      [
        "mi",
        "s"
      ],
      [
        "▁%",
        "5"
      ],
      [
        "▁ber",
        "aber"
      ],
      [
        "▁baz",
        "ı"
      ],
      [
        "▁bors",
        "ası"
      ],
      [
        "ort",
        "h"
      ],
      [
        ".",
        "8"
      ],
      [
        "l",
        "ık"
      ],
      [
        "s",
        "un"
      ],
      [
        "ın",
        "ca"
      ],
      [
        "▁var",
        "an"
      ],
      [
        "▁sal",
        "t"
      ],
      [
        "▁an",
        "gel"
      ],
      [
        "▁gidi",
        "s"
      ],
      [
        "b",
        "ur"
      ],
      [
        "g",
        "umuz"
      ],
      [
        "▁gec",
        "e"
      ],
      [
        "▁uz",
        "un"
      ],
      [
        "▁c",
        "ev"
      ],
      [
        "▁d",
        "uz"
      ],
      [
        "▁yap",
        "maya"
      ],
      [
        "▁f",
        "ırıl"
      ],
      [
        "▁dep",
        "rem"
      ],
      [
        "am",
        "ay"
      ],
      [
        "c",
        "ak"
      ],
      [
        "▁dol",
        "dur"
      ],
      [
        "▁r",
        "ad"
      ],
      [
        "▁temiz",
        "ligi"
      ],
      [
        "▁t",
        "ers"
      ],
      [
        "▁ucus",
        "ları"
      ],
      [
        "er",
        "i"
      ],
      [
        "eb",
        "i"
      ],
      [
        "▁soz",
        "cusu"
      ],
      [
        "▁oldu",
        "gum"
      ],
      [
        "o",
        "m"
      ],
      [
        "▁yap",
        "acak"
      ],
      [
        "▁siz",
        "i"
      ],
      [
        "ist",
        "e"
      ],
      [
        "▁s",
        "ist"
      ],
      [
        "iy",
        "as"
      ],
      [
        "ac",
        "h"
      ],
      [
        "00",
        "00"
      ],
      [
        "▁yan",
        "ında"
      ],
      [
        "▁gen",
        "is"
      ],
      [
        "▁",
        "5"
      ],
      [
        "l",
        "am"
      ],
      [
        "▁kars",
        "il"
      ],
      [
        "uy",
        "le"
      ],
      [
        "▁ser",
        "v"
      ],
      [
        "▁terc",
        "ih"
      ],
      [
        "▁c",
        "ab"
      ],
      [
        "▁z",
        "aten"
      ],
      [
        "abil",
        "ecek"
      ],
      [
        "uyor",
        "lar"
      ],
      [
        "▁ol",
        "dum"
      ],
      [
        "i",
        "c"
      ],
      [
        "ıy",
        "ı"
      ],
      [
        "▁bas",
        "kı"
      ],
      [
        "o",
        "z"
      ],
      [
        "an",
        "ı"
      ],
      [
        "▁ter",
        "c"
      ],
      [
        "▁herkes",
        "e"
      ],
      [
        "▁i",
        "d"
      ],
      [
        "▁4",
        "4"
      ],
      [
        "▁!",
        ".."
      ],
      [
        "▁hav",
        "al"
      ],
      [
        "▁",
        "vır"
      ],
      [
        "▁c",
        "er"
      ],
      [
        "▁d",
        "ur"
      ],
      [
        "▁",
        "as"
      ],
      [
        "k",
        "uz"
      ],
      [
        "▁olanak",
        "lari"
      ],
      [
        "s",
        "i"
      ],
      [
        "r",
        "ar"
      ],
      [
        "t",
        "iler"
      ],
      [
        "m",
        "alı"
      ],
      [
        "ol",
        "oj"
      ],
      [
        "ıl",
        "ır"
      ],
      [
        "▁cev",
        "ap"
      ],
      [
        "▁2",
        "6"
      ],
      [
        "et",
        "ir"
      ],
      [
        "medi",
        "m"
      ],
      [
        "▁s",
        "en"
      ],
      [
        "▁v",
        "ak"
      ],
      [
        "d",
        "en"
      ],
      [
        "▁ul",
        "us"
      ],
      [
        "▁olm",
        "us"
      ],
      [
        "▁es",
        "k"
      ],
      [
        "ın",
        "tı"
      ],
      [
        "li",
        "k"
      ],
      [
        "▁i",
        "ti"
      ],
      [
        "u",
        "ru"
      ],
      [
        "▁bu",
        "t"
      ],
      [
        "▁al",
        "ım"
      ],
      [
        "▁p",
        "ol"
      ],
      [
        "▁yuksel",
        "di"
      ],
      [
        "o",
        "r"
      ],
      [
        "▁mes",
        "el"
      ],
      [
        "▁ki",
        "m"
      ],
      [
        "▁yatırım",
        "cı"
      ],
      [
        "▁tar",
        "af"
      ],
      [
        "▁yab",
        "ancı"
      ],
      [
        "▁b",
        "ost"
      ],
      [
        "▁art",
        "ıs"
      ],
      [
        "▁ist",
        "anbul"
      ],
      [
        "r",
        "em"
      ],
      [
        "▁t",
        "ık"
      ],
      [
        "▁cık",
        "an"
      ],
      [
        "▁bak",
        "an"
      ],
      [
        "▁od",
        "em"
      ],
      [
        "m",
        "ez"
      ],
      [
        "a",
        "k"
      ],
      [
        "l",
        "em"
      ],
      [
        "▁f",
        "r"
      ],
      [
        "ark",
        "en"
      ],
      [
        "h",
        "ur"
      ],
      [
        "▁s",
        "ıng"
      ],
      [
        "▁ulus",
        "al"
      ],
      [
        "▁lut",
        "f"
      ],
      [
        "▁s",
        "eh"
      ],
      [
        "▁sil",
        "ah"
      ],
      [
        "lak",
        "a"
      ],
      [
        "▁ad",
        "et"
      ],
      [
        "▁rez",
        "erv"
      ],
      [
        "▁seh",
        "r"
      ],
      [
        "▁gir",
        "is"
      ],
      [
        "ist",
        "an"
      ],
      [
        "▁oak",
        "land"
      ],
      [
        "▁k",
        "ar"
      ],
      [
        "▁g",
        "iy"
      ],
      [
        "ıs",
        "ını"
      ],
      [
        "dık",
        "larını"
      ],
      [
        "▁avuk",
        "at"
      ],
      [
        "▁olm",
        "asi"
      ],
      [
        "ımız",
        "ı"
      ],
      [
        "▁c",
        "el"
      ],
      [
        "▁t",
        "am"
      ],
      [
        "▁olma",
        "di"
      ],
      [
        "▁c",
        "om"
      ],
      [
        "e",
        "e"
      ],
      [
        "▁yap",
        "ılan"
      ],
      [
        "▁kalit",
        "e"
      ],
      [
        "▁havayol",
        "u"
      ],
      [
        "alar",
        "ının"
      ],
      [
        "▁p",
        "ay"
      ],
      [
        "▁s",
        "uz"
      ],
      [
        "▁adet",
        "a"
      ],
      [
        "▁or",
        "nek"
      ],
      [
        "▁ra",
        "gmen"
      ],
      [
        "▁b",
        "og"
      ],
      [
        "▁toplan",
        "tı"
      ],
      [
        "▁analist",
        "ler"
      ],
      [
        "▁mem",
        "ph"
      ],
      [
        "dı",
        "k"
      ],
      [
        "▁uret",
        "im"
      ],
      [
        "▁el",
        "ektr"
      ],
      [
        "ay",
        "acak"
      ],
      [
        "▁milwaukee",
        "'ye"
      ],
      [
        "r",
        "um"
      ],
      [
        "▁hiss",
        "eler"
      ],
      [
        "▁h",
        "ar"
      ],
      [
        "▁ilgil",
        "iydi"
      ],
      [
        "▁",
        "al"
      ],
      [
        "ay",
        "di"
      ],
      [
        "▁t",
        "ar"
      ],
      [
        "▁ak",
        "tiv"
      ],
      [
        "▁f",
        "ır"
      ],
      [
        "il",
        "mis"
      ],
      [
        "ın",
        "a"
      ],
      [
        "▁p",
        "atır"
      ],
      [
        "un",
        "e"
      ],
      [
        "ost",
        "er"
      ],
      [
        "agı",
        "t"
      ],
      [
        "▁yer",
        "e"
      ],
      [
        "▁kaz",
        "an"
      ],
      [
        "▁an",
        "al"
      ],
      [
        "eler",
        "e"
      ],
      [
        "▁tel",
        "ef"
      ],
      [
        "▁iki",
        "b"
      ],
      [
        "t",
        "ak"
      ],
      [
        "▁kur",
        "um"
      ],
      [
        "▁dus",
        "unuyor"
      ],
      [
        "ar",
        "t"
      ],
      [
        "ama",
        "dı"
      ],
      [
        "u",
        "b"
      ],
      [
        "▁uc",
        "mak"
      ],
      [
        "▁pr",
        "oj"
      ],
      [
        "▁mav",
        "i"
      ],
      [
        "m",
        "ıs"
      ],
      [
        "▁",
        "-"
      ],
      [
        "w",
        "est"
      ],
      [
        "▁sor",
        "unu"
      ],
      [
        "▁s",
        "ur"
      ],
      [
        "▁t",
        "em"
      ],
      [
        "▁kucuk",
        "tu"
      ],
      [
        "▁gun",
        "luk"
      ],
      [
        "▁a",
        "v"
      ],
      [
        "▁sek",
        "er"
      ],
      [
        "lan",
        "mıs"
      ],
      [
        "▁tal",
        "ep"
      ],
      [
        "▁or",
        "gan"
      ],
      [
        "▁sup",
        "er"
      ],
      [
        "dık",
        "tan"
      ],
      [
        "▁ot",
        "uz"
      ],
      [
        "▁il",
        "eri"
      ],
      [
        "▁alt",
        "ı"
      ],
      [
        "iler",
        "ini"
      ],
      [
        "▁t",
        "uc"
      ],
      [
        "▁k",
        "um"
      ],
      [
        "la",
        "y"
      ],
      [
        "▁b",
        "ir"
      ],
      [
        "▁s",
        "oz"
      ],
      [
        "r",
        "e"
      ],
      [
        "▁birin",
        "in"
      ],
      [
        "ab",
        "er"
      ],
      [
        "co",
        "k"
      ],
      [
        "▁g",
        "ot"
      ],
      [
        "ul",
        "an"
      ],
      [
        "ası",
        "yla"
      ],
      [
        "▁bil",
        "g"
      ],
      [
        "▁c",
        "inc"
      ],
      [
        "▁kayı",
        "t"
      ],
      [
        "t",
        "ılı"
      ],
      [
        "▁i",
        "m"
      ],
      [
        "eg",
        "en"
      ],
      [
        "▁do",
        "gru"
      ],
      [
        "▁gon",
        "der"
      ],
      [
        "▁7",
        "0"
      ],
      [
        "▁un",
        "it"
      ],
      [
        "m",
        "us"
      ],
      [
        "▁cit",
        "y"
      ],
      [
        "▁3",
        "7"
      ],
      [
        "▁der",
        "in"
      ],
      [
        "▁on",
        "umuz"
      ],
      [
        "▁bazı",
        "ları"
      ],
      [
        "▁deg",
        "istir"
      ],
      [
        "▁hız",
        "lı"
      ],
      [
        "▁%",
        "2"
      ],
      [
        "▁degiller",
        "di"
      ],
      [
        "ent",
        "al"
      ],
      [
        "c",
        "u"
      ],
      [
        "du",
        "lar"
      ],
      [
        "il",
        "ir"
      ],
      [
        "▁arkad",
        "as"
      ],
      [
        "▁univers",
        "it"
      ],
      [
        "▁ben",
        "de"
      ],
      [
        "l",
        "ey"
      ],
      [
        "▁l",
        "u"
      ],
      [
        "l",
        "ah"
      ],
      [
        "▁bilgisay",
        "ar"
      ],
      [
        "▁ot",
        "ur"
      ],
      [
        "▁end",
        "ustr"
      ],
      [
        "▁",
        "y"
      ],
      [
        "▁kıs",
        "a"
      ],
      [
        "▁b",
        "eye"
      ],
      [
        "c",
        "a"
      ],
      [
        "▁mem",
        "ur"
      ],
      [
        "▁ol",
        "cu"
      ],
      [
        "ıs",
        "ına"
      ],
      [
        "▁t",
        "um"
      ],
      [
        "▁onem",
        "li"
      ],
      [
        "lı",
        "m"
      ],
      [
        "▁",
        "lar"
      ],
      [
        "▁sosy",
        "al"
      ],
      [
        "▁bo",
        "y"
      ],
      [
        "▁kat",
        "ıl"
      ],
      [
        "l",
        "ek"
      ],
      [
        "▁do",
        "lay"
      ],
      [
        "▁d",
        "on"
      ],
      [
        "▁ode",
        "digim"
      ],
      [
        "▁g",
        "u"
      ],
      [
        "▁",
        "2"
      ],
      [
        "er",
        "v"
      ],
      [
        "▁oldugun",
        "a"
      ],
      [
        "▁koy",
        "un"
      ],
      [
        "▁kab",
        "ul"
      ],
      [
        "▁kap",
        "alı"
      ],
      [
        "▁",
        "d"
      ],
      [
        "ist",
        "ir"
      ],
      [
        "▁i",
        "la"
      ],
      [
        "▁r",
        "uh"
      ],
      [
        "▁",
        "“"
      ],
      [
        "▁res",
        "im"
      ],
      [
        "▁3",
        "0"
      ],
      [
        "▁5",
        "7"
      ],
      [
        "▁",
        "b"
      ],
      [
        "m",
        "ustu"
      ],
      [
        "▁mek",
        "tu"
      ],
      [
        "▁1\\/",
        "2"
      ],
      [
        "▁birin",
        "de"
      ],
      [
        "▁polit",
        "ik"
      ],
      [
        "l",
        "iydi"
      ],
      [
        "di",
        "k"
      ],
      [
        "▁%7.",
        "8"
      ],
      [
        "▁sik",
        "in"
      ],
      [
        "▁s",
        "h"
      ],
      [
        "▁ak",
        "l"
      ],
      [
        "▁atlan",
        "ta"
      ],
      [
        "▁h",
        "e"
      ],
      [
        "▁sa",
        "de"
      ],
      [
        "▁ucus",
        "u"
      ],
      [
        "▁ban",
        "a"
      ],
      [
        "▁yur",
        "t"
      ],
      [
        "▁z",
        "ay"
      ],
      [
        "el",
        "e"
      ],
      [
        "ek",
        "tr"
      ],
      [
        "▁k",
        "ısı"
      ],
      [
        "▁dest",
        "ek"
      ],
      [
        "▁artıs",
        "la"
      ],
      [
        "▁yol",
        "a"
      ],
      [
        "▁",
        "ir"
      ],
      [
        "▁mil",
        "li"
      ],
      [
        "b",
        "us"
      ],
      [
        "▁musta",
        "fa"
      ],
      [
        "▁sermay",
        "e"
      ],
      [
        "▁sir",
        "ket"
      ],
      [
        "▁d",
        "o"
      ],
      [
        "▁k",
        "or"
      ],
      [
        "ir",
        "im"
      ],
      [
        "▁dog",
        "r"
      ],
      [
        "ta",
        "j"
      ],
      [
        "▁bunlar",
        "dan"
      ],
      [
        "▁s",
        "eb"
      ],
      [
        "▁t",
        "ok"
      ],
      [
        "▁uluslar",
        "arası"
      ],
      [
        "▁sur",
        "dur"
      ],
      [
        "▁19",
        "6"
      ],
      [
        "ec",
        "eg"
      ],
      [
        "▁m",
        "in"
      ],
      [
        "▁art",
        "ık"
      ],
      [
        "▁p",
        "as"
      ],
      [
        "▁bek",
        "lem"
      ],
      [
        "▁1",
        "6"
      ],
      [
        "▁gi",
        "bi"
      ],
      [
        "ler",
        "e"
      ],
      [
        "d",
        "in"
      ],
      [
        "o",
        "h"
      ],
      [
        "▁b",
        "egen"
      ],
      [
        "'",
        "daki"
      ],
      [
        "im",
        "den"
      ],
      [
        "▁do",
        "kuz"
      ],
      [
        "▁c",
        "if"
      ],
      [
        "▁merk",
        "ez"
      ],
      [
        "▁t",
        "ah"
      ],
      [
        "▁degil",
        "se"
      ],
      [
        "▁s",
        "alı"
      ],
      [
        "m",
        "alar"
      ],
      [
        "c",
        "i"
      ],
      [
        "▁ucus",
        "ların"
      ],
      [
        "▁ulas",
        "ım"
      ],
      [
        "ı",
        "z"
      ],
      [
        "▁m",
        "u"
      ],
      [
        "▁yuks",
        "el"
      ],
      [
        "▁neler",
        "dir"
      ],
      [
        "s",
        "em"
      ],
      [
        "▁%1",
        "7"
      ],
      [
        "d",
        "u"
      ],
      [
        "▁dus",
        "un"
      ],
      [
        "▁calıs",
        "ma"
      ],
      [
        "▁t",
        "ek"
      ],
      [
        "▁am",
        "er"
      ],
      [
        "▁karıs",
        "tır"
      ],
      [
        "▁st",
        "ok"
      ],
      [
        "▁kal",
        "iforn"
      ],
      [
        "▁ben",
        "i"
      ],
      [
        "▁bas",
        "ka"
      ],
      [
        "e",
        "d"
      ],
      [
        "▁co",
        "."
      ],
      [
        "▁kalk",
        "ıp"
      ],
      [
        "edi",
        "r"
      ],
      [
        "mak",
        "ta"
      ],
      [
        "▁u",
        "m"
      ],
      [
        "▁m",
        "a"
      ],
      [
        "n",
        "ız"
      ],
      [
        "▁yonet",
        "im"
      ],
      [
        "n",
        "in"
      ],
      [
        "dig",
        "imiz"
      ],
      [
        "es",
        "inden"
      ],
      [
        "em",
        "iyor"
      ],
      [
        "er",
        "n"
      ],
      [
        "▁c",
        "en"
      ],
      [
        "d",
        "aki"
      ],
      [
        "il",
        "ik"
      ],
      [
        "▁d",
        "us"
      ],
      [
        "ek",
        "ler"
      ],
      [
        "▁yur",
        "ut"
      ],
      [
        "▁b",
        "ic"
      ],
      [
        "▁par",
        "ca"
      ],
      [
        "▁si",
        "ir"
      ],
      [
        "▁ac",
        "ıl"
      ],
      [
        "▁siyas",
        "i"
      ],
      [
        "▁gum",
        "bur"
      ],
      [
        "▁bilg",
        "is"
      ],
      [
        "▁r",
        "isk"
      ],
      [
        "lar",
        "ına"
      ],
      [
        "00",
        "0"
      ],
      [
        "t",
        "in"
      ],
      [
        "▁%5",
        "0"
      ],
      [
        "iler",
        "ine"
      ],
      [
        "▁gor",
        "ul"
      ],
      [
        "▁a",
        "dı"
      ],
      [
        "▁yuz",
        "u"
      ],
      [
        "▁'",
        "nin"
      ],
      [
        "▁ver",
        "en"
      ],
      [
        "ı",
        "r"
      ],
      [
        "▁kısı",
        "t"
      ],
      [
        "▁gi",
        "d"
      ],
      [
        "▁tekn",
        "oloj"
      ],
      [
        "it",
        "al"
      ],
      [
        ":00",
        "-22:30"
      ],
      [
        "▁kes",
        "in"
      ],
      [
        "eler",
        "ini"
      ],
      [
        "▁ay",
        "ır"
      ],
      [
        "l",
        "er"
      ],
      [
        "▁u",
        "z"
      ],
      [
        "o",
        "p"
      ],
      [
        "▁h",
        "an"
      ],
      [
        "▁m",
        "un"
      ],
      [
        "▁gun",
        "ku"
      ],
      [
        "▁bizim",
        "le"
      ],
      [
        "▁kar",
        "anlık"
      ],
      [
        "▁cı",
        "vıl"
      ],
      [
        "n",
        "a"
      ],
      [
        "o",
        "g"
      ],
      [
        "▁sar",
        "ay"
      ],
      [
        "▁bunun",
        "la"
      ],
      [
        "t",
        "u"
      ],
      [
        "▁yeter",
        "li"
      ],
      [
        "▁hen",
        "uz"
      ],
      [
        "ın",
        "dan"
      ],
      [
        "▁anlas",
        "ma"
      ],
      [
        "▁alt",
        "ın"
      ],
      [
        "▁b",
        "l"
      ],
      [
        "acı",
        "lar"
      ],
      [
        "m",
        "ay"
      ],
      [
        "▁mem",
        "leket"
      ],
      [
        "en",
        "ler"
      ],
      [
        "▁y",
        "esil"
      ],
      [
        "i",
        "dik"
      ],
      [
        "▁",
        "#"
      ],
      [
        "▁iddi",
        "a"
      ],
      [
        "▁y",
        "an"
      ],
      [
        "▁h",
        "al"
      ],
      [
        "▁d",
        "ig"
      ],
      [
        "ların",
        "ın"
      ],
      [
        "le",
        "b"
      ],
      [
        "▁s",
        "unu"
      ],
      [
        "t",
        "a"
      ],
      [
        "▁sab",
        "it"
      ],
      [
        "▁4",
        "5"
      ],
      [
        "as",
        "ır"
      ],
      [
        "u",
        "du"
      ],
      [
        "▁kal",
        "ın"
      ],
      [
        "▁bir",
        "ini"
      ],
      [
        "▁ayrı",
        "ca"
      ],
      [
        "▁siz",
        "e"
      ],
      [
        "▁k",
        "uv"
      ],
      [
        "k",
        "at"
      ],
      [
        "n",
        "un"
      ],
      [
        "▁per",
        "forman"
      ],
      [
        "▁sah",
        "n"
      ],
      [
        "▁s",
        "ut"
      ],
      [
        "▁y",
        "al"
      ],
      [
        "▁i",
        "li"
      ],
      [
        "▁lak",
        "e"
      ],
      [
        "il",
        "l"
      ],
      [
        "s",
        "ın"
      ],
      [
        "▁um",
        "ut"
      ],
      [
        "b",
        "ol"
      ],
      [
        "▁r",
        "om"
      ],
      [
        "am",
        "b"
      ],
      [
        "m",
        "esine"
      ],
      [
        "▁ay",
        "ak"
      ],
      [
        "▁dus",
        "erek"
      ],
      [
        "▁eder",
        "im"
      ],
      [
        "▁f",
        "on"
      ],
      [
        "▁kap",
        "at"
      ],
      [
        "▁k",
        "il"
      ],
      [
        "▁s",
        "o"
      ],
      [
        "ag",
        "an"
      ],
      [
        "▁m",
        "av"
      ],
      [
        "▁a",
        "j"
      ],
      [
        "▁zen",
        "gin"
      ],
      [
        "▁ac",
        "tı"
      ],
      [
        "▁m",
        "i"
      ],
      [
        "▁mer",
        "di"
      ],
      [
        "▁",
        "f"
      ],
      [
        "▁goz",
        "leri"
      ],
      [
        "is",
        "indan"
      ],
      [
        "▁d",
        "os"
      ],
      [
        "▁",
        "ve"
      ],
      [
        "▁yap",
        "ı"
      ],
      [
        "ur",
        "du"
      ],
      [
        "er",
        "ek"
      ],
      [
        "ation",
        "al"
      ],
      [
        "es",
        "iyle"
      ],
      [
        "▁ede",
        "cek"
      ],
      [
        "▁et",
        "me"
      ],
      [
        "▁zay",
        "if"
      ],
      [
        "▁ol",
        "mus"
      ],
      [
        "u",
        "ng"
      ],
      [
        "lam",
        "ası"
      ],
      [
        "▁as",
        "agı"
      ],
      [
        "em",
        "in"
      ],
      [
        "▁t",
        "er"
      ],
      [
        "el",
        "er"
      ],
      [
        "▁",
        "ic"
      ],
      [
        "a",
        "d"
      ],
      [
        "▁yuk",
        "s"
      ],
      [
        "▁yıl",
        "lık"
      ],
      [
        "▁ol",
        "c"
      ],
      [
        "▁tahvil",
        "ler"
      ],
      [
        "▁yaptir",
        "di"
      ],
      [
        "▁c",
        "ıl"
      ],
      [
        "ag",
        "ını"
      ],
      [
        "▁ucus",
        "a"
      ],
      [
        "▁da",
        "n"
      ],
      [
        "▁f",
        "iyat"
      ],
      [
        "▁y",
        "uv"
      ],
      [
        "▁k",
        "ent"
      ],
      [
        "ir",
        "an"
      ],
      [
        "▁ver",
        "gi"
      ],
      [
        "▁d",
        "ol"
      ],
      [
        "▁a",
        "dım"
      ],
      [
        "▁yar",
        "at"
      ],
      [
        "n",
        "i"
      ],
      [
        "▁ban",
        "ka"
      ],
      [
        "▁kal",
        "dı"
      ],
      [
        "▁olm",
        "ayan"
      ],
      [
        "▁hav",
        "uz"
      ],
      [
        "ek",
        "i"
      ],
      [
        "ey",
        "im"
      ],
      [
        "▁f",
        "ıs"
      ],
      [
        "▁ek",
        "s"
      ],
      [
        "▁tar",
        "if"
      ],
      [
        "▁ne",
        "dir"
      ],
      [
        "▁kon",
        "umu"
      ],
      [
        "▁s",
        "at"
      ],
      [
        "t",
        "i"
      ],
      [
        "▁ver",
        "digim"
      ],
      [
        "▁gel",
        "ecek"
      ],
      [
        "▁kot",
        "uydu"
      ],
      [
        "▁",
        "l"
      ],
      [
        "▁ces",
        "it"
      ],
      [
        "▁tan",
        "e"
      ],
      [
        "▁",
        "3"
      ],
      [
        "▁s",
        "uyu"
      ],
      [
        "i",
        "z"
      ],
      [
        "mıs",
        "lar"
      ],
      [
        "▁di",
        "ger"
      ],
      [
        "-2",
        "3"
      ],
      [
        "dı",
        "lar"
      ],
      [
        "▁fık",
        "ı"
      ],
      [
        "▁al",
        "ak"
      ],
      [
        "▁al",
        "ma"
      ],
      [
        "ın",
        "da"
      ],
      [
        "▁%7.",
        "7"
      ],
      [
        "▁bas",
        "v"
      ],
      [
        "ar",
        "k"
      ],
      [
        "▁y",
        "uk"
      ],
      [
        "▁bas",
        "ar"
      ],
      [
        "▁ver",
        "iyor"
      ],
      [
        "e",
        "m"
      ],
      [
        "▁s",
        "iddet"
      ],
      [
        "▁a",
        "b"
      ],
      [
        "as",
        "yon"
      ],
      [
        "en",
        "i"
      ],
      [
        "▁b",
        "ak"
      ],
      [
        "▁d",
        "idik"
      ],
      [
        "▁al",
        "ıp"
      ],
      [
        "▁ar",
        "k"
      ],
      [
        "▁otom",
        "obil"
      ],
      [
        "▁pol",
        "it"
      ],
      [
        "▁kuc",
        "uk"
      ],
      [
        "▁da",
        "hi"
      ],
      [
        "or",
        "m"
      ],
      [
        "les",
        "tir"
      ],
      [
        "for",
        "man"
      ],
      [
        "▁1",
        "9"
      ],
      [
        "▁par",
        "a"
      ],
      [
        "▁par",
        "t"
      ],
      [
        "is",
        "el"
      ],
      [
        "▁yer",
        "les"
      ],
      [
        "▁",
        "emek"
      ],
      [
        "▁bor",
        "c"
      ],
      [
        "▁d",
        "ay"
      ],
      [
        "89",
        "-"
      ],
      [
        "ler",
        "ini"
      ],
      [
        "i",
        "r"
      ],
      [
        "gil",
        "eri"
      ],
      [
        "▁bil",
        "dir"
      ],
      [
        "g",
        "ul"
      ],
      [
        "ıyor",
        "du"
      ],
      [
        "es",
        "inin"
      ],
      [
        "▁esk",
        "iydi"
      ],
      [
        "▁oy",
        "le"
      ],
      [
        "▁g",
        "ul"
      ],
      [
        "▁listel",
        "eyin"
      ],
      [
        "l",
        "ik"
      ],
      [
        "▁bek",
        "len"
      ],
      [
        "▁dem",
        "okr"
      ],
      [
        "▁fok",
        "ur"
      ],
      [
        "'",
        "ı"
      ],
      [
        "▁as",
        "l"
      ],
      [
        "u",
        "gu"
      ],
      [
        "▁oldugu",
        "m"
      ],
      [
        "eler",
        "ine"
      ],
      [
        "▁yer",
        "ine"
      ],
      [
        "▁b",
        "es"
      ],
      [
        "▁sirket",
        "ler"
      ],
      [
        "▁var",
        "di"
      ],
      [
        "▁%",
        "8"
      ],
      [
        "▁gercek",
        "lestir"
      ],
      [
        "▁sır",
        "a"
      ],
      [
        "▁top",
        "lum"
      ],
      [
        "▁charl",
        "otte"
      ],
      [
        "▁pittsburgh",
        "'a"
      ],
      [
        "▁g",
        "uzel"
      ],
      [
        "ız",
        "ı"
      ],
      [
        "▁bir",
        "les"
      ],
      [
        "▁as",
        "la"
      ],
      [
        "lar",
        "la"
      ],
      [
        "▁don",
        "du"
      ],
      [
        ".",
        "9"
      ],
      [
        "▁num",
        "ar"
      ],
      [
        "▁onlar",
        "a"
      ],
      [
        "ey",
        "e"
      ],
      [
        "▁californ",
        "ia"
      ],
      [
        "▁olma",
        "k"
      ],
      [
        "e",
        "l"
      ],
      [
        "m",
        "uyor"
      ],
      [
        "▁s",
        "tan"
      ],
      [
        "▁b",
        "iz"
      ],
      [
        "▁begen",
        "dim"
      ],
      [
        "▁i",
        "p"
      ],
      [
        "▁m",
        "et"
      ],
      [
        "e",
        "r"
      ],
      [
        "▁baskan",
        "ı"
      ],
      [
        "m",
        "as"
      ],
      [
        "▁acık",
        "lan"
      ],
      [
        "ati",
        "on"
      ],
      [
        "d",
        "et"
      ],
      [
        "▁i",
        "g"
      ],
      [
        "▁bir",
        "ine"
      ],
      [
        "▁",
        "("
      ],
      [
        "▁",
        "erk"
      ],
      [
        "▁",
        "8"
      ],
      [
        "em",
        "i"
      ],
      [
        "▁sekil",
        "de"
      ],
      [
        "eb",
        "il"
      ],
      [
        "▁d",
        "ib"
      ],
      [
        "▁ede",
        "c"
      ],
      [
        "▁ol",
        "an"
      ],
      [
        "▁c",
        "eb"
      ],
      [
        "▁fark",
        "lı"
      ],
      [
        "▁mi",
        "ly"
      ],
      [
        "ler",
        "ce"
      ],
      [
        "▁has",
        "ır"
      ],
      [
        "▁uzer",
        "inden"
      ],
      [
        "▁pet",
        "ers"
      ],
      [
        "ıl",
        "ı"
      ],
      [
        "se",
        "kiz"
      ],
      [
        "▁h",
        "ac"
      ],
      [
        "f",
        "a"
      ],
      [
        "ın",
        "c"
      ],
      [
        "eceg",
        "im"
      ],
      [
        "▁1.",
        "5"
      ],
      [
        "man",
        "ı"
      ],
      [
        "acag",
        "ını"
      ],
      [
        "▁kahv",
        "al"
      ],
      [
        "l",
        "uydu"
      ],
      [
        "▁birbir",
        "ler"
      ],
      [
        "g",
        "ar"
      ],
      [
        "ek",
        "et"
      ],
      [
        "▁et",
        "tik"
      ],
      [
        "▁s",
        "ul"
      ],
      [
        "▁g",
        "ar"
      ],
      [
        "▁cocuk",
        "lar"
      ],
      [
        "ıl",
        "ık"
      ],
      [
        "iler",
        "di"
      ],
      [
        "▁",
        "ak"
      ],
      [
        "ad",
        "aki"
      ],
      [
        "▁uz",
        "er"
      ],
      [
        "sız",
        "lık"
      ],
      [
        "▁kard",
        "es"
      ],
      [
        "m",
        "ayan"
      ],
      [
        "▁d",
        "im"
      ],
      [
        "▁dev",
        "let"
      ],
      [
        "a",
        "m"
      ],
      [
        "▁dor",
        "t"
      ],
      [
        "▁ba",
        "s"
      ],
      [
        "▁n",
        "it"
      ],
      [
        "▁il",
        "et"
      ],
      [
        "▁americ",
        "an"
      ],
      [
        "atur",
        "k"
      ],
      [
        "▁cid",
        "di"
      ],
      [
        "▁4",
        "2"
      ],
      [
        "l",
        "ılık"
      ],
      [
        "▁uret",
        "ic"
      ],
      [
        "▁amerik",
        "a"
      ],
      [
        "m",
        "ey"
      ],
      [
        "▁kon",
        "ak"
      ],
      [
        "▁or",
        "g"
      ],
      [
        "▁duv",
        "ar"
      ],
      [
        "uc",
        "uk"
      ],
      [
        "g",
        "men"
      ],
      [
        "▁onumuz",
        "deki"
      ],
      [
        "ar",
        "e"
      ],
      [
        "▁",
        "es"
      ],
      [
        "▁sey",
        "r"
      ],
      [
        "b",
        "as"
      ],
      [
        "▁b",
        "ırak"
      ],
      [
        "▁list",
        "el"
      ],
      [
        "▁ort",
        "ak"
      ],
      [
        "r",
        "en"
      ],
      [
        "ı",
        "p"
      ],
      [
        "▁if",
        "ade"
      ],
      [
        "▁ih",
        "t"
      ],
      [
        "▁bir",
        "likte"
      ],
      [
        "▁7",
        "5"
      ],
      [
        "ma",
        "dim"
      ],
      [
        "▁guler",
        "yuz"
      ],
      [
        "▁sirket",
        "i"
      ],
      [
        "ı",
        "g"
      ],
      [
        "l",
        "en"
      ],
      [
        "u",
        "yor"
      ],
      [
        "▁av",
        "uk"
      ],
      [
        "lar",
        "ak"
      ],
      [
        "▁",
        "iz"
      ],
      [
        "iyet",
        "i"
      ],
      [
        "hu",
        "t"
      ],
      [
        "▁t",
        "az"
      ],
      [
        "▁os",
        "man"
      ],
      [
        "dı",
        "m"
      ],
      [
        "a",
        "l"
      ],
      [
        "as",
        "a"
      ],
      [
        "▁var",
        "lık"
      ],
      [
        "▁it",
        "ir"
      ],
      [
        "▁y",
        "ine"
      ],
      [
        "▁ok",
        "uy"
      ],
      [
        "a",
        "r"
      ],
      [
        "▁m",
        "ar"
      ],
      [
        "ur",
        "ken"
      ],
      [
        "▁once",
        "den"
      ],
      [
        "▁k",
        "r"
      ],
      [
        "un",
        "uz"
      ],
      [
        "f",
        "i"
      ],
      [
        "▁f",
        "ay"
      ],
      [
        "d",
        "ar"
      ],
      [
        "▁1",
        "\\/"
      ],
      [
        "▁giz",
        "li"
      ],
      [
        "▁eks",
        "ik"
      ],
      [
        "▁yap",
        "tık"
      ],
      [
        "ler",
        "ine"
      ],
      [
        "▁dan",
        "ıs"
      ],
      [
        "▁tem",
        "muz"
      ],
      [
        "▁r",
        "ak"
      ],
      [
        "▁k",
        "ırk"
      ],
      [
        "▁muht",
        "em"
      ],
      [
        ".",
        "6"
      ],
      [
        "3",
        "0"
      ],
      [
        "▁gel",
        "is"
      ],
      [
        "▁",
        "”"
      ],
      [
        "▁u",
        "g"
      ],
      [
        "▁ust",
        "unde"
      ],
      [
        "▁cev",
        "r"
      ],
      [
        "▁f",
        "ık"
      ],
      [
        "▁c",
        "o"
      ],
      [
        "anc",
        "ı"
      ],
      [
        "▁on",
        "unde"
      ],
      [
        "'",
        "n"
      ],
      [
        "▁kar",
        "s"
      ],
      [
        "as",
        "ından"
      ],
      [
        "▁o",
        "bu"
      ],
      [
        "▁'",
        "'"
      ],
      [
        "▁zor",
        "unda"
      ],
      [
        "ıs",
        "ıyla"
      ],
      [
        "▁kıy",
        "met"
      ],
      [
        "▁al",
        "t"
      ],
      [
        "▁ilg",
        "isiz"
      ],
      [
        "▁endek",
        "s"
      ],
      [
        "▁et",
        "tim"
      ],
      [
        "▁3",
        "5"
      ],
      [
        "▁kalk",
        "ıyor"
      ],
      [
        "▁kendiler",
        "ini"
      ],
      [
        "▁birbir",
        "i"
      ],
      [
        "▁aras",
        "tır"
      ],
      [
        "y",
        "ak"
      ],
      [
        "▁kuv",
        "vet"
      ],
      [
        "▁m",
        "ark"
      ],
      [
        "'",
        "ın"
      ],
      [
        "u",
        "t"
      ],
      [
        "▁r",
        "es"
      ],
      [
        "'",
        "ta"
      ],
      [
        "af",
        "ir"
      ],
      [
        "m",
        "iyorum"
      ],
      [
        "t",
        "ar"
      ],
      [
        "▁s",
        "ark"
      ],
      [
        "▁cinc",
        "innati"
      ],
      [
        "▁g",
        "ore"
      ],
      [
        "▁b",
        "a"
      ],
      [
        "▁yas",
        "a"
      ],
      [
        "dı",
        "r"
      ],
      [
        "▁yaptir",
        "madim"
      ],
      [
        "▁ayr",
        "ı"
      ],
      [
        "▁ug",
        "r"
      ],
      [
        "ik",
        "ti"
      ],
      [
        "▁h",
        "ij"
      ],
      [
        "g",
        "e"
      ],
      [
        "▁tuk",
        "et"
      ],
      [
        "alar",
        "ına"
      ],
      [
        "▁city",
        "'den"
      ],
      [
        "▁tur",
        "k"
      ],
      [
        "▁s",
        "im"
      ],
      [
        "ıs",
        "ız"
      ],
      [
        "▁%8",
        ".2"
      ],
      [
        "▁g",
        "e"
      ],
      [
        "k",
        "e"
      ],
      [
        "▁uc",
        "ret"
      ],
      [
        "al",
        "anı"
      ],
      [
        "▁goz",
        "lerini"
      ],
      [
        "▁yam",
        "alak"
      ],
      [
        "am",
        "ak"
      ],
      [
        "▁del",
        "ta"
      ],
      [
        "▁d",
        "ayan"
      ],
      [
        "▁t",
        "en"
      ],
      [
        "▁yuk",
        "arı"
      ],
      [
        "c",
        "ek"
      ],
      [
        "on",
        "el"
      ],
      [
        "i",
        "h"
      ],
      [
        "ur",
        "u"
      ],
      [
        "▁b",
        "un"
      ],
      [
        "▁c",
        "at"
      ],
      [
        "on",
        "om"
      ],
      [
        "c",
        "ısı"
      ],
      [
        "as",
        "i"
      ],
      [
        "▁k",
        "uz"
      ],
      [
        "▁m",
        "um"
      ],
      [
        "▁%",
        "25"
      ],
      [
        "▁%1",
        ".7"
      ],
      [
        "▁o",
        "t"
      ],
      [
        "ur",
        "t"
      ],
      [
        "▁kon",
        "tr"
      ],
      [
        "d",
        "um"
      ],
      [
        "▁et",
        "s"
      ],
      [
        "▁kon",
        "for"
      ],
      [
        "▁gorun",
        "ce"
      ],
      [
        "r",
        "li"
      ],
      [
        "▁soy",
        "ler"
      ],
      [
        "▁m",
        "c"
      ],
      [
        "▁stan",
        "d"
      ],
      [
        "▁yog",
        "un"
      ],
      [
        "▁is",
        "im"
      ],
      [
        "▁t",
        "eh"
      ],
      [
        "▁bal",
        "ık"
      ],
      [
        "▁f",
        "eder"
      ],
      [
        "▁",
        "?"
      ],
      [
        "▁taraf",
        "ından"
      ],
      [
        "▁ol",
        "mak"
      ],
      [
        "▁bah",
        "c"
      ],
      [
        "▁2",
        "7"
      ],
      [
        "at",
        "es"
      ],
      [
        "▁ar",
        "adi"
      ],
      [
        "▁",
        "ez"
      ],
      [
        "iy",
        "on"
      ],
      [
        "▁genel",
        "likle"
      ],
      [
        "u",
        "s"
      ],
      [
        "▁tor",
        "ont"
      ],
      [
        "g",
        "or"
      ],
      [
        "▁amer",
        "ik"
      ],
      [
        "▁gir",
        "isim"
      ],
      [
        "ih",
        "az"
      ],
      [
        "▁gor",
        "medim"
      ],
      [
        "l",
        "iyor"
      ],
      [
        "▁g",
        "or"
      ],
      [
        "▁onlar",
        "ı"
      ],
      [
        "▁",
        "ler"
      ],
      [
        "▁c",
        "ep"
      ],
      [
        "▁al",
        "i"
      ],
      [
        "▁ask",
        "er"
      ],
      [
        "▁memph",
        "is"
      ],
      [
        "iy",
        "a"
      ],
      [
        "▁mi",
        "sin"
      ],
      [
        "▁h",
        "uz"
      ],
      [
        "▁bas",
        "lıyor"
      ],
      [
        "▁de",
        "k"
      ],
      [
        "di",
        "m"
      ],
      [
        "▁",
        "edi"
      ],
      [
        "▁k",
        "ur"
      ],
      [
        "im",
        "in"
      ],
      [
        "i",
        "p"
      ],
      [
        "▁et",
        "tiler"
      ],
      [
        "▁ne",
        "y"
      ],
      [
        "▁p",
        "ır"
      ],
      [
        "i",
        "g"
      ],
      [
        "▁o",
        "de"
      ],
      [
        "d",
        "e"
      ],
      [
        "g",
        "an"
      ],
      [
        "▁%5",
        ".4"
      ],
      [
        "▁1.",
        "2"
      ],
      [
        "ay",
        "an"
      ],
      [
        "▁yak",
        "las"
      ],
      [
        "k",
        "an"
      ],
      [
        "iyor",
        "um"
      ],
      [
        "▁gel",
        "en"
      ],
      [
        "▁yonet",
        "ic"
      ],
      [
        "▁bak",
        "ıs"
      ],
      [
        "▁yal",
        "nız"
      ],
      [
        "▁duy",
        "g"
      ],
      [
        "▁o",
        "s"
      ],
      [
        "▁fiyat",
        "lar"
      ],
      [
        "▁d",
        "ost"
      ],
      [
        "▁tut",
        "un"
      ],
      [
        "m",
        "el"
      ],
      [
        "▁herk",
        "es"
      ],
      [
        "▁",
        "a"
      ],
      [
        "▁olm",
        "az"
      ],
      [
        "▁bas",
        "ında"
      ],
      [
        "ıs",
        "ının"
      ],
      [
        "e",
        "le"
      ],
      [
        "▁ko",
        "ca"
      ],
      [
        "▁g",
        "al"
      ],
      [
        "▁yardim",
        "ci"
      ],
      [
        "k",
        "al"
      ],
      [
        "▁kon",
        "u"
      ],
      [
        "▁kap",
        "an"
      ],
      [
        "▁tem",
        "el"
      ],
      [
        "▁ıs",
        "ık"
      ],
      [
        "▁hal",
        "dır"
      ],
      [
        "▁zar",
        "ar"
      ],
      [
        "il",
        "i"
      ],
      [
        "j",
        "i"
      ],
      [
        "on",
        "ik"
      ],
      [
        "ıl",
        "dı"
      ],
      [
        "e",
        "p"
      ],
      [
        "▁h",
        "ur"
      ],
      [
        "▁normal",
        "di"
      ],
      [
        "g",
        "ını"
      ],
      [
        "ley",
        "en"
      ],
      [
        "e",
        "g"
      ],
      [
        "ar",
        "d"
      ],
      [
        "▁",
        "un"
      ],
      [
        "t",
        "e"
      ],
      [
        "▁f",
        "as"
      ],
      [
        "▁enf",
        "lasyon"
      ],
      [
        "▁gen",
        "c"
      ],
      [
        "▁vaz",
        "gec"
      ],
      [
        "ust",
        "ri"
      ],
      [
        "lay",
        "acak"
      ],
      [
        "▁%7",
        "."
      ],
      [
        "▁m",
        "or"
      ],
      [
        "um",
        "a"
      ],
      [
        "▁lutf",
        "en"
      ],
      [
        "▁",
        "ıs"
      ],
      [
        "▁ol",
        "m"
      ],
      [
        "▁ar",
        "d"
      ],
      [
        "▁ye",
        "di"
      ],
      [
        "▁or",
        "anı"
      ],
      [
        "▁g",
        "it"
      ],
      [
        "▁hal",
        "a"
      ],
      [
        "▁ne",
        "den"
      ],
      [
        "▁fay",
        "d"
      ],
      [
        "▁kar",
        "ayol"
      ],
      [
        "ust",
        "os"
      ],
      [
        "▁d",
        "og"
      ],
      [
        "▁d",
        "uk"
      ],
      [
        "▁al",
        "ıyor"
      ],
      [
        "▁mik",
        "tar"
      ],
      [
        "▁kendiler",
        "ine"
      ],
      [
        "b",
        "ir"
      ],
      [
        "n",
        "ek"
      ],
      [
        "im",
        "de"
      ],
      [
        "▁ay",
        "ı"
      ],
      [
        "iy",
        "i"
      ],
      [
        "'",
        "y"
      ],
      [
        "▁v",
        "ucu"
      ],
      [
        "▁5",
        "1"
      ],
      [
        "▁olma",
        "yan"
      ],
      [
        "▁ilgil",
        "i"
      ],
      [
        "s",
        "en"
      ],
      [
        "▁s",
        "an"
      ],
      [
        "d",
        "an"
      ],
      [
        "if",
        "orn"
      ],
      [
        "ta",
        "dır"
      ],
      [
        "▁'",
        "d"
      ],
      [
        "▁k",
        "ot"
      ],
      [
        "▁gen",
        "e"
      ],
      [
        "l",
        "in"
      ],
      [
        "▁dur",
        "umu"
      ],
      [
        "5",
        "-1"
      ],
      [
        "in",
        "iz"
      ],
      [
        "ac",
        "agı"
      ],
      [
        "▁yanl",
        "ıs"
      ],
      [
        "ıl",
        "ım"
      ],
      [
        "▁oldu",
        "gunu"
      ],
      [
        "▁u",
        "tan"
      ],
      [
        "▁on",
        "c"
      ],
      [
        "g",
        "il"
      ],
      [
        "▁h",
        "edef"
      ],
      [
        "eviz",
        "yon"
      ],
      [
        "'",
        "ya"
      ],
      [
        "▁ev",
        "i"
      ],
      [
        "▁",
        "\""
      ],
      [
        "▁s",
        "al"
      ],
      [
        "▁",
        "5-1"
      ],
      [
        "▁19",
        "89-"
      ],
      [
        "▁",
        "ede"
      ],
      [
        "as",
        "ı"
      ],
      [
        "▁",
        "i"
      ],
      [
        "▁dik",
        "kat"
      ],
      [
        "8",
        "9"
      ],
      [
        "og",
        "ram"
      ],
      [
        "alar",
        "la"
      ],
      [
        "▁onc",
        "eki"
      ],
      [
        "l",
        "u"
      ],
      [
        "▁kr",
        "edi"
      ],
      [
        "▁m",
        "ev"
      ],
      [
        "▁v",
        "er"
      ],
      [
        "en",
        "ek"
      ],
      [
        "▁hal",
        "de"
      ],
      [
        "▁der",
        "ec"
      ],
      [
        "m",
        "is"
      ],
      [
        "▁kendi",
        "sin"
      ],
      [
        "ler",
        "di"
      ],
      [
        "l",
        "t"
      ],
      [
        "m",
        "eleri"
      ],
      [
        "g",
        "ini"
      ],
      [
        "▁d",
        "ir"
      ],
      [
        "▁olar",
        "ak"
      ],
      [
        "▁franc",
        "isco"
      ],
      [
        "▁dı",
        "r"
      ],
      [
        "▁par",
        "c"
      ],
      [
        "y",
        "a"
      ],
      [
        "g",
        "ec"
      ],
      [
        "u",
        "gun"
      ],
      [
        "▁g",
        "ec"
      ],
      [
        "li",
        "g"
      ],
      [
        "▁%1",
        "1"
      ],
      [
        "▁di",
        "ye"
      ],
      [
        "▁y",
        "onel"
      ],
      [
        "▁lez",
        "zet"
      ],
      [
        "uy",
        "la"
      ],
      [
        "em",
        "e"
      ],
      [
        "▁p",
        "encer"
      ],
      [
        "▁c",
        "ar"
      ],
      [
        "▁gel",
        "iyor"
      ],
      [
        "s",
        "uz"
      ],
      [
        "▁muh",
        "t"
      ],
      [
        "'",
        "den"
      ],
      [
        "▁ar",
        "ac"
      ],
      [
        "▁zaman",
        "da"
      ],
      [
        "▁t",
        "h"
      ],
      [
        "▁yetk",
        "il"
      ],
      [
        "a",
        "p"
      ],
      [
        "▁goster",
        "iyor"
      ],
      [
        "am",
        "a"
      ],
      [
        "r",
        "ily"
      ],
      [
        "▁",
        "ustu"
      ],
      [
        "▁kac",
        "ın"
      ],
      [
        "a",
        "g"
      ],
      [
        "▁g",
        "oster"
      ],
      [
        "▁dusuk",
        "tu"
      ],
      [
        "▁m",
        "er"
      ],
      [
        "es",
        "ini"
      ],
      [
        "▁serv",
        "is"
      ],
      [
        "ım",
        "ız"
      ],
      [
        "▁han",
        "gileri"
      ],
      [
        "▁%2",
        "7"
      ],
      [
        "▁198",
        "8"
      ],
      [
        "▁mey",
        "al"
      ],
      [
        "▁k",
        "ıy"
      ],
      [
        "▁bu",
        "r"
      ],
      [
        "▁birka",
        "c"
      ],
      [
        "▁onlar",
        "ın"
      ],
      [
        "ic",
        "e"
      ],
      [
        "▁son",
        "ra"
      ],
      [
        "p",
        "an"
      ],
      [
        "▁t",
        "op"
      ],
      [
        "▁ben",
        "ce"
      ],
      [
        "▁tesis",
        "in"
      ],
      [
        "▁insa",
        "at"
      ],
      [
        "▁m",
        "il"
      ],
      [
        "▁tık",
        "lım"
      ],
      [
        "ro",
        "it"
      ],
      [
        "▁cık",
        "mıs"
      ],
      [
        "an",
        "t"
      ],
      [
        "an",
        "a"
      ],
      [
        "'",
        "ten"
      ],
      [
        "ır",
        "ım"
      ],
      [
        "▁ne",
        "f"
      ],
      [
        "r",
        "o"
      ],
      [
        "▁miami",
        "'ye"
      ],
      [
        "▁top",
        "lan"
      ],
      [
        "▁mahk",
        "em"
      ],
      [
        "▁s",
        "asır"
      ],
      [
        "is",
        "t"
      ],
      [
        "▁seviy",
        "esine"
      ],
      [
        "er",
        "di"
      ],
      [
        "▁..",
        "\""
      ],
      [
        "▁3",
        "."
      ],
      [
        "▁m",
        "ec"
      ],
      [
        "▁et",
        "k"
      ],
      [
        "ak",
        "i"
      ],
      [
        "t",
        "er"
      ],
      [
        "ers",
        "iz"
      ],
      [
        "▁sen",
        "in"
      ],
      [
        "▁do",
        "lar"
      ],
      [
        "dı",
        "g"
      ],
      [
        "▁s",
        "ef"
      ],
      [
        "▁gor",
        "mek"
      ],
      [
        "ler",
        "le"
      ],
      [
        "o",
        "y"
      ],
      [
        "▁kor",
        "k"
      ],
      [
        "▁tam",
        "am"
      ],
      [
        "▁in",
        "san"
      ],
      [
        "▁guc",
        "lu"
      ],
      [
        "▁ey",
        "lul"
      ],
      [
        "▁il",
        "er"
      ],
      [
        "▁k",
        "ut"
      ],
      [
        "▁n",
        "ak"
      ],
      [
        "m",
        "ustur"
      ],
      [
        "▁prob",
        "lem"
      ],
      [
        "▁c",
        "iyak"
      ],
      [
        "▁mu",
        "dur"
      ],
      [
        "▁gen",
        "eral"
      ],
      [
        "▁baz",
        "i"
      ],
      [
        "a",
        "tır"
      ],
      [
        "▁cif",
        "t"
      ],
      [
        "uyor",
        "um"
      ],
      [
        "iz",
        "i"
      ],
      [
        "▁bey",
        "az"
      ],
      [
        "inn",
        "ati"
      ],
      [
        "▁di",
        "eg"
      ],
      [
        "▁new",
        "ark"
      ],
      [
        "▁f",
        "ab"
      ],
      [
        "▁car",
        "samba"
      ],
      [
        "▁b",
        "eni"
      ],
      [
        "▁p",
        "itt"
      ],
      [
        "▁corp",
        "."
      ],
      [
        "▁iz",
        "in"
      ],
      [
        "▁muc",
        "adel"
      ],
      [
        "▁w",
        "est"
      ],
      [
        "ır",
        "lar"
      ],
      [
        "▁k",
        "o"
      ],
      [
        "▁a",
        "t"
      ],
      [
        "▁sen",
        "t"
      ],
      [
        "▁kurt",
        "ul"
      ],
      [
        "▁ken",
        "ar"
      ],
      [
        "▁havayol",
        "ları"
      ],
      [
        "am",
        "i"
      ],
      [
        "▁y",
        "edi"
      ],
      [
        "▁du",
        "m"
      ],
      [
        "▁git",
        "mek"
      ],
      [
        "▁ay",
        "n"
      ],
      [
        "▁ol",
        "ur"
      ],
      [
        "▁tek",
        "n"
      ],
      [
        "▁s",
        "ir"
      ],
      [
        "▁d",
        "ik"
      ],
      [
        "▁yardım",
        "cı"
      ],
      [
        "u",
        "ar"
      ],
      [
        "▁z",
        "ayıf"
      ],
      [
        "▁y",
        "on"
      ],
      [
        "▁n",
        "es"
      ],
      [
        "o",
        "b"
      ],
      [
        "▁benz",
        "er"
      ],
      [
        "▁f",
        "ilm"
      ],
      [
        "▁hay",
        "van"
      ],
      [
        "▁fa",
        "iz"
      ],
      [
        "▁siy",
        "ah"
      ],
      [
        "og",
        "lu"
      ],
      [
        "▁goster",
        "in"
      ],
      [
        "▁mi",
        "s"
      ],
      [
        "co",
        "g"
      ],
      [
        "▁top",
        "lam"
      ],
      [
        "▁ist",
        "iyorum"
      ],
      [
        "is",
        "s"
      ],
      [
        "lik",
        "le"
      ],
      [
        "▁t",
        "ut"
      ],
      [
        "▁uc",
        "uyor"
      ],
      [
        "▁pr",
        "ob"
      ],
      [
        "▁nok",
        "ta"
      ],
      [
        "▁o",
        "k"
      ],
      [
        "▁p",
        "a"
      ],
      [
        "l",
        "ası"
      ],
      [
        "▁%",
        "9"
      ],
      [
        "ler",
        "inden"
      ],
      [
        "mıs",
        "tır"
      ],
      [
        "▁sonr",
        "aki"
      ],
      [
        "l",
        "eket"
      ],
      [
        "▁cog",
        "u"
      ],
      [
        "▁p",
        "iyas"
      ],
      [
        "▁bor",
        "sa"
      ],
      [
        "▁yıl",
        "lar"
      ],
      [
        "▁h",
        "o"
      ],
      [
        "▁20",
        "1"
      ],
      [
        "▁",
        "cok"
      ],
      [
        "-",
        "6"
      ],
      [
        "▁k",
        "us"
      ],
      [
        "▁biz",
        "de"
      ],
      [
        "a",
        "'nın"
      ],
      [
        "▁ol",
        "acak"
      ],
      [
        "▁t",
        "av"
      ],
      [
        "▁k",
        "at"
      ],
      [
        "▁neden",
        "iyle"
      ],
      [
        "lıg",
        "a"
      ],
      [
        "▁ingil",
        "iz"
      ],
      [
        "al",
        "ım"
      ],
      [
        "▁hiss",
        "e"
      ],
      [
        "m",
        "ak"
      ],
      [
        "▁pitt",
        "s"
      ],
      [
        "▁seh",
        "ir"
      ],
      [
        "▁ihtiyac",
        "ım"
      ],
      [
        "eler",
        "inin"
      ],
      [
        "▁kadın",
        "lar"
      ],
      [
        "▁ek",
        "ledi"
      ],
      [
        "▁or",
        "ta"
      ],
      [
        "am",
        "ası"
      ],
      [
        "▁ben",
        "z"
      ],
      [
        "▁s",
        "ac"
      ],
      [
        "▁%9",
        "."
      ],
      [
        "▁",
        "9"
      ],
      [
        "▁fing",
        "ir"
      ],
      [
        "▁ki",
        "si"
      ],
      [
        "ir",
        "ler"
      ],
      [
        "▁kı",
        "v"
      ],
      [
        "▁",
        "am"
      ],
      [
        "▁l",
        "ist"
      ],
      [
        "▁anal",
        "ist"
      ],
      [
        "uk",
        "ee"
      ],
      [
        "▁f",
        "el"
      ],
      [
        "y",
        "alar"
      ],
      [
        "▁cog",
        "un"
      ],
      [
        "lar",
        "ı"
      ],
      [
        "▁gidi",
        "p"
      ],
      [
        "▁v",
        "az"
      ],
      [
        "▁ok",
        "um"
      ],
      [
        "▁m",
        "art"
      ],
      [
        "▁dol",
        "ay"
      ],
      [
        "am",
        "ıyor"
      ],
      [
        "es",
        "ine"
      ],
      [
        "▁yag",
        "m"
      ],
      [
        "▁an",
        "ad"
      ],
      [
        "▁h",
        "us"
      ],
      [
        "▁ot",
        "el"
      ],
      [
        "▁sen",
        "i"
      ],
      [
        "▁3",
        "00"
      ],
      [
        "▁f",
        "atur"
      ],
      [
        "o",
        "br"
      ],
      [
        "▁ak",
        "tar"
      ],
      [
        "▁al",
        "ın"
      ],
      [
        "▁%6",
        ".9"
      ],
      [
        "▁c",
        "or"
      ],
      [
        "▁z",
        "ırt"
      ],
      [
        "ak",
        "et"
      ],
      [
        "▁mıs",
        "ın"
      ],
      [
        "l",
        "et"
      ],
      [
        "▁d",
        "emek"
      ],
      [
        "▁art",
        "tı"
      ],
      [
        "u",
        "c"
      ],
      [
        "▁t",
        "at"
      ],
      [
        "ılı",
        "gı"
      ],
      [
        "art",
        "esi"
      ],
      [
        "▁le",
        "z"
      ],
      [
        "eg",
        "ini"
      ],
      [
        "ad",
        "an"
      ],
      [
        "▁",
        "v"
      ],
      [
        "▁cic",
        "ek"
      ],
      [
        "▁ker",
        "e"
      ],
      [
        "▁ort",
        "am"
      ],
      [
        "▁yap",
        "ma"
      ],
      [
        "az",
        "ım"
      ],
      [
        "▁sav",
        "as"
      ],
      [
        "▁ef",
        "endi"
      ],
      [
        "▁dog",
        "al"
      ],
      [
        "▁kend",
        "in"
      ],
      [
        "▁sal",
        "dır"
      ],
      [
        "▁bul",
        "mak"
      ],
      [
        "▁tef",
        "ek"
      ],
      [
        "▁oz",
        "el"
      ],
      [
        "▁az",
        "di"
      ],
      [
        "ay",
        "la"
      ],
      [
        "▁g",
        "r"
      ],
      [
        "▁c",
        "an"
      ],
      [
        "di",
        "ler"
      ],
      [
        "ya",
        "'nın"
      ],
      [
        "▁deger",
        "lendir"
      ],
      [
        "▁tem",
        "iz"
      ],
      [
        "▁birlik",
        "te"
      ],
      [
        "▁in",
        "sa"
      ],
      [
        "▁r",
        "ap"
      ],
      [
        "▁k",
        "os"
      ],
      [
        "▁sun",
        "ları"
      ],
      [
        "▁",
        "em"
      ],
      [
        "▁s",
        "m"
      ],
      [
        "▁lung",
        "ur"
      ],
      [
        "▁ihtiy",
        "ac"
      ],
      [
        "▁man",
        "z"
      ],
      [
        "er",
        "s"
      ],
      [
        "▁olacak",
        "tır"
      ],
      [
        "▁c",
        "al"
      ],
      [
        "▁dig",
        "er"
      ],
      [
        "tı",
        "gını"
      ],
      [
        "▁o",
        "c"
      ],
      [
        "b",
        "ak"
      ],
      [
        "▁t",
        "ep"
      ],
      [
        "▁s",
        "imdi"
      ],
      [
        "▁op",
        "er"
      ],
      [
        "▁g",
        "rup"
      ],
      [
        "▁kur",
        "ul"
      ],
      [
        "▁ayn",
        "i"
      ],
      [
        "▁hep",
        "si"
      ],
      [
        "▁ver",
        "irim"
      ],
      [
        "▁2",
        ".7"
      ],
      [
        "▁de",
        "rli"
      ],
      [
        "▁kay",
        "b"
      ],
      [
        "▁kis",
        "isel"
      ],
      [
        "▁olan",
        "ak"
      ],
      [
        "▁nak",
        "it"
      ],
      [
        "▁han",
        "gi"
      ],
      [
        "▁k",
        "ol"
      ],
      [
        "▁al",
        "dı"
      ],
      [
        "▁an",
        "cak"
      ],
      [
        "▁k",
        "anı"
      ],
      [
        "dıg",
        "ım"
      ],
      [
        "▁on",
        "ce"
      ],
      [
        "▁b",
        "ey"
      ],
      [
        "at",
        "ı"
      ],
      [
        "▁3",
        "/"
      ],
      [
        "f",
        "er"
      ],
      [
        "▁b",
        "ah"
      ],
      [
        "o",
        "f"
      ],
      [
        "▁gon",
        "ul"
      ],
      [
        "▁don",
        "em"
      ],
      [
        "▁f",
        "ik"
      ],
      [
        "▁'d",
        "e"
      ],
      [
        "b",
        "es"
      ],
      [
        "▁h",
        "os"
      ],
      [
        "▁k",
        "ul"
      ],
      [
        "▁c",
        "it"
      ],
      [
        "-",
        "1"
      ],
      [
        "t",
        "edir"
      ],
      [
        "▁york",
        "'tan"
      ],
      [
        "▁od",
        "aydi"
      ],
      [
        "l",
        "ilik"
      ],
      [
        "▁b",
        "ek"
      ],
      [
        "▁misafir",
        "imiz"
      ],
      [
        "▁ort",
        "aya"
      ],
      [
        "k",
        "ır"
      ],
      [
        "▁`",
        "`"
      ],
      [
        "on",
        "u"
      ],
      [
        "ir",
        "i"
      ],
      [
        "▁hakk",
        "ında"
      ],
      [
        "▁d",
        "ak"
      ],
      [
        "▁",
        "n"
      ],
      [
        "▁insan",
        "lar"
      ],
      [
        "▁bildir",
        "di"
      ],
      [
        "▁",
        "eki"
      ],
      [
        "▁dal",
        "las"
      ],
      [
        "▁kans",
        "as"
      ],
      [
        "▁lou",
        "is"
      ],
      [
        "on",
        "t"
      ],
      [
        "▁faal",
        "iyet"
      ],
      [
        "▁i",
        "b"
      ],
      [
        "▁bil",
        "es"
      ],
      [
        "ım",
        "ı"
      ],
      [
        "▁h",
        "ol"
      ],
      [
        "▁su",
        "z"
      ],
      [
        "▁kırm",
        "ızı"
      ],
      [
        "ler",
        "inin"
      ],
      [
        "sin",
        "iz"
      ],
      [
        "ey",
        "le"
      ],
      [
        "▁t",
        "anı"
      ],
      [
        "▁k",
        "ay"
      ],
      [
        "ik",
        "a"
      ],
      [
        "ıyor",
        "um"
      ],
      [
        "▁biri",
        "si"
      ],
      [
        "id",
        "det"
      ],
      [
        "l",
        "ar"
      ],
      [
        "▁c",
        "il"
      ],
      [
        "ili",
        "gi"
      ],
      [
        "▁kon",
        "um"
      ],
      [
        "▁sen",
        "et"
      ],
      [
        "o",
        "l"
      ],
      [
        "▁gal",
        "ib"
      ],
      [
        "▁y",
        "ol"
      ],
      [
        "iyor",
        "du"
      ],
      [
        "▁f",
        "az"
      ],
      [
        "▁p",
        "ers"
      ],
      [
        "▁ist",
        "ik"
      ],
      [
        "▁cey",
        "rek"
      ],
      [
        "ur",
        "lu"
      ],
      [
        "▁mus",
        "ta"
      ],
      [
        "▁yuks",
        "elerek"
      ],
      [
        "▁l",
        "ond"
      ],
      [
        "imiz",
        "in"
      ],
      [
        "la",
        "dı"
      ],
      [
        "▁",
        "!"
      ],
      [
        "▁yap",
        "tı"
      ],
      [
        "▁m",
        "eh"
      ],
      [
        "g",
        "ur"
      ],
      [
        "▁ard",
        "ından"
      ],
      [
        "▁has",
        "ta"
      ],
      [
        "gi",
        "m"
      ],
      [
        "▁d",
        "iz"
      ],
      [
        "▁g",
        "ur"
      ],
      [
        "k",
        "ur"
      ],
      [
        "▁gel",
        "istir"
      ],
      [
        "m",
        "in"
      ],
      [
        "▁oper",
        "asyon"
      ],
      [
        "▁ic",
        "in"
      ],
      [
        "s",
        "at"
      ],
      [
        "im",
        "e"
      ],
      [
        "▁haf",
        "ta"
      ],
      [
        "▁h",
        "ay"
      ],
      [
        "ı",
        "y"
      ],
      [
        "m",
        "edi"
      ],
      [
        "▁c",
        "ent"
      ],
      [
        "▁uz",
        "at"
      ],
      [
        "ul",
        "uyor"
      ],
      [
        "alı",
        "gı"
      ],
      [
        "t",
        "en"
      ],
      [
        "▁ay",
        "ında"
      ],
      [
        "▁bir",
        "im"
      ],
      [
        "▁yuz",
        "me"
      ],
      [
        "▁s",
        "ır"
      ],
      [
        "▁g",
        "oz"
      ],
      [
        "r",
        "im"
      ],
      [
        "▁otel",
        "di"
      ],
      [
        "▁hic",
        "bir"
      ],
      [
        "lem",
        "e"
      ],
      [
        "▁den",
        "g"
      ],
      [
        "lar",
        "ın"
      ],
      [
        "▁kar",
        "d"
      ],
      [
        "▁guleryuz",
        "luydu"
      ],
      [
        "▁",
        "ey"
      ],
      [
        "▁sur",
        "ekli"
      ],
      [
        "enc",
        "er"
      ],
      [
        "▁ilgilendi",
        "ler"
      ],
      [
        "▁y",
        "ay"
      ],
      [
        "▁m",
        "uz"
      ],
      [
        "an",
        "da"
      ],
      [
        "ust",
        "uk"
      ],
      [
        "▁ko",
        "v"
      ],
      [
        "▁d",
        "est"
      ],
      [
        "m",
        "a"
      ],
      [
        "▁ac",
        "isindan"
      ],
      [
        "is",
        "k"
      ],
      [
        "las",
        "s"
      ],
      [
        "▁b",
        "ab"
      ],
      [
        "▁olm",
        "ası"
      ],
      [
        "▁son",
        "r"
      ],
      [
        "p",
        "r"
      ],
      [
        "il",
        "ecek"
      ],
      [
        "am",
        "aya"
      ],
      [
        "▁i",
        "se"
      ],
      [
        "▁",
        "ek"
      ],
      [
        "as",
        "ında"
      ],
      [
        "▁ar",
        "alık"
      ],
      [
        "▁y",
        "ık"
      ],
      [
        "▁hal",
        "e"
      ],
      [
        "▁yuks",
        "ek"
      ],
      [
        "▁in",
        "gil"
      ],
      [
        "▁dıs",
        "arı"
      ],
      [
        "▁bor",
        "s"
      ],
      [
        "lan",
        "ıyor"
      ],
      [
        "▁u",
        "las"
      ],
      [
        "▁bak",
        "ım"
      ],
      [
        "▁u",
        "y"
      ],
      [
        "or",
        "ta"
      ],
      [
        "▁ol",
        "us"
      ],
      [
        "▁az",
        "alt"
      ],
      [
        "l",
        "um"
      ],
      [
        "▁s",
        "esi"
      ],
      [
        "▁tat",
        "lı"
      ],
      [
        "tı",
        "yor"
      ],
      [
        "▁cumhur",
        "iyet"
      ],
      [
        "▁b",
        "er"
      ],
      [
        "▁rezervasyon",
        "u"
      ],
      [
        "y",
        "n"
      ],
      [
        "▁mily",
        "ar"
      ],
      [
        "▁tas",
        "ar"
      ],
      [
        "3",
        "2"
      ],
      [
        "▁turk",
        "iye"
      ],
      [
        "▁res",
        "mi"
      ],
      [
        "▁ayn",
        "ı"
      ],
      [
        "▁k",
        "im"
      ],
      [
        "▁yas",
        "lı"
      ],
      [
        "ların",
        "dan"
      ],
      [
        "▁1",
        "7"
      ],
      [
        "▁ne",
        "ler"
      ],
      [
        "▁%8",
        "0"
      ],
      [
        "▁yor",
        "gun"
      ],
      [
        "▁uz",
        "man"
      ],
      [
        "▁aras",
        "ında"
      ],
      [
        "▁m",
        "ur"
      ],
      [
        "▁fab",
        "rik"
      ],
      [
        "c",
        "h"
      ],
      [
        "▁y",
        "am"
      ],
      [
        "▁gun",
        "leri"
      ],
      [
        "d",
        "ur"
      ],
      [
        "es",
        "iz"
      ],
      [
        "m",
        "enin"
      ],
      [
        "▁r",
        "e"
      ],
      [
        "▁uzer",
        "ine"
      ],
      [
        "▁ogle",
        "den"
      ],
      [
        "▁yak",
        "in"
      ],
      [
        "▁ger",
        "i"
      ],
      [
        "▁gec",
        "mis"
      ],
      [
        "▁hukum",
        "et"
      ],
      [
        "▁ulus",
        "lar"
      ],
      [
        "▁may",
        "ıs"
      ],
      [
        "il",
        "er"
      ],
      [
        "i",
        "yak"
      ],
      [
        "lar",
        "dı"
      ],
      [
        "ir",
        "mi"
      ],
      [
        "▁pitts",
        "burgh"
      ],
      [
        "▁h",
        "iss"
      ],
      [
        "al",
        "l"
      ],
      [
        "▁tem",
        "sil"
      ],
      [
        "o",
        "ma"
      ],
      [
        "▁2",
        "1"
      ],
      [
        "▁",
        "j"
      ],
      [
        "▁bek",
        "ledi"
      ],
      [
        "▁yas",
        "ında"
      ],
      [
        "▁sek",
        "il"
      ],
      [
        "▁y",
        "eni"
      ],
      [
        "▁b",
        "ag"
      ],
      [
        "▁kam",
        "pan"
      ],
      [
        "▁tes",
        "isten"
      ],
      [
        "l",
        "e"
      ],
      [
        "▁on",
        "gor"
      ],
      [
        ".",
        "7"
      ],
      [
        "b",
        "u"
      ],
      [
        "▁deniz",
        "i"
      ],
      [
        "▁or",
        "negin"
      ],
      [
        "▁yemekler",
        "inden"
      ],
      [
        "imiz",
        "i"
      ],
      [
        "▁sey",
        "ahat"
      ],
      [
        "▁al",
        "ıcı"
      ],
      [
        "▁ark",
        "ad"
      ],
      [
        "▁f",
        "ak"
      ],
      [
        "ıl",
        "ması"
      ],
      [
        "▁i",
        "f"
      ],
      [
        "ab",
        "il"
      ],
      [
        "▁fiyat",
        "a"
      ],
      [
        "ır",
        "ak"
      ],
      [
        "el",
        "im"
      ],
      [
        "▁bil",
        "in"
      ],
      [
        "▁t",
        "im"
      ],
      [
        "ma",
        "dan"
      ],
      [
        "m",
        "ayı"
      ],
      [
        "b",
        "a"
      ],
      [
        "▁b",
        "el"
      ],
      [
        "iz",
        "e"
      ],
      [
        "m",
        "i"
      ],
      [
        "▁ic",
        "i"
      ],
      [
        "▁ba",
        "z"
      ],
      [
        "▁s",
        "iz"
      ],
      [
        "▁il",
        "gi"
      ],
      [
        "▁r",
        "ek"
      ],
      [
        "an",
        "c"
      ],
      [
        "▁gor",
        "us"
      ],
      [
        "▁",
        "$"
      ],
      [
        "▁ar",
        "a"
      ],
      [
        "▁t",
        "ed"
      ],
      [
        "▁ili",
        "sk"
      ],
      [
        "▁",
        "…"
      ],
      [
        "▁min",
        "ne"
      ],
      [
        "ler",
        "im"
      ],
      [
        "an",
        "ın"
      ],
      [
        "▁ol",
        "sun"
      ],
      [
        "▁d",
        "in"
      ],
      [
        "▁mak",
        "in"
[...]
