{
  "version": "1.0",
  "truncation": null,
  "padding": null,
  "added_tokens": [
    {
      "id": 373,
      "content": "[SEP]",
      "single_word": false,
      "lstrip": false,
      "rstrip": false,
      "normalized": false,
      "special": true
    },
    {
      "id": 1586,
      "content": "[CLS]",
      "single_word": false,
      "lstrip": false,
      "rstrip": false,
      "normalized": false,
      "special": true
    },
    {
      "id": 6144,
      "content": "[UNK]",
      "single_word": false,
      "lstrip": false,
      "rstrip": false,
      "normalized": false,
      "special": true
    },
    {
      "id": 6773,
      "content": "[MASK]",
      "single_word": false,
      "lstrip": false,
      "rstrip": false,
      "normalized": false,
      "special": true
    },
    {
      "id": 7172,
      "content": "[PAD]",
      "single_word": false,
      "lstrip": false,
      "rstrip": false,
      "normalized": false,
      "special": true
    }
  ],
  "normalizer": {
    "type": "Sequence",
    "normalizers": [
      {
        "type": "NFD"
      },
      {
        "type": "Lowercase"
      },
      {
        "type": "StripAccents"
      }
    ]
  },
  "pre_tokenizer": {
    "type": "Sequence",
    "pretokenizers": [
      {
        "type": "Metaspace",
        "replacement": "▁",
        "prepend_scheme": "always",
        "split": true
      }
    ]
  },
  "post_processor": {
    "type": "TemplateProcessing",
    "single": [
      {
        "SpecialToken": {
          "id": "[CLS]",
          "type_id": 0
        }
      },
      {
        "Sequence": {
          "id": "A",
          "type_id": 0
        }
      },
      {
        "SpecialToken": {
          "id": "[SEP]",
          "type_id": 0
        }
      }
    ],
    "pair": [
      {
        "SpecialToken": {
          "id": "[CLS]",
          "type_id": 0
        }
      },
      {
        "Sequence": {
          "id": "A",
          "type_id": 0
        }
      },
      {
        "SpecialToken": {
          "id": "[SEP]",
          "type_id": 0
        }
      },
      {
        "Sequence": {
          "id": "B",
          "type_id": 1
        }
      },
      {
        "SpecialToken": {
          "id": "[SEP]",
          "type_id": 1
        }
      }
    ],
    "special_tokens": {
      "[CLS]": {
        "id": "[CLS]",
        "ids": [
          1586
        ],
        "tokens": [
          "[CLS]"
        ]
      },
      "[SEP]": {
        "id": "[SEP]",
        "ids": [
          373
        ],
        "tokens": [
          "[SEP]"
        ]
      }
    }
  },
  "decoder": {
    "type": "Metaspace",
    "replacement": "▁",
    "prepend_scheme": "always",
    "split": true
  },
  "model": {
    "type": "WordPiece",
    "unk_token": "[UNK]",
    "continuing_subword_prefix": "##",
    "max_input_chars_per_word": 100,
    "vocab": {
      "##ıyorlar": 0,
      "▁araba": 1,
      "▁ekledi": 2,
      "▁yil": 3,
      "▁yasası": 4,
      "▁yaptıgını": 5,
      "▁donemin": 6,
      "▁vakıf": 7,
      "▁tahsil": 8,
      "▁universitesi": 9,
      "▁kurs": 10,
      "▁bıcak": 11,
      "▁mevsim": 12,
      "▁olas": 13,
      "▁al": 14,
      "▁dev": 15,
      "▁halkı": 16,
      "▁kongre": 17,
      "##ligin": 18,
      "▁kıraat": 19,
      "▁&": 20,
      "▁parkı": 21,
      "▁yalnızlık": 22,
      "▁mi": 23,
      "▁munaseb": 24,
      "▁mutlaka": 25,
      "##ip": 26,
      "##ort": 27,
      "▁iyice": 28,
      "▁istem": 29,
      "##er": 30,
      "▁ulkenin": 31,
      "▁tul": 32,
      "▁tek": 33,
      "▁subat": 34,
      "▁kazan": 35,
      "▁salınc": 36,
      "▁hukum": 37,
      "▁arama": 38,
      "▁ucretini": 39,
      "▁erkegi": 40,
      "▁uzuntu": 41,
      "##erv": 42,
      "▁gelisme": 43,
      "▁feda": 44,
      "▁sikinti": 45,
      "▁koyden": 46,
      "▁sozc": 47,
      "##isinda": 48,
      "▁bekl": 49,
      "▁pazar": 50,
      "##ruf": 51,
      "d": 52,
      "▁ortadan": 53,
      "##ers": 54,
      "▁atesi": 55,
      "##end": 56,
      "▁amel": 57,
      "▁cak": 58,
      "▁meydana": 59,
      "▁fark": 60,
      "##iligin": 61,
      "▁per": 62,
      "##ebilirim": 63,
      "##all": 64,
      "▁ayni": 65,
      "▁ismini": 66,
      "▁kart": 67,
      "##imde": 68,
      "▁basarısız": 69,
      "▁cesi": 70,
      "##eyn": 71,
      "##ap": 72,
      "▁dagdan": 73,
      "▁tesisi": 74,
      "▁oldugundan": 75,
      "▁%1": 76,
      "▁nedeniyle": 77,
      "▁gozlerle": 78,
      "▁gorusu": 79,
      "▁lig": 80,
      "##lu": 81,
      "▁altından": 82,
      "##mar": 83,
      "##esem": 84,
      "▁donemi": 85,
      "▁arasına": 86,
      "▁ayak": 87,
      "##verdi": 88,
      "▁oglunun": 89,
      "▁etkisi": 90,
      "▁birinde": 91,
      "##elig": 92,
      "▁dunyası": 93,
      "▁cozum": 94,
      "##imize": 95,
      "▁beye": 96,
      "▁garanti": 97,
      "▁fazlaydi": 98,
      "▁hit": 99,
      "▁acıklanmadı": 100,
      "▁tut": 101,
      "▁bakıyor": 102,
      "▁ez": 103,
      "##acılıgı": 104,
      "##lerine": 105,
      "▁yerel": 106,
      "▁asagida": 107,
      "▁der": 108,
      "▁saldır": 109,
      "▁acik": 110,
      "▁elbis": 111,
      "▁yazık": 112,
      "##elemek": 113,
      "6": 114,
      "▁intih": 115,
      "##detti": 116,
      "▁karsısına": 117,
      "##unuz": 118,
      "##ake": 119,
      "##9'a": 120,
      "##lendir": 121,
      "▁aynı": 122,
      "▁meselesi": 123,
      "▁onune": 124,
      "▁must": 125,
      "##isiyle": 126,
      "▁bircok": 127,
      "▁hastal": 128,
      "##ızlı": 129,
      "▁dısisleri": 130,
      "▁ov": 131,
      "▁meydan": 132,
      "▁ai": 133,
      "▁cocukluk": 134,
      "▁guver": 135,
      "##’": 136,
      "▁kis": 137,
      "▁9'dan": 138,
      "▁caz": 139,
      "▁kapsamında": 140,
      "##muyor": 141,
      "##ise": 142,
      "##aman": 143,
      "▁belg": 144,
      "▁his": 145,
      "##imiz": 146,
      "▁kupon": 147,
      "▁bagım": 148,
      "▁kac": 149,
      "▁leble": 150,
      "##otu": 151,
      "▁oteller": 152,
      "▁kadar": 153,
      "▁dı": 154,
      "▁dip": 155,
      "##art": 156,
      "##ali": 157,
      "▁avru": 158,
      "##ce": 159,
      "▁test": 160,
      "##igim": 161,
      "##isine": 162,
      "▁yalı": 163,
      "▁kahram": 164,
      "▁gotur": 165,
      "▁pilotlar": 166,
      "▁cekir": 167,
      "▁konsol": 168,
      "▁bahcı": 169,
      "▁yasak": 170,
      "▁itiraf": 171,
      "▁yiyecekler": 172,
      "##lige": 173,
      "▁cekic": 174,
      "▁insan": 175,
      "▁yarısı": 176,
      "##alog": 177,
      "##anda": 178,
      "▁yolculuk": 179,
      "▁memlekette": 180,
      "▁rot": 181,
      "▁cesaretini": 182,
      "##amıza": 183,
      "▁ya": 184,
      "▁haber": 185,
      "##uzel": 186,
      "▁konuya": 187,
      "▁cıkıs": 188,
      "▁kod": 189,
      "##oloj": 190,
      "▁imz": 191,
      "▁birbirler": 192,
      "▁sayısını": 193,
      "▁ulastı": 194,
      "▁hafta": 195,
      "▁kuvv": 196,
      "▁fut": 197,
      ">": 198,
      "▁kapsam": 199,
      "▁yaptıgı": 200,
      "▁zev": 201,
      "r": 202,
      "▁kuzey": 203,
      "▁gun": 204,
      "▁onunla": 205,
      "▁kıymetleri": 206,
      "▁genc": 207,
      "▁hazir": 208,
      "▁evr": 209,
      "▁cekti": 210,
      "▁ediyorlar": 211,
      "▁oranı": 212,
      "▁heps": 213,
      "▁toz": 214,
      "▁olanlar": 215,
      "▁yoldan": 216,
      "▁oksur": 217,
      "▁konusur": 218,
      "▁aylık": 219,
      "▁yapı": 220,
      "▁gorgu": 221,
      "##estirdi": 222,
      "▁tazmin": 223,
      "##.0": 224,
      "##ediye": 225,
      "▁nobet": 226,
      "##esini": 227,
      "##ts": 228,
      "##ırak": 229,
      "##iye": 230,
      "▁manzar": 231,
      "##ardı": 232,
      "##kac": 233,
      "##imci": 234,
      "##isi": 235,
      "▁ucrete": 236,
      "▁st": 237,
      "▁turkiye": 238,
      "▁baskı": 239,
      "##ması": 240,
      "##edig": 241,
      "▁komplek": 242,
      "▁kayıplar": 243,
      "▁yurtd": 244,
      "▁yurum": 245,
      "▁iskonto": 246,
      "##ug": 247,
      "##iss": 248,
      "##dıgın": 249,
      "▁katına": 250,
      "▁hacmi": 251,
      "▁mahkum": 252,
      "▁terbiy": 253,
      "▁kl": 254,
      "▁gal": 255,
      "▁tarla": 256,
      "▁fik": 257,
      "▁kosede": 258,
      "▁karı": 259,
      "##eklen": 260,
      "▁beb": 261,
      "▁yatır": 262,
      "▁lirayı": 263,
      "▁risk": 264,
      "▁dunyayı": 265,
      "##ukca": 266,
      "▁getiri": 267,
      "▁katır": 268,
      "▁ihtiyar": 269,
      "▁ureticileri": 270,
      ";": 271,
      "▁arb": 272,
      "▁sı": 273,
      "##cılar": 274,
      "▁dedim": 275,
      "▁dostu": 276,
      "▁kend": 277,
      "▁kam": 278,
      "▁parc": 279,
      "▁gormek": 280,
      "▁siy": 281,
      "▁yardimci": 282,
      "▁za": 283,
      "##'ne": 284,
      "▁firması": 285,
      "##ligine": 286,
      "▁ihr": 287,
      "##5'ten": 288,
      "▁ekim": 289,
      "▁kıymet": 290,
      "▁ofisi": 291,
      "▁!": 292,
      "▁konusmaya": 293,
      "▁merak": 294,
      "##lastır": 295,
      "##and": 296,
      "▁paranın": 297,
      "▁adı": 298,
      "▁defter": 299,
      "▁personellerinden": 300,
      "▁tarih": 301,
      "▁parcasını": 302,
      "##meli": 303,
      "▁sırtını": 304,
      "##kar": 305,
      "##sat": 306,
      "##masından": 307,
      "▁isciler": 308,
      "▁vers": 309,
      "##lemis": 310,
      "▁kanun": 311,
      "##lanması": 312,
      "▁tahminlerinin": 313,
      "##dut": 314,
      "▁soyle": 315,
      "$": 316,
      "▁sır": 317,
      "▁ert": 318,
      "▁enstit": 319,
      "##lerini": 320,
      "##liginde": 321,
      "▁istegi": 322,
      "▁gomlek": 323,
      "▁suik": 324,
      "▁tasarım": 325,
      "##emez": 326,
      "##ucusu": 327,
      "##sı": 328,
      "▁yarattı": 329,
      "▁zeytiny": 330,
      "##iliyor": 331,
      "▁milli": 332,
      "▁uluslararası": 333,
      "▁kampanyalar": 334,
      "##diye": 335,
      "▁karsısında": 336,
      "##asız": 337,
      "##irler": 338,
      "▁reddetti": 339,
      "▁persembe": 340,
      "▁ucuz": 341,
      "##ahan": 342,
      "##eyi": 343,
      "▁yaptirmadim": 344,
      "##ilmesini": 345,
      "▁ice": 346,
      "▁baslık": 347,
      "##od": 348,
      "▁orgut": 349,
      "▁dusunmuyor": 350,
      "##yacag": 351,
      "▁etkileri": 352,
      "##lay": 353,
      "##sir": 354,
      "▁kap": 355,
      "▁tatmin": 356,
      "▁yabanci": 357,
      "▁subay": 358,
      "▁sist": 359,
      "##lelim": 360,
      "##des": 361,
      "▁bilgiye": 362,
      "▁muslum": 363,
      "▁cen": 364,
      "▁deger": 365,
      "▁bolgede": 366,
      "▁dogum": 367,
      "##emiyorum": 368,
      "▁mallar": 369,
      "▁memnunuz": 370,
      "▁kitabın": 371,
      "▁yaptirdi": 372,
      "[SEP]": 373,
      "##mafih": 374,
      "##et": 375,
      "▁zamanlar": 376,
      "▁ok": 377,
      "▁lez": 378,
      "##liydi": 379,
      "▁icer": 380,
      "▁sınıfı": 381,
      "##etli": 382,
      "▁plana": 383,
      "▁doları'na": 384,
      "▁kırık": 385,
      "▁teseb": 386,
      "▁kuvvet": 387,
      "##eyim": 388,
      "▁tok": 389,
      "▁sıf": 390,
      "▁alır": 391,
      "▁adamı": 392,
      "▁olumu": 393,
      "##ecegim": 394,
      "▁hay": 395,
      "▁olu": 396,
      "▁palt": 397,
      "##ada": 398,
      "##ansiyon": 399,
      "▁tabiat": 400,
      "▁lid": 401,
      "▁davul": 402,
      "##gıc": 403,
      "##hanede": 404,
      "##el": 405,
      "▁sutu": 406,
      "▁ilgilendiler": 407,
      "##ılmasını": 408,
      "▁seyin": 409,
      "▁dusus": 410,
      "▁hac": 411,
      "##eyin": 412,
      "▁koymak": 413,
      "▁du": 414,
      "▁biri": 415,
      "▁siparisini": 416,
      "▁kisinin": 417,
      "▁pop": 418,
      "▁gerceklesti": 419,
      "▁ons": 420,
      "▁etmeye": 421,
      "▁hedef": 422,
      "##ilm": 423,
      "▁ideal": 424,
      "3": 425,
      "▁idar": 426,
      "▁calis": 427,
      "##ont": 428,
      "##uga": 429,
      "▁ekonomisi": 430,
      "▁karsıma": 431,
      "▁lev": 432,
      "▁rak": 433,
      "▁phoeni": 434,
      "▁islet": 435,
      "##isler": 436,
      "▁degirmen": 437,
      "▁kisisel": 438,
      "▁deve": 439,
      "▁verdim": 440,
      "▁destekl": 441,
      "▁newark": 442,
      "▁cag": 443,
      "▁yargıc": 444,
      "▁sevinc": 445,
      "▁yataklar": 446,
      "▁gununden": 447,
      "▁digerleri": 448,
      "▁havuzu": 449,
      "##cılara": 450,
      "▁vucu": 451,
      "▁istedi": 452,
      "▁cekmek": 453,
      "▁basından": 454,
      "▁doneminde": 455,
      "▁islemler": 456,
      "▁onceden": 457,
      "▁unu": 458,
      "##ayıf": 459,
      "▁se": 460,
      "▁ucretlerini": 461,
      "##igin": 462,
      "▁havuzlari": 463,
      "##og": 464,
      "▁peki": 465,
      "▁deri": 466,
      "▁dagı": 467,
      "##kiz": 468,
      "##gul": 469,
      "▁durumunda": 470,
      "▁lik": 471,
      "▁adama": 472,
      "▁akla": 473,
      "##tı": 474,
      "##larca": 475,
      "▁sabaha": 476,
      "▁sorunları": 477,
      "##amda": 478,
      "▁ihtiy": 479,
      "▁tedavulde": 480,
      "▁alabilir": 481,
      "##tis": 482,
      "▁bir": 483,
      "▁17": 484,
      "▁borcunu": 485,
      "##ler": 486,
      "▁soz": 487,
      "##eliydi": 488,
      "▁odanın": 489,
      "##enlere": 490,
      "▁finc": 491,
      "▁los": 492,
      "▁tel": 493,
      "▁taahh": 494,
      "▁ucusun": 495,
      "▁pas": 496,
      "##derek": 497,
      "▁yakıt": 498,
      "##ach": 499,
      "▁odanin": 500,
      "▁giysi": 501,
      "▁verg": 502,
      "##gım": 503,
      "▁yal": 504,
      "##.5": 505,
      "##acagına": 506,
      "▁bu": 507,
      "▁gozunu": 508,
      "##mad": 509,
      "▁yonunde": 510,
      "▁degi": 511,
      "▁konak": 512,
      "▁yuksel": 513,
      "▁gelis": 514,
      "##ene": 515,
      "▁restoran": 516,
      "▁mul": 517,
      "▁katil": 518,
      "▁rekabet": 519,
      "▁duz": 520,
      "##allas": 521,
      "▁arabaya": 522,
      "▁tahvil": 523,
      "▁zehir": 524,
      "▁golg": 525,
      "▁kalite": 526,
      "▁guv": 527,
      "▁menkul": 528,
      "##layı": 529,
      "▁piy": 530,
      "▁kapasit": 531,
      "▁bolgenin": 532,
      "▁alıcılar": 533,
      "▁olum": 534,
      "▁dısı": 535,
      "▁havayı": 536,
      "▁seref": 537,
      "##ım": 538,
      "▁doları'ndan": 539,
      "▁yapmak": 540,
      "▁tur": 541,
      "▁set": 542,
      "▁tepki": 543,
      "▁bolumunu": 544,
      "▁mac": 545,
      "▁kısı": 546,
      "▁soylediler": 547,
      "▁hatun": 548,
      "▁puan": 549,
      "▁izin": 550,
      "▁noktaya": 551,
      "##set": 552,
      "##egin": 553,
      "▁rej": 554,
      "##yol": 555,
      "▁kayı": 556,
      "▁kosk": 557,
      "▁arab": 558,
      "▁artık": 559,
      "▁gayet": 560,
      "##ro": 561,
      "##du": 562,
      "▁elden": 563,
      "▁asans": 564,
      "▁yagı": 565,
      "▁atlanta'dan": 566,
      "▁fıs": 567,
      "▁kat": 568,
      "▁isleme": 569,
      "▁firma": 570,
      "▁agız": 571,
      "##a'ya": 572,
      "##etre": 573,
      "▁hazır": 574,
      "##arlı": 575,
      "▁acıkladı": 576,
      "▁mahall": 577,
      "p": 578,
      "##‘": 579,
      "▁girer": 580,
      "##5'": 581,
      "##mur": 582,
      "##tern": 583,
      "▁vermeyi": 584,
      "▁seviyesine": 585,
      "▁kapıya": 586,
      "▁kufur": 587,
      "▁soy": 588,
      "▁hol": 589,
      "▁muda": 590,
      "▁sınıfın": 591,
      "▁kurus": 592,
      "▁port": 593,
      "##kleri": 594,
      "##emm": 595,
      "▁protokol": 596,
      "##gr": 597,
      "##mistir": 598,
      "▁mermer": 599,
      "▁yuks": 600,
      "▁kimyasal": 601,
      "▁ink": 602,
      "▁konfor": 603,
      "▁kalitesini": 604,
      "▁kavanoz": 605,
      "▁usta": 606,
      "##iv": 607,
      "▁normaldi": 608,
      "▁politikası": 609,
      "▁kusku": 610,
      "▁sesleri": 611,
      "▁hucum": 612,
      "▁tep": 613,
      "##ur": 614,
      "▁istihbar": 615,
      "▁fabrikası": 616,
      "▁tarafında": 617,
      "▁cav": 618,
      "▁aile": 619,
      "▁yaz": 620,
      "##beri": 621,
      "▁memur": 622,
      "▁piyasanın": 623,
      "▁analizciler": 624,
      "##eye": 625,
      "▁parcaları": 626,
      "##antaj": 627,
      "▁parki": 628,
      "▁hasret": 629,
      "▁ulkemizde": 630,
      "▁fiyatı": 631,
      "▁kaybetti": 632,
      "▁sezlong": 633,
      "##lıkları": 634,
      "▁davayı": 635,
      "▁tanıt": 636,
      "▁asagı": 637,
      "##ladı": 638,
      "##ılır": 639,
      "▁yaklasimi": 640,
      "▁sin": 641,
      "▁hissedar": 642,
      "▁borcun": 643,
      "▁aslında": 644,
      "##abaz": 645,
      "▁pis": 646,
      "▁korkusu": 647,
      "▁bedeli": 648,
      "▁soguk": 649,
      "▁olgu": 650,
      "▁yurek": 651,
      "▁istasyon": 652,
      "▁kalabalık": 653,
      "▁oteli": 654,
      "##irgin": 655,
      "▁planlıyor": 656,
      "##oy": 657,
      "▁grub": 658,
      "“": 659,
      "▁cant": 660,
      "▁endustri": 661,
      "▁cesaret": 662,
      "▁kilo": 663,
      "##eket": 664,
      "▁sade": 665,
      "##av": 666,
      "▁ucuza": 667,
      "▁kib": 668,
      "▁toplantı": 669,
      "##lemesi": 670,
      "##kları": 671,
      "▁suru": 672,
      "▁business": 673,
      "▁sonundan": 674,
      "▁ucusunu": 675,
      "▁memleketin": 676,
      "▁ihtiyat": 677,
      "##ıp": 678,
      "##uya": 679,
      "##aat": 680,
      "▁yapıt": 681,
      "▁tersine": 682,
      "##acaktır": 683,
      "▁havası": 684,
      "▁herhangi": 685,
      "##ıcılık": 686,
      "▁hesap": 687,
      "▁falan": 688,
      "##ustu": 689,
      "​": 690,
      "▁senetleri": 691,
      "▁a": 692,
      "▁kitab": 693,
      "▁vakit": 694,
      "▁karn": 695,
      "##iyim": 696,
      "▁sebeplerden": 697,
      "▁sipar": 698,
      "##iyoruz": 699,
      "▁hak": 700,
      "▁yeni": 701,
      "▁buf": 702,
      "▁animasyonlari": 703,
      "▁maddes": 704,
      "▁gerdan": 705,
      "##co": 706,
      "##lanmasını": 707,
      "▁onemli": 708,
      "##cılık": 709,
      "▁oyuna": 710,
      "▁bır": 711,
      "##adan": 712,
      "▁tet": 713,
      "▁olmuyor": 714,
      "y": 715,
      "▁olanaklari": 716,
      "▁serg": 717,
      "▁atılım": 718,
      "▁buyum": 719,
      "##uzları": 720,
      "##erince": 721,
      "▁kazanclar": 722,
      "▁baskanlıgı": 723,
      "▁edebilir": 724,
      "▁gorus": 725,
      "▁tav": 726,
      "##umuzun": 727,
      "##elerin": 728,
      "▁birbirine": 729,
      "▁hosg": 730,
      "▁ote": 731,
      "▁otlar": 732,
      "▁atese": 733,
      "##sal": 734,
      "▁yuzuk": 735,
      "##ken": 736,
      "▁telef": 737,
      "▁sp": 738,
      "▁roman": 739,
      "▁masaj": 740,
      "▁hazin": 741,
      "▁cikista": 742,
      "▁nisan": 743,
      "##ord": 744,
      "▁cevabı": 745,
      "##'i": 746,
      "▁fonların": 747,
      "▁alısveris": 748,
      "▁ilac": 749,
      "▁y": 750,
      "▁ki": 751,
      "▁canlı": 752,
      "▁goruntu": 753,
      "##izin": 754,
      "▁benzin": 755,
      "▁imkanlari": 756,
      "▁miktarı": 757,
      "▁gereken": 758,
      "▁idaresi": 759,
      "▁mekan": 760,
      "▁insanlara": 761,
      "##aydi": 762,
      "▁kahkaha": 763,
      "▁pat": 764,
      "▁yardımı": 765,
      "▁toplumun": 766,
      "▁kit": 767,
      "5": 768,
      "##mekten": 769,
      "▁zek": 770,
      "##obil": 771,
      "##ahat": 772,
      "▁adeta": 773,
      "##edir": 774,
      "▁birden": 775,
      "▁sessiz": 776,
      "##iyorlar": 777,
      "▁in": 778,
      "▁kazanmak": 779,
      "▁istir": 780,
      "▁dısına": 781,
      "▁memuru": 782,
      "##undan": 783,
      "▁acık": 784,
      "▁kosesinde": 785,
      "▁baskanın": 786,
      "▁inek": 787,
      "▁wash": 788,
      "▁ekib": 789,
      "▁muhafazakar": 790,
      "##gec": 791,
      "▁telefonla": 792,
      "▁parayi": 793,
      "##anıs": 794,
      "▁karar": 795,
      "▁mantık": 796,
      "▁meh": 797,
      "▁yagmur": 798,
      "##embe": 799,
      "▁onumuz": 800,
      "▁hasta": 801,
      "▁gozune": 802,
      "▁olma": 803,
      "▁kans": 804,
      "▁ide": 805,
      "▁kurk": 806,
      "▁suyun": 807,
      "▁ikisi": 808,
      "▁kızın": 809,
      "##lıgı": 810,
      "▁mahkem": 811,
      "▁fiyatina": 812,
      "▁arm": 813,
      "▁kaptan": 814,
      "##ıyordu": 815,
      "##piyat": 816,
      "▁insaat": 817,
      "▁fa": 818,
      "▁gog": 819,
      "▁ulu": 820,
      "▁kel": 821,
      "▁isk": 822,
      "▁fin": 823,
      "##ıv": 824,
      "▁ruya": 825,
      "▁yapmaya": 826,
      "▁basla": 827,
      "▁sonucların": 828,
      "##umlu": 829,
      "##ama": 830,
      "▁hizmette": 831,
      "▁sart": 832,
      "▁yiyecekleri": 833,
      "▁disinda": 834,
      "▁yuzluydu": 835,
      "▁zem": 836,
      "▁dusmanı": 837,
      "##tla": 838,
      "▁ucunu": 839,
      "▁ster": 840,
      "##eb": 841,
      "▁dun": 842,
      "##mayı": 843,
      "▁hava": 844,
      "▁buny": 845,
      "##ulur": 846,
      "▁muhafaza": 847,
      "##ları": 848,
      "##son": 849,
      "##ıg": 850,
      "▁binanın": 851,
      "##dir": 852,
      "▁memnun": 853,
      "▁ann": 854,
      "▁tat": 855,
      "▁geride": 856,
      "b": 857,
      "▁sırada": 858,
      "▁fan": 859,
      "▁car": 860,
      "##inci": 861,
      "▁soluk": 862,
      "▁derg": 863,
      "▁muay": 864,
      "##inden": 865,
      "▁liraya": 866,
      "▁arabayı": 867,
      "▁burosu": 868,
      "▁mutlu": 869,
      "▁kenarında": 870,
      "##ıldıgını": 871,
      "▁dususu": 872,
      "▁anlamına": 873,
      "##etik": 874,
      "▁bekleniyor": 875,
      "▁hayatın": 876,
      "##imen": 877,
      "▁arastır": 878,
      "##ad": 879,
      "▁lezzeti": 880,
      "▁dis": 881,
      "▁cırp": 882,
      "▁kalkan": 883,
      "▁gali": 884,
      "▁tutar": 885,
      "##ıyorsun": 886,
      "##iklik": 887,
      "▁yabanc": 888,
      "##tin": 889,
      "▁por": 890,
      "▁vermis": 891,
      "##ivers": 892,
      "▁resep": 893,
      "##layacagını": 894,
      "▁kosul": 895,
      "▁ardı": 896,
      "▁otesinde": 897,
      "##yon": 898,
      "▁malz": 899,
      "##lerimize": 900,
      "▁kizim": 901,
      "▁dakik": 902,
      "▁mutfak": 903,
      "▁sesle": 904,
      "##ist": 905,
      "##miyordu": 906,
      "##ınır": 907,
      "##/4": 908,
      "▁temin": 909,
      "▁lamb": 910,
      "▁biraz": 911,
      "##9'un": 912,
      "▁ozellikle": 913,
      "##lek": 914,
      "##alarda": 915,
      "▁ulasılamadı": 916,
      "##mma": 917,
      "▁piyasaya": 918,
      "▁bahseder": 919,
      "▁olmayı": 920,
      "##ite": 921,
      "##kili": 922,
      "▁gerekse": 923,
      "##lal": 924,
      "▁usak": 925,
      "▁zarf": 926,
      "##acılara": 927,
      "##det": 928,
      "▁dede": 929,
      "▁normal": 930,
      "▁urunu": 931,
      "▁soh": 932,
      "▁senetlerinin": 933,
      "▁evlat": 934,
      "▁kisilerin": 935,
      "▁ik": 936,
      "▁cumle": 937,
      "##lıg": 938,
      "##as": 939,
      "▁istek": 940,
      "##ere": 941,
      "▁hediy": 942,
      "##meyecek": 943,
      "▁kayd": 944,
      "▁mamafih": 945,
      "▁sını": 946,
      "▁iste": 947,
      "##astır": 948,
      "##v": 949,
      "##dıgından": 950,
      "▁dunyaya": 951,
      "▁aktivite": 952,
      "##alt": 953,
      "##madik": 954,
      "##baz": 955,
      "##oker": 956,
      "▁ziyaret": 957,
      "▁madem": 958,
      "▁sultan": 959,
      "▁cıkarmak": 960,
      "##iyetle": 961,
      "▁istanbul": 962,
      "▁esv": 963,
      "▁gozler": 964,
      "##'ı": 965,
      "▁taz": 966,
      "▁muhaseb": 967,
      "▁damla": 968,
      "▁genelde": 969,
      "##afet": 970,
      "▁cicek": 971,
      "▁``": 972,
      "▁kolay": 973,
      "##tat": 974,
      "▁kitap": 975,
      "▁diyor": 976,
      "▁degis": 977,
      "▁puandan": 978,
      "▁islemlerin": 979,
      "▁hayvan": 980,
      "##lerimizin": 981,
      "▁ortalama": 982,
      "▁sened": 983,
      "▁denizi": 984,
      "▁piyasa": 985,
      "▁teklifini": 986,
      "▁birik": 987,
      "##lugunda": 988,
      "▁efendi": 989,
      "▁oden": 990,
      "▁kurumlar": 991,
      "▁zemin": 992,
      "▁karan": 993,
      "▁yanıt": 994,
      "c": 995,
      "▁yolcu": 996,
      "▁ogleden": 997,
      "▁yılı": 998,
      "▁dalgalan": 999,
      "▁kimseye": 1000,
      "##tur": 1001,
      "▁ayrı": 1002,
      "▁eskiydi": 1003,
      "▁yasay": 1004,
      "##tigi": 1005,
      "▁sak": 1006,
      "▁gereksin": 1007,
      "##sak": 1008,
      "▁mevcut": 1009,
      "▁bildir": 1010,
      "##ımız": 1011,
      "▁balta": 1012,
      "##ilim": 1013,
      "##acılık": 1014,
      "##dukca": 1015,
      "▁hapis": 1016,
      "▁olaydan": 1017,
      "##desi": 1018,
      "▁seb": 1019,
      "▁gecenin": 1020,
      "▁toren": 1021,
      "▁derde": 1022,
      "##'": 1023,
      "##sul": 1024,
      "▁yemeklerden": 1025,
      "▁ulasımı": 1026,
      "##>": 1027,
      "▁rek": 1028,
      "▁tutul": 1029,
      "##edav": 1030,
      "▁$'dan": 1031,
      "▁gul": 1032,
      "▁tas": 1033,
      "▁cumhuriyet": 1034,
      "##dik": 1035,
      "▁gider": 1036,
      "▁ilim": 1037,
      "▁koru": 1038,
      "##ulan": 1039,
      "▁sise": 1040,
      "▁defa": 1041,
      "▁aktarmasız": 1042,
      "▁borsada": 1043,
      "▁cic": 1044,
      "▁ula": 1045,
      "▁odul": 1046,
      "▁deneyim": 1047,
      "▁karak": 1048,
      "▁cocugu": 1049,
      "▁kalab": 1050,
      "▁siyaset": 1051,
      "##kil": 1052,
      "▁gordu": 1053,
      "##dır": 1054,
      "▁nam": 1055,
      "##masız": 1056,
      "▁deng": 1057,
      "▁kılıc": 1058,
      "##alı": 1059,
      "▁mademki": 1060,
      "▁muhend": 1061,
      "▁basvur": 1062,
      "▁tavuk": 1063,
      "▁endek": 1064,
      "▁tak": 1065,
      "▁''": 1066,
      "▁alıs": 1067,
      "▁kopr": 1068,
      "##ısır": 1069,
      "▁sayfa": 1070,
      "▁ekl": 1071,
      "▁kazanc": 1072,
      "▁pittsburgh": 1073,
      "▁havayolları": 1074,
      "▁mek": 1075,
      "▁dallas": 1076,
      "▁karsilama": 1077,
      "##agından": 1078,
      "▁ihmal": 1079,
      "▁ikiye": 1080,
      "##'e": 1081,
      "▁par": 1082,
      "##ustuk": 1083,
      "▁mesaj": 1084,
      "▁darb": 1085,
      "##ıgına": 1086,
      "▁dag": 1087,
      "▁beyefendi": 1088,
      "▁verdik": 1089,
      "▁kelim": 1090,
      "▁topraga": 1091,
      "##alım": 1092,
      "▁getirdi": 1093,
      "▁hakkinda": 1094,
      "##say": 1095,
      "▁kisiye": 1096,
      "▁haklar": 1097,
      "▁mimar": 1098,
      "##asyonu": 1099,
      "▁ihale": 1100,
      "##lev": 1101,
      "▁ocagın": 1102,
      "▁ona": 1103,
      "##mal": 1104,
      "▁boru": 1105,
      "##lip": 1106,
      "▁tahvili": 1107,
      "##era": 1108,
      "▁mar": 1109,
      "▁m": 1110,
      "▁aldılar": 1111,
      "▁haric": 1112,
      "▁lam": 1113,
      "▁bayan": 1114,
      "▁kadr": 1115,
      "##ydi": 1116,
      "▁yerleri": 1117,
      "▁laborat": 1118,
      "▁ettig": 1119,
      "▁cikol": 1120,
      "▁geciyor": 1121,
      "▁duvar": 1122,
      "##.7": 1123,
      "▁anla": 1124,
      "▁cub": 1125,
      "##”": 1126,
      "▁tacirler": 1127,
      "▁kacak": 1128,
      "▁ayının": 1129,
      "▁kuralları": 1130,
      "##me": 1131,
      "▁soyley": 1132,
      "▁saatlerinde": 1133,
      "▁bicimi": 1134,
      "▁kazancı": 1135,
      "▁bur": 1136,
      "▁cad": 1137,
      "▁potansiy": 1138,
      "▁boz": 1139,
      "▁seni": 1140,
      "▁konuları": 1141,
      "##ans": 1142,
      "▁espr": 1143,
      "##kten": 1144,
      "▁sabahı": 1145,
      "##atik": 1146,
      "##uyor": 1147,
      "▁numara": 1148,
      "▁uygulamaları": 1149,
      "▁ısıgı": 1150,
      "▁pey": 1151,
      "▁toplan": 1152,
      "▁alıskan": 1153,
      "▁tuz": 1154,
      "▁oku": 1155,
      "##amayacagını": 1156,
      "▁kimseyi": 1157,
      "##'nda": 1158,
      "##ell": 1159,
      "▁fel": 1160,
      "▁isten": 1161,
      "▁semt": 1162,
      "▁dort": 1163,
      "▁sıra": 1164,
      "##enek": 1165,
      "▁yatırımcıların": 1166,
      "▁tarihe": 1167,
      "▁tezgah": 1168,
      "##gi": 1169,
      "▁vicdan": 1170,
      "##cısı": 1171,
      "=": 1172,
      "▁tarafından": 1173,
      "▁kuz": 1174,
      "▁plaj": 1175,
      "▁telefonu": 1176,
      "▁evi": 1177,
      "▁ydi": 1178,
      "##ten": 1179,
      "##n": 1180,
      "▁kıyafet": 1181,
      "##kı": 1182,
      "▁basbakan": 1183,
      "▁yelpaz": 1184,
      "▁kalktı": 1185,
      "▁tucc": 1186,
      "##luguna": 1187,
      "▁tasa": 1188,
      "▁istiyorum": 1189,
      "▁kalmadı": 1190,
      "▁ardından": 1191,
      "##mustur": 1192,
      "##iyat": 1193,
      "▁yapmaktan": 1194,
      "▁fatura": 1195,
      "▁pu": 1196,
      "▁kısım": 1197,
      "▁4": 1198,
      "##ult": 1199,
      "##o": 1200,
      "▁q": 1201,
      "▁hekim": 1202,
      "##hi": 1203,
      "▁kov": 1204,
      "▁kabuk": 1205,
      "▁analiz": 1206,
      "▁merkeze": 1207,
      "▁bana": 1208,
      "##isti": 1209,
      "▁gaz": 1210,
      "▁kos": 1211,
      "▁daire": 1212,
      "##attle": 1213,
      "▁sor": 1214,
      "▁birligi": 1215,
      "▁ir": 1216,
      "▁sayıda": 1217,
      "▁acentamiza": 1218,
      "▁evler": 1219,
      "!": 1220,
      "▁duzel": 1221,
      "▁sehr": 1222,
      "▁taraftan": 1223,
      "▁kıl": 1224,
      "▁calıs": 1225,
      "▁soruları": 1226,
      "▁konuyla": 1227,
      "▁koyde": 1228,
      "▁balkon": 1229,
      "▁oldukca": 1230,
      "##ari": 1231,
      "▁tenis": 1232,
      "##ran": 1233,
      "##he": 1234,
      "▁dogal": 1235,
      "▁agrı": 1236,
      "▁turist": 1237,
      "▁ozellikleri": 1238,
      "▁esy": 1239,
      "##ims": 1240,
      "▁genis": 1241,
      "▁arap": 1242,
      "▁tef": 1243,
      "▁gormez": 1244,
      "▁arkadasım": 1245,
      "▁bisiklet": 1246,
      "##leleri": 1247,
      "▁ucusunun": 1248,
      "▁gercekles": 1249,
      "##lamıstı": 1250,
      "▁kahvalti": 1251,
      "▁kim": 1252,
      "##abilmek": 1253,
      "▁gom": 1254,
      "▁telaf": 1255,
      "▁depart": 1256,
      "##imli": 1257,
      "▁patlıc": 1258,
      "▁kor": 1259,
      "##esine": 1260,
      "##lıgını": 1261,
      "▁alıyor": 1262,
      "▁prop": 1263,
      "▁kilis": 1264,
      "▁konumu": 1265,
      "##lıgında": 1266,
      "▁buyume": 1267,
      "##usuyla": 1268,
      "▁etek": 1269,
      "▁basın": 1270,
      "##ındı": 1271,
      "▁mevdu": 1272,
      "▁be": 1273,
      "##allı": 1274,
      "▁ima": 1275,
      "▁boyle": 1276,
      "▁eb": 1277,
      "##tem": 1278,
      "▁bog": 1279,
      "▁kahve": 1280,
      "▁14": 1281,
      "▁seklinde": 1282,
      "▁sirketin": 1283,
      "▁orland": 1284,
      "▁kalmaya": 1285,
      "▁sozu": 1286,
      "##les": 1287,
      "##lendirdi": 1288,
      "##eda": 1289,
      "▁cin": 1290,
      "▁airlines": 1291,
      "▁merkezinde": 1292,
      "##ol": 1293,
      "▁olurdu": 1294,
      "▁anlama": 1295,
      "▁uygar": 1296,
      "##itler": 1297,
      "▁pitts": 1298,
      "##luga": 1299,
      "##anma": 1300,
      "▁soyledi": 1301,
      "##lıklı": 1302,
      "##di": 1303,
      "##mı": 1304,
      "▁ger": 1305,
      "##—": 1306,
      "▁potansiyel": 1307,
      "##ligini": 1308,
      "▁ton": 1309,
      "##ıyorum": 1310,
      "▁rıht": 1311,
      "▁tv": 1312,
      "▁taslar": 1313,
      "▁egit": 1314,
      "▁kı": 1315,
      "▁bo": 1316,
      "##lıktan": 1317,
      "▁saman": 1318,
      "▁zamana": 1319,
      "▁*": 1320,
      "▁ucus": 1321,
      "##ini": 1322,
      "▁kale": 1323,
      "##ıla": 1324,
      "▁kurban": 1325,
      "▁ana": 1326,
      "▁yılında": 1327,
      "▁demir": 1328,
      "▁otob": 1329,
      "▁huy": 1330,
      "▁yarısından": 1331,
      "▁tuhaf": 1332,
      "▁!..": 1333,
      "▁yolun": 1334,
      "▁krizi": 1335,
      "▁doktorun": 1336,
      "##–": 1337,
      "▁evin": 1338,
      "▁kucuktu": 1339,
      "▁bank": 1340,
      "##lulugunu": 1341,
      "▁div": 1342,
      "▁bulur": 1343,
      "##iyeti": 1344,
      "▁sakin": 1345,
      "▁vadede": 1346,
      "##sın": 1347,
      "▁ayr": 1348,
      "##iness": 1349,
      "▁yıldan": 1350,
      "▁kaynak": 1351,
      "▁tabanc": 1352,
      "##'nin": 1353,
      "▁tuccarlar": 1354,
      "▁isim": 1355,
      "▁sozler": 1356,
      "▁denet": 1357,
      "##ucc": 1358,
      "▁baslayacak": 1359,
      "##/8'e": 1360,
      "▁gunku": 1361,
      "##isleri": 1362,
      "##ucu": 1363,
      "▁gunduz": 1364,
      "▁gittik": 1365,
      "▁bilgi": 1366,
      "##ational": 1367,
      "▁doviz": 1368,
      "▁grubu": 1369,
      "▁ar": 1370,
      "v": 1371,
      "##mem": 1372,
      "▁kokusu": 1373,
      "▁konustu": 1374,
      "▁levh": 1375,
      "▁iler": 1376,
      "▁kurumsal": 1377,
      "▁baskent": 1378,
      "▁uret": 1379,
      "▁kılav": 1380,
      "▁rezerve": 1381,
      "##dat": 1382,
      "##eh": 1383,
      "▁zihn": 1384,
      "▁yazarın": 1385,
      "##'nun": 1386,
      "##o'ya": 1387,
      "▁adam": 1388,
      "##dip": 1389,
      "▁haline": 1390,
      "▁noktada": 1391,
      "▁motiv": 1392,
      "▁kurt": 1393,
      "▁pazarın": 1394,
      "##erhal": 1395,
      "▁sofra": 1396,
      "▁olacagını": 1397,
      "▁viz": 1398,
      "▁bicimde": 1399,
      "▁tedbir": 1400,
      "▁sordu": 1401,
      "##amı": 1402,
      "▁sendika": 1403,
      "▁yansıt": 1404,
      "##dık": 1405,
      "▁dahil": 1406,
      "▁gurult": 1407,
      "▁cos": 1408,
      "▁kuy": 1409,
      "##lendirmek": 1410,
      "▁savas": 1411,
      "##ıcak": 1412,
      "▁yılda": 1413,
      "##liginin": 1414,
      "▁yanımda": 1415,
      "##lerdi": 1416,
      "##imin": 1417,
      "▁mahkemesi": 1418,
      "##urt": 1419,
      "▁elimden": 1420,
      "##diginde": 1421,
      "▁oyku": 1422,
      "▁gıda": 1423,
      "▁bulbul": 1424,
      "▁hakkı": 1425,
      "▁gunden": 1426,
      "▁20": 1427,
      "▁ucmak": 1428,
      "##vet": 1429,
      "##alarını": 1430,
      "▁video": 1431,
      "▁oldugun": 1432,
      "▁alısver": 1433,
      "##za": 1434,
      "▁aklıma": 1435,
      "##len": 1436,
      "##use": 1437,
      "▁tadı": 1438,
      "##ain": 1439,
      "▁federal": 1440,
      "##diginden": 1441,
      "##asında": 1442,
      "▁bebek": 1443,
      "▁ters": 1444,
      "▁halef": 1445,
      "▁cet": 1446,
      "▁lider": 1447,
      "▁askeri": 1448,
      "▁jo": 1449,
      "▁herkesi": 1450,
      "▁yapıyor": 1451,
      "▁kalıyor": 1452,
      "▁zirv": 1453,
      "▁gerekiyor": 1454,
      "##leyiciler": 1455,
      "▁yaslı": 1456,
      "##arın": 1457,
      "▁kıvıl": 1458,
      "▁cayır": 1459,
      "▁aleyhine": 1460,
      "##ir": 1461,
      "##em": 1462,
      "▁yokus": 1463,
      "▁catı": 1464,
      "##ask": 1465,
      "▁yoktu": 1466,
      "▁esnaf": 1467,
      "##ıyordum": 1468,
      "▁bilgisi": 1469,
      "▁ettigini": 1470,
      "▁bolgesi": 1471,
      "▁civ": 1472,
      "▁ankete": 1473,
      "▁temizligi": 1474,
      "▁iceriye": 1475,
      "▁burn": 1476,
      "▁isinin": 1477,
      "▁isaret": 1478,
      "▁arkasından": 1479,
      "▁itaat": 1480,
      "▁gecit": 1481,
      "▁mut": 1482,
      "▁basta": 1483,
      "##nam": 1484,
      "▁polit": 1485,
      "##lidir": 1486,
      "##orma": 1487,
      "▁anti": 1488,
      "▁doktoru": 1489,
      "▁ambar": 1490,
      "▁okullar": 1491,
      "▁politik": 1492,
      "▁lakırtı": 1493,
      "##imizde": 1494,
      "##udu": 1495,
      "##mamız": 1496,
      "▁gencler": 1497,
      "▁sauna": 1498,
      "▁arastırma": 1499,
      "##'de": 1500,
      "##enlerin": 1501,
      "##dikten": 1502,
      "▁sınıfta": 1503,
      "▁mag": 1504,
      "##itli": 1505,
      "##ki": 1506,
      "##sef": 1507,
      "##umuzde": 1508,
      "▁calısması": 1509,
      "▁inc": 1510,
      "▁olarak": 1511,
      "##va": 1512,
      "▁torb": 1513,
      "##ver": 1514,
      "▁iyil": 1515,
      "▁ogul": 1516,
      "##ıydı": 1517,
      "▁tavır": 1518,
      "▁cercev": 1519,
      "▁askerler": 1520,
      "##ırt": 1521,
      "▁havuzun": 1522,
      "▁cevap": 1523,
      "▁yanl": 1524,
      "▁mil": 1525,
      "▁odun": 1526,
      "▁prenses": 1527,
      "▁hareket": 1528,
      "▁yanlıs": 1529,
      "▁magaza": 1530,
      "##eger": 1531,
      "▁ortalıgı": 1532,
      "▁seydi": 1533,
      "##'ten": 1534,
      "▁tabl": 1535,
      "##ında": 1536,
      "▁oldugunu": 1537,
      "▁havuzlar": 1538,
      "▁kısmı": 1539,
      "▁mudur": 1540,
      "▁gelge": 1541,
      "▁gayrimenkul": 1542,
      "▁degildi": 1543,
      "▁kuslar": 1544,
      "▁ter": 1545,
      "▁tutam": 1546,
      "▁mahk": 1547,
      "##amaya": 1548,
      "▁fran": 1549,
      "##ons": 1550,
      "▁plat": 1551,
      "▁piyasaları": 1552,
      "##6'dan": 1553,
      "▁bilgilerini": 1554,
      "▁boyu": 1555,
      "##ec": 1556,
      "▁hey": 1557,
      "▁sabahın": 1558,
      "▁babamın": 1559,
      "▁yollarda": 1560,
      "▁eden": 1561,
      "▁fener": 1562,
      "▁dilek": 1563,
      "▁kumas": 1564,
      "▁damar": 1565,
      "▁teraz": 1566,
      "▁cıktı": 1567,
      "##tırma": 1568,
      "▁juri": 1569,
      "##akal": 1570,
      "▁calısanları": 1571,
      "▁spekulasyon": 1572,
      "▁arkasında": 1573,
      "▁part": 1574,
      "▁krav": 1575,
      "▁charlotte": 1576,
      "▁ayaklarını": 1577,
      "▁hastan": 1578,
      "##'in": 1579,
      "##mazdı": 1580,
      "▁yerlerde": 1581,
      "##int": 1582,
      "##daydı": 1583,
      "▁badem": 1584,
      "▁#": 1585,
      "[CLS]": 1586,
      "▁turden": 1587,
      "▁cevir": 1588,
      "##ıgından": 1589,
      "##tıgında": 1590,
      "##ızın": 1591,
      "▁elektr": 1592,
      "##hangi": 1593,
      "▁ithal": 1594,
      "▁vek": 1595,
      "▁yeryuz": 1596,
      "▁guler": 1597,
      "##bol": 1598,
      "▁doy": 1599,
      "▁cıglık": 1600,
      "▁okula": 1601,
      "▁birini": 1602,
      "▁uf": 1603,
      "▁delikanlı": 1604,
      "##nd": 1605,
      "▁pittsburgh'a": 1606,
      "▁faaliyeti": 1607,
      "▁past": 1608,
      "##ant": 1609,
      "##ıstır": 1610,
      "▁bogazici": 1611,
      "▁onceki": 1612,
      "##ekt": 1613,
      "▁zil": 1614,
      "▁hek": 1615,
      "▁basladılar": 1616,
      "▁rah": 1617,
      "##leket": 1618,
      "▁faal": 1619,
      "▁piyasayı": 1620,
      "▁mukemmeldi": 1621,
      "▁rop": 1622,
      "▁atlanta'ya": 1623,
      "j": 1624,
      "▁makin": 1625,
      "▁ofis": 1626,
      "▁ucaklar": 1627,
      "##yen": 1628,
      "▁hizmetleri": 1629,
      "▁havalimanı": 1630,
      "▁cezası": 1631,
      "##fer": 1632,
      "▁ilg": 1633,
      "▁amacıyla": 1634,
      "▁alanı": 1635,
      "▁bulmaya": 1636,
      "##bi": 1637,
      "▁intik": 1638,
      "▁koz": 1639,
      "▁dav": 1640,
      "▁icr": 1641,
      "▁gune": 1642,
      "##..": 1643,
      "▁agzı": 1644,
      "##ırlar": 1645,
      "▁pahali": 1646,
      "▁baslangıcı": 1647,
      "▁cesitli": 1648,
      "▁okuy": 1649,
      "##lerim": 1650,
      "▁ara": 1651,
      "▁birbir": 1652,
      "▁sebze": 1653,
      "##larının": 1654,
      "▁endeksi": 1655,
      "▁fed": 1656,
      "##lanmıs": 1657,
      "▁kar": 1658,
      "▁bakır": 1659,
      "##lık": 1660,
      "▁biy": 1661,
      "▁gemi": 1662,
      "▁sat": 1663,
      "▁200": 1664,
      "##luluk": 1665,
      "▁vucudu": 1666,
      "##cok": 1667,
      "▁elem": 1668,
      "▁hisselerinin": 1669,
      "##ade": 1670,
      "▁cehen": 1671,
      "▁yakın": 1672,
      "▁skan": 1673,
      "▁pır": 1674,
      "▁net": 1675,
      "##-a": 1676,
      "▁oranlar": 1677,
      "##lunun": 1678,
      "▁neyse": 1679,
      "▁yerles": 1680,
      "▁geliyor": 1681,
      "▁edebil": 1682,
      "##!": 1683,
      "▁beg": 1684,
      "▁sid": 1685,
      "▁amacı": 1686,
      "&": 1687,
      "▁bankaları": 1688,
      "▁ye": 1689,
      "▁almak": 1690,
      "##miyor": 1691,
      "▁ucret": 1692,
      "▁imam": 1693,
      "▁husus": 1694,
      "▁stat": 1695,
      "▁soyl": 1696,
      "##t": 1697,
      "▁genel": 1698,
      "##acılar": 1699,
      "▁cont": 1700,
      "▁oldugum": 1701,
      "##larımız": 1702,
      "##ij": 1703,
      "▁merkezi": 1704,
      "##ha": 1705,
      "▁igne": 1706,
      "▁kesinti": 1707,
      "##hal": 1708,
      "▁sanırım": 1709,
      "▁isletmeler": 1710,
      "##da": 1711,
      "##uyu": 1712,
      "▁yerin": 1713,
      "▁ızdır": 1714,
      "▁edildi": 1715,
      "▁kuf": 1716,
      "▁ign": 1717,
      "##lik": 1718,
      "▁guclu": 1719,
      "▁gunumuzde": 1720,
      "##lemeyi": 1721,
      "##imler": 1722,
      "##ida": 1723,
      "▁devreye": 1724,
      "▁para": 1725,
      "▁tiyatr": 1726,
      "▁talih": 1727,
      "▁odasına": 1728,
      "▁cın": 1729,
      "▁cuk": 1730,
      "▁ozlem": 1731,
      "##8'de": 1732,
      "▁uygun": 1733,
      "▁surucu": 1734,
      "▁ceviz": 1735,
      "▁bakım": 1736,
      "▁trans": 1737,
      "▁kendini": 1738,
      "▁ayın": 1739,
      "▁azından": 1740,
      "▁muster": 1741,
      "▁orne": 1742,
      "▁rezerv": 1743,
      "##iyordum": 1744,
      "##oeni": 1745,
      "▁kıt": 1746,
      "▁8'den": 1747,
      "##elt": 1748,
      "▁yasamı": 1749,
      "▁lafı": 1750,
      "▁nasıl": 1751,
      "▁oper": 1752,
      "##est": 1753,
      "▁gunde": 1754,
      "▁kem": 1755,
      "▁satısa": 1756,
      "▁hic": 1757,
      "##tıs": 1758,
      "▁ucundan": 1759,
      "▁blok": 1760,
      "▁agırlık": 1761,
      "▁neredeyse": 1762,
      "▁dusundu": 1763,
      "##dadır": 1764,
      "▁kimi": 1765,
      "▁cuz": 1766,
      "▁d": 1767,
      "▁ul": 1768,
      "##op": 1769,
      "▁eleman": 1770,
      "##larla": 1771,
      "▁vic": 1772,
      "▁agr": 1773,
      "##ıcısı": 1774,
      "▁acısı": 1775,
      "▁suk": 1776,
      "▁for": 1777,
      "▁sıfır": 1778,
      "▁keyif": 1779,
      "##yuz": 1780,
      "##uste": 1781,
      "▁houston": 1782,
      "▁gecirmek": 1783,
      "▁yetkilisi": 1784,
      "##icisi": 1785,
      "▁vergi": 1786,
      "##culuk": 1787,
      "▁yıllık": 1788,
      "▁berab": 1789,
      "##asından": 1790,
      "▁100": 1791,
      "▁cıkmak": 1792,
      "##emey": 1793,
      "▁tanesi": 1794,
      "▁gulery": 1795,
      "▁basvuru": 1796,
      "▁verdi": 1797,
      "▁bolge": 1798,
      "▁br": 1799,
      "##tım": 1800,
      "##leyi": 1801,
      "▁stand": 1802,
      "▁salonu": 1803,
      "▁japonlar": 1804,
      "▁plaji": 1805,
      "▁televizyon": 1806,
      "▁bekledigini": 1807,
      "▁konusu": 1808,
      "▁ma": 1809,
      "##miyorum": 1810,
      "##ezi": 1811,
      "▁mide": 1812,
      "▁durumu": 1813,
      "▁kırıklıgı": 1814,
      "▁redd": 1815,
      "▁kagıdı": 1816,
      "▁.'": 1817,
      "▁hizmete": 1818,
      "▁parmak": 1819,
      "▁benzer": 1820,
      "▁millet": 1821,
      "▁mecl": 1822,
      "▁?": 1823,
      "▁memleket": 1824,
      "▁18": 1825,
      "▁cip": 1826,
      "▁duzey": 1827,
      "##ence": 1828,
      "▁olac": 1829,
      "▁yemeklerde": 1830,
      "▁uyusturucu": 1831,
      "▁olduk": 1832,
      "▁kus": 1833,
      "##tigim": 1834,
      "▁itibariyle": 1835,
      "▁do": 1836,
      "▁hayal": 1837,
      "▁uzay": 1838,
      "##ıgında": 1839,
      "##\\": 1840,
      "▁cocugun": 1841,
      "▁katkı": 1842,
      "▁dondu": 1843,
      "▁one": 1844,
      "s": 1845,
      "▁efsan": 1846,
      "▁salonda": 1847,
      "▁pozisyon": 1848,
      "▁ada": 1849,
      "▁phoenix": 1850,
      "##vr": 1851,
      "▁nedenle": 1852,
      "##iyatr": 1853,
      "##ai": 1854,
      "▁kayıp": 1855,
      "▁sırasında": 1856,
      "▁ocagı": 1857,
      "▁muk": 1858,
      "▁egilim": 1859,
      "##temelen": 1860,
      "▁hijyen": 1861,
      "▁oz": 1862,
      "##usten": 1863,
      "##lar": 1864,
      "▁edeb": 1865,
      "▁o": 1866,
      "▁hayat": 1867,
      "▁13": 1868,
      "▁yetk": 1869,
      "▁tesisten": 1870,
      "▁ozellik": 1871,
      "▁bulas": 1872,
      "▁gorevlisi": 1873,
      "▁yetkilileri": 1874,
      "##9'da": 1875,
      "▁fal": 1876,
      "▁davası": 1877,
      "##amet": 1878,
      "▁oykuler": 1879,
      "##ca": 1880,
      "##kez": 1881,
      "▁oranları": 1882,
      "▁bilinc": 1883,
      "▁ta": 1884,
      "▁harekete": 1885,
      "▁tesisin": 1886,
      "▁kayak": 1887,
      "▁asla": 1888,
      "7": 1889,
      "▁yayın": 1890,
      "▁muamel": 1891,
      "##adde": 1892,
      "▁petrol": 1893,
      "▁surdur": 1894,
      "##es": 1895,
      "▁annesinin": 1896,
      "▁ec": 1897,
      "▁oturum": 1898,
      "▁uzere": 1899,
      "##ates": 1900,
      "##ılık": 1901,
      "▁taraf": 1902,
      "▁aday": 1903,
      "▁te": 1904,
      "▁ayrım": 1905,
      "▁havalimanından": 1906,
      "▁ustu": 1907,
      "▁ap": 1908,
      "##le": 1909,
      "##malı": 1910,
      "▁eline": 1911,
      "▁halk": 1912,
      "▁vermedi": 1913,
      "▁telefon": 1914,
      "▁pencerenin": 1915,
      "▁tecru": 1916,
      "▁bom": 1917,
      "▁ortagı": 1918,
      "▁sevk": 1919,
      "▁ak": 1920,
      "▁zafer": 1921,
      "##mamıstı": 1922,
      "▁kaygı": 1923,
      "▁muhasebe": 1924,
      "▁mily": 1925,
      "▁sem": 1926,
      "▁cogun": 1927,
      "▁nak": 1928,
      "▁tuh": 1929,
      "##lom": 1930,
      "##aseb": 1931,
      "▁sozlesmesi": 1932,
      "##izdi": 1933,
      "▁bilimin": 1934,
      "▁org": 1935,
      "▁ingiliz": 1936,
      "▁ortaklık": 1937,
      "##b": 1938,
      "▁sigort": 1939,
      "▁saga": 1940,
      "▁gorur": 1941,
      "▁esim": 1942,
      "##sen": 1943,
      "##a'da": 1944,
      "##ılıgını": 1945,
      "▁oyk": 1946,
      "##ginde": 1947,
      "▁kenarına": 1948,
      "▁olaylara": 1949,
      "▁topragı": 1950,
      "▁milyon": 1951,
      "##oru": 1952,
      "▁baskan": 1953,
      "▁karanlık": 1954,
      "▁milwaukee": 1955,
      "▁asker": 1956,
      "▁koku": 1957,
      "▁kurul": 1958,
      "▁1988'de": 1959,
      "▁ır": 1960,
      "##goz": 1961,
      "▁pak": 1962,
      "##ılmak": 1963,
      "▁pasa": 1964,
      "##il": 1965,
      "##atla": 1966,
      "▁kaldik": 1967,
      "##ık": 1968,
      "##asıl": 1969,
      "▁kut": 1970,
      "▁temp": 1971,
      "##lerde": 1972,
      "▁milletvek": 1973,
      "▁giden": 1974,
      "▁kıymetler": 1975,
      "▁kosullar": 1976,
      "▁otomobiller": 1977,
      "▁iklim": 1978,
      "▁ozgurluk": 1979,
      "▁birlesik": 1980,
      "##ibar": 1981,
      "▁carsı": 1982,
      "##ich": 1983,
      "▁oran": 1984,
      "▁ellerini": 1985,
      "##mekt": 1986,
      "##'te": 1987,
      "##ay": 1988,
      "▁aldı": 1989,
      "##agını": 1990,
      "▁cins": 1991,
      "##aga": 1992,
      "▁babam": 1993,
      "▁inter": 1994,
      "▁gur": 1995,
      "##l": 1996,
      "▁actı": 1997,
      "##laması": 1998,
      "▁patates": 1999,
      "▁celik": 2000,
      "▁tazminat": 2001,
      "▁evvel": 2002,
      "▁ilgilenmedi": 2003,
      "##ba": 2004,
      "▁cebinden": 2005,
      "▁sinyal": 2006,
      "##ster": 2007,
      "▁hep": 2008,
      "▁yola": 2009,
      "▁seks": 2010,
      "▁dısarıdan": 2011,
      "▁ucusa": 2012,
      "▁kaz": 2013,
      "▁oradan": 2014,
      "##mesine": 2015,
      "##tak": 2016,
      "▁yumruk": 2017,
      "▁muhalefet": 2018,
      "▁kalmıs": 2019,
      "##hut": 2020,
      "##anların": 2021,
      "▁dizgin": 2022,
      "##ektr": 2023,
      "▁grupları": 2024,
      "▁ses": 2025,
      "▁prov": 2026,
      "▁okulun": 2027,
      "▁gol": 2028,
      "##ile": 2029,
      "▁yatak": 2030,
      "▁yumus": 2031,
      "▁sek": 2032,
      "▁yaklasım": 2033,
      "▁nok": 2034,
      "▁hasıl": 2035,
      "▁yapacagını": 2036,
      "▁oldug": 2037,
      "▁sar": 2038,
      "##leye": 2039,
      "▁yapıl": 2040,
      "##st": 2041,
      "▁ogrenci": 2042,
      "▁planın": 2043,
      "▁olmaz": 2044,
      "▁sanatcılar": 2045,
      "▁da": 2046,
      "##ıldı": 2047,
      "▁karsıtı": 2048,
      "▁yolunda": 2049,
      "##lanı": 2050,
      "▁satısların": 2051,
      "▁olayda": 2052,
      "▁dek": 2053,
      "▁sebebi": 2054,
      "##gal": 2055,
      "▁yonde": 2056,
      "t": 2057,
      "▁fuz": 2058,
      "▁cumhurb": 2059,
      "##ifti": 2060,
      "##aba": 2061,
      "▁alan": 2062,
      "▁karsiladi": 2063,
      "▁ipot": 2064,
      "▁raf": 2065,
      "▁kutuk": 2066,
      "##yosu": 2067,
      "▁dikkat": 2068,
      "▁dir": 2069,
      "▁arbitraj": 2070,
      "▁oyna": 2071,
      "##elleri": 2072,
      "▁olmasını": 2073,
      "▁beyef": 2074,
      "▁profesor": 2075,
      "▁ufuk": 2076,
      "▁karab": 2077,
      "▁tasım": 2078,
      "▁ucuyor": 2079,
      "▁basbak": 2080,
      "##.3": 2081,
      "▁coz": 2082,
      "▁soyledik": 2083,
      "▁urun": 2084,
      "▁guzel": 2085,
      "##leriyle": 2086,
      "##sim": 2087,
      "▁evini": 2088,
      "▁odalarin": 2089,
      "▁madde": 2090,
      "##g": 2091,
      "##land": 2092,
      "##'ta": 2093,
      "##tay": 2094,
      "##madi": 2095,
      "▁katilmak": 2096,
      "▁istik": 2097,
      "##daki": 2098,
      "▁kec": 2099,
      "##jik": 2100,
      "##ital": 2101,
      "▁niyet": 2102,
      "▁yetki": 2103,
      "▁tal": 2104,
      "▁talim": 2105,
      "▁sebep": 2106,
      "▁oysa": 2107,
      "##cog": 2108,
      "▁toplant": 2109,
      "▁iliskin": 2110,
      "▁personel": 2111,
      "##kur": 2112,
      "##dim": 2113,
      "##pa": 2114,
      "▁merdiven": 2115,
      "▁havlu": 2116,
      "##eland": 2117,
      "▁olar": 2118,
      "▁karısının": 2119,
      "▁selam": 2120,
      "##alarına": 2121,
      "▁otelden": 2122,
      "##'ndan": 2123,
      "▁beri": 2124,
      "▁tahv": 2125,
      "##leniyor": 2126,
      "▁cocukların": 2127,
      "##yanın": 2128,
      "▁dog": 2129,
      "##asın": 2130,
      "▁parca": 2131,
      "▁kadın": 2132,
      "▁musterilere": 2133,
      "▁coluk": 2134,
      "▁degilim": 2135,
      "▁cihaz": 2136,
      "▁verdigini": 2137,
      "▁zaf": 2138,
      "##isle": 2139,
      "▁kapısında": 2140,
      "▁has": 2141,
      "▁bilimi": 2142,
      "▁gerekir": 2143,
      "▁zahmet": 2144,
      "▁end": 2145,
      "##lerinden": 2146,
      "▁beni": 2147,
      "▁ekonomi": 2148,
      "▁bira": 2149,
      "▁lezzet": 2150,
      "▁mudahal": 2151,
      "▁hemen": 2152,
      "▁kategor": 2153,
      "▁yuzunden": 2154,
      "##irip": 2155,
      "▁alaka": 2156,
      "▁yumurta": 2157,
      "▁clev": 2158,
      "##dıgım": 2159,
      "▁hissediyor": 2160,
      "▁icimi": 2161,
      ",": 2162,
      "▁sahiptir": 2163,
      "##sis": 2164,
      "▁zay": 2165,
      "##irdi": 2166,
      "▁had": 2167,
      "##larak": 2168,
      "##at": 2169,
      "▁kagıtları": 2170,
      "▁aldıgı": 2171,
      "##irmi": 2172,
      "##.ceyrek": 2173,
      "##'ni": 2174,
      "##a'nın": 2175,
      "▁mit": 2176,
      "▁durak": 2177,
      "▁yuzunu": 2178,
      "##adar": 2179,
      "▁`": 2180,
      "▁hırsız": 2181,
      "##te": 2182,
      "▁hoc": 2183,
      "▁tı": 2184,
      "##eri": 2185,
      "▁sandaly": 2186,
      "##osu": 2187,
      "▁sep": 2188,
      "▁pro": 2189,
      "▁rec": 2190,
      "▁vucud": 2191,
      "▁metr": 2192,
      "▁programını": 2193,
      "##digimi": 2194,
      "▁bakıyordu": 2195,
      "▁beyn": 2196,
      "▁yemek": 2197,
      "▁gelmis": 2198,
      "▁denizde": 2199,
      "▁endust": 2200,
      "##egi": 2201,
      "##enin": 2202,
      "▁bek": 2203,
      "##tarak": 2204,
      "##cilerin": 2205,
      "##oksa": 2206,
      "##atları": 2207,
      "▁kesi": 2208,
      "▁farklılık": 2209,
      "▁ilc": 2210,
      "▁hukmu": 2211,
      "▁sıkıntısı": 2212,
      "▁agustos": 2213,
      "▁ortaydi": 2214,
      "▁sozlesme": 2215,
      "##amadı": 2216,
      "▁yatırımcı": 2217,
      "##om": 2218,
      "▁oglan": 2219,
      "▁alet": 2220,
      "##asındaki": 2221,
      "▁g": 2222,
      "##ye": 2223,
      "▁ustun": 2224,
      "▁malı": 2225,
      "##legi": 2226,
      "▁li": 2227,
      "▁ero": 2228,
      "▁baslarında": 2229,
      "##se": 2230,
      "▁patr": 2231,
      "▁analist": 2232,
      "##lig": 2233,
      "##la": 2234,
      "▁guney": 2235,
      "▁varil": 2236,
      "▁depremden": 2237,
      "▁veren": 2238,
      "##?": 2239,
      "▁eglence": 2240,
      "▁leblebi": 2241,
      "▁yalnızca": 2242,
      "##ton": 2243,
      "##ıslı": 2244,
      "▁zayıf": 2245,
      "▁bazen": 2246,
      "▁muhat": 2247,
      "▁,": 2248,
      "▁borsası": 2249,
      "##isten": 2250,
      "▁suyunu": 2251,
      "▁hucre": 2252,
      "▁ker": 2253,
      "▁tık": 2254,
      "▁yetkisi": 2255,
      "▁an": 2256,
      "##tia": 2257,
      "▁okul": 2258,
      "▁simdi": 2259,
      "##tikten": 2260,
      "▁sevin": 2261,
      "##ek": 2262,
      "##mez": 2263,
      "▁barın": 2264,
      "▁etrafı": 2265,
      "▁satısı": 2266,
      "▁amerikan": 2267,
      "▁surec": 2268,
      "▁buk": 2269,
      "##met": 2270,
      "##meyi": 2271,
      "▁otomobil": 2272,
      "▁yazılım": 2273,
      "▁onunden": 2274,
      "▁tesir": 2275,
      "##ildi": 2276,
      "▁tablo": 2277,
      "▁kanadı": 2278,
      "▁oner": 2279,
      "▁ucretin": 2280,
      "##emedi": 2281,
      "##ıklarını": 2282,
      "▁sonucları": 2283,
      "▁yıldız": 2284,
      "▁muht": 2285,
      "▁animator": 2286,
      "##odr": 2287,
      "▁otele": 2288,
      "##memis": 2289,
      "##may": 2290,
      "▁olabil": 2291,
      "▁calısma": 2292,
      "▁aktif": 2293,
      "▁baltimore'den": 2294,
      "▁fasulye": 2295,
      "▁muzaker": 2296,
      "▁geleni": 2297,
      "▁karsılıgında": 2298,
      "##imi": 2299,
      "##unce": 2300,
      "##digini": 2301,
      "▁but": 2302,
      "▁hel": 2303,
      "##mes": 2304,
      "▁dayan": 2305,
      "##lem": 2306,
      "▁profes": 2307,
      "▁boynuna": 2308,
      "▁takdir": 2309,
      "▁po": 2310,
      "”": 2311,
      "▁indian": 2312,
      "▁prosed": 2313,
      "▁kurulus": 2314,
      "▁pesinde": 2315,
      "▁zaten": 2316,
      "▁hisse": 2317,
      "▁konusma": 2318,
      "▁tarzı": 2319,
      "##etin": 2320,
      "▁tepeden": 2321,
      "▁iddi": 2322,
      "▁yukseldi": 2323,
      "▁zevk": 2324,
      "##ayım": 2325,
      "4": 2326,
      "##turdu": 2327,
      "##ilige": 2328,
      "##umus": 2329,
      "▁bası": 2330,
      "▁hurr": 2331,
      "##umda": 2332,
      "##uzin": 2333,
      "▁chat": 2334,
      "▁yeme": 2335,
      "▁konuyu": 2336,
      "##sınız": 2337,
      "▁baslar": 2338,
      "▁donemlerde": 2339,
      "▁el": 2340,
      "▁depr": 2341,
      "▁katıl": 2342,
      "▁ilave": 2343,
      "▁katılım": 2344,
      "▁talep": 2345,
      "##medig": 2346,
      "##ızı": 2347,
      "##alarının": 2348,
      "##unluk": 2349,
      "▁bulut": 2350,
      "▁orani": 2351,
      "▁calıstı": 2352,
      "##ettim": 2353,
      "▁geceler": 2354,
      "▁oyunun": 2355,
      "▁vet": 2356,
      "##ktan": 2357,
      "▁ticaretinde": 2358,
      "▁civarı": 2359,
      "▁tesvik": 2360,
      "▁varlıgı": 2361,
      "▁hakikat": 2362,
      "▁eti": 2363,
      "##3'": 2364,
      "▁ant": 2365,
      "▁kacır": 2366,
      "▁ob": 2367,
      "▁kesif": 2368,
      "▁aram": 2369,
      "▁omur": 2370,
      "▁ıs": 2371,
      "▁sof": 2372,
      "▁islere": 2373,
      "▁yaban": 2374,
      "▁mezar": 2375,
      "##ik": 2376,
      "▁musteriler": 2377,
      "▁planının": 2378,
      "##esinde": 2379,
      "▁ne": 2380,
      "##0'": 2381,
      "▁anlamı": 2382,
      "▁haftada": 2383,
      "▁sınıf": 2384,
      "▁fon": 2385,
      "##bal": 2386,
      "##landıgında": 2387,
      "▁insana": 2388,
      "▁kuvvetleri": 2389,
      "▁veril": 2390,
      "▁sistemini": 2391,
      "▁suph": 2392,
      "▁2": 2393,
      "▁rus": 2394,
      "▁kagıt": 2395,
      "▁pal": 2396,
      "▁mucade": 2397,
      "▁konusmayı": 2398,
      "##lası": 2399,
      "##de": 2400,
      "▁dusunce": 2401,
      "▁re": 2402,
      "▁cesit": 2403,
      "▁tiyatro": 2404,
      "▁yolcul": 2405,
      "##yacak": 2406,
      "##ilen": 2407,
      "▁cekildi": 2408,
      "##elli": 2409,
      "▁gurur": 2410,
      "▁sef": 2411,
      "##mesi": 2412,
      "▁bankaların": 2413,
      "▁spor": 2414,
      "##id": 2415,
      "##ınt": 2416,
      "##ekul": 2417,
      "▁doktorlar": 2418,
      "▁haberdar": 2419,
      "▁direktoru": 2420,
      "##lerimin": 2421,
      "▁piyas": 2422,
      "▁inc.": 2423,
      "▁etmiyor": 2424,
      "▁belirt": 2425,
      "##esinin": 2426,
      "▁sonuclar": 2427,
      "##edik": 2428,
      "▁ortalaması": 2429,
      "▁armag": 2430,
      "▁hayv": 2431,
      "▁dekor": 2432,
      "▁civarında": 2433,
      "##elerde": 2434,
      "▁kapıyı": 2435,
      "▁harcam": 2436,
      "▁tekn": 2437,
      "▁yılın": 2438,
      "##une": 2439,
      "▁cent": 2440,
      "▁etmek": 2441,
      "##nci": 2442,
      "▁mater": 2443,
      "▁duman": 2444,
      "##izi": 2445,
      "▁tedavi": 2446,
      "▁kez": 2447,
      "▁bahce": 2448,
      "▁yararlan": 2449,
      "▁perde": 2450,
      "▁dunyada": 2451,
      "##liye": 2452,
      "##ut": 2453,
      "##7'de": 2454,
      "▁yud": 2455,
      "▁kaf": 2456,
      "▁iceriyor": 2457,
      "▁ilgililerdi": 2458,
      "▁miras": 2459,
      "##ldi": 2460,
      "▁hırs": 2461,
      "▁davet": 2462,
      "▁saniye": 2463,
      "▁plak": 2464,
      "▁hisseleri": 2465,
      "▁reklam": 2466,
      "##fa": 2467,
      "▁co": 2468,
      "▁girisim": 2469,
      "▁kalan": 2470,
      "▁charl": 2471,
      "▁bilgiler": 2472,
      "##urup": 2473,
      "▁lezz": 2474,
      "▁yeterli": 2475,
      "▁deli": 2476,
      "▁\"": 2477,
      "##irmen": 2478,
      "▁kapısının": 2479,
      "▁acen": 2480,
      "▁durusma": 2481,
      "▁halen": 2482,
      "▁tuk": 2483,
      "▁gitmek": 2484,
      "▁hayatı": 2485,
      "▁yalnız": 2486,
      "##imini": 2487,
      "▁dogrudan": 2488,
      "▁avuk": 2489,
      "▁mesaf": 2490,
      "▁ayna": 2491,
      "▁ti": 2492,
      "▁bat": 2493,
      "##ılım": 2494,
      "▁vegas": 2495,
      "##abileceg": 2496,
      "▁corb": 2497,
      "▁kemer": 2498,
      "▁aylarda": 2499,
      "▁konusunda": 2500,
      "##ilisi": 2501,
      "▁problem": 2502,
      "▁guvenlik": 2503,
      "##asyon": 2504,
      "▁havuz": 2505,
      "▁fazl": 2506,
      "##sk": 2507,
      "▁saz": 2508,
      "▁sifir": 2509,
      "##acagı": 2510,
      "##eveyn": 2511,
      "▁denver'e": 2512,
      "##okr": 2513,
      "▁ortalık": 2514,
      "##estr": 2515,
      "▁bakın": 2516,
      "▁kısm": 2517,
      "##ka": 2518,
      "##ıklar": 2519,
      "▁hazırlan": 2520,
      "▁sefer": 2521,
      "▁olabilecegini": 2522,
      "▁ruz": 2523,
      "▁takımı": 2524,
      "▁ba": 2525,
      "##mesin": 2526,
      "▁yont": 2527,
      "▁baslangıc": 2528,
      "▁v": 2529,
      "▁kavg": 2530,
      "▁post": 2531,
      "##ayan": 2532,
      "▁ark": 2533,
      "##anları": 2534,
      "##sin": 2535,
      "▁faktor": 2536,
      "▁duzine": 2537,
      "▁saun": 2538,
      "▁gok": 2539,
      "▁eli": 2540,
      "▁ondan": 2541,
      "▁kalp": 2542,
      "▁dibinde": 2543,
      "▁dumanı": 2544,
      "▁karabiber": 2545,
      "▁odada": 2546,
      "##ator": 2547,
      "▁sınır": 2548,
      "▁mı": 2549,
      "▁geyik": 2550,
      "▁enf": 2551,
      "▁bi": 2552,
      "▁isletme": 2553,
      "▁hala": 2554,
      "##'yi": 2555,
      "▁isine": 2556,
      "▁miktarda": 2557,
      "▁keyf": 2558,
      "▁di": 2559,
      "▁cocuga": 2560,
      "▁say": 2561,
      "##in": 2562,
      "##hu": 2563,
      "▁harcama": 2564,
      "▁lu": 2565,
      "▁tren": 2566,
      "▁oyun": 2567,
      "▁bilmek": 2568,
      "▁farklı": 2569,
      "▁olmadı": 2570,
      "##uzluydu": 2571,
      "▁dikkate": 2572,
      "▁argum": 2573,
      "▁kay": 2574,
      "##isim": 2575,
      "▁bagr": 2576,
      "▁dısarı": 2577,
      "##uh": 2578,
      "▁yan": 2579,
      "▁balık": 2580,
      "▁gogs": 2581,
      "▁kıyas": 2582,
      "k": 2583,
      "▁sez": 2584,
      "##sizlik": 2585,
      "▁saldırı": 2586,
      "▁mavi": 2587,
      "##attı": 2588,
      "▁sahis": 2589,
      "▁yılından": 2590,
      "▁ogle": 2591,
      "##dug": 2592,
      "##alama": 2593,
      "##ladi": 2594,
      "▁yatırımcının": 2595,
      "▁si": 2596,
      "▁sapka": 2597,
      "▁ekonominin": 2598,
      "##erans": 2599,
      "##adı": 2600,
      "▁coc": 2601,
      "▁ekip": 2602,
      "▁oakland": 2603,
      "▁yetkili": 2604,
      "##div": 2605,
      "▁uyum": 2606,
      "▁okulda": 2607,
      "##uyle": 2608,
      "▁ol": 2609,
      "▁konut": 2610,
      "▁hesaba": 2611,
      "▁girmek": 2612,
      "▁havaya": 2613,
      "##muz": 2614,
      "▁em": 2615,
      "▁sekiz": 2616,
      "▁felsefe": 2617,
      "##ılıga": 2618,
      "##mıyordu": 2619,
      "▁muamele": 2620,
      "##m": 2621,
      "##lemek": 2622,
      "▁genclik": 2623,
      "▁arttı": 2624,
      "##ımla": 2625,
      "▁aktiviteler": 2626,
      "##unca": 2627,
      "▁borsası'nda": 2628,
      "▁ozen": 2629,
      "▁geril": 2630,
      "▁saglık": 2631,
      "##istiri": 2632,
      "▁ortaya": 2633,
      "▁orgu": 2634,
      "u": 2635,
      "##endir": 2636,
      "▁gitti": 2637,
      "h": 2638,
      "▁kurek": 2639,
      "▁olduguna": 2640,
      "▁rica": 2641,
      "##of": 2642,
      "▁firmaları": 2643,
      "▁sebeb": 2644,
      "▁uzakta": 2645,
      "▁harik": 2646,
      "▁ettik": 2647,
      "▁umit": 2648,
      "##amba": 2649,
      "▁uy": 2650,
      "▁kafasına": 2651,
      "##estir": 2652,
      "▁yel": 2653,
      "▁okumak": 2654,
      "▁kotu": 2655,
      "▁suy": 2656,
      "▁camur": 2657,
      "▁bekledi": 2658,
      "▁fig": 2659,
      "▁arada": 2660,
      "▁or": 2661,
      "##y": 2662,
      "▁teker": 2663,
      "▁marj": 2664,
      "##estiri": 2665,
      "##anlarda": 2666,
      "▁kanaat": 2667,
      "▁kredileri": 2668,
      "▁ailelere": 2669,
      "##lav": 2670,
      "##oc": 2671,
      "▁temizliginden": 2672,
      "▁calısmaları": 2673,
      "##ukee": 2674,
      "▁fiyatını": 2675,
      "▁h": 2676,
      "▁olmayan": 2677,
      "▁evren": 2678,
      "▁ala": 2679,
      "▁sahipleri": 2680,
      "▁etki": 2681,
      "▁bono": 2682,
      "▁fas": 2683,
      "▁kongr": 2684,
      "▁tarihte": 2685,
      "##inin": 2686,
      "##laya": 2687,
      "▁acisindan": 2688,
      "▁bacak": 2689,
      "##her": 2690,
      "▁sahn": 2691,
      "▁islemlerde": 2692,
      "▁kızlar": 2693,
      "##cegini": 2694,
      "▁kala": 2695,
      "▁12'den": 2696,
      "▁huzur": 2697,
      "▁oteden": 2698,
      "##orth": 2699,
      "▁terbiye": 2700,
      "##ılma": 2701,
      "▁idi": 2702,
      "##ag": 2703,
      "▁iscileri": 2704,
      "▁ders": 2705,
      "▁kisilik": 2706,
      "##lat": 2707,
      "▁banyosu": 2708,
      "▁dosy": 2709,
      "▁nesil": 2710,
      "▁cogunlugu": 2711,
      "##akları": 2712,
      "▁teslim": 2713,
      "##_": 2714,
      "▁odası": 2715,
      "##stık": 2716,
      "▁a.m": 2717,
      "▁kontrol": 2718,
      "▁esir": 2719,
      "▁kapasitesi": 2720,
      "▁herkes": 2721,
      "##acak": 2722,
      "▁talebi": 2723,
      "▁ev": 2724,
      "▁siv": 2725,
      "▁ifade": 2726,
      "▁duy": 2727,
      "▁may": 2728,
      "▁lut": 2729,
      "▁uzerinde": 2730,
      "▁yapılanma": 2731,
      "▁yuk": 2732,
      "##lugunun": 2733,
      "##ing": 2734,
      "▁muz": 2735,
      "▁(": 2736,
      "▁kurulusu": 2737,
      "##malıdır": 2738,
      "▁balt": 2739,
      "▁olan": 2740,
      "▁1": 2741,
      "▁yo": 2742,
      "▁gurultu": 2743,
      "▁sorum": 2744,
      "##uk": 2745,
      "▁karsılık": 2746,
      "▁dusuk": 2747,
      "##orlu": 2748,
      "##ısıyla": 2749,
      "##liklerini": 2750,
      "##cagız": 2751,
      "▁nih": 2752,
      "▁kaya": 2753,
      "##mu": 2754,
      "##egiyle": 2755,
      "##manın": 2756,
      "▁karıs": 2757,
      "▁sogut": 2758,
      "▁suları": 2759,
      "▁day": 2760,
      "▁hayalet": 2761,
      "f": 2762,
      "▁komun": 2763,
      "▁listeleyin": 2764,
      "▁kabul": 2765,
      "▁yasındaki": 2766,
      "▁uzakti": 2767,
      "▁yili": 2768,
      "##atıl": 2769,
      "▁ogretmeni": 2770,
      "##eti": 2771,
      "▁kalmadim": 2772,
      "▁seviyesinden": 2773,
      "▁asırı": 2774,
      "##bur": 2775,
      "▁pap": 2776,
      "▁apart": 2777,
      "▁zinc": 2778,
      "▁kodu": 2779,
      "##elir": 2780,
      "##mesinin": 2781,
      "▁safh": 2782,
      "▁yoktur": 2783,
      "▁alama": 2784,
      "▁okum": 2785,
      "▁tir": 2786,
      "##egen": 2787,
      "▁pros": 2788,
      "▁anlasmayı": 2789,
      "▁od": 2790,
      "▁tor": 2791,
      "▁odayı": 2792,
      "▁urunler": 2793,
      "▁geriye": 2794,
      "##maca": 2795,
      "##ırdı": 2796,
      "▁kavga": 2797,
      "▁ilk": 2798,
      "▁tadima": 2799,
      "▁isver": 2800,
      "▁teyz": 2801,
      "▁ihtiyacım": 2802,
      "▁..": 2803,
      "▁dugun": 2804,
      "▁yumur": 2805,
      "▁klim": 2806,
      "▁anlamda": 2807,
      "▁erken": 2808,
      "▁kullanıyor": 2809,
      "▁manev": 2810,
      "▁gec": 2811,
      "▁tasımacılıgı": 2812,
      "▁yarı": 2813,
      "▁yeri": 2814,
      "▁gerektir": 2815,
      "##=": 2816,
      "▁gobek": 2817,
      "▁farkında": 2818,
      "##4": 2819,
      "▁birim": 2820,
      "▁kub": 2821,
      "▁onların": 2822,
      "##lacak": 2823,
      "##iyor": 2824,
      "▁indi": 2825,
      "▁tasf": 2826,
      "▁yuzde": 2827,
      "##5'te": 2828,
      "##sunuz": 2829,
      "##unu": 2830,
      "▁kredi": 2831,
      "▁buldum": 2832,
      "▁aks": 2833,
      "▁tanrı": 2834,
      "##anoz": 2835,
      "▁agzını": 2836,
      "▁yerlerden": 2837,
      "##sali": 2838,
      "▁zul": 2839,
      "▁yapmadı": 2840,
      "▁geregi": 2841,
      "▁gelistirme": 2842,
      "##lamaya": 2843,
      "##isk": 2844,
      "##ladıgı": 2845,
      "▁havayollarında": 2846,
      "▁personelleri": 2847,
      "▁kalacak": 2848,
      "▁gelecekte": 2849,
      "▁alakasi": 2850,
      "##muyordu": 2851,
      "▁giz": 2852,
      "▁dususle": 2853,
      "▁esi": 2854,
      "▁sıc": 2855,
      "▁8": 2856,
      "▁iptal": 2857,
      "##iri": 2858,
      "▁key": 2859,
      "▁yavru": 2860,
      "▁mir": 2861,
      "▁versiyon": 2862,
      "##andır": 2863,
      "▁deneme": 2864,
      "▁alım-sat": 2865,
      "▁gay": 2866,
      "▁ucunda": 2867,
      "▁yar": 2868,
      "▁umut": 2869,
      "▁renk": 2870,
      "▁cevre": 2871,
      "##isel": 2872,
      "▁varmak": 2873,
      "▁omz": 2874,
      "##dev": 2875,
      "▁so": 2876,
      "▁suya": 2877,
      "▁uzmanlar": 2878,
      "▁esk": 2879,
      "##lıydı": 2880,
      "▁sub": 2881,
      "▁sınav": 2882,
      "##iyla": 2883,
      "▁degildir": 2884,
      "▁inis": 2885,
      "▁gunluk": 2886,
      "▁icimden": 2887,
      "##enler": 2888,
      "▁holding": 2889,
      "▁olay": 2890,
      "##ıl": 2891,
      "##mam": 2892,
      "##ret": 2893,
      "▁faaliyet": 2894,
      "▁sonlarında": 2895,
      "▁kapıdan": 2896,
      "▁sonraki": 2897,
      "▁cakmak": 2898,
      "##ami": 2899,
      "▁rap": 2900,
      "▁gelisim": 2901,
      "##ley": 2902,
      "▁islemi": 2903,
      "##mustu": 2904,
      "##eyr": 2905,
      "▁lokma": 2906,
      "▁boyun": 2907,
      "▁baba": 2908,
      "##ham": 2909,
      "▁bunu": 2910,
      "▁tamam": 2911,
      "##ehir": 2912,
      "##igine": 2913,
      "▁tah": 2914,
      "▁servis": 2915,
      "▁takım": 2916,
      "▁anlas": 2917,
      "▁degisimi": 2918,
      "##irli": 2919,
      "##dur": 2920,
      "▁giriste": 2921,
      "▁olmaya": 2922,
      "▁muhabbet": 2923,
      "▁calisanlari": 2924,
      "##mak": 2925,
      "▁de": 2926,
      "##ru": 2927,
      "▁kentin": 2928,
      "##rlik": 2929,
      "▁rolu": 2930,
      "##cılıg": 2931,
      "##abını": 2932,
      "▁meg": 2933,
      "##etle": 2934,
      "▁bar": 2935,
      "##anlı": 2936,
      "##abın": 2937,
      "##ıtı": 2938,
      "▁ailenin": 2939,
      "▁hayatta": 2940,
      "▁agzına": 2941,
      "##eyh": 2942,
      "▁ata": 2943,
      "##/2": 2944,
      "▁guzelligi": 2945,
      "▁bolum": 2946,
      "▁gitmeyi": 2947,
      "##uza": 2948,
      "▁bos": 2949,
      "▁yapılacak": 2950,
      "##ların": 2951,
      "▁imkanı": 2952,
      "▁-": 2953,
      "▁goze": 2954,
      "▁dusunur": 2955,
      "z": 2956,
      "▁giy": 2957,
      "▁hanim": 2958,
      "▁pus": 2959,
      "▁yet": 2960,
      "▁altern": 2961,
      "▁yanından": 2962,
      "▁acmak": 2963,
      "▁bayr": 2964,
      "▁sene": 2965,
      "##cileri": 2966,
      "##tali": 2967,
      "##mız": 2968,
      "▁washington": 2969,
      "▁seyir": 2970,
      "▁misin": 2971,
      "##asıyla": 2972,
      "▁sehri": 2973,
      "▁yudum": 2974,
      "##w": 2975,
      "##ri": 2976,
      "##gin": 2977,
      "▁biliyor": 2978,
      "##lamaz": 2979,
      "▁seh": 2980,
      "▁yasında": 2981,
      "▁rev": 2982,
      "▁duruyor": 2983,
      "▁duruma": 2984,
      "▁buy": 2985,
      "▁mel": 2986,
      "▁tahk": 2987,
      "▁lak": 2988,
      "▁iktis": 2989,
      "▁yana": 2990,
      "##mıs": 2991,
      "▁kısa": 2992,
      "##lerce": 2993,
      "##igini": 2994,
      "##lıga": 2995,
      "▁piyasası": 2996,
      "▁duruyordu": 2997,
      "##esti": 2998,
      "▁ut": 2999,
      "▁yiyeceklerin": 3000,
      "▁yonetim": 3001,
      "▁bus": 3002,
      "▁gelmek": 3003,
      "##yas": 3004,
      "▁devlet": 3005,
      "▁.": 3006,
      "▁yollar": 3007,
      "##ılmaz": 3008,
      "▁meb": 3009,
      "▁planını": 3010,
      "▁hedefleri": 3011,
      "▁kaydetti": 3012,
      "▁kanser": 3013,
      "▁rakamları": 3014,
      "▁dogrusu": 3015,
      "▁medya": 3016,
      "▁begendim": 3017,
      "▁osman": 3018,
      "##1'de": 3019,
      "##sel": 3020,
      "▁sureci": 3021,
      "##oj": 3022,
      "##den": 3023,
      "##anmak": 3024,
      "▁havada": 3025,
      "▁dans": 3026,
      "##ladık": 3027,
      "▁klor": 3028,
      "##.": 3029,
      "##etti": 3030,
      "▁ugra": 3031,
      "▁gosterin": 3032,
      "▁musteri": 3033,
      "▁kitapları": 3034,
      "▁sup": 3035,
      "##ola": 3036,
      "▁kara": 3037,
      "▁payı": 3038,
      "▁ederek": 3039,
      "▁herh": 3040,
      "▁sayesinde": 3041,
      "▁tev": 3042,
      "▁oldular": 3043,
      "▁silah": 3044,
      "▁toront": 3045,
      "▁sekreter": 3046,
      "▁duskun": 3047,
      "▁ucuslarının": 3048,
      "▁huzun": 3049,
      "▁ayından": 3050,
      "▁dum": 3051,
      "▁spot": 3052,
      "##lastı": 3053,
      "##uktu": 3054,
      "▁adım": 3055,
      "▁zaman": 3056,
      "▁seviyesinde": 3057,
      "w": 3058,
      "▁kardes": 3059,
      "▁cemiyet": 3060,
      "▁muhtemelen": 3061,
      "▁boyunca": 3062,
      "▁agaclar": 3063,
      "▁sponsor": 3064,
      "▁parti": 3065,
      "##lerle": 3066,
      "▁meden": 3067,
      "▁ulusal": 3068,
      "##siz": 3069,
      "▁gelenek": 3070,
      "##ih": 3071,
      "▁sosyal": 3072,
      "▁ha": 3073,
      "##ısının": 3074,
      "▁hukumdar": 3075,
      "▁esnada": 3076,
      "▁dusur": 3077,
      "▁digeri": 3078,
      "▁mad": 3079,
      "##abilir": 3080,
      "▁ayır": 3081,
      "##masıyla": 3082,
      "▁yaklas": 3083,
      "▁aracı": 3084,
      "▁kendisine": 3085,
      "##das": 3086,
      "▁ederim": 3087,
      "▁secim": 3088,
      "▁ed": 3089,
      "▁oyunu": 3090,
      "##org": 3091,
      "▁ogrenc": 3092,
      "▁kilit": 3093,
      "▁fit": 3094,
      "▁pl": 3095,
      "▁cog": 3096,
      "▁efend": 3097,
      "▁endise": 3098,
      "##klerini": 3099,
      "##ugun": 3100,
      "##indan": 3101,
      "▁otede": 3102,
      "▁sansı": 3103,
      "▁dug": 3104,
      "##ılıg": 3105,
      "##tikce": 3106,
      "▁coban": 3107,
      "▁ilav": 3108,
      "▁hızla": 3109,
      "##d": 3110,
      "▁elini": 3111,
      "▁entar": 3112,
      "▁alacak": 3113,
      "▁satıs": 3114,
      "▁senaryo": 3115,
      "▁alt": 3116,
      "▁degerini": 3117,
      "▁cikis": 3118,
      "▁belir": 3119,
      "▁sinem": 3120,
      "▁cesidi": 3121,
      "▁faturam": 3122,
      "##rar": 3123,
      "▁dah": 3124,
      "▁sorusturma": 3125,
      "▁neler": 3126,
      "▁yatırımcılar": 3127,
      "▁incel": 3128,
      "▁rahat": 3129,
      "▁ipotege": 3130,
      "##egor": 3131,
      "▁yıl": 3132,
      "▁gelin": 3133,
      "▁genellikle": 3134,
      "##inde": 3135,
      "##oya": 3136,
      "▁dısar": 3137,
      "▁muhar": 3138,
      "▁bostan": 3139,
      "▁acıl": 3140,
      ".": 3141,
      "▁yatırım": 3142,
      "▁gorun": 3143,
      "##par": 3144,
      "##ob": 3145,
      "▁spekul": 3146,
      "▁egz": 3147,
      "##asa": 3148,
      "##sam": 3149,
      "0": 3150,
      "##maktan": 3151,
      "▁hukumeti": 3152,
      "▁sayf": 3153,
      "▁moral": 3154,
      "▁mukem": 3155,
      "▁mo": 3156,
      "▁kaldim": 3157,
      "▁satın": 3158,
      "▁kendisi": 3159,
      "##usa": 3160,
      "▁komitesi": 3161,
      "▁ayagı": 3162,
      "▁tec": 3163,
      "▁corp.": 3164,
      "##enuz": 3165,
      "##gis": 3166,
      "▁erk": 3167,
      "▁yes": 3168,
      "▁santr": 3169,
      "▁bastan": 3170,
      "##tu": 3171,
      "▁koc": 3172,
      "##kal": 3173,
      "##su": 3174,
      "##ul": 3175,
      "▁sab": 3176,
      "▁sakat": 3177,
      "▁kaldı": 3178,
      "##arlar": 3179,
      "l": 3180,
      "##esiyle": 3181,
      "▁bes": 3182,
      "##yiz": 3183,
      "▁tum": 3184,
      "▁aramızda": 3185,
      "▁basv": 3186,
      "▁evlilik": 3187,
      "▁vadeli": 3188,
      "▁oak": 3189,
      "▁rady": 3190,
      "▁yogurt": 3191,
      "▁sosyalizm": 3192,
      "▁rol": 3193,
      "##lantı": 3194,
      "▁yargı": 3195,
      "▁utanc": 3196,
      "▁surekli": 3197,
      "▁gir": 3198,
      "▁sıkıntı": 3199,
      "▁tab": 3200,
      "##alardan": 3201,
      "▁delta": 3202,
      "##anla": 3203,
      "▁sal": 3204,
      "▁stan": 3205,
      "##'a": 3206,
      "▁konusmak": 3207,
      "##ah": 3208,
      "##ogram": 3209,
      "▁hız": 3210,
      "▁anlay": 3211,
      "##engin": 3212,
      "▁francisco'ya": 3213,
      "▁lezzetli": 3214,
      "##inda": 3215,
      "▁goz": 3216,
      "‘": 3217,
      "▁taraftar": 3218,
      "▁koseye": 3219,
      "▁sert": 3220,
      "▁bulun": 3221,
      "▁sif": 3222,
      "▁yetkililerine": 3223,
      "▁duzeni": 3224,
      "##erleri": 3225,
      "▁chp": 3226,
      "▁belediye": 3227,
      "▁milyara": 3228,
      "▁tenc": 3229,
      "▁bankanın": 3230,
      "▁eder": 3231,
      "▁yarıs": 3232,
      "▁paraları": 3233,
      "▁karargah": 3234,
      "▁personelin": 3235,
      "▁kok": 3236,
      "▁10": 3237,
      "▁uretimi": 3238,
      "▁bulus": 3239,
      "▁guc": 3240,
      "##gar": 3241,
      "##lasman": 3242,
      "▁cık": 3243,
      "▁gecir": 3244,
      "▁nakliye": 3245,
      "##amıs": 3246,
      "▁kuyruk": 3247,
      "▁cıg": 3248,
      "▁ticari": 3249,
      "▁basladı": 3250,
      "▁cerey": 3251,
      "▁memnunum": 3252,
      "▁kelime": 3253,
      "▁bilgileri": 3254,
      "▁edit": 3255,
      "▁oda": 3256,
      "▁kazandı": 3257,
      "▁edilen": 3258,
      "##agının": 3259,
      "▁saka": 3260,
      "##ram": 3261,
      "▁vad": 3262,
      "▁/": 3263,
      "##gıcı": 3264,
      "▁?..": 3265,
      "▁salon": 3266,
      "▁bogaz": 3267,
      "##nak": 3268,
      "▁dalı": 3269,
      "▁uslu": 3270,
      "▁gucunu": 3271,
      "▁bugune": 3272,
      "▁fabr": 3273,
      "▁sehirde": 3274,
      "▁hik": 3275,
      "▁kesin": 3276,
      "##yalizm": 3277,
      "▁acıklama": 3278,
      "▁tay": 3279,
      "▁hanimdi": 3280,
      "▁ailesi": 3281,
      "▁suren": 3282,
      "▁yolunu": 3283,
      "▁duygularını": 3284,
      "##ıb": 3285,
      "▁ayakta": 3286,
      "▁cem": 3287,
      "▁kızım": 3288,
      "▁alanlar": 3289,
      "▁yemis": 3290,
      "▁issizlik": 3291,
      "##ern": 3292,
      "▁faturami": 3293,
      "▁ucreti": 3294,
      "▁boyutu": 3295,
      "▁art": 3296,
      "▁bitir": 3297,
      "##ısık": 3298,
      "▁yapma": 3299,
      "▁makam": 3300,
      "##edil": 3301,
      "▁kontrolu": 3302,
      "▁serisi": 3303,
      "▁sola": 3304,
      "##akende": 3305,
      "▁kurtar": 3306,
      "▁hij": 3307,
      "▁hes": 3308,
      "##af": 3309,
      "##unda": 3310,
      "▁aracları": 3311,
      "▁fatur": 3312,
      "##ev": 3313,
      "▁kardesi": 3314,
      "▁united": 3315,
      "##ıma": 3316,
      "▁asagıda": 3317,
      "▁etrafını": 3318,
      "▁dem": 3319,
      "##larında": 3320,
      "▁ogren": 3321,
      "##alari": 3322,
      "##imdi": 3323,
      "▁ora": 3324,
      "▁korid": 3325,
      "▁calısmaya": 3326,
      "▁gercekl": 3327,
      "▁cagr": 3328,
      "▁ulas": 3329,
      "▁konus": 3330,
      "▁gozden": 3331,
      "▁sabır": 3332,
      "##luk": 3333,
      "▁saatlerini": 3334,
      "▁vade": 3335,
      "▁uzerinden": 3336,
      "▁seyinden": 3337,
      "##mızı": 3338,
      "▁sorunun": 3339,
      "▁altını": 3340,
      "##hane": 3341,
      "▁hucr": 3342,
      "▁adamın": 3343,
      "▁gecik": 3344,
      "▁gide": 3345,
      "##dası": 3346,
      "▁sis": 3347,
      "▁yuruy": 3348,
      "##lasyon": 3349,
      "▁kr": 3350,
      "▁misafirimiz": 3351,
      "▁iyiye": 3352,
      "▁mev": 3353,
      "▁dolar": 3354,
      "▁meyv": 3355,
      "▁cekici": 3356,
      "##iyet": 3357,
      "▁gozleri": 3358,
      "##nuz": 3359,
      "▁tatlilar": 3360,
      "▁idare": 3361,
      "▁cıkar": 3362,
      "▁imkan": 3363,
      "▁dislerini": 3364,
      "▁devleti": 3365,
      "##pan": 3366,
      "▁sorunlar": 3367,
      "▁konf": 3368,
      "▁tam": 3369,
      "##(": 3370,
      "##lanan": 3371,
      "▁daima": 3372,
      "##cak": 3373,
      "▁saf": 3374,
      "▁kadına": 3375,
      "##digi": 3376,
      "▁american": 3377,
      "▁uyelerinin": 3378,
      "##ıltı": 3379,
      "##imizden": 3380,
      "'": 3381,
      "##bir": 3382,
      "▁eylul": 3383,
      "▁yang": 3384,
      "▁hangisi": 3385,
      "##ahh": 3386,
      "▁dib": 3387,
      "▁anlasmaya": 3388,
      "▁pasif": 3389,
      "▁pantol": 3390,
      "▁yasıyor": 3391,
      "▁oncesi": 3392,
      "▁mevz": 3393,
      "▁yedi": 3394,
      "▁ustune": 3395,
      "▁tanıs": 3396,
      "##acagız": 3397,
      "▁nevi": 3398,
      "▁hesabı": 3399,
      "▁odalardan": 3400,
      "##mıyorum": 3401,
      "▁=": 3402,
      "▁yig": 3403,
      "▁kil": 3404,
      "##sız": 3405,
      "##'ın": 3406,
      "▁sozcusu": 3407,
      "▁katı": 3408,
      "##00'": 3409,
      "▁istifa": 3410,
      "▁iceriden": 3411,
      "▁satıslarının": 3412,
      "##lıgından": 3413,
      "▁iktid": 3414,
      "▁sayı": 3415,
      "▁siir": 3416,
      "▁yonu": 3417,
      "▁beklenti": 3418,
      "##z": 3419,
      "▁dilim": 3420,
      "▁kalma": 3421,
      "▁elbet": 3422,
      "▁25": 3423,
      "##misti": 3424,
      "##ate": 3425,
      "▁arkada": 3426,
      "▁sohret": 3427,
      "▁1/2": 3428,
      "▁avukatı": 3429,
      "▁val": 3430,
      "▁calismas": 3431,
      "▁tahvillerin": 3432,
      "##ee": 3433,
      "▁devletin": 3434,
      "▁hattı": 3435,
      "##lın": 3436,
      "##ımızdan": 3437,
      "▁bask": 3438,
      "▁kasım": 3439,
      "▁un": 3440,
      "##phia": 3441,
      "##'den": 3442,
      "##ın": 3443,
      "▁pantolon": 3444,
      "##ekler": 3445,
      "##ıda": 3446,
      "▁diy": 3447,
      "▁cıkardı": 3448,
      "▁rakı": 3449,
      "▁tesaduf": 3450,
      "##umuzu": 3451,
      "##larını": 3452,
      "##lac": 3453,
      "▁kade": 3454,
      "##andan": 3455,
      "##ılıyor": 3456,
      "▁ga": 3457,
      "▁suc": 3458,
      "▁yarad": 3459,
      "▁halkla": 3460,
      "▁sesiyle": 3461,
      "▁olmasa": 3462,
      "▁karsın": 3463,
      "▁sehre": 3464,
      "##lanmadı": 3465,
      "##ess": 3466,
      "▁9": 3467,
      "▁iyilik": 3468,
      "▁kerv": 3469,
      "▁sayisi": 3470,
      "##onel": 3471,
      "##maması": 3472,
      "▁denge": 3473,
      "▁fak": 3474,
      "▁tesekkur": 3475,
      "▁cunku": 3476,
      "▁gumruk": 3477,
      "▁tarif": 3478,
      "▁yavas": 3479,
      "##sik": 3480,
      "▁oyunc": 3481,
      "##askanı": 3482,
      "▁zincir": 3483,
      "##egim": 3484,
      "##raf": 3485,
      "▁oncelik": 3486,
      "▁ihracı": 3487,
      "▁eser": 3488,
      "▁oldur": 3489,
      "##iyetine": 3490,
      "▁yurt": 3491,
      "▁komite": 3492,
      "##gmen": 3493,
      "##°": 3494,
      "▁sonuna": 3495,
      "▁sirketinin": 3496,
      "▁lı": 3497,
      "▁kadro": 3498,
      "▁heyeti": 3499,
      "▁olasılık": 3500,
      "▁carte": 3501,
      "▁ekonomist": 3502,
      "▁i": 3503,
      "▁fikir": 3504,
      "▁yaka": 3505,
      "▁man": 3506,
      "▁enist": 3507,
      "▁alana": 3508,
      "▁degisiklikler": 3509,
      "▁yas": 3510,
      "▁viski": 3511,
      "▁yag": 3512,
      "▁temmuz": 3513,
      "▁ipotek": 3514,
      "▁adina": 3515,
      "▁istey": 3516,
      "▁vatandas": 3517,
      "▁baskanlık": 3518,
      "##mamak": 3519,
      "##alık": 3520,
      "▁3": 3521,
      "##lemeye": 3522,
      "▁vide": 3523,
      "▁animasyonu": 3524,
      "’": 3525,
      "▁kasıgı": 3526,
      "##eydi": 3527,
      "##tir": 3528,
      "▁yarar": 3529,
      "▁dizi": 3530,
      "▁fis": 3531,
      "▁baz": 3532,
      "▁daglar": 3533,
      "▁market": 3534,
      "▁cekilm": 3535,
      "##amaları": 3536,
      "▁kravat": 3537,
      "▁jur": 3538,
      "▁artarak": 3539,
      "▁agzından": 3540,
      "▁tar": 3541,
      "▁ord": 3542,
      "▁sertif": 3543,
      "▁rakamlar": 3544,
      "▁yuksekti": 3545,
      "##ılıgında": 3546,
      "▁halı": 3547,
      "▁edilmesi": 3548,
      "▁pit": 3549,
      "▁alk": 3550,
      "##imizin": 3551,
      "▁annemin": 3552,
      "▁kalabal": 3553,
      "▁diye": 3554,
      "▁cadır": 3555,
      "▁hamal": 3556,
      "##h": 3557,
      "##ustugunu": 3558,
      "▁mini": 3559,
      "▁edecek": 3560,
      "▁erkekler": 3561,
      "▁hayata": 3562,
      "▁mesafe": 3563,
      "▁olacaktır": 3564,
      "▁veri": 3565,
      "▁uluslar": 3566,
      "▁plani": 3567,
      "▁gormedim": 3568,
      "▁gerekcesiyle": 3569,
      "▁capında": 3570,
      "▁kalitesinden": 3571,
      "##anın": 3572,
      "▁del": 3573,
      "##hur": 3574,
      "▁saatleri": 3575,
      "▁mahkeme": 3576,
      "▁tesp": 3577,
      "##dıgımı": 3578,
      "▁giris": 3579,
      "▁sehrin": 3580,
      "▁hayran": 3581,
      "▁kalb": 3582,
      "▁muhaf": 3583,
      "▁som": 3584,
      "##asının": 3585,
      "▁resim": 3586,
      "##gundu": 3587,
      "▁ediyordu": 3588,
      "▁tutum": 3589,
      "▁cizgi": 3590,
      "##'n": 3591,
      "▁oglu": 3592,
      "▁ihrac": 3593,
      "▁borsa": 3594,
      "##anet": 3595,
      "▁milyar": 3596,
      "▁pers": 3597,
      "▁gundeme": 3598,
      "##0": 3599,
      "▁yanına": 3600,
      "▁isimiz": 3601,
      "▁havayollarının": 3602,
      "▁bileti": 3603,
      "▁mahkemede": 3604,
      "##olog": 3605,
      "▁yapılandır": 3606,
      "##tti": 3607,
      "▁tad": 3608,
      "▁evlerin": 3609,
      "▁mucev": 3610,
      "▁anah": 3611,
      "##inti": 3612,
      "▁yakin": 3613,
      "▁asl": 3614,
      "▁kred": 3615,
      "▁yardımcısı": 3616,
      "##eder": 3617,
      "##aklar": 3618,
      "▁gonlum": 3619,
      "▁kendiler": 3620,
      "▁bakıs": 3621,
      "▁sermaye": 3622,
      "▁p": 3623,
      "▁egzersiz": 3624,
      "##ısında": 3625,
      "▁unut": 3626,
      "▁yonetici": 3627,
      "▁skandal": 3628,
      "▁hasar": 3629,
      "▁merkez": 3630,
      "▁fiyat": 3631,
      "▁oy": 3632,
      "##.6": 3633,
      "▁yeter": 3634,
      "▁menf": 3635,
      "▁istedig": 3636,
      "▁paz": 3637,
      "▁demet": 3638,
      "##iyi": 3639,
      "▁dolarlık": 3640,
      "##azla": 3641,
      "▁tarafına": 3642,
      "##ısı": 3643,
      "▁yen": 3644,
      "##.ceyr": 3645,
      "▁ayn": 3646,
      "▁begen": 3647,
      "##uler": 3648,
      "##bul": 3649,
      "▁adına": 3650,
      "▁ars": 3651,
      "▁ekonomik": 3652,
      "▁bolumu": 3653,
      "▁ken": 3654,
      "##'lik": 3655,
      "▁dengesi": 3656,
      "▁pul": 3657,
      "▁agır": 3658,
      "▁teor": 3659,
      "##yla": 3660,
      "▁harc": 3661,
      "▁ekipman": 3662,
      "▁ted": 3663,
      "▁cıkarmaya": 3664,
      "▁boyut": 3665,
      "▁altına": 3666,
      "▁kırmızı": 3667,
      "▁gerc": 3668,
      "▁kom": 3669,
      "▁artısla": 3670,
      "##ediy": 3671,
      "▁yapmıs": 3672,
      "##zet": 3673,
      "▁alev": 3674,
      "▁orta": 3675,
      "▁list": 3676,
      "▁sovyet": 3677,
      "##asindan": 3678,
      "▁tehlik": 3679,
      "##tıkları": 3680,
      "##orn": 3681,
      "##azı": 3682,
      "##do": 3683,
      "▁icecekleri": 3684,
      "▁olsa": 3685,
      "##seniz": 3686,
      "▁gozlerini": 3687,
      "▁sarap": 3688,
      "▁kelimesi": 3689,
      "##uy": 3690,
      "##00'den": 3691,
      "##ding": 3692,
      "▁nefret": 3693,
      "▁philadelphia": 3694,
      "▁satır": 3695,
      "▁cit": 3696,
      "▁yol": 3697,
      "▁kedi": 3698,
      "##lasma": 3699,
      "▁enerj": 3700,
      "##lisi": 3701,
      "##yle": 3702,
      "▁transfer": 3703,
      "▁seattle": 3704,
      "▁kuram": 3705,
      "##ati": 3706,
      "▁teh": 3707,
      "▁gosterir": 3708,
      "##i": 3709,
      "▁vir": 3710,
      "▁kansas": 3711,
      "▁sapk": 3712,
      "▁tamamı": 3713,
      "##agına": 3714,
      "▁park": 3715,
      "▁goc": 3716,
      "▁sozcu": 3717,
      "▁cat": 3718,
      "▁kuyu": 3719,
      "▁sektor": 3720,
      "▁karsiligini": 3721,
      "##urk": 3722,
      "▁muhafaz": 3723,
      "▁amerik": 3724,
      "▁tahviller": 3725,
      "▁gru": 3726,
      "▁rezervasyonu": 3727,
      "##nem": 3728,
      "▁bas": 3729,
      "##%": 3730,
      "▁duvarı": 3731,
      "▁acıgı": 3732,
      "##ıyor": 3733,
      "▁havaalanı'ndan": 3734,
      "▁yarın": 3735,
      "##6": 3736,
      "▁fiyatlar": 3737,
      "##eyle": 3738,
      "▁gozluk": 3739,
      "▁kalkıp": 3740,
      "##ina": 3741,
      "▁artır": 3742,
      "▁ayakları": 3743,
      "▁yesil": 3744,
      "▁ust": 3745,
      "▁geldim": 3746,
      "▁mart": 3747,
      "▁bayrak": 3748,
      "▁yuklen": 3749,
      "##reti": 3750,
      "##lag": 3751,
      "##ark": 3752,
      "▁katkıda": 3753,
      "##lugu": 3754,
      "▁fırc": 3755,
      "##ıyı": 3756,
      "▁aileye": 3757,
      "▁kimlik": 3758,
      "▁yururluge": 3759,
      "##pe": 3760,
      "##etini": 3761,
      "▁sanayi": 3762,
      "▁tartıs": 3763,
      "▁yukarı": 3764,
      "▁onem": 3765,
      "▁kıs": 3766,
      "▁general": 3767,
      "▁cir": 3768,
      "▁aqu": 3769,
      "▁basına": 3770,
      "▁satım": 3771,
      "▁saati": 3772,
      "##unden": 3773,
      "▁kost": 3774,
      "##emis": 3775,
      "##osyon": 3776,
      "▁muam": 3777,
      "▁kak": 3778,
      "▁firmanın": 3779,
      "▁gelen": 3780,
      "▁yer": 3781,
      "▁j": 3782,
      "▁mah": 3783,
      "##*": 3784,
      "▁tarihine": 3785,
      "▁ciftlik": 3786,
      "▁tr": 3787,
      "▁nine": 3788,
      "##aliforn": 3789,
      "##uyordum": 3790,
      "##8": 3791,
      "##amıyor": 3792,
      "▁universite": 3793,
      "▁kıy": 3794,
      "▁doktor": 3795,
      "▁tası": 3796,
      "▁baslan": 3797,
      "▁amcam": 3798,
      "▁raporda": 3799,
      "▁mekana": 3800,
      "▁operator": 3801,
      "##acık": 3802,
      "▁kurum": 3803,
      "▁kardesinin": 3804,
      "▁dol": 3805,
      "##.2": 3806,
      "##elerinin": 3807,
      "▁listesini": 3808,
      "##emiz": 3809,
      "▁muc": 3810,
      "▁tes": 3811,
      "▁go": 3812,
      "##ecegi": 3813,
      "▁harika": 3814,
      "▁ilgisi": 3815,
      "##ya": 3816,
      "##ebilir": 3817,
      "▁dey": 3818,
      "▁duyuru": 3819,
      "▁imza": 3820,
      "▁yatırımcıları": 3821,
      "##inizin": 3822,
      "##atist": 3823,
      "▁birlikte": 3824,
      "▁cambaz": 3825,
      "▁yasa": 3826,
      "▁mendil": 3827,
      "##cuları": 3828,
      "▁bab": 3829,
      "##cut": 3830,
      "▁yuzunde": 3831,
      "▁arabalar": 3832,
      "##ekti": 3833,
      "▁oranında": 3834,
      "▁dok": 3835,
      "▁yanı": 3836,
      "▁odamdan": 3837,
      "▁hata": 3838,
      "##alle": 3839,
      "▁fr": 3840,
      "▁tarafını": 3841,
      "##ilerdi": 3842,
      "▁degisiklikleri": 3843,
      "##yse": 3844,
      "##gre": 3845,
      "▁gonder": 3846,
      "##ibi": 3847,
      "▁sag": 3848,
      "▁yetersizdi": 3849,
      "▁insanlardan": 3850,
      "▁calisanlardan": 3851,
      "▁baglı": 3852,
      "▁tahr": 3853,
      "▁kanunu": 3854,
      "##“": 3855,
      "▁performans": 3856,
      "▁tarafı": 3857,
      "▁musait": 3858,
      "##enli": 3859,
      "▁gorunuse": 3860,
      "▁hisselerin": 3861,
      "▁uygu": 3862,
      "▁kulak": 3863,
      "##p": 3864,
      "##ıgını": 3865,
      "##anti": 3866,
      "##ikti": 3867,
      "##ota": 3868,
      "▁avrupa": 3869,
      "▁hanima": 3870,
      "▁derd": 3871,
      "▁temettu": 3872,
      "##$": 3873,
      "▁sohbet": 3874,
      "▁duzen": 3875,
      "▁ucuna": 3876,
      "▁rakib": 3877,
      "##dıktan": 3878,
      "▁masanın": 3879,
      "##ht": 3880,
      "##inizi": 3881,
      "▁teminat": 3882,
      "##tıklarını": 3883,
      "##ti": 3884,
      "▁internet": 3885,
      "##enleri": 3886,
      "##gum": 3887,
      "▁birinci": 3888,
      "▁soze": 3889,
      "▁kapısına": 3890,
      "▁ikide": 3891,
      "##tıktan": 3892,
      "##lah": 3893,
      "##tih": 3894,
      "▁tuketici": 3895,
      "▁sov": 3896,
      "▁carsamba": 3897,
      "▁des": 3898,
      "▁super": 3899,
      "▁bilgisay": 3900,
      "##ieg": 3901,
      "▁alkol": 3902,
      "##egini": 3903,
      "▁simdiye": 3904,
      "▁senedi": 3905,
      "▁cob": 3906,
      "##edigi": 3907,
      "▁tuketim": 3908,
      "▁program": 3909,
      "▁konu": 3910,
      "▁kimse": 3911,
      "##'y": 3912,
      "##amac": 3913,
      "▁tamamen": 3914,
      "▁sam": 3915,
      "##ırmak": 3916,
      "▁ulkelerde": 3917,
      "▁anlasma": 3918,
      "▁kahval": 3919,
      "##arım": 3920,
      "##medigini": 3921,
      "▁ornek": 3922,
      "▁oranla": 3923,
      "▁kole": 3924,
      "##2'de": 3925,
      "##eligi": 3926,
      "▁aqua": 3927,
      "▁kasır": 3928,
      "▁kardesim": 3929,
      "##ırtı": 3930,
      "▁halini": 3931,
      "▁ates": 3932,
      "▁varan": 3933,
      "▁saclarını": 3934,
      "▁gaf": 3935,
      "▁okulu": 3936,
      "▁iliski": 3937,
      "▁gorevini": 3938,
      "▁bize": 3939,
      "▁hakları": 3940,
      "▁limuzin": 3941,
      "▁yak": 3942,
      "▁olmasi": 3943,
      "▁babasının": 3944,
      "▁ornegin": 3945,
      "▁kum": 3946,
      "▁cih": 3947,
      "▁sirketine": 3948,
      "▁iyi": 3949,
      "▁tekne": 3950,
      "▁olumlu": 3951,
      "▁kosulları": 3952,
      "▁boya": 3953,
      "##ga": 3954,
      "▁yemekten": 3955,
      "▁ge": 3956,
      "##esinden": 3957,
      "▁lideri": 3958,
      "▁kapat": 3959,
      "▁hepsi": 3960,
      "▁bıc": 3961,
      "x": 3962,
      "▁metre": 3963,
      "▁hemsir": 3964,
      "▁kalemi": 3965,
      "▁nedenini": 3966,
      "▁analistler": 3967,
      "##stım": 3968,
      "▁seans": 3969,
      "▁dakikada": 3970,
      "▁secenek": 3971,
      "▁anlamak": 3972,
      "▁dokun": 3973,
      "▁kamp": 3974,
      "▁med": 3975,
      "▁kars": 3976,
      "##ibe": 3977,
      "▁bulunuyor": 3978,
      "▁hisselerini": 3979,
      "▁denizin": 3980,
      "▁planı": 3981,
      "▁bagı": 3982,
      "▁mal": 3983,
      "▁tıp": 3984,
      "o": 3985,
      "▁savunma": 3986,
      "##ikler": 3987,
      "##osunu": 3988,
      "▁dam": 3989,
      "▁tram": 3990,
      "▁dusun": 3991,
      "▁kasırg": 3992,
      "▁tarafa": 3993,
      "▁z": 3994,
      "▁gonul": 3995,
      "▁tered": 3996,
      "▁dusunuyor": 3997,
      "▁evet": 3998,
      "##mer": 3999,
      "##mis": 4000,
      "▁num": 4001,
      "▁kaynakları": 4002,
      "▁asık": 4003,
      "▁hızlı": 4004,
      "▁universit": 4005,
      "▁korumak": 4006,
      "##ını": 4007,
      "▁cez": 4008,
      "▁tedav": 4009,
      "▁birimi": 4010,
      "▁alıcı": 4011,
      "▁sark": 4012,
      "▁cami": 4013,
      "▁airlin": 4014,
      "▁hakkında": 4015,
      "##ph": 4016,
      "▁gozlerim": 4017,
      "##net": 4018,
      "##dım": 4019,
      "▁og": 4020,
      "▁olmakla": 4021,
      "##tiler": 4022,
      "▁semp": 4023,
      "▁mor": 4024,
      "▁don": 4025,
      "▁26": 4026,
      "▁sartları": 4027,
      "##tif": 4028,
      "▁first": 4029,
      "▁teb": 4030,
      "▁cesitler": 4031,
      "▁kızı": 4032,
      "▁oncesinde": 4033,
      "▁cas": 4034,
      "▁tatli": 4035,
      "▁dolayı": 4036,
      "▁eroin": 4037,
      "##iber": 4038,
      "##mini": 4039,
      "▁degisik": 4040,
      "##ktur": 4041,
      "▁tuy": 4042,
      "▁dekorasyonu": 4043,
      "▁ureticisi": 4044,
      "▁yapar": 4045,
      "##etr": 4046,
      "▁elestirmen": 4047,
      "▁olmadi": 4048,
      "▁termal": 4049,
      "▁seylerin": 4050,
      "##on": 4051,
      "▁tama": 4052,
      "▁belgeleri": 4053,
      "▁tramvay": 4054,
      "▁engel": 4055,
      "▁tarafta": 4056,
      "▁impar": 4057,
      "##ıcı": 4058,
      "▁sogan": 4059,
      "▁vardı": 4060,
      "▁heyecan": 4061,
      "##anlardan": 4062,
      "▁analistlerin": 4063,
      "▁usul": 4064,
      "▁if": 4065,
      "##uar": 4066,
      "▁suphe": 4067,
      "▁kahvaltisi": 4068,
      "▁ayrıntı": 4069,
      "▁havlular": 4070,
      "▁otobus": 4071,
      "▁kur": 4072,
      "▁aksam": 4073,
      "▁tun": 4074,
      "▁ister": 4075,
      "▁kent": 4076,
      "▁senin": 4077,
      "▁zey": 4078,
      "▁isini": 4079,
      "##.4": 4080,
      "▁city": 4081,
      "▁bakanlıgı": 4082,
      "▁olmadıgını": 4083,
      "▁gozlerinin": 4084,
      "▁isleri": 4085,
      "▁birer": 4086,
      "##ume": 4087,
      "▁uzerindeki": 4088,
      "▁seviy": 4089,
      "##ograf": 4090,
      "▁temsilcisi": 4091,
      "##tik": 4092,
      "▁saatte": 4093,
      "##iste": 4094,
      "▁limon": 4095,
      "▁kahkah": 4096,
      "▁titr": 4097,
      "▁planlarını": 4098,
      "▁bl": 4099,
      "▁tuccar": 4100,
      "▁fiyatlandır": 4101,
      "▁olmak": 4102,
      "▁kazancları": 4103,
      "▁hikay": 4104,
      "##ub": 4105,
      "▁malzem": 4106,
      "▁yanında": 4107,
      "▁hale": 4108,
      "▁tanık": 4109,
      "##ende": 4110,
      "##larini": 4111,
      "##masında": 4112,
      "##urg": 4113,
      "##li": 4114,
      "##ast": 4115,
      "▁w": 4116,
      "##landıgını": 4117,
      "▁ard": 4118,
      "▁gum": 4119,
      "▁bisik": 4120,
      "▁ortasında": 4121,
      "##lardı": 4122,
      "▁servisi": 4123,
      "▁nedeni": 4124,
      "▁avukatlar": 4125,
      "##rken": 4126,
      "##ayi": 4127,
      "▁iade": 4128,
      "▁hot": 4129,
      "▁olmasın": 4130,
      "▁haf": 4131,
      "▁salat": 4132,
      "▁iddia": 4133,
      "##usune": 4134,
      "▁adını": 4135,
      "##ıklıgı": 4136,
      "##lesti": 4137,
      "▁makaleye": 4138,
      "##lılıgı": 4139,
      "▁cares": 4140,
      "##ladım": 4141,
      "▁yalan": 4142,
      "▁sekreteri": 4143,
      "▁nitelik": 4144,
      "▁tu": 4145,
      "▁lun": 4146,
      "##landır": 4147,
      "##madıgını": 4148,
      "▁havaalanı": 4149,
      "▁yaklasık": 4150,
      "##bus": 4151,
      "▁alamadim": 4152,
      "▁uzum": 4153,
      "▁lobi": 4154,
      "▁vez": 4155,
      "▁prens": 4156,
      "▁mode": 4157,
      "▁atlanta": 4158,
      "▁pahaliydi": 4159,
      "▁..\"": 4160,
      "▁seyleri": 4161,
      "▁iliskisi": 4162,
      "▁yerlere": 4163,
      "▁olmasına": 4164,
      "▁bulunan": 4165,
      "▁cocuklara": 4166,
      "▁ceyrek": 4167,
      "▁once": 4168,
      "##sek": 4169,
      "▁sevgil": 4170,
      "▁sec": 4171,
      "▁devr": 4172,
      "##na": 4173,
      "▁elestiri": 4174,
      "##sini": 4175,
      "▁ilgis": 4176,
      "▁sahneye": 4177,
      "▁hastalıgı": 4178,
      "▁air": 4179,
      "##ından": 4180,
      "▁sansur": 4181,
      "▁esn": 4182,
      "▁imal": 4183,
      "##var": 4184,
      "▁hus": 4185,
      "##isinden": 4186,
      "##stu": 4187,
      "##ecekler": 4188,
      "▁yasam": 4189,
      "##anının": 4190,
      "▁antr": 4191,
      "▁durdur": 4192,
      "▁zor": 4193,
      "▁um": 4194,
      "▁istedim": 4195,
      "▁sofr": 4196,
      "▁ceh": 4197,
      "▁kendi": 4198,
      "▁onur": 4199,
      "##1'e": 4200,
      "▁donusu": 4201,
      "##lastik": 4202,
      "▁cop": 4203,
      "##gunu": 4204,
      "##izli": 4205,
      "##lıdır": 4206,
      "▁yad": 4207,
      "##giniz": 4208,
      "▁hizmetler": 4209,
      "▁hızı": 4210,
      "▁ustunden": 4211,
      "▁fazlasını": 4212,
      "▁fikri": 4213,
      "▁red": 4214,
      "a": 4215,
      "▁mot": 4216,
      "##ot": 4217,
      "▁ugruna": 4218,
      "▁verir": 4219,
      "##ud": 4220,
      "▁siddet": 4221,
      "▁muhareb": 4222,
      "##/4'e": 4223,
      "▁eyalet": 4224,
      "▁hayatını": 4225,
      "▁konum": 4226,
      "##larımın": 4227,
      "▁mektep": 4228,
      "##sem": 4229,
      "▁yara": 4230,
      "##ait": 4231,
      "##vil": 4232,
      "▁olacak": 4233,
      "▁t": 4234,
      "▁senato": 4235,
      "##melidir": 4236,
      "▁edil": 4237,
      "▁uye": 4238,
      "▁degeri": 4239,
      "▁hakem": 4240,
      "##ydı": 4241,
      "▁duk": 4242,
      "##teki": 4243,
      "▁siyah": 4244,
      "+": 4245,
      "▁mektup": 4246,
      "▁lob": 4247,
      "##uyoruz": 4248,
      "▁bis": 4249,
      "▁ziy": 4250,
      "▁abla": 4251,
      "▁kims": 4252,
      "##lum": 4253,
      "▁bug": 4254,
      "##raz": 4255,
      "▁yarım": 4256,
      "▁pes": 4257,
      "▁aktivit": 4258,
      "▁olmus": 4259,
      "▁care": 4260,
      "▁tarihinde": 4261,
      "▁sevda": 4262,
      "▁agz": 4263,
      "▁mucevher": 4264,
      "##'tan": 4265,
      "▁agab": 4266,
      "▁milletin": 4267,
      "▁guven": 4268,
      "▁fot": 4269,
      "▁hazırlık": 4270,
      "▁evlerine": 4271,
      "▁kaymak": 4272,
      "▁muzak": 4273,
      "##umde": 4274,
      "##liler": 4275,
      "##uc": 4276,
      "▁mayıs": 4277,
      "▁mekte": 4278,
      "▁mani": 4279,
      "▁paket": 4280,
      "▁ey": 4281,
      "##erk": 4282,
      "##leriniz": 4283,
      "▁dısında": 4284,
      "▁oturdu": 4285,
      "▁temizdi": 4286,
      "▁gunah": 4287,
      "▁detay": 4288,
      "##ust": 4289,
      "▁bardak": 4290,
      "##2'ye": 4291,
      "▁duzelt": 4292,
      "##maya": 4293,
      "##unc": 4294,
      "▁surat": 4295,
      "##usun": 4296,
      "▁icki": 4297,
      "▁devri": 4298,
      "##imizda": 4299,
      "▁basında": 4300,
      "▁kadınlara": 4301,
      "##lenen": 4302,
      "##ket": 4303,
      "▁cumartesi": 4304,
      "▁milyardan": 4305,
      "##ıkları": 4306,
      "▁...\"": 4307,
      "▁anayasa": 4308,
      "▁milwa": 4309,
      "##lenme": 4310,
      "▁gayr": 4311,
      "▁insanı": 4312,
      "▁irade": 4313,
      "▁kararı": 4314,
      "▁pazarda": 4315,
      "##tın": 4316,
      "▁198": 4317,
      "▁karın": 4318,
      "##eciler": 4319,
      "##rut": 4320,
      "▁pad": 4321,
      "##onra": 4322,
      "▁samim": 4323,
      "▁aln": 4324,
      "▁perakende": 4325,
      "▁hukuk": 4326,
      "▁tanım": 4327,
      "▁pah": 4328,
      "▁yine": 4329,
      "##maz": 4330,
      "▁herif": 4331,
      "▁dert": 4332,
      "▁dost": 4333,
      "▁anne": 4334,
      "▁fren": 4335,
      "▁fir": 4336,
      "##raber": 4337,
      "##'si": 4338,
      "▁kalem": 4339,
      "##okol": 4340,
      "▁konular": 4341,
      "▁ceyr": 4342,
      "▁dustu": 4343,
      "▁herkesin": 4344,
      "▁bulgu": 4345,
      "##adaki": 4346,
      "▁sol": 4347,
      "##ilmesi": 4348,
      "##alma": 4349,
      "##lardır": 4350,
      "##leyici": 4351,
      "▁ugr": 4352,
      "▁kural": 4353,
      "##edef": 4354,
      "##dal": 4355,
      "▁ropor": 4356,
      "▁not": 4357,
      "##5'e": 4358,
      "##lılıgını": 4359,
      "▁sair": 4360,
      "##;": 4361,
      "▁sirk": 4362,
      "▁efendim": 4363,
      "##adel": 4364,
      "▁savası": 4365,
      "##ınca": 4366,
      "▁bizi": 4367,
      "▁kıyı": 4368,
      "##masını": 4369,
      "▁bicim": 4370,
      "▁posta": 4371,
      "▁olabilirdi": 4372,
      "▁enst": 4373,
      "▁isg": 4374,
      "▁atlar": 4375,
      "##ır": 4376,
      "▁sorustur": 4377,
      "##ciler": 4378,
      "##eviz": 4379,
      "##abil": 4380,
      "▁s": 4381,
      "▁fabrik": 4382,
      "▁gerekti": 4383,
      "##etici": 4384,
      "##+": 4385,
      "▁eksiklikler": 4386,
      "##dam": 4387,
      "##lamıs": 4388,
      "▁tatlı": 4389,
      "▁hal": 4390,
      "▁reh": 4391,
      "▁ref": 4392,
      "▁karsıya": 4393,
      "▁ile": 4394,
      "##ska": 4395,
      "▁seri": 4396,
      "▁cuzdan": 4397,
      "▁satmak": 4398,
      "▁kamyon": 4399,
      "##emem": 4400,
      "▁koy": 4401,
      "▁lan": 4402,
      "▁hamur": 4403,
      "▁siyas": 4404,
      "▁sekl": 4405,
      "▁buraya": 4406,
      "▁kurulunun": 4407,
      "▁ip": 4408,
      "##wa": 4409,
      "▁cıkan": 4410,
      "##abet": 4411,
      "##ıntı": 4412,
      "▁derec": 4413,
      "▁taks": 4414,
      "▁dedi": 4415,
      "▁geliyordu": 4416,
      "▁ayd": 4417,
      "▁ilgil": 4418,
      "##ig": 4419,
      "▁ucretleri": 4420,
      "##rlikte": 4421,
      "▁gorusuldu": 4422,
      "▁ogretmen": 4423,
      "▁mat": 4424,
      "▁yolu": 4425,
      "##asını": 4426,
      "▁bit": 4427,
      "##leme": 4428,
      "##'nın": 4429,
      "▁ici": 4430,
      "▁ten": 4431,
      "▁ask": 4432,
      "▁bakıma": 4433,
      "▁im": 4434,
      "▁makinesi": 4435,
      "▁siparis": 4436,
      "##iski": 4437,
      "##ble": 4438,
      "▁nufus": 4439,
      "##lardan": 4440,
      "##yız": 4441,
      "##abı": 4442,
      "##istirdi": 4443,
      "##00": 4444,
      "▁havaal": 4445,
      "▁basım": 4446,
      "▁ayv": 4447,
      "▁surpr": 4448,
      "▁yıllarda": 4449,
      "##eceksin": 4450,
      "▁atol": 4451,
      "▁it": 4452,
      "▁hatta": 4453,
      "▁yab": 4454,
      "▁anı": 4455,
      "▁sonra": 4456,
      "▁buna": 4457,
      "▁dolayi": 4458,
      "▁turku": 4459,
      "▁sikay": 4460,
      "▁aray": 4461,
      "▁yaklasımı": 4462,
      "##ıs": 4463,
      "▁cocuklarını": 4464,
      "▁yılların": 4465,
      "▁traf": 4466,
      "▁parası": 4467,
      "▁tahvilleri": 4468,
      "▁kanal": 4469,
      "▁acent": 4470,
      "▁mısır": 4471,
      "▁tekrar": 4472,
      "▁odalar": 4473,
      "##alif": 4474,
      "▁nik": 4475,
      "▁tip": 4476,
      "▁197": 4477,
      "##layıp": 4478,
      "▁japon": 4479,
      "▁kek": 4480,
      "▁sıg": 4481,
      "▁kanı": 4482,
      "▁sahada": 4483,
      "▁oyuncak": 4484,
      "▁meyhan": 4485,
      "##ine": 4486,
      "▁bununla": 4487,
      "▁laik": 4488,
      "##ilmis": 4489,
      "##mektedir": 4490,
      "▁proj": 4491,
      "▁eglen": 4492,
      "▁isci": 4493,
      "▁odedigim": 4494,
      "##aret": 4495,
      "▁7'den": 4496,
      "▁dustugunu": 4497,
      "9": 4498,
      "▁sob": 4499,
      "▁donem": 4500,
      "▁senar": 4501,
      "##suzluk": 4502,
      "▁harp": 4503,
      "##etleri": 4504,
      "▁omr": 4505,
      "▁kaynagı": 4506,
      "##3'e": 4507,
      "▁koltuklar": 4508,
      "##dıklarını": 4509,
      "##emde": 4510,
      "▁dik": 4511,
      "▁vapur": 4512,
      "▁goturdu": 4513,
      "##dem": 4514,
      "▁zayifti": 4515,
      "▁sahili": 4516,
      "▁makineler": 4517,
      "▁futbolcu": 4518,
      "▁kurumları": 4519,
      "##'s": 4520,
      "##ov": 4521,
      "▁kayb": 4522,
      "▁ucu": 4523,
      "##fen": 4524,
      "▁sayet": 4525,
      "▁nedenlerden": 4526,
      "▁ulkemiz": 4527,
      "▁gunlerini": 4528,
      "##-sat": 4529,
      "▁huk": 4530,
      "##dil": 4531,
      "▁balayi": 4532,
      "▁konuk": 4533,
      "▁maas": 4534,
      "▁merh": 4535,
      "▁cercevesinde": 4536,
      "##ch": 4537,
      "##uguna": 4538,
      "▁zira": 4539,
      "##lattı": 4540,
      "##arında": 4541,
      "▁baskaları": 4542,
      "▁meger": 4543,
      "▁bey": 4544,
      "##tıgı": 4545,
      "##gil": 4546,
      "▁ur": 4547,
      "▁tercih": 4548,
      "▁zeytin": 4549,
      "▁ef": 4550,
      "▁rut": 4551,
      "##esi": 4552,
      "##lıp": 4553,
      "▁matem": 4554,
      "##madan": 4555,
      "▁gayret": 4556,
      "▁olun": 4557,
      "▁aktar": 4558,
      "▁bilgisayar": 4559,
      "##bil": 4560,
      "▁uygul": 4561,
      "▁odasında": 4562,
      "##acaklarını": 4563,
      "▁he": 4564,
      "▁masasında": 4565,
      "##aydı": 4566,
      "▁temsil": 4567,
      "▁sana": 4568,
      "##mey": 4569,
      "▁nedir": 4570,
      "▁ihracat": 4571,
      "▁iscilerin": 4572,
      "##ani": 4573,
      "##yı": 4574,
      "##uye": 4575,
      "▁gercek": 4576,
      "▁canı": 4577,
      "▁fakat": 4578,
      "▁anayas": 4579,
      "▁saatlerde": 4580,
      "▁lok": 4581,
      "▁yasına": 4582,
      "▁kenara": 4583,
      "▁kavram": 4584,
      "▁kemik": 4585,
      "##endi": 4586,
      "▁yonet": 4587,
      "##cek": 4588,
      "##ash": 4589,
      "##lendirme": 4590,
      "##amın": 4591,
      "▁mudahale": 4592,
      "▁karg": 4593,
      "▁takv": 4594,
      "▁tahmini": 4595,
      "▁begenmedim": 4596,
      "##uz": 4597,
      "▁contin": 4598,
      "##agın": 4599,
      "##iza": 4600,
      "▁etme": 4601,
      "##re": 4602,
      "▁getirir": 4603,
      "##let": 4604,
      "▁yardımcı": 4605,
      "▁davr": 4606,
      "##uru": 4607,
      "##lanır": 4608,
      "##edigim": 4609,
      "▁hali": 4610,
      "▁ayag": 4611,
      "▁carsaflar": 4612,
      "▁fırsat": 4613,
      "##ız": 4614,
      "##dikleri": 4615,
      "▁dogrult": 4616,
      "▁senator": 4617,
      "##umuz": 4618,
      "▁gidis": 4619,
      "▁dukkan": 4620,
      "▁okuyucu": 4621,
      "▁arabanın": 4622,
      "▁azdi": 4623,
      "▁ist": 4624,
      "##how": 4625,
      "▁bel": 4626,
      "▁portf": 4627,
      "##osunda": 4628,
      "##macı": 4629,
      "(": 4630,
      "▁fiz": 4631,
      "▁yoluna": 4632,
      "▁gibi": 4633,
      "▁belli": 4634,
      "▁yenilik": 4635,
      "##eci": 4636,
      "▁aktarmalı": 4637,
      "▁af": 4638,
      "##burg": 4639,
      "▁umur": 4640,
      "▁damak": 4641,
      "▁halde": 4642,
      "##akat": 4643,
      "▁olimpiyat": 4644,
      "▁icten": 4645,
      "▁ceviri": 4646,
      "▁istiyor": 4647,
      "▁cesitlilik": 4648,
      "▁uzeri": 4649,
      "▁galib": 4650,
      "▁gon": 4651,
      "g": 4652,
      "##inlik": 4653,
      "##ıdır": 4654,
      "▁duvara": 4655,
      "▁olmustu": 4656,
      "▁parayı": 4657,
      "▁pansiyon": 4658,
      "▁hedefi": 4659,
      "##emmel": 4660,
      "▁kadınları": 4661,
      "##bası": 4662,
      "##angi": 4663,
      "▁cıkmıs": 4664,
      "▁dak": 4665,
      "▁yerinden": 4666,
      "▁tabir": 4667,
      "▁sap": 4668,
      "##ou": 4669,
      "▁adalet": 4670,
      "##teri": 4671,
      "▁kapanıs": 4672,
      "▁hizmet": 4673,
      "▁mustes": 4674,
      "##tıp": 4675,
      "##form": 4676,
      "##dikler": 4677,
      "▁seftali": 4678,
      "▁seg": 4679,
      "##erdi": 4680,
      "▁alb": 4681,
      "/": 4682,
      "▁onc": 4683,
      "▁emir": 4684,
      "▁konferans": 4685,
      "▁otelin": 4686,
      "##to": 4687,
      "##ekk": 4688,
      "▁duygu": 4689,
      "▁sona": 4690,
      "▁isterim": 4691,
      "##istan": 4692,
      "▁isc": 4693,
      "▁geri": 4694,
      "▁olur": 4695,
      "▁yonelik": 4696,
      "▁temsilcileri": 4697,
      "▁uc": 4698,
      "▁satıslara": 4699,
      "▁cıkıyor": 4700,
      "▁kapandı": 4701,
      "##lamam": 4702,
      "▁fazla": 4703,
      "##elim": 4704,
      "▁aleyh": 4705,
      "##eren": 4706,
      "▁zar": 4707,
      "▁yerini": 4708,
      "▁zir": 4709,
      "▁protest": 4710,
      "▁piyasada": 4711,
      "▁rehberimiz": 4712,
      "▁chic": 4713,
      "▁phil": 4714,
      "▁": 4715,
      "##tiy": 4716,
      "▁kısk": 4717,
      "▁toplum": 4718,
      "##kinden": 4719,
      "##izma": 4720,
      "▁calısanlar": 4721,
      "▁dolap": 4722,
      "##gın": 4723,
      "##sanız": 4724,
      "▁sacları": 4725,
      "▁yolları": 4726,
      "##lup": 4727,
      "##tig": 4728,
      "▁gerekc": 4729,
      "##aların": 4730,
      "##acı": 4731,
      "##s": 4732,
      "▁muzigi": 4733,
      "▁havayollarını": 4734,
      "▁son": 4735,
      "▁basarılı": 4736,
      "▁rez": 4737,
      "▁tuvalet": 4738,
      "n": 4739,
      "▁dus": 4740,
      "▁hacı": 4741,
      "▁dusmus": 4742,
      "▁tehd": 4743,
      "▁netic": 4744,
      "▁gucluk": 4745,
      "▁ihtiyacları": 4746,
      "##dugunu": 4747,
      "##unku": 4748,
      "▁ulk": 4749,
      "##uf": 4750,
      "▁abon": 4751,
      "▁$": 4752,
      "▁evla": 4753,
      "▁fiyati": 4754,
      "▁hissesi": 4755,
      "##ef": 4756,
      "▁pay": 4757,
      "##'ye": 4758,
      "▁eslik": 4759,
      "##paz": 4760,
      "▁harek": 4761,
      "▁ittif": 4762,
      "##sine": 4763,
      "##yip": 4764,
      "##acının": 4765,
      "##inc": 4766,
      "▁uste": 4767,
      "▁bilet": 4768,
      "▁bulmak": 4769,
      "▁maliyeti": 4770,
      "##siyon": 4771,
      "▁.)": 4772,
      "▁dısarıda": 4773,
      "▁arttıgını": 4774,
      "▁bahc": 4775,
      "##abilecegini": 4776,
      "▁haziran": 4777,
      "▁arkadasları": 4778,
      "▁ni": 4779,
      "##emedim": 4780,
      "▁baslamak": 4781,
      "▁toparlan": 4782,
      "▁varlıklar": 4783,
      "▁eksik": 4784,
      "▁burun": 4785,
      "##gınlık": 4786,
      "##istel": 4787,
      "▁kul": 4788,
      "▁bakan": 4789,
      "##umuza": 4790,
      "▁ozelligi": 4791,
      "##sıyla": 4792,
      "##liyat": 4793,
      "▁kampan": 4794,
      "##ısız": 4795,
      "▁ediyor": 4796,
      "##ter": 4797,
      "▁muddet": 4798,
      "##ren": 4799,
      "##dırım": 4800,
      "▁edecegini": 4801,
      "▁pan": 4802,
      "▁haz": 4803,
      "▁fransız": 4804,
      "▁komisyonlar": 4805,
      "▁ayaklarının": 4806,
      "▁sekil": 4807,
      "▁turuna": 4808,
      "##rik": 4809,
      "▁ruh": 4810,
      "▁olcu": 4811,
      "▁anası": 4812,
      "▁bilgilendir": 4813,
      "▁ab": 4814,
      "▁%8": 4815,
      "▁bundan": 4816,
      "▁gunler": 4817,
      "##ian": 4818,
      "##arda": 4819,
      "▁ucuslarla": 4820,
      "▁takip": 4821,
      "▁ordu": 4822,
      "##tık": 4823,
      "▁tuketiciler": 4824,
      "▁ele": 4825,
      "▁mutluluk": 4826,
      "##'daki": 4827,
      "▁mur": 4828,
      "▁sac": 4829,
      "▁oakland'a": 4830,
      "##daydi": 4831,
      "▁satıslar": 4832,
      "▁fiyatları": 4833,
      "▁kagıd": 4834,
      "▁mutf": 4835,
      "▁paylas": 4836,
      "▁su": 4837,
      "▁tom": 4838,
      "##ınlık": 4839,
      "▁gucu": 4840,
      "▁halka": 4841,
      "▁heyet": 4842,
      "##ore": 4843,
      "##cıları": 4844,
      "▁veririm": 4845,
      "▁masal": 4846,
      "##lim": 4847,
      "▁hav": 4848,
      "##cagı": 4849,
      "##mıstır": 4850,
      "▁yuzden": 4851,
      "▁marka": 4852,
      "##artesi": 4853,
      "▁hafız": 4854,
      "▁kuyr": 4855,
      "##ınızı": 4856,
      "▁--": 4857,
      "▁masada": 4858,
      "▁kan": 4859,
      "▁araya": 4860,
      "##isini": 4861,
      "▁temyiz": 4862,
      "##dak": 4863,
      "▁kira": 4864,
      "##cih": 4865,
      "##edi": 4866,
      "▁pamuk": 4867,
      "##las": 4868,
      "▁dedikodu": 4869,
      "▁mus": 4870,
      "▁teori": 4871,
      "▁ic": 4872,
      "##ilir": 4873,
      "▁sirketler": 4874,
      "▁muhafazak": 4875,
      "##un": 4876,
      "▁evlerinin": 4877,
      "##lerinde": 4878,
      "▁hacim": 4879,
      "▁hul": 4880,
      "▁basa": 4881,
      "▁suruyor": 4882,
      "▁har": 4883,
      "▁mum": 4884,
      "▁oyuncu": 4885,
      "##ladıgını": 4886,
      "▁kasab": 4887,
      "▁bekliyor": 4888,
      "▁kullan": 4889,
      "##7": 4890,
      "▁sıcak": 4891,
      "▁tır": 4892,
      "##eticisi": 4893,
      "▁yonetmen": 4894,
      "8": 4895,
      "##iyle": 4896,
      "▁hepimiz": 4897,
      "##unun": 4898,
      "▁baskalarının": 4899,
      "##lusu": 4900,
      "##umsal": 4901,
      "##yuzlu": 4902,
      "▁felaket": 4903,
      "▁musterileri": 4904,
      "▁koridor": 4905,
      "##lamasını": 4906,
      "▁zengin": 4907,
      "▁gey": 4908,
      "▁ceb": 4909,
      "▁muhal": 4910,
      "▁luk": 4911,
      "▁saygı": 4912,
      "▁ız": 4913,
      "▁olmustur": 4914,
      "▁paranin": 4915,
      "##ardan": 4916,
      "▁sezon": 4917,
      "▁ner": 4918,
      "▁hukumet": 4919,
      "▁ves": 4920,
      "▁gelecek": 4921,
      "▁ipek": 4922,
      ")": 4923,
      "▁hizm": 4924,
      "▁biber": 4925,
      "▁arazi": 4926,
      "##uyla": 4927,
      "##kır": 4928,
      "##ıgının": 4929,
      "▁degn": 4930,
      "##tun": 4931,
      "▁vermek": 4932,
      "▁veriyorum": 4933,
      "▁le": 4934,
      "##ımı": 4935,
      "##asi": 4936,
      "▁oglen": 4937,
      "▁l": 4938,
      "▁ucagı": 4939,
      "▁ecz": 4940,
      "▁er": 4941,
      "##asına": 4942,
      "▁yoneticileri": 4943,
      "▁muh": 4944,
      "▁durumdan": 4945,
      "▁kuc": 4946,
      "▁data": 4947,
      "▁miting": 4948,
      "▁fonu": 4949,
      "▁av": 4950,
      "▁odak": 4951,
      "▁muhab": 4952,
      "▁en": 4953,
      "▁turlu": 4954,
      "▁secen": 4955,
      "▁yav": 4956,
      "▁aj": 4957,
      "▁50": 4958,
      "##larımızı": 4959,
      "##ikat": 4960,
      "##altı": 4961,
      "##ni": 4962,
      "##ill": 4963,
      "▁etmem": 4964,
      "▁iliskiler": 4965,
      "▁fi": 4966,
      "##ecilik": 4967,
      "##alara": 4968,
      "▁kot": 4969,
      "▁ulasım": 4970,
      "##ekl": 4971,
      "##must": 4972,
      "▁atıl": 4973,
      "▁buc": 4974,
      "##cev": 4975,
      "##ana": 4976,
      "▁cıkarma": 4977,
      "▁anim": 4978,
      "▁dil": 4979,
      "▁bulundugu": 4980,
      "▁dunyanın": 4981,
      "▁tez": 4982,
      "▁burokr": 4983,
      "▁olus": 4984,
      "▁seyahat": 4985,
      "▁heyec": 4986,
      "##acagım": 4987,
      "▁dayak": 4988,
      "##ktu": 4989,
      "▁avukat": 4990,
      "▁dc": 4991,
      "▁tadimiza": 4992,
      "▁icecekler": 4993,
      "▁kasabaya": 4994,
      "▁bez": 4995,
      "▁yasad": 4996,
      "▁rom": 4997,
      "▁yard": 4998,
      "##ustur": 4999,
      "##000": 5000,
      "##oyu": 5001,
      "▁tenek": 5002,
      "▁soya": 5003,
      "▁%4": 5004,
      "##eksiyon": 5005,
      "▁bildirdi": 5006,
      "▁alımı": 5007,
      "##tum": 5008,
      "##5": 5009,
      "##ika": 5010,
      "▁etmis": 5011,
      "▁ozgur": 5012,
      "▁haberi": 5013,
      "▁isp": 5014,
      "▁cek": 5015,
      "▁kapının": 5016,
      "▁istemiyorum": 5017,
      "##ide": 5018,
      "▁tahıl": 5019,
      "▁kisiler": 5020,
      "▁borcu": 5021,
      "▁yastık": 5022,
      "▁sirketlerin": 5023,
      "▁ikti": 5024,
      "▁portakal": 5025,
      "▁tesebbus": 5026,
      "##gru": 5027,
      "##00'e": 5028,
      "▁ucuslar": 5029,
      "▁cocuklar": 5030,
      "##geleri": 5031,
      "##cuk": 5032,
      "▁polis": 5033,
      "##apon": 5034,
      "▁elbette": 5035,
      "▁zorunda": 5036,
      "##ber": 5037,
      "▁reform": 5038,
      "▁noktasına": 5039,
      "▁denizinden": 5040,
      "▁kesinlikle": 5041,
      "▁kurallar": 5042,
      "##aca": 5043,
      "▁baslamıstı": 5044,
      "##amiza": 5045,
      "▁fab": 5046,
      "▁dusuktu": 5047,
      "—": 5048,
      "▁ilgilen": 5049,
      "▁isin": 5050,
      "##likte": 5051,
      "▁tekl": 5052,
      "▁top": 5053,
      "▁benim": 5054,
      "▁ho": 5055,
      "▁ydı": 5056,
      "▁kıskanc": 5057,
      "▁birlik": 5058,
      "▁kirp": 5059,
      "▁milletvekili": 5060,
      "▁dair": 5061,
      "##asır": 5062,
      "▁degerlendiririm": 5063,
      "##'na": 5064,
      "▁akıl": 5065,
      "▁cır": 5066,
      "▁basarı": 5067,
      "▁partisi": 5068,
      "▁tipi": 5069,
      "##amdan": 5070,
      "▁zararı": 5071,
      "##man": 5072,
      "▁koye": 5073,
      "▁sadece": 5074,
      "##geler": 5075,
      "##iyete": 5076,
      "▁sel": 5077,
      "▁elektrik": 5078,
      "##eral": 5079,
      "▁zamanı": 5080,
      "▁icinde": 5081,
      "▁tabur": 5082,
      "▁diyet": 5083,
      "▁din": 5084,
      "▁model": 5085,
      "##alarıyla": 5086,
      "▁tutun": 5087,
      "▁dusunc": 5088,
      "▁mikrop": 5089,
      "##meye": 5090,
      "▁havalim": 5091,
      "▁yası": 5092,
      "##idi": 5093,
      "▁hafif": 5094,
      "▁veya": 5095,
      "▁corp": 5096,
      "##mamıs": 5097,
      "▁ede": 5098,
      "▁oyuncular": 5099,
      "▁ogr": 5100,
      "##larımızın": 5101,
      "▁stok": 5102,
      "##sızlık": 5103,
      "##kt": 5104,
      "▁duv": 5105,
      "▁san": 5106,
      "▁yasama": 5107,
      "▁patlıcan": 5108,
      "##acıları": 5109,
      "▁inan": 5110,
      "▁sahne": 5111,
      "▁etmez": 5112,
      "▁pir": 5113,
      "▁dolay": 5114,
      "▁dur": 5115,
      "▁karayolu": 5116,
      "##atın": 5117,
      "##iyorlardı": 5118,
      "##ıyoruz": 5119,
      "##ıyla": 5120,
      "▁matematik": 5121,
      "▁yaln": 5122,
      "▁ilgisizdi": 5123,
      "##gan": 5124,
      "▁dusman": 5125,
      "##ikleri": 5126,
      "##sun": 5127,
      "▁misafir": 5128,
      "##apark": 5129,
      "##ebilmek": 5130,
      "▁sahibi": 5131,
      "▁istif": 5132,
      "▁animasyon": 5133,
      "▁sistem": 5134,
      "▁kısmını": 5135,
      "▁sezlon": 5136,
      "##onu": 5137,
      "▁k": 5138,
      "▁olmayacak": 5139,
      "▁aga": 5140,
      "▁ablam": 5141,
      "▁agacı": 5142,
      "##inler": 5143,
      "▁gov": 5144,
      "▁mud": 5145,
      "▁olmadıgı": 5146,
      "##uki": 5147,
      "##go": 5148,
      "▁azal": 5149,
      "▁aca": 5150,
      "▁bayram": 5151,
      "##ited": 5152,
      "▁yoksul": 5153,
      "▁araz": 5154,
      "▁cel": 5155,
      "##lıgın": 5156,
      "▁gelecegi": 5157,
      "▁leh": 5158,
      "▁gunleri": 5159,
      "▁hap": 5160,
      "##ele": 5161,
      "▁bonolar": 5162,
      "▁mutla": 5163,
      "▁fakir": 5164,
      "##kun": 5165,
      "▁mun": 5166,
      "##aki": 5167,
      "▁baslarını": 5168,
      "▁yoksa": 5169,
      "##aklık": 5170,
      "▁tac": 5171,
      "▁fedakar": 5172,
      "##bab": 5173,
      "▁deg": 5174,
      "##ebilecegini": 5175,
      "▁turb": 5176,
      "▁taht": 5177,
      "##masına": 5178,
      "▁diger": 5179,
      "▁esyalar": 5180,
      "▁sigortası": 5181,
      "▁fayda": 5182,
      "##amak": 5183,
      "▁tutmak": 5184,
      "▁kariyer": 5185,
      "▁esya": 5186,
      "▁kafa": 5187,
      "##uvar": 5188,
      "▁lezzetleri": 5189,
      "##erken": 5190,
      "▁baktı": 5191,
      "▁karmas": 5192,
      "▁pek": 5193,
      "##aj": 5194,
      "▁americ": 5195,
      "▁7": 5196,
      "▁havaalanından": 5197,
      "▁sanki": 5198,
      "▁yerine": 5199,
      "▁otur": 5200,
      "▁vucut": 5201,
      "▁kucuk": 5202,
      "##u": 5203,
      "▁c": 5204,
      "▁yapmayı": 5205,
      "▁onu": 5206,
      "▁odaya": 5207,
      "▁penc": 5208,
      "▁isler": 5209,
      "▁onemi": 5210,
      "▁ucusları": 5211,
      "▁duvarda": 5212,
      "##ington": 5213,
      "▁acı": 5214,
      "##ince": 5215,
      "▁kelep": 5216,
      "##ugunda": 5217,
      "▁vadesi": 5218,
      "▁demokr": 5219,
      "▁mill": 5220,
      "##ektedir": 5221,
      "▁islerin": 5222,
      "▁temiz": 5223,
      "##dıgı": 5224,
      "▁bili": 5225,
      "▁boston'a": 5226,
      "##per": 5227,
      "##kul": 5228,
      "▁ugras": 5229,
      "##'nden": 5230,
      "▁herk": 5231,
      "##ilig": 5232,
      "▁yonetiminin": 5233,
      "##arlan": 5234,
      "▁oyuncusu": 5235,
      "##lerek": 5236,
      "##fih": 5237,
      "▁seviyede": 5238,
      "▁pittsburgh'tan": 5239,
      "▁onlara": 5240,
      "▁kırm": 5241,
      "▁beden": 5242,
      "▁new": 5243,
      "▁karıstır": 5244,
      "▁carsaf": 5245,
      "##bah": 5246,
      "##ındaki": 5247,
      "▁hicbir": 5248,
      "▁arkadası": 5249,
      "##ekli": 5250,
      "▁tarife": 5251,
      "##ost": 5252,
      "▁acılıs": 5253,
      "▁us": 5254,
      "##gır": 5255,
      "▁indianapolis": 5256,
      "▁geldigini": 5257,
      "▁surecin": 5258,
      "##otte": 5259,
      "▁ihtiyacı": 5260,
      "▁gozyas": 5261,
      "##deydi": 5262,
      "▁oyle": 5263,
      "▁duyar": 5264,
      "▁bor": 5265,
      "▁kisileri": 5266,
      "▁cumhuriyetciler": 5267,
      "▁sebz": 5268,
      "▁degerleri": 5269,
      "##ımları": 5270,
      "▁harit": 5271,
      "▁baskısı": 5272,
      "▁isabet": 5273,
      "▁danısmanı": 5274,
      "##memek": 5275,
      "▁derece": 5276,
      "▁surede": 5277,
      "▁yorum": 5278,
      "▁ellerinden": 5279,
      "##ib": 5280,
      "▁diplom": 5281,
      "##ugum": 5282,
      "▁la": 5283,
      "##erlik": 5284,
      "##amay": 5285,
      "▁daha": 5286,
      "▁oneri": 5287,
      "▁pab": 5288,
      "▁yaprak": 5289,
      "▁degisiklik": 5290,
      "▁zav": 5291,
      "▁yapısı": 5292,
      "##evi": 5293,
      "▁kav": 5294,
      "▁fen": 5295,
      "▁basımı": 5296,
      "##dek": 5297,
      "▁devrim": 5298,
      "▁stu": 5299,
      "##ra": 5300,
      "##satı": 5301,
      "▁gorev": 5302,
      "▁sms": 5303,
      "▁git": 5304,
      "▁birlesme": 5305,
      "▁demokratlar": 5306,
      "▁delik": 5307,
      "▁salt": 5308,
      "##impiyat": 5309,
      "▁politika": 5310,
      "##lanıyor": 5311,
      "##ası": 5312,
      "…": 5313,
      "##iyordu": 5314,
      "▁burada": 5315,
      "▁anlasması": 5316,
      "##lıyor": 5317,
      "▁op": 5318,
      "▁gosteri": 5319,
      "▁havaliman": 5320,
      "▁isbir": 5321,
      "▁ulasımını": 5322,
      "▁gecmiste": 5323,
      "##ecegine": 5324,
      "▁ciz": 5325,
      "▁basımıza": 5326,
      "▁duygusu": 5327,
      "▁yaptı": 5328,
      "▁seferinde": 5329,
      "##larından": 5330,
      "▁demokrasi": 5331,
      "##erin": 5332,
      "▁27": 5333,
      "▁halkın": 5334,
      "▁koylu": 5335,
      "▁delikan": 5336,
      "▁ortada": 5337,
      "##ırken": 5338,
      "▁pr": 5339,
      "▁serin": 5340,
      "2": 5341,
      "▁olsun": 5342,
      "▁eylem": 5343,
      "▁acıldı": 5344,
      "▁medeniyet": 5345,
      "▁geldi": 5346,
      "▁tadını": 5347,
      "▁gozlerinden": 5348,
      "▁ig": 5349,
      "▁tuv": 5350,
      "▁olması": 5351,
      "▁kalit": 5352,
      "▁temizlik": 5353,
      "▁yerler": 5354,
      "▁kalkıs": 5355,
      "##kinin": 5356,
      "▁cer": 5357,
      "##akin": 5358,
      "▁isbirligi": 5359,
      "▁guleryuzlu": 5360,
      "▁onları": 5361,
      "##memiz": 5362,
      "▁bakar": 5363,
      "▁dom": 5364,
      "▁hamam": 5365,
      "▁alındı": 5366,
      "##amız": 5367,
      "▁hayır": 5368,
      "##kım": 5369,
      "▁geceleri": 5370,
      "▁bil": 5371,
      "##medik": 5372,
      "▁oncesine": 5373,
      "▁gostermek": 5374,
      "▁agzında": 5375,
      "▁veg": 5376,
      "▁duygular": 5377,
      "▁ameliyat": 5378,
      "▁etrafına": 5379,
      "▁tamir": 5380,
      "##lukte": 5381,
      "▁mevzu": 5382,
      "▁…": 5383,
      "▁yeten": 5384,
      "##9": 5385,
      "##a": 5386,
      "##lari": 5387,
      "▁cumhuriyeti": 5388,
      "▁ciro": 5389,
      "▁haklarını": 5390,
      "##liligini": 5391,
      "▁yılının": 5392,
      "▁laf": 5393,
      "▁gorevli": 5394,
      "▁komur": 5395,
      "▁kopek": 5396,
      "▁mak": 5397,
      "▁degerlendir": 5398,
      "▁11": 5399,
      "▁sonuclarını": 5400,
      "▁sok": 5401,
      "▁mukelle": 5402,
      "▁hosuma": 5403,
      "##makt": 5404,
      "▁imkanlar": 5405,
      "▁likid": 5406,
      "▁tahta": 5407,
      "▁ticareti": 5408,
      "▁sozcuk": 5409,
      "##iki": 5410,
      "##an": 5411,
      "##emizin": 5412,
      "##ard": 5413,
      "##iz": 5414,
      "▁kalk": 5415,
      "▁reviz": 5416,
      "##evizyon": 5417,
      "#": 5418,
      "▁seye": 5419,
      "▁durumda": 5420,
      "##lıgıyla": 5421,
      "▁yenil": 5422,
      "##dum": 5423,
      "##ınızda": 5424,
      "▁5'ten": 5425,
      "##lk": 5426,
      "##alarla": 5427,
      "▁piyasasında": 5428,
      ":": 5429,
      "##fet": 5430,
      "▁hurriyet": 5431,
      "▁tedarik": 5432,
      "▁francisco": 5433,
      "##illeri": 5434,
      "▁bilgis": 5435,
      "▁kıyıya": 5436,
      "▁yoluyla": 5437,
      "▁karsilik": 5438,
      "▁akt": 5439,
      "▁uzmanları": 5440,
      "##gunluk": 5441,
      "##um": 5442,
      "▁cıl": 5443,
      "##larda": 5444,
      "▁kısıt": 5445,
      "##lesi": 5446,
      "▁ilan": 5447,
      "##ilmesine": 5448,
      "▁bakmak": 5449,
      "▁payları": 5450,
      "▁ısı": 5451,
      "▁tabi": 5452,
      "▁alın": 5453,
      "▁koruma": 5454,
      "##ugu": 5455,
      "▁olduklarını": 5456,
      "▁donus": 5457,
      "▁erik": 5458,
      "▁mektu": 5459,
      "▁etkinlik": 5460,
      "##izm": 5461,
      "##ileri": 5462,
      "##eden": 5463,
      "▁dagın": 5464,
      "▁gorevi": 5465,
      "▁hou": 5466,
      "##lo": 5467,
      "##leti": 5468,
      "##ustos": 5469,
      "▁var": 5470,
      "▁tarz": 5471,
      "▁alak": 5472,
      "▁getirmek": 5473,
      "##ucuk": 5474,
      "▁hur": 5475,
      "##lere": 5476,
      "▁okur": 5477,
      "▁parlam": 5478,
      "▁terk": 5479,
      "▁enerji": 5480,
      "▁yetenek": 5481,
      "##lam": 5482,
      "##gam": 5483,
      "##eligini": 5484,
      "▁rad": 5485,
      "▁bunun": 5486,
      "▁mikr": 5487,
      "▁okudu": 5488,
      "##ent": 5489,
      "▁bul": 5490,
      "▁eliyle": 5491,
      "▁girdi": 5492,
      "▁plastik": 5493,
      "▁sas": 5494,
      "▁arasında": 5495,
      "##lge": 5496,
      "▁etmedi": 5497,
      "▁hizmeti": 5498,
      "▁biz": 5499,
      "▁parkın": 5500,
      "▁diren": 5501,
      "▁evinin": 5502,
      "▁korun": 5503,
      "▁planlamam": 5504,
      "▁kapital": 5505,
      "##nun": 5506,
      "▁yapının": 5507,
      "▁planları": 5508,
      "▁tahmin": 5509,
      "▁odeme": 5510,
      "▁edilm": 5511,
      "▁nit": 5512,
      "▁sahil": 5513,
      "▁adamları": 5514,
      "▁ustunde": 5515,
      "▁kamu": 5516,
      "▁fonlar": 5517,
      "▁alman": 5518,
      "▁adlı": 5519,
      "▁lis": 5520,
      "▁olmalı": 5521,
      "▁oylama": 5522,
      "##'da": 5523,
      "▁boston'dan": 5524,
      "▁bilim": 5525,
      "▁prob": 5526,
      "▁get": 5527,
      "##cilik": 5528,
      "▁ked": 5529,
      "▁raporları": 5530,
      "▁haberler": 5531,
      "▁labor": 5532,
      "▁continental": 5533,
      "▁yasamını": 5534,
      "##lak": 5535,
      "\"": 5536,
      "▁veyahut": 5537,
      "▁senet": 5538,
      "▁suresi": 5539,
      "▁kop": 5540,
      "▁gidi": 5541,
      "▁ilet": 5542,
      "##emli": 5543,
      "##kat": 5544,
      "▁strate": 5545,
      "##iyorum": 5546,
      "##ıt": 5547,
      "▁ucmam": 5548,
      "▁lif": 5549,
      "▁organ": 5550,
      "▁ib": 5551,
      "▁gunun": 5552,
      "▁cocuklug": 5553,
      "▁ayında": 5554,
      "##ak": 5555,
      "▁pencer": 5556,
      "##imleri": 5557,
      "▁sın": 5558,
      "▁mim": 5559,
      "▁gununu": 5560,
      "▁lazım": 5561,
      "▁geliri": 5562,
      "▁city'e": 5563,
      "▁ork": 5564,
      "##ly": 5565,
      "▁abd": 5566,
      "▁alem": 5567,
      "▁lir": 5568,
      "▁islemlerinde": 5569,
      "▁lakin": 5570,
      "▁birinin": 5571,
      "▁ka": 5572,
      "▁birkac": 5573,
      "##sizdi": 5574,
      "▁iyiydi": 5575,
      "▁gob": 5576,
      "▁elimi": 5577,
      "##ugunun": 5578,
      "▁cev": 5579,
      "▁temer": 5580,
      "▁her": 5581,
      "##ısını": 5582,
      "▁kendisini": 5583,
      "▁teknoloj": 5584,
      "##ara": 5585,
      "##dıg": 5586,
      "##inleri": 5587,
      "▁form": 5588,
      "##ond": 5589,
      "##uyorlar": 5590,
      "##dig": 5591,
      "##&": 5592,
      "▁birey": 5593,
      "##ecekti": 5594,
      "▁etkin": 5595,
      "▁tulum": 5596,
      "##imle": 5597,
      "▁cig": 5598,
      "▁ogrenciler": 5599,
      "▁parcası": 5600,
      "▁fotograf": 5601,
      "▁icra": 5602,
      "##ıgı": 5603,
      "▁co.": 5604,
      "▁$'a": 5605,
      "▁sarkı": 5606,
      "▁baslamıs": 5607,
      "▁oldum": 5608,
      "▁reklamlar": 5609,
      "##:": 5610,
      "##eni": 5611,
      "▁bence": 5612,
      "▁bay": 5613,
      "▁gozleriyle": 5614,
      "▁sasır": 5615,
      "▁calısanı": 5616,
      "▁aras": 5617,
      "##rne": 5618,
      "▁sever": 5619,
      "▁ener": 5620,
      "▁ola": 5621,
      "▁got": 5622,
      "▁gost": 5623,
      "▁aksamı": 5624,
      "##dıgımız": 5625,
      "▁barda": 5626,
      "▁pisti": 5627,
      "▁kadınların": 5628,
      "▁“": 5629,
      "##imizi": 5630,
      "##lılık": 5631,
      "▁iceri": 5632,
      "▁yoneticiler": 5633,
      "▁dibine": 5634,
      "▁ihal": 5635,
      "▁ulke": 5636,
      "##elerini": 5637,
      "▁piyan": 5638,
      "▁pilot": 5639,
      "▁rekor": 5640,
      "▁sans": 5641,
      "▁edep": 5642,
      "##air": 5643,
      "##etim": 5644,
      "##mli": 5645,
      "▁uygulama": 5646,
      "▁tedirgin": 5647,
      "▁cumhurbaskanı": 5648,
      "▁teklifin": 5649,
      "##ınız": 5650,
      "▁anda": 5651,
      "▁yeniden": 5652,
      "▁ahlak": 5653,
      "▁olanak": 5654,
      "▁makine": 5655,
      "▁hakk": 5656,
      "▁oranlarının": 5657,
      "▁temet": 5658,
      "▁onay": 5659,
      "▁teklifler": 5660,
      "##ira": 5661,
      "▁gel": 5662,
      "▁tehlike": 5663,
      "▁boyn": 5664,
      "##'t": 5665,
      "▁annem": 5666,
      "▁deprem": 5667,
      "▁akrab": 5668,
      "▁vah": 5669,
      "##ac": 5670,
      "▁yarat": 5671,
      "##tanbul": 5672,
      "##lamalar": 5673,
      "##sil": 5674,
      "▁maliyet": 5675,
      "▁sinema": 5676,
      "▁iddiaları": 5677,
      "▁1.": 5678,
      "##lılıg": 5679,
      "▁teknoloji": 5680,
      "▁inceleme": 5681,
      "▁azınlık": 5682,
      "▁turkc": 5683,
      "##uv": 5684,
      "▁sonrası": 5685,
      "##ı": 5686,
      "##eo": 5687,
      "##ayet": 5688,
      "▁kas": 5689,
      "##enden": 5690,
      "##2": 5691,
      "▁tap": 5692,
      "##lugun": 5693,
      "▁bahceye": 5694,
      "▁dedik": 5695,
      "▁ittifak": 5696,
      "▁ode": 5697,
      "▁ceza": 5698,
      "▁uzman": 5699,
      "▁gorduk": 5700,
      "▁finanse": 5701,
      "▁kapısını": 5702,
      "▁agacın": 5703,
      "▁lezzetliydi": 5704,
      "▁komisyon": 5705,
      "##eticiler": 5706,
      "##iyetini": 5707,
      "▁enflasyon": 5708,
      "▁ogl": 5709,
      "▁yardım": 5710,
      "▁vur": 5711,
      "▁patron": 5712,
      "▁baglant": 5713,
      "##idir": 5714,
      "▁sinir": 5715,
      "▁iceride": 5716,
      "▁ucte": 5717,
      "##ental": 5718,
      "▁paran": 5719,
      "##ladılar": 5720,
      "▁sonu": 5721,
      "##likten": 5722,
      "##urdu": 5723,
      "▁pol": 5724,
      "▁beyaz": 5725,
      "▁faiz": 5726,
      "▁soylen": 5727,
      "▁urunlerin": 5728,
      "▁ay": 5729,
      "##qu": 5730,
      "▁grup": 5731,
      "▁gen": 5732,
      "▁getirisi": 5733,
      "*": 5734,
      "▁%": 5735,
      "▁zorluk": 5736,
      "##mek": 5737,
      "▁cars": 5738,
      "▁199": 5739,
      "##mesini": 5740,
      "▁umid": 5741,
      "▁roportaj": 5742,
      "▁pesinden": 5743,
      "##olis": 5744,
      "▁pencereden": 5745,
      "##rarak": 5746,
      "▁vardi": 5747,
      "▁yapım": 5748,
      "▁coktu": 5749,
      "▁yabancı": 5750,
      "▁bazi": 5751,
      "▁bedel": 5752,
      "▁biles": 5753,
      "▁fery": 5754,
      "▁cift": 5755,
      "##/8": 5756,
      "▁dov": 5757,
      "▁milyona": 5758,
      "##isinin": 5759,
      "##lamadı": 5760,
      "##ulmus": 5761,
      "##orta": 5762,
      "▁insanları": 5763,
      "▁sepet": 5764,
      "▁fabrika": 5765,
      "▁cuval": 5766,
      "▁catal": 5767,
      "▁yem": 5768,
      "##ed": 5769,
      "▁ucuslarını": 5770,
      "▁tarihi": 5771,
      "##bas": 5772,
      "##eg": 5773,
      "▁ayrılık": 5774,
      "▁sık": 5775,
      "▁destek": 5776,
      "##25": 5777,
      "▁terz": 5778,
      "##leg": 5779,
      "▁196": 5780,
      "▁nis": 5781,
      "▁1/": 5782,
      "##dılar": 5783,
      "▁endeks": 5784,
      "▁dagıtım": 5785,
      "▁listel": 5786,
      "▁panik": 5787,
      "▁sandık": 5788,
      "▁gosterdi": 5789,
      "##ilik": 5790,
      "##agi": 5791,
      "▁egitimi": 5792,
      "##anmıs": 5793,
      "▁gazeteci": 5794,
      "▁anım": 5795,
      "▁sonr": 5796,
      "▁str": 5797,
      "▁vil": 5798,
      "##umun": 5799,
      "##uldu": 5800,
      "##aduf": 5801,
      "▁sozunu": 5802,
      "▁yazarı": 5803,
      "▁gecen": 5804,
      "▁sermay": 5805,
      "▁noktası": 5806,
      "▁ong": 5807,
      "▁kendimi": 5808,
      "▁dır": 5809,
      "▁hitap": 5810,
      "##j": 5811,
      "##mıstım": 5812,
      "##eginden": 5813,
      "▁yollarını": 5814,
      "▁alanında": 5815,
      "##lıgına": 5816,
      "▁sokak": 5817,
      "▁petr": 5818,
      "▁tiyatrosu": 5819,
      "##ının": 5820,
      "▁basladım": 5821,
      "▁kaydı": 5822,
      "##att": 5823,
      "▁uygulam": 5824,
      "▁poz": 5825,
      "▁icine": 5826,
      "##up": 5827,
      "▁icimde": 5828,
      "▁sirketi": 5829,
      "▁bol": 5830,
      "##liy": 5831,
      "▁ilham": 5832,
      "##ormal": 5833,
      "▁mevki": 5834,
      "##meyecegini": 5835,
      "##gim": 5836,
      "##ıslar": 5837,
      "##manı": 5838,
      "▁asıl": 5839,
      "▁cil": 5840,
      "▁sen": 5841,
      "##dıgında": 5842,
      "▁hos": 5843,
      "▁dolandır": 5844,
      "▁ayıp": 5845,
      "##ısın": 5846,
      "##ksa": 5847,
      "▁cark": 5848,
      "▁duydu": 5849,
      "▁eski": 5850,
      "m": 5851,
      "▁moda": 5852,
      "▁soylem": 5853,
      "▁anal": 5854,
      "▁uygundu": 5855,
      "▁tic": 5856,
      "##ia": 5857,
      "▁sur": 5858,
      "▁fidan": 5859,
      "##imden": 5860,
      "##meler": 5861,
      "▁komut": 5862,
      "▁endustr": 5863,
      "▁iy": 5864,
      "▁gazete": 5865,
      "##deki": 5866,
      "▁gerektigini": 5867,
      "▁kalıb": 5868,
      "##lanma": 5869,
      "▁mektubu": 5870,
      "▁ayakkabı": 5871,
      "▁programları": 5872,
      "▁philadelphia'ya": 5873,
      "##lanacak": 5874,
      "##gıt": 5875,
      "▁aralık": 5876,
      "▁uretici": 5877,
      "##ebil": 5878,
      "▁ocak": 5879,
      "##ukluk": 5880,
      "▁varsa": 5881,
      "▁direktor": 5882,
      "▁cevresinde": 5883,
      "##yan": 5884,
      "▁b": 5885,
      "▁komsu": 5886,
      "▁guverte": 5887,
      "▁toplamda": 5888,
      "▁ulası": 5889,
      "▁dolara": 5890,
      "▁yetis": 5891,
      "▁5": 5892,
      "▁teskil": 5893,
      "▁eh": 5894,
      "▁vatand": 5895,
      "##oglu": 5896,
      "▁etrafında": 5897,
      "##atını": 5898,
      "▁kızları": 5899,
      "▁darbe": 5900,
      "▁orada": 5901,
      "▁sure": 5902,
      "▁yuz": 5903,
      "##yım": 5904,
      "##mıyor": 5905,
      "▁pla": 5906,
      "▁hisseler": 5907,
      "▁30": 5908,
      "##inizde": 5909,
      "##ceyr": 5910,
      "▁gem": 5911,
      "##ugunu": 5912,
      "▁vardır": 5913,
      "##liginden": 5914,
      "▁iht": 5915,
      "▁aradan": 5916,
      "##iy": 5917,
      "##odu": 5918,
      "▁supur": 5919,
      "▁sars": 5920,
      "▁nerede": 5921,
      "▁eglenc": 5922,
      "▁mail": 5923,
      "▁hast": 5924,
      "▁vazgec": 5925,
      "▁gelirleri": 5926,
      "##oks": 5927,
      "##yasal": 5928,
      "##men": 5929,
      "▁kabil": 5930,
      "▁yild": 5931,
      "##tr": 5932,
      "▁yavr": 5933,
      "▁sask": 5934,
      "▁vak": 5935,
      "▁koltuga": 5936,
      "▁mucadele": 5937,
      "##gıl": 5938,
      "##hiss": 5939,
      "▁21": 5940,
      "▁vap": 5941,
      "##erh": 5942,
      "▁malzemeler": 5943,
      "▁teklifi": 5944,
      "▁gozu": 5945,
      "▁gos": 5946,
      "▁yonetimi": 5947,
      "▁baska": 5948,
      "##lenin": 5949,
      "##ji": 5950,
      "▁masaya": 5951,
      "▁liderleri": 5952,
      "##ledi": 5953,
      "▁metal": 5954,
      "▁bardagı": 5955,
      "▁personellerin": 5956,
      "▁elestir": 5957,
      "▁duvarlar": 5958,
      "##ılmıs": 5959,
      "##avv": 5960,
      "▁yay": 5961,
      "##ligi": 5962,
      "▁kalkıyor": 5963,
      "##ımın": 5964,
      "▁gelmedi": 5965,
      "▁banyo": 5966,
      "▁amma": 5967,
      "##irleri": 5968,
      "▁sus": 5969,
      "##\"": 5970,
      "▁ag": 5971,
      "▁rengi": 5972,
      "▁cicekleri": 5973,
      "▁hukumetin": 5974,
      "▁onunde": 5975,
      "##ediklerini": 5976,
      "▁mukemmel": 5977,
      "▁cenaz": 5978,
      "##yıl": 5979,
      "▁veto": 5980,
      "▁kog": 5981,
      "##kin": 5982,
      "▁nar": 5983,
      "▁attı": 5984,
      "▁gazet": 5985,
      "▁tedar": 5986,
      "▁sosy": 5987,
      "▁fes": 5988,
      "##sman": 5989,
      "##lon": 5990,
      "▁york": 5991,
      "##stır": 5992,
      "▁gokyuz": 5993,
      "▁ko": 5994,
      "▁uyar": 5995,
      "##tim": 5996,
      "▁cay": 5997,
      "##ayı": 5998,
      "▁arkasına": 5999,
      "##gının": 6000,
      "▁siyasi": 6001,
      "▁kusur": 6002,
      "▁personellerden": 6003,
      "▁zeka": 6004,
      "▁st.": 6005,
      "▁a.": 6006,
      "▁bal": 6007,
      "▁dolardan": 6008,
      "▁pac": 6009,
      "▁gecmis": 6010,
      "▁n": 6011,
      "▁asag": 6012,
      "▁zamanda": 6013,
      "▁mes": 6014,
      "▁satıcı": 6015,
      "▁vef": 6016,
      "##erindeki": 6017,
      "▁cam": 6018,
      "-": 6019,
      "##oh": 6020,
      "▁bugday": 6021,
      "▁muzakere": 6022,
      "▁rıh": 6023,
      "##adıgını": 6024,
      "▁”": 6025,
      "▁yaptir": 6026,
      "##tigine": 6027,
      "##arası": 6028,
      "##fi": 6029,
      "▁bugunun": 6030,
      "▁halbuki": 6031,
      "▁tayin": 6032,
      "##70'": 6033,
      "▁yurur": 6034,
      "▁mulk": 6035,
      "▁gece": 6036,
      "▁gostergeleri": 6037,
      "▁arac": 6038,
      "▁karakol": 6039,
      "##eceg": 6040,
      "##uyorum": 6041,
      "▁maliye": 6042,
      "##rı": 6043,
      "▁rutub": 6044,
      "▁baban": 6045,
      "▁sesi": 6046,
      "▁izlen": 6047,
      "▁kirpik": 6048,
      "▁min": 6049,
      "##rsı": 6050,
      "▁kahvaltı": 6051,
      "▁cur": 6052,
      "▁geriledi": 6053,
      "▁gecm": 6054,
      "▁ciddi": 6055,
      "▁kadını": 6056,
      "▁muzik": 6057,
      "▁sampiyon": 6058,
      "▁karlar": 6059,
      "▁sev": 6060,
      "▁iz": 6061,
      "▁hoca": 6062,
      "##aya": 6063,
      "▁ot": 6064,
      "▁islem": 6065,
      "▁sorumluluk": 6066,
      "▁sahtek": 6067,
      "▁def": 6068,
      "##iniz": 6069,
      "▁ebeveyn": 6070,
      "▁buyukel": 6071,
      "▁ca": 6072,
      "▁bolumunde": 6073,
      "▁arasından": 6074,
      "##ızda": 6075,
      "##dıkları": 6076,
      "▁oluyor": 6077,
      "▁hareketler": 6078,
      "▁birtakım": 6079,
      "▁yat": 6080,
      "▁arkadas": 6081,
      "##bire": 6082,
      "▁detayları": 6083,
      "▁et": 6084,
      "▁serv": 6085,
      "▁aralarında": 6086,
      "▁elma": 6087,
      "##am": 6088,
      "▁chicag": 6089,
      "▁sorunların": 6090,
      "▁etmekten": 6091,
      "▁duser": 6092,
      "▁sevg": 6093,
      "▁yandan": 6094,
      "▁amer": 6095,
      "▁hizmetinden": 6096,
      "▁yıllar": 6097,
      "▁neh": 6098,
      "▁gr": 6099,
      "▁sokaga": 6100,
      "▁yuzyıl": 6101,
      "▁ihtim": 6102,
      "##cıya": 6103,
      "▁demis": 6104,
      "▁sırtında": 6105,
      "▁sop": 6106,
      "▁ama": 6107,
      "▁ve": 6108,
      "##abor": 6109,
      "▁dr.": 6110,
      "▁cehr": 6111,
      "##tıgına": 6112,
      "##uncu": 6113,
      "▁baslarına": 6114,
      "▁vs": 6115,
      "##eli": 6116,
      "▁hisseyi": 6117,
      "▁gez": 6118,
      "▁arasındaki": 6119,
      "▁deney": 6120,
      "##eme": 6121,
      "▁buldu": 6122,
      "▁saray": 6123,
      "▁cogunluk": 6124,
      "##labilir": 6125,
      "▁yapti": 6126,
      "▁sevgi": 6127,
      "▁cik": 6128,
      "▁u": 6129,
      "▁alım": 6130,
      "▁elinin": 6131,
      "▁icme": 6132,
      "▁itibaren": 6133,
      "▁kafası": 6134,
      "▁durumlarda": 6135,
      "▁milyondan": 6136,
      "▁ayı": 6137,
      "##aren": 6138,
      "##ılıs": 6139,
      "▁otelde": 6140,
      "▁burc": 6141,
      "▁kanıt": 6142,
      "▁puana": 6143,
      "[UNK]": 6144,
      "▁hatır": 6145,
      "##ecek": 6146,
      "##ez": 6147,
      "##tar": 6148,
      "##kan": 6149,
      "▁birles": 6150,
      "##egine": 6151,
      "▁eseri": 6152,
      "##gisi": 6153,
      "##dugum": 6154,
      "▁yuzunun": 6155,
      "##leri": 6156,
      "▁sey": 6157,
      "▁ısıgında": 6158,
      "▁degerinde": 6159,
      "▁depremin": 6160,
      "▁isyan": 6161,
      "▁kaybet": 6162,
      "##masi": 6163,
      "##iyesi": 6164,
      "▁tufek": 6165,
      "▁amerikalı": 6166,
      "▁peynir": 6167,
      "##lerimi": 6168,
      "▁kitaplar": 6169,
      "▁sesini": 6170,
      "▁kuv": 6171,
      "##samba": 6172,
      "##lıgımı": 6173,
      "▁karsıl": 6174,
      "##mistim": 6175,
      "▁can": 6176,
      "##lug": 6177,
      "▁maz": 6178,
      "▁domuz": 6179,
      "##erli": 6180,
      "▁mahalle": 6181,
      "▁bilmiyorum": 6182,
      "▁ulus": 6183,
      "##`": 6184,
      "##cu": 6185,
      "##isah": 6186,
      "▁gorusmek": 6187,
      "▁intihar": 6188,
      "▁elbise": 6189,
      "▁dor": 6190,
      "▁gene": 6191,
      "▁gelistir": 6192,
      "▁mens": 6193,
      "▁dl": 6194,
      "▁elinden": 6195,
      "▁edin": 6196,
      "##ikt": 6197,
      "##ige": 6198,
      "▁hikaye": 6199,
      "▁itir": 6200,
      "▁bıraktı": 6201,
      "▁aradi": 6202,
      "##iyon": 6203,
      "##iren": 6204,
      "▁donemde": 6205,
      "▁tuf": 6206,
      "##kler": 6207,
      "##mayacak": 6208,
      "▁cum": 6209,
      "▁4'ten": 6210,
      "##ımızı": 6211,
      "##nc": 6212,
      "▁philadelphia'dan": 6213,
      "▁kolunu": 6214,
      "##tısı": 6215,
      "##uzu": 6216,
      "▁duzenleme": 6217,
      "▁fazlası": 6218,
      "▁kası": 6219,
      "▁lake": 6220,
      "▁bekle": 6221,
      "▁maden": 6222,
      "▁beydi": 6223,
      "##luyor": 6224,
      "▁stratej": 6225,
      "##lının": 6226,
      "▁%2": 6227,
      "##sa": 6228,
      "▁tatil": 6229,
      "##tiv": 6230,
      "▁salonun": 6231,
      "▁insanın": 6232,
      "▁davran": 6233,
      "▁jaguar": 6234,
      "▁odalari": 6235,
      "▁anket": 6236,
      "▁hip": 6237,
      "▁fiyatlarını": 6238,
      "▁cidd": 6239,
      "##nız": 6240,
      "▁basarıya": 6241,
      "▁mik": 6242,
      "▁alternatif": 6243,
      "##isyon": 6244,
      "▁onlar": 6245,
      "▁sahip": 6246,
      "▁gidiyor": 6247,
      "▁ayrıl": 6248,
      "▁soyluyor": 6249,
      "▁ellerine": 6250,
      "▁rehber": 6251,
      "▁dogru": 6252,
      "##unde": 6253,
      "##uklu": 6254,
      "▁insanlar": 6255,
      "##kk": 6256,
      "▁norm": 6257,
      "▁gazetenin": 6258,
      "▁bulama": 6259,
      "▁hakim": 6260,
      "▁deh": 6261,
      "▁dergi": 6262,
      "▁aktarma": 6263,
      "▁radyo": 6264,
      "▁sog": 6265,
      "▁ailelerin": 6266,
      "▁almaya": 6267,
      "▁baslıyor": 6268,
      "▁ediliyor": 6269,
      "▁acente": 6270,
      "▁donanma": 6271,
      "▁bon": 6272,
      "▁ikna": 6273,
      "▁tavsiye": 6274,
      "▁hev": 6275,
      "▁olaylar": 6276,
      "##osuna": 6277,
      "▁hanimla": 6278,
      "▁anlamıyla": 6279,
      "▁nakit": 6280,
      "▁olc": 6281,
      "▁kır": 6282,
      "##melere": 6283,
      "▁orman": 6284,
      "##lulugu": 6285,
      "▁gitmis": 6286,
      "##indi": 6287,
      "▁malum": 6288,
      "▁bilin": 6289,
      "▁buh": 6290,
      "##lıyordu": 6291,
      "▁odamiz": 6292,
      "▁beklent": 6293,
      "▁dayanıs": 6294,
      "▁odam": 6295,
      "▁asam": 6296,
      "##eldi": 6297,
      "##ımıza": 6298,
      "##-": 6299,
      "▁sorunu": 6300,
      "▁muhtesem": 6301,
      "▁sigar": 6302,
      "▁sadakat": 6303,
      "▁atıs": 6304,
      "##anlık": 6305,
      "▁arkadasim": 6306,
      "▁tem": 6307,
      "▁gi": 6308,
      "▁dagıt": 6309,
      "▁sattı": 6310,
      "▁hissesini": 6311,
      "▁kısalt": 6312,
      "▁komisyonları": 6313,
      "##alam": 6314,
      "▁goster": 6315,
      "▁ucaga": 6316,
      "▁vakti": 6317,
      "▁onumuzdeki": 6318,
      "▁pazarlama": 6319,
      "##dugu": 6320,
      "▁yılına": 6321,
      "▁sembol": 6322,
      "▁havaalan": 6323,
      "##ruk": 6324,
      "▁nikah": 6325,
      "▁tehdit": 6326,
      "##lıların": 6327,
      "##elerle": 6328,
      "▁seyi": 6329,
      "▁eksiklik": 6330,
      "##gesi": 6331,
      "▁merk": 6332,
      "▁ince": 6333,
      "##ellikle": 6334,
      "##ılı": 6335,
      "▁borsasında": 6336,
      "▁kola": 6337,
      "##yl": 6338,
      "▁cekim": 6339,
      "▁calı": 6340,
      "##cılıgın": 6341,
      "▁buyuk": 6342,
      "▁sıv": 6343,
      "▁yetkililer": 6344,
      "▁galiba": 6345,
      "▁performansi": 6346,
      "▁yun": 6347,
      "▁neden": 6348,
      "▁yıgın": 6349,
      "▁isle": 6350,
      "▁ens": 6351,
      "##edigini": 6352,
      "▁tasıy": 6353,
      "▁kahv": 6354,
      "▁tanı": 6355,
      "##.1": 6356,
      "▁namaz": 6357,
      "##mine": 6358,
      "▁servet": 6359,
      "##'d": 6360,
      "▁yuksek": 6361,
      "▁seyler": 6362,
      "▁clas": 6363,
      "▁konusuyor": 6364,
      "▁haftanın": 6365,
      "▁denver'den": 6366,
      "▁beraber": 6367,
      "▁kah": 6368,
      "▁govde": 6369,
      "▁hamle": 6370,
      "▁istifade": 6371,
      "▁telefonda": 6372,
      "##…": 6373,
      "▁angel": 6374,
      "▁kalitesi": 6375,
      "▁nokt": 6376,
      "▁pirinc": 6377,
      "##mul": 6378,
      "##enk": 6379,
      "##amaz": 6380,
      "##etsiz": 6381,
      "##ve": 6382,
      "▁gozlem": 6383,
      "▁apartman": 6384,
      "▁ısrar": 6385,
      "▁vat": 6386,
      "##apolis": 6387,
      "▁odaydi": 6388,
      "▁grev": 6389,
      "##'ya": 6390,
      "▁ver": 6391,
      "▁prot": 6392,
      "▁strateji": 6393,
      "▁gunu": 6394,
      "▁halat": 6395,
      "▁sonuc": 6396,
      "##gur": 6397,
      "▁vermeye": 6398,
      "▁dalga": 6399,
      "▁mali": 6400,
      "▁kes": 6401,
      "##ede": 6402,
      "▁butu": 6403,
      "##0'a": 6404,
      "▁manzara": 6405,
      "##be": 6406,
      "▁kasabanın": 6407,
      "▁biliyorum": 6408,
      "▁bolg": 6409,
      "##e": 6410,
      "▁salı": 6411,
      "▁imparator": 6412,
      "▁heves": 6413,
      "▁edi": 6414,
      "▁ayagını": 6415,
      "▁ettim": 6416,
      "##atlar": 6417,
      "▁disi": 6418,
      "▁gercegi": 6419,
      "▁ihtil": 6420,
      "▁ortamda": 6421,
      "▁avukatları": 6422,
      "▁fasuly": 6423,
      "▁ilisk": 6424,
      "▁artıs": 6425,
      "##arak": 6426,
      "▁seviye": 6427,
      "▁durum": 6428,
      "##layarak": 6429,
      "##mıstı": 6430,
      "##dın": 6431,
      "▁kolt": 6432,
      "▁personeller": 6433,
      "▁toplantıda": 6434,
      "##dirme": 6435,
      "▁ticaret": 6436,
      "▁banka": 6437,
      "▁bun": 6438,
      "##bak": 6439,
      "▁turlar": 6440,
      "▁bilgilendirilmek": 6441,
      "##mayan": 6442,
      "##istir": 6443,
      "▁spons": 6444,
      "▁yıld": 6445,
      "▁am": 6446,
      "▁vası": 6447,
      "▁pa": 6448,
      "##dol": 6449,
      "▁ortam": 6450,
      "▁icin": 6451,
      "▁komutan": 6452,
      "##'nde": 6453,
      "▁denize": 6454,
      "▁e": 6455,
      "▁etkil": 6456,
      "▁eda": 6457,
      "▁dar": 6458,
      "▁yuzu": 6459,
      "▁kosesine": 6460,
      "##anıt": 6461,
      "▁yasamak": 6462,
      "▁kof": 6463,
      "▁secmen": 6464,
      "▁mevzuat": 6465,
      "▁nus": 6466,
      "▁eger": 6467,
      "##ısına": 6468,
      "▁kef": 6469,
      "▁cevr": 6470,
      "▁meyve": 6471,
      "##adır": 6472,
      "▁yoneticisi": 6473,
      "▁agabey": 6474,
      "▁balik": 6475,
      "▁ardına": 6476,
      "##ese": 6477,
      "▁amerikalılar": 6478,
      "▁nez": 6479,
      "##han": 6480,
      "▁trafik": 6481,
      "##ge": 6482,
      "##ete": 6483,
      "▁zamandan": 6484,
      "##mel": 6485,
      "▁disiplin": 6486,
      "##aguar": 6487,
      "▁sehirler": 6488,
      "▁film": 6489,
      "▁koyun": 6490,
      "▁oranını": 6491,
      "▁olanaklarını": 6492,
      "▁bitki": 6493,
      "▁yemegin": 6494,
      "##piyon": 6495,
      "▁ettigi": 6496,
      "##mayın": 6497,
      "▁verin": 6498,
      "▁ilgilendi": 6499,
      "▁kalmak": 6500,
      "##bar": 6501,
      "▁durumun": 6502,
      "▁cif": 6503,
      "##lıklar": 6504,
      "▁yeterince": 6505,
      "▁mec": 6506,
      "▁fık": 6507,
      "##cının": 6508,
      "##umu": 6509,
      "##sas": 6510,
      "▁gordum": 6511,
      "▁arzu": 6512,
      "▁nuf": 6513,
      "▁imalat": 6514,
      "▁baskalarına": 6515,
      "##usuna": 6516,
      "▁ruzg": 6517,
      "▁sovyetler": 6518,
      "▁gomleg": 6519,
      "##denin": 6520,
      "▁gond": 6521,
      "▁muduru": 6522,
      "▁yasan": 6523,
      "▁oluyordu": 6524,
      "▁gorunum": 6525,
      "##meden": 6526,
      "▁norma": 6527,
      "▁dallas'a": 6528,
      "▁gev": 6529,
      "▁diz": 6530,
      "▁vazif": 6531,
      "▁pilav": 6532,
      "▁unsur": 6533,
      "▁bakalım": 6534,
      "▁senat": 6535,
      "##keti": 6536,
      "▁vb": 6537,
      "▁at": 6538,
      "▁gid": 6539,
      "▁yıllarında": 6540,
      "##agı": 6541,
      "##larıyla": 6542,
      "▁bah": 6543,
      "##emek": 6544,
      "▁evleri": 6545,
      "▁arıyor": 6546,
      "##tarı": 6547,
      "▁kuzu": 6548,
      "▁ait": 6549,
      "▁konforu": 6550,
      "▁hakkını": 6551,
      "▁hastalık": 6552,
      "▁mu": 6553,
      "##lasmıs": 6554,
      "▁tesis": 6555,
      "##ısından": 6556,
      "▁butc": 6557,
      "##iyeler": 6558,
      "▁ceyreginde": 6559,
      "▁ciftciler": 6560,
      "▁yetersiz": 6561,
      "▁yukselisle": 6562,
      "▁golge": 6563,
      "##gu": 6564,
      "▁sterlin": 6565,
      "▁sut": 6566,
      "▁ind": 6567,
      "▁yahut": 6568,
      "▁soru": 6569,
      "▁fırtına": 6570,
      "▁mer": 6571,
      "1": 6572,
      "▁merhaba": 6573,
      "▁peyn": 6574,
      "##una": 6575,
      "##iti": 6576,
      "▁sada": 6577,
      "▁cuma": 6578,
      "##ecekleri": 6579,
      "▁benz": 6580,
      "▁terey": 6581,
      "▁palto": 6582,
      "##madım": 6583,
      "##ıstı": 6584,
      "##ku": 6585,
      "##emeye": 6586,
      "`": 6587,
      "▁imk": 6588,
      "▁fırın": 6589,
      "▁emn": 6590,
      "▁soguktu": 6591,
      "▁nere": 6592,
      "##az": 6593,
      "▁cennet": 6594,
      "##uma": 6595,
      "▁sent": 6596,
      "▁fakult": 6597,
      "▁anlattı": 6598,
      "##araj": 6599,
      "▁1980'": 6600,
      "▁beyler": 6601,
      "▁beyle": 6602,
      "▁fer": 6603,
      "▁ric": 6604,
      "▁col": 6605,
      "##mas": 6606,
      "▁rakam": 6607,
      "▁beklen": 6608,
      "▁ederiz": 6609,
      "▁bet": 6610,
      "##eki": 6611,
      "▁imaj": 6612,
      "▁tane": 6613,
      "▁bire": 6614,
      "▁donan": 6615,
      "▁sınırları": 6616,
      "▁planimiz": 6617,
      "##ımızda": 6618,
      "▁altı": 6619,
      "▁yemeklerini": 6620,
      "##gını": 6621,
      "▁ucak": 6622,
      "##alet": 6623,
      "▁ilgiliydi": 6624,
      "##eyaz": 6625,
      "▁cd": 6626,
      "▁komisyonu": 6627,
      "▁kenarları": 6628,
      "▁dusunceler": 6629,
      "▁philadel": 6630,
      "##ıklık": 6631,
      "▁yuv": 6632,
      "▁tey": 6633,
      "##usunda": 6634,
      "▁duvarın": 6635,
      "▁karayol": 6636,
      "##uluk": 6637,
      "▁seyr": 6638,
      "##yor": 6639,
      "▁kendine": 6640,
      "▁aldıgını": 6641,
      "##nin": 6642,
      "▁ihracları": 6643,
      "▁rezervasyon": 6644,
      "▁ucusuna": 6645,
      "##min": 6646,
      "▁yerinde": 6647,
      "▁kız": 6648,
      "##day": 6649,
      "▁bilir": 6650,
      "▁dua": 6651,
      "▁futbol": 6652,
      "▁zih": 6653,
      "##ersiz": 6654,
      "▁verme": 6655,
      "▁evlere": 6656,
      "▁rakip": 6657,
      "##lenir": 6658,
      "▁teklif": 6659,
      "▁emniyet": 6660,
      "▁kiralama": 6661,
      "##iya": 6662,
      "##dar": 6663,
      "▁kurdu": 6664,
      "▁guzeldi": 6665,
      "##mıslar": 6666,
      "##ncu": 6667,
      "▁halb": 6668,
      "▁indirim": 6669,
      "▁belge": 6670,
      "▁kesint": 6671,
      "▁bahsederim": 6672,
      "▁hakaret": 6673,
      "##'dan": 6674,
      "##eginde": 6675,
      "▁bilg": 6676,
      "▁durdu": 6677,
      "▁sorun": 6678,
      "▁operasyon": 6679,
      "##us": 6680,
      "▁zah": 6681,
      "▁esit": 6682,
      "▁isinden": 6683,
      "▁hayvanlar": 6684,
      "▁il": 6685,
      "▁kaliteli": 6686,
      "▁dava": 6687,
      "##arlandı": 6688,
      "▁yog": 6689,
      "▁agac": 6690,
      "▁aileler": 6691,
      "▁ben": 6692,
      "##ıc": 6693,
      "##ansız": 6694,
      "▁taklit": 6695,
      "▁rapor": 6696,
      "▁oldu": 6697,
      "▁olanakları": 6698,
      "▁hat": 6699,
      "##gen": 6700,
      "▁tatile": 6701,
      "▁munasebet": 6702,
      "▁onun": 6703,
      "▁gayrimen": 6704,
      "##kel": 6705,
      "▁yukseldigini": 6706,
      "▁inanc": 6707,
      "##emden": 6708,
      "▁islemin": 6709,
      "▁havaalanı'nda": 6710,
      "▁ıskar": 6711,
      "▁yık": 6712,
      "##sizligi": 6713,
      "▁disip": 6714,
      "##tmek": 6715,
      "##os": 6716,
      "▁kullanmadim": 6717,
      "##eler": 6718,
      "▁lek": 6719,
      "▁mez": 6720,
      "▁ongor": 6721,
      "##yet": 6722,
      "##si": 6723,
      "▁egitim": 6724,
      "##biy": 6725,
      "##eginin": 6726,
      "▁hem": 6727,
      "▁etmeyi": 6728,
      "##siy": 6729,
      "##ane": 6730,
      "▁sonbahar": 6731,
      "##tor": 6732,
      "▁cor": 6733,
      "▁havayolu": 6734,
      "▁sakal": 6735,
      "##edikten": 6736,
      "▁dep": 6737,
      "▁sonrasında": 6738,
      "▁sarsıntı": 6739,
      "▁isi": 6740,
      "##lin": 6741,
      "▁koltuk": 6742,
      "▁cim": 6743,
      "▁dolu": 6744,
      "▁kad": 6745,
      "##ecegiz": 6746,
      "##kon": 6747,
      "▁degil": 6748,
      "##yal": 6749,
      "▁10'dan": 6750,
      "▁kumandan": 6751,
      "▁ceph": 6752,
      "▁istiklal": 6753,
      "▁sistemi": 6754,
      "▁istihdam": 6755,
      "▁azalt": 6756,
      "##lan": 6757,
      "▁odan": 6758,
      "▁ila": 6759,
      "▁kagı": 6760,
      "▁ayaga": 6761,
      "▁sonbah": 6762,
      "##lerden": 6763,
      "##mesinden": 6764,
      "▁olanları": 6765,
      "▁ahır": 6766,
      "▁dukkanı": 6767,
      "▁yuzune": 6768,
      "▁gezi": 6769,
      "▁yans": 6770,
      "##larına": 6771,
      "▁yasamın": 6772,
      "[MASK]": 6773,
      "▁degisim": 6774,
      "##larım": 6775,
      "▁ade": 6776,
      "▁ettiler": 6777,
      "▁fil": 6778,
      "▁dernegi": 6779,
      "▁temizlikten": 6780,
      "▁verdigim": 6781,
      "▁kadınlar": 6782,
      "##ıya": 6783,
      "##ıy": 6784,
      "##tılı": 6785,
      "##ultu": 6786,
      "##eliginde": 6787,
      "▁gar": 6788,
      "##niz": 6789,
      "▁yolda": 6790,
      "▁kulub": 6791,
      "▁ufak": 6792,
      "▁teror": 6793,
      "▁projesi": 6794,
      "▁yemeklerinden": 6795,
      "##anından": 6796,
      "▁basını": 6797,
      "▁anlayıs": 6798,
      "▁kisi": 6799,
      "▁hun": 6800,
      "▁sa": 6801,
      "##uyordu": 6802,
      "##rt": 6803,
      "▁tramv": 6804,
      "##enc": 6805,
      "▁francisco'dan": 6806,
      "##atır": 6807,
      "##lit": 6808,
      "##elle": 6809,
      "##'un": 6810,
      "▁kriz": 6811,
      "▁ruy": 6812,
      "▁boston": 6813,
      "▁huz": 6814,
      "▁ancak": 6815,
      "▁yurut": 6816,
      "▁oyn": 6817,
      "▁ols": 6818,
      "▁tasavv": 6819,
      "▁maliyetleri": 6820,
      "▁ilgili": 6821,
      "▁icat": 6822,
      "##suz": 6823,
      "▁tarl": 6824,
      "▁sigara": 6825,
      "▁jap": 6826,
      "##ayla": 6827,
      "▁krem": 6828,
      "▁bırakmak": 6829,
      "▁tesisti": 6830,
      "##emi": 6831,
      "▁meclisi": 6832,
      "##ıza": 6833,
      "▁evde": 6834,
      "##larımı": 6835,
      "▁ph": 6836,
      "▁zap": 6837,
      "▁saadet": 6838,
      "▁adr": 6839,
      "##ic": 6840,
      "▁katana": 6841,
      "▁toprak": 6842,
      "▁icecek": 6843,
      "▁tasv": 6844,
      "▁degistir": 6845,
      "▁bahar": 6846,
      "▁olcude": 6847,
      "▁birta": 6848,
      "##elerden": 6849,
      "▁calgı": 6850,
      "▁dili": 6851,
      "##madı": 6852,
      "▁dunya": 6853,
      "▁sanat": 6854,
      "##ıgın": 6855,
      "▁sip": 6856,
      "▁paraya": 6857,
      "▁guzellik": 6858,
      "##atif": 6859,
      "##urken": 6860,
      "▁gelirler": 6861,
      "▁keleb": 6862,
      "▁gittim": 6863,
      "▁insanların": 6864,
      "▁izn": 6865,
      "##lara": 6866,
      "▁uzer": 6867,
      "▁aydın": 6868,
      "▁kahvalt": 6869,
      "▁uzaktan": 6870,
      "##kiler": 6871,
      "##x": 6872,
      "##biye": 6873,
      "▁gosteriyor": 6874,
      "▁garson": 6875,
      "▁ugul": 6876,
      "▁kayık": 6877,
      "▁yapması": 6878,
      "▁lutfen": 6879,
      "##0.": 6880,
      "##eyen": 6881,
      "▁emtia": 6882,
      "▁sirkette": 6883,
      "▁elinde": 6884,
      "▁kusk": 6885,
      "▁yeteri": 6886,
      "##ums": 6887,
      "##larımıza": 6888,
      "▁2'den": 6889,
      "▁acıdan": 6890,
      "▁ins": 6891,
      "▁tedavul": 6892,
      "▁finans": 6893,
      "▁ikin": 6894,
      "▁temsilci": 6895,
      "▁basıma": 6896,
      "##acag": 6897,
      "##gah": 6898,
      "▁cab": 6899,
      "▁12": 6900,
      "▁urunleri": 6901,
      "▁6'dan": 6902,
      "##andı": 6903,
      "▁goruyor": 6904,
      "▁degerlendirmeye": 6905,
      "e": 6906,
      "▁dondur": 6907,
      "▁han": 6908,
      "▁fay": 6909,
      "##yum": 6910,
      "▁sirket": 6911,
      "▁ıskarta": 6912,
      "▁standart": 6913,
      "▁kartı": 6914,
      "▁oldugu": 6915,
      "##ong": 6916,
      "##cinin": 6917,
      "▁onayına": 6918,
      "##maları": 6919,
      "▁kendis": 6920,
      "▁ortalam": 6921,
      "##rını": 6922,
      "▁ah": 6923,
      "▁muhalef": 6924,
      "▁piyasalar": 6925,
      "▁bocek": 6926,
      "##ici": 6927,
      "▁sonda": 6928,
      "▁felsef": 6929,
      "##fı": 6930,
      "##lılar": 6931,
      "▁verdigi": 6932,
      "▁:": 6933,
      "▁r": 6934,
      "▁canım": 6935,
      "▁gunesi": 6936,
      "▁ucusu": 6937,
      "##ens": 6938,
      "##cag": 6939,
      "▁vurgu": 6940,
      "▁magaz": 6941,
      "##itesi": 6942,
      "##meyen": 6943,
      "▁farkı": 6944,
      "▁bilmem": 6945,
      "▁karsi": 6946,
      "▁1990'da": 6947,
      "▁lah": 6948,
      "▁egil": 6949,
      "▁eg": 6950,
      "##maktadır": 6951,
      "▁bede": 6952,
      "##it": 6953,
      "▁kitabı": 6954,
      "▁ekibi": 6955,
      "▁ail": 6956,
      "▁eks": 6957,
      "▁isimler": 6958,
      "▁ban": 6959,
      "##acıların": 6960,
      "▁luz": 6961,
      "##)": 6962,
      "##cul": 6963,
      "▁dahi": 6964,
      "▁cid": 6965,
      "##erler": 6966,
      "▁kotuydu": 6967,
      "▁yontem": 6968,
      "▁resepsiyon": 6969,
      "##etic": 6970,
      "▁sokakta": 6971,
      "##inceye": 6972,
      "▁odemeleri": 6973,
      "▁sofor": 6974,
      "##yabilir": 6975,
      "##vel": 6976,
      "▁kalır": 6977,
      "–": 6978,
      "##macılar": 6979,
      "▁harikaydi": 6980,
      "▁uzerine": 6981,
      "##sinin": 6982,
      "▁yonuyle": 6983,
      "##ttı": 6984,
      "▁deniz": 6985,
      "▁kapan": 6986,
      "##larınız": 6987,
      "▁etkisini": 6988,
      "▁ofk": 6989,
      "▁polisler": 6990,
      "##ıcılar": 6991,
      "▁gozlerimi": 6992,
      "▁zen": 6993,
      "▁akl": 6994,
      "▁lisans": 6995,
      "##olu": 6996,
      "##ecektir": 6997,
      "▁haval": 6998,
      "▁hangi": 6999,
      "▁alıp": 7000,
      "▁dern": 7001,
      "▁siper": 7002,
      "##duz": 7003,
      "##ok": 7004,
      "▁is": 7005,
      "▁calisanlar": 7006,
      "▁haberleri": 7007,
      "▁uzun": 7008,
      "▁saat": 7009,
      "##ılacak": 7010,
      "▁sos": 7011,
      "▁ediyoruz": 7012,
      "▁jand": 7013,
      "▁lim": 7014,
      "▁carp": 7015,
      "##masın": 7016,
      "▁ucretler": 7017,
      "##lanmak": 7018,
      "▁bahan": 7019,
      "▁uyeleri": 7020,
      "##alamak": 7021,
      "▁f": 7022,
      "##c": 7023,
      "▁omuz": 7024,
      "▁ileri": 7025,
      "▁takdirde": 7026,
      "▁arz": 7027,
      "##sacak": 7028,
      "▁tasarruf": 7029,
      "▁dallas'tan": 7030,
      "▁kons": 7031,
      "▁sig": 7032,
      "##ime": 7033,
      "▁rehberlik": 7034,
      "##makla": 7035,
      "▁dinlemek": 7036,
      "##k": 7037,
      "▁merm": 7038,
      "▁doldur": 7039,
      "▁tencer": 7040,
      "▁odadan": 7041,
      "▁vakt": 7042,
      "▁ch": 7043,
      "▁misaf": 7044,
      "▁karısı": 7045,
      "▁ihtiyac": 7046,
      "▁tura": 7047,
      "##aklı": 7048,
      "▁sah": 7049,
      "##lıgının": 7050,
      "▁aslan": 7051,
      "▁uz": 7052,
      "##likle": 7053,
      "▁emr": 7054,
      "##emin": 7055,
      "▁yukse": 7056,
      "▁ceket": 7057,
      "##f": 7058,
      "▁oc": 7059,
      "▁ekmek": 7060,
      "▁koca": 7061,
      "▁dr": 7062,
      "▁istedigini": 7063,
      "▁ayrıca": 7064,
      "▁kutup": 7065,
      "##pr": 7066,
      "▁ac": 7067,
      "▁kud": 7068,
      "##yar": 7069,
      "##ow": 7070,
      "##misler": 7071,
      "▁proje": 7072,
      "##itraj": 7073,
      "▁yerden": 7074,
      "▁yemekler": 7075,
      "▁sandal": 7076,
      "▁puanlama": 7077,
      "▁ra": 7078,
      "▁gozuyle": 7079,
      "▁yaptır": 7080,
      "▁arası": 7081,
      "▁yıllardır": 7082,
      "##lilig": 7083,
      "▁niz": 7084,
      "##rada": 7085,
      "▁sekilde": 7086,
      "▁kasaba": 7087,
      "▁otel": 7088,
      "▁getir": 7089,
      "▁aktiv": 7090,
      "▁mufet": 7091,
      "▁kıza": 7092,
      "▁iskel": 7093,
      "▁olustur": 7094,
      "▁ayına": 7095,
      "##dugunde": 7096,
      "##liyor": 7097,
      "##alan": 7098,
      "▁istih": 7099,
      "▁yazı": 7100,
      "▁bufe": 7101,
      "▁yemekleri": 7102,
      "▁dostluk": 7103,
      "▁icim": 7104,
      "▁cesitliligi": 7105,
      "▁ali": 7106,
      "▁evine": 7107,
      "##bet": 7108,
      "▁ham": 7109,
      "▁komp": 7110,
      "▁sırt": 7111,
      "▁bors": 7112,
      "##ata": 7113,
      "▁yansı": 7114,
      "▁alay": 7115,
      "▁icerisinde": 7116,
      "##eceklerini": 7117,
      "▁surdu": 7118,
      "▁sizin": 7119,
      "▁kimsenin": 7120,
      "##tır": 7121,
      "▁prof": 7122,
      "▁adımlarla": 7123,
      "##ınıza": 7124,
      "▁faaliyetleri": 7125,
      "##is": 7126,
      "##alar": 7127,
      "##inn": 7128,
      "▁kup": 7129,
      "▁kulag": 7130,
      "▁eve": 7131,
      "▁dakika": 7132,
      "▁uretim": 7133,
      "▁etk": 7134,
      "▁lira": 7135,
      "▁saye": 7136,
      "▁yi": 7137,
      "##ci": 7138,
      "▁dukk": 7139,
      "▁bizimle": 7140,
      "##yası": 7141,
      "▁kolon": 7142,
      "▁yemegi": 7143,
      "▁gelir": 7144,
      "▁kurumu": 7145,
      "##iligi": 7146,
      "▁cap": 7147,
      "##ıcının": 7148,
      "▁organizasyon": 7149,
      "▁cizg": 7150,
      "##lıkta": 7151,
      "▁kullanım": 7152,
      "▁etraf": 7153,
      "▁belki": 7154,
      "▁sektorunde": 7155,
      "▁hissed": 7156,
      "▁dieg": 7157,
      "##layan": 7158,
      "▁tespit": 7159,
      "##indeydi": 7160,
      "▁aksama": 7161,
      "▁dosya": 7162,
      "▁personeli": 7163,
      "▁satısları": 7164,
      "▁kada": 7165,
      "##ork": 7166,
      "▁altın": 7167,
      "▁cinayet": 7168,
      "▁peyniri": 7169,
      "##onya": 7170,
      "▁kendim": 7171,
      "[PAD]": 7172,
      "▁olamaz": 7173,
      "##onto": 7174,
      "▁asagıya": 7175,
      "##ston": 7176,
      "▁aklı": 7177,
      "▁ingil": 7178,
      "▁tasar": 7179,
      "▁gununun": 7180,
      "▁grubun": 7181,
      "▁sukur": 7182,
      "▁sergi": 7183,
      "▁demokras": 7184,
      "▁onlem": 7185,
      "##irk": 7186,
      "##aleti": 7187,
      "##til": 7188,
      "▁hele": 7189,
      "▁sizi": 7190,
      "▁kenar": 7191,
      "▁gorusme": 7192,
      "▁cey": 7193,
      "▁muhalif": 7194,
      "▁cumhuriyetci": 7195,
      "▁sendik": 7196,
      "###": 7197,
      "##esiz": 7198,
      "▁kapısı": 7199,
      "▁ise": 7200,
      "▁muhtar": 7201,
      "▁edip": 7202,
      "▁kral": 7203,
      "##ta": 7204,
      "▁guleryuzluydu": 7205,
      "##izasyon": 7206,
      "##3": 7207,
      "▁kıvılc": 7208,
      "▁hazine": 7209,
      "▁pant": 7210,
      "▁res": 7211,
      "▁konumundan": 7212,
      "▁ismi": 7213,
      "▁gecirdi": 7214,
      "##uyorlardı": 7215,
      "▁ozel": 7216,
      "▁odasi": 7217,
      "▁gu": 7218,
      "##mus": 7219,
      "▁olabilir": 7220,
      "▁sular": 7221,
      "▁dudak": 7222,
      "##ınc": 7223,
      "▁naz": 7224,
      "▁duzeyde": 7225,
      "▁ogrenmek": 7226,
      "▁kaybı": 7227,
      "##ırım": 7228,
      "▁zamanlarda": 7229,
      "▁tabak": 7230,
      "▁baglantı": 7231,
      "##menin": 7232,
      "▁sahit": 7233,
      "▁kayıt": 7234,
      "▁alım-satım": 7235,
      "▁ticarette": 7236,
      "##oroz": 7237,
      "▁hizmetci": 7238,
      "▁gozle": 7239,
      "##atı": 7240,
      "▁ekm": 7241,
      "##lerimiz": 7242,
      "▁cumhur": 7243,
      "▁pencere": 7244,
      "##siniz": 7245,
      "▁ikinci": 7246,
      "▁topluluk": 7247,
      "▁huc": 7248,
      "##onom": 7249,
      "##ligiyle": 7250,
      "▁iki": 7251,
      "▁ogret": 7252,
      "▁gecti": 7253,
      "▁havayol": 7254,
      "▁ekonom": 7255,
      "##amam": 7256,
      "▁adayı": 7257,
      "##q": 7258,
      "▁tartısma": 7259,
      "##eledi": 7260,
      "##arl": 7261,
      "##minde": 7262,
      "##ze": 7263,
      "▁depo": 7264,
      "▁cal": 7265,
      "##siye": 7266,
      "▁uyustur": 7267,
      "##onelik": 7268,
      "##uslar": 7269,
      "▁harcamaları": 7270,
      "##​": 7271,
      "▁mem": 7272,
      "▁edebiyat": 7273,
      "▁masa": 7274,
      "▁utan": 7275,
      "▁altında": 7276,
      "▁dalg": 7277,
      "▁menfaat": 7278,
      "▁mada": 7279,
      "▁karsılıgı": 7280,
      "##umuze": 7281,
      "▁ressam": 7282,
      "##acagını": 7283,
      "▁denetim": 7284,
      "▁ragmen": 7285,
      "▁sanatcı": 7286,
      "##ation": 7287,
      "▁baskanı": 7288,
      "▁pet": 7289,
      "▁bina": 7290,
      "▁asır": 7291,
      "##dı": 7292,
      "▁ih": 7293,
      "▁mesel": 7294,
      "##labil": 7295,
      "▁alanda": 7296,
      "▁butun": 7297,
      "▁sm": 7298,
      "▁kampanya": 7299,
      "▁bin": 7300,
      "▁direk": 7301,
      "▁orn": 7302,
      "##ls": 7303,
      "##ili": 7304,
      "▁gunlerde": 7305,
      "▁fizik": 7306,
      "▁ser": 7307,
      "▁vergisi": 7308,
      "##rak": 7309,
      "▁arkad": 7310,
      "##yalar": 7311,
      "##imore": 7312,
      "▁konularda": 7313,
      "▁kaza": 7314,
      "▁ramaz": 7315,
      "▁danıs": 7316,
      "##zer": 7317,
      "##0'dan": 7318,
      "▁yukum": 7319,
      "▁salonunda": 7320,
      "▁sul": 7321,
      "▁baltimore": 7322,
      "▁baltimore'ye": 7323,
      "▁sit": 7324,
      "▁seyirci": 7325,
      "##ento": 7326,
      "▁bahs": 7327,
      "##ılmaya": 7328,
      "##dıgına": 7329,
      "▁suda": 7330,
      "▁hanım": 7331,
      "▁ilgi": 7332,
      "▁gunesin": 7333,
      "##iler": 7334,
      "▁nelerdir": 7335,
      "▁ad": 7336,
      "▁dusunuyorum": 7337,
      "▁telgraf": 7338,
      "▁cocuk": 7339,
      "▁babası": 7340,
      "▁anahtar": 7341,
      "▁cocuklu": 7342,
      "▁univers": 7343,
      "▁calısıyor": 7344,
      "##gimiz": 7345,
      "▁dolas": 7346,
      "▁sayg": 7347,
      "▁memnuniyeti": 7348,
      "▁vurdu": 7349,
      "▁hissenin": 7350,
      "▁editor": 7351,
      "▁fırsatı": 7352,
      "▁verim": 7353,
      "##'nı": 7354,
      "▁bırak": 7355,
      "▁yiyecek": 7356,
      "▁istan": 7357,
      "▁derin": 7358,
      "▁gerceklestir": 7359,
      "##lıkla": 7360,
      "▁endis": 7361,
      "▁basamak": 7362,
      "##larıma": 7363,
      "▁durus": 7364,
      "##ban": 7365,
      "▁uyesi": 7366,
      "##cıların": 7367,
      "▁size": 7368,
      "▁doları": 7369,
      "▁deyim": 7370,
      "▁kisiyi": 7371,
      "##taj": 7372,
      "▁finansman": 7373,
      "▁gures": 7374,
      "##uzlu": 7375,
      "▁oyunlar": 7376,
      "▁burnu": 7377,
      "▁ceyrekte": 7378,
      "##cagım": 7379,
      "##iran": 7380,
      "▁malzemeleri": 7381,
      "▁gorunuyor": 7382,
      "▁kurtaj": 7383,
      "▁men": 7384,
      "▁pos": 7385,
      "##tıg": 7386,
      "▁yuzume": 7387,
      "▁sıkınt": 7388,
      "##uluyor": 7389,
      "▁tasın": 7390,
      "##lamak": 7391,
      "##mos": 7392,
      "▁nihayet": 7393,
      "▁derecede": 7394,
      "▁bag": 7395,
      "##arılı": 7396,
      "##layacak": 7397,
      "##okul": 7398,
      "▁sik": 7399,
      "##graf": 7400,
      "\\": 7401,
      "▁buzdol": 7402,
      "##0-": 7403,
      "▁gorul": 7404,
      "▁tan": 7405,
      "▁toplantısında": 7406,
      "##inize": 7407,
      "##lamayı": 7408,
      "▁anay": 7409,
      "▁kanat": 7410,
      "▁bagıs": 7411,
      "▁devralma": 7412,
      "##ift": 7413,
      "▁kapas": 7414,
      "▁ekmegi": 7415,
      "▁yuzyılın": 7416,
      "##al": 7417,
      "##stı": 7418,
      "##luge": 7419,
      "▁sakız": 7420,
      "▁hayatımda": 7421,
      "▁hizmetten": 7422,
      "▁annemle": 7423,
      "▁dusuncelerini": 7424,
      "▁aktor": 7425,
      "▁cesitleri": 7426,
      "##tal": 7427,
      "▁haft": 7428,
      "▁yerde": 7429,
      "▁kursun": 7430,
      "▁yapacak": 7431,
      "##ger": 7432,
      "##aları": 7433,
      "##tıgını": 7434,
      "▁pazarı": 7435,
      "▁itiraz": 7436,
      "▁domates": 7437,
      "##uydu": 7438,
      "##tansiy": 7439,
      "▁bile": 7440,
      "##iyer": 7441,
      "##ımda": 7442,
      "▁nes": 7443,
      "▁gulums": 7444,
      "▁ek": 7445,
      "▁fikr": 7446,
      "▁restor": 7447,
      "##masının": 7448,
      "▁yonel": 7449,
      "▁amc": 7450,
      "▁islerini": 7451,
      "##en": 7452,
      "▁alma": 7453,
      "▁payını": 7454,
      "▁yakinlar": 7455,
      "▁toh": 7456,
      "▁ortal": 7457,
      "▁kayn": 7458,
      "▁mevduat": 7459,
      "▁elb": 7460,
      "▁sektoru": 7461,
      "▁etti": 7462,
      "▁sahs": 7463,
      "##istim": 7464,
      "▁soyler": 7465,
      "▁acıklam": 7466,
      "##ne": 7467,
      "##elik": 7468,
      "##ayacagını": 7469,
      "▁yani": 7470,
      "▁iflas": 7471,
      "▁hab": 7472,
      "▁19": 7473,
      "##urlu": 7474,
      "▁halinde": 7475,
      "##agon": 7476,
      "##ımızın": 7477,
      "##medi": 7478,
      "##ey": 7479,
      "##tan": 7480,
      "##adem": 7481,
      "▁vagon": 7482,
      "##vi": 7483,
      "##.m": 7484,
      "▁kir": 7485,
      "▁yor": 7486,
      "▁sozlerini": 7487,
      "▁komit": 7488,
      "▁send": 7489,
      "▁yiy": 7490,
      "▁vatan": 7491,
      "##digim": 7492,
      "▁miktar": 7493,
      "▁vaz": 7494,
      "▁kol": 7495,
      "▁kuru": 7496,
      "▁ucusta": 7497,
      "▁fonları": 7498,
      "▁konser": 7499,
      "▁yonetic": 7500,
      "##san": 7501,
      "▁karakter": 7502,
      "▁bahcede": 7503,
      "▁sayısı": 7504,
      "▁acıga": 7505,
      "▁bulundu": 7506,
      "▁kapısından": 7507,
      "▁eksikligi": 7508,
      "▁sikint": 7509,
      "▁yapan": 7510,
      "##tusu": 7511,
      "▁psik": 7512,
      "▁boncuk": 7513,
      "▁listele": 7514,
      "▁varlık": 7515,
      "##/": 7516,
      "▁acısından": 7517,
      "▁kutu": 7518,
      "▁dest": 7519,
      "▁sarım": 7520,
      "##esil": 7521,
      "▁birdenbire": 7522,
      "▁gizli": 7523,
      "▁kollarını": 7524,
      "▁miami": 7525,
      "▁fırt": 7526,
      "▁dig": 7527,
      "▁bagır": 7528,
      "▁las": 7529,
      "▁doga": 7530,
      "▁sokaklarda": 7531,
      "▁kurulu": 7532,
      "▁emeklilik": 7533,
      "##ayol": 7534,
      "▁parasını": 7535,
      "##yo": 7536,
      "##aliydi": 7537,
      "▁kampanyalardan": 7538,
      "▁yurd": 7539,
      "▁hareketi": 7540,
      "▁sehrine": 7541,
      "##cular": 7542,
      "##bu": 7543,
      "▁gib": 7544,
      "▁beyan": 7545,
      "▁evden": 7546,
      "▁yazar": 7547,
      "##anlar": 7548,
      "▁ulkede": 7549,
      "▁kontr": 7550,
      "▁den": 7551,
      "##ıf": 7552,
      "##ep": 7553,
      "▁temel": 7554,
      "▁gunes": 7555,
      "▁nokta": 7556,
      "▁devam": 7557,
      "▁rast": 7558,
      "▁anlat": 7559,
      "##mi": 7560,
      "▁az": 7561,
      "▁suyu": 7562,
      "▁yirmi": 7563,
      "▁fiyata": 7564,
      "▁prosedur": 7565,
      "▁kolu": 7566,
      "▁uzat": 7567,
      "▁avuc": 7568,
      "▁uretic": 7569,
      "##lıc": 7570,
      "▁meslek": 7571,
      "▁uzak": 7572,
      "##cisi": 7573,
      "##kce": 7574,
      "q": 7575,
      "▁sırtına": 7576,
      "##lestir": 7577,
      "▁mey": 7578,
      "▁doların": 7579,
      "##landı": 7580,
      "▁ediyorum": 7581,
      "▁barıs": 7582,
      "▁pazarlık": 7583,
      "##elen": 7584,
      "##cı": 7585,
      "##ırı": 7586,
      "▁dile": 7587,
      "▁cok": 7588,
      "▁nef": 7589,
      "▁hatt": 7590,
      "##ebilecek": 7591,
      "▁ren": 7592,
      "▁okuz": 7593,
      "▁meclis": 7594,
      "▁bankalar": 7595,
      "▁bic": 7596,
      "▁met": 7597,
      "▁sarf": 7598,
      "##adet": 7599,
      "##igi": 7600,
      "##lenmis": 7601,
      "▁olursa": 7602,
      "▁dere": 7603,
      "▁animasyonlar": 7604,
      "▁pist": 7605,
      "▁ortak": 7606,
      "▁seyden": 7607,
      "▁bulgur": 7608,
      "▁bugun": 7609,
      "▁gonl": 7610,
      "▁0.": 7611,
      "▁icini": 7612,
      "▁kocası": 7613,
      "▁;": 7614,
      "▁kullanı": 7615,
      "▁erkek": 7616,
      "▁sonunda": 7617,
      "▁merkezine": 7618,
      "##r": 7619,
      "▁plan": 7620,
      "▁dunyasında": 7621,
      "##isindan": 7622,
      "▁yuzlu": 7623,
      "▁hisseye": 7624,
      "##ind": 7625,
      "▁dortluk": 7626,
      "▁bunlar": 7627,
      "##agım": 7628,
      "▁olm": 7629,
      "▁topluma": 7630,
      "##ekkur": 7631,
      "▁numar": 7632,
      "##ıldıgında": 7633,
      "▁cogu": 7634,
      "##eleri": 7635,
      "▁iliskileri": 7636,
      "▁emek": 7637,
      "▁buz": 7638,
      "▁mola": 7639,
      "▁sonucu": 7640,
      "##kah": 7641,
      "▁hani": 7642,
      "▁tesekkurler": 7643,
      "▁ayagına": 7644,
      "▁corba": 7645,
      "▁aydınlık": 7646,
      "▁yuzme": 7647,
      "▁dısarıya": 7648,
      "▁yon": 7649,
      "▁beyin": 7650,
      "▁kiz": 7651,
      "▁ayar": 7652,
      "▁seytan": 7653,
      "▁belirtti": 7654,
      "▁kadının": 7655,
      "▁dal": 7656,
      "▁fiyatlarının": 7657,
      "▁jandar": 7658,
      "##iden": 7659,
      "▁siz": 7660,
      "▁yemeklerin": 7661,
      "##ab": 7662,
      "##madim": 7663,
      "▁kelimeyle": 7664,
      "▁verildi": 7665,
      "##im": 7666,
      "▁ber": 7667,
      "##elere": 7668,
      "##gor": 7669,
      "##agında": 7670,
      "ı": 7671,
      "##ecegini": 7672,
      "##tigini": 7673,
      "▁zır": 7674,
      "##burgh": 7675,
      "▁ihtir": 7676,
      "▁oraya": 7677,
      "▁evinde": 7678,
      "▁sonucunda": 7679,
      "##kilerin": 7680,
      "##0'da": 7681,
      "▁topr": 7682,
      "##eleriyle": 7683,
      "▁olmay": 7684,
      "##iydi": 7685,
      "##atlı": 7686,
      "▁uyan": 7687,
      "##enlik": 7688,
      "▁tasarısı": 7689,
      "▁ısık": 7690,
      "##medim": 7691,
      "▁adamlar": 7692,
      "▁makal": 7693,
      "▁as": 7694,
      "▁atlan": 7695,
      "▁tuttu": 7696,
      "##bat": 7697,
      "▁programı": 7698,
      "##manlar": 7699,
      "▁resmi": 7700,
      "##sekiz": 7701,
      "▁olmad": 7702,
      "▁gars": 7703,
      "▁durgunluk": 7704,
      "##ncak": 7705,
      "▁mav": 7706,
      "##.9": 7707,
      "##ediyor": 7708,
      "▁milleti": 7709,
      "▁koydu": 7710,
      "▁tohum": 7711,
      "▁ucagın": 7712,
      "##ank": 7713,
      "##tırmak": 7714,
      "▁oglum": 7715,
      "▁kultur": 7716,
      "▁.\"": 7717,
      "##isinde": 7718,
      "▁zarar": 7719,
      "▁sesler": 7720,
      "▁ellerinde": 7721,
      "▁bakanı": 7722,
      "▁corap": 7723,
      "▁laz": 7724,
      "##.8": 7725,
      "##laydi": 7726,
      "##gel": 7727,
      "▁pazartesi": 7728,
      "▁bec": 7729,
      "▁sir": 7730,
      "▁toplam": 7731,
      "##ılması": 7732,
      "▁kaliteye": 7733,
      "▁yuregi": 7734,
      "▁dıs": 7735,
      "▁kep": 7736,
      "##oloji": 7737,
      "▁iskem": 7738,
      "▁tıras": 7739,
      "▁olayın": 7740,
      "▁giyim": 7741,
      "▁kose": 7742,
      "##vek": 7743,
      "▁ayakk": 7744,
      "▁bıy": 7745,
      "▁gecesi": 7746,
      "▁ortasına": 7747,
      "▁gogus": 7748,
      "▁sil": 7749,
      "▁bazıları": 7750,
      "▁torun": 7751,
      "▁masraf": 7752,
      "▁sav": 7753,
      "▁kun": 7754,
      "##indeki": 7755,
      "▁kumar": 7756,
      "▁olayı": 7757,
      "▁vol": 7758,
      "##cum": 7759,
      "▁opsiyon": 7760,
      "##ulu": 7761,
      "▁bakkal": 7762,
      "▁demektir": 7763,
      "##oz": 7764,
      "▁heykel": 7765,
      "▁soylemek": 7766,
      "▁yakinlarima": 7767,
      "%": 7768,
      "▁kapattı": 7769,
      "▁lokanta": 7770,
      "▁artısı": 7771,
      "##ogu": 7772,
      "▁parm": 7773,
      "▁mesele": 7774,
      "▁mas": 7775,
      "▁kon": 7776,
      "##imiza": 7777,
      "##irim": 7778,
      "##lamaları": 7779,
      "##8'den": 7780,
      "▁manz": 7781,
      "▁fasul": 7782,
      "▁savun": 7783,
      "▁sikayet": 7784,
      "##iledi": 7785,
      "##der": 7786,
      "▁perform": 7787,
      "##izlik": 7788,
      "##i'nin": 7789,
      "##dıgını": 7790,
      "▁sozles": 7791,
      "▁es": 7792,
      "##unlu": 7793,
      "▁mis": 7794,
      "▁henuz": 7795,
      "▁anlam": 7796,
      "##anc": 7797,
      "▁uyku": 7798,
      "▁askı": 7799,
      "▁protesto": 7800,
      "▁itibar": 7801,
      "##digine": 7802,
      "##eyebilir": 7803,
      "▁ket": 7804,
      "▁tarihin": 7805,
      "▁demek": 7806,
      "▁turn": 7807,
      "##alarım": 7808,
      "##aket": 7809,
      "##ıtma": 7810,
      "▁3'ten": 7811,
      "▁sirketleri": 7812,
      "▁sigorta": 7813,
      "▁cuv": 7814,
      "▁tari": 7815,
      "▁macı": 7816,
      "▁kasık": 7817,
      "▁insa": 7818,
      "##gun": 7819,
      "▁manzarasi": 7820,
      "▁yur": 7821,
      "?": 7822,
      "##ledim": 7823,
      "▁taleb": 7824,
      "▁kapıları": 7825,
      "##derken": 7826,
      "▁duzenlem": 7827,
      "▁darbuk": 7828,
      "▁davaya": 7829,
      "▁ilkbah": 7830,
      "▁karsılastır": 7831,
      "▁etrafa": 7832,
      "##usunun": 7833,
      "▁artırmak": 7834,
      "▁olmaktan": 7835,
      "##mekle": 7836,
      "▁hayret": 7837,
      "▁atmak": 7838,
      "##leyen": 7839,
      "##yi": 7840,
      "##ars": 7841,
      "▁yuze": 7842,
      "▁koyu": 7843,
      "##mustum": 7844,
      "▁tabii": 7845,
      "▁kal": 7846,
      "▁korku": 7847,
      "▁sim": 7848,
      "▁yok": 7849,
      "##ıga": 7850,
      "▁pabuc": 7851,
      "##ına": 7852,
      "▁ongoru": 7853,
      "▁hiz": 7854,
      "##ilendir": 7855,
      "▁sistemleri": 7856,
      "##iligini": 7857,
      "▁devir": 7858,
      "▁sun": 7859,
      "▁iplik": 7860,
      "##osun": 7861,
      "▁kopru": 7862,
      "▁yum": 7863,
      "##ilmek": 7864,
      "##mec": 7865,
      "##gili": 7866,
      "▁almıs": 7867,
      "i": 7868,
      "▁guz": 7869,
      "▁vuc": 7870,
      "▁'": 7871,
      "▁iktidar": 7872,
      "▁veriyor": 7873,
      "▁franc": 7874,
      "▁id": 7875,
      "▁miz": 7876,
      "▁kapı": 7877,
      "▁ucusların": 7878,
      "▁elde": 7879,
      "▁amac": 7880,
      "▁tahsis": 7881,
      "▁cep": 7882,
      "▁pisir": 7883,
      "▁kablo": 7884,
      "▁konuda": 7885,
      "##usu": 7886,
      "▁far": 7887,
      "##ice": 7888,
      "▁kere": 7889,
      "##meldi": 7890,
      "▁mon": 7891,
      "▁anlasmanın": 7892,
      "##tek": 7893,
      "▁zamanla": 7894,
      "▁ardında": 7895,
      "##makta": 7896,
      "▁class": 7897,
      "##dan": 7898,
      "▁istatist": 7899,
      "##orm": 7900,
      "##aması": 7901,
      "▁basar": 7902,
      "▁sahibinin": 7903,
      "##lb": 7904,
      "▁yuzey": 7905,
      "##likler": 7906,
      "▁merdiv": 7907,
      "##minin": 7908,
      "▁edilir": 7909,
      "▁yıllardan": 7910,
      "##udur": 7911,
      "##usunu": 7912,
      "▁oturma": 7913,
      "▁and": 7914,
      "▁yıldızı": 7915,
      "##anını": 7916,
      "▁yıla": 7917,
      "▁dogr": 7918,
      "▁6": 7919,
      "▁cocukları": 7920,
      "▁tarım": 7921,
      "▁yanak": 7922,
      "▁olup": 7923,
      "▁ihtimal": 7924,
      "##malar": 7925,
      "▁sozlerine": 7926,
      "▁mark": 7927,
      "▁ayda": 7928,
      "▁icinden": 7929,
      "##erek": 7930,
      "▁kab": 7931,
      "▁korum": 7932,
      "▁koms": 7933,
      "▁yere": 7934,
      "##arı": 7935,
      "▁indir": 7936,
      "▁bak": 7937,
      "▁emlak": 7938,
      "▁reng": 7939,
      "▁gazin": 7940,
      "▁oteldi": 7941,
      "▁akr": 7942,
      "▁batı": 7943,
      "▁nob": 7944,
      "▁duserek": 7945,
      "▁bosa": 7946,
      "▁reddet": 7947,
      "##lenmek": 7948,
      "▁to": 7949,
      "▁nefes": 7950,
      "▁yangın": 7951,
      "##or": 7952,
      "▁dairesi": 7953,
      "▁ozur": 7954,
      "▁almayı": 7955,
      "##ize": 7956,
      "▁sekret": 7957,
      "▁yap": 7958,
      "▁duny": 7959,
      "▁tank": 7960,
      "▁tanr": 7961,
      "▁aramız": 7962,
      "▁taksi": 7963,
      "▁seker": 7964,
      "▁tutma": 7965,
      "##yerek": 7966,
      "▁sozleri": 7967,
      "▁piyasasının": 7968,
      "##tas": 7969,
      "▁arkadaslar": 7970,
      "▁tesh": 7971,
      "▁pam": 7972,
      "▁denver": 7973,
      "▁raporu": 7974,
      "##uzluk": 7975,
      "##anı": 7976,
      "▁burokrat": 7977,
      "▁bodr": 7978,
      "▁mobil": 7979,
      "▁kitapta": 7980,
      "▁ing": 7981,
      "##lı": 7982,
      "▁tutarında": 7983,
      "▁doktora": 7984,
      "##mada": 7985,
      "▁turk": 7986,
      "▁calisanlarin": 7987,
      "▁donuyor": 7988,
      "▁uyk": 7989,
      "##sur": 7990,
      "▁yorgunluk": 7991,
      "##lilik": 7992,
      "▁superdi": 7993,
      "▁ası": 7994,
      "▁kesim": 7995,
      "##istler": 7996,
      "##,": 7997,
      "##van": 7998,
      "▁kurb": 7999,
      "▁cadde": 8000,
      "##o'dan": 8001,
      "▁otek": 8002,
      "▁piyano": 8003,
      "▁borc": 8004,
      "▁vali": 8005,
      "▁gerek": 8006,
      "##if": 8007,
      "▁gercekten": 8008,
      "##ma": 8009,
      "▁faz": 8010,
      "▁disk": 8011,
      "##anta": 8012,
      "##anlara": 8013,
      "▁hadis": 8014,
      "▁duyg": 8015,
      "##lıs": 8016,
      "▁akın": 8017,
      "▁buradan": 8018,
      "▁andan": 8019,
      "▁ces": 8020,
      "##mazlık": 8021,
      "▁gibiydi": 8022,
      "▁dogasi": 8023,
      "▁davranıs": 8024,
      "▁anneme": 8025,
      "▁hır": 8026,
      "▁yapılan": 8027,
      "##\\/": 8028,
      "_": 8029,
      "▁kapalı": 8030,
      "##isco": 8031,
      "##lerin": 8032,
      "##gı": 8033,
      "▁kurtul": 8034,
      "▁icap": 8035,
      "▁endustrisi": 8036,
      "##1": 8037,
      "##gini": 8038,
      "▁oteki": 8039,
      "##din": 8040,
      "##atur": 8041,
      "▁burası": 8042,
      "▁bankası": 8043,
      "##lul": 8044,
      "▁tanıtım": 8045,
      "##lasıyor": 8046,
      "▁sarı": 8047,
      "▁fena": 8048,
      "▁varlıgını": 8049,
      "▁turu": 8050,
      "▁motor": 8051,
      "▁yitir": 8052,
      "▁zam": 8053,
      "▁portfoy": 8054,
      "▁pur": 8055,
      "##mac": 8056,
      "##ısma": 8057,
      "▁kaldır": 8058,
      "##ımdan": 8059,
      "▁calısmak": 8060,
      "##areti": 8061,
      "▁om": 8062,
      "▁umud": 8063,
      "▁caba": 8064,
      "▁kork": 8065,
      "▁gore": 8066,
      "▁butce": 8067,
      "▁telafi": 8068,
      "▁sabah": 8069,
      "▁sorular": 8070,
      "▁oranda": 8071,
      "▁bunları": 8072,
      "▁gormeye": 8073,
      "▁islemleri": 8074,
      "##duk": 8075,
      "##mekte": 8076,
      "##lerimizi": 8077,
      "▁cagır": 8078,
      "▁egem": 8079,
      "▁fır": 8080,
      "##bilir": 8081,
      "▁calismasina": 8082,
      "##ar": 8083,
      "▁kıv": 8084,
      "##ule": 8085,
      "▁ort": 8086,
      "▁personelden": 8087,
      "▁konumunu": 8088,
      "▁adet": 8089,
      "##luydu": 8090,
      "▁gelgelelim": 8091,
      "##onun": 8092,
      "▁milliyet": 8093,
      "▁topu": 8094,
      "▁dos": 8095,
      "▁sehir": 8096,
      "▁aklına": 8097,
      "▁vaat": 8098,
      "▁katk": 8099,
      "▁...": 8100,
      "▁kadeh": 8101,
      "▁yukselerek": 8102,
      "▁babama": 8103,
      "▁onde": 8104,
      "▁saglamak": 8105,
      "##ıh": 8106,
      "##lendi": 8107,
      "°": 8108,
      "▁kaldırım": 8109,
      "▁stokları": 8110,
      "##ılan": 8111,
      "▁annesi": 8112,
      "▁cograf": 8113,
      "▁taham": 8114,
      "▁nas": 8115,
      "##islari": 8116,
      "▁ruzgar": 8117,
      "##ima": 8118,
      "▁sahib": 8119,
      "▁tırnak": 8120,
      "▁bosluk": 8121,
      "##ibaren": 8122,
      "▁hiss": 8123,
      "▁bankacılık": 8124,
      "##usundan": 8125,
      "▁elleri": 8126,
      "▁pil": 8127,
      "▁isgal": 8128,
      "##emiyor": 8129,
      "▁garsonlar": 8130,
      "##itr": 8131,
      "##alıgı": 8132,
      "▁gecer": 8133,
      "##lerinin": 8134,
      "▁suz": 8135,
      "▁sirketlerinin": 8136,
      "▁)": 8137,
      "##tıl": 8138,
      "##ege": 8139,
      "▁on": 8140,
      "▁iletisim": 8141,
      "▁uyarı": 8142,
      "▁anketi": 8143,
      "##lama": 8144,
      "##ılıgı": 8145,
      "##meleri": 8146,
      "▁avantaj": 8147,
      "##ustan": 8148,
      "##lugunu": 8149,
      "▁15": 8150,
      "▁camasır": 8151,
      "##emeyecegini": 8152,
      "▁boylece": 8153,
      "▁stud": 8154,
      "##liligi": 8155,
      "▁ucretine": 8156,
      "▁ithalat": 8157,
      "▁istis": 8158,
      "##diklerini": 8159,
      "▁yurudu": 8160,
      "▁otom": 8161,
      "▁bunların": 8162,
      "##cılıgı": 8163,
      "▁of": 8164,
      "▁muhendis": 8165,
      "▁karsı": 8166,
      "##lant": 8167,
      "▁aldım": 8168,
      "▁final": 8169,
      "▁gor": 8170,
      "▁ucusunda": 8171,
      "▁ikram": 8172,
      "▁mumkun": 8173,
      "##cık": 8174,
      "▁cukur": 8175,
      "▁bizim": 8176,
      "▁calısan": 8177,
      "▁malzeme": 8178,
      "▁bolun": 8179,
      "▁tesv": 8180,
      "▁bazı": 8181,
      "▁boy": 8182,
      "▁danısman": 8183,
      "▁ajans": 8184,
      "##isin": 8185,
      "##ahi": 8186,
      "##erik": 8187,
      "▁duyguları": 8188,
      "▁angeles": 8189,
      "▁sogu": 8190,
      "▁geminin": 8191
    }
  }
}