{
  "version": "1.0",
  "truncation": null,
  "padding": null,
  "added_tokens": [
    {
      "id": 2466,
      "content": "[SEP]",
      "single_word": false,
      "lstrip": false,
      "rstrip": false,
      "normalized": false,
      "special": true
    },
    {
      "id": 4057,
      "content": "[UNK]",
      "single_word": false,
      "lstrip": false,
      "rstrip": false,
      "normalized": false,
      "special": true
    },
    {
      "id": 5142,
      "content": "[MASK]",
      "single_word": false,
      "lstrip": false,
      "rstrip": false,
      "normalized": false,
      "special": true
    },
    {
      "id": 6615,
      "content": "[PAD]",
      "single_word": false,
      "lstrip": false,
      "rstrip": false,
      "normalized": false,
      "special": true
    },
    {
      "id": 6719,
      "content": "[CLS]",
      "single_word": false,
      "lstrip": false,
      "rstrip": false,
      "normalized": false,
      "special": true
    }
  ],
  "normalizer": {
    "type": "Sequence",
    "normalizers": [
      {
        "type": "NFD"
      },
      {
        "type": "Lowercase"
      },
      {
        "type": "StripAccents"
      }
    ]
  },
  "pre_tokenizer": {
    "type": "Sequence",
    "pretokenizers": [
      {
        "type": "Metaspace",
        "replacement": "▁",
        "prepend_scheme": "always",
        "split": true
      }
    ]
  },
  "post_processor": {
    "type": "TemplateProcessing",
    "single": [
      {
        "SpecialToken": {
          "id": "[CLS]",
          "type_id": 0
        }
      },
      {
        "Sequence": {
          "id": "A",
          "type_id": 0
        }
      },
      {
        "SpecialToken": {
          "id": "[SEP]",
          "type_id": 0
        }
      }
    ],
    "pair": [
      {
        "SpecialToken": {
          "id": "[CLS]",
          "type_id": 0
        }
      },
      {
        "Sequence": {
          "id": "A",
          "type_id": 0
        }
      },
      {
        "SpecialToken": {
          "id": "[SEP]",
          "type_id": 0
        }
      },
      {
        "Sequence": {
          "id": "B",
          "type_id": 1
        }
      },
      {
        "SpecialToken": {
          "id": "[SEP]",
          "type_id": 1
        }
      }
    ],
    "special_tokens": {
      "[CLS]": {
        "id": "[CLS]",
        "ids": [
          6719
        ],
        "tokens": [
          "[CLS]"
        ]
      },
      "[SEP]": {
        "id": "[SEP]",
        "ids": [
          2466
        ],
        "tokens": [
          "[SEP]"
        ]
      }
    }
  },
  "decoder": {
    "type": "Metaspace",
    "replacement": "▁",
    "prepend_scheme": "always",
    "split": true
  },
  "model": {
    "type": "WordPiece",
    "unk_token": "[UNK]",
    "continuing_subword_prefix": "##",
    "max_input_chars_per_word": 100,
    "vocab": {
      "##siyon": 0,
      "##tıgında": 1,
      "##yası": 2,
      "##tikce": 3,
      "##ması": 4,
      "▁aldı": 5,
      "▁bahcede": 6,
      "▁borsasında": 7,
      "▁tacirler": 8,
      "▁ceviz": 9,
      "##ecegiz": 10,
      "▁hele": 11,
      "▁yapmıs": 12,
      "▁iceride": 13,
      "##lem": 14,
      "▁isler": 15,
      "##acagını": 16,
      "▁yolcul": 17,
      "▁emek": 18,
      "▁gelecek": 19,
      "▁tepki": 20,
      "##eydi": 21,
      "▁gelirler": 22,
      "▁general": 23,
      "▁boynuna": 24,
      "▁hek": 25,
      "##madim": 26,
      "▁tv": 27,
      "▁ocak": 28,
      "▁dekor": 29,
      "##iklik": 30,
      "##el": 31,
      "▁hafif": 32,
      "▁vef": 33,
      "▁karargah": 34,
      "▁genc": 35,
      "##layı": 36,
      "##ukca": 37,
      "▁meyhan": 38,
      "▁iki": 39,
      "▁piyasaları": 40,
      "##ebilir": 41,
      "▁sif": 42,
      "##estirdi": 43,
      "▁iklim": 44,
      "▁olduguna": 45,
      "▁ilk": 46,
      "▁subay": 47,
      "▁om": 48,
      "##etti": 49,
      "##gal": 50,
      "▁etkileri": 51,
      "▁liraya": 52,
      "▁verin": 53,
      "s": 54,
      "▁tartıs": 55,
      "▁oluyordu": 56,
      "▁hesabı": 57,
      "▁dalı": 58,
      "##digine": 59,
      "▁oyunc": 60,
      "▁chp": 61,
      "▁on": 62,
      "##deydi": 63,
      "▁beklen": 64,
      "▁city": 65,
      "▁gar": 66,
      "▁dayak": 67,
      "▁ilave": 68,
      "##eti": 69,
      "##tan": 70,
      "##ugum": 71,
      "##gıcı": 72,
      "##'tan": 73,
      "▁siparis": 74,
      "▁kars": 75,
      "▁atıs": 76,
      "▁tabur": 77,
      "▁olursa": 78,
      "▁ha": 79,
      "##inn": 80,
      "▁pu": 81,
      "m": 82,
      "▁hazırlık": 83,
      "▁pop": 84,
      "▁soyluyor": 85,
      "▁car": 86,
      "▁yoksul": 87,
      "##eler": 88,
      "▁mekte": 89,
      "▁birlikte": 90,
      "##udu": 91,
      "▁bahcı": 92,
      "##ade": 93,
      "▁kaynak": 94,
      "##igine": 95,
      "▁islemlerinde": 96,
      "##kul": 97,
      "▁gecirmek": 98,
      "▁kendine": 99,
      "▁merk": 100,
      "##'nda": 101,
      "▁tanr": 102,
      "▁tef": 103,
      "▁kızları": 104,
      "▁cent": 105,
      "▁barda": 106,
      "▁gorur": 107,
      "▁adım": 108,
      "▁olabilirdi": 109,
      "▁kasır": 110,
      "##desi": 111,
      "▁sinem": 112,
      "▁bana": 113,
      "##0'": 114,
      "▁gorul": 115,
      "▁mesel": 116,
      "▁sistemleri": 117,
      "##leyi": 118,
      "##lusu": 119,
      "##tır": 120,
      "▁taraftan": 121,
      "▁yasına": 122,
      "▁dakika": 123,
      "▁kayıp": 124,
      "▁sogut": 125,
      "##elerden": 126,
      "▁odeme": 127,
      "▁-": 128,
      "▁coc": 129,
      "▁unut": 130,
      "##emek": 131,
      "▁muhendis": 132,
      "##larımın": 133,
      "▁konusuyor": 134,
      "▁sebeb": 135,
      "▁bulun": 136,
      "▁verg": 137,
      "##iski": 138,
      "##ısının": 139,
      "▁ortasına": 140,
      "▁iyi": 141,
      "▁agırlık": 142,
      "▁temet": 143,
      "▁onları": 144,
      "##ha": 145,
      "▁yumurta": 146,
      "##diginde": 147,
      "▁sahil": 148,
      "▁hayır": 149,
      "▁guver": 150,
      "##ator": 151,
      "▁tac": 152,
      "##lerimize": 153,
      "▁pencere": 154,
      "▁urun": 155,
      "##ime": 156,
      "▁kablo": 157,
      "##arak": 158,
      "▁buradan": 159,
      "##ide": 160,
      "▁yapmaya": 161,
      "▁hanim": 162,
      "▁butun": 163,
      "▁kırmızı": 164,
      "▁sorusturma": 165,
      "▁haline": 166,
      "▁koseye": 167,
      "▁vak": 168,
      "##bah": 169,
      "##amıza": 170,
      "##’": 171,
      "▁harcama": 172,
      "##eceg": 173,
      "##aki": 174,
      "▁cig": 175,
      "▁demokr": 176,
      "▁surecin": 177,
      "##ili": 178,
      "▁havada": 179,
      "▁isi": 180,
      "▁lideri": 181,
      "▁ser": 182,
      "##islari": 183,
      "▁rıht": 184,
      "5": 185,
      "▁norma": 186,
      "##–": 187,
      "##egor": 188,
      "▁corba": 189,
      "▁hiz": 190,
      "▁mucevher": 191,
      "##ıstır": 192,
      "##ıklık": 193,
      "##9'a": 194,
      "▁ucunda": 195,
      "▁tırnak": 196,
      "▁cıg": 197,
      "▁eder": 198,
      "##rak": 199,
      "▁heyet": 200,
      "▁verir": 201,
      "▁tasım": 202,
      "▁hayatını": 203,
      "▁degisimi": 204,
      "▁beyin": 205,
      "▁konum": 206,
      "▁sampiyon": 207,
      "▁koy": 208,
      "##agı": 209,
      "▁bolg": 210,
      "##oglu": 211,
      "##labil": 212,
      "▁komite": 213,
      "▁miktarı": 214,
      "▁verim": 215,
      "▁must": 216,
      "▁birik": 217,
      "▁asır": 218,
      "▁muzakere": 219,
      "▁kansas": 220,
      "▁dusunuyor": 221,
      "▁bos": 222,
      "▁edin": 223,
      "▁18": 224,
      "▁ice": 225,
      "▁delikanlı": 226,
      "▁kapan": 227,
      "▁kızım": 228,
      "##acılık": 229,
      "▁kulak": 230,
      "x": 231,
      "▁parki": 232,
      "▁suyun": 233,
      "##ve": 234,
      "##aması": 235,
      "▁anlamak": 236,
      "▁amcam": 237,
      "##ılacak": 238,
      "▁nik": 239,
      "▁mudur": 240,
      "▁maliyetleri": 241,
      "▁bostan": 242,
      "##oya": 243,
      "##istler": 244,
      "▁“": 245,
      "##umuza": 246,
      "▁ceph": 247,
      "▁acisindan": 248,
      "##alara": 249,
      "▁harp": 250,
      "▁ızdır": 251,
      "▁tel": 252,
      "▁,": 253,
      "▁etmekten": 254,
      "▁sure": 255,
      "▁kalmadim": 256,
      "▁indi": 257,
      "##gım": 258,
      "▁toren": 259,
      "▁mik": 260,
      "▁cidd": 261,
      "▁men": 262,
      "▁firmaları": 263,
      "▁giyim": 264,
      "##de": 265,
      "▁cıkarma": 266,
      "##yuzlu": 267,
      "▁delta": 268,
      "▁ark": 269,
      "▁4": 270,
      "▁nuf": 271,
      "▁muhaseb": 272,
      "▁iliskin": 273,
      "▁sirket": 274,
      "##gim": 275,
      "▁mekana": 276,
      "▁zor": 277,
      "##anın": 278,
      "▁bili": 279,
      "##adet": 280,
      "▁merak": 281,
      "▁hava": 282,
      "##land": 283,
      "▁gormez": 284,
      "##aklar": 285,
      "▁temp": 286,
      "▁sattı": 287,
      "▁beyle": 288,
      "##00": 289,
      "▁temmuz": 290,
      "##araj": 291,
      "▁ayın": 292,
      "▁stand": 293,
      "▁dair": 294,
      "##lıktan": 295,
      "▁haber": 296,
      "##anının": 297,
      "##sinin": 298,
      "##iz": 299,
      "▁gerek": 300,
      "##liginin": 301,
      "▁ornek": 302,
      "▁demek": 303,
      "##atur": 304,
      "▁kalmak": 305,
      "##ılan": 306,
      "##ina": 307,
      "##eceksin": 308,
      "▁yurum": 309,
      "##bat": 310,
      "▁ni": 311,
      "▁sonuc": 312,
      "▁bankaların": 313,
      "▁oyk": 314,
      "▁bet": 315,
      "▁saniye": 316,
      "▁sayfa": 317,
      "▁fut": 318,
      "▁gelin": 319,
      "##ekli": 320,
      "▁sub": 321,
      "▁olu": 322,
      "##itr": 323,
      "▁altını": 324,
      "▁prov": 325,
      "▁gond": 326,
      "▁bisiklet": 327,
      "##ed": 328,
      "##odu": 329,
      "▁gerceklesti": 330,
      "##eyr": 331,
      "##cısı": 332,
      "▁duzen": 333,
      "##ında": 334,
      "##acılar": 335,
      "##70'": 336,
      "▁durumda": 337,
      "▁sevg": 338,
      "▁dile": 339,
      "▁odanin": 340,
      "▁haberleri": 341,
      "▁sal": 342,
      "▁alabilir": 343,
      "▁ink": 344,
      "▁hareketler": 345,
      "▁listele": 346,
      "▁sohbet": 347,
      "▁oldur": 348,
      "▁gununu": 349,
      "##inti": 350,
      "##lasıyor": 351,
      "##maları": 352,
      "▁islemin": 353,
      "##ıv": 354,
      "##ental": 355,
      "▁yası": 356,
      "▁personelin": 357,
      "▁ettigi": 358,
      "##dam": 359,
      ",": 360,
      "▁tahv": 361,
      "##tıgı": 362,
      "▁his": 363,
      "▁munaseb": 364,
      "▁karmas": 365,
      "##amaz": 366,
      "##hu": 367,
      "▁kurtul": 368,
      "##iy": 369,
      "##masıyla": 370,
      "##niz": 371,
      "▁oglan": 372,
      "▁kısa": 373,
      "▁laf": 374,
      "▁komut": 375,
      "▁metre": 376,
      "▁evinin": 377,
      "▁sterlin": 378,
      "▁is": 379,
      "▁hayatta": 380,
      "▁tanrı": 381,
      "▁yumur": 382,
      "##tih": 383,
      "▁oyuncular": 384,
      "▁gazeteci": 385,
      "▁mater": 386,
      "▁koru": 387,
      "▁gorusmek": 388,
      "##ıf": 389,
      "##enlerin": 390,
      "▁vucut": 391,
      "▁inc.": 392,
      "▁bakıma": 393,
      "▁belirt": 394,
      "▁mevki": 395,
      "##tansiy": 396,
      "▁fiyati": 397,
      "▁yılının": 398,
      "▁tutul": 399,
      "▁onune": 400,
      "▁gosterir": 401,
      "▁zayıf": 402,
      "##esinde": 403,
      "##mistim": 404,
      "▁zincir": 405,
      "▁okulda": 406,
      "##\\/": 407,
      "##elleri": 408,
      "▁talebi": 409,
      "##ici": 410,
      "▁esi": 411,
      "▁baslarına": 412,
      "▁cevresinde": 413,
      "▁sayesinde": 414,
      "▁tazmin": 415,
      "▁dinlemek": 416,
      "##asına": 417,
      "▁macı": 418,
      "##ulur": 419,
      "▁odası": 420,
      "▁saatlerini": 421,
      "▁uzmanları": 422,
      "##laması": 423,
      "▁bakanı": 424,
      "▁hucum": 425,
      "▁mah": 426,
      "▁gercegi": 427,
      "##irmi": 428,
      "▁am": 429,
      "▁dusunceler": 430,
      "▁bogaz": 431,
      "##cuk": 432,
      "▁muzak": 433,
      "▁imalat": 434,
      "▁alman": 435,
      "▁yuregi": 436,
      "▁universitesi": 437,
      "##emey": 438,
      "##kat": 439,
      "▁ur": 440,
      "▁cıkmıs": 441,
      "▁parc": 442,
      "▁yeni": 443,
      "▁yatırımcılar": 444,
      "▁seyin": 445,
      "▁toparlan": 446,
      "▁koyde": 447,
      "##mel": 448,
      "##anlık": 449,
      "▁gucunu": 450,
      "##dil": 451,
      "##sk": 452,
      "##emedim": 453,
      "▁yıgın": 454,
      "▁mac": 455,
      "##ok": 456,
      "▁yeteri": 457,
      "▁mak": 458,
      "▁nis": 459,
      "▁islet": 460,
      "▁goster": 461,
      "▁dalga": 462,
      "▁suyunu": 463,
      "▁pir": 464,
      "▁1980'": 465,
      "▁kriz": 466,
      "▁koms": 467,
      "▁istik": 468,
      "▁ma": 469,
      "▁fazlaydi": 470,
      "▁kentin": 471,
      "▁stud": 472,
      "▁sis": 473,
      "▁ulus": 474,
      "▁deprem": 475,
      "▁avuk": 476,
      "▁ton": 477,
      "##sek": 478,
      "▁istedi": 479,
      "▁olma": 480,
      "▁kuzey": 481,
      "▁kul": 482,
      "##anlar": 483,
      "▁fab": 484,
      "▁gunluk": 485,
      "##mafih": 486,
      "##lara": 487,
      "##aret": 488,
      "▁iade": 489,
      "▁kl": 490,
      "##lav": 491,
      "▁br": 492,
      "▁anti": 493,
      "▁telefonu": 494,
      "▁motiv": 495,
      "▁pat": 496,
      "##aliforn": 497,
      "▁ev": 498,
      "▁zamandan": 499,
      "▁cin": 500,
      "▁anah": 501,
      "▁baglant": 502,
      "▁dondu": 503,
      "▁`": 504,
      "▁fis": 505,
      "▁dusus": 506,
      "##ak": 507,
      "▁fot": 508,
      "▁kon": 509,
      "##ektedir": 510,
      "▁yeterli": 511,
      "▁tarihe": 512,
      "▁davranıs": 513,
      "##lu": 514,
      "##ca": 515,
      "▁olmasın": 516,
      "▁toplantısında": 517,
      "▁takdir": 518,
      "##aren": 519,
      "▁kemik": 520,
      "▁cıl": 521,
      "▁fren": 522,
      "▁od": 523,
      "▁piyan": 524,
      "▁savası": 525,
      "▁gaz": 526,
      "▁bolgede": 527,
      "##lige": 528,
      "▁kemer": 529,
      "▁binanın": 530,
      "##arlan": 531,
      "▁philadel": 532,
      "▁akla": 533,
      "▁bakalım": 534,
      "▁tok": 535,
      "▁ap": 536,
      "▁gov": 537,
      "▁kıyas": 538,
      "▁felsefe": 539,
      "▁ihtim": 540,
      "##org": 541,
      "▁kadınların": 542,
      "##uh": 543,
      "##aların": 544,
      "▁kole": 545,
      "▁tasımacılıgı": 546,
      "##ediyor": 547,
      "▁mum": 548,
      "##lılıgını": 549,
      "##rı": 550,
      "▁hır": 551,
      "##lardı": 552,
      "▁ayının": 553,
      "▁sozles": 554,
      "▁kun": 555,
      "▁odaydi": 556,
      "▁kredi": 557,
      "▁akıl": 558,
      "▁meselesi": 559,
      "▁cek": 560,
      "▁soylen": 561,
      "▁yuzyıl": 562,
      "##demki": 563,
      "▁tuccar": 564,
      "##denin": 565,
      "##laya": 566,
      "##liginde": 567,
      "##ırlar": 568,
      "##dır": 569,
      "##ust": 570,
      "▁gidis": 571,
      "▁nisan": 572,
      "▁zul": 573,
      "##likte": 574,
      "▁boylece": 575,
      "▁durusma": 576,
      "##anmıs": 577,
      "▁dum": 578,
      "▁hisselerini": 579,
      "▁tahmin": 580,
      "##enc": 581,
      "##aliydi": 582,
      "##len": 583,
      "##erindeki": 584,
      "▁american": 585,
      "▁salt": 586,
      "##t": 587,
      "▁kopr": 588,
      "▁seref": 589,
      "▁rekor": 590,
      "▁pros": 591,
      "▁mallar": 592,
      "##sil": 593,
      "▁gorduk": 594,
      "▁altından": 595,
      "▁alıs": 596,
      "▁tip": 597,
      "▁hızla": 598,
      "▁cog": 599,
      "▁yasıyor": 600,
      "##emki": 601,
      "##luge": 602,
      "##dem": 603,
      "##5'ten": 604,
      "##ket": 605,
      "▁zey": 606,
      "##ncu": 607,
      "▁gon": 608,
      "##leye": 609,
      "##elle": 610,
      "▁dede": 611,
      "##'t": 612,
      "▁sahiptir": 613,
      "f": 614,
      "▁cesitleri": 615,
      "▁erkegi": 616,
      "▁onemli": 617,
      "▁kollarını": 618,
      "▁kimi": 619,
      "##leniyor": 620,
      "▁ornegin": 621,
      "▁yandan": 622,
      "##raz": 623,
      "▁dogr": 624,
      "▁daima": 625,
      "▁dieg": 626,
      "▁yarad": 627,
      "##ru": 628,
      "▁isim": 629,
      "▁ilgilenmedi": 630,
      "▁mi": 631,
      "▁kasab": 632,
      "▁ruh": 633,
      "##alle": 634,
      "##5'te": 635,
      "▁boyle": 636,
      "▁yakinlarima": 637,
      "▁oakland'a": 638,
      "▁ardından": 639,
      "▁dib": 640,
      "##eligini": 641,
      "▁uz": 642,
      "▁hij": 643,
      "##/8'e": 644,
      "▁olmaktan": 645,
      "▁cıktı": 646,
      "▁cel": 647,
      "▁oldugun": 648,
      "##osun": 649,
      "▁hayvanlar": 650,
      "##liy": 651,
      "▁savun": 652,
      "▁hakk": 653,
      "▁balik": 654,
      "▁tarzı": 655,
      "##isler": 656,
      "▁suresi": 657,
      "##ılmasını": 658,
      "▁bicimde": 659,
      "##yabilir": 660,
      "▁protokol": 661,
      "##ınıza": 662,
      "##ucu": 663,
      "▁muzigi": 664,
      "▁nerede": 665,
      "▁isimler": 666,
      "##=": 667,
      "▁kasık": 668,
      "▁baskent": 669,
      "▁bardagı": 670,
      "▁tehdit": 671,
      "▁ulkemiz": 672,
      "▁cumhuriyeti": 673,
      "##lardan": 674,
      "##emiz": 675,
      "▁ilgisizdi": 676,
      "▁planlarını": 677,
      "▁tanım": 678,
      "##os": 679,
      "▁muayene": 680,
      "▁sosyalizm": 681,
      "▁hızı": 682,
      "▁maas": 683,
      "▁ekmek": 684,
      "▁basın": 685,
      "▁gununden": 686,
      "##ati": 687,
      "▁surucu": 688,
      "##gimiz": 689,
      "▁donemi": 690,
      "##ıya": 691,
      "▁payı": 692,
      "▁oteli": 693,
      "▁persembe": 694,
      "▁kaldı": 695,
      "##ırı": 696,
      "▁sadece": 697,
      "▁doktorun": 698,
      "i": 699,
      "▁satısı": 700,
      "##izasyon": 701,
      "##engin": 702,
      "▁yiy": 703,
      "##ali": 704,
      "##ekul": 705,
      "▁yemekleri": 706,
      "▁sırada": 707,
      "##cılıg": 708,
      "▁sahs": 709,
      "▁eline": 710,
      "▁sekreter": 711,
      "##iyordum": 712,
      "▁piyasa": 713,
      "▁bog": 714,
      "##hi": 715,
      "▁kok": 716,
      "▁istan": 717,
      "▁kahv": 718,
      "##aları": 719,
      "▁aynı": 720,
      "##keti": 721,
      "▁a.": 722,
      "▁odasında": 723,
      "##duz": 724,
      "▁edebiyat": 725,
      "▁avrupa": 726,
      "##lıklar": 727,
      "▁basında": 728,
      "##ıklar": 729,
      "▁hadis": 730,
      "##ısında": 731,
      "##0'a": 732,
      "▁ozellik": 733,
      "▁tom": 734,
      "▁sokakta": 735,
      "▁vez": 736,
      "▁tor": 737,
      "▁ilet": 738,
      "▁hic": 739,
      "▁kisisel": 740,
      "##tigini": 741,
      "##ans": 742,
      "▁tık": 743,
      "▁gozlerle": 744,
      "▁fonu": 745,
      "##iya": 746,
      "▁alanı": 747,
      "▁kagıd": 748,
      "▁gecer": 749,
      "▁dısında": 750,
      "▁itiraf": 751,
      "▁hip": 752,
      "##etr": 753,
      "##ley": 754,
      "##eyi": 755,
      "##lın": 756,
      "▁yay": 757,
      "##ıcı": 758,
      "▁ulu": 759,
      "##ess": 760,
      "▁dolayı": 761,
      "##meden": 762,
      "##lek": 763,
      "##iyet": 764,
      "▁halkı": 765,
      "▁ucusun": 766,
      "▁gonder": 767,
      ";": 768,
      "##ibaren": 769,
      "##imler": 770,
      "▁tarihte": 771,
      "##pan": 772,
      "##ıydı": 773,
      "▁temiz": 774,
      "▁lik": 775,
      "▁gunumuzde": 776,
      "▁ipotege": 777,
      "▁icer": 778,
      "▁ile": 779,
      "##ill": 780,
      "▁tehlik": 781,
      "▁sekil": 782,
      "##dıklarını": 783,
      "▁neh": 784,
      "▁kala": 785,
      "##ısma": 786,
      "##lıydı": 787,
      "▁ter": 788,
      "▁kategor": 789,
      "##inceye": 790,
      "▁ph": 791,
      "▁yud": 792,
      "▁dukkanı": 793,
      "▁boyn": 794,
      "▁sonundan": 795,
      "▁degistir": 796,
      "▁baslayacak": 797,
      "##'ya": 798,
      "▁bilet": 799,
      "▁mens": 800,
      "▁pan": 801,
      "##lah": 802,
      "##mıslar": 803,
      "##atik": 804,
      "▁puan": 805,
      "▁ayakk": 806,
      "▁hukumeti": 807,
      "▁biles": 808,
      "##ice": 809,
      "▁ilim": 810,
      "▁meyv": 811,
      "▁sayisi": 812,
      "▁ka": 813,
      "▁acıdan": 814,
      "▁kop": 815,
      "e": 816,
      "▁kısmı": 817,
      "▁yuzden": 818,
      "▁gorev": 819,
      "▁amacı": 820,
      "▁siyasi": 821,
      "▁surat": 822,
      "▁ayakları": 823,
      "##uru": 824,
      "▁yap": 825,
      "▁topluma": 826,
      "▁cocuklu": 827,
      "▁kitap": 828,
      "##yosu": 829,
      "▁soyler": 830,
      "▁basvuru": 831,
      "▁vek": 832,
      "▁geldim": 833,
      "▁dayanıs": 834,
      "▁tep": 835,
      "▁ince": 836,
      "##ikti": 837,
      "▁otede": 838,
      "▁bolgenin": 839,
      "▁mim": 840,
      "▁islerini": 841,
      "▁sarf": 842,
      "▁makin": 843,
      "▁ekonomisi": 844,
      "##satı": 845,
      "▁ucusların": 846,
      "##8": 847,
      "##lenme": 848,
      "▁olmuyor": 849,
      "▁inc": 850,
      "▁ogretmen": 851,
      "▁kardesinin": 852,
      "▁anda": 853,
      "##let": 854,
      "▁kam": 855,
      "▁tek": 856,
      "##alt": 857,
      "##malar": 858,
      "▁her": 859,
      "▁hizmet": 860,
      "##piyat": 861,
      "▁istegi": 862,
      "##izm": 863,
      "▁zemin": 864,
      "▁alım-sat": 865,
      "##men": 866,
      "▁tev": 867,
      "▁hatta": 868,
      "▁sehri": 869,
      "▁siv": 870,
      "##imizin": 871,
      "▁bagı": 872,
      "▁konusmak": 873,
      "▁kuslar": 874,
      "▁continental": 875,
      "▁ettim": 876,
      "▁tak": 877,
      "▁telefonla": 878,
      "▁agrı": 879,
      "▁ber": 880,
      "##ble": 881,
      "▁gayret": 882,
      "▁maden": 883,
      "##ekk": 884,
      "▁kez": 885,
      "▁senet": 886,
      "▁yanı": 887,
      "▁vb": 888,
      "##yal": 889,
      "##reti": 890,
      "##ırak": 891,
      "▁mucadele": 892,
      "▁nar": 893,
      "▁baslangıc": 894,
      "▁okur": 895,
      "▁komun": 896,
      "##tık": 897,
      "▁yardım": 898,
      "▁fed": 899,
      "▁bogazici": 900,
      "▁etmek": 901,
      "▁teseb": 902,
      "▁bilimin": 903,
      "##ence": 904,
      "▁hosuma": 905,
      "##kon": 906,
      "▁okula": 907,
      "▁zarf": 908,
      "##alarda": 909,
      "▁kadın": 910,
      "▁kuralları": 911,
      "▁cumhurb": 912,
      "▁cad": 913,
      "##liyor": 914,
      "▁cim": 915,
      "##.9": 916,
      "▁cizgi": 917,
      "##6": 918,
      "##uar": 919,
      "▁yoluyla": 920,
      "▁marj": 921,
      "▁soyledik": 922,
      "##lenmis": 923,
      "▁temizdi": 924,
      "##lit": 925,
      "##ini": 926,
      "▁bankaları": 927,
      "▁taks": 928,
      "▁dı": 929,
      "▁dev": 930,
      "##ugun": 931,
      "▁agac": 932,
      "##gre": 933,
      "▁gormek": 934,
      "▁pazar": 935,
      "▁nere": 936,
      "▁kavram": 937,
      "▁angel": 938,
      "▁net": 939,
      "▁cadır": 940,
      "##lardır": 941,
      "▁gelgelelim": 942,
      "▁hicbir": 943,
      "##liydi": 944,
      "▁al": 945,
      "▁koyun": 946,
      "##cuları": 947,
      "##derek": 948,
      "##ılmak": 949,
      "▁dusmus": 950,
      "▁kons": 951,
      "▁ozellikle": 952,
      "▁istasyon": 953,
      "▁traf": 954,
      "▁mahkeme": 955,
      "▁pozisyon": 956,
      "▁aksam": 957,
      "##alı": 958,
      "▁daire": 959,
      "▁ise": 960,
      "▁yabanci": 961,
      "##'i": 962,
      "▁paranin": 963,
      "▁muhafaz": 964,
      "▁sonucu": 965,
      "▁pers": 966,
      "##isk": 967,
      "##indeki": 968,
      "##asi": 969,
      "▁francisco'ya": 970,
      "▁bufe": 971,
      "##bur": 972,
      "▁cekici": 973,
      "▁cevabı": 974,
      "▁mevdu": 975,
      "▁geriye": 976,
      "▁mesele": 977,
      "▁surec": 978,
      "##bire": 979,
      "▁kuvv": 980,
      "##eciler": 981,
      "##lugunu": 982,
      "▁tahr": 983,
      "##ardan": 984,
      "##lay": 985,
      "▁yanıt": 986,
      "##abaz": 987,
      "▁tahta": 988,
      "▁ruy": 989,
      "▁''": 990,
      "▁ucretine": 991,
      "▁efendim": 992,
      "▁uzerinden": 993,
      "▁biliyorum": 994,
      "▁cizg": 995,
      "▁birkac": 996,
      "▁tutam": 997,
      "▁bisik": 998,
      "##'nden": 999,
      "##ayıf": 1000,
      "##yen": 1001,
      "▁verdi": 1002,
      "##&": 1003,
      "▁olabilecegini": 1004,
      "▁gelmek": 1005,
      "▁and": 1006,
      "▁ek": 1007,
      "▁yasa": 1008,
      "▁polit": 1009,
      "▁gelis": 1010,
      "##meler": 1011,
      "▁guler": 1012,
      "▁yas": 1013,
      "▁1988'de": 1014,
      "##'nde": 1015,
      "▁hitap": 1016,
      "▁yurut": 1017,
      "▁ucundan": 1018,
      "▁kıyafet": 1019,
      "▁yıllarında": 1020,
      "▁deli": 1021,
      "▁alındı": 1022,
      "▁mevz": 1023,
      "▁tekrar": 1024,
      "▁moral": 1025,
      "▁hemsir": 1026,
      "▁houston": 1027,
      "▁keyf": 1028,
      "▁ondan": 1029,
      "▁nasıl": 1030,
      "##evizyon": 1031,
      "##iligi": 1032,
      "##angi": 1033,
      "##lılıgı": 1034,
      "##%": 1035,
      "▁nikah": 1036,
      "▁peyniri": 1037,
      "##mma": 1038,
      "▁panik": 1039,
      "▁tarafından": 1040,
      "▁finanse": 1041,
      "▁sogan": 1042,
      "▁ayıp": 1043,
      "▁orgu": 1044,
      "▁ciftlik": 1045,
      "▁kongr": 1046,
      "▁ablam": 1047,
      "▁dusunmuyor": 1048,
      "▁ragmen": 1049,
      "▁str": 1050,
      "##umda": 1051,
      "▁geril": 1052,
      "▁kab": 1053,
      "##isinden": 1054,
      "▁karsıl": 1055,
      "▁taslar": 1056,
      "▁yerler": 1057,
      "##anmak": 1058,
      "▁imkanlar": 1059,
      "▁sirk": 1060,
      "▁biraz": 1061,
      "▁gomleg": 1062,
      "▁bulgur": 1063,
      "▁ilisk": 1064,
      "▁kıy": 1065,
      "##lik": 1066,
      "▁orn": 1067,
      "▁katkıda": 1068,
      "▁rej": 1069,
      "▁suren": 1070,
      "##etin": 1071,
      "##usune": 1072,
      "▁6": 1073,
      "▁hucre": 1074,
      "▁kenarına": 1075,
      "▁parcası": 1076,
      "##.": 1077,
      "▁hes": 1078,
      "▁kerv": 1079,
      "▁bilimi": 1080,
      "##k": 1081,
      "▁git": 1082,
      "##miyorum": 1083,
      "##tat": 1084,
      "▁dr.": 1085,
      "##tig": 1086,
      "##eyim": 1087,
      "▁new": 1088,
      "##ord": 1089,
      "▁borsada": 1090,
      "▁bulundu": 1091,
      "▁iktis": 1092,
      "▁evlilik": 1093,
      "▁almayı": 1094,
      "▁parca": 1095,
      "▁endustri": 1096,
      "▁inek": 1097,
      "▁model": 1098,
      "▁oda": 1099,
      "▁etrafında": 1100,
      "##ardı": 1101,
      "##ens": 1102,
      "▁kanıt": 1103,
      "▁san": 1104,
      "▁siyaset": 1105,
      "▁kesin": 1106,
      "▁yok": 1107,
      "##ıl": 1108,
      "▁laborat": 1109,
      "▁saatte": 1110,
      "▁sozlerini": 1111,
      "##iyordu": 1112,
      "▁tet": 1113,
      "▁cocuga": 1114,
      "▁kahvaltisi": 1115,
      "▁toplantı": 1116,
      "▁kaya": 1117,
      "▁ediyordu": 1118,
      "▁elestiri": 1119,
      "##okol": 1120,
      "▁ucaklar": 1121,
      "▁suc": 1122,
      "▁birtakım": 1123,
      "▁teskil": 1124,
      "▁sorunların": 1125,
      "##luyor": 1126,
      "▁tepeden": 1127,
      "▁yapılacak": 1128,
      "##edigini": 1129,
      "▁temer": 1130,
      "##ahat": 1131,
      "▁otelden": 1132,
      "▁olanaklari": 1133,
      "▁bask": 1134,
      "▁hissediyor": 1135,
      "▁ahlak": 1136,
      "▁esyalar": 1137,
      "##fet": 1138,
      "▁sikayet": 1139,
      "▁gorunuse": 1140,
      "▁beden": 1141,
      "▁lezz": 1142,
      "▁konularda": 1143,
      "##ansiyon": 1144,
      "▁yemis": 1145,
      "▁okumak": 1146,
      "##ayi": 1147,
      "▁tadı": 1148,
      "▁pak": 1149,
      "▁10": 1150,
      "▁banka": 1151,
      "▁ikti": 1152,
      "▁yapıt": 1153,
      "▁ai": 1154,
      "##eklen": 1155,
      "##oh": 1156,
      "##lerden": 1157,
      "##lılıg": 1158,
      "▁taraf": 1159,
      "▁direk": 1160,
      "▁yelpaz": 1161,
      "##estr": 1162,
      "▁muc": 1163,
      "##?": 1164,
      "▁ipotek": 1165,
      "##lıp": 1166,
      "##landır": 1167,
      "##abilir": 1168,
      "▁inan": 1169,
      "##lug": 1170,
      "▁dususle": 1171,
      "▁etek": 1172,
      "##dılar": 1173,
      "##ugunda": 1174,
      "▁#": 1175,
      "▁alım-satım": 1176,
      "▁anayas": 1177,
      "▁eksik": 1178,
      "▁olmay": 1179,
      "▁ihal": 1180,
      "▁yurd": 1181,
      "▁vurgu": 1182,
      "▁cal": 1183,
      "▁kizim": 1184,
      "▁aln": 1185,
      "▁zinc": 1186,
      "▁teklifini": 1187,
      "▁duygularını": 1188,
      "▁sanırım": 1189,
      "##diklerini": 1190,
      "▁ugr": 1191,
      "▁francisco'dan": 1192,
      "##siz": 1193,
      "▁jur": 1194,
      "▁tuk": 1195,
      "▁pet": 1196,
      "▁yuklen": 1197,
      "▁dam": 1198,
      "▁sirkette": 1199,
      "##ost": 1200,
      "▁ekib": 1201,
      "▁ozur": 1202,
      "▁sendika": 1203,
      "##olis": 1204,
      "▁maliyeti": 1205,
      "##lendirme": 1206,
      "▁bankanın": 1207,
      "▁adına": 1208,
      "▁ti": 1209,
      "▁memnun": 1210,
      "##medik": 1211,
      "▁asker": 1212,
      "▁varil": 1213,
      "▁yuks": 1214,
      "▁hesaba": 1215,
      "##usu": 1216,
      "▁$": 1217,
      "##enlere": 1218,
      "##dıktan": 1219,
      "##memis": 1220,
      "▁yemeklerin": 1221,
      "##uc": 1222,
      "##usunu": 1223,
      "▁doviz": 1224,
      "▁otesinde": 1225,
      "▁istihbar": 1226,
      "▁gecen": 1227,
      "▁dili": 1228,
      "##fer": 1229,
      "▁ıskarta": 1230,
      "▁baslarında": 1231,
      "##meye": 1232,
      "##atla": 1233,
      "##n": 1234,
      "##mıstır": 1235,
      "▁karab": 1236,
      "##anından": 1237,
      "▁benzer": 1238,
      "▁issizlik": 1239,
      "##arlandı": 1240,
      "▁akrab": 1241,
      "▁artıs": 1242,
      "▁list": 1243,
      "▁za": 1244,
      "▁corb": 1245,
      "▁kucuktu": 1246,
      "##'de": 1247,
      "##iti": 1248,
      "##kez": 1249,
      "##taj": 1250,
      "▁bilgilerini": 1251,
      "▁konusmayı": 1252,
      "▁mil": 1253,
      "▁konferans": 1254,
      "▁kırık": 1255,
      "▁suphe": 1256,
      "▁mas": 1257,
      "▁yanl": 1258,
      "▁genel": 1259,
      "▁lezzetleri": 1260,
      "##bak": 1261,
      "▁plak": 1262,
      "##ydi": 1263,
      "▁olmakla": 1264,
      "▁tahvillerin": 1265,
      "##elemek": 1266,
      "▁resmi": 1267,
      "▁sevgi": 1268,
      "##lsun": 1269,
      "▁ogl": 1270,
      "▁ugul": 1271,
      "▁actı": 1272,
      "▁tem": 1273,
      "##cagı": 1274,
      "##bilir": 1275,
      "▁ogretmeni": 1276,
      "▁seker": 1277,
      "▁personellerden": 1278,
      "##ınızda": 1279,
      "▁sınıfın": 1280,
      "▁subat": 1281,
      "▁olayda": 1282,
      "##gul": 1283,
      "▁agzından": 1284,
      "▁halb": 1285,
      "▁ekip": 1286,
      "▁ortalam": 1287,
      "▁bildir": 1288,
      "##unlu": 1289,
      "##gi": 1290,
      "##iden": 1291,
      "▁yıllık": 1292,
      "##layacagını": 1293,
      "▁etk": 1294,
      "▁oyle": 1295,
      "##asındaki": 1296,
      "##itraj": 1297,
      "##lastır": 1298,
      "▁koltuklar": 1299,
      "▁onunla": 1300,
      "▁yoktur": 1301,
      "##erli": 1302,
      "##lama": 1303,
      "▁portf": 1304,
      "▁saka": 1305,
      "▁idar": 1306,
      "▁izn": 1307,
      "##lendirmek": 1308,
      "##ilen": 1309,
      "▁yarattı": 1310,
      "▁sipar": 1311,
      "▁cekilm": 1312,
      "##ont": 1313,
      "##un": 1314,
      "▁muhafazakar": 1315,
      "##emin": 1316,
      "▁kası": 1317,
      "▁mes": 1318,
      "▁serisi": 1319,
      "##nc": 1320,
      "▁bire": 1321,
      "▁inis": 1322,
      "▁hosg": 1323,
      "##bab": 1324,
      "##uk": 1325,
      "▁han": 1326,
      "▁hayatın": 1327,
      "▁ayaklarının": 1328,
      "▁yıldızı": 1329,
      "▁edi": 1330,
      "▁verildi": 1331,
      "##etik": 1332,
      "##emez": 1333,
      "▁asam": 1334,
      "▁bono": 1335,
      "▁fener": 1336,
      "▁sorunu": 1337,
      "▁geldi": 1338,
      "▁duzenlem": 1339,
      "▁kultur": 1340,
      "##ezi": 1341,
      "##nuz": 1342,
      "▁gay": 1343,
      "▁ucusuna": 1344,
      "▁yapacagını": 1345,
      "##izlik": 1346,
      "g": 1347,
      "##ahi": 1348,
      "▁taahh": 1349,
      "##ate": 1350,
      "##yım": 1351,
      "▁esnaf": 1352,
      "▁mevduat": 1353,
      "##lesi": 1354,
      "▁y": 1355,
      "▁dep": 1356,
      "▁adama": 1357,
      "▁s": 1358,
      "▁cd": 1359,
      "##s": 1360,
      "▁huzun": 1361,
      "▁mısır": 1362,
      "▁destek": 1363,
      "##oj": 1364,
      "▁yalı": 1365,
      "▁teor": 1366,
      "##ane": 1367,
      "▁vaat": 1368,
      "##mamız": 1369,
      "▁ayrılık": 1370,
      "▁toplantıda": 1371,
      "▁yapacak": 1372,
      "▁elestirmen": 1373,
      "▁ozgur": 1374,
      "▁tesir": 1375,
      "##kin": 1376,
      "##lere": 1377,
      "▁temsilcisi": 1378,
      "##tern": 1379,
      "▁elma": 1380,
      "▁yabanc": 1381,
      "##maca": 1382,
      "▁durumlarda": 1383,
      "▁havaalan": 1384,
      "##emli": 1385,
      "▁malz": 1386,
      "▁acıl": 1387,
      "▁itibariyle": 1388,
      "▁kral": 1389,
      "##amayacagını": 1390,
      "##ile": 1391,
      "▁zav": 1392,
      "##ad": 1393,
      "▁tuketici": 1394,
      "▁yaptir": 1395,
      "▁hizmetinden": 1396,
      "▁piyasasının": 1397,
      "▁par": 1398,
      "##ılıgını": 1399,
      "##ata": 1400,
      "▁yalan": 1401,
      "▁degisiklikler": 1402,
      "##esem": 1403,
      "▁yur": 1404,
      "▁kontrol": 1405,
      "▁idare": 1406,
      "▁sh": 1407,
      "▁zorunda": 1408,
      "##izma": 1409,
      "▁yasama": 1410,
      "##bası": 1411,
      "▁devrim": 1412,
      "▁pittsburgh": 1413,
      "▁peyn": 1414,
      "▁baba": 1415,
      "▁kutup": 1416,
      "##larla": 1417,
      "▁sıkınt": 1418,
      "##orta": 1419,
      "▁ata": 1420,
      "▁sarkı": 1421,
      "▁degis": 1422,
      "▁yoluna": 1423,
      "▁uzer": 1424,
      "▁golg": 1425,
      "▁aktarmasız": 1426,
      "▁olmadı": 1427,
      "##lerimizin": 1428,
      "▁amc": 1429,
      "▁kılıc": 1430,
      "▁muzaker": 1431,
      "##.8": 1432,
      "▁g": 1433,
      "▁yukse": 1434,
      "▁po": 1435,
      "▁planı": 1436,
      "▁yıllarda": 1437,
      "▁avru": 1438,
      "▁tavır": 1439,
      "##ncak": 1440,
      "▁bic": 1441,
      "▁eylul": 1442,
      "##eyn": 1443,
      "▁oldular": 1444,
      "##sizdi": 1445,
      "▁11": 1446,
      "▁kuyruk": 1447,
      "▁seviyesinde": 1448,
      "##teri": 1449,
      "▁sansur": 1450,
      "▁zar": 1451,
      "▁hab": 1452,
      "##ıgına": 1453,
      "▁rak": 1454,
      "##ucc": 1455,
      "▁bonolar": 1456,
      "▁fazla": 1457,
      "▁katına": 1458,
      "##p": 1459,
      "##yol": 1460,
      "##igi": 1461,
      "▁hizmetler": 1462,
      "▁ucusa": 1463,
      "##ograf": 1464,
      "##-": 1465,
      "##ayım": 1466,
      "▁korumak": 1467,
      "▁gurur": 1468,
      "▁turlar": 1469,
      "▁sacları": 1470,
      "▁$'dan": 1471,
      "▁cıkıs": 1472,
      "▁degerlendir": 1473,
      "▁artır": 1474,
      "▁sıv": 1475,
      "▁evden": 1476,
      "##dıkları": 1477,
      "##>": 1478,
      "##ımızın": 1479,
      "▁ucuslarını": 1480,
      "▁sip": 1481,
      "▁fizik": 1482,
      "▁damar": 1483,
      "▁dumanı": 1484,
      "▁peki": 1485,
      "▁tabir": 1486,
      "▁bugun": 1487,
      "▁uyarı": 1488,
      "##ımdan": 1489,
      "▁oran": 1490,
      "▁var": 1491,
      "▁toplum": 1492,
      "▁phoeni": 1493,
      "▁bası": 1494,
      "▁charl": 1495,
      "▁av": 1496,
      "##inize": 1497,
      "##afet": 1498,
      "▁nedenlerden": 1499,
      "▁teraz": 1500,
      "▁cap": 1501,
      "▁yataklar": 1502,
      "##lum": 1503,
      "▁birey": 1504,
      "▁ailelerin": 1505,
      "▁kale": 1506,
      "##ilendir": 1507,
      "##cok": 1508,
      "▁tohum": 1509,
      "▁mendil": 1510,
      "▁tasa": 1511,
      "▁getirdi": 1512,
      "▁sid": 1513,
      "▁odasi": 1514,
      "▁anı": 1515,
      "▁ucusu": 1516,
      "##up": 1517,
      "▁butc": 1518,
      "▁guleryuzluydu": 1519,
      "##ıldıgını": 1520,
      "▁sovyet": 1521,
      "##ktu": 1522,
      "▁sor": 1523,
      "##eleriyle": 1524,
      "▁inter": 1525,
      "▁kadınları": 1526,
      "▁cıkmak": 1527,
      "▁biz": 1528,
      "▁masanın": 1529,
      "▁boy": 1530,
      "##'yi": 1531,
      "▁cıkarmaya": 1532,
      "##aklık": 1533,
      "▁agustos": 1534,
      "##larıyla": 1535,
      "▁birlik": 1536,
      "##eci": 1537,
      "▁yalnızlık": 1538,
      "▁kend": 1539,
      "##ban": 1540,
      "▁ra": 1541,
      "▁acık": 1542,
      "▁avukatlar": 1543,
      "p": 1544,
      "##sızlık": 1545,
      "▁senato": 1546,
      "▁ruya": 1547,
      "▁kadınlar": 1548,
      "▁kus": 1549,
      "▁kullanıyor": 1550,
      "##acak": 1551,
      "▁emlak": 1552,
      "▁olurdu": 1553,
      "▁hakkinda": 1554,
      "##ud": 1555,
      "▁birbirler": 1556,
      "##asyon": 1557,
      "▁muhend": 1558,
      "▁ucusunu": 1559,
      "▁tasavv": 1560,
      "▁koc": 1561,
      "▁lutfen": 1562,
      "▁olabilir": 1563,
      "▁suz": 1564,
      "▁musteriler": 1565,
      "##ırt": 1566,
      "▁rus": 1567,
      "▁acıklanmadı": 1568,
      "##masında": 1569,
      "▁1.": 1570,
      "▁nus": 1571,
      "##mesi": 1572,
      "▁tasar": 1573,
      "▁risk": 1574,
      "▁musterilere": 1575,
      "##ıc": 1576,
      "##etini": 1577,
      "▁tesvik": 1578,
      "▁tavsiye": 1579,
      "▁sayısı": 1580,
      "▁hekim": 1581,
      "▁ıskar": 1582,
      "▁ceb": 1583,
      "▁anne": 1584,
      "▁fuz": 1585,
      "##aseb": 1586,
      "▁parcaları": 1587,
      "▁sozlerine": 1588,
      "##kce": 1589,
      "▁phil": 1590,
      "▁cey": 1591,
      "▁zah": 1592,
      "▁oranı": 1593,
      "▁cerey": 1594,
      "##masın": 1595,
      "##ılmıs": 1596,
      "▁hak": 1597,
      "▁benz": 1598,
      "##anoz": 1599,
      "▁akl": 1600,
      "##oc": 1601,
      "▁ode": 1602,
      "##dugum": 1603,
      "▁aradan": 1604,
      "▁anlattı": 1605,
      "▁degildi": 1606,
      "##ultu": 1607,
      "▁evine": 1608,
      "##kları": 1609,
      "▁newark": 1610,
      "▁gosteri": 1611,
      "▁balkon": 1612,
      "▁orland": 1613,
      "▁yo": 1614,
      "##larımı": 1615,
      "▁ant": 1616,
      "▁ısıgında": 1617,
      "##lge": 1618,
      "##ların": 1619,
      "##ginde": 1620,
      "_": 1621,
      "##egiyle": 1622,
      "▁ortalık": 1623,
      "##etle": 1624,
      "▁ureticisi": 1625,
      "▁cumhurbaskanı": 1626,
      "▁oyunun": 1627,
      "##lerimin": 1628,
      "##esinin": 1629,
      "▁den": 1630,
      "▁yirmi": 1631,
      "##o'ya": 1632,
      "▁anlasması": 1633,
      "##h": 1634,
      "▁yerel": 1635,
      "##ırtı": 1636,
      "▁suda": 1637,
      "▁futbolcu": 1638,
      "▁planimiz": 1639,
      "▁kapıya": 1640,
      "▁vic": 1641,
      "##imden": 1642,
      "##irim": 1643,
      "▁deneyim": 1644,
      "##inizi": 1645,
      "▁elbise": 1646,
      "▁milyondan": 1647,
      "▁duvara": 1648,
      "▁kat": 1649,
      "##fih": 1650,
      "▁prosedur": 1651,
      "▁kosul": 1652,
      "▁gitmis": 1653,
      "▁menkul": 1654,
      "▁washington": 1655,
      "▁dısarıdan": 1656,
      "##cut": 1657,
      "▁at": 1658,
      "▁saglık": 1659,
      "▁reh": 1660,
      "▁pey": 1661,
      "▁zir": 1662,
      "▁ters": 1663,
      "▁sair": 1664,
      "▁...\"": 1665,
      "▁kuyu": 1666,
      "▁bak": 1667,
      "▁oldu": 1668,
      "##erlik": 1669,
      "▁oyuncu": 1670,
      "##ilmesine": 1671,
      "▁yon": 1672,
      "▁din": 1673,
      "▁ihmal": 1674,
      "▁mı": 1675,
      "##ıdır": 1676,
      "##luga": 1677,
      "▁incel": 1678,
      "▁ucusta": 1679,
      "▁baslamıs": 1680,
      "▁dor": 1681,
      "▁otele": 1682,
      "▁malzem": 1683,
      "▁tufek": 1684,
      "▁uygundu": 1685,
      "▁cor": 1686,
      "▁pac": 1687,
      "▁plaj": 1688,
      "▁eda": 1689,
      "##elli": 1690,
      "▁gunah": 1691,
      "▁istif": 1692,
      "▁acente": 1693,
      "▁onceki": 1694,
      "▁dagıtım": 1695,
      "▁itibar": 1696,
      "▁irade": 1697,
      "▁limon": 1698,
      "▁ayrıntı": 1699,
      "?": 1700,
      "##yl": 1701,
      "▁icme": 1702,
      "▁yuzyılın": 1703,
      "▁ardında": 1704,
      "▁yukarı": 1705,
      "▁er": 1706,
      "▁vadeli": 1707,
      "▁almak": 1708,
      "##das": 1709,
      "▁ayna": 1710,
      "▁hemen": 1711,
      "##dugu": 1712,
      "▁satıs": 1713,
      "▁yiyeceklerin": 1714,
      "▁seyler": 1715,
      "▁urunler": 1716,
      "$": 1717,
      "▁komitesi": 1718,
      "▁patlıcan": 1719,
      "##ey": 1720,
      "▁ne": 1721,
      "##itesi": 1722,
      "▁ihtiyacım": 1723,
      "▁hırsız": 1724,
      "##gan": 1725,
      "▁tespit": 1726,
      "▁zem": 1727,
      "▁kod": 1728,
      "▁yanına": 1729,
      "▁im": 1730,
      "▁cos": 1731,
      "▁muduru": 1732,
      "##5": 1733,
      "▁kullanı": 1734,
      "▁rengi": 1735,
      "▁vermedi": 1736,
      "▁otomobiller": 1737,
      "▁aras": 1738,
      "##cilerin": 1739,
      "▁ucretler": 1740,
      "▁elinde": 1741,
      "▁kem": 1742,
      "▁omz": 1743,
      "▁soylediler": 1744,
      "▁senaryo": 1745,
      "▁mon": 1746,
      "##idi": 1747,
      "▁sonlarında": 1748,
      "▁butce": 1749,
      "▁alkol": 1750,
      "▁baslamıstı": 1751,
      "▁ucusları": 1752,
      "▁196": 1753,
      "##mem": 1754,
      "▁yazı": 1755,
      "▁vermis": 1756,
      "##mis": 1757,
      "▁cid": 1758,
      "▁oglu": 1759,
      "▁adeta": 1760,
      "##ta": 1761,
      "▁sokaga": 1762,
      "▁resep": 1763,
      "▁baskanlık": 1764,
      "▁bis": 1765,
      "▁odamdan": 1766,
      "▁endustrisi": 1767,
      "##ist": 1768,
      "##isim": 1769,
      "##ede": 1770,
      "▁kokusu": 1771,
      "▁hoca": 1772,
      "▁zamana": 1773,
      "##attı": 1774,
      "▁merkezine": 1775,
      "##uv": 1776,
      "▁ordu": 1777,
      "▁gir": 1778,
      "▁temsilcileri": 1779,
      "▁mukemmeldi": 1780,
      "▁tesisten": 1781,
      "▁unu": 1782,
      "##er": 1783,
      "##alamak": 1784,
      "▁konumunu": 1785,
      "▁ait": 1786,
      "▁anim": 1787,
      "▁dunyaya": 1788,
      "▁ayrım": 1789,
      "##ulu": 1790,
      "▁kahvalti": 1791,
      "▁kapsam": 1792,
      "▁ucus": 1793,
      "##sef": 1794,
      "▁sebze": 1795,
      "▁masasında": 1796,
      "▁yeri": 1797,
      "▁odadan": 1798,
      "▁sekl": 1799,
      "▁olayın": 1800,
      "▁leblebi": 1801,
      "▁icten": 1802,
      "▁sorunlar": 1803,
      "▁cob": 1804,
      "##cılık": 1805,
      "▁herhangi": 1806,
      "▁kafa": 1807,
      "▁etti": 1808,
      "▁vali": 1809,
      "▁imk": 1810,
      "▁alın": 1811,
      "##makt": 1812,
      "▁garsonlar": 1813,
      "▁karakol": 1814,
      "##ersiz": 1815,
      "##mazdı": 1816,
      "##mektedir": 1817,
      "▁arabaya": 1818,
      "▁havlu": 1819,
      "▁gol": 1820,
      "▁degerlendirmeye": 1821,
      "▁hafız": 1822,
      "▁soruları": 1823,
      "▁philadelphia": 1824,
      "##umuze": 1825,
      "▁vergisi": 1826,
      "▁muht": 1827,
      "▁gozlerini": 1828,
      "=": 1829,
      "▁fr": 1830,
      "▁demokratlar": 1831,
      "▁cins": 1832,
      "##anıt": 1833,
      "▁birligi": 1834,
      "▁fil": 1835,
      "▁cak": 1836,
      "▁burokrat": 1837,
      "▁gorevi": 1838,
      "▁hasıl": 1839,
      "▁muhal": 1840,
      "▁sabaha": 1841,
      "▁mad": 1842,
      "##ayan": 1843,
      "▁dayan": 1844,
      "##isiyle": 1845,
      "▁yuzunun": 1846,
      "▁kalmaya": 1847,
      "▁ıs": 1848,
      "▁zam": 1849,
      "##cının": 1850,
      "▁kira": 1851,
      "▁yasındaki": 1852,
      "▁falan": 1853,
      "▁manzar": 1854,
      "##leyiciler": 1855,
      "##masına": 1856,
      "▁tasv": 1857,
      "▁mutla": 1858,
      "▁yollarda": 1859,
      "▁gunlerde": 1860,
      "▁sonbah": 1861,
      "▁kapısını": 1862,
      "▁yolda": 1863,
      "▁haziran": 1864,
      "▁gunleri": 1865,
      "▁cum": 1866,
      "▁olanlar": 1867,
      "▁kulub": 1868,
      "##her": 1869,
      "▁muamele": 1870,
      "▁degildir": 1871,
      "▁miktar": 1872,
      "▁elde": 1873,
      "▁atıl": 1874,
      "▁ogrenmek": 1875,
      "▁iyilik": 1876,
      "▁fery": 1877,
      "▁mek": 1878,
      "▁tuh": 1879,
      "▁yatırımcıları": 1880,
      "▁memnuniyeti": 1881,
      "▁satıcı": 1882,
      "▁bede": 1883,
      "▁masal": 1884,
      "##ge": 1885,
      "▁kurtar": 1886,
      "▁kadar": 1887,
      "▁cen": 1888,
      "▁bakar": 1889,
      "▁mufet": 1890,
      "▁ressam": 1891,
      "▁etkin": 1892,
      "##ılıga": 1893,
      "▁merh": 1894,
      "▁mikr": 1895,
      "##is": 1896,
      "▁halk": 1897,
      "▁kalemi": 1898,
      "##ecegim": 1899,
      "##set": 1900,
      "▁ucretlerini": 1901,
      "▁oneri": 1902,
      "▁insanlardan": 1903,
      "▁ucuslar": 1904,
      "##ikt": 1905,
      "▁amacıyla": 1906,
      "▁uzeri": 1907,
      "▁sektorunde": 1908,
      "▁hel": 1909,
      "▁kilit": 1910,
      "▁kazanmak": 1911,
      "▁kızın": 1912,
      "▁gecmis": 1913,
      "▁kut": 1914,
      "##ustu": 1915,
      "▁izin": 1916,
      "▁aqu": 1917,
      "##am": 1918,
      "▁adr": 1919,
      "▁oak": 1920,
      "▁vad": 1921,
      "##iligini": 1922,
      "▁sozcuk": 1923,
      "▁ihtimal": 1924,
      "##ni": 1925,
      "##amaya": 1926,
      "▁fas": 1927,
      "▁hepimiz": 1928,
      "▁yasamın": 1929,
      "▁um": 1930,
      "▁hisseleri": 1931,
      "▁duygu": 1932,
      "##in": 1933,
      "##alım": 1934,
      "▁he": 1935,
      "##mez": 1936,
      "▁beklenti": 1937,
      "▁parti": 1938,
      "▁dalg": 1939,
      "▁bug": 1940,
      "▁bilgisay": 1941,
      "▁yasan": 1942,
      "▁radyo": 1943,
      "▁arasında": 1944,
      "▁yav": 1945,
      "##iydi": 1946,
      "▁sehre": 1947,
      "▁babası": 1948,
      "▁ster": 1949,
      "▁kurk": 1950,
      "▁gerekti": 1951,
      "▁0.": 1952,
      "▁muhalif": 1953,
      "▁donusu": 1954,
      "##asyonu": 1955,
      "##ac": 1956,
      "##umuzu": 1957,
      "▁kaymak": 1958,
      "▁ihracat": 1959,
      "▁eliyle": 1960,
      "▁mesaj": 1961,
      "##iledi": 1962,
      "▁mus": 1963,
      "▁derg": 1964,
      "##lamak": 1965,
      "▁kazancı": 1966,
      "▁meger": 1967,
      "▁ic": 1968,
      "▁kabul": 1969,
      "▁anlay": 1970,
      "##umuzun": 1971,
      "▁sular": 1972,
      "▁yonunde": 1973,
      "▁olmustu": 1974,
      "##mul": 1975,
      "##amaları": 1976,
      "▁gotur": 1977,
      "▁hasta": 1978,
      "▁donuyor": 1979,
      "▁artısı": 1980,
      "▁rast": 1981,
      "▁grev": 1982,
      "##mekle": 1983,
      "▁askerler": 1984,
      "▁katilmak": 1985,
      "▁kel": 1986,
      "▁beraber": 1987,
      "▁annesinin": 1988,
      "##par": 1989,
      "▁dısarıya": 1990,
      "▁acmak": 1991,
      "▁tay": 1992,
      "▁ko": 1993,
      "▁kurumsal": 1994,
      "▁dergi": 1995,
      "▁misin": 1996,
      "▁yiyecekler": 1997,
      "▁=": 1998,
      "▁vermek": 1999,
      "▁gosterin": 2000,
      "▁egzersiz": 2001,
      "▁menfaat": 2002,
      "▁vol": 2003,
      "▁en": 2004,
      "▁vadesi": 2005,
      "▁zay": 2006,
      "▁kan": 2007,
      "##ira": 2008,
      "▁tiyatr": 2009,
      "##anları": 2010,
      "▁konuları": 2011,
      "▁duvarlar": 2012,
      "▁garson": 2013,
      "▁rakamlar": 2014,
      "▁son": 2015,
      "▁vah": 2016,
      "##ellikle": 2017,
      "▁bilgi": 2018,
      "▁kırıklıgı": 2019,
      "▁cocuk": 2020,
      "##meyi": 2021,
      "▁vardır": 2022,
      "##ehir": 2023,
      "▁atlan": 2024,
      "▁donan": 2025,
      "▁karanlık": 2026,
      "▁dusundu": 2027,
      "▁iste": 2028,
      "##4": 2029,
      "▁ilkbah": 2030,
      "##9": 2031,
      "▁for": 2032,
      "▁edilm": 2033,
      "▁aks": 2034,
      "##0'da": 2035,
      "##ıntı": 2036,
      "##derken": 2037,
      "##menin": 2038,
      "##sel": 2039,
      "##ule": 2040,
      "##hanede": 2041,
      "▁bırakmak": 2042,
      "##uki": 2043,
      "▁bolun": 2044,
      "▁yararlan": 2045,
      "▁ves": 2046,
      "##dikleri": 2047,
      "▁sut": 2048,
      "▁dairesi": 2049,
      "##yas": 2050,
      "▁caz": 2051,
      "▁fa": 2052,
      "▁kural": 2053,
      "▁beg": 2054,
      "▁pit": 2055,
      "##tik": 2056,
      "▁isbir": 2057,
      "▁gerekcesiyle": 2058,
      "▁isini": 2059,
      "##arım": 2060,
      "##ika": 2061,
      "▁may": 2062,
      "▁pant": 2063,
      "▁ihtiyacı": 2064,
      "▁buldu": 2065,
      "##lukte": 2066,
      "##.2": 2067,
      "##mıstım": 2068,
      "▁veren": 2069,
      "▁gorusme": 2070,
      "▁bul": 2071,
      "▁yetkilisi": 2072,
      "▁temettu": 2073,
      "▁yuzuk": 2074,
      "▁cesidi": 2075,
      "▁umur": 2076,
      "▁dalgalan": 2077,
      "▁sorustur": 2078,
      "▁cikista": 2079,
      "▁puanlama": 2080,
      "▁cesitliligi": 2081,
      "▁gozuyle": 2082,
      "▁icin": 2083,
      "▁et": 2084,
      "▁mode": 2085,
      "##.1": 2086,
      "▁yarı": 2087,
      "▁islere": 2088,
      "▁taklit": 2089,
      "▁elimden": 2090,
      "▁'": 2091,
      "##stu": 2092,
      "▁espr": 2093,
      "▁vurdu": 2094,
      "##ecekler": 2095,
      "##ag": 2096,
      "▁sigortası": 2097,
      "▁hizmette": 2098,
      "##isleri": 2099,
      "▁sahn": 2100,
      "▁yoneticiler": 2101,
      "▁oturdu": 2102,
      "▁ır": 2103,
      "▁saadet": 2104,
      "▁birer": 2105,
      "▁kalab": 2106,
      "##isyon": 2107,
      "▁tehlike": 2108,
      "##lamaları": 2109,
      "▁hazin": 2110,
      "▁animasyon": 2111,
      "##form": 2112,
      "▁bolge": 2113,
      "▁gittik": 2114,
      "▁ankete": 2115,
      "▁tatile": 2116,
      "▁sevinc": 2117,
      "▁berab": 2118,
      "▁arasına": 2119,
      "▁ticaretinde": 2120,
      "▁kendini": 2121,
      "▁laz": 2122,
      "##acagına": 2123,
      "##div": 2124,
      "▁sıf": 2125,
      "▁ceyrekte": 2126,
      "▁grup": 2127,
      "▁kork": 2128,
      "##madım": 2129,
      "▁boston'a": 2130,
      "##edigi": 2131,
      "▁americ": 2132,
      "▁kov": 2133,
      "▁fakult": 2134,
      "▁mal": 2135,
      "▁tahminlerinin": 2136,
      "▁indianapolis": 2137,
      "##dıgımı": 2138,
      "▁tayin": 2139,
      "▁ortak": 2140,
      "▁olduk": 2141,
      "▁secen": 2142,
      "‘": 2143,
      "##akat": 2144,
      "▁haft": 2145,
      "▁suya": 2146,
      "▁kada": 2147,
      "▁avantaj": 2148,
      "▁karsiladi": 2149,
      "▁agr": 2150,
      "▁arkad": 2151,
      "##se": 2152,
      "▁kucuk": 2153,
      "▁havalimanından": 2154,
      "▁fiyatlandır": 2155,
      "▁proje": 2156,
      "▁diye": 2157,
      "▁olsun": 2158,
      "▁mud": 2159,
      "▁elestir": 2160,
      "##unuz": 2161,
      "##ou": 2162,
      "##ıklarını": 2163,
      "##iv": 2164,
      "▁guzeldi": 2165,
      "▁ort": 2166,
      "▁nesil": 2167,
      "##iyetle": 2168,
      "▁gitmeyi": 2169,
      "▁yabancı": 2170,
      "▁sesle": 2171,
      "##eginin": 2172,
      "▁koyu": 2173,
      "▁soylemek": 2174,
      "▁kred": 2175,
      "▁edilir": 2176,
      "▁karakter": 2177,
      "▁kahkaha": 2178,
      "##lo": 2179,
      "▁yargıc": 2180,
      "##lar": 2181,
      "##acaktır": 2182,
      "▁yaz": 2183,
      "##ustur": 2184,
      "▁halini": 2185,
      "▁yolculuk": 2186,
      "##ez": 2187,
      "▁usak": 2188,
      "▁kasabanın": 2189,
      "▁babamın": 2190,
      "▁pamuk": 2191,
      "##25": 2192,
      "##lanı": 2193,
      "▁yes": 2194,
      "▁kendisi": 2195,
      "##gı": 2196,
      "▁cenaz": 2197,
      "##meyecek": 2198,
      "▁ing": 2199,
      "##lacak": 2200,
      "▁rut": 2201,
      "##0": 2202,
      "##masız": 2203,
      "##mekt": 2204,
      "##umus": 2205,
      "▁hırs": 2206,
      "▁oncesi": 2207,
      "▁iht": 2208,
      "▁dolay": 2209,
      "##bas": 2210,
      "▁sıg": 2211,
      "##medigini": 2212,
      "##aydı": 2213,
      "##sis": 2214,
      "▁donemin": 2215,
      "▁icine": 2216,
      "##tıkları": 2217,
      "▁konuyu": 2218,
      "▁kirpik": 2219,
      "##sınız": 2220,
      "▁skan": 2221,
      "▁ileri": 2222,
      "▁sayı": 2223,
      "▁nihayet": 2224,
      "▁gun": 2225,
      "▁tarafı": 2226,
      "▁ilgililerdi": 2227,
      "▁tarafa": 2228,
      "▁duzine": 2229,
      "##luguna": 2230,
      "▁jap": 2231,
      "▁evde": 2232,
      "▁kelime": 2233,
      "##hane": 2234,
      "##eyle": 2235,
      "##2'ye": 2236,
      "##labilir": 2237,
      "▁iddia": 2238,
      "▁ucak": 2239,
      "▁gez": 2240,
      "▁memnunum": 2241,
      "##cılara": 2242,
      "▁patron": 2243,
      "▁merkeze": 2244,
      "▁pos": 2245,
      "▁sop": 2246,
      "▁cıglık": 2247,
      "▁islemi": 2248,
      "##erh": 2249,
      "▁gece": 2250,
      "##,": 2251,
      "▁dagın": 2252,
      "▁3'ten": 2253,
      "▁denize": 2254,
      "▁magaz": 2255,
      "▁sm": 2256,
      "▁haberler": 2257,
      "▁kapının": 2258,
      "▁cami": 2259,
      "▁cub": 2260,
      "▁sıkıntısı": 2261,
      "##elere": 2262,
      "##ef": 2263,
      "##lunun": 2264,
      "##ku": 2265,
      "▁yerde": 2266,
      "▁ih": 2267,
      "▁alıyor": 2268,
      "##lasmıs": 2269,
      "##enler": 2270,
      "▁sonraki": 2271,
      "▁isaret": 2272,
      "▁patlıc": 2273,
      "▁baskanlıgı": 2274,
      "▁mekan": 2275,
      "▁dilek": 2276,
      "▁tuccarlar": 2277,
      "▁alan": 2278,
      "▁hazine": 2279,
      "##osunda": 2280,
      "##larda": 2281,
      "▁kagıt": 2282,
      "##ımızı": 2283,
      "▁listeleyin": 2284,
      "▁pis": 2285,
      "▁st.": 2286,
      "##gisi": 2287,
      "▁degerlendiririm": 2288,
      "▁sas": 2289,
      "▁bilgisayar": 2290,
      "##eket": 2291,
      "▁olanakları": 2292,
      "▁bulunuyor": 2293,
      "▁edebil": 2294,
      "▁ucuslarla": 2295,
      "▁d": 2296,
      "▁a": 2297,
      "▁soluk": 2298,
      "▁elimi": 2299,
      "▁millet": 2300,
      "▁kardesim": 2301,
      "▁isyan": 2302,
      "▁capında": 2303,
      "▁derece": 2304,
      "▁.\"": 2305,
      "##lerin": 2306,
      "▁kullanmadim": 2307,
      "▁ekmegi": 2308,
      "▁ciro": 2309,
      "▁vur": 2310,
      "▁elden": 2311,
      "##lıc": 2312,
      "▁parlam": 2313,
      "▁kimseye": 2314,
      "▁yarıs": 2315,
      "▁azdi": 2316,
      "▁duydu": 2317,
      "▁hakikat": 2318,
      "##eliginde": 2319,
      "▁sona": 2320,
      "##lendi": 2321,
      "▁piyasada": 2322,
      "##zer": 2323,
      "▁yahut": 2324,
      "##ediklerini": 2325,
      "▁beyn": 2326,
      "▁degisim": 2327,
      "##*": 2328,
      "▁sık": 2329,
      "▁bilg": 2330,
      "▁kapısına": 2331,
      "▁teknoloj": 2332,
      "▁yıldan": 2333,
      "▁felsef": 2334,
      "▁can": 2335,
      "▁anneme": 2336,
      "▁ısık": 2337,
      "##iyon": 2338,
      "▁cocuklar": 2339,
      "▁kongre": 2340,
      "▁ozgurluk": 2341,
      "▁kayd": 2342,
      "▁gerceklestir": 2343,
      "##‘": 2344,
      "▁;": 2345,
      "▁soguktu": 2346,
      "▁dog": 2347,
      "▁universit": 2348,
      "▁ortadan": 2349,
      "▁bahs": 2350,
      "▁olsa": 2351,
      "▁klim": 2352,
      "▁aksama": 2353,
      "##dım": 2354,
      "▁meydana": 2355,
      "▁camasır": 2356,
      "▁kontr": 2357,
      "▁buk": 2358,
      "▁bayan": 2359,
      "▁da": 2360,
      "##say": 2361,
      "▁maliyet": 2362,
      "▁operasyon": 2363,
      "▁darbuk": 2364,
      "▁depr": 2365,
      "▁hot": 2366,
      "▁/": 2367,
      "▁terbiy": 2368,
      "z": 2369,
      "▁hedefi": 2370,
      "##uza": 2371,
      "##lemek": 2372,
      "▁zirv": 2373,
      "▁buyume": 2374,
      "▁aklına": 2375,
      "##alarını": 2376,
      "▁kaydetti": 2377,
      "▁agzı": 2378,
      "▁muddet": 2379,
      "▁yıllardır": 2380,
      "▁kak": 2381,
      "##ington": 2382,
      "▁ora": 2383,
      "▁dusman": 2384,
      "▁kurumu": 2385,
      "▁suyu": 2386,
      "▁yaka": 2387,
      "▁konular": 2388,
      "▁cık": 2389,
      "▁stan": 2390,
      "▁gazetenin": 2391,
      "▁soguk": 2392,
      "▁kontrolu": 2393,
      "▁get": 2394,
      "▁birbirine": 2395,
      "▁kısmını": 2396,
      "##oz": 2397,
      "▁toz": 2398,
      "▁fen": 2399,
      "##mes": 2400,
      "▁aleyh": 2401,
      "▁gecmiste": 2402,
      "##ormal": 2403,
      "▁tarihin": 2404,
      "▁saat": 2405,
      "▁kısıt": 2406,
      "##icisi": 2407,
      "▁bar": 2408,
      "##uluk": 2409,
      "##mar": 2410,
      "##dıgım": 2411,
      "▁nes": 2412,
      "▁konustu": 2413,
      "##ant": 2414,
      "▁orman": 2415,
      "▁25": 2416,
      "▁de": 2417,
      "▁hast": 2418,
      "▁konusu": 2419,
      "▁tar": 2420,
      "▁data": 2421,
      "▁sp": 2422,
      "▁kil": 2423,
      "▁benim": 2424,
      "▁kelep": 2425,
      "▁egitimi": 2426,
      "▁yanlıs": 2427,
      "##iyorlardı": 2428,
      "▁altern": 2429,
      "▁dır": 2430,
      "▁cer": 2431,
      "▁gozler": 2432,
      "▁buyum": 2433,
      "##eceklerini": 2434,
      "▁vade": 2435,
      "▁guzellik": 2436,
      "▁kahve": 2437,
      "##gu": 2438,
      "▁isimiz": 2439,
      "▁semt": 2440,
      "▁tekn": 2441,
      "▁bankalar": 2442,
      "▁etkinlik": 2443,
      "▁arama": 2444,
      "##biy": 2445,
      "▁edildi": 2446,
      "▁salı": 2447,
      "▁alaka": 2448,
      "▁aleyhine": 2449,
      "##'in": 2450,
      "▁yerleri": 2451,
      "▁gelir": 2452,
      "▁esnada": 2453,
      "▁agabey": 2454,
      "▁konak": 2455,
      "▁york": 2456,
      "##'un": 2457,
      "##adır": 2458,
      "▁konuyla": 2459,
      "▁noktada": 2460,
      "▁alanlar": 2461,
      "▁sektor": 2462,
      "▁kanser": 2463,
      "▁fit": 2464,
      "▁deg": 2465,
      "[SEP]": 2466,
      "▁fay": 2467,
      "▁eseri": 2468,
      "##em": 2469,
      "▁ister": 2470,
      "##bol": 2471,
      "▁ustun": 2472,
      "▁!..": 2473,
      "▁sar": 2474,
      "▁halbuki": 2475,
      "▁ner": 2476,
      "▁baskalarının": 2477,
      "▁tur": 2478,
      "▁sır": 2479,
      "##tıgını": 2480,
      "##son": 2481,
      "▁babasının": 2482,
      "▁olacagını": 2483,
      "▁bazıları": 2484,
      "▁rady": 2485,
      "##tısı": 2486,
      "▁si": 2487,
      "▁cuma": 2488,
      "▁performans": 2489,
      "▁tenc": 2490,
      "##yla": 2491,
      "##mli": 2492,
      "▁perakende": 2493,
      "▁boyu": 2494,
      "##mayın": 2495,
      "▁tul": 2496,
      "▁sark": 2497,
      "##5'": 2498,
      "▁dakikada": 2499,
      "##ee": 2500,
      "##c": 2501,
      "▁istiyor": 2502,
      "##ren": 2503,
      "##lugunun": 2504,
      "▁tamir": 2505,
      "▁az": 2506,
      "▁kısı": 2507,
      "▁komutan": 2508,
      "▁milletvek": 2509,
      "▁cocukların": 2510,
      "▁surdu": 2511,
      "▁durdu": 2512,
      "▁il": 2513,
      "▁oranda": 2514,
      "##if": 2515,
      "▁tı": 2516,
      "▁ayakta": 2517,
      "▁las": 2518,
      "▁siir": 2519,
      "▁sok": 2520,
      "▁calısmaya": 2521,
      "▁yerinde": 2522,
      "##isinde": 2523,
      "##uzlu": 2524,
      "##inden": 2525,
      "▁koku": 2526,
      "▁ortasında": 2527,
      "##lılık": 2528,
      "##r": 2529,
      "▁insanı": 2530,
      "▁vatan": 2531,
      "▁anım": 2532,
      "▁yemekler": 2533,
      "▁tehd": 2534,
      "▁or": 2535,
      "▁yag": 2536,
      "▁makinesi": 2537,
      "▁mut": 2538,
      "##eder": 2539,
      "▁end": 2540,
      "▁digeri": 2541,
      "▁yudum": 2542,
      "##ırdı": 2543,
      "—": 2544,
      "▁alana": 2545,
      "▁hepsi": 2546,
      "▁yapmayı": 2547,
      "▁karsiligini": 2548,
      "▁sandal": 2549,
      "▁ticarette": 2550,
      "▁yıl": 2551,
      "▁icecekler": 2552,
      "##ba": 2553,
      "▁civarında": 2554,
      "▁mart": 2555,
      "##eren": 2556,
      "##tıktan": 2557,
      "▁calisanlardan": 2558,
      "##ait": 2559,
      "▁almıs": 2560,
      "▁dususu": 2561,
      "##sizligi": 2562,
      "▁serin": 2563,
      "##uzları": 2564,
      "▁uzun": 2565,
      "▁ver": 2566,
      "▁sorun": 2567,
      "▁diyet": 2568,
      "▁yerden": 2569,
      "##si": 2570,
      "▁niyet": 2571,
      "##cilik": 2572,
      "▁uyeleri": 2573,
      "▁bulgu": 2574,
      "▁ulusal": 2575,
      "▁ceviri": 2576,
      "▁ucu": 2577,
      "▁sah": 2578,
      "▁lez": 2579,
      "▁zamanla": 2580,
      "▁erkek": 2581,
      "▁kapısında": 2582,
      "▁ulkenin": 2583,
      "▁havayı": 2584,
      "▁arap": 2585,
      "▁kadını": 2586,
      "##cu": 2587,
      "▁yerine": 2588,
      "##dıgını": 2589,
      "▁elbis": 2590,
      "##tti": 2591,
      "▁yaptıgını": 2592,
      "▁kayı": 2593,
      "▁se": 2594,
      "▁nakliye": 2595,
      "##amın": 2596,
      "▁bile": 2597,
      "##agın": 2598,
      "##imen": 2599,
      "▁dilim": 2600,
      "##van": 2601,
      "##sim": 2602,
      "##atlı": 2603,
      "▁chic": 2604,
      "##sul": 2605,
      "▁calı": 2606,
      "▁sert": 2607,
      "##ından": 2608,
      "▁lı": 2609,
      "▁planın": 2610,
      "▁gittim": 2611,
      "▁tuf": 2612,
      "▁hanım": 2613,
      "▁vardı": 2614,
      "▁mor": 2615,
      "▁cemiyet": 2616,
      "▁ses": 2617,
      "##ınc": 2618,
      "▁amac": 2619,
      "▁koca": 2620,
      "##abor": 2621,
      "▁tabak": 2622,
      "##var": 2623,
      "▁telaf": 2624,
      "##eledi": 2625,
      "##-sat": 2626,
      "▁yetersiz": 2627,
      "##sunuz": 2628,
      "▁kalitesi": 2629,
      "▁viski": 2630,
      "▁pay": 2631,
      "▁aktiv": 2632,
      "##nun": 2633,
      "▁onay": 2634,
      "▁olanak": 2635,
      "▁corp.": 2636,
      "▁ama": 2637,
      "▁japonlar": 2638,
      "##acılara": 2639,
      "▁getirmek": 2640,
      "##hal": 2641,
      "▁yasam": 2642,
      "▁mada": 2643,
      "▁20": 2644,
      "▁listesini": 2645,
      "##eger": 2646,
      "▁payını": 2647,
      "▁yurek": 2648,
      "▁yılına": 2649,
      "▁sart": 2650,
      "##landıgını": 2651,
      "▁ar": 2652,
      "▁bat": 2653,
      "▁ydi": 2654,
      "##lamadı": 2655,
      "▁degisiklikleri": 2656,
      "▁hep": 2657,
      "##uzel": 2658,
      "##ligini": 2659,
      "▁keyif": 2660,
      "▁yedi": 2661,
      "##iyla": 2662,
      "▁spekul": 2663,
      "▁ailelere": 2664,
      "▁eh": 2665,
      "▁sanat": 2666,
      "▁sukur": 2667,
      "▁yapmak": 2668,
      "##larını": 2669,
      "▁ola": 2670,
      "▁ikide": 2671,
      "▁turku": 2672,
      "▁iscileri": 2673,
      "▁bakmak": 2674,
      "##tın": 2675,
      "##udur": 2676,
      "##cılıgın": 2677,
      "##irleri": 2678,
      "▁sifir": 2679,
      "▁fırın": 2680,
      "▁rolu": 2681,
      "▁kapısı": 2682,
      "▁baskan": 2683,
      "▁baslangıcı": 2684,
      "▁gelistir": 2685,
      "▁federal": 2686,
      "##kleri": 2687,
      "▁imkan": 2688,
      "##ılım": 2689,
      "##les": 2690,
      "▁farkında": 2691,
      "▁kuy": 2692,
      "▁artısla": 2693,
      "▁saldır": 2694,
      "▁seh": 2695,
      "##av": 2696,
      "▁hız": 2697,
      "▁rom": 2698,
      "▁uretim": 2699,
      "##ımızda": 2700,
      "▁borc": 2701,
      "▁nobet": 2702,
      "▁yonet": 2703,
      "##ılıgında": 2704,
      "▁karsısına": 2705,
      "▁gosterdi": 2706,
      "##lamaz": 2707,
      "##.6": 2708,
      "▁mutluluk": 2709,
      "##kah": 2710,
      "▁lezzet": 2711,
      "▁eroin": 2712,
      "▁odamiz": 2713,
      "▁199": 2714,
      "▁kahval": 2715,
      "▁tamamı": 2716,
      "▁gayrimenkul": 2717,
      "▁beye": 2718,
      "▁sel": 2719,
      "▁norm": 2720,
      "▁tuy": 2721,
      "▁bilim": 2722,
      "▁yasası": 2723,
      "▁yiyecek": 2724,
      "▁12": 2725,
      "▁katk": 2726,
      "▁baltimore'ye": 2727,
      "##acıları": 2728,
      "▁faturami": 2729,
      "▁alacak": 2730,
      "▁planlıyor": 2731,
      "▁hul": 2732,
      "##en": 2733,
      "▁yeryuz": 2734,
      "##eli": 2735,
      "##oker": 2736,
      "▁ulkede": 2737,
      "▁vegas": 2738,
      "##leyici": 2739,
      "##uyor": 2740,
      "▁mustes": 2741,
      "▁ucuyor": 2742,
      "▁anket": 2743,
      "▁istem": 2744,
      "▁ta": 2745,
      "##yacag": 2746,
      "##anlardan": 2747,
      "▁ogrenciler": 2748,
      "▁yukseldi": 2749,
      "▁spor": 2750,
      "▁duvarda": 2751,
      "▁kud": 2752,
      "▁duzenleme": 2753,
      "##man": 2754,
      "▁yıldız": 2755,
      "▁duzel": 2756,
      "##use": 2757,
      "##ger": 2758,
      "▁tum": 2759,
      "▁avukat": 2760,
      "▁masraf": 2761,
      "▁adlı": 2762,
      "▁labor": 2763,
      "▁.'": 2764,
      "▁gor": 2765,
      "▁arkadaslar": 2766,
      "▁yans": 2767,
      "▁duruma": 2768,
      "▁mev": 2769,
      "##edi": 2770,
      "▁andan": 2771,
      "▁7": 2772,
      "##irdi": 2773,
      "##ind": 2774,
      "▁konut": 2775,
      "##ıyla": 2776,
      "▁aklı": 2777,
      "▁satısa": 2778,
      "▁tatli": 2779,
      "▁gelisme": 2780,
      "▁sizi": 2781,
      "▁civ": 2782,
      "▁toplamda": 2783,
      "▁medeniyet": 2784,
      "▁oturum": 2785,
      "▁oteden": 2786,
      "▁verdim": 2787,
      "##unde": 2788,
      "▁calisanlarin": 2789,
      "▁makineler": 2790,
      "▁aracı": 2791,
      "1": 2792,
      "▁bilgilendirilmek": 2793,
      "▁insaat": 2794,
      "▁varmak": 2795,
      "▁alev": 2796,
      "▁kuzu": 2797,
      "▁kariyer": 2798,
      "##ugunu": 2799,
      "▁sozler": 2800,
      "▁gaf": 2801,
      "▁?..": 2802,
      "▁orne": 2803,
      "##gel": 2804,
      "▁hik": 2805,
      "▁ardı": 2806,
      "▁icecek": 2807,
      "▁hus": 2808,
      "▁dil": 2809,
      "▁buzdol": 2810,
      "▁durum": 2811,
      "▁danıs": 2812,
      "▁dun": 2813,
      "▁yemeklerini": 2814,
      "##ekl": 2815,
      "▁lir": 2816,
      "▁davet": 2817,
      "▁ingil": 2818,
      "▁ala": 2819,
      "##gar": 2820,
      "▁muhab": 2821,
      "##lanacak": 2822,
      "▁aktor": 2823,
      "##ırken": 2824,
      "##cak": 2825,
      "##pe": 2826,
      "##ustugunu": 2827,
      "##erince": 2828,
      "▁alet": 2829,
      "▁spons": 2830,
      "▁adam": 2831,
      "▁kaybet": 2832,
      "##landıgında": 2833,
      "▁disiplin": 2834,
      "##ını": 2835,
      "##layıp": 2836,
      "##ize": 2837,
      "▁tane": 2838,
      "▁asıl": 2839,
      "▁yaptır": 2840,
      "▁boston'dan": 2841,
      "▁tahmini": 2842,
      "▁zamanı": 2843,
      "▁konfor": 2844,
      "▁isgal": 2845,
      "▁zaman": 2846,
      "▁dortluk": 2847,
      "▁uzerinde": 2848,
      "##lerinin": 2849,
      "▁strate": 2850,
      "▁rıh": 2851,
      "▁doktorlar": 2852,
      "##a'ya": 2853,
      "▁esy": 2854,
      "▁kad": 2855,
      "##ısına": 2856,
      "▁ind": 2857,
      "▁iz": 2858,
      "▁istanbul": 2859,
      "##larca": 2860,
      "##uyorlar": 2861,
      "▁sehr": 2862,
      "▁sosyal": 2863,
      "▁bulbul": 2864,
      "▁merhaba": 2865,
      "▁bicim": 2866,
      "▁bastan": 2867,
      "▁isabet": 2868,
      "▁sek": 2869,
      "##agon": 2870,
      "▁politikası": 2871,
      "▁aydınlık": 2872,
      "##ildi": 2873,
      "▁but": 2874,
      "▁cet": 2875,
      "##bir": 2876,
      "▁huc": 2877,
      "▁icini": 2878,
      "▁tatlı": 2879,
      "▁sade": 2880,
      "▁selam": 2881,
      "▁buh": 2882,
      "▁pantolon": 2883,
      "▁lak": 2884,
      "▁pah": 2885,
      "▁sevgil": 2886,
      "▁cinayet": 2887,
      "##yalizm": 2888,
      "##o'dan": 2889,
      "▁sofra": 2890,
      "▁karı": 2891,
      "▁dedik": 2892,
      "▁tesekkurler": 2893,
      "▁elektrik": 2894,
      "▁olmustur": 2895,
      "▁yonelik": 2896,
      "▁dısına": 2897,
      "▁dest": 2898,
      "▁yetersizdi": 2899,
      "▁krizi": 2900,
      "##madi": 2901,
      "▁kolt": 2902,
      "##ledim": 2903,
      "▁memleketin": 2904,
      "##ıcılık": 2905,
      "▁gayrimen": 2906,
      "▁du": 2907,
      "##agını": 2908,
      "▁dahi": 2909,
      "▁milyardan": 2910,
      "##lugunda": 2911,
      "▁miz": 2912,
      "▁kapıları": 2913,
      "▁ogren": 2914,
      "▁odam": 2915,
      "##.3": 2916,
      "▁olabil": 2917,
      "##edigim": 2918,
      "▁sıcak": 2919,
      "▁ov": 2920,
      "##adde": 2921,
      "##)": 2922,
      "▁buraya": 2923,
      "▁sat": 2924,
      "##emis": 2925,
      "▁dısarıda": 2926,
      "##lemis": 2927,
      "##ih": 2928,
      "##lanan": 2929,
      "▁strateji": 2930,
      "▁bakkal": 2931,
      "▁kısalt": 2932,
      "##eligi": 2933,
      "##indi": 2934,
      "▁bunlar": 2935,
      "▁do": 2936,
      "▁hizm": 2937,
      "▁anay": 2938,
      "▁acen": 2939,
      "▁sayet": 2940,
      "▁sened": 2941,
      "##eg": 2942,
      "▁resim": 2943,
      "##iniz": 2944,
      "▁delikan": 2945,
      "##”": 2946,
      "▁basarı": 2947,
      "▁geride": 2948,
      "▁biber": 2949,
      "##eticiler": 2950,
      "##amet": 2951,
      "▁tadını": 2952,
      "▁antr": 2953,
      "▁ucretleri": 2954,
      "▁ed": 2955,
      "▁masaj": 2956,
      "▁piyasasında": 2957,
      "▁c": 2958,
      "▁yasad": 2959,
      "▁tadimiza": 2960,
      "▁oper": 2961,
      "##usun": 2962,
      "##'nin": 2963,
      "▁fırtına": 2964,
      "▁cumhuriyet": 2965,
      "▁olun": 2966,
      "▁tarafına": 2967,
      "▁atmak": 2968,
      "##etsiz": 2969,
      "▁enerji": 2970,
      "▁protesto": 2971,
      "▁sebeplerden": 2972,
      "▁gecir": 2973,
      "##vel": 2974,
      "▁kanunu": 2975,
      "▁hamle": 2976,
      "▁mevsim": 2977,
      "▁reklam": 2978,
      "▁impar": 2979,
      "##ıp": 2980,
      "▁lokanta": 2981,
      "▁sehirde": 2982,
      "##izdi": 2983,
      "▁sıc": 2984,
      "▁begendim": 2985,
      "▁oranlarının": 2986,
      "##amız": 2987,
      "▁artarak": 2988,
      "##ımla": 2989,
      "▁olay": 2990,
      "▁onemi": 2991,
      "##tım": 2992,
      "##apolis": 2993,
      "▁merdiven": 2994,
      "▁herif": 2995,
      "▁un": 2996,
      "▁met": 2997,
      "▁bolumunu": 2998,
      "##ims": 2999,
      "##ilerdi": 3000,
      "▁yumruk": 3001,
      "##larım": 3002,
      "##sman": 3003,
      "▁kapat": 3004,
      "▁kadınlara": 3005,
      "▁aktarma": 3006,
      "##do": 3007,
      "▁gunde": 3008,
      "▁karıstır": 3009,
      "▁zeytin": 3010,
      "▁rev": 3011,
      "▁kadına": 3012,
      "##edig": 3013,
      "▁dedikodu": 3014,
      "##'n": 3015,
      "▁keleb": 3016,
      "▁turden": 3017,
      "▁enstit": 3018,
      "▁sehirler": 3019,
      "##ara": 3020,
      "▁restor": 3021,
      "##a'nın": 3022,
      "▁ard": 3023,
      "##sas": 3024,
      "▁satmak": 3025,
      "##otte": 3026,
      "##ding": 3027,
      "▁sahipleri": 3028,
      "▁)": 3029,
      "▁yangın": 3030,
      "##mamıs": 3031,
      "▁tanıt": 3032,
      "##ska": 3033,
      "▁seklinde": 3034,
      "▁raporda": 3035,
      "▁hissed": 3036,
      "▁hamam": 3037,
      "##erdi": 3038,
      "▁cas": 3039,
      "▁havayollarını": 3040,
      "▁oyn": 3041,
      "▁pazarda": 3042,
      "▁odada": 3043,
      "▁sutu": 3044,
      "##tar": 3045,
      "▁otelin": 3046,
      "▁fonların": 3047,
      "▁ropor": 3048,
      "▁arttıgını": 3049,
      "▁atlanta": 3050,
      "##ldi": 3051,
      "▁akın": 3052,
      "##'ni": 3053,
      "▁cicek": 3054,
      "##gun": 3055,
      "▁orada": 3056,
      "▁agzını": 3057,
      "▁bıy": 3058,
      "▁isciler": 3059,
      "▁enst": 3060,
      "▁bakanlıgı": 3061,
      "##masi": 3062,
      "▁saldırı": 3063,
      "▁birinde": 3064,
      "▁ozen": 3065,
      "▁ann": 3066,
      "▁ef": 3067,
      "▁sırt": 3068,
      "##as": 3069,
      "##ına": 3070,
      "▁tasın": 3071,
      "▁buyukel": 3072,
      "▁kıs": 3073,
      "▁yılı": 3074,
      "##an": 3075,
      "▁kayb": 3076,
      "▁endise": 3077,
      "##tıklarını": 3078,
      "▁agzında": 3079,
      "▁muh": 3080,
      "▁korid": 3081,
      "▁topr": 3082,
      "##liginden": 3083,
      "▁eden": 3084,
      "▁hos": 3085,
      "▁hangisi": 3086,
      "##ume": 3087,
      "##lenmek": 3088,
      "▁3": 3089,
      "##dası": 3090,
      "▁ayakkabı": 3091,
      "▁okulu": 3092,
      "▁mini": 3093,
      "##ları": 3094,
      "▁ekonominin": 3095,
      "##3'e": 3096,
      "▁zih": 3097,
      "##ısız": 3098,
      "▁got": 3099,
      "▁kalabalık": 3100,
      "▁adalet": 3101,
      "▁aramızda": 3102,
      "▁mucev": 3103,
      "▁oc": 3104,
      "▁sebep": 3105,
      "▁karsıtı": 3106,
      "##iyetine": 3107,
      "##onel": 3108,
      "##onya": 3109,
      "▁o": 3110,
      "▁ucreti": 3111,
      "##+": 3112,
      "##ıcak": 3113,
      "▁noktasına": 3114,
      "▁hikay": 3115,
      "▁lamb": 3116,
      "▁olması": 3117,
      "▁degi": 3118,
      "##eviz": 3119,
      "▁hal": 3120,
      "▁hareket": 3121,
      "##larının": 3122,
      "▁sehrine": 3123,
      "▁insanlara": 3124,
      "▁cih": 3125,
      "##lari": 3126,
      "▁personeli": 3127,
      "##asa": 3128,
      "▁cesi": 3129,
      "##abet": 3130,
      "▁fin": 3131,
      "▁burun": 3132,
      "▁ayrıca": 3133,
      "▁sermaye": 3134,
      "▁rez": 3135,
      "▁gozleriyle": 3136,
      "▁15": 3137,
      "▁sahis": 3138,
      "▁bahc": 3139,
      "▁manzarasi": 3140,
      "▁arkadas": 3141,
      "▁ittifak": 3142,
      "▁rakamları": 3143,
      "▁degn": 3144,
      "▁kabil": 3145,
      "▁kosesine": 3146,
      "▁yapılan": 3147,
      "▁daha": 3148,
      "​": 3149,
      "▁sirketine": 3150,
      "▁igne": 3151,
      "▁canlı": 3152,
      "▁hikaye": 3153,
      "▁agab": 3154,
      "▁muhafaza": 3155,
      "▁lut": 3156,
      "▁gec": 3157,
      "##agına": 3158,
      "▁ail": 3159,
      "▁evlere": 3160,
      "▁yurtd": 3161,
      "##yıl": 3162,
      "▁pansiyon": 3163,
      "▁i": 3164,
      "▁senar": 3165,
      "▁12'den": 3166,
      "##tay": 3167,
      "##dur": 3168,
      "▁odalarin": 3169,
      "▁silah": 3170,
      "▁ki": 3171,
      "▁yemek": 3172,
      "#": 3173,
      "▁donus": 3174,
      "▁kır": 3175,
      "▁cagır": 3176,
      "##emedi": 3177,
      "▁yıla": 3178,
      "▁soyledi": 3179,
      "▁co": 3180,
      "▁el": 3181,
      "▁sın": 3182,
      "▁bez": 3183,
      "▁dallas'tan": 3184,
      "▁yemekten": 3185,
      "▁satıslarının": 3186,
      "##cag": 3187,
      "▁havası": 3188,
      "▁dava": 3189,
      "▁hayv": 3190,
      "▁hay": 3191,
      "▁yumus": 3192,
      "##ılmaz": 3193,
      "##tıgına": 3194,
      "##acıların": 3195,
      "▁hur": 3196,
      "▁eli": 3197,
      "▁mahalle": 3198,
      "▁mimar": 3199,
      "▁onur": 3200,
      "▁herkesin": 3201,
      "▁ogrenci": 3202,
      "##e": 3203,
      "▁dos": 3204,
      "▁yapı": 3205,
      "▁kof": 3206,
      "▁fırc": 3207,
      "▁kutuk": 3208,
      "##za": 3209,
      "▁zeytiny": 3210,
      "▁lirayı": 3211,
      "▁kit": 3212,
      "▁kampanyalar": 3213,
      "▁te": 3214,
      "▁tedarik": 3215,
      "##bar": 3216,
      "##ızın": 3217,
      "▁bolumu": 3218,
      "▁sorunun": 3219,
      "▁konf": 3220,
      "▁asık": 3221,
      "▁kavga": 3222,
      "##oy": 3223,
      "##ult": 3224,
      "▁doları": 3225,
      "▁dunyanın": 3226,
      "▁ticari": 3227,
      "▁degerleri": 3228,
      "##las": 3229,
      "▁tenek": 3230,
      "▁kıvıl": 3231,
      "▁oldugum": 3232,
      "▁kasaba": 3233,
      "▁gelen": 3234,
      "▁apart": 3235,
      "▁dere": 3236,
      "##uz": 3237,
      "▁onunde": 3238,
      "▁biri": 3239,
      "▁katkı": 3240,
      "▁sozcu": 3241,
      "▁fal": 3242,
      "##iyesi": 3243,
      "▁salonunda": 3244,
      "##ızda": 3245,
      "▁stat": 3246,
      "▁hayalet": 3247,
      "▁satıslar": 3248,
      "##tali": 3249,
      "##ıstı": 3250,
      "▁dol": 3251,
      "##ciler": 3252,
      "▁gormedim": 3253,
      "▁teklifi": 3254,
      "##aya": 3255,
      "▁evin": 3256,
      "▁kravat": 3257,
      "##ıyoruz": 3258,
      "▁hap": 3259,
      "▁ortalaması": 3260,
      "▁sirketinin": 3261,
      "##arı": 3262,
      "▁durak": 3263,
      "##tırmak": 3264,
      "▁tadima": 3265,
      "##cegini": 3266,
      "▁buf": 3267,
      "##lattı": 3268,
      "##ilmis": 3269,
      "▁sizin": 3270,
      "▁fiyata": 3271,
      "##lon": 3272,
      "▁alanında": 3273,
      "▁basvur": 3274,
      "▁ali": 3275,
      "▁fazl": 3276,
      "▁bekl": 3277,
      "##mini": 3278,
      "▁icimi": 3279,
      "▁kalabal": 3280,
      "▁cakmak": 3281,
      "▁kagıdı": 3282,
      "▁yemeklerden": 3283,
      "▁olcu": 3284,
      "▁gorevlisi": 3285,
      "##mer": 3286,
      "▁siparisini": 3287,
      "▁kıraat": 3288,
      "▁olmus": 3289,
      "##asindan": 3290,
      "▁sahip": 3291,
      "▁fasul": 3292,
      "▁futbol": 3293,
      "▁ideal": 3294,
      "▁yatır": 3295,
      "▁suk": 3296,
      "##yum": 3297,
      "##dikten": 3298,
      "##dın": 3299,
      "▁ucte": 3300,
      "▁aldıgı": 3301,
      "▁duk": 3302,
      "▁kaz": 3303,
      "▁yukselerek": 3304,
      "##ent": 3305,
      "##burgh": 3306,
      "##suz": 3307,
      "▁dukkan": 3308,
      "▁maliye": 3309,
      "▁yansı": 3310,
      "▁onem": 3311,
      "▁ucretini": 3312,
      "▁arazi": 3313,
      "▁bah": 3314,
      "▁patates": 3315,
      "▁sene": 3316,
      "▁yolları": 3317,
      "▁degilim": 3318,
      "▁faturam": 3319,
      "##lası": 3320,
      "##muz": 3321,
      "▁basbakan": 3322,
      "▁editor": 3323,
      "▁yan": 3324,
      "▁bahan": 3325,
      "▁operator": 3326,
      "▁redd": 3327,
      "▁gitti": 3328,
      "▁uygun": 3329,
      "##gr": 3330,
      "▁birbir": 3331,
      "##ilisi": 3332,
      "▁yard": 3333,
      "▁has": 3334,
      "▁enerj": 3335,
      "##egen": 3336,
      "▁beni": 3337,
      "▁okuz": 3338,
      "a": 3339,
      "▁senat": 3340,
      "▁tanesi": 3341,
      "##allas": 3342,
      "▁business": 3343,
      "##bil": 3344,
      "##iyeler": 3345,
      "▁vazgec": 3346,
      "▁heyeti": 3347,
      "▁be": 3348,
      "▁jand": 3349,
      "▁abd": 3350,
      "▁faal": 3351,
      "▁ric": 3352,
      "▁akr": 3353,
      "▁analist": 3354,
      "▁olayı": 3355,
      "▁yenil": 3356,
      "▁kurumları": 3357,
      "▁tarihine": 3358,
      "▁derecede": 3359,
      "▁hakkı": 3360,
      "▁tank": 3361,
      "▁olmak": 3362,
      "▁cok": 3363,
      "##i'nin": 3364,
      "+": 3365,
      "▁turkiye": 3366,
      "##ıyorum": 3367,
      "▁saun": 3368,
      "##melere": 3369,
      "▁milwa": 3370,
      "▁sogu": 3371,
      "▁taz": 3372,
      "▁meydan": 3373,
      "▁jo": 3374,
      "▁arkasında": 3375,
      "▁tuketiciler": 3376,
      "▁mademki": 3377,
      "▁yild": 3378,
      "▁boston": 3379,
      "▁chat": 3380,
      "▁olarak": 3381,
      "▁del": 3382,
      "▁veya": 3383,
      "▁cam": 3384,
      "##f": 3385,
      "▁ekonomik": 3386,
      "▁kalp": 3387,
      "▁yemeklerde": 3388,
      "▁5'ten": 3389,
      "▁ulasımını": 3390,
      "▁yavas": 3391,
      "▁geliri": 3392,
      "▁mat": 3393,
      "▁odaya": 3394,
      "##lıgından": 3395,
      "▁uyum": 3396,
      "▁islem": 3397,
      "▁telef": 3398,
      "▁sit": 3399,
      "▁dısar": 3400,
      "▁kaldik": 3401,
      "▁ederim": 3402,
      "##larına": 3403,
      "▁yapıyor": 3404,
      "##elerin": 3405,
      "▁kosk": 3406,
      "▁hediy": 3407,
      "▁kahkah": 3408,
      "##stı": 3409,
      "▁sus": 3410,
      "▁cesaret": 3411,
      "▁di": 3412,
      "▁kararı": 3413,
      "▁aqua": 3414,
      "▁gozyas": 3415,
      "▁karsıma": 3416,
      "▁had": 3417,
      "▁sepet": 3418,
      "▁huzur": 3419,
      "▁asırı": 3420,
      "##isti": 3421,
      "▁basla": 3422,
      "##ılık": 3423,
      "▁uyar": 3424,
      "##asır": 3425,
      "▁yana": 3426,
      "▁leble": 3427,
      "▁karsilama": 3428,
      "▁guven": 3429,
      "▁say": 3430,
      "▁munasebet": 3431,
      "##ob": 3432,
      "▁ofk": 3433,
      "▁ihtiyat": 3434,
      "▁lokma": 3435,
      "▁balık": 3436,
      "▁first": 3437,
      "▁sıfır": 3438,
      "▁konsol": 3439,
      "▁top": 3440,
      "##lal": 3441,
      "▁dolayi": 3442,
      "▁oteller": 3443,
      "▁uzakti": 3444,
      "▁tazminat": 3445,
      "▁boru": 3446,
      "##usunun": 3447,
      "▁mecl": 3448,
      "▁yetkililer": 3449,
      "▁elektr": 3450,
      "▁cambaz": 3451,
      "##aleti": 3452,
      "▁cogun": 3453,
      "##enek": 3454,
      "##kan": 3455,
      "▁kosullar": 3456,
      "▁sef": 3457,
      "▁konumu": 3458,
      "▁giden": 3459,
      "▁seg": 3460,
      "▁sev": 3461,
      "▁ozel": 3462,
      "▁197": 3463,
      "▁%1": 3464,
      "▁gelmedi": 3465,
      "##lık": 3466,
      "▁as": 3467,
      "▁simdiye": 3468,
      "▁seans": 3469,
      "##irmen": 3470,
      "##des": 3471,
      "▁temel": 3472,
      "▁lu": 3473,
      "##`": 3474,
      "▁yat": 3475,
      "▁ikin": 3476,
      "▁savunma": 3477,
      "▁dav": 3478,
      "▁corp": 3479,
      "▁suph": 3480,
      "▁iceriye": 3481,
      "▁plastik": 3482,
      "▁durumunda": 3483,
      "▁cogunlugu": 3484,
      "▁karsılık": 3485,
      "##ada": 3486,
      "▁bircok": 3487,
      "▁ruzg": 3488,
      "▁ikna": 3489,
      "▁dc": 3490,
      "▁ikinci": 3491,
      "▁cezası": 3492,
      "##az": 3493,
      "▁vapur": 3494,
      "▁islerin": 3495,
      "▁firma": 3496,
      "##es": 3497,
      "▁olanaklarını": 3498,
      "▁gecenin": 3499,
      "▁altı": 3500,
      "##malıdır": 3501,
      "▁tesaduf": 3502,
      "▁usul": 3503,
      "▁hacim": 3504,
      "▁kapı": 3505,
      "##x": 3506,
      "▁ayak": 3507,
      "##ugu": 3508,
      "##ımları": 3509,
      "##altı": 3510,
      "##ikleri": 3511,
      "##tikten": 3512,
      "##unluk": 3513,
      "▁musteri": 3514,
      "##ktan": 3515,
      "##ılıgı": 3516,
      "▁yurudu": 3517,
      "▁civarı": 3518,
      "▁darb": 3519,
      "##lat": 3520,
      "##iyatr": 3521,
      "##gili": 3522,
      "▁hastalıgı": 3523,
      "##alma": 3524,
      "##imle": 3525,
      "▁leh": 3526,
      "▁bedel": 3527,
      "##iyorlar": 3528,
      "▁beyaz": 3529,
      "▁acısından": 3530,
      "##bet": 3531,
      "▁10'dan": 3532,
      "▁onc": 3533,
      "▁onun": 3534,
      "##te": 3535,
      "▁yen": 3536,
      "##umlu": 3537,
      "▁bilgiye": 3538,
      "▁iscilerin": 3539,
      "▁odalar": 3540,
      "▁yonetim": 3541,
      "▁tutun": 3542,
      "##lilik": 3543,
      "▁ucmak": 3544,
      "▁ellerini": 3545,
      "▁boyutu": 3546,
      "▁sozunu": 3547,
      "▁ceyr": 3548,
      "▁kisilerin": 3549,
      "▁sevin": 3550,
      "▁portakal": 3551,
      "##'ndan": 3552,
      "▁post": 3553,
      "▁duruyordu": 3554,
      "▁calıs": 3555,
      "▁havayolları": 3556,
      "▁yeme": 3557,
      "▁veril": 3558,
      "##tıs": 3559,
      "▁geriledi": 3560,
      "▁pirinc": 3561,
      "##kun": 3562,
      "##umun": 3563,
      "▁eski": 3564,
      "##ited": 3565,
      "`": 3566,
      "▁gom": 3567,
      "▁bırak": 3568,
      "▁lev": 3569,
      "▁baglı": 3570,
      "▁dustugunu": 3571,
      "▁aylık": 3572,
      "##dik": 3573,
      "▁farklılık": 3574,
      "##luk": 3575,
      "##isle": 3576,
      "▁19": 3577,
      "▁yalnızca": 3578,
      "▁kampanya": 3579,
      "▁surpr": 3580,
      "##um": 3581,
      "▁cıkardı": 3582,
      "▁ert": 3583,
      "##onra": 3584,
      "▁ib": 3585,
      "##imiza": 3586,
      "▁yun": 3587,
      "▁pad": 3588,
      "▁med": 3589,
      "##eginden": 3590,
      "▁sahtek": 3591,
      "▁topraga": 3592,
      "##ınızı": 3593,
      "##00'den": 3594,
      "▁fotograf": 3595,
      "▁masaya": 3596,
      "▁kazancları": 3597,
      "##lı": 3598,
      "##ons": 3599,
      "▁suik": 3600,
      "##unc": 3601,
      "▁ens": 3602,
      "▁gitmek": 3603,
      "▁altında": 3604,
      "##andan": 3605,
      "▁varlıgı": 3606,
      "▁yukselisle": 3607,
      "▁yatırımcıların": 3608,
      "▁coktu": 3609,
      "▁isletme": 3610,
      "▁telgraf": 3611,
      "##ır": 3612,
      "▁garanti": 3613,
      "▁tanıtım": 3614,
      "▁kr": 3615,
      "▁dern": 3616,
      "▁ayagını": 3617,
      "##gor": 3618,
      "▁gerekir": 3619,
      "▁iskonto": 3620,
      "▁ramaz": 3621,
      "▁haberdar": 3622,
      "##lin": 3623,
      "##aat": 3624,
      "▁pasif": 3625,
      "▁cebinden": 3626,
      "▁ulasımı": 3627,
      "▁finc": 3628,
      "##leket": 3629,
      "▁olmadıgını": 3630,
      "##-a": 3631,
      "▁cesitli": 3632,
      "▁ceyreginde": 3633,
      "▁kara": 3634,
      "▁u": 3635,
      "▁gorusu": 3636,
      "▁ucuna": 3637,
      "▁soru": 3638,
      "▁donemde": 3639,
      "##asının": 3640,
      "##zet": 3641,
      "##igini": 3642,
      "▁derec": 3643,
      "▁dallas'a": 3644,
      "▁turlu": 3645,
      "▁okullar": 3646,
      "##ılma": 3647,
      "▁doldur": 3648,
      "▁kurum": 3649,
      "▁marka": 3650,
      "▁damla": 3651,
      "##ıldıgında": 3652,
      "▁bahar": 3653,
      "▁degirmen": 3654,
      "▁kurulunun": 3655,
      "▁goz": 3656,
      "▁iy": 3657,
      "▁gru": 3658,
      "▁ihtiy": 3659,
      "▁dl": 3660,
      "▁klor": 3661,
      "▁belki": 3662,
      "##int": 3663,
      "▁ziyaret": 3664,
      "##gini": 3665,
      "▁reng": 3666,
      "▁kuyr": 3667,
      "▁havalimanı": 3668,
      "##iren": 3669,
      "##larımızı": 3670,
      "##8'den": 3671,
      "##uyu": 3672,
      "##anti": 3673,
      "▁hakaret": 3674,
      "▁ederek": 3675,
      "▁rap": 3676,
      "##4'e": 3677,
      "▁sofr": 3678,
      "▁mar": 3679,
      "##he": 3680,
      "▁tabi": 3681,
      "▁olmasına": 3682,
      "▁memuru": 3683,
      "▁korkusu": 3684,
      "##erik": 3685,
      "▁ve": 3686,
      "▁basımıza": 3687,
      "▁duser": 3688,
      "▁arkadasları": 3689,
      "▁bankası": 3690,
      "▁final": 3691,
      "▁hayatı": 3692,
      "▁pahali": 3693,
      "▁varsa": 3694,
      "▁gozle": 3695,
      "▁buz": 3696,
      "▁kal": 3697,
      "▁askı": 3698,
      "▁gelistirme": 3699,
      "▁ihrac": 3700,
      "▁:": 3701,
      "▁sıkıntı": 3702,
      "▁fiz": 3703,
      "▁ucunu": 3704,
      "##kt": 3705,
      "▁deney": 3706,
      "▁dak": 3707,
      "▁cesitler": 3708,
      "▁sonucların": 3709,
      "▁uyk": 3710,
      "▁temizlik": 3711,
      "▁takımı": 3712,
      "▁icat": 3713,
      "▁zararı": 3714,
      "##lıklı": 3715,
      "▁doların": 3716,
      "▁otelde": 3717,
      "▁biliyor": 3718,
      "▁ticaret": 3719,
      "▁calısanlar": 3720,
      "▁kasıgı": 3721,
      "##ının": 3722,
      "##ro": 3723,
      "▁basladılar": 3724,
      "##une": 3725,
      "▁cif": 3726,
      "▁menf": 3727,
      "▁baskısı": 3728,
      "##ıtı": 3729,
      "▁kapıyı": 3730,
      "##.ceyr": 3731,
      "▁etmeye": 3732,
      "▁izlen": 3733,
      "##ıla": 3734,
      "##lamıs": 3735,
      "▁pl": 3736,
      "▁prens": 3737,
      "▁umut": 3738,
      "▁yesil": 3739,
      "▁heykel": 3740,
      "##tr": 3741,
      "▁sirketler": 3742,
      "##ekti": 3743,
      "▁isinin": 3744,
      "▁&": 3745,
      "##uga": 3746,
      "▁gem": 3747,
      "▁ustune": 3748,
      "##misler": 3749,
      "##ash": 3750,
      "▁oku": 3751,
      "▁sinema": 3752,
      "##madı": 3753,
      "▁dagıt": 3754,
      "▁potansiy": 3755,
      "▁ciftciler": 3756,
      "▁limuzin": 3757,
      "▁kenara": 3758,
      "##lam": 3759,
      "▁hayata": 3760,
      "##erhal": 3761,
      "▁arz": 3762,
      "##ci": 3763,
      "ı": 3764,
      "▁onumuz": 3765,
      "##go": 3766,
      "▁vil": 3767,
      "▁tasarısı": 3768,
      "▁cekildi": 3769,
      "##'na": 3770,
      "##eldi": 3771,
      "##endi": 3772,
      "##iyle": 3773,
      "▁bazi": 3774,
      "▁kas": 3775,
      "▁sms": 3776,
      "▁banyo": 3777,
      "▁seyahat": 3778,
      "▁hakkında": 3779,
      "▁levh": 3780,
      "##cık": 3781,
      "##dir": 3782,
      "▁tuttu": 3783,
      "▁kılav": 3784,
      "▁mey": 3785,
      "▁bilgiler": 3786,
      "▁boyut": 3787,
      "##lemeyi": 3788,
      "▁raf": 3789,
      "▁tasarruf": 3790,
      "▁kacır": 3791,
      "##ete": 3792,
      "▁gali": 3793,
      "##tmek": 3794,
      "##ediy": 3795,
      "▁baslar": 3796,
      "▁fon": 3797,
      "##lerde": 3798,
      "▁sabahı": 3799,
      "▁mide": 3800,
      ":": 3801,
      "▁yarat": 3802,
      "##goz": 3803,
      "##esine": 3804,
      "4": 3805,
      "▁bulus": 3806,
      "▁verdik": 3807,
      "▁analizciler": 3808,
      "▁avukatı": 3809,
      "▁harcamaları": 3810,
      "▁yakıt": 3811,
      "▁sınav": 3812,
      "▁gozunu": 3813,
      "▁8'den": 3814,
      "▁askeri": 3815,
      "▁hit": 3816,
      "▁ozelligi": 3817,
      "▁calısanı": 3818,
      "▁yara": 3819,
      "▁diren": 3820,
      "▁pisti": 3821,
      "▁clas": 3822,
      "▁tren": 3823,
      "##ub": 3824,
      "▁yum": 3825,
      "▁org": 3826,
      "##sanız": 3827,
      "▁ye": 3828,
      "##seniz": 3829,
      "▁erken": 3830,
      "##dikler": 3831,
      "▁ugras": 3832,
      "##lanmasını": 3833,
      "▁.)": 3834,
      "▁guclu": 3835,
      "▁kalan": 3836,
      "▁ucmam": 3837,
      "▁istis": 3838,
      "▁ger": 3839,
      "##ısır": 3840,
      "▁birinci": 3841,
      "##it": 3842,
      "▁sofor": 3843,
      "▁tic": 3844,
      "##ıyorsun": 3845,
      "##'lik": 3846,
      "▁saf": 3847,
      "##pr": 3848,
      "▁ik": 3849,
      "##to": 3850,
      "##minin": 3851,
      "▁yog": 3852,
      "▁sezlong": 3853,
      "▁sahib": 3854,
      "##ırım": 3855,
      "▁aktivite": 3856,
      "##rne": 3857,
      "▁skandal": 3858,
      "▁pitts": 3859,
      "▁secmen": 3860,
      "▁ihracı": 3861,
      "##ince": 3862,
      "▁ceza": 3863,
      "▁yanak": 3864,
      "▁neler": 3865,
      "▁karısı": 3866,
      "##rar": 3867,
      "▁merdiv": 3868,
      "##erler": 3869,
      "##isinda": 3870,
      "▁nakit": 3871,
      "▁ocagı": 3872,
      "##00'e": 3873,
      "▁cocukları": 3874,
      "▁yoneticisi": 3875,
      "▁zeka": 3876,
      "▁kapasit": 3877,
      "▁tekl": 3878,
      "▁fir": 3879,
      "▁kendi": 3880,
      "▁yal": 3881,
      "▁olmayı": 3882,
      "▁bag": 3883,
      "##ieg": 3884,
      "▁anlama": 3885,
      "▁deh": 3886,
      "▁toh": 3887,
      "▁egz": 3888,
      "▁dem": 3889,
      "▁yapısı": 3890,
      "▁tuhaf": 3891,
      "##orm": 3892,
      "▁alakasi": 3893,
      "▁teb": 3894,
      "##ustuk": 3895,
      "▁ad": 3896,
      "▁rezerv": 3897,
      "##lac": 3898,
      "##lemeye": 3899,
      "▁soyley": 3900,
      "▁ellerine": 3901,
      "##emm": 3902,
      "▁yogurt": 3903,
      "▁tarif": 3904,
      "▁celik": 3905,
      "▁alama": 3906,
      "▁gen": 3907,
      "▁birim": 3908,
      "##ari": 3909,
      "▁itibaren": 3910,
      "##anların": 3911,
      "▁isletmeler": 3912,
      "##ah": 3913,
      "▁oykuler": 3914,
      "▁kusk": 3915,
      "▁bab": 3916,
      "▁parası": 3917,
      "▁baz": 3918,
      "▁asagıda": 3919,
      "##tigim": 3920,
      "▁bekleniyor": 3921,
      "▁sirketlerin": 3922,
      "##amı": 3923,
      "▁duyg": 3924,
      "▁gozlerinden": 3925,
      "▁oncesinde": 3926,
      "▁bileti": 3927,
      "▁oncelik": 3928,
      "▁gost": 3929,
      "▁gonlum": 3930,
      "▁yeter": 3931,
      "▁yuz": 3932,
      "▁yatırımcının": 3933,
      "##anla": 3934,
      "▁nedenle": 3935,
      "▁durdur": 3936,
      "##rken": 3937,
      "▁rot": 3938,
      "##ıgını": 3939,
      "▁pus": 3940,
      "##eo": 3941,
      "▁artık": 3942,
      "▁calısıyor": 3943,
      "▁uzuntu": 3944,
      "\\": 3945,
      "##mı": 3946,
      "##;": 3947,
      "##diye": 3948,
      "##'si": 3949,
      "▁yaslı": 3950,
      "▁sureci": 3951,
      "##ukluk": 3952,
      "▁gorun": 3953,
      "▁sans": 3954,
      "▁restoran": 3955,
      "▁kap": 3956,
      "▁ted": 3957,
      "▁ust": 3958,
      "▁form": 3959,
      "▁istey": 3960,
      "▁seattle": 3961,
      "##0.": 3962,
      "▁dedim": 3963,
      "▁efsan": 3964,
      "▁ey": 3965,
      "##day": 3966,
      "▁veto": 3967,
      "▁doktoru": 3968,
      "▁misaf": 3969,
      "▁babama": 3970,
      "▁kosulları": 3971,
      "▁kampanyalardan": 3972,
      "##y": 3973,
      "▁iceri": 3974,
      "▁dans": 3975,
      "##osunu": 3976,
      "##iss": 3977,
      "▁re": 3978,
      "▁saray": 3979,
      "▁lim": 3980,
      "▁yarısı": 3981,
      "##7'de": 3982,
      "▁miras": 3983,
      "▁cir": 3984,
      "##usundan": 3985,
      "##ark": 3986,
      "▁pencerenin": 3987,
      "##may": 3988,
      "▁lezzetliydi": 3989,
      "##°": 3990,
      "▁luz": 3991,
      "▁takip": 3992,
      "▁sanatcı": 3993,
      "▁bunun": 3994,
      "y": 3995,
      "▁pro": 3996,
      "##alarıyla": 3997,
      "▁set": 3998,
      "▁kiralama": 3999,
      "▁idaresi": 4000,
      "▁polisler": 4001,
      "▁alıcılar": 4002,
      "##iye": 4003,
      "▁polis": 4004,
      "##ayol": 4005,
      "##ibe": 4006,
      "▁tesv": 4007,
      "▁milletin": 4008,
      "▁arkadası": 4009,
      "▁iyiydi": 4010,
      "▁neredeyse": 4011,
      "…": 4012,
      "▁milletvekili": 4013,
      "▁imam": 4014,
      "##mamak": 4015,
      "▁ortalıgı": 4016,
      "▁ureticileri": 4017,
      "##umuz": 4018,
      "##me": 4019,
      "▁sevda": 4020,
      "▁evi": 4021,
      "▁patr": 4022,
      "▁uzerine": 4023,
      "▁sergi": 4024,
      "##isin": 4025,
      "▁gurultu": 4026,
      "▁mark": 4027,
      "▁istemiyorum": 4028,
      "▁evini": 4029,
      "▁hangi": 4030,
      "##gam": 4031,
      "▁oldug": 4032,
      "▁baktı": 4033,
      "▁kapital": 4034,
      "##imde": 4035,
      "▁salat": 4036,
      "▁karlar": 4037,
      "▁oglum": 4038,
      "▁tipi": 4039,
      "▁kanun": 4040,
      "##uf": 4041,
      "##medig": 4042,
      "▁kutu": 4043,
      "▁yarar": 4044,
      "▁televizyon": 4045,
      "▁profesor": 4046,
      "▁carte": 4047,
      "▁carsı": 4048,
      "▁pencereden": 4049,
      "##ber": 4050,
      "▁uretic": 4051,
      "##art": 4052,
      "▁kendimi": 4053,
      "##orma": 4054,
      "▁gey": 4055,
      "##beri": 4056,
      "[UNK]": 4057,
      "▁sesiyle": 4058,
      "▁goc": 4059,
      "##ivers": 4060,
      "▁henuz": 4061,
      "▁karsi": 4062,
      "▁ign": 4063,
      "##ga": 4064,
      "▁tarz": 4065,
      "▁kendiler": 4066,
      "▁teslim": 4067,
      "##emmel": 4068,
      "▁bilmek": 4069,
      "##isel": 4070,
      "▁ask": 4071,
      "▁aktif": 4072,
      "##mesinin": 4073,
      "▁giy": 4074,
      "▁arıyor": 4075,
      "▁avuc": 4076,
      "##egini": 4077,
      "▁parmak": 4078,
      "▁beyan": 4079,
      "▁cunku": 4080,
      "##aca": 4081,
      "▁oluyor": 4082,
      "##cı": 4083,
      "▁kayıt": 4084,
      "▁yuksel": 4085,
      "##imore": 4086,
      "▁ogr": 4087,
      "▁seyr": 4088,
      "▁utan": 4089,
      "▁haf": 4090,
      "▁koyden": 4091,
      "##suzluk": 4092,
      "▁duman": 4093,
      "##ilim": 4094,
      "▁kalkıyor": 4095,
      "▁burn": 4096,
      "▁vatandas": 4097,
      "▁aga": 4098,
      "▁serv": 4099,
      "▁demet": 4100,
      "▁27": 4101,
      "▁iktidar": 4102,
      "▁paraya": 4103,
      "##'da": 4104,
      "▁ulası": 4105,
      "▁zihn": 4106,
      "▁bitki": 4107,
      "▁hasret": 4108,
      "▁hurr": 4109,
      "##lerinde": 4110,
      "▁uygu": 4111,
      "##il": 4112,
      "▁prof": 4113,
      "▁zengin": 4114,
      "▁haval": 4115,
      "▁dudak": 4116,
      "##anlı": 4117,
      "##ımın": 4118,
      "▁bıcak": 4119,
      "▁stratej": 4120,
      "▁adamı": 4121,
      "▁secim": 4122,
      "##unda": 4123,
      "▁guz": 4124,
      "▁kapattı": 4125,
      "▁direktoru": 4126,
      "▁varlıklar": 4127,
      "##ze": 4128,
      "##sa": 4129,
      "▁reklamlar": 4130,
      "##tem": 4131,
      "▁engel": 4132,
      "▁hayatımda": 4133,
      "##detti": 4134,
      "▁seylerin": 4135,
      "▁kapas": 4136,
      "▁bır": 4137,
      "▁yonetimi": 4138,
      "▁tesisi": 4139,
      "▁acent": 4140,
      "▁enf": 4141,
      "▁mudahale": 4142,
      "▁k": 4143,
      "▁sultan": 4144,
      "##6'dan": 4145,
      "##id": 4146,
      "##misti": 4147,
      "##ug": 4148,
      "▁tedavul": 4149,
      "▁urunlerin": 4150,
      "▁tucc": 4151,
      "▁bes": 4152,
      "▁ulkelerde": 4153,
      "##isindan": 4154,
      "##daki": 4155,
      "▁sigorta": 4156,
      "▁tesekkur": 4157,
      "▁muhtesem": 4158,
      "##…": 4159,
      "▁golge": 4160,
      "▁kızlar": 4161,
      "▁agaclar": 4162,
      "▁detayları": 4163,
      "▁merkezi": 4164,
      "▁etkisi": 4165,
      "▁asagıya": 4166,
      "##must": 4167,
      "▁w": 4168,
      "▁saatlerinde": 4169,
      "▁lid": 4170,
      "▁tedav": 4171,
      "##abilmek": 4172,
      "##usa": 4173,
      "▁dısı": 4174,
      "▁ceh": 4175,
      "▁yili": 4176,
      "##cinin": 4177,
      "▁9'dan": 4178,
      "##iness": 4179,
      "▁ag": 4180,
      "▁soya": 4181,
      "▁sag": 4182,
      "##kel": 4183,
      "##olu": 4184,
      "▁prob": 4185,
      "##lıgında": 4186,
      "▁seni": 4187,
      "##ento": 4188,
      "▁duvarın": 4189,
      "▁ikiye": 4190,
      "▁sinir": 4191,
      "##likten": 4192,
      "▁alma": 4193,
      "▁yatırımcı": 4194,
      "▁olustur": 4195,
      "##ebilecegini": 4196,
      "▁kıymetleri": 4197,
      "##isine": 4198,
      "##imize": 4199,
      "▁demokras": 4200,
      "▁kaliteye": 4201,
      "##azla": 4202,
      "##eri": 4203,
      "▁veyahut": 4204,
      "▁belir": 4205,
      "▁hareketi": 4206,
      "▁ayına": 4207,
      "▁kurus": 4208,
      "##ork": 4209,
      "▁vakti": 4210,
      "▁fiyatlarının": 4211,
      "▁telefonda": 4212,
      "▁dort": 4213,
      "▁cik": 4214,
      "##layan": 4215,
      "▁havlular": 4216,
      "▁sil": 4217,
      "▁ig": 4218,
      "▁gulery": 4219,
      "##ınlık": 4220,
      "▁lisans": 4221,
      "▁fer": 4222,
      "##eyaz": 4223,
      "▁mahk": 4224,
      "▁yavr": 4225,
      "▁fazlası": 4226,
      "▁elleri": 4227,
      "▁gib": 4228,
      "##va": 4229,
      "##larımızın": 4230,
      "##yuz": 4231,
      "▁sars": 4232,
      "▁n": 4233,
      "▁pantol": 4234,
      "▁5": 4235,
      "▁kor": 4236,
      "##mazlık": 4237,
      "##likle": 4238,
      "##uler": 4239,
      "▁seytan": 4240,
      "▁grub": 4241,
      "▁karıs": 4242,
      "▁hacmi": 4243,
      "▁istiklal": 4244,
      "▁hizmetten": 4245,
      "##(": 4246,
      "▁mahkem": 4247,
      "▁dolu": 4248,
      "▁city'e": 4249,
      "▁arasındaki": 4250,
      "##masının": 4251,
      "▁pisir": 4252,
      "▁ithalat": 4253,
      "▁konusur": 4254,
      "##1": 4255,
      "▁kazandı": 4256,
      "▁yig": 4257,
      "▁yazarın": 4258,
      "##ınız": 4259,
      "▁sesler": 4260,
      "##usten": 4261,
      "##digim": 4262,
      "▁dengesi": 4263,
      "##amay": 4264,
      "▁arabanın": 4265,
      "▁cuzdan": 4266,
      "##impiyat": 4267,
      "##din": 4268,
      "▁kıt": 4269,
      "▁endis": 4270,
      "▁cumle": 4271,
      "▁don": 4272,
      "o": 4273,
      "##ibi": 4274,
      "▁mektup": 4275,
      "▁kurtaj": 4276,
      "▁oraya": 4277,
      "▁kazanc": 4278,
      "▁annemle": 4279,
      "##ılır": 4280,
      "##sine": 4281,
      "▁isp": 4282,
      "▁mobil": 4283,
      "▁tut": 4284,
      "▁projesi": 4285,
      "▁turkc": 4286,
      "##etleri": 4287,
      "##nci": 4288,
      "##gru": 4289,
      "##.4": 4290,
      "##emeye": 4291,
      "##paz": 4292,
      "▁hapis": 4293,
      "▁fatura": 4294,
      "▁erkekler": 4295,
      "▁ozlem": 4296,
      "▁analiz": 4297,
      "##000": 4298,
      "▁sakal": 4299,
      "##fen": 4300,
      "##gını": 4301,
      "▁korun": 4302,
      "▁devam": 4303,
      "▁tramv": 4304,
      "▁olaylara": 4305,
      "▁ref": 4306,
      "▁kaynakları": 4307,
      "##uydu": 4308,
      "▁oylama": 4309,
      "▁pa": 4310,
      "##gın": 4311,
      "▁havuz": 4312,
      "##mustum": 4313,
      "▁ecz": 4314,
      "##ırmak": 4315,
      "▁genclik": 4316,
      "▁devreye": 4317,
      "##asında": 4318,
      "▁sansı": 4319,
      "##lıyordu": 4320,
      "▁kurulu": 4321,
      "##ımı": 4322,
      "▁vakit": 4323,
      "▁tedavulde": 4324,
      "##ij": 4325,
      "##ard": 4326,
      "▁yukum": 4327,
      "##inizin": 4328,
      "▁islemlerin": 4329,
      "▁burada": 4330,
      "##ur": 4331,
      "##lamam": 4332,
      "##uyordum": 4333,
      "▁gucluk": 4334,
      "▁arası": 4335,
      "▁yapmadı": 4336,
      "▁man": 4337,
      "▁cuk": 4338,
      "▁yapti": 4339,
      "▁nedeniyle": 4340,
      "▁urunleri": 4341,
      "▁yitir": 4342,
      "##imizi": 4343,
      "▁boz": 4344,
      "▁cikis": 4345,
      "##lidir": 4346,
      "▁kiz": 4347,
      "##ileri": 4348,
      "u": 4349,
      "##ıgı": 4350,
      "▁durumu": 4351,
      "▁seyir": 4352,
      "▁uluslar": 4353,
      "##ecegini": 4354,
      "▁genelde": 4355,
      "▁rezerve": 4356,
      "##dıgımız": 4357,
      "##per": 4358,
      "▁mahkemede": 4359,
      "▁animasyonlari": 4360,
      "##anı": 4361,
      "▁planının": 4362,
      "▁cat": 4363,
      "▁konuya": 4364,
      "▁yuzunden": 4365,
      "##acagım": 4366,
      "▁kırm": 4367,
      "▁sahada": 4368,
      "▁der": 4369,
      "▁cav": 4370,
      "▁film": 4371,
      "▁so": 4372,
      "##cılar": 4373,
      "##lip": 4374,
      "▁kaliteli": 4375,
      "▁baltimore'den": 4376,
      "##ligin": 4377,
      "▁acı": 4378,
      "##ret": 4379,
      "##hiss": 4380,
      "##yan": 4381,
      "▁b": 4382,
      "▁ucagı": 4383,
      "##mas": 4384,
      "▁bel": 4385,
      "##lıg": 4386,
      "▁sırasında": 4387,
      "##anma": 4388,
      "##vet": 4389,
      "▁penc": 4390,
      "▁esn": 4391,
      "##ım": 4392,
      "##ınır": 4393,
      "▁yolcu": 4394,
      "##ebilecek": 4395,
      "▁iler": 4396,
      "##att": 4397,
      "▁bu": 4398,
      "▁kitab": 4399,
      "▁ugruna": 4400,
      "▁taht": 4401,
      "##lelim": 4402,
      "▁fiyatlarını": 4403,
      "▁mektu": 4404,
      "▁yonu": 4405,
      "▁luk": 4406,
      "▁onumuzdeki": 4407,
      "▁anketi": 4408,
      "▁aklıma": 4409,
      "▁cayır": 4410,
      "▁muhasebe": 4411,
      "▁geri": 4412,
      "▁eser": 4413,
      "▁agız": 4414,
      "##cih": 4415,
      "▁arttı": 4416,
      "▁gider": 4417,
      "▁dogum": 4418,
      "▁resepsiyon": 4419,
      "▁yazar": 4420,
      "▁dis": 4421,
      "▁birinin": 4422,
      "▁temsil": 4423,
      "▁kisiyi": 4424,
      "▁goturdu": 4425,
      "▁hukuk": 4426,
      "7": 4427,
      "▁biy": 4428,
      "▁yonetici": 4429,
      "##acagı": 4430,
      "##san": 4431,
      "▁kalıb": 4432,
      "▁onların": 4433,
      "▁almaya": 4434,
      "▁cıkan": 4435,
      "▁mill": 4436,
      "▁denizin": 4437,
      "##yanın": 4438,
      "▁beyler": 4439,
      "▁disi": 4440,
      "##ıtma": 4441,
      "##adı": 4442,
      "▁denet": 4443,
      "▁guleryuzlu": 4444,
      "##lanmıs": 4445,
      "▁tahvilleri": 4446,
      "▁huz": 4447,
      "▁alıskan": 4448,
      "▁devlet": 4449,
      "▁iptal": 4450,
      "▁alımı": 4451,
      "j": 4452,
      "▁yetis": 4453,
      "▁dagı": 4454,
      "▁basv": 4455,
      "▁yargı": 4456,
      "▁kelimesi": 4457,
      "▁birdenbire": 4458,
      "▁isc": 4459,
      "▁borsa": 4460,
      "▁sokaklarda": 4461,
      "▁kisileri": 4462,
      "##arın": 4463,
      "▁ydı": 4464,
      "##isah": 4465,
      "##yar": 4466,
      "▁vardi": 4467,
      "▁imkanı": 4468,
      "▁yonetmen": 4469,
      "▁ip": 4470,
      "▁siyas": 4471,
      "##ilige": 4472,
      "▁ogle": 4473,
      "▁lig": 4474,
      "▁bugunun": 4475,
      "▁mel": 4476,
      "##how": 4477,
      "▁tey": 4478,
      "▁poz": 4479,
      "##lerdi": 4480,
      "▁catal": 4481,
      "##oyu": 4482,
      "▁elem": 4483,
      "##muyor": 4484,
      "##ing": 4485,
      "▁rakı": 4486,
      "▁tutmak": 4487,
      "▁alır": 4488,
      "▁muhalef": 4489,
      "▁eks": 4490,
      "▁muhtar": 4491,
      "##enin": 4492,
      "▁kay": 4493,
      "▁verdigim": 4494,
      "##sekiz": 4495,
      "▁hakim": 4496,
      "▁kapısından": 4497,
      "▁yak": 4498,
      "▁siddet": 4499,
      "▁yatırım": 4500,
      "##anc": 4501,
      "▁duvarı": 4502,
      "▁fikir": 4503,
      "▁sermay": 4504,
      "▁gurult": 4505,
      "▁maz": 4506,
      "▁ortagı": 4507,
      "▁diy": 4508,
      "▁netic": 4509,
      "▁verdigini": 4510,
      "▁esk": 4511,
      "▁kup": 4512,
      "▁ikisi": 4513,
      "▁id": 4514,
      "▁ilgilen": 4515,
      "▁hukumetin": 4516,
      "##edikten": 4517,
      "▁hisse": 4518,
      "▁sada": 4519,
      "▁sebz": 4520,
      "##dıgından": 4521,
      "##yız": 4522,
      "▁muslum": 4523,
      "▁armag": 4524,
      "▁piyasası": 4525,
      "▁veriyor": 4526,
      "▁uygar": 4527,
      "▁”": 4528,
      "##orlu": 4529,
      "▁gozlerinin": 4530,
      "##ızı": 4531,
      "▁ediliyor": 4532,
      "▁alısver": 4533,
      "▁eb": 4534,
      "▁dosy": 4535,
      "▁sarap": 4536,
      "##cog": 4537,
      "▁ayında": 4538,
      "▁ediyorum": 4539,
      "▁etrafı": 4540,
      "▁tuz": 4541,
      "▁art": 4542,
      "▁a.m": 4543,
      "▁icecekleri": 4544,
      "▁kesi": 4545,
      "▁tesisin": 4546,
      "##oeni": 4547,
      "▁tanıs": 4548,
      "▁edil": 4549,
      "▁pahaliydi": 4550,
      "##eyen": 4551,
      "##cıları": 4552,
      "##amıyor": 4553,
      "▁%4": 4554,
      "▁harekete": 4555,
      "▁otobus": 4556,
      "▁yad": 4557,
      "##oloji": 4558,
      "▁sahili": 4559,
      "##geleri": 4560,
      "▁barın": 4561,
      "▁bahsederim": 4562,
      "##istim": 4563,
      "▁istir": 4564,
      "▁politik": 4565,
      "▁anlasmaya": 4566,
      "▁zamanlar": 4567,
      "▁derde": 4568,
      "▁ısı": 4569,
      "▁kitapları": 4570,
      "##iza": 4571,
      "▁kredileri": 4572,
      "##cular": 4573,
      "▁pil": 4574,
      "▁etraf": 4575,
      "▁asans": 4576,
      "▁temsilci": 4577,
      "##dut": 4578,
      "##eb": 4579,
      "##esiyle": 4580,
      "##edav": 4581,
      "▁uyelerinin": 4582,
      "▁komisyon": 4583,
      "▁bıraktı": 4584,
      "▁yılların": 4585,
      "▁kirp": 4586,
      "▁soy": 4587,
      "▁ocagın": 4588,
      "▁aktar": 4589,
      "▁sog": 4590,
      "▁iddi": 4591,
      "▁fedakar": 4592,
      "▁rah": 4593,
      "▁farklı": 4594,
      "▁domates": 4595,
      "▁co.": 4596,
      "▁17": 4597,
      "▁konser": 4598,
      "▁uzakta": 4599,
      "##ere": 4600,
      "▁eylem": 4601,
      "▁sikay": 4602,
      "▁sonrası": 4603,
      "▁yapma": 4604,
      "▁dolas": 4605,
      "▁doktor": 4606,
      "##inin": 4607,
      "##irip": 4608,
      "▁otlar": 4609,
      "▁bey": 4610,
      "▁vatand": 4611,
      "▁cozum": 4612,
      "▁fabrika": 4613,
      "▁gerdan": 4614,
      "▁nokta": 4615,
      "▁cadde": 4616,
      "▁makal": 4617,
      "▁franc": 4618,
      "##illeri": 4619,
      "▁husus": 4620,
      "▁koymak": 4621,
      "▁anlasmanın": 4622,
      "▁icerisinde": 4623,
      "▁tari": 4624,
      "▁yetkililerine": 4625,
      "▁koydu": 4626,
      "▁analistlerin": 4627,
      "##di": 4628,
      "▁uzmanlar": 4629,
      "▁bon": 4630,
      "▁unsur": 4631,
      "▁seks": 4632,
      "##ılmaya": 4633,
      "##urken": 4634,
      "▁yani": 4635,
      "▁hem": 4636,
      "##aduf": 4637,
      "▁!": 4638,
      "##alarım": 4639,
      "##una": 4640,
      "##“": 4641,
      "##cılıgı": 4642,
      "▁cars": 4643,
      "##dıgı": 4644,
      "▁trafik": 4645,
      "▁ayn": 4646,
      "▁amer": 4647,
      "▁hisseye": 4648,
      "▁borsası": 4649,
      "▁performansi": 4650,
      "▁kaynagı": 4651,
      "▁paran": 4652,
      "▁baltimore": 4653,
      "▁sadakat": 4654,
      "▁fena": 4655,
      "▁pazartesi": 4656,
      "##ıma": 4657,
      "▁saglamak": 4658,
      "▁kıymetler": 4659,
      "▁temyiz": 4660,
      "▁muhabbet": 4661,
      "▁st": 4662,
      "##verdi": 4663,
      "▁kapıdan": 4664,
      "▁satısların": 4665,
      "▁deger": 4666,
      "##met": 4667,
      "▁soh": 4668,
      "▁piyasalar": 4669,
      "▁duvar": 4670,
      "▁sez": 4671,
      "▁endustr": 4672,
      "▁esya": 4673,
      "▁begenmedim": 4674,
      "##daydı": 4675,
      "▁yapar": 4676,
      "##lıyor": 4677,
      "▁uzere": 4678,
      "▁getiri": 4679,
      "▁vakıf": 4680,
      "##mesin": 4681,
      "▁komplek": 4682,
      "▁sorum": 4683,
      "▁misafirimiz": 4684,
      "▁komisyonları": 4685,
      "▁finans": 4686,
      "▁onunden": 4687,
      "▁kalktı": 4688,
      "▁yolun": 4689,
      "▁boyunca": 4690,
      "▁mavi": 4691,
      "▁gormeye": 4692,
      "▁bocek": 4693,
      "▁geliyordu": 4694,
      "▁eger": 4695,
      "##liler": 4696,
      "▁miting": 4697,
      "▁agzına": 4698,
      "##end": 4699,
      "▁fırt": 4700,
      "##alarla": 4701,
      "▁gozlerimi": 4702,
      "▁koye": 4703,
      "▁kamp": 4704,
      "##minde": 4705,
      "▁harik": 4706,
      "▁gereksin": 4707,
      "##\\": 4708,
      "##ir": 4709,
      "▁olimpiyat": 4710,
      "▁corap": 4711,
      "▁saman": 4712,
      "▁gelmis": 4713,
      "▁cumhuriyetciler": 4714,
      "*": 4715,
      "▁hayat": 4716,
      "▁gorgu": 4717,
      "▁trans": 4718,
      "▁sozcusu": 4719,
      "▁disk": 4720,
      "▁odayı": 4721,
      "▁cogu": 4722,
      "##leri": 4723,
      "▁kaptan": 4724,
      "##emiyorum": 4725,
      "▁clev": 4726,
      "▁mantık": 4727,
      "▁animasyonlar": 4728,
      "▁ab": 4729,
      "▁duruyor": 4730,
      "▁cocugun": 4731,
      "▁digerleri": 4732,
      "▁kısım": 4733,
      "▁gide": 4734,
      "##ken": 4735,
      "▁arb": 4736,
      "▁fiyatını": 4737,
      "##ip": 4738,
      "##ich": 4739,
      "▁ticareti": 4740,
      "##ota": 4741,
      "▁har": 4742,
      "##'ı": 4743,
      "##mız": 4744,
      "##i": 4745,
      "▁deniz": 4746,
      "▁nitelik": 4747,
      "▁duserek": 4748,
      "▁sokak": 4749,
      "▁dusunce": 4750,
      "▁piyano": 4751,
      "▁durus": 4752,
      "▁stokları": 4753,
      "##uma": 4754,
      "##ıy": 4755,
      "▁destekl": 4756,
      "▁eglence": 4757,
      "▁pazarın": 4758,
      "▁anası": 4759,
      "##yasal": 4760,
      "▁kim": 4761,
      "##—": 4762,
      "▁salon": 4763,
      "▁ban": 4764,
      "▁ufuk": 4765,
      "▁kur": 4766,
      "##'s": 4767,
      "▁sınıfta": 4768,
      "▁tarla": 4769,
      "▁etmem": 4770,
      "##andır": 4771,
      "▁araba": 4772,
      "▁imkanlari": 4773,
      "##ly": 4774,
      "▁aydın": 4775,
      "##liyat": 4776,
      "▁disinda": 4777,
      "▁azalt": 4778,
      "▁arab": 4779,
      "▁baskalarına": 4780,
      "▁boncuk": 4781,
      "▁azından": 4782,
      "▁varlıgını": 4783,
      "▁ima": 4784,
      "##edil": 4785,
      "▁vs": 4786,
      "##muyordu": 4787,
      "▁tad": 4788,
      "▁soylem": 4789,
      "##ational": 4790,
      "▁petrol": 4791,
      "▁kıvılc": 4792,
      "▁": 4793,
      "▁bekliyor": 4794,
      "▁yıld": 4795,
      "▁kadeh": 4796,
      "▁ul": 4797,
      ".": 4798,
      "##larini": 4799,
      "▁nas": 4800,
      "▁olmayan": 4801,
      "▁tatmin": 4802,
      "▁avukatları": 4803,
      "▁cag": 4804,
      "▁gecm": 4805,
      "▁gid": 4806,
      "▁halen": 4807,
      "▁des": 4808,
      "▁buldum": 4809,
      "▁islemlerde": 4810,
      "▁altın": 4811,
      "▁getirir": 4812,
      "▁mali": 4813,
      "##kil": 4814,
      "▁galiba": 4815,
      "▁birden": 4816,
      "▁gecirdi": 4817,
      "▁arkada": 4818,
      "##0'dan": 4819,
      "▁kuf": 4820,
      "▁yalnız": 4821,
      "▁japon": 4822,
      "▁hat": 4823,
      "▁kullan": 4824,
      "▁tat": 4825,
      "##piyon": 4826,
      "▁yeniden": 4827,
      "▁havaliman": 4828,
      "##estiri": 4829,
      "▁aradi": 4830,
      "##ıyorlar": 4831,
      "▁acıkladı": 4832,
      "##elik": 4833,
      "▁li": 4834,
      "▁spot": 4835,
      "##imizden": 4836,
      "##irgin": 4837,
      "▁devralma": 4838,
      "▁kumar": 4839,
      "##urg": 4840,
      "##lerinden": 4841,
      "▁karın": 4842,
      "▁hizmetleri": 4843,
      "##ıcının": 4844,
      "▁sesi": 4845,
      "▁annem": 4846,
      "▁okudu": 4847,
      "##ol": 4848,
      "▁merm": 4849,
      "▁hakkını": 4850,
      "▁kisilik": 4851,
      "▁kıyı": 4852,
      "##agında": 4853,
      "▁kıskanc": 4854,
      "##obil": 4855,
      "▁26": 4856,
      "▁cırp": 4857,
      "##ılıg": 4858,
      "▁ugra": 4859,
      "##dugunde": 4860,
      "▁reform": 4861,
      "▁havaya": 4862,
      "##ye": 4863,
      "##esti": 4864,
      "##ital": 4865,
      "▁sorular": 4866,
      "##oru": 4867,
      "▁aslında": 4868,
      "▁ingiliz": 4869,
      "▁yuksekti": 4870,
      "▁tiyatrosu": 4871,
      "▁kufur": 4872,
      "▁dunyasında": 4873,
      "##ster": 4874,
      "▁vuc": 4875,
      "▁geyik": 4876,
      "▁sup": 4877,
      "▁…": 4878,
      "##ong": 4879,
      "▁muhat": 4880,
      "##imizde": 4881,
      "##tia": 4882,
      "##imin": 4883,
      "▁yaklasık": 4884,
      "▁havaalanı": 4885,
      "▁dibinde": 4886,
      "n": 4887,
      "▁koylu": 4888,
      "▁koltuk": 4889,
      "▁yetki": 4890,
      "##ec": 4891,
      "▁devr": 4892,
      "▁sirketleri": 4893,
      "▁olmadıgı": 4894,
      "##fi": 4895,
      "▁altına": 4896,
      "▁ediyoruz": 4897,
      "▁havaal": 4898,
      "##lastı": 4899,
      "##ıklıgı": 4900,
      "▁anlas": 4901,
      "▁takv": 4902,
      "▁calismas": 4903,
      "▁ayrıl": 4904,
      "##ifti": 4905,
      "▁haklar": 4906,
      "▁malum": 4907,
      "▁beri": 4908,
      "##/": 4909,
      "▁grubun": 4910,
      "▁bilinc": 4911,
      "▁tab": 4912,
      "▁olm": 4913,
      "##u": 4914,
      "##gur": 4915,
      "▁plan": 4916,
      "##'dan": 4917,
      "▁olcude": 4918,
      "▁karsılıgında": 4919,
      "##lilig": 4920,
      "▁teknoloji": 4921,
      "##lasyon": 4922,
      "▁ayr": 4923,
      "▁aksamı": 4924,
      "##graf": 4925,
      "▁ayagı": 4926,
      "▁krav": 4927,
      "▁gunler": 4928,
      "▁sonucunda": 4929,
      "▁karısının": 4930,
      "▁karayol": 4931,
      "▁ihracları": 4932,
      "##z": 4933,
      "▁sahibi": 4934,
      "▁gecti": 4935,
      "##atır": 4936,
      "##lıgı": 4937,
      "##dıg": 4938,
      "▁oldugundan": 4939,
      "##irli": 4940,
      "##ayı": 4941,
      "▁insanları": 4942,
      "▁ciz": 4943,
      "▁ediyorlar": 4944,
      "▁cıkarmak": 4945,
      "##han": 4946,
      "▁sezon": 4947,
      "▁bo": 4948,
      "'": 4949,
      "▁kom": 4950,
      "▁yardımcısı": 4951,
      "▁bedeli": 4952,
      "▁meclis": 4953,
      "##l": 4954,
      "##duk": 4955,
      "▁yansıt": 4956,
      "▁ulkemizde": 4957,
      "##onom": 4958,
      "##memiz": 4959,
      "▁fiyat": 4960,
      "▁girer": 4961,
      "▁ula": 4962,
      "▁topu": 4963,
      "▁ayaga": 4964,
      "▁ofis": 4965,
      "##ida": 4966,
      "▁fiyatlar": 4967,
      "▁geceleri": 4968,
      "▁in": 4969,
      "▁danısmanı": 4970,
      "▁agır": 4971,
      "▁iflas": 4972,
      "▁dunya": 4973,
      "▁bulut": 4974,
      "▁nine": 4975,
      "##elerini": 4976,
      "▁yukseldigini": 4977,
      "▁alısveris": 4978,
      "##ra": 4979,
      "▁oteki": 4980,
      "▁gures": 4981,
      "##lerle": 4982,
      "▁yoldan": 4983,
      "▁tabanc": 4984,
      "##ank": 4985,
      "##'te": 4986,
      "▁tu": 4987,
      "▁em": 4988,
      "##tal": 4989,
      "▁amel": 4990,
      "▁donanma": 4991,
      "▁emn": 4992,
      "▁herk": 4993,
      "##'nı": 4994,
      "##ustos": 4995,
      "##inc": 4996,
      "##eme": 4997,
      "▁servis": 4998,
      "▁duzey": 4999,
      "##ledi": 5000,
      "▁yerlerde": 5001,
      "##ayacagını": 5002,
      "▁%8": 5003,
      "▁alıcı": 5004,
      "▁entar": 5005,
      "▁cesitlilik": 5006,
      "▁emtia": 5007,
      "##ucuk": 5008,
      "▁mec": 5009,
      "##ıza": 5010,
      "▁heves": 5011,
      "##inci": 5012,
      "▁sozc": 5013,
      "▁ilgis": 5014,
      "##0-": 5015,
      "▁yetk": 5016,
      "▁arastır": 5017,
      "▁isleme": 5018,
      "▁geciyor": 5019,
      "▁kuc": 5020,
      "▁sikint": 5021,
      "▁azal": 5022,
      "▁yasay": 5023,
      "##ates": 5024,
      "▁dosya": 5025,
      "▁kog": 5026,
      "##lerim": 5027,
      "▁burc": 5028,
      "9": 5029,
      "##lugu": 5030,
      "▁sob": 5031,
      "##ama": 5032,
      "▁isten": 5033,
      "▁198": 5034,
      "▁demir": 5035,
      "▁cagr": 5036,
      "▁pur": 5037,
      "▁hayal": 5038,
      "▁vucu": 5039,
      "▁manzara": 5040,
      "▁kalmıs": 5041,
      "##miyordu": 5042,
      "##mistir": 5043,
      "▁ucrete": 5044,
      "##'e": 5045,
      "▁toplan": 5046,
      "##etic": 5047,
      "▁damak": 5048,
      "▁gorunuyor": 5049,
      "▁yapıl": 5050,
      "▁kamu": 5051,
      "▁dondur": 5052,
      "▁iletisim": 5053,
      "▁gezi": 5054,
      "##lanır": 5055,
      "##pa": 5056,
      "##lerek": 5057,
      "▁red": 5058,
      "▁firmanın": 5059,
      "▁aram": 5060,
      "▁piyasaya": 5061,
      "▁kis": 5062,
      "▁ız": 5063,
      "▁harek": 5064,
      "▁borcunu": 5065,
      "▁ken": 5066,
      "▁zevk": 5067,
      "▁aileler": 5068,
      "##alog": 5069,
      "##na": 5070,
      "▁atlanta'dan": 5071,
      "##mustu": 5072,
      "▁gazin": 5073,
      "##b": 5074,
      "▁elinin": 5075,
      "▁ruzgar": 5076,
      "▁mayıs": 5077,
      "▁cuv": 5078,
      "##lıgımı": 5079,
      "▁duny": 5080,
      "▁belli": 5081,
      "▁gene": 5082,
      "▁calisanlar": 5083,
      "▁bakıs": 5084,
      "##rlik": 5085,
      "▁ittif": 5086,
      "▁tatil": 5087,
      "▁ong": 5088,
      "▁imaj": 5089,
      "▁kuram": 5090,
      "▁..\"": 5091,
      "▁yazılım": 5092,
      "▁turist": 5093,
      "▁kahram": 5094,
      "▁acik": 5095,
      "▁veri": 5096,
      "▁us": 5097,
      "▁anlamda": 5098,
      "▁eksiklikler": 5099,
      "▁ihtiyar": 5100,
      "▁puana": 5101,
      "▁umud": 5102,
      "▁imza": 5103,
      "##ai": 5104,
      "▁sını": 5105,
      "▁key": 5106,
      "▁protest": 5107,
      "▁ortamda": 5108,
      "▁coban": 5109,
      "▁yuzu": 5110,
      "##rada": 5111,
      "##et": 5112,
      "▁isg": 5113,
      "▁ona": 5114,
      "▁eskiydi": 5115,
      "▁kolon": 5116,
      "▁siy": 5117,
      "▁girdi": 5118,
      "▁cocukluk": 5119,
      "▁samim": 5120,
      "##sı": 5121,
      "▁cift": 5122,
      "▁icinden": 5123,
      "##makta": 5124,
      "▁yol": 5125,
      "▁sem": 5126,
      "▁perform": 5127,
      "▁dip": 5128,
      "##ia": 5129,
      "▁ozellikleri": 5130,
      "▁topragı": 5131,
      "▁ote": 5132,
      "▁bol": 5133,
      "▁gıda": 5134,
      "▁ortada": 5135,
      "▁gidi": 5136,
      "▁tec": 5137,
      "▁gecesi": 5138,
      "▁100": 5139,
      "▁tartısma": 5140,
      "▁endeks": 5141,
      "[MASK]": 5142,
      "▁bildirdi": 5143,
      "▁dunyası": 5144,
      "▁ada": 5145,
      "##uguna": 5146,
      "▁umid": 5147,
      "▁oysa": 5148,
      "▁onlem": 5149,
      "▁duy": 5150,
      "##ums": 5151,
      "##iyetini": 5152,
      "▁stu": 5153,
      "▁neyse": 5154,
      "▁fakir": 5155,
      "##izin": 5156,
      "##ısıyla": 5157,
      "##enden": 5158,
      "▁kenarları": 5159,
      "##q": 5160,
      "▁es": 5161,
      "##gil": 5162,
      "▁hoc": 5163,
      "▁cares": 5164,
      "▁malzeme": 5165,
      "▁isci": 5166,
      "▁odan": 5167,
      "▁balta": 5168,
      "▁aca": 5169,
      "▁omr": 5170,
      "▁plaji": 5171,
      "▁egil": 5172,
      "▁zaten": 5173,
      "▁bir": 5174,
      "▁peynir": 5175,
      "▁alb": 5176,
      "▁senator": 5177,
      "▁etrafına": 5178,
      "▁dua": 5179,
      "▁halı": 5180,
      "##geler": 5181,
      "▁gunku": 5182,
      "v": 5183,
      "▁acıga": 5184,
      "##kinin": 5185,
      "##sen": 5186,
      "▁yorgunluk": 5187,
      "▁kanaat": 5188,
      "\"": 5189,
      "▁vide": 5190,
      "##kler": 5191,
      "▁vergi": 5192,
      "##lulugunu": 5193,
      "▁araz": 5194,
      "▁mudahal": 5195,
      "▁kilo": 5196,
      "▁gibiydi": 5197,
      "▁gozden": 5198,
      "##lıgın": 5199,
      "##ogram": 5200,
      "▁mul": 5201,
      "##ıb": 5202,
      "▁guney": 5203,
      "▁olumu": 5204,
      "##alan": 5205,
      "▁moda": 5206,
      "▁yoksa": 5207,
      "▁kalacak": 5208,
      "##amac": 5209,
      "##enli": 5210,
      "▁e": 5211,
      "▁t": 5212,
      "▁mutlu": 5213,
      "▁min": 5214,
      "▁los": 5215,
      "▁yılında": 5216,
      "▁21": 5217,
      "##mıyorum": 5218,
      "▁kuv": 5219,
      "▁faaliyetleri": 5220,
      "##adem": 5221,
      "▁vakt": 5222,
      "▁taraftar": 5223,
      "▁mezar": 5224,
      "▁yakin": 5225,
      "##imi": 5226,
      "▁sav": 5227,
      "▁devir": 5228,
      "##lesti": 5229,
      "▁kesim": 5230,
      "▁cumhuriyetci": 5231,
      "##uluyor": 5232,
      "▁uzum": 5233,
      "▁batı": 5234,
      "##ilmesini": 5235,
      "▁kimsenin": 5236,
      "▁fikri": 5237,
      "##iki": 5238,
      "▁odasına": 5239,
      "##sik": 5240,
      "▁yaptirmadim": 5241,
      "##ıgında": 5242,
      "▁toplant": 5243,
      "▁isbirligi": 5244,
      "##ecegi": 5245,
      "▁kot": 5246,
      "▁yastık": 5247,
      "▁amerikalılar": 5248,
      "##.7": 5249,
      "▁indir": 5250,
      "▁terbiye": 5251,
      "▁hun": 5252,
      "▁bolum": 5253,
      "▁r": 5254,
      "▁komisyonu": 5255,
      "##tiler": 5256,
      "▁dısarı": 5257,
      "▁yuk": 5258,
      "##ore": 5259,
      "▁masa": 5260,
      "▁istek": 5261,
      "##o": 5262,
      "▁suru": 5263,
      "##memek": 5264,
      "▁bundan": 5265,
      "%": 5266,
      "##itli": 5267,
      "▁kenar": 5268,
      "##re": 5269,
      "▁yerlerden": 5270,
      "▁memleket": 5271,
      "▁far": 5272,
      "##ladi": 5273,
      "▁cem": 5274,
      "▁anlamıyla": 5275,
      "##uslar": 5276,
      "▁lira": 5277,
      "▁nedeni": 5278,
      "▁edip": 5279,
      "▁suy": 5280,
      "##ıkları": 5281,
      "▁ismini": 5282,
      "▁rutub": 5283,
      "##iri": 5284,
      "##7": 5285,
      "▁hanimdi": 5286,
      "##inleri": 5287,
      "##!": 5288,
      "▁babam": 5289,
      "##lıs": 5290,
      "▁portfoy": 5291,
      "▁kalem": 5292,
      "##co": 5293,
      "##alet": 5294,
      "##makla": 5295,
      "▁bazen": 5296,
      "##yiz": 5297,
      "##meli": 5298,
      "▁oranını": 5299,
      "▁carsaf": 5300,
      "▁gizli": 5301,
      "▁meh": 5302,
      "##unu": 5303,
      "▁otur": 5304,
      "▁pesinde": 5305,
      "▁cevap": 5306,
      "▁halef": 5307,
      ")": 5308,
      "##anta": 5309,
      "▁kasım": 5310,
      "▁otom": 5311,
      "##madik": 5312,
      "▁park": 5313,
      "##der": 5314,
      "▁cez": 5315,
      "▁gelge": 5316,
      "▁canı": 5317,
      "▁duygusu": 5318,
      "▁etme": 5319,
      "##lıga": 5320,
      "##sini": 5321,
      "##iyete": 5322,
      "▁pam": 5323,
      "▁palt": 5324,
      "▁tarihinde": 5325,
      "##tor": 5326,
      "##otu": 5327,
      "##endir": 5328,
      "▁tatlilar": 5329,
      "▁paz": 5330,
      "▁olas": 5331,
      "▁ayagına": 5332,
      "▁olaylar": 5333,
      "▁dur": 5334,
      "▁kocası": 5335,
      "▁gereken": 5336,
      "▁gune": 5337,
      "▁utanc": 5338,
      "▁gidiyor": 5339,
      "▁yanımda": 5340,
      "▁goruyor": 5341,
      "▁yetenek": 5342,
      "##alif": 5343,
      "“": 5344,
      "▁gerc": 5345,
      "▁mukelle": 5346,
      "##mıyordu": 5347,
      "▁doları'ndan": 5348,
      "▁oteldi": 5349,
      "##amıs": 5350,
      "▁saatlerde": 5351,
      "▁icimden": 5352,
      "▁sap": 5353,
      "▁zayifti": 5354,
      "▁asl": 5355,
      "▁alk": 5356,
      "▁hatun": 5357,
      "▁ho": 5358,
      "▁bunları": 5359,
      "##lıgına": 5360,
      "▁bakıyor": 5361,
      "▁mesafe": 5362,
      "▁dahil": 5363,
      "▁teror": 5364,
      "##lamalar": 5365,
      "▁dolandır": 5366,
      "▁genellikle": 5367,
      "▁eglen": 5368,
      "##raf": 5369,
      "▁pla": 5370,
      "▁gununun": 5371,
      "▁giris": 5372,
      "##mam": 5373,
      "##maz": 5374,
      "##masından": 5375,
      "▁temizligi": 5376,
      "▁uste": 5377,
      "▁sayg": 5378,
      "▁insanın": 5379,
      "▁oner": 5380,
      "##hur": 5381,
      "▁yazarı": 5382,
      "##ov": 5383,
      "▁kurumlar": 5384,
      "▁cocugu": 5385,
      "##ıg": 5386,
      "▁ebeveyn": 5387,
      "▁kanadı": 5388,
      "▁tutum": 5389,
      "▁sirketi": 5390,
      "▁uygulam": 5391,
      "##oloj": 5392,
      "▁vir": 5393,
      "▁sapka": 5394,
      "▁uluslararası": 5395,
      "▁kendis": 5396,
      "▁charlotte": 5397,
      "▁siz": 5398,
      "▁kapasitesi": 5399,
      "##ern": 5400,
      "▁sefer": 5401,
      "▁bakan": 5402,
      "▁adina": 5403,
      "##mac": 5404,
      "▁bom": 5405,
      "##leg": 5406,
      "c": 5407,
      "##w": 5408,
      "▁kuvvetleri": 5409,
      "▁ortaklık": 5410,
      "▁duzeyde": 5411,
      "▁imparator": 5412,
      "▁kurulusu": 5413,
      "##ısından": 5414,
      "▁mani": 5415,
      "▁mun": 5416,
      "▁kıl": 5417,
      "▁sanayi": 5418,
      "▁gulums": 5419,
      "##asını": 5420,
      "▁ekim": 5421,
      "▁korum": 5422,
      "▁blok": 5423,
      "▁havuzlari": 5424,
      "▁guverte": 5425,
      "▁kurulus": 5426,
      "▁senin": 5427,
      "▁yoneticileri": 5428,
      "▁baskı": 5429,
      "▁teker": 5430,
      "▁kelim": 5431,
      "▁cihaz": 5432,
      "▁oldugu": 5433,
      "▁baska": 5434,
      "▁zek": 5435,
      "▁baslarını": 5436,
      "##tarı": 5437,
      "##dıgın": 5438,
      "▁geldigini": 5439,
      "▁dugun": 5440,
      "▁kesif": 5441,
      "▁aramız": 5442,
      "##ne": 5443,
      "▁baslık": 5444,
      "▁ilgisi": 5445,
      "▁fransız": 5446,
      "##arda": 5447,
      "▁felaket": 5448,
      "▁yık": 5449,
      "▁sendik": 5450,
      "▁cıkar": 5451,
      "##uy": 5452,
      "##umde": 5453,
      "▁koltuga": 5454,
      "##amam": 5455,
      "▁olar": 5456,
      "▁sey": 5457,
      "▁muam": 5458,
      "▁yasamak": 5459,
      "##odr": 5460,
      "▁ası": 5461,
      "▁yagı": 5462,
      "▁tesis": 5463,
      "▁kola": 5464,
      "▁namaz": 5465,
      "▁proj": 5466,
      "▁annesi": 5467,
      "▁korku": 5468,
      "▁harikaydi": 5469,
      "▁aracları": 5470,
      "##kili": 5471,
      "▁banyosu": 5472,
      "##tir": 5473,
      "▁sırtını": 5474,
      "▁sonda": 5475,
      "##ılıyor": 5476,
      "▁lis": 5477,
      "##eyh": 5478,
      "##ham": 5479,
      "▁dr": 5480,
      "▁konforu": 5481,
      "▁vap": 5482,
      "▁olmadi": 5483,
      "▁uzat": 5484,
      "▁kahvaltı": 5485,
      "▁intihar": 5486,
      "##cul": 5487,
      "▁anlam": 5488,
      "▁vicdan": 5489,
      "▁kitapta": 5490,
      "▁olasılık": 5491,
      "##siy": 5492,
      "▁teminat": 5493,
      "▁gal": 5494,
      "▁degil": 5495,
      "▁sonbahar": 5496,
      "▁bodr": 5497,
      "▁kart": 5498,
      "▁af": 5499,
      "##unku": 5500,
      "##dugunu": 5501,
      "▁yuruy": 5502,
      "▁kıymet": 5503,
      "▁tenis": 5504,
      "##tarak": 5505,
      "▁dıs": 5506,
      "▁lakin": 5507,
      "▁ede": 5508,
      "##isten": 5509,
      "▁uzman": 5510,
      "▁aileye": 5511,
      "▁yanında": 5512,
      "▁rezervasyon": 5513,
      "▁kotuydu": 5514,
      "▁kes": 5515,
      "▁mo": 5516,
      "▁caba": 5517,
      "▁boya": 5518,
      "▁kıza": 5519,
      "▁intih": 5520,
      "##ev": 5521,
      "▁onayına": 5522,
      "##aguar": 5523,
      "▁dustu": 5524,
      "▁14": 5525,
      "▁uyustur": 5526,
      "##alıgı": 5527,
      "▁arkasına": 5528,
      "▁gumruk": 5529,
      "▁rapor": 5530,
      "##mıstı": 5531,
      "▁davaya": 5532,
      "▁kir": 5533,
      "##ji": 5534,
      "▁annemin": 5535,
      "##ıcılar": 5536,
      "▁halde": 5537,
      "▁pilot": 5538,
      "▁yonde": 5539,
      "▁satın": 5540,
      "##liligini": 5541,
      "##amiza": 5542,
      "▁calisanlari": 5543,
      "##lenir": 5544,
      "▁univers": 5545,
      "##oroz": 5546,
      "▁angeles": 5547,
      "▁roman": 5548,
      "▁buy": 5549,
      "##tiy": 5550,
      "##rını": 5551,
      "▁kapalı": 5552,
      "▁havayollarında": 5553,
      "▁halkın": 5554,
      "▁seviyesine": 5555,
      "▁balayi": 5556,
      "▁personellerin": 5557,
      "▁tan": 5558,
      "▁ogleden": 5559,
      "##esinden": 5560,
      "▁hastan": 5561,
      "▁gercekten": 5562,
      "▁zev": 5563,
      "▁sı": 5564,
      "##iyor": 5565,
      "▁def": 5566,
      "▁yagmur": 5567,
      "##ver": 5568,
      "▁tarafında": 5569,
      "▁yarısından": 5570,
      "▁burnu": 5571,
      "▁sig": 5572,
      "##tigine": 5573,
      "##melidir": 5574,
      "▁dig": 5575,
      "▁acılıs": 5576,
      "##ya": 5577,
      "▁eleman": 5578,
      "▁yasamı": 5579,
      "▁cicekleri": 5580,
      "▁bugune": 5581,
      "▁ener": 5582,
      "▁guzelligi": 5583,
      "▁hedef": 5584,
      "▁hesap": 5585,
      "▁bulur": 5586,
      "##ik": 5587,
      "▁bl": 5588,
      "▁kaygı": 5589,
      "▁sekiz": 5590,
      "##kır": 5591,
      "▁dusunur": 5592,
      "##ası": 5593,
      "▁toprak": 5594,
      "▁bal": 5595,
      "▁sorumluluk": 5596,
      "▁harc": 5597,
      "▁deng": 5598,
      "▁sohret": 5599,
      "▁payları": 5600,
      "##ısı": 5601,
      "##elen": 5602,
      "▁50": 5603,
      "▁gob": 5604,
      "▁akt": 5605,
      "##ab": 5606,
      "##ındaki": 5607,
      "▁dug": 5608,
      "##op": 5609,
      "▁odak": 5610,
      "▁islemler": 5611,
      "##ıyı": 5612,
      "▁mu": 5613,
      "▁asagı": 5614,
      "##embe": 5615,
      "▁yurt": 5616,
      "▁pittsburgh'tan": 5617,
      "##yet": 5618,
      "▁uyan": 5619,
      "▁cıkıyor": 5620,
      "▁rakib": 5621,
      "▁amerikan": 5622,
      "##alarına": 5623,
      "▁atılım": 5624,
      "▁of": 5625,
      "##lerce": 5626,
      "▁lider": 5627,
      "▁konumundan": 5628,
      "##ıcısı": 5629,
      "##ite": 5630,
      "▁diyor": 5631,
      "##erin": 5632,
      "▁tıras": 5633,
      "##:": 5634,
      "▁siper": 5635,
      "▁degeri": 5636,
      "▁turk": 5637,
      "▁tabl": 5638,
      "##urlu": 5639,
      "##ola": 5640,
      "##iyoruz": 5641,
      "##st": 5642,
      "##iyi": 5643,
      "▁send": 5644,
      "▁kanı": 5645,
      "##akal": 5646,
      "▁sakin": 5647,
      "▁kı": 5648,
      "▁deneme": 5649,
      "▁viz": 5650,
      "▁ayır": 5651,
      "▁ici": 5652,
      "##amda": 5653,
      "▁acıklama": 5654,
      "▁og": 5655,
      "##uyoruz": 5656,
      "##manı": 5657,
      "▁evlerinin": 5658,
      "▁piy": 5659,
      "▁koz": 5660,
      "##ogu": 5661,
      "▁mem": 5662,
      "##ahh": 5663,
      "▁giz": 5664,
      "▁benzin": 5665,
      "▁tabiat": 5666,
      "##ast": 5667,
      "▁deve": 5668,
      "▁meclisi": 5669,
      "▁yerinden": 5670,
      "##$": 5671,
      "▁seyirci": 5672,
      "▁etrafa": 5673,
      "▁nefret": 5674,
      "##mayan": 5675,
      "▁hucr": 5676,
      "##asından": 5677,
      "▁sauna": 5678,
      "▁katana": 5679,
      "##ege": 5680,
      "▁grupları": 5681,
      "##eni": 5682,
      "▁haberi": 5683,
      "##'ne": 5684,
      "▁geminin": 5685,
      "▁res": 5686,
      "##uklu": 5687,
      "▁liderleri": 5688,
      "▁basladım": 5689,
      "▁tered": 5690,
      "##ar": 5691,
      "##nin": 5692,
      "▁ucusunda": 5693,
      "▁ailenin": 5694,
      "▁adı": 5695,
      "▁istih": 5696,
      "▁sponsor": 5697,
      "▁verdigi": 5698,
      "▁ruz": 5699,
      "▁dolarlık": 5700,
      "##etli": 5701,
      "##tas": 5702,
      "d": 5703,
      "▁pencer": 5704,
      "▁hissenin": 5705,
      "##ecek": 5706,
      "▁olum": 5707,
      "▁rol": 5708,
      "##ıgının": 5709,
      "▁cogunluk": 5710,
      "▁boyun": 5711,
      "##a'da": 5712,
      "##ibar": 5713,
      "▁sac": 5714,
      "##adıgını": 5715,
      "##uzluk": 5716,
      "▁kaldır": 5717,
      "▁kalmadı": 5718,
      "##erken": 5719,
      "▁aralık": 5720,
      "##ılı": 5721,
      "▁ucaga": 5722,
      "▁kendim": 5723,
      "▁puandan": 5724,
      "##likler": 5725,
      "▁uyusturucu": 5726,
      "▁misafir": 5727,
      "##kı": 5728,
      "▁mesaf": 5729,
      "▁bilgilendir": 5730,
      "##tis": 5731,
      "▁ortalama": 5732,
      "▁cark": 5733,
      "▁rehberlik": 5734,
      "##manlar": 5735,
      "##lulugu": 5736,
      "▁bakın": 5737,
      "▁dogal": 5738,
      "##alarının": 5739,
      "▁bilin": 5740,
      "▁2": 5741,
      "##enleri": 5742,
      "▁--": 5743,
      "##ladı": 5744,
      "##ın": 5745,
      "▁lek": 5746,
      "▁likid": 5747,
      "▁egitim": 5748,
      "▁pr": 5749,
      "▁anayasa": 5750,
      "##madan": 5751,
      "▁tarife": 5752,
      "##uzu": 5753,
      "▁once": 5754,
      "##dum": 5755,
      "##mızı": 5756,
      "▁haftada": 5757,
      "▁cukur": 5758,
      "▁anlat": 5759,
      "▁dunyayı": 5760,
      "##deki": 5761,
      "▁bununla": 5762,
      "##ars": 5763,
      "##larımıza": 5764,
      "▁hafta": 5765,
      "▁isterim": 5766,
      "##dip": 5767,
      "▁ba": 5768,
      "▁anahtar": 5769,
      "▁yaptı": 5770,
      "▁iyiye": 5771,
      "##maktadır": 5772,
      "##mal": 5773,
      "▁hac": 5774,
      "▁hanima": 5775,
      "▁merkez": 5776,
      "##om": 5777,
      "▁part": 5778,
      "▁saclarını": 5779,
      "▁duygular": 5780,
      "▁ak": 5781,
      "##urk": 5782,
      "▁alay": 5783,
      "▁edep": 5784,
      "▁contin": 5785,
      "▁mis": 5786,
      "▁listel": 5787,
      "##ugunun": 5788,
      "##lim": 5789,
      "▁depremin": 5790,
      "▁belgeleri": 5791,
      "##lup": 5792,
      "▁kalk": 5793,
      "▁tesebbus": 5794,
      "▁denver": 5795,
      "▁ekl": 5796,
      "##ani": 5797,
      "▁m": 5798,
      "##imdi": 5799,
      "▁makam": 5800,
      "##lıkları": 5801,
      "▁ucuslarının": 5802,
      "▁oyunu": 5803,
      "▁tura": 5804,
      "▁olmasını": 5805,
      "▁istatist": 5806,
      "▁borsası'nda": 5807,
      "▁muzik": 5808,
      "▁yapının": 5809,
      "##til": 5810,
      "/": 5811,
      "▁dokun": 5812,
      "▁acıgı": 5813,
      "##dan": 5814,
      "##istan": 5815,
      "▁bek": 5816,
      "▁yatak": 5817,
      "##mad": 5818,
      "▁ana": 5819,
      "##dak": 5820,
      "▁turu": 5821,
      "##sak": 5822,
      "##ı": 5823,
      "▁konuda": 5824,
      "▁abla": 5825,
      "##eye": 5826,
      "▁pittsburgh'a": 5827,
      "▁mevcut": 5828,
      "▁ettik": 5829,
      "##amak": 5830,
      "▁por": 5831,
      "▁bank": 5832,
      "▁tap": 5833,
      "▁seftali": 5834,
      "▁badem": 5835,
      "▁test": 5836,
      "##esini": 5837,
      "##fa": 5838,
      "▁ayından": 5839,
      "▁ayda": 5840,
      "▁kayıplar": 5841,
      "▁cont": 5842,
      "▁palto": 5843,
      "▁sozlesmesi": 5844,
      "▁yuzey": 5845,
      "##ılması": 5846,
      "▁yola": 5847,
      "##okr": 5848,
      "▁cekir": 5849,
      "▁birimi": 5850,
      "▁ulasılamadı": 5851,
      "▁istedig": 5852,
      "▁dolar": 5853,
      "##lugun": 5854,
      "▁zen": 5855,
      "##mu": 5856,
      "▁atese": 5857,
      "▁eksiklik": 5858,
      "##ige": 5859,
      "▁oyun": 5860,
      "▁sigort": 5861,
      "##amadı": 5862,
      "▁oranında": 5863,
      "▁soze": 5864,
      "▁turb": 5865,
      "##lanma": 5866,
      "▁makine": 5867,
      "▁mail": 5868,
      "▁yerini": 5869,
      "▁kıv": 5870,
      "▁sakız": 5871,
      "▁evinde": 5872,
      "▁``": 5873,
      "▁istifade": 5874,
      "##3": 5875,
      "▁bors": 5876,
      "▁.": 5877,
      "▁istiyorum": 5878,
      "▁anlasma": 5879,
      "##istiri": 5880,
      "▁yapan": 5881,
      "▁mer": 5882,
      "##mek": 5883,
      "##leti": 5884,
      "▁bas": 5885,
      "##emde": 5886,
      "▁fak": 5887,
      "▁bayr": 5888,
      "▁gucu": 5889,
      "▁gerekse": 5890,
      "&": 5891,
      "▁azınlık": 5892,
      "▁tencer": 5893,
      "▁yolu": 5894,
      "##teki": 5895,
      "▁yontem": 5896,
      "▁esit": 5897,
      "##unden": 5898,
      "##ph": 5899,
      "▁ot": 5900,
      "▁bekledi": 5901,
      "▁katılım": 5902,
      "0": 5903,
      "▁$'a": 5904,
      "▁tecru": 5905,
      "▁yerlere": 5906,
      "##leleri": 5907,
      "▁balt": 5908,
      "▁beydi": 5909,
      "##adar": 5910,
      "▁istihdam": 5911,
      "▁dost": 5912,
      "▁ucret": 5913,
      "▁buyuk": 5914,
      "▁tahıl": 5915,
      "##'ta": 5916,
      "▁satısları": 5917,
      "▁renk": 5918,
      "##.0": 5919,
      "▁ates": 5920,
      "##biye": 5921,
      "▁servisi": 5922,
      "▁vucud": 5923,
      "##macılar": 5924,
      "▁dey": 5925,
      "##alık": 5926,
      "##bi": 5927,
      "##erek": 5928,
      "▁sozlesme": 5929,
      "▁kızı": 5930,
      "▁coz": 5931,
      "##ut": 5932,
      "▁ekibi": 5933,
      "##vek": 5934,
      "▁pabuc": 5935,
      "▁davr": 5936,
      "▁prosed": 5937,
      "##abın": 5938,
      "##lb": 5939,
      "▁veg": 5940,
      "▁jaguar": 5941,
      "▁yurur": 5942,
      "▁yarım": 5943,
      "▁nok": 5944,
      "##mec": 5945,
      "▁titr": 5946,
      "▁seyinden": 5947,
      "▁sahibinin": 5948,
      "▁ihr": 5949,
      "##siniz": 5950,
      "▁ayni": 5951,
      "##ligi": 5952,
      "##dat": 5953,
      "▁rehberimiz": 5954,
      "▁calısmaları": 5955,
      "▁olc": 5956,
      "▁nef": 5957,
      "##ele": 5958,
      "▁nevi": 5959,
      "##edef": 5960,
      "##imini": 5961,
      "▁cop": 5962,
      "▁manz": 5963,
      "##det": 5964,
      "##ecilik": 5965,
      "##gah": 5966,
      "▁dibine": 5967,
      "▁icki": 5968,
      "▁meslek": 5969,
      "▁bec": 5970,
      "##1'de": 5971,
      "▁sistem": 5972,
      "##tun": 5973,
      "▁emr": 5974,
      "##inler": 5975,
      "##digimi": 5976,
      "▁ut": 5977,
      "▁salonda": 5978,
      "▁kahvalt": 5979,
      "▁gunesin": 5980,
      "##igin": 5981,
      "▁huy": 5982,
      "▁%2": 5983,
      "##rt": 5984,
      "▁vucudu": 5985,
      "▁iskel": 5986,
      "▁bulundugu": 5987,
      "▁normal": 5988,
      "▁ayag": 5989,
      "▁karsısında": 5990,
      "##liligi": 5991,
      "▁olmasa": 5992,
      "▁karg": 5993,
      "▁200": 5994,
      "h": 5995,
      "▁mutf": 5996,
      "##cıya": 5997,
      "▁halka": 5998,
      "▁fan": 5999,
      "▁hayran": 6000,
      "▁emeklilik": 6001,
      "▁posta": 6002,
      "▁beb": 6003,
      "▁halat": 6004,
      "▁bilgis": 6005,
      "##imleri": 6006,
      "▁dusuncelerini": 6007,
      "▁hev": 6008,
      "▁endust": 6009,
      "▁aldım": 6010,
      "##rsı": 6011,
      "▁kısm": 6012,
      "##eliydi": 6013,
      "##masını": 6014,
      "▁isver": 6015,
      "##lant": 6016,
      "3": 6017,
      "▁yonuyle": 6018,
      "▁cic": 6019,
      "##lıların": 6020,
      "▁hurriyet": 6021,
      "##umuzde": 6022,
      "▁etkisini": 6023,
      "▁bunların": 6024,
      "▁arac": 6025,
      "▁muhtemelen": 6026,
      "##uya": 6027,
      "▁prop": 6028,
      "▁hazir": 6029,
      "▁tahviller": 6030,
      "##kar": 6031,
      "▁tahsil": 6032,
      "▁tercih": 6033,
      "##gunu": 6034,
      "▁guvenlik": 6035,
      "▁bahce": 6036,
      "▁seri": 6037,
      "▁cesit": 6038,
      "▁yasak": 6039,
      "▁agacı": 6040,
      "▁tasarım": 6041,
      "##emiyor": 6042,
      "▁ayrı": 6043,
      "▁kullanım": 6044,
      "▁nak": 6045,
      "▁zaf": 6046,
      "##inlik": 6047,
      "▁olup": 6048,
      "▁atlar": 6049,
      "▁analistler": 6050,
      "▁gosteriyor": 6051,
      "▁aktarmalı": 6052,
      "▁arzu": 6053,
      "▁basını": 6054,
      "##agının": 6055,
      "▁partisi": 6056,
      "▁ucuza": 6057,
      "##izli": 6058,
      "##dar": 6059,
      "▁uygulama": 6060,
      "##leriniz": 6061,
      "##dukca": 6062,
      "##acılıgı": 6063,
      "▁mulk": 6064,
      "▁sahne": 6065,
      "▁j": 6066,
      "▁ilac": 6067,
      "▁denver'e": 6068,
      "##dig": 6069,
      "▁bizi": 6070,
      "▁kusku": 6071,
      "▁ekipman": 6072,
      "▁basımı": 6073,
      "▁dolardan": 6074,
      "▁edecek": 6075,
      "▁gozleri": 6076,
      "##turdu": 6077,
      "##du": 6078,
      "▁adayı": 6079,
      "▁super": 6080,
      "▁zorluk": 6081,
      "▁sekreteri": 6082,
      "▁phoenix": 6083,
      "▁salonun": 6084,
      "##atist": 6085,
      "▁ch": 6086,
      "▁bulas": 6087,
      "##sam": 6088,
      "▁olac": 6089,
      "▁egit": 6090,
      "▁fabrikası": 6091,
      "▁paranın": 6092,
      "▁gogus": 6093,
      "▁haz": 6094,
      "▁tavuk": 6095,
      "▁iddiaları": 6096,
      "▁kalb": 6097,
      "▁faktor": 6098,
      "▁basıma": 6099,
      "▁tam": 6100,
      "▁alanda": 6101,
      "▁kimse": 6102,
      "▁vaz": 6103,
      "▁yolunda": 6104,
      "▁milyona": 6105,
      "▁day": 6106,
      "##ladılar": 6107,
      "##min": 6108,
      "▁kalkıp": 6109,
      "▁kasabaya": 6110,
      "##a": 6111,
      "▁ayaklarını": 6112,
      "▁anal": 6113,
      "▁depo": 6114,
      "▁uygul": 6115,
      "▁tahk": 6116,
      "▁egilim": 6117,
      "▁cercev": 6118,
      "▁karn": 6119,
      "▁tasf": 6120,
      "▁francisco": 6121,
      "##medi": 6122,
      "▁ilc": 6123,
      "##ladık": 6124,
      "▁dusur": 6125,
      "▁lun": 6126,
      "##yerek": 6127,
      "▁halinde": 6128,
      "▁emir": 6129,
      "▁doları'na": 6130,
      "▁ceket": 6131,
      "▁basamak": 6132,
      "▁ilgili": 6133,
      "▁personelden": 6134,
      "##ep": 6135,
      "##anda": 6136,
      "▁koruma": 6137,
      "##sat": 6138,
      "▁rezervasyonu": 6139,
      "▁varan": 6140,
      "▁cevir": 6141,
      "##alama": 6142,
      "##eleri": 6143,
      "▁cev": 6144,
      "##onelik": 6145,
      "▁eve": 6146,
      "▁gencler": 6147,
      "▁cil": 6148,
      "▁direktor": 6149,
      "▁sak": 6150,
      "▁calısanları": 6151,
      "▁airlines": 6152,
      "##undan": 6153,
      "##nak": 6154,
      "▁piyas": 6155,
      "▁erk": 6156,
      "##larında": 6157,
      "▁eslik": 6158,
      "▁yor": 6159,
      "▁nufus": 6160,
      "▁isine": 6161,
      "▁komisyonlar": 6162,
      "▁yerles": 6163,
      "▁bagr": 6164,
      "▁uzaktan": 6165,
      "▁miami": 6166,
      "##idir": 6167,
      "##erans": 6168,
      "▁icap": 6169,
      "##ht": 6170,
      "▁aldıgını": 6171,
      "▁enist": 6172,
      "##asız": 6173,
      "▁ilgil": 6174,
      "##osu": 6175,
      "##edir": 6176,
      "##bul": 6177,
      "▁isle": 6178,
      "▁fidan": 6179,
      "▁baglantı": 6180,
      "▁hissedar": 6181,
      "▁yuzluydu": 6182,
      "##yor": 6183,
      "▁yuksek": 6184,
      "##asıl": 6185,
      "▁oyna": 6186,
      "▁karsilik": 6187,
      "▁milliyet": 6188,
      "▁pasa": 6189,
      "▁cocuklug": 6190,
      "##ine": 6191,
      "##ami": 6192,
      "▁raporları": 6193,
      "##artesi": 6194,
      "▁tahsis": 6195,
      "▁wash": 6196,
      "▁ok": 6197,
      "▁topluluk": 6198,
      "▁fiyatları": 6199,
      "▁uc": 6200,
      "##gmen": 6201,
      "##egin": 6202,
      "▁sa": 6203,
      "▁bosa": 6204,
      "##abileceg": 6205,
      "▁ettiler": 6206,
      "▁defa": 6207,
      "▁muz": 6208,
      "##'nun": 6209,
      "▁pes": 6210,
      "▁deyim": 6211,
      "▁kalma": 6212,
      "▁1/": 6213,
      "▁kose": 6214,
      "##dev": 6215,
      "▁bahceye": 6216,
      "▁bagım": 6217,
      "▁ellerinde": 6218,
      "##ese": 6219,
      "##ayla": 6220,
      "##gıl": 6221,
      "–": 6222,
      "▁etki": 6223,
      "▁kisiler": 6224,
      "▁musait": 6225,
      "▁konusma": 6226,
      "##tıp": 6227,
      "▁tas": 6228,
      "##su": 6229,
      "##eveyn": 6230,
      "##..": 6231,
      "▁saz": 6232,
      "▁suruyor": 6233,
      "▁dikkat": 6234,
      "▁indirim": 6235,
      "##yip": 6236,
      "##bal": 6237,
      "▁birlesme": 6238,
      "▁istedigini": 6239,
      "##macı": 6240,
      "▁hisseyi": 6241,
      "##ts": 6242,
      "▁kesinti": 6243,
      "##'ten": 6244,
      "▁calısan": 6245,
      "▁terey": 6246,
      "▁dizi": 6247,
      "##istir": 6248,
      "▁sise": 6249,
      "▁kimyasal": 6250,
      "##giniz": 6251,
      "▁faz": 6252,
      "▁belge": 6253,
      "▁salınc": 6254,
      "▁tası": 6255,
      "▁amma": 6256,
      "##uktu": 6257,
      "▁degisik": 6258,
      "##ımda": 6259,
      "▁tes": 6260,
      "▁bayrak": 6261,
      "▁mermer": 6262,
      "▁tuv": 6263,
      "▁hisseler": 6264,
      "▁tun": 6265,
      "▁yaln": 6266,
      "▁kaydı": 6267,
      "▁ogul": 6268,
      "##be": 6269,
      "▁vazif": 6270,
      "##lasman": 6271,
      "▁agz": 6272,
      "▁ofisi": 6273,
      "▁kimseyi": 6274,
      "▁faaliyet": 6275,
      "▁oturma": 6276,
      "▁kisi": 6277,
      "▁edit": 6278,
      "▁gorunum": 6279,
      "▁egem": 6280,
      "▁sik": 6281,
      "▁edecegini": 6282,
      "▁tır": 6283,
      "▁sınıf": 6284,
      "##gis": 6285,
      "▁doneminde": 6286,
      "▁kent": 6287,
      "▁col": 6288,
      "▁iliskiler": 6289,
      "▁kitabı": 6290,
      "▁sorunları": 6291,
      "▁ihtiyac": 6292,
      "▁p": 6293,
      "▁burosu": 6294,
      "▁terz": 6295,
      "##mesine": 6296,
      "▁matem": 6297,
      "▁ifade": 6298,
      "▁etrafını": 6299,
      "▁ade": 6300,
      "▁sertif": 6301,
      "##all": 6302,
      "▁organizasyon": 6303,
      "▁kims": 6304,
      "##ız": 6305,
      "▁varlık": 6306,
      "▁kapsamında": 6307,
      "##egine": 6308,
      "▁surede": 6309,
      "▁komsu": 6310,
      "▁ortal": 6311,
      "▁makaleye": 6312,
      "▁sistemini": 6313,
      "▁satıslara": 6314,
      "▁detay": 6315,
      "▁sistemi": 6316,
      "▁onde": 6317,
      "▁ekonomist": 6318,
      "▁yuzune": 6319,
      "##'ye": 6320,
      "▁h": 6321,
      "##j": 6322,
      "▁yeten": 6323,
      "▁demokrasi": 6324,
      "##ttı": 6325,
      "##ilm": 6326,
      "▁fazlasını": 6327,
      "▁fasulye": 6328,
      "▁ustunde": 6329,
      "##estir": 6330,
      "▁bus": 6331,
      "##amba": 6332,
      "▁duyuru": 6333,
      "▁ayar": 6334,
      "▁prenses": 6335,
      "▁kacak": 6336,
      "▁bakım": 6337,
      "##lamasını": 6338,
      "▁transfer": 6339,
      "##kiler": 6340,
      "▁inceleme": 6341,
      "▁yokus": 6342,
      "▁lafı": 6343,
      "##elig": 6344,
      "▁milleti": 6345,
      "▁potansiyel": 6346,
      "▁sembol": 6347,
      "##urt": 6348,
      "▁ongoru": 6349,
      "##5'e": 6350,
      "▁gunun": 6351,
      "▁yab": 6352,
      "▁1": 6353,
      "▁ucusunun": 6354,
      "▁metr": 6355,
      "▁tamam": 6356,
      "##raber": 6357,
      "▁otek": 6358,
      "##kten": 6359,
      "##ake": 6360,
      "▁pek": 6361,
      "##sir": 6362,
      "▁efendi": 6363,
      "▁konusunda": 6364,
      "▁basarısız": 6365,
      "▁vermeye": 6366,
      "▁ısrar": 6367,
      "▁arkadasım": 6368,
      "▁dısisleri": 6369,
      "##d": 6370,
      "▁yardımcı": 6371,
      "▁fel": 6372,
      "▁kavanoz": 6373,
      "▁bitir": 6374,
      "▁personel": 6375,
      "##ucusu": 6376,
      "▁rakam": 6377,
      "▁sozu": 6378,
      "##ceyr": 6379,
      "▁talih": 6380,
      "##larından": 6381,
      "▁hol": 6382,
      "##alari": 6383,
      "▁kans": 6384,
      "##ri": 6385,
      "▁sandaly": 6386,
      "▁elini": 6387,
      "▁gogs": 6388,
      "▁uy": 6389,
      "##nam": 6390,
      "▁yılın": 6391,
      "▁ısıgı": 6392,
      "▁itaat": 6393,
      "▁laik": 6394,
      "▁odemeleri": 6395,
      "##unce": 6396,
      "##vr": 6397,
      "▁kısk": 6398,
      "##tırma": 6399,
      "▁ist": 6400,
      "▁gunlerini": 6401,
      "▁sapk": 6402,
      "##iler": 6403,
      "▁adını": 6404,
      "▁sever": 6405,
      "▁disip": 6406,
      "##2": 6407,
      "##'daki": 6408,
      "▁milyara": 6409,
      "▁derd": 6410,
      "▁bolgesi": 6411,
      "▁yılda": 6412,
      "##tla": 6413,
      "▁ciddi": 6414,
      "▁sep": 6415,
      "▁yorum": 6416,
      "▁gr": 6417,
      "▁tama": 6418,
      "▁gorevli": 6419,
      "▁yakın": 6420,
      "▁ismi": 6421,
      "▁odalari": 6422,
      "▁sırtına": 6423,
      "▁soz": 6424,
      "▁sol": 6425,
      "##urdu": 6426,
      "▁ucagın": 6427,
      "▁giriste": 6428,
      "▁oyuna": 6429,
      "▁acıklam": 6430,
      "##ul": 6431,
      "▁mot": 6432,
      "▁fır": 6433,
      "▁ettigini": 6434,
      "▁basım": 6435,
      "▁hani": 6436,
      "##af": 6437,
      "##arlar": 6438,
      "▁ars": 6439,
      "▁vası": 6440,
      "▁sikinti": 6441,
      "▁mahall": 6442,
      "##eginde": 6443,
      "▁otob": 6444,
      "▁bira": 6445,
      "▁ob": 6446,
      "▁kursun": 6447,
      "▁sof": 6448,
      "▁umit": 6449,
      "▁kopek": 6450,
      "▁yaptıgı": 6451,
      "▁yenilik": 6452,
      "##arılı": 6453,
      "▁ord": 6454,
      "▁tersine": 6455,
      "##fı": 6456,
      "▁oglen": 6457,
      "▁fes": 6458,
      "##enk": 6459,
      "▁go": 6460,
      "▁not": 6461,
      "▁senetleri": 6462,
      "##lisi": 6463,
      "▁olmad": 6464,
      "##lanmadı": 6465,
      "##1'e": 6466,
      "##irler": 6467,
      "▁mucade": 6468,
      "##ıyordum": 6469,
      "▁2'den": 6470,
      "▁sana": 6471,
      "▁ac": 6472,
      "▁dekorasyonu": 6473,
      "▁cevr": 6474,
      "▁kar": 6475,
      "▁birles": 6476,
      "▁tuketim": 6477,
      "##lk": 6478,
      "##atıl": 6479,
      "▁oglunun": 6480,
      "▁grubu": 6481,
      "▁ipot": 6482,
      "▁satır": 6483,
      "##ilik": 6484,
      "▁hızlı": 6485,
      "▁juri": 6486,
      "##elerde": 6487,
      "▁harit": 6488,
      "▁baslıyor": 6489,
      "▁kosede": 6490,
      "▁fakat": 6491,
      "##elt": 6492,
      "##mi": 6493,
      "##indeydi": 6494,
      "##askanı": 6495,
      "▁takım": 6496,
      "##ce": 6497,
      "##aydi": 6498,
      "##astır": 6499,
      "▁takdirde": 6500,
      "▁tah": 6501,
      "##lıkta": 6502,
      "▁calismasina": 6503,
      "##anlara": 6504,
      "▁islemleri": 6505,
      "▁tutma": 6506,
      "▁ir": 6507,
      "▁harika": 6508,
      "▁degerinde": 6509,
      "▁reviz": 6510,
      "▁yururluge": 6511,
      "▁asla": 6512,
      "▁politika": 6513,
      "▁ekm": 6514,
      "##adel": 6515,
      "##agım": 6516,
      "▁idi": 6517,
      "▁kuru": 6518,
      "▁medya": 6519,
      "##ılıs": 6520,
      "▁bulama": 6521,
      "▁hayret": 6522,
      "▁omuz": 6523,
      "▁lobi": 6524,
      "▁olmaz": 6525,
      "▁coluk": 6526,
      "##atlar": 6527,
      "▁sul": 6528,
      "▁fonlar": 6529,
      "▁matematik": 6530,
      "▁beyefendi": 6531,
      "##miyor": 6532,
      "▁demektir": 6533,
      "##ydı": 6534,
      "▁seyleri": 6535,
      "##anet": 6536,
      "▁sıra": 6537,
      "▁seviyede": 6538,
      "##aga": 6539,
      "▁bolumunde": 6540,
      "##ise": 6541,
      "##rarak": 6542,
      "##onto": 6543,
      "▁aday": 6544,
      "##lantı": 6545,
      "##yon": 6546,
      "▁davul": 6547,
      "##hangi": 6548,
      "##gesi": 6549,
      "##ımıza": 6550,
      "##elerle": 6551,
      "▁...": 6552,
      "▁f": 6553,
      "▁sam": 6554,
      "▁iliskileri": 6555,
      "##ka": 6556,
      "##isco": 6557,
      "##abı": 6558,
      "▁dogasi": 6559,
      "▁govde": 6560,
      "▁..": 6561,
      "▁fiyatina": 6562,
      "##ell": 6563,
      "▁heyecan": 6564,
      "##or": 6565,
      "▁genis": 6566,
      "##\"": 6567,
      "▁ham": 6568,
      "▁dal": 6569,
      "▁denizde": 6570,
      "▁kendisine": 6571,
      "▁etmedi": 6572,
      "▁sandık": 6573,
      "##yse": 6574,
      "▁alem": 6575,
      "##la": 6576,
      "▁kasırg": 6577,
      "▁durumdan": 6578,
      "##tak": 6579,
      "##lanmak": 6580,
      "▁kanal": 6581,
      "▁ceyrek": 6582,
      "##eticisi": 6583,
      "▁tav": 6584,
      "##ram": 6585,
      "▁tarl": 6586,
      "▁asagida": 6587,
      "▁lam": 6588,
      "▁hiss": 6589,
      "##ecektir": 6590,
      "▁mevzu": 6591,
      "▁gunduz": 6592,
      "8": 6593,
      "▁gomlek": 6594,
      "▁yaklas": 6595,
      "▁kep": 6596,
      "▁hedefleri": 6597,
      "##ınca": 6598,
      "▁care": 6599,
      "▁ziy": 6600,
      "▁oradan": 6601,
      "▁gecit": 6602,
      "▁saatleri": 6603,
      "▁kub": 6604,
      "▁yardimci": 6605,
      "▁kazan": 6606,
      "▁deri": 6607,
      "▁havaalanı'ndan": 6608,
      "##emeyecegini": 6609,
      "▁burası": 6610,
      "##akları": 6611,
      "▁koridor": 6612,
      "▁yemegi": 6613,
      "▁ilham": 6614,
      "[PAD]": 6615,
      "▁bacak": 6616,
      "##lamayı": 6617,
      "▁bit": 6618,
      "##ilmesi": 6619,
      "▁piyasanın": 6620,
      "##mada": 6621,
      "##esiz": 6622,
      "##ıt": 6623,
      "##uste": 6624,
      "▁muay": 6625,
      "▁ders": 6626,
      "##ınt": 6627,
      "▁odul": 6628,
      "▁senedi": 6629,
      "▁sirketin": 6630,
      "##tıl": 6631,
      "##sal": 6632,
      "▁olgu": 6633,
      "▁muda": 6634,
      "##atın": 6635,
      "##medim": 6636,
      "▁air": 6637,
      "▁rakip": 6638,
      "▁bulunan": 6639,
      "▁kaf": 6640,
      "▁pist": 6641,
      "▁hakları": 6642,
      "▁sonrasında": 6643,
      "▁hav": 6644,
      "▁holding": 6645,
      "▁bıc": 6646,
      "▁tedavi": 6647,
      "▁pal": 6648,
      "▁ga": 6649,
      "▁kenarında": 6650,
      "▁denizi": 6651,
      "▁danısman": 6652,
      "▁sekilde": 6653,
      "▁philadelphia'ya": 6654,
      "▁olduklarını": 6655,
      "▁mily": 6656,
      "▁kav": 6657,
      "▁kaza": 6658,
      "##acagız": 6659,
      "##abilecegini": 6660,
      "▁gu": 6661,
      "▁vers": 6662,
      "▁otomobil": 6663,
      ">": 6664,
      "▁kanat": 6665,
      "▁sırtında": 6666,
      "##emem": 6667,
      "▁cocuklara": 6668,
      "▁ikram": 6669,
      "▁ara": 6670,
      "##mey": 6671,
      "##egi": 6672,
      "▁4'ten": 6673,
      "▁tamamen": 6674,
      "##gınlık": 6675,
      "▁eti": 6676,
      "▁muster": 6677,
      "▁yetkisi": 6678,
      "▁tahvili": 6679,
      "▁cit": 6680,
      "##qu": 6681,
      "▁kurs": 6682,
      "##'nın": 6683,
      "##dık": 6684,
      "▁icr": 6685,
      "▁gi": 6686,
      "▁davası": 6687,
      "##lig": 6688,
      "▁muhaf": 6689,
      "##.5": 6690,
      "##klerini": 6691,
      "▁kazanclar": 6692,
      "▁defter": 6693,
      "##ch": 6694,
      "##acaklarını": 6695,
      "##gıt": 6696,
      "##istirdi": 6697,
      "##sız": 6698,
      "▁hattı": 6699,
      "##ındı": 6700,
      "▁kisiye": 6701,
      "##ektr": 6702,
      "▁bosluk": 6703,
      "▁z": 6704,
      "▁ancak": 6705,
      "▁adamlar": 6706,
      "##enlik": 6707,
      "▁milyon": 6708,
      "▁sınıfı": 6709,
      "##meleri": 6710,
      "▁uretimi": 6711,
      "▁atesi": 6712,
      "##ık": 6713,
      "▁gorus": 6714,
      "▁vat": 6715,
      "##madıgını": 6716,
      "##iran": 6717,
      "##dıgına": 6718,
      "[CLS]": 6719,
      "▁plat": 6720,
      "▁yer": 6721,
      "##digi": 6722,
      "▁ailesi": 6723,
      "##larak": 6724,
      "▁fiyatı": 6725,
      "▁ipek": 6726,
      "▁goruntu": 6727,
      "##osyon": 6728,
      "▁8": 6729,
      "▁gerektigini": 6730,
      "▁cuz": 6731,
      "▁yuzde": 6732,
      "##yacak": 6733,
      "▁standart": 6734,
      "##tur": 6735,
      "##lamaya": 6736,
      "##sun": 6737,
      "##on": 6738,
      "▁yuzlu": 6739,
      "▁tir": 6740,
      "▁kopru": 6741,
      "##ach": 6742,
      "▁ulk": 6743,
      "▁to": 6744,
      "▁gordum": 6745,
      "▁hissesini": 6746,
      "▁normaldi": 6747,
      "##kac": 6748,
      "▁ayv": 6749,
      "▁plana": 6750,
      "##aket": 6751,
      "▁cehr": 6752,
      "▁etmeyi": 6753,
      "▁onlar": 6754,
      "▁alıp": 6755,
      "▁icimde": 6756,
      "▁isinden": 6757,
      "##ask": 6758,
      "▁dusun": 6759,
      "▁herh": 6760,
      "##and": 6761,
      "▁zamanda": 6762,
      "##.ceyrek": 6763,
      "##ecekleri": 6764,
      "##leyen": 6765,
      "##eden": 6766,
      "##etici": 6767,
      "▁sonr": 6768,
      "▁su": 6769,
      "▁ayd": 6770,
      "##ladım": 6771,
      "▁teklifin": 6772,
      "##onun": 6773,
      "▁faaliyeti": 6774,
      "▁kosesinde": 6775,
      "##lanıyor": 6776,
      "##lanması": 6777,
      "▁plani": 6778,
      "▁diger": 6779,
      "▁olumlu": 6780,
      "##indan": 6781,
      "▁magaza": 6782,
      "##acının": 6783,
      "##og": 6784,
      "##iliyor": 6785,
      "▁yere": 6786,
      "▁programları": 6787,
      "▁oyuncusu": 6788,
      "▁olur": 6789,
      "##cisi": 6790,
      "▁yıllardan": 6791,
      "▁calıstı": 6792,
      "▁hou": 6793,
      "##mur": 6794,
      "▁daglar": 6795,
      "▁etmez": 6796,
      "▁dusuktu": 6797,
      "▁kesinlikle": 6798,
      "##ers": 6799,
      "▁canım": 6800,
      "##kilerin": 6801,
      "▁fark": 6802,
      "▁faiz": 6803,
      "▁dostu": 6804,
      "▁one": 6805,
      "▁bayram": 6806,
      "▁kere": 6807,
      "▁meb": 6808,
      "▁kusur": 6809,
      "▁lif": 6810,
      "▁yemeklerinden": 6811,
      "▁tanık": 6812,
      "▁oranla": 6813,
      "▁it": 6814,
      "▁size": 6815,
      "▁nez": 6816,
      "##ain": 6817,
      "▁lakırtı": 6818,
      "▁gostergeleri": 6819,
      "▁rusvet": 6820,
      "▁etkil": 6821,
      "▁sir": 6822,
      "##gunluk": 6823,
      "▁arm": 6824,
      "▁oy": 6825,
      "▁psik": 6826,
      "▁aslan": 6827,
      "▁miktarda": 6828,
      "##nız": 6829,
      "▁ustunden": 6830,
      "▁havayollarının": 6831,
      "##ana": 6832,
      "▁mutlaka": 6833,
      "▁esir": 6834,
      "▁gokyuz": 6835,
      "▁kolunu": 6836,
      "▁belediye": 6837,
      "▁talep": 6838,
      "▁artırmak": 6839,
      "▁dert": 6840,
      "▁ustu": 6841,
      "##mayacak": 6842,
      "##rik": 6843,
      "(": 6844,
      "▁dolap": 6845,
      "▁olmalı": 6846,
      "##2'den": 6847,
      "l": 6848,
      "▁ucretin": 6849,
      "▁konuk": 6850,
      "▁camur": 6851,
      "▁kaldırım": 6852,
      "▁okul": 6853,
      "▁ihtil": 6854,
      "##ustan": 6855,
      "▁acentamiza": 6856,
      "##daydi": 6857,
      "▁sartları": 6858,
      "▁tutarında": 6859,
      "▁seye": 6860,
      "##uyordu": 6861,
      "▁veriyorum": 6862,
      "##lom": 6863,
      "##lag": 6864,
      "▁depart": 6865,
      "▁arastırma": 6866,
      "b": 6867,
      "▁denetim": 6868,
      "▁sarı": 6869,
      "▁yuzunu": 6870,
      "▁karsılastır": 6871,
      "##tif": 6872,
      "▁fırsat": 6873,
      "▁yine": 6874,
      "▁okuy": 6875,
      "▁temizliginden": 6876,
      "▁merkezinde": 6877,
      "##anıs": 6878,
      "##leriyle": 6879,
      "▁farkı": 6880,
      "▁sakat": 6881,
      "▁hayvan": 6882,
      "▁dok": 6883,
      "##alam": 6884,
      "▁mektep": 6885,
      "##ma": 6886,
      "▁komit": 6887,
      "##tu": 6888,
      "▁gunu": 6889,
      "▁mir": 6890,
      "▁gazet": 6891,
      "▁karan": 6892,
      "▁iceriyor": 6893,
      "▁muk": 6894,
      "▁ilgiliydi": 6895,
      "##lıdır": 6896,
      "▁alak": 6897,
      "▁nedenini": 6898,
      "##abını": 6899,
      "▁zır": 6900,
      "##ek": 6901,
      "##olog": 6902,
      "▁sinyal": 6903,
      "▁ren": 6904,
      "▁butu": 6905,
      "▁kampan": 6906,
      "▁yaptirdi": 6907,
      "▁mola": 6908,
      "▁istedim": 6909,
      "▁13": 6910,
      "▁dusunuyorum": 6911,
      "▁anlamı": 6912,
      "▁gercekl": 6913,
      "▁tabii": 6914,
      "▁ilan": 6915,
      "▁sessiz": 6916,
      "▁gunden": 6917,
      "▁gog": 6918,
      "##samba": 6919,
      "▁uyesi": 6920,
      "▁manev": 6921,
      "▁fi": 6922,
      "▁depremden": 6923,
      "▁torb": 6924,
      "▁aktivit": 6925,
      "▁perde": 6926,
      "▁durumun": 6927,
      "▁ten": 6928,
      "▁kafası": 6929,
      "##jik": 6930,
      "▁kadının": 6931,
      "▁tanı": 6932,
      "▁?": 6933,
      "##'a": 6934,
      "▁masada": 6935,
      "▁tesh": 6936,
      "▁beklent": 6937,
      "▁kız": 6938,
      "▁zira": 6939,
      "##tiv": 6940,
      "▁veririm": 6941,
      "##ene": 6942,
      "##lenin": 6943,
      "##lıgıyla": 6944,
      "##ic": 6945,
      "▁anla": 6946,
      "##esi": 6947,
      "▁oldugunu": 6948,
      "##itler": 6949,
      "▁denge": 6950,
      "▁sınırları": 6951,
      "##malı": 6952,
      "▁noktaya": 6953,
      "##diginden": 6954,
      "▁basarılı": 6955,
      "▁gemi": 6956,
      "▁som": 6957,
      "##ıslar": 6958,
      "##enuz": 6959,
      "##ulan": 6960,
      "▁ero": 6961,
      "▁iceriden": 6962,
      "▁seviye": 6963,
      "▁iliski": 6964,
      "▁9": 6965,
      "▁cep": 6966,
      "##ayet": 6967,
      "▁yaklasım": 6968,
      "▁gozlem": 6969,
      "##eyebilir": 6970,
      "##areti": 6971,
      "▁hacı": 6972,
      "▁yaklasimi": 6973,
      "▁hale": 6974,
      "##im": 6975,
      "▁geleni": 6976,
      "▁edilmesi": 6977,
      "▁parayı": 6978,
      "##iyat": 6979,
      "▁lake": 6980,
      "▁intik": 6981,
      "▁dogrudan": 6982,
      "▁val": 6983,
      "##ıgından": 6984,
      "▁eg": 6985,
      "▁basa": 6986,
      "▁iyice": 6987,
      "▁doy": 6988,
      "##imli": 6989,
      "▁dunyada": 6990,
      "##meldi": 6991,
      "▁kitaplar": 6992,
      "▁pap": 6993,
      "▁donem": 6994,
      "▁bin": 6995,
      "▁saygı": 6996,
      "##gıc": 6997,
      "##tigi": 6998,
      "▁durgunluk": 6999,
      "▁olanları": 7000,
      "##ecegine": 7001,
      "▁memur": 7002,
      "##layacak": 7003,
      "▁surekli": 7004,
      "▁basarıya": 7005,
      "▁ons": 7006,
      "▁%": 7007,
      "##luluk": 7008,
      "▁evlerine": 7009,
      "##phia": 7010,
      "▁enflasyon": 7011,
      "▁motor": 7012,
      "▁bence": 7013,
      "##stım": 7014,
      "▁herkes": 7015,
      "▁barıs": 7016,
      "▁seviyesinden": 7017,
      "##orn": 7018,
      "▁kurdu": 7019,
      "▁port": 7020,
      "▁philadelphia'dan": 7021,
      "▁darbe": 7022,
      "▁parcasını": 7023,
      "##ebil": 7024,
      "▁oyunlar": 7025,
      "##lan": 7026,
      "##ond": 7027,
      "▁yapılandır": 7028,
      "▁ortaya": 7029,
      "▁agacın": 7030,
      "6": 7031,
      "##ow": 7032,
      "▁apartman": 7033,
      "##yı": 7034,
      "▁pul": 7035,
      "▁kol": 7036,
      "▁doga": 7037,
      "▁uret": 7038,
      "##ti": 7039,
      "▁gunes": 7040,
      "▁ogret": 7041,
      "##akende": 7042,
      "##gının": 7043,
      "##ikat": 7044,
      "▁yapılanma": 7045,
      "▁turn": 7046,
      "##mak": 7047,
      "▁uf": 7048,
      "w": 7049,
      "▁geliyor": 7050,
      "##emi": 7051,
      "▁karsın": 7052,
      "▁paraları": 7053,
      "##ıltı": 7054,
      "##mesini": 7055,
      "##elim": 7056,
      "▁nam": 7057,
      "▁cın": 7058,
      "▁numara": 7059,
      "##akin": 7060,
      "▁supur": 7061,
      "▁vagon": 7062,
      "##iligin": 7063,
      "##atları": 7064,
      "▁sasır": 7065,
      "##larımız": 7066,
      "▁oldum": 7067,
      "▁sarım": 7068,
      "▁kurek": 7069,
      "▁sonuclarını": 7070,
      "▁surdur": 7071,
      "##mayı": 7072,
      "▁sahit": 7073,
      "##dal": 7074,
      "▁gunesi": 7075,
      "▁cuval": 7076,
      "▁anlasmayı": 7077,
      "▁cumhur": 7078,
      "▁kapandı": 7079,
      "▁satım": 7080,
      "▁buc": 7081,
      "▁basar": 7082,
      "▁gerekiyor": 7083,
      "▁ambar": 7084,
      "##ston": 7085,
      "▁iskem": 7086,
      "▁adamları": 7087,
      "##tek": 7088,
      "▁evler": 7089,
      "▁ilgilendiler": 7090,
      "##ediye": 7091,
      "▁bugday": 7092,
      "▁animator": 7093,
      "▁oyuncak": 7094,
      "▁gars": 7095,
      "▁nedir": 7096,
      "▁tezgah": 7097,
      "▁fabr": 7098,
      "▁haklarını": 7099,
      "▁fayda": 7100,
      "##dek": 7101,
      "▁saga": 7102,
      "▁yanından": 7103,
      "▁ol": 7104,
      "##erv": 7105,
      "▁hukum": 7106,
      "▁aray": 7107,
      "▁mamafih": 7108,
      "▁kec": 7109,
      "##uyorlardı": 7110,
      "▁nob": 7111,
      "▁gev": 7112,
      "##lerimi": 7113,
      "▁bardak": 7114,
      "▁sanatcılar": 7115,
      "▁konusmaya": 7116,
      "▁yuze": 7117,
      "▁toplam": 7118,
      "▁sin": 7119,
      "▁duyguları": 7120,
      "▁hatt": 7121,
      "▁calısma": 7122,
      "▁galib": 7123,
      "▁ekledi": 7124,
      "##_": 7125,
      "▁sahneye": 7126,
      "##umsal": 7127,
      "##le": 7128,
      "▁mag": 7129,
      "▁sirketlerinin": 7130,
      "▁sonra": 7131,
      "▁gelecegi": 7132,
      "##est": 7133,
      "▁hamur": 7134,
      "▁lazım": 7135,
      "▁sim": 7136,
      "##inda": 7137,
      "###": 7138,
      "▁ihale": 7139,
      "▁gok": 7140,
      "▁yonetiminin": 7141,
      "▁tulum": 7142,
      "▁muamel": 7143,
      "▁suları": 7144,
      "▁tasıy": 7145,
      "▁hey": 7146,
      "▁ila": 7147,
      "▁demis": 7148,
      "▁karabiber": 7149,
      "▁per": 7150,
      "##acag": 7151,
      "##ıyor": 7152,
      "##cagım": 7153,
      "▁isleri": 7154,
      "▁oldukca": 7155,
      "▁sun": 7156,
      "▁zehir": 7157,
      "▁yarın": 7158,
      "##usuna": 7159,
      "##stık": 7160,
      "##cagız": 7161,
      "▁kagı": 7162,
      "▁gundeme": 7163,
      "▁mikrop": 7164,
      "##ebilmek": 7165,
      "▁sordu": 7166,
      "##00'": 7167,
      "▁petr": 7168,
      "##eyin": 7169,
      "▁nit": 7170,
      "▁nefes": 7171,
      "##lestir": 7172,
      "▁mur": 7173,
      "▁olus": 7174,
      "##mine": 7175,
      "▁fonları": 7176,
      "▁termal": 7177,
      "▁buna": 7178,
      "▁saye": 7179,
      "##stır": 7180,
      "##ıda": 7181,
      "##uldu": 7182,
      "▁kuvvet": 7183,
      "##ktur": 7184,
      "▁amerikalı": 7185,
      "##rut": 7186,
      "##sın": 7187,
      "▁taham": 7188,
      "▁meg": 7189,
      "▁raporu": 7190,
      "##eda": 7191,
      "##'u": 7192,
      "##v": 7193,
      "▁tarihi": 7194,
      "##umu": 7195,
      "##ift": 7196,
      "▁kapısının": 7197,
      "##gin": 7198,
      "##legi": 7199,
      "##nd": 7200,
      "##unun": 7201,
      "##antaj": 7202,
      "▁hizmetci": 7203,
      "▁ork": 7204,
      "▁kelimeyle": 7205,
      "▁denizinden": 7206,
      "▁acısı": 7207,
      "▁servet": 7208,
      "▁uyku": 7209,
      "▁tesp": 7210,
      "▁sekret": 7211,
      "##leme": 7212,
      "▁yonel": 7213,
      "▁insanların": 7214,
      "▁programı": 7215,
      "q": 7216,
      "▁class": 7217,
      "▁sesleri": 7218,
      "##ter": 7219,
      "▁kum": 7220,
      "▁bakır": 7221,
      "▁muhafazak": 7222,
      "▁geceler": 7223,
      "▁6'dan": 7224,
      "##lul": 7225,
      "▁dag": 7226,
      "▁sonuclar": 7227,
      "▁universite": 7228,
      "▁inanc": 7229,
      "▁stok": 7230,
      "▁gelenek": 7231,
      "▁tez": 7232,
      "##okul": 7233,
      "▁internet": 7234,
      "▁usta": 7235,
      "▁kaybetti": 7236,
      "▁gorevini": 7237,
      "▁pilav": 7238,
      "▁personelleri": 7239,
      "▁soyl": 7240,
      "##ıh": 7241,
      "▁cant": 7242,
      "▁katır": 7243,
      "▁market": 7244,
      "##cıların": 7245,
      "▁dus": 7246,
      "▁cikol": 7247,
      "##cileri": 7248,
      "▁isk": 7249,
      "▁oranlar": 7250,
      "##rlikte": 7251,
      "▁arbitraj": 7252,
      "##inde": 7253,
      "▁dizgin": 7254,
      "▁nokt": 7255,
      "▁firması": 7256,
      "##dirme": 7257,
      "▁pazarlama": 7258,
      "▁hazır": 7259,
      "##lerini": 7260,
      "▁cevre": 7261,
      "▁onlara": 7262,
      "▁karsılıgı": 7263,
      "▁girmek": 7264,
      "##inizde": 7265,
      "▁alım": 7266,
      "▁santr": 7267,
      "▁rad": 7268,
      "▁if": 7269,
      "##bus": 7270,
      "▁duyar": 7271,
      "▁asag": 7272,
      "▁endeksi": 7273,
      "▁kolay": 7274,
      "▁evr": 7275,
      "”": 7276,
      "##wa": 7277,
      "##'ın": 7278,
      "▁toplumun": 7279,
      "##ettim": 7280,
      "##ısını": 7281,
      "##alardan": 7282,
      "▁sist": 7283,
      "▁baskanı": 7284,
      "##uyle": 7285,
      "▁iktid": 7286,
      "##atı": 7287,
      "▁yakinlar": 7288,
      "▁efend": 7289,
      "▁bekledigini": 7290,
      "▁ekonom": 7291,
      "▁uzak": 7292,
      "▁komur": 7293,
      "▁arasından": 7294,
      "##lenen": 7295,
      "▁dagdan": 7296,
      "▁baban": 7297,
      "▁finansman": 7298,
      "▁insanlar": 7299,
      "▁turuna": 7300,
      "##eki": 7301,
      "▁soyle": 7302,
      "▁gayr": 7303,
      "▁q": 7304,
      "##imci": 7305,
      "▁kadro": 7306,
      "▁derin": 7307,
      "▁dolara": 7308,
      "▁olacak": 7309,
      "▁gostermek": 7310,
      "▁delik": 7311,
      "▁dostluk": 7312,
      "▁guzel": 7313,
      "▁yel": 7314,
      "▁imal": 7315,
      "##yi": 7316,
      "▁diplom": 7317,
      "▁kapanıs": 7318,
      "▁bina": 7319,
      "’": 7320,
      "▁uygulamaları": 7321,
      "▁mav": 7322,
      "##'": 7323,
      "▁sabahın": 7324,
      "##lıkla": 7325,
      "▁kurban": 7326,
      "▁ettig": 7327,
      "▁ket": 7328,
      "▁bahseder": 7329,
      "▁kolu": 7330,
      "°": 7331,
      "▁cograf": 7332,
      "##iste": 7333,
      "▁kade": 7334,
      "▁yem": 7335,
      "▁kib": 7336,
      "▁insa": 7337,
      "##od": 7338,
      "##era": 7339,
      "▁cay": 7340,
      "▁carsamba": 7341,
      "▁havuzlar": 7342,
      "▁bakıyordu": 7343,
      "▁yollar": 7344,
      "▁bun": 7345,
      "▁rek": 7346,
      "▁ortam": 7347,
      "▁sesini": 7348,
      "▁yasında": 7349,
      "▁devletin": 7350,
      "▁niz": 7351,
      "▁fasuly": 7352,
      "▁birini": 7353,
      "▁kurt": 7354,
      "▁oranları": 7355,
      "##lasma": 7356,
      "▁jandar": 7357,
      "▁l": 7358,
      "▁icim": 7359,
      "▁yont": 7360,
      "▁hizmeti": 7361,
      "▁*": 7362,
      "▁tramvay": 7363,
      "##ruk": 7364,
      "▁milwaukee": 7365,
      "▁hala": 7366,
      "▁torun": 7367,
      "##yalar": 7368,
      "▁kupon": 7369,
      "##tı": 7370,
      "##sacak": 7371,
      "▁hukmu": 7372,
      "▁havuzun": 7373,
      "##apark": 7374,
      "▁malzemeler": 7375,
      "##emizin": 7376,
      "▁sınır": 7377,
      "##burg": 7378,
      "▁united": 7379,
      "▁hisselerinin": 7380,
      "▁baskaları": 7381,
      "▁kedi": 7382,
      "▁malı": 7383,
      "##ilir": 7384,
      "▁teyz": 7385,
      "▁cehen": 7386,
      "▁kodu": 7387,
      "##ton": 7388,
      "##da": 7389,
      "▁yapmaktan": 7390,
      "▁planlamam": 7391,
      "▁kuz": 7392,
      "##cev": 7393,
      "▁devleti": 7394,
      "▁rekabet": 7395,
      "▁telefon": 7396,
      "▁dar": 7397,
      "▁ardına": 7398,
      "▁havaalanı'nda": 7399,
      "▁cekic": 7400,
      "##.m": 7401,
      "##ran": 7402,
      "##egim": 7403,
      "▁kalite": 7404,
      "▁baskanın": 7405,
      "▁spekulasyon": 7406,
      "▁fatur": 7407,
      "##edik": 7408,
      "##iyorum": 7409,
      "▁elb": 7410,
      "▁gum": 7411,
      "##gen": 7412,
      "▁kabuk": 7413,
      "##aman": 7414,
      "▁kendisini": 7415,
      "##tılı": 7416,
      "▁diz": 7417,
      "##anlarda": 7418,
      "##9'un": 7419,
      "▁video": 7420,
      "▁olan": 7421,
      "▁havayolu": 7422,
      "▁beyef": 7423,
      "##sem": 7424,
      "▁oz": 7425,
      "▁duv": 7426,
      "▁chicag": 7427,
      "▁okuyucu": 7428,
      "##tin": 7429,
      "▁endek": 7430,
      "▁havalim": 7431,
      "##ulmus": 7432,
      "▁dek": 7433,
      "▁oakland": 7434,
      "▁gur": 7435,
      "▁seferinde": 7436,
      "▁parasını": 7437,
      "▁personeller": 7438,
      "##maktan": 7439,
      "▁carp": 7440,
      "▁denver'den": 7441,
      "▁uzay": 7442,
      "▁gazete": 7443,
      "##kinden": 7444,
      "▁gozluk": 7445,
      "▁sebebi": 7446,
      "▁bizimle": 7447,
      "▁katıl": 7448,
      "▁ulastı": 7449,
      "▁hamal": 7450,
      "▁bulmaya": 7451,
      "▁kagıtları": 7452,
      "▁elbet": 7453,
      "##ilmek": 7454,
      "▁oksur": 7455,
      "▁sehrin": 7456,
      "▁temin": 7457,
      "▁dogrult": 7458,
      "▁superdi": 7459,
      "▁sevk": 7460,
      "##lendir": 7461,
      "##ladıgını": 7462,
      "##culuk": 7463,
      "▁yasamını": 7464,
      "▁dusuk": 7465,
      "▁buny": 7466,
      "▁bi": 7467,
      "▁pazarlık": 7468,
      "▁gelirleri": 7469,
      "▁hakem": 7470,
      "▁sask": 7471,
      "▁ekonomi": 7472,
      "▁yıllar": 7473,
      "▁kardes": 7474,
      "▁kumas": 7475,
      "▁hukumdar": 7476,
      "▁tal": 7477,
      "##evi": 7478,
      "##iyeti": 7479,
      "##ruf": 7480,
      "▁atlanta'ya": 7481,
      "▁kavg": 7482,
      "▁nelerdir": 7483,
      "##m": 7484,
      "▁cocuklarını": 7485,
      "▁fabrik": 7486,
      "▁gecik": 7487,
      "▁sec": 7488,
      "▁kilis": 7489,
      "▁sonunda": 7490,
      "▁uye": 7491,
      "▁borcu": 7492,
      "▁insana": 7493,
      "##iber": 7494,
      "▁zafer": 7495,
      "##ot": 7496,
      "▁arabalar": 7497,
      "##ima": 7498,
      "▁sayıda": 7499,
      "▁bekle": 7500,
      "▁imz": 7501,
      "▁yavru": 7502,
      "##lendirdi": 7503,
      "▁belirtti": 7504,
      "▁guv": 7505,
      "▁3/": 7506,
      "▁gul": 7507,
      "▁organ": 7508,
      "▁lob": 7509,
      "▁gonul": 7510,
      "##kiz": 7511,
      "▁kartı": 7512,
      "▁num": 7513,
      "▁temizlikten": 7514,
      "▁haftanın": 7515,
      "▁numar": 7516,
      "##imiz": 7517,
      "▁ez": 7518,
      "##digini": 7519,
      "##eksiyon": 7520,
      "##arası": 7521,
      "▁karayolu": 7522,
      "▁zap": 7523,
      "▁yaklasımı": 7524,
      "##asın": 7525,
      "▁verme": 7526,
      "▁yerin": 7527,
      "##attle": 7528,
      "##aba": 7529,
      "▁kayak": 7530,
      "▁kumandan": 7531,
      "▁7'den": 7532,
      "▁bur": 7533,
      "##ıs": 7534,
      "▁1990'da": 7535,
      "▁esv": 7536,
      "▁degerini": 7537,
      "r": 7538,
      "▁adet": 7539,
      "▁tedar": 7540,
      "▁yetkili": 7541,
      "▁meden": 7542,
      "▁oyku": 7543,
      "▁girisim": 7544,
      "▁naz": 7545,
      "##lerine": 7546,
      "▁parkı": 7547,
      "▁musterileri": 7548,
      "##ende": 7549,
      "▁yaprak": 7550,
      "▁elinden": 7551,
      "▁karsı": 7552,
      "▁muhar": 7553,
      "▁domuz": 7554,
      "▁kayık": 7555,
      "▁ortaydi": 7556,
      "▁kardesi": 7557,
      "▁basına": 7558,
      "##amdan": 7559,
      "▁animasyonu": 7560,
      "▁sonu": 7561,
      "▁gelisim": 7562,
      "▁sosy": 7563,
      "##ecekti": 7564,
      "##'den": 7565,
      "▁siyah": 7566,
      "##ation": 7567,
      "▁yeterince": 7568,
      "▁osman": 7569,
      "##esil": 7570,
      "##​": 7571,
      "▁icra": 7572,
      "##gır": 7573,
      "##dırım": 7574,
      "▁parayi": 7575,
      "▁teh": 7576,
      "##den": 7577,
      "▁evlat": 7578,
      "▁kalkan": 7579,
      "##igim": 7580,
      "▁calısması": 7581,
      "▁yetkilileri": 7582,
      "##uyla": 7583,
      "▁tekne": 7584,
      "▁dov": 7585,
      "t": 7586,
      "▁odanın": 7587,
      "▁gibi": 7588,
      "▁hissesi": 7589,
      "##adan": 7590,
      "▁edebilir": 7591,
      "##baz": 7592,
      "▁donemlerde": 7593,
      "▁sos": 7594,
      "##uye": 7595,
      "▁ulas": 7596,
      "▁abon": 7597,
      "▁sehir": 7598,
      "▁muhareb": 7599,
      "▁icinde": 7600,
      "▁ben": 7601,
      "##uzin": 7602,
      "▁yang": 7603,
      "▁semp": 7604,
      "▁evlerin": 7605,
      "▁tarih": 7606,
      "▁mektubu": 7607,
      "▁dik": 7608,
      "▁hastalık": 7609,
      "▁sen": 7610,
      "▁teori": 7611,
      "▁memlekette": 7612,
      "##ap": 7613,
      "▁bulmak": 7614,
      "▁salonu": 7615,
      "▁hastal": 7616,
      "▁planını": 7617,
      "▁sabır": 7618,
      "##azı": 7619,
      "▁ucuz": 7620,
      "▁eksikligi": 7621,
      "▁gozlerim": 7622,
      "##tanbul": 7623,
      "▁parkın": 7624,
      "▁dakik": 7625,
      "▁basbak": 7626,
      "▁bilmem": 7627,
      "▁duskun": 7628,
      "##ımız": 7629,
      "▁kef": 7630,
      "▁para": 7631,
      "▁attı": 7632,
      "▁acıldı": 7633,
      "▁begen": 7634,
      "▁tram": 7635,
      "▁kos": 7636,
      "▁dom": 7637,
      "##kur": 7638,
      "▁roportaj": 7639,
      "##gec": 7640,
      "▁pır": 7641,
      "▁cesaretini": 7642,
      "##uzluydu": 7643,
      "##hut": 7644,
      "▁orta": 7645,
      "##cum": 7646,
      "▁dislerini": 7647,
      "▁yılından": 7648,
      "##lev": 7649,
      "▁pesinden": 7650,
      "▁catı": 7651,
      "##tusu": 7652,
      "##lıgının": 7653,
      "▁yapım": 7654,
      "▁mit": 7655,
      "##at": 7656,
      "▁seyden": 7657,
      "▁argum": 7658,
      "▁bagır": 7659,
      "##nem": 7660,
      "▁ilgi": 7661,
      "▁bicimi": 7662,
      "▁maddes": 7663,
      "▁getir": 7664,
      "##gundu": 7665,
      "▁komp": 7666,
      "▁kitabın": 7667,
      "▁insan": 7668,
      "##yo": 7669,
      "▁evet": 7670,
      "▁geregi": 7671,
      "▁pilotlar": 7672,
      "##acı": 7673,
      "▁yuzme": 7674,
      "▁teklifler": 7675,
      "▁tr": 7676,
      "▁bankacılık": 7677,
      "▁ec": 7678,
      "▁rahat": 7679,
      "▁arada": 7680,
      "##alar": 7681,
      "▁sov": 7682,
      "▁alt": 7683,
      "▁adımlarla": 7684,
      "▁secenek": 7685,
      "▁kah": 7686,
      "▁kurallar": 7687,
      "▁degisiklik": 7688,
      "▁goze": 7689,
      "▁ulasım": 7690,
      "##anını": 7691,
      "▁safh": 7692,
      "▁gercek": 7693,
      "▁karar": 7694,
      "▁div": 7695,
      "▁ge": 7696,
      "▁milli": 7697,
      "▁gonl": 7698,
      "▁zarar": 7699,
      "##al": 7700,
      "▁arkadasim": 7701,
      "##larıma": 7702,
      "▁guc": 7703,
      "##vil": 7704,
      "##ıga": 7705,
      "▁anlayıs": 7706,
      "##ian": 7707,
      "##mustur": 7708,
      "##istel": 7709,
      "▁evla": 7710,
      "▁heps": 7711,
      "▁yardımı": 7712,
      "▁bay": 7713,
      "▁gercekles": 7714,
      "▁emniyet": 7715,
      "▁urunu": 7716,
      "▁calgı": 7717,
      "▁gos": 7718,
      "▁dogrusu": 7719,
      "▁esim": 7720,
      "▁sab": 7721,
      "▁past": 7722,
      "▁(": 7723,
      "##of": 7724,
      "▁hisselerin": 7725,
      "▁belg": 7726,
      "▁serg": 7727,
      "▁la": 7728,
      "▁yuzume": 7729,
      "▁memnunuz": 7730,
      "##ort": 7731,
      "▁edeb": 7732,
      "▁ilgilendi": 7733,
      "▁pol": 7734,
      "##mekten": 7735,
      "##ekler": 7736,
      "##ikler": 7737,
      "▁kalır": 7738,
      "▁yet": 7739,
      "##kk": 7740,
      "▁an": 7741,
      "▁yi": 7742,
      "▁sent": 7743,
      "##usuyla": 7744,
      "▁iliskisi": 7745,
      "▁gorusuldu": 7746,
      "▁karak": 7747,
      "▁tarafını": 7748,
      "▁orgut": 7749,
      "▁tıp": 7750,
      "▁mahkemesi": 7751,
      "▁yayın": 7752,
      "▁cab": 7753,
      "▁fran": 7754,
      "##ekt": 7755,
      "##2'de": 7756,
      "##asıyla": 7757,
      "-": 7758,
      "▁sanki": 7759,
      "▁indian": 7760,
      "##meyecegini": 7761,
      "▁mahkum": 7762,
      "##ilig": 7763,
      "▁tesisti": 7764,
      "▁vet": 7765,
      "▁hasar": 7766,
      "▁dusmanı": 7767,
      "▁personellerinden": 7768,
      "##9'da": 7769,
      "▁teklif": 7770,
      "##atını": 7771,
      "▁uslu": 7772,
      "▁problem": 7773,
      "##isinin": 7774,
      "▁hijyen": 7775,
      "##g": 7776,
      "▁ongor": 7777,
      "▁ele": 7778,
      "▁pazarı": 7779,
      "##etre": 7780,
      "▁fikr": 7781,
      "##abil": 7782,
      "##eral": 7783,
      "▁basından": 7784,
      "▁paylas": 7785,
      "▁tarım": 7786,
      "▁terk": 7787,
      "##ebilirim": 7788,
      "▁bor": 7789,
      "▁aktiviteler": 7790,
      "▁dallas": 7791,
      "▁sarsıntı": 7792,
      "▁davran": 7793,
      "▁uzerindeki": 7794,
      "▁zil": 7795,
      "▁cumartesi": 7796,
      "##uncu": 7797,
      "▁aralarında": 7798,
      "##agi": 7799,
      "▁seyi": 7800,
      "▁rec": 7801,
      "##lıgını": 7802,
      "▁kaybı": 7803,
      "▁kalitesini": 7804,
      "##lının": 7805,
      "▁talim": 7806,
      "##apon": 7807,
      "▁olaydan": 7808,
      "▁tuvalet": 7809,
      "##maya": 7810,
      "▁gozu": 7811,
      "▁edilen": 7812,
      "##emden": 7813,
      "▁basta": 7814,
      "2": 7815,
      "▁parm": 7816,
      "▁kamyon": 7817,
      "▁tablo": 7818,
      "▁ameliyat": 7819,
      "▁malzemeleri": 7820,
      "▁v": 7821,
      "▁calısmak": 7822,
      "▁sezlon": 7823,
      "▁mevzuat": 7824,
      "▁krem": 7825,
      "▁pab": 7826,
      "##lastik": 7827,
      "##unca": 7828,
      "▁sabah": 7829,
      "▁zamanlarda": 7830,
      "▁kaldim": 7831,
      "▁ilg": 7832,
      "##sali": 7833,
      "##elerinin": 7834,
      "▁sayf": 7835,
      "▁gozune": 7836,
      "▁odedigim": 7837,
      "▁mukem": 7838,
      "▁duzelt": 7839,
      "▁profes": 7840,
      "▁dogru": 7841,
      "##dı": 7842,
      "##mos": 7843,
      "##ligine": 7844,
      "▁kimlik": 7845,
      "▁katil": 7846,
      "##agından": 7847,
      "▁yil": 7848,
      "▁atol": 7849,
      "▁gayet": 7850,
      "##us": 7851,
      "▁ilav": 7852,
      "▁anlamına": 7853,
      "▁davayı": 7854,
      "##ızlı": 7855,
      "▁savas": 7856,
      "##aj": 7857,
      "▁tiyatro": 7858,
      "▁yolunu": 7859,
      "##layarak": 7860,
      "##ansız": 7861,
      "▁kalit": 7862,
      "▁taleb": 7863,
      "▁cekmek": 7864,
      "▁meyve": 7865,
      "##ıldı": 7866,
      "▁kafasına": 7867,
      "▁bilgisi": 7868,
      "##bu": 7869,
      "##cek": 7870,
      "▁ihtir": 7871,
      "▁onceden": 7872,
      "▁haric": 7873,
      "##ekkur": 7874,
      "▁kotu": 7875,
      "##arlı": 7876,
      "▁yar": 7877,
      "▁metal": 7878,
      "##ler": 7879,
      "▁fik": 7880,
      "▁yaban": 7881,
      "▁kalıyor": 7882,
      "▁tarafta": 7883,
      "▁kost": 7884,
      "▁giysi": 7885,
      "##net": 7886,
      "▁katı": 7887,
      "▁cip": 7888,
      "▁sigara": 7889,
      "▁itir": 7890,
      "##maması": 7891,
      "k": 7892,
      "##landı": 7893,
      "▁ellerinden": 7894,
      "▁dir": 7895,
      "▁fig": 7896,
      "▁simdi": 7897,
      "##sizlik": 7898,
      "##allı": 7899,
      "##ahan": 7900,
      "▁sonuna": 7901,
      "▁ayı": 7902,
      "##larınız": 7903,
      "▁bilmiyorum": 7904,
      "▁olamaz": 7905,
      "##laydi": 7906,
      "▁odun": 7907,
      "▁paket": 7908,
      "▁dikkate": 7909,
      "▁sovyetler": 7910,
      "▁olmaya": 7911,
      "▁odalardan": 7912,
      "▁bunu": 7913,
      "▁tutar": 7914,
      "▁gobek": 7915,
      "##urup": 7916,
      "▁vadede": 7917,
      "▁ajans": 7918,
      "##osuna": 7919,
      "##ıgın": 7920,
      "▁noktası": 7921,
      "##manın": 7922,
      "▁rehber": 7923,
      "##luydu": 7924,
      "▁lok": 7925,
      "▁konu": 7926,
      "▁seydi": 7927,
      "##orth": 7928,
      "▁dedi": 7929,
      "##yle": 7930,
      "##8'de": 7931,
      "▁harcam": 7932,
      "▁yoktu": 7933,
      "▁aylarda": 7934,
      "▁yapması": 7935,
      "▁toront": 7936,
      "▁yonetic": 7937,
      "##air": 7938,
      "##'d": 7939,
      "##erleri": 7940,
      "▁mukemmel": 7941,
      "##onu": 7942,
      "##dadır": 7943,
      "▁kulag": 7944,
      "▁etmiyor": 7945,
      "▁dukk": 7946,
      "▁iyil": 7947,
      "▁reddet": 7948,
      "▁orani": 7949,
      "▁arabayı": 7950,
      "##sur": 7951,
      "##iyim": 7952,
      "▁aldılar": 7953,
      "▁ya": 7954,
      "##lerimiz": 7955,
      "##acık": 7956,
      "▁bebek": 7957,
      "▁gerektir": 7958,
      "▁ces": 7959,
      "##ısın": 7960,
      "▁kurul": 7961,
      "▁yuzunde": 7962,
      "##eland": 7963,
      "▁lan": 7964,
      "▁ulke": 7965,
      "▁madde": 7966,
      "##irk": 7967,
      "##vi": 7968,
      "▁hanimla": 7969,
      "▁konus": 7970,
      "▁cur": 7971,
      "▁opsiyon": 7972,
      "##mekte": 7973,
      "▁ufak": 7974,
      "##8'e": 7975,
      "▁calis": 7976,
      "▁dusunc": 7977,
      "▁\"": 7978,
      "▁getirisi": 7979,
      "▁ker": 7980,
      "▁ked": 7981,
      "##dıgında": 7982,
      "▁aj": 7983,
      "▁versiyon": 7984,
      "##lemesi": 7985,
      "▁bil": 7986,
      "▁alternatif": 7987,
      "##kal": 7988,
      "▁seb": 7989,
      "▁sur": 7990,
      "▁istifa": 7991,
      "▁cekim": 7992,
      "▁amerik": 7993,
      "▁ins": 7994,
      "##etim": 7995,
      "▁mez": 7996,
      "##tıg": 7997,
      "▁mumkun": 7998,
      "▁kurb": 7999,
      "▁kisinin": 8000,
      "##'y": 8001,
      "▁kadr": 8002,
      "▁aile": 8003,
      "▁elbette": 8004,
      "▁senetlerinin": 8005,
      "▁oden": 8006,
      "▁programını": 8007,
      "##mamıstı": 8008,
      "▁bilir": 8009,
      "##ımızdan": 8010,
      "▁karsıya": 8011,
      "▁birtak": 8012,
      "▁cercevesinde": 8013,
      "▁lezzeti": 8014,
      "▁yiyecekleri": 8015,
      "▁heyec": 8016,
      "##dol": 8017,
      "##erk": 8018,
      "▁etmis": 8019,
      "##liklerini": 8020,
      "##lamıstı": 8021,
      "▁duzeni": 8022,
      "▁planları": 8023,
      "▁evvel": 8024,
      "▁cekti": 8025,
      "▁fırsatı": 8026,
      "##ligiyle": 8027,
      "▁neden": 8028,
      "▁kac": 8029,
      "▁huk": 8030,
      "▁rop": 8031,
      "▁hatır": 8032,
      "▁arkasından": 8033,
      "▁kalitesinden": 8034,
      "▁bize": 8035,
      "▁havuzu": 8036,
      "▁pas": 8037,
      "▁otel": 8038,
      "##elir": 8039,
      "##imizda": 8040,
      "▁borcun": 8041,
      "##lak": 8042,
      "▁havaalanından": 8043,
      "##isi": 8044,
      "▁dah": 8045,
      "▁ah": 8046,
      "##meyen": 8047,
      "##liye": 8048,
      "##izi": 8049,
      "##ladıgı": 8050,
      "▁tedbir": 8051,
      "▁feda": 8052,
      "##lerimizi": 8053,
      "##eh": 8054,
      "▁alamadim": 8055,
      "▁cennet": 8056,
      "▁gore": 8057,
      "▁bagıs": 8058,
      "▁dernegi": 8059,
      "##avv": 8060,
      "▁havayol": 8061,
      "▁reddetti": 8062,
      "▁okum": 8063,
      "▁ide": 8064,
      "▁saati": 8065,
      "▁ca": 8066,
      "▁bizim": 8067,
      "▁program": 8068,
      "##mesinden": 8069,
      "▁kek": 8070,
      "▁nih": 8071,
      "▁bazı": 8072,
      "▁burokr": 8073,
      "▁ahır": 8074,
      "▁taksi": 8075,
      "▁halkla": 8076,
      "▁kıyıya": 8077,
      "▁fık": 8078,
      "##mıyor": 8079,
      "##usunda": 8080,
      "▁onu": 8081,
      "##ıyordu": 8082,
      "▁zahmet": 8083,
      "##tum": 8084,
      "▁basladı": 8085,
      "▁cır": 8086,
      "▁devri": 8087,
      "##sıyla": 8088,
      "▁ediyor": 8089,
      "▁eglenc": 8090,
      "▁yemegin": 8091,
      "##atif": 8092,
      "▁lah": 8093,
      "##ıslı": 8094,
      "▁fıs": 8095,
      "▁sonucları": 8096,
      "▁itiraz": 8097,
      "▁isin": 8098,
      "##andı": 8099,
      "▁erik": 8100,
      "▁prot": 8101,
      "▁hizmete": 8102,
      "▁ay": 8103,
      "▁30": 8104,
      "▁carsaflar": 8105,
      "▁ithal": 8106,
      "▁mutfak": 8107,
      "▁duz": 8108,
      "##gum": 8109,
      "!": 8110,
      "##dug": 8111,
      "▁gel": 8112,
      "##dim": 8113,
      "▁hali": 8114,
      "▁op": 8115,
      "▁yazık": 8116,
      "##ib": 8117,
      "##uvar": 8118,
      "##siye": 8119,
      "▁airlin": 8120,
      "▁ederiz": 8121,
      "▁bilgileri": 8122,
      "##ig": 8123,
      "▁hata": 8124,
      "▁lezzetli": 8125,
      "##ısık": 8126,
      "##arında": 8127,
      "▁muhalefet": 8128,
      "▁yuv": 8129,
      "##lılar": 8130,
      "▁hukumet": 8131,
      "▁sozleri": 8132,
      "##uyorum": 8133,
      "▁adamın": 8134,
      "##aklı": 8135,
      "▁gelecekte": 8136,
      "▁hazırlan": 8137,
      "▁olmasi": 8138,
      "##ay": 8139,
      "▁le": 8140,
      "##arl": 8141,
      "▁araya": 8142,
      "▁ihtiyacları": 8143,
      "▁sigar": 8144,
      "▁sola": 8145,
      "##li": 8146,
      "▁piyasayı": 8147,
      "▁okulun": 8148,
      "▁olmayacak": 8149,
      "▁birlesik": 8150,
      "##oks": 8151,
      "▁vermeyi": 8152,
      "▁milyar": 8153,
      "##ukee": 8154,
      "▁baslan": 8155,
      "▁gerekc": 8156,
      "▁seviy": 8157,
      "##iyer": 8158,
      "▁olacaktır": 8159,
      "▁tedirgin": 8160,
      "▁kayn": 8161,
      "##sin": 8162,
      "▁tahvil": 8163,
      "▁kalkıs": 8164,
      "##tim": 8165,
      "▁evren": 8166,
      "##ten": 8167,
      "▁omur": 8168,
      "▁kesint": 8169,
      "▁iplik": 8170,
      "▁ogrenc": 8171,
      "##isini": 8172,
      "▁sayısını": 8173,
      "##mki": 8174,
      "▁herkesi": 8175,
      "▁sektoru": 8176,
      "##mıs": 8177,
      "▁doktora": 8178,
      "▁eyalet": 8179,
      "▁gordu": 8180,
      "▁telafi": 8181,
      "##mus": 8182,
      "▁uretici": 8183,
      "##adaki": 8184,
      "▁yollarını": 8185,
      "##temelen": 8186,
      "▁oncesine": 8187,
      "▁evleri": 8188,
      "▁baslamak": 8189,
      "▁rica": 8190,
      "##ki": 8191
    }
  }
}