{
  "version": "1.0",
  "truncation": null,
  "padding": null,
  "added_tokens": [
    {
      "id": 2445,
      "content": "[SEP]",
      "single_word": false,
      "lstrip": false,
      "rstrip": false,
      "normalized": false,
      "special": true
    },
    {
      "id": 4083,
      "content": "[UNK]",
      "single_word": false,
      "lstrip": false,
      "rstrip": false,
      "normalized": false,
      "special": true
    },
    {
      "id": 5170,
      "content": "[MASK]",
      "single_word": false,
      "lstrip": false,
      "rstrip": false,
      "normalized": false,
      "special": true
    },
    {
      "id": 6636,
      "content": "[PAD]",
      "single_word": false,
      "lstrip": false,
      "rstrip": false,
      "normalized": false,
      "special": true
    },
    {
      "id": 6734,
      "content": "[CLS]",
      "single_word": false,
      "lstrip": false,
      "rstrip": false,
      "normalized": false,
      "special": true
    }
  ],
  "normalizer": {
    "type": "Sequence",
    "normalizers": [
      {
        "type": "NFD"
      },
      {
        "type": "Lowercase"
      },
      {
        "type": "StripAccents"
      }
    ]
  },
  "pre_tokenizer": {
    "type": "Sequence",
    "pretokenizers": [
      {
        "type": "Metaspace",
        "replacement": "▁",
        "prepend_scheme": "always",
        "split": true
      }
    ]
  },
  "post_processor": {
    "type": "TemplateProcessing",
    "single": [
      {
        "SpecialToken": {
          "id": "[CLS]",
          "type_id": 0
        }
      },
      {
        "Sequence": {
          "id": "A",
          "type_id": 0
        }
      },
      {
        "SpecialToken": {
          "id": "[SEP]",
          "type_id": 0
        }
      }
    ],
    "pair": [
      {
        "SpecialToken": {
          "id": "[CLS]",
          "type_id": 0
        }
      },
      {
        "Sequence": {
          "id": "A",
          "type_id": 0
        }
      },
      {
        "SpecialToken": {
          "id": "[SEP]",
          "type_id": 0
        }
      },
      {
        "Sequence": {
          "id": "B",
          "type_id": 1
        }
      },
      {
        "SpecialToken": {
          "id": "[SEP]",
          "type_id": 1
        }
      }
    ],
    "special_tokens": {
      "[CLS]": {
        "id": "[CLS]",
        "ids": [
          6734
        ],
        "tokens": [
          "[CLS]"
        ]
      },
      "[SEP]": {
        "id": "[SEP]",
        "ids": [
          2445
        ],
        "tokens": [
          "[SEP]"
        ]
      }
    }
  },
  "decoder": {
    "type": "Metaspace",
    "replacement": "▁",
    "prepend_scheme": "always",
    "split": true
  },
  "model": {
    "type": "BPE",
    "dropout": null,
    "unk_token": "[UNK]",
    "continuing_subword_prefix": null,
    "end_of_word_suffix": null,
    "fuse_unk": false,
    "byte_fallback": false,
    "ignore_merges": false,
    "vocab": {
      "▁aldı": 0,
      "▁bahcede": 1,
      "▁borsasında": 2,
      "▁tacirler": 3,
      "▁ceviz": 4,
      "▁hele": 5,
      "▁yapmıs": 6,
      "dir": 7,
      "▁iceride": 8,
      "ster": 9,
      "▁isler": 10,
      "9'da": 11,
      "egi": 12,
      "izasyon": 13,
      "▁yolcul": 14,
      "▁emek": 15,
      "▁gelecek": 16,
      "▁tepki": 17,
      "▁gelirler": 18,
      "▁general": 19,
      "▁boynuna": 20,
      "'ni": 21,
      "▁hek": 22,
      "▁tv": 23,
      "▁ocak": 24,
      "▁dekor": 25,
      "▁hafif": 26,
      "orth": 27,
      "▁vef": 28,
      "▁karargah": 29,
      "▁genc": 30,
      "▁meyhan": 31,
      "▁iki": 32,
      "▁piyasaları": 33,
      "▁sif": 34,
      "acılıgı": 35,
      "▁iklim": 36,
      "▁olduguna": 37,
      "ap": 38,
      "ane": 39,
      "▁ilk": 40,
      "▁subay": 41,
      "▁om": 42,
      "▁liraya": 43,
      "▁verin": 44,
      "s": 45,
      "▁tartıs": 46,
      "▁oluyordu": 47,
      "alardan": 48,
      "▁hesabı": 49,
      "▁dalı": 50,
      "▁oyunc": 51,
      "▁chp": 52,
      "▁on": 53,
      "▁beklen": 54,
      "▁city": 55,
      "ule": 56,
      "▁gar": 57,
      "▁dayak": 58,
      "▁ilave": 59,
      "ban": 60,
      "▁siparis": 61,
      "▁kars": 62,
      "▁atıs": 63,
      "▁tabur": 64,
      "raber": 65,
      "▁olursa": 66,
      "mel": 67,
      "ene": 68,
      "▁ha": 69,
      "umuzu": 70,
      "▁pu": 71,
      "m": 72,
      "▁hazırlık": 73,
      "▁pop": 74,
      "▁soyluyor": 75,
      "ga": 76,
      "▁car": 77,
      "▁yoksul": 78,
      "▁mekte": 79,
      "ıyorlar": 80,
      "▁birlikte": 81,
      "▁bahcı": 82,
      "▁kaynak": 83,
      "ıp": 84,
      "▁islemlerinde": 85,
      "▁gecirmek": 86,
      "▁kendine": 87,
      "▁merk": 88,
      "▁tanr": 89,
      "▁tef": 90,
      "▁kızları": 91,
      "▁cent": 92,
      "▁barda": 93,
      "isco": 94,
      "▁gorur": 95,
      "▁adım": 96,
      "ans": 97,
      "▁olabilirdi": 98,
      "uzluydu": 99,
      "▁kasır": 100,
      "▁sinem": 101,
      "ıklık": 102,
      "▁bana": 103,
      "▁gorul": 104,
      "▁mesel": 105,
      "▁sistemleri": 106,
      "▁taraftan": 107,
      "erlik": 108,
      "▁yasına": 109,
      "larının": 110,
      "▁dakika": 111,
      "▁kayıp": 112,
      "▁sogut": 113,
      "▁odeme": 114,
      "tik": 115,
      "▁-": 116,
      "▁coc": 117,
      "▁unut": 118,
      "▁muhendis": 119,
      "▁konusuyor": 120,
      "sız": 121,
      "▁sebeb": 122,
      "▁bulun": 123,
      "cut": 124,
      "▁verg": 125,
      "mekt": 126,
      "larak": 127,
      "tur": 128,
      "▁ortasına": 129,
      "▁iyi": 130,
      "▁agırlık": 131,
      "▁temet": 132,
      "▁onları": 133,
      "▁yumurta": 134,
      "uzel": 135,
      "▁sahil": 136,
      "▁hayır": 137,
      "▁guver": 138,
      "▁tac": 139,
      "ılıgında": 140,
      "▁pencere": 141,
      "isti": 142,
      "▁urun": 143,
      "▁kablo": 144,
      "▁buradan": 145,
      "▁yapmaya": 146,
      "usune": 147,
      "▁hanim": 148,
      "▁butun": 149,
      "▁kırmızı": 150,
      "uyorlar": 151,
      "andan": 152,
      "▁sorusturma": 153,
      "▁haline": 154,
      "▁koseye": 155,
      "▁vak": 156,
      "tem": 157,
      "elig": 158,
      "▁harcama": 159,
      "▁cig": 160,
      "ina": 161,
      "▁demokr": 162,
      "▁surecin": 163,
      "ay": 164,
      "▁havada": 165,
      "mu": 166,
      "▁isi": 167,
      "▁lideri": 168,
      "▁ser": 169,
      "▁rıht": 170,
      "5": 171,
      "goz": 172,
      "des": 173,
      "usunun": 174,
      "▁norma": 175,
      "▁corba": 176,
      "▁hiz": 177,
      "▁mucevher": 178,
      "rken": 179,
      "ız": 180,
      "pa": 181,
      "ese": 182,
      "▁ucunda": 183,
      "▁tırnak": 184,
      "▁cıg": 185,
      "ende": 186,
      "▁eder": 187,
      "▁heyet": 188,
      "imli": 189,
      "▁verir": 190,
      "▁tasım": 191,
      "▁hayatını": 192,
      "▁degisimi": 193,
      "▁beyin": 194,
      "▁konum": 195,
      "▁sampiyon": 196,
      "am": 197,
      "uk": 198,
      "▁koy": 199,
      "iyete": 200,
      "▁komite": 201,
      "▁bolg": 202,
      "▁miktarı": 203,
      "esik": 204,
      "▁verim": 205,
      "▁must": 206,
      "▁birik": 207,
      "▁asır": 208,
      "▁muzakere": 209,
      "▁kansas": 210,
      "▁dusunuyor": 211,
      "▁bos": 212,
      "▁edin": 213,
      "▁18": 214,
      "▁ice": 215,
      "urlu": 216,
      "▁delikanlı": 217,
      "unda": 218,
      "▁kapan": 219,
      "▁kızım": 220,
      "▁kulak": 221,
      "x": 222,
      "▁parki": 223,
      "▁suyun": 224,
      "▁anlamak": 225,
      "▁nik": 226,
      "▁mudur": 227,
      "▁500": 228,
      "▁maliyetleri": 229,
      "graf": 230,
      "▁bostan": 231,
      "▁“": 232,
      "2'ye": 233,
      "▁ceph": 234,
      "▁acisindan": 235,
      "amac": 236,
      "▁harp": 237,
      "▁ızdır": 238,
      "co": 239,
      "▁tel": 240,
      "▁,": 241,
      "▁etmekten": 242,
      "▁sure": 243,
      "▁kalmadim": 244,
      "▁indi": 245,
      "▁toren": 246,
      "▁mik": 247,
      "lamıs": 248,
      "yol": 249,
      "▁cidd": 250,
      "san": 251,
      "mıstı": 252,
      "▁men": 253,
      "▁firmaları": 254,
      "'i": 255,
      "▁giyim": 256,
      "▁cıkarma": 257,
      "luydu": 258,
      "emmel": 259,
      "▁delta": 260,
      "▁ark": 261,
      "▁4": 262,
      "▁nuf": 263,
      "▁muhaseb": 264,
      "▁iliskin": 265,
      "▁sirket": 266,
      "▁mekana": 267,
      "▁zor": 268,
      "▁bili": 269,
      "▁merak": 270,
      "▁hava": 271,
      "anma": 272,
      "▁gormez": 273,
      "▁temp": 274,
      "osunda": 275,
      "▁beyle": 276,
      "▁temmuz": 277,
      "▁ayın": 278,
      "mas": 279,
      "eden": 280,
      "isinden": 281,
      "▁stand": 282,
      "▁dair": 283,
      "▁haber": 284,
      "▁gerek": 285,
      "acıları": 286,
      "▁ornek": 287,
      "▁demek": 288,
      "▁kalmak": 289,
      "▁yurum": 290,
      "▁ni": 291,
      "▁sonuc": 292,
      "▁bankaların": 293,
      "▁oyk": 294,
      "▁bet": 295,
      "▁saniye": 296,
      "liginde": 297,
      "▁sayfa": 298,
      "▁fut": 299,
      "ımıza": 300,
      "▁dow": 301,
      "labil": 302,
      "▁gelin": 303,
      "▁sub": 304,
      "▁olu": 305,
      "▁altını": 306,
      "▁prov": 307,
      "▁gond": 308,
      "▁bisiklet": 309,
      "ruf": 310,
      "ligine": 311,
      "▁gerceklesti": 312,
      "anıs": 313,
      "▁duzen": 314,
      "ayıf": 315,
      "okol": 316,
      "▁durumda": 317,
      "▁sevg": 318,
      "▁dile": 319,
      "lamalar": 320,
      "▁odanin": 321,
      "▁haberleri": 322,
      "▁sal": 323,
      "▁alabilir": 324,
      "▁ink": 325,
      "▁hareketler": 326,
      "ukluk": 327,
      "▁listele": 328,
      "▁sohbet": 329,
      "▁oldur": 330,
      "▁gununu": 331,
      "bah": 332,
      "▁islemin": 333,
      "irmen": 334,
      "yen": 335,
      "mada": 336,
      "▁yası": 337,
      "▁personelin": 338,
      "▁ettigi": 339,
      "tla": 340,
      "dadır": 341,
      ",": 342,
      "▁tahv": 343,
      "▁his": 344,
      "▁munaseb": 345,
      "▁karmas": 346,
      "ide": 347,
      "▁kurtul": 348,
      "▁oglan": 349,
      "▁kısa": 350,
      "▁laf": 351,
      "▁komut": 352,
      "estir": 353,
      "▁metre": 354,
      "▁evinin": 355,
      "▁sterlin": 356,
      "▁is": 357,
      "▁hayatta": 358,
      "▁tanrı": 359,
      "▁yumur": 360,
      "larıyla": 361,
      "▁oyuncular": 362,
      "▁gazeteci": 363,
      "▁mater": 364,
      "▁koru": 365,
      "▁gorusmek": 366,
      "▁vucut": 367,
      "▁inc.": 368,
      "▁bakıma": 369,
      "fa": 370,
      "▁belirt": 371,
      "▁mevki": 372,
      "▁fiyati": 373,
      "▁yılının": 374,
      "▁tutul": 375,
      "▁onune": 376,
      "likte": 377,
      "edir": 378,
      "▁gosterir": 379,
      "▁zayıf": 380,
      "▁epey": 381,
      "▁zincir": 382,
      "▁okulda": 383,
      "misler": 384,
      "lılıgını": 385,
      "emde": 386,
      "▁talebi": 387,
      "▁esi": 388,
      "▁baslarına": 389,
      "onik": 390,
      "▁sayesinde": 391,
      "▁cevresinde": 392,
      "▁tazmin": 393,
      "▁dinlemek": 394,
      "ılmıs": 395,
      "▁macı": 396,
      "▁odası": 397,
      "▁saatlerini": 398,
      "▁uzmanları": 399,
      "ada": 400,
      "▁hepsini": 401,
      "gen": 402,
      "est": 403,
      "eye": 404,
      "▁bakanı": 405,
      "▁hucum": 406,
      "tir": 407,
      "siy": 408,
      "▁mah": 409,
      "▁gercegi": 410,
      "▁am": 411,
      "▁dusunceler": 412,
      "▁bogaz": 413,
      "▁muzak": 414,
      "▁imalat": 415,
      "▁alman": 416,
      "▁yuregi": 417,
      "to": 418,
      "ental": 419,
      "▁universitesi": 420,
      "▁ur": 421,
      "▁cıkmıs": 422,
      "▁parc": 423,
      "▁yeni": 424,
      "lıgına": 425,
      "▁yatırımcılar": 426,
      "▁seyin": 427,
      "endir": 428,
      "▁toparlan": 429,
      "▁koyde": 430,
      "agon": 431,
      "ru": 432,
      "▁gucunu": 433,
      "▁yıgın": 434,
      "▁mac": 435,
      "▁yeteri": 436,
      "ola": 437,
      "▁mak": 438,
      "▁nis": 439,
      "▁islet": 440,
      "▁goster": 441,
      "▁dalga": 442,
      "▁suyunu": 443,
      "▁pir": 444,
      "mayı": 445,
      "manın": 446,
      "▁kriz": 447,
      "lgelelim": 448,
      "phis": 449,
      "▁1980'": 450,
      "▁koms": 451,
      "▁istik": 452,
      "▁ma": 453,
      "digimi": 454,
      "▁fazlaydi": 455,
      "▁kentin": 456,
      "▁stud": 457,
      "▁sis": 458,
      "▁ulus": 459,
      "▁deprem": 460,
      "▁avuk": 461,
      "nem": 462,
      "▁ton": 463,
      "izma": 464,
      "anlarda": 465,
      "▁istedi": 466,
      "▁olma": 467,
      "▁kuzey": 468,
      "di": 469,
      "▁kul": 470,
      "▁fab": 471,
      "▁gunluk": 472,
      "lerini": 473,
      "▁iade": 474,
      "▁kl": 475,
      ".6": 476,
      "ugu": 477,
      "▁br": 478,
      "▁anti": 479,
      "▁telefonu": 480,
      "▁motiv": 481,
      "▁pat": 482,
      "▁ev": 483,
      "▁zamandan": 484,
      "▁cin": 485,
      "▁anah": 486,
      "lılar": 487,
      "▁baglant": 488,
      "▁dondu": 489,
      "att": 490,
      "▁`": 491,
      "▁fis": 492,
      "edikten": 493,
      "▁dusus": 494,
      "▁fot": 495,
      "▁kon": 496,
      "▁yeterli": 497,
      "teki": 498,
      "▁tarihe": 499,
      "temelen": 500,
      "▁davranıs": 501,
      "25": 502,
      "▁olmasın": 503,
      "▁toplantısında": 504,
      "▁takdir": 505,
      "▁kemik": 506,
      "▁cıl": 507,
      "cular": 508,
      "zir": 509,
      "dıgında": 510,
      "▁fren": 511,
      "▁od": 512,
      "▁piyan": 513,
      "▁savası": 514,
      "▁gaz": 515,
      "▁bolgede": 516,
      "▁binanın": 517,
      "▁philadel": 518,
      "▁akla": 519,
      "▁bakalım": 520,
      "▁tok": 521,
      "▁ap": 522,
      "▁gov": 523,
      "▁kıyas": 524,
      "lenir": 525,
      "▁ihtim": 526,
      "▁kadınların": 527,
      "▁kole": 528,
      "▁tasımacılıgı": 529,
      "▁mum": 530,
      "▁kendime": 531,
      "▁hır": 532,
      "▁ayının": 533,
      "▁sozles": 534,
      "▁kun": 535,
      "▁odaydi": 536,
      "▁kredi": 537,
      "▁akıl": 538,
      "▁meselesi": 539,
      "▁cek": 540,
      "▁soylen": 541,
      "▁ler": 542,
      "▁yuzyıl": 543,
      "ilm": 544,
      "▁tuccar": 545,
      "isindan": 546,
      "rını": 547,
      "▁gidis": 548,
      "▁nisan": 549,
      "▁zul": 550,
      "kiz": 551,
      "etsiz": 552,
      "abaz": 553,
      "▁boylece": 554,
      "▁durusma": 555,
      "▁lık": 556,
      "▁dum": 557,
      "▁hisselerini": 558,
      "▁tahmin": 559,
      "ılmaz": 560,
      "▁american": 561,
      "▁salt": 562,
      "▁kopr": 563,
      "eme": 564,
      "ızı": 565,
      "▁seref": 566,
      "▁rekor": 567,
      "▁pros": 568,
      "seniz": 569,
      "▁mallar": 570,
      "▁gorduk": 571,
      "▁altından": 572,
      "ncu": 573,
      "▁alıs": 574,
      "▁tip": 575,
      "tık": 576,
      "▁hızla": 577,
      "▁cog": 578,
      "▁yasıyor": 579,
      "kiler": 580,
      "▁zey": 581,
      "lunun": 582,
      "digini": 583,
      "▁gon": 584,
      "▁dede": 585,
      "▁sahiptir": 586,
      "f": 587,
      "▁cesitleri": 588,
      "▁erkegi": 589,
      "edik": 590,
      "▁ucuncu": 591,
      "▁onemli": 592,
      "labilir": 593,
      "▁kollarını": 594,
      "yle": 595,
      "▁kimi": 596,
      "▁ornegin": 597,
      "▁yandan": 598,
      "ıtı": 599,
      "▁dogr": 600,
      "▁daima": 601,
      "▁dieg": 602,
      "▁yarad": 603,
      "▁isim": 604,
      "▁ilgilenmedi": 605,
      "▁mi": 606,
      "▁kasab": 607,
      "▁ruh": 608,
      "edig": 609,
      "▁boyle": 610,
      "▁yakinlarima": 611,
      "▁oakland'a": 612,
      "▁ardından": 613,
      "▁dib": 614,
      "▁uz": 615,
      "▁hij": 616,
      "siniz": 617,
      "▁olmaktan": 618,
      "▁cıktı": 619,
      "▁cel": 620,
      "▁oldugun": 621,
      "ran": 622,
      "lerek": 623,
      "lendirmek": 624,
      "▁savun": 625,
      "▁hakk": 626,
      "▁balik": 627,
      "▁tarzı": 628,
      "asi": 629,
      "▁suresi": 630,
      "▁bicimde": 631,
      "irleri": 632,
      "oroz": 633,
      "▁protokol": 634,
      "gr": 635,
      "▁nerede": 636,
      "stık": 637,
      "▁muzigi": 638,
      "▁kasık": 639,
      "▁isimler": 640,
      "▁baskent": 641,
      "▁bardagı": 642,
      "▁tehdit": 643,
      "lıydı": 644,
      "▁ulkemiz": 645,
      "▁cumhuriyeti": 646,
      "▁ilgisizdi": 647,
      "▁planlarını": 648,
      "▁tanım": 649,
      "▁hızı": 650,
      "▁maas": 651,
      "dası": 652,
      "kan": 653,
      "▁ekmek": 654,
      "▁basın": 655,
      "▁gununden": 656,
      "▁surucu": 657,
      "usa": 658,
      "▁donemi": 659,
      "▁payı": 660,
      "▁oteli": 661,
      "▁persembe": 662,
      "▁kaldı": 663,
      "osuna": 664,
      "▁doktorun": 665,
      "▁sadece": 666,
      "i": 667,
      "▁satısı": 668,
      "inc": 669,
      "▁yiy": 670,
      "▁yemekleri": 671,
      "▁sırada": 672,
      "▁sahs": 673,
      "▁eline": 674,
      "▁sekreter": 675,
      "sim": 676,
      "▁piyasa": 677,
      "▁bog": 678,
      "▁kok": 679,
      "▁istan": 680,
      "▁kahv": 681,
      "▁aynı": 682,
      "oker": 683,
      "dırım": 684,
      "▁a.": 685,
      "▁odasında": 686,
      "▁avrupa": 687,
      "▁edebiyat": 688,
      "etim": 689,
      "▁basında": 690,
      "tia": 691,
      "▁hadis": 692,
      "olu": 693,
      "imen": 694,
      "▁ozellik": 695,
      "dıgına": 696,
      "▁tom": 697,
      "▁sokakta": 698,
      "▁vez": 699,
      "▁tor": 700,
      "▁ilet": 701,
      "▁hic": 702,
      "▁kisisel": 703,
      "ıgın": 704,
      "▁tık": 705,
      "▁gozlerle": 706,
      "▁fonu": 707,
      "▁alanı": 708,
      "▁kagıd": 709,
      "onel": 710,
      "▁gecer": 711,
      "▁dısında": 712,
      "▁itiraf": 713,
      "▁hip": 714,
      "deydi": 715,
      "sunuz": 716,
      "ic": 717,
      "▁yay": 718,
      "za": 719,
      "cok": 720,
      "▁ulu": 721,
      "▁dolayı": 722,
      "▁halkı": 723,
      "▁ucusun": 724,
      "▁gonder": 725,
      ";": 726,
      "▁tarihte": 727,
      "ki": 728,
      "▁temiz": 729,
      "allı": 730,
      "▁lik": 731,
      "▁gunumuzde": 732,
      "▁ipotege": 733,
      "▁icer": 734,
      "▁ile": 735,
      "▁tehlik": 736,
      "▁sekil": 737,
      "▁neh": 738,
      "▁kala": 739,
      "anet": 740,
      "cısı": 741,
      "uklu": 742,
      "ladi": 743,
      "▁ter": 744,
      "▁kategor": 745,
      "▁ph": 746,
      "▁yud": 747,
      "▁dukkanı": 748,
      "▁boyn": 749,
      "agının": 750,
      "▁sonundan": 751,
      "si": 752,
      "▁degistir": 753,
      "▁gorunce": 754,
      "▁bilet": 755,
      "▁mens": 756,
      "▁pan": 757,
      "mey": 758,
      "▁puan": 759,
      "▁ayakk": 760,
      "▁hukumeti": 761,
      "▁biles": 762,
      "▁ilim": 763,
      "▁meyv": 764,
      "asının": 765,
      "laya": 766,
      "bas": 767,
      "▁sayisi": 768,
      "▁ka": 769,
      "▁acıdan": 770,
      "▁kop": 771,
      "e": 772,
      "▁kısmı": 773,
      "▁yuzden": 774,
      "ret": 775,
      "▁gorev": 776,
      "▁amacı": 777,
      "geler": 778,
      "▁siyasi": 779,
      "▁surat": 780,
      "ose": 781,
      "▁ayakları": 782,
      "▁yap": 783,
      "▁degillerdi": 784,
      "amayacagını": 785,
      "▁topluma": 786,
      "▁cocuklu": 787,
      "▁kitap": 788,
      "▁soyler": 789,
      "▁basvuru": 790,
      "▁vek": 791,
      "▁geldim": 792,
      "▁dayanıs": 793,
      "▁tep": 794,
      "▁ince": 795,
      "imore": 796,
      "kal": 797,
      "irgin": 798,
      "an": 799,
      "▁otede": 800,
      "▁bera": 801,
      "▁bolgenin": 802,
      "▁masasında": 803,
      "▁mim": 804,
      "▁islerini": 805,
      "▁sarf": 806,
      "▁makin": 807,
      "▁ekonomisi": 808,
      "▁ucusların": 809,
      "a'da": 810,
      "▁olmuyor": 811,
      "▁inc": 812,
      "tigini": 813,
      "▁ogretmen": 814,
      "▁kardesinin": 815,
      "ıyla": 816,
      "ee": 817,
      "lamadı": 818,
      "aman": 819,
      "▁anda": 820,
      "▁kam": 821,
      "▁tek": 822,
      "▁her": 823,
      "▁hizmet": 824,
      "ilim": 825,
      "▁istegi": 826,
      "▁zemin": 827,
      "▁alım-sat": 828,
      "biy": 829,
      "▁tev": 830,
      "siyon": 831,
      "▁hatta": 832,
      "ter": 833,
      "▁sehri": 834,
      "▁siv": 835,
      "▁bagı": 836,
      "▁konusmak": 837,
      "macı": 838,
      "▁kuslar": 839,
      "▁continental": 840,
      "▁ettim": 841,
      "▁tak": 842,
      "gmen": 843,
      "▁telefonla": 844,
      "▁ber": 845,
      "ukee": 846,
      "▁agrı": 847,
      "ecek": 848,
      "▁gayret": 849,
      "gis": 850,
      "▁maden": 851,
      "▁kez": 852,
      "▁senet": 853,
      "▁yanı": 854,
      "▁vb": 855,
      "asyonu": 856,
      "▁mucadele": 857,
      "▁nar": 858,
      "▁baslangıc": 859,
      "▁okur": 860,
      "▁komun": 861,
      "ark": 862,
      "▁yardım": 863,
      "▁fed": 864,
      "▁bogazici": 865,
      "▁etmek": 866,
      "▁teseb": 867,
      "ıyoruz": 868,
      "▁bilimin": 869,
      "eveyn": 870,
      "▁hosuma": 871,
      "ich": 872,
      "▁okula": 873,
      "▁zarf": 874,
      "kin": 875,
      "▁kadın": 876,
      "mez": 877,
      "▁kemal": 878,
      "▁kuralları": 879,
      "iza": 880,
      "▁cumhurb": 881,
      "▁cad": 882,
      "sil": 883,
      "atıl": 884,
      "▁cim": 885,
      "diklerini": 886,
      "▁cizgi": 887,
      "▁yoluyla": 888,
      "▁marj": 889,
      "▁soyledik": 890,
      "▁temizdi": 891,
      "▁bankaları": 892,
      "tigi": 893,
      "▁taks": 894,
      "▁dı": 895,
      "▁dev": 896,
      "▁agac": 897,
      "▁herkese": 898,
      "'ne": 899,
      "kuz": 900,
      "▁gormek": 901,
      "▁pazar": 902,
      "▁nere": 903,
      "piyon": 904,
      "▁kavram": 905,
      "re": 906,
      "▁angel": 907,
      "▁net": 908,
      "▁cadır": 909,
      "▁gelgelelim": 910,
      "▁hicbir": 911,
      "▁al": 912,
      "ska": 913,
      "▁sız": 914,
      "▁koyun": 915,
      "▁dusmus": 916,
      "▁kons": 917,
      "▁ozellikle": 918,
      "▁istasyon": 919,
      "▁traf": 920,
      "▁mahkeme": 921,
      "▁pozisyon": 922,
      "yum": 923,
      "▁aksam": 924,
      "▁daire": 925,
      "igini": 926,
      "esinden": 927,
      "▁ise": 928,
      "▁yabanci": 929,
      "▁paranin": 930,
      "▁muhafaz": 931,
      "las": 932,
      "▁sonucu": 933,
      "▁pers": 934,
      "▁francisco'ya": 935,
      "▁bufe": 936,
      "▁cekici": 937,
      "▁cevabı": 938,
      "▁mevdu": 939,
      "▁geriye": 940,
      "ebilecegini": 941,
      "▁mesele": 942,
      "▁surec": 943,
      "ist": 944,
      "▁kuvv": 945,
      "fi": 946,
      "▁tahr": 947,
      "lıyordu": 948,
      "okr": 949,
      "▁menk": 950,
      "▁yanıt": 951,
      "minde": 952,
      "▁tahta": 953,
      "▁ruy": 954,
      "▁''": 955,
      "uydu": 956,
      "lanmadı": 957,
      "▁ucretine": 958,
      "▁efendim": 959,
      "▁uzerinden": 960,
      "▁41": 961,
      "suz": 962,
      "▁biliyorum": 963,
      "▁cizg": 964,
      "lk": 965,
      "▁birkac": 966,
      "▁tutam": 967,
      "▁bisik": 968,
      "▁verdi": 969,
      "▁olabilecegini": 970,
      "agın": 971,
      "▁gelmek": 972,
      "▁and": 973,
      "▁ek": 974,
      "ehir": 975,
      "atın": 976,
      "▁yasa": 977,
      "▁polit": 978,
      "▁gelis": 979,
      "-a": 980,
      "▁guler": 981,
      "▁yas": 982,
      "paz": 983,
      "▁1988'de": 984,
      "▁hitap": 985,
      "▁yurut": 986,
      "▁ucundan": 987,
      "▁kıyafet": 988,
      "▁yıllarında": 989,
      "▁deli": 990,
      "▁mevz": 991,
      "ab": 992,
      "▁tekrar": 993,
      "esi": 994,
      "▁moral": 995,
      "▁hemsir": 996,
      "uler": 997,
      "▁houston": 998,
      "▁keyf": 999,
      "▁ondan": 1000,
      "▁nasıl": 1001,
      "▁nikah": 1002,
      "▁eyl": 1003,
      "▁peyniri": 1004,
      "all": 1005,
      "▁panik": 1006,
      "▁tarafından": 1007,
      "▁finanse": 1008,
      "▁sogan": 1009,
      "▁ayıp": 1010,
      "▁orgu": 1011,
      "landı": 1012,
      "og": 1013,
      "▁ciftlik": 1014,
      "▁kongr": 1015,
      "▁ablam": 1016,
      "▁dusunmuyor": 1017,
      "uf": 1018,
      "alma": 1019,
      "▁ragmen": 1020,
      "▁str": 1021,
      "▁geril": 1022,
      "▁kab": 1023,
      "▁karsıl": 1024,
      "▁taslar": 1025,
      "▁yerler": 1026,
      "▁imkanlar": 1027,
      "▁sirk": 1028,
      "▁biraz": 1029,
      "▁gomleg": 1030,
      "muyor": 1031,
      "▁ilisk": 1032,
      "▁bulgur": 1033,
      "▁kıy": 1034,
      "uh": 1035,
      "gil": 1036,
      "tali": 1037,
      "▁orn": 1038,
      "▁katkıda": 1039,
      "▁rej": 1040,
      "▁suren": 1041,
      "mine": 1042,
      "▁6": 1043,
      "biye": 1044,
      "▁hucre": 1045,
      "▁kenarına": 1046,
      "▁parcası": 1047,
      "▁hes": 1048,
      "▁37": 1049,
      "lattı": 1050,
      "aydi": 1051,
      "▁kerv": 1052,
      "▁bilimi": 1053,
      "'lik": 1054,
      "▁git": 1055,
      "▁hepsinin": 1056,
      "▁dr.": 1057,
      "▁ols": 1058,
      "▁new": 1059,
      "▁borsada": 1060,
      "▁mıs": 1061,
      "mek": 1062,
      "▁bulundu": 1063,
      "▁iktis": 1064,
      "if": 1065,
      "▁evlilik": 1066,
      "▁almayı": 1067,
      "▁parca": 1068,
      "▁endustri": 1069,
      "▁inek": 1070,
      "▁model": 1071,
      "gar": 1072,
      "▁oda": 1073,
      "▁etrafında": 1074,
      "ayan": 1075,
      "▁kanıt": 1076,
      "▁san": 1077,
      "▁siyaset": 1078,
      "nin": 1079,
      "▁kesin": 1080,
      "▁yok": 1081,
      "▁laborat": 1082,
      "bak": 1083,
      "▁saatte": 1084,
      "bab": 1085,
      "▁sozlerini": 1086,
      "▁tet": 1087,
      "▁cocuga": 1088,
      "▁kahvaltisi": 1089,
      "▁toplantı": 1090,
      "▁kaya": 1091,
      "▁ediyordu": 1092,
      "▁elestiri": 1093,
      "ige": 1094,
      "▁ucaklar": 1095,
      "▁suc": 1096,
      "▁birtakım": 1097,
      "▁teskil": 1098,
      "▁sorunların": 1099,
      "▁tepeden": 1100,
      "▁yapılacak": 1101,
      "▁temer": 1102,
      "dil": 1103,
      "lıgından": 1104,
      "▁otelden": 1105,
      "acagına": 1106,
      "▁olanaklari": 1107,
      "▁bask": 1108,
      "▁hissediyor": 1109,
      "▁ahlak": 1110,
      "▁esyalar": 1111,
      "▁sikayet": 1112,
      "▁gorunuse": 1113,
      "▁beden": 1114,
      "▁lezz": 1115,
      "▁konularda": 1116,
      "▁yemis": 1117,
      "▁okumak": 1118,
      "▁tadı": 1119,
      "▁pak": 1120,
      "▁10": 1121,
      "▁banka": 1122,
      "▁ikti": 1123,
      "▁yapıt": 1124,
      "▁ai": 1125,
      "▁taraf": 1126,
      "▁direk": 1127,
      "▁yelpaz": 1128,
      "▁muc": 1129,
      "▁ipotek": 1130,
      "av": 1131,
      "▁inan": 1132,
      "▁dususle": 1133,
      "▁etek": 1134,
      "iler": 1135,
      "lama": 1136,
      "'ın": 1137,
      "▁#": 1138,
      "▁alım-satım": 1139,
      "▁anayas": 1140,
      "▁eksik": 1141,
      "▁olmay": 1142,
      "su": 1143,
      "▁ihal": 1144,
      "▁yurd": 1145,
      "▁cal": 1146,
      "rlik": 1147,
      "▁kizim": 1148,
      "mıyordu": 1149,
      "▁aln": 1150,
      "▁zinc": 1151,
      "ach": 1152,
      "▁teklifini": 1153,
      "▁duygularını": 1154,
      "ha": 1155,
      "▁sanırım": 1156,
      "▁ugr": 1157,
      "▁francisco'dan": 1158,
      "▁jur": 1159,
      "▁tuk": 1160,
      "▁pet": 1161,
      "lugunu": 1162,
      "▁yuklen": 1163,
      "▁dam": 1164,
      "esem": 1165,
      "▁sirkette": 1166,
      "yası": 1167,
      "▁ekib": 1168,
      "lugunda": 1169,
      "cag": 1170,
      "leniyor": 1171,
      "reet": 1172,
      "▁ozur": 1173,
      "▁sendika": 1174,
      "▁maliyeti": 1175,
      "/8'e": 1176,
      "▁bankanın": 1177,
      "▁adına": 1178,
      "▁ti": 1179,
      "▁memnun": 1180,
      "▁asker": 1181,
      "on": 1182,
      "▁yuks": 1183,
      "osunu": 1184,
      "isten": 1185,
      "▁varil": 1186,
      "▁hesaba": 1187,
      "lıyor": 1188,
      "maz": 1189,
      "▁$": 1190,
      "etti": 1191,
      "ıma": 1192,
      "▁yemeklerin": 1193,
      "sa": 1194,
      "▁doviz": 1195,
      "be": 1196,
      "▁otesinde": 1197,
      "abilir": 1198,
      "▁gecen": 1199,
      "areti": 1200,
      "gor": 1201,
      "elt": 1202,
      "▁dili": 1203,
      "lamam": 1204,
      "▁ıskarta": 1205,
      "▁baslarında": 1206,
      "▁karab": 1207,
      "▁benzer": 1208,
      "ıklıgı": 1209,
      "▁issizlik": 1210,
      "medim": 1211,
      "▁akrab": 1212,
      "▁artıs": 1213,
      "▁list": 1214,
      "▁za": 1215,
      "▁corb": 1216,
      "▁kucuktu": 1217,
      "▁bilgilerini": 1218,
      "se": 1219,
      "asa": 1220,
      "▁konusmayı": 1221,
      "acılık": 1222,
      "▁mil": 1223,
      "▁konferans": 1224,
      "▁kırık": 1225,
      "▁suphe": 1226,
      "▁mas": 1227,
      "ıla": 1228,
      "▁yanl": 1229,
      "▁genel": 1230,
      "▁lezzetleri": 1231,
      "dugunu": 1232,
      "amba": 1233,
      "▁plak": 1234,
      "sis": 1235,
      "▁olmakla": 1236,
      "etik": 1237,
      "▁tahvillerin": 1238,
      "▁resmi": 1239,
      "▁sevgi": 1240,
      "likler": 1241,
      "▁ogl": 1242,
      "▁ugul": 1243,
      "iyat": 1244,
      "▁actı": 1245,
      "▁tem": 1246,
      "eren": 1247,
      "▁ogretmeni": 1248,
      "▁seker": 1249,
      "sinin": 1250,
      "▁personellerden": 1251,
      "dal": 1252,
      "▁sınıfın": 1253,
      "ımızı": 1254,
      "denin": 1255,
      "▁subat": 1256,
      "▁olayda": 1257,
      "▁agzından": 1258,
      "▁ekip": 1259,
      "▁ortalam": 1260,
      "▁bildir": 1261,
      "bat": 1262,
      "▁yıllık": 1263,
      "▁etk": 1264,
      "▁oyle": 1265,
      "▁onunla": 1266,
      "memis": 1267,
      "▁yoktur": 1268,
      "▁portf": 1269,
      "▁saka": 1270,
      "▁idar": 1271,
      "wa": 1272,
      "▁izn": 1273,
      "▁th": 1274,
      "▁sipar": 1275,
      "masına": 1276,
      "▁cekilm": 1277,
      "▁muhafazakar": 1278,
      "lerinde": 1279,
      "▁kası": 1280,
      "▁mes": 1281,
      "▁serisi": 1282,
      "▁bire": 1283,
      "▁inis": 1284,
      "▁hosg": 1285,
      "▁han": 1286,
      "▁hayatın": 1287,
      "▁ayaklarının": 1288,
      "lup": 1289,
      "▁yıldızı": 1290,
      "▁edi": 1291,
      "▁verildi": 1292,
      "ılacak": 1293,
      "▁asam": 1294,
      "▁bono": 1295,
      "▁fener": 1296,
      "ant": 1297,
      "▁sorunu": 1298,
      "▁geldi": 1299,
      "▁duzenlem": 1300,
      "ligi": 1301,
      "ot": 1302,
      "agı": 1303,
      "▁kultur": 1304,
      "aduf": 1305,
      "▁gay": 1306,
      "▁ucusuna": 1307,
      "▁yapacagını": 1308,
      "g": 1309,
      "amadı": 1310,
      "▁taahh": 1311,
      "▁kendilerine": 1312,
      "\\/": 1313,
      "▁esnaf": 1314,
      "▁mevduat": 1315,
      "▁y": 1316,
      "▁dep": 1317,
      "▁adama": 1318,
      "▁s": 1319,
      "tım": 1320,
      "▁cd": 1321,
      "▁huzun": 1322,
      "▁mısır": 1323,
      "ırda": 1324,
      "▁destek": 1325,
      "▁yalı": 1326,
      "▁teor": 1327,
      "▁vaat": 1328,
      "etleri": 1329,
      "▁ayrılık": 1330,
      "▁toplantıda": 1331,
      "▁yapacak": 1332,
      "▁elestirmen": 1333,
      "▁ozgur": 1334,
      "▁tesir": 1335,
      "▁temsilcisi": 1336,
      "lerimin": 1337,
      "▁elma": 1338,
      "▁yabanc": 1339,
      "ugunda": 1340,
      "▁durumlarda": 1341,
      "▁havaalan": 1342,
      "▁malz": 1343,
      "▁acıl": 1344,
      "▁itibariyle": 1345,
      "imler": 1346,
      "▁kral": 1347,
      "▁zav": 1348,
      "▁yaptir": 1349,
      "▁tuketici": 1350,
      "▁hizmetinden": 1351,
      "▁piyasasının": 1352,
      "eceg": 1353,
      "▁par": 1354,
      "▁herhal": 1355,
      "ekk": 1356,
      "ebilir": 1357,
      "▁degisiklikler": 1358,
      "st": 1359,
      "▁yalan": 1360,
      "pe": 1361,
      "▁yur": 1362,
      "lıg": 1363,
      "▁kontrol": 1364,
      "lerimi": 1365,
      "▁idare": 1366,
      "▁sh": 1367,
      "ımı": 1368,
      "▁zorunda": 1369,
      "sek": 1370,
      "▁yasama": 1371,
      "ibi": 1372,
      "tılı": 1373,
      "▁devrim": 1374,
      "▁pittsburgh": 1375,
      "▁peyn": 1376,
      "ınızı": 1377,
      "▁baba": 1378,
      "▁kutup": 1379,
      "ork": 1380,
      "▁sıkınt": 1381,
      "adel": 1382,
      "unlu": 1383,
      "▁ata": 1384,
      "▁sarkı": 1385,
      "▁degis": 1386,
      "lıdır": 1387,
      "▁yoluna": 1388,
      "▁uzer": 1389,
      "▁golg": 1390,
      "ıcının": 1391,
      "▁aktarmasız": 1392,
      "▁olmadı": 1393,
      "ıgı": 1394,
      "memiz": 1395,
      "eyh": 1396,
      "▁amc": 1397,
      "▁kılıc": 1398,
      "/4": 1399,
      "▁g": 1400,
      "▁yukse": 1401,
      "ing": 1402,
      "▁po": 1403,
      "▁planı": 1404,
      "▁yıllarda": 1405,
      "▁avru": 1406,
      "▁tavır": 1407,
      "▁eylul": 1408,
      "▁bic": 1409,
      "▁oldular": 1410,
      "▁kuyruk": 1411,
      "▁11": 1412,
      "▁seviyesinde": 1413,
      "▁sansur": 1414,
      "▁zar": 1415,
      "emi": 1416,
      "uluyor": 1417,
      "▁hab": 1418,
      "indan": 1419,
      "▁rak": 1420,
      "▁bonolar": 1421,
      "▁fazla": 1422,
      "ligiyle": 1423,
      "esinin": 1424,
      "▁katına": 1425,
      "aat": 1426,
      "iyetle": 1427,
      "▁hizmetler": 1428,
      "▁ucusa": 1429,
      "uzluk": 1430,
      "liydi": 1431,
      "lek": 1432,
      "8'de": 1433,
      "asıyla": 1434,
      "▁korumak": 1435,
      "▁gurur": 1436,
      "maları": 1437,
      "▁turlar": 1438,
      "▁sacları": 1439,
      "▁$'dan": 1440,
      "▁cıkıs": 1441,
      "adet": 1442,
      "▁degerlendir": 1443,
      "▁artır": 1444,
      "▁sıv": 1445,
      "▁evden": 1446,
      "lac": 1447,
      "▁ucuslarını": 1448,
      "sali": 1449,
      "▁sip": 1450,
      "▁damar": 1451,
      "▁dumanı": 1452,
      "▁peki": 1453,
      "ımdan": 1454,
      "▁tabir": 1455,
      "▁bugun": 1456,
      "▁uyarı": 1457,
      "▁oran": 1458,
      "▁var": 1459,
      "▁toplum": 1460,
      "▁phoeni": 1461,
      "ikat": 1462,
      "▁bası": 1463,
      "▁charl": 1464,
      "▁av": 1465,
      "lu": 1466,
      "ınt": 1467,
      "▁nedenlerden": 1468,
      "▁teraz": 1469,
      "▁cap": 1470,
      "▁yataklar": 1471,
      "▁birey": 1472,
      "▁ailelerin": 1473,
      "▁kale": 1474,
      "▁tohum": 1475,
      "▁mendil": 1476,
      "▁tasa": 1477,
      "▁getirdi": 1478,
      "▁sid": 1479,
      "▁odasi": 1480,
      "00'": 1481,
      "egiyle": 1482,
      "▁anı": 1483,
      "▁ucusu": 1484,
      "ete": 1485,
      "mini": 1486,
      "meye": 1487,
      "▁butc": 1488,
      "▁guleryuzluydu": 1489,
      "▁sovyet": 1490,
      "▁sor": 1491,
      "sıyla": 1492,
      "▁inter": 1493,
      "fer": 1494,
      "ize": 1495,
      "▁kadınları": 1496,
      "adem": 1497,
      "▁cıkmak": 1498,
      "malar": 1499,
      "▁biz": 1500,
      "oc": 1501,
      "▁masanın": 1502,
      "▁boy": 1503,
      "▁cıkarmaya": 1504,
      "inn": 1505,
      "▁agustos": 1506,
      "aca": 1507,
      "▁birlik": 1508,
      "▁yalnızlık": 1509,
      "▁kend": 1510,
      "▁ra": 1511,
      "▁acık": 1512,
      "lisi": 1513,
      "▁avukatlar": 1514,
      "p": 1515,
      "▁senato": 1516,
      "▁ruya": 1517,
      "rlikte": 1518,
      "▁kadınlar": 1519,
      "▁kus": 1520,
      "larında": 1521,
      "▁kullanıyor": 1522,
      "sk": 1523,
      "▁emlak": 1524,
      "▁olurdu": 1525,
      "▁hakkinda": 1526,
      "▁birbirler": 1527,
      "ern": 1528,
      "▁muhend": 1529,
      "▁ucusunu": 1530,
      "▁tasavv": 1531,
      "▁koc": 1532,
      "▁lutfen": 1533,
      "▁olabilir": 1534,
      "▁suz": 1535,
      "▁musteriler": 1536,
      "▁rus": 1537,
      "▁acıklanmadı": 1538,
      "▁1.": 1539,
      "▁nus": 1540,
      "▁tasar": 1541,
      "▁benden": 1542,
      "▁risk": 1543,
      "▁musterilere": 1544,
      "orn": 1545,
      "ınca": 1546,
      "▁tesvik": 1547,
      "▁tavsiye": 1548,
      "▁sayısı": 1549,
      "▁hekim": 1550,
      "ville": 1551,
      "▁ceb": 1552,
      "'ye": 1553,
      "▁anne": 1554,
      "▁ıskar": 1555,
      "▁fuz": 1556,
      "▁parcaları": 1557,
      "emiz": 1558,
      "▁sozlerine": 1559,
      "▁phil": 1560,
      "▁cey": 1561,
      "▁zah": 1562,
      "▁oranı": 1563,
      "▁cerey": 1564,
      "▁hak": 1565,
      "▁benz": 1566,
      "▁akl": 1567,
      "▁ode": 1568,
      "'a": 1569,
      "▁aradan": 1570,
      "▁anlattı": 1571,
      "▁degildi": 1572,
      "▁evine": 1573,
      "al": 1574,
      "▁gosteri": 1575,
      "▁newark": 1576,
      "uza": 1577,
      "▁balkon": 1578,
      "kt": 1579,
      "▁orland": 1580,
      "▁yo": 1581,
      "▁ant": 1582,
      "cev": 1583,
      "▁ısıgında": 1584,
      "▁1989": 1585,
      "_": 1586,
      "mi": 1587,
      "▁ortalık": 1588,
      "▁ureticisi": 1589,
      "▁cumhurbaskanı": 1590,
      "▁oyunun": 1591,
      "▁den": 1592,
      "▁yirmi": 1593,
      "▁anlasması": 1594,
      "▁yerel": 1595,
      "▁suda": 1596,
      "▁planimiz": 1597,
      "▁kapıya": 1598,
      "▁vic": 1599,
      "ası": 1600,
      "▁deneyim": 1601,
      "▁elbise": 1602,
      "▁washington'dan": 1603,
      "▁milyondan": 1604,
      "▁duvara": 1605,
      "▁kat": 1606,
      "asır": 1607,
      "du": 1608,
      "kat": 1609,
      "▁prosedur": 1610,
      "ai": 1611,
      "▁kosul": 1612,
      "▁gitmis": 1613,
      "▁menkul": 1614,
      "▁washington": 1615,
      "▁dısarıdan": 1616,
      "▁at": 1617,
      "ilmesi": 1618,
      "▁saglık": 1619,
      "ansız": 1620,
      "▁reh": 1621,
      "gini": 1622,
      "▁pey": 1623,
      "▁zir": 1624,
      "▁ters": 1625,
      "▁sair": 1626,
      "indi": 1627,
      "▁...\"": 1628,
      "▁kuyu": 1629,
      "atlı": 1630,
      "▁bak": 1631,
      "▁oldu": 1632,
      "anları": 1633,
      "▁oyuncu": 1634,
      "ili": 1635,
      "▁yon": 1636,
      "▁din": 1637,
      "▁ihmal": 1638,
      "▁mı": 1639,
      "▁incel": 1640,
      "▁ucusta": 1641,
      "▁baslamıs": 1642,
      "▁dor": 1643,
      "▁otele": 1644,
      "ieg": 1645,
      "▁malzem": 1646,
      "▁uygundu": 1647,
      "▁cor": 1648,
      "▁pac": 1649,
      "▁plaj": 1650,
      "▁eda": 1651,
      "anan": 1652,
      "▁gunah": 1653,
      "▁istif": 1654,
      "anda": 1655,
      "▁acente": 1656,
      "▁onceki": 1657,
      "▁dagıtım": 1658,
      "ham": 1659,
      "eligi": 1660,
      "▁itibar": 1661,
      "▁irade": 1662,
      "▁limon": 1663,
      "▁ayrıntı": 1664,
      "?": 1665,
      "▁yuzyılın": 1666,
      "▁icme": 1667,
      "gu": 1668,
      "▁yukarı": 1669,
      "▁ardında": 1670,
      "▁er": 1671,
      "▁vadeli": 1672,
      "ılık": 1673,
      "gun": 1674,
      "▁almak": 1675,
      "asindan": 1676,
      "▁ayna": 1677,
      "yip": 1678,
      "▁hemen": 1679,
      "erh": 1680,
      "▁satıs": 1681,
      "▁yiyeceklerin": 1682,
      "cılıgı": 1683,
      "▁seyler": 1684,
      "▁urunler": 1685,
      "iklik": 1686,
      "$": 1687,
      "▁komitesi": 1688,
      "▁patlıcan": 1689,
      "▁ne": 1690,
      "▁ihtiyacım": 1691,
      "▁hırsız": 1692,
      "cılık": 1693,
      "ip": 1694,
      "lav": 1695,
      "▁tespit": 1696,
      "▁zem": 1697,
      "▁kod": 1698,
      "usuna": 1699,
      "▁yanına": 1700,
      "▁im": 1701,
      "▁cos": 1702,
      "▁muduru": 1703,
      "▁kullanı": 1704,
      "▁rengi": 1705,
      "▁vermedi": 1706,
      "▁otomobiller": 1707,
      "▁aras": 1708,
      "▁ucretler": 1709,
      "iv": 1710,
      "▁elinde": 1711,
      "lanmak": 1712,
      "ıldı": 1713,
      "▁kem": 1714,
      "lerine": 1715,
      "▁omz": 1716,
      "ici": 1717,
      "▁soylediler": 1718,
      "▁senaryo": 1719,
      "lerimizin": 1720,
      "▁mon": 1721,
      "▁sonlarında": 1722,
      "ey": 1723,
      "aset": 1724,
      "▁butce": 1725,
      "▁alkol": 1726,
      "▁baslamıstı": 1727,
      "▁ucusları": 1728,
      "▁196": 1729,
      "▁yazı": 1730,
      "▁vermis": 1731,
      "▁cid": 1732,
      "▁oglu": 1733,
      "▁adeta": 1734,
      "uktu": 1735,
      "▁sokaga": 1736,
      "▁resep": 1737,
      "▁baskanlık": 1738,
      "▁bis": 1739,
      "▁odamdan": 1740,
      "▁endustrisi": 1741,
      "yo": 1742,
      "ince": 1743,
      "▁kokusu": 1744,
      "lendirdi": 1745,
      "▁hoca": 1746,
      "▁zamana": 1747,
      "▁merkezine": 1748,
      "▁ordu": 1749,
      "▁gir": 1750,
      "masından": 1751,
      "▁temsilcileri": 1752,
      "uc": 1753,
      "▁mukemmeldi": 1754,
      "mıs": 1755,
      "▁tesisten": 1756,
      "ilmesine": 1757,
      "'ndan": 1758,
      "▁unu": 1759,
      "▁konumunu": 1760,
      "▁ce": 1761,
      "▁ait": 1762,
      "▁anim": 1763,
      "▁dunyaya": 1764,
      "▁ayrım": 1765,
      "▁kahvalti": 1766,
      "▁kapsam": 1767,
      "▁ucus": 1768,
      "urg": 1769,
      "umlu": 1770,
      "▁bura": 1771,
      "cıya": 1772,
      "▁yeri": 1773,
      "▁odadan": 1774,
      "▁sekl": 1775,
      "▁olayın": 1776,
      "▁leblebi": 1777,
      "form": 1778,
      "▁sebze": 1779,
      "▁icten": 1780,
      "dugum": 1781,
      "yerek": 1782,
      "▁sorunlar": 1783,
      "erindeki": 1784,
      "▁cob": 1785,
      "▁herhangi": 1786,
      "▁kafa": 1787,
      "▁etti": 1788,
      "▁vali": 1789,
      "▁imk": 1790,
      "▁alın": 1791,
      "eger": 1792,
      "▁garsonlar": 1793,
      "▁arabaya": 1794,
      "▁havlu": 1795,
      "▁gol": 1796,
      "▁degerlendirmeye": 1797,
      "▁hafız": 1798,
      "ısında": 1799,
      "▁soruları": 1800,
      "in": 1801,
      "▁philadelphia": 1802,
      "afet": 1803,
      "maktadır": 1804,
      "▁vergisi": 1805,
      "▁muht": 1806,
      "▁gozlerini": 1807,
      "▁fr": 1808,
      "=": 1809,
      "okul": 1810,
      "▁demokratlar": 1811,
      "▁cins": 1812,
      "▁birligi": 1813,
      "▁fil": 1814,
      "▁cak": 1815,
      "▁burokrat": 1816,
      "▁gorevi": 1817,
      "▁hasıl": 1818,
      "▁muhal": 1819,
      "▁sabaha": 1820,
      "evizyon": 1821,
      "▁mad": 1822,
      "▁dayan": 1823,
      "70'": 1824,
      "elerden": 1825,
      "▁yuzunun": 1826,
      "▁kalmaya": 1827,
      "▁ıs": 1828,
      "1'e": 1829,
      "▁zam": 1830,
      "▁kira": 1831,
      "▁yasındaki": 1832,
      "▁falan": 1833,
      "er": 1834,
      "geleri": 1835,
      "▁manzar": 1836,
      "▁tasv": 1837,
      ".ceyrek": 1838,
      "▁mutla": 1839,
      "lıgının": 1840,
      "▁yollarda": 1841,
      "▁gunlerde": 1842,
      "▁sonbah": 1843,
      "oksa": 1844,
      "▁kapısını": 1845,
      "▁yolda": 1846,
      "▁haziran": 1847,
      "▁gunleri": 1848,
      "▁cum": 1849,
      "▁olanlar": 1850,
      "▁kulub": 1851,
      "▁degildir": 1852,
      "▁miktar": 1853,
      "▁elde": 1854,
      "▁atıl": 1855,
      "▁ogrenmek": 1856,
      "▁iyilik": 1857,
      "▁fery": 1858,
      "▁mek": 1859,
      "memek": 1860,
      "lerimize": 1861,
      "▁tuh": 1862,
      "irk": 1863,
      "ladıgı": 1864,
      "▁yatırımcıları": 1865,
      "▁memnuniyeti": 1866,
      "▁satıcı": 1867,
      "▁bede": 1868,
      "mma": 1869,
      "▁masal": 1870,
      "eksiyon": 1871,
      "▁kurtar": 1872,
      "ulmus": 1873,
      "▁kadar": 1874,
      "rar": 1875,
      "▁cen": 1876,
      "▁bakar": 1877,
      "▁mufet": 1878,
      "▁ressam": 1879,
      "▁etkin": 1880,
      "tti": 1881,
      "▁merh": 1882,
      "ıyor": 1883,
      "▁mikr": 1884,
      "▁halk": 1885,
      "▁kalemi": 1886,
      "▁ucretlerini": 1887,
      "▁oneri": 1888,
      "▁insanlardan": 1889,
      "▁ucuslar": 1890,
      "▁amacıyla": 1891,
      "▁uzeri": 1892,
      "▁sektorunde": 1893,
      "▁hel": 1894,
      "ustan": 1895,
      "▁kilit": 1896,
      "▁kazanmak": 1897,
      "▁kızın": 1898,
      "▁gecmis": 1899,
      "▁kut": 1900,
      "▁izin": 1901,
      "ez": 1902,
      "▁aqu": 1903,
      "▁adr": 1904,
      "▁oak": 1905,
      "▁vad": 1906,
      "leriniz": 1907,
      "▁sozcuk": 1908,
      "▁ihtimal": 1909,
      "▁fas": 1910,
      "▁hepimiz": 1911,
      "▁yasamın": 1912,
      "▁um": 1913,
      "▁hisseleri": 1914,
      "▁duygu": 1915,
      "▁he": 1916,
      "eland": 1917,
      "▁beklenti": 1918,
      "▁parti": 1919,
      "lıkları": 1920,
      "▁dalg": 1921,
      "▁bug": 1922,
      "▁bilgisay": 1923,
      "▁yasan": 1924,
      "▁radyo": 1925,
      "▁arasında": 1926,
      "lın": 1927,
      "▁yav": 1928,
      "▁sehre": 1929,
      "▁babası": 1930,
      "▁ster": 1931,
      "▁kurk": 1932,
      "▁gerekti": 1933,
      "▁0.": 1934,
      "▁muhalif": 1935,
      "▁donusu": 1936,
      "▁kaymak": 1937,
      "▁ihracat": 1938,
      "ecegine": 1939,
      "▁eliyle": 1940,
      "▁mesaj": 1941,
      "ume": 1942,
      "▁mus": 1943,
      "▁derg": 1944,
      "atla": 1945,
      "ılma": 1946,
      "▁kazancı": 1947,
      "▁meger": 1948,
      "▁ic": 1949,
      "▁kabul": 1950,
      "▁anlay": 1951,
      "▁sular": 1952,
      "▁yonunde": 1953,
      "▁olmustu": 1954,
      "▁donuyor": 1955,
      "▁gotur": 1956,
      "▁hasta": 1957,
      "▁artısı": 1958,
      "▁rast": 1959,
      "▁grev": 1960,
      "▁askerler": 1961,
      "▁katilmak": 1962,
      "▁kel": 1963,
      "▁beraber": 1964,
      "▁annesinin": 1965,
      "▁dısarıya": 1966,
      "▁acmak": 1967,
      "▁tay": 1968,
      "ıslar": 1969,
      "▁ko": 1970,
      "▁kurumsal": 1971,
      "ibaren": 1972,
      "▁dergi": 1973,
      "anın": 1974,
      "▁misin": 1975,
      "▁yiyecekler": 1976,
      "▁=": 1977,
      "▁vermek": 1978,
      "▁gosterin": 1979,
      "▁egzersiz": 1980,
      "▁menfaat": 1981,
      "▁vol": 1982,
      "▁en": 1983,
      "▁vadesi": 1984,
      "▁zay": 1985,
      "▁kan": 1986,
      "▁tiyatr": 1987,
      "sun": 1988,
      "▁konuları": 1989,
      "▁duvarlar": 1990,
      "▁garson": 1991,
      "▁rakamlar": 1992,
      "▁son": 1993,
      "▁vah": 1994,
      "acıların": 1995,
      "▁bilgi": 1996,
      "▁kırıklıgı": 1997,
      "▁cocuk": 1998,
      "▁vardır": 1999,
      "▁atlan": 2000,
      "mesinin": 2001,
      "ugum": 2002,
      "▁donan": 2003,
      "sekiz": 2004,
      "▁karanlık": 2005,
      "▁dusundu": 2006,
      "▁iste": 2007,
      "otu": 2008,
      "liginden": 2009,
      "▁ilkbah": 2010,
      "ege": 2011,
      "▁for": 2012,
      "▁edilm": 2013,
      "▁aks": 2014,
      "ash": 2015,
      "duk": 2016,
      "▁bırakmak": 2017,
      "▁acaba": 2018,
      "▁bolun": 2019,
      "▁yararlan": 2020,
      "ell": 2021,
      "▁ves": 2022,
      "ucuk": 2023,
      "▁sut": 2024,
      "▁dairesi": 2025,
      "anlara": 2026,
      "alif": 2027,
      "▁caz": 2028,
      "▁fa": 2029,
      "▁kural": 2030,
      "▁beg": 2031,
      "▁pit": 2032,
      "meyen": 2033,
      "▁isbir": 2034,
      "▁gerekcesiyle": 2035,
      "▁isini": 2036,
      "▁may": 2037,
      "▁pant": 2038,
      "enli": 2039,
      "▁ihtiyacı": 2040,
      "ustur": 2041,
      "▁buldu": 2042,
      "▁veren": 2043,
      "arak": 2044,
      "▁gorusme": 2045,
      "▁bul": 2046,
      "▁yetkilisi": 2047,
      "▁temettu": 2048,
      "▁yuzuk": 2049,
      "▁cesidi": 2050,
      "▁umur": 2051,
      "▁dalgalan": 2052,
      "iz": 2053,
      "▁sorustur": 2054,
      "▁cikista": 2055,
      "▁puanlama": 2056,
      "▁cesitliligi": 2057,
      "stı": 2058,
      "▁gozuyle": 2059,
      "▁icin": 2060,
      "▁et": 2061,
      "ormal": 2062,
      "▁mode": 2063,
      "ilir": 2064,
      "▁yarı": 2065,
      "onelik": 2066,
      "▁islere": 2067,
      "▁taklit": 2068,
      "▁elimden": 2069,
      "▁'": 2070,
      "▁espr": 2071,
      "▁vurdu": 2072,
      "▁sigortası": 2073,
      "▁hizmette": 2074,
      "indeki": 2075,
      "▁sahn": 2076,
      "▁yoneticiler": 2077,
      "▁oturdu": 2078,
      "▁ır": 2079,
      "▁saadet": 2080,
      "▁birer": 2081,
      "▁kalab": 2082,
      "▁tehlike": 2083,
      "▁hazin": 2084,
      "▁animasyon": 2085,
      "▁bolge": 2086,
      "▁gittik": 2087,
      "▁ankete": 2088,
      "ord": 2089,
      "▁tatile": 2090,
      "▁sevinc": 2091,
      "▁berab": 2092,
      "▁arasına": 2093,
      "▁ticaretinde": 2094,
      "▁kendini": 2095,
      "▁laz": 2096,
      "eket": 2097,
      "cık": 2098,
      "▁sıf": 2099,
      "▁ceyrekte": 2100,
      "▁grup": 2101,
      "▁kork": 2102,
      "usu": 2103,
      "▁boston'a": 2104,
      "ıc": 2105,
      "▁americ": 2106,
      "gının": 2107,
      "▁kov": 2108,
      "▁fakult": 2109,
      "▁mal": 2110,
      "▁tahminlerinin": 2111,
      "▁indianapolis": 2112,
      "▁tayin": 2113,
      "▁ortak": 2114,
      "▁olduk": 2115,
      "▁secen": 2116,
      "‘": 2117,
      "altı": 2118,
      "▁haft": 2119,
      "sini": 2120,
      "▁suya": 2121,
      "▁kada": 2122,
      "▁avantaj": 2123,
      "▁karsiladi": 2124,
      "osyon": 2125,
      "▁agr": 2126,
      "ginde": 2127,
      "▁arkad": 2128,
      "▁kucuk": 2129,
      "▁fiyatlandır": 2130,
      "▁proje": 2131,
      "▁diye": 2132,
      "▁olsun": 2133,
      ".2": 2134,
      "▁mud": 2135,
      "emedim": 2136,
      "ıyorum": 2137,
      "▁elestir": 2138,
      "raf": 2139,
      "▁guzeldi": 2140,
      "▁ort": 2141,
      "igine": 2142,
      "▁nesil": 2143,
      "▁gitmeyi": 2144,
      "▁yabancı": 2145,
      "▁sesle": 2146,
      "▁koyu": 2147,
      "▁soylemek": 2148,
      "▁ankar": 2149,
      "▁kred": 2150,
      "▁edilir": 2151,
      "▁karakter": 2152,
      "▁kahkaha": 2153,
      "alari": 2154,
      "▁yargıc": 2155,
      "ıs": 2156,
      "hiss": 2157,
      "ort": 2158,
      "▁yaz": 2159,
      "▁halini": 2160,
      "▁yolculuk": 2161,
      "isinda": 2162,
      "▁usak": 2163,
      "▁babamın": 2164,
      "▁pamuk": 2165,
      "tigim": 2166,
      "melidir": 2167,
      "▁oturu": 2168,
      "▁yes": 2169,
      "▁kendisi": 2170,
      "ısma": 2171,
      "gi": 2172,
      "▁cenaz": 2173,
      "▁ing": 2174,
      "▁rut": 2175,
      "▁hırs": 2176,
      "▁oncesi": 2177,
      "▁iht": 2178,
      "▁dolay": 2179,
      "▁sıg": 2180,
      "▁donemin": 2181,
      "▁icine": 2182,
      "alara": 2183,
      "▁konuyu": 2184,
      "▁kirpik": 2185,
      "▁skan": 2186,
      "▁ileri": 2187,
      "▁sayı": 2188,
      "▁nihayet": 2189,
      "▁gun": 2190,
      "▁tarafı": 2191,
      "▁ilgililerdi": 2192,
      "▁tarafa": 2193,
      "▁duzine": 2194,
      "asında": 2195,
      "▁jap": 2196,
      "▁evde": 2197,
      "▁kelime": 2198,
      "ational": 2199,
      "esiyle": 2200,
      "▁iddia": 2201,
      "▁ucak": 2202,
      "▁gez": 2203,
      "▁memnunum": 2204,
      "dol": 2205,
      "▁merkeze": 2206,
      "▁pos": 2207,
      "▁sop": 2208,
      "▁cıglık": 2209,
      "▁islemi": 2210,
      "▁gece": 2211,
      "lul": 2212,
      "mafi": 2213,
      "▁dagın": 2214,
      "▁3'ten": 2215,
      "▁denize": 2216,
      "▁magaz": 2217,
      "▁sm": 2218,
      "ınır": 2219,
      "▁haberler": 2220,
      "leleri": 2221,
      "anların": 2222,
      "▁kapının": 2223,
      "▁cami": 2224,
      "▁cub": 2225,
      "▁sıkıntısı": 2226,
      "▁yerde": 2227,
      "▁ih": 2228,
      "▁alıyor": 2229,
      "ldi": 2230,
      "▁sonraki": 2231,
      "▁isaret": 2232,
      "ahh": 2233,
      "▁patlıc": 2234,
      "▁baskanlıgı": 2235,
      "cisi": 2236,
      "▁mekan": 2237,
      "▁dilek": 2238,
      "▁tuccarlar": 2239,
      "▁alan": 2240,
      "▁hazine": 2241,
      "ırmak": 2242,
      "▁kagıt": 2243,
      "▁listeleyin": 2244,
      "unuz": 2245,
      "▁pis": 2246,
      "▁st.": 2247,
      "▁degerlendiririm": 2248,
      "▁sas": 2249,
      "▁bilgisayar": 2250,
      "▁olanakları": 2251,
      "▁bulunuyor": 2252,
      "▁edebil": 2253,
      "▁ucuslarla": 2254,
      "▁d": 2255,
      "▁a": 2256,
      "▁soluk": 2257,
      "▁elimi": 2258,
      "liginin": 2259,
      "▁millet": 2260,
      "▁kardesim": 2261,
      "oglu": 2262,
      "iyorum": 2263,
      "▁isyan": 2264,
      "▁capında": 2265,
      "▁derece": 2266,
      "▁.\"": 2267,
      "▁kullanmadim": 2268,
      "▁ekmegi": 2269,
      "▁ro": 2270,
      "▁ciro": 2271,
      "▁vur": 2272,
      "▁elden": 2273,
      "anının": 2274,
      "atur": 2275,
      "▁parlam": 2276,
      "▁kimseye": 2277,
      "▁yarıs": 2278,
      "▁azdi": 2279,
      "de": 2280,
      "▁duydu": 2281,
      "▁hakikat": 2282,
      "mayacak": 2283,
      "▁sona": 2284,
      "▁piyasada": 2285,
      "▁yahut": 2286,
      "ması": 2287,
      "▁beyn": 2288,
      "▁degisim": 2289,
      "dugunde": 2290,
      "▁sık": 2291,
      "▁bilg": 2292,
      "▁kapısına": 2293,
      "▁teknoloj": 2294,
      "▁yıldan": 2295,
      "▁felsef": 2296,
      "▁can": 2297,
      "▁anneme": 2298,
      "▁ısık": 2299,
      "▁kongre": 2300,
      "▁cocuklar": 2301,
      "inceye": 2302,
      "▁ozgurluk": 2303,
      "▁kayd": 2304,
      "dikler": 2305,
      "▁gerceklestir": 2306,
      "▁;": 2307,
      "▁soguktu": 2308,
      "▁dog": 2309,
      "▁universit": 2310,
      "meyecegini": 2311,
      "iligini": 2312,
      "▁ortadan": 2313,
      "▁bahs": 2314,
      "▁olsa": 2315,
      "▁klim": 2316,
      "▁aksama": 2317,
      "ılıg": 2318,
      "▁meydana": 2319,
      "▁camasır": 2320,
      "▁kontr": 2321,
      "▁buk": 2322,
      "keti": 2323,
      "▁bayan": 2324,
      "▁da": 2325,
      "▁maliyet": 2326,
      "anından": 2327,
      "▁operasyon": 2328,
      "▁darbuk": 2329,
      "▁depr": 2330,
      "elli": 2331,
      "irip": 2332,
      "▁hot": 2333,
      "▁/": 2334,
      "▁terbiy": 2335,
      "z": 2336,
      "▁hedefi": 2337,
      "▁memphis": 2338,
      "▁zirv": 2339,
      "▁buyume": 2340,
      "▁aklına": 2341,
      "▁kaydetti": 2342,
      "malı": 2343,
      "▁agzı": 2344,
      "▁muddet": 2345,
      "ımızdan": 2346,
      "▁yıllardır": 2347,
      "▁kak": 2348,
      "▁ora": 2349,
      "▁dusman": 2350,
      "/8": 2351,
      "eci": 2352,
      "uz": 2353,
      "▁renkli": 2354,
      "me": 2355,
      "▁kurumu": 2356,
      "dıgımı": 2357,
      "▁suyu": 2358,
      "▁yaka": 2359,
      "▁konular": 2360,
      "▁cık": 2361,
      "ladık": 2362,
      "▁stan": 2363,
      "umde": 2364,
      "▁gazetenin": 2365,
      "▁soguk": 2366,
      "▁kontrolu": 2367,
      "▁get": 2368,
      "▁birbirine": 2369,
      "alama": 2370,
      "▁kısmını": 2371,
      "▁toz": 2372,
      "▁fen": 2373,
      "▁aleyh": 2374,
      "▁gecmiste": 2375,
      "estirdi": 2376,
      "▁tarihin": 2377,
      "madik": 2378,
      "▁saat": 2379,
      "▁kısıt": 2380,
      "▁bar": 2381,
      "▁kendileri": 2382,
      "▁nes": 2383,
      "▁konustu": 2384,
      "cagım": 2385,
      "ılıs": 2386,
      "▁orman": 2387,
      "▁konusu": 2388,
      "▁de": 2389,
      "▁hast": 2390,
      "▁25": 2391,
      "▁tar": 2392,
      "▁data": 2393,
      "▁sp": 2394,
      "▁kil": 2395,
      "▁benim": 2396,
      "eleriyle": 2397,
      "▁kelep": 2398,
      "▁egitimi": 2399,
      "▁yanlıs": 2400,
      "ısır": 2401,
      "meger": 2402,
      "dıgımız": 2403,
      "▁altern": 2404,
      "▁dır": 2405,
      "▁cer": 2406,
      "▁gozler": 2407,
      "▁buyum": 2408,
      "▁vade": 2409,
      "▁guzellik": 2410,
      "▁kahve": 2411,
      "'nı": 2412,
      "kı": 2413,
      "hur": 2414,
      "larımıza": 2415,
      "▁isimiz": 2416,
      "▁semt": 2417,
      "▁tekn": 2418,
      "▁bankalar": 2419,
      "▁etkinlik": 2420,
      "▁arama": 2421,
      "anlar": 2422,
      "▁edildi": 2423,
      "▁salı": 2424,
      "▁alaka": 2425,
      "▁aleyhine": 2426,
      "▁yerleri": 2427,
      "▁gelir": 2428,
      "▁esnada": 2429,
      "▁agabey": 2430,
      "lulugunu": 2431,
      "▁konak": 2432,
      "▁york": 2433,
      "ota": 2434,
      "▁konuyla": 2435,
      "eo": 2436,
      "▁noktada": 2437,
      "▁alanlar": 2438,
      "▁sektor": 2439,
      "ask": 2440,
      "ırak": 2441,
      "▁fit": 2442,
      "▁kanser": 2443,
      "▁deg": 2444,
      "[SEP]": 2445,
      "▁fay": 2446,
      "iki": 2447,
      "▁eseri": 2448,
      "mayan": 2449,
      "▁ister": 2450,
      "▁ustun": 2451,
      "▁!..": 2452,
      "▁sar": 2453,
      "a'ya": 2454,
      "ogram": 2455,
      "▁halbuki": 2456,
      "▁ner": 2457,
      "ebilmek": 2458,
      "▁baskalarının": 2459,
      "▁tur": 2460,
      "▁sır": 2461,
      "ama": 2462,
      "gı": 2463,
      "'d": 2464,
      "▁babasının": 2465,
      "▁olacagını": 2466,
      "▁bazıları": 2467,
      "▁rady": 2468,
      "▁si": 2469,
      "▁cuma": 2470,
      "▁performans": 2471,
      "masın": 2472,
      "daki": 2473,
      "▁tenc": 2474,
      "lıp": 2475,
      "amay": 2476,
      "▁perakende": 2477,
      "▁boyu": 2478,
      "iyorlardı": 2479,
      "▁tul": 2480,
      "arl": 2481,
      "int": 2482,
      "landır": 2483,
      "▁sark": 2484,
      "erli": 2485,
      "▁dakikada": 2486,
      "▁istiyor": 2487,
      ".3": 2488,
      "▁tamir": 2489,
      "▁az": 2490,
      "▁kısı": 2491,
      "▁komutan": 2492,
      "▁kendimiz": 2493,
      "▁milletvek": 2494,
      "▁cocukların": 2495,
      "▁surdu": 2496,
      "▁durdu": 2497,
      "▁il": 2498,
      "'e": 2499,
      "▁oranda": 2500,
      "▁tı": 2501,
      "▁mustaf": 2502,
      "▁ayakta": 2503,
      "▁las": 2504,
      "▁siir": 2505,
      "▁sok": 2506,
      "mekle": 2507,
      "▁calısmaya": 2508,
      "▁yerinde": 2509,
      "mur": 2510,
      "▁koku": 2511,
      "▁ortasında": 2512,
      "akları": 2513,
      "▁insanı": 2514,
      "▁vatan": 2515,
      "▁anım": 2516,
      "ti": 2517,
      "▁yemekler": 2518,
      "▁tehd": 2519,
      "▁or": 2520,
      "▁yag": 2521,
      "esini": 2522,
      "▁makinesi": 2523,
      "▁mut": 2524,
      "▁end": 2525,
      "▁digeri": 2526,
      "▁yudum": 2527,
      "—": 2528,
      "lbu": 2529,
      "▁alana": 2530,
      "▁hepsi": 2531,
      "▁yapmayı": 2532,
      "▁karsiligini": 2533,
      "▁sandal": 2534,
      "▁ticarette": 2535,
      "▁yıl": 2536,
      "▁icecekler": 2537,
      "▁civarında": 2538,
      "mis": 2539,
      "▁mart": 2540,
      "dut": 2541,
      "▁calisanlardan": 2542,
      "▁almıs": 2543,
      "▁dususu": 2544,
      "▁serin": 2545,
      "▁uzun": 2546,
      "▁ver": 2547,
      "▁sorun": 2548,
      "▁diyet": 2549,
      "▁yerden": 2550,
      "▁niyet": 2551,
      "▁uyeleri": 2552,
      "▁bulgu": 2553,
      "et": 2554,
      "ton": 2555,
      "▁ulusal": 2556,
      "▁ceviri": 2557,
      "75": 2558,
      "ısına": 2559,
      "▁ucu": 2560,
      "eyle": 2561,
      "▁sah": 2562,
      "▁lez": 2563,
      "▁zamanla": 2564,
      "▁erkek": 2565,
      "▁kapısında": 2566,
      "lev": 2567,
      "▁ulkenin": 2568,
      "▁havayı": 2569,
      "▁arap": 2570,
      "▁kadını": 2571,
      "▁yerine": 2572,
      "▁elbis": 2573,
      "elerin": 2574,
      "▁yaptıgını": 2575,
      "▁kayı": 2576,
      "▁se": 2577,
      "ur": 2578,
      "▁nakliye": 2579,
      "▁bile": 2580,
      "▁dilim": 2581,
      "▁chic": 2582,
      "end": 2583,
      "▁calı": 2584,
      "▁sert": 2585,
      "emm": 2586,
      "▁lı": 2587,
      "▁planın": 2588,
      "▁gittim": 2589,
      "▁tuf": 2590,
      "▁hanım": 2591,
      "▁vardı": 2592,
      "▁mor": 2593,
      "ilik": 2594,
      "eh": 2595,
      "▁ses": 2596,
      "▁cemiyet": 2597,
      "▁amac": 2598,
      "▁koca": 2599,
      "lit": 2600,
      "angi": 2601,
      "▁tabak": 2602,
      "lin": 2603,
      "lanır": 2604,
      "mamız": 2605,
      "▁telaf": 2606,
      "▁yetersiz": 2607,
      "▁kalitesi": 2608,
      "▁viski": 2609,
      "▁pay": 2610,
      "▁aktiv": 2611,
      "▁onay": 2612,
      "▁olanak": 2613,
      "gim": 2614,
      "▁corp.": 2615,
      "agına": 2616,
      "▁ama": 2617,
      "▁getirmek": 2618,
      "'nin": 2619,
      "▁yasam": 2620,
      "▁mada": 2621,
      "▁20": 2622,
      "▁listesini": 2623,
      "8'den": 2624,
      "▁payını": 2625,
      "▁yurek": 2626,
      "▁yılına": 2627,
      "▁sart": 2628,
      "▁ar": 2629,
      "▁bat": 2630,
      "▁ydi": 2631,
      "▁degisiklikleri": 2632,
      "▁hep": 2633,
      "alamak": 2634,
      "▁keyif": 2635,
      "▁yedi": 2636,
      "▁spekul": 2637,
      "▁ailelere": 2638,
      "▁eh": 2639,
      "▁sanat": 2640,
      "▁sukur": 2641,
      "▁yapmak": 2642,
      "ake": 2643,
      "▁ola": 2644,
      "▁ikide": 2645,
      "▁turku": 2646,
      "layacagını": 2647,
      "▁iscileri": 2648,
      "▁bakmak": 2649,
      "layarak": 2650,
      "▁sifir": 2651,
      "maya": 2652,
      "▁hangileri": 2653,
      "▁fırın": 2654,
      "▁rolu": 2655,
      "▁kapısı": 2656,
      "▁baskan": 2657,
      "▁baslangıcı": 2658,
      "lanmasını": 2659,
      "▁gelistir": 2660,
      "▁federal": 2661,
      "▁imkan": 2662,
      "imle": 2663,
      "▁farkında": 2664,
      "▁kuy": 2665,
      "▁artısla": 2666,
      "▁saldır": 2667,
      "ult": 2668,
      "▁seh": 2669,
      "▁hız": 2670,
      "-sat": 2671,
      "▁rom": 2672,
      "▁uretim": 2673,
      "▁borc": 2674,
      "sizlik": 2675,
      "tikten": 2676,
      "eyr": 2677,
      "▁nobet": 2678,
      "cum": 2679,
      "gin": 2680,
      "ve": 2681,
      "abilecegini": 2682,
      "▁yonet": 2683,
      "▁karsısına": 2684,
      "▁gosterdi": 2685,
      "▁mutluluk": 2686,
      "▁lezzet": 2687,
      "▁eroin": 2688,
      "▁odamiz": 2689,
      "▁199": 2690,
      "▁kahval": 2691,
      "▁tamamı": 2692,
      "▁gayrimenkul": 2693,
      "uye": 2694,
      "mesin": 2695,
      "▁beye": 2696,
      "medik": 2697,
      "dak": 2698,
      "▁sel": 2699,
      "▁norm": 2700,
      "▁tuy": 2701,
      "▁bilim": 2702,
      "▁yasası": 2703,
      "digim": 2704,
      "▁yiyecek": 2705,
      "▁12": 2706,
      "▁katk": 2707,
      "▁baltimore'ye": 2708,
      "imizin": 2709,
      "▁faturami": 2710,
      "▁alacak": 2711,
      "eb": 2712,
      "dugu": 2713,
      "▁planlıyor": 2714,
      "▁hul": 2715,
      "▁yeryuz": 2716,
      "anc": 2717,
      "▁ustelik": 2718,
      "▁ulkede": 2719,
      "eceksin": 2720,
      "'te": 2721,
      "ılması": 2722,
      "▁vegas": 2723,
      "▁mustes": 2724,
      "▁ucuyor": 2725,
      "▁anket": 2726,
      "▁istem": 2727,
      "ika": 2728,
      "▁ta": 2729,
      "sir": 2730,
      "▁ogrenciler": 2731,
      "ugunu": 2732,
      "▁yukseldi": 2733,
      "▁spor": 2734,
      "▁duvarda": 2735,
      "▁kud": 2736,
      "nız": 2737,
      "▁duzenleme": 2738,
      "ce": 2739,
      "imci": 2740,
      "▁yıldız": 2741,
      "▁duzel": 2742,
      "▁tum": 2743,
      "▁avukat": 2744,
      "▁masraf": 2745,
      "▁adlı": 2746,
      "▁labor": 2747,
      "▁.'": 2748,
      "▁gor": 2749,
      "▁arkadaslar": 2750,
      "▁yans": 2751,
      "▁duruma": 2752,
      "▁mev": 2753,
      "▁andan": 2754,
      "▁7": 2755,
      "dıgından": 2756,
      "▁konut": 2757,
      "▁aklı": 2758,
      "▁satısa": 2759,
      "▁tatli": 2760,
      "▁gelisme": 2761,
      "▁sizi": 2762,
      "▁civ": 2763,
      "▁toplamda": 2764,
      "▁medeniyet": 2765,
      "▁oturum": 2766,
      "▁oteden": 2767,
      "▁allah": 2768,
      "▁calisanlarin": 2769,
      "oy": 2770,
      "▁aracı": 2771,
      "1": 2772,
      "▁bilgilendirilmek": 2773,
      "ultu": 2774,
      "▁insaat": 2775,
      "cih": 2776,
      "oru": 2777,
      "▁varmak": 2778,
      "▁alev": 2779,
      "▁kuzu": 2780,
      "▁kariyer": 2781,
      "▁sozler": 2782,
      "▁gaf": 2783,
      "▁mont": 2784,
      "▁?..": 2785,
      "▁orne": 2786,
      "burg": 2787,
      "ela": 2788,
      "mistir": 2789,
      "▁hik": 2790,
      "▁ardı": 2791,
      "▁icecek": 2792,
      "▁hus": 2793,
      "▁dil": 2794,
      "▁buzdol": 2795,
      "emden": 2796,
      "▁durum": 2797,
      "▁danıs": 2798,
      "▁dun": 2799,
      "▁yemeklerini": 2800,
      "▁lir": 2801,
      "▁davet": 2802,
      "o'dan": 2803,
      "▁ingil": 2804,
      "▁ala": 2805,
      "let": 2806,
      "uguna": 2807,
      "▁muhab": 2808,
      "▁aktor": 2809,
      "ice": 2810,
      "▁alet": 2811,
      "uzlu": 2812,
      "▁spons": 2813,
      "▁adam": 2814,
      "der": 2815,
      "amam": 2816,
      "▁kaybet": 2817,
      "0-": 2818,
      "▁disiplin": 2819,
      "ucusu": 2820,
      "▁tane": 2821,
      "▁asıl": 2822,
      "ıgını": 2823,
      "▁yaptır": 2824,
      "▁boston'dan": 2825,
      "diye": 2826,
      "yalizm": 2827,
      "▁tahmini": 2828,
      "▁zamanı": 2829,
      "▁konfor": 2830,
      "▁isgal": 2831,
      "lıklı": 2832,
      "▁zaman": 2833,
      "▁dortluk": 2834,
      "▁uzerinde": 2835,
      "▁strate": 2836,
      "▁rıh": 2837,
      "▁doktorlar": 2838,
      "kce": 2839,
      "▁esy": 2840,
      "▁kad": 2841,
      "icisi": 2842,
      "dır": 2843,
      "▁ind": 2844,
      "▁iz": 2845,
      "▁istanbul": 2846,
      "▁0": 2847,
      "▁sehr": 2848,
      "▁sosyal": 2849,
      "liligini": 2850,
      "▁bulbul": 2851,
      "▁merhaba": 2852,
      "giniz": 2853,
      "▁bicim": 2854,
      "▁bastan": 2855,
      "▁isabet": 2856,
      "▁sek": 2857,
      "▁politikası": 2858,
      "'s": 2859,
      "ıg": 2860,
      "▁aydınlık": 2861,
      "▁but": 2862,
      "▁cet": 2863,
      "▁huc": 2864,
      "▁icini": 2865,
      "▁tatlı": 2866,
      "▁sade": 2867,
      "▁selam": 2868,
      "▁buh": 2869,
      "▁pantolon": 2870,
      "alet": 2871,
      "larla": 2872,
      "▁lak": 2873,
      "▁pah": 2874,
      "▁sevgil": 2875,
      "▁cinayet": 2876,
      "▁sofra": 2877,
      "▁karı": 2878,
      "▁dedik": 2879,
      "▁tesekkurler": 2880,
      "▁elektrik": 2881,
      "▁olmustur": 2882,
      "ansiyon": 2883,
      "▁yonelik": 2884,
      "▁dısına": 2885,
      "▁dest": 2886,
      "▁yetersizdi": 2887,
      "▁krizi": 2888,
      "lge": 2889,
      "▁kolt": 2890,
      "eyn": 2891,
      "leme": 2892,
      "ıydı": 2893,
      "▁memleketin": 2894,
      "gan": 2895,
      "▁gayrimen": 2896,
      "▁du": 2897,
      "▁dahi": 2898,
      "▁milyardan": 2899,
      "▁miz": 2900,
      "▁kapıları": 2901,
      "yalar": 2902,
      "▁ogren": 2903,
      "▁odam": 2904,
      "▁olabil": 2905,
      "unce": 2906,
      "ıgından": 2907,
      "▁ov": 2908,
      "▁sıcak": 2909,
      "ls": 2910,
      "▁buraya": 2911,
      "▁sat": 2912,
      "lon": 2913,
      "ed": 2914,
      "▁dısarıda": 2915,
      "istler": 2916,
      "atını": 2917,
      "must": 2918,
      "▁strateji": 2919,
      "zet": 2920,
      "▁bakkal": 2921,
      "▁kısalt": 2922,
      "▁bunlar": 2923,
      "hut": 2924,
      "▁do": 2925,
      "▁hizm": 2926,
      "▁anay": 2927,
      "▁acen": 2928,
      "▁sayet": 2929,
      "▁sened": 2930,
      "▁resim": 2931,
      "▁delikan": 2932,
      "imini": 2933,
      "▁basarı": 2934,
      "▁geride": 2935,
      "sat": 2936,
      "▁biber": 2937,
      "▁tadını": 2938,
      "▁antr": 2939,
      "liligi": 2940,
      "etli": 2941,
      "▁ucretleri": 2942,
      "▁ed": 2943,
      "▁masaj": 2944,
      "▁piyasasında": 2945,
      "▁c": 2946,
      "▁yasad": 2947,
      "▁tadimiza": 2948,
      "▁oper": 2949,
      "▁fırtına": 2950,
      "▁cumhuriyet": 2951,
      "▁olun": 2952,
      "ıza": 2953,
      "▁tarafına": 2954,
      "▁atmak": 2955,
      "▁enerji": 2956,
      "▁protesto": 2957,
      "▁sebeplerden": 2958,
      "▁birbirlerine": 2959,
      "▁gecir": 2960,
      "▁kanunu": 2961,
      "▁hamle": 2962,
      "▁mevsim": 2963,
      "emin": 2964,
      "ediy": 2965,
      "▁reklam": 2966,
      "▁impar": 2967,
      "▁lokanta": 2968,
      "beri": 2969,
      "▁sehirde": 2970,
      "▁sıc": 2971,
      "▁begendim": 2972,
      "▁oranlarının": 2973,
      "▁artarak": 2974,
      "liklerini": 2975,
      "▁olay": 2976,
      "maması": 2977,
      "uvar": 2978,
      "▁onemi": 2979,
      "miyorum": 2980,
      "miyor": 2981,
      "▁merdiven": 2982,
      "▁herif": 2983,
      "cegini": 2984,
      "▁un": 2985,
      "▁met": 2986,
      "▁bolumunu": 2987,
      "hanede": 2988,
      "▁yumruk": 2989,
      "▁kapat": 2990,
      "▁kadınlara": 2991,
      "▁aktarma": 2992,
      "lem": 2993,
      "ında": 2994,
      "ınıza": 2995,
      "ızda": 2996,
      "ent": 2997,
      "▁gunde": 2998,
      "▁karıstır": 2999,
      "▁zeytin": 3000,
      "ston": 3001,
      "▁rev": 3002,
      "▁kadına": 3003,
      "▁dedikodu": 3004,
      "▁keleb": 3005,
      "indeydi": 3006,
      "▁turden": 3007,
      "▁enstit": 3008,
      "▁sehirler": 3009,
      "nc": 3010,
      "▁restor": 3011,
      "iligi": 3012,
      "edil": 3013,
      "yal": 3014,
      "cının": 3015,
      "▁ard": 3016,
      "estr": 3017,
      "ly": 3018,
      "sızlık": 3019,
      "▁satmak": 3020,
      "sal": 3021,
      "▁sahipleri": 3022,
      "▁)": 3023,
      "▁yangın": 3024,
      "▁tanıt": 3025,
      "▁seklinde": 3026,
      "▁raporda": 3027,
      "▁hissed": 3028,
      "▁hamam": 3029,
      "▁cas": 3030,
      "ırt": 3031,
      "▁havayollarını": 3032,
      "ka": 3033,
      "▁oyn": 3034,
      "▁pazarda": 3035,
      "▁odada": 3036,
      "usunu": 3037,
      "cı": 3038,
      "iyoruz": 3039,
      "madıgını": 3040,
      "▁sutu": 3041,
      "▁otelin": 3042,
      "umuze": 3043,
      "▁fonların": 3044,
      "▁ropor": 3045,
      "▁arttıgını": 3046,
      "▁atlanta": 3047,
      "kler": 3048,
      "▁akın": 3049,
      "das": 3050,
      "▁cicek": 3051,
      "▁orada": 3052,
      "▁agzını": 3053,
      "suzluk": 3054,
      "ının": 3055,
      "▁bıy": 3056,
      "▁isciler": 3057,
      "▁enst": 3058,
      "▁bakanlıgı": 3059,
      "▁saldırı": 3060,
      "▁birinde": 3061,
      "▁ozen": 3062,
      "asındaki": 3063,
      "yım": 3064,
      "▁ann": 3065,
      "▁ef": 3066,
      "▁sırt": 3067,
      "▁tasın": 3068,
      "aydı": 3069,
      "▁buyukel": 3070,
      "▁kıs": 3071,
      "eti": 3072,
      "▁yılı": 3073,
      "▁kayb": 3074,
      "pan": 3075,
      "▁endise": 3076,
      "▁agzında": 3077,
      "▁muh": 3078,
      "▁korid": 3079,
      "▁topr": 3080,
      "▁eden": 3081,
      "askanı": 3082,
      "▁hos": 3083,
      "▁hangisi": 3084,
      "ou": 3085,
      "▁3": 3086,
      "▁ayakkabı": 3087,
      "▁okulu": 3088,
      "▁mini": 3089,
      "lantı": 3090,
      "▁ekonominin": 3091,
      "acak": 3092,
      "▁zih": 3093,
      "alım": 3094,
      "▁got": 3095,
      "gul": 3096,
      "enleri": 3097,
      "▁kalabalık": 3098,
      "▁adalet": 3099,
      "▁aramızda": 3100,
      "3'e": 3101,
      "▁mucev": 3102,
      "▁oc": 3103,
      "▁sebep": 3104,
      "▁karsıtı": 3105,
      "▁o": 3106,
      "▁ucreti": 3107,
      "▁noktasına": 3108,
      "▁hikay": 3109,
      "▁lamb": 3110,
      "▁olması": 3111,
      "▁degi": 3112,
      "'nde": 3113,
      "erin": 3114,
      "▁hal": 3115,
      "▁hareket": 3116,
      "▁sehrine": 3117,
      "lasma": 3118,
      "▁insanlara": 3119,
      "▁cih": 3120,
      "▁personeli": 3121,
      "stu": 3122,
      "▁cesi": 3123,
      "tigine": 3124,
      "▁fin": 3125,
      "▁burun": 3126,
      "▁ayrıca": 3127,
      "tas": 3128,
      "▁sermaye": 3129,
      "etini": 3130,
      "▁rez": 3131,
      "▁gozleriyle": 3132,
      "▁15": 3133,
      "▁sahis": 3134,
      "▁bahc": 3135,
      "▁manzarasi": 3136,
      "ıya": 3137,
      "▁arkadas": 3138,
      "▁ittifak": 3139,
      "▁rakamları": 3140,
      "▁degn": 3141,
      "▁kabil": 3142,
      "ef": 3143,
      "▁kosesine": 3144,
      "▁yapılan": 3145,
      "'den": 3146,
      "ad": 3147,
      "▁daha": 3148,
      "​": 3149,
      "▁sirketine": 3150,
      "iyla": 3151,
      "▁igne": 3152,
      "▁canlı": 3153,
      "▁hikaye": 3154,
      "▁agab": 3155,
      "ırım": 3156,
      "asından": 3157,
      "lilik": 3158,
      "▁muhafaza": 3159,
      "▁lut": 3160,
      "▁gec": 3161,
      "▁ail": 3162,
      "mustu": 3163,
      "▁yurtd": 3164,
      "▁evlere": 3165,
      "mıyorum": 3166,
      "▁pansiyon": 3167,
      "▁i": 3168,
      "▁senar": 3169,
      "▁12'den": 3170,
      "▁odalarin": 3171,
      "▁silah": 3172,
      "layı": 3173,
      "▁ki": 3174,
      "▁yemek": 3175,
      "#": 3176,
      "▁donus": 3177,
      "▁kır": 3178,
      "onom": 3179,
      "lendi": 3180,
      "ima": 3181,
      "▁cagır": 3182,
      "▁soyledi": 3183,
      "▁yıla": 3184,
      "tin": 3185,
      "▁co": 3186,
      "▁el": 3187,
      "▁halbu": 3188,
      "▁sın": 3189,
      "larda": 3190,
      "▁bez": 3191,
      "▁dallas'tan": 3192,
      "▁yemekten": 3193,
      "▁satıslarının": 3194,
      "eginde": 3195,
      "ikleri": 3196,
      "▁havası": 3197,
      "▁dava": 3198,
      "▁hayv": 3199,
      "ley": 3200,
      "▁hay": 3201,
      "▁yumus": 3202,
      "▁hur": 3203,
      "▁eli": 3204,
      "▁mahalle": 3205,
      "apolis": 3206,
      "ak": 3207,
      "▁mimar": 3208,
      "▁onur": 3209,
      "▁herkesin": 3210,
      "▁ogrenci": 3211,
      "ıltı": 3212,
      "ble": 3213,
      "▁dos": 3214,
      "▁yapı": 3215,
      "▁kof": 3216,
      "▁fırc": 3217,
      "▁kutuk": 3218,
      "▁zeytiny": 3219,
      "ısını": 3220,
      "i'nin": 3221,
      "▁lirayı": 3222,
      "▁kit": 3223,
      "▁kampanyalar": 3224,
      "▁te": 3225,
      "▁tedarik": 3226,
      "ahan": 3227,
      "▁bolumu": 3228,
      "▁sorunun": 3229,
      "▁konf": 3230,
      "egine": 3231,
      "▁asık": 3232,
      "▁kavga": 3233,
      "▁doları": 3234,
      "▁dunyanın": 3235,
      "▁ticari": 3236,
      "▁degerleri": 3237,
      "lah": 3238,
      "cul": 3239,
      "op": 3240,
      "▁tenek": 3241,
      "▁kıvıl": 3242,
      "▁oldugum": 3243,
      "▁kasaba": 3244,
      "▁gelen": 3245,
      "▁apart": 3246,
      "▁dere": 3247,
      "va": 3248,
      "▁onunde": 3249,
      "▁biri": 3250,
      "▁sozcu": 3251,
      "▁katkı": 3252,
      "▁fal": 3253,
      "▁salonunda": 3254,
      "▁stat": 3255,
      "'ı": 3256,
      "▁hayalet": 3257,
      "▁satıslar": 3258,
      "▁dol": 3259,
      "▁gormedim": 3260,
      "▁teklifi": 3261,
      "▁evin": 3262,
      "ilmesini": 3263,
      "ıcısı": 3264,
      "▁kravat": 3265,
      "▁hap": 3266,
      "ucu": 3267,
      "▁ortalaması": 3268,
      "▁sirketinin": 3269,
      "▁durak": 3270,
      "ia": 3271,
      "▁tadima": 3272,
      "▁buf": 3273,
      "▁sizin": 3274,
      "ladılar": 3275,
      "▁fiyata": 3276,
      "inin": 3277,
      "ardan": 3278,
      "▁alanında": 3279,
      "▁basvur": 3280,
      "▁ali": 3281,
      "▁fazl": 3282,
      "▁bekl": 3283,
      "endi": 3284,
      "▁icimi": 3285,
      "▁kalabal": 3286,
      "▁cakmak": 3287,
      "▁kagıdı": 3288,
      "▁yemeklerden": 3289,
      "▁olcu": 3290,
      "▁gorevlisi": 3291,
      "lan": 3292,
      "nak": 3293,
      "▁kıraat": 3294,
      "▁olmus": 3295,
      "orma": 3296,
      "▁sahip": 3297,
      "▁fasul": 3298,
      "▁futbol": 3299,
      "▁ideal": 3300,
      "▁yatır": 3301,
      "▁suk": 3302,
      "▁ucte": 3303,
      "▁aldıgı": 3304,
      "iyatr": 3305,
      "▁duk": 3306,
      "▁sonradan": 3307,
      "▁kaz": 3308,
      "▁yukselerek": 3309,
      "▁dukkan": 3310,
      "▁maliye": 3311,
      "▁yansı": 3312,
      "▁onem": 3313,
      "▁ucretini": 3314,
      "▁arazi": 3315,
      "▁bah": 3316,
      "▁patates": 3317,
      "▁sene": 3318,
      "masıyla": 3319,
      "▁yolları": 3320,
      "lılıg": 3321,
      "mız": 3322,
      "▁degilim": 3323,
      "▁faturam": 3324,
      "▁basbakan": 3325,
      "amıza": 3326,
      "▁editor": 3327,
      "▁yan": 3328,
      "▁bahan": 3329,
      "▁operator": 3330,
      "▁redd": 3331,
      "▁gitti": 3332,
      "▁uygun": 3333,
      "▁birbir": 3334,
      "ver": 3335,
      "▁yard": 3336,
      "▁has": 3337,
      "dur": 3338,
      "enler": 3339,
      "▁enerj": 3340,
      "▁beni": 3341,
      "▁okuz": 3342,
      "ku": 3343,
      "arlar": 3344,
      "a": 3345,
      "▁senat": 3346,
      "▁tanesi": 3347,
      "▁business": 3348,
      "arılı": 3349,
      "ence": 3350,
      "▁vazgec": 3351,
      "▁heyeti": 3352,
      "cuları": 3353,
      "▁be": 3354,
      "▁jand": 3355,
      "▁abd": 3356,
      "▁faal": 3357,
      "▁ric": 3358,
      "▁akr": 3359,
      "▁analist": 3360,
      "▁olayı": 3361,
      "ami": 3362,
      "▁yenil": 3363,
      "▁kurumları": 3364,
      "▁tarihine": 3365,
      "▁derecede": 3366,
      "▁hakkı": 3367,
      "▁tank": 3368,
      "▁olmak": 3369,
      "▁cok": 3370,
      "+": 3371,
      "atır": 3372,
      "tır": 3373,
      "▁turkiye": 3374,
      "▁saun": 3375,
      "▁milwa": 3376,
      "▁sogu": 3377,
      "▁taz": 3378,
      "▁meydan": 3379,
      "▁jo": 3380,
      "▁arkasında": 3381,
      "▁tuketiciler": 3382,
      "▁mademki": 3383,
      "▁yild": 3384,
      "▁boston": 3385,
      "▁chat": 3386,
      "▁olarak": 3387,
      "▁del": 3388,
      "▁veya": 3389,
      "▁cam": 3390,
      "▁ekonomik": 3391,
      "ıh": 3392,
      "miyordu": 3393,
      "▁kalp": 3394,
      "▁yemeklerde": 3395,
      "▁5'ten": 3396,
      "▁ulasımını": 3397,
      "acaktır": 3398,
      "alarıyla": 3399,
      "▁yavas": 3400,
      "acının": 3401,
      "ate": 3402,
      "▁geliri": 3403,
      "▁mat": 3404,
      "▁atat": 3405,
      "▁odaya": 3406,
      "▁uyum": 3407,
      "ij": 3408,
      "▁islem": 3409,
      "tırmak": 3410,
      "▁telef": 3411,
      "▁sit": 3412,
      "▁miy": 3413,
      "▁dısar": 3414,
      "▁kaldik": 3415,
      "mam": 3416,
      "▁ederim": 3417,
      "▁yapıyor": 3418,
      "melere": 3419,
      "▁hediy": 3420,
      "▁kosk": 3421,
      "vil": 3422,
      "▁kahkah": 3423,
      "rne": 3424,
      "el": 3425,
      "▁sus": 3426,
      "▁cesaret": 3427,
      "▁di": 3428,
      "isim": 3429,
      "▁kararı": 3430,
      "▁aqua": 3431,
      "▁gozyas": 3432,
      "▁karsıma": 3433,
      "▁had": 3434,
      "▁sepet": 3435,
      "▁huzur": 3436,
      "▁asırı": 3437,
      "▁basla": 3438,
      "▁uyar": 3439,
      "▁yana": 3440,
      "alarına": 3441,
      "urt": 3442,
      "▁leble": 3443,
      "▁karsilama": 3444,
      "▁guven": 3445,
      "umuz": 3446,
      "▁say": 3447,
      "dıklarını": 3448,
      "▁munasebet": 3449,
      "emli": 3450,
      "uncu": 3451,
      "▁ofk": 3452,
      "▁ihtiyat": 3453,
      "▁lokma": 3454,
      "▁balık": 3455,
      "▁first": 3456,
      "▁sıfır": 3457,
      "▁konsol": 3458,
      "ari": 3459,
      "abını": 3460,
      "▁top": 3461,
      "▁dolayi": 3462,
      "▁oteller": 3463,
      "▁uzakti": 3464,
      "▁tazminat": 3465,
      "esti": 3466,
      "▁boru": 3467,
      "elim": 3468,
      "▁mecl": 3469,
      "▁yetkililer": 3470,
      "cileri": 3471,
      "▁elektr": 3472,
      "▁cambaz": 3473,
      "ers": 3474,
      "ıgının": 3475,
      "unden": 3476,
      "▁cogun": 3477,
      "medi": 3478,
      "a'nın": 3479,
      "'u": 3480,
      "▁sef": 3481,
      "▁kosullar": 3482,
      "▁konumu": 3483,
      "▁giden": 3484,
      "▁seg": 3485,
      "▁sev": 3486,
      "▁ozel": 3487,
      "layacak": 3488,
      "▁197": 3489,
      "▁%1": 3490,
      "inde": 3491,
      "▁gelmedi": 3492,
      "▁as": 3493,
      "▁simdiye": 3494,
      "▁seans": 3495,
      "alog": 3496,
      "oloj": 3497,
      "▁temel": 3498,
      "▁lu": 3499,
      "▁yat": 3500,
      "▁ikin": 3501,
      "▁savunma": 3502,
      "ekler": 3503,
      "▁dav": 3504,
      "▁corp": 3505,
      "▁suph": 3506,
      "luk": 3507,
      "▁iceriye": 3508,
      "▁plastik": 3509,
      "▁durumunda": 3510,
      "ited": 3511,
      "▁cogunlugu": 3512,
      "▁karsılık": 3513,
      "▁bircok": 3514,
      "▁ruzg": 3515,
      "▁ikna": 3516,
      "▁dc": 3517,
      "▁ikinci": 3518,
      "ıgında": 3519,
      "▁cezası": 3520,
      "▁vapur": 3521,
      "imdi": 3522,
      "▁islerin": 3523,
      "▁firma": 3524,
      "▁olanaklarını": 3525,
      "ırlar": 3526,
      "▁gecenin": 3527,
      "▁altı": 3528,
      "▁tesaduf": 3529,
      "▁usul": 3530,
      "▁hacim": 3531,
      "▁kapı": 3532,
      "iski": 3533,
      "luluk": 3534,
      "tmek": 3535,
      "▁ayak": 3536,
      "▁mehmet": 3537,
      "▁musteri": 3538,
      "desi": 3539,
      "▁yurudu": 3540,
      "▁civarı": 3541,
      "abet": 3542,
      "lı": 3543,
      "▁darb": 3544,
      "umda": 3545,
      "▁hastalıgı": 3546,
      "▁leh": 3547,
      "▁bedel": 3548,
      "▁beyaz": 3549,
      "▁acısından": 3550,
      "▁10'dan": 3551,
      "sam": 3552,
      "▁onc": 3553,
      "▁onun": 3554,
      "▁yen": 3555,
      "niz": 3556,
      "▁iscilerin": 3557,
      "▁bilgiye": 3558,
      "▁odalar": 3559,
      "▁yonetim": 3560,
      "▁tutun": 3561,
      "▁ucmak": 3562,
      "elleri": 3563,
      "eledi": 3564,
      "▁ellerini": 3565,
      "▁sozunu": 3566,
      "bir": 3567,
      "▁ceyr": 3568,
      "ge": 3569,
      "▁kisilerin": 3570,
      "▁sevin": 3571,
      "▁portakal": 3572,
      "▁post": 3573,
      "▁duruyordu": 3574,
      "akat": 3575,
      "▁calıs": 3576,
      "▁havayolları": 3577,
      "▁yeme": 3578,
      "amaya": 3579,
      "▁veril": 3580,
      "▁geriledi": 3581,
      "▁pirinc": 3582,
      "▁eski": 3583,
      "`": 3584,
      "▁gom": 3585,
      "▁bırak": 3586,
      "▁lev": 3587,
      "▁baglı": 3588,
      "▁dustugunu": 3589,
      "▁aylık": 3590,
      "umun": 3591,
      "▁farklılık": 3592,
      "artesi": 3593,
      "unde": 3594,
      "▁19": 3595,
      "ttı": 3596,
      "▁yalnızca": 3597,
      "▁kampanya": 3598,
      "▁surpr": 3599,
      "inti": 3600,
      "▁cıkardı": 3601,
      "telik": 3602,
      "▁ert": 3603,
      "▁ib": 3604,
      "dip": 3605,
      "mıstır": 3606,
      "▁yun": 3607,
      "▁pad": 3608,
      "▁med": 3609,
      "▁sahtek": 3610,
      "▁topraga": 3611,
      "tim": 3612,
      "▁fotograf": 3613,
      "▁masaya": 3614,
      "▁kazancları": 3615,
      "▁suik": 3616,
      "▁ens": 3617,
      "▁gitmek": 3618,
      "▁altında": 3619,
      "ıstır": 3620,
      "atı": 3621,
      "▁varlıgı": 3622,
      "▁yukselisle": 3623,
      "▁yatırımcıların": 3624,
      "maca": 3625,
      "▁coktu": 3626,
      "mul": 3627,
      "▁isletme": 3628,
      "▁telgraf": 3629,
      "ekt": 3630,
      "▁garanti": 3631,
      "▁kr": 3632,
      "ahat": 3633,
      "arda": 3634,
      "▁dern": 3635,
      "▁ayagını": 3636,
      "imleri": 3637,
      "ılmak": 3638,
      "▁iskonto": 3639,
      "▁gerekir": 3640,
      "▁ramaz": 3641,
      "▁haberdar": 3642,
      "▁pasif": 3643,
      "yor": 3644,
      "▁cebinden": 3645,
      "aması": 3646,
      "ir": 3647,
      "cagı": 3648,
      "▁ulasımı": 3649,
      "▁finc": 3650,
      "atları": 3651,
      "▁olmadıgını": 3652,
      "▁cesitli": 3653,
      "▁ceyreginde": 3654,
      "▁kara": 3655,
      "alam": 3656,
      "mistim": 3657,
      "▁u": 3658,
      "5'e": 3659,
      "▁gorusu": 3660,
      "larından": 3661,
      "▁ucuna": 3662,
      "▁soru": 3663,
      "▁donemde": 3664,
      "lanacak": 3665,
      "▁derec": 3666,
      "arında": 3667,
      "▁dallas'a": 3668,
      "▁turlu": 3669,
      "▁okullar": 3670,
      "'nda": 3671,
      "ımın": 3672,
      "▁doldur": 3673,
      "▁kurum": 3674,
      "▁marka": 3675,
      "▁damla": 3676,
      "▁bahar": 3677,
      "▁degirmen": 3678,
      "aket": 3679,
      "▁kurulunun": 3680,
      "▁goz": 3681,
      "ler": 3682,
      "▁iy": 3683,
      "00": 3684,
      "▁gru": 3685,
      "▁ihtiy": 3686,
      "ıyı": 3687,
      "▁dl": 3688,
      "imde": 3689,
      "anta": 3690,
      "▁belki": 3691,
      "▁ziyaret": 3692,
      "▁reng": 3693,
      "▁kuyr": 3694,
      "▁havalimanı": 3695,
      "bilir": 3696,
      "lig": 3697,
      "sak": 3698,
      "▁hakaret": 3699,
      "▁ederek": 3700,
      "▁rap": 3701,
      "▁sofr": 3702,
      "izlik": 3703,
      "▁mar": 3704,
      "▁tabi": 3705,
      "▁olmasına": 3706,
      "ida": 3707,
      "▁korkusu": 3708,
      "▁memuru": 3709,
      "▁ve": 3710,
      "▁basımıza": 3711,
      "lant": 3712,
      "ım": 3713,
      "▁duser": 3714,
      "▁arkadasları": 3715,
      "▁bankası": 3716,
      "qu": 3717,
      "▁final": 3718,
      "ini": 3719,
      "▁hayatı": 3720,
      "▁pahali": 3721,
      "uyu": 3722,
      "▁varsa": 3723,
      "▁gozle": 3724,
      "mus": 3725,
      "▁buz": 3726,
      "▁kal": 3727,
      "▁askı": 3728,
      "▁gelistirme": 3729,
      "▁ihrac": 3730,
      "5'ten": 3731,
      "id": 3732,
      "▁:": 3733,
      "▁sıkıntı": 3734,
      "▁fiz": 3735,
      "▁ucunu": 3736,
      "emedi": 3737,
      "▁deney": 3738,
      "cilerin": 3739,
      "▁dak": 3740,
      "▁cesitler": 3741,
      "▁sonucların": 3742,
      "▁uyk": 3743,
      "▁temizlik": 3744,
      "▁takımı": 3745,
      "▁icat": 3746,
      "▁zararı": 3747,
      "▁doların": 3748,
      "▁otelde": 3749,
      "▁biliyor": 3750,
      "▁ticaret": 3751,
      "madı": 3752,
      "▁calısanlar": 3753,
      "▁kasıgı": 3754,
      "▁basladılar": 3755,
      "▁cif": 3756,
      "▁menf": 3757,
      "▁baskısı": 3758,
      "ileri": 3759,
      "▁kapıyı": 3760,
      "▁etmeye": 3761,
      "stır": 3762,
      "▁izlen": 3763,
      "ilecegi": 3764,
      "▁pl": 3765,
      "▁prens": 3766,
      "▁umut": 3767,
      "▁yesil": 3768,
      "▁heykel": 3769,
      "▁sirketler": 3770,
      "▁isinin": 3771,
      "▁gem": 3772,
      "▁&": 3773,
      ".7": 3774,
      "▁ustune": 3775,
      "bol": 3776,
      "▁oku": 3777,
      "▁sinema": 3778,
      "▁dagıt": 3779,
      "meden": 3780,
      "imizda": 3781,
      "▁potansiy": 3782,
      "▁ciftciler": 3783,
      "lıktan": 3784,
      "▁limuzin": 3785,
      "dik": 3786,
      "▁kenara": 3787,
      "▁hayata": 3788,
      "erik": 3789,
      "istel": 3790,
      "meyi": 3791,
      "▁arz": 3792,
      "inda": 3793,
      "ı": 3794,
      "▁onumuz": 3795,
      "ılmasını": 3796,
      "ken": 3797,
      "▁vil": 3798,
      "▁tasarısı": 3799,
      "▁cekildi": 3800,
      "▁sıkı": 3801,
      "lastik": 3802,
      "▁bazi": 3803,
      "▁kas": 3804,
      "▁sms": 3805,
      "▁banyo": 3806,
      "▁seyahat": 3807,
      "▁hakkında": 3808,
      "makt": 3809,
      "▁basit": 3810,
      "▁tuttu": 3811,
      "▁kılav": 3812,
      "▁mey": 3813,
      "▁bilgiler": 3814,
      "istir": 3815,
      "uyla": 3816,
      "▁boyut": 3817,
      "▁raf": 3818,
      "▁tasarruf": 3819,
      "▁kacır": 3820,
      "im": 3821,
      "▁gali": 3822,
      "▁degiller": 3823,
      "oeni": 3824,
      "▁baslar": 3825,
      "▁fon": 3826,
      "▁sabahı": 3827,
      "▁mamafi": 3828,
      "▁mide": 3829,
      ":": 3830,
      "esine": 3831,
      "▁yarat": 3832,
      "4": 3833,
      "▁bulus": 3834,
      "▁verdik": 3835,
      "▁analizciler": 3836,
      "▁avukatı": 3837,
      "▁harcamaları": 3838,
      "▁yakıt": 3839,
      "▁sınav": 3840,
      "▁gozunu": 3841,
      "▁8'den": 3842,
      "▁askeri": 3843,
      "▁hit": 3844,
      "▁ozelligi": 3845,
      "▁calısanı": 3846,
      "ht": 3847,
      "▁yara": 3848,
      "▁diren": 3849,
      "istim": 3850,
      "leyi": 3851,
      "▁clas": 3852,
      "lanıyor": 3853,
      "▁tren": 3854,
      "▁yum": 3855,
      "▁org": 3856,
      "▁ye": 3857,
      "▁erken": 3858,
      "▁ugras": 3859,
      "▁.)": 3860,
      "▁guclu": 3861,
      "▁kalan": 3862,
      "▁ucmam": 3863,
      "▁istis": 3864,
      "acılar": 3865,
      "▁ger": 3866,
      "▁birinci": 3867,
      "▁sofor": 3868,
      "▁tic": 3869,
      "leri": 3870,
      "▁saf": 3871,
      "▁22": 3872,
      "▁ik": 3873,
      "▁yog": 3874,
      "▁sezlong": 3875,
      "▁sahib": 3876,
      "▁aktivite": 3877,
      "▁skandal": 3878,
      "▁pitts": 3879,
      "▁secmen": 3880,
      "▁ihracı": 3881,
      "▁ceza": 3882,
      "▁yanak": 3883,
      "▁neler": 3884,
      "▁karısı": 3885,
      "▁merdiv": 3886,
      "leriyle": 3887,
      "ciler": 3888,
      "▁birisi": 3889,
      "▁ocagı": 3890,
      "▁nakit": 3891,
      "cek": 3892,
      "▁cocukları": 3893,
      "▁yoneticisi": 3894,
      "▁zeka": 3895,
      "▁kapasit": 3896,
      "iyeler": 3897,
      "▁tekl": 3898,
      "▁fir": 3899,
      "acagı": 3900,
      "▁kendi": 3901,
      "▁yal": 3902,
      "▁olmayı": 3903,
      "▁bag": 3904,
      "▁anlama": 3905,
      "▁deh": 3906,
      "▁toh": 3907,
      "▁egz": 3908,
      "▁dem": 3909,
      "▁yapısı": 3910,
      "▁tuhaf": 3911,
      "liyat": 3912,
      "lesti": 3913,
      "ıklar": 3914,
      "▁alakasi": 3915,
      "▁teb": 3916,
      "igi": 3917,
      "▁ad": 3918,
      "▁rezerv": 3919,
      "pr": 3920,
      "lamak": 3921,
      "▁soyley": 3922,
      "▁ellerine": 3923,
      "▁yogurt": 3924,
      "ustugunu": 3925,
      "▁tarif": 3926,
      "▁celik": 3927,
      "▁alama": 3928,
      "▁gen": 3929,
      "▁birim": 3930,
      "▁isletmeler": 3931,
      "▁itibaren": 3932,
      "amız": 3933,
      "umuzde": 3934,
      "▁kusk": 3935,
      "▁bab": 3936,
      "▁parası": 3937,
      "uv": 3938,
      "▁baz": 3939,
      "▁asagıda": 3940,
      "tıp": 3941,
      "etic": 3942,
      "elerde": 3943,
      "meli": 3944,
      "ktu": 3945,
      "▁bekleniyor": 3946,
      "▁sirketlerin": 3947,
      "▁oncesinde": 3948,
      "▁duyg": 3949,
      "▁gozlerinden": 3950,
      "▁bileti": 3951,
      "▁oncelik": 3952,
      "▁gost": 3953,
      "▁gonlum": 3954,
      "▁yeter": 3955,
      "is": 3956,
      "gıt": 3957,
      "▁yuz": 3958,
      "▁yatırımcının": 3959,
      "▁nedenle": 3960,
      "▁durdur": 3961,
      "onu": 3962,
      "▁rot": 3963,
      "dım": 3964,
      "▁pus": 3965,
      "▁artık": 3966,
      "▁calısıyor": 3967,
      "as": 3968,
      "▁uzuntu": 3969,
      "\\": 3970,
      "luga": 3971,
      "lenmek": 3972,
      "▁yaslı": 3973,
      "▁sureci": 3974,
      "anını": 3975,
      "dılar": 3976,
      "▁gorun": 3977,
      "uyle": 3978,
      "lıkla": 3979,
      "▁sans": 3980,
      "▁restoran": 3981,
      "▁kap": 3982,
      "lugun": 3983,
      "▁ted": 3984,
      "▁ust": 3985,
      "▁form": 3986,
      "▁istey": 3987,
      "▁seattle": 3988,
      "▁dedim": 3989,
      "▁efsan": 3990,
      "▁ey": 3991,
      "▁veto": 3992,
      "▁doktoru": 3993,
      "▁misaf": 3994,
      "gın": 3995,
      "adar": 3996,
      "▁babama": 3997,
      "▁kosulları": 3998,
      "cu": 3999,
      "▁kampanyalardan": 4000,
      "hane": 4001,
      "▁dans": 4002,
      "▁iceri": 4003,
      "▁re": 4004,
      "elir": 4005,
      "▁saray": 4006,
      "istirdi": 4007,
      "▁lim": 4008,
      "▁yarısı": 4009,
      "dev": 4010,
      "▁miras": 4011,
      "▁cir": 4012,
      "mec": 4013,
      "▁pencerenin": 4014,
      "▁lezzetliydi": 4015,
      "kır": 4016,
      "gre": 4017,
      "▁luz": 4018,
      "▁takip": 4019,
      "▁sanatcı": 4020,
      "▁bunun": 4021,
      "y": 4022,
      "▁pro": 4023,
      "lerden": 4024,
      "▁set": 4025,
      "tıktan": 4026,
      "▁kiralama": 4027,
      "▁idaresi": 4028,
      "▁polisler": 4029,
      "▁alıcılar": 4030,
      "▁polis": 4031,
      "▁adi": 4032,
      "▁tesv": 4033,
      "▁milletin": 4034,
      "▁arkadası": 4035,
      "▁iyiydi": 4036,
      "▁neredeyse": 4037,
      "…": 4038,
      "tar": 4039,
      "▁milletvekili": 4040,
      "..": 4041,
      "'daki": 4042,
      "▁imam": 4043,
      "▁ortalıgı": 4044,
      "▁ureticileri": 4045,
      "▁sevda": 4046,
      "▁evi": 4047,
      "▁patr": 4048,
      "▁uzerine": 4049,
      "hi": 4050,
      "var": 4051,
      "▁sergi": 4052,
      "▁elli": 4053,
      "une": 4054,
      "▁gurultu": 4055,
      "▁mark": 4056,
      "etle": 4057,
      "0'dan": 4058,
      "▁istemiyorum": 4059,
      "▁evini": 4060,
      "▁hangi": 4061,
      "▁oldug": 4062,
      "▁baktı": 4063,
      "▁kapital": 4064,
      "▁salat": 4065,
      "▁karlar": 4066,
      "arım": 4067,
      "▁oglum": 4068,
      "▁tipi": 4069,
      "▁kanun": 4070,
      "vr": 4071,
      "erleri": 4072,
      "▁kutu": 4073,
      "▁yarar": 4074,
      "▁televizyon": 4075,
      "▁profesor": 4076,
      "▁carte": 4077,
      "▁pencereden": 4078,
      "lanması": 4079,
      "▁uretic": 4080,
      "▁kendimi": 4081,
      "▁gey": 4082,
      "[UNK]": 4083,
      "▁sesiyle": 4084,
      "muyordu": 4085,
      "▁goc": 4086,
      "▁henuz": 4087,
      "▁karsi": 4088,
      "▁ign": 4089,
      "▁tarz": 4090,
      "▁kendiler": 4091,
      "▁teslim": 4092,
      "ayacagını": 4093,
      "cilik": 4094,
      "▁bilmek": 4095,
      "▁ask": 4096,
      "▁aktif": 4097,
      "▁giy": 4098,
      "mar": 4099,
      "▁arıyor": 4100,
      "▁avuc": 4101,
      "ınızda": 4102,
      "▁parmak": 4103,
      "▁beyan": 4104,
      "▁cunku": 4105,
      "▁kayıt": 4106,
      "▁oluyor": 4107,
      "▁yuksel": 4108,
      "▁ogr": 4109,
      "ar": 4110,
      "▁seyr": 4111,
      "▁utan": 4112,
      "▁haf": 4113,
      "▁koyden": 4114,
      "▁duman": 4115,
      "▁kalkıyor": 4116,
      "ktur": 4117,
      "elemek": 4118,
      "▁burn": 4119,
      "▁vatandas": 4120,
      "▁aga": 4121,
      "aleti": 4122,
      "▁serv": 4123,
      "▁demet": 4124,
      "▁27": 4125,
      "▁iktidar": 4126,
      "▁jon": 4127,
      "▁paraya": 4128,
      "▁ulası": 4129,
      "▁zihn": 4130,
      "▁bitki": 4131,
      "▁hasret": 4132,
      "gah": 4133,
      "▁hurr": 4134,
      "▁uygu": 4135,
      "▁prof": 4136,
      "▁zengin": 4137,
      "▁haval": 4138,
      "▁dudak": 4139,
      "edigim": 4140,
      "▁bıcak": 4141,
      "▁stratej": 4142,
      "▁adamı": 4143,
      "▁secim": 4144,
      "▁guz": 4145,
      "▁kapattı": 4146,
      "▁direktoru": 4147,
      "isel": 4148,
      "▁varlıklar": 4149,
      "▁reklamlar": 4150,
      "▁engel": 4151,
      "una": 4152,
      "▁hayatımda": 4153,
      "▁seylerin": 4154,
      "▁kapas": 4155,
      "▁bır": 4156,
      "▁yonetimi": 4157,
      "▁tesisi": 4158,
      "▁acent": 4159,
      "▁enf": 4160,
      "yuzlu": 4161,
      "▁k": 4162,
      "▁mudahale": 4163,
      "▁sultan": 4164,
      "▁tedavul": 4165,
      "▁urunlerin": 4166,
      "▁tucc": 4167,
      "▁bes": 4168,
      "▁ulkelerde": 4169,
      "'de": 4170,
      "▁sigorta": 4171,
      ".4": 4172,
      "▁tesekkur": 4173,
      "▁muhtesem": 4174,
      "▁golge": 4175,
      "▁kızlar": 4176,
      "▁agaclar": 4177,
      "▁kırk": 4178,
      "▁detayları": 4179,
      "▁merkezi": 4180,
      ".ceyr": 4181,
      "00'den": 4182,
      "▁etkisi": 4183,
      "▁asagıya": 4184,
      "▁w": 4185,
      "▁saatlerinde": 4186,
      "▁lid": 4187,
      "▁tedav": 4188,
      "▁lou": 4189,
      "▁dısı": 4190,
      "▁ceh": 4191,
      "▁yili": 4192,
      "ırı": 4193,
      "▁9'dan": 4194,
      "▁ag": 4195,
      "tıgına": 4196,
      "▁sag": 4197,
      "▁soya": 4198,
      "▁prob": 4199,
      "▁seni": 4200,
      "asına": 4201,
      "▁duvarın": 4202,
      "▁ikiye": 4203,
      "▁sinir": 4204,
      "ındı": 4205,
      "▁alma": 4206,
      "▁yatırımcı": 4207,
      "▁olustur": 4208,
      "ust": 4209,
      "▁kıymetleri": 4210,
      "▁demokras": 4211,
      "▁kaliteye": 4212,
      "'un": 4213,
      "▁veyahut": 4214,
      "▁belir": 4215,
      "▁hareketi": 4216,
      "'ya": 4217,
      "▁ayına": 4218,
      "▁kurus": 4219,
      "▁vakti": 4220,
      "▁fiyatlarının": 4221,
      "▁telefonda": 4222,
      "▁dort": 4223,
      "▁cik": 4224,
      "lak": 4225,
      "etin": 4226,
      "fet": 4227,
      "ilig": 4228,
      "▁sil": 4229,
      "ug": 4230,
      "▁ig": 4231,
      "▁havlular": 4232,
      "▁gulery": 4233,
      "▁lisans": 4234,
      "▁fer": 4235,
      "▁mahk": 4236,
      "▁yavr": 4237,
      "▁fazlası": 4238,
      "▁elleri": 4239,
      "▁gib": 4240,
      "ladım": 4241,
      "▁sars": 4242,
      "▁n": 4243,
      "▁pantol": 4244,
      "▁5": 4245,
      "▁kor": 4246,
      "acı": 4247,
      "ebilecek": 4248,
      "▁seytan": 4249,
      "ill": 4250,
      "▁grub": 4251,
      "▁karıs": 4252,
      "▁hacmi": 4253,
      "▁istiklal": 4254,
      "ugun": 4255,
      "▁hizmetten": 4256,
      "dat": 4257,
      "▁mahkem": 4258,
      "▁dolu": 4259,
      "▁city'e": 4260,
      "▁arasındaki": 4261,
      "lardır": 4262,
      "unca": 4263,
      "lasyon": 4264,
      "▁pisir": 4265,
      "▁ithalat": 4266,
      "ayı": 4267,
      "▁konusur": 4268,
      "▁kazandı": 4269,
      "▁yig": 4270,
      "▁yazarın": 4271,
      "▁sesler": 4272,
      "▁dengesi": 4273,
      "dıktan": 4274,
      "▁arabanın": 4275,
      "ilmek": 4276,
      "▁cuzdan": 4277,
      "'deki": 4278,
      "▁kıt": 4279,
      "▁endis": 4280,
      "▁cumle": 4281,
      "'dan": 4282,
      "▁don": 4283,
      "o": 4284,
      "▁mektup": 4285,
      "▁kurtaj": 4286,
      "▁oraya": 4287,
      "6'dan": 4288,
      "misti": 4289,
      "▁kazanc": 4290,
      "onto": 4291,
      "cıların": 4292,
      "▁annemle": 4293,
      "▁isp": 4294,
      "▁mobil": 4295,
      "ekul": 4296,
      "▁tut": 4297,
      "tusu": 4298,
      "▁projesi": 4299,
      "▁turkc": 4300,
      "iliyor": 4301,
      "ıt": 4302,
      "andı": 4303,
      "▁hapis": 4304,
      "lasmıs": 4305,
      "▁fatura": 4306,
      "▁erkekler": 4307,
      "▁ozlem": 4308,
      "malıdır": 4309,
      "▁analiz": 4310,
      "▁sakal": 4311,
      "▁korun": 4312,
      "▁devam": 4313,
      "▁tramv": 4314,
      "tay": 4315,
      "▁olaylara": 4316,
      "irmi": 4317,
      "iyet": 4318,
      "len": 4319,
      "▁ref": 4320,
      "▁kaynakları": 4321,
      "▁oylama": 4322,
      "▁pa": 4323,
      "▁havuz": 4324,
      "▁ecz": 4325,
      "▁genclik": 4326,
      "▁devreye": 4327,
      "▁sansı": 4328,
      "▁kurulu": 4329,
      "dim": 4330,
      "▁vakit": 4331,
      "▁tedavulde": 4332,
      "▁yukum": 4333,
      "ubet": 4334,
      "▁islemlerin": 4335,
      "▁burada": 4336,
      "▁35": 4337,
      "▁gucluk": 4338,
      "▁arası": 4339,
      "▁yapmadı": 4340,
      "▁man": 4341,
      "min": 4342,
      "▁cuk": 4343,
      "▁yapti": 4344,
      "say": 4345,
      "▁nedeniyle": 4346,
      "▁urunleri": 4347,
      "▁yitir": 4348,
      "day": 4349,
      "▁boz": 4350,
      "▁cikis": 4351,
      "▁kiz": 4352,
      "u": 4353,
      "▁durumu": 4354,
      "▁seyir": 4355,
      "▁uluslar": 4356,
      "▁genelde": 4357,
      "sik": 4358,
      "▁rezerve": 4359,
      "yar": 4360,
      "▁mahkemede": 4361,
      "▁animasyonlari": 4362,
      "▁cat": 4363,
      "▁konuya": 4364,
      "▁yuzunden": 4365,
      "▁kırm": 4366,
      "▁sahada": 4367,
      "▁der": 4368,
      "▁cav": 4369,
      "▁film": 4370,
      "▁so": 4371,
      "zer": 4372,
      "▁kaliteli": 4373,
      "▁baltimore'den": 4374,
      "ısıyla": 4375,
      "▁acı": 4376,
      "umuza": 4377,
      "iyordu": 4378,
      "▁b": 4379,
      "▁ucagı": 4380,
      "▁bel": 4381,
      "▁sırasında": 4382,
      "▁penc": 4383,
      "▁esn": 4384,
      "▁yolcu": 4385,
      "▁iler": 4386,
      "allas": 4387,
      "▁bu": 4388,
      "andır": 4389,
      "▁kitab": 4390,
      "▁taht": 4391,
      "▁fiyatlarını": 4392,
      "▁mektu": 4393,
      "▁yonu": 4394,
      "▁luk": 4395,
      "▁onumuzdeki": 4396,
      "▁anketi": 4397,
      "▁aklıma": 4398,
      "▁cayır": 4399,
      "▁muhasebe": 4400,
      "▁geri": 4401,
      "▁eser": 4402,
      "▁agız": 4403,
      "siz": 4404,
      "ie": 4405,
      "'nun": 4406,
      "▁arttı": 4407,
      "▁gider": 4408,
      "▁dogum": 4409,
      "▁resepsiyon": 4410,
      "▁yazar": 4411,
      "lerde": 4412,
      "▁dis": 4413,
      "▁birinin": 4414,
      "▁temsil": 4415,
      "eciler": 4416,
      "▁kisiyi": 4417,
      "▁goturdu": 4418,
      "ekli": 4419,
      "▁hukuk": 4420,
      "7": 4421,
      "▁biy": 4422,
      "▁yonetici": 4423,
      "▁kalıb": 4424,
      "ji": 4425,
      "▁onların": 4426,
      "amıyor": 4427,
      "▁cıkan": 4428,
      "▁almaya": 4429,
      "▁mill": 4430,
      "▁denizin": 4431,
      "ımla": 4432,
      "▁beyler": 4433,
      "▁disi": 4434,
      "▁denet": 4435,
      "▁kendilerini": 4436,
      "▁guleryuzlu": 4437,
      "▁tahvilleri": 4438,
      "nci": 4439,
      "▁huz": 4440,
      "▁alıskan": 4441,
      "▁devlet": 4442,
      "▁iptal": 4443,
      "▁alımı": 4444,
      "j": 4445,
      "▁otuz": 4446,
      "▁yetis": 4447,
      "▁dagı": 4448,
      "▁basv": 4449,
      "▁yargı": 4450,
      "▁kelimesi": 4451,
      "▁birdenbire": 4452,
      "▁isc": 4453,
      "▁borsa": 4454,
      "▁sokaklarda": 4455,
      "▁kisileri": 4456,
      "▁ydı": 4457,
      "iren": 4458,
      "▁vardi": 4459,
      "eni": 4460,
      "▁imkanı": 4461,
      "lerin": 4462,
      "▁yonetmen": 4463,
      "▁ip": 4464,
      "▁siyas": 4465,
      "yarak": 4466,
      "▁ogle": 4467,
      "▁lig": 4468,
      "▁bugunun": 4469,
      "▁mel": 4470,
      "▁tey": 4471,
      "ımızda": 4472,
      "▁poz": 4473,
      "▁catal": 4474,
      "▁elem": 4475,
      "▁rakı": 4476,
      "▁tutmak": 4477,
      "lerinin": 4478,
      "▁alır": 4479,
      "▁muhalef": 4480,
      "▁eks": 4481,
      "▁muhtar": 4482,
      "▁kay": 4483,
      "▁verdigim": 4484,
      "▁hakim": 4485,
      "▁kapısından": 4486,
      "▁yak": 4487,
      "▁siddet": 4488,
      "▁yatırım": 4489,
      "▁duvarı": 4490,
      "▁fikir": 4491,
      "▁sermay": 4492,
      "oks": 4493,
      "▁gurult": 4494,
      "▁maz": 4495,
      "7'de": 4496,
      "▁ortagı": 4497,
      "▁diy": 4498,
      "▁netic": 4499,
      "▁verdigini": 4500,
      "▁esk": 4501,
      "▁kup": 4502,
      "▁ikisi": 4503,
      "▁id": 4504,
      "▁ilgilen": 4505,
      "▁hukumetin": 4506,
      "isleri": 4507,
      "astır": 4508,
      "lamıstı": 4509,
      "▁hisse": 4510,
      "▁sada": 4511,
      "▁sebz": 4512,
      "lıs": 4513,
      "ye": 4514,
      "▁muslum": 4515,
      "▁armag": 4516,
      "eklen": 4517,
      "▁piyasası": 4518,
      "▁veriyor": 4519,
      "▁uygar": 4520,
      "▁”": 4521,
      "um": 4522,
      "▁gozlerinin": 4523,
      "▁ediliyor": 4524,
      "▁alısver": 4525,
      "▁eb": 4526,
      "▁dosy": 4527,
      "▁sarap": 4528,
      "ınlık": 4529,
      "▁ayında": 4530,
      "▁ediyorum": 4531,
      "it": 4532,
      "▁tuz": 4533,
      "▁etrafı": 4534,
      "ekkur": 4535,
      "▁art": 4536,
      "▁a.m": 4537,
      "▁icecekleri": 4538,
      "▁kesi": 4539,
      "▁tesisin": 4540,
      "▁tanıs": 4541,
      "▁edil": 4542,
      "▁pahaliydi": 4543,
      "▁%4": 4544,
      "arın": 4545,
      "dıgı": 4546,
      "▁japonya": 4547,
      "tal": 4548,
      "▁harekete": 4549,
      "gel": 4550,
      "▁otobus": 4551,
      "ul": 4552,
      "▁yad": 4553,
      "▁sahili": 4554,
      "▁barın": 4555,
      "▁bahsederim": 4556,
      "▁istir": 4557,
      "▁politik": 4558,
      "▁anlasmaya": 4559,
      "▁zamanlar": 4560,
      "▁derde": 4561,
      "▁ısı": 4562,
      "▁kitapları": 4563,
      "▁kredileri": 4564,
      "▁pil": 4565,
      "▁etraf": 4566,
      "duz": 4567,
      "▁temsilci": 4568,
      "▁asans": 4569,
      "esiz": 4570,
      "ding": 4571,
      "ayım": 4572,
      "▁uyelerinin": 4573,
      "or": 4574,
      "▁komisyon": 4575,
      "▁bıraktı": 4576,
      "▁yılların": 4577,
      "'yi": 4578,
      "gıl": 4579,
      "emiyor": 4580,
      "▁24": 4581,
      "▁kirp": 4582,
      "▁soy": 4583,
      "▁ocagın": 4584,
      "▁aktar": 4585,
      "▁sog": 4586,
      "▁iddi": 4587,
      "▁fedakar": 4588,
      "▁rah": 4589,
      "▁farklı": 4590,
      "▁domates": 4591,
      "▁co.": 4592,
      "▁17": 4593,
      "acagım": 4594,
      "gundu": 4595,
      "▁konser": 4596,
      "▁uzakta": 4597,
      "▁eylem": 4598,
      "▁sikay": 4599,
      "osun": 4600,
      "▁sonrası": 4601,
      "▁yapma": 4602,
      "egini": 4603,
      "▁dolas": 4604,
      "▁doktor": 4605,
      "▁otlar": 4606,
      "set": 4607,
      "▁bey": 4608,
      "imin": 4609,
      "irli": 4610,
      "▁vatand": 4611,
      "ograf": 4612,
      "▁fabrika": 4613,
      "▁cozum": 4614,
      "▁gerdan": 4615,
      "▁nokta": 4616,
      "▁cadde": 4617,
      "▁makal": 4618,
      "eyebilir": 4619,
      "▁franc": 4620,
      "ec": 4621,
      "ayet": 4622,
      "dıgım": 4623,
      "▁husus": 4624,
      "▁koymak": 4625,
      "▁anlasmanın": 4626,
      "▁icerisinde": 4627,
      "▁tari": 4628,
      "lar": 4629,
      "ya": 4630,
      "▁yetkililerine": 4631,
      "▁koydu": 4632,
      "ıklarını": 4633,
      "tif": 4634,
      "▁analistlerin": 4635,
      "uldu": 4636,
      "▁uzmanlar": 4637,
      "ılır": 4638,
      "▁bon": 4639,
      "dın": 4640,
      "▁unsur": 4641,
      "▁seks": 4642,
      "▁yani": 4643,
      "▁hem": 4644,
      "ecegiz": 4645,
      "▁!": 4646,
      "vek": 4647,
      "▁cars": 4648,
      "landıgında": 4649,
      "▁1988": 4650,
      "ıdır": 4651,
      "lara": 4652,
      "▁trafik": 4653,
      "▁ayn": 4654,
      "mesini": 4655,
      "▁amer": 4656,
      "▁hisseye": 4657,
      "lerdi": 4658,
      "ısı": 4659,
      "inize": 4660,
      "▁borsası": 4661,
      "▁performansi": 4662,
      "gunu": 4663,
      "▁kaynagı": 4664,
      "▁paran": 4665,
      "▁baltimore": 4666,
      "hangi": 4667,
      "nam": 4668,
      "kar": 4669,
      "▁sadakat": 4670,
      "▁fena": 4671,
      "▁pazartesi": 4672,
      "▁cun": 4673,
      "emem": 4674,
      "ore": 4675,
      "samba": 4676,
      "▁saglamak": 4677,
      "▁kıymetler": 4678,
      "▁temyiz": 4679,
      "▁muhabbet": 4680,
      "▁st": 4681,
      "iyordum": 4682,
      ".1": 4683,
      "▁kapıdan": 4684,
      "▁satısların": 4685,
      "▁deger": 4686,
      "▁soh": 4687,
      "▁piyasalar": 4688,
      "▁duvar": 4689,
      "gru": 4690,
      "bire": 4691,
      "▁sez": 4692,
      "▁endustr": 4693,
      "▁esya": 4694,
      "▁begenmedim": 4695,
      "▁yapar": 4696,
      "▁uzere": 4697,
      "▁getiri": 4698,
      "▁vakıf": 4699,
      "▁komplek": 4700,
      "lam": 4701,
      "▁sorum": 4702,
      "▁misafirimiz": 4703,
      "▁komisyonları": 4704,
      "▁finans": 4705,
      "▁onunden": 4706,
      "ivers": 4707,
      "▁kalktı": 4708,
      "▁yolun": 4709,
      "▁boyunca": 4710,
      "gım": 4711,
      "▁mavi": 4712,
      "▁gormeye": 4713,
      "▁bocek": 4714,
      "▁geliyordu": 4715,
      "▁eger": 4716,
      "▁miting": 4717,
      "▁agzına": 4718,
      "iste": 4719,
      "emez": 4720,
      "▁fırt": 4721,
      "up": 4722,
      "ından": 4723,
      "2'de": 4724,
      "▁gozlerimi": 4725,
      "▁koye": 4726,
      "▁kamp": 4727,
      "▁harik": 4728,
      "▁gereksin": 4729,
      "unu": 4730,
      "▁olimpiyat": 4731,
      "▁corap": 4732,
      "imiz": 4733,
      "▁saman": 4734,
      "▁gelmis": 4735,
      "▁cumhuriyetciler": 4736,
      "*": 4737,
      "▁hayat": 4738,
      "bar": 4739,
      "ni": 4740,
      "▁gorgu": 4741,
      "▁trans": 4742,
      "▁sozcusu": 4743,
      "▁disk": 4744,
      "sas": 4745,
      "▁odayı": 4746,
      "erince": 4747,
      "▁cogu": 4748,
      "▁kaptan": 4749,
      "mer": 4750,
      "eral": 4751,
      "ag": 4752,
      "▁clev": 4753,
      "▁mantık": 4754,
      "itesi": 4755,
      "▁animasyonlar": 4756,
      "▁ab": 4757,
      "▁duruyor": 4758,
      "▁cocugun": 4759,
      "▁digerleri": 4760,
      "emiyorum": 4761,
      "asyon": 4762,
      "▁kısım": 4763,
      "'si": 4764,
      "kel": 4765,
      "▁gide": 4766,
      "▁arb": 4767,
      "▁fiyatını": 4768,
      "dikleri": 4769,
      "▁ticareti": 4770,
      "▁har": 4771,
      "▁deniz": 4772,
      "▁nitelik": 4773,
      "ani": 4774,
      "itli": 4775,
      "▁duserek": 4776,
      "▁sokak": 4777,
      "▁dusunce": 4778,
      "▁durus": 4779,
      "▁stokları": 4780,
      "landıgını": 4781,
      "▁destekl": 4782,
      "▁eglence": 4783,
      "▁pazarın": 4784,
      "ati": 4785,
      "gur": 4786,
      "anlardan": 4787,
      "▁anası": 4788,
      "▁kim": 4789,
      "▁salon": 4790,
      "▁ban": 4791,
      "▁ufuk": 4792,
      "▁kur": 4793,
      "▁sınıfta": 4794,
      "▁tarla": 4795,
      "▁etmem": 4796,
      "ligini": 4797,
      "▁araba": 4798,
      "▁imkanlari": 4799,
      "▁aydın": 4800,
      "gesi": 4801,
      "▁disinda": 4802,
      "arası": 4803,
      ".0": 4804,
      "sı": 4805,
      "▁azalt": 4806,
      "▁arab": 4807,
      "▁baskalarına": 4808,
      "▁boncuk": 4809,
      "▁azından": 4810,
      "▁varlıgını": 4811,
      "▁ima": 4812,
      "▁vs": 4813,
      "uyorlardı": 4814,
      "▁tad": 4815,
      "▁soylem": 4816,
      "▁petrol": 4817,
      "▁kıvılc": 4818,
      "ımızın": 4819,
      "▁": 4820,
      "▁bekliyor": 4821,
      "▁16": 4822,
      "▁yıld": 4823,
      "▁kadeh": 4824,
      "▁ul": 4825,
      ".": 4826,
      "ına": 4827,
      "islari": 4828,
      "itr": 4829,
      "tıklarını": 4830,
      "▁nas": 4831,
      "▁olmayan": 4832,
      "ard": 4833,
      "▁tatmin": 4834,
      "▁avukatları": 4835,
      "etici": 4836,
      "ise": 4837,
      "▁cag": 4838,
      "▁gecm": 4839,
      "▁gid": 4840,
      "▁halen": 4841,
      "▁des": 4842,
      "▁buldum": 4843,
      "▁islemlerde": 4844,
      "▁altın": 4845,
      "▁cleveland": 4846,
      "▁getirir": 4847,
      "▁mali": 4848,
      "ktan": 4849,
      "▁galiba": 4850,
      "ligin": 4851,
      "▁birden": 4852,
      "ayi": 4853,
      "udu": 4854,
      "▁gecirdi": 4855,
      "▁arkada": 4856,
      "tor": 4857,
      "▁kuf": 4858,
      "▁yalnız": 4859,
      "▁japon": 4860,
      "▁hat": 4861,
      "▁kullan": 4862,
      "▁tat": 4863,
      "▁havaliman": 4864,
      "▁yeniden": 4865,
      "sizdi": 4866,
      "▁aradi": 4867,
      "ılım": 4868,
      "▁acıkladı": 4869,
      "larınız": 4870,
      "▁li": 4871,
      "▁spot": 4872,
      "▁devralma": 4873,
      "▁kumar": 4874,
      "imiza": 4875,
      "▁karın": 4876,
      "▁hizmetleri": 4877,
      "uzları": 4878,
      "▁sesi": 4879,
      "▁annem": 4880,
      "▁okudu": 4881,
      "▁merm": 4882,
      "▁hakkını": 4883,
      "▁kisilik": 4884,
      "▁kıyı": 4885,
      "cılara": 4886,
      "▁kıskanc": 4887,
      "ediye": 4888,
      "▁26": 4889,
      "▁cırp": 4890,
      "▁ugra": 4891,
      "▁reform": 4892,
      "▁havaya": 4893,
      "▁sorular": 4894,
      "▁aslında": 4895,
      "▁ingiliz": 4896,
      "▁yuksekti": 4897,
      "ade": 4898,
      "▁tiyatrosu": 4899,
      "▁dunyasında": 4900,
      "lik": 4901,
      "▁city'den": 4902,
      "▁vuc": 4903,
      "▁geyik": 4904,
      "▁sup": 4905,
      "▁…": 4906,
      "▁muhat": 4907,
      "lerinden": 4908,
      "ısından": 4909,
      "▁yaklasık": 4910,
      "▁havaalanı": 4911,
      "oloji": 4912,
      "ustu": 4913,
      "▁dibinde": 4914,
      "emey": 4915,
      "'n": 4916,
      "yon": 4917,
      "n": 4918,
      "gimiz": 4919,
      "yacag": 4920,
      "▁koylu": 4921,
      "iniz": 4922,
      "arlı": 4923,
      "▁koltuk": 4924,
      "▁yetki": 4925,
      "▁devr": 4926,
      "▁sirketleri": 4927,
      "▁olmadıgı": 4928,
      "iber": 4929,
      "yosu": 4930,
      "▁altına": 4931,
      "▁ediyoruz": 4932,
      "uy": 4933,
      "▁havaal": 4934,
      "orta": 4935,
      "▁anlas": 4936,
      "▁takv": 4937,
      "▁calismas": 4938,
      "▁ayrıl": 4939,
      "▁haklar": 4940,
      "▁malum": 4941,
      "▁beri": 4942,
      "▁grubun": 4943,
      "▁bilinc": 4944,
      "man": 4945,
      "▁tab": 4946,
      "▁olm": 4947,
      "aralı": 4948,
      "▁plan": 4949,
      "enin": 4950,
      "▁olcude": 4951,
      "▁karsılıgında": 4952,
      "ess": 4953,
      "▁teknoloji": 4954,
      "istan": 4955,
      "lerimiz": 4956,
      "▁ayr": 4957,
      "derek": 4958,
      "▁aksamı": 4959,
      "kac": 4960,
      "▁ayagı": 4961,
      "▁krav": 4962,
      "▁gunler": 4963,
      "▁sonucunda": 4964,
      "▁karısının": 4965,
      "▁karayol": 4966,
      "detti": 4967,
      "▁ihracları": 4968,
      "▁sahibi": 4969,
      "▁gecti": 4970,
      "gıcı": 4971,
      "ızlı": 4972,
      "teri": 4973,
      "▁oldugundan": 4974,
      "▁insanları": 4975,
      "▁ciz": 4976,
      "▁ediyorlar": 4977,
      "osu": 4978,
      "▁cıkarmak": 4979,
      "▁sezon": 4980,
      "▁bo": 4981,
      "adaki": 4982,
      "lıga": 4983,
      "'": 4984,
      "▁kom": 4985,
      "▁yardımcısı": 4986,
      "▁benimle": 4987,
      "▁meclis": 4988,
      "tiy": 4989,
      "▁yansıt": 4990,
      "▁fiyat": 4991,
      "▁girer": 4992,
      "▁ula": 4993,
      "▁topu": 4994,
      "▁ayaga": 4995,
      "▁ofis": 4996,
      "▁fiyatlar": 4997,
      "▁geceleri": 4998,
      "▁in": 4999,
      "▁danısmanı": 5000,
      "larını": 5001,
      "▁agır": 5002,
      "ob": 5003,
      "▁iflas": 5004,
      "ıntı": 5005,
      "▁dunya": 5006,
      "▁bulut": 5007,
      "▁nine": 5008,
      "uyordu": 5009,
      "larımı": 5010,
      "lacak": 5011,
      "▁yukseldigini": 5012,
      "▁alısveris": 5013,
      "▁oteki": 5014,
      "▁gures": 5015,
      "▁yoldan": 5016,
      "larımızı": 5017,
      "▁tabanc": 5018,
      "▁tu": 5019,
      "▁em": 5020,
      "▁amel": 5021,
      "ikti": 5022,
      "▁donanma": 5023,
      "engin": 5024,
      "▁emn": 5025,
      "▁herk": 5026,
      "uste": 5027,
      "▁servis": 5028,
      "▁duzey": 5029,
      "umu": 5030,
      "▁yerlerde": 5031,
      "▁%8": 5032,
      "▁alıcı": 5033,
      "forlu": 5034,
      "▁entar": 5035,
      "▁cesitlilik": 5036,
      "▁emtia": 5037,
      "▁mec": 5038,
      "adır": 5039,
      "▁heves": 5040,
      "atik": 5041,
      "edef": 5042,
      "dek": 5043,
      "▁sozc": 5044,
      "▁ilgis": 5045,
      "▁yetk": 5046,
      "▁arastır": 5047,
      "▁isleme": 5048,
      "▁geciyor": 5049,
      "▁kuc": 5050,
      "▁sikint": 5051,
      "▁azal": 5052,
      "▁yasay": 5053,
      "▁dosya": 5054,
      "▁kog": 5055,
      "uzin": 5056,
      "▁burc": 5057,
      "9": 5058,
      "▁sob": 5059,
      "▁isten": 5060,
      "▁198": 5061,
      "▁demir": 5062,
      "▁cagr": 5063,
      "▁pur": 5064,
      "▁hayal": 5065,
      "▁vucu": 5066,
      "▁kalmıs": 5067,
      "▁manzara": 5068,
      "ig": 5069,
      "ıl": 5070,
      "ata": 5071,
      "▁ucrete": 5072,
      "▁toplan": 5073,
      "ecegi": 5074,
      "abil": 5075,
      "▁damak": 5076,
      "▁gorunuyor": 5077,
      "▁yapıl": 5078,
      "▁kamu": 5079,
      "▁dondur": 5080,
      "▁iletisim": 5081,
      "▁gezi": 5082,
      "ekti": 5083,
      "▁red": 5084,
      "▁firmanın": 5085,
      "▁aram": 5086,
      "▁piyasaya": 5087,
      "▁kis": 5088,
      "▁ız": 5089,
      "▁harek": 5090,
      "▁borcunu": 5091,
      "▁ken": 5092,
      "▁zevk": 5093,
      "▁aileler": 5094,
      "▁atlanta'dan": 5095,
      "▁gazin": 5096,
      "ılı": 5097,
      "▁elinin": 5098,
      "▁ruzgar": 5099,
      "▁mayıs": 5100,
      "▁cuv": 5101,
      "▁duny": 5102,
      "▁belli": 5103,
      "▁gene": 5104,
      "▁calisanlar": 5105,
      "▁bakıs": 5106,
      "▁ittif": 5107,
      "▁tatil": 5108,
      "▁ong": 5109,
      "▁imaj": 5110,
      "▁kuram": 5111,
      "▁..\"": 5112,
      "▁yazılım": 5113,
      "▁turist": 5114,
      "▁kahram": 5115,
      "▁acik": 5116,
      "▁veri": 5117,
      "▁us": 5118,
      "▁anlamda": 5119,
      "▁eksiklikler": 5120,
      "▁ihtiyar": 5121,
      "▁puana": 5122,
      "▁umud": 5123,
      "▁imza": 5124,
      "▁sını": 5125,
      "▁key": 5126,
      "▁protest": 5127,
      "▁ortamda": 5128,
      "▁coban": 5129,
      "aların": 5130,
      "▁yuzu": 5131,
      "vel": 5132,
      "▁isg": 5133,
      "adde": 5134,
      "rada": 5135,
      "ket": 5136,
      "▁ona": 5137,
      "▁eskiydi": 5138,
      "▁kolon": 5139,
      "▁siy": 5140,
      "▁girdi": 5141,
      "▁cocukluk": 5142,
      "▁samim": 5143,
      "eginden": 5144,
      "32": 5145,
      "▁cift": 5146,
      "▁icinden": 5147,
      "▁yol": 5148,
      "▁sem": 5149,
      "▁perform": 5150,
      "▁dip": 5151,
      "▁ozellikleri": 5152,
      "liy": 5153,
      "idi": 5154,
      "▁topragı": 5155,
      "▁ote": 5156,
      "lıgında": 5157,
      "eviz": 5158,
      "▁bol": 5159,
      "▁gıda": 5160,
      "ısız": 5161,
      "▁ortada": 5162,
      "▁gidi": 5163,
      "▁tec": 5164,
      "▁gecesi": 5165,
      "▁100": 5166,
      "▁tartısma": 5167,
      "lim": 5168,
      "▁endeks": 5169,
      "[MASK]": 5170,
      "▁bildirdi": 5171,
      "▁dunyası": 5172,
      "orlu": 5173,
      "▁ada": 5174,
      "likten": 5175,
      "▁umid": 5176,
      "▁oysa": 5177,
      "▁onlem": 5178,
      "▁duy": 5179,
      "▁stu": 5180,
      "urken": 5181,
      "larındaki": 5182,
      "▁neyse": 5183,
      "reti": 5184,
      "bal": 5185,
      "etr": 5186,
      "▁kenarları": 5187,
      "eceklerini": 5188,
      "▁es": 5189,
      "yıl": 5190,
      "'da": 5191,
      "▁hoc": 5192,
      "▁cares": 5193,
      "▁malzeme": 5194,
      "▁isci": 5195,
      "▁odan": 5196,
      "▁balta": 5197,
      "▁aca": 5198,
      ".5": 5199,
      "▁omr": 5200,
      "▁plaji": 5201,
      "▁egil": 5202,
      "▁zaten": 5203,
      "▁bir": 5204,
      "aj": 5205,
      "▁peynir": 5206,
      "▁alb": 5207,
      "lugunun": 5208,
      "nd": 5209,
      "▁senator": 5210,
      "▁etrafına": 5211,
      "▁dua": 5212,
      "▁halı": 5213,
      "▁gunku": 5214,
      "v": 5215,
      "▁acıga": 5216,
      "▁yorgunluk": 5217,
      "▁kanaat": 5218,
      "\"": 5219,
      "▁vide": 5220,
      "digi": 5221,
      "▁vergi": 5222,
      "leyiciler": 5223,
      "azla": 5224,
      "eyin": 5225,
      "lıc": 5226,
      "meleri": 5227,
      "▁araz": 5228,
      "▁mudahal": 5229,
      "▁kilo": 5230,
      "daydi": 5231,
      "agını": 5232,
      "▁gibiydi": 5233,
      "▁gozden": 5234,
      "▁40": 5235,
      "oj": 5236,
      "▁mul": 5237,
      "tih": 5238,
      "van": 5239,
      "ın": 5240,
      "ost": 5241,
      "▁guney": 5242,
      "5'": 5243,
      "▁olumu": 5244,
      "▁moda": 5245,
      "▁yoksa": 5246,
      "▁kalacak": 5247,
      "▁mutlu": 5248,
      "▁t": 5249,
      "▁min": 5250,
      "▁e": 5251,
      "▁los": 5252,
      "▁yılında": 5253,
      "▁21": 5254,
      "▁kuv": 5255,
      "▁faaliyetleri": 5256,
      "▁vakt": 5257,
      "▁taraftar": 5258,
      "▁mezar": 5259,
      "▁yakin": 5260,
      "▁sav": 5261,
      "▁devir": 5262,
      "itraj": 5263,
      "ol": 5264,
      "▁kesim": 5265,
      "▁cumhuriyetci": 5266,
      "▁uzum": 5267,
      "lemis": 5268,
      "ong": 5269,
      "▁batı": 5270,
      "▁kimsenin": 5271,
      "▁fikri": 5272,
      "us": 5273,
      "▁odasına": 5274,
      "▁yaptirmadim": 5275,
      "▁toplant": 5276,
      "▁isbirligi": 5277,
      "▁kot": 5278,
      "▁yastık": 5279,
      "ılıyor": 5280,
      "▁amerikalılar": 5281,
      "/2": 5282,
      "▁indir": 5283,
      "▁terbiye": 5284,
      "ogu": 5285,
      "▁hun": 5286,
      "gam": 5287,
      "▁bolum": 5288,
      "▁r": 5289,
      "▁komisyonu": 5290,
      "tlu": 5291,
      "▁dısarı": 5292,
      "▁yuk": 5293,
      "dan": 5294,
      "▁masa": 5295,
      "▁istek": 5296,
      "▁suru": 5297,
      "▁bundan": 5298,
      "adan": 5299,
      "%": 5300,
      "▁kenar": 5301,
      "mıslar": 5302,
      "alan": 5303,
      "▁yerlerden": 5304,
      "▁memleket": 5305,
      "▁far": 5306,
      "idir": 5307,
      "▁cem": 5308,
      "▁anlamıyla": 5309,
      "erken": 5310,
      "▁lira": 5311,
      "▁nedeni": 5312,
      "lidir": 5313,
      "▁edip": 5314,
      "▁suy": 5315,
      "▁ismini": 5316,
      "lestir": 5317,
      "enlik": 5318,
      "egen": 5319,
      "▁hanimdi": 5320,
      "leg": 5321,
      "ont": 5322,
      "uya": 5323,
      "ilen": 5324,
      "▁babam": 5325,
      "lardı": 5326,
      "▁portfoy": 5327,
      "▁kalem": 5328,
      "larıma": 5329,
      "▁bazen": 5330,
      "asız": 5331,
      "▁oranını": 5332,
      "▁carsaf": 5333,
      "▁gizli": 5334,
      "▁meh": 5335,
      "▁otur": 5336,
      "▁pesinde": 5337,
      "▁cevap": 5338,
      "▁halef": 5339,
      ")": 5340,
      "▁kasım": 5341,
      "▁otom": 5342,
      "lemeye": 5343,
      "▁park": 5344,
      "▁cez": 5345,
      "▁canı": 5346,
      "ecegim": 5347,
      "▁etme": 5348,
      "sul": 5349,
      "aba": 5350,
      "▁pam": 5351,
      "▁palt": 5352,
      "▁tarihinde": 5353,
      "enek": 5354,
      "emis": 5355,
      "▁tatlilar": 5356,
      "lo": 5357,
      "▁paz": 5358,
      "▁olas": 5359,
      "dug": 5360,
      "▁ayagına": 5361,
      "▁olaylar": 5362,
      "▁dur": 5363,
      "▁kocası": 5364,
      "▁gereken": 5365,
      "▁gune": 5366,
      "▁utanc": 5367,
      "▁gidiyor": 5368,
      "▁yanımda": 5369,
      "▁goruyor": 5370,
      "bul": 5371,
      "▁yetenek": 5372,
      "tikce": 5373,
      "“": 5374,
      "▁gerc": 5375,
      "▁doları'ndan": 5376,
      "tiv": 5377,
      "div": 5378,
      "▁oteldi": 5379,
      "▁saatlerde": 5380,
      "mıstım": 5381,
      "▁icimden": 5382,
      "▁sap": 5383,
      "ro": 5384,
      "raz": 5385,
      "▁zayifti": 5386,
      "▁asl": 5387,
      "▁alk": 5388,
      "▁hatun": 5389,
      "▁ho": 5390,
      "▁bunları": 5391,
      "daydı": 5392,
      "▁bakıyor": 5393,
      "▁mesafe": 5394,
      "▁dahil": 5395,
      "▁teror": 5396,
      "yse": 5397,
      "▁dolandır": 5398,
      "elerle": 5399,
      "▁genellikle": 5400,
      "▁eglen": 5401,
      "ington": 5402,
      "▁pla": 5403,
      "▁gununun": 5404,
      "▁giris": 5405,
      "lenen": 5406,
      "▁ataturk": 5407,
      "▁temizligi": 5408,
      "apon": 5409,
      "▁uste": 5410,
      "▁made": 5411,
      "▁sayg": 5412,
      "▁insanın": 5413,
      "▁oner": 5414,
      "lerimizi": 5415,
      "▁yazarı": 5416,
      "▁kurumlar": 5417,
      "▁cocugu": 5418,
      "ıcılık": 5419,
      "▁ebeveyn": 5420,
      "ırtı": 5421,
      "▁kanadı": 5422,
      "▁tutum": 5423,
      "ep": 5424,
      "▁sirketi": 5425,
      "▁uygulam": 5426,
      "▁vir": 5427,
      "▁sapka": 5428,
      "▁uluslararası": 5429,
      "▁kendis": 5430,
      "▁charlotte": 5431,
      "▁siz": 5432,
      "▁kapasitesi": 5433,
      "▁sefer": 5434,
      "▁bakan": 5435,
      "▁adina": 5436,
      "▁bom": 5437,
      "c": 5438,
      "▁kuvvetleri": 5439,
      "▁ortaklık": 5440,
      "▁duzeyde": 5441,
      "▁imparator": 5442,
      "▁kurulusu": 5443,
      "▁mani": 5444,
      "stım": 5445,
      "▁mun": 5446,
      "▁kıl": 5447,
      "▁sanayi": 5448,
      "▁gulums": 5449,
      "▁ekim": 5450,
      "▁korum": 5451,
      "▁havuzlari": 5452,
      "▁kurulus": 5453,
      "▁senin": 5454,
      "asın": 5455,
      "▁baskı": 5456,
      "▁yoneticileri": 5457,
      "▁teker": 5458,
      "erdi": 5459,
      "▁kelim": 5460,
      "▁cihaz": 5461,
      "▁oldugu": 5462,
      "▁baska": 5463,
      "▁zek": 5464,
      "▁baslarını": 5465,
      "▁geldigini": 5466,
      "▁kesif": 5467,
      "▁dugun": 5468,
      "▁aramız": 5469,
      "▁baslık": 5470,
      "▁ilgisi": 5471,
      "▁fransız": 5472,
      "atli": 5473,
      "▁felaket": 5474,
      "▁yık": 5475,
      "ektedir": 5476,
      "▁sendik": 5477,
      "▁cıkar": 5478,
      "tıg": 5479,
      "mustum": 5480,
      "▁koltuga": 5481,
      "▁olar": 5482,
      "▁sey": 5483,
      "▁muam": 5484,
      "▁yasamak": 5485,
      "▁ası": 5486,
      "▁yagı": 5487,
      "▁tesis": 5488,
      "▁kola": 5489,
      "▁namaz": 5490,
      "▁proj": 5491,
      "▁annesi": 5492,
      "▁korku": 5493,
      "inleri": 5494,
      "▁harikaydi": 5495,
      "▁aracları": 5496,
      "▁banyosu": 5497,
      "▁sırtını": 5498,
      "▁sonda": 5499,
      "ıcı": 5500,
      "▁lis": 5501,
      "istiri": 5502,
      "▁dr": 5503,
      "▁konforu": 5504,
      "▁vap": 5505,
      "▁olmadi": 5506,
      "▁uzat": 5507,
      "▁kahvaltı": 5508,
      "▁anlam": 5509,
      "▁vicdan": 5510,
      "▁kitapta": 5511,
      "▁olasılık": 5512,
      "▁teminat": 5513,
      "▁gal": 5514,
      "ali": 5515,
      "izin": 5516,
      "phia": 5517,
      "▁degil": 5518,
      "kez": 5519,
      "rut": 5520,
      "▁bodr": 5521,
      "▁kart": 5522,
      "▁af": 5523,
      "aga": 5524,
      "▁yuruy": 5525,
      "0'da": 5526,
      "leti": 5527,
      "▁kıymet": 5528,
      "▁tenis": 5529,
      "adı": 5530,
      "▁dıs": 5531,
      "▁lakin": 5532,
      "▁ede": 5533,
      "▁uzman": 5534,
      "▁aileye": 5535,
      "▁yanında": 5536,
      "▁rezervasyon": 5537,
      "▁kotuydu": 5538,
      "ebil": 5539,
      "▁kes": 5540,
      "▁mo": 5541,
      "▁caba": 5542,
      "▁boya": 5543,
      "▁kıza": 5544,
      "▁intih": 5545,
      "▁onayına": 5546,
      "▁dustu": 5547,
      "▁14": 5548,
      "▁uyustur": 5549,
      "▁arkasına": 5550,
      "▁rapor": 5551,
      "lanı": 5552,
      "isle": 5553,
      "▁davaya": 5554,
      "▁kir": 5555,
      "▁annemin": 5556,
      "▁halde": 5557,
      "▁pilot": 5558,
      "▁yonde": 5559,
      "▁lar": 5560,
      "lemesi": 5561,
      "medig": 5562,
      "▁satın": 5563,
      "'na": 5564,
      "iyon": 5565,
      "▁calisanlari": 5566,
      "satı": 5567,
      "▁univers": 5568,
      "han": 5569,
      "▁angeles": 5570,
      "▁roman": 5571,
      "▁buy": 5572,
      "ond": 5573,
      "▁kapalı": 5574,
      "▁havayollarında": 5575,
      "▁halkın": 5576,
      "▁seviyesine": 5577,
      "olis": 5578,
      "gisi": 5579,
      "▁balayi": 5580,
      "os": 5581,
      "iss": 5582,
      "▁personellerin": 5583,
      "▁saglam": 5584,
      "▁tan": 5585,
      "▁ogleden": 5586,
      "menin": 5587,
      "▁hastan": 5588,
      "▁gercekten": 5589,
      "▁zev": 5590,
      "▁sı": 5591,
      "turdu": 5592,
      "▁def": 5593,
      "▁yagmur": 5594,
      "▁tarafında": 5595,
      "▁yarısından": 5596,
      "▁burnu": 5597,
      "▁sig": 5598,
      "mes": 5599,
      "tek": 5600,
      "vet": 5601,
      "▁dig": 5602,
      "▁acılıs": 5603,
      "▁yasamı": 5604,
      "▁eleman": 5605,
      "▁bugune": 5606,
      "▁ener": 5607,
      "▁guzelligi": 5608,
      "▁hedef": 5609,
      "▁hesap": 5610,
      "▁bulur": 5611,
      "▁bl": 5612,
      "▁kaygı": 5613,
      "▁sekiz": 5614,
      "lıkta": 5615,
      "▁dusunur": 5616,
      "▁toprak": 5617,
      "▁bal": 5618,
      "isah": 5619,
      "▁sorumluluk": 5620,
      "atist": 5621,
      "▁harc": 5622,
      "▁deng": 5623,
      "▁sohret": 5624,
      "▁payları": 5625,
      "evi": 5626,
      "▁50": 5627,
      "lere": 5628,
      "▁gob": 5629,
      "▁akt": 5630,
      "▁dug": 5631,
      "uslar": 5632,
      "▁odak": 5633,
      "▁islemler": 5634,
      "▁mu": 5635,
      "▁asagı": 5636,
      "il": 5637,
      "▁yurt": 5638,
      "▁pittsburgh'tan": 5639,
      "▁uyan": 5640,
      "▁cıkıyor": 5641,
      "▁rakib": 5642,
      "▁amerikan": 5643,
      "ana": 5644,
      "ca": 5645,
      "▁atılım": 5646,
      "▁of": 5647,
      "ates": 5648,
      "ebilirim": 5649,
      "▁lider": 5650,
      "▁konumundan": 5651,
      "unluk": 5652,
      "esil": 5653,
      "▁diyor": 5654,
      "▁tıras": 5655,
      "▁1\\/": 5656,
      "▁siper": 5657,
      "ıga": 5658,
      "▁degeri": 5659,
      "▁turk": 5660,
      "iri": 5661,
      "▁tabl": 5662,
      "imizi": 5663,
      "▁send": 5664,
      "▁kanı": 5665,
      "▁sakin": 5666,
      "▁kı": 5667,
      "▁deneme": 5668,
      "da": 5669,
      "▁viz": 5670,
      "▁ayır": 5671,
      "▁ici": 5672,
      "ento": 5673,
      "▁misiniz": 5674,
      "▁acıklama": 5675,
      "▁og": 5676,
      "▁evlerinin": 5677,
      "▁piy": 5678,
      "▁koz": 5679,
      "▁mem": 5680,
      "▁giz": 5681,
      "▁benzin": 5682,
      "gal": 5683,
      "▁tabiat": 5684,
      "▁deve": 5685,
      "▁meclisi": 5686,
      "▁yerinden": 5687,
      "iligin": 5688,
      "▁seyirci": 5689,
      "lenin": 5690,
      "▁etrafa": 5691,
      "▁nefret": 5692,
      "gını": 5693,
      "ları": 5694,
      "▁hucr": 5695,
      "▁sauna": 5696,
      "cagız": 5697,
      "▁katana": 5698,
      "anmıs": 5699,
      "od": 5700,
      "▁grupları": 5701,
      "▁haberi": 5702,
      "▁geminin": 5703,
      "▁res": 5704,
      "▁liderleri": 5705,
      "ugunun": 5706,
      "lamaya": 5707,
      "▁basladım": 5708,
      "▁tered": 5709,
      "ısık": 5710,
      "▁ucusunda": 5711,
      "▁ailenin": 5712,
      "▁adı": 5713,
      "▁istih": 5714,
      "▁sponsor": 5715,
      "lıgıyla": 5716,
      "▁verdigi": 5717,
      "▁ruz": 5718,
      "▁dolarlık": 5719,
      "d": 5720,
      "▁pencer": 5721,
      "men": 5722,
      "ons": 5723,
      "▁hissenin": 5724,
      "▁olum": 5725,
      "▁rol": 5726,
      "eleri": 5727,
      "▁cogunluk": 5728,
      "din": 5729,
      "▁boyun": 5730,
      "tısı": 5731,
      "▁sac": 5732,
      "'tan": 5733,
      "onra": 5734,
      "izm": 5735,
      "▁kaldır": 5736,
      "▁kalmadı": 5737,
      "▁aralık": 5738,
      "lip": 5739,
      "▁ucaga": 5740,
      "▁kendim": 5741,
      "▁puandan": 5742,
      "▁uyusturucu": 5743,
      "leye": 5744,
      "her": 5745,
      "▁misafir": 5746,
      "ersiz": 5747,
      "▁mesaf": 5748,
      "9'a": 5749,
      "▁bilgilendir": 5750,
      "tıkları": 5751,
      "ital": 5752,
      "diginde": 5753,
      "▁ortalama": 5754,
      "▁cark": 5755,
      "▁rehberlik": 5756,
      "arı": 5757,
      "▁bakın": 5758,
      "▁dogal": 5759,
      "▁bilin": 5760,
      "▁2": 5761,
      "▁--": 5762,
      "▁likid": 5763,
      "▁lek": 5764,
      "▁egitim": 5765,
      "▁pr": 5766,
      "▁anayasa": 5767,
      "▁tarife": 5768,
      "▁once": 5769,
      "▁haftada": 5770,
      "ian": 5771,
      "alarının": 5772,
      "▁anlat": 5773,
      "▁cukur": 5774,
      "▁dunyayı": 5775,
      "▁bununla": 5776,
      "sarak": 5777,
      "▁hafta": 5778,
      "bin": 5779,
      "▁isterim": 5780,
      "▁ba": 5781,
      "▁anahtar": 5782,
      "▁yaptı": 5783,
      "meler": 5784,
      "▁iyiye": 5785,
      "isini": 5786,
      "cak": 5787,
      "▁hac": 5788,
      "▁hanima": 5789,
      "▁merkez": 5790,
      "▁part": 5791,
      "▁saclarını": 5792,
      "▁duygular": 5793,
      "▁ak": 5794,
      "▁edep": 5795,
      "▁alay": 5796,
      "▁contin": 5797,
      "amaları": 5798,
      "▁mis": 5799,
      "▁listel": 5800,
      "ite": 5801,
      "inler": 5802,
      "▁yildizli": 5803,
      "▁depremin": 5804,
      "000": 5805,
      "▁belgeleri": 5806,
      "▁kalk": 5807,
      "▁tesebbus": 5808,
      "▁denver": 5809,
      "▁ekl": 5810,
      "▁m": 5811,
      "▁makam": 5812,
      "▁ucuslarının": 5813,
      "▁oyunu": 5814,
      "▁tura": 5815,
      "▁olmasını": 5816,
      "▁istatist": 5817,
      "▁borsası'nda": 5818,
      "fı": 5819,
      "▁muzik": 5820,
      "▁yapının": 5821,
      "ydı": 5822,
      "/": 5823,
      "▁dokun": 5824,
      "▁acıgı": 5825,
      "▁bek": 5826,
      "▁yatak": 5827,
      "inlik": 5828,
      "▁ana": 5829,
      "▁turu": 5830,
      "larım": 5831,
      "▁konuda": 5832,
      "▁abla": 5833,
      "▁pittsburgh'a": 5834,
      "mki": 5835,
      "alı": 5836,
      "▁mevcut": 5837,
      "▁ettik": 5838,
      "▁por": 5839,
      "▁bank": 5840,
      "▁tap": 5841,
      "▁seftali": 5842,
      "▁badem": 5843,
      "▁test": 5844,
      "ardı": 5845,
      "elle": 5846,
      "▁ayından": 5847,
      "▁ayda": 5848,
      "▁kayıplar": 5849,
      "▁cont": 5850,
      "▁palto": 5851,
      "▁sozlesmesi": 5852,
      "ıb": 5853,
      "▁yuzey": 5854,
      "▁yola": 5855,
      "▁cekir": 5856,
      "▁birimi": 5857,
      "▁ulasılamadı": 5858,
      "om": 5859,
      "mesi": 5860,
      "▁istedig": 5861,
      "▁dolar": 5862,
      "▁zen": 5863,
      "kil": 5864,
      "tı": 5865,
      "▁atese": 5866,
      "▁eksiklik": 5867,
      "▁oyun": 5868,
      "▁sigort": 5869,
      "▁turb": 5870,
      "▁oranında": 5871,
      "▁soze": 5872,
      "gec": 5873,
      "kk": 5874,
      "inden": 5875,
      "iyor": 5876,
      "▁makine": 5877,
      "▁mail": 5878,
      "▁yerini": 5879,
      "▁kıv": 5880,
      "▁sakız": 5881,
      "muz": 5882,
      "▁evinde": 5883,
      "▁``": 5884,
      "▁istifade": 5885,
      "▁bors": 5886,
      "urk": 5887,
      "ledi": 5888,
      "▁.": 5889,
      "▁istiyorum": 5890,
      "▁anlasma": 5891,
      "arip": 5892,
      "▁yapan": 5893,
      "▁mer": 5894,
      "▁31": 5895,
      "mak": 5896,
      "▁bas": 5897,
      "▁fak": 5898,
      "▁bayr": 5899,
      "▁gucu": 5900,
      "▁gerekse": 5901,
      "lardan": 5902,
      "&": 5903,
      "▁azınlık": 5904,
      "▁tencer": 5905,
      "▁yolu": 5906,
      "attı": 5907,
      "▁yontem": 5908,
      "▁esit": 5909,
      "uyordum": 5910,
      "▁ot": 5911,
      "liler": 5912,
      "▁bekledi": 5913,
      "▁katılım": 5914,
      "0": 5915,
      "ıda": 5916,
      "▁$'a": 5917,
      "▁tecru": 5918,
      "ci": 5919,
      "▁yerlere": 5920,
      "unun": 5921,
      "▁balt": 5922,
      "▁beydi": 5923,
      "▁istihdam": 5924,
      "▁dost": 5925,
      "▁ucret": 5926,
      "ediyor": 5927,
      "▁buyuk": 5928,
      "asıl": 5929,
      "▁tahıl": 5930,
      "▁satısları": 5931,
      "▁renk": 5932,
      "▁ates": 5933,
      "▁servisi": 5934,
      "yı": 5935,
      "▁vucud": 5936,
      "ecekti": 5937,
      "▁dey": 5938,
      "ere": 5939,
      "▁sozlesme": 5940,
      "odu": 5941,
      "▁kızı": 5942,
      "▁coz": 5943,
      "lum": 5944,
      "aliforn": 5945,
      "aren": 5946,
      "legi": 5947,
      "▁ekibi": 5948,
      "mıyor": 5949,
      "▁pabuc": 5950,
      "▁davr": 5951,
      "▁prosed": 5952,
      "odr": 5953,
      "▁veg": 5954,
      "▁jaguar": 5955,
      "▁yurur": 5956,
      "▁yarım": 5957,
      "▁nok": 5958,
      "▁titr": 5959,
      "▁seyinden": 5960,
      "▁sahibinin": 5961,
      "▁ihr": 5962,
      "▁ayni": 5963,
      "▁rehberimiz": 5964,
      "▁calısmaları": 5965,
      "▁olc": 5966,
      "▁nef": 5967,
      "irdi": 5968,
      "egin": 5969,
      "sen": 5970,
      "lenme": 5971,
      "▁nevi": 5972,
      "yet": 5973,
      "▁cop": 5974,
      "dı": 5975,
      "▁manz": 5976,
      "era": 5977,
      "det": 5978,
      "▁dibine": 5979,
      "uyoruz": 5980,
      "vas": 5981,
      "▁icki": 5982,
      "▁meslek": 5983,
      "▁bec": 5984,
      "ev": 5985,
      "▁sistem": 5986,
      "ede": 5987,
      "isinin": 5988,
      "▁emr": 5989,
      "isi": 5990,
      "aret": 5991,
      "ex": 5992,
      "▁ut": 5993,
      "kten": 5994,
      "▁salonda": 5995,
      "▁kahvalt": 5996,
      "▁gunesin": 5997,
      "mesinden": 5998,
      "ib": 5999,
      "▁huy": 6000,
      "0'": 6001,
      "ımları": 6002,
      "▁%2": 6003,
      "▁vucudu": 6004,
      "▁iskel": 6005,
      "▁bulundugu": 6006,
      "▁normal": 6007,
      "▁ayag": 6008,
      "eri": 6009,
      "▁karsısında": 6010,
      "▁olmasa": 6011,
      "▁karg": 6012,
      "▁200": 6013,
      "▁45": 6014,
      "h": 6015,
      "▁mutf": 6016,
      "dikten": 6017,
      "yız": 6018,
      "aki": 6019,
      "▁halka": 6020,
      "▁fan": 6021,
      "▁hayran": 6022,
      "▁emeklilik": 6023,
      "▁posta": 6024,
      "▁beb": 6025,
      "acagız": 6026,
      "▁halat": 6027,
      "at": 6028,
      "alle": 6029,
      "iledi": 6030,
      "▁bilgis": 6031,
      "asını": 6032,
      "▁dusuncelerini": 6033,
      "tig": 6034,
      "▁hev": 6035,
      "▁endust": 6036,
      "▁aldım": 6037,
      "▁kısm": 6038,
      "ır": 6039,
      "▁isver": 6040,
      "3": 6041,
      "mli": 6042,
      "▁yonuyle": 6043,
      "emizin": 6044,
      "▁cic": 6045,
      "▁hurriyet": 6046,
      "den": 6047,
      "▁etkisini": 6048,
      "▁bunların": 6049,
      "▁arac": 6050,
      "▁muhtemelen": 6051,
      "izdi": 6052,
      "▁prop": 6053,
      "acaklarını": 6054,
      "erek": 6055,
      "erans": 6056,
      "▁hazir": 6057,
      "▁tahviller": 6058,
      "org": 6059,
      "siye": 6060,
      "▁tahsil": 6061,
      "uyorum": 6062,
      "▁tercih": 6063,
      "▁guvenlik": 6064,
      "▁bahce": 6065,
      "▁seri": 6066,
      "▁cesit": 6067,
      "▁yasak": 6068,
      "▁agacı": 6069,
      "▁tasarım": 6070,
      "ılıga": 6071,
      "▁ayrı": 6072,
      "▁kullanım": 6073,
      "▁nak": 6074,
      "▁zaf": 6075,
      "▁olup": 6076,
      "▁atlar": 6077,
      "▁analistler": 6078,
      "dar": 6079,
      "▁gosteriyor": 6080,
      "▁aktarmalı": 6081,
      "▁arzu": 6082,
      "▁basını": 6083,
      "'y": 6084,
      "▁partisi": 6085,
      "▁ucuza": 6086,
      "▁uygulama": 6087,
      "eyaz": 6088,
      "▁mulk": 6089,
      "▁sahne": 6090,
      "kon": 6091,
      "art": 6092,
      "▁23": 6093,
      "▁j": 6094,
      "▁ilac": 6095,
      "▁denver'e": 6096,
      "▁bizi": 6097,
      "▁kusku": 6098,
      "▁ekipman": 6099,
      "▁basımı": 6100,
      "▁dolardan": 6101,
      "▁edecek": 6102,
      "▁gozleri": 6103,
      "▁adayı": 6104,
      "▁super": 6105,
      "▁zorluk": 6106,
      "▁sekreteri": 6107,
      "▁phoenix": 6108,
      "▁salonun": 6109,
      "▁ch": 6110,
      "▁bulas": 6111,
      "isine": 6112,
      "net": 6113,
      "▁olac": 6114,
      "ile": 6115,
      "▁egit": 6116,
      "▁paranın": 6117,
      "▁gogus": 6118,
      "▁haz": 6119,
      "▁tavuk": 6120,
      "▁iddiaları": 6121,
      "▁kalb": 6122,
      "▁faktor": 6123,
      "▁basıma": 6124,
      "▁tam": 6125,
      "▁alanda": 6126,
      "▁kimse": 6127,
      "lıların": 6128,
      "▁vaz": 6129,
      "▁yolunda": 6130,
      "▁milyona": 6131,
      "▁day": 6132,
      "enc": 6133,
      "▁kalkıp": 6134,
      "▁kasabaya": 6135,
      "▁ayaklarını": 6136,
      "▁anal": 6137,
      "▁depo": 6138,
      "dem": 6139,
      "▁uygul": 6140,
      "▁tahk": 6141,
      "▁egilim": 6142,
      "urup": 6143,
      "▁cercev": 6144,
      "▁karn": 6145,
      "▁tasf": 6146,
      "▁francisco": 6147,
      "▁ilc": 6148,
      "yi": 6149,
      "▁dusur": 6150,
      "▁lun": 6151,
      "▁halinde": 6152,
      "▁emir": 6153,
      "▁doları'na": 6154,
      "▁ceket": 6155,
      "▁basamak": 6156,
      "▁ilgili": 6157,
      "mem": 6158,
      "gunluk": 6159,
      "▁personelden": 6160,
      "▁koruma": 6161,
      "umus": 6162,
      "do": 6163,
      "▁rezervasyonu": 6164,
      "iness": 6165,
      "▁varan": 6166,
      "▁cevir": 6167,
      "baz": 6168,
      "▁cev": 6169,
      "▁eve": 6170,
      "▁gencler": 6171,
      "▁cil": 6172,
      "▁direktor": 6173,
      "▁sak": 6174,
      "▁calısanları": 6175,
      "▁airlines": 6176,
      "udur": 6177,
      "▁piyas": 6178,
      "▁erk": 6179,
      "▁eslik": 6180,
      "▁yor": 6181,
      "akal": 6182,
      "▁nufus": 6183,
      "iye": 6184,
      "iyle": 6185,
      "▁isine": 6186,
      "▁komisyonlar": 6187,
      "▁yerles": 6188,
      "▁bagr": 6189,
      "▁uzaktan": 6190,
      "▁miami": 6191,
      "bi": 6192,
      "▁icap": 6193,
      "▁aldıgını": 6194,
      "▁epe": 6195,
      "▁enist": 6196,
      "▁ilgil": 6197,
      "lılıgı": 6198,
      "anı": 6199,
      "▁isle": 6200,
      "▁baglantı": 6201,
      "▁fidan": 6202,
      "▁hissedar": 6203,
      "embe": 6204,
      "▁yuzluydu": 6205,
      "▁yuksek": 6206,
      "▁oyna": 6207,
      "▁karsilik": 6208,
      "▁milliyet": 6209,
      "▁pasa": 6210,
      "▁cocuklug": 6211,
      "▁raporları": 6212,
      "▁tahsis": 6213,
      "▁wash": 6214,
      "▁ok": 6215,
      "maktan": 6216,
      "lat": 6217,
      "eki": 6218,
      "▁topluluk": 6219,
      "▁fiyatları": 6220,
      "▁uc": 6221,
      "les": 6222,
      "lasman": 6223,
      "edigi": 6224,
      "▁sa": 6225,
      "enlere": 6226,
      "em": 6227,
      "▁bosa": 6228,
      "yla": 6229,
      "▁ettiler": 6230,
      "▁defa": 6231,
      "▁muz": 6232,
      "\\/8": 6233,
      "mekte": 6234,
      "▁pes": 6235,
      "▁deyim": 6236,
      "▁kalma": 6237,
      "▁1/": 6238,
      "mı": 6239,
      "azı": 6240,
      "▁kose": 6241,
      "▁bahceye": 6242,
      "▁bagım": 6243,
      "▁ellerinde": 6244,
      "–": 6245,
      "▁etki": 6246,
      "▁kisiler": 6247,
      "▁musait": 6248,
      "▁konusma": 6249,
      "▁tas": 6250,
      "ifti": 6251,
      "ims": 6252,
      "ıldıgında": 6253,
      "lanan": 6254,
      "▁saz": 6255,
      "▁suruyor": 6256,
      "9'un": 6257,
      "▁dikkat": 6258,
      "▁indirim": 6259,
      "▁birlesme": 6260,
      "bet": 6261,
      "▁istedigini": 6262,
      "tanbul": 6263,
      "▁hisseyi": 6264,
      "▁kesinti": 6265,
      "▁calısan": 6266,
      "▁terey": 6267,
      "▁dizi": 6268,
      "▁sise": 6269,
      "▁kimyasal": 6270,
      "▁faz": 6271,
      "▁belge": 6272,
      "▁salınc": 6273,
      "▁tası": 6274,
      "▁amma": 6275,
      "▁degisik": 6276,
      "ındaki": 6277,
      "▁tes": 6278,
      "▁bayrak": 6279,
      "ecilik": 6280,
      "▁mermer": 6281,
      "▁tuv": 6282,
      "▁hisseler": 6283,
      "▁tun": 6284,
      "▁yaln": 6285,
      "yasal": 6286,
      "▁kaydı": 6287,
      "▁ogul": 6288,
      "▁vazif": 6289,
      "▁agz": 6290,
      "▁ofisi": 6291,
      "▁kimseyi": 6292,
      "▁faaliyet": 6293,
      "▁oturma": 6294,
      "▁kisi": 6295,
      "▁edit": 6296,
      "▁gorunum": 6297,
      "▁egem": 6298,
      "kun": 6299,
      "▁sik": 6300,
      "▁edecegini": 6301,
      "▁tır": 6302,
      "▁sınıf": 6303,
      "nun": 6304,
      "avv": 6305,
      "▁doneminde": 6306,
      "▁kent": 6307,
      "▁col": 6308,
      "isler": 6309,
      "ettim": 6310,
      "▁iliskiler": 6311,
      "▁kitabı": 6312,
      "▁sorunları": 6313,
      "▁ihtiyac": 6314,
      "tarak": 6315,
      "▁p": 6316,
      "elerinin": 6317,
      "▁burosu": 6318,
      "▁terz": 6319,
      "▁matem": 6320,
      "▁ifade": 6321,
      "▁etrafını": 6322,
      "▁ade": 6323,
      "▁sertif": 6324,
      "▁organizasyon": 6325,
      "culuk": 6326,
      "▁kims": 6327,
      "▁varlık": 6328,
      "▁kapsamında": 6329,
      "▁surede": 6330,
      "▁komsu": 6331,
      "▁ortal": 6332,
      "▁makaleye": 6333,
      "▁sistemini": 6334,
      "▁satıslara": 6335,
      "▁detay": 6336,
      "▁sistemi": 6337,
      "alar": 6338,
      "▁onde": 6339,
      "▁ekonomist": 6340,
      "▁yuzune": 6341,
      "▁h": 6342,
      "▁yeten": 6343,
      "ecekler": 6344,
      "▁demokrasi": 6345,
      "▁fazlasını": 6346,
      "▁fasulye": 6347,
      "▁ustunde": 6348,
      "▁duyuru": 6349,
      "▁bus": 6350,
      "▁ayar": 6351,
      "▁prenses": 6352,
      "ma": 6353,
      "▁kacak": 6354,
      "▁bakım": 6355,
      "apark": 6356,
      "▁transfer": 6357,
      "▁inceleme": 6358,
      "▁yokus": 6359,
      "▁lafı": 6360,
      "kilerin": 6361,
      "▁milleti": 6362,
      "▁potansiyel": 6363,
      "▁sembol": 6364,
      "▁ongoru": 6365,
      "li": 6366,
      "diginden": 6367,
      "▁gunun": 6368,
      "▁ney": 6369,
      "▁yab": 6370,
      "▁1": 6371,
      "0.": 6372,
      "▁ucusunun": 6373,
      "▁metr": 6374,
      "▁tamam": 6375,
      "ını": 6376,
      "▁otek": 6377,
      "eticiler": 6378,
      "acılara": 6379,
      "▁pek": 6380,
      "▁efendi": 6381,
      "▁konusunda": 6382,
      "▁basarısız": 6383,
      "▁vermeye": 6384,
      "▁ısrar": 6385,
      "▁arkadasım": 6386,
      "tırma": 6387,
      "sel": 6388,
      "▁dısisleri": 6389,
      "▁yardımcı": 6390,
      "▁fel": 6391,
      "▁kavanoz": 6392,
      "▁bitir": 6393,
      "▁personel": 6394,
      "inci": 6395,
      "▁rakam": 6396,
      "▁sozu": 6397,
      "▁talih": 6398,
      "▁hol": 6399,
      "▁kans": 6400,
      "▁sandaly": 6401,
      "ılıgını": 6402,
      "▁elini": 6403,
      "oyu": 6404,
      "▁uy": 6405,
      "▁gogs": 6406,
      "▁yılın": 6407,
      "▁ısıgı": 6408,
      "piyat": 6409,
      "▁itaat": 6410,
      "lelim": 6411,
      "▁laik": 6412,
      "anti": 6413,
      "ıldıgını": 6414,
      "▁kısk": 6415,
      "gıc": 6416,
      "▁ist": 6417,
      "▁gunlerini": 6418,
      "▁sapk": 6419,
      "▁adını": 6420,
      "▁sever": 6421,
      "ustuk": 6422,
      "▁disip": 6423,
      "cuk": 6424,
      "minin": 6425,
      "▁milyara": 6426,
      "dıg": 6427,
      "▁derd": 6428,
      "▁bolgesi": 6429,
      "▁yılda": 6430,
      "▁ciddi": 6431,
      "▁sep": 6432,
      "▁yorum": 6433,
      "▁gr": 6434,
      "▁tama": 6435,
      "▁gorevli": 6436,
      "▁yakın": 6437,
      "ncak": 6438,
      "▁ismi": 6439,
      "'t": 6440,
      "▁odalari": 6441,
      "aklar": 6442,
      "▁sırtına": 6443,
      "▁soz": 6444,
      "▁sol": 6445,
      "▁ucagın": 6446,
      "o'ya": 6447,
      "▁giriste": 6448,
      "▁oyuna": 6449,
      "▁acıklam": 6450,
      "▁mot": 6451,
      "▁fır": 6452,
      "▁ettigini": 6453,
      "ph": 6454,
      "▁basım": 6455,
      "ek": 6456,
      "lamaz": 6457,
      "▁hani": 6458,
      "atlar": 6459,
      "▁ars": 6460,
      "▁vası": 6461,
      "▁sikinti": 6462,
      "▁mahall": 6463,
      "▁otob": 6464,
      "kul": 6465,
      "▁bira": 6466,
      "▁ob": 6467,
      "▁kursun": 6468,
      "ikler": 6469,
      "▁sof": 6470,
      "▁umit": 6471,
      "▁kopek": 6472,
      "abı": 6473,
      "▁yaptıgı": 6474,
      "▁yenilik": 6475,
      "mac": 6476,
      "met": 6477,
      "▁ord": 6478,
      "▁oglen": 6479,
      "▁fes": 6480,
      "aco": 6481,
      "▁go": 6482,
      "▁not": 6483,
      "▁senetleri": 6484,
      "lemeyi": 6485,
      "rı": 6486,
      "▁olmad": 6487,
      "larini": 6488,
      "▁mucade": 6489,
      "ibar": 6490,
      "▁2'den": 6491,
      "▁sana": 6492,
      "▁ac": 6493,
      "▁dekorasyonu": 6494,
      "▁cevr": 6495,
      "▁kar": 6496,
      "▁birles": 6497,
      "▁tuketim": 6498,
      "▁oglunun": 6499,
      "▁grubu": 6500,
      "▁ipot": 6501,
      "▁satır": 6502,
      "tın": 6503,
      "▁hızlı": 6504,
      "▁juri": 6505,
      "ift": 6506,
      "▁harit": 6507,
      "ukca": 6508,
      "▁baslıyor": 6509,
      "isin": 6510,
      "▁kosede": 6511,
      "eldi": 6512,
      "madi": 6513,
      "▁fakat": 6514,
      "▁takım": 6515,
      "sef": 6516,
      "ah": 6517,
      "tun": 6518,
      "ub": 6519,
      "gınlık": 6520,
      "▁takdirde": 6521,
      "▁tah": 6522,
      "'yı": 6523,
      "▁calismasina": 6524,
      "▁islemleri": 6525,
      "▁tutma": 6526,
      "▁ir": 6527,
      "▁harika": 6528,
      "▁degerinde": 6529,
      "▁reviz": 6530,
      "▁yururluge": 6531,
      "▁asla": 6532,
      "▁politika": 6533,
      "▁ekm": 6534,
      "▁idi": 6535,
      "itler": 6536,
      "▁kuru": 6537,
      "ars": 6538,
      "▁medya": 6539,
      "eyim": 6540,
      "▁bulama": 6541,
      "lıklar": 6542,
      "▁hayret": 6543,
      "lilig": 6544,
      "▁omuz": 6545,
      "▁lobi": 6546,
      "▁olmaz": 6547,
      "▁coluk": 6548,
      "ırdı": 6549,
      "▁sul": 6550,
      "lerce": 6551,
      "▁fonlar": 6552,
      "edi": 6553,
      "▁matematik": 6554,
      "ecekleri": 6555,
      "ırk": 6556,
      "▁beyefendi": 6557,
      "anmak": 6558,
      "tıgında": 6559,
      "▁demektir": 6560,
      "ruk": 6561,
      "▁seyleri": 6562,
      "▁sıra": 6563,
      ".9": 6564,
      "▁seviyede": 6565,
      "dıgın": 6566,
      "▁bolumunde": 6567,
      "alarda": 6568,
      "▁aday": 6569,
      "hu": 6570,
      "▁davul": 6571,
      "tluk": 6572,
      "masında": 6573,
      "▁...": 6574,
      "▁f": 6575,
      "▁sam": 6576,
      "▁iliskileri": 6577,
      "/4'e": 6578,
      "aya": 6579,
      "oya": 6580,
      "▁dogasi": 6581,
      "▁govde": 6582,
      "▁..": 6583,
      "▁fiyatina": 6584,
      "iyi": 6585,
      "son": 6586,
      "▁geli": 6587,
      "ast": 6588,
      "▁heyecan": 6589,
      "iyetine": 6590,
      "▁genis": 6591,
      "▁ham": 6592,
      "▁dal": 6593,
      "▁denizde": 6594,
      "▁kendisine": 6595,
      "▁etmedi": 6596,
      "▁sandık": 6597,
      "▁alem": 6598,
      "▁kasırg": 6599,
      "▁durumdan": 6600,
      "masi": 6601,
      "ud": 6602,
      "ydi": 6603,
      "▁kanal": 6604,
      "▁ceyrek": 6605,
      "▁tav": 6606,
      "ucc": 6607,
      "▁tarl": 6608,
      "▁lam": 6609,
      "▁hiss": 6610,
      "ısın": 6611,
      "emek": 6612,
      ".m": 6613,
      "▁mevzu": 6614,
      "▁gunduz": 6615,
      "8": 6616,
      "▁gomlek": 6617,
      "▁yaklas": 6618,
      "▁kep": 6619,
      "▁hedefleri": 6620,
      "▁care": 6621,
      "▁ziy": 6622,
      "▁oradan": 6623,
      "▁gecit": 6624,
      "▁saatleri": 6625,
      "▁kub": 6626,
      "▁yardimci": 6627,
      "▁kazan": 6628,
      "▁deri": 6629,
      "ation": 6630,
      "▁burası": 6631,
      "▁koridor": 6632,
      "▁yemegi": 6633,
      "kinden": 6634,
      "▁ilham": 6635,
      "[PAD]": 6636,
      "▁bacak": 6637,
      "tr": 6638,
      "ulur": 6639,
      "'nın": 6640,
      "▁bit": 6641,
      "▁piyasanın": 6642,
      "tat": 6643,
      "na": 6644,
      "sınız": 6645,
      "▁muay": 6646,
      "▁ders": 6647,
      "▁odul": 6648,
      "▁senedi": 6649,
      "▁sirketin": 6650,
      "til": 6651,
      "▁olgu": 6652,
      "eler": 6653,
      "▁muda": 6654,
      "lenmis": 6655,
      "onya": 6656,
      "ık": 6657,
      "▁air": 6658,
      "ıcılar": 6659,
      "▁rakip": 6660,
      "▁bulunan": 6661,
      "isk": 6662,
      "▁kaf": 6663,
      "▁pist": 6664,
      "▁hakları": 6665,
      "▁sonrasında": 6666,
      "▁hav": 6667,
      "▁holding": 6668,
      "▁bıc": 6669,
      "▁tedavi": 6670,
      "inizi": 6671,
      "dıgını": 6672,
      "▁pal": 6673,
      "alarını": 6674,
      "▁ga": 6675,
      "▁kenarında": 6676,
      "yabilir": 6677,
      "▁denizi": 6678,
      "ıslı": 6679,
      "▁danısman": 6680,
      "▁sekilde": 6681,
      "▁philadelphia'ya": 6682,
      "▁olduklarını": 6683,
      "▁mily": 6684,
      "▁kav": 6685,
      "▁kaza": 6686,
      "▁vers": 6687,
      "▁gu": 6688,
      "▁otomobil": 6689,
      ">": 6690,
      "bası": 6691,
      "▁kanat": 6692,
      "▁sırtında": 6693,
      "iy": 6694,
      "tum": 6695,
      "ih": 6696,
      "par": 6697,
      "▁cocuklara": 6698,
      "▁ikram": 6699,
      "▁ara": 6700,
      "eda": 6701,
      "▁4'ten": 6702,
      "▁tamamen": 6703,
      "▁eti": 6704,
      "▁muster": 6705,
      "▁yetkisi": 6706,
      "▁tahvili": 6707,
      "▁cit": 6708,
      "▁kurs": 6709,
      "▁icr": 6710,
      "▁gi": 6711,
      "▁davası": 6712,
      "▁muhaf": 6713,
      "▁kazanclar": 6714,
      "▁defter": 6715,
      "etre": 6716,
      "'nden": 6717,
      "lamasını": 6718,
      "▁hattı": 6719,
      "atif": 6720,
      "iyorlar": 6721,
      "▁kisiye": 6722,
      "lının": 6723,
      "▁adamlar": 6724,
      "▁bosluk": 6725,
      "▁z": 6726,
      "▁ancak": 6727,
      "▁milyon": 6728,
      "▁sınıfı": 6729,
      "▁uretimi": 6730,
      "▁atesi": 6731,
      "▁gorus": 6732,
      "▁vat": 6733,
      "[CLS]": 6734,
      "▁plat": 6735,
      "▁yer": 6736,
      "iydi": 6737,
      "makta": 6738,
      "ıcak": 6739,
      "▁ailesi": 6740,
      "ahi": 6741,
      "ikt": 6742,
      "▁fiyatı": 6743,
      "▁ipek": 6744,
      "▁goruntu": 6745,
      "▁8": 6746,
      "imden": 6747,
      "▁gerektigini": 6748,
      "per": 6749,
      "▁cuz": 6750,
      "▁yuzde": 6751,
      "agından": 6752,
      "eliydi": 6753,
      "▁standart": 6754,
      "cılıg": 6755,
      "ilmis": 6756,
      "▁yuzlu": 6757,
      "imizde": 6758,
      "rik": 6759,
      "▁tir": 6760,
      "▁kopru": 6761,
      "tiler": 6762,
      "▁ulk": 6763,
      "▁to": 6764,
      "▁gordum": 6765,
      "ain": 6766,
      "▁hissesini": 6767,
      "▁normaldi": 6768,
      "ger": 6769,
      "▁ayv": 6770,
      "▁plana": 6771,
      "▁cehr": 6772,
      "▁etmeyi": 6773,
      "▁onlar": 6774,
      "▁alıp": 6775,
      "▁icimde": 6776,
      "▁isinden": 6777,
      "lerim": 6778,
      "sın": 6779,
      "▁dusun": 6780,
      "▁herh": 6781,
      "▁zamanda": 6782,
      "ze": 6783,
      "▁sonr": 6784,
      "▁su": 6785,
      "▁ayd": 6786,
      "rsı": 6787,
      "lastı": 6788,
      "▁teklifin": 6789,
      "ibe": 6790,
      "▁faaliyeti": 6791,
      "ıyorsun": 6792,
      "▁kosesinde": 6793,
      "ıyordu": 6794,
      "▁bizde": 6795,
      "anlık": 6796,
      "▁plani": 6797,
      "▁diger": 6798,
      "oz": 6799,
      "inizde": 6800,
      "▁olumlu": 6801,
      "▁magaza": 6802,
      "00'e": 6803,
      "▁oyuncusu": 6804,
      "▁yere": 6805,
      "ımız": 6806,
      "▁programları": 6807,
      "▁olur": 6808,
      "▁yıllardan": 6809,
      "▁calıstı": 6810,
      "▁hou": 6811,
      "un": 6812,
      "▁daglar": 6813,
      "▁etmez": 6814,
      "abilmek": 6815,
      "▁dusuktu": 6816,
      "jik": 6817,
      "▁kesinlikle": 6818,
      "ens": 6819,
      "▁canım": 6820,
      "orm": 6821,
      "gır": 6822,
      "▁fark": 6823,
      "▁faiz": 6824,
      "▁dostu": 6825,
      "▁one": 6826,
      "▁bayram": 6827,
      "leyici": 6828,
      "ların": 6829,
      "▁kere": 6830,
      "▁meb": 6831,
      "erv": 6832,
      "▁kusur": 6833,
      "▁lif": 6834,
      "▁yemeklerinden": 6835,
      "mesine": 6836,
      "cog": 6837,
      "▁tanık": 6838,
      "▁oranla": 6839,
      "lukte": 6840,
      "▁it": 6841,
      "ksa": 6842,
      "▁size": 6843,
      "▁nez": 6844,
      "▁lakırtı": 6845,
      "▁gostergeleri": 6846,
      "ren": 6847,
      "anla": 6848,
      "ınız": 6849,
      "▁etkil": 6850,
      "ledim": 6851,
      "▁sir": 6852,
      "▁arm": 6853,
      "▁oy": 6854,
      "▁psik": 6855,
      "▁aslan": 6856,
      "▁miktarda": 6857,
      "iyetini": 6858,
      "▁ustunden": 6859,
      "▁havayollarının": 6860,
      "ecegini": 6861,
      "imizden": 6862,
      "▁mutlaka": 6863,
      "▁esir": 6864,
      "▁gokyuz": 6865,
      "▁kolunu": 6866,
      "ch": 6867,
      "▁belediye": 6868,
      "sem": 6869,
      "▁talep": 6870,
      "ov": 6871,
      "▁artırmak": 6872,
      "▁dert": 6873,
      "▁ustu": 6874,
      "egor": 6875,
      "(": 6876,
      "▁dolap": 6877,
      "▁olmalı": 6878,
      "l": 6879,
      "alt": 6880,
      "▁ucretin": 6881,
      "▁konuk": 6882,
      "▁camur": 6883,
      "▁kaldırım": 6884,
      "▁okul": 6885,
      "▁ihtil": 6886,
      "eydi": 6887,
      "may": 6888,
      "▁sartları": 6889,
      "eginin": 6890,
      "▁tutarında": 6891,
      "▁seye": 6892,
      "ut": 6893,
      "▁veriyorum": 6894,
      "▁depart": 6895,
      "▁arastırma": 6896,
      "b": 6897,
      "▁denetim": 6898,
      "ank": 6899,
      "▁sarı": 6900,
      "▁yuzunu": 6901,
      "igim": 6902,
      "▁karsılastır": 6903,
      "▁fırsat": 6904,
      "iran": 6905,
      "▁yine": 6906,
      "▁okuy": 6907,
      "▁temizliginden": 6908,
      "▁merkezinde": 6909,
      "▁farkı": 6910,
      "aguar": 6911,
      "▁sakat": 6912,
      "▁hayvan": 6913,
      "▁dok": 6914,
      "larca": 6915,
      "▁mektep": 6916,
      "▁komit": 6917,
      "▁gunu": 6918,
      "impiyat": 6919,
      "▁mir": 6920,
      "▁gazet": 6921,
      "▁karan": 6922,
      "▁iceriyor": 6923,
      "estiri": 6924,
      "▁muk": 6925,
      "▁ilgiliydi": 6926,
      "kları": 6927,
      "▁alak": 6928,
      "▁nedenini": 6929,
      "▁zır": 6930,
      "▁sinyal": 6931,
      "illeri": 6932,
      "▁ren": 6933,
      "abın": 6934,
      "▁butu": 6935,
      "▁kampan": 6936,
      "lesi": 6937,
      "▁yaptirdi": 6938,
      "▁mola": 6939,
      "macılar": 6940,
      "▁istedim": 6941,
      "yan": 6942,
      "medigini": 6943,
      "tu": 6944,
      "▁13": 6945,
      "▁dusunuyorum": 6946,
      "kur": 6947,
      "mustur": 6948,
      "▁anlamı": 6949,
      "▁gercekl": 6950,
      "▁tabii": 6951,
      "larımız": 6952,
      "▁ilan": 6953,
      "▁sessiz": 6954,
      "▁gunden": 6955,
      "▁gog": 6956,
      "larımızın": 6957,
      "sin": 6958,
      "▁uyesi": 6959,
      "▁manev": 6960,
      "▁fi": 6961,
      "▁depremden": 6962,
      "▁torb": 6963,
      "sacak": 6964,
      "alarla": 6965,
      "▁aktivit": 6966,
      "acag": 6967,
      "alık": 6968,
      "tıgı": 6969,
      "▁perde": 6970,
      "lom": 6971,
      "cılar": 6972,
      "▁durumun": 6973,
      "▁ten": 6974,
      "▁kafası": 6975,
      "▁kadının": 6976,
      "▁tanı": 6977,
      "▁?": 6978,
      "edeki": 6979,
      "▁masada": 6980,
      "▁tesh": 6981,
      "▁beklent": 6982,
      "uru": 6983,
      "▁kız": 6984,
      "▁zira": 6985,
      "▁veririm": 6986,
      "▁anla": 6987,
      "▁oldugunu": 6988,
      "▁denge": 6989,
      "▁sınırları": 6990,
      "obil": 6991,
      "▁noktaya": 6992,
      "▁basarılı": 6993,
      "▁gemi": 6994,
      "▁som": 6995,
      "iger": 6996,
      "▁ero": 6997,
      "▁seviye": 6998,
      "▁iceriden": 6999,
      "▁iliski": 7000,
      "luyor": 7001,
      "▁9": 7002,
      "▁cep": 7003,
      "masının": 7004,
      "▁yaklasım": 7005,
      "▁gozlem": 7006,
      "'ta": 7007,
      "▁hacı": 7008,
      "▁yaklasimi": 7009,
      "▁hale": 7010,
      "mos": 7011,
      "▁geleni": 7012,
      "▁edilmesi": 7013,
      "0'a": 7014,
      "dizli": 7015,
      "lag": 7016,
      "lası": 7017,
      "▁parayı": 7018,
      "▁intik": 7019,
      "▁lake": 7020,
      "mamıs": 7021,
      "▁dogrudan": 7022,
      "▁val": 7023,
      "▁eg": 7024,
      "▁hicbiri": 7025,
      "▁basa": 7026,
      "▁iyice": 7027,
      "▁doy": 7028,
      "▁dunyada": 7029,
      "▁kitaplar": 7030,
      "ılıgı": 7031,
      "▁pap": 7032,
      "▁donem": 7033,
      "▁bin": 7034,
      "▁saygı": 7035,
      "makla": 7036,
      "▁durgunluk": 7037,
      "▁olanları": 7038,
      "▁memur": 7039,
      "▁surekli": 7040,
      "enlerin": 7041,
      "en": 7042,
      "▁basarıya": 7043,
      "▁rutubet": 7044,
      "▁ons": 7045,
      "▁%": 7046,
      "▁evlerine": 7047,
      "▁enflasyon": 7048,
      "▁motor": 7049,
      "▁bence": 7050,
      "▁herkes": 7051,
      "▁barıs": 7052,
      "▁seviyesinden": 7053,
      "▁kurdu": 7054,
      "▁port": 7055,
      "▁philadelphia'dan": 7056,
      "▁darbe": 7057,
      "oh": 7058,
      "deki": 7059,
      "▁parcasını": 7060,
      "▁oyunlar": 7061,
      "manlar": 7062,
      "▁yapılandır": 7063,
      "▁ortaya": 7064,
      "▁agacın": 7065,
      "6": 7066,
      "▁apartman": 7067,
      "dukca": 7068,
      "ladıgını": 7069,
      "▁pul": 7070,
      "▁kol": 7071,
      "▁doga": 7072,
      "▁uret": 7073,
      "▁gunes": 7074,
      "▁ogret": 7075,
      "▁yapılanma": 7076,
      "▁turn": 7077,
      "▁uf": 7078,
      "af": 7079,
      "w": 7080,
      "▁geliyor": 7081,
      "tern": 7082,
      "▁karsın": 7083,
      "▁paraları": 7084,
      "iyim": 7085,
      "▁nam": 7086,
      ".8": 7087,
      "acık": 7088,
      "▁cın": 7089,
      "tarı": 7090,
      "ri": 7091,
      "▁numara": 7092,
      "▁supur": 7093,
      "emeye": 7094,
      "▁vagon": 7095,
      "▁sasır": 7096,
      "▁oldum": 7097,
      "'in": 7098,
      "larına": 7099,
      "laması": 7100,
      "▁sarım": 7101,
      "▁kurek": 7102,
      "▁sonuclarını": 7103,
      "▁surdur": 7104,
      "▁sahit": 7105,
      "uzu": 7106,
      "▁gunesi": 7107,
      "ilisi": 7108,
      "▁cuval": 7109,
      "▁anlasmayı": 7110,
      "▁cumhur": 7111,
      "▁kapandı": 7112,
      "▁satım": 7113,
      "▁buc": 7114,
      "izli": 7115,
      "▁basar": 7116,
      "▁gerekiyor": 7117,
      "ums": 7118,
      "▁ambar": 7119,
      "ladı": 7120,
      "▁iskem": 7121,
      "▁adamları": 7122,
      "▁evler": 7123,
      "▁ilgilendiler": 7124,
      "ıstı": 7125,
      "▁bugday": 7126,
      "▁animator": 7127,
      "▁oyuncak": 7128,
      "▁gars": 7129,
      "ıy": 7130,
      "uga": 7131,
      "▁nedir": 7132,
      "▁tezgah": 7133,
      "▁fabr": 7134,
      "▁haklarını": 7135,
      "▁fayda": 7136,
      "▁saga": 7137,
      "lendir": 7138,
      "ten": 7139,
      "▁yanından": 7140,
      "▁ol": 7141,
      "ellikle": 7142,
      "▁hukum": 7143,
      "▁aray": 7144,
      "▁mamafih": 7145,
      "▁kec": 7146,
      "▁nob": 7147,
      "▁gev": 7148,
      "▁bardak": 7149,
      "▁sanatcılar": 7150,
      "igin": 7151,
      "iden": 7152,
      "▁konusmaya": 7153,
      "▁yuze": 7154,
      "▁toplam": 7155,
      "▁sin": 7156,
      "▁duyguları": 7157,
      "▁hatt": 7158,
      "▁calısma": 7159,
      "larımın": 7160,
      "▁galib": 7161,
      "▁ekledi": 7162,
      "▁sahneye": 7163,
      "▁mag": 7164,
      "▁sirketlerinin": 7165,
      "▁sonra": 7166,
      "agi": 7167,
      "dirme": 7168,
      "▁gelecegi": 7169,
      "▁hamur": 7170,
      "▁lazım": 7171,
      "▁sim": 7172,
      "isinde": 7173,
      "▁ihale": 7174,
      "hal": 7175,
      "▁gok": 7176,
      "ustos": 7177,
      "▁yonetiminin": 7178,
      "▁tulum": 7179,
      "lıgımı": 7180,
      "▁muamel": 7181,
      "iti": 7182,
      "▁suları": 7183,
      "▁tasıy": 7184,
      "▁hey": 7185,
      "▁ila": 7186,
      "▁demis": 7187,
      "usunda": 7188,
      "▁karabiber": 7189,
      "▁per": 7190,
      "▁isleri": 7191,
      "▁oldukca": 7192,
      "▁sun": 7193,
      "▁zehir": 7194,
      "▁yarın": 7195,
      "akende": 7196,
      "anıt": 7197,
      "uma": 7198,
      "rak": 7199,
      "▁kagı": 7200,
      "▁gundeme": 7201,
      "bil": 7202,
      "▁sordu": 7203,
      "yacak": 7204,
      "▁petr": 7205,
      "usundan": 7206,
      "▁nit": 7207,
      "ba": 7208,
      "▁nefes": 7209,
      "▁olus": 7210,
      "▁mur": 7211,
      "▁fonları": 7212,
      "▁termal": 7213,
      "▁buna": 7214,
      "▁kuvvet": 7215,
      "mekten": 7216,
      "▁amerikalı": 7217,
      "▁taham": 7218,
      "▁meg": 7219,
      "burgh": 7220,
      "▁raporu": 7221,
      "▁saba": 7222,
      "ıv": 7223,
      "▁tarihi": 7224,
      "▁kapısının": 7225,
      "▁hizmetci": 7226,
      "▁ork": 7227,
      "▁kelimeyle": 7228,
      "▁denizinden": 7229,
      "▁acısı": 7230,
      "▁servet": 7231,
      "▁uyku": 7232,
      "▁tesp": 7233,
      "▁sekret": 7234,
      "▁yonel": 7235,
      "ra": 7236,
      "▁insanların": 7237,
      "▁programı": 7238,
      "q": 7239,
      "▁class": 7240,
      "▁sesleri": 7241,
      "▁kum": 7242,
      "lasıyor": 7243,
      "▁bakır": 7244,
      "▁muhafazak": 7245,
      "umuzun": 7246,
      "▁geceler": 7247,
      "▁6'dan": 7248,
      "▁dag": 7249,
      "▁sonuclar": 7250,
      "▁universite": 7251,
      "▁inanc": 7252,
      "▁stok": 7253,
      "▁gelenek": 7254,
      "▁tez": 7255,
      "▁internet": 7256,
      "amın": 7257,
      "▁usta": 7258,
      "▁kaybetti": 7259,
      "▁gorevini": 7260,
      "ele": 7261,
      "▁pilav": 7262,
      "ayla": 7263,
      "▁personelleri": 7264,
      "▁soyl": 7265,
      "le": 7266,
      "▁cant": 7267,
      "▁katır": 7268,
      "▁market": 7269,
      "klerini": 7270,
      "gili": 7271,
      "▁dus": 7272,
      "lılık": 7273,
      "▁cikol": 7274,
      "▁isk": 7275,
      "▁oranlar": 7276,
      "▁arbitraj": 7277,
      "▁dizgin": 7278,
      "▁nokt": 7279,
      "▁firması": 7280,
      "▁pazarlama": 7281,
      "▁hazır": 7282,
      "▁cevre": 7283,
      "▁onlara": 7284,
      "▁karsılıgı": 7285,
      "enuz": 7286,
      "ılan": 7287,
      "▁girmek": 7288,
      "▁alım": 7289,
      "▁santr": 7290,
      "▁rad": 7291,
      "meyecek": 7292,
      "▁if": 7293,
      "▁28": 7294,
      "▁duyar": 7295,
      "▁asag": 7296,
      "▁endeksi": 7297,
      "▁kolay": 7298,
      "▁evr": 7299,
      "”": 7300,
      "gum": 7301,
      "iyeti": 7302,
      "▁toplumun": 7303,
      "ator": 7304,
      "yuz": 7305,
      "▁sist": 7306,
      "derken": 7307,
      "▁baskanı": 7308,
      "lugu": 7309,
      "mal": 7310,
      "▁kocaman": 7311,
      "▁iktid": 7312,
      "sine": 7313,
      "▁29": 7314,
      "▁yakinlar": 7315,
      "▁efend": 7316,
      "▁bekledigini": 7317,
      "▁ekonom": 7318,
      "▁uzak": 7319,
      "▁komur": 7320,
      "ulu": 7321,
      "▁arasından": 7322,
      "tis": 7323,
      "▁dagdan": 7324,
      "▁baban": 7325,
      "ilerdi": 7326,
      "▁finansman": 7327,
      "ho": 7328,
      "▁insanlar": 7329,
      "▁turuna": 7330,
      "▁soyle": 7331,
      "▁gayr": 7332,
      "▁q": 7333,
      "▁kadro": 7334,
      "▁derin": 7335,
      "▁dolara": 7336,
      "▁olacak": 7337,
      "kleri": 7338,
      "▁gostermek": 7339,
      "▁delik": 7340,
      "▁dostluk": 7341,
      "▁guzel": 7342,
      "▁yel": 7343,
      "▁imal": 7344,
      "mad": 7345,
      "▁diplom": 7346,
      "▁kapanıs": 7347,
      "▁bina": 7348,
      "ine": 7349,
      "’": 7350,
      "▁uygulamaları": 7351,
      "▁mav": 7352,
      "▁sabahın": 7353,
      "eg": 7354,
      "▁kurban": 7355,
      "▁ettig": 7356,
      "▁ket": 7357,
      "▁bahseder": 7358,
      "▁kolu": 7359,
      "°": 7360,
      "▁cograf": 7361,
      "▁kade": 7362,
      "▁yem": 7363,
      "▁kib": 7364,
      "▁insa": 7365,
      "▁cay": 7366,
      "▁carsamba": 7367,
      "▁havuzlar": 7368,
      "▁bakıyordu": 7369,
      "ımda": 7370,
      "▁yollar": 7371,
      "nuz": 7372,
      "▁bun": 7373,
      "▁rek": 7374,
      "▁ortam": 7375,
      "▁sesini": 7376,
      "▁yasında": 7377,
      "masını": 7378,
      "▁devletin": 7379,
      "elerini": 7380,
      "▁niz": 7381,
      "▁fasuly": 7382,
      "▁birini": 7383,
      "ait": 7384,
      "▁kurt": 7385,
      "ekl": 7386,
      "la": 7387,
      "▁oranları": 7388,
      "layan": 7389,
      "▁jandar": 7390,
      "amdan": 7391,
      "lemek": 7392,
      "▁l": 7393,
      "▁icim": 7394,
      "alarım": 7395,
      "▁yont": 7396,
      "▁hizmeti": 7397,
      "▁*": 7398,
      "▁tramvay": 7399,
      "▁torun": 7400,
      "▁milwaukee": 7401,
      "▁hala": 7402,
      "▁kupon": 7403,
      "▁hukmu": 7404,
      "▁havuzun": 7405,
      "ektr": 7406,
      "▁malzemeler": 7407,
      "▁sınır": 7408,
      "▁united": 7409,
      "▁hisselerinin": 7410,
      "▁baskaları": 7411,
      "▁kedi": 7412,
      "▁malı": 7413,
      "kinin": 7414,
      "▁teyz": 7415,
      "agım": 7416,
      "▁cehen": 7417,
      "▁kodu": 7418,
      "amak": 7419,
      "tan": 7420,
      "▁yapmaktan": 7421,
      "▁planlamam": 7422,
      "▁kuz": 7423,
      "iyesi": 7424,
      "madim": 7425,
      "ber": 7426,
      "tansiy": 7427,
      "▁devleti": 7428,
      "▁rekabet": 7429,
      "▁telefon": 7430,
      "▁dar": 7431,
      "▁ardına": 7432,
      "▁havaalanı'nda": 7433,
      "▁cekic": 7434,
      "▁kalite": 7435,
      "▁baskanın": 7436,
      "▁spekulasyon": 7437,
      "▁fatur": 7438,
      "masız": 7439,
      "▁elb": 7440,
      "▁gum": 7441,
      "▁kabuk": 7442,
      "▁kendisini": 7443,
      "agında": 7444,
      "▁diz": 7445,
      "eyen": 7446,
      "▁video": 7447,
      "▁olan": 7448,
      "▁havayolu": 7449,
      "▁beyef": 7450,
      "bus": 7451,
      "▁oz": 7452,
      "▁duv": 7453,
      "ayol": 7454,
      "▁chicag": 7455,
      "aliydi": 7456,
      "▁okuyucu": 7457,
      "▁endek": 7458,
      "▁havalim": 7459,
      "▁dek": 7460,
      "▁oakland": 7461,
      "▁gur": 7462,
      "1'de": 7463,
      "▁seferinde": 7464,
      "▁parasını": 7465,
      "▁personeller": 7466,
      "▁carp": 7467,
      "use": 7468,
      "▁denver'den": 7469,
      "▁uzay": 7470,
      "▁gazete": 7471,
      "▁dokuz": 7472,
      "lay": 7473,
      "▁gozluk": 7474,
      "arlan": 7475,
      "▁sebebi": 7476,
      "▁bizimle": 7477,
      "▁katıl": 7478,
      "▁ulastı": 7479,
      "▁hamal": 7480,
      "▁bulmaya": 7481,
      "▁kagıtları": 7482,
      "▁elbet": 7483,
      "▁oksur": 7484,
      "▁sehrin": 7485,
      "▁temin": 7486,
      "▁superdi": 7487,
      "▁sevk": 7488,
      "▁yasamını": 7489,
      "▁dusuk": 7490,
      "▁buny": 7491,
      "▁bi": 7492,
      "unc": 7493,
      "▁pazarlık": 7494,
      "▁gelirleri": 7495,
      "▁hakem": 7496,
      "▁sask": 7497,
      "▁ekonomi": 7498,
      "▁yıllar": 7499,
      "▁kardes": 7500,
      "▁kumas": 7501,
      "dıkları": 7502,
      "▁hukumdar": 7503,
      "▁tal": 7504,
      "▁atlanta'ya": 7505,
      "▁kavg": 7506,
      "▁nelerdir": 7507,
      "▁cocuklarını": 7508,
      "▁fabrik": 7509,
      "▁gecik": 7510,
      "umsal": 7511,
      "▁sec": 7512,
      "▁kilis": 7513,
      "▁sonunda": 7514,
      "▁uye": 7515,
      "▁borcu": 7516,
      "▁insana": 7517,
      "▁zafer": 7518,
      "▁arabalar": 7519,
      "undan": 7520,
      "▁sayıda": 7521,
      "▁bekle": 7522,
      "bur": 7523,
      "▁imz": 7524,
      "▁yavru": 7525,
      "▁belirtti": 7526,
      "luguna": 7527,
      "▁guv": 7528,
      "▁3/": 7529,
      "▁gul": 7530,
      "tıgını": 7531,
      "▁organ": 7532,
      "▁lob": 7533,
      "▁gonul": 7534,
      "▁kartı": 7535,
      "dık": 7536,
      "▁num": 7537,
      "ildi": 7538,
      "ıtma": 7539,
      "▁temizlikten": 7540,
      "▁haftanın": 7541,
      "▁numar": 7542,
      "▁ez": 7543,
      "manı": 7544,
      "eyi": 7545,
      "▁washington'a": 7546,
      "▁karayolu": 7547,
      "▁zap": 7548,
      "▁yaklasımı": 7549,
      "aseb": 7550,
      "lıgını": 7551,
      "▁verme": 7552,
      "▁yerin": 7553,
      "sman": 7554,
      "▁kayak": 7555,
      "▁kumandan": 7556,
      "▁7'den": 7557,
      "▁bur": 7558,
      "0000": 7559,
      "olog": 7560,
      "▁1990'da": 7561,
      "▁esv": 7562,
      "▁degerini": 7563,
      "r": 7564,
      "meldi": 7565,
      "▁adet": 7566,
      "▁tedar": 7567,
      "▁yetkili": 7568,
      "edigini": 7569,
      "▁meden": 7570,
      "fen": 7571,
      "▁oyku": 7572,
      "▁girisim": 7573,
      "▁naz": 7574,
      "▁parkı": 7575,
      "liyor": 7576,
      "▁musterileri": 7577,
      "mamak": 7578,
      "▁yaprak": 7579,
      "▁elinden": 7580,
      "▁karsı": 7581,
      "otuz": 7582,
      "yiz": 7583,
      "▁muhar": 7584,
      "▁domuz": 7585,
      "▁kayık": 7586,
      "▁ortaydi": 7587,
      "▁kardesi": 7588,
      "▁basına": 7589,
      "▁animasyonu": 7590,
      "▁sonu": 7591,
      "▁gelisim": 7592,
      "▁sosy": 7593,
      "ediklerini": 7594,
      "▁siyah": 7595,
      "▁yeterince": 7596,
      "▁osman": 7597,
      "madım": 7598,
      "▁icra": 7599,
      "mektedir": 7600,
      "lıgı": 7601,
      "ezi": 7602,
      "▁parayi": 7603,
      "rarak": 7604,
      "▁teh": 7605,
      "eticisi": 7606,
      "▁evlat": 7607,
      "isyon": 7608,
      "▁kalkan": 7609,
      "likle": 7610,
      "▁calısması": 7611,
      "tak": 7612,
      "▁yetkilileri": 7613,
      "cinin": 7614,
      "▁tekne": 7615,
      "▁dov": 7616,
      "t": 7617,
      "onun": 7618,
      "▁gibi": 7619,
      "▁odanın": 7620,
      "▁hissesi": 7621,
      "▁edebilir": 7622,
      "isiyle": 7623,
      "▁donemlerde": 7624,
      "▁sos": 7625,
      "▁ulas": 7626,
      "▁abon": 7627,
      "▁sehir": 7628,
      "▁muhareb": 7629,
      "liye": 7630,
      "▁icinde": 7631,
      "▁1/2": 7632,
      "▁ben": 7633,
      "▁3.": 7634,
      "ısının": 7635,
      "▁yang": 7636,
      "▁semp": 7637,
      "▁evlerin": 7638,
      "▁tarih": 7639,
      "▁mektubu": 7640,
      "ceyr": 7641,
      "abileceg": 7642,
      "aklık": 7643,
      "▁dik": 7644,
      "▁hastalık": 7645,
      "▁sen": 7646,
      "▁teori": 7647,
      "▁memlekette": 7648,
      "▁bulmak": 7649,
      "▁salonu": 7650,
      "▁hastal": 7651,
      "▁planını": 7652,
      "▁sabır": 7653,
      "▁ucuz": 7654,
      "▁eksikligi": 7655,
      "▁gozlerim": 7656,
      "▁parkın": 7657,
      "ne": 7658,
      "'ten": 7659,
      "▁dakik": 7660,
      "▁basbak": 7661,
      "▁bilmem": 7662,
      "▁duskun": 7663,
      "▁kef": 7664,
      "lusu": 7665,
      "▁para": 7666,
      "otte": 7667,
      "▁attı": 7668,
      "▁acıldı": 7669,
      "ırken": 7670,
      "▁begen": 7671,
      "▁tram": 7672,
      "yanın": 7673,
      "▁kos": 7674,
      "▁dom": 7675,
      "uyor": 7676,
      "ac": 7677,
      "▁roportaj": 7678,
      "▁pır": 7679,
      "lanma": 7680,
      "▁orta": 7681,
      "▁dislerini": 7682,
      "▁yılından": 7683,
      "ıf": 7684,
      "yas": 7685,
      "▁pesinden": 7686,
      "▁catı": 7687,
      "▁mit": 7688,
      "▁yapım": 7689,
      "lamayı": 7690,
      "and": 7691,
      "▁seyden": 7692,
      "alıgı": 7693,
      "▁argum": 7694,
      "▁bagır": 7695,
      "▁ilgi": 7696,
      "▁bicimi": 7697,
      "▁maddes": 7698,
      "▁getir": 7699,
      "▁komp": 7700,
      "▁insan": 7701,
      "▁evet": 7702,
      "▁geregi": 7703,
      "▁pilotlar": 7704,
      "urdu": 7705,
      "▁yuzme": 7706,
      "▁teklifler": 7707,
      "▁tr": 7708,
      "elen": 7709,
      "▁bankacılık": 7710,
      "▁ec": 7711,
      "▁rahat": 7712,
      "ızın": 7713,
      "▁arada": 7714,
      "cıları": 7715,
      "ınc": 7716,
      "▁sov": 7717,
      "▁alt": 7718,
      "▁adımlarla": 7719,
      "▁secenek": 7720,
      "▁kah": 7721,
      "▁kurallar": 7722,
      "▁degisiklik": 7723,
      "▁goze": 7724,
      "▁ulasım": 7725,
      "▁safh": 7726,
      "▁gercek": 7727,
      "lık": 7728,
      "▁karar": 7729,
      "amıs": 7730,
      "▁div": 7731,
      "▁ge": 7732,
      "uluk": 7733,
      "▁milli": 7734,
      "▁gonl": 7735,
      "▁zarar": 7736,
      "ara": 7737,
      "▁arkadasim": 7738,
      "▁guc": 7739,
      "ulan": 7740,
      "▁anlayıs": 7741,
      "▁evla": 7742,
      "▁heps": 7743,
      "▁yardımı": 7744,
      "▁bay": 7745,
      "▁gercekles": 7746,
      "▁emniyet": 7747,
      "▁urunu": 7748,
      "▁calgı": 7749,
      "▁gos": 7750,
      "▁dogrusu": 7751,
      "▁esim": 7752,
      "ime": 7753,
      "▁sab": 7754,
      "▁past": 7755,
      "▁ı": 7756,
      "▁(": 7757,
      "▁hisselerin": 7758,
      "▁belg": 7759,
      "▁serg": 7760,
      "▁la": 7761,
      "▁yuzume": 7762,
      "▁memnunuz": 7763,
      "▁edeb": 7764,
      "▁ilgilendi": 7765,
      "▁pol": 7766,
      "sizligi": 7767,
      "ıkları": 7768,
      "aklı": 7769,
      "▁kalır": 7770,
      "izi": 7771,
      "▁yet": 7772,
      "▁an": 7773,
      "▁yi": 7774,
      "lug": 7775,
      "▁sent": 7776,
      "▁iliskisi": 7777,
      "▁gorusuldu": 7778,
      "iyer": 7779,
      "▁karak": 7780,
      "lanmıs": 7781,
      "edav": 7782,
      "▁tarafını": 7783,
      "▁orgut": 7784,
      "▁tıp": 7785,
      "aları": 7786,
      "mazlık": 7787,
      "▁mahkemesi": 7788,
      "▁yayın": 7789,
      "▁cab": 7790,
      "▁fran": 7791,
      "luge": 7792,
      "-": 7793,
      "uar": 7794,
      "▁sanki": 7795,
      "▁indian": 7796,
      "▁mahkum": 7797,
      "▁tesisti": 7798,
      "▁vet": 7799,
      "▁hasar": 7800,
      "▁dusmanı": 7801,
      "▁personellerinden": 7802,
      "▁teklif": 7803,
      "▁uslu": 7804,
      "cun": 7805,
      "▁problem": 7806,
      "▁hijyen": 7807,
      "land": 7808,
      "▁ongor": 7809,
      "ind": 7810,
      "▁ele": 7811,
      "▁pazarı": 7812,
      "▁fikr": 7813,
      "▁basından": 7814,
      "ram": 7815,
      "▁paylas": 7816,
      "▁tarım": 7817,
      "▁terk": 7818,
      "▁bor": 7819,
      "eder": 7820,
      "▁aktiviteler": 7821,
      "▁dallas": 7822,
      "▁sarsıntı": 7823,
      "▁davran": 7824,
      "lal": 7825,
      "▁uzerindeki": 7826,
      "▁zil": 7827,
      "elere": 7828,
      "lıgın": 7829,
      "▁cumartesi": 7830,
      "attle": 7831,
      "▁aralarında": 7832,
      "▁seyi": 7833,
      "lamaları": 7834,
      "▁rec": 7835,
      "madan": 7836,
      "amet": 7837,
      "▁kaybı": 7838,
      "▁kalitesini": 7839,
      "▁talim": 7840,
      "imi": 7841,
      "▁olaydan": 7842,
      "▁tuvalet": 7843,
      "▁gozu": 7844,
      "▁edilen": 7845,
      "▁basta": 7846,
      "2": 7847,
      "▁parm": 7848,
      "▁kendiniz": 7849,
      "▁kamyon": 7850,
      "▁tablo": 7851,
      "▁ameliyat": 7852,
      "▁malzemeleri": 7853,
      "irler": 7854,
      "digine": 7855,
      "▁v": 7856,
      "▁calısmak": 7857,
      "▁sezlon": 7858,
      "ilige": 7859,
      "▁mevzuat": 7860,
      "▁krem": 7861,
      "▁pab": 7862,
      "▁sabah": 7863,
      "▁zamanlarda": 7864,
      "▁kaldim": 7865,
      "dum": 7866,
      "▁ilg": 7867,
      "▁sayf": 7868,
      "▁gozune": 7869,
      "▁odedigim": 7870,
      "▁mukem": 7871,
      "▁duzelt": 7872,
      "▁profes": 7873,
      "▁dogru": 7874,
      "▁kimlik": 7875,
      "▁katil": 7876,
      "▁yil": 7877,
      "▁atol": 7878,
      "▁gayet": 7879,
      "▁ilav": 7880,
      "▁anlamına": 7881,
      "lige": 7882,
      "▁davayı": 7883,
      "▁savas": 7884,
      "▁tiyatro": 7885,
      "▁yolunu": 7886,
      "▁kalit": 7887,
      "▁taleb": 7888,
      "▁cekmek": 7889,
      "▁meyve": 7890,
      "▁kafasına": 7891,
      "sanız": 7892,
      "▁bilgisi": 7893,
      "amaz": 7894,
      "▁ihtir": 7895,
      "▁onceden": 7896,
      "▁haric": 7897,
      "turu": 7898,
      "go": 7899,
      "▁kotu": 7900,
      "▁yar": 7901,
      "▁metal": 7902,
      "▁fik": 7903,
      "layıp": 7904,
      "▁yaban": 7905,
      "▁kalıyor": 7906,
      "▁tarafta": 7907,
      "▁kost": 7908,
      "▁giysi": 7909,
      "▁katı": 7910,
      "▁cip": 7911,
      "▁sigara": 7912,
      "▁itir": 7913,
      "k": 7914,
      "▁ellerinden": 7915,
      "▁dir": 7916,
      "▁fig": 7917,
      "▁simdi": 7918,
      "usuyla": 7919,
      "▁sonuna": 7920,
      "▁ayı": 7921,
      "▁bilmiyorum": 7922,
      "▁olamaz": 7923,
      "ılmaya": 7924,
      "▁odun": 7925,
      "▁paket": 7926,
      "▁dikkate": 7927,
      "▁sovyetler": 7928,
      "lendirme": 7929,
      "▁olmaya": 7930,
      "▁odalardan": 7931,
      "▁bunu": 7932,
      "he": 7933,
      "ow": 7934,
      "amı": 7935,
      "▁tutar": 7936,
      "▁gobek": 7937,
      "▁vadede": 7938,
      "▁ajans": 7939,
      "usten": 7940,
      "▁noktası": 7941,
      "5'te": 7942,
      "▁rehber": 7943,
      "▁lok": 7944,
      "▁konu": 7945,
      "▁seydi": 7946,
      "▁dedi": 7947,
      "dig": 7948,
      "lulugu": 7949,
      "▁harcam": 7950,
      "▁yoktu": 7951,
      "▁aylarda": 7952,
      "▁yapması": 7953,
      "leket": 7954,
      "elik": 7955,
      "▁toront": 7956,
      "▁yonetic": 7957,
      "te": 7958,
      "erler": 7959,
      "▁mukemmel": 7960,
      "kah": 7961,
      "▁kulag": 7962,
      "▁etmiyor": 7963,
      "▁dukk": 7964,
      "▁iyil": 7965,
      "tıl": 7966,
      "▁reddet": 7967,
      "▁orani": 7968,
      "▁arabayı": 7969,
      "vi": 7970,
      "▁aldılar": 7971,
      "▁ya": 7972,
      "▁gerektir": 7973,
      "▁bebek": 7974,
      "▁ces": 7975,
      "▁kurul": 7976,
      "▁yuzunde": 7977,
      "ik": 7978,
      "▁lan": 7979,
      "▁ulke": 7980,
      "iya": 7981,
      "▁madde": 7982,
      "▁hanimla": 7983,
      "▁konus": 7984,
      "▁cur": 7985,
      "▁opsiyon": 7986,
      "▁ufak": 7987,
      "es": 7988,
      "▁calis": 7989,
      "taj": 7990,
      "▁dusunc": 7991,
      "▁\"": 7992,
      "▁getirisi": 7993,
      "▁ker": 7994,
      "ıgına": 7995,
      "egim": 7996,
      "▁ked": 7997,
      "kili": 7998,
      "▁aj": 7999,
      "▁versiyon": 8000,
      "▁bil": 8001,
      "▁alternatif": 8002,
      "▁seb": 8003,
      "esinde": 8004,
      "mızı": 8005,
      "▁sur": 8006,
      "▁istifa": 8007,
      "▁cekim": 8008,
      "▁amerik": 8009,
      "▁ins": 8010,
      "lastır": 8011,
      "▁mez": 8012,
      "bu": 8013,
      "antaj": 8014,
      "▁mumkun": 8015,
      "▁kurb": 8016,
      "▁mıy": 8017,
      "▁kisinin": 8018,
      "anlı": 8019,
      "imize": 8020,
      "▁kadr": 8021,
      "▁aile": 8022,
      "▁elbette": 8023,
      "erk": 8024,
      "▁oden": 8025,
      "▁senetlerinin": 8026,
      "cılıgın": 8027,
      "▁programını": 8028,
      "▁bilir": 8029,
      "▁karsıya": 8030,
      "ta": 8031,
      "▁birtak": 8032,
      "▁cercevesinde": 8033,
      "▁lezzeti": 8034,
      "▁yiyecekleri": 8035,
      "erhal": 8036,
      "▁heyec": 8037,
      "adıgını": 8038,
      "▁etmis": 8039,
      "▁duzeni": 8040,
      "▁planları": 8041,
      "▁evvel": 8042,
      "eligini": 8043,
      "▁cekti": 8044,
      "▁fırsatı": 8045,
      "▁neden": 8046,
      "▁kac": 8047,
      "▁huk": 8048,
      "▁rop": 8049,
      "▁hatır": 8050,
      "▁arkasından": 8051,
      "▁kalitesinden": 8052,
      "araj": 8053,
      "eli": 8054,
      "ıyordum": 8055,
      "▁bize": 8056,
      "▁havuzu": 8057,
      "▁pas": 8058,
      "▁otel": 8059,
      "▁borcun": 8060,
      "irim": 8061,
      "▁havaalanından": 8062,
      "▁dah": 8063,
      "▁1.5": 8064,
      "▁ah": 8065,
      "enden": 8066,
      "verdi": 8067,
      "▁tedbir": 8068,
      "▁feda": 8069,
      "ecektir": 8070,
      "▁alamadim": 8071,
      "ts": 8072,
      "▁cennet": 8073,
      "▁gore": 8074,
      "▁bagıs": 8075,
      "▁dernegi": 8076,
      "▁okum": 8077,
      "▁havayol": 8078,
      "▁reddetti": 8079,
      "▁ide": 8080,
      "usun": 8081,
      "tıs": 8082,
      "anoz": 8083,
      "ok": 8084,
      "▁saati": 8085,
      "▁ca": 8086,
      "▁bizim": 8087,
      "▁program": 8088,
      "air": 8089,
      "▁kek": 8090,
      "▁nih": 8091,
      "▁bazı": 8092,
      "laydi": 8093,
      "▁burokr": 8094,
      "▁ahır": 8095,
      "▁taksi": 8096,
      "▁halkla": 8097,
      "▁kıyıya": 8098,
      "amda": 8099,
      "▁fık": 8100,
      "▁onu": 8101,
      "dam": 8102,
      "▁zahmet": 8103,
      "amiza": 8104,
      "▁basladı": 8105,
      "▁cır": 8106,
      "▁devri": 8107,
      "▁ediyor": 8108,
      "▁eglenc": 8109,
      "▁yemegin": 8110,
      "▁lah": 8111,
      "enk": 8112,
      "abor": 8113,
      "▁fıs": 8114,
      "▁sonucları": 8115,
      "of": 8116,
      "▁itiraz": 8117,
      "▁isin": 8118,
      "ilendir": 8119,
      "▁erik": 8120,
      "▁prot": 8121,
      "▁hizmete": 8122,
      "▁ay": 8123,
      "▁30": 8124,
      "acagını": 8125,
      "▁ithal": 8126,
      "▁mutfak": 8127,
      "▁duz": 8128,
      "lerle": 8129,
      "!": 8130,
      "lari": 8131,
      "▁gel": 8132,
      "leyen": 8133,
      "▁hali": 8134,
      "▁op": 8135,
      "▁yazık": 8136,
      "▁airlin": 8137,
      "▁ederiz": 8138,
      "▁bilgileri": 8139,
      "az": 8140,
      "▁hata": 8141,
      "▁lezzetli": 8142,
      "▁muhalefet": 8143,
      "▁yuv": 8144,
      "▁hukumet": 8145,
      "▁sozleri": 8146,
      "▁adamın": 8147,
      "▁gelecekte": 8148,
      "▁hazırlan": 8149,
      "▁olmasi": 8150,
      "▁le": 8151,
      "▁araya": 8152,
      "▁ihtiyacları": 8153,
      "▁sigar": 8154,
      "▁sola": 8155,
      "▁piyasayı": 8156,
      "▁olmayacak": 8157,
      "inizin": 8158,
      "▁okulun": 8159,
      "▁vermeyi": 8160,
      "▁milyar": 8161,
      "▁baslan": 8162,
      "▁gerekc": 8163,
      "▁seviy": 8164,
      "▁olacaktır": 8165,
      "▁bunlardan": 8166,
      "▁kayn": 8167,
      "▁tedirgin": 8168,
      "▁tahvil": 8169,
      "▁kalkıs": 8170,
      "▁evren": 8171,
      "▁omur": 8172,
      "▁kesint": 8173,
      "▁iplik": 8174,
      "▁ogrenc": 8175,
      "▁sayısını": 8176,
      "▁herkesi": 8177,
      "▁sektoru": 8178,
      "▁doktora": 8179,
      "▁eyalet": 8180,
      "▁gordu": 8181,
      "▁telafi": 8182,
      "▁uretici": 8183,
      "▁yollarını": 8184,
      "▁herhalde": 8185,
      "▁oncesine": 8186,
      "mayın": 8187,
      "▁evleri": 8188,
      "▁baslamak": 8189,
      "sur": 8190,
      "▁rica": 8191
    },
    "merges": [
      [
        "▁islem",
        "lerin"
      ],
      [
        "lan",
        "ır"
      ],
      [
        "▁st",
        "at"
      ],
      [
        "▁gazet",
        "enin"
      ],
      [
        "tık",
        "tan"
      ],
      [
        "▁ger",
        "iye"
      ],
      [
        "m",
        "ayan"
      ],
      [
        "▁m",
        "ec"
      ],
      [
        "▁ay",
        "ar"
      ],
      [
        "▁ust",
        "u"
      ],
      [
        "▁memnun",
        "iyeti"
      ],
      [
        "d",
        "ık"
      ],
      [
        "▁bil",
        "in"
      ],
      [
        "▁b",
        "ıcak"
      ],
      [
        "ımız",
        "da"
      ],
      [
        "▁taraf",
        "tan"
      ],
      [
        "▁s",
        "ep"
      ],
      [
        "▁k",
        "el"
      ],
      [
        "▁bo",
        "yle"
      ],
      [
        "alar",
        "dan"
      ],
      [
        "▁mez",
        "ar"
      ],
      [
        "▁iy",
        "iye"
      ],
      [
        "▁cor",
        "ap"
      ],
      [
        "▁bir",
        "ini"
      ],
      [
        "ing",
        "ton"
      ],
      [
        "l",
        "uydu"
      ],
      [
        "▁it",
        "tif"
      ],
      [
        "▁kullan",
        "ım"
      ],
      [
        "▁ol",
        "us"
      ],
      [
        "l",
        "om"
      ],
      [
        "lı",
        "k"
      ],
      [
        "▁",
        "bi"
      ],
      [
        "▁gon",
        "l"
      ],
      [
        "▁an",
        "lay"
      ],
      [
        "▁et",
        "mez"
      ],
      [
        "▁utan",
        "c"
      ],
      [
        "▁boyle",
        "ce"
      ],
      [
        "▁dolar",
        "dan"
      ],
      [
        "▁nuf",
        "us"
      ],
      [
        "▁pos",
        "ta"
      ],
      [
        "▁ka",
        "lit"
      ],
      [
        "▁or",
        "ta"
      ],
      [
        "▁sa",
        "c"
      ],
      [
        "etti",
        "m"
      ],
      [
        "a",
        "bil"
      ],
      [
        "▁cor",
        "p"
      ],
      [
        "▁mu",
        "h"
      ],
      [
        "k",
        "ah"
      ],
      [
        "▁kil",
        "it"
      ],
      [
        "▁dos",
        "y"
      ],
      [
        "▁",
        "tem"
      ],
      [
        "▁a",
        ".m"
      ],
      [
        "▁n",
        "uf"
      ],
      [
        "imiz",
        "da"
      ],
      [
        "lıg",
        "ımı"
      ],
      [
        "▁amerik",
        "an"
      ],
      [
        "▁ol",
        "an"
      ],
      [
        "▁finans",
        "man"
      ],
      [
        "▁ol",
        "gu"
      ],
      [
        "▁f",
        "i"
      ],
      [
        "o",
        "s"
      ],
      [
        "▁bi",
        "r"
      ],
      [
        "gı",
        "t"
      ],
      [
        "▁bug",
        "day"
      ],
      [
        "s",
        "em"
      ],
      [
        "▁ener",
        "j"
      ],
      [
        "d",
        "as"
      ],
      [
        "▁fr",
        "ansız"
      ],
      [
        "▁",
        "lam"
      ],
      [
        "▁men",
        "dil"
      ],
      [
        "▁an",
        "la"
      ],
      [
        "▁yan",
        "ında"
      ],
      [
        "▁il",
        "isk"
      ],
      [
        "▁d",
        "ah"
      ],
      [
        "▁gorun",
        "use"
      ],
      [
        "▁bah",
        "ce"
      ],
      [
        "▁gun",
        "ler"
      ],
      [
        "▁cek",
        "ic"
      ],
      [
        "▁dep",
        "art"
      ],
      [
        "d",
        "ir"
      ],
      [
        "▁ciz",
        "g"
      ],
      [
        "a",
        "mıs"
      ],
      [
        "0",
        "-"
      ],
      [
        "▁kar",
        "g"
      ],
      [
        "▁b",
        "ası"
      ],
      [
        "▁muh",
        "ar"
      ],
      [
        "▁gec",
        "ti"
      ],
      [
        "▁cir",
        "o"
      ],
      [
        "▁kr",
        "em"
      ],
      [
        "▁tasar",
        "ruf"
      ],
      [
        "▁emek",
        "lilik"
      ],
      [
        "▁siyas",
        "i"
      ],
      [
        "▁laz",
        "ım"
      ],
      [
        "▁bu",
        "y"
      ],
      [
        "m",
        "e"
      ],
      [
        "▁k",
        "ır"
      ],
      [
        "▁hakk",
        "ında"
      ],
      [
        "▁bek",
        "len"
      ],
      [
        "▁tan",
        "esi"
      ],
      [
        "▁bera",
        "ber"
      ],
      [
        "▁b",
        "era"
      ],
      [
        "▁bab",
        "ama"
      ],
      [
        "▁n",
        "eh"
      ],
      [
        "▁t",
        "oz"
      ],
      [
        "▁soy",
        "len"
      ],
      [
        "ist",
        "en"
      ],
      [
        "▁gi",
        "d"
      ],
      [
        "ind",
        "e"
      ],
      [
        "l",
        "o"
      ],
      [
        "▁is",
        "inin"
      ],
      [
        "an",
        "k"
      ],
      [
        "▁f",
        "uz"
      ],
      [
        "▁dov",
        "iz"
      ],
      [
        "ok",
        "s"
      ],
      [
        "▁olm",
        "asına"
      ],
      [
        "▁olma",
        "dıgını"
      ],
      [
        "▁d",
        "uv"
      ],
      [
        "▁kars",
        "ılıgı"
      ],
      [
        "7",
        "5"
      ],
      [
        "▁kor",
        "k"
      ],
      [
        "▁top",
        "r"
      ],
      [
        "▁m",
        "ed"
      ],
      [
        "▁im",
        "am"
      ],
      [
        "▁kar",
        "ar"
      ],
      [
        "▁geldi",
        "gini"
      ],
      [
        "▁top",
        "arlan"
      ],
      [
        "▁oda",
        "ya"
      ],
      [
        "eceg",
        "ini"
      ],
      [
        "▁ir",
        "ade"
      ],
      [
        "▁ail",
        "enin"
      ],
      [
        "▁tav",
        "siye"
      ],
      [
        "▁sav",
        "as"
      ],
      [
        "▁c",
        "un"
      ],
      [
        "ası",
        "yla"
      ],
      [
        "▁guler",
        "yuzlu"
      ],
      [
        "▁say",
        "gı"
      ],
      [
        "▁t",
        "amam"
      ],
      [
        "▁bul",
        "un"
      ],
      [
        "m",
        "al"
      ],
      [
        "▁sonuc",
        "ların"
      ],
      [
        "z",
        "e"
      ],
      [
        "▁o",
        "larak"
      ],
      [
        "▁korum",
        "ak"
      ],
      [
        "▁kullan",
        "ıyor"
      ],
      [
        "▁beklen",
        "ti"
      ],
      [
        "et",
        "i"
      ],
      [
        "'",
        "ta"
      ],
      [
        "▁sirk",
        "et"
      ],
      [
        "▁protest",
        "o"
      ],
      [
        "▁yo",
        "ktur"
      ],
      [
        "▁v",
        "az"
      ],
      [
        "▁ister",
        "im"
      ],
      [
        "▁a",
        "lama"
      ],
      [
        "▁ken",
        "t"
      ],
      [
        "▁derec",
        "ede"
      ],
      [
        "▁ka",
        "rı"
      ],
      [
        "▁ann",
        "esinin"
      ],
      [
        "▁a",
        "kt"
      ],
      [
        "▁kadın",
        "a"
      ],
      [
        "e",
        "gi"
      ],
      [
        "▁degerlendir",
        "meye"
      ],
      [
        "ecek",
        "leri"
      ],
      [
        "▁kend",
        "ine"
      ],
      [
        "lar",
        "ındaki"
      ],
      [
        "at",
        "lar"
      ],
      [
        "i",
        "sk"
      ],
      [
        "e",
        "bil"
      ],
      [
        "ya",
        "cak"
      ],
      [
        "▁k",
        "os"
      ],
      [
        "l",
        "ık"
      ],
      [
        "▁goz",
        "lerinin"
      ],
      [
        "▁is",
        "le"
      ],
      [
        "▁par",
        "lam"
      ],
      [
        "▁k",
        "af"
      ],
      [
        "5'",
        "e"
      ],
      [
        "lam",
        "ak"
      ],
      [
        "▁g",
        "ev"
      ],
      [
        "▁ası",
        "rı"
      ],
      [
        "▁ail",
        "eye"
      ],
      [
        "ı",
        "k"
      ],
      [
        "▁ed",
        "il"
      ],
      [
        "▁sevg",
        "il"
      ],
      [
        "▁vaz",
        "gec"
      ],
      [
        "▁k",
        "ul"
      ],
      [
        "▁...",
        "\""
      ],
      [
        "eg",
        "inden"
      ],
      [
        "▁on",
        "emli"
      ],
      [
        "▁eg",
        "em"
      ],
      [
        "lı",
        "lar"
      ],
      [
        "▁yur",
        "um"
      ],
      [
        "▁9",
        "'dan"
      ],
      [
        "▁yaz",
        "arı"
      ],
      [
        "▁uygul",
        "amaları"
      ],
      [
        "▁im",
        "aj"
      ],
      [
        "▁at",
        "ıs"
      ],
      [
        "▁ilgis",
        "izdi"
      ],
      [
        "▁t",
        "ef"
      ],
      [
        "▁soh",
        "ret"
      ],
      [
        "▁..",
        "."
      ],
      [
        "▁sah",
        "is"
      ],
      [
        "▁s",
        "m"
      ],
      [
        "▁ger",
        "ek"
      ],
      [
        "▁ol",
        "duk"
      ],
      [
        "ti",
        "a"
      ],
      [
        "i",
        "ran"
      ],
      [
        "▁c",
        "if"
      ],
      [
        "is",
        "ini"
      ],
      [
        "▁t",
        "ak"
      ],
      [
        "▁uc",
        "us"
      ],
      [
        "▁dok",
        "un"
      ],
      [
        "▁cumhurb",
        "askanı"
      ],
      [
        "▁var",
        "il"
      ],
      [
        "l",
        "as"
      ],
      [
        "▁dogr",
        "u"
      ],
      [
        "▁siz",
        "in"
      ],
      [
        "▁oy",
        "sa"
      ],
      [
        "▁ayr",
        "ı"
      ],
      [
        "sı",
        "z"
      ],
      [
        "▁gun",
        "es"
      ],
      [
        "▁aday",
        "ı"
      ],
      [
        "▁lı",
        "k"
      ],
      [
        "i",
        "z"
      ],
      [
        "▁agz",
        "ına"
      ],
      [
        "ya",
        "cag"
      ],
      [
        "▁se",
        "ans"
      ],
      [
        "▁ozel",
        "ligi"
      ],
      [
        "l",
        "av"
      ],
      [
        "▁icim",
        "den"
      ],
      [
        "ur",
        "lu"
      ],
      [
        "▁el",
        "lerinden"
      ],
      [
        "▁fiyat",
        "a"
      ],
      [
        "▁ac",
        "mak"
      ],
      [
        "▁basarı",
        "lı"
      ],
      [
        "▁fiyat",
        "ı"
      ],
      [
        "ast",
        "ır"
      ],
      [
        "▁bal",
        "ayi"
      ],
      [
        "▁d",
        "am"
      ],
      [
        "▁dav",
        "et"
      ],
      [
        "acag",
        "ı"
      ],
      [
        "▁yuk",
        "arı"
      ],
      [
        "▁",
        "ha"
      ],
      [
        "mis",
        "ler"
      ],
      [
        "▁m",
        "ev"
      ],
      [
        "▁goz",
        "leriyle"
      ],
      [
        "medi",
        "k"
      ],
      [
        "▁ogren",
        "ci"
      ],
      [
        "▁on",
        "ce"
      ],
      [
        "▁sor",
        "unun"
      ],
      [
        "▁sist",
        "em"
      ],
      [
        "▁kav",
        "ram"
      ],
      [
        "▁send",
        "ika"
      ],
      [
        "▁kur",
        "s"
      ],
      [
        "▁ede",
        "b"
      ],
      [
        "▁p",
        "olis"
      ],
      [
        "▁dem",
        "okr"
      ],
      [
        "▁diz",
        "gin"
      ],
      [
        "an",
        "lar"
      ],
      [
        "▁is",
        "yan"
      ],
      [
        "▁dom",
        "ates"
      ],
      [
        "os",
        "e"
      ],
      [
        "t",
        "em"
      ],
      [
        "▁sa",
        "m"
      ],
      [
        "s",
        "ız"
      ],
      [
        "▁us",
        "telik"
      ],
      [
        "▁ol",
        "abilecegini"
      ],
      [
        "▁get",
        "iri"
      ],
      [
        "▁on",
        "un"
      ],
      [
        "▁c",
        "uk"
      ],
      [
        "▁cor",
        "ba"
      ],
      [
        "▁fasul",
        "y"
      ],
      [
        "▁huc",
        "r"
      ],
      [
        "▁ma",
        "g"
      ],
      [
        "▁hareket",
        "e"
      ],
      [
        "m",
        "eli"
      ],
      [
        "▁univers",
        "it"
      ],
      [
        "▁hiz",
        "m"
      ],
      [
        "'n",
        "i"
      ],
      [
        "mel",
        "i"
      ],
      [
        "▁gol",
        "ge"
      ],
      [
        "el",
        "likle"
      ],
      [
        "▁il",
        "er"
      ],
      [
        "▁m",
        "eden"
      ],
      [
        "▁n",
        "orm"
      ],
      [
        "▁sal",
        "ınc"
      ],
      [
        "▁olay",
        "dan"
      ],
      [
        "ur",
        "t"
      ],
      [
        "▁d",
        "est"
      ],
      [
        "▁sub",
        "at"
      ],
      [
        "al",
        "an"
      ],
      [
        "▁yap",
        "tıgını"
      ],
      [
        "i",
        "da"
      ],
      [
        "▁iz",
        "n"
      ],
      [
        "▁bir",
        "imi"
      ],
      [
        "▁yanl",
        "ıs"
      ],
      [
        "▁son",
        "unda"
      ],
      [
        "▁m",
        "is"
      ],
      [
        "▁ot",
        "esinde"
      ],
      [
        "▁olma",
        "y"
      ],
      [
        "▁ne",
        "f"
      ],
      [
        "▁h",
        "el"
      ],
      [
        "▁karsı",
        "lastır"
      ],
      [
        "y",
        "dı"
      ],
      [
        "▁kab",
        "il"
      ],
      [
        "▁tah",
        "mini"
      ],
      [
        "▁kul",
        "ag"
      ],
      [
        "▁pl",
        "anın"
      ],
      [
        "▁t",
        "om"
      ],
      [
        "is",
        "ah"
      ],
      [
        "▁lezz",
        "etli"
      ],
      [
        "▁p",
        "ad"
      ],
      [
        "▁",
        "erik"
      ],
      [
        "▁ge",
        "z"
      ],
      [
        "eda",
        "v"
      ],
      [
        "▁iy",
        "ilik"
      ],
      [
        "la",
        "di"
      ],
      [
        "▁rehber",
        "lik"
      ],
      [
        "▁do",
        "gr"
      ],
      [
        "ar",
        "da"
      ],
      [
        "▁fiyat",
        "landır"
      ],
      [
        "el",
        "iydi"
      ],
      [
        "lem",
        "esi"
      ],
      [
        "len",
        "en"
      ],
      [
        "▁yur",
        "ut"
      ],
      [
        "ar",
        "alı"
      ],
      [
        "ladı",
        "m"
      ],
      [
        "os",
        "t"
      ],
      [
        "▁",
        "et"
      ],
      [
        "▁komisyon",
        "lar"
      ],
      [
        "et",
        "re"
      ],
      [
        "▁l",
        "ake"
      ],
      [
        "▁yuk",
        "s"
      ],
      [
        "▁trans",
        "fer"
      ],
      [
        "▁s",
        "ur"
      ],
      [
        "len",
        "iyor"
      ],
      [
        "▁olm",
        "ayı"
      ],
      [
        "▁yuz",
        "ume"
      ],
      [
        "▁sefer",
        "inde"
      ],
      [
        "▁sekret",
        "er"
      ],
      [
        "r",
        "et"
      ],
      [
        "▁ceyrek",
        "te"
      ],
      [
        "▁ca",
        "m"
      ],
      [
        "s",
        "an"
      ],
      [
        "ir",
        "di"
      ],
      [
        "am",
        "da"
      ],
      [
        "▁e",
        "den"
      ],
      [
        "▁k",
        "ar"
      ],
      [
        "▁cesi",
        "di"
      ],
      [
        "▁soy",
        "l"
      ],
      [
        "▁dam",
        "la"
      ],
      [
        "▁",
        "im"
      ],
      [
        "in",
        "n"
      ],
      [
        "▁ekip",
        "man"
      ],
      [
        "▁kal",
        "ab"
      ],
      [
        "ımız",
        "ın"
      ],
      [
        "▁istem",
        "iyorum"
      ],
      [
        "k",
        "et"
      ],
      [
        "▁sig",
        "ort"
      ],
      [
        "▁par",
        "ayı"
      ],
      [
        "▁duy",
        "gu"
      ],
      [
        "▁du",
        "m"
      ],
      [
        "▁hiss",
        "e"
      ],
      [
        "▁acık",
        "ladı"
      ],
      [
        "▁dagıt",
        "ım"
      ],
      [
        "▁mem",
        "phis"
      ],
      [
        "ıl",
        "ıgı"
      ],
      [
        "▁edil",
        "iyor"
      ],
      [
        "ar",
        "lan"
      ],
      [
        "▁or",
        "aya"
      ],
      [
        "▁yap",
        "ıl"
      ],
      [
        "▁olma",
        "lı"
      ],
      [
        "▁h",
        "ır"
      ],
      [
        "d",
        "ev"
      ],
      [
        "▁bas",
        "ta"
      ],
      [
        "▁gok",
        "yuz"
      ],
      [
        "'",
        "u"
      ],
      [
        "▁ingil",
        "iz"
      ],
      [
        "▁goz",
        "lerinden"
      ],
      [
        "ama",
        "k"
      ],
      [
        "▁say",
        "ısını"
      ],
      [
        "▁azal",
        "t"
      ],
      [
        "▁",
        "'"
      ],
      [
        "m",
        "er"
      ],
      [
        "▁t",
        "o"
      ],
      [
        "c",
        "ılıgı"
      ],
      [
        "re",
        "et"
      ],
      [
        "og",
        "lu"
      ],
      [
        "ler",
        "iyle"
      ],
      [
        "ı",
        "rı"
      ],
      [
        "▁ab",
        "lam"
      ],
      [
        "▁sev",
        "er"
      ],
      [
        "▁",
        "za"
      ],
      [
        "▁men",
        "s"
      ],
      [
        "▁e",
        "b"
      ],
      [
        "▁ol",
        "dukca"
      ],
      [
        "▁gun",
        "ah"
      ],
      [
        "an",
        "lara"
      ],
      [
        "▁cıg",
        "lık"
      ],
      [
        "▁ard",
        "ına"
      ],
      [
        "▁tel",
        "ef"
      ],
      [
        "▁tahvil",
        "lerin"
      ],
      [
        "▁k",
        "l"
      ],
      [
        "▁sov",
        "yet"
      ],
      [
        "ıg",
        "ına"
      ],
      [
        "▁top",
        "u"
      ],
      [
        "▁soru",
        "lar"
      ],
      [
        "▁kısk",
        "anc"
      ],
      [
        "▁kır",
        "aat"
      ],
      [
        "▁ed",
        "ebil"
      ],
      [
        "▁du",
        "dak"
      ],
      [
        "▁prot",
        "okol"
      ],
      [
        "cu",
        "ları"
      ],
      [
        "▁e",
[...]
